на 4701933
. 4408826
, 4172187
и 2596758
в 2122237
е 2003617
от 1472691
с 1123085
се 1017772
( 964235
) 964196
за 947225
@-@ 862337
да 755001
ва 702058
„ 677459
“ 671893
&quot; 646002
ни 614039
на@@ 605709
н 572062
за@@ 569841
с@@ 560698
т 558516
но 556889
по@@ 546743
са 533403
о@@ 532347
из@@ 511604
л@@ 504157
ка 500649
ли@@ 496603
г 496342
л 495672
ната 486966
съ@@ 486684
по 469055
ните 457813
ре@@ 451563
– 441593
р 433160
ри@@ 417475
ски 412020
г. 410489
е@@ 405470
ния 404796
у@@ 401853
като 391959
си 385785
през 383030
й@@ 374694
ле@@ 369075
С@@ 366476
ни@@ 365727
ко@@ 364883
ти@@ 351484
но@@ 349150
не@@ 349051
в@@ 346670
та 342372
до@@ 338066
т@@ 337088
пре@@ 335130
ро@@ 334993
де@@ 334034
ват 325481
ви@@ 319689
д@@ 317397
ка@@ 316368
а 315224
ра@@ 314842
к 314409
А@@ 313254
ма@@ 310745
н@@ 306098
м@@ 302118
я 298529
ска 293939
си@@ 293066
б@@ 292267
ди@@ 291945
г@@ 287952
а@@ 287412
от@@ 287378
до 287365
к@@ 284889
ми@@ 281311
ли 274767
з@@ 274630
ската 272695
ра 270969
те@@ 268630
д 266466
К@@ 266371
ва@@ 266268
се@@ 266191
година 265319
ла 260831
не 258922
Е@@ 257839
ла@@ 255931
п@@ 255221
я@@ 255014
През 254786
мо@@ 254409
х@@ 253668
О@@ 252987
при@@ 252488
го@@ 252298
ве@@ 250683
ло@@ 249913
В 246603
ки 245871
м 244670
раз@@ 236406
ти 236267
му 235576
ите 235502
ж@@ 235314
ш@@ 231602
то@@ 231411
па@@ 230299
об@@ 230115
ри 230091
ч@@ 229875
ят 226379
ция 223980
и@@ 223637
че@@ 220574
би@@ 219331
про@@ 218646
ата 218550
че 217321
Д@@ 216367
ля@@ 214793
бо@@ 213371
та@@ 211095
ст@@ 209300
Б@@ 208902
ме@@ 208562
ното 203914
: 197731
ма 195882
о 195231
бе@@ 193719
ята 193019
сти@@ 192933
га 192282
ския 190422
ство 189785
ване 188623
ър@@ 187275
ъ@@ 185862
р@@ 183888
ан@@ 183667
то 182367
пе@@ 181356
ст 180886
да@@ 180754
ен@@ 180336
ката 179103
сто@@ 177688
ф@@ 176849
Т@@ 176784
В@@ 175636
й 170621
во@@ 169854
У@@ 167917
П@@ 167773
ин@@ 167091
пи@@ 166053
ци 162882
ви 161483
га@@ 160975
М@@ 160877
ник 160459
ът 159842
зи@@ 159493
ко 158570
ност 157694
И@@ 157359
со@@ 156834
ку@@ 156603
ър 154692
ди 154486
това 153740
ето 153163
ста@@ 152706
към 152144
ските 151407
ба@@ 150926
ал@@ 147883
ло 147831
които 145558
ю@@ 145373
въ@@ 145361
или 144823
под@@ 144410
ру@@ 144225
ар@@ 143634
лен 143163
ско 142601
най 141772
при 140127
който 139249
след 138804
ството 136913
Г@@ 136550
ду@@ 136311
ръ@@ 136147
во 134066
ден 132392
вата 131919
чи@@ 131282
са@@ 130394
На 130040
Ка@@ 129231
Ко@@ 129119
нието 128932
ването 127917
те 127307
Ф@@ 127156
ц@@ 127034
гра@@ 126630
хо@@ 126098
По@@ 124938
ени 124449
ци@@ 122792
ор@@ 122567
фон 122444
във 122270
; 122009
ми 121151
вен 120980
рия 120532
Х@@ 119805
въз@@ 119376
има 118651
Н@@ 117343
ча@@ 117097
ги@@ 116556
ту@@ 113243
ки@@ 112900
ер@@ 112653
кон@@ 112102
зе@@ 111210
ве 110176
част 108863
време 108559
Ма@@ 108336
ца 107733
ние 106727
це@@ 106328
На@@ 106004
ща 105563
ското 105371
лно 105086
Р@@ 104670
ства 104501
же@@ 103661
която 103253
пред@@ 102892
щ@@ 102811
ният 102556
2 102328
години 102311
З@@ 101476
ек@@ 101380
1 101321
цията 101282
След 100902
което 100811
град 100207
вър@@ 98687
със 96818
той 94887
ба 94122
Се@@ 93777
ници 93684
Ан@@ 92732
Съ@@ 92698
ше@@ 92695
ге@@ 92618
става 92360
го 92347
рата 92235
лу@@ 90050
лия 89756
зо@@ 89683
Ви@@ 89570
мата 88379
ител@@ 87747
су@@ 87740
ит@@ 87680
рите 86985
гу@@ 86944
къ@@ 86738
ман@@ 86705
ат@@ 86591
стве@@ 86467
п 86401
мен@@ 86350
щ 86325
пу@@ 86215
ките 85393
фи@@ 85294
ск@@ 85258
ц 85252
век 84989
вете 84757
хи@@ 84704
Бо@@ 84028
з 84009
ак@@ 83763
За@@ 82850
Л@@ 82734
стра@@ 82046
По 81564
лите 81330
жи@@ 81071
кра@@ 80876
Са@@ 80038
Из@@ 80007
сте@@ 79446
/ 79319
лъ@@ 78672
Ре@@ 78154
бу@@ 78151
щата 77990
ците 77955
ля 77945
3 77670
лни 77620
пър@@ 77393
он@@ 77075
България 77025
бра@@ 76630
дъл@@ 76479
Па@@ 76350
чен 76349
бро@@ 76249
лна 76030
Ха@@ 75919
между 75833
гла@@ 75800
рат 75534
ъл@@ 74876
жда 74813
ции 74578
около 74438
ява 74243
х 74204
нията 73962
5 73903
мъ@@ 73780
ността 73636
доб@@ 73599
много 73355
фа@@ 73280
пъ@@ 73056
16@@ 72998
нен 72622
ран@@ 72557
ги 72233
От 71908
ря@@ 71667
им 71235
би 71208
Той 71107
Ц@@ 70179
българ@@ 70158
село 70089
Та@@ 69847
Ми@@ 69767
жа@@ 69681
зна@@ 69603
ня@@ 69489
ен 68925
три@@ 68907
То@@ 68864
у 68599
ще 68457
Не@@ 67885
4 67792
ч 67758
зи 67426
където 67424
ита@@ 67237
† 67096
вой@@ 66928
17@@ 66644
може 66501
жи 66238
ѝ 66111
фе@@ 66073
ав@@ 65973
мал@@ 65897
вия 65749
лата 65708
ке@@ 65636
един 65634
жение 65605
Пър@@ 65548
ши@@ 65501
15@@ 65407
кри@@ 65086
спо@@ 64823
щи 64822
създа@@ 64214
йски 64013
тре@@ 63338
дру@@ 63152
града 63094
род@@ 63033
нов 63003
Ба@@ 62876
ате@@ 62743
еди@@ 62657
сти 62530
ено 62331
Ш@@ 62328
рен 62068
война 61890
му@@ 61835
чни 61445
кан@@ 61414
както 61390
други 61230
тур@@ 60435
6 60219
ха@@ 60135
дър@@ 60108
стро@@ 60059
също 60055
вто@@ 59995
под 59816
вя@@ 59490
ет@@ 59298
ча 59152
фор@@ 58872
ща@@ 58813
тър@@ 58600
Де@@ 58506
С 58420
Ю@@ 58403
Те@@ 58339
ф 58038
он 57903
кар@@ 57780
цата 57778
дена 57314
жа 57280
него@@ 57232
чески 56838
бург 56632
ро 56626
ос@@ 56542
Про@@ 56482
този 56050
фил@@ 55785
ати@@ 55593
Ро@@ 55354
ж 55337
ден@@ 54966
ран 54944
вид 54577
Ме@@ 54438
поло@@ 54369
започва 54362
све@@ 54322
вла@@ 54128
13@@ 54074
Ру@@ 53957
Лу@@ 53855
основ@@ 53717
пар@@ 53590
ниче@@ 53561
тен 53286
чно 53191
сла@@ 53147
дей@@ 53128
чи 53076
Си@@ 53040
уч@@ 52932
късно 52818
I 52815
ще@@ 52645
До@@ 52555
край@@ 52471
14@@ 52370
само 52347
пъл@@ 52344
що 52274
Ч@@ 52137
сред@@ 51992
чо@@ 51918
стта 51813
ван 51546
ста 51502
включ@@ 51445
Мар@@ 51422
ан 51377
тя 51358
края 51332
Ку@@ 51259
кръ@@ 51202
сво@@ 51202
още 51192
източ@@ 51155
ша@@ 51040
град@@ 51031
жда@@ 51018
Ле@@ 51014
вите 50974
Ли@@ 50908
два 50752
7 50524
20 50458
де 50371
мет@@ 50368
ера 50319
пла@@ 50242
послед@@ 50211
За 49958
цион@@ 49883
10 49841
ш 49645
гле@@ 49526
души 49522
Ар@@ 49484
над 49484
сре@@ 49419
точ@@ 49375
него 49244
II 49217
Мо@@ 49202
хе@@ 49184
оби@@ 48953
лек@@ 48840
гово@@ 48839
дви@@ 48835
ска@@ 48831
продъл@@ 48823
тъ@@ 48693
чу@@ 48432
път 48367
мор@@ 48328
фо@@ 48254
пло@@ 48152
ително 48055
лан@@ 48043
8 47954
ну@@ 47900
една 47892
вод@@ 47803
хра@@ 47539
срещу 47453
Ж@@ 47297
.@@ 47191
пол@@ 47191
жени 47085
ител 47074
Бе@@ 46979
ско@@ 46950
Ин@@ 46853
Го@@ 46784
ато@@ 46761
кул@@ 46724
лото 46677
Ал@@ 46672
ков 46667
Пре@@ 46557
Йо@@ 46505
б 46434
така 46426
тура 46384
когато 46124
Ра@@ 46118
сен 46116
ем@@ 46109
m 45728
ур@@ 45714
извест@@ 45704
след@@ 45654
Биография 45618
пис@@ 45609
ница 45553
Я@@ 45490
пра@@ 45454
вен@@ 45207
мо 45191
тно 45185
оръ@@ 45006
мия 44987
граф 44910
жен 44875
български 44851
откри@@ 44841
началото 44834
изда@@ 44788
мест@@ 44661
ският 44456
ха 44383
няколко 44373
чна 44229
всички 44215
ене@@ 44195
селото 44078
3@@ 43948
Об@@ 43895
пер@@ 43864
лен@@ 43850
им@@ 43719
тра@@ 43603
кла@@ 43540
ман 43448
плани@@ 43439
Ки@@ 43358
жава 43318
Раз@@ 43293
Ва@@ 43132
ган@@ 43079
9 42921
гре@@ 42808
висо@@ 42769
us 42635
лич@@ 42507
разполо@@ 42368
вият 42357
зия 42281
шен 42179
мя@@ 42165
km 42134
семейство 42093
тя@@ 42003
мина@@ 41991
рани 41948
тях 41930
чер@@ 41848
авто@@ 41791
работ@@ 41765
слу@@ 41761
лю@@ 41703
над@@ 41638
ране 41622
воен@@ 41511
рията 41477
дени 41400
дан@@ 41146
река 41131
ите@@ 41075
12@@ 41054
Но@@ 40957
тан@@ 40952
мини@@ 40949
ця@@ 40910
ъм 40897
спе@@ 40877
запад@@ 40791
София 40768
ато 40631
рай@@ 40588
дия 40478
15 40444
ника 40387
па 40377
казва 40336
ните@@ 40336
две 40305
само@@ 40268
Ди@@ 40212
гата 40071
нов@@ 40020
истори@@ 39992
18@@ 39969
май 39887
септември 39788
При@@ 39747
Пе@@ 39695
вява 39594
представ@@ 39511
ита 39435
уни@@ 39427
ед@@ 39423
Би@@ 39418
американ@@ 39340
щите 39243
лин@@ 39189
Ла@@ 39022
нари@@ 38988
заедно 38916
роден 38902
Това 38793
май@@ 38734
рал@@ 38613
ком@@ 38572
мите 38566
сло@@ 38499
% 38472
вли@@ 38428
ьо@@ 38407
ров 38299
Хо@@ 38243
получава 38243
тро@@ 38195
лят 38169
тите 38144
кия 38035
дове 38011
тези 37996
нява 37992
12 37981
музи@@ 37916
място 37866
национа@@ 37839
йн 37684
ниците 37676
30 37637
дра@@ 37606
Га@@ 37593
тази 37588
живо@@ 37572
4@@ 37430
Да@@ 37423
стъп@@ 37361
Според 37335
берг 37300
- 37228
дъщеря 37223
Со@@ 37189
ема 37184
изпъл@@ 37184
вер@@ 37160
имат 36935
сия 36904
януари 36900
ев 36838
ков@@ 36722
Ве@@ 36664
Въ@@ 36554
намира 36478
октомври 36417
Пи@@ 36405
чение 36339
бър@@ 36335
дни 36181
САЩ 36174
преди 36133
върху 36100
дъ@@ 36089
юни 36035
нение 36010
свър@@ 35971
вания 35922
йн@@ 35891
юли 35861
терито@@ 35800
Ри@@ 35778
три 35703
нат 35693
стан@@ 35666
името 35665
август 35605
ата@@ 35601
мар@@ 35599
лет@@ 35553
лната 35494
различни 35461
Македония 35457
бъде 35404
тар@@ 35398
рав@@ 35225
сту@@ 35098
чрез 35074
ша 35073
март 35048
ности 34899
полу@@ 34887
ре 34882
Пет@@ 34775
област 34740
Ни@@ 34668
ждан@@ 34608
кни@@ 34600
мат 34599
април 34551
Дж@@ 34331
она@@ 34312
опреде@@ 34311
син 34266
йки 34257
гат 34198
близ@@ 34144
рен@@ 34124
отде@@ 34122
лага 34111
ноември 34096
тия 34095
Ло@@ 34010
вет@@ 33999
работи 33978
ь@@ 33958
десе@@ 33881
000 33852
декември 33827
община 33743
гъ@@ 33696
1@@ 33639
ген@@ 33530
вото 33464
съпру@@ 33462
сен@@ 33455
връ@@ 33451
тер@@ 33437
А 33421
кът 33356
рана 33354
ктор 33262
али@@ 33220
мили@@ 33109
мати@@ 32951
дава 32828
ход 32801
успе@@ 32699
прав@@ 32661
обя@@ 32465
История 32404
ней@@ 32400
&amp; 32371
ление 32249
защ@@ 32167
бор@@ 32131
16 32000
ани 31885
Бу@@ 31801
някои 31781
Во@@ 31746
държав@@ 31709
игра@@ 31641
голе@@ 31639
Кон@@ 31632
група 31630
преди@@ 31577
режи@@ 31542
публика 31523
дости@@ 31502
ити@@ 31484
18 31482
годиш@@ 31442
нски 31405
графи@@ 31375
2@@ 31347
често 31339
S@@ 31322
14 31288
мен 31254
тив@@ 31240
пове@@ 31157
чава 31117
стоя@@ 31094
11 31074
обще@@ 31044
К 31018
поли@@ 30940
стри@@ 30883
глав@@ 30852
От@@ 30851
нея 30675
произве@@ 30644
Гра@@ 30616
вани 30601
кора@@ 30537
вар@@ 30525
съю@@ 30506
При 30454
нето 30446
ся@@ 30375
III 30345
тни 30330
дя@@ 30300
управ@@ 30299
ме 30233
страната 30226
став@@ 30211
води 30201
голя@@ 30196
19 30043
Тя 30005
мира 30005
живе@@ 29992
25 29973
стъ@@ 29965
зан@@ 29935
Ав@@ 29896
прове@@ 29857
сел@@ 29833
побе@@ 29779
използва@@ 29760
държа@@ 29743
футбо@@ 29719
соци@@ 29713
гар@@ 29693
жена 29659
зва 29657
нове@@ 29639
февруари 29636
пор@@ 29628
5@@ 29619
тен@@ 29581
цио@@ 29569
граф@@ 29565
един@@ 29525
албу@@ 29522
остро@@ 29521
разпростра@@ 29488
стър 29417
гръц@@ 29415
вайки 29373
гро@@ 29362
оп@@ 29334
13 29230
кол@@ 29214
два@@ 29176
език 29141
Ста@@ 29127
ши 29112
цент@@ 29085
дж@@ 29028
вече 28857
од@@ 28821
зем@@ 28806
17 28787
Те 28782
присъ@@ 28760
обла@@ 28679
цен@@ 28607
Су@@ 28596
рин@@ 28592
бли@@ 28561
ално 28555
могат 28538
сред 28537
зва@@ 28534
сто 28495
ари 28491
гия 28479
следва@@ 28467
образ@@ 28445
ун@@ 28444
прави 28431
връща 28423
ход@@ 28404
поя@@ 28375
лов 28361
център 28359
щи@@ 28329
ца@@ 28258
пр.н.е. 28233
тин@@ 28229
иг@@ 28178
Ти@@ 28160
бре@@ 28140
империя 28105
кото 28105
минава 28103
ък 28088
запа@@ 28081
лиза 27998
вана 27946
ради 27932
постро@@ 27921
10@@ 27889
Вто@@ 27869
сле@@ 27847
бер@@ 27843
пле@@ 27815
она 27791
Димит@@ 27780
реди@@ 27780
тата 27756
бит@@ 27629
лния 27597
Разпространение 27587
бя@@ 27533
Видът 27505
повече 27477
ю 27430
университет 27389
Италия 27297
зват 27280
произ@@ 27269
ези@@ 27227
мла@@ 27196
завършва 27191
отново 27189
части 27176
чет@@ 27134
щия 27131
започ@@ 27130
Северна 27106
джи@@ 27075
кре@@ 27040
рът 27038
служ@@ 26973
50 26971
без 26956
ген 26894
бил 26873
ет 26869
сно 26819
използва 26813
лните 26797
син@@ 26785
прия@@ 26715
тът 26687
дина@@ 26665
Фи@@ 26641
вате@@ 26585
проек@@ 26568
дата 26523
участва 26522
лява 26521
нал 26521
Кар@@ 26517
страна 26500
тат 26474
жен@@ 26468
грани@@ 26433
лат@@ 26411
ня 26399
дер@@ 26376
дения 26361
ждат 26360
ствие 26335
кло@@ 26325
край 26312
уче@@ 26294
Му@@ 26219
едно 26190
Бер@@ 26133
ле 26115
жители 26062
юж@@ 26046
специ@@ 26045
семей@@ 25946
зат@@ 25938
училище 25903
6@@ 25897
Ос@@ 25870
населението 25720
правител@@ 25719
сезон 25636
височина 25635
наре@@ 25606
френ@@ 25605
бата 25567
пи 25544
Най 25536
отбо@@ 25528
вени 25508
чети@@ 25478
бан@@ 25436
поради 25428
Чер@@ 25425
мът 25417
собстве@@ 25405
писва 25353
органи@@ 25311
световна 25269
трябва 25269
револю@@ 25267
вра@@ 25253
име@@ 25184
първата 25182
ьор 25162
периода 25130
Сто@@ 25101
осно@@ 25059
9@@ 25050
политиче@@ 25037
писа@@ 24996
твър@@ 24972
нова 24959
Че@@ 24938
рането 24930
малко 24920
лов@@ 24860
тех@@ 24847
C@@ 24843
обаче 24839
все@@ 24838
юго@@ 24820
Александ@@ 24810
Ду@@ 24774
йския 24706
ители 24631
Фран@@ 24618
според 24602
изку@@ 24599
P@@ 24590
север@@ 24568
8@@ 24499
ред 24497
кт 24454
21 24452
зване 24450
&apos; 24428
име 24425
полити@@ 24404
сън 24365
голяма 24356
ена 24350
же 24339
пти@@ 24330
усп@@ 24329
разде@@ 24262
M@@ 24254
менти 24247
ристи@@ 24214
спи@@ 24184
щат 24175
вена 24167
бия 24148
струк@@ 24062
лена 24052
нася 24026
Германия 24019
тор 24015
лина 23988
изток 23963
годи@@ 23927
пен 23921
взе@@ 23897
7@@ 23854
анд@@ 23818
чев 23807
право@@ 23784
Бал@@ 23750
стите 23722
Франция 23716
ителите 23676
без@@ 23663
ер 23639
своя 23636
вал 23606
Хе@@ 23584
член 23574
Русия 23554
Българ@@ 23553
40 23551
кари@@ 23551
22 23539
нар@@ 23530
мент 23496
прин@@ 23486
О 23475
24 23472
ане 23450
съществу@@ 23427
пан@@ 23404
Фа@@ 23370
месе@@ 23354
стати@@ 23352
тру@@ 23326
резул@@ 23284
архи@@ 23254
армия 23232
лин 23209
нача@@ 23201
производ@@ 23165
особ@@ 23148
бъ@@ 23056
наслед@@ 22987
система 22939
умира 22939
Свети 22909
хар@@ 22892
лиза@@ 22873
кате@@ 22870
2010 22868
случа@@ 22803
подоб@@ 22781
дне@@ 22780
A@@ 22750
ологи@@ 22709
били 22683
* 22658
Хри@@ 22641
образу@@ 22587
северо@@ 22573
смъртта 22556
рих 22553
отно@@ 22549
чето 22546
диа@@ 22541
мон@@ 22537
връз@@ 22530
сп@@ 22517
реги@@ 22449
дол@@ 22441
км 22321
вели@@ 22299
поч@@ 22291
кова 22232
D@@ 22229
изпол@@ 22219
Нико@@ 22206
запад 22178
ваща 22143
нове 22142
общи@@ 22136
чните 22108
Ге@@ 22094
кто@@ 22067
Гърция 22025
2011 21996
idae 21951
кли@@ 21892
П 21879
нау@@ 21872
профе@@ 21862
църква 21839
уча@@ 21832
T@@ 21795
население 21785
23 21756
Иван 21738
Европа 21727
дел@@ 21720
тин 21714
жението 21713
L@@ 21697
ново 21632
имен@@ 21621
времен@@ 21588
сед@@ 21582
дар@@ 21565
Георги 21562
гите 21538
благо@@ 21536
жено 21535
Вар@@ 21492
Въпреки 21491
нови 21446
ални 21412
тов@@ 21371
мер@@ 21368
вонача@@ 21320
манасти@@ 21290
ел 21272
публи@@ 21271
англи@@ 21255
писате@@ 21230
свобо@@ 21213
логи@@ 21208
пред 21188
Ке@@ 21168
ото 21160
докато 21140
дво@@ 21133
едно@@ 21128
проце@@ 21117
днес 21103
участ@@ 21053
чат 21052
ати 21036
лиан@@ 21035
мир 21024
ров@@ 21019
върш@@ 20991
ланд@@ 20987
разли@@ 20985
жения 20979
гор@@ 20972
опера@@ 20914
чва 20890
Щ@@ 20887
еле@@ 20881
стре@@ 20881
мост 20868
тна 20865
ред@@ 20857
първи 20853
дат 20851
лището 20844
граждан@@ 20838
председате@@ 20835
чната 20810
вода 20799
Ор@@ 20791
ващи 20786
играе 20770
тиче@@ 20752
26 20751
H@@ 20727
Бра@@ 20701
ствено 20688
28 20655
60 20646
Мария 20626
ок@@ 20613
времето 20609
пише 20577
E@@ 20562
лица 20560
Лю@@ 20533
остров 20524
щайн 20503
рото 20501
деца 20496
изпра@@ 20493
Дже@@ 20483
отбор 20473
рабо@@ 20463
мат@@ 20448
сигур@@ 20399
херцо@@ 20387
циите 20368
лени 20366
Роден 20351
вся@@ 20350
B@@ 20348
тат@@ 20341
влия@@ 20340
27 20339
рак@@ 20332
Сте@@ 20321
вън@@ 20314
страни 20288
ключ@@ 20282
рий 20274
групата 20265
баща 20259
живот 20245
пат@@ 20237
тъй 20197
Констан@@ 20152
зира 20125
печели 20125
Све@@ 20115
це 20088
кар 20052
юр@@ 20033
Населението 20020
жина 20019
вет 20012
постав@@ 20012
класи@@ 20000
тогава 19988
големи 19931
ландия 19922
Кри@@ 19914
първия 19902
вят 19895
стен 19892
света 19848
лд 19847
ше 19837
чина 19829
яват 19808
сили 19769
крал 19762
възра@@ 19756
период 19719
позна@@ 19712
клю@@ 19693
теат@@ 19659
окръг 19656
пози@@ 19645
дите 19632
род 19613
дате@@ 19609
йската 19607
кс 19601
ради@@ 19595
e 19581
Ту@@ 19554
нами@@ 19553
рано 19553
стои 19536
вета 19504
вест@@ 19502
80 19500
метра 19500
развити@@ 19483
Фили@@ 19482
съще@@ 19480
тел 19476
ква@@ 19460
остава 19414
каз@@ 19411
Южна 19408
публику@@ 19394
общ@@ 19385
офици@@ 19383
труд@@ 19382
яването 19361
брат 19347
ръковод@@ 19320
Мак@@ 19314
кновено 19301
писание 19301
църк@@ 19290
Васи@@ 19269
стру@@ 19258
рим@@ 19256
мно 19249
Има 19226
герман@@ 19192
сце@@ 19177
догово@@ 19157
бар@@ 19139
мож@@ 19082
G@@ 19063
Дру@@ 19040
ян@@ 19032
провинция 19018
жан@@ 18997
вре@@ 18991
дире@@ 18983
раст@@ 18961
спор@@ 18931
мъж@@ 18899
N@@ 18854
вина 18848
програ@@ 18844
X@@ 18838
2000 18822
първите 18808
треш@@ 18771
др 18715
войната 18709
йска 18668
Хи@@ 18651
сни 18646
рии 18639
бъдат 18629
s 18625
Национа@@ 18604
посо@@ 18589
кси@@ 18577
тото 18551
изслед@@ 18546
известен 18538
ъра 18526
широ@@ 18515
кур@@ 18505
следовате@@ 18469
шампи@@ 18466
29 18428
гри@@ 18410
йни 18410
иде@@ 18402
места 18395
почти 18388
нем@@ 18380
изо@@ 18368
они 18359
лище 18358
турата 18349
начин 18345
съвет@@ 18343
I@@ 18340
няма 18300
лектро@@ 18289
представля@@ 18264
ент@@ 18255
2012 18254
там 18253
2009 18252
ез@@ 18250
уби@@ 18244
щото 18229
голям 18227
ането 18225
Ша@@ 18215
2007 18208
чка 18193
състе@@ 18177
стиче@@ 18166
хвър@@ 18162
тек@@ 18161
вали 18157
шо@@ 18150
Мон@@ 18126
коле@@ 18108
R@@ 18106
2008 18090
дро@@ 18087
свет@@ 18071
тира 18065
вари@@ 18061
прие@@ 18049
Вели@@ 18039
мс 18039
преда@@ 17998
IV 17986
изче@@ 17954
тит@@ 17938
арти@@ 17929
изи@@ 17901
V@@ 17856
Йор@@ 17853
F@@ 17842
христи@@ 17801
стер@@ 17796
спа@@ 17793
ван@@ 17789
знач@@ 17768
пет 17762
дор 17741
цел 17725
водо@@ 17702
характе@@ 17644
Меж@@ 17643
тео@@ 17642
2006 17638
кономи@@ 17623
ити 17621
нали@@ 17560
хан 17533
ву@@ 17516
народ@@ 17511
зу@@ 17507
100 17500
70 17489
важ@@ 17476
пси@@ 17463
хора 17451
коло@@ 17440
рио@@ 17431
обра@@ 17430
цар@@ 17382
зани 17360
бри@@ 17335
O@@ 17313
функ@@ 17312
тор@@ 17305
вед@@ 17288
Пред@@ 17281
ск 17267
консу@@ 17253
систе@@ 17236
дено 17191
все 17149
ев@@ 17140
офи@@ 17101
пол 17100
оста@@ 17073
пуска 17069
нес 17067
работа 17066
0 17050
анти@@ 17043
основа@@ 17015
била 16986
̀ 16935
31 16929
хай@@ 16902
крити@@ 16892
Май@@ 16786
вич 16780
тел@@ 16777
вероя@@ 16770
чо 16768
остана@@ 16761
зер@@ 16750
слав@@ 16746
телевизи@@ 16706
науч@@ 16682
ян 16666
Тур@@ 16661
джа@@ 16646
освобо@@ 16640
реша@@ 16638
ху@@ 16618
шно 16613
установ@@ 16601
стар@@ 16587
шение 16573
Мал@@ 16535
акаде@@ 16519
север 16511
тради@@ 16509
рина 16488
тон 16470
района 16460
лей@@ 16437
море 16425
фло@@ 16383
форма 16377
мно@@ 16362
фина@@ 16362
Фридрих 16359
станов@@ 16327
вица 16304
император 16287
хия 16279
V 16261
зо 16261
посе@@ 16253
ано 16248
Фе@@ 16225
ори@@ 16201
юг 16173
Ча@@ 16154
дна 16147
британ@@ 16145
цо@@ 16139
ток 16136
Й@@ 16135
Ско@@ 16080
кня@@ 16053
временно 16043
кро@@ 16036
много@@ 16027
ора 16026
Гор@@ 16010
фак@@ 15956
Кра@@ 15937
контро@@ 15916
пара@@ 15876
лист 15833
команд@@ 15823
усло@@ 15822
сер@@ 15814
фек@@ 15809
тина 15802
2013 15782
действи@@ 15759
гов@@ 15724
Бур@@ 15723
ад@@ 15685
дът 15680
интер@@ 15678
лка 15678
нер 15665
литера@@ 15648
сна@@ 15643
груп@@ 15640
гимна@@ 15633
разви@@ 15627
актив@@ 15626
шки 15625
ответ@@ 15614
чки 15610
Ман@@ 15608
партия 15608
дре@@ 15590
ват@@ 15582
генерал 15577
мит@@ 15535
2014 15515
регион 15512
управление 15512
2005 15400
Гу@@ 15397
стат@@ 15378
став 15352
зви@@ 15331
Запад@@ 15329
как@@ 15328
институ@@ 15320
логия 15319
Уи@@ 15312
шения 15279
фици@@ 15275
физи@@ 15243
чле@@ 15236
рал 15227
дивизи@@ 15190
90 15155
светов@@ 15152
парти@@ 15142
мин@@ 15131
дри@@ 15121
i 15118
виде@@ 15089
множество 15078
например 15020
° 15012
чена 15012
йна 14991
бе 14980
учи@@ 14966
участие 14959
дин@@ 14949
инди@@ 14947
Сан@@ 14945
независи@@ 14937
рели@@ 14919
стин@@ 14914
y@@ 14823
Чи@@ 14818
2001 14810
a 14799
Бар@@ 14781
позво@@ 14776
Пол@@ 14759
обо@@ 14759
кор@@ 14743
ления 14732
мени 14732
зар@@ 14716
нения 14689
лет 14687
стой@@ 14663
рение 14649
Основ@@ 14643
организация 14636
вин@@ 14628
президен@@ 14603
вид@@ 14591
is 14585
стра 14558
моде@@ 14556
2015 14543
Карл 14535
крат@@ 14525
креп@@ 14514
лий 14513
рис 14513
сме@@ 14467
международ@@ 14463
стен@@ 14462
жде@@ 14438
вида 14417
история 14416
Фор@@ 14413
рам@@ 14412
2004 14406
пен@@ 14394
1944 14384
доби@@ 14377
Вер@@ 14356
призна@@ 14354
поле@@ 14339
хов@@ 14275
дин 14241
фика@@ 14217
ец 14204
мате@@ 14198
форми@@ 14191
мер 14187
нд 14173
Евро@@ 14145
цер@@ 14141
ску@@ 14114
До 14111
2002 14108
популяр@@ 14093
нин 14058
Сред@@ 14056
W@@ 14038
турни@@ 14024
лер 14003
кти@@ 13996
рий@@ 13993
ис@@ 13986
И 13983
рази@@ 13981
ститу@@ 13964
_ 13961
стан 13951
наме@@ 13919
ний 13916
Кор@@ 13915
команди@@ 13907
дение 13853
ол@@ 13842
Кла@@ 13836
The 13833
зма 13818
уме@@ 13816
избран 13813
ут@@ 13800
Пер@@ 13774
C 13767
Н 13737
шка 13737
Пу@@ 13716
музе@@ 13712
gt 13709
противо@@ 13706
Це@@ 13694
преки 13682
комите@@ 13674
древ@@ 13673
владе@@ 13666
ус 13655
нос@@ 13650
в. 13649
Пари@@ 13639
фон@@ 13622
Геор@@ 13607
шко@@ 13607
мента@@ 13576
рин 13555
гна@@ 13544
темпера@@ 13529
География 13521
доку@@ 13495
наблю@@ 13491
теле@@ 13467
35 13464
хода 13459
гори@@ 13450
² 13444
помощ@@ 13403
информа@@ 13400
Разпростра@@ 13377
раб@@ 13358
дан 13340
руп@@ 13326
лища 13320
вол@@ 13310
пей@@ 13294
секре@@ 13286
финан@@ 13261
ций 13255
дома@@ 13247
ули@@ 13240
Бел@@ 13208
прави@@ 13202
право 13195
помо@@ 13181
бю@@ 13174
назначен 13136
срав@@ 13134
епископ 13114
защит@@ 13088
скоро@@ 13080
нима@@ 13054
Пра@@ 13051
ност@@ 13048
милия 13042
lt 13016
худож@@ 13001
мета@@ 12999
кин@@ 12984
мокра@@ 12983
тер 12958
озна@@ 12909
Рай@@ 12907
проте@@ 12890
гате@@ 12885
вси@@ 12882
оке@@ 12876
дале@@ 12861
мена 12861
Ай@@ 12859
прода@@ 12845
Дей@@ 12835
185@@ 12830
коми@@ 12795
Р 12765
каза@@ 12746
чис@@ 12729
жество 12725
вор@@ 12721
бал@@ 12714
част@@ 12707
Кита@@ 12700
хи 12692
так@@ 12651
поста@@ 12646
1990 12627
вала 12622
дон@@ 12592
Кара@@ 12560
препода@@ 12522
ник@@ 12520
инте@@ 12519
гли@@ 12514
нин@@ 12505
рец 12501
дер 12487
смър@@ 12470
дж 12468
2016 12464
Ши@@ 12445
няко@@ 12432
пя@@ 12418
оз@@ 12411
вно 12409
звез@@ 12402
Пос@@ 12381
награ@@ 12376
рите@@ 12372
лож@@ 12361
тран@@ 12349
№ 12341
проду@@ 12324
сю@@ 12320
Кли@@ 12309
крепо@@ 12299
вод 12261
коно@@ 12260
око@@ 12249
мето@@ 12243
компози@@ 12228
Шве@@ 12222
центра@@ 12219
&#93; 12209
лед@@ 12207
Хар@@ 12186
причи@@ 12167
стояние 12167
назна@@ 12158
00 12150
зако@@ 12141
Три@@ 12109
расте@@ 12086
Ком@@ 12078
твор@@ 12069
&#91; 12062
рей@@ 12059
интере@@ 12056
нен@@ 12046
Лон@@ 12029
мей@@ 12028
напа@@ 12025
попа@@ 11964
200 11957
p@@ 11953
район 11922
аре@@ 11904
упо@@ 11892
2003 11886
клу@@ 11886
Афри@@ 11873
Кали@@ 11859
продук@@ 11836
Жи@@ 11820
Бри@@ 11791
2017 11786
практи@@ 11785
рода 11783
Ху@@ 11777
Сле@@ 11774
лез@@ 11771
мента 11769
обе@@ 11769
e@@ 11741
ито 11738
песни 11724
архитек@@ 11715
Джон 11706
стви@@ 11688
зву@@ 11683
ърк@@ 11679
ем 11676
дже@@ 11652
нор@@ 11649
кос@@ 11645
пит@@ 11612
мето 11600
способ@@ 11596
мър@@ 11586
дент@@ 11583
Шу@@ 11581
материа@@ 11558
нина 11527
Д 11523
иту@@ 11517
вмест@@ 11506
ic@@ 11500
кило@@ 11473
Пар@@ 11444
дипло@@ 11429
Гер@@ 11417
треб@@ 11417
любо@@ 11406
зда@@ 11391
пробле@@ 11325
слав 11324
0@@ 11311
тво@@ 11308
отли@@ 11290
меж@@ 11272
нала 11271
стату@@ 11271
n@@ 11247
пли@@ 11204
фер@@ 11194
ъ 11190
Испа@@ 11186
Пор@@ 11175
нан@@ 11139
Амери@@ 11130
европей@@ 11115
различ@@ 11112
сан@@ 11081
Б 11070
филосо@@ 11068
Тре@@ 11037
риа@@ 11035
евре@@ 11023
фли@@ 10937
като@@ 10934
реда@@ 10904
полк 10900
оло@@ 10899
праз@@ 10892
s@@ 10887
1912 10882
разработ@@ 10881
со 10854
против@@ 10844
кам@@ 10820
комплек@@ 10809
направ@@ 10805
ду 10804
степен@@ 10800
творче@@ 10789
квар@@ 10768
миче@@ 10765
32 10744
фри@@ 10743
преде@@ 10729
Джо@@ 10717
Великобрита@@ 10701
образование 10694
импера@@ 10674
предо@@ 10668
Роб@@ 10656
компа@@ 10647
лено 10646
Сре@@ 10644
бор 10622
тол@@ 10617
испан@@ 10615
1991 10612
настоя@@ 10612
on 10601
медици@@ 10558
y 10553
сериа@@ 10550
пон@@ 10529
вдо@@ 10495
o@@ 10487
разру@@ 10487
плат@@ 10461
,@@ 10449
Нор@@ 10443
каче@@ 10427
1945 10426
Влади@@ 10422
ана 10418
c@@ 10414
Софи@@ 10380
низ@@ 10372
Гри@@ 10369
получа@@ 10361
андар@@ 10344
печат@@ 10341
Ива@@ 10325
a@@ 10309
парла@@ 10297
геро@@ 10294
Македо@@ 10291
ал 10282
o 10268
рес@@ 10246
бо 10243
1999 10223
2018 10207
капита@@ 10205
1913 10197
анали@@ 10185
нии 10180
аб@@ 10163
кита@@ 10162
Зе@@ 10158
СССР 10155
Япо@@ 10144
Мини@@ 10122
+ 10120
лаго@@ 10114
дву@@ 10093
мов 10081
действия 10078
ль@@ 10073
сите@@ 10051
остав@@ 10041
удо@@ 10034
ил 10015
75 10009
участи@@ 9987
— 9987
занима@@ 9975
сов 9965
um 9964
of 9945
щето 9921
администра@@ 9918
концер@@ 9914
i@@ 9912
пита@@ 9911
необходи@@ 9910
сбор@@ 9910
Ше@@ 9871
фа 9870
вил 9867
стрел@@ 9846
чен@@ 9844
= 9841
личе@@ 9825
разно@@ 9821
Ев@@ 9815
ного 9814
зависи@@ 9806
маши@@ 9793
1992 9791
оцен@@ 9770
хот@@ 9770
части@@ 9769
дет@@ 9767
1941 9750
ара 9744
45 9725
1989 9717
Николай 9698
посред@@ 9685
Моск@@ 9684
A 9675
зада@@ 9658
трен@@ 9658
36 9643
Администра@@ 9643
специали@@ 9641
дь@@ 9634
яв@@ 9633
38 9601
on@@ 9591
XIX 9589
сек@@ 9589
Рабо@@ 9586
симво@@ 9585
ia 9577
Гла@@ 9573
1998 9571
34 9556
ства@@ 9548
184@@ 9529
Ст@@ 9510
укра@@ 9509
пода@@ 9506
Михаил 9497
решение 9490
гло@@ 9485
устрой@@ 9475
37 9458
r@@ 9452
Пло@@ 9447
19@@ 9444
formula 9443
нет 9424
Цент@@ 9382
1997 9380
m@@ 9372
замест@@ 9364
0,@@ 9345
комп@@ 9314
М 9307
Вол@@ 9294
33 9292
жо@@ 9282
рок 9272
! 9267
ph@@ 9267
Т 9251
or@@ 9249
x 9248
1996 9237
федера@@ 9232
Центра@@ 9177
постоян@@ 9164
убий@@ 9161
вле@@ 9127
K@@ 9125
циона@@ 9118
мени@@ 9115
ферен@@ 9105
технологи@@ 9096
мм 9095
1995 9086
500 9082
блиоте@@ 9061
сии 9057
жур@@ 9041
Ги@@ 9039
ново@@ 9037
1994 9035
фрон@@ 9001
b@@ 8989
транспор@@ 8976
сра@@ 8955
Ch@@ 8933
течение 8921
1980 8897
казате@@ 8896
гру@@ 8887
компания 8887
меха@@ 8847
душ@@ 8841
стран@@ 8812
имо@@ 8801
er 8754
варя 8729
вършва 8725
тие 8697
t 8677
­ 8621
in@@ 8615
1,@@ 8614
проти@@ 8613
недо@@ 8607
Авто@@ 8598
mm 8596
вз@@ 8596
предло@@ 8578
евро@@ 8572
фу@@ 8567
мину@@ 8550
нато@@ 8545
тически 8544
горо@@ 8539
de 8521
180@@ 8520
бле@@ 8518
1993 8509
сни@@ 8502
ката@@ 8478
U@@ 8475
g@@ 8474
кономиче@@ 8460
рю@@ 8451
179@@ 8449
d@@ 8406
t@@ 8405
против 8403
Международ@@ 8399
рон@@ 8388
селе@@ 8385
d 8382
мощ@@ 8380
20@@ 8378
2019 8370
39 8359
ac@@ 8354
жав@@ 8347
Под@@ 8339
мин 8335
2,@@ 8326
S 8323
художе@@ 8321
можно 8307
Но 8304
техниче@@ 8304
нер@@ 8297
села 8296
ti@@ 8295
1943 8291
чин 8291
65 8289
образо@@ 8289
Ак@@ 8253
1878 8243
55 8232
гат@@ 8225
кой 8225
вало 8204
клуб 8201
лова 8197
дебю@@ 8191
мана 8163
гене@@ 8151
цеп@@ 8137
заво@@ 8112
пера@@ 8111
Спи@@ 8102
меда@@ 8102
тора 8091
1970 8081
Г 8081
кин 8081
рас@@ 8081
br 8079
1900 8064
шу@@ 8061
Андре@@ 8059
el@@ 8028
простран@@ 8023
убе@@ 8023
тем@@ 8019
план@@ 8014
щение 8008
веро@@ 8006
мир@@ 8005
ch@@ 8000
th@@ 7998
1918 7994
тов 7992
er@@ 7985
бур@@ 7979
пря@@ 7976
сь@@ 7951
пад@@ 7946
the 7911
зов 7910
обре@@ 7902
Алек@@ 7888
мя 7841
пора@@ 7840
J@@ 7836
пример 7830
спек@@ 7828
кораб@@ 7802
al@@ 7798
Вла@@ 7797
най@@ 7796
1960 7779
инжен@@ 7774
принадле@@ 7769
корпу@@ 7763
дат@@ 7754
У 7738
мери@@ 7732
наб@@ 7728
организа@@ 7725
канди@@ 7709
административ@@ 7700
85 7697
окръ@@ 7695
1940 7693
ть@@ 7657
лите@@ 7647
сезона 7645
ств@@ 7641
cm 7639
en@@ 7634
мона@@ 7622
ълга@@ 7618
1942 7610
чения 7594
мл@@ 7591
-@@ 7589
om@@ 7585
провин@@ 7584
et 7525
бло@@ 7493
зе 7476
заве@@ 7466
рова@@ 7453
сем@@ 7448
гер@@ 7446
2020 7440
бира@@ 7434
76 7420
боле@@ 7409
форма@@ 7408
in 7403
гръ@@ 7399
l 7368
ул 7365
мпи@@ 7359
шин@@ 7355
зави@@ 7348
дом 7346
ници@@ 7346
es 7343
права 7333
1986 7295
ur@@ 7280
ot@@ 7267
300 7263
числе@@ 7262
42 7252
48 7251
ing 7233
жд@@ 7225
1988 7218
Глав@@ 7178
века 7160
попу@@ 7159
пас@@ 7157
1950 7156
коро@@ 7154
ке 7149
Север@@ 7130
an@@ 7124
изве@@ 7103
... 7093
1934 7091
области 7080
1905 7060
визи@@ 7049
сон 7047
56 7034
уда@@ 7030
литератур@@ 7016
f@@ 7011
64 7006
ar@@ 6985
Х 6982
рой 6976
поме@@ 6971
вро@@ 6967
L 6962
жет 6961
лимпи@@ 6958
41 6955
.. 6946
срещ@@ 6944
рения 6942
ева 6941
44 6939
еписко@@ 6883
мене@@ 6876
72 6867
автомоби@@ 6856
хан@@ 6855
54 6839
меди@@ 6836
версите@@ 6834
рев@@ 6820
стов 6819
68 6817
сч@@ 6816
43 6801
писи 6792
k@@ 6786
1985 6781
разме@@ 6776
52 6775
1920 6768
47 6757
бург@@ 6734
1987 6730
склю@@ 6723
Население 6721
63 6705
25@@ 6696
ul@@ 6685
.е. 6684
T 6673
1984 6656
D 6653
88 6646
F 6641
li@@ 6638
1939 6624
пе 6618
51 6612
1981 6605
XX 6605
1968 6594
v@@ 6588
53 6585
95 6578
населе@@ 6565
86 6559
M 6555
62 6554
ряд@@ 6548
яр@@ 6545
Миха@@ 6535
1974 6533
ol@@ 6518
из 6501
B 6483
P 6480
66 6478
1979 6458
67 6447
как 6441
вание 6438
os@@ 6426
78 6419
орга@@ 6416
1978 6395
1948 6387
3,@@ 6386
VI 6386
І@@ 6385
1971 6381
82 6380
типа 6368
ляр@@ 6352
58 6347
1928 6332
1982 6315
59 6298
1976 6286
харак@@ 6280
вклю@@ 6277
1946 6264
Сер@@ 6261
сам 6254
лага@@ 6243
46 6227
1972 6206
57 6193
69 6182
момент 6178
l@@ 6176
брига@@ 6172
am@@ 6167
1930 6164
сим@@ 6161
университета 6156
полож@@ 6132
84 6105
гли 6102
ей 6097
смо@@ 6086
1975 6077
рез@@ 6075
разв@@ 6067
1947 6065
61 6064
al 6061
77 6060
89 6051
Исто@@ 6051
81 6033
зате@@ 6013
73 6012
71 5998
1969 5991
83 5984
79 5979
n 5975
чели 5970
1973 5967
1983 5954
ряд 5941
g 5932
X 5927
op@@ 5912
1927 5903
an 5884
организации 5876
1919 5875
ителя 5871
нови@@ 5870
каде@@ 5869
74 5865
1923 5852
1967 5851
87 5850
it@@ 5843
зах@@ 5836
49 5825
мерикан@@ 5823
Фри@@ 5798
ству@@ 5798
at@@ 5797
ro@@ 5784
Кур@@ 5776
1962 5761
c 5753
нова@@ 5743
N 5742
Ф 5740
1966 5699
вну@@ 5698
as@@ 5685
ag@@ 5667
подготов@@ 5660
дис@@ 5647
окон@@ 5645
1965 5631
150 5630
площа@@ 5630
контра@@ 5616
бое@@ 5612
1977 5611
1959 5603
1964 5603
лем 5601
1915 5588
4,@@ 5586
h@@ 5577
избра@@ 5562
ставля@@ 5552
1949 5545
et@@ 5544
1938 5539
2021 5532
96 5518
.н@@ 5498
дии 5488
Ад@@ 5461
1961 5457
1956 5443
24@@ 5433
1963 5417
98 5417
ято 5417
1000 5414
ensis 5388
1958 5385
oc@@ 5373
ски@@ 5361
92 5348
генера@@ 5341
1936 5329
x@@ 5329
dae 5327
05 5323
1924 5321
93 5321
свой 5318
уз@@ 5310
400 5306
k 5294
Юж@@ 5294
лу 5276
? 5275
год@@ 5269
1926 5268
нару@@ 5264
Z@@ 5260
нам 5256
and 5249
отноше@@ 5243
1903 5238
Е 5229
99 5227
06 5226
роди@@ 5222
04 5218
ine 5218
бат@@ 5214
изобра@@ 5204
гон@@ 5199
поз@@ 5198
дъщер@@ 5196
зон 5184
la 5180
le@@ 5178
кнове@@ 5172
моби@@ 5152
ae 5132
1935 5108
реки 5104
1952 5097
26@@ 5095
1929 5079
O 5079
свои 5074
1914 5073
чие 5067
An@@ 5057
ѐ@@ 5049
1925 5044
1921 5031
tr@@ 5014
j@@ 5012
28@@ 5010
насти@@ 5004
E 4983
пру@@ 4970
id@@ 4962
em@@ 4957
1908 4953
97 4948
1922 4943
01 4933
u@@ 4924
сов@@ 4923
епи@@ 4918
94 4910
1951 4904
бай@@ 4904
08 4903
od@@ 4899
p 4887
h 4885
1953 4879
30@@ 4875
1877 4873
1933 4863
il@@ 4859
5,@@ 4856
после 4850
том@@ 4843
1957 4841
St@@ 4805
1937 4793
In@@ 4787
1904 4775
колко 4769
І 4768
перио@@ 4744
1917 4740
ap@@ 4719
z@@ 4702
фран@@ 4701
VII 4700
тога@@ 4697
09 4696
дов 4696
91 4692
02 4682
Петер@@ 4666
тече@@ 4664
ним 4663
гласно 4659
тил 4659
27@@ 4653
1954 4646
ѝ@@ 4636
07 4631
сиг@@ 4627
Все@@ 4619
03 4615
гов 4615
’ 4589
дете@@ 4587
1932 4585
вши@@ 4585
ad@@ 4582
atus 4575
lo@@ 4568
1910 4566
щер@@ 4562
is@@ 4559
km@@ 4557
ata 4545
1955 4517
amp 4511
дек@@ 4500
зиден@@ 4497
счита@@ 4496
R 4467
Спо@@ 4449
количество 4434
qu@@ 4433
im@@ 4421
Никола@@ 4394
en 4389
бва 4387
G 4353
импе@@ 4347
La 4335
волю@@ 4331
1931 4304
строй@@ 4300
тря@@ 4291
Олимпи@@ 4287
W 4277
600 4252
st@@ 4248
Ъ@@ 4234
рито@@ 4209
w@@ 4208
1916 4205
Th@@ 4200
ография 4194
университе@@ 4193
do@@ 4188
лев@@ 4175
1906 4173
Бело@@ 4173
рус@@ 4159
сли 4159
to 4153
гии 4136
ографи@@ 4133
or 4126
ют 4121
Л 4107
co@@ 4091
6,@@ 4075
29@@ 4065
u 4063
av@@ 4056
санд@@ 4054
количе@@ 4043
1911 4019
7,@@ 4011
124@@ 4009
1902 3982
кой@@ 3971
относ@@ 3970
губер@@ 3962
лей 3958
1907 3957
ждение 3938
un@@ 3929
es@@ 3925
вне@@ 3925
ation 3918
ter@@ 3907
1909 3899
ta 3897
z 3888
el 3883
120 3880
Al@@ 3880
Con@@ 3880
at 3861
чил 3857
Кро@@ 3856
ника@@ 3852
лок 3850
Ar@@ 3849
щения 3841
ep@@ 3833
доро@@ 3822
ig@@ 3819
1885 3810
ство@@ 3798
нологи@@ 3796
1873 3791
ar 3784
ec@@ 3782
sa 3770
Ц 3754
le 3746
ковод@@ 3746
пос@@ 3741
наи@@ 3740
&#124; 3733
ге 3719
рез 3707
di@@ 3697
ed 3689
партии 3688
as 3680
ri@@ 3669
250 3662
компании 3648
води@@ 3641
закон@@ 3621
1901 3616
I. 3612
800 3610
жил 3605
соб@@ 3598
ави@@ 3589
ir@@ 3574
нович 3573
оба@@ 3571
bi@@ 3543
ati@@ 3541
Y@@ 3540
1.@@ 3529
кино@@ 3528
po@@ 3520
Tr@@ 3518
тон@@ 3500
os 3496
TV 3485
ней 3484
аль@@ 3479
начи@@ 3472
é@@ 3471
З 3469
авиа@@ 3464
ina 3446
1895 3442
оте@@ 3432
кви 3416
H 3397
1896 3358
ку 3357
вобо@@ 3347
вер 3320
Mac@@ 3319
щен@@ 3308
ab@@ 3307
тий 3307
og@@ 3306
8,@@ 3274
желез@@ 3248
1899 3244
f 3240
Ново@@ 3196
ством 3193
меня@@ 3180
$ 3155
Bo@@ 3142
1876 3140
ря 3140
лод@@ 3112
лии 3111
120@@ 3108
1894 3105
ot 3103
Br@@ 3102
нк@@ 3099
так 3099
ter 3077
IX 3073
ay 3071
700 3064
XVIII 3062
ana 3059
b 3044
сня@@ 3041
кру@@ 3033
2.@@ 3029
9,@@ 3027
Car@@ 3022
1880 3016
1898 3016
no@@ 3008
1897 3006
us@@ 3001
Москов@@ 2987
re@@ 2967
11@@ 2957
” 2927
шен@@ 2913
XVI 2908
коман@@ 2885
ys 2881
други@@ 2875
ica 2869
1890 2859
one 2859
1500 2854
Ph@@ 2852
ники 2830
ut@@ 2829
w 2828
1879 2827
1891 2822
ea 2809
Co@@ 2803
́ 2803
kg 2783
Ита@@ 2781
архите@@ 2778
ждения 2769
Com@@ 2768
per@@ 2764
пере@@ 2764
арх@@ 2750
1870 2748
воз@@ 2746
De@@ 2738
евич 2726
r 2725
Ac@@ 2720
Par@@ 2719
ent@@ 2715
180 2713
XV@@ 2711
ci@@ 2708
to@@ 2706
Pop@@ 2702
ov@@ 2696
пр@@ 2687
1893 2684
вез@@ 2662
yl@@ 2660
1889 2656
ach@@ 2655
br@@ 2643
1892 2642
Mar@@ 2641
1886 2637
C. 2636
pr@@ 2633
U 2614
лиш@@ 2601
Re@@ 2596
Sp@@ 2590
1881 2585
K 2578
ту 2568
all@@ 2565
ré@@ 2558
Серге@@ 2546
седате@@ 2546
1,5 2538
1884 2531
ed@@ 2531
eg@@ 2531
1883 2522
de@@ 2520
enne 2514
di 2512
француз@@ 2512
3000 2500
ad 2500
au@@ 2498
армии 2495
00@@ 2490
am 2473
станции 2472
ром 2471
ob@@ 2463
Windows 2459
1860 2456
ari@@ 2441
na 2437
ulation 2422
ve 2421
Cr@@ 2411
мии 2406
oph@@ 2400
дей 2390
Од@@ 2389
160 2386
um@@ 2381
1888 2374
писал 2370
получи@@ 2370
alis 2369
Am@@ 2365
Le@@ 2338
назва@@ 2336
Федера@@ 2335
цу 2327
зя@@ 2324
Ex@@ 2321
шел 2315
ch 2313
1848 2305
ктора 2304
vi@@ 2300
находи@@ 2299
si@@ 2295
1882 2290
Mo@@ 2287
gr@@ 2279
az@@ 2277
1871 2271
1887 2260
жиз@@ 2247
хер@@ 2235
hi@@ 2233
par@@ 2233
зии 2224
He@@ 2217
Гър@@ 2217
1875 2209
ver@@ 2209
ni@@ 2202
• 2197
1872 2189
da 2188
ru@@ 2182
3.@@ 2181
US@@ 2173
название 2171
наход@@ 2166
лах 2160
сков@@ 2160
реб@@ 2154
миро@@ 2148
it 2146
140 2143
World 2143
ников 2142
школ@@ 2139
ру 2138
You 2120
ate 2119
ном 2117
130 2111
ell@@ 2109
оне 2104
ight 2099
Сою@@ 2097
Hy@@ 2096
дея@@ 2096
Pr@@ 2095
uc@@ 2094
ers 2086
Sh@@ 2081
лосо@@ 2080
вой 2073
бу 2071
Col@@ 2067
te 2067
aceae 2053
1869 2050
WWE 2050
‰ 2047
1867 2046
1864 2045
car@@ 2039
IS@@ 2035
pi@@ 2035
храни@@ 2028
110 2023
900 2023
Ma@@ 2022
XX@@ 2019
Mon@@ 2015
ber@@ 2013
yr@@ 2006
ходи@@ 1999
Po@@ 1994
Di@@ 1986
лом 1986
ie 1981
ich@@ 1978
Bar@@ 1977
раз 1974
хоро@@ 1970
су 1964
Ю 1961
se 1956
der 1948
1874 1936
ho@@ 1931
ѫ@@ 1931
1868 1930
ху 1929
ella 1922
ak@@ 1921
1866 1916
pl@@ 1905
1861 1897
est@@ 1897
место 1896
mo@@ 1895
J 1894
Records 1891
ath@@ 1886
Or@@ 1878
ври 1877
ale 1871
Дим@@ 1871
ens 1869
que 1858
350 1854
истории 1846
Ne@@ 1844
птем@@ 1841
цев 1834
age 1833
tri@@ 1831
tu@@ 1828
1863 1823
готов@@ 1819
OS 1817
bo@@ 1815
ent 1806
1850 1803
str@@ 1803
Str@@ 1802
For@@ 1801
нах 1796
1865 1795
его 1794
1830 1784
eb@@ 1784
for 1778
se@@ 1777
Так@@ 1775
Крас@@ 1773
des 1772
1800 1771
ran@@ 1768
En@@ 1766
tion 1766
ok@@ 1760
Cor@@ 1759
Be@@ 1756
Love 1752
ang@@ 1749
ti 1746
Q@@ 1741
em 1731
Se@@ 1729
ST@@ 1726
and@@ 1724
сил 1723
ass@@ 1719
Gr@@ 1714
ma 1713
od 1709
Ser@@ 1701
DVD 1700
шли 1700
re 1698
gi@@ 1697
tic@@ 1696
2022 1695
ore 1692
mar@@ 1689
… 1686
Un@@ 1682
1862 1675
ic 1674
Qu@@ 1673
Ad@@ 1669
ell 1667
ѣ@@ 1665
hy@@ 1660
est 1653
# 1648
ing@@ 1646
Укра@@ 1644
Go@@ 1637
sp@@ 1623
ou@@ 1622
ra 1621
получил 1620
MS 1617
ist@@ 1609
сть@@ 1606
are 1605
ides 1603
ce 1595
ССР 1586
дли@@ 1575
anus 1568
23@@ 1555
all 1550
Cal@@ 1547
ne@@ 1538
среди 1538
Велико@@ 1537
TC 1536
af@@ 1534
un 1523
Cl@@ 1522
ill@@ 1522
ev@@ 1516
Per@@ 1515
ace 1511
end@@ 1510
ma@@ 1503
id 1501
ice 1499
Ro@@ 1497
4.@@ 1496
bus 1496
lu@@ 1489
por@@ 1488
Cy@@ 1486
ili@@ 1486
Pl@@ 1476
dice 1473
ex@@ 1472
Fo@@ 1470
ca 1466
101 1465
Pe@@ 1458
³ 1458
ну 1458
era 1455
pe@@ 1455
Google 1452
cus 1452
Me 1449
cor@@ 1448
дека@@ 1444
Te@@ 1436
New 1435
yc@@ 1435
con@@ 1433
th 1432
0.@@ 1430
man@@ 1430
oma 1424
ance 1423
yp@@ 1423
com@@ 1420
eph@@ 1420
iz@@ 1416
sch@@ 1416
Microsoft 1410
Рос@@ 1401
чат@@ 1400
Бълга@@ 1391
ard 1390
гу 1389
so@@ 1385
ким 1385
und 1374
inc@@ 1369
× 1369
Ш 1369
ps 1368
5.@@ 1367
Music 1366
ons 1365
za 1364
My@@ 1359
inus 1359
{ 1359
12,@@ 1356
ue 1355
und@@ 1354
Can@@ 1351
і@@ 1350
Li@@ 1348
iv@@ 1348
том 1346
can@@ 1343
lin@@ 1341
CD 1338
aur@@ 1338
our 1336
CO@@ 1334
ura 1330
v 1327
il 1323
te@@ 1323
Pro@@ 1320
gen@@ 1319
ge 1307
Mus@@ 1301
sh@@ 1301
ος 1296
Sc@@ 1295
ay@@ 1295
ans 1293
AS@@ 1292
ai 1292
ner 1289
RA@@ 1288
amb@@ 1287
мая 1287
Lo@@ 1285
ok 1285
После 1284
rom@@ 1279
In 1276
сезо@@ 1269
My 1261
As@@ 1256
Bl@@ 1255
Pol@@ 1252
eus 1246
тта 1245
No@@ 1243
ский 1240
Wh@@ 1239
la@@ 1238
TA 1233
War@@ 1233
кий 1231
Mag@@ 1230
ly 1230
необ@@ 1230
− 1226
AR@@ 1219
Z 1219
Man@@ 1215
ali@@ 1215
10,@@ 1214
So@@ 1214
ol 1214
lar@@ 1213
ког@@ 1213
Y 1212
ra@@ 1209
anc@@ 1206
атов 1205
oth@@ 1204
act@@ 1203
eri 1203
рая 1201
ys@@ 1199
AT@@ 1198
ik@@ 1198
ная 1198
осу@@ 1198
dro@@ 1190
Ag@@ 1189
mac@@ 1189
BC 1187
io 1187
ff@@ 1186
исто@@ 1186
tor@@ 1185
ne 1183
Ty@@ 1177
ava 1175
​ 1173
6.@@ 1168
bl@@ 1166
International 1165
int 1158
7.@@ 1156
tes 1153
птември 1153
Pic@@ 1152
9.@@ 1151
per 1151
prin@@ 1150
Tur@@ 1147
osa 1147
α 1146
Ж 1144
los@@ 1142
der@@ 1139
Live 1136
ling 1136
j 1132
Dr@@ 1128
стоян@@ 1127
ops 1125
Sch@@ 1122
ce@@ 1121
Net@@ 1120
ence 1119
ями 1117
Ab@@ 1116
El@@ 1113
Ver@@ 1113
ant@@ 1110
ka 1110
ся 1110
Her@@ 1109
hin@@ 1109
ская 1109
11,@@ 1108
програм@@ 1106
ym@@ 1105
Tour 1104
Gu@@ 1102
if@@ 1101
su@@ 1101
do 1095
Vi@@ 1094
did@@ 1093
ena 1093
mag@@ 1093
Lin@@ 1092
cr@@ 1090
rec@@ 1090
80@@ 1089
Fr@@ 1089
son 1086
ard@@ 1083
ten@@ 1083
mon@@ 1079
We@@ 1072
ion 1072
é 1072
вос@@ 1072
Fac@@ 1071
Hol@@ 1070
8.@@ 1067
ack@@ 1067
mi@@ 1067
gar@@ 1066
ity 1065
del 1064
One 1063
ax 1061
ora 1061
дето 1058
ον 1056
ars 1054
Fre@@ 1049
ant 1049
ts 1049
ug@@ 1048
Pi@@ 1047
ii 1047
гим@@ 1047
be@@ 1046
ite 1046
anth@@ 1042
Si@@ 1040
ile 1040
стал 1040
.com 1038
ini 1038
публики 1035
rest@@ 1034
ae@@ 1033
ha 1031
AC 1027
Me@@ 1026
ver 1025
den 1024
Α@@ 1024
ula 1023
min@@ 1020
ola 1018
ni 1015
To@@ 1012
All 1011
ann@@ 1011
App@@ 1010
man 1010
Ap@@ 1008
fl@@ 1008
франц@@ 1008
V. 1007
du@@ 1007
Mor@@ 1006
Life 1005
ast 1005
ros@@ 1003
It 1001
eo 1000
ect 999
CA@@ 997
ser@@ 996
Bul@@ 994
work 993
Ge@@ 989
Group 988
vir@@ 988
Sol@@ 987
cul@@ 986
Σ@@ 985
lan@@ 984
ty 984
yn@@ 981
we@@ 980
tus 979
Billboard 978
ame 977
ib@@ 977
nis 977
si 976
ь 976
Les 975
col@@ 975
Mer@@ 973
sti@@ 973
cu@@ 972
At@@ 971
WW@@ 970
ek@@ 970
orum 969
Black 967
ary 966
co 966
Tri@@ 965
СР 962
tra 961
ain 960
нем 959
º 958
les 957
à 957
ous 956
ire 953
SS 951
Κ@@ 951
me 950
yth@@ 949
tis 948
ure 947
Wor@@ 946
ks 942
ist 940
oni@@ 940
друго@@ 940
Sy@@ 939
tel@@ 938
Rock 937
ess@@ 937
Do@@ 932
ory 931
RO@@ 930
Sci@@ 928
tor 927
ске 927
be 926
ei 926
Tro@@ 925
son@@ 924
ack 919
eli@@ 916
ere 916
ah@@ 915
Ca@@ 914
enti@@ 914
ess 914
ta@@ 914
стали 914
Dre@@ 913
Роди@@ 913
dia 912
om 910
40@@ 907
Fe@@ 905
Ho@@ 904
ком 904
ax@@ 903
ino 899
СС@@ 898
Q 896
Chr@@ 895
Cer@@ 894
Char@@ 894
Fi@@ 894
no 894
och@@ 894
ux 890
fr@@ 888
by 887
Er@@ 886
EP 885
á@@ 883
art 882
ome 882
ору@@ 882
рах 880
AP@@ 879
Ο@@ 879
рован@@ 879
ari 877
out 877
ick@@ 876
pe 876
tom@@ 875
35@@ 873
igh@@ 872
Τ@@ 872
amp@@ 868
ях 867
Entertainment 866
ani 866
uli@@ 866
ub@@ 865
Я 865
Uni@@ 863
ator 863
Bur@@ 862
ak 862
Mot@@ 858
ur 857
for@@ 856
Dis@@ 853
Tel@@ 851
ba@@ 851
mel@@ 851
tro@@ 850
Fl@@ 848
ake 848
int@@ 848
mer@@ 848
ong@@ 846
Gal@@ 845
ai@@ 844
he@@ 844
ala 840
ton 838
ost@@ 837
Le 835
eng@@ 835
ya 831
ES@@ 830
ef@@ 830
33@@ 829
СА@@ 828
Mel@@ 827
aw@@ 827
unc@@ 826
дет 826
ster@@ 823
Ang@@ 822
De 822
Micro@@ 822
ain@@ 822
aria 822
sc@@ 822
è@@ 822
воло@@ 822
10.@@ 820
Min@@ 819
mp@@ 819
ano 818
дела@@ 818
Stu@@ 817
sol@@ 816
Ι@@ 816
No 813
ler 812
ut 811
ow@@ 810
up@@ 810
ge@@ 805
me@@ 805
IN@@ 804
Val@@ 804
50@@ 803
Company 803
bu@@ 803
ι@@ 803
atr@@ 802
dr@@ 802
gu@@ 801
oni 801
UN@@ 800
AM@@ 799
Bi@@ 795
Op@@ 795
nch@@ 795
illa 794
cin@@ 793
Su@@ 792
ly@@ 792
12.@@ 789
ori@@ 789
Μ@@ 789
ect@@ 786
ki@@ 784
Ot@@ 783
ord@@ 783
NE@@ 782
ita 781
луч@@ 781
ey 780
соз@@ 780
cur@@ 778
BS 777
crip@@ 776
chil@@ 774
Gir@@ 773
→ 773
Bel@@ 772
Met@@ 772
School 772
The@@ 772
cre@@ 770
cop@@ 768
Inter@@ 765
Time 765
ost 764
Mas@@ 762
Em@@ 761
ens@@ 760
ius 759
FI@@ 757
ara 757
ath 757
кая 757
Cas@@ 755
st 755
ј@@ 755
cap@@ 754
alb@@ 751
end 751
Ч 750
ike 749
public 748
til@@ 748
пр.н@@ 748
Res@@ 747
Δ@@ 747
Mal@@ 746
Ste@@ 745
abr@@ 740
ings 740
sus 740
bre@@ 738
ie@@ 738
€ 738
Por@@ 737
ud@@ 737
Empire 734
yg@@ 733
Wil@@ 732
ning 732
à@@ 731
1. 730
aci@@ 728
chi@@ 728
Й 728
ici@@ 727
Π@@ 726
Bre@@ 725
Sal@@ 725
iss@@ 725
город 724
American 723
ales 723
ema 723
sit@@ 723
Gi@@ 722
res@@ 721
Air@@ 720
Gl@@ 719
IC@@ 718
Sec@@ 717
ref 717
oh@@ 716
land 713
город@@ 710
wer@@ 707
вое 707
Hot 706
PS 706
ick 705
cer@@ 703
уез@@ 703
Mark 702
Ber@@ 700
Rom@@ 699
Cre@@ 696
able 695
du 695
Ν@@ 695
pp@@ 694
Disney 693
Studi@@ 693
ube 693
μ@@ 693
IM@@ 692
del@@ 690
ics 690
ello 689
view 688
fer@@ 687
надле@@ 687
ke 686
бере@@ 685
SA@@ 684
ws 684
You@@ 683
uf@@ 683
port 680
Tor@@ 679
них 679
ise 678
grap@@ 677
Au@@ 676
ā@@ 676
pen@@ 674
li 672
rit@@ 672
ó@@ 672
tar@@ 671
eh@@ 669
Bal@@ 668
vo@@ 667
α@@ 667
Elec@@ 666
Man 666
ida 666
′ 666
aus@@ 665
яну@@ 665
ates 664
On 662
метров 662
anti@@ 661
ations 661
cas@@ 661
ной 659
Hel@@ 658
eti@@ 658
im 658
bar@@ 657
the@@ 656
Times 655
Die 654
Har@@ 653
Sil@@ 653
che 653
ep 653
} 653
£ 653
pal@@ 652
way 652
PC 650
Ε@@ 650
Play@@ 649
tica 649
ass 648
ja 648
ί@@ 646
pel@@ 645
β@@ 645
MP@@ 644
ama 644
Not@@ 643
восто@@ 642
cl@@ 641
eri@@ 641
w.@@ 641
onia 639
To 638
Nov@@ 637
thi@@ 636
ung@@ 636
ское 636
Bro@@ 635
mat@@ 635
š@@ 635
кого 635
Eur@@ 634
cal@@ 634
Ob@@ 633
Reg@@ 633
ang 633
Cap@@ 632
pos@@ 632
rich@@ 631
Ros@@ 630
ona 629
Dar@@ 627
Bor@@ 626
Leg@@ 626
bor@@ 626
ex 626
CH@@ 625
On@@ 625
ind@@ 625
ium 625
tel 625
yi 622
об 622
go@@ 621
AC@@ 620
Pal@@ 619
Im@@ 618
phil@@ 617
11.@@ 616
ley 614
ade 613
cel@@ 613
ail@@ 612
lis 612
tions 612
ir 611
lam@@ 611
ä@@ 611
Son@@ 610
loc@@ 610
A. 609
Pas@@ 609
FC 608
oll@@ 608
name 607
ι 607
ν 607
Corpor@@ 606
`@@ 606
ble 605
tic 605
Населе@@ 605
SP@@ 604
aj@@ 604
ister 604
ung 604
Des@@ 603
mor@@ 603
BM@@ 602
ever 602
ila 602
ler@@ 602
Air 601
arr@@ 600
lor@@ 600
adi@@ 599
Chil@@ 598
System 598
Χ@@ 596
her@@ 594
ky 594
sk@@ 594
don@@ 592
las 592
ς 592
Mur@@ 591
Club 590
δ@@ 590
Pres@@ 589
dio 589
AN@@ 588
MA 588
Blo@@ 587
ish 587
Pan@@ 586
tures 585
with 585
ey@@ 584
ko@@ 584
Meg@@ 583
вше@@ 583
σ@@ 582
BBC 581
Ger@@ 580
Ur@@ 580
urn@@ 580
ast@@ 579
fin@@ 579
thr@@ 579
High 578
oy@@ 578
ah 577
\ 576
tur@@ 576
elle 575
iti@@ 575
pin@@ 574
El 572
Star 572
NA 571
Open 571
new 571
ER@@ 570
eter@@ 570
olo@@ 570
enn@@ 569
Gre@@ 568
Best 567
Pri@@ 567
ave 566
ki 566
Sof@@ 565
Tw@@ 565
va 565
года 565
Kr@@ 564
Wi@@ 563
ors 563
Cro@@ 562
Eu@@ 562
ine@@ 562
Awards 561
DC 560
Ir@@ 560
c. 560
University 559
low 559
Lu@@ 558
Red 558
Vol@@ 557
arg@@ 557
nam@@ 557
sim@@ 557
sy@@ 557
ρι@@ 557
Il 556
ve@@ 556
asi@@ 555
Win@@ 554
anz@@ 554
ek 554
ical 554
q@@ 554
Герма@@ 552
ven@@ 550
City 549
Del@@ 549
Vo@@ 549
è 549
This 547
entr@@ 547
ital 547
ber 546
dis@@ 546
pu@@ 546
sub@@ 546
Β@@ 546
Blue 544
Lib@@ 544
Media 542
Pin@@ 542
ense 541
заня@@ 541
Ben@@ 540
2. 539
Nor@@ 539
SE@@ 539
τ@@ 539
annel 538
ision 538
ww@@ 538
· 538
Ρ@@ 538
occ@@ 536
Syst@@ 535
ene 534
ker 534
tro 534
включа@@ 534
val@@ 533
Rec@@ 532
ebo@@ 532
phy@@ 532
National 531
ima 531
isti@@ 527
ry 527
sin@@ 527
ment 526
ou 525
tw@@ 525
har@@ 524
mer 524
ota 524
q 524
ης 524
Bu@@ 522
Hor@@ 522
ater 522
э@@ 522
CE@@ 521
ric@@ 521
AG 520
Wal@@ 520
ez@@ 520
Produc@@ 519
ace@@ 519
ular@@ 519
Sor@@ 518
ha@@ 518
seud@@ 518
ν@@ 518
CA 517
pol@@ 517
Mat@@ 516
ase 516
inn@@ 516
Bab@@ 515
Cir@@ 515
bur@@ 515
tle 514
ë@@ 514
‘ 514
Plat@@ 513
` 513
ista 513
reg@@ 513
Jo@@ 512
VI@@ 512
Ul@@ 510
amm@@ 510
own 510
tim@@ 510
yan@@ 507
Λ@@ 507
едо@@ 507
Camp@@ 506
Cin@@ 505
Na@@ 505
Vir@@ 505
λ@@ 505
ου 505
ное 505
dic@@ 504
US 503
fi@@ 503
ken 503
гда 503
Centr@@ 502
York 502
ones 501
Cu@@ 500
ada 500
ual 500
vic@@ 500
Kar@@ 499
ting 499
шие 499
SA 498
other 498
круп@@ 498
ide 497
ng@@ 497
NGC 495
ady 495
lo 495
Es@@ 494
Big 493
Lit@@ 493
αν@@ 493
pre@@ 492
Av@@ 491
vol@@ 490
Don 489
Mir@@ 489
its 489
zi 489
π@@ 489
200@@ 487
inter@@ 487
retur@@ 485
AS 483
Oper@@ 483
au 483
η 483
Gar@@ 482
č@@ 482
alm@@ 481
if 481
ям 481
sion 480
ust 480
Columb@@ 479
bul@@ 479
ή 479
Ed@@ 478
ani@@ 478
bat@@ 478
sal@@ 478
ö@@ 478
als 477
ός 477
SS@@ 476
ero 475
lia 475
Eng@@ 474
ѐ 474
class 473
tin@@ 473
Ox@@ 472
Plan@@ 471
Roc@@ 470
ρ@@ 469
Aut@@ 468
For 468
zi@@ 467
ier@@ 466
ny@@ 466
opo@@ 466
Sw@@ 465
Cat@@ 464
Grand 464
sec@@ 463
tal@@ 463
Щ 463
Off@@ 462
ange 462
ays 462
dom@@ 462
op 461
tan@@ 461
ά@@ 460
Hon@@ 459
Lim@@ 459
tho@@ 459
Prot@@ 458
Sou@@ 458
ill 458
mb@@ 458
aga 457
Hi@@ 455
esc@@ 455
Day 454
Du@@ 454
Ri@@ 454
sen@@ 454
San 453
ip@@ 453
Cam@@ 452
Do 452
ster 452
Γ@@ 452
ds 451
ters 450
els 449
kh@@ 449
pa@@ 449
Mc@@ 448
Sub@@ 448
arch@@ 448
fer 447
istr@@ 447
ach 446
Ni@@ 445
Oc@@ 445
Ferr@@ 444
Sum@@ 444
Vis@@ 444
fas@@ 444
men@@ 444
ong 444
air@@ 443
mas@@ 443
omo 443
tra@@ 443
ish@@ 442
ten 442
RE@@ 441
ane 441
app@@ 441
pes 441
Hal@@ 440
Mi@@ 440
fol@@ 440
ste@@ 440
Bus@@ 439
Rem@@ 439
Sam@@ 439
ies 439
mi 439
Bol@@ 438
Super@@ 438
idi@@ 438
χ@@ 438
Sim@@ 437
Tom@@ 437
ign@@ 437
pha 436
ό@@ 436
Pom@@ 435
Fil@@ 434
eil@@ 434
aup@@ 433
pa 433
ba 432
lat@@ 432
Gro@@ 431
cal 431
from 431
olog@@ 430
sel@@ 430
my 429
ye 429
ζ@@ 429
United 428
aja 428
ap 427
Mil@@ 426
S.@@ 426
ms 426
COVID 425
Dev@@ 425
Journ@@ 425
Sho@@ 425
í@@ 425
ico 424
Ter@@ 423
ated 422
of@@ 422
ò@@ 422
Ci@@ 421
Que@@ 421
fo@@ 421
opsis 421
ther@@ 421
von 420
É@@ 420
AD@@ 419
una 419
~ 419
κ@@ 419
бя 419
Dig@@ 417
char@@ 417
eci@@ 417
Wat@@ 416
bi 416
day 416
игро@@ 416
Radio 415
isi@@ 415
une 415
ο 415
act 414
ins 414
ty@@ 414
γ@@ 414
Cur@@ 412
ω@@ 412
John 411
Proj@@ 410
ems 410
eum 410
peri@@ 410
ρ 410
Lab@@ 409
ection 409
eu@@ 409
ze 408
ke@@ 407
old 407
Award 406
Sur@@ 406
ein@@ 406
Is@@ 405
Royal 405
Tre@@ 405
cat@@ 405
кото@@ 405
A.@@ 404
Sab@@ 404
Univers@@ 404
att@@ 404
elli 404
ement 404
авгу@@ 404
Bas@@ 403
agr@@ 403
form@@ 403
ich 403
Il@@ 402
des@@ 401
AB@@ 400
ets 400
ilia 400
vo 400
ε@@ 400
шла 400
Ru@@ 399
Show 399
bal@@ 399
King 398
Mach@@ 398
ger 398
king 398
ë 398
ł@@ 398
Vid@@ 397
dy 397
line 397
otr@@ 397
tig@@ 397
AP 396
Pu@@ 396
Top 396
oa 396
ua 396
ful 394
ology 394
ome@@ 394
time 394
inae 393
Mis@@ 392
je 392
sa@@ 392
ash 391
─ 391
House 390
die 390
press 390
ania 389
ca@@ 389
ock 389
style 389
пут@@ 389
fac@@ 388
hr@@ 388
icul@@ 388
pro@@ 388
chr@@ 387
leg@@ 387
tera 387
tron@@ 387
General 386
box 386
ku@@ 386
vit@@ 386
ō@@ 386
вая 386
Trans@@ 385
ab 385
ond@@ 385
Center 384
Phil@@ 384
ro 384
και 384
Tal@@ 383
err@@ 383
text 383
Gen@@ 382
Tun@@ 382
dium 382
ѣ 382
estr@@ 381
AI@@ 380
pan@@ 380
ный 380
CD@@ 379
Dol@@ 379
Pap@@ 379
ern@@ 379
± 379
нами 379
поселе@@ 379
art@@ 378
fe@@ 378
ko 378
ony@@ 378
Ori@@ 377
Sar@@ 377
Street 376
дера@@ 376
Ye@@ 375
formes 375
ode 375
ple 375
Sk@@ 374
uz@@ 374
chin@@ 373
eta 373
ы@@ 373
Augus@@ 372
let@@ 372
po 372
Mad@@ 371
ft 371
milit@@ 371
Techn@@ 370
cip@@ 370
prim@@ 370
CO 369
Ear@@ 369
Kis@@ 369
Soci@@ 369
edi@@ 369
udi@@ 369
Blu@@ 368
But@@ 368
Ke@@ 368
Ran@@ 368
cha 368
Hum@@ 367
Rh@@ 367
esti@@ 367
uk@@ 367
go 366
low@@ 366
sil@@ 366
bel@@ 365
vil 365
ž@@ 365
CC@@ 364
CI@@ 364
Chi@@ 364
ac 364
ans@@ 364
dor@@ 364
fic@@ 364
len@@ 364
mus@@ 364
Sel@@ 363
dec@@ 363
uch@@ 363
Fin@@ 362
ech@@ 362
ple@@ 362
so 362
3. 360
Medi@@ 360
mal@@ 360
Festival 359
not@@ 359
â@@ 359
America 358
ents 358
fus@@ 358
ree 358
yst@@ 358
net 357
onn@@ 357
tem@@ 357
Mem@@ 356
Spe@@ 356
pul@@ 356
β 355
Aus@@ 354
aer@@ 353
bit 353
gl@@ 353
ira 353
unt 353
College 352
Je@@ 352
Squ@@ 352
Bet@@ 351
Phili@@ 350
ign 350
έ@@ 350
чем 350
Boy@@ 349
First 349
La@@ 349
htt@@ 349
oria 349
Pa@@ 348
Syn@@ 348
long@@ 348
ων 348
Pow@@ 347
Vic@@ 347
hu@@ 347
optera 347
tia 347
« 347
ato 346
chi 346
kar@@ 346
Dec@@ 345
M. 345
White 345
οβ@@ 345
του 345
Sm@@ 344
Star@@ 344
Wo@@ 344
ette 344
ground 344
‎ 344
ali 343
ga 343
ls 343
κα@@ 343
φ@@ 343
Sing@@ 342
cho@@ 342
ights 342
tory 342
try 342
ture 342
Liv@@ 341
Os@@ 341
ela 341
ger@@ 341
Beau@@ 340
Pot@@ 340
oi 340
pres@@ 340
ust@@ 340
atur@@ 339
ω 339
Ti@@ 338
amo@@ 338
eni 338
zo 338
Luc@@ 337
mu@@ 337
oz@@ 337
put@@ 337
вру@@ 336
ье 336
D. 335
Deutsch@@ 335
Loc@@ 335
Pre@@ 335
ame@@ 335
lum 335
бре 335
свя@@ 335
Anth@@ 334
May@@ 334
Wol@@ 334
άν@@ 334
τσ@@ 334
Championship 333
ik 333
include 333
Ly@@ 332
Rus@@ 332
ati 332
ˈ@@ 332
θ@@ 332
iger 331
Hu@@ 330
Song 330
bil@@ 330
tis@@ 330
σι@@ 330
Commun@@ 329
unk@@ 329
wor@@ 329
αλ@@ 329
ο@@ 329
ού@@ 329
ci 328
tion@@ 328
ρο@@ 328
дой 328
B. 327
Christ@@ 327
Der 327
ache 327
alia 327
elec@@ 327
Rol@@ 326
Sun@@ 326
ney 326
ope 326
ury 326
тем 326
Fal@@ 325
ole 325
sem@@ 325
usa 325
wood 324
E. 323
Super 323
War 323
esp@@ 323
год 323
Internet 322
ische 322
ren@@ 322
Mes@@ 321
aca 321
adr@@ 321
Ba@@ 320
Cel@@ 320
Station 320
Ta@@ 320
aus 320
rot@@ 320
serv@@ 320
tre@@ 320
Dem@@ 319
non 319
ü@@ 319
начала 318
Gol@@ 317
apo@@ 317
ы 317
Lar@@ 316
key 316
mot@@ 316
ony 316
use 316
Num@@ 315
ash@@ 315
etti 315
fre@@ 315
ά 315
-- 314
DS 314
Park 314
eing 314
lobal 314
others 314
ime 313
out@@ 313
this 313
tu 313
της 313
New@@ 312
ution 312
Ak@@ 311
London 311
Ren@@ 311
USA 311
ami@@ 311
log@@ 311
ns 311
шим 311
ends 310
Ram@@ 309
enc@@ 309
ias 309
Dom@@ 308
San@@ 308
sur@@ 308
» 308
acc@@ 307
ado 307
ѧ 307
bas@@ 306
inal 306
ito 306
lig@@ 306
lock 306
rol@@ 306
их 306
Sa@@ 305
don 305
tin 305
Art 304
esi 304
ond 304
^ 303
ature 303
gin@@ 303
nov@@ 303
Ven@@ 302
das 301
var@@ 301
Rel@@ 300
ando 300
á 300
Во 300
Association 299
Ze@@ 299
aud@@ 299
GC 298
eth@@ 298
ori 298
yo@@ 298
ze@@ 298
деся@@ 298
Ind@@ 297
ff 297
Cul@@ 296
Fri@@ 296
ellas 296
ote 296
andi@@ 295
ids 295
αρ@@ 295
Ju@@ 294
iness 294
our@@ 294
στ@@ 294
ative 293
mus 293
ə@@ 293
Force 292
icro@@ 292
dition 291
row 291
top 291
world 291
Gener@@ 290
ese 290
sw@@ 290
ĸ@@ 290
azine 289
osp@@ 289
ts@@ 289
Band 288
Europe 288
Nav@@ 288
Team 288
cep@@ 288
emp@@ 288
wal@@ 288
ικ@@ 288
kl@@ 287
ont 287
astr@@ 286
ault 286
berg 286
ther 286
мой 286
стала 286
Hot@@ 285
ago 285
gia 285
yon@@ 285
ино@@ 285
All@@ 284
Road 284
ban@@ 284
edy 284
light 284
ough 284
ă@@ 284
Η@@ 284
assi@@ 283
ines 283
hom@@ 282
tiv@@ 282
@ 281
Cast@@ 281
eria 281
hi 281
plic@@ 281
ri 281
tre 281
Arg@@ 280
European 280
ding 280
Σ 280
ώ@@ 280
ствен@@ 280
asc@@ 279
oo 279
Games 278
ado@@ 278
ee 278
eme 278
pic@@ 278
tics 278
unter 278
вс@@ 278
Kin@@ 277
Young 277
bro@@ 277
elop@@ 277
Mol@@ 276
Name 276
With 276
down 276
kr@@ 276
Stand@@ 275
agen 275
ark@@ 275
den@@ 275
earch 275
nor@@ 275
uv@@ 275
Ali@@ 274
Kon@@ 274
Rev@@ 274
ider 274
oks 274
oman 274
ία 274
BA 273
lus@@ 273
pon@@ 273
Liber@@ 272
Ra@@ 272
arm@@ 272
bia 272
fu@@ 272
vari@@ 272
í 272
← 272
4. 271
Saint 271
color 271
ental 271
ins@@ 271
ort 271
Arch@@ 270
CN 270
Ges@@ 270
bis 270
π 270
Mid@@ 269
SC 269
Society 269
cy@@ 269
Bir@@ 268
esper@@ 268
Υ 268
ль 268
Alli@@ 267
Enter@@ 267
Fran@@ 267
Pon@@ 267
mul@@ 267
sia 267
ér@@ 267
ύ@@ 267
Japan 266
Kor@@ 266
Mu@@ 266
Sem@@ 266
back@@ 266
over 266
pro 266
S. 265
Sav@@ 265
ams 265
bus@@ 265
iller 265
ites 265
pur@@ 265
ton@@ 265
чело@@ 265
L. 264
Sin@@ 263
ami 263
ante 263
ian 263
ith 263
leri 263
lie 263
Got@@ 262
UK 262
ente 262
sych@@ 262
ures 262
vice 262
ying 262
ί 262
Nu@@ 261
ix 261
wi@@ 261
ερ@@ 261
Al 260
Astr@@ 260
FA 260
air 260
atre 260
ear@@ 260
enta 260
get@@ 260
land@@ 260
sum@@ 260
uta 260
י@@ 260
Austr@@ 259
arc@@ 259
nh@@ 259
ted 259
urs 259
var 259
Ha@@ 258
Lam@@ 258
egr@@ 258
esta 258
ской 258
Coun@@ 257
P. 257
ness 257
onom@@ 257
wh@@ 257
шая 257
AM 256
Dou@@ 256
ento 256
fa 256
ide@@ 256
ison 256
ld 256
Abr@@ 255
Buc@@ 255
Div@@ 255
Mul@@ 255
Publi@@ 255
lob@@ 255
Ari@@ 254
Ko@@ 254
Lon@@ 254
Paris 254
lines 254
odi@@ 254
ò 254
Af@@ 253
Maria 253
So 253
con 253
gre@@ 253
ille 253
wa 253
5. 252
Hill 252
Rot@@ 252
West@@ 252
ίας 252
201@@ 251
Rob@@ 251
ici 251
lav@@ 251
medi@@ 251
red 251
rup@@ 251
yd@@ 249
Υ@@ 249
λι@@ 249
υ@@ 249
Lang@@ 248
iden 248
liv@@ 248
align 247
nom@@ 247
ny 247
van 247
ίου 247
Fut@@ 246
ager 246
vil@@ 246
ατ@@ 246
ια 246
простра@@ 246
Bank 245
Bat@@ 245
Kn@@ 245
Spr@@ 245
ham@@ 245
met@@ 245
ας 245
Haw@@ 244
Web@@ 244
When 244
ces 244
ée 244
antas@@ 243
off@@ 243
sig@@ 243
xim@@ 243
Famil@@ 242
K. 242
coun@@ 242
less 242
ports 242
British 241
hor@@ 241
lem@@ 241
side 241
very 241
η@@ 241
Pat@@ 240
Sen@@ 240
ein 240
eli 240
mil@@ 240
mo 240
oper@@ 240
ret@@ 240
Рес@@ 240
Э@@ 240
Red@@ 239
ople 239
vel@@ 239
Film 238
Max 238
gi 238
ket 238
ret 238
½ 238
Ev@@ 237
France 237
Lat@@ 237
craft 237
etes 237
plat@@ 237
via 237
As 236
ais 236
bir@@ 236
dis 236
oca 236
å@@ 236
ū@@ 236
сси@@ 236
Great 235
North 235
Tran@@ 235
stati@@ 235
Union 234
avi@@ 234
Lor@@ 233
gal@@ 233
wo 233
yo 233
H. 232
ford 232
Mak@@ 231
Som@@ 231
St. 231
Tar@@ 231
abil@@ 231
ebr@@ 231
oug@@ 231
r. 231
rel@@ 231
vin@@ 231
DV@@ 230
Fu@@ 230
isa 230
ont@@ 230
ù 230
ī@@ 230
│ 230
Arm@@ 229
Arts 229
Doc@@ 229
Ol@@ 229
Tou@@ 229
fes@@ 229
idea 229
now 229
Ζ@@ 229
ον@@ 229
το@@ 229
Ban@@ 228
Dor@@ 228
Hall 228
body 228
ser 228
Hom@@ 227
Island 227
bo 227
eti 227
inger 227
sor@@ 227
su 227
Bos@@ 226
Juli@@ 226
m. 226
mas 226
ute 226
Ι 226
F. 225
Juni@@ 225
R. 225
aff@@ 225
ept@@ 225
fil@@ 225
isch@@ 225
Χ 225
oto 224
vers@@ 224
ו@@ 224
Bon@@ 223
ech 223
лли@@ 223
Arti@@ 222
From 222
esh@@ 222
quit@@ 222
tura 222
uti@@ 222
Φ@@ 222
din@@ 221
house 221
ories 221
prot@@ 221
Hir@@ 220
agement 220
cher 220
cle@@ 220
hur@@ 220
lon@@ 220
soci@@ 220
ă 220
ελ@@ 220
κ 220
ου@@ 220
20. 219
Progr@@ 219
West 219
endo 219
fa@@ 219
fal@@ 219
ili 219
nia 219
sis 219
yn 219
следо@@ 219
ator@@ 218
brach@@ 218
ih@@ 218
ova 218
war@@ 218
An 217
Los 217
Shi@@ 217
ellschaft 217
inf@@ 217
mit@@ 217
proc@@ 217
wo@@ 217
ür@@ 217
Clar@@ 216
State 216
kin 216
lit@@ 216
priv@@ 216
ul 216
we 216
yle 216
εν@@ 216
dig@@ 215
isp@@ 215
iter 215
men 215
nu@@ 215
qui@@ 215
ski 215
Ν 215
He 214
ats 214
cli@@ 214
even 214
let 214
tain 214
Gor@@ 213
Party 213
Prin@@ 213
ally 213
los 213
mis@@ 213
san@@ 213
Š@@ 213
Аль@@ 213
тах 213
Ham@@ 212
win@@ 212
Def@@ 211
dal@@ 211
erg@@ 211
squ@@ 211
ör@@ 211
Real 210
Tok@@ 210
Whit@@ 210
gio 210
ji 210
left 210
mod@@ 210
sac@@ 210
ç@@ 210
Ath@@ 209
Comp@@ 209
Var@@ 209
dem@@ 209
eth 209
ful@@ 209
ē@@ 209
ś@@ 209
Bay@@ 208
Cop@@ 208
Far@@ 208
Fer@@ 208
Laur@@ 208
Vel@@ 208
prise 208
tric@@ 208
ş@@ 208
Θ@@ 208
Math@@ 207
agn@@ 207
anger 207
eca 207
face 207
iki 207
ited 207
tos 207
ει@@ 207
Long 206
bac@@ 206
esa 206
ju@@ 206
mann 206
xi@@ 206
ć 206
ѫ 206
Bot@@ 205
Central 205
J. 205
Sat@@ 205
burg 205
duc@@ 205
ett@@ 205
vent@@ 205
Paul 204
Santa 204
af 204
azz 204
dom 204
ister@@ 204
mol@@ 204
Ъ 204
Institute 203
Volks@@ 203
ao 203
ards 203
bin@@ 203
mun@@ 203
sions 203
stre@@ 203
trol 203
ì@@ 203
ακ@@ 203
Fel@@ 202
Italia 202
Jean 202
Prim@@ 202
ez 202
ident@@ 202
ov 202
ō 202
Ω@@ 202
Tim@@ 201
acy 201
aft 201
ario 201
back 201
center 201
cy 201
ods 201
state 201
tol@@ 201
ή@@ 201
ѭ 201
Bri@@ 200
asa 200
comp@@ 200
tern@@ 200
uma 200
up 200
ě@@ 200
Academy 199
Ann@@ 199
Atlan@@ 199
ains 199
ego 199
omb@@ 199
ume 199
æ@@ 199
рами 199
Cle@@ 198
Orig@@ 198
aire 198
asp@@ 198
aul@@ 198
kon@@ 198
play 198
sho@@ 198
uke 198
ways 198
alli@@ 197
bran@@ 197
eros 197
lab@@ 197
ox@@ 197
pat@@ 197
vis@@ 197
well 197
ï@@ 197
αγ@@ 197
Acc@@ 196
Un 196
augh@@ 196
hal@@ 196
ho 196
hol@@ 196
orient@@ 196
right 196
ασ@@ 196
ών 196
Mun@@ 195
agon@@ 195
bon@@ 195
cula 195
elo 195
ng 195
under@@ 195
Pen@@ 194
attle 194
ega 194
ѧ@@ 194
Direc@@ 193
She@@ 193
aly@@ 193
poli@@ 193
ère 193
Dam@@ 192
Green 192
History 192
League 192
mir@@ 192
self 192
set 192
zy@@ 192
् 192
Feder@@ 191
Med@@ 191
Stre@@ 191
Tu@@ 191
esia 191
hum@@ 191
sen 191
е. 191
ages 190
bes 190
isi 190
onal@@ 190
org@@ 190
ques 190
τζ@@ 190
όν 190
South 189
cole 189
field 189
iss 189
неме@@ 189
Das 188
Don@@ 188
Land 188
Tak@@ 188
anda 188
ants 188
camp@@ 188
gh@@ 188
idge 188
type 188
Kom@@ 187
Mich@@ 187
dern 187
ering 187
hab@@ 187
sul@@ 187
wid@@ 187
yon 187
Eg@@ 186
Lev@@ 186
Nic@@ 186
dren 186
je@@ 186
nik 186
sta 186
ø@@ 186
ρα@@ 186
It@@ 185
ask@@ 185
da@@ 185
ele 185
ika 185
outh 185
wn 185
ā 185
ής 185
ками 185
East 184
Fol@@ 184
Kal@@ 184
chen 184
com 184
ew@@ 184
iti 184
not 184
ссе@@ 184
Cup 183
Mit@@ 183
Tod@@ 183
vi 183
6. 182
come 182
kan@@ 182
nes 182
spir@@ 182
stein 182
ε 182
emb@@ 181
kin@@ 181
tal 181
ums 181
τος 181
дерев@@ 181
Am 180
Bay 180
Cath@@ 180
Jan@@ 180
Radi@@ 180
cho 180
dol@@ 180
ologi@@ 180
ores 180
pil@@ 180
ross 180
wil@@ 180
ა@@ 180
Han@@ 179
Jus@@ 179
Sto@@ 179
aka 179
aux 179
equ@@ 179
erry 179
ker@@ 179
len 179
pf@@ 179
rem@@ 179
ron@@ 179
tical 179
γ 179
дах 179
Dan@@ 178
bit@@ 178
cle 178
eld 178
hel@@ 178
nas@@ 178
ords 178
struc@@ 178
super@@ 178
vid@@ 178
zen 178
έρ@@ 178
њ@@ 178
Anti@@ 177
Mari@@ 177
Pil@@ 177
Tit@@ 177
asti@@ 177
eles 177
head 177
ket@@ 177
stat@@ 177
tam@@ 177
tive 177
ves 177
λ 177
Ky@@ 176
Lou@@ 176
az 176
mid@@ 176
more 176
і 176
Brit@@ 175
Rap@@ 175
bol@@ 175
jo@@ 175
kom@@ 175
rap@@ 175
sar@@ 175
top@@ 175
Δήμ@@ 175
οχ@@ 175
ρος 175
ть 175
″ 175
199@@ 174
Dr. 174
Ere@@ 174
agu@@ 174
alar@@ 174
ean 174
mad@@ 174
ment@@ 174
na@@ 174
nat@@ 174
trans@@ 174
μπ@@ 174
ρί@@ 174
ември 174
Mod@@ 173
dou@@ 173
olo 173
tern 173
чной 173
Bru@@ 172
King@@ 172
asi 172
ef 172
ely 172
für 172
he 172
pot@@ 172
ї@@ 172
Brown 171
Der@@ 171
Gh@@ 171
Hen@@ 171
Natur@@ 171
dar@@ 171
iki@@ 171
mos@@ 171
rent 171
Kl@@ 170
Wit@@ 170
beg@@ 170
edo 170
iga 170
ique 170
ner@@ 170
syl@@ 170
196@@ 169
Cru@@ 169
Martin 169
Revol@@ 169
section 169
ties 169
ustri@@ 169
στα 169
ё@@ 169
Chem@@ 168
David 168
George 168
Tem@@ 168
W. 168
dle 168
ham 168
lip@@ 168
ular 168
ː 168
Gra@@ 167
Land@@ 167
Si 167
abri@@ 167
ater@@ 167
cir@@ 167
les@@ 167
off 167
ots 167
ę@@ 167
сть 167
Men@@ 166
ail 166
anti 166
any@@ 166
eck 166
ion@@ 166
iy@@ 166
mes 166
ship 166
των 166
Rog@@ 165
alis@@ 165
ck 165
itz 165
ολ@@ 165
апри@@ 165
ա@@ 165
Est@@ 164
ington 164
ism 164
multi@@ 164
patr@@ 164
Bou@@ 163
Gaz@@ 163
Hein@@ 163
chia 163
ende 163
ido 163
ince 163
japon@@ 163
lim@@ 163
µ@@ 163
är@@ 163
Η 163
οι 163
Gold@@ 162
Mos@@ 162
UE@@ 162
can 162
ences 162
ous@@ 162
Bil@@ 161
ej@@ 161
neg@@ 161
polis 161
tut@@ 161
while 161
ô@@ 161
ρά@@ 161
Фридри@@ 161
--@@ 160
Sand@@ 160
aun@@ 160
depend@@ 160
ji@@ 160
sive 160
® 160
ó 160
ù@@ 160
ː@@ 160
τα@@ 160
Harr@@ 159
James 159
ais@@ 159
amo 159
cio 159
conom@@ 159
lev@@ 159
ord 159
trop@@ 159
uss@@ 159
нее 159
Wer@@ 158
aqu@@ 158
mark 158
radi@@ 158
ram@@ 158
sche 158
uh@@ 158
ump@@ 158
Α 158
Τσ@@ 158
By 157
alt@@ 157
eleg@@ 157
fic 157
fri@@ 157
inga 157
viv@@ 157
Č@@ 157
California 156
Geor@@ 156
dam@@ 156
imb@@ 156
lov@@ 156
nit@@ 156
plus 156
res 156
ween 156
муниципа@@ 156
чей 156
Bed@@ 155
Kit@@ 155
Kur@@ 155
Nat@@ 155
Tex@@ 155
fur@@ 155
mem@@ 155
min 155
pos 155
som@@ 155
ón 155
Μπ@@ 155
Alb@@ 154
Blan@@ 154
Historia 154
ag 154
lers 154
pap@@ 154
ses 154
ustr@@ 154
wat@@ 154
сом 154
Patr@@ 153
Sig@@ 153
bri@@ 153
dur@@ 153
fe 153
ons@@ 153
person@@ 153
Ο 153
να 153
объ@@ 153
Las 152
Michael 152
ald 152
bert 152
cit@@ 152
eu 152
ift 152
jo 152
teri@@ 152
tice 152
ão 152
ского 152
Ig@@ 151
ien 151
ier 151
kel@@ 151
lar 151
rea 151
сь 151
Europ@@ 150
alls 150
ior 150
nati@@ 150
йской 150
шта@@ 150
љ@@ 150
Rail@@ 149
Robert 149
ands 149
bun@@ 149
ece 149
gel@@ 149
lad@@ 149
zon@@ 149
ιν@@ 149
Ѐ@@ 149
Росси@@ 149
Form@@ 148
Seg@@ 148
She 148
Tang@@ 148
net@@ 148
where 148
ские 148
II. 147
Reich@@ 147
def@@ 147
pas@@ 147
pri@@ 147
umin@@ 147
αμ@@ 147
сут@@ 147
Lag@@ 146
Rad@@ 146
cam@@ 146
form 146
ult@@ 146
wan@@ 146
ì 146
фут@@ 146
Scot@@ 145
William 145
flu@@ 145
hon@@ 145
port@@ 145
umb@@ 145
verse 145
DR 144
Jones 144
Van 144
ements 144
eur 144
gen 144
ité 144
sam@@ 144
š 144
ему 144
Az@@ 143
Beg@@ 143
China 143
Gran@@ 143
Liter@@ 143
ating 143
ces@@ 143
cht@@ 143
cons@@ 143
kel 143
umba 143
ú@@ 143
ομ@@ 143
неско@@ 143
Peter 142
Premi@@ 142
Wan@@ 142
ason 142
ert 142
ete 142
gul@@ 142
igu@@ 142
mur@@ 142
uni@@ 142
§ 142
сторо@@ 142
After 141
Yah@@ 141
ality 141
eon@@ 141
estra 141
fel@@ 141
oli 141
thern 141
under 141
сент@@ 141
ских 141
7. 140
At 140
River 140
Rou@@ 140
Tow@@ 140
media 140
mit 140
pon 140
rac@@ 140
rus@@ 140
én@@ 140
άκ@@ 140
Au 139
High@@ 139
ape 139
book 139
data 139
ges 139
mes@@ 139
odes 139
pis@@ 139
win 139
ού 139
τι@@ 139
ה@@ 139
Album 138
Maj@@ 138
Mill@@ 138
There 138
emati@@ 138
usi@@ 138
ven 138
za@@ 138
λε@@ 138
English 137
Ku@@ 137
Nik@@ 137
Organ@@ 137
aro@@ 137
eau 137
major 137
qua 137
uld 137
Ale@@ 136
Louis 136
Vil@@ 136
bet@@ 136
eur@@ 136
imi 136
star@@ 136
tif@@ 136
ı 136
αυ@@ 136
μ 136
ი@@ 136
Ing@@ 135
aborat@@ 135
aco 135
alog@@ 135
anta 135
ben@@ 135
change 135
ext@@ 135
ingu@@ 135
polit@@ 135
ville 135
ye@@ 135
î@@ 135
Kan@@ 134
Lis@@ 134
States 134
iro 134
life 134
new@@ 134
ols 134
ovi@@ 134
tha 134
tul@@ 134
using 134
wa@@ 134
Domin@@ 133
Dur@@ 133
Prix 133
Vit@@ 133
americ@@ 133
ander@@ 133
cia 133
els@@ 133
ev 133
og 133
ose 133
que@@ 133
round 133
ą@@ 133
ных 133
распо@@ 133
Chap@@ 132
Conn@@ 132
Kir@@ 132
Tan@@ 132
Thi@@ 132
Tour@@ 132
chan@@ 132
eter 132
ext 132
lag 132
lin 132
άρ@@ 132
αι@@ 132
δ 132
Bern@@ 131
Canada 131
Din@@ 131
Lord 131
Roy@@ 131
alc@@ 131
asse 131
dit 131
enz@@ 131
gro@@ 131
ingi 131
iri 131
sey 131
sur 131
ungs@@ 131
zu 131
Charles 130
Eri@@ 130
aya 130
ei@@ 130
ographi@@ 130
onal 130
÷ 130
Ω 130
ј 130
Da 129
Indi@@ 129
bot@@ 129
dem 129
fun@@ 129
sch 129
∞ 129
Andre@@ 128
Marie 128
Sher@@ 128
Um@@ 128
amer@@ 128
fast 128
ills 128
itz@@ 128
liber@@ 128
oti@@ 128
ow 128
vers 128
εί@@ 128
Ј@@ 128
ѡ@@ 128
Division 127
Mary 127
Sain@@ 127
aba 127
arti@@ 127
her 127
main 127
peti@@ 127
plan@@ 127
σκ@@ 127
стей 127
َ@@ 127
Centre 126
Nar@@ 126
atis@@ 126
bers 126
lay@@ 126
lec@@ 126
trol@@ 126
uri 126
án 126
ργ@@ 126
א@@ 126
Bud@@ 125
Emp@@ 125
cont@@ 125
eder@@ 125
elt 125
formation 125
num@@ 125
rev@@ 125
version 125
works 125
ī 125
άς 125
Clau@@ 124
Washington 124
dev@@ 124
trong 124
ê@@ 124
ð@@ 124
ż@@ 124
Κα@@ 124
να@@ 124
πο@@ 124
σ 124
Id@@ 123
Ki@@ 123
ait 123
bon 123
cos@@ 123
ilio 123
itali@@ 123
music 123
nationale 123
ras@@ 123
vor 123
Ά@@ 123
ισ@@ 123
ר@@ 123
198@@ 122
Hav@@ 122
Kat@@ 122
Mand@@ 122
Mont@@ 122
Pau@@ 122
Rod@@ 122
Sup@@ 122
Vor@@ 122
Wa@@ 122
Women 122
alla 122
ample 122
aro 122
but@@ 122
dan@@ 122
gir@@ 122
obj@@ 122
pia 122
urt 122
тами 122
Ash@@ 121
Beh@@ 121
Cab@@ 121
Hand@@ 121
atri@@ 121
cell@@ 121
esch@@ 121
get 121
mis 121
sm@@ 121
tab@@ 121
tas@@ 121
ב@@ 121
Esp@@ 120
Ker@@ 120
Milit@@ 120
Ni 120
Oli@@ 120
chester 120
colspan 120
ease 120
ects 120
eer 120
kal@@ 120
ks@@ 120
ä 120
ορ@@ 120
кие 120
Afr@@ 119
Army 119
Hab@@ 119
Steph@@ 119
ades 119
aye 119
ordin@@ 119
sep@@ 119
unda 119
öl@@ 119
απ@@ 119
δι@@ 119
φ 119
Ἀ@@ 119
Jac@@ 118
Thom@@ 118
Thomas 118
istes 118
may@@ 118
point 118
schaft 118
tot@@ 118
ues 118
έλ@@ 118
λα@@ 118
лы@@ 118
Den@@ 117
Hit@@ 117
Son 117
Texas 117
action 117
cri@@ 117
idi 117
kil@@ 117
tn@@ 117
་ 117
Ay@@ 116
anci@@ 116
case 116
cru@@ 116
dé@@ 116
ester 116
sei 116
ίδ@@ 116
ίν@@ 116
муници@@ 116
197@@ 115
Cou@@ 115
Jer@@ 115
aha 115
bes@@ 115
bis@@ 115
contr@@ 115
cum@@ 115
lands 115
mission 115
pop 115
prop@@ 115
sian 115
sin 115
tei 115
wer 115
ía 115
ες 115
ξ@@ 115
8. 114
Carol@@ 114
FIFA 114
alth 114
ender 114
event@@ 114
gs 114
imi@@ 114
iter@@ 114
jam@@ 114
nd@@ 114
opp@@ 114
pi 114
Γκ@@ 114
ῶ@@ 114
Joe 113
Mah@@ 113
Una 113
eck@@ 113
ges@@ 113
lich@@ 113
vor@@ 113
és 113
ɛ@@ 113
άλ@@ 113
τά@@ 113
Carl 112
Lee 112
Victoria 112
atro 112
ches 112
enes 112
eno 112
ety 112
mach@@ 112
mati@@ 112
spec@@ 112
ush@@ 112
ú 112
Θε@@ 112
εκ 112
Bec@@ 111
Henry 111
Town 111
alan@@ 111
doc@@ 111
enas 111
fore 111
loy@@ 111
number 111
that 111
uy@@ 111
än@@ 111
ры@@ 111
0.000 110
ders 110
eine 110
isch 110
ischen 110
kor@@ 110
rod@@ 110
tempor@@ 110
undo 110
éri@@ 110
όν@@ 110
Ѝ@@ 110
ные 110
Apr@@ 109
Et@@ 109
Gru@@ 109
Sus@@ 109
Tab@@ 109
Vill@@ 109
aliz@@ 109
ebe 109
ells 109
ett 109
hiz@@ 109
mari@@ 109
plac@@ 109
qui 109
sat@@ 109
Ö@@ 109
αρχ@@ 109
מ@@ 109
Jack 108
Kh@@ 108
Ober@@ 108
Rep@@ 108
Rum@@ 108
gol@@ 108
iment 108
inst@@ 108
stor@@ 108
wr@@ 108
ć@@ 108
Καρ@@ 108
κλ@@ 108
нако 108
нь 108
ἐ@@ 108
Aug@@ 107
Bun@@ 107
Hug@@ 107
Kil@@ 107
Luf@@ 107
Smith 107
aa 107
anes 107
aug@@ 107
ban 107
dri@@ 107
ken@@ 107
kn@@ 107
ouv@@ 107
ris@@ 107
Ü@@ 107
ό 107
населения 107
ἀ@@ 107
195@@ 106
Archit@@ 106
Christian 106
Grande 106
Kap@@ 106
Sul@@ 106
kat@@ 106
sour@@ 106
tres 106
uno 106
ū 106
άσ@@ 106
ћ 106
Fir@@ 105
Maur@@ 105
ave@@ 105
awa 105
far@@ 105
fo 105
gem@@ 105
hem 105
imo 105
nav@@ 105
prom@@ 105
sea 105
été 105
ность 105
Dav@@ 104
Inn@@ 104
cro@@ 104
ency 104
gener@@ 104
indic@@ 104
ishing 104
oci@@ 104
pun@@ 104
ule 104
van@@ 104
ţ@@ 104
Μα@@ 104
έν@@ 104
μα 104
ων@@ 104
февру@@ 104
ћ@@ 104
Rich@@ 103
Stadi@@ 103
ball 103
gil@@ 103
ident 103
ird 103
minut@@ 103
τα 103
19. 102
190@@ 102
Ital@@ 102
ango 102
aut@@ 102
bec@@ 102
dan 102
ener 102
fran@@ 102
ize 102
kan 102
kir@@ 102
mak@@ 102
med@@ 102
real 102
ui 102
αβ@@ 102
ე@@ 102
----@@ 101
Amer@@ 101
Berlin 101
Hil@@ 101
Joh@@ 101
Joseph 101
Kun@@ 101
Mé@@ 101
Nam@@ 101
Richard 101
Riv@@ 101
alg@@ 101
apa 101
ares 101
atom@@ 101
bli@@ 101
cht 101
deg@@ 101
ective 101
edr@@ 101
eron 101
lau@@ 101
ling@@ 101
rain 101
stand@@ 101
syst@@ 101
tex@@ 101
uni 101
yan 101
ə 101
χειρ@@ 101
ступ@@ 101
ל@@ 101
Bib@@ 100
Roma 100
abeth 100
atin 100
bar 100
eto 100
live 100
test 100
voc@@ 100
ты 100
0,000 99
Arab@@ 99
Kol@@ 99
Stan@@ 99
atia 99
dir@@ 99
domin@@ 99
dre@@ 99
enter 99
erra 99
has@@ 99
his 99
lag@@ 99
ley@@ 99
oro 99
rif@@ 99
uel 99
ны 99
≈ 99
Africa 98
Bras@@ 98
Milli@@ 98
Stra@@ 98
Tom 98
Yo@@ 98
ación 98
adem@@ 98
eds 98
ogr@@ 98
put 98
viol@@ 98
резу@@ 98
Kre@@ 97
Lud@@ 97
anga 97
bour@@ 97
into 97
itu@@ 97
onde 97
октом@@ 97
э 97
☉ 97
9. 96
Kenn@@ 96
Sau@@ 96
aine 96
ause 96
endi@@ 96
enth@@ 96
essor 96
fem@@ 96
indi@@ 96
ishi 96
like 96
nier 96
public@@ 96
sta@@ 96
tific@@ 96
trac@@ 96
urg@@ 96
ę 96
ίσ@@ 96
θε@@ 96
ρου 96
ках 96
ש@@ 96
Jes@@ 95
Mass@@ 95
Se 95
anza 95
away 95
ben 95
cant@@ 95
enf@@ 95
ku 95
lang@@ 95
lic@@ 95
liche 95
mand@@ 95
sav@@ 95
spi@@ 95
tec@@ 95
ungen 95
º@@ 95
Κά@@ 95
ητ@@ 95
τ 95
тот 95
რ@@ 95
Chicago 94
England 94
Her 94
His 94
ected 94
esse 94
fle@@ 94
hip 94
ities 94
strum@@ 94
test@@ 94
umia 94
yer 94
án@@ 94
Αγ@@ 94
τη 94
ском 94
є@@ 94
ѿ 94
ῆ@@ 94
├ 94
Has@@ 93
adi 93
aves 93
eas@@ 93
ement@@ 93
gan 93
icia 93
libr@@ 93
pre 93
stell@@ 93
ud 93
uer@@ 93
ward 93
was 93
wn@@ 93
ü 93
ý@@ 93
Νικ@@ 93
ψ@@ 93
ი 93
Alexand@@ 92
Church 92
Football 92
Franc@@ 92
Museum 92
Profes@@ 92
Sz@@ 92
band 92
ble@@ 92
cab@@ 92
ference 92
front 92
isse 92
shire 92
sing@@ 92
àn 92
Ş@@ 92
ίκ@@ 92
γκ@@ 92
διά 92
θ 92
где 92
Ab 91
Kam@@ 91
Kle@@ 91
U.S. 91
Wes@@ 91
ainst 91
aki 91
ann 91
chap@@ 91
cine 91
coll@@ 91
gesch@@ 91
hips 91
liz@@ 91
mal 91
otte 91
versi@@ 91
Παλ@@ 91
ευ@@ 91
σα 91
ших 91
נ@@ 91
Dal@@ 90
How@@ 90
Ka@@ 90
Mut@@ 90
Zi@@ 90
active 90
audi@@ 90
blan@@ 90
gan@@ 90
ices 90
phi 90
riv@@ 90
senti@@ 90
sou@@ 90
ston 90
vern@@ 90
web 90
él@@ 90
сель@@ 90
Bang@@ 89
Bow@@ 89
Nob@@ 89
Pierre 89
Sport@@ 89
ament 89
antes 89
aut 89
cher@@ 89
ilk 89
jan@@ 89
par 89
rey 89
rock 89
uk 89
vet@@ 89
xa 89
Λι@@ 89
шей 89
ὶ 89
Anc@@ 88
Angeles 88
Dé@@ 88
Ern@@ 88
Hung@@ 88
Lake 88
Law@@ 88
Universit@@ 88
alifor@@ 88
dings 88
esto 88
first 88
flo@@ 88
ij@@ 88
mess@@ 88
ministr@@ 88
ned 88
nes@@ 88
schi@@ 88
sign@@ 88
tak@@ 88
tan 88
typ@@ 88
uli 88
vita 88
Δημ@@ 88
μα@@ 88
τρ@@ 88
сс 88
ῖ@@ 88
.S. 87
Champi@@ 87
Educ@@ 87
En 87
Ré@@ 87
Tay@@ 87
Western 87
area 87
estruc@@ 87
eva 87
kol@@ 87
ough@@ 87
pen 87
rad@@ 87
resul@@ 87
sci@@ 87
tit@@ 87
æ 87
ως 87
ды 87
отме@@ 87
ѥ@@ 87
ლ@@ 87
Chin@@ 86
Hist@@ 86
Rein@@ 86
Was@@ 86
any 86
eren 86
fir@@ 86
ingen 86
ists 86
mut@@ 86
och 86
olf 86
regi@@ 86
rier 86
stan@@ 86
vin 86
wen@@ 86
yer@@ 86
Με@@ 86
οδ@@ 86
τον 86
Ѫ@@ 86
Cant@@ 85
Lan@@ 85
Person@@ 85
ational 85
bach 85
cast 85
cou@@ 85
dav@@ 85
eller 85
fon@@ 85
iles 85
imin@@ 85
ires 85
ischer 85
kul@@ 85
limit@@ 85
lit 85
obr@@ 85
onder@@ 85
oso 85
ples 85
sun@@ 85
town 85
ules 85
unds 85
vie@@ 85
wing 85
δο@@ 85
одно@@ 85
ِ@@ 85
Bak@@ 84
Con 84
Nati@@ 84
Sant@@ 84
ances 84
aver@@ 84
bot 84
commun@@ 84
each 84
igo 84
kle@@ 84
model 84
natur@@ 84
olas 84
ologie 84
onne 84
orial 84
osh@@ 84
over@@ 84
reich@@ 84
sing 84
sist@@ 84
spr@@ 84
tima 84
unter@@ 84
water 84
ı@@ 84
Αν@@ 84
κο@@ 84
ρίου 84
сса 84
≤ 84
194@@ 83
Bad@@ 83
Bah@@ 83
Barr@@ 83
Maz@@ 83
Way@@ 83
ames 83
burg@@ 83
cost@@ 83
div@@ 83
elles 83
este 83
lem 83
mont@@ 83
orio 83
part 83
phot@@ 83
quar@@ 83
rou@@ 83
tag@@ 83
war 83
Γι@@ 83
Παν@@ 83
άδ@@ 83
έ 83
.C. 82
Eliz@@ 82
aces 82
ador 82
enci@@ 82
erk@@ 82
kop@@ 82
kun@@ 82
lik 82
ought 82
strat@@ 82
vat@@ 82
ß 82
ül@@ 82
ý 82
ική 82
τω 82
вый 82
Anna 81
John@@ 81
Pier@@ 81
a. 81
anne 81
ats@@ 81
comm@@ 81
endi 81
hat@@ 81
kis@@ 81
kur@@ 81
mir 81
pedi@@ 81
tir@@ 81
ɪ@@ 81
ո@@ 81
Ah@@ 80
Friedrich 80
May 80
Ou@@ 80
Sin 80
abl@@ 80
aç@@ 80
bos@@ 80
cad@@ 80
din 80
dos 80
maj@@ 80
para 80
speci@@ 80
zum 80
Μακεδ@@ 80
ه@@ 80
‚ 80
Fam@@ 79
Gas@@ 79
Gil@@ 79
Hat@@ 79
India 79
Jug@@ 79
Nord 79
Tenn@@ 79
azar@@ 79
ck@@ 79
cos 79
curr@@ 79
fi 79
isco 79
kw@@ 79
oj@@ 79
tari@@ 79
thi 79
tier 79
ulu 79
year 79
zon 79
ét@@ 79
ñ@@ 79
Ȣ@@ 79
ɔ@@ 79
Ιωάν@@ 79
ιος 79
ד@@ 79
ה 79
の@@ 79
Andr@@ 78
Australian 78
Braz@@ 78
Council 78
Jam@@ 78
Ny@@ 78
aber 78
ander 78
ehr@@ 78
eil 78
hac@@ 78
ition 78
itung 78
list@@ 78
lu 78
ort@@ 78
plas@@ 78
rati@@ 78
sed 78
tar 78
tun@@ 78
Ç@@ 78
č 78
λλ@@ 78
νη 78
όλ@@ 78
όρ@@ 78
ший 78
187@@ 77
Deb@@ 77
Greg@@ 77
Karl 77
adel@@ 77
amar@@ 77
auc@@ 77
bio 77
emi 77
fied 77
fort 77
kre@@ 77
mittee 77
mond 77
pass@@ 77
sten 77
uses 77
vention 77
ř@@ 77
Πολ@@ 77
οσ@@ 77
ουλ@@ 77
χει@@ 77
вы@@ 77
Nak@@ 76
Tol@@ 76
Walter 76
aining 76
centr@@ 76
have 76
juli@@ 76
mili@@ 76
ological 76
only 76
parti@@ 76
pour 76
rio 76
sion@@ 76
tico 76
vel 76
wak@@ 76
ya@@ 76
Á@@ 76
ár@@ 76
ą 76
є 76
Academ@@ 75
Asia 75
Boston 75
Institu@@ 75
Ken@@ 75
Kö@@ 75
atos 75
bu 75
eff@@ 75
gun@@ 75
lam 75
tes@@ 75
tors 75
ł 75
εκ@@ 75
ογ@@ 75
цы 75
Alex@@ 74
Biz@@ 74
Gem@@ 74
Histori@@ 74
Mik@@ 74
apar@@ 74
bs 74
date 74
etti@@ 74
han@@ 74
hav@@ 74
inde@@ 74
iz 74
kara 74
lie@@ 74
metal 74
mig@@ 74
pio 74
rid 74
rie 74
semb@@ 74
xe 74
Καλ@@ 74
εν 74
πολι@@ 74
ρού@@ 74
ῦ 74
™ 74
Bill@@ 73
Flor@@ 73
Francisco 73
Histoire 73
board 73
chn@@ 73
europ@@ 73
fig@@ 73
fron@@ 73
ging 73
imp@@ 73
lek@@ 73
rant 73
tural 73
uki 73
werk 73
ń@@ 73
Δι@@ 73
ις 73
λά@@ 73
νης 73
County 72
Hay@@ 72
Pour 72
Simon 72
They 72
anas 72
angel@@ 72
bei 72
bin 72
bridge 72
dest@@ 72
fall@@ 72
leng@@ 72
park 72
sky 72
sons 72
tran@@ 72
ö 72
ě 72
Δ 72
Μπο@@ 72
ών@@ 72
Боль@@ 72
ꙑ@@ 72
Yor@@ 71
acht 71
anim@@ 71
eux 71
gether 71
hand@@ 71
kit@@ 71
kt 71
lik@@ 71
lor 71
met 71
show 71
tru@@ 71
tt@@ 71
uss 71
wel@@ 71
Περ@@ 71
ья 71
س@@ 71
192@@ 70
193@@ 70
Bau@@ 70
Kas@@ 70
Rud@@ 70
ables 70
bol 70
bom@@ 70
cial 70
ern 70
iche 70
inv@@ 70
ligh@@ 70
sab@@ 70
say@@ 70
¬ 70
õ@@ 70
Άν@@ 70
αδ@@ 70
ηλ@@ 70
υπ@@ 70
υρ@@ 70
ты@@ 70
.000 69
Bundes@@ 69
Daniel 69
Jor@@ 69
Kul@@ 69
Penn@@ 69
allen 69
asser 69
ecture 69
ierra 69
sort 69
system 69
yal@@ 69
ğ@@ 69
ούλ@@ 69
ългар@@ 69
ם 69
Ant@@ 68
Gel@@ 68
Institut 68
Jack@@ 68
Tam@@ 68
Tek@@ 68
aud 68
aza 68
añ@@ 68
bab@@ 68
blo@@ 68
boy@@ 68
his@@ 68
lot 68
ograph@@ 68
ongo@@ 68
ool 68
prises 68
üt@@ 68
İ@@ 68
ύρ@@ 68
Его 68
ր@@ 68
ὐ@@ 68
Kais@@ 67
Leon@@ 67
Nord@@ 67
Ost@@ 67
Pad@@ 67
Wir@@ 67
abe 67
amin@@ 67
arias 67
dat@@ 67
dil@@ 67
fall 67
hai 67
heim 67
kt@@ 67
long 67
onald 67
road 67
ste 67
syn@@ 67
title 67
trav@@ 67
té 67
vas@@ 67
vie 67
zur 67
äl@@ 67
ετ@@ 67
όσ@@ 67
ნ@@ 67
្ 67
186@@ 66
Ba 66
Ein@@ 66
Kad@@ 66
Kim@@ 66
Nacional 66
Spi@@ 66
Virginia 66
annes 66
aster@@ 66
but 66
elt@@ 66
eral 66
ig 66
ige 66
ked 66
mont 66
omin@@ 66
ority 66
pad@@ 66
spe@@ 66
tique 66
tour 66
umi 66
ór@@ 66
Alexander 65
Bes@@ 65
Cum@@ 65
Johnson 65
Kri@@ 65
NBA 65
Scott 65
base 65
bau@@ 65
dans 65
dh@@ 65
dist@@ 65
edit@@ 65
ember 65
eyi 65
fica 65
him@@ 65
igi@@ 65
iler 65
iste 65
jer@@ 65
law@@ 65
ments 65
perior 65
post 65
publ@@ 65
schule 65
tad@@ 65
track 65
two 65
έα 65
ην@@ 65
οφ@@ 65
ρε@@ 65
ию@@ 65
ر@@ 65
ي@@ 65
,000 64
Alg@@ 64
Australia 64
Edward 64
Ord@@ 64
Roman 64
arte 64
eas 64
enberg 64
force 64
geri 64
icio 64
illo 64
inning 64
sel 64
tag 64
tional 64
writ@@ 64
zel@@ 64
ás 64
ǎ@@ 64
Ξ@@ 64
γι@@ 64
οπ@@ 64
παρ@@ 64
мы 64
Govern@@ 63
Heinrich 63
Shu@@ 63
Wilhelm 63
agne 63
alen 63
ardo 63
bou@@ 63
eki 63
emple 63
group 63
ina@@ 63
ingo 63
kap@@ 63
mar 63
next 63
ob 63
orie 63
ref@@ 63
toria 63
uo 63
visi@@ 63
Он 63
августа 63
ْ@@ 63
ვ@@ 63
Anton@@ 62
Deutschland 62
Europa 62
Gran 62
Les@@ 62
Nach@@ 62
Seb@@ 62
alo 62
atur 62
auf 62
car 62
chen@@ 62
det@@ 62
frag@@ 62
gar 62
ils 62
ismo 62
lang 62
mani@@ 62
nos 62
offici@@ 62
ono 62
order 62
stanbul 62
sup@@ 62
tech@@ 62
tur 62
uz 62
ön@@ 62
Ό@@ 62
ζ 62
смер@@ 62
ע@@ 62
Kos@@ 61
Pf@@ 61
artic@@ 61
ded 61
engine 61
fication 61
ific@@ 61
ilo 61
lies 61
mix@@ 61
sir@@ 61
tly 61
ui@@ 61
ved 61
wes@@ 61
ég@@ 61
ē 61
Ε 61
Παπ@@ 61
ίων 61
ιά 61
πλ@@ 61
испо@@ 61
чь 61
ָ@@ 61
ת 61
Albert 60
Canadi@@ 60
Kamp@@ 60
abor@@ 60
ahl@@ 60
ande 60
atura 60
auer 60
avi 60
bre 60
chem@@ 60
chev@@ 60
forman@@ 60
hie 60
kam@@ 60
led 60
nea 60
produc@@ 60
seg@@ 60
tent 60
vier 60
west 60
zen@@ 60
âteau 60
უ@@ 60
189@@ 59
Hoch@@ 59
Mär@@ 59
These 59
Unter@@ 59
Wag@@ 59
capit@@ 59
cla@@ 59
eg 59
einer 59
eka 59
erst@@ 59
iko 59
oir 59
sti 59
trag@@ 59
ulia 59
þ@@ 59
βι@@ 59
μά@@ 59
μι@@ 59
время 59
скус@@ 59
язы@@ 59
џ@@ 59
ѡ 59
ן 59
ل@@ 59
17. 58
Frank 58
Jos@@ 58
Mex@@ 58
Ok@@ 58
Sak@@ 58
ados 58
bora 58
bury 58
cent@@ 58
dam 58
det 58
entes 58
etz@@ 58
format 58
had 58
kö@@ 58
ongo 58
serie 58
tain@@ 58
util@@ 58
zer@@ 58
Ś@@ 58
Έ@@ 58
Γεω@@ 58
λί@@ 58
τερ@@ 58
τιμ@@ 58
το 58
τσι 58
ких 58
мы@@ 58
მ@@ 58
Rech@@ 57
Sach@@ 57
Sah@@ 57
ativ@@ 57
dir 57
dra@@ 57
ede 57
ended 57
film 57
grav@@ 57
head@@ 57
identi@@ 57
many 57
mula 57
nen 57
see 57
then 57
urg 57
wig 57
¼ 57
ün@@ 57
ησι@@ 57
ιλ@@ 57
πρ@@ 57
ق@@ 57
ἰ@@ 57
Arthur 56
Klo@@ 56
Olympi@@ 56
Premier 56
Williams 56
ansa 56
control 56
dial 56
eler 56
high 56
iff 56
isten 56
leo 56
lib@@ 56
mah@@ 56
map@@ 56
ography 56
pend@@ 56
trad@@ 56
used 56
én 56
ín 56
û@@ 56
Παρ@@ 56
ημ@@ 56
όβ@@ 56
Ь 56
ს@@ 56
Hau@@ 55
Wak@@ 55
aden 55
alled 55
azi 55
berto 55
caus@@ 55
conn@@ 55
cour@@ 55
cription 55
docum@@ 55
echo 55
has 55
icos 55
ife 55
law 55
ois 55
power 55
ppe 55
ses@@ 55
stadt 55
stant@@ 55
vec@@ 55
will 55
äd@@ 55
ça 55
Κ 55
αθ@@ 55
ιερ@@ 55
μαν@@ 55
μν@@ 55
οκ@@ 55
περ@@ 55
ραν@@ 55
υλ@@ 55
бы@@ 55
ְ@@ 55
ּ@@ 55
ח@@ 55
ِ 55
ო@@ 55
Democ@@ 54
Flug@@ 54
Grou@@ 54
Herr@@ 54
Hosp@@ 54
Jackson 54
Ji@@ 54
Jose@@ 54
Papa 54
St 54
ativa 54
eng 54
eure 54
fan@@ 54
fen@@ 54
haus 54
ible 54
onen 54
ording 54
plan 54
por 54
program 54
rat 54
sera 54
tiva 54
uba 54
vania 54
ž 54
Κυ@@ 54
σης 54
ωγ@@ 54
ны@@ 54
ն@@ 54
ح@@ 54
া@@ 54
⁄ 54
≥ 54
└ 54
Arbeit@@ 53
Baz@@ 53
Juan 53
Kab@@ 53
Lig@@ 53
Nag@@ 53
about 53
acter@@ 53
ahr@@ 53
alit@@ 53
amba 53
ancia 53
anos 53
bed@@ 53
ectiv@@ 53
embr@@ 53
erie 53
father 53
isis 53
mam@@ 53
position 53
red@@ 53
riff@@ 53
sie 53
solo 53
tou@@ 53
uj@@ 53
ving 53
¡ 53
ém@@ 53
έξ@@ 53
ϊ@@ 53
России 53
ать 53
ִ@@ 53
כ@@ 53
ῦ@@ 53
188@@ 52
Ali 52
Alt@@ 52
August 52
Florida 52
Haz@@ 52
Jap@@ 52
Politi@@ 52
acha 52
acu@@ 52
aise 52
atu 52
ball@@ 52
best 52
cas 52
eda 52
entre 52
esh 52
isha 52
jus@@ 52
proj@@ 52
zona 52
´ 52
Ä@@ 52
ées 52
ė 52
ɑ@@ 52
αν 52
ικό 52
πι@@ 52
τί@@ 52
όκ@@ 52
времени 52
ن@@ 52
ბ@@ 52
13. 51
Alfre@@ 51
Brand@@ 51
Chic@@ 51
Ein 51
Frank@@ 51
Nig@@ 51
Nis@@ 51
Schwar@@ 51
Sir 51
Vik@@ 51
ability 51
ague 51
alist 51
auf@@ 51
ayo 51
dul@@ 51
inci 51
kia 51
ograf@@ 51
open@@ 51
partment 51
pas 51
place 51
play@@ 51
weg@@ 51
wi 51
yar@@ 51
ène 51
ès 51
ın 51
̯ 51
Προ@@ 51
γραφ@@ 51
εύ@@ 51
ιχ@@ 51
κας 51
τικής 51
йский 51
куль@@ 51
ческий 51
ѹ 51
م@@ 51
ꙑ 51
Jersey 50
Johann 50
March 50
Sta@@ 50
Yes@@ 50
alt 50
ana@@ 50
aten 50
city 50
due 50
elem@@ 50
guit@@ 50
hau@@ 50
igh 50
liter@@ 50
nig 50
second 50
single 50
œ@@ 50
Ž@@ 50
Πέ@@ 50
γραμ@@ 50
ιδ@@ 50
κι@@ 50
υν@@ 50
όπ@@ 50
собо@@ 50
ссо@@ 50
ب@@ 50
د 50
ه 50
រ@@ 50
Argent@@ 49
Ben 49
DNA 49
Film@@ 49
Kaz@@ 49
aland 49
building 49
educ@@ 49
famili@@ 49
gli@@ 49
kri@@ 49
lan 49
lim 49
lé@@ 49
mom@@ 49
nie 49
oy 49
progr@@ 49
sk 49
terior 49
zar@@ 49
zone 49
ė@@ 49
˚ 49
Λ 49
μπο@@ 49
ορο@@ 49
ρέ@@ 49
ρυ@@ 49
σημ@@ 49
Э 49
лы 49
сс@@ 49
что@@ 49
≠ 49
Geschichte 48
Kim 48
Mün@@ 48
Neu@@ 48
aller 48
apon 48
direc@@ 48
dorf 48
ehr 48
elen 48
enda 48
enst@@ 48
ezi 48
isation 48
itation 48
its@@ 48
jun@@ 48
jur@@ 48
popul@@ 48
pose 48
requ@@ 48
rich 48
song 48
stand 48
yu 48
ál@@ 48
å 48
ś 48
αστ@@ 48
αφ@@ 48
εις 48
θος 48
ξ 48
οί 48
ουσ@@ 48
ρι 48
χώ@@ 48
ры 48
ќ@@ 48
� 48
Christi@@ 47
Kid@@ 47
National@@ 47
Schul@@ 47
alle 47
ambi@@ 47
dez 47
dies 47
epis@@ 47
ers@@ 47
geb@@ 47
grup@@ 47
hard 47
ht 47
ief 47
ional 47
language 47
modi@@ 47
nec@@ 47
nin 47
onto 47
pes@@ 47
princip@@ 47
resp@@ 47
termin@@ 47
üh@@ 47
Αρ@@ 47
Θ 47
Μαρ@@ 47
έας 47
αντ@@ 47
εσ@@ 47
ρα 47
эн@@ 47
ե@@ 47
ר 47
ا 47
∆ 47
⋅ 47
18. 46
African 46
Akadem@@ 46
Antonio 46
Califor@@ 46
Carr@@ 46
Stein@@ 46
Zeit 46
adap@@ 46
adu@@ 46
album 46
athol@@ 46
bak@@ 46
bas 46
bern@@ 46
cus@@ 46
enh@@ 46
him 46
idad 46
isches 46
lis@@ 46
nam 46
simil@@ 46
tek 46
zer 46
ät@@ 46
ê 46
ʃ@@ 46
Κο@@ 46
άγ@@ 46
εία 46
ουν@@ 46
ουρ@@ 46
τε@@ 46
имени 46
ить 46
ـ@@ 46
16. 45
Ohio 45
Pia 45
Portu@@ 45
Yer@@ 45
based 45
class@@ 45
dru@@ 45
ending 45
erre 45
game 45
iliz@@ 45
inn 45
isión 45
issen@@ 45
jug@@ 45
med 45
oko 45
prob@@ 45
sich@@ 45
times 45
titu@@ 45
tros 45
tung 45
uel@@ 45
unge 45
yana@@ 45
Öster@@ 45
év@@ 45
ń 45
ș@@ 45
ιτ@@ 45
κά@@ 45
ση 45
τέ@@ 45
҃ 45
ի@@ 45
د@@ 45
ḥ@@ 45
Fern@@ 44
Parti@@ 44
Span@@ 44
Zw@@ 44
auth@@ 44
clos@@ 44
cu 44
ecto 44
einen 44
ennes 44
foc@@ 44
grande 44
han 44
heit 44
inen 44
nt 44
ogo 44
undi 44
utz@@ 44
wie 44
yeri 44
ân 44
äh@@ 44
über 44
ț@@ 44
Θεσσαλ@@ 44
Τζ@@ 44
λόγ@@ 44
μεν@@ 44
όπουλ@@ 44
няя 44
сы 44
ый 44
ն 44
ל 44
أ@@ 44
ش@@ 44
大@@ 44
14. 43
Berg@@ 43
Schw@@ 43
Zeit@@ 43
aissance 43
amen 43
angi 43
aum 43
auto@@ 43
ayr@@ 43
deutsche 43
dici@@ 43
evi@@ 43
exp@@ 43
extr@@ 43
fut@@ 43
hil 43
ided 43
kas@@ 43
kno@@ 43
leb@@ 43
nach 43
rech@@ 43
series 43
some@@ 43
station 43
studi@@ 43
temp@@ 43
ç 43
ères 43
üs@@ 43
ɛ 43
ʼ@@ 43
Γ 43
Το 43
ήλ 43
αί@@ 43
εβ@@ 43
ικός 43
νι@@ 43
ράφ@@ 43
зы@@ 43
льный 43
ւ@@ 43
ز@@ 43
ى 43
ُ@@ 43
ា@@ 43
Carlos 42
François 42
French 42
Mp@@ 42
Olymp@@ 42
ained 42
anni@@ 42
atique 42
contin@@ 42
edi 42
eras 42
ered 42
hap@@ 42
hist@@ 42
immer 42
last 42
lich 42
march@@ 42
nuc@@ 42
plant@@ 42
roy@@ 42
scher 42
tent@@ 42
tras@@ 42
tribu@@ 42
uro 42
usi 42
öh@@ 42
ühr@@ 42
͡ 42
Βουλ@@ 42
Κου@@ 42
δε@@ 42
ιστ@@ 42
μος 42
οπο@@ 42
υσ@@ 42
όφ@@ 42
ώργ@@ 42
росси@@ 42
своего 42
ї 42
ә@@ 42
Compan@@ 41
Franz 41
Gö@@ 41
Hans 41
Leben 41
Ped@@ 41
aje 41
aron 41
bau 41
bay@@ 41
buil@@ 41
club 41
führ@@ 41
histori@@ 41
home 41
imba 41
isto 41
kad@@ 41
level 41
má@@ 41
ograp@@ 41
quali@@ 41
sans 41
schrift 41
sible 41
soft 41
Ανα@@ 41
άχ@@ 41
έκ@@ 41
ήσ@@ 41
ιώ@@ 41
μβ@@ 41
ξι@@ 41
οτ@@ 41
ώσεις 41
для 41
пы@@ 41
ѥ 41
ა 41
დ@@ 41
‟ 41
ꙗ@@ 41
15. 40
Eis@@ 40
Franç@@ 40
July 40
Mec@@ 40
Sü@@ 40
casa 40
enant 40
encia 40
eza 40
icht 40
isl@@ 40
izi@@ 40
mé@@ 40
nak@@ 40
oder 40
philos@@ 40
raine 40
raz@@ 40
san 40
schen 40
til 40
zeug@@ 40
É 40
â 40
äng@@ 40
ï 40
ón@@ 40
ő@@ 40
ş 40
ɔ 40
Ψ@@ 40
άμ@@ 40
ές 40
λέ@@ 40
λογ@@ 40
πος 40
στασ@@ 40
τού@@ 40
сы@@ 40
того 40
ѓ@@ 40
ג@@ 40
∈ 40
Buch@@ 39
Colomb@@ 39
Elle 39
Hamb@@ 39
Zentr@@ 39
born 39
chu@@ 39
commer@@ 39
comple@@ 39
culp@@ 39
française 39
geh@@ 39
general 39
gian 39
gun 39
inclu@@ 39
itos 39
loss 39
lı 39
pression 39
roi 39
run 39
sburg 39
sequ@@ 39
service 39
umo 39
unga 39
vida 39
video 39
ß@@ 39
ße 39
ás@@ 39
ête 39
ım 39
Βεν@@ 39
Κοιν@@ 39
Ρ 39
ίλ@@ 39
βί@@ 39
γαρ@@ 39
ηγ@@ 39
οι@@ 39
σσ@@ 39
συν@@ 39
τας 39
τι 39
י 39
ع@@ 39
် 39
‐ 39
Fried@@ 38
Hin@@ 38
König@@ 38
Madrid 38
Moh@@ 38
Say@@ 38
Yun@@ 38
alian 38
apo 38
band@@ 38
diff@@ 38
dur 38
enden 38
estig@@ 38
fab@@ 38
fahr@@ 38
gest@@ 38
gres@@ 38
hut@@ 38
known 38
lier 38
nacional 38
prof@@ 38
sak@@ 38
sus@@ 38
tek@@ 38
than 38
through 38
¾ 38
î 38
ın@@ 38
Ż@@ 38
Λου@@ 38
γιος 38
καλ@@ 38
μου 38
την 38
όγ@@ 38
льная 38
лё@@ 38
ёр@@ 38
ק@@ 38
⅓ 38
BK 37
Dok@@ 37
Es 37
Jacques 37
José 37
Sa 37
Willi@@ 37
aires 37
ako 37
allas 37
amii 37
bahn 37
bez@@ 37
chang@@ 37
conc@@ 37
ensa 37
icas 37
ises 37
kab@@ 37
kuh@@ 37
mov@@ 37
tas 37
zur@@ 37
Æ@@ 37
ŋ@@ 37
ŏ@@ 37
Αρχ@@ 37
Στρ@@ 37
επ@@ 37
στο@@ 37
ώσ@@ 37
ё 37
ال@@ 37
ك@@ 37
ἔ@@ 37
ὁ 37
ὑ@@ 37
♥ 37
Auf@@ 36
Brasil 36
Constitu@@ 36
Des 36
Grund@@ 36
Israel 36
Schwe@@ 36
charac@@ 36
compos@@ 36
days 36
ense@@ 36
gemein@@ 36
igan 36
initi@@ 36
isen 36
jed@@ 36
lara 36
make 36
mec@@ 36
mill@@ 36
moder@@ 36
pain@@ 36
school 36
stitu@@ 36
suc@@ 36
techn@@ 36
them 36
thu@@ 36
tiz@@ 36
trat@@ 36
unca 36
unde 36
who 36
Ø 36
éro@@ 36
ös@@ 36
ź@@ 36
ż 36
Ί@@ 36
Ορ@@ 36
ειν@@ 36
κυ@@ 36
μέ@@ 36
ραγ@@ 36
τρι@@ 36
υγ@@ 36
χ 36
ψ 36
όδ@@ 36
Љ@@ 36
бы 36
յ@@ 36
ṣ@@ 36
ὸ@@ 36
ⱏ@@ 36
Anne 35
Geb@@ 35
Ireland 35
Philipp@@ 35
Sek@@ 35
Venez@@ 35
Yar@@ 35
concer@@ 35
faire 35
franc@@ 35
fund@@ 35
hid@@ 35
mant@@ 35
player 35
positi@@ 35
respon@@ 35
stud@@ 35
techni@@ 35
union 35
univers@@ 35
wards 35
was@@ 35
won 35
zig 35
Ø@@ 35
ô 35
ʿ@@ 35
Ευ@@ 35
Κλ@@ 35
Κωνσταντ@@ 35
άν 35
άρι@@ 35
ήμ@@ 35
δρ@@ 35
με@@ 35
μονα@@ 35
παν@@ 35
του@@ 35
ώ 35
פ@@ 35
子 35
ꙗ 35
Distribu@@ 34
Eurov@@ 34
Hak@@ 34
Jul@@ 34
Schl@@ 34
ael 34
ched 34
clo@@ 34
compl@@ 34
defin@@ 34
dipl@@ 34
eben 34
enburg 34
enos 34
fam@@ 34
feder@@ 34
ican 34
icht@@ 34
ict 34
idas 34
inger@@ 34
inos 34
ism@@ 34
jas 34
leh@@ 34
lub 34
mine 34
monde 34
ober@@ 34
provin@@ 34
refer@@ 34
schaften 34
sent@@ 34
sey@@ 34
suff@@ 34
tena 34
utz 34
wake 34
zam@@ 34
zu@@ 34
Å 34
ño 34
ĕ@@ 34
ů@@ 34
̃ 34
Αλ@@ 34
Μ 34
κα 34
ούν@@ 34
ρο 34
στι@@ 34
υ 34
буду@@ 34
министра@@ 34
тель@@ 34
что 34
ђ@@ 34
ѭ@@ 34
א 34
بن 34
্ 34
თ@@ 34
Ἰ@@ 34
Arth@@ 33
Gün@@ 33
Indian 33
Leb@@ 33
Prof@@ 33
September 33
Sud 33
aina 33
bah@@ 33
bara 33
bed 33
ción 33
const@@ 33
death 33
design 33
dér@@ 33
elek@@ 33
eln 33
eş@@ 33
hir 33
hr 33
most 33
oire 33
pendi@@ 33
run@@ 33
scor@@ 33
sein 33
sol 33
tee 33
tie 33
tik 33
uso 33
vill@@ 33
years 33
zial@@ 33
È 33
Γεν@@ 33
αϊ@@ 33
ματ@@ 33
ους 33
ριστ@@ 33
ότητα 33
Ј 33
Ћ@@ 33
зы 33
марта 33
ному 33
уров@@ 33
ѹ@@ 33
ֶ@@ 33
ת@@ 33
ἄ@@ 33
ὰ 33
Dani@@ 32
España 32
adas 32
adores 32
alem@@ 32
alle@@ 32
brit@@ 32
election 32
excep@@ 32
expl@@ 32
expres@@ 32
final 32
fs 32
inas 32
inda 32
ları 32
lead@@ 32
lichen 32
lug@@ 32
made 32
mich@@ 32
mina 32
mundo 32
ning@@ 32
onz@@ 32
sik@@ 32
sind 32
sous 32
teur 32
ths 32
uda 32
uru 32
were 32
zw@@ 32
ío 32
ña 32
ø 32
ün 32
ǐ 32
ʃ 32
άρι 32
ικά 32
πε@@ 32
ταμ@@ 32
τικ@@ 32
итель@@ 32
окру@@ 32
сты@@ 32
ס@@ 32
ان 32
ت@@ 32
ط@@ 32
و@@ 32
⇒ 32
도 32
Nigeria 31
adora 31
adém@@ 31
amente 31
ampi@@ 31
beau@@ 31
beri 31
conf@@ 31
contribut@@ 31
eb 31
econom@@ 31
enso 31
erte 31
figur@@ 31
hoa 31
hud@@ 31
illed 31
iten 31
itt 31
kum@@ 31
mau@@ 31
national 31
people 31
possible 31
reich 31
temps 31
voy@@ 31
wissen@@ 31
with@@ 31
Ú@@ 31
étr@@ 31
ʊ@@ 31
̄ 31
αζ@@ 31
εξ@@ 31
ικής 31
που@@ 31
τε 31
τρο@@ 31
ωλ@@ 31
Ђ@@ 31
вом 31
вы 31
комму@@ 31
сою@@ 31
эк@@ 31
ү@@ 31
ַ@@ 31
ج@@ 31
خ@@ 31
ℓ 31
♦ 31
Fes@@ 30
Gesch@@ 30
Henri 30
Im 30
Liga 30
Mann@@ 30
Professor 30
Türk 30
acio 30
ambo 30
arios 30
atz 30
ayn@@ 30
bec 30
contra 30
court 30
eig@@ 30
ekt 30
ichte 30
ily 30
inden 30
integr@@ 30
meister 30
nung 30
omen 30
pris@@ 30
qu 30
suite 30
teilung 30
tien 30
tribut@@ 30
trä@@ 30
uten 30
vu 30
xu@@ 30
Ò 30
ã@@ 30
äch@@ 30
ème 30
ète 30
études 30
ücke 30
Καλλ@@ 30
Μεγάλ@@ 30
άδες 30
έχ@@ 30
λευθερ@@ 30
πόλε@@ 30
τη@@ 30
ότ@@ 30
Ь@@ 30
более 30
ды@@ 30
ным 30
проис@@ 30
ровал 30
тому 30
ا@@ 30
و 30
َّ@@ 30
ḫ@@ 30
ᾶ@@ 30
三@@ 30
太@@ 30
Argentina 29
Ent@@ 29
Kenya 29
Ng@@ 29
Pedro 29
Por 29
Staats@@ 29
Tür@@ 29
Une 29
Von 29
after 29
ahl 29
also 29
ası 29
aş@@ 29
bles 29
constr@@ 29
construc@@ 29
dini 29
eler@@ 29
enst 29
erc@@ 29
esses 29
gri@@ 29
grou@@ 29
hat 29
ien@@ 29
isme 29
istan 29
mann@@ 29
ometr@@ 29
radio 29
sam 29
sexu@@ 29
short 29
tains 29
tere 29
there 29
tival 29
tour@@ 29
verw@@ 29
đ@@ 29
Αγίου 29
Χρ@@ 29
αρι@@ 29
αχ@@ 29
είας 29
εφ@@ 29
ικών 29
ιου@@ 29
μη 29
προ@@ 29
ρω@@ 29
σπ@@ 29
τού 29
ϊ 29
Ы 29
поль@@ 29
ر 29
ိ@@ 29
ṭ@@ 29
ὀ@@ 29
ⰻ@@ 29
﻿ 29
April 28
German 28
President 28
Wah@@ 28
afr@@ 28
bt 28
cer 28
four 28
haf@@ 28
igen 28
ised 28
iß@@ 28
iş@@ 28
lieg@@ 28
mad 28
maz@@ 28
mt@@ 28
nac@@ 28
oren 28
orig@@ 28
party 28
rez 28
sche@@ 28
sever@@ 28
span 28
sé@@ 28
total 28
umbo 28
unia 28
verg@@ 28
Θεσσαλον@@ 28
Κορ@@ 28
Φιλ@@ 28
έγ@@ 28
αμπ@@ 28
ισσ@@ 28
καρ@@ 28
ρκ@@ 28
ταν@@ 28
τολ@@ 28
υμ@@ 28
Бы@@ 28
чный 28
ёт 28
ỳ@@ 28
Ἐ@@ 28
山@@ 28
Groß@@ 27
México 27
Pak@@ 27
Pub@@ 27
Süd@@ 27
UEFA 27
Universität 27
Welt@@ 27
Zu@@ 27
actor 27
archit@@ 27
cens@@ 27
chter 27
company 27
dens@@ 27
essen 27
estas 27
foot@@ 27
git@@ 27
gö@@ 27
inde 27
irs 27
istas 27
just 27
leur 27
lí@@ 27
member 27
mw@@ 27
nation@@ 27
oka 27
oles 27
politi@@ 27
ques@@ 27
rique 27
sang 27
site 27
such 27
terr@@ 27
tish 27
verl@@ 27
what 27
yak@@ 27
Í@@ 27
ör 27
üm@@ 27
ır@@ 27
ų 27
ʲ@@ 27
Βασιλ@@ 27
Βι@@ 27
Κατ@@ 27
Πλ@@ 27
άζ@@ 27
έσ@@ 27
ίνου 27
ανδ@@ 27
βά@@ 27
είο 27
ει 27
θέ@@ 27
κος 27
πα@@ 27
σε@@ 27
τελ@@ 27
φιλ@@ 27
Вы@@ 27
צ@@ 27
غ@@ 27
ي 27
‏ 27
中@@ 27
漢@@ 27
Bir 26
December 26
District 26
Eisen@@ 26
Frau 26
Geg@@ 26
KK 26
Kay@@ 26
Mart 26
Muh@@ 26
Para 26
Rah@@ 26
Saison 26
aume 26
cover@@ 26
declar@@ 26
eurs 26
eye 26
fici@@ 26
gew@@ 26
graf@@ 26
hii 26
jos 26
jou@@ 26
kim@@ 26
kua 26
kus@@ 26
lege 26
mez@@ 26
natural 26
né 26
octu@@ 26
pero 26
phe 26
prov@@ 26
publi@@ 26
shu@@ 26
six 26
some 26
straße 26
which 26
yen@@ 26
zil@@ 26
zin@@ 26
zor@@ 26
Ó@@ 26
ís 26
üd@@ 26
ħ@@ 26
ĭ 26
Ł@@ 26
ő 26
ǔ 26
ʻ@@ 26
Βαλ@@ 26
Ελλην@@ 26
Επ@@ 26
ίκη 26
ίμ@@ 26
εδ@@ 26
πά@@ 26
τες 26
дь 26
туры 26
ў@@ 26
Ѧ 26
Ѧ@@ 26
կ@@ 26
ك 26
ტ@@ 26
ស@@ 26
‡ 26
█ 26
市 26
한@@ 26
0s 25
Ander@@ 25
Barcelona 25
Bez@@ 25
Fak@@ 25
Mw@@ 25
Schi@@ 25
Sur 25
Tod 25
ağ@@ 25
bres 25
conserv@@ 25
development 25
durch 25
eder 25
egos 25
feld 25
fin 25
gang 25
idos 25
ildi 25
illes 25
ime@@ 25
ished 25
jud@@ 25
là 25
mab@@ 25
neu@@ 25
ogen 25
pens@@ 25
propri@@ 25
proxim@@ 25
quel@@ 25
reti@@ 25
rom 25
services 25
signed 25
tivo 25
uch 25
vile 25
Î@@ 25
éch@@ 25
ép@@ 25
ğ 25
ɡ@@ 25
ɨ@@ 25
ΐ@@ 25
Απ@@ 25
Εκ@@ 25
Ισ@@ 25
άφ@@ 25
γράφ@@ 25
ιρ@@ 25
μη@@ 25
ποι@@ 25
που 25
χω@@ 25
όμ@@ 25
ύλ@@ 25
йского 25
ств 25
ющие 25
ў 25
ة 25
را@@ 25
ف@@ 25
ولاية 25
त 25
র@@ 25
ម@@ 25
ン 25
国@@ 25
語 25
강 25
Chile 24
Zwe@@ 24
around 24
autom@@ 24
children 24
cours 24
crit@@ 24
ectu@@ 24
eden@@ 24
entos 24
event 24
fav@@ 24
iken 24
kirche 24
match 24
nach@@ 24
ney@@ 24
studio 24
they 24
ubic@@ 24
ural 24
versit@@ 24
wir@@ 24
Þ@@ 24
ände 24
ĸ 24
αναγ@@ 24
θαν@@ 24
ιμ@@ 24
ιο 24
ρακ@@ 24
ρον@@ 24
στά@@ 24
ται 24
τική 24
τυ@@ 24
φύ@@ 24
όχ@@ 24
вые 24
искус@@ 24
фильм 24
ѩ 24
ө@@ 24
ט@@ 24
ورة 24
კ@@ 24
‑ 24
♣ 24
ⰰ@@ 24
日@@ 24
海@@ 24
金@@ 24
Ce 23
Deutschen 23
Eins@@ 23
Kus@@ 23
Oy@@ 23
Phi 23
Provin@@ 23
Su 23
Universidad 23
again 23
aged 23
aill@@ 23
aji 23
aller@@ 23
ansas 23
bek@@ 23
bish@@ 23
cion@@ 23
clu@@ 23
clus@@ 23
compar@@ 23
differ@@ 23
edad 23
ede@@ 23
family 23
featur@@ 23
forme 23
gal 23
gu 23
histoire 23
idence 23
iker 23
jour 23
journ@@ 23
kamp@@ 23
ký 23
lung 23
main@@ 23
mara 23
mash@@ 23
may 23
mim@@ 23
separ@@ 23
she 23
tí@@ 23
universit@@ 23
yat@@ 23
èse 23
òn 23
ük@@ 23
ür 23
ŭ@@ 23
΄ 23
Επι@@ 23
Κύ@@ 23
Μά@@ 23
έφ@@ 23
βασ@@ 23
εγ@@ 23
εργ@@ 23
θη 23
καν@@ 23
χαρ@@ 23
Џ 23
вого 23
немец@@ 23
нием 23
нию 23
работа@@ 23
рё@@ 23
совет@@ 23
ём 23
م 23
र 23
ོ 23
ု 23
გ@@ 23
ს 23
ἡ@@ 23
‒ 23
上@@ 23
Copa 22
Guerra 22
Gü@@ 22
Mexico 22
Migu@@ 22
Munici@@ 22
Nieder@@ 22
Viet@@ 22
aben 22
adol@@ 22
appar@@ 22
colon@@ 22
concep@@ 22
ener@@ 22
enz 22
erung 22
eño 22
fak@@ 22
films 22
haus@@ 22
histor@@ 22
iller@@ 22
ismus 22
issu@@ 22
monum@@ 22
mt 22
neo 22
olan 22
once 22
platz 22
produ@@ 22
sad@@ 22
sana 22
secre@@ 22
sil 22
team 22
tet 22
tér@@ 22
zeu@@ 22
µ 22
Ü 22
äs@@ 22
ät 22
ð 22
ög@@ 22
üz@@ 22
ık 22
ır 22
ız@@ 22
ɐ 22
Ελ@@ 22
Σύ@@ 22
γεν@@ 22
δύ@@ 22
είου 22
κι 22
κου@@ 22
μέν@@ 22
νε@@ 22
πολ@@ 22
πολί@@ 22
σχ@@ 22
Ћ 22
году 22
лями 22
скому 22
следу@@ 22
уже 22
человек 22
ֹ@@ 22
ׁ@@ 22
س 22
نا 22
َ 22
တ@@ 22
့ 22
ြ@@ 22
ე 22
ქ@@ 22
ṅ 22
― 22
一@@ 22
東@@ 22
Afrika 21
Bask@@ 21
Como 21
Krieg@@ 21
Lebens@@ 21
Musik@@ 21
Paulo 21
Sult@@ 21
afa 21
anno@@ 21
bourg 21
bul 21
comb@@ 21
dah@@ 21
day@@ 21
enga 21
erin 21
fest@@ 21
forc@@ 21
fu 21
fü@@ 21
gel 21
iev@@ 21
ilg@@ 21
influ@@ 21
information 21
iç@@ 21
jum@@ 21
munici@@ 21
nah@@ 21
neur 21
nicht 21
observ@@ 21
opo 21
poin@@ 21
princi@@ 21
ran 21
relig@@ 21
tores 21
veau 21
visit@@ 21
yas@@ 21
yok@@ 21
zey@@ 21
ège 21
ìn 21
ġ@@ 21
ım@@ 21
ŋ 21
ť 21
ǔ@@ 21
Ιερ@@ 21
Οικ@@ 21
Ρω@@ 21
Σερ@@ 21
Στα@@ 21
αλλ@@ 21
ασκ@@ 21
γλώσσα 21
δα 21
δος 21
εια 21
ισμός 21
λαβ@@ 21
λαδ@@ 21
λος 21
μφ@@ 21
ούς 21
παι@@ 21
σία 21
ταυ@@ 21
χος 21
ωρ@@ 21
όρι@@ 21
верну@@ 21
ную 21
строитель@@ 21
ью 21
ѩ@@ 21
ә 21
ӧ@@ 21
مو@@ 21
র 21
າ@@ 21
ო 21
ხ@@ 21
ὄ@@ 21
∅ 21
∧ 21
∨ 21
ⰲ@@ 21
ル@@ 21
ン@@ 21
南@@ 21
式@@ 21
Auf 20
Conse@@ 20
Estado 20
Heim@@ 20
June 20
Manuel 20
Santiago 20
Stadt@@ 20
Yeni 20
aret 20
ateur 20
ations@@ 20
auen 20
bü@@ 20
champ@@ 20
ently 20
feh@@ 20
forma 20
gaz@@ 20
hay@@ 20
iques 20
kes@@ 20
köy 20
libre 20
mek@@ 20
novel@@ 20
parte 20
plu@@ 20
reib@@ 20
religi@@ 20
stil@@ 20
tam 20
tay@@ 20
their 20
tig 20
tionn@@ 20
tions@@ 20
uka 20
usal@@ 20
written 20
À@@ 20
Â@@ 20
È@@ 20
Ö 20
Ā@@ 20
ů 20
Μον@@ 20
Π 20
άβ@@ 20
άπ@@ 20
άρχ@@ 20
αγι@@ 20
βλ@@ 20
δί@@ 20
δρο@@ 20
δρομ@@ 20
κτ@@ 20
στη 20
τή@@ 20
τικό 20
χρ@@ 20
Њ@@ 20
вых 20
ины 20
итель 20
ственно 20
ься 20
Ѫ 20
қ@@ 20
ң@@ 20
մ@@ 20
إ@@ 20
ذ@@ 20
შ@@ 20
ὴ 20
イ@@ 20
本@@ 20
김@@ 20
산 20
Haupt@@ 19
Haus@@ 19
María 19
Minister@@ 19
Partido 19
aban 19
appro@@ 19
ayan 19
been 19
bien 19
carr@@ 19
chez 19
ciones 19
coul@@ 19
country 19
course 19
did 19
division 19
eines 19
elde 19
enen 19
eran 19
ests 19
etts 19
fen 19
four@@ 19
fé@@ 19
grand 19
génér@@ 19
hen 19
history 19
ilde 19
international 19
irk 19
jour@@ 19
kaz@@ 19
keit 19
onc@@ 19
onio 19
part@@ 19
publique 19
quot@@ 19
rece@@ 19
record 19
schafts@@ 19
scienti@@ 19
sich 19
tend@@ 19
tir 19
unci@@ 19
usu 19
vom 19
yen 19
yet 19
zwe@@ 19
Å@@ 19
ào 19
çe 19
ín@@ 19
ŭ 19
ǒ@@ 19
ʒ@@ 19
ʰ@@ 19
Ελλ@@ 19
Κωνστ@@ 19
Περι@@ 19
Συ@@ 19
έλλ@@ 19
αγγ@@ 19
απο@@ 19
βο@@ 19
δέ@@ 19
ελλ@@ 19
εμ@@ 19
επι@@ 19
ημερ@@ 19
ην 19
ηση 19
ιγ@@ 19
κοπ@@ 19
μή 19
μή@@ 19
μυ@@ 19
πέ@@ 19
ριν@@ 19
ροι 19
τικός 19
τρα 19
τός 19
боль@@ 19
есть 19
стве 19
ственный 19
ющи@@ 19
տ@@ 19
آ@@ 19
الله 19
ب 19
ص@@ 19
محمد 19
من@@ 19
ن 19
བ@@ 19
ေ 19
Ἱ@@ 19
し@@ 19
ー@@ 19
天@@ 19
省 19
주@@ 19
Distr@@ 18
Kant@@ 18
Landes@@ 18
Mai 18
Mek@@ 18
Türk@@ 18
Vier@@ 18
ached 18
aide 18
alien 18
alter@@ 18
altung 18
associ@@ 18
auch 18
comun@@ 18
cut 18
dar 18
diz@@ 18
eaux 18
emen 18
empl@@ 18
engo 18
esen 18
fait 18
found@@ 18
fte 18
gique 18
hui 18
instrum@@ 18
kam 18
late 18
lichkeit 18
lui 18
mik@@ 18
nant 18
nom 18
odo 18
oku@@ 18
ortho@@ 18
oğlu 18
pays 18
pek@@ 18
points 18
pour@@ 18
provid@@ 18
riere 18
rö@@ 18
schaft@@ 18
succ@@ 18
tim 18
tradi@@ 18
tras 18
tries 18
wah@@ 18
west@@ 18
without 18
women 18
yal 18
zog 18
¥ 18
À 18
Öz@@ 18
éd@@ 18
élé@@ 18
ís@@ 18
öz@@ 18
ús@@ 18
ück 18
ÿ@@ 18
ız 18
ƒ 18
ǐ@@ 18
ɒ@@ 18
Σχολ@@ 18
Τ 18
Φ 18
ήγ@@ 18
ήν@@ 18
ειδ@@ 18
ερν@@ 18
ζω@@ 18
ιζ@@ 18
ικού 18
κιν@@ 18
με 18
πατ@@ 18
ρη 18
ρη@@ 18
ρύ@@ 18
υπο@@ 18
φυ@@ 18
χώρ@@ 18
ωνία 18
όπο@@ 18
Это 18
был 18
дународ@@ 18
ью@@ 18
ёт@@ 18
ѵ@@ 18
Հ@@ 18
գ@@ 18
اء 18
الم@@ 18
ی 18
Ḥ@@ 18
ἴ@@ 18
⅔ 18
≡ 18
● 18
し 18
区 18
十@@ 18
家 18
新@@ 18
武@@ 18
物@@ 18
대@@ 18
Azer@@ 17
Eine 17
Luis 17
October 17
Oly@@ 17
Santi@@ 17
Straße 17
Türkiye 17
Wilhel@@ 17
Wirt@@ 17
abu 17
agre@@ 17
agric@@ 17
aten@@ 17
avec 17
between 17
candid@@ 17
carri@@ 17
condi@@ 17
constitu@@ 17
conv@@ 17
dedic@@ 17
dows 17
emba 17
energ@@ 17
español 17
exten@@ 17
five 17
français 17
furt 17
för@@ 17
hak@@ 17
idente 17
ikia 17
irat@@ 17
kata 17
lage 17
liga 17
meng@@ 17
mort 17
pay@@ 17
polic@@ 17
saf@@ 17
sal 17
same 17
sos@@ 17
tard 17
tario 17
tische 17
vez 17
waf@@ 17
when 17
Über@@ 17
êt 17
ól@@ 17
üb@@ 17
üst@@ 17
ık@@ 17
ış@@ 17
ǫ 17
ɣ@@ 17
ʁ@@ 17
Απο@@ 17
Β 17
αυτ@@ 17
για 17
δια@@ 17
δομ@@ 17
ελλην@@ 17
θη@@ 17
λις 17
μένη 17
ορι@@ 17
πρω@@ 17
ρίας 17
ρό@@ 17
τιν@@ 17
τών 17
υχ@@ 17
φαν@@ 17
χν@@ 17
όλε@@ 17
ύ 17
апре@@ 17
войны 17
встре@@ 17
государ@@ 17
льное 17
один 17
памя@@ 17
щая 17
явля@@ 17
ќ 17
Ѣ@@ 17
լ@@ 17
ս@@ 17
ր 17
ז@@ 17
ך 17
اس@@ 17
الع@@ 17
الن@@ 17
ق 17
ني 17
ْ 17
پ@@ 17
म 17
ດ 17
ར@@ 17
ფ@@ 17
ṇ@@ 17
ῥ@@ 17
↔ 17
√ 17
ⰵ@@ 17
ⱄ@@ 17
人@@ 17
北@@ 17
字 17
이@@ 17
Er 16
Famili@@ 16
Gemein@@ 16
Kib@@ 16
Stadt 16
Wasser@@ 16
actu@@ 16
administr@@ 16
adop@@ 16
ainer 16
alı 16
assen 16
atives 16
bay 16
bier@@ 16
cito 16
destr@@ 16
deu@@ 16
drei 16
edil@@ 16
ehem@@ 16
embre 16
ersch@@ 16
eso 16
exist@@ 16
fico 16
former 16
found 16
grab@@ 16
gé@@ 16
haz@@ 16
hier 16
historia 16
hosp@@ 16
indi 16
inform@@ 16
jap@@ 16
joint 16
kana 16
kip@@ 16
kreis 16
langu@@ 16
leurs 16
mente 16
nomin@@ 16
ographie 16
otra 16
porte 16
present@@ 16
rol 16
rue 16
sah@@ 16
sev@@ 16
signi@@ 16
still 16
support 16
take 16
third 16
three 16
tigen 16
tä@@ 16
uerto 16
vard@@ 16
vier@@ 16
z. 16
zas 16
äu@@ 16
ève 16
éc@@ 16
és@@ 16
être 16
üc@@ 16
ņ@@ 16
ň@@ 16
Ō@@ 16
ǫ@@ 16
ɾ@@ 16
Πρ@@ 16
Υπ@@ 16
ένα 16
ήθ@@ 16
ήρ@@ 16
απε@@ 16
βολ@@ 16
γέν@@ 16
γλ@@ 16
ιλι@@ 16
κη 16
λα 16
μην@@ 16
νέ@@ 16
οίκ@@ 16
ούδ@@ 16
πί@@ 16
περι@@ 16
σε 16
σμ@@ 16
Љ 16
Њ 16
ными 16
террито@@ 16
ѕ@@ 16
һ@@ 16
Ա@@ 16
հ@@ 16
ש 16
ار 16
ار@@ 16
الك@@ 16
ش 16
لَ@@ 16
ما 16
وَ@@ 16
ية 16
ܝ@@ 16
প@@ 16
া 16
ས@@ 16
ပ@@ 16
မ@@ 16
⇔ 16
い@@ 16
り 16
ス@@ 16
リ@@ 16
國@@ 16
城 16
殿 16
ꞌ@@ 16
사@@ 16
 16
） 16
Bü@@ 15
Dans 15
Entw@@ 15
February 15
Form 15
Guin@@ 15
Jah@@ 15
Parti 15
República 15
Seine 15
Ukr@@ 15
aki@@ 15
alan 15
alim@@ 15
anl@@ 15
apos@@ 15
auti 15
azo 15
chini 15
culture 15
deutschen 15
emas 15
equi@@ 15
erh@@ 15
full 15
guerra 15
herr@@ 15
hib@@ 15
homme 15
inin 15
ip 15
iwa 15
kio 15
lake 15
lanz@@ 15
leich@@ 15
lık 15
modern 15
muda 15
naci@@ 15
nord@@ 15
numer@@ 15
né@@ 15
organ@@ 15
organiz@@ 15
ously 15
prac@@ 15
season 15
territ@@ 15
toire 15
yeni 15
zeich@@ 15
zt 15
zul@@ 15
ßen 15
át 15
ñ 15
ún 15
Ę 15
ĭ@@ 15
Š 15
ź 15
Ȣ 15
ɪ 15
ɯ@@ 15
ʊ 15
ʷ 15
ˌ@@ 15
Μουσ@@ 15
Σου@@ 15
ίνα 15
αντιν@@ 15
βιβλ@@ 15
δρόμ@@ 15
εισ@@ 15
ησ@@ 15
κόσ@@ 15
κύ@@ 15
λύ@@ 15
ματα 15
μαχ@@ 15
μερ@@ 15
μο@@ 15
νομ@@ 15
ολόγ@@ 15
συ@@ 15
σφ@@ 15
τς 15
τύ@@ 15
χώρας 15
высо@@ 15
жизни 15
кры@@ 15
ским 15
ческие 15
ческого 15
Ѣ 15
ի 15
ֵ@@ 15
ד 15
ام@@ 15
رة 15
ف 15
ما@@ 15
ى@@ 15
ّ@@ 15
अ@@ 15
ব@@ 15
้ 15
ས 15
ུ@@ 15
ន@@ 15
ṃ@@ 15
ὁ@@ 15
ὴ@@ 15
ῼ 15
↑ 15
∪ 15
✔ 15
ⰾ@@ 15
ⱀ@@ 15
ん@@ 15
文@@ 15
田@@ 15
神@@ 15
自@@ 15
郎 15
조@@ 15
Amerika 14
Amér@@ 14
Bu 14
Hö@@ 14
Kem@@ 14
Mittel@@ 14
November 14
abei 14
aille 14
anı 14
aña 14
bir 14
called 14
century 14
clim@@ 14
conduc@@ 14
conqu@@ 14
dad@@ 14
deb@@ 14
desc@@ 14
diplom@@ 14
droit 14
ecu@@ 14
elected 14
experi@@ 14
fass@@ 14
firm@@ 14
fuer@@ 14
hin 14
incia 14
inco 14
ingt 14
izi 14
lah 14
leit@@ 14
lima 14
matr@@ 14
muj@@ 14
nay 14
near 14
pein@@ 14
politique 14
quel 14
rar 14
recher@@ 14
reduc@@ 14
released 14
rement 14
rá@@ 14
rí@@ 14
said 14
sett@@ 14
stad@@ 14
tige 14
trou@@ 14
uela 14
voir 14
went 14
would 14
zeit 14
¹ 14
ác@@ 14
äf@@ 14
économ@@ 14
ías 14
ütz@@ 14
Ą 14
ǎ 14
ɤ 14
ʒ 14
Αργ@@ 14
Ελλάδ@@ 14
Ερ@@ 14
Πο@@ 14
έμ@@ 14
αίν@@ 14
επίσ@@ 14
ημα 14
ηφ@@ 14
θλ@@ 14
θν@@ 14
θυ@@ 14
ιών 14
καθ@@ 14
κατοίκ@@ 14
κλη@@ 14
κρά@@ 14
λη 14
μόν@@ 14
οξ@@ 14
ρατ@@ 14
στερ@@ 14
στο 14
ταλ@@ 14
ταρ@@ 14
τελε@@ 14
φορ@@ 14
χλ@@ 14
ωπ@@ 14
Ђ 14
годов 14
ется 14
йся 14
мом 14
созда@@ 14
тся 14
человека 14
ӑ@@ 14
ו 14
اب@@ 14
الر@@ 14
الس@@ 14
ري@@ 14
ل 14
مَ@@ 14
ܐ 14
ু@@ 14
พระ@@ 14
ང 14
འ@@ 14
ზ@@ 14
ძ@@ 14
ង@@ 14
ត@@ 14
ḥ 14
ἱ 14
ἱ@@ 14
ἶ@@ 14
ὅ@@ 14
ὶ@@ 14
∀ 14
∩ 14
┬ 14
♠ 14
ⰴ@@ 14
ⱝ@@ 14
た@@ 14
り@@ 14
会@@ 14
安@@ 14
山 14
島 14
投@@ 14
特@@ 14
道 14
제@@ 14
Alem@@ 13
Best@@ 13
Entre 13
Forsch@@ 13
Gemeinde 13
Jahr@@ 13
Jahre 13
Kut@@ 13
Lehr@@ 13
Menschen 13
Sov@@ 13
Stad@@ 13
Virgin@@ 13
Woh@@ 13
aciones 13
agua 13
aines 13
alista 13
anya 13
appe@@ 13
auté 13
aî@@ 13
baz@@ 13
before 13
built 13
chef 13
chte 13
cian 13
construction 13
dad 13
deci@@ 13
deut@@ 13
deutsch@@ 13
deux 13
during 13
endel@@ 13
entro 13
eten 13
given 13
gru@@ 13
huy@@ 13
ikan@@ 13
ilen 13
ilit@@ 13
independ@@ 13
ités 13
ión 13
kend@@ 13
kup@@ 13
lil@@ 13
local 13
mano 13
muz@@ 13
namo 13
national@@ 13
nde 13
ngh@@ 13
nou@@ 13
office 13
original 13
origine 13
otros 13
placed 13
population 13
poste 13
present 13
program@@ 13
stellung 13
teil@@ 13
thé@@ 13
tout 13
tín 13
uu 13
vy@@ 13
äus@@ 13
èg@@ 13
éli@@ 13
ération 13
úl@@ 13
þ 13
İstanbul 13
ɑ 13
ɨ 13
ʂ 13
Βασίλ@@ 13
Ιστορία 13
Ιω@@ 13
Μακ@@ 13
Ομ@@ 13
ΰ@@ 13
αία 13
ανά 13
ανα@@ 13
εχ@@ 13
ιπ@@ 13
μακ@@ 13
μας 13
ναι 13
νω@@ 13
ονομ@@ 13
προς 13
πυ@@ 13
ρά 13
ρία 13
ραβ@@ 13
σίας 13
στον 13
τή 13
τρα@@ 13
υζ@@ 13
χή 13
όρος 13
ύν@@ 13
Ѓ@@ 13
брита@@ 13
всех 13
исследо@@ 13
муж@@ 13
обы@@ 13
совер@@ 13
хозяй@@ 13
ӣ 13
ս 13
ק 13
ان@@ 13
لي@@ 13
ور 13
ير 13
ين 13
ُ 13
ّ 13
ۡ@@ 13
द 13
น@@ 13
ม@@ 13
ລ@@ 13
ວ 13
ັ@@ 13
າ 13
མ 13
མ@@ 13
យ@@ 13
ែ@@ 13
Ἁ@@ 13
Ἄ@@ 13
Ἑ@@ 13
Ἡ@@ 13
῾ 13
お@@ 13
か@@ 13
ち@@ 13
な@@ 13
タ@@ 13
ッ@@ 13
和@@ 13
四@@ 13
州 13
心 13
明@@ 13
治@@ 13
無@@ 13
記 13
高@@ 13
전 13
정@@ 13
Alman@@ 12
Après 12
Bürger@@ 12
Fahr@@ 12
Fren@@ 12
Kik@@ 12
Kup@@ 12
Meh@@ 12
Mundial 12
Uganda 12
Uz@@ 12
Verw@@ 12
Yıl@@ 12
activ@@ 12
adil@@ 12
against 12
alar 12
alité 12
anan 12
anlar 12
another 12
anst@@ 12
aras@@ 12
arri@@ 12
ased 12
autor@@ 12
año 12
aş 12
being 12
besch@@ 12
biy@@ 12
both 12
came 12
cil 12
coi 12
community 12
develop@@ 12
dire@@ 12
distr@@ 12
east 12
gesi 12
guerre 12
hasta 12
ically 12
ilim@@ 12
institu@@ 12
ispi@@ 12
kay@@ 12
kem@@ 12
kid@@ 12
kub@@ 12
lande 12
lement 12
licher 12
merc@@ 12
milli@@ 12
mondi@@ 12
nouvelle 12
pou@@ 12
promot@@ 12
quatre 12
retr@@ 12
rég@@ 12
seau 12
sent 12
serve 12
situ@@ 12
small 12
social 12
tiempo 12
trag 12
umu 12
unu 12
waren 12
wich@@ 12
zus@@ 12
¢ 12
Æ 12
État 12
Ödül@@ 12
ähr@@ 12
èle 12
érie 12
éré@@ 12
ôn 12
Đ@@ 12
ű@@ 12
ʹ 12
̪ 12
Εθν@@ 12
Εξ@@ 12
Λε@@ 12
Μεγ@@ 12
Ντ@@ 12
άδα 12
έπ@@ 12
απλ@@ 12
αργ@@ 12
αση 12
δελφ@@ 12
ηδ@@ 12
θα 12
κατά 12
κω@@ 12
λευ@@ 12
μελ@@ 12
μον@@ 12
νά@@ 12
νο@@ 12
ούσ@@ 12
πολη 12
ριστιαν@@ 12
ρου@@ 12
στη@@ 12
τις 12
υπό 12
φω@@ 12
ύγ@@ 12
долж@@ 12
лся 12
льно 12
льного 12
льной 12
продол@@ 12
соста@@ 12
тё@@ 12
цией 12
часть 12
шего 12
юще@@ 12
Ѡ@@ 12
Қ 12
ӗ@@ 12
վ@@ 12
الح@@ 12
الش@@ 12
الق@@ 12
ت 12
شا@@ 12
چ@@ 12
ক@@ 12
জ@@ 12
್ 12
จ@@ 12
່ 12
້ 12
ྱ@@ 12
គ@@ 12
ង 12
ជ@@ 12
ប 12
រ 12
់ 12
ḍ@@ 12
Ḫ@@ 12
ạ 12
∃ 12
♭ 12
ⱃ@@ 12
ⱅ@@ 12
げ 12
と@@ 12
ん 12
カ@@ 12
ー 12
一 12
中 12
九@@ 12
们 12
千@@ 12
子@@ 12
文 12
門 12
남@@ 12
두@@ 12
태@@ 12
（ 12
Ago@@ 11
Aires 11
Besch@@ 11
Buenos 11
Dies@@ 11
Esta 11
Nam 11
Ort@@ 11
Spiel@@ 11
Verein 11
acı 11
aison 11
aque 11
ağı 11
bind@@ 11
cada 11
capital 11
classi@@ 11
command@@ 11
cultur@@ 11
cá@@ 11
dak@@ 11
duk@@ 11
déf@@ 11
eden 11
egen 11
einem 11
emu 11
endre 11
ería 11
eser@@ 11
fang@@ 11
fér@@ 11
gol 11
govern@@ 11
général 11
held 11
idades 11
ihr 11
industri@@ 11
ingia 11
invol@@ 11
isine 11
kav@@ 11
larg@@ 11
loi 11
luk 11
mak 11
ockey 11
orden 11
ouver@@ 11
padre 11
partamento 11
partement 11
poco 11
probl@@ 11
pré@@ 11
puer@@ 11
relati@@ 11
rière 11
schw@@ 11
species 11
trieb@@ 11
until 11
uş@@ 11
wam@@ 11
wap@@ 11
yet@@ 11
ämp@@ 11
çi 11
élec@@ 11
éo 11
ército 11
óm@@ 11
ük 11
ül 11
üm 11
ünst@@ 11
üş@@ 11
ɐ@@ 11
ɯ 11
ʂ@@ 11
̥ 11
Αυ@@ 11
Γου@@ 11
Μπρ@@ 11
Πρω@@ 11
άρκ@@ 11
έβ@@ 11
έως 11
ίγ@@ 11
αξ@@ 11
διδ@@ 11
ιστο@@ 11
ιω@@ 11
κε 11
κρι@@ 11
λυ@@ 11
μάν@@ 11
μετά 11
οικ@@ 11
στα@@ 11
στρ@@ 11
σύ@@ 11
τικά 11
τορ@@ 11
ϊκ@@ 11
ϒ@@ 11
Ё 11
Ї@@ 11
дней 11
ителей 11
когда 11
лись 11
филь@@ 11
Ґ 11
Җ 11
ҡ@@ 11
ө 11
Մ@@ 11
դ@@ 11
الج@@ 11
بي@@ 11
تر@@ 11
ح 11
مج@@ 11
وا@@ 11
وال@@ 11
يد 11
ک 11
ܘ@@ 11
न 11
प 11
म@@ 11
स 11
ন@@ 11
ম@@ 11
ল@@ 11
ি@@ 11
் 11
ຊ@@ 11
ນ 11
ສ@@ 11
ເ@@ 11
ག@@ 11
ក@@ 11
ὕ@@ 11
↓ 11
∑ 11
⟨ 11
⟩ 11
ⱁ@@ 11
き@@ 11
み@@ 11
ら@@ 11
を@@ 11
テ@@ 11
ラ@@ 11
ロ@@ 11
世@@ 11
五@@ 11
京 11
公@@ 11
学 11
書 11
松@@ 11
歲 11
民@@ 11
萬@@ 11
里@@ 11
강@@ 11
만@@ 11
민@@ 11
선@@ 11
성 11
시@@ 11
이 11
Ban 10
Canton 10
Durch 10
Este 10
Indonesia 10
Mit 10
Nueva 10
Platz 10
Region 10
Teil 10
Wash@@ 10
achen 10
akt@@ 10
alternati@@ 10
among 10
arbeit@@ 10
arriv@@ 10
atika 10
bang 10
bey@@ 10
clas@@ 10
combin@@ 10
comme 10
contempor@@ 10
contre 10
deutscher 10
emper@@ 10
envir@@ 10
erek 10
exper@@ 10
explo@@ 10
games 10
ghi 10
gut 10
half 10
high@@ 10
iku@@ 10
imbo 10
kho@@ 10
kut@@ 10
large 10
later 10
lieb 10
military 10
million 10
muerte 10
named 10
nouv@@ 10
onship 10
otball 10
perman@@ 10
prec@@ 10
production 10
professi@@ 10
race 10
region 10
rek@@ 10
rir 10
signific@@ 10
spor@@ 10
tainment 10
tanto 10
teil 10
tionen 10
toujours 10
ución 10
vai 10
vot@@ 10
within 10
wur@@ 10
yol@@ 10
zentr@@ 10
zis@@ 10
¿ 10
ám 10
áng 10
änd@@ 10
èmes 10
éti@@ 10
û 10
ünde 10
ĕ 10
İs@@ 10
ıl@@ 10
ılar 10
ıy@@ 10
ŏ 10
Œ@@ 10
ǝ@@ 10
ʰ 10
Ανατολ@@ 10
Εν@@ 10
Ιν@@ 10
Μέ@@ 10
Τα 10
Ψ 10
άρα 10
ίζ@@ 10
ίκης 10
ίνη 10
αιν@@ 10
ανδρ@@ 10
ανου@@ 10
ατρ@@ 10
γρ@@ 10
δία 10
διά@@ 10
ειρ@@ 10
εφαλ@@ 10
θρ@@ 10
λη@@ 10
μέρα 10
ουσα 10
προσ@@ 10
ς@@ 10
σον 10
τής 10
τους 10
τρο 10
χεί@@ 10
ωνίας 10
ώπ@@ 10
ώρ@@ 10
Ѕ@@ 10
Џ@@ 10
было 10
вать 10
верх@@ 10
вместе 10
ится 10
мыш@@ 10
ниях 10
ческой 10
это 10
ются 10
ющий 10
ѳ@@ 10
ғ@@ 10
Қ@@ 10
қ 10
ք 10
اد 10
با@@ 10
في 10
لا 10
من 10
ند@@ 10
ور@@ 10
ۇ@@ 10
ە@@ 10
ܡ@@ 10
क 10
ण 10
य 10
वा@@ 10
স@@ 10
ে@@ 10
ན 10
ལ@@ 10
ེ@@ 10
ོ@@ 10
ာ@@ 10
း@@ 10
ṅ@@ 10
ṛ@@ 10
ṣ 10
ῳ 10
ῷ 10
⁰ 10
₩ 10
♂ 10
ⱆ@@ 10
ⱑ@@ 10
い 10
う@@ 10
る 10
ト@@ 10
二@@ 10
京@@ 10
人 10
会 10
古@@ 10
名@@ 10
国 10
平@@ 10
戦@@ 10
政@@ 10
日 10
朝 10
株@@ 10
汉@@ 10
江 10
田 10
社 10
立@@ 10
Ꙗ@@ 10
According 9
Anf@@ 9
Bev@@ 9
Cuando 9
Francia 9
Für 9
Grün@@ 9
Guerre 9
Illinois 9
Jahr 9
Jahren 9
Osmanlı 9
Parlam@@ 9
Sept@@ 9
Serie 9
Tanz@@ 9
Tanzania 9
Theo 9
Verein@@ 9
Việt 9
abaj@@ 9
aband@@ 9
absol@@ 9
andes 9
ativo 9
ayı 9
beit 9
cambi@@ 9
charg@@ 9
concentr@@ 9
coup 9
cuer@@ 9
descri@@ 9
director 9
eleri 9
encore 9
eshi 9
eski 9
familia 9
film@@ 9
geg@@ 9
grandes 9
große 9
hus@@ 9
ickl@@ 9
ieder 9
imiento 9
inh 9
jeres 9
jeu 9
jeun@@ 9
jours 9
kehr@@ 9
lama 9
materi@@ 9
meister@@ 9
musical 9
nete 9
noch 9
nur 9
onge@@ 9
osu 9
partic@@ 9
perten@@ 9
qued@@ 9
result@@ 9
riff 9
route 9
seine 9
sek@@ 9
success@@ 9
ticas 9
tischen 9
transfer@@ 9
trois 9
vili@@ 9
wach@@ 9
werden 9
wird 9
wirt@@ 9
yaz@@ 9
Ò@@ 9
Ó 9
ài 9
änder@@ 9
ême 9
ños 9
óng 9
über@@ 9
ück@@ 9
ış 9
ļ@@ 9
ľ@@ 9
ň 9
Ş 9
Ū 9
ș 9
ʔ@@ 9
ʼ 9
̞ 9
Έλλην@@ 9
άλλ@@ 9
άμε@@ 9
άνθρω@@ 9
άντα 9
έζ@@ 9
έρα 9
ίδα 9
ακή 9
ανά@@ 9
αϊκ@@ 9
αύ@@ 9
βαν@@ 9
βαρ@@ 9
διακ@@ 9
είναι 9
είων 9
εκκλη@@ 9
κον@@ 9
λει@@ 9
μάτων 9
μένα 9
μαρ@@ 9
ματος 9
μεσ@@ 9
μετ@@ 9
μετα@@ 9
ογραφ@@ 9
ολογ@@ 9
πει@@ 9
περί@@ 9
πολλ@@ 9
ριο 9
σχολ@@ 9
σω@@ 9
σύν@@ 9
τά 9
ταγ@@ 9
τοκ@@ 9
τό 9
χορ@@ 9
ωμα 9
όδου 9
όλου 9
ώρα 9
ώς 9
Ѕ 9
Ѝ 9
вым 9
государствен@@ 9
нитель@@ 9
пы 9
сты 9
числен@@ 9
ён@@ 9
ҫ@@ 9
Ӂ 9
Ө@@ 9
զ@@ 9
ַ 9
أبو 9
ئ@@ 9
الأ@@ 9
الإ@@ 9
بل@@ 9
ست@@ 9
سي@@ 9
ِّ@@ 9
मा@@ 9
र@@ 9
व@@ 9
श 9
অ@@ 9
ন 9
য 9
ী 9
ไทย 9
์ 9
ວ@@ 9
། 9
ར 9
င 9
စ@@ 9
ည 9
မ 9
ွ@@ 9
ღ@@ 9
წ@@ 9
ដ@@ 9
ប@@ 9
ព 9
ោ@@ 9
Ṣ@@ 9
ṭ 9
ὔ@@ 9
‌ 9
₂ 9
⊆ 9
ⰽ@@ 9
ⱉ@@ 9
ⱓ@@ 9
つ@@ 9
に@@ 9
み 9
イ 9
ト 9
・ 9
书 9
地@@ 9
女@@ 9
字@@ 9
家@@ 9
峰 9
川@@ 9
手 9
本 9
正@@ 9
水@@ 9
王@@ 9
白@@ 9
百@@ 9
皇@@ 9
石@@ 9
社@@ 9
西@@ 9
見@@ 9
通@@ 9
韓@@ 9
風@@ 9
龍@@ 9
가 9
경@@ 9
나@@ 9
대 9
무@@ 9
서@@ 9
소@@ 9
시 9
아@@ 9
일 9
장@@ 9
평@@ 9
하@@ 9
Als 8
Baş@@ 8
Cao 8
During 8
Grenz@@ 8
Gruppe 8
Meister@@ 8
Minh 8
Mitte 8
Ort 8
Osman@@ 8
Par 8
Paşa 8
Sie 8
Tari@@ 8
Unis 8
acto 8
aliste 8
allem@@ 8
almente 8
amu 8
arse 8
ately 8
atif 8
ayar@@ 8
aç 8
capac@@ 8
cause 8
champi@@ 8
chs 8
civil 8
continu@@ 8
conver@@ 8
created 8
có@@ 8
ded@@ 8
derni@@ 8
destin@@ 8
différ@@ 8
dik@@ 8
disput@@ 8
distribu@@ 8
dok@@ 8
elimin@@ 8
enfants 8
enten 8
esha 8
fond@@ 8
forces 8
fäl@@ 8
government 8
gradu@@ 8
habit@@ 8
hara 8
hay 8
hô@@ 8
icha 8
icklung 8
iert 8
innen 8
introduc@@ 8
isho 8
ived 8
iye 8
izo 8
iş 8
jah@@ 8
join@@ 8
klär@@ 8
laya 8
lili@@ 8
maf@@ 8
mehr 8
mf@@ 8
model@@ 8
much 8
ohne 8
orta@@ 8
oğ@@ 8
partam@@ 8
performan@@ 8
personal 8
ported 8
propor@@ 8
quier 8
record@@ 8
scheid@@ 8
seh@@ 8
sek 8
seç@@ 8
señ@@ 8
soit 8
soll 8
só@@ 8
tah@@ 8
tant 8
tener 8
teurs 8
thu 8
tiki 8
tof@@ 8
tuy@@ 8
udi 8
village 8
wech@@ 8
zwischen 8
ª 8
Ä 8
Ç 8
ã 8
änge 8
érieur 8
ét 8
ích 8
ún@@ 8
ď 8
đ 8
Ē@@ 8
ħ 8
İz@@ 8
ıf@@ 8
ısı 8
ŕ 8
Ţ@@ 8
ǒ 8
Ș@@ 8
ɵ 8
ʌ@@ 8
ʲ 8
ʾ@@ 8
Ή@@ 8
Ύ@@ 8
Δημοκρατ@@ 8
Ζ 8
Ξ 8
Οι 8
Συν@@ 8
Του@@ 8
έργ@@ 8
ίδες 8
ίλι@@ 8
ίο 8
από 8
γε@@ 8
δη 8
δη@@ 8
δημ@@ 8
δικ@@ 8
εικ@@ 8
ητική 8
θάνα@@ 8
θή@@ 8
θεν@@ 8
θμ@@ 8
ιάς 8
ιακ@@ 8
ικές 8
κίν@@ 8
κατ@@ 8
λάβ@@ 8
λεγ@@ 8
λεύθερ@@ 8
μητ@@ 8
μικρ@@ 8
μισ@@ 8
μμ@@ 8
μουσ@@ 8
μό@@ 8
νόμ@@ 8
ολογία 8
ουν 8
ποι 8
ρή@@ 8
ρίς 8
ρίσ@@ 8
ριβ@@ 8
ρού 8
στρα@@ 8
συνα@@ 8
τηγ@@ 8
όμεν@@ 8
ϕ@@ 8
Ѓ 8
Ї 8
быть 8
вший 8
годах 8
держа@@ 8
лько 8
льных 8
меся@@ 8
поэ@@ 8
свою 8
состоя@@ 8
ству 8
ступи@@ 8
худо@@ 8
ѿ@@ 8
Ҹ 8
Ӈ 8
Ә 8
Ө 8
ԓ@@ 8
Գ@@ 8
Կ@@ 8
բ@@ 8
թ@@ 8
ղ@@ 8
ע 8
ף 8
ات@@ 8
اد@@ 8
الب@@ 8
الف@@ 8
الل@@ 8
او@@ 8
ة@@ 8
ث 8
ج 8
خ 8
دا 8
دى 8
زي@@ 8
ع 8
عبد 8
عة 8
في@@ 8
مز@@ 8
يم@@ 8
ين@@ 8
گ@@ 8
ی@@ 8
ܫ@@ 8
ज 8
त@@ 8
न@@ 8
यान 8
व 8
ष 8
চ@@ 8
ত 8
ਾ@@ 8
్ 8
า@@ 8
ກ 8
ກ@@ 8
ງ 8
ཀ@@ 8
ལ 8
ི@@ 8
ེ 8
လ@@ 8
ျ@@ 8
თ 8
ក 8
ទ@@ 8
ហ@@ 8
ូ@@ 8
ំ@@ 8
ḏ@@ 8
ḗ 8
ạ@@ 8
ọ 8
ἡ 8
Ὀ@@ 8
ὺ@@ 8
‍ 8
⊕ 8
⌀ 8
┌ 8
◆ 8
ⰱ@@ 8
が@@ 8
す@@ 8
ア@@ 8
ガ@@ 8
ク@@ 8
シ@@ 8
プ@@ 8
マ@@ 8
ル 8
们@@ 8
党 8
号 8
孔@@ 8
宋 8
帝 8
手@@ 8
星 8
時@@ 8
木 8
木@@ 8
村 8
歌 8
河 8
河@@ 8
法 8
花 8
花@@ 8
草@@ 8
行 8
論 8
部 8
音@@ 8
고@@ 8
국@@ 8
라 8
라@@ 8
리 8
리@@ 8
은 8
자 8
전@@ 8
천@@ 8
해@@ 8
Allem@@ 7
Böl@@ 7
Bür@@ 7
Büyük 7
Durch@@ 7
Engl@@ 7
Fuß@@ 7
Guinea 7
Gür@@ 7
Kır@@ 7
Nh@@ 7
Soh@@ 7
Sohn 7
Unternehmen 7
Zus@@ 7
alten 7
anlığı 7
année 7
arded 7
arı 7
ationen 7
auspi@@ 7
bao 7
central 7
cerca 7
cet 7
church 7
cô@@ 7
dado 7
dej@@ 7
dies@@ 7
dung 7
ecke 7
ellen 7
endant 7
enin 7
escu@@ 7
está 7
eñ@@ 7
famil@@ 7
few 7
fils 7
fot@@ 7
frances@@ 7
gran 7
gén@@ 7
haben 7
hijo 7
ient 7
ilç@@ 7
inner@@ 7
isons 7
issen 7
jaw@@ 7
kann 7
keine 7
kik@@ 7
lerin 7
letz@@ 7
mais 7
making 7
marqu@@ 7
maya 7
moja 7
mujeres 7
municip@@ 7
nchi 7
ndi@@ 7
neue 7
north 7
ogle 7
origin@@ 7
osos 7
otro 7
oyn@@ 7
oyun@@ 7
played 7
provincia 7
präs@@ 7
qué 7
rem 7
seur 7
siz 7
sobre 7
sont 7
these 7
those 7
tous 7
traf@@ 7
tü@@ 7
una@@ 7
yük 7
zun@@ 7
© 7
États 7
Ê@@ 7
ái 7
áo 7
çal@@ 7
éx@@ 7
útbol 7
Ī@@ 7
İ 7
İn@@ 7
ığ@@ 7
ř 7
ť@@ 7
ɒ 7
ʌ 7
̩ 7
̱ 7
Αθη@@ 7
Αλεξ@@ 7
Αφ@@ 7
Ελλάδα 7
Ιστο@@ 7
Ολυμπ@@ 7
Ου@@ 7
άλι 7
έρας 7
έρν@@ 7
ήλ@@ 7
ήματα 7
αντί@@ 7
ασία 7
βρα@@ 7
γαλ@@ 7
γον@@ 7
δεν 7
δευ@@ 7
δρά@@ 7
δυ@@ 7
είδ@@ 7
επισ@@ 7
επο@@ 7
ερ 7
εων 7
ζωή 7
ηθ@@ 7
ημάτων 7
θήκη 7
κατα@@ 7
κόμ@@ 7
οί@@ 7
οπλ@@ 7
παλαι@@ 7
σμού 7
στατ@@ 7
τάν@@ 7
ταξ@@ 7
τοπ@@ 7
τοπο@@ 7
τρί@@ 7
τροπ@@ 7
υνα@@ 7
υφ@@ 7
χρον@@ 7
όχι 7
ώδ@@ 7
ώνα 7
Є@@ 7
Ќ 7
Ќ@@ 7
Ў@@ 7
Ы@@ 7
бря 7
держ@@ 7
музы@@ 7
откры@@ 7
современ@@ 7
соеди@@ 7
только 7
ходит 7
электро@@ 7
ющих 7
ёл 7
љ 7
џ 7
Ѡ 7
Ѥ 7
ѻ@@ 7
Ң 7
Ҭ 7
Һ 7
Ӄ 7
ӣ@@ 7
ӧ 7
Ն@@ 7
ց@@ 7
ב 7
ט 7
ס 7
ء 7
ائ@@ 7
اف@@ 7
ام 7
اه@@ 7
بة 7
تا@@ 7
ث@@ 7
رو@@ 7
شي@@ 7
ض@@ 7
فر@@ 7
لة 7
مار@@ 7
ول@@ 7
وي@@ 7
يل 7
ٌ 7
ٰ@@ 7
ध@@ 7
प@@ 7
य@@ 7
रा@@ 7
री 7
श@@ 7
़ 7
ই@@ 7
গ@@ 7
় 7
ทร@@ 7
พ@@ 7
ย@@ 7
ພ@@ 7
ະ 7
པ@@ 7
ྲ@@ 7
က@@ 7
ခ@@ 7
ု@@ 7
ნ 7
პ@@ 7
ჭ@@ 7
ខ 7
ព@@ 7
ម 7
វ@@ 7
ស 7
អ@@ 7
ុ@@ 7
ើ@@ 7
ḱ@@ 7
ṓ@@ 7
ṯ 7
ẏ@@ 7
ề@@ 7
ọ@@ 7
ἑ@@ 7
ἤ@@ 7
Ἠ@@ 7
ὸ 7
ῆ 7
‛ 7
∂ 7
∇ 7
♯ 7
ⰸ@@ 7
ⴰ@@ 7
ま@@ 7
ろ@@ 7
ノ@@ 7
バ@@ 7
フ@@ 7
ブ@@ 7
ワ@@ 7
下@@ 7
中国@@ 7
井@@ 7
仮@@ 7
史@@ 7
合@@ 7
周@@ 7
士 7
天 7
富@@ 7
成@@ 7
所 7
易@@ 7
星@@ 7
月@@ 7
林 7
水 7
清@@ 7
王 7
珠@@ 7
生 7
生@@ 7
皇 7
空@@ 7
紫@@ 7
術 7
読@@ 7
语 7
長@@ 7
防@@ 7
阿@@ 7
陳@@ 7
隊 7
ꙋ 7
구 7
기@@ 7
날 7
녀@@ 7
려 7
록@@ 7
백@@ 7
수 7
압@@ 7
유@@ 7
인@@ 7
자@@ 7
화 7
Ağ@@ 6
Dez@@ 6
División 6
Ende 6
Geometr@@ 6
Haup@@ 6
Isra@@ 6
January 6
Lond@@ 6
Nga 6
Nguyễn 6
Produk@@ 6
Zu 6
adan 6
aiss@@ 6
ajes 6
ammen@@ 6
angla@@ 6
après 6
artist@@ 6
ases@@ 6
autres 6
avant 6
azu 6
banda 6
biri 6
bö@@ 6
categ@@ 6
cette 6
commune 6
communes 6
complet@@ 6
conoc@@ 6
consider@@ 6
consist@@ 6
could 6
culo 6
dentro 6
divers@@ 6
déc@@ 6
días 6
early 6
ehen 6
ellik@@ 6
ellos 6
emente 6
encias 6
erste 6
erten 6
follow@@ 6
following 6
formed 6
gegen 6
gleich@@ 6
gü@@ 6
haup@@ 6
hiv@@ 6
icios 6
ieren 6
investig@@ 6
iran 6
istre 6
kale 6
kim 6
kuj@@ 6
kül@@ 6
kır@@ 6
landa 6
leich 6
lere 6
ligne 6
lü 6
mejor 6
members 6
menos 6
mita 6
nord 6
nouveau 6
novi@@ 6
nun 6
obra 6
occas@@ 6
onales 6
onu 6
orden@@ 6
osas 6
particu@@ 6
país 6
peu 6
pili 6
pios 6
political 6
popular 6
premier 6
preu@@ 6
primera 6
published 6
pueblo 6
quelle 6
reci@@ 6
schaf@@ 6
schnit@@ 6
seiner 6
setz@@ 6
sud 6
sü@@ 6
teh@@ 6
television 6
ticos 6
tif 6
tish@@ 6
todo 6
toral 6
uko 6
uza 6
uzi 6
verk@@ 6
wana 6
wani 6
wenn 6
who@@ 6
woh@@ 6
worked 6
yap@@ 6
zeh@@ 6
zeit@@ 6
zwei 6
¨ 6
Á 6
Üniversitesi 6
ßen@@ 6
âm 6
çu 6
çı 6
ède 6
écn@@ 6
époque 6
éré 6
étu@@ 6
ôle 6
üne 6
ÿ 6
Ć@@ 6
ği 6
į@@ 6
ıl 6
ını 6
ķ@@ 6
ĺ 6
ľ 6
şu 6
ţ 6
Ž 6
ǽ@@ 6
ɕ 6
ɲ 6
ɲ@@ 6
ʁ 6
ˤ@@ 6
Ένω@@ 6
Αθή@@ 6
Αντι@@ 6
Αυγ@@ 6
Βασ@@ 6
Γαλλ@@ 6
Γερμαν@@ 6
Εθνική 6
Ελλάδας 6
άνα@@ 6
έστ@@ 6
έτος 6
ήσεων 6
αγγελ@@ 6
αγωγ@@ 6
αδελφ@@ 6
ακόμα 6
αντι@@ 6
ατο@@ 6
βασιλ@@ 6
δήμ@@ 6
εθν@@ 6
ειες 6
ειο 6
θε 6
θρω@@ 6
θω@@ 6
ιν 6
κο 6
κολ@@ 6
κορ@@ 6
κρί@@ 6
λίγ@@ 6
λεξ@@ 6
λεύ@@ 6
λλογ@@ 6
μένης 6
μαϊκ@@ 6
μια 6
μορφ@@ 6
μπου@@ 6
νας 6
νη@@ 6
ογράφ@@ 6
οδος 6
οκρατ@@ 6
οσφ@@ 6
πτ@@ 6
ροφ@@ 6
σκοπ@@ 6
σο@@ 6
στην 6
στιαν@@ 6
συλλ@@ 6
συμβ@@ 6
τίτ@@ 6
τρου 6
τυπ@@ 6
τυχ@@ 6
τό@@ 6
φέρ@@ 6
φή 6
φθ@@ 6
χρή@@ 6
όλη 6
ότι 6
ϛ 6
Ϫ@@ 6
Ё@@ 6
города 6
двух 6
лась 6
октя@@ 6
приня@@ 6
располо@@ 6
резуль@@ 6
руковод@@ 6
скую 6
соответ@@ 6
тных 6
ческих 6
чных 6
ён 6
ѓ 6
ѕ 6
Ѳ@@ 6
Ҍ 6
ґ 6
ґ@@ 6
ғ 6
ҕ@@ 6
ҙ@@ 6
ү 6
Ҳ 6
Ӏ 6
ӄ 6
ӈ 6
ӏ@@ 6
Ӓ 6
Ӕ 6
ӗ 6
Ӡ 6
Ӭ 6
Ԥ 6
կ 6
ռ@@ 6
ք@@ 6
، 6
ات 6
اس 6
الت@@ 6
الد@@ 6
المع@@ 6
بن@@ 6
بي 6
تح@@ 6
جن@@ 6
خو@@ 6
رب@@ 6
ز 6
ص 6
على 6
غ 6
مان 6
مر@@ 6
وب@@ 6
وج@@ 6
يون@@ 6
ٍ 6
ک@@ 6
ې 6
ܕ@@ 6
ܥ@@ 6
ܪ@@ 6
क@@ 6
ट 6
तन 6
ध 6
धर 6
धि 6
ना@@ 6
बो@@ 6
महा@@ 6
ला 6
ং@@ 6
হ@@ 6
க@@ 6
ா@@ 6
ก@@ 6
ท@@ 6
บา@@ 6
มหา@@ 6
ມ 6
ູ 6
ົ 6
ໃ@@ 6
ཆ@@ 6
ྡ@@ 6
း 6
რ 6
ყ@@ 6
ც@@ 6
ჯ@@ 6
ជ 6
ណ@@ 6
ត 6
ា 6
័ 6
ḇ@@ 6
ḗ@@ 6
ế 6
ồ@@ 6
ὲ@@ 6
ῳ@@ 6
‖ 6
ℝ@@ 6
℮ 6
⇄ 6
∙ 6
ⱌ@@ 6
。 6
う 6
く@@ 6
け 6
け@@ 6
っ@@ 6
の 6
は@@ 6
む@@ 6
オ@@ 6
ス 6
チ@@ 6
上 6
交@@ 6
代@@ 6
仲@@ 6
信@@ 6
修@@ 6
元@@ 6
先@@ 6
六@@ 6
兵 6
冀@@ 6
別@@ 6
功 6
勇@@ 6
動@@ 6
化@@ 6
同@@ 6
名 6
唐@@ 6
國 6
多@@ 6
大 6
女 6
學 6
寺 6
小@@ 6
府 6
御@@ 6
愛@@ 6
我@@ 6
斯@@ 6
方@@ 6
普@@ 6
機 6
法@@ 6
波 6
白 6
皖@@ 6
精@@ 6
羅 6
舟@@ 6
艦@@ 6
良@@ 6
茶 6
行政@@ 6
觀@@ 6
都 6
野@@ 6
闘@@ 6
门 6
陽@@ 6
際@@ 6
音 6
香@@ 6
馬@@ 6
黑@@ 6
龍 6
ꙋ@@ 6
광@@ 6
국 6
금@@ 6
동@@ 6
로 6
말 6
북@@ 6
세 6
수@@ 6
승@@ 6
아 6
요 6
원@@ 6
주 6
투@@ 6
， 6
ABD 5
Ankara 5
Ayr@@ 5
Cumhuriy@@ 5
However 5
Jahrhunderts 5
Janu@@ 5
Juli 5
Kig@@ 5
Nach 5
Rück@@ 5
Trần 5
Zusammen@@ 5
abab@@ 5
acces@@ 5
alif@@ 5
along 5
altı 5
amér@@ 5
antigu@@ 5
appel@@ 5
asına 5
ateurs 5
atta@@ 5
ayant 5
aße 5
best@@ 5
bierno 5
bâ@@ 5
caso 5
celebr@@ 5
celle 5
comer@@ 5
competi@@ 5
compr@@ 5
contribu@@ 5
daki 5
dağ@@ 5
dernier 5
design@@ 5
determin@@ 5
different 5
district 5
donde 5
dose 5
drit@@ 5
ehe 5
elik 5
elte 5
enzi 5
ersten 5
españ@@ 5
estim@@ 5
etzt 5
europé@@ 5
eviz@@ 5
ewa 5
favor@@ 5
football 5
gouvernement 5
großen 5
gün 5
gün@@ 5
hilo 5
hombres 5
iler@@ 5
imu 5
including 5
inclus@@ 5
incorpor@@ 5
individu@@ 5
insi 5
jina 5
junto 5
kari@@ 5
kazan@@ 5
kea 5
keiten 5
kez 5
khi 5
kung 5
lado 5
lieu 5
liği 5
luk@@ 5
lég@@ 5
lık@@ 5
manif@@ 5
medio 5
mek 5
mittel@@ 5
moved 5
naf@@ 5
neuen 5
ngu@@ 5
nje 5
nungen 5
ológ@@ 5
oppos@@ 5
parti 5
period 5
premi@@ 5
previ@@ 5
proces@@ 5
profes@@ 5
puis 5
reco@@ 5
recog@@ 5
recu@@ 5
registr@@ 5
represent@@ 5
resid@@ 5
restaur@@ 5
role 5
sehen 5
steht 5
sö@@ 5
sın@@ 5
sız 5
temper@@ 5
tesi 5
tham 5
though 5
tiene 5
titul@@ 5
très 5
tür@@ 5
tı 5
utsch@@ 5
vek@@ 5
verdi 5
wieder 5
yaş@@ 5
zh 5
zäh@@ 5
Ét@@ 5
Ô@@ 5
Þ 5
äre 5
äß@@ 5
édi@@ 5
óg@@ 5
ôt 5
öster@@ 5
ùa 5
út 5
üre@@ 5
üsü 5
đa 5
Œ 5
œ 5
ŵ@@ 5
ſ@@ 5
ǵ@@ 5
ɟ 5
ʔ 5
ʕ@@ 5
ʹ@@ 5
ˆ 5
̈ 5
̟ 5
Αν 5
ΠΑ 5
άσκ@@ 5
έδ@@ 5
ήσεις 5
ΰ 5
ανή@@ 5
αρμ@@ 5
γεω@@ 5
δίας 5
δρα@@ 5
ειας 5
εντρ@@ 5
ενός 5
εται 5
εω@@ 5
ζή@@ 5
θερ@@ 5
θερμ@@ 5
κοιν@@ 5
κρατ@@ 5
κυρι@@ 5
λιο 5
λλην@@ 5
μένων 5
μέσ@@ 5
μο 5
μορ@@ 5
νησι@@ 5
ντ@@ 5
νύ@@ 5
ξε 5
ξη 5
ογραφία 5
οικογέν@@ 5
πίσ@@ 5
παρα@@ 5
πεδ@@ 5
πν@@ 5
πον@@ 5
ραφ@@ 5
σαν 5
σας 5
σει 5
σμός 5
στολ@@ 5
τές 5
τήρ@@ 5
τια 5
τικού 5
φυλ@@ 5
ωνα 5
όνα 5
ότη@@ 5
ϑ@@ 5
ϕ 5
Є 5
альбо@@ 5
большо@@ 5
вую 5
деятель@@ 5
льные 5
районе 5
своей 5
ственной 5
чего 5
шёл 5
эта@@ 5
ђ 5
Ѭ 5
ѯ 5
Ѵ 5
Ѹ@@ 5
Ғ 5
Ҕ 5
ң 5
Ҧ 5
ҧ@@ 5
ҫ 5
Ҷ 5
Ӆ 5
Ӊ 5
Ӝ 5
Ӧ 5
Ӯ 5
ӳ@@ 5
Ӷ 5
ӹ 5
Ս@@ 5
լ 5
չ@@ 5
ջ@@ 5
ց 5
փ@@ 5
ח 5
ץ 5
أحمد 5
اب 5
ابن 5
احمد 5
از@@ 5
المن@@ 5
اني 5
باد 5
بر 5
بر@@ 5
جة 5
حر@@ 5
حم@@ 5
حي@@ 5
خان 5
دان 5
دي 5
دي@@ 5
ري 5
سم@@ 5
سن@@ 5
شر@@ 5
ظ@@ 5
عز@@ 5
عل@@ 5
علي 5
قل@@ 5
كان 5
لا@@ 5
لال 5
لو@@ 5
مب@@ 5
مه@@ 5
مي@@ 5
نج@@ 5
نص@@ 5
نو@@ 5
وة 5
ود 5
وز@@ 5
ون 5
يا 5
ير@@ 5
يو 5
ۡ 5
ܐ@@ 5
ܚ@@ 5
ܬ@@ 5
ं@@ 5
कर 5
का 5
का@@ 5
ग@@ 5
जय 5
ति 5
पा@@ 5
भ@@ 5
रो@@ 5
ल 5
सम 5
ान 5
ত@@ 5
শ@@ 5
ী@@ 5
ਰ@@ 5
ਿ@@ 5
ా@@ 5
ರ@@ 5
ಿ@@ 5
ธิ@@ 5
บ@@ 5
ปร@@ 5
ล@@ 5
สม@@ 5
เด 5
็ 5
่ 5
ທ@@ 5
ມ@@ 5
ອ@@ 5
ག 5
ཐ@@ 5
ད@@ 5
ི 5
ུ 5
ྗ@@ 5
န 5
အ@@ 5
ေ@@ 5
ტ 5
គ 5
ល@@ 5
ិ@@ 5
ឹ@@ 5
េ@@ 5
ះ@@ 5
ḱ 5
ṇ 5
Ṭ@@ 5
ạn 5
ẹ 5
ἅ@@ 5
Ἅ@@ 5
ἕ@@ 5
Ἔ@@ 5
ἵ@@ 5
ὤ@@ 5
ᾶ 5
₤ 5
ℝ 5
⇋ 5
∼ 5
⊙ 5
■ 5
☆ 5
ⰳ@@ 5
ⰶ@@ 5
ⱂ@@ 5
ⱈ@@ 5
ⱜ@@ 5
え@@ 5
き 5
く 5
こ@@ 5
ざ 5
す 5
た 5
つ 5
ぱ@@ 5
ふ@@ 5
む 5
よ@@ 5
る@@ 5
ア 5
コ@@ 5
ダ@@ 5
ド@@ 5
ナ@@ 5
ニ@@ 5
パ@@ 5
ボ@@ 5
ヴ@@ 5
三 5
丹@@ 5
主@@ 5
之 5
事件 5
代 5
伐 5
作@@ 5
光@@ 5
克@@ 5
出@@ 5
北 5
友@@ 5
台@@ 5
命 5
回@@ 5
城@@ 5
外@@ 5
宗 5
宫 5
密 5
尔@@ 5
川 5
平 5
康 5
影 5
德 5
德@@ 5
心@@ 5
憲@@ 5
技 5
拳 5
教 5
斬@@ 5
會 5
森 5
歌@@ 5
死@@ 5
氏 5
火@@ 5
玉@@ 5
的@@ 5
直@@ 5
真@@ 5
突@@ 5
粤@@ 5
红@@ 5
聖@@ 5
茶@@ 5
菜 5
衛@@ 5
見 5
警@@ 5
軍 5
進@@ 5
道@@ 5
郎@@ 5
門@@ 5
陽 5
電@@ 5
青@@ 5
革@@ 5
館 5
首@@ 5
黄@@ 5
Ꚋ 5
내@@ 5
로@@ 5
만 5
면 5
모@@ 5
물 5
바@@ 5
벌 5
선 5
신 5
신@@ 5
우 5
우@@ 5
운@@ 5
지@@ 5
한 5
해 5
화@@ 5
Barcel@@ 4
Campeonato 4
Desde 4
Familie 4
Genel 4
Ils 4
Kongo 4
Maji 4
Müz@@ 4
Nguy@@ 4
Proz@@ 4
Sein 4
Sơn 4
Văn 4
ailleurs 4
alidad 4
aliza 4
alık 4
ambao 4
ammen 4
amı 4
anah@@ 4
andere 4
arak 4
armée 4
assist@@ 4
autre 4
años 4
baş@@ 4
became 4
because 4
beim 4
bere@@ 4
canción 4
centre 4
chaque 4
cier@@ 4
como 4
conse@@ 4
cré@@ 4
cuar@@ 4
culos 4
defe@@ 4
denen 4
depuis 4
desde 4
deş@@ 4
dispar@@ 4
donn@@ 4
doğ@@ 4
ección 4
eint 4
embar@@ 4
ennen 4
enton@@ 4
estos 4
financi@@ 4
fois 4
genommen 4
ición 4
ierten 4
ierung 4
igt 4
ihe 4
ihn 4
ihrer 4
important 4
importante 4
inaug@@ 4
inten@@ 4
inté@@ 4
isant 4
ität 4
jia 4
jini 4
kati 4
kati@@ 4
kaç@@ 4
keş@@ 4
kiye 4
kte 4
kush@@ 4
kü 4
letzten 4
lugar 4
luy@@ 4
lés 4
lü@@ 4
lük 4
marri@@ 4
maç@@ 4
mbal@@ 4
mez 4
mismo 4
much@@ 4
más 4
mé 4
nda 4
neh@@ 4
nh 4
née 4
năm 4
nın 4
oblig@@ 4
organis@@ 4
oría 4
où 4
particip@@ 4
partie 4
pata 4
personn@@ 4
prepar@@ 4
primer 4
principal 4
propos@@ 4
province 4
prä@@ 4
puede 4
punto 4
quan 4
rund 4
réalis@@ 4
sau 4
selb@@ 4
singi 4
sociation 4
south 4
suiv@@ 4
tete 4
timm@@ 4
tourn@@ 4
ually 4
ucu 4
umani 4
unden 4
ungu 4
urch 4
uç@@ 4
vient 4
và 4
waka 4
yük@@ 4
zey 4
¸ 4
Õ@@ 4
ác 4
ách 4
áp 4
ält 4
äuf@@ 4
était 4
óc 4
óm 4
üng@@ 4
üç@@ 4
üçük 4
üğü 4
Ă 4
Ă@@ 4
Đ 4
Đông 4
ġ 4
Ħ@@ 4
ĩ@@ 4
į 4
İl@@ 4
ıc@@ 4
ıdır 4
ına 4
ıyor 4
Ǎ 4
ț 4
ɕ@@ 4
ɡ 4
ɤ@@ 4
ɫ 4
ɹ@@ 4
ʀ 4
ʷ@@ 4
ʻ 4
˘ 4
̌ 4
͂ 4
Ευρ@@ 4
Ιουλίου 4
Με 4
Στην 4
άλογ@@ 4
άνδρ@@ 4
άνω 4
άτων 4
ήχ@@ 4
αίσ@@ 4
ανο@@ 4
αρίου 4
αριθμ@@ 4
αρκ@@ 4
βορ@@ 4
γιο 4
γκ 4
γρα@@ 4
δό@@ 4
είν@@ 4
είς 4
ηλε@@ 4
ηματ@@ 4
ητής 4
ηχαν@@ 4
θυν@@ 4
ιστορ@@ 4
κε@@ 4
κει@@ 4
κυκλ@@ 4
μάχ@@ 4
μένος 4
μία 4
μορφή 4
ναν 4
νες 4
νό@@ 4
ξης 4
οικονομ@@ 4
οιν@@ 4
ορά 4
ουμε 4
ούν 4
ούργ@@ 4
παί@@ 4
παλ@@ 4
πολιτική 4
πολυ@@ 4
ποταμ@@ 4
πρι@@ 4
πρό@@ 4
ρική 4
σεν@@ 4
σκην@@ 4
στήρι@@ 4
τελευτα@@ 4
τηρ@@ 4
τικών 4
τοιχ@@ 4
τον@@ 4
τούν 4
τούς 4
τροφ@@ 4
φάν@@ 4
φαλ@@ 4
φυσ@@ 4
ψη 4
ωβ@@ 4
ωνστ@@ 4
ϋ@@ 4
όλα 4
όλων 4
όμα 4
όπου 4
США 4
были 4
вает 4
всего 4
городе 4
емы@@ 4
еся 4
ещё 4
жении 4
июля 4
йских 4
которые 4
который 4
лось 4
начале 4
началь@@ 4
ниями 4
переда@@ 4
посё@@ 4
своих 4
ствии 4
также 4
февра@@ 4
ходе 4
чень 4
эти@@ 4
ённых 4
њ 4
ѱ 4
Ѹ 4
Ҋ 4
Ҏ 4
ҙ 4
Ҟ 4
Ҡ 4
Ҵ 4
ҷ@@ 4
Ӌ 4
Ӎ 4
ӑ 4
ӕ 4
ӕ@@ 4
ӱ 4
ԓ 4
Բ@@ 4
Խ@@ 4
Պ@@ 4
Ք@@ 4
ա 4
ը 4
խ 4
մ 4
տ 4
ֱ@@ 4
ׂ@@ 4
װ@@ 4
اج@@ 4
اش@@ 4
الخ@@ 4
الدین 4
السع@@ 4
السلام 4
الص@@ 4
الغ@@ 4
ای@@ 4
باب 4
بد@@ 4
برو@@ 4
به 4
جا@@ 4
دا@@ 4
داء 4
در 4
راء 4
شه@@ 4
عر@@ 4
علا@@ 4
عي@@ 4
قب@@ 4
قط@@ 4
كل 4
كو@@ 4
لل@@ 4
لی 4
ماء 4
مان@@ 4
مح@@ 4
مد 4
مد@@ 4
مر 4
مرا@@ 4
مق@@ 4
مل 4
مه 4
مُ@@ 4
نظ@@ 4
وادي 4
وع@@ 4
وم 4
ون@@ 4
وي 4
يوم 4
ژ@@ 4
کن@@ 4
ہ@@ 4
ܣ@@ 4
ܩ@@ 4
ܪ 4
आ@@ 4
को@@ 4
ख 4
ता@@ 4
दी@@ 4
दु@@ 4
धि@@ 4
ना 4
ने@@ 4
बु@@ 4
मी 4
मो@@ 4
या 4
योग 4
ली 4
वर 4
वि@@ 4
स@@ 4
सिंह 4
ক 4
খ@@ 4
ঘ@@ 4
ণ 4
দ 4
দ@@ 4
য@@ 4
ষ 4
ো@@ 4
ੰ@@ 4
த@@ 4
ు 4
ವ@@ 4
ಾ@@ 4
กอง@@ 4
ง 4
ทั@@ 4
ร@@ 4
รา@@ 4
ว 4
ศ@@ 4
ห@@ 4
อ@@ 4
ฯ 4
ิน@@ 4
ຂ@@ 4
ຫ@@ 4
ິ@@ 4
ໄ@@ 4
ཁ@@ 4
ཏ@@ 4
ད 4
བ 4
ཡ@@ 4
ྒ@@ 4
ထ@@ 4
သ@@ 4
በ@@ 4
ថ 4
ធ@@ 4
ួ@@ 4
ᠠ@@ 4
ḍ 4
ṡ@@ 4
Ἆ@@ 4
Ἕ@@ 4
Ὁ 4
ὖ@@ 4
Ὑ@@ 4
ὡ@@ 4
ὰ@@ 4
ὲ 4
ῇ 4
ῠ@@ 4
Ῥ@@ 4
ῷ@@ 4
‥ 4
₃ 4
℃ 4
⇌ 4
▪ 4
♀ 4
ⵉ@@ 4
、 4
ぎ@@ 4
さ@@ 4
じ@@ 4
せ@@ 4
て 4
は 4
ば 4
ひ@@ 4
ゃ@@ 4
ら 4
れ@@ 4
ァ@@ 4
ィ@@ 4
ウ@@ 4
ケ 4
コ 4
メ@@ 4
ヴ 4
世界 4
他@@ 4
仙 4
伝 4
佛@@ 4
使 4
保@@ 4
倒@@ 4
內@@ 4
全@@ 4
兵@@ 4
内@@ 4
切@@ 4
前 4
労@@ 4
博@@ 4
卫@@ 4
原@@ 4
口 4
司 4
司@@ 4
吉@@ 4
君@@ 4
和 4
善 4
园 4
堂 4
場 4
壇 4
夏@@ 4
夫 4
夫@@ 4
孫@@ 4
宁@@ 4
守@@ 4
宗@@ 4
寿@@ 4
少@@ 4
岩@@ 4
師 4
年 4
徐 4
思@@ 4
所@@ 4
掛@@ 4
攻@@ 4
新 4
族 4
景 4
書@@ 4
朝@@ 4
李@@ 4
東 4
林@@ 4
柳@@ 4
極 4
極@@ 4
楷@@ 4
標@@ 4
機@@ 4
武 4
气 4
気 4
決@@ 4
沙@@ 4
波@@ 4
洋@@ 4
津@@ 4
流@@ 4
海 4
港@@ 4
湾 4
火 4
爾 4
狐 4
班@@ 4
町 4
界@@ 4
發 4
相@@ 4
真 4
着@@ 4
秋@@ 4
秦@@ 4
端@@ 4
竹@@ 4
篆@@ 4
紅@@ 4
終@@ 4
経@@ 4
线 4
羅@@ 4
美@@ 4
義@@ 4
老@@ 4
舞@@ 4
色@@ 4
草 4
菩@@ 4
華@@ 4
詩@@ 4
話 4
誠 4
词 4
话 4
豫@@ 4
賀@@ 4
返@@ 4
部@@ 4
都@@ 4
里 4
金 4
鉄@@ 4
間@@ 4
関@@ 4
际@@ 4
院 4
隆@@ 4
雨@@ 4
雷@@ 4
鲁@@ 4
麗 4
Ꙗ 4
Ꙟ 4
가@@ 4
군 4
궁 4
궁@@ 4
근@@ 4
기 4
난 4
너@@ 4
는 4
동 4
드@@ 4
명 4
미@@ 4
방@@ 4
보@@ 4
부@@ 4
산@@ 4
손 4
알@@ 4
야 4
어 4
울@@ 4
윤@@ 4
의 4
일@@ 4
정 4
족 4
천 4
최@@ 4
희 4
𐎺@@ 4
𐎼@@ 4
Adem@@ 3
Amerik@@ 3
Avrupa 3
Ayn@@ 3
Ces 3
Cumhuriyeti 3
Cộng 3
Japon 3
Kirche 3
Kön@@ 3
Lan 3
Liste 3
Londres 3
Namen 3
Quốc 3
También 3
Tarih@@ 3
Thanh 3
Unidos 3
acak 3
adhi 3
akter@@ 3
ambu@@ 3
anay@@ 3
ancak 3
angu 3
announced 3
annte 3
années 3
appear@@ 3
ausge@@ 3
aussi 3
bajo 3
bağ@@ 3
began 3
besonder@@ 3
biet 3
büt@@ 3
cao 3
caracter@@ 3
chung 3
chữ 3
connu 3
crit 3
cuatro 3
dass 3
dedor 3
deren 3
después 3
dete 3
değ@@ 3
died 3
diese 3
dieser 3
dirig@@ 3
département 3
dön@@ 3
ehir 3
ehir@@ 3
eneo 3
erst 3
established 3
ezo 3
famille 3
faz@@ 3
fonc@@ 3
franç@@ 3
frü@@ 3
fue 3
führt 3
gesam@@ 3
geç@@ 3
gibi 3
hali 3
hari@@ 3
hata 3
hio 3
huo 3
ibu 3
ifa 3
igten 3
ihm 3
ihre 3
ilik 3
imani 3
import@@ 3
incor@@ 3
incre@@ 3
individ@@ 3
interpre@@ 3
isim@@ 3
jimbo 3
juego 3
kez@@ 3
kommen 3
kön@@ 3
lagen 3
larda 3
llam@@ 3
llev@@ 3
logr@@ 3
mch@@ 3
mesi 3
moins 3
mois 3
même 3
nahme 3
nombre@@ 3
nuevo 3
nú@@ 3
ología 3
ommen 3
onya 3
organisation 3
partir 3
política 3
prak@@ 3
première 3
presidente 3
près 3
prés@@ 3
président 3
père 3
péri@@ 3
quelques 3
rés@@ 3
schon 3
segu@@ 3
seinem 3
seinen 3
several 3
since 3
société 3
sowie 3
spéci@@ 3
stütz@@ 3
système 3
süd@@ 3
tarde 3
tay 3
toda 3
todos 3
took 3
toute 3
travail 3
unas 3
unid@@ 3
uvo 3
verschied@@ 3
vió 3
voll@@ 3
vur@@ 3
weise 3
weit@@ 3
wohl 3
wurde 3
während 3
yay@@ 3
zug@@ 3
Üniversit@@ 3
ánh 3
âte@@ 3
ätz@@ 3
çı@@ 3
église 3
équ@@ 3
éta@@ 3
évol@@ 3
êm 3
ít 3
òng 3
ói 3
õ 3
öch@@ 3
öğ@@ 3
úbl@@ 3
đi 3
Ę@@ 3
ğr@@ 3
ğu 3
Ġ@@ 3
ģ@@ 3
ĩ 3
İk@@ 3
ında 3
ından 3
ıs@@ 3
ĺ@@ 3
ŝ@@ 3
Şark@@ 3
ũ@@ 3
Ū@@ 3
ű 3
Ż 3
ſ 3
Ɔ 3
ƕ@@ 3
ƿ 3
ǝ 3
Ǫ 3
ǯ@@ 3
Ƿ 3
Ț@@ 3
ȟ@@ 3
ɓ 3
ɦ@@ 3
ɫ@@ 3
ɬ@@ 3
ɳ 3
ʎ 3
ʎ@@ 3
ʏ 3
ʐ@@ 3
ʾ 3
̇ 3
̑ 3
̓ 3
̡ 3
̣ 3
̤ 3
͜ 3
ͤ 3
Ͳ 3
Ή 3
Αυγούστου 3
Αυτό 3
Για 3
Δεκ@@ 3
Εί@@ 3
Κόμ@@ 3
Μαρτίου 3
Μια 3
Ολυμπιακ@@ 3
άρια 3
έτσι 3
ήφ@@ 3
ίδι 3
ίδι@@ 3
αγων@@ 3
αντι 3
από@@ 3
βάλλ@@ 3
γλώσ@@ 3
γνώ@@ 3
γράμ@@ 3
γραφή 3
δίσ@@ 3
δελ@@ 3
διο 3
δού@@ 3
δύνα@@ 3
είχ@@ 3
εβί@@ 3
εγκ@@ 3
εδρ@@ 3
ειλ@@ 3
εκδ@@ 3
ελ 3
εμπ@@ 3
επαρχ@@ 3
ερα 3
ερι@@ 3
ετών 3
ητή 3
ηχ@@ 3
θήκ@@ 3
θεια 3
θεωρ@@ 3
θησαν 3
ιδι@@ 3
ισμ@@ 3
ισμού 3
ιστορία 3
κέν@@ 3
καλλ@@ 3
κατά@@ 3
κερ@@ 3
κλει@@ 3
κομ@@ 3
κοσμ@@ 3
λειτουργ@@ 3
λλο 3
λο 3
μένο 3
ματική 3
μεγάλ@@ 3
μετρ@@ 3
νερ@@ 3
νησ@@ 3
ντ 3
ξεις 3
ογέν@@ 3
οθέ@@ 3
ολο@@ 3
ονται 3
οποι@@ 3
οργ@@ 3
ουλίου 3
ουσι@@ 3
πιστ@@ 3
ποδ@@ 3
πολλά 3
πορ@@ 3
πους 3
πραγ@@ 3
πρόεδρος 3
πρόσ@@ 3
πρώ@@ 3
πως 3
πόλη 3
ράς 3
ρίζ@@ 3
ρίσκ@@ 3
ρν@@ 3
σεις 3
σιο 3
σκευ@@ 3
σμα 3
στοιχ@@ 3
συγκ@@ 3
συμφ@@ 3
τίου 3
ταγων@@ 3
ταχ@@ 3
τερ 3
τευ@@ 3
τιο 3
τουργ@@ 3
τρία 3
τραγ@@ 3
υζαντιν@@ 3
υπερ@@ 3
χολ@@ 3
χρόνια 3
ϋ 3
όμε@@ 3
ώματα 3
Ϛ 3
СШ@@ 3
была 3
возмож@@ 3
декабря 3
деревня 3
другие 3
других 3
её 3
затем 3
использо@@ 3
ительно 3
карь@@ 3
которого 3
котором 3
несколько 3
октября 3
правитель@@ 3
себя 3
сентября 3
скими 3
ссии 3
ствует 3
ться 3
февраля 3
хозя@@ 3
хся 3
цию 3
чемпи@@ 3
через 3
четы@@ 3
щё 3
Ѯ 3
Ѳ 3
ѳ 3
ѵ 3
ѷ@@ 3
Ѿ 3
Ҍ@@ 3
Ҝ 3
Ҥ 3
Ҫ 3
Ү@@ 3
Ұ 3
ұ 3
ұ@@ 3
ҳ 3
һ 3
Ҽ 3
Ҿ 3
Ӏ@@ 3
ӆ 3
ӈ@@ 3
ӓ 3
Ӗ 3
Ӛ 3
Ӟ 3
Ӣ 3
Ӥ 3
Ӫ 3
ӯ@@ 3
ӳ 3
Ӻ 3
Ӽ 3
Ԑ 3
Ԛ 3
Է@@ 3
Թ@@ 3
Ճ@@ 3
Ռ@@ 3
Տ@@ 3
դ 3
խ@@ 3
շ@@ 3
ւ 3
և 3
ְ 3
ֲ@@ 3
־ 3
آن 3
أكبر 3
أن 3
أو 3
ارات 3
است@@ 3
اع@@ 3
ال 3
الدين 3
العربية 3
اله@@ 3
الي 3
او 3
برا@@ 3
بط@@ 3
بند 3
بني 3
ترا@@ 3
ته 3
تو@@ 3
تون@@ 3
جامعة 3
جز@@ 3
جو@@ 3
جي@@ 3
حسن 3
حي 3
خان@@ 3
داد 3
در@@ 3
دع@@ 3
دم 3
ده 3
دی@@ 3
را 3
رام 3
رب 3
رت 3
رف 3
ری 3
زی@@ 3
سام@@ 3
سان 3
سر@@ 3
سل@@ 3
سلطان 3
سما@@ 3
سی@@ 3
صح@@ 3
صر 3
ضة 3
عث@@ 3
عد@@ 3
عمر@@ 3
فة 3
فتح 3
قبال 3
كو 3
لاح 3
لك@@ 3
لية 3
مش@@ 3
مص@@ 3
مط@@ 3
مل@@ 3
مون 3
می@@ 3
ناء 3
نح@@ 3
ندي 3
نز@@ 3
نش@@ 3
نشر 3
نظام 3
نی@@ 3
ها 3
هر 3
ودية 3
وري@@ 3
وس@@ 3
وسف 3
وف@@ 3
يران 3
يك@@ 3
يم 3
يه@@ 3
يُ@@ 3
کو@@ 3
یا 3
ین 3
ې@@ 3
ܟ@@ 3
ܢ 3
अव@@ 3
कर@@ 3
ख@@ 3
गर 3
गा@@ 3
ङ 3
चक 3
चा@@ 3
ञ 3
ठ@@ 3
ड 3
धी 3
पुर 3
ब 3
ब@@ 3
भूमि 3
मा 3
मु@@ 3
मे@@ 3
रि@@ 3
ल@@ 3
ला@@ 3
वे@@ 3
शा@@ 3
ष@@ 3
ह@@ 3
हा@@ 3
ि 3
ि@@ 3
ो 3
আ@@ 3
ট@@ 3
ম 3
ল 3
ি 3
ে 3
ਨ@@ 3
ਸ@@ 3
அ@@ 3
ய@@ 3
ு@@ 3
గ@@ 3
త@@ 3
ర@@ 3
ಯ 3
ಯ@@ 3
ಸ@@ 3
กระ@@ 3
ด@@ 3
ดิน@@ 3
ต 3
ท 3
นา@@ 3
มา@@ 3
ร 3
ล 3
ว@@ 3
ส 3
ิ@@ 3
ຈ 3
ຈ@@ 3
ຕ@@ 3
ບ 3
ຮ 3
ີ@@ 3
ຸ@@ 3
ົ@@ 3
ຽ@@ 3
ແ@@ 3
ཇ@@ 3
པ 3
ཕ@@ 3
ཟ@@ 3
འ 3
ཤ@@ 3
ྐ@@ 3
ྨ 3
စ 3
ည@@ 3
တ 3
န@@ 3
ဖ@@ 3
ဘ@@ 3
ါ 3
ာ 3
ဲ 3
წ 3
ჰ@@ 3
ሻ 3
ገ@@ 3
ᐃ@@ 3
ច@@ 3
ដ 3
ឋ@@ 3
ន 3
យ 3
ល 3
ី 3
ី@@ 3
។ 3
ḵ 3
ṥ 3
ẓ 3
ẓ@@ 3
ẞ 3
ản 3
ấn 3
ất 3
ẽ 3
ị@@ 3
ữ 3
ἁ@@ 3
Ἃ@@ 3
ἠ 3
ἰ 3
ἷ@@ 3
ὠ@@ 3
ὺ 3
ὼ 3
ᾱ@@ 3
ῃ 3
ῴ@@ 3
ῶ 3
‹ 3
› 3
‿ 3
₁ 3
₫ 3
∉ 3
∠ 3
✝ 3
ⰵ 3
ⰿ@@ 3
ⱅ 3
ⱞ@@ 3
ⴻ@@ 3
ⵏ 3
ⵜ@@ 3
あ@@ 3
げ@@ 3
て@@ 3
ど@@ 3
ば@@ 3
ほ@@ 3
ま 3
め@@ 3
も@@ 3
ゅ 3
ゆ 3
わ@@ 3
カ 3
ケ@@ 3
ゴ@@ 3
ジ@@ 3
セ@@ 3
タ 3
ド 3
ナ 3
ホ@@ 3
ム 3
ョ@@ 3
ワ 3
七@@ 3
万 3
万@@ 3
下 3
不@@ 3
东@@ 3
中国 3
中心 3
之@@ 3
井 3
什@@ 3
任 3
使@@ 3
元 3
光 3
八@@ 3
公 3
典 3
冒@@ 3
刀 3
切 3
刚 3
利 3
别@@ 3
割@@ 3
勅@@ 3
午@@ 3
双@@ 3
发@@ 3
句@@ 3
合 3
呂@@ 3
品@@ 3
哈@@ 3
員@@ 3
喀@@ 3
園@@ 3
圖 3
土 3
基 3
基@@ 3
堀@@ 3
墨@@ 3
士@@ 3
如@@ 3
妓 3
始@@ 3
孟@@ 3
安 3
定 3
宮 3
密@@ 3
察 3
察@@ 3
寧@@ 3
尚@@ 3
尾@@ 3
崎@@ 3
嶽@@ 3
巴@@ 3
巻 3
市@@ 3
布@@ 3
師@@ 3
年@@ 3
广@@ 3
庄@@ 3
弥 3
張@@ 3
強@@ 3
影@@ 3
忍 3
志@@ 3
想 3
慶@@ 3
戦 3
房 3
拉@@ 3
拳@@ 3
握@@ 3
撃@@ 3
改@@ 3
敏@@ 3
教@@ 3
无@@ 3
昧 3
智@@ 3
曹@@ 3
最@@ 3
有@@ 3
朗@@ 3
朱 3
朱@@ 3
杠 3
桃@@ 3
棒 3
植@@ 3
槓 3
槿@@ 3
樂@@ 3
樹 3
次@@ 3
歳 3
母 3
母@@ 3
永@@ 3
江@@ 3
沪@@ 3
泰@@ 3
洞 3
浦@@ 3
源@@ 3
準@@ 3
漫@@ 3
爆@@ 3
片@@ 3
物 3
玄@@ 3
玉 3
用@@ 3
甲@@ 3
男 3
男@@ 3
画@@ 3
発@@ 3
禅 3
福@@ 3
禪 3
穆@@ 3
窮 3
策 3
節 3
節@@ 3
篇 3
米 3
粵@@ 3
組@@ 3
經 3
经 3
義 3
羽@@ 3
者 3
聞 3
胜@@ 3
芝@@ 3
苦@@ 3
莊@@ 3
葉@@ 3
蒙@@ 3
藤@@ 3
虎@@ 3
西 3
訓@@ 3
谷 3
负@@ 3
身 3
車@@ 3
軍@@ 3
輩 3
车@@ 3
辰@@ 3
農@@ 3
运@@ 3
进@@ 3
進 3
達 3
那 3
郡 3
野 3
銀@@ 3
間 3
阳 3
険 3
隠@@ 3
雄 3
風 3
食 3
香 3
马@@ 3
魔@@ 3
鳥@@ 3
黒@@ 3
Ꙑ 3
꙯ 3
Ꚇ 3
경 3
공@@ 3
구@@ 3
글 3
녀 3
노@@ 3
눈@@ 3
다@@ 3
단@@ 3
랑@@ 3
목 3
무 3
문 3
박 3
박@@ 3
변@@ 3
삼@@ 3
상 3
상@@ 3
서 3
설@@ 3
성@@ 3
세@@ 3
스 3
양 3
어@@ 3
에@@ 3
여@@ 3
연 3
연@@ 3
오@@ 3
울 3
위@@ 3
으@@ 3
의@@ 3
적 3
종@@ 3
지 3
진@@ 3
함@@ 3
현 3
호 3
회@@ 3
ﻟ@@ 3
－ 3
～ 3
𒀭@@ 3
🜨 3
Anh 2
Auch 2
Başkan@@ 2
Bei 2
Beispi@@ 2
Bevöl@@ 2
Diese 2
Doğu 2
Februar 2
Hán 2
Hồ 2
Jahrhundert 2
Kanada 2
Kati 2
Kuzey 2
Mais 2
Mei 2
Oktober 2
Thành 2
Tân 2
Weit@@ 2
Während 2
acción 2
acional 2
adı 2
agosto 2
aient 2
akini 2
aları 2
aliy@@ 2
aliye@@ 2
allow@@ 2
amerikan@@ 2
amiento 2
anistan 2
anyika 2
arası 2
aría 2
asyon 2
asında 2
atı 2
avoir 2
awa@@ 2
aît 2
aşa 2
aştır@@ 2
aşı 2
benz@@ 2
besondere 2
bila 2
bilin@@ 2
bà 2
career 2
cargo 2
casi 2
centro 2
cinco 2
ciud@@ 2
ciudad 2
constru@@ 2
corresp@@ 2
cuando 2
cá 2
cü 2
dann 2
dessen 2
direction 2
distrito 2
dió 2
diğer 2
dogo 2
dont 2
duy@@ 2
dès 2
découver@@ 2
développ@@ 2
día 2
dòng 2
dù 2
dül@@ 2
dün@@ 2
dır@@ 2
ebil@@ 2
eht 2
einz@@ 2
ejempl@@ 2
emble 2
empe@@ 2
endet 2
entw@@ 2
escri@@ 2
espec@@ 2
establ@@ 2
estudi@@ 2
etc. 2
eyal@@ 2
eğ@@ 2
fahren 2
fand 2
finale 2
fiz@@ 2
folg@@ 2
founded 2
französ@@ 2
frente 2
fútbol 2
gegen@@ 2
gibt 2
gouvern@@ 2
greso 2
groupe 2
grub@@ 2
grund 2
grün@@ 2
haa 2
hace 2
hacer 2
hadi 2
halten 2
hayat@@ 2
heute 2
hizo 2
huri 2
häng@@ 2
ifu 2
ihr@@ 2
ihren 2
ileri 2
ilir 2
iliz 2
imeh@@ 2
imleri 2
inspir@@ 2
interpret@@ 2
ishia 2
itwa 2
jedoch 2
juu 2
jähr@@ 2
kazi 2
khoa 2
kisi@@ 2
koa 2
kuu 2
kuv@@ 2
kwa 2
küçük 2
kı@@ 2
lerine 2
leş@@ 2
lise 2
liste 2
located 2
luğu 2
lý 2
lığı 2
malar@@ 2
mals 2
material 2
mayor 2
meil@@ 2
mej@@ 2
mev@@ 2
misma 2
miş 2
momento 2
municipal@@ 2
municipio 2
mwan@@ 2
mà 2
música 2
mış 2
norte 2
nueva 2
nying@@ 2
nó 2
often 2
ofu 2
ográ@@ 2
onnat 2
otras 2
ouest 2
ouvent 2
ouvern@@ 2
pendant 2
pequ@@ 2
personas 2
peut 2
plusieurs 2
posición 2
principales 2
propi@@ 2
préc@@ 2
présent@@ 2
públ@@ 2
quay 2
quien 2
quy 2
quốc 2
représent@@ 2
reste 2
returned 2
risto 2
régi@@ 2
rün@@ 2
saison 2
segunda 2
segundo 2
sistema 2
sondern 2
spor 2
spä@@ 2
started 2
statt 2
stieg 2
stän@@ 2
ständi@@ 2
söz@@ 2
también 2
taş@@ 2
territoire 2
thay 2
tipo 2
toba 2
tober 2
tragen 2
tés 2
tü 2
tür 2
ubwa 2
ulus@@ 2
unkt 2
unos 2
ustos 2
uwe@@ 2
uzo 2
various 2
vertr@@ 2
vuel@@ 2
wala 2
wali@@ 2
wegen 2
worden 2
wrote 2
wür@@ 2
ydi 2
yote 2
yü@@ 2
yüz@@ 2
yıl 2
zaman 2
zurück 2
zweiten 2
 2
Ã@@ 2
Ë@@ 2
Ì 2
Ì@@ 2
Ð 2
Ð@@ 2
Ñ 2
Ý@@ 2
ßer@@ 2
àu 2
âce 2
äche 2
çek@@ 2
èrent 2
ètres 2
ép 2
épo@@ 2
ên 2
ían 2
öne@@ 2
úa 2
ública 2
último 2
út@@ 2
üler 2
ünden 2
ünya 2
ünü 2
üy@@ 2
üz 2
Ā 2
ċ 2
ċ@@ 2
Ď@@ 2
Đại 2
Đồng 2
Ė@@ 2
ĝ@@ 2
Ğ@@ 2
Į 2
İm@@ 2
İmparator@@ 2
İng@@ 2
ıca 2
ıcı 2
ılan 2
ımı 2
ıp 2
ıs 2
ıt 2
ızı 2
Ľ@@ 2
ŀ@@ 2
Ł 2
Ń 2
Ō 2
ŕ@@ 2
ŗ@@ 2
Ś 2
ũ 2
Ŭ 2
ŷ 2
ŷ@@ 2
Ź 2
Ź@@ 2
Ə 2
ƕ 2
ượng 2
ǚ 2
ǧ@@ 2
ǩ@@ 2
ǵ 2
Ș 2
Ȝ 2
ȝ 2
ɱ 2
ɸ 2
ɻ 2
ɾ 2
ʀ@@ 2
ʈ 2
ʉ 2
ʉ@@ 2
ʋ@@ 2
ʏ@@ 2
ʐ 2
ʑ 2
ʑ@@ 2
ʕ 2
ʣ 2
ʦ@@ 2
ʿ 2
ˢ 2
̂ 2
̆ 2
̧ 2
ͳ 2
Ά 2
Έχ@@ 2
Ό 2
Αθηνών 2
Από 2
Μάρ@@ 2
Μαΐου 2
Νοεμβρίου 2
Οκτ@@ 2
Οκτωβρίου 2
Πανεπιστήμιο 2
Πολιτ@@ 2
Σο@@ 2
Στο 2
Φεβρουαρίου 2
Φρ@@ 2
άλλη 2
άλληλ@@ 2
άλυ@@ 2
έγι@@ 2
έλευ@@ 2
έμβ@@ 2
ίδας 2
αισ@@ 2
αιτ@@ 2
αλλά 2
αναλ@@ 2
βιβ@@ 2
βιτς 2
γμα 2
γνω@@ 2
δίν@@ 2
δημο@@ 2
διαφ@@ 2
δική 2
δικα@@ 2
δοκ@@ 2
δύο 2
εί 2
είες 2
είται 2
είτε 2
ειο@@ 2
ειών 2
επί 2
επί@@ 2
εποχή 2
ετα@@ 2
ηρε@@ 2
θηκαν 2
θηκε 2
ικοί 2
ιού 2
ισχ@@ 2
καρι@@ 2
καταγ@@ 2
κυρί@@ 2
κόρ@@ 2
κόρη 2
λαμβ@@ 2
μένοι 2
μέρ@@ 2
μαζί 2
μεγ@@ 2
μεγάλη 2
μεγαλ@@ 2
μηχαν@@ 2
νών 2
οδηγ@@ 2
οθε@@ 2
ομηχαν@@ 2
οντας 2
οποί@@ 2
οσπον@@ 2
περιοχή 2
πολεμ@@ 2
πού@@ 2
προστ@@ 2
πρώτα 2
πρώτο 2
πρώτος 2
ροφή 2
στή@@ 2
στε 2
στική 2
στις 2
στρατ@@ 2
συγγραφ@@ 2
συμπ@@ 2
συνεργ@@ 2
σωτερ@@ 2
τάθλημα 2
τεκ@@ 2
τεχν@@ 2
τηση 2
τραγου@@ 2
τραγούδ@@ 2
τρεις 2
τρια 2
υπάρχ@@ 2
υπάρχει 2
υπουργ@@ 2
υργ@@ 2
υψ@@ 2
φορά 2
φρά@@ 2
χιλι@@ 2
χο 2
χωρι@@ 2
χώρα 2
ωσης 2
όμενη 2
όρε@@ 2
ϙ 2
ϵ@@ 2
Ѐ 2
Ў 2
годы 2
группы 2
июня 2
конце 2
которая 2
которо@@ 2
которых 2
может 2
ником 2
ноября 2
связи 2
совета 2
составля@@ 2
суще@@ 2
территории 2
этом 2
этот 2
ющего 2
января 2
Ѥ@@ 2
Ѩ 2
ѯ@@ 2
Ѱ 2
҂ 2
҆ 2
ҍ@@ 2
Ґ@@ 2
Ғ@@ 2
ҕ 2
Җ@@ 2
Ҙ 2
ҥ 2
Ҩ 2
Ү 2
Ҳ@@ 2
ҳ@@ 2
ҷ 2
ӄ@@ 2
ӌ 2
Ә@@ 2
ӛ 2
ӝ 2
ӟ 2
ӥ 2
ӥ@@ 2
ӫ 2
Ӯ@@ 2
ӯ 2
Ӱ 2
Ӳ 2
Ӵ 2
ӵ 2
Ӹ 2
ӹ@@ 2
ӽ 2
Ӿ 2
Ԁ 2
ԃ@@ 2
Ԍ 2
Ԓ 2
Ԝ 2
Ԟ 2
Ԡ 2
Ԣ 2
Ԧ 2
Ա 2
Բ 2
Դ@@ 2
Զ@@ 2
Ի@@ 2
Լ@@ 2
Վ@@ 2
Օ@@ 2
բ 2
է@@ 2
ծ@@ 2
ձ@@ 2
ճ@@ 2
յ 2
չ 2
պ@@ 2
ռ 2
ָ 2
ֻ@@ 2
ֿ 2
כ 2
נ 2
ײ@@ 2
״ 2
آل 2
أر@@ 2
أس 2
أغ@@ 2
أم@@ 2
أي@@ 2
اة 2
اح@@ 2
ادی 2
ارا 2
ارد 2
اردو 2
اص@@ 2
اع 2
اعظم 2
افغ@@ 2
اق@@ 2
اك@@ 2
الأح@@ 2
الأر@@ 2
البح@@ 2
البي@@ 2
الجزائر 2
الحر@@ 2
الذ@@ 2
الض@@ 2
المؤ@@ 2
المج@@ 2
المر@@ 2
المسل@@ 2
المص@@ 2
الو@@ 2
الوط@@ 2
الي@@ 2
امي 2
امیر 2
انق@@ 2
اول 2
اية 2
اُ@@ 2
اپ@@ 2
با 2
باب@@ 2
بار@@ 2
بط 2
بع@@ 2
بق@@ 2
بلغ 2
به@@ 2
بو@@ 2
بچ@@ 2
بی@@ 2
تاب 2
تج@@ 2
تد@@ 2
ترج@@ 2
تش@@ 2
تل 2
تم@@ 2
تي@@ 2
تی@@ 2
جان 2
جان@@ 2
جر 2
حد@@ 2
حزب 2
خال@@ 2
خط 2
خلی@@ 2
خي@@ 2
خی@@ 2
دة 2
دري@@ 2
دری@@ 2
دو@@ 2
دول@@ 2
دون 2
دُ@@ 2
رات 2
ران 2
ربي 2
ربی 2
رج@@ 2
رض@@ 2
رف@@ 2
رق@@ 2
روس 2
رية 2
رين 2
ریز 2
زار 2
زب@@ 2
زر@@ 2
زمین 2
ستان 2
سط@@ 2
سلام 2
سن 2
سو@@ 2
سي 2
سين 2
سين@@ 2
سپ@@ 2
سی 2
شریف 2
ضي@@ 2
طان 2
طة 2
عام@@ 2
عباس 2
عرا@@ 2
عشر 2
علی 2
علی@@ 2
عمر 2
عي 2
غرا@@ 2
ـ 2
فا 2
فت@@ 2
فر 2
فری@@ 2
فل@@ 2
فو@@ 2
قا 2
قي 2
قي@@ 2
كة 2
كر 2
كم 2
لاب 2
لان 2
لي 2
لی@@ 2
مار 2
مال 2
مال@@ 2
مة 2
مثل 2
مخ@@ 2
مدر@@ 2
مسجد 2
مسي@@ 2
مصر 2
مع@@ 2
مك@@ 2
ملا@@ 2
مند@@ 2
مول@@ 2
مين 2
ناف@@ 2
نان@@ 2
نة 2
ندر 2
نط@@ 2
نه@@ 2
نور 2
نور@@ 2
هار@@ 2
هم 2
وار@@ 2
وت@@ 2
وح@@ 2
ورية 2
وط 2
وطن 2
ول 2
ولا 2
ولا@@ 2
ومت 2
وَّ@@ 2
يت 2
يش@@ 2
ينا 2
ينة 2
يه 2
ً 2
ًا 2
ّة 2
ٖ@@ 2
ٱ@@ 2
پاک 2
پر@@ 2
پن@@ 2
پی 2
ژ 2
ڙ@@ 2
ښ@@ 2
کا 2
کر@@ 2
کی@@ 2
ګ@@ 2
ڭ@@ 2
گر@@ 2
گرد 2
گن@@ 2
ۈ@@ 2
ۉ@@ 2
یل 2
ە 2
۞ 2
ۤ 2
ܕ 2
ܠ 2
ܠ@@ 2
ܢ@@ 2
ܬ 2
ܵ@@ 2
ܿ@@ 2
݂ 2
ހ 2
ށ 2
ނ 2
ރ 2
ބ 2
ޅ 2
ކ 2
އ 2
ވ 2
މ 2
ފ 2
ދ 2
ތ 2
ލ 2
ގ 2
ޏ 2
ސ 2
ޑ 2
ޒ 2
ޓ 2
ޔ 2
ޕ 2
ޖ 2
ޗ 2
ި@@ 2
ंड@@ 2
अन 2
आत 2
इ@@ 2
ई 2
उ@@ 2
ऋ@@ 2
ए@@ 2
कृ@@ 2
के 2
के@@ 2
ग 2
च@@ 2
चंद 2
जि@@ 2
जी 2
टी 2
ठी 2
ड@@ 2
णु 2
तर@@ 2
तार 2
ति@@ 2
तिक 2
थ 2
दा@@ 2
दान 2
दे@@ 2
देव@@ 2
नन 2
निर 2
नू@@ 2
पाल 2
पि@@ 2
पुरा@@ 2
पूर 2
फ 2
बी@@ 2
बे@@ 2
भारतीय 2
मण 2
मान 2
या@@ 2
रत 2
रह 2
री@@ 2
रो 2
लय 2
लि@@ 2
वत 2
विष 2
शि@@ 2
शो@@ 2
सं@@ 2
संस 2
सत 2
सन 2
सम@@ 2
समर 2
समा@@ 2
सर 2
सि@@ 2
सु@@ 2
सू@@ 2
हि@@ 2
हिन 2
ा 2
ार@@ 2
ु 2
ृ 2
ै 2
গ 2
ঙ 2
ট 2
ড 2
ড@@ 2
ণ@@ 2
থ 2
থ@@ 2
প 2
ভ@@ 2
শ 2
ু 2
ਘ 2
ਜ@@ 2
ਬ@@ 2
ਮ@@ 2
ਰ 2
ਵ@@ 2
ਸ 2
ਹ@@ 2
ા@@ 2
ன 2
ப 2
ர 2
ற@@ 2
ல 2
ல@@ 2
ி@@ 2
ீ@@ 2
ை@@ 2
జ@@ 2
డ 2
మ@@ 2
య@@ 2
ర 2
ల@@ 2
వ@@ 2
స@@ 2
ి@@ 2
ు@@ 2
ಜ@@ 2
ನ 2
ನ@@ 2
ಪ 2
ಮ@@ 2
ರ 2
ಲ 2
ು 2
ട 2
ര@@ 2
് 2
ก 2
กุล 2
ข 2
ค 2
จ 2
จัก@@ 2
ช@@ 2
ด 2
ต@@ 2
ถ@@ 2
ทร 2
น 2
นว@@ 2
บร@@ 2
ปก@@ 2
พุทธ@@ 2
ภ@@ 2
ภาษา@@ 2
ย 2
รี@@ 2
ส@@ 2
สร 2
สั@@ 2
สา@@ 2
อ 2
อด@@ 2
อน 2
อา@@ 2
อี@@ 2
ั 2
ู 2
ู@@ 2
เ@@ 2
เด@@ 2
เม@@ 2
แ@@ 2
แก@@ 2
แผ@@ 2
ຄ@@ 2
ຊ 2
ດ@@ 2
ນ@@ 2
ບ@@ 2
ປ@@ 2
ີ 2
ན@@ 2
ྔ 2
ྟ@@ 2
ྤ@@ 2
ླ 2
ླ@@ 2
ྷ@@ 2
က 2
ဒ@@ 2
ပ 2
ဝ@@ 2
အ 2
ါ@@ 2
ူ@@ 2
္ 2
კ 2
ლ 2
უ 2
ფ 2
ჩ@@ 2
ჭ 2
ჳ 2
ሐ@@ 2
ሠ 2
ሠ@@ 2
ተ 2
ነ@@ 2
አ@@ 2
ግ@@ 2
Ꭶ@@ 2
ᑦ 2
ᓄ@@ 2
ផ 2
ភ@@ 2
ឮ@@ 2
ឿ@@ 2
ៃ 2
ᠤ@@ 2
ᠭ@@ 2
ᵛ@@ 2
ᶐ@@ 2
Ḳ@@ 2
ḳ@@ 2
ṁ@@ 2
ṃ 2
ṕ 2
ṗ 2
ṙ@@ 2
ṟ@@ 2
Ẏ@@ 2
ải 2
ến 2
ề 2
ỉ 2
ỉ@@ 2
ỏ 2
ủ 2
ỳ 2
ἠ@@ 2
ἤ 2
ἦ@@ 2
ἶ 2
Ὅ@@ 2
ὔ 2
ὗ@@ 2
ᾰ 2
ᾰ@@ 2
Ᾱ 2
ῃ@@ 2
῎ 2
ῐ 2
ῐ@@ 2
῟ 2
ῤ@@ 2
‣ 2
⁴ 2
⁺ 2
ₓ 2
₰ 2
ℕ 2
∝ 2
∶ 2
┐ 2
┴ 2
◦ 2
★ 2
⟶ 2
ⰱ 2
ⰾ 2
ⱏ 2
ⱒ@@ 2
ⲁ@@ 2
ⲓ@@ 2
ⲗ@@ 2
ⲡ@@ 2
ⴷ@@ 2
ⵃ@@ 2
ⵎ@@ 2
ⵔ@@ 2
ⵙ@@ 2
ⵡ@@ 2
々 2
〜 2
あ 2
お 2
が 2
ご@@ 2
そ 2
ち 2
と 2
な 2
ぬ 2
ね@@ 2
び 2
ぶ@@ 2
ぷ@@ 2
へ 2
へ@@ 2
ぼ@@ 2
め 2
も 2
ょ@@ 2
れ 2
ィ 2
ェ 2
ォ 2
キ@@ 2
ギ@@ 2
ク 2
グ@@ 2
サ@@ 2
シ 2
ジ 2
ゼ@@ 2
ソ@@ 2
チ 2
ツ@@ 2
デ@@ 2
ノ 2
ハ@@ 2
フ 2
ブ 2
ベ@@ 2
ポ@@ 2
ヤ@@ 2
ュ@@ 2
ユ@@ 2
ヨ@@ 2
ラ 2
リ 2
レ@@ 2
丁@@ 2
与@@ 2
世 2
丘 2
个@@ 2
丸 2
乐@@ 2
乡@@ 2
乱 2
乾@@ 2
亲 2
人民@@ 2
仁@@ 2
企@@ 2
伎 2
伎@@ 2
佐@@ 2
体 2
佛 2
你@@ 2
來@@ 2
促@@ 2
俑 2
信 2
倉@@ 2
個@@ 2
倖@@ 2
借@@ 2
倶@@ 2
健@@ 2
働@@ 2
儒@@ 2
內 2
六 2
兴@@ 2
内 2
军 2
军@@ 2
列@@ 2
初 2
利@@ 2
别 2
券@@ 2
剛 2
劉@@ 2
力 2
力@@ 2
勒 2
動 2
匈@@ 2
區 2
南 2
原 2
台 2
史 2
右@@ 2
号@@ 2
吃 2
吉 2
吏 2
君 2
吾@@ 2
员 2
味 2
味@@ 2
命@@ 2
哉 2
善@@ 2
喜 2
嘉@@ 2
噌 2
噶@@ 2
団 2
図@@ 2
固 2
土@@ 2
在@@ 2
地 2
场 2
坊 2
垣 2
塗@@ 2
塞 2
壁 2
壮@@ 2
夏 2
外 2
夜@@ 2
夢 2
夢@@ 2
太 2
夷@@ 2
奈 2
奥@@ 2
奴 2
她@@ 2
好@@ 2
妻@@ 2
委@@ 2
姿@@ 2
威@@ 2
学@@ 2
宁 2
它@@ 2
宇@@ 2
宋@@ 2
宏@@ 2
宝@@ 2
宣@@ 2
室@@ 2
宮@@ 2
害@@ 2
宸 2
宿 2
寄@@ 2
寧 2
寨 2
寶@@ 2
射@@ 2
尊@@ 2
尋@@ 2
尔 2
尚 2
就@@ 2
尼@@ 2
尾 2
局 2
居@@ 2
屋 2
峡 2
島@@ 2
峽 2
崎 2
工@@ 2
币 2
帕@@ 2
帝@@ 2
库@@ 2
店 2
府@@ 2
度@@ 2
康@@ 2
廣@@ 2
廻@@ 2
廿@@ 2
异 2
式 2
弟@@ 2
彦 2
後@@ 2
微@@ 2
徳@@ 2
志 2
忠 2
忠@@ 2
怡 2
恒@@ 2
悪@@ 2
愛 2
慎 2
成 2
戸@@ 2
托@@ 2
执 2
押@@ 2
指@@ 2
振@@ 2
掬@@ 2
提@@ 2
摂@@ 2
摩 2
撃 2
攘@@ 2
政 2
故@@ 2
敏 2
敦@@ 2
施@@ 2
族@@ 2
昌@@ 2
明 2
春@@ 2
昭 2
時 2
時間 2
晋@@ 2
晩@@ 2
景@@ 2
晴@@ 2
暗@@ 2
曜@@ 2
曲 2
會@@ 2
月 2
服 2
期@@ 2
未 2
末@@ 2
术 2
杆 2
条@@ 2
来 2
杭@@ 2
杯 2
松 2
板 2
果@@ 2
柏@@ 2
柔@@ 2
案 2
桥 2
梅 2
棍 2
業@@ 2
楽@@ 2
槃@@ 2
横@@ 2
樵 2
橋 2
檀@@ 2
止 2
殻@@ 2
氏@@ 2
氣 2
氣@@ 2
氷@@ 2
汁 2
沈@@ 2
沢@@ 2
洛@@ 2
津 2
洪@@ 2
洲 2
活@@ 2
派 2
浪 2
涅@@ 2
淑 2
深@@ 2
港 2
湖 2
湖@@ 2
湯 2
漢 2
澤@@ 2
澳@@ 2
濟 2
灣 2
灵@@ 2
炒@@ 2
無 2
父@@ 2
爾@@ 2
牌 2
牡@@ 2
狐@@ 2
独@@ 2
獣@@ 2
玛@@ 2
瑪@@ 2
瓜 2
甕@@ 2
用 2
甲 2
画 2
疾@@ 2
益@@ 2
盛@@ 2
盧 2
看@@ 2
県 2
眼 2
督@@ 2
短@@ 2
砂@@ 2
研@@ 2
祐@@ 2
神 2
禅@@ 2
禹 2
禹@@ 2
私@@ 2
竜@@ 2
章 2
笙 2
第@@ 2
管@@ 2
米@@ 2
粱@@ 2
素@@ 2
索 2
経 2
絞@@ 2
絵@@ 2
經@@ 2
線 2
縣 2
織@@ 2
级@@ 2
美 2
群 2
翼@@ 2
者@@ 2
耳@@ 2
聊@@ 2
股 2
股@@ 2
腰@@ 2
腹 2
腹@@ 2
至@@ 2
臼@@ 2
船 2
芭@@ 2
芸@@ 2
苏@@ 2
英@@ 2
药@@ 2
菊@@ 2
菱@@ 2
萬 2
葉 2
董@@ 2
蓟 2
蔵@@ 2
薛@@ 2
薩@@ 2
虎 2
蛇 2
蜜@@ 2
行@@ 2
衛 2
表@@ 2
角@@ 2
訓 2
許@@ 2
語@@ 2
論@@ 2
諸@@ 2
议 2
论 2
诚 2
谷@@ 2
象 2
豪@@ 2
貴 2
賈 2
賞 2
賽@@ 2
贾 2
资@@ 2
赛@@ 2
起 2
超 2
超@@ 2
足@@ 2
踏@@ 2
蹴@@ 2
转@@ 2
辖@@ 2
达@@ 2
連@@ 2
逸@@ 2
達@@ 2
遼 2
邊@@ 2
邦@@ 2
郑@@ 2
酒@@ 2
釵 2
鈴@@ 2
阪@@ 2
阿 2
陸@@ 2
隶@@ 2
隸@@ 2
集 2
難@@ 2
雨 2
雪@@ 2
雲@@ 2
零@@ 2
霊@@ 2
青 2
面@@ 2
養@@ 2
馬 2
駿 2
鬼@@ 2
鮮@@ 2
鸡 2
鹏 2
麵 2
麻 2
麻@@ 2
黃@@ 2
龙@@ 2
Ꙋ@@ 2
ꙓ@@ 2
Ꙟ@@ 2
Ꚁ 2
Ꚏ 2
거@@ 2
건@@ 2
검@@ 2
게@@ 2
관 2
교@@ 2
권@@ 2
그@@ 2
꾼 2
낙@@ 2
낭@@ 2
녕@@ 2
느 2
니@@ 2
다 2
당@@ 2
더 2
던 2
데@@ 2
땀 2
랑 2
려@@ 2
례@@ 2
루@@ 2
류@@ 2
를 2
림@@ 2
마 2
마@@ 2
망@@ 2
머@@ 2
먹@@ 2
명@@ 2
반@@ 2
발@@ 2
방 2
법 2
복 2
부 2
분@@ 2
뷔 2
브@@ 2
비 2
비@@ 2
섹@@ 2
소 2
식 2
악@@ 2
안 2
안@@ 2
애@@ 2
양@@ 2
영@@ 2
옥 2
왕@@ 2
용@@ 2
운 2
웃 2
원 2
은@@ 2
을 2
제 2
중 2
진 2
짜@@ 2
차 2
채 2
처@@ 2
첫 2
청 2
촌@@ 2
충@@ 2
치 2
터@@ 2
포 2
포@@ 2
폭@@ 2
피 2
피@@ 2
하 2
행@@ 2
향@@ 2
협 2
형@@ 2
호@@ 2
황@@ 2
훈@@ 2
 2
 2
ﻨ@@ 2
𐎠@@ 2
𐎢@@ 2
𐎫@@ 2
𐏁 2
𐭓@@ 2
𐭕@@ 2
𐭢@@ 2
𐭥@@ 2
𐭭 2
🍆 2
0er 1
Akad@@ 1
Anfang 1
Bahari 1
Bere@@ 1
Birliği 1
Bắc 1
Bộ 1
Cette 1
Chiến 1
Cumhur@@ 1
Después 1
Dezember 1
Dân 1
Dünya 1
Dương 1
Estados 1
Eylül 1
Feb@@ 1
Febru@@ 1
Gebiet 1
Hindi 1
Hải 1
Hội 1
Indon@@ 1
Juni 1
Karriere 1
Kasım 1
Khi 1
Machi 1
Mannschaft 1
Meter 1
Mji 1
März 1
Mỹ 1
Nguyên 1
Người 1
Nha 1
Nhân 1
Präs@@ 1
Quân 1
Rus 1
Sau 1
Savaşı 1
Seit 1
Teil@@ 1
Titel 1
Tras 1
Trung 1
Trường 1
Ulus@@ 1
Weltkri@@ 1
abilir 1
actual 1
afir@@ 1
aifa 1
alik@@ 1
alipo@@ 1
aliwa 1
allem 1
altında 1
alın@@ 1
ampiy@@ 1
améric@@ 1
américain 1
ancien 1
anderen 1
anh 1
anischen 1
annt 1
anın 1
arbeitete 1
asili 1
así 1
bahari 1
başkanı 1
become 1
begann 1
beiden 1
beit@@ 1
beledi@@ 1
bildung 1
bàn 1
caract@@ 1
celui 1
chúng 1
comenz@@ 1
commen@@ 1
compañ@@ 1
compet@@ 1
compte 1
condu@@ 1
conocida 1
conten@@ 1
cual@@ 1
cái 1
còn 1
cùng 1
cộng 1
daha 1
debut 1
deki 1
deter@@ 1
devlet 1
diesem 1
diesen 1
dieses 1
difer@@ 1
diğ@@ 1
diği 1
donc 1
dort 1
dres 1
durante 1
duy 1
dân 1
dével@@ 1
dü 1
dür@@ 1
düz@@ 1
düş@@ 1
dı 1
ecek 1
ecek@@ 1
edrich 1
egem@@ 1
ehemal@@ 1
einige 1
ejemplo 1
ekonom@@ 1
elerin 1
ellement 1
elten 1
embargo 1
encu@@ 1
endung 1
enek@@ 1
ennent 1
ensemble 1
entre@@ 1
erne@@ 1
esine 1
esini 1
especi@@ 1
estudio 1
estudios 1
etkil@@ 1
existe 1
fazla 1
fik@@ 1
fut 1
führte 1
fün@@ 1
fünf 1
gab 1
ganda 1
gebiet 1
gegründet 1
gehört 1
gek@@ 1
geleg@@ 1
genannt 1
geord@@ 1
gestellt 1
gewäh@@ 1
gez@@ 1
geçir@@ 1
gobierno 1
größ@@ 1
göre 1
haber 1
hatte 1
hatten 1
having 1
hayo 1
heirat@@ 1
hili 1
humo 1
hunder@@ 1
hàng 1
hành 1
hóa 1
idir 1
ierte 1
ihrem 1
ilinin 1
iliy@@ 1
inay@@ 1
included 1
ingana 1
isiwa 1
iyi 1
jeweils 1
joined 1
kama 1
kent@@ 1
khi@@ 1
khu 1
không 1
kij@@ 1
konnte 1
kuf@@ 1
kuli@@ 1
können 1
köy@@ 1
kı 1
ladı 1
landır@@ 1
lardan 1
larını 1
laş@@ 1
lerinde 1
lerini 1
lesia 1
leştir@@ 1
lider@@ 1
liegt 1
ließ@@ 1
liko 1
liğ@@ 1
llamado 1
lors 1
lossen 1
lte 1
luğ@@ 1
làng 1
maji 1
maları 1
married 1
marzo 1
ması 1
mayo 1
mehr@@ 1
membre 1
membres 1
metros 1
meye 1
millones 1
mise 1
mondiale 1
mpi@@ 1
msh@@ 1
mtu 1
muchos 1
muy 1
muz 1
médi@@ 1
müc@@ 1
nde@@ 1
ngữ 1
nhà 1
nombre 1
nommé 1
nte 1
nüf@@ 1
occup@@ 1
oldu@@ 1
olmak 1
oloj@@ 1
oloji 1
onóm@@ 1
opened 1
ordu 1
pelí@@ 1
pequeñ@@ 1
permet 1
phong 1
phố 1
primeros 1
projet 1
présente 1
pueb@@ 1
punkt 1
quân 1
rail@@ 1
rağ@@ 1
realiz@@ 1
received 1
remain@@ 1
retir@@ 1
région 1
río 1
rôle 1
sahi@@ 1
sanat@@ 1
savaş@@ 1
schluss 1
sebe@@ 1
secu@@ 1
sehr 1
selbst 1
selon 1
septi@@ 1
septiembre 1
shule 1
siglo 1
sigui@@ 1
sistem@@ 1
siy@@ 1
sión 1
sollte 1
sonr@@ 1
sonra 1
sprüng@@ 1
später 1
spé@@ 1
standen 1
starb 1
students 1
sân 1
sür@@ 1
sı@@ 1
sản 1
sắc 1
takım 1
tarih@@ 1
tement 1
thì 1
tient 1
titre 1
tlich 1
topl@@ 1
trabajo 1
tranh 1
trat 1
través 1
trieb 1
tritt 1
trouve 1
trí 1
tuvo 1
tuổi 1
tế 1
tổ 1
tự 1
undan 1
ungum@@ 1
unun 1
utiliz@@ 1
uzun 1
vierte 1
vya 1
văn 1
wany@@ 1
wanza 1
watu 1
waz@@ 1
weit 1
weiter 1
weiter@@ 1
weitere 1
weza 1
xem 1
xième 1
yao 1
yaşam@@ 1
yerleş@@ 1
yön@@ 1
yüksel@@ 1
yıl@@ 1
yıld@@ 1
zili@@ 1
zurück@@ 1
zusammen 1
zös@@ 1
 1
¯ 1
Â 1
Âu 1
Í 1
Ï 1
Ñ@@ 1
Ô 1
Õ 1
Ù@@ 1
àng 1
áu 1
äude 1
ço@@ 1
çoc@@ 1
çok 1
çık@@ 1
également 1
él 1
équi@@ 1
êu 1
ình 1
ôi 1
ông 1
öff@@ 1
önem@@ 1
örd@@ 1
ört 1
öst@@ 1
öß@@ 1
üf@@ 1
ăn 1
ăng 1
ĉ@@ 1
Ċ 1
Č 1
Ď 1
ď@@ 1
Đảng 1
Đức 1
Ĕ@@ 1
Ė 1
Ě@@ 1
ĝ 1
ğin 1
Ġ 1
ĥ@@ 1
ıları 1
ılık 1
ıt@@ 1
ığında 1
ĵ@@ 1
Ĺ@@ 1
ļ 1
ņ 1
Ň@@ 1
Ő 1
Ő@@ 1
Ŕ@@ 1
Ř@@ 1
şehir 1
şir@@ 1
Ţ 1
Ť 1
Ť@@ 1
ŧ@@ 1
ũng 1
ų@@ 1
Ŷ@@ 1
Ÿ 1
ƀ@@ 1
Ɔ@@ 1
Ɛ 1
Ɛ@@ 1
ƙ 1
ư 1
ưa 1
ưng 1
ương 1
ường 1
ƴ 1
ǀ@@ 1
ǁ@@ 1
ǃ 1
ǃ@@ 1
Ǎ@@ 1
ǘ@@ 1
ǚ@@ 1
ǜ@@ 1
ǣ@@ 1
Ǧ@@ 1
ǧ 1
Ƕ 1
ȃ@@ 1
ȅ@@ 1
ȇ 1
ȏ@@ 1
ȣ@@ 1
ȩ 1
ȳ@@ 1
ɖ 1
ɖ@@ 1
ɗ 1
ɘ 1
ɜ 1
ɜ@@ 1
ɞ 1
ɢ 1
ɣ 1
ɬ 1
ɳ@@ 1
ɴ 1
ɶ 1
ɷ 1
ɸ@@ 1
ɹ 1
ɻ@@ 1
ɽ 1
ʜ@@ 1
ʝ@@ 1
ʡ 1
ʢ@@ 1
ʤ 1
ʥ 1
ʧ 1
ʧ@@ 1
ʨ 1
ʯ 1
ʱ@@ 1
ˀ 1
ˁ@@ 1
ˇ 1
ˈ 1
ˊ@@ 1
ˌ 1
ˠ@@ 1
̅ 1
̊ 1
̢ 1
̨ 1
̰ 1
̶ 1
̼ 1
̽ 1
̿ 1
͗ 1
Ͱ 1
ͱ 1
Όταν 1
Αθήνα 1
Απριλίου 1
Αυτοκρα@@ 1
Είναι 1
Ευρωπαϊκ@@ 1
Ιανου@@ 1
Ιανουαρίου 1
Ιουνίου 1
Κατά 1
Νο@@ 1
Πρό@@ 1
Πόλε@@ 1
Σε 1
Σεπ@@ 1
Σεπτεμβρίου 1
Στα 1
Την 1
Τον 1
Φεβρου@@ 1
Ϋ 1
άλασ@@ 1
άλλων 1
άνει 1
άριο 1
άσει 1
άσεις 1
έμου 1
έναν 1
ένας 1
έρον@@ 1
έρχ@@ 1
έχει 1
ήθηκε 1
ίες 1
ίζοντας 1
αίνει 1
αγώνες 1
ακολουθ@@ 1
ανακ@@ 1
ανατολ@@ 1
ανθρ@@ 1
αξι@@ 1
αρχαι@@ 1
αρχι@@ 1
ασίας 1
ατιν@@ 1
αυξ@@ 1
αυτή 1
αφού 1
βασιλι@@ 1
βρίσκεται 1
γίν@@ 1
γίνει 1
γεγον@@ 1
γεννήθηκε 1
γερμαν@@ 1
γνωστ@@ 1
γραψε 1
γυνα@@ 1
δεύτερ@@ 1
δημιουργ@@ 1
διάσ@@ 1
διαί@@ 1
διατ@@ 1
διαφορ@@ 1
διεξ@@ 1
διοικ@@ 1
διπλ@@ 1
δυνατ@@ 1
εδρος 1
ειακ@@ 1
εκεί 1
εμβρίου 1
εμπο@@ 1
ενέργ@@ 1
ενεργ@@ 1
επαν@@ 1
επισκ@@ 1
επιστ@@ 1
εριν@@ 1
εσωτερ@@ 1
ευρ@@ 1
ευση 1
ζε 1
ζει 1
ζυγ@@ 1
ημι@@ 1
ησε 1
ησης 1
θέση 1
θεί 1
θεση 1
θησε 1
θρη@@ 1
ιδρ@@ 1
ισμό 1
ιστική 1
κάτω 1
καδημ@@ 1
κατέ@@ 1
κατο@@ 1
κοινων@@ 1
κυβ@@ 1
λίου 1
λαβε 1
λεπ@@ 1
μάχη 1
μένες 1
μένου 1
μέρες 1
μέρος 1
μές 1
μαζ@@ 1
ματο@@ 1
μετά@@ 1
μιας 1
μυθ@@ 1
μόνο 1
νώ@@ 1
ξε@@ 1
ξει 1
οδο 1
οκα@@ 1
ολο 1
οποία 1
ορισ@@ 1
ουλευ@@ 1
ουσία 1
οφόρ@@ 1
ούμεν@@ 1
π.@@ 1
πέντε 1
παιδιά 1
παράδ@@ 1
παράδειγμα 1
παραγωγ@@ 1
περισσότερ@@ 1
πηγ@@ 1
πλέ@@ 1
πλη@@ 1
πλο@@ 1
πουδ@@ 1
πρέπει 1
πραγματ@@ 1
πριν 1
προηγ@@ 1
πρώτη 1
πυρ@@ 1
πόλ@@ 1
πόλης 1
ραση 1
σή 1
σεων 1
σημαν@@ 1
σταθμ@@ 1
σταση 1
στασης 1
στικά 1
στους 1
συγ@@ 1
συλλογ@@ 1
συμ@@ 1
συνήθ@@ 1
συνεχ@@ 1
συστ@@ 1
σχέ@@ 1
σύγ@@ 1
τέλε@@ 1
τέλος 1
τέσσ@@ 1
ταν 1
τεύ@@ 1
τηγορ@@ 1
τημα 1
τησε 1
τικούς 1
τμή@@ 1
τμήμα 1
τομα 1
τορα 1
τρόπο 1
υπέ@@ 1
φά@@ 1
φερ@@ 1
φορές 1
χρόν@@ 1
ψε 1
ψει 1
ψηφ@@ 1
ωματ@@ 1
ωσε 1
ωση 1
όλο 1
όμη 1
όμως 1
όνομ@@ 1
όνομα 1
όταν 1
ότερ@@ 1
ότητας 1
ότια 1
ώνες 1
ώντας 1
ϐ@@ 1
ϖ 1
Ϙ 1
Ϝ 1
ϝ 1
ϝ@@ 1
Ϟ 1
ϟ 1
Ϡ 1
Ϡ@@ 1
ϡ 1
ϣ 1
ϥ 1
Ϫ 1
ϫ 1
ϰ@@ 1
ϱ@@ 1
Ϸ 1
ϸ 1
Ϲ@@ 1
апреля 1
второй 1
выпу@@ 1
госу@@ 1
держи@@ 1
зыва@@ 1
испол@@ 1
которой 1
которы@@ 1
находится 1
ностью 1
первый 1
работы 1
самы@@ 1
собой 1
состав 1
составе 1
ствовал 1
чемпиона@@ 1
числе 1
этого 1
этой 1
Ѩ@@ 1
Ѷ 1
ѷ 1
Ѻ 1
ѻ 1
ҁ 1
҄ 1
҅ 1
ҋ 1
ҍ 1
ҏ 1
Ҕ@@ 1
җ 1
ҝ 1
ҟ 1
Ҡ@@ 1
ҡ 1
Ҥ@@ 1
ҥ@@ 1
ҧ 1
ҩ 1
Ҫ@@ 1
ҭ 1
Ҵ@@ 1
ҵ 1
ҹ 1
ҹ@@ 1
Һ@@ 1
ҽ 1
ҿ 1
Ӂ@@ 1
ӂ 1
ӂ@@ 1
Ӄ@@ 1
ӆ@@ 1
ӊ 1
ӎ 1
ӏ 1
Ӑ 1
Ӑ@@ 1
Ӗ@@ 1
Ӡ@@ 1
ӡ 1
ӭ 1
Ӱ@@ 1
ӱ@@ 1
Ӳ@@ 1
ӷ 1
ӻ 1
ӿ 1
ԁ 1
ԁ@@ 1
Ԃ 1
ԃ 1
Ԅ 1
ԅ 1
Ԇ 1
ԇ 1
Ԉ 1
ԉ 1
Ԋ 1
ԋ 1
ԍ 1
ԍ@@ 1
Ԏ 1
ԏ 1
ԑ 1
Ԓ@@ 1
Ԕ 1
ԕ 1
Ԗ 1
ԗ 1
Ԙ 1
ԙ 1
ԛ 1
ԝ 1
ԟ 1
ԡ 1
ԣ 1
ԥ 1
ԧ 1
Գ 1
Ե@@ 1
Ը@@ 1
Ծ@@ 1
Շ@@ 1
Ո@@ 1
Օ 1
Ֆ 1
Ֆ@@ 1
ե 1
զ 1
է 1
թ 1
ժ@@ 1
ձ 1
ճ 1
շ 1
ջ 1
օ 1
օ@@ 1
ֆ 1
։ 1
֑ 1
֥ 1
ּ 1
ׁ 1
׃ 1
ג 1
ז 1
ך@@ 1
ן@@ 1
צ 1
׳ 1
ؕ 1
؛ 1
آب@@ 1
آباد 1
آز@@ 1
آيت 1
أح@@ 1
أس@@ 1
أش@@ 1
أف@@ 1
أما 1
أه@@ 1
ؤ@@ 1
إن 1
ئن 1
ئی@@ 1
اء@@ 1
ائر 1
ائم 1
ائية 1
ائے 1
ابة 1
اث@@ 1
اح 1
ادر 1
اذ@@ 1
ارت 1
ارف 1
اره 1
اري 1
اری 1
از 1
است 1
اسلا@@ 1
اسلام 1
اسلامی 1
اض 1
اض@@ 1
اط@@ 1
اعدة 1
اغ@@ 1
اف 1
افغانستان 1
اق 1
اك 1
الأرض 1
الأل@@ 1
الأم@@ 1
الأول 1
الإي@@ 1
الاق@@ 1
الان@@ 1
الة 1
الت 1
التع@@ 1
الث@@ 1
الثاني 1
الحدي@@ 1
الدي@@ 1
الرو@@ 1
السل@@ 1
الط@@ 1
العرا@@ 1
العظ@@ 1
العل@@ 1
الف 1
الفت@@ 1
الفر@@ 1
الفرنس@@ 1
الفل@@ 1
الفي@@ 1
القر@@ 1
القي@@ 1
اللغة 1
المتحدة 1
المح@@ 1
المس@@ 1
الملك 1
المنا@@ 1
المه@@ 1
الموس@@ 1
المُ@@ 1
النا@@ 1
الية 1
الی 1
امام 1
امی 1
انستان 1
انية 1
انہ 1
انی 1
اول@@ 1
اي@@ 1
اک@@ 1
اگ@@ 1
اں 1
ایران 1
ایل 1
باد@@ 1
باز 1
بال 1
بال@@ 1
بت 1
بح@@ 1
بخ@@ 1
بري@@ 1
بس@@ 1
بل 1
بلغ@@ 1
بلو@@ 1
بند@@ 1
بين 1
بين@@ 1
بھ@@ 1
بی 1
ةً 1
تا 1
تاب@@ 1
تار@@ 1
تال 1
تب@@ 1
تت@@ 1
تخ@@ 1
تست@@ 1
تص@@ 1
تط@@ 1
تم 1
ته@@ 1
تو 1
توب@@ 1
تور@@ 1
تون 1
توي 1
تي 1
تين 1
تُ@@ 1
تک 1
تی 1
ثر 1
جام@@ 1
جب 1
جب@@ 1
جر@@ 1
جع@@ 1
جل@@ 1
جلد 1
جمع 1
جمي@@ 1
جو 1
جي 1
جہ 1
حال 1
حال@@ 1
حة 1
حس@@ 1
حق 1
حل 1
حل@@ 1
خت@@ 1
خد@@ 1
خدا 1
خر@@ 1
خط@@ 1
خل@@ 1
خلا@@ 1
خی 1
داخ@@ 1
دار@@ 1
دان@@ 1
داً 1
درس 1
دس 1
دش@@ 1
دل@@ 1
دور@@ 1
دوس@@ 1
دية 1
ديد 1
دير 1
دين 1
دًا 1
دگی 1
دی 1
دیا 1
دید 1
ذ 1
ذر@@ 1
ذي 1
رح@@ 1
رسول 1
رش@@ 1
رض 1
رنگ 1
روز 1
روز@@ 1
رون 1
رير 1
ريق 1
رہ@@ 1
رین 1
زة 1
زل 1
زن 1
زند@@ 1
زي 1
زيد 1
زيرة 1
زی 1
سال@@ 1
سام 1
سان@@ 1
سب 1
سة 1
ست 1
ستانی 1
سر 1
سرائ@@ 1
سلط@@ 1
سلطنت 1
سلی@@ 1
سو 1
سور@@ 1
سون@@ 1
سيا 1
سية 1
شاہ 1
شری@@ 1
شع@@ 1
شعب@@ 1
شن 1
شن@@ 1
شک@@ 1
صة 1
صدر 1
صف@@ 1
صل 1
صن@@ 1
ضاء 1
ضم 1
ضی 1
ط 1
طالب 1
طر@@ 1
طرح 1
طلا@@ 1
عات 1
عالم@@ 1
عام 1
عب@@ 1
عبة 1
عبد@@ 1
عبر 1
عرب 1
عص@@ 1
عط@@ 1
علامہ 1
علم 1
عم 1
عم@@ 1
عن@@ 1
عند 1
عوام 1
عين 1
عی 1
غلام 1
فارسی 1
فض@@ 1
فق 1
فل 1
فلسط@@ 1
فلم 1
فية 1
فيه 1
فی 1
فی@@ 1
قات 1
قال 1
قص@@ 1
قل 1
قو@@ 1
قوم 1
قین 1
كات 1
كت@@ 1
كر@@ 1
كرة 1
كري@@ 1
كن 1
كون 1
كي@@ 1
كية 1
لاح@@ 1
لاد 1
لام 1
لح@@ 1
لس 1
لش@@ 1
لق@@ 1
لك 1
لم 1
لن 1
لن@@ 1
له 1
لو 1
ليل 1
لیم 1
مالي 1
ماني 1
مت 1
مث@@ 1
محمود 1
مذ@@ 1
مراد 1
مرح@@ 1
مرک@@ 1
مس 1
مس@@ 1
مست@@ 1
مسل@@ 1
مسلم 1
معر@@ 1
معروف 1
ملک 1
منطقة 1
منظ@@ 1
مهورية 1
مى 1
مي 1
می 1
مین 1
ناصر 1
ندی 1
نس@@ 1
نظر 1
نف 1
نق@@ 1
نما@@ 1
نه 1
نواب 1
ني@@ 1
نية 1
نين 1
نگ 1
نی 1
هة 1
هد 1
هذا 1
هذه 1
هناك 1
هي@@ 1
وأ@@ 1
وا 1
واحدة 1
وار 1
واقع 1
والم@@ 1
وان 1
وب 1
وت 1
وخ@@ 1
ورا@@ 1
وزیر 1
وس 1
وض@@ 1
وع 1
وف 1
وفي@@ 1
وق 1
وك@@ 1
ولة 1
ولم 1
ولي 1
ومن 1
ومن@@ 1
وه@@ 1
وى 1
وی 1
يح@@ 1
يخ 1
يخ@@ 1
يرة 1
يز 1
يس 1
يش 1
يق@@ 1
ينية 1
يوليو 1
ً@@ 1
َّة 1
٭ 1
ٰ 1
ٹو 1
ٹو@@ 1
ٹی@@ 1
ټ@@ 1
ٽ@@ 1
پ 1
پار@@ 1
پان@@ 1
پاک@@ 1
پر 1
پرو@@ 1
پری@@ 1
پنج@@ 1
ڀ@@ 1
ځ@@ 1
چ 1
چا 1
چار 1
چر@@ 1
چی 1
چی@@ 1
ڈ@@ 1
ڈو@@ 1
ڈی 1
ڌ@@ 1
ڑ@@ 1
ړ@@ 1
ږ@@ 1
ڠ 1
ڠ@@ 1
کری@@ 1
کش@@ 1
کل@@ 1
کو 1
کوئی 1
کور@@ 1
کھ@@ 1
کی 1
کیا 1
ڪ@@ 1
ګ 1
ڬ@@ 1
ڭ 1
گ 1
گا@@ 1
گر 1
گور@@ 1
گی@@ 1
گیا 1
ڵ@@ 1
ں 1
ں@@ 1
ڻ@@ 1
ڼ 1
ھ@@ 1
ہم 1
ہندوستانی 1
ہی 1
ۂ 1
ۃ@@ 1
ۆ@@ 1
ۉ 1
ۋ@@ 1
یر 1
یم 1
یور@@ 1
یہ 1
ۍ 1
ێ@@ 1
۩ 1
ܒ@@ 1
ܓ@@ 1
ܙ 1
ܙ@@ 1
ܛ@@ 1
ܜ@@ 1
ܝ 1
ܡ 1
ܥ 1
ܦ 1
ܦ@@ 1
ܩ 1
ܸ@@ 1
ܹ 1
ܼ 1
݁ 1
ހ@@ 1
ބ@@ 1
ވ@@ 1
ދ@@ 1
ސ@@ 1
ޝ 1
ަ@@ 1
ެ@@ 1
ް 1
ޱ 1
ँ 1
ँ@@ 1
ं 1
ंक 1
ंग@@ 1
ंच@@ 1
ंद 1
ः@@ 1
अग 1
अनु@@ 1
अर 1
आं@@ 1
इन 1
ई@@ 1
उर 1
उल 1
ऐ@@ 1
ओ@@ 1
ओं 1
कल 1
काल@@ 1
कि@@ 1
कुमार 1
कृति 1
कृष 1
को 1
कोई 1
खण 1
खिलाड 1
गया 1
गाँ@@ 1
गां@@ 1
गि@@ 1
गु@@ 1
घा@@ 1
च 1
चार 1
चित 1
ची 1
छ@@ 1
जग@@ 1
जर 1
जल@@ 1
जा 1
जाति 1
जी@@ 1
जु@@ 1
जू@@ 1
जो@@ 1
झ@@ 1
ञ@@ 1
ञा@@ 1
ट@@ 1
टन 1
टल 1
टा 1
टो@@ 1
ठ 1
ठा 1
डल 1
डा@@ 1
डिय@@ 1
डो@@ 1
ण@@ 1
णा@@ 1
णि@@ 1
णी 1
तक 1
तम 1
तरा@@ 1
ता 1
ताल 1
ती 1
ती@@ 1
तु@@ 1
तृ@@ 1
ते 1
ते@@ 1
तो@@ 1
थ@@ 1
था 1
थान 1
थी 1
द@@ 1
दक 1
दर 1
दास 1
दि 1
दि@@ 1
दित 1
दी 1
दू 1
देव 1
देवी 1
धन 1
धान 1
धार 1
धु@@ 1
नगर 1
नाग@@ 1
नाथ 1
निया 1
नी 1
ने 1
नै@@ 1
पद 1
परि@@ 1
पश 1
पहा@@ 1
पी 1
पौ@@ 1
फै@@ 1
बन 1
बहु@@ 1
बा@@ 1
बाद 1
बै@@ 1
भ 1
भक 1
भगवान 1
भा 1
भा@@ 1
भारत 1
भाव 1
भाषा 1
भि@@ 1
भौ@@ 1
मंड@@ 1
मंत 1
मन 1
मर 1
मस 1
मान@@ 1
माल 1
मि@@ 1
मिल 1
मुक 1
मुद 1
मू@@ 1
मृत 1
मे 1
मै@@ 1
यक 1
यु@@ 1
ये@@ 1
रण@@ 1
रम 1
रह@@ 1
रा 1
राजस 1
रानी 1
राम 1
राम@@ 1
राय 1
राय@@ 1
राष 1
रिय 1
रिय@@ 1
रू 1
रू@@ 1
रे@@ 1
रॉ@@ 1
लक 1
लग@@ 1
लना 1
लाइ@@ 1
लाल 1
लिए 1
लिया 1
लू@@ 1
ले 1
ले@@ 1
लो@@ 1
ळ 1
ळ@@ 1
वल 1
वस 1
विद 1
वी@@ 1
वै@@ 1
शन 1
शास 1
शिक 1
शिष 1
शी 1
शीर 1
शे@@ 1
षा@@ 1
षि@@ 1
षिण 1
षित 1
संख 1
संगठन 1
समु@@ 1
समुद 1
सर@@ 1
सा 1
सार 1
सिद 1
सी 1
से@@ 1
सै@@ 1
सो@@ 1
हत 1
हन 1
हम 1
हम@@ 1
हल 1
हा 1
हिं@@ 1
हिंदी 1
ही 1
ही@@ 1
हू@@ 1
हे@@ 1
ार 1
ारा 1
िक 1
ी 1
ु@@ 1
ू@@ 1
े 1
ें 1
ॊ 1
ॊ@@ 1
ो@@ 1
ौ@@ 1
ॐ 1
०० 1
१@@ 1
३ 1
ঁ@@ 1
ই 1
উ@@ 1
এ@@ 1
ঙ@@ 1
জ 1
ঝ@@ 1
ঞ 1
ধ 1
ফ 1
ফ@@ 1
ব 1
স 1
ৃ@@ 1
ৈ 1
০ 1
০@@ 1
১ 1
১@@ 1
ৰ 1
ৰ@@ 1
ਂ 1
ਂ@@ 1
ਅ@@ 1
ਆ@@ 1
ਖ@@ 1
ਜ 1
ਡ@@ 1
ਦ@@ 1
ਨ 1
ਪ@@ 1
ਬ 1
ਭ@@ 1
ਲ 1
ਲ@@ 1
ਹ 1
਼ 1
ੂ@@ 1
ੇ 1
ੈ@@ 1
ੋ@@ 1
ੜ 1
ੰ 1
ੱ@@ 1
અ@@ 1
દ 1
દ@@ 1
મ@@ 1
વ@@ 1
ଆ 1
ଓ@@ 1
ଜ 1
ଡ 1
ନ 1
ବ@@ 1
ଯ@@ 1
ର@@ 1
଼ 1
ା@@ 1
ି@@ 1
୍ 1
ஜ@@ 1
ட@@ 1
ண 1
த 1
ந@@ 1
ன@@ 1
ப@@ 1
ம 1
ம@@ 1
ர@@ 1
ழ 1
வ@@ 1
ி 1
ு 1
ே@@ 1
௱ 1
క@@ 1
జ 1
డ@@ 1
ణ@@ 1
న@@ 1
ప 1
బ 1
బ@@ 1
మ 1
ల 1
ష 1
ి 1
ూ@@ 1
ృ@@ 1
ె@@ 1
ಂ@@ 1
ಐ@@ 1
ಕ 1
ಕ@@ 1
ಗ@@ 1
ಜ 1
ಟ@@ 1
ಡ 1
ತ 1
ತ@@ 1
ದ@@ 1
ಪ@@ 1
ಮ 1
ಶ 1
ಾ 1
ಿ 1
ು@@ 1
ೂ@@ 1
ೇ@@ 1
ೈ 1
ೈ@@ 1
ം 1
ഒ@@ 1
ക@@ 1
ഡ@@ 1
പ 1
മ@@ 1
യ@@ 1
ര 1
ല@@ 1
ള@@ 1
വ@@ 1
ശ@@ 1
ാ@@ 1
ി 1
ീ@@ 1
ൊ@@ 1
ං@@ 1
ක@@ 1
ණ@@ 1
ර@@ 1
ල 1
ස@@ 1
හ@@ 1
ි@@ 1
ු 1
ේ@@ 1
กร 1
กร@@ 1
กรา@@ 1
กา@@ 1
ข@@ 1
ของ 1
ค@@ 1
จุ@@ 1
ช 1
ชิ@@ 1
ชี@@ 1
ซ@@ 1
ซิ 1
ซิ@@ 1
ฐ@@ 1
ณ 1
ตร 1
ตะ@@ 1
บดี 1
ประชา@@ 1
ผู@@ 1
พล@@ 1
พิ@@ 1
ฟ 1
ฟ@@ 1
ภา@@ 1
ภูมิ@@ 1
ม 1
มว@@ 1
มาร@@ 1
ยา@@ 1
รั@@ 1
ราง@@ 1
ราช 1
ราช@@ 1
ฤ@@ 1
ลง@@ 1
ลา@@ 1
วี@@ 1
สง@@ 1
สุ@@ 1
หม@@ 1
หัว 1
ฬ@@ 1
อง@@ 1
อย 1
อย@@ 1
อั@@ 1
อิ@@ 1
ฮ@@ 1
ะ@@ 1
ั@@ 1
ัง 1
ัน 1
ันท@@ 1
ัย 1
าน@@ 1
ำ 1
ิด@@ 1
ิน 1
ี@@ 1
ื 1
ือ 1
ือ@@ 1
ุ 1
ุ@@ 1
เ 1
เก@@ 1
เท@@ 1
เบ@@ 1
เพ@@ 1
เร@@ 1
เล@@ 1
แ 1
แต@@ 1
แสดง 1
โ 1
โก@@ 1
โบ@@ 1
โลก 1
ใ 1
ไ 1
ไ@@ 1
ไท@@ 1
ไม@@ 1
๊ 1
๐ 1
๐@@ 1
๑@@ 1
๗ 1
ຂ 1
ຍ 1
ຕ 1
ປ 1
ຜ@@ 1
ພ 1
ຫ 1
ອ 1
ຮ@@ 1
ັ 1
ໍ 1
ໍ@@ 1
ཀ 1
ང@@ 1
ཅ@@ 1
ཉ@@ 1
ཏ 1
ཚ@@ 1
ཨ@@ 1
ྦ@@ 1
ྱ 1
ྲ 1
ྷ 1
င@@ 1
ဆ@@ 1
ဉ 1
ဋ 1
ဌ@@ 1
ဒ 1
ဓ@@ 1
ယ 1
ရ@@ 1
ီ 1
ီ@@ 1
ူ 1
ံ 1
ံ@@ 1
ှ 1
ှ@@ 1
ბ 1
დ 1
ზ 1
მ 1
ყ 1
ძ 1
ჱ 1
ჲ 1
ჴ 1
ჵ 1
ሃ 1
ላ@@ 1
ሌ 1
ሓ@@ 1
ም 1
ሥ@@ 1
ረ 1
ር@@ 1
ሱ@@ 1
ሴ 1
ባ@@ 1
ብ@@ 1
ት@@ 1
ኃ@@ 1
ኛ 1
ክ@@ 1
ዓ@@ 1
ዕ@@ 1
ዝ 1
ይ 1
ይ@@ 1
ጅ 1
ጠ@@ 1
፡ 1
Ꭰ@@ 1
Ꭸ@@ 1
Ꭹ 1
Ꭹ@@ 1
Ꮃ@@ 1
Ꮝ@@ 1
Ꮳ@@ 1
Ꮿ 1
Ᏹ 1
ᐯ 1
ᐱ 1
ᐳ 1
ᐸ 1
ᒃ 1
ᒡ@@ 1
ᓇ@@ 1
ᓕ@@ 1
ᓗ@@ 1
ᕗ@@ 1
ᚫ 1
ឃ@@ 1
ញ@@ 1
ណ 1
ទ 1
ភ 1
អ 1
ឱ@@ 1
ៃ@@ 1
ៅ@@ 1
៉ 1
៌ 1
៍ 1
ᠨ@@ 1
ᠪ@@ 1
ᠯ@@ 1
ᠲ@@ 1
ᠷ 1
ᰵ 1
ᴀ 1
ᴜ 1
ᴪ 1
ḇ 1
ḑ 1
Ḥ 1
Ḫ 1
ḳ 1
ḵ@@ 1
ḷ 1
ḷ@@ 1
ḹ 1
ḹ@@ 1
ṙ 1
Ṛ@@ 1
ṛ 1
ṡ 1
ṯ@@ 1
ṳ 1
ṻ@@ 1
ṿ@@ 1
Ẕ@@ 1
ẖ 1
ẖ@@ 1
ạc 1
ạnh 1
ạo 1
ả 1
ảng 1
ấu 1
ập 1
ật 1
ẵ@@ 1
ặ@@ 1
ẻ 1
ế@@ 1
ết 1
ền 1
ễ 1
ệ 1
Ỉ 1
ị 1
ịnh 1
Ọ@@ 1
ố 1
ồ 1
ồng 1
ộc 1
ới 1
ở 1
ụ 1
ừng 1
ử@@ 1
ỹ 1
ἂ@@ 1
ἒ@@ 1
ἔ 1
Ἒ@@ 1
Ἓ@@ 1
ἥ@@ 1
ἧ@@ 1
Ἤ@@ 1
Ἥ@@ 1
ἳ@@ 1
ἷ 1
Ἴ@@ 1
ὀ 1
ὃ 1
Ὁ@@ 1
Ὄ@@ 1
ὐ 1
ὑ 1
ὣ 1
ὣ@@ 1
ὤ 1
ὥ@@ 1
ὦ@@ 1
Ὦ@@ 1
ᾄ@@ 1
ᾍ@@ 1
ᾔ@@ 1
ᾳ 1
ᾳ@@ 1
ᾴ@@ 1
ῑ@@ 1
ῖ 1
Ὸ@@ 1
‬ 1
‱ 1
⁠ 1
⁩ 1
⁹ 1
ⁿ 1
₀ 1
₄ 1
ₙ 1
ₙ@@ 1
₣ 1
₱ 1
₴ 1
₵ 1
₺ 1
₼ 1
℈ 1
ℙ 1
℡ 1
ℤ 1
ℨ 1
ℵ@@ 1
⅛ 1
⅜ 1
⅝ 1
⅞ 1
Ⅴ 1
↉ 1
↠ 1
∗ 1
∣ 1
≔ 1
⊂ 1
⊤ 1
⊥ 1
⊿ 1
① 1
┄ 1
┼ 1
△ 1
◌ 1
☁ 1
☊ 1
☍ 1
☎ 1
☏ 1
☐ 1
☑ 1
☒ 1
☜ 1
☝ 1
☞ 1
☟ 1
☠ 1
☦ 1
☨ 1
☫ 1
☭ 1
☺ 1
☾ 1
☿ 1
♃ 1
♄ 1
♆ 1
♇ 1
♋ 1
♌ 1
♍ 1
♎ 1
♏ 1
♐ 1
♑ 1
♓ 1
♡ 1
♢ 1
♤ 1
♪ 1
⚭ 1
⚳ 1
⛽ 1
✆ 1
✎ 1
✐ 1
❥ 1
⠁ 1
⠃ 1
⠅ 1
⠉ 1
⠍ 1
⠑ 1
⠙ 1
⠛ 1
⠼ 1
⠿ 1
Ⱋ 1
Ⱒ 1
Ⱚ 1
ⰰ 1
ⰲ 1
ⰻ 1
ⰼ@@ 1
ⱁ 1
ⱃ 1
ⱉ 1
ⱋ@@ 1
ⱌ 1
ⱍ@@ 1
ⱎ@@ 1
ⱗ@@ 1
ⱞ 1
Ⱶ 1
ⱶ 1
ⲕ 1
ⲕ@@ 1
ⲭ 1
ⴷ 1
ⵄ@@ 1
ⵍ@@ 1
ⵓ@@ 1
ⵖ@@ 1
ⵛ 1
ⵜ 1
ⵢ@@ 1
ⵣ@@ 1
⹋ 1
々@@ 1
〇@@ 1
〈 1
〉 1
『 1
【 1
】 1
か 1
ぎ 1
ぐ 1
ぐ@@ 1
こ 1
ご 1
ざ@@ 1
じ 1
ず@@ 1
せ 1
そ@@ 1
だ@@ 1
っ 1
で@@ 1
に 1
ひ 1
び@@ 1
ぶ 1
ぽ@@ 1
ゃ 1
や 1
や@@ 1
ゅ@@ 1
ょ 1
よ 1
ろ 1
ゐ 1
ゑ 1
を 1
ェ@@ 1
エ@@ 1
キ 1
ギ 1
グ 1
ザ@@ 1
ズ@@ 1
ヂ@@ 1
ッ 1
ツ 1
ヌ 1
ヌ@@ 1
ネ@@ 1
ヒ@@ 1
ビ@@ 1
ピ@@ 1
プ 1
ヘ@@ 1
ミ@@ 1
ム@@ 1
メ 1
ャ@@ 1
ヤ 1
ュ 1
ヶ 1
ヶ@@ 1
ㄱ 1
ㄷ 1
ㄹ 1
ㅂ 1
ㅅ 1
ㅈ 1
ㅐ 1
ㅑ 1
ㅒ 1
ㅔ@@ 1
ㅕ 1
ㅛ 1
ㅠ 1
ㅣ 1
丁 1
丈 1
丈@@ 1
不 1
丕 1
业@@ 1
东 1
丝 1
两@@ 1
中國 1
丰@@ 1
临 1
丸@@ 1
丹 1
为 1
久 1
久@@ 1
义 1
义@@ 1
乎@@ 1
乐 1
乘 1
九 1
也@@ 1
乡 1
乳@@ 1
亀@@ 1
予@@ 1
事 1
事@@ 1
二 1
于 1
云@@ 1
互@@ 1
亓@@ 1
亚@@ 1
产@@ 1
亭 1
亮@@ 1
亲@@ 1
亳 1
什 1
仁 1
今 1
今@@ 1
介 1
介@@ 1
付@@ 1
仙@@ 1
代表 1
令 1
以@@ 1
仰@@ 1
任@@ 1
份@@ 1
伊@@ 1
传 1
伤 1
伦@@ 1
伸@@ 1
似@@ 1
佐 1
佑@@ 1
体@@ 1
作 1
佩@@ 1
佰 1
佳 1
佳@@ 1
例@@ 1
供@@ 1
依@@ 1
侯@@ 1
係 1
俘@@ 1
保 1
俠 1
候@@ 1
倭 1
偃@@ 1
假 1
偉@@ 1
傅 1
傑@@ 1
備 1
傳 1
傳@@ 1
傷@@ 1
働 1
億@@ 1
儒 1
兄 1
兆@@ 1
先 1
児@@ 1
兔 1
入@@ 1
兩@@ 1
八 1
公司 1
共@@ 1
共和@@ 1
兴 1
兹@@ 1
养@@ 1
兼@@ 1
円 1
冇 1
再@@ 1
冗@@ 1
写@@ 1
农 1
农@@ 1
冷@@ 1
凌 1
凡 1
処@@ 1
分@@ 1
刈@@ 1
刑 1
刚@@ 1
初@@ 1
判 1
制@@ 1
刺 1
刺@@ 1
剛@@ 1
剧 1
創 1
劇 1
功@@ 1
加 1
助@@ 1
劳 1
勁 1
勇 1
勒@@ 1
勘@@ 1
勝 1
勝@@ 1
募@@ 1
勢@@ 1
勤@@ 1
匀 1
包 1
包@@ 1
化 1
医 1
十 1
半 1
半@@ 1
卍 1
华@@ 1
协@@ 1
卐 1
卓@@ 1
協@@ 1
卡 1
卦@@ 1
历 1
厌@@ 1
厚 1
厥 1
厭@@ 1
去 1
县@@ 1
參 1
友 1
反@@ 1
发 1
取@@ 1
受@@ 1
叢@@ 1
口@@ 1
古 1
句 1
可@@ 1
台灣 1
叶 1
吊 1
后 1
吐@@ 1
吟@@ 1
听@@ 1
吳@@ 1
吴@@ 1
呂 1
周 1
呼@@ 1
咚@@ 1
咱@@ 1
哀@@ 1
品 1
哒 1
哲 1
唐 1
唱 1
唱@@ 1
問 1
問@@ 1
啓 1
啟 1
啦 1
喃 1
喇@@ 1
喦 1
喩@@ 1
喬 1
單@@ 1
嘛 1
嘯@@ 1
嘲@@ 1
嘴 1
器@@ 1
囊 1
图 1
圍 1
圓 1
團 1
在 1
圭 1
地区 1
坂 1
坂@@ 1
均 1
均@@ 1
坊@@ 1
坛 1
坤@@ 1
型@@ 1
堀 1
堂@@ 1
堕@@ 1
堡 1
報 1
報@@ 1
場@@ 1
塊 1
塔 1
塔@@ 1
塘 1
塚 1
塞@@ 1
境 1
墳@@ 1
壤 1
壯@@ 1
壹 1
壽 1
处 1
変@@ 1
复@@ 1
夕 1
大學 1
央 1
央@@ 1
头 1
夷 1
奈@@ 1
奘 1
奥 1
奧 1
奴@@ 1
奸@@ 1
妄@@ 1
妖@@ 1
妮 1
姆 1
始 1
姓 1
委员会 1
姚 1
姫 1
娃 1
娛@@ 1
娥@@ 1
嫦@@ 1
嫫 1
嬉 1
孙@@ 1
孜@@ 1
孝@@ 1
孟 1
孤@@ 1
宅 1
宅@@ 1
宍@@ 1
宏 1
宕 1
官 1
宙@@ 1
宜 1
宝 1
実@@ 1
客 1
客@@ 1
室 1
宫@@ 1
容@@ 1
寄 1
寇 1
寛 1
寺@@ 1
対@@ 1
寿 1
将@@ 1
將 1
將@@ 1
導@@ 1
小 1
少 1
尘 1
尤 1
尼 1
尿 1
屋@@ 1
属@@ 1
岁 1
岩 1
岬@@ 1
岸 1
岸@@ 1
峠 1
峪 1
峻 1
嶺@@ 1
巖 1
州@@ 1
巡@@ 1
左@@ 1
巧@@ 1
差 1
己@@ 1
巳 1
巴 1
巻@@ 1
巾@@ 1
帅 1
师@@ 1
希 1
希@@ 1
帕 1
席 1
帶@@ 1
常@@ 1
幌 1
幕@@ 1
幸 1
幸@@ 1
幹@@ 1
广 1
庁@@ 1
庄 1
应 1
店@@ 1
庙 1
庵 1
庵@@ 1
庸 1
廈 1
廈@@ 1
廓@@ 1
廣 1
廷 1
建@@ 1
开@@ 1
弌 1
弓 1
弘 1
弟 1
弥@@ 1
弴 1
強 1
弾 1
彈@@ 1
彊 1
形@@ 1
彭@@ 1
彼@@ 1
往@@ 1
征@@ 1
径@@ 1
律@@ 1
徐@@ 1
徒@@ 1
得@@ 1
御 1
復@@ 1
徳 1
徴@@ 1
徹 1
徽 1
徽@@ 1
必@@ 1
忍@@ 1
快@@ 1
念 1
怛@@ 1
性 1
怪 1
怪@@ 1
总 1
总@@ 1
恆 1
恋 1
恋@@ 1
恩 1
恭@@ 1
恵@@ 1
悔@@ 1
您@@ 1
悬@@ 1
惟@@ 1
惠@@ 1
想@@ 1
愈 1
感 1
慈@@ 1
態 1
慧 1
慰@@ 1
憑@@ 1
戎 1
戎@@ 1
或 1
戯 1
戯@@ 1
戰 1
戰@@ 1
户 1
戸 1
戻@@ 1
所有 1
扎@@ 1
扬@@ 1
承 1
承@@ 1
抑@@ 1
折@@ 1
択@@ 1
护@@ 1
报 1
括 1
拼@@ 1
持 1
按@@ 1
捉@@ 1
捻@@ 1
掌 1
接@@ 1
提 1
揚@@ 1
搭 1
摩@@ 1
撫 1
撫@@ 1
撲 1
攝@@ 1
改 1
放 1
放@@ 1
敕@@ 1
散 1
散@@ 1
敦 1
敬@@ 1
数 1
数@@ 1
敷@@ 1
數 1
斉 1
斋@@ 1
斌 1
斎@@ 1
斐 1
斧 1
斯 1
於@@ 1
旁@@ 1
旅@@ 1
无 1
日本 1
旭@@ 1
昑 1
春 1
昭@@ 1
是@@ 1
晉 1
晶@@ 1
暈@@ 1
更@@ 1
曽@@ 1
服@@ 1
朔@@ 1
朗 1
望@@ 1
期 1
札@@ 1
杉@@ 1
李 1
村@@ 1
杜@@ 1
杞@@ 1
条 1
杨@@ 1
杰 1
杰@@ 1
板@@ 1
极 1
极@@ 1
枕@@ 1
柳 1
柴 1
査@@ 1
栄 1
栏@@ 1
栓 1
栗 1
核@@ 1
根 1
格 1
格@@ 1
栽 1
桀 1
桂 1
桂@@ 1
桐@@ 1
桑 1
桑@@ 1
桢 1
梁 1
條 1
條@@ 1
梟@@ 1
梦@@ 1
梨@@ 1
棒@@ 1
椒 1
椒@@ 1
楊@@ 1
楚@@ 1
楠 1
楢@@ 1
業 1
楼@@ 1
楽 1
榊 1
榜 1
榷@@ 1
槍 1
樂 1
樓 1
樓@@ 1
樟@@ 1
権@@ 1
樺@@ 1
檀 1
櫓@@ 1
欄@@ 1
欞@@ 1
次 1
欣 1
欧@@ 1
款 1
正 1
步 1
歳@@ 1
殊 1
段 1
殷 1
殺 1
殺@@ 1
毅 1
毅@@ 1
毎@@ 1
每@@ 1
比@@ 1
毕@@ 1
毛@@ 1
民 1
气@@ 1
気@@ 1
汀 1
汗@@ 1
汶@@ 1
沖@@ 1
沙 1
沪 1
油 1
治 1
沽 1
泉 1
泉@@ 1
泣@@ 1
洗@@ 1
洞@@ 1
流 1
浒@@ 1
浙@@ 1
浜@@ 1
浪@@ 1
浮@@ 1
浴@@ 1
消@@ 1
涙 1
润@@ 1
涼 1
淡@@ 1
淳@@ 1
淸@@ 1
清 1
済 1
渝@@ 1
渡@@ 1
渤@@ 1
測@@ 1
游 1
湯@@ 1
満 1
源 1
溪@@ 1
滑 1
滝 1
滸@@ 1
演@@ 1
漠@@ 1
潑@@ 1
潤 1
潤@@ 1
潮 1
潮@@ 1
澤 1
濃 1
濤 1
濱 1
瀨 1
灭 1
灸 1
炎@@ 1
炮@@ 1
炳@@ 1
炸 1
点 1
点@@ 1
為@@ 1
烈@@ 1
焦@@ 1
然 1
然@@ 1
焼 1
焼@@ 1
煌 1
煎@@ 1
煙@@ 1
熊@@ 1
燃@@ 1
燕 1
燕@@ 1
燵 1
爱 1
爷 1
爺 1
爿 1
牆 1
片 1
版 1
版@@ 1
牛 1
牟@@ 1
犬 1
犯@@ 1
状 1
狁 1
狂@@ 1
独 1
狼 1
猛@@ 1
猫 1
猫@@ 1
獄@@ 1
獨@@ 1
獯 1
玛 1
玲 1
珂@@ 1
現@@ 1
球 1
球@@ 1
琅 1
理@@ 1
琴@@ 1
琶@@ 1
瑟@@ 1
璇 1
甄 1
甘@@ 1
甜@@ 1
產@@ 1
甫 1
甬@@ 1
由 1
由@@ 1
留@@ 1
畢 1
番 1
番@@ 1
異 1
當@@ 1
畿@@ 1
疆@@ 1
疲@@ 1
症@@ 1
百 1
的 1
皓 1
皮 1
皮@@ 1
盆@@ 1
盐@@ 1
监@@ 1
盗@@ 1
盟 1
盟@@ 1
盤@@ 1
目@@ 1
直 1
相 1
督 1
矢@@ 1
知@@ 1
石 1
砕@@ 1
砲 1
破@@ 1
碁 1
碰 1
磁@@ 1
礼 1
祖 1
祖@@ 1
祝 1
祝@@ 1
祢@@ 1
祥@@ 1
祭@@ 1
祿@@ 1
禁@@ 1
福 1
禪@@ 1
禮@@ 1
离@@ 1
秀@@ 1
秋 1
科@@ 1
租@@ 1
称@@ 1
程@@ 1
稲@@ 1
稷 1
窝 1
窰@@ 1
竜 1
章@@ 1
童 1
竹 1
等@@ 1
筷 1
筹@@ 1
箭 1
籌@@ 1
粉 1
粉@@ 1
粤 1
粵 1
糎@@ 1
糖@@ 1
系 1
約 1
紇 1
純@@ 1
紗@@ 1
紙 1
級 1
級@@ 1
紫 1
細@@ 1
組 1
結@@ 1
絲 1
絵 1
継 1
続@@ 1
綠@@ 1
維 1
総@@ 1
緑@@ 1
線@@ 1
縛@@ 1
縫@@ 1
織 1
繕 1
繰@@ 1
續@@ 1
红 1
约 1
纪@@ 1
组织 1
绍@@ 1
绝@@ 1
维@@ 1
绵 1
缘@@ 1
罗 1
罠 1
罢@@ 1
罪 1
羊 1
美國 1
羲 1
翁 1
習 1
考 1
考@@ 1
耳 1
耶 1
耶@@ 1
耿@@ 1
聃 1
聊 1
联@@ 1
聖 1
聞@@ 1
聽@@ 1
肃@@ 1
肇 1
肇@@ 1
肚 1
肠 1
肥@@ 1
育 1
育@@ 1
背@@ 1
胡 1
胡@@ 1
能@@ 1
脂@@ 1
脇@@ 1
脑 1
腊@@ 1
腐@@ 1
腥@@ 1
腸 1
腾@@ 1
腿 1
臀 1
臘@@ 1
臥@@ 1
臨 1
致 1
臺@@ 1
興 1
興@@ 1
舒 1
舞 1
舟 1
航@@ 1
般@@ 1
船@@ 1
良 1
艺 1
节 1
节@@ 1
芝 1
芦@@ 1
芩 1
苗@@ 1
若@@ 1
英 1
茂 1
茂@@ 1
茄@@ 1
茅@@ 1
茹 1
茹@@ 1
荀@@ 1
荷 1
荷@@ 1
莉@@ 1
莫@@ 1
莲@@ 1
菅@@ 1
菊 1
菌 1
萧@@ 1
落@@ 1
蒼@@ 1
蓉@@ 1
蓮@@ 1
蔡 1
蔵 1
蕉 1
蕉@@ 1
薙@@ 1
薩 1
藏@@ 1
藤 1
藥@@ 1
藩@@ 1
藪@@ 1
蘇@@ 1
蘭 1
蘭@@ 1
虚@@ 1
虜@@ 1
號 1
蚩@@ 1
蛋 1
蛙 1
蛮@@ 1
蛸@@ 1
蜀@@ 1
蜜 1
蝦 1
蝴@@ 1
蝶@@ 1
融 1
融@@ 1
蠕 1
蠕@@ 1
術@@ 1
衣@@ 1
表 1
袄@@ 1
袋 1
裔 1
裕@@ 1
褒@@ 1
要@@ 1
要求 1
視@@ 1
覚@@ 1
覧@@ 1
親 1
親@@ 1
観 1
観@@ 1
覺@@ 1
觀 1
观 1
觉 1
解 1
解@@ 1
言 1
言@@ 1
計@@ 1
設 1
誉 1
誌@@ 1
誕 1
誘@@ 1
誠@@ 1
說 1
課 1
調@@ 1
談@@ 1
諭 1
謙 1
講@@ 1
謝@@ 1
謫@@ 1
證@@ 1
護 1
護@@ 1
讀 1
讃@@ 1
记 1
证@@ 1
说@@ 1
诸@@ 1
谭@@ 1
豊 1
貞@@ 1
負@@ 1
財 1
財@@ 1
貿@@ 1
資@@ 1
賈@@ 1
賊 1
賛@@ 1
賢 1
賦 1
贛@@ 1
败@@ 1
贵 1
贵@@ 1
贸@@ 1
费 1
贾@@ 1
赋 1
赛 1
赤@@ 1
赵@@ 1
越 1
趙@@ 1
足 1
跑 1
路 1
身@@ 1
車 1
軒 1
載@@ 1
輝@@ 1
輪 1
輪@@ 1
轄@@ 1
轉 1
车 1
轮 1
辅 1
输@@ 1
辣 1
辺 1
辺@@ 1
辽 1
辽@@ 1
迁 1
迅 1
运 1
远@@ 1
逆@@ 1
逊 1
通 1
速@@ 1
遇 1
遊 1
遊@@ 1
運@@ 1
遍 1
過@@ 1
遠 1
遠@@ 1
遷 1
遺@@ 1
邑 1
邓 1
那@@ 1
邪@@ 1
郡@@ 1
鄂@@ 1
鄉 1
鄕 1
醜@@ 1
醤 1
醤@@ 1
醫 1
重@@ 1
針 1
針@@ 1
鉞 1
鉱@@ 1
鉴 1
銃@@ 1
銅 1
銑@@ 1
鋼@@ 1
錘 1
錠@@ 1
錬@@ 1
錯 1
錯@@ 1
鎖@@ 1
鎮@@ 1
钗 1
钞 1
铜 1
镇 1
镕@@ 1
長 1
长@@ 1
閃@@ 1
関 1
閥 1
閩@@ 1
闇 1
闘 1
问 1
问@@ 1
闽@@ 1
阳@@ 1
阴 1
阴@@ 1
阶@@ 1
阻@@ 1
陀 1
陆 1
限@@ 1
陕@@ 1
陛@@ 1
院@@ 1
陣 1
陣@@ 1
陰 1
陰@@ 1
陳 1
険@@ 1
隅 1
階@@ 1
障 1
障@@ 1
隠 1
隣@@ 1
集@@ 1
雍@@ 1
離@@ 1
電 1
雾@@ 1
霊 1
露@@ 1
静@@ 1
非 1
非@@ 1
面 1
革 1
靴 1
韓 1
韩@@ 1
韵 1
響 1
頂@@ 1
須 1
須@@ 1
領 1
頡 1
頭 1
題 1
顶 1
题 1
颜 1
额@@ 1
飛 1
飞@@ 1
食@@ 1
飯 1
飽@@ 1
餘@@ 1
饅@@ 1
饌 1
馆 1
香港 1
駄 1
駅 1
騒 1
騫 1
驚 1
马 1
驼@@ 1
骆@@ 1
骚 1
骨@@ 1
高 1
魂@@ 1
魚 1
鮒@@ 1
鮓 1
鮨 1
鯉 1
鯱 1
鰯 1
鱼@@ 1
鲧@@ 1
鳥 1
鴎 1
鴨@@ 1
鶴 1
鶴@@ 1
鹰 1
鹿@@ 1
麗@@ 1
麦@@ 1
麹 1
麹@@ 1
麿 1
黛@@ 1
點@@ 1
鼎@@ 1
鼠 1
鼠@@ 1
鼬 1
鼻 1
齊 1
齋 1
齋@@ 1
Ꙁ 1
ꙁ@@ 1
Ꙃ 1
Ꙅ 1
Ꙋ 1
Ꙑ@@ 1
Ꙓ 1
ꙓ 1
Ꙝ 1
ꙝ 1
ꙟ 1
ꚁ 1
Ꚃ 1
ꚃ 1
Ꚅ 1
ꚅ 1
ꚇ 1
Ꚉ 1
ꚉ 1
ꚋ 1
Ꚍ 1
ꚍ 1
ꚏ 1
Ꚑ 1
ꚑ 1
Ꚓ 1
ꚓ 1
Ꚕ 1
ꚕ 1
Ꚗ 1
ꚗ 1
ꞛ 1
ꞝ 1
ꞟ 1
갈@@ 1
개@@ 1
것@@ 1
게 1
겐 1
겨@@ 1
격@@ 1
견 1
결 1
계 1
계@@ 1
고 1
관@@ 1
광 1
괜@@ 1
권 1
규@@ 1
길@@ 1
까@@ 1
깐@@ 1
꽃@@ 1
꾸@@ 1
꿈 1
꿈@@ 1
나 1
날@@ 1
남 1
내 1
너 1
널 1
넘@@ 1
년@@ 1
녕 1
노 1
놈@@ 1
농@@ 1
는@@ 1
늘 1
니 1
닌@@ 1
님 1
단 1
달 1
당 1
덕@@ 1
델 1
도@@ 1
돌 1
돌@@ 1
두 1
등@@ 1
따@@ 1
떴@@ 1
락 1
람 1
람@@ 1
랐@@ 1
랜 1
량@@ 1
러@@ 1
럼 1
령 1
론 1
론@@ 1
루 1
류 1
른@@ 1
릉 1
말@@ 1
맞@@ 1
매@@ 1
맨 1
먼 1
메@@ 1
멘@@ 1
며 1
목@@ 1
묘 1
문@@ 1
미 1
민 1
밀 1
밖@@ 1
받@@ 1
배@@ 1
백 1
범 1
베@@ 1
별 1
별@@ 1
병@@ 1
복@@ 1
본@@ 1
봄@@ 1
봐 1
봐@@ 1
봤@@ 1
북 1
불@@ 1
붕 1
빈 1
뿔 1
쁜 1
사 1
살@@ 1
삼 1
새@@ 1
생@@ 1
석 1
설 1
셔@@ 1
셨@@ 1
손@@ 1
송 1
숙 1
스@@ 1
슴 1
습@@ 1
실@@ 1
심 1
심@@ 1
싶@@ 1
싸@@ 1
쓴 1
씨 1
암@@ 1
언 1
없@@ 1
었@@ 1
에 1
엑@@ 1
엔 1
엔@@ 1
엘@@ 1
역 1
역@@ 1
엽 1
엽@@ 1
영 1
예@@ 1
옥@@ 1
온@@ 1
올@@ 1
옷 1
왔@@ 1
왜 1
월@@ 1
유 1
육@@ 1
음 1
음@@ 1
인 1
있@@ 1
작@@ 1
잘 1
장 1
재 1
저 1
적@@ 1
젖@@ 1
좀 1
종 1
좋@@ 1
죽@@ 1
준@@ 1
집@@ 1
짓@@ 1
쩔@@ 1
쫄@@ 1
차@@ 1
찬 1
찬@@ 1
찮@@ 1
창 1
창@@ 1
챙@@ 1
철 1
청@@ 1
체@@ 1
쳐 1
총 1
추@@ 1
출@@ 1
카@@ 1
캐@@ 1
컵 1
쿠@@ 1
키 1
탁 1
탄 1
탄@@ 1
택@@ 1
터 1
턴@@ 1
텐@@ 1
텔 1
트 1
트@@ 1
특@@ 1
티 1
파 1
패@@ 1
팬 1
편@@ 1
풍@@ 1
프 1
프@@ 1
플@@ 1
학 1
학@@ 1
합@@ 1
핵@@ 1
헌 1
현@@ 1
형 1
혜@@ 1
홉 1
확@@ 1
환 1
효@@ 1
훈 1
흔 1
희@@ 1
 1
 1
 1
 1
ﭼ@@ 1
ﯾ@@ 1
︎ 1
️ 1
ﺍ@@ 1
ﺎ 1
ﺎ@@ 1
ﺐ 1
ﺒ@@ 1
ﺔ 1
ﺩ@@ 1
ﺭ 1
ﺱ 1
ﺷ@@ 1
ﻃ@@ 1
ﻍ 1
ﻐ@@ 1
ﻔ@@ 1
ﻜ@@ 1
ﻞ 1
ﻠ@@ 1
ﻣ@@ 1
ﻫ@@ 1
ﻬ@@ 1
ﻯ 1
ﻲ 1
ﻳ@@ 1
／ 1
： 1
＜ 1
＞ 1
Ｉ 1
Ｉ@@ 1
￼ 1
𐎡 1
𐎡@@ 1
𐎣@@ 1
𐎦@@ 1
𐎧@@ 1
𐎭@@ 1
𐎲@@ 1
𐎳@@ 1
𐎴 1
𐎹@@ 1
𐎼 1
𐏁@@ 1
𐐷 1
𐤁 1
𐤅@@ 1
𐤋 1
𐤍 1
𐤏 1
𐤐 1
𐤑@@ 1
𐤓 1
𐤔 1
𐭃@@ 1
𐭊@@ 1
𐭌@@ 1
𐭕 1
𐭠@@ 1
𐭩@@ 1
𐭫@@ 1
𐭮@@ 1
𐭯@@ 1
𐭲@@ 1
𑀔 1
𑀔@@ 1
𑀢@@ 1
𑀮@@ 1
𑀲@@ 1
𑀸 1
𑀺@@ 1
𑁆 1
𒀫@@ 1
𒂗@@ 1
𒂠 1
𒅴@@ 1
𒆗 1
𒆘 1
𒆠 1
𒇸 1
𒉌@@ 1
𒊒 1
𒋗@@ 1
𒌇@@ 1
𒌓 1
🀄 1
🍑 1
🍙 1
🍛 1
🍜 1
🍡 1
🍣 1
🏻 1
🏼 1
🏽 1
🏾 1
🏿 1
👏 1
💃 1
💅 1
💣 1
💮 1
💺 1
🔍 1
🔒 1
🔫 1
🔰 1
🖕 1
🗡 1
😂 1
🙇 1
🤻 1
🥆 1
