de 1
, 1
. 0.9988819169190858
la 1
et 1
le 1
à 1
en 1
&quot; 0.9576727821438971
l&apos; 1
des 1
est 1
@-@ 1
les 1
du 1
d&apos; 1
é 1
un 1
une 1
é@@ 1
( 1
) 1
que 1
dans 1
au 1
par 1
ée 1
es 1
il 1
dé@@ 1
’ 1
er 1
a 0.5366637095293012
pour 1
ant 1
ré@@ 1
ent 1
se 1
qui 1
ation 1
Le 1
sur 1
aux 1
ie 1
son 1
s@@ 1
s 1
ement 1
v@@ 1
c@@ 1
re@@ 1
te 1
p@@ 1
ne 1
Il 1
ch@@ 1
avec 1
l 1
elle 1
és 1
La 1
it 1
: 1
r@@ 1
e 1
on 0.7085590073491815
qu@@ 1
d 1
m@@ 1
ce 1
plus 1
re 1
f@@ 1
t@@ 1
C@@ 1
in@@ 1
S@@ 0.8370974523741572
sont 1
ale 1
is@@ 1
En 1
par@@ 1
ère 1
L@@ 1
ac@@ 1
P@@ 1
t 0.8095353918807748
ques 1
is 0.5778657695443714
b@@ 1
ou 1
g@@ 1
ité 1
ées 1
été 1
age 1
Les 1
tr@@ 1
sa 1
ér@@ 1
o@@ 1
y 0.38307344375096924
in 0.164969023768328
D@@ 0.9005722556339325
n@@ 0.9381749187451415
« 1
d@@ 1
aire 1
» 1
on@@ 1
el 0.501375446238372
di@@ 1
ue 1
pr@@ 1
ine 1
en@@ 0.8616187428531906
tion 1
l@@ 1
ag@@ 1
qu&apos; 1
B@@ 0.8560110115043349
G@@ 0.984507097482787
A@@ 1
ses 1
ont 1
ur@@ 1
è@@ 1
R@@ 0.8645443773576326
u 1
s&apos; 1
ou@@ 1
N@@ 0.9912547695119425
ul@@ 1
i 1
li@@ 1
T@@ 0.8636478669308302
ti@@ 1
or@@ 1
F@@ 0.8635110350164799
M@@ 0.8336557903657726
ar@@ 0.955893818843504
au@@ 1
al 0.5271541256194185
h@@ 0.8807732189172651
at 0.6561185692391881
ait 1
comme 1
im@@ 1
si@@ 1
c 1
me 1
con@@ 1
gr@@ 1
an 0.3838887435648855
deux 1
tes 1
a@@ 1
ations 1
L&apos; 1
ét@@ 1
ons 1
tre 1
an@@ 0.9536056419836374
it@@ 1
us 1
ite 1
al@@ 0.8113822043693112
onn@@ 1
av@@ 1
am@@ 1
ent@@ 1
i@@ 1
ex@@ 1
u@@ 1
pas 1
eur 1
us@@ 1
V@@ 1
vo@@ 1
at@@ 1
j@@ 1
ab@@ 1
y@@ 0.9651401074563568
mo@@ 1
ers 0.9366723916470368
ap@@ 1
e@@ 0.6807672282185737
él@@ 1
fait 1
mais 1
éri@@ 1
ire 1
H@@ 0.6427406816492435
po@@ 1
che 1
ic@@ 1
ence 1
; 0.731102827699499
se@@ 1
entre 1
ents 1
Ch@@ 1
ass@@ 1
én@@ 1
ouv@@ 1
E@@ 0.7168401426921052
ma@@ 1
ens 1
tions 1
Elle 1
ise 1
ph@@ 1
sous 1
ter@@ 1
leur 1
ces 1
ê@@ 1
cette 1
ts 1
as@@ 0.8587343655551548
enne 1
ci@@ 1
ans 1
ance 1
op@@ 1
er@@ 0.46499506936088764
id@@ 1
É@@ 1
pl@@ 1
ill@@ 1
ro@@ 1
&apos; 0.9033275613533459
om@@ 1
pro@@ 1
J@@ 0.9919713218107586
ique 1
pré@@ 1
vi@@ 1
dis@@ 1
être 1
teur 1
mé@@ 1
com@@ 1
iss@@ 1
ig@@ 1
o 0.5053451542501354
ten@@ 1
ad@@ 0.6677414449733998
ure 1
mar@@ 1
même 1
ux 1
mon@@ 1
oc@@ 1
était 1
min@@ 1
déc@@ 1
lui 1
fi@@ 1
ri@@ 1
ol@@ 0.9611915108986736
n&apos; 1
O@@ 0.7890022869487506
es@@ 0.9143614021925918
ge 1
inter@@ 1
dont 1
après 1
ais 1
ir 1
fa@@ 1
co@@ 1
ta@@ 1
aires 1
ec@@ 1
% 1
end@@ 1
x 1
pi@@ 1
pe 1
té 1
où 1
comp@@ 1
I@@ 0.817091055263807
â@@ 1
ères 1
elles 1
ot@@ 0.9850386666101588
également 1
per@@ 1
la@@ 1
commune 1
ales 1
France 1
ants 1
vers 1
ville 1
pos@@ 1
puis 1
K@@ 0.5144779948933023
fois 1
ra@@ 1
aine 1
ur 1
contre 1
lo@@ 1
ég@@ 1
Mar@@ 1
alors 1
mes 1
z@@ 0.5607114771304957
ille 1
em@@ 0.8276800291447229
aussi 1
autres 1
gu@@ 1
né 1
cré@@ 1
év@@ 1
su@@ 1
cr@@ 1
nom 1
ainsi 1
Saint 1
ès 1
le@@ 0.5495273929687366
ati@@ 1
os@@ 1
jou@@ 1
ï@@ 1
to@@ 1
ve 0.6422474945498386
ante 1
ion 1
bi@@ 1
partie 1
br@@ 0.9897266605442179
cor@@ 1
its 0.8709479639589459
ver@@ 0.5435047386653886
un@@ 0.5284328690252446
il@@ 0.8212547026091749
nes 1
premier 1
fut 1
cu@@ 1
th@@ 0.548531223254065
ir@@ 1
ni@@ 1
première 1
x@@ 1
ren@@ 1
use 1
able 1
eurs 1
no@@ 1
rem@@ 1
ach@@ 1
2 0.7580289362940721
sou@@ 1
el@@ 0.49129860662675673
sa@@ 1
agne 1
ages 1
af@@ 1
st@@ 0.34223079871624257
and 0.06552285744290343
et@@ 0.7269369110277685
ign@@ 1
Al@@ 0.9191463552456036
lors 1
À 1
res 1
tra@@ 1
W@@ 0.40587326127518736
n 0.5754237105141256
inc@@ 1
contr@@ 1
man@@ 1
as 0.1585645877888194
for@@ 1
suiv@@ 1
ut@@ 1
1 0.6588611046169136
années 1
all@@ 1
car@@ 1
ils 1
ang@@ 1
ter 0.5843310615814601
fin@@ 1
port@@ 1
ires 1
sur@@ 1
peut 1
iste 1
ô@@ 1
att@@ 1
acc@@ 1
ture 1
urs 1
ice 1
eau 1
cer@@ 1
alement 1
avant 1
ve@@ 1
groupe 1
ins 1
ain 1
our 1
trois 1
î@@ 1
ats 1
tout 1
cons@@ 1
entr@@ 1
ob@@ 1
tique 1
aient 1
tant 1
ment 1
ser@@ 1
os 0.4170851110345043
depuis 1
f 1
rel@@ 1
cours 1
sec@@ 1
eux 1
sol@@ 1
res@@ 0.8813838875568963
Con@@ 1
sor@@ 1
ven@@ 1
ements 1
sé@@ 1
enti@@ 1
k@@ 0.3140820936440329
U@@ 0.8250757117499056
ison 1
sion 1
temps 1
rap@@ 1
fr@@ 1
tionn@@ 1
plusieurs 1
ard 1
conn@@ 1
fin 1
mus@@ 1
so@@ 1
3 0.7376308713235193
Cette 1
ile 1
commun@@ 1
vol@@ 1
très 1
Dans 1
tri@@ 1
ente 1
ain@@ 1
ém@@ 1
élec@@ 1
Ré@@ 1
ème 1
ess@@ 1
arr@@ 1
um@@ 0.6863886861938682
ités 1
du@@ 1
utilis@@ 1
porte 1
des@@ 1
Com@@ 1
cl@@ 1
part 1
port 1
ateur 1
rec@@ 1
cour@@ 1
jusqu&apos; 1
col@@ 1
r 1
trans@@ 1
Ar@@ 0.8902853764154395
alis@@ 1
els 1
ann@@ 1
leurs 1
ç@@ 1
appar@@ 1
dem@@ 1
pu@@ 1
ev@@ 0.8556060035072567
Car@@ 1
année 1
/ 0.6054415105944229
cou@@ 1
Z@@ 0.6428046024448717
ant@@ 1
- 0.6753687180316157
sans 1
ord@@ 1
avoir 1
men@@ 1
por@@ 1
An@@ 0.7235890863213776
Paris 1
17@@ 1
compos@@ 1
aî@@ 1
pass@@ 1
gi@@ 1
mort 1
Jean 1
avait 1
place 1
trav@@ 1
4 0.7346347276580979
français 1
coll@@ 1
z 0.668581749213927
De 1
ène 1
Qu@@ 1
int@@ 1
endant 1
gen@@ 0.8608529114788627
or 0.23100655080173793
ff@@ 1
tu@@ 1
ju@@ 1
notamment 1
est@@ 0.6532533600738043
ar 0.2937787887199603
moins 1
parti@@ 1
famille 1
ellement 1
réalis@@ 1
suite 1
mat@@ 1
tres 1
pes 1
5 0.6719774738844002
and@@ 0.8465736865339276
Ce 1
lan@@ 1
alité 1
mi@@ 1
de@@ 0.5064862547170281
bo@@ 1
ne@@ 0.78831959425543
faire 1
ade 1
In@@ 0.7298492133895266
vis@@ 1
forme 1
Au 1
cul@@ 1
monde 1
plac@@ 1
donn@@ 1
né@@ 1
sc@@ 1
ors 1
eu 1
princip@@ 1
k 0.3945062303588964
ond@@ 1
te@@ 0.7181400402119623
saison 1
éd@@ 1
équipe 1
rom@@ 1
publi@@ 1
bl@@ 1
différ@@ 1
Après 1
dev@@ 1
esse 1
iv@@ 1
prés@@ 1
Mon@@ 1
peti@@ 1
lar@@ 1
ection 1
ru@@ 1
isme 1
anc@@ 1
sud 1
éro@@ 1
sup@@ 1
Y@@ 0.8508971859542095
ets 1
lieu 1
ête 1
ie@@ 1
6 0.7623521552869791
og@@ 1
pays 1
hi@@ 1
nord 1
onne 1
Par@@ 1
L 1
dou@@ 1
De@@ 1
rés@@ 1
trouve 1
pendant 1
agn@@ 1
ult@@ 1
eff@@ 1
ines 1
die 0.13775453700295873
ces@@ 1
Bo@@ 1
Biographie 1
autre 1
um 0.4337252603896331
ci 1
ains 1
ili@@ 1
partir 1
États 1
grand 1
Une 1
région 1
can@@ 1
produ@@ 1
titre 1
non 1
ies 1
chan@@ 1
ures 1
bien 1
tro@@ 1
devient 1
qu 1
peu 1
je@@ 1
18@@ 0.9322613733071439
ette 1
endre 1
fem@@ 1
Br@@ 0.784194998088165
ba@@ 1
&amp; 0.7613913967291087
û@@ 1
loc@@ 1
Un 1
ace 1
antes 1
film 1
génér@@ 1
position 1
form@@ 1
ège 1
teurs 1
A 0.45098007636781356
uses 1
ande 1
crit 1
pol@@ 1
nom@@ 1
pour@@ 1
Tr@@ 0.7174406324651511
thé@@ 1
ep@@ 0.8477405708157479
cô@@ 1
tou@@ 1
vie 1
éc@@ 1
cri@@ 1
w@@ 0.19162025103428545
bat@@ 1
guerre 1
quatre 1
près 1
soit 1
nationale 1
ches 1
bas@@ 1
ennes 1
sig@@ 1
aut@@ 1
ais@@ 1
enc@@ 1
16@@ 0.9987552922614729
prot@@ 1
ences 1
C&apos; 1
ran@@ 1
ra 1
étu@@ 1
encore 1
dr@@ 1
anci@@ 1
ia 0.42866821862223864
aut 1
iti@@ 1
ner 0.9314787004230395
do@@ 0.8434620611925452
app@@ 1
nouveau 1
face 1
aur@@ 1
dic@@ 1
istes 1
ing 0.08060099247873721
personn@@ 1
œ@@ 1
p 0.5572976479011857
arti@@ 1
h 0.46640530639176075
Son 1
fonc@@ 1
diff@@ 1
embre 1
voir 1
val@@ 1
direc@@ 1
ym@@ 1
général 1
ligne 1
tous 1
prend 1
bre 1
vic@@ 1
ali@@ 1
politique 1
mission 1
isti@@ 1
constitu@@ 1
entes 1
amb@@ 1
are 0.2810431637000744
représent@@ 1
Gr@@ 1
série 1
Gu@@ 1
ables 1
fer@@ 1
emp@@ 1
ix 1
si 1
fé@@ 1
fond@@ 1
gar@@ 1
fon@@ 1
C 1
neur 1
ins@@ 1
tient 1
ret@@ 1
ens@@ 0.7712858365564149
lu@@ 1
tour@@ 1
dom@@ 1
hom@@ 1
début 1
Ro@@ 1
isse 1
ous 0.7333969814536236
ut 1
ell@@ 0.765991740021822
end 0.8134050448187975
érieur 1
située 1
uni@@ 1
ologie 1
celle 1
Unis 1
soci@@ 1
Di@@ 0.9495358846249137
ouver@@ 1
uc@@ 1
constru@@ 1
mor@@ 1
7 0.6863887063527143
isation 1
rou@@ 1
gl@@ 1
anti@@ 1
fil@@ 1
État 1
emb@@ 1
dro@@ 1
ing@@ 0.7809773733303867
Pl@@ 1
cro@@ 1
ton 0.918791989950859
ature 1
mis@@ 1
ein@@ 0.4913084085289103
éch@@ 1
nombre 1
tis@@ 1
Co@@ 0.8296535047265038
isi@@ 1
ution 1
En@@ 1
esp@@ 1
Am@@ 1
ist@@ 0.7797072786348158
Th@@ 0.5752852878335333
one 0.31651523573060986
pose 1
ues 1
tard 1
celui 1
fils 1
française 1
class@@ 1
ov@@ 1
serv@@ 1
atique 1
liv@@ 1
grande 1
abor@@ 1
derni@@ 1
8 0.6788686069103559
aines 1
éli@@ 1
ites 1
eng@@ 0.7761643802593683
compr@@ 1
ath@@ 0.9491582895004538
club 1
ver 1
donc 1
selon 1
.@@ 0.48330294180880623
village 1
cel@@ 1
St@@ 0.47012196343922835
Cor@@ 1
ay@@ 0.7829205903458387
voy@@ 1
champi@@ 1
Pour 1
tel@@ 1
abl@@ 1
me@@ 0.4980455350521481
particu@@ 1
mis 1
ouest 1
histori@@ 1
On 0.8545670288109576
mi 1
appel@@ 1
mag@@ 1
album 1
équi@@ 1
élé@@ 1
histoire 1
sp@@ 0.5272786679430663
let@@ 1
m 0.309690308804362
be 0.30445537617920204
développ@@ 1
actu@@ 1
consid@@ 1
obj@@ 1
comm@@ 1
nouvelle 1
exp@@ 1
dit 1
ate 0.2880903087921408
marqu@@ 1
prise 1
met@@ 1
ges 1
pres@@ 0.7696914625714525
offici@@ 1
ici@@ 1
éré@@ 1
mal@@ 1
présente 1
pe@@ 0.9323528913139915
ast@@ 1
erre 1
3@@ 0.5898330632195944
tor@@ 1
lé@@ 1
ori@@ 1
oy@@ 1
Dé@@ 1
onde 1
Histoire 1
ensuite 1
quelques 1
cription 1
spéci@@ 1
tif 1
ologi@@ 1
person@@ 1
pas@@ 1
ède 1
ay 0.6156593100381287
département 1
centre 1
ong@@ 1
sep@@ 1
compte 1
père 1
ands 1
ti 1
15@@ 0.9128622057006948
deven@@ 1
allem@@ 1
hum@@ 1
activ@@ 1
ps 1
trou@@ 1
préc@@ 1
ble 1
c&apos; 1
président 1
éti@@ 1
époque 1
ète 1
tem@@ 1
deuxième 1
cin@@ 1
évol@@ 1
action 1
uv@@ 1
Ma@@ 1
étaient 1
journ@@ 1
ban@@ 1
ard@@ 1
cole 1
ayant 1
ateurs 1
milit@@ 1
lég@@ 1
dernier 1
cur@@ 1
population 1
conf@@ 1
fér@@ 1
inv@@ 1
universit@@ 1
particip@@ 1
situé 1
aille 1
fl@@ 0.8039724001243367
administr@@ 1
vient 1
Le@@ 0.6725594770886659
lier 1
étant 1
èrement 1
période 1
ole 1
2010 0.8760903083805276
Ang@@ 1
ce@@ 1
bar@@ 1
rég@@ 1
mot@@ 1
èrent 1
environ 1
cir@@ 1
ak@@ 0.37584920717777637
publique 1
Je@@ 1
étr@@ 1
pri@@ 1
semb@@ 1
ision 1
Pr@@ 0.8225935985225442
conse@@ 1
az@@ 0.8048100928574782
succ@@ 1
g 0.3319159882288756
roi 1
entre@@ 1
art 0.9446053739543472
9 0.6349817676394137
permet@@ 1
église 1
hu@@ 1
sions 1
nombreux 1
occup@@ 1
onnat 1
grap@@ 1
X@@ 1
nommé 1
cho@@ 1
jus@@ 1
ze 1
aj@@ 1
présent@@ 1
mois 1
car 1
seur 1
tour 1
ome 1
od@@ 0.6686008127521192
sal@@ 1
mes@@ 1
origine 1
sie 0.669865572524911
ber@@ 0.5545901500963009
amp 0.8849912594145857
déf@@ 1
aise 1
don@@ 1
of 0.021964565740503397
ma 1
Ils 1
ai@@ 1
4@@ 0.5973892434590462
he@@ 0.48974785799220516
épo@@ 1
gouvernement 1
ération 1
Ces 1
ai 1
cep@@ 1
am 0.2869978076043512
met 1
enn@@ 1
aff@@ 1
europé@@ 1
aît 1
ind@@ 1
Europe 1
I 0.5257536968205491
jour 1
ni 1
tains 1
Pierre 1
quement 1
dition 1
olog@@ 1
chez 1
êt 1
bâ@@ 1
seau 1
sit@@ 1
espèce 1
nav@@ 1
adi@@ 1
10 0.5658192224310076
service 1
ennent 1
concer@@ 1
meil@@ 1
ensemble 1
prim@@ 1
aume 1
médi@@ 1
Au@@ 1
Col@@ 1
oire 1
cinq 1
ta 0.5681364395479469
auté 1
mer 0.9929267202509164
tur@@ 0.6274564091327682
homme 1
ge@@ 0.4683061300419647
organis@@ 1
era 0.5788163315680956
vari@@ 1
ore 1
off@@ 0.7562990369658631
loi 1
til@@ 1
ones 1
fac@@ 0.9017061868823449
régi@@ 1
The 0.06727404110002122
chef 1
lin@@ 0.6953970931674621
cal@@ 1
ves 1
eaux 1
ative 0.9056742505950317
Ac@@ 1
F 1
der 0.04742343057511791
but@@ 1
ètres 1
istre 1
Or@@ 0.7345127749006543
permet 1
communes 1
not@@ 1
commer@@ 1
ailleurs 1
afin 1
Lo@@ 1
sy@@ 1
lev@@ 1
dur@@ 1
ense@@ 1
ancien 1
économ@@ 1
Louis 1
arm@@ 1
oir 1
ule 1
ote 1
site 1
2018 1
améric@@ 1
aus@@ 0.5271547085587689
ances 1
20 0.663232987379624
ax@@ 1
lang@@ 1
ed 0.0384523500680955
âteau 1
mas@@ 1
aliste 1
arch@@ 1
pou@@ 1
Bar@@ 0.9643018930613907
hui 1
connu 1
natur@@ 1
tex@@ 1
souvent 1
cad@@ 1
ane 1
équ@@ 1
centr@@ 1
log@@ 1
èle 1
reste 1
carrière 1
na 0.8570162749095663
dist@@ 1
quit@@ 1
Mo@@ 0.8272492762317701
indi@@ 1
née 1
sim@@ 1
sour@@ 1
ich@@ 0.6252518627226147
durant 1
cas 1
édi@@ 1
capit@@ 1
jeu 1
effet 1
sem@@ 1
tan@@ 1
èg@@ 1
armée 1
autor@@ 1
Ad@@ 0.7229270441851906
inté@@ 1
études 1
cat@@ 1
Nord 1
membre 1
identi@@ 1
coup 1
ôt 1
niveau 1
vers@@ 1
ah@@ 0.5746349984818303
recher@@ 1
S 0.8725577089322994
dér@@ 1
tement 1
Des@@ 1
imp@@ 1
public@@ 1
char@@ 1
termin@@ 1
enf@@ 1
ler 0.6856285275124275
rière 1
ple 1
doit 1
société 1
ler@@ 0.8632647400543779
ient 1
Bel@@ 1
bil@@ 0.9651448227236661
chang@@ 1
rue 1
lig@@ 1
pein@@ 1
ib@@ 0.879997753986501
inf@@ 1
5@@ 0.6002998625010458
For@@ 0.8044456673878054
rôle 1
compl@@ 1
ier 1
national 1
Po@@ 1
P 0.8100591294313929
membres 1
èmes 1
gé@@ 1
be@@ 0.2326848211424754
sub@@ 0.6368458456153507
ève 1
jours 1
El@@ 0.9233989461333035
if@@ 0.7063418381897438
pon@@ 1
Su@@ 1
peuvent 1
Sh@@ 0.6724486790971432
sera 1
lit@@ 1
américain 1
habitants 1
anim@@ 1
ographie 1
to 0.02947703513384482
tourn@@ 1
projet 1
proc@@ 1
Allem@@ 1
ol 1
chi@@ 1
Re@@ 0.35955461680661804
mise 1
chaque 1
amp@@ 1
E 0.9414628969345656
Mal@@ 1
va 1
ond 1
ini 1
D 0.7578688084263918
tim@@ 1
grou@@ 1
ari@@ 0.7356497182848925
eb@@ 0.36821610255659176
hie 1
èse 1
milli@@ 1
caractér@@ 1
œuvre 1
lors@@ 1
14@@ 0.9343440009013513
Cou@@ 1
Sa 1
put@@ 1
eur@@ 1
quel 1
âce 1
the 0.010129162598015638
Selon 1
iques 1
mondiale 1
point 1
popul@@ 1
bles 1
ame 1
territoire 1
gique 1
2@@ 0.5146880050149499
eure 1
hau@@ 1
cher 1
construction 1
troisième 1
ul 1
ition 1
sti@@ 1
isant 1
2011 0.7475301685543884
da 0.42077379594576314
mari@@ 1
conserv@@ 1
pend@@ 1
bor@@ 1
système 1
nu@@ 1
ail@@ 0.9155435982202421
formation 1
premiers 1
Ber@@ 0.8655662550757176
Pe@@ 1
rement 1
land@@ 1
Par 1
dès 1
ina 0.554146506840111
finale 1
atta@@ 1
exemple 1
sein 1
toujours 1
chap@@ 1
travail 1
Sud 1
Mais 1
angla@@ 1
1@@ 0.7058593936869503
base 1
2000 1
Ser@@ 0.8965052664673484
aissance 1
poste 1
droit 1
commen@@ 1
oph@@ 1
2014 0.7935135239512464
bourg 1
13@@ 0.9093248165280402
_ 0.8556811891739098
match 1
sin@@ 1
yp@@ 1
command@@ 1
aci@@ 0.9316805797526062
tin 1
viv@@ 1
N 1
nombre@@ 1
ectu@@ 1
prises 1
toute 1
découver@@ 1
oth@@ 1
erie 1
ac 1
obten@@ 1
aujour@@ 1
éré 1
ect@@ 1
Charles 1
man 0.4154689761978596
arg@@ 1
M 0.841090159919999
Ver@@ 0.28944102600656846
chev@@ 1
ch 0.3417712590324111
agric@@ 1
ois 1
enfants 1
Guerre 1
production 1
mod@@ 1
tom@@ 1
inst@@ 1
w 0.29099750982074274
lie 1
R 0.8440343687699324
nor@@ 0.9196264815583961
quelle 1
but 0.3328875206994665
cet 1
rest@@ 1
T 0.7942910322996417
mili@@ 1
Li@@ 0.9135763771186389
15 0.61370718136463
2015 0.775044103845719
plu@@ 1
2009 0.7755521688780846
itali@@ 1
long 1
coul@@ 1
Des 1
ment@@ 1
tures 1
situ@@ 1
ot 1
camp@@ 1
sign@@ 1
nouv@@ 1
artic@@ 1
ly@@ 1
│ 1
Lu@@ 1
iller 1
II 0.8885778331431444
six 1
der@@ 0.341040157139143
arri@@ 1
explo@@ 1
Bi@@ 1
positi@@ 1
B 0.7094135429499727
cap@@ 0.8180605840083769
As@@ 0.8592905432977593
titu@@ 1
New 0.46091258969559334
2008 0.7507770174223737
6@@ 0.5795730063431793
tel 1
tés 1
joint 1
auc@@ 1
fs 1
toire 1
co 0.6992658642003186
britanni@@ 1
Mor@@ 0.9832014715826615
version 1
fran@@ 1
isons 1
lam@@ 1
hy@@ 1
str@@ 0.38947676152118427
aill@@ 1
ano 0.6320603037483694
comb@@ 1
fur@@ 1
b 0.47484102766600905
som@@ 1
2012 0.7082383550727371
Be@@ 0.39164910671146674
ana 0.4453265345053536
cant@@ 1
tér@@ 1
type 1
progr@@ 1
tent 1
Esp@@ 1
nov@@ 1
tiv@@ 1
Grand 1
duc@@ 1
fe@@ 0.680665743462641
struc@@ 1
xe 1
ime 1
out 0.41792373557901136
tab@@ 1
rier 1
professi@@ 1
ad 0.287304343551512
priv@@ 1
province 1
mer@@ 0.5779262286252578
points 1
2013 0.7221036089135965
tain@@ 1
ports 1
fir@@ 1
per 0.8652626890154134
march@@ 1
bou@@ 1
contin@@ 1
mani@@ 1
partici@@ 1
eil 1
long@@ 1
ed@@ 0.22826591813192493
stat@@ 1
maj@@ 1
ug@@ 0.749798735502475
propri@@ 1
habit@@ 1
roy@@ 1
Marie 1
util@@ 1
2020 0.8622734239916667
tradi@@ 1
Mich@@ 1
ha@@ 1
pis@@ 1
import@@ 1
yen@@ 1
cle 1
12 0.5052003289810078
bres 1
Mont@@ 1
ép@@ 1
lib@@ 1
ides 1
– 0.14283737707868016
oni@@ 1
qui@@ 1
jeun@@ 1
qué 1
Af@@ 1
ub@@ 1
hô@@ 1
public 0.9543570026915059
Ou@@ 1
dis 1
vil@@ 1
Ex@@ 0.6821748039629036
onc@@ 1
tif@@ 1
To@@ 1
ço@@ 1
Char@@ 1
lie@@ 1
7@@ 0.575808012483483
irs 1
fic@@ 1
Sch@@ 0.23090377984211669
v 0.7423801518399448
st 0.334214966636338
relig@@ 1
fication 1
fort 1
yr@@ 1
vid@@ 1
Se@@ 0.4996273571945997
bu@@ 0.8465188176392048
vement 1
di 1
observ@@ 1
Paul 1
dirig@@ 1
ises 1
2016 0.680349713003796
archit@@ 1
ide 1
techni@@ 1
mont@@ 1
Mé@@ 1
Sal@@ 1
sort 1
eg@@ 0.22362489158333346
2007 0.7105359847319451
2017 0.7250672289967242
initi@@ 1
oles 1
esc@@ 1
route 1
nation@@ 1
tien 1
Per@@ 0.6767172203884029
ste 1
prom@@ 1
formula 0.8644834989650655
Man@@ 0.5882628702630259
9@@ 0.5932519684570364
once 1
12@@ 0.76708100709079
patr@@ 1
2006 0.7198915262866559
bel@@ 0.5263950631804054
arriv@@ 1
François 1
ka 0.9350026011101499
V 1
Her@@ 0.5855844048141723
associ@@ 1
football 1
Cl@@ 1
uss@@ 1
Vi@@ 1
up@@ 0.801233992472137
go@@ 0.48249797974389014
hon@@ 1
Pro@@ 0.8768809164250396
illes 1
zone 1
blan@@ 1
profes@@ 1
plan 1
son@@ 0.9715628622058942
vier 1
install@@ 1
time 0.33872560762291676
1990 1
ecture 1
eint 1
ony@@ 1
30 0.5666747213269165
temp@@ 1
clim@@ 1
plic@@ 1
pal@@ 1
rev@@ 1
origin@@ 1
Pal@@ 1
fo@@ 1
fron@@ 1
sh@@ 0.2564878261108507
Val@@ 1
lat@@ 0.8585300298102747
Ital@@ 1
bal@@ 1
rant 1
ase 0.7169922408672428
our@@ 1
chem@@ 1
iter 1
Sec@@ 1
act@@ 1
8@@ 0.5993021372266607
uel 1
quali@@ 1
exist@@ 1
part@@ 1
extr@@ 1
direction 1
ok@@ 0.45586963162347083
cher@@ 1
main@@ 1
syn@@ 1
lande 1
date 1
rique 1
Nor@@ 0.5265124604765342
John 0.6869179932774337
10@@ 0.577972450893232
abil@@ 1
jam@@ 1
lement 1
enant 1
éta@@ 1
sus 0.6244971952620487
num@@ 1
ick 0.6636440335113879
orie 1
phy@@ 1
Ren@@ 1
do 0.38685488644758514
ley 0.5826489777656157
espè@@ 1
yl@@ 1
aug@@ 1
Ab@@ 0.42317907387727505
aiss@@ 1
11 0.5132327319629403
pre 1
ustr@@ 1
gt 0.5404402529937936
ang 0.5626279824741409
mine 1
parti 1
14 0.5858250371205016
0,@@ 1
Lor@@ 1
charg@@ 1
ident 1
16 0.5631365016618479
division 1
tive 1
lit 1
prin@@ 1
2005 0.7665939393941932
champ@@ 1
beau@@ 1
Ir@@ 1
ible 1
registr@@ 1
2019 0.6578762224583795
liste 1
condu@@ 1
ë@@ 1
influ@@ 1
atif 1
territ@@ 1
ental 0.8125773084880121
corresp@@ 1
atr@@ 1
Sur 1
titul@@ 1
Rou@@ 1
ud@@ 0.721409279667442
18 0.5046837914988492
0 0.647718288703653
ho@@ 0.2200941451099481
jo@@ 1
phot@@ 1
ik@@ 0.4098174179138878
œuv@@ 1
tie 1
ense 1
Rus@@ 0.8166145000331159
tic@@ 0.6244969031127583
sist@@ 1
tot@@ 1
ographi@@ 1
occas@@ 1
aye 1
sons 1
Lig@@ 1
Conse@@ 1
ref@@ 1
rus@@ 1
York 0.6988918368492142
suc@@ 1
alit@@ 1
ôle 1
erg@@ 1
éo 1
Cr@@ 0.8667234197699683
çu 1
Union 1
neu@@ 1
Jacques 1
mom@@ 1
second 0.5938927710766178
mati@@ 1
international 1
sci@@ 1
fu@@ 0.989804687735533
Universit@@ 1
limit@@ 1
ef@@ 0.48114580891196757
yn@@ 1
autom@@ 1
classi@@ 1
13 0.5689241962858144
cont@@ 0.6661013477468455
viol@@ 1
aide 1
Cer@@ 1
atri@@ 1
by 0.0553051024294471
fer 0.8445829772694949
premi@@ 1
Is@@ 0.86447112745965
lon@@ 1
17 0.581190353040635
19 0.5698494617467167
25 0.5592113216351858
reg@@ 0.37255386078666874
ont@@ 1
50 0.7023029613568885
2004 0.7494038079146036
So@@ 0.6984930067172029
sav@@ 1
ric@@ 1
Gar@@ 1
pil@@ 1
existe 1
ien 0.6399740693445596
... 1
,@@ 1
monum@@ 1
pap@@ 1
aison 1
atives 1
Av@@ 1
Canada 1
moder@@ 1
Tou@@ 1
bur@@ 0.7817293250823416
alli@@ 1
Champi@@ 1
Sp@@ 0.4336598185088531
organ@@ 1
Dur@@ 1
urt 1
pay@@ 1
pan@@ 1
Mus@@ 0.8246213146915334
lt 0.6680457379093271
cit@@ 1
Bor@@ 1
iles 1
Tro@@ 1
Cas@@ 1
1999 0.9734990917506808
iz@@ 0.29389619734170636
prof@@ 1
lem@@ 1
style 1
ules 1
cli@@ 1
mé 1
eli@@ 1
gal@@ 1
Oc@@ 1
cause 1
cre@@ 0.3276942694071391
Str@@ 0.6402101864847505
yc@@ 1
ates 0.39822407503160523
suff@@ 1
iment 1
III 1
da@@ 1
Ne@@ 0.5002362934312138
ó@@ 0.3791191782118304
envir@@ 1
amm@@ 0.6891245709850712
Gi@@ 1
bert 1
Gal@@ 1
O 0.560433787738883
là 0.2908861551074347
appro@@ 0.9771541373392341
dec@@ 0.33866761432484854
Histori@@ 1
eti@@ 1
nou@@ 1
ange 1
tar@@ 0.6013097756178594
G 0.8324909390719897
probl@@ 1
pression 1
clas@@ 1
politi@@ 1
ades 1
cy@@ 1
bec 1
docum@@ 1
lo 0.3178605548933115
rati@@ 1
pen@@ 0.8867203870258382
ême 1
dispar@@ 1
lim@@ 1
chs 1
Parti 1
land 0.2578586131471149
Sain@@ 1
gén@@ 1
adap@@ 1
ez 1
aly@@ 1
les@@ 1
Fr@@ 0.5763080958778288
Me@@ 0.55182293929298
ays 1
tir@@ 1
40 0.7335957445298175
Nic@@ 1
clu@@ 1
destin@@ 1
mont 1
Roy@@ 1
sen@@ 0.6818535112420516
station 0.8135379650211273
Har@@ 0.7086984932265501
ic 0.20734260892566772
avi@@ 1
athol@@ 1
rain 1
péri@@ 1
prob@@ 1
pens@@ 1
idi@@ 1
He@@ 0.440105726789162
rac@@ 1
2002 0.7781704274130362
Cal@@ 1
rit@@ 0.8638971442316588
24 0.5801244341212842
candid@@ 1
concep@@ 1
Phili@@ 1
bre@@ 0.4839044216619147
important 1
tier 1
oug@@ 1
esti@@ 1
1998 0.979123455073125
jan@@ 1
uti@@ 0.8971759925552129
respons@@ 1
otte 1
ples 1
har@@ 0.7490816803026605
serve 1
inform@@ 1
ger 0.5241414275928216
possible 1
ple@@ 1
tru@@ 1
organisation 1
cultur@@ 1
vit@@ 1
colon@@ 1
nant 1
2003 0.7700375062591487
loy@@ 1
Robert 1
principal 1
sus@@ 1
1980 1
ey 0.6107356920712355
Mag@@ 0.9561820377640213
Tour 1
igu@@ 1
tre@@ 0.5545617834812374
Henri 1
ode 1
bour@@ 1
2001 0.7434849077506632
185@@ 0.8594956944558337
&#91; 0.4421030183972101
Fin@@ 0.9188858452589065
ino 0.5535861958903436
aband@@ 1
tho@@ 1
int 1
cas@@ 0.49580068682149925
-@@ 0.8900284064223626
&#93; 0.43788225449361273
Tur@@ 0.7210812677339989
! 0.7488521124696406
° 1
ativ@@ 1
scienti@@ 1
ouvent 1
H 1
ques@@ 1
ave@@ 1
Pu@@ 1
mu@@ 0.7783678790428188
aque 1
grandes 1
= 0.6786546631353256
main 0.8236619319766645
Joseph 1
retr@@ 1
io 0.5583733609670413
ah 0.8053105882378617
cip@@ 1
itu@@ 1
court 1
plan@@ 1
vice 1
municipal@@ 1
course 1
abri@@ 1
insi 1
Por@@ 1
municip@@ 1
Londres 1
ong 0.549555031141982
em 0.5199741482500881
ica 0.2933044863322769
21 0.5301046592173752
ty@@ 1
urn@@ 1
pul@@ 1
1970 1
Japon 1
industri@@ 1
culture 1
all 0.1623892458758787
japon@@ 1
ich 0.43472142962819654
ges@@ 0.5553043904717108
vention 1
ski 1
im 0.08068377359774968
fle@@ 1
vu 1
ume 1
tent@@ 1
occ@@ 1
orient@@ 1
cer 1
iche 1
2021 0.6698818843323234
ext@@ 1
hor@@ 0.9636048355251877
ak 0.4689188178274617
program@@ 1
district 1
id 0.40726001017342817
Geor@@ 1
bli@@ 1
dens@@ 1
bon 1
Bou@@ 1
restaur@@ 1
U 0.642318807554631
produc@@ 0.5641116907098936
anger 1
thi@@ 1
formes 1
importante 1
2,@@ 1
air@@ 0.41411228787294796
Bur@@ 0.5981280993497035
domin@@ 1
propos@@ 1
Fl@@ 0.6019532081768578
vir@@ 1
ager 1
services 1
urg@@ 1
Q@@ 0.9571251488560718
1950 1
Liste 1
nie 1
Fran@@ 0.8250703447647338
xim@@ 0.9616686740576565
adop@@ 1
Cro@@ 1
kilom@@ 1
quel@@ 1
tran@@ 1
fus@@ 1
Min@@ 0.5143834387954823
San 0.6130345995685609
Bru@@ 1
23 0.5698048790377669
Mat@@ 0.8674618418999924
mp@@ 1
Empire 1
22 0.5515335730622972
tir 1
films 1
á@@ 0.24429464067446896
és@@ 1
institu@@ 1
asse 1
itation 1
ppe 1
Grande 1
compar@@ 1
ys@@ 0.5776556977513069
Ger@@ 0.5088201572278942
vie@@ 0.8914773028799154
Soci@@ 1
modi@@ 1
Si 1
rie 1
aw@@ 0.32861649620263134
pel@@ 1
aqu@@ 1
berg 0.6369856525924196
isl@@ 1
estim@@ 1
Hau@@ 1
desc@@ 1
oh@@ 0.6477511192834164
Ph@@ 0.49321721158153625
Mos@@ 1
Jo@@ 0.978977171519591
bes 1
ya 0.3111379144211277
fut@@ 1
doc@@ 1
he 0.07519507090328711
Pol@@ 0.38266899123425985
mb@@ 1
su 0.14250464513532546
Go@@ 0.8114913632906374
Ste@@ 0.5954337718065251
aud 1
1,@@ 0.7404206401210391
179@@ 1
pa@@ 0.933616213626817
ami 1
ow@@ 0.31402203033432075
érie 1
Hol@@ 0.574628845944679
tain 0.5477279440019591
favor@@ 1
Premi@@ 1
sch@@ 0.10025622198200959
kh@@ 0.5121538455451108
tron@@ 1
Mad@@ 1
Pi@@ 1
forces 1
adém@@ 1
proj@@ 0.8458705611665102
sociation 1
ingt 1
Si@@ 0.6142938313682521
total 0.7945396571979942
dével@@ 1
conten@@ 1
eine 0.13565156152928226
bs 1
atur@@ 1
tribu@@ 1
culp@@ 1
Mil@@ 1
mand@@ 1
li 1
rent 1
Em@@ 0.9111915600339932
Ben@@ 1
Ri@@ 1
Arm@@ 1
Mer@@ 0.854857024615788
1960 1
alb@@ 1
ris@@ 1
alim@@ 1
ell 0.3364197413726218
Es@@ 0.8695822238775491
ela 1
fig@@ 1
issu@@ 0.8645174348196212
ov 1
FC 1
Laur@@ 1
terr@@ 1
onom@@ 1
air 0.9678911959994072
ige 0.5539270702795844
pris@@ 1
chin@@ 1
occu@@ 1
inspir@@ 1
lic@@ 1
Du@@ 1
large 0.7935461680236865
pot@@ 1
Andr@@ 1
Rh@@ 1
spor@@ 1
ama 0.5390278781507138
60 0.7436670075993465
? 1
del@@ 0.6136320830123776
etc. 1
ki 1
Prix 1
Can@@ 1
agement 1
jug@@ 1
… 1
oppos@@ 1
— 0.0770890841877972
jur@@ 1
No@@ 0.9140795668546746
1991 0.8803281788908769
signi@@ 1
Not@@ 1
fes@@ 1
Ros@@ 0.9848777572411681
usi@@ 1
Franç@@ 1
dat@@ 1
condi@@ 1
act 0.5487785263994137
ey@@ 0.778495774585539
usieurs 1
aller 1
26 0.5613268957064713
ami@@ 1
100 0.5397136905281258
idae 0.7622127509206933
Dr@@ 0.7971410887206485
Fo@@ 0.6993105452874171
riv@@ 1
idence 1
Chr@@ 0.9276811904956453
verse 1
sol 1
philos@@ 1
Bal@@ 0.8784253376942195
ern@@ 0.6633450755244119
ute 1
Rom@@ 0.9252754739757332
Clau@@ 1
anne 1
continu@@ 1
Syn@@ 1
th 0.10969574846641197
sac@@ 1
ara 0.7419306310663952
Fre@@ 0.39948611282290913
David 1
out@@ 0.639112372017556
Mc@@ 0.5959912366579682
Ed@@ 0.7746553870450965
bas 1
ards 0.6970486205824902
preu@@ 1
Centre 1
X 0.8730606503558395
Cam@@ 1
ital 0.6176025044601008
icul@@ 1
lab@@ 1
1997 0.78491898828218
astr@@ 1
dan@@ 1
Maur@@ 1
184@@ 0.8832590184126186
ices 1
dam@@ 0.888140169068717
force 1
80 0.8288132060689901
Mari@@ 1
ident@@ 1
1995 0.8137080704066462
acces@@ 1
Gen@@ 1
ï 1
1996 0.769906382634263
Bern@@ 1
tro 1
27 0.5445580781380911
trac@@ 1
rir 1
Lou@@ 1
28 0.5288752344310561
ger@@ 0.3290275048571083
alog@@ 1
prop@@ 0.5285881773922732
Del@@ 1
yen 1
libre 1
ros@@ 0.8993383394343566
artist@@ 1
Alexand@@ 1
ro 0.8246416953005616
nier 1
Sa@@ 1
manif@@ 1
Martin 1
Ju@@ 1
crit@@ 1
K 0.7191124806694192
resp@@ 1
bes@@ 0.4201471244351869
asti@@ 1
At@@ 0.7562377685652717
Bas@@ 0.7972482834435782
section 1
Austr@@ 1
Mas@@ 0.6873749156257698
odes 1
financi@@ 1
Sar@@ 1
multi@@ 1
ata 0.5485411467234926
000 0.45337987151400766
180@@ 1
az 1
Sol@@ 0.8588392216828349
omb@@ 1
tra 1
1992 0.7598932262215992
0@@ 0.5025591979495639
rich@@ 0.7042976474836005
tice 0.975057958416561
ider 1
ars 0.452428680122205
ordin@@ 1
cell@@ 1
plant@@ 1
plat@@ 0.9507406924624557
techn@@ 1
vin@@ 1
3,@@ 1
+ 0.9619762504896363
Bl@@ 0.6123199771378067
1994 0.7626913724365264
cop@@ 1
empl@@ 1
ingu@@ 1
den 0.040925489572479073
Beau@@ 1
grav@@ 1
yon 1
emper@@ 1
bus 1
tor 0.2525442410004146
Kar@@ 0.5655579821790907
Tor@@ 0.6761181319936619
Sou@@ 0.9037776769083264
Vo@@ 1
ave 0.4520863476760279
Vic@@ 1
her@@ 0.22721501768023075
hab@@ 0.722067730292587
ret 1
Sy@@ 0.7545151260060357
adu@@ 1
change 0.9938128333362113
yth@@ 1
van 1
tal@@ 0.8187411662517164
Wil@@ 0.6135929370621628
1981 1
ira 1
km 0.39434141933666894
Patr@@ 1
dipl@@ 1
dir@@ 1
Thomas 0.946609476302216
Er@@ 0.17979729089579363
figur@@ 1
Commun@@ 1
caract@@ 1
cos@@ 1
olas 1
capac@@ 1
ks 0.18586602394893337
Ur@@ 0.8170878457254701
ea 0.4710913816288904
no 0.1505215699800081
1993 0.766795843791521
ca 0.40605725917177066
onal 0.38653314376674136
om 0.4673544017818091
asp@@ 1
fici@@ 1
ek@@ 0.18263219399087735
bri@@ 0.7925944803416427
mol@@ 1
ans@@ 0.708465172041419
Comp@@ 1
90 0.843073510927945
sil@@ 0.9725520540902822
ly 0.07313224058582402
ena 0.49764816870304796
ect 0.25960115522094035
William 0.7219128539197118
sive 0.560886392930682
oi 1
proxim@@ 1
Fi@@ 0.8850870704127187
Juli@@ 1
Club 0.7977677681437391
excep@@ 1
29 0.527888781363655
contribu@@ 1
larg@@ 1
distribu@@ 1
pre@@ 0.2005001078282947
atin 1
Mac@@ 0.9471875587014444
uz@@ 0.7054056376412994
za 0.44136682440537367
Jus@@ 1
vel@@ 0.4815741902577995
ball 0.6955921539262553
aces 1
police 1
ords 0.9972592666635887
typ@@ 0.9891238257585866
ici 1
ani 0.8677354702385928
visi@@ 1
31 0.5580859526325576
cial 0.7209114401646257
1975 1
Ag@@ 0.9504835226510955
ek 0.35535514249818
alg@@ 1
mal 0.7299244789039508
dol@@ 1
1988 0.8501519159968134
ids 1
bran@@ 1
Vil@@ 1
illa 0.7082336602427255
Bro@@ 0.6267982431986354
eil@@ 1
comple@@ 0.7558561071477715
cla@@ 0.7650085569900816
recu@@ 1
sexu@@ 1
1971 1
xième 1
aves 1
zi@@ 0.4232169754931454
Institut 1
Ty@@ 1
Tri@@ 0.6794243843002546
four@@ 1
union 1
auto@@ 1
mit@@ 0.3438229396933116
ap 1
Ter@@ 0.898643941003013
ault 1
tion@@ 0.5141505123323007
70 0.7643371566537366
Ho@@ 0.5695742259605939
urg 1
35 0.765657245154045
syst@@ 1
Kr@@ 0.46595903777648673
ulation 1
nomin@@ 1
ape 1
ford 0.5535149491131696
raine 1
IV 1
ach 0.2050159906761797
dial 1
uk@@ 0.4551072040049859
Christ@@ 0.9052041732208961
major 0.6911679559999415
Fer@@ 1
James 0.7318043791634324
del 0.05487467625364988
von 0.04397028281265949
ł@@ 1
abr@@ 1
Entre 1
principales 1
George 0.7402441055800706
azine 1
20@@ 0.45253632484097056
expres@@ 1
Inter@@ 0.48793153636939934
atis@@ 1
ache 1
q 1
Sam@@ 0.9487139565462248
we@@ 0.11843419480853976
via 1
fen@@ 1
uf@@ 0.4159671051441844
lis 1
1989 0.7423087338296803
Franc@@ 1
mil@@ 0.7186938295013259
contempor@@ 1
ala 0.643956716364768
este 0.43110047063608953
ari 1
Sav@@ 1
oblig@@ 1
lec@@ 1
ums 0.6292360272154494
Den@@ 0.860521723153278
instrum@@ 1
uch@@ 0.4190822529094952
inal 0.6811213699229424
vas@@ 1
Cap@@ 0.7046576630773416
adr@@ 1
wi@@ 0.4684011831501434
Cel@@ 1
conv@@ 1
ron@@ 1
veau 1
minut@@ 1
vill@@ 1
Premier 1
rup@@ 1
div@@ 1
disput@@ 1
ke 0.28363520024866334
Bri@@ 1
amment 1
pp@@ 0.316452938910883
mir@@ 1
former 0.45050483618357795
assist@@ 1
ker 0.3893328515914696
mann 0.5997334268819865
ses@@ 1
eh@@ 0.1430411326389522
ani@@ 0.8851840297203931
bul@@ 1
alle 0.9284123330639041
versi@@ 0.7738801715267357
times 0.563465919511969
opsis 1
uy@@ 0.9681479047437542
inaug@@ 1
ura 0.6691859199061516
ui 1
liber@@ 1
ort 0.6034991943169724
cent@@ 1
phe 1
ita 0.5077369599006223
ko 1
Pas@@ 1
ept@@ 1
Hu@@ 1
amo@@ 1
conc@@ 1
Berlin 0.7863476666517201
pat@@ 0.9308560327558918
cab@@ 0.8519505126040926
32 0.7714001294369095
ick@@ 0.27518451077397266
individ@@ 1
ague 0.7725903116586182
mig@@ 1
ario 0.4595867812692167
ex 1
We@@ 0.33951760165463735
enci@@ 0.8738064150228935
abe 1
Bat@@ 1
ser 0.47967390528709897
dig@@ 0.5174361226145004
mina 1
vot@@ 0.8342277504145899
je 1
quot@@ 1
clo@@ 0.8897668360368907
ares 0.7233806735856003
Richard 1
performan@@ 0.8318586550750213
las 0.08060687368064913
ble@@ 1
ye@@ 1
oto 1
Lib@@ 1
Ni@@ 1
bun@@ 1
lot 0.9893639137190325
Ori@@ 1
gre@@ 0.29670123428831974
ae 0.6972911145454466
mun@@ 0.8901740770558372
1986 0.7907684270154891
Mis@@ 0.7578499173214273
quar@@ 0.7863401046251693
mond 1
strat@@ 1
flu@@ 1
Bon@@ 1
Association 0.8215834546719315
Blan@@ 1
super@@ 0.8416237229842488
forc@@ 1
spec@@ 0.559816841087925
ds 0.30282492376665887
nam@@ 0.29508132986543906
ectiv@@ 1
ao 0.7377605871024621
aç@@ 1
crip@@ 0.8072947129990802
social 0.8184747613569093
intro@@ 1
Na@@ 1
Wal@@ 0.5541418917355427
ministr@@ 1
lov@@ 1
za@@ 1
anni@@ 1
Bu@@ 0.6094762056301702
agu@@ 0.9475364239488994
curr@@ 0.8328747324481905
Mi@@ 0.6770085670968434
Ét@@ 1
bus@@ 0.3987037837742159
Hy@@ 1
radi@@ 1
Dan@@ 0.943963955527226
onales 1
err@@ 0.5422674749933741
ha 0.33970071919820105
1984 0.7779592173360681
assi@@ 1
sel@@ 0.18890763824118684
4,@@ 1
Kh@@ 0.6661324280256266
í@@ 0.15600382783300026
Cat@@ 0.8370387881322545
record 0.6565931492575388
way 0.1816696832295357
Tar@@ 1
const@@ 1
Trans@@ 0.8232576974703772
ist 0.045749215853101544
concentr@@ 1
ida 0.4005408596409534
Hor@@ 0.7486261774180976
br 0.9857735872820608
hi 0.8124311864367572
Sur@@ 1
ox@@ 1
1987 0.7417299249024559
Cul@@ 1
mos@@ 1
1985 0.7596445663594799
ockey 1
central 0.9312308083756028
don 1
caus@@ 0.6525700224360531
ous@@ 1
Mex@@ 1
Aut@@ 0.6982727821920249
lers 1
ry 0.519274987645512
pos 0.7866860452418355
33 0.8236242852739029
Ham@@ 0.9180273840219908
1930 1
tend@@ 1
Augus@@ 1
1968 0.8539523795743487
Gir@@ 1
j 0.8719618484460028
ça 1
ill 0.5055578238945178
Seine 1
lip@@ 1
36 0.8077161700772201
franç@@ 1
conqu@@ 1
ico 0.25334851865466107
dor@@ 1
inten@@ 1
single 0.46194322488026435
1945 0.6017407447132793
scor@@ 0.48292540703063597
Ann@@ 1
ki@@ 0.5502600086855978
ney 0.4935523076102904
ty 0.1613912608769312
Te@@ 0.39402017385239624
1940 0.9141929221163102
1982 0.7817481063526293
inn@@ 0.3079407418935219
prov@@ 0.7099269909748838
Gil@@ 1
Califor@@ 1
ots 0.8195320713180787
Sim@@ 0.9201497657405427
eu@@ 1
studio 1
National 0.2679835673694797
tig@@ 0.3285342221170048
famili@@ 0.741363756646866
Do@@ 0.7421584787267416
Hom@@ 1
Dou@@ 1
ok 0.4499640933135729
arc@@ 1
45 0.7375770923243021
Loc@@ 1
famil@@ 1
ja 0.44903000579392444
Royal 0.7213501908403521
200 0.6286478617895547
org@@ 1
Ap@@ 0.9897891264659078
Â@@ 1
Ban@@ 1
Nav@@ 0.6453992198641144
und@@ 0.1267658330496332
gouvern@@ 1
Anne 1
tric@@ 1
bon@@ 1
mau@@ 1
1983 0.7579481431602211
─ 1
erc@@ 1
ō 1
anti 1
ize 1
Sil@@ 0.7057044182524466
od 0.17278419087797142
Alg@@ 1
superficie 1
1972 0.7610773371130408
ez@@ 0.38395811872485136
Tour@@ 1
ust@@ 0.8949956595589713
spir@@ 1
ett@@ 0.7893336066379912
fab@@ 1
na@@ 1
sych@@ 1
Bre@@ 0.597943499384174
dia 0.8423124389500883
El 0.11304094083331687
radio 0.9612953554040997
vin 1
princi@@ 1
Os@@ 0.9761506320608121
M. 1
ts@@ 0.18816731750579635
Albert 1
ola 0.7311813469711459
ton@@ 1
und 0.015767630637651762
Un@@ 0.2386334366332468
J 0.9649451876866814
Pan@@ 0.8575195745728346
La@@ 0.8066734334187119
1973 0.7968494267663969
ster@@ 0.4348845288423333
cam@@ 0.7265100037056449
Op@@ 1
chr@@ 1
tin@@ 0.9508518028502227
apo@@ 0.5698445416193773
construc@@ 1
34 0.7738940403807841
odi@@ 1
mach@@ 0.8130950141117272
Vol@@ 0.788614723950508
information 1
guit@@ 1
til 1
38 0.7813485169575315
sil 1
1976 0.7673764106030866
see 0.5446198812529582
CA@@ 0.7573159998812268
1979 0.7359391433915272
nat@@ 1
imi@@ 1
Î@@ 1
voc@@ 0.6711077487559205
ko@@ 0.6133446150932852
1920 0.9347625637532545
Mel@@ 0.7237976595745379
1977 0.8108315952252559
ky 0.6204516520122294
ri 1
ary 0.09315071655872827
1974 0.7601250426235237
importantes 1
nati@@ 0.7694859967302811
Thi@@ 1
enter 1
ber 0.48305531768288923
als 0.04310173522131281
ther@@ 0.42100186897066016
ada 0.09539151776323465
37 0.7802485639675839
fol@@ 0.25335617438034813
side 0.23034974311063958
inclu@@ 0.546391235544911
ny 1
5,@@ 0.9685484738571465
clus@@ 1
promot@@ 0.7587808691950703
ba 0.7233549076933329
Ven@@ 1
Dev@@ 0.7371749811939051
1978 0.7508136493223773
Jan@@ 1
propor@@ 1
ier@@ 0.2447607384900318
Gre@@ 0.3517135904692303
Bos@@ 1
Fil@@ 0.8776761333295772
SS 1
vile 1
ack@@ 0.23039060261377053
Michael 0.7133978982930972
Festival 0.8887779637311509
ć 1
bro@@ 0.32191055612836567
tis 1
Rog@@ 1
û 1
Los 0.2796383548824044
q@@ 0.9351399334556134
75 0.7642871185648443
Bul@@ 0.7961783318980404
ora 0.42515318068279934
ram@@ 1
Mur@@ 0.7529629002790266
art@@ 0.6370176518132568
blo@@ 1
Henry 0.8566836019316264
Luc@@ 1
AS@@ 0.8573525760599401
hal@@ 0.36432303733636556
Ko@@ 0.8106186690382748
Ca@@ 1
ye 0.49030926827578786
esses 0.9256139207235915
C. 0.8897263982365542
ō@@ 1
simil@@ 1
stati@@ 1
iter@@ 1
perman@@ 1
fre@@ 0.19412309047316417
trad@@ 1
destr@@ 0.9261014869995909
Jac@@ 1
6,@@ 1
nuc@@ 1
Cin@@ 1
isi 1
tun@@ 1
1967 0.7853108243480268
Vill@@ 1
andes 1
Orig@@ 1
alm@@ 0.44887307381537667
agr@@ 1
so 0.14342102952583682
anth@@ 1
erry 1
local 0.36285207012447285
din@@ 0.8375091547258966
bit@@ 1
ilit@@ 1
Reg@@ 0.17959578132480108
tival 1
tag@@ 1
ali 0.9083604887136054
Gl@@ 0.5737905919426264
wa 0.4308732144684629
Cath@@ 1
sk@@ 0.3443786061845357
ories 0.6517084695579951
foot@@ 1
ings 0.15078108080325323
firm@@ 0.9405427857998496
Phil@@ 0.5952677176739355
Ra@@ 1
39 0.7915877340731448
7,@@ 1
Dom@@ 1
ement@@ 0.9637294231894832
nos 1
Hug@@ 1
ima 0.6630256420780964
ella 0.5033193602403387
Var@@ 1
1969 0.7368447807117662
Ge@@ 0.17409458458895413
Al 0.6084472421968412
ope 0.8013050300602289
š@@ 1
mix@@ 1
ji 1
sible 1
auf 0.061724538358422086
Ol@@ 0.9384241750920674
alt@@ 0.332755322017109
net 0.6524219716269188
tol@@ 1
ight 0.1352812858753225
fun@@ 0.44792628007072316
absol@@ 1
Direc@@ 0.8512732333725203
Amér@@ 1
Im@@ 0.548336983497619
hol@@ 0.38347274898238864
Ba@@ 1
bi 1
Atlan@@ 1
sent 0.8429998934384335
stein 0.6025064496206608
Grou@@ 1
eth@@ 0.7751661298533501
NGC 1
Hon@@ 0.7156951288150035
gro@@ 0.2805000691605861
idi 1
ambi@@ 1
Andre@@ 0.8064778940938453
ham 0.6039783912833643
audi@@ 1
combin@@ 0.8484754250696813
Ob@@ 0.6372997618203701
kl@@ 0.325990636716656
bot@@ 0.7353077380090841
Mol@@ 1
rock 0.8038117219340406
ols 0.44342451276223965
Lim@@ 1
On@@ 0.5227236456988719
1964 0.738250649543304
Tun@@ 1
sen 0.2735222321952529
poin@@ 1
W 0.47764211091837483
1962 0.8009189080853153
gh@@ 1
Daniel 1
ket 0.5344541752078756
Met@@ 0.6684638471948808
yst@@ 1
ster 0.30732421493553164
lob@@ 1
San@@ 0.6589913157296233
andi@@ 1
mut@@ 0.76122726454311
mul@@ 1
annes 1
19@@ 0.39918264296097467
1944 0.632312842429575
respectiv@@ 1
conver@@ 0.9291871006654617
Chap@@ 1
chi 1
Art 0.5852867531559243
Oli@@ 1
imin@@ 1
ish@@ 0.22833486122261332
1965 0.7343667705283287
8,@@ 1
Ti@@ 0.5356050179118967
ury 0.7261830953774521
if 0.40989174053102817
Ath@@ 0.8377945848601711
Sau@@ 1
City 0.27809463067204954
pur@@ 0.3315267402951049
1966 0.7388391964949151
senti@@ 1
Est@@ 0.33253947487594365
aud@@ 1
toral 1
Chi@@ 0.5501867527305684
eter 0.4599960764900197
Brit@@ 0.8979119114641302
Distribu@@ 1
Peter 0.6126854923513864
umin@@ 1
Portu@@ 1
Dis@@ 0.533094284985149
Anti@@ 1
Ha@@ 0.9679716652922749
IS@@ 0.9403122129857496
osp@@ 1
World 0.19663574256050662
Dor@@ 0.5018213667791052
asi@@ 0.40528991592580954
Ta@@ 0.8617949063954181
yo 0.663814230464715
Ot@@ 0.6989319916977802
abeth 1
lin 1
Lam@@ 1
itz 0.40084998888609613
Mir@@ 1
Pic@@ 1
Sor@@ 1
Flor@@ 1
zo 0.8421299615186931
Camp@@ 0.7137407048905658
isine 1
ES@@ 1
Hel@@ 0.7023820287350716
reti@@ 0.7474134082789287
ado 0.05233305258141362
sin 0.5804015759838356
verg@@ 1
Rec@@ 0.48207561357547674
Ram@@ 0.8362545889307039
expl@@ 0.6371276198707416
1939 0.6939752731075288
Sant@@ 1
nit@@ 1
á 0.28294860895699137
tific@@ 1
Ru@@ 0.731327745457483
que@@ 1
Maria 0.9618462086476436
test@@ 0.8286467322243689
tera 1
sing@@ 0.4373840956540968
Sc@@ 0.8823710572008473
ics 0.20155656513058137
asc@@ 1
fe 0.5396698883452
Jul@@ 1
Lang@@ 0.9518299964184826
Tom@@ 0.8878268033092649
1958 0.779165335630368
bin@@ 0.9599362937600922
Hal@@ 0.6595970099698577
Don@@ 1
Angeles 0.9318417009054083
dy 0.7052878709975279
Mah@@ 0.8200634753512466
of@@ 0.26637139255474584
Cy@@ 1
Mot@@ 0.5422223135655992
iger 0.4466692143018846
ili 1
tic 0.2366998416651531
Bol@@ 0.767244860346513
AR@@ 0.9267988060749112
ames 1
Ari@@ 1
Land 0.9862273163123264
&#124; 0.47397054849834486
elli 1
ith 0.6817206763038576
ä@@ 0.06997936427215046
Eur@@ 0.9049551815060397
Rob@@ 0.8828563569392377
1866 1
ail 0.7656349082090735
ham@@ 1
fas@@ 0.8568448551550314
den@@ 0.23844671073925522
500 0.5191903390375423
ys 0.6118922139198871
ota 0.5058721842281889
Lit@@ 0.8065717066850497
Pop@@ 1
nis 0.5683294965268317
eo 0.32739919690902125
yer 0.6978873717412452
Dar@@ 0.4409380018042972
conom@@ 1
Ale@@ 0.8743397017183188
ony 0.43008552586940996
89 1
1963 0.7219324571689761
old 0.1497216886269834
atre 0.8118937093824976
Ferr@@ 1
9,@@ 1
Pon@@ 1
ores 0.2449497565341461
stand@@ 0.285137473578909
due 0.32962197713923547
Nov@@ 0.9631156620568418
Aus@@ 0.1523866611274575
lav@@ 1
ograp@@ 1
ze@@ 0.27121666149522666
55 0.7737726244347515
ester 0.6455166670046684
War@@ 0.5033434150481055
ters 0.1738261782952907
Arts 0.8702443887096685
ón 0.15395410461476056
Organ@@ 0.7757861115776399
IN@@ 1
65 0.5625027428819435
pa 1
sat@@ 0.7450208198827035
Argent@@ 1
Mass@@ 0.8387071277061419
Harr@@ 0.7292184643753923
oni 1
1956 0.7250820494870993
Bau@@ 0.3964109906745279
go 0.29590685689378704
Liv@@ 1
var@@ 0.8521562029608825
1914 0.9451134069531184
diplom@@ 1
May@@ 0.8589797918661758
Division 0.45771842962673415
tu 1
48 0.7561415977569941
ert 0.1598736905900055
oll@@ 0.2658499303745982
64 0.6719999212318991
85 0.8363150886462722
Pa@@ 0.7007879756689434
Indi@@ 0.49427747015153134
1948 0.6945462541050265
gol@@ 0.7282948217243667
42 0.7717173576659521
ung 0.03864521676214169
International 0.33595903864999377
St 0.7369412814501534
A. 0.6039753388029693
Sci@@ 0.5375929297219229
Han@@ 0.7013105938975299
Dav@@ 0.7391949068856283
frag@@ 1
Wo@@ 0.4412777778581426
1946 0.6808021774075911
ori 1
aul@@ 1
individu@@ 0.9349253728549981
isa 1
Washington 0.5604909467508838
over 0.11694037094799775
Som@@ 0.5951405938207541
1961 0.7074661611658563
ö@@ 0.11490553296081908
Isra@@ 1
č@@ 1
amer@@ 0.9329311826376887
ack 0.1884734112045631
ory 0.12647914621211695
Gol@@ 0.6959835362566982
aborat@@ 1
Mun@@ 1
jour@@ 1
los 0.033040820083105556
Records 0.6867108297891423
polit@@ 1
ih@@ 0.3496930047904633
ff 0.646034750906698
line 0.1956984335401635
1959 0.7219295201754536
tempor@@ 0.900061924589231
awa 1
Lin@@ 0.45763966337490974
ash@@ 0.3901264303547719
sum@@ 0.39664805724888225
mess@@ 1
Bir@@ 0.6791881076114783
US 0.2467282341958751
ball@@ 0.6960037473277185
Gas@@ 1
Pres@@ 0.4294980185606658
ular@@ 0.5579484351712736
trop@@ 0.7533720224910968
Cre@@ 0.4627125229018194
exten@@ 0.6155544727237683
van@@ 1
Der@@ 0.9225665485355585
final 0.24660623865015907
ef 0.4741220241652184
signific@@ 0.5020654395783788
Van 1
aga 0.9079251405278874
ical 0.11587468601168872
1936 0.7513265007297617
gal 1
ona 0.43542676037005845
ato 0.38547487118887735
1947 0.7192431323957995
Rol@@ 0.6473768388716896
dici@@ 1
Bib@@ 1
José 0.7442176667116694
Wol@@ 0.5896663267313295
52 0.7937702340460485
Chicago 0.7542836890525109
och@@ 0.9780657677982801
Rich@@ 0.5097748083035638
Moh@@ 1
Wat@@ 0.6876599214261141
anes 1
opp@@ 0.7193676988482383
cy 0.693409503956877
Air 0.5591199672403107
traf@@ 1
dav@@ 0.879268271636866
Ern@@ 0.8664247895904093
Maz@@ 1
xi@@ 1
front 0.6683750577076736
44 0.6774453826090401
franc@@ 1
dan 0.5479938013702479
Christian 0.6216945530904521
istr@@ 0.5033828002430871
ling 0.3343072386940036
top@@ 1
eld 0.4759081633159489
Ke@@ 0.71202512773206
Res@@ 0.26420015631443106
1949 0.6816756283542564
ner@@ 0.3382509125220514
haus@@ 0.9764278385840942
Off@@ 0.4509067138789067
Far@@ 0.5511864876940672
active 0.6463935127536606
partic@@ 0.4053312807839702
1942 0.5906991158347016
cus@@ 0.5848815274503425
pin@@ 0.8284180729986816
Il@@ 0.9721016682577448
ca@@ 0.8868099604524008
1918 0.6973412405124395
Alli@@ 1
ello 0.678323769367678
ike 0.39005490897891504
wood 0.43382393808826963
Ay@@ 1
51 0.7998100406396159
agon@@ 0.9014686945427268
mit 0.03466905534326642
41 0.7743772634879527
ess 0.09169809327454087
retir@@ 1
ten 0.03539581639242747
ati 0.9239512136463943
Journ@@ 0.9394188720485399
ock 0.45265900017211935
ments 0.3917994675218097
oti@@ 0.7152899264095628
1957 0.6906554630231209
dam 1
1954 0.7092551018157777
47 0.7699432399028227
orial 0.5469284658382425
1943 0.5768252545027605
Pom@@ 1
00 0.4630669424849405
cal 0.4195463804439012
1938 0.6601745821271279
1955 0.711704571709366
aun@@ 1
Bay@@ 0.7066070428616147
ando 0.1263993674776992
versit@@ 1
kin 1
Ci@@ 0.42600067073751713
Vier@@ 1
anda 0.7198238187579766
san@@ 0.6662705546698109
for 0.013954507648093775
yal 1
Rev@@ 1
ame@@ 0.7313229729517479
ake 0.3957980094393642
Santa 0.6395690504737283
Politi@@ 0.808856276508813
oz@@ 0.9884595409851866
43 0.7950685243538385
get 0.4282671343515089
Domin@@ 1
Simon 1
1941 0.5248652864332427
estr@@ 0.2734562105130959
iro 0.9606042600931994
TV 0.33141323261345185
mac@@ 1
anz@@ 0.22895273008753814
72 0.8226464958839982
azz 1
Hab@@ 1
sang 1
the@@ 0.1294465225823249
Rap@@ 1
field 0.24879684359345533
Rod@@ 0.9070944586939992
ere 0.1442339653475314
1952 0.6763756742038604
68 0.8807869595289728
Ord@@ 1
syl@@ 0.8471757120139796
bu 0.5432769229186519
original 0.30823207906766226
rot@@ 0.619851859540955
ung@@ 0.18320983994371676
Madrid 0.9299910181106316
US@@ 0.5679218697239289
The@@ 0.20742414061334663
ific@@ 0.4859602105597228
ck 0.5806577809445607
Radio 0.7854133455456513
56 0.7955823721496748
Men@@ 0.7912932090485412
MS 1
1953 0.7014395221977331
Carol@@ 0.6954703006362429
Fam@@ 1
My@@ 0.8743975877515675
Œ@@ 1
2022 0.6909885980126497
88 0.838593332137769
College 0.27806594877919394
yle 0.8800092274062229
Son@@ 0.5796770215706497
League 0.20719309966377844
atom@@ 1
53 0.7848752203204136
Cur@@ 0.5994552955476041
dal@@ 1
lead@@ 0.22156266046881126
Tok@@ 1
ister 0.20620053051071988
ero 0.26104720050611563
ington 0.5234953134404955
ão 0.9051373366656713
25@@ 0.28986986837921824
enz@@ 0.2725486231850415
Park 0.3389215621836851
uri 0.8459864465619503
ā@@ 0.6077405568286206
indic@@ 0.6276556402155122
Ul@@ 0.6629328127029595
66 0.8186888617946
ava 0.8640009727457694
yg@@ 1
asi 1
1937 0.6905387345061372
ras@@ 0.994234126041826
Neu@@ 0.8717924588700721
AC 1
orig@@ 1
ties 0.11761714638422172
emi 1
dez 1
ongo 1
46 0.7595511426127308
Blo@@ 1
58 0.8002452131983809
63 0.8266909029481333
54 0.7502619458263557
national@@ 0.6591273121275396
ose 0.8996791350852924
transfer@@ 0.8691615310980395
1933 0.6601009963404177
ban 0.45387983578360996
J. 0.6558089607080143
49 0.7642171743946489
Clar@@ 0.7210639903399065
24@@ 0.41575369389384376
Gran@@ 0.7806598552924084
Sto@@ 0.5988751169634096
RA@@ 0.8707045088219191
eds 0.5712165492037667
Math@@ 1
1919 0.691713765392879
62 0.7928385564558745
lis@@ 1
Constitu@@ 1
shire 0.496419960190359
ech@@ 0.23344248356910996
Pau@@ 1
77 0.8391450333267716
AT@@ 0.7080522633365188
istan 0.6639963823049149
Arthur 1
61 0.8326610128993283
univers@@ 1
relati@@ 0.4689336272834578
Joh@@ 0.6900710378690492
ium 0.7465090772175789
tut@@ 0.8088675068100402
ective 0.4720245529536026
Gor@@ 1
1951 0.6978721789241554
Bil@@ 0.397900541449847
visit@@ 0.8947244953764949
Fern@@ 0.4483998067360995
86 0.7980519773727934
requ@@ 0.49987930584595924
ip@@ 0.6102707162384555
57 0.7843428592703027
Doc@@ 0.9349843574195418
Gro@@ 0.5302967837137298
ensis 0.8038597814737719
Eng@@ 0.5463962604646536
Barcel@@ 1
ke@@ 0.20895759256596594
1935 0.7144399601332504
alien 1
uli@@ 1
78 0.8050653136295147
Mit@@ 0.32880857424746124
67 0.8246420024769643
aka 0.775615625715653
Stan@@ 0.9996223185965077
Stu@@ 0.3881243214974609
Ind@@ 0.5990916058446403
Ly@@ 0.9904963956454341
59 0.815172730242868
Prin@@ 1
Lar@@ 1
Francisco 0.6165110884113963
alif@@ 0.5974173706264342
CD 0.7377379737214622
Roc@@ 0.7462856075032959
dos 0.18704508624959565
rez 1
76 0.7729676949378407
len 0.2003441931814439
ev 1
join@@ 1
74 0.8323469412781225
Kir@@ 0.35747791182593097
1929 0.7172027863288538
nh@@ 0.18069760086739847
Alfre@@ 1
Arch@@ 0.631288300015022
igh@@ 0.15493397021217487
ament 0.5289372549341033
vet@@ 1
ash 0.6202120926174448
Bus@@ 0.4918165309955326
vor@@ 0.14893873061184879
95 0.7522493957077798
1934 0.7020431529106492
87 0.8307405603854158
84 0.8121662655154827
phil@@ 1
CO@@ 0.8499523086877581
Uni@@ 0.6103258121849308
ga 0.5121828995610145
my 0.48009988431352146
Ker@@ 0.918636134158854
It@@ 0.3777265093458454
osa 0.3961503152396026
men 0.11323928290044653
ito 0.29061715090048973
exper@@ 0.5240663610083561
eta 0.4376153195325717
1932 0.7400478617778423
adol@@ 1
300 0.6145442306645604
cha 0.30885203704479386
├ 1
AD@@ 1
1900 0.8338996030481183
ab 0.15974443510702493
Nati@@ 0.8853091877559536
ua 0.5230185678106102
Disney 1
Fac@@ 0.657344926243589
seud@@ 1
Mes@@ 1
septi@@ 1
AS 1
âte@@ 1
con 0.037801071282158615
mir 1
vern@@ 1
82 0.8016236409843392
Mul@@ 0.8693461838607462
iy@@ 0.48820641210725985
cens@@ 0.5512229903842114
musical 0.6453751468108515
sk 1
bit 1
Rel@@ 0.4788571333746429
Lev@@ 0.9664005669428605
án 0.18509138107765355
dium 1
71 0.7947544824986824
ova 1
jum@@ 1
CE@@ 0.9812494239455635
sab@@ 1
bach 0.4835555632155417
1928 0.6862691084336936
83 0.7935105334225604
ost@@ 0.6803809564777242
tam@@ 0.5773172251303939
81 0.8009619693382021
una 0.03621009794229423
Smith 0.5880530772722997
kar@@ 0.37917249450348295
School 0.16973764146970702
ator@@ 1
Land@@ 0.2047575298715638
400 0.6548772839350193
cus 1
format 1
Syst@@ 1
hist@@ 1
Pri@@ 0.29187039461673625
aki 0.7553963805091274
race 0.5007046841438149
dio 0.3895589339882826
1924 0.726797412567658
ince 0.31656713203344417
73 0.8237161218657633
1910 0.8075644234235608
ast 0.10892367867047398
PS 1
aceae 0.7672050182892233
69 0.8137208303441472
provin@@ 1
Hum@@ 0.5743736813190078
26@@ 0.43243774801687623
ost 0.1437795033661742
ila 0.624753300342204
fam@@ 0.5647226761895128
embar@@ 1
cru@@ 0.6695129933462654
Juan 0.5518764707182625
ws 0.12907409827026542
Pot@@ 0.8893817144884494
Hi@@ 0.489587384873159
Maj@@ 0.6141446834408681
Wi@@ 0.325997992362464
Nik@@ 0.9256062349300471
san 1
Produc@@ 0.69565535058215
Prot@@ 0.4985297764253566
SC 1
qua 0.9941801966570895
acu@@ 1
Pap@@ 0.619192109174785
usa 1
01 0.7267278170018082
Pin@@ 0.9793075997899287
sel 0.4667723846750367
len@@ 0.2895385307662434
Antonio 0.8369945139918148
imb@@ 0.8994462921497958
Lan@@ 0.9953373669803042
Wor@@ 0.31644574090097044
ship 0.12774950871685117
Conn@@ 0.7192149364121945
alternati@@ 1
1870 1
Super 0.8286408066405482
Music 0.3799277769376307
UN@@ 0.8871935019645465
New@@ 0.4787102584300708
ects 0.21651424219318438
ian 0.18489127623684573
anga 1
ons@@ 0.20811692140473065
stant@@ 1
1925 0.7276451642349101
79 0.809966993367795
lor@@ 1
ingen 0.2607757935265709
Air@@ 0.4188160384131657
partement 1
idente 1
ief 0.45636462626981655
endi@@ 0.663030046163538
mondi@@ 1
Rem@@ 1
spé@@ 1
ku@@ 0.29464326791470796
1912 0.732030890332868
po 0.3718996398291335
aro 1
civil 0.7451095365588651
1931 0.7039736697380795
mur@@ 0.4439461042951069
bom@@ 1
ity 0.05332887138872863
adel@@ 0.6685865584408931
Dre@@ 0.38750985722045145
hosp@@ 0.6321547134885348
Barr@@ 1
Kon@@ 0.15975978852011133
SA 1
ik 0.2507347950048362
Bab@@ 0.8853569434538774
icro@@ 1
Jos@@ 1
Sab@@ 0.8269951736124919
ald 0.8184753024222832
30@@ 0.3661460859721832
ele 0.22187383768629323
ander 0.7254940109923599
ene 0.10825152693862743
zi 1
Tre@@ 0.4032983684332265
Cu@@ 0.5979607745226259
Az@@ 0.8968748466619283
Lab@@ 0.574090357400416
solo 0.41773764302359534
tus 1
tec@@ 1
Texas 0.5178235091845579
Lee 0.7030327670026282
Max 1
ü@@ 0.08587596021657184
ann 0.6907189907670136
Kur@@ 0.325504442214615
Dem@@ 0.36676192171521543
1921 0.7000801231357892
ube 1
1926 0.6852926560313307
United 0.09866044745210635
ath 0.30150673984366483
ortho@@ 1
Ali@@ 1
antas@@ 1
1922 0.6893872456242611
FI@@ 0.9865352402560588
West 0.223695309423334
yn 0.8644263202814803
Hen@@ 1
AC@@ 0.7925410492479713
aco 1
tari@@ 1
can 0.09906133334987183
American 0.1001910257841205
ine@@ 0.3693747949770655
Fri@@ 0.7626292807426415
Bes@@ 0.2813165130666457
Football 0.4972999908491692
Super@@ 0.6350964717415541
Sing@@ 0.328791694292427
All@@ 0.5098616321185213
Saison 0.4531291191127458
Ben 1
Jack 0.8392628227854748
Hil@@ 0.556859046563861
Mary 0.5395246753592529
ish 0.07142820228249343
Fe@@ 0.42425262047479506
Force 0.6213788608716958
war@@ 0.1489306567012469
enta 0.46488675953028
92 0.7943469610186445
Ah@@ 0.7923384592333435
Tal@@ 0.6515654941394459
1917 0.6149534248307403
Plan@@ 0.6672699755127127
ord 0.8281798146078704
Tom 0.891735816408064
Eri@@ 0.8547345359870958
99 0.7210277037930364
sw@@ 0.296015752937045
* 0.17467962148624155
1927 0.6677296339633247
zy@@ 0.9044353337430656
Que@@ 0.3310633166703463
gul@@ 1
Hav@@ 0.8787811790835965
sam@@ 0.8586537263975027
matr@@ 1
B. 0.43488050805192285
op 0.21062228670233532
í 0.21375900434647424
Internet 1
sis 1
Pat@@ 0.6871514845395924
amin@@ 0.8986786256681882
lia 0.9854632178449725
sta 0.3662428900041578
Buc@@ 0.9239264286488763
ech 0.4769904176876423
office 0.4141826494146489
Rot@@ 0.6190581286253612
emple 1
28@@ 0.41019908957875856
esta 0.19078502011107631
Cir@@ 0.8227934534430563
27@@ 0.4212067844706039
off 0.16535462186372296
Win@@ 0.38288338692862434
Olympi@@ 0.696214961378136
Sk@@ 0.6568241209138909
Sand@@ 0.6243274890565086
heim 0.6443472097252725
gen 0.1583024735963686
sar@@ 1
pic@@ 0.45491601317182817
1923 0.6714326836015544
Black 0.47964808978426876
usal@@ 1
olo 1
Gh@@ 0.8559513481327291
ego 0.40864770583710286
Pre@@ 0.2443741932861499
Tak@@ 0.802391602126757
million 0.25650490236254103
estig@@ 1
trol@@ 0.6847817908581391
well 0.0959041818984233
finales 1
Kal@@ 0.5286886698020686
wal@@ 0.23755763270260846
iert 0.24093975574012072
ever 0.19942125411714817
berto 0.9692096163476469
Frank 0.7441988731446013
Les@@ 1
uno 0.31129003272564243
Nar@@ 1
96 0.7524631858903705
Mark 0.6123396037123244
onald 0.8391889926800428
VI 1
ref 1
alter@@ 0.6429799046388408
oma 0.36127461389202975
Kat@@ 0.469204872070081
win 0.23736942300572128
Cast@@ 0.657926922500712
lines 0.4807876865376654
primer 0.373633144956829
RE@@ 1
ett 0.4099092697189805
Cab@@ 0.8726218734353507
West@@ 0.27545859116698945
sir@@ 1
Jam@@ 0.8950374488715195
Bud@@ 0.5808898352697789
asser 0.8691567039647616
ei 0.3247137689036446
SA@@ 0.9832520335220336
Mik@@ 1
29@@ 0.4410781956101369
Nu@@ 0.8629911905593957
aya 0.40326788433073246
bac@@ 0.8478061230830104
Z 0.595186209005296
uni 1
02 0.806951403736851
1913 0.7145833739064963
00@@ 0.5014142858746711
Ing@@ 0.5451182277806307
rey 0.4703721652293082
let 0.536228628845799
SP@@ 0.8143547763849838
Form@@ 0.7408454705417934
dh@@ 0.6233276745963219
ogr@@ 1
Edward 0.6462536282462839
1905 0.7566078657654692
07 0.7597170855105516
Hall 0.39112201051749623
05 0.7037478791938488
Bak@@ 0.6879668676128443
gio 1
yd@@ 1
Hit@@ 0.9295488558717454
Liber@@ 0.4589927064070516
eter@@ 0.2776532664183244
1911 0.7478200051773118
CI@@ 1
inger 0.41891892801419445
Star 0.6112716207858391
Vir@@ 0.6178829583083579
ther 0.08262488490642664
AN@@ 1
Red 0.48036680013627486
bau@@ 0.32752406463275985
ax 1
amen 0.4494801229298872
ust 0.36249150807269187
burg 0.23282078433035017
list@@ 0.23527588401179636
Et@@ 0.8746573369174875
Lord 0.6716740674212677
Kor@@ 0.26858584948484926
Sw@@ 0.24896271599476574
maç@@ 1
yan 0.5224854405120347
04 0.7393892095315224
ople 0.6239494120252014
Lis@@ 1
Ig@@ 0.6385141639748307
chester 0.5548233178385602
far@@ 0.39962229495427587
lad@@ 0.3459686911690475
SE@@ 0.7797597780006376
dri@@ 0.2886186906537397
pun@@ 0.4132378268385782
ú@@ 0.2617674728954793
Sel@@ 0.43975895169882445
ado@@ 1
introduc@@ 0.32739855960977154
ardo 0.7492916660017278
93 0.7711890053964895
vec@@ 1
Ev@@ 0.38764895981215486
bos@@ 1
Person@@ 0.42179610675332807
Company 0.33626141392153946
Dol@@ 0.5960545011360594
min 1
serie 0.4276352092703414
Tel@@ 0.3564359359881047
chen@@ 0.4946210607476664
ador 0.1421346745829402
embr@@ 1
Ak@@ 0.34465334491852445
outh 0.3159062234418316
ough 0.21308981275777542
oli 1
98 0.7190653252757971
1908 0.7449569625377521
low 0.10877969256670551
sul@@ 1
Kam@@ 0.6051737416984548
ady 0.277695377533628
App@@ 0.816877380665184
Scott 0.7837352493637518
consist@@ 0.452790551704969
Mand@@ 0.9625137499606822
rad@@ 0.9889990657168473
cho 0.12589284846818055
Hir@@ 0.9273962899585652
Eu@@ 0.9152120622042975
Jor@@ 0.691484682271969
Arab@@ 0.7780210994450499
08 0.7030687803630742
Sig@@ 0.9796966152268438
Steph@@ 0.6446641184180056
bol@@ 0.6960666160741321
Sen@@ 0.2167717800688582
los@@ 0.2690394930478206
King 0.2848729546972851
etti 0.9453302042441019
ener 0.3507110167925264
mo 0.3382627226634676
Rad@@ 0.662552067776477
Fal@@ 0.7482440922145799
Ox@@ 0.6406824360846581
Dam@@ 0.5928152844555662
06 0.7498134278117301
wan@@ 0.44235729619300007
OS 0.7755518873013589
# 0.45445981684908265
fal@@ 0.3575376664275463
itz@@ 0.18530025889529528
ass 0.1747432787813894
Plat@@ 0.49256120789408686
Mem@@ 0.44966897715450926
oa 0.7259888388858452
Open 0.5828844818159078
ø@@ 0.7194294069772954
03 0.7588748290865127
four 0.13102716847944118
Anna 0.9092921620098244
aver@@ 0.2690056638722783
test 0.6309844520669581
.. 1
Abr@@ 1
Vit@@ 1
Walter 0.7991231720707004
ud 0.47476912620828976
DVD 0.9315835355835249
cost@@ 0.5560358779601654
09 0.6908171082822707
Karl 0.5665702691586161
ander@@ 0.3657900915554836
Y 0.4582727338319957
eth 0.5824107342347696
EP 0.8576272135548128
Sul@@ 0.8243101498487247
150 0.6988602539841434
97 0.7317587191623909
eri 0.5612923518231593
BC 0.354567762987165
hr@@ 0.23023235967135053
Boston 0.6788523908394999
91 0.7518035280186997
\ 1
But@@ 0.7895496587954451
lies 0.35759059580933866
own 0.14807186305122716
Street 0.2734978144846565
Mu@@ 0.44669944549709817
ting 0.057433423452994195
Pen@@ 0.4981807593329384
94 0.7412722923614057
idge 0.43378212501708685
ason 0.4269687346414326
ng@@ 0.14664883465190504
ius 0.9535250530849404
1906 0.7540361684566838
1880 1
sent@@ 0.6808978667417571
Vel@@ 1
Mid@@ 0.35096910541006715
Kaz@@ 1
Boy@@ 0.706036080436079
atus 0.565687484607951
han 0.3352158095699527
Bot@@ 0.3453138491491434
TA 0.9275188195179859
Cop@@ 0.8620272957591143
Wh@@ 0.17559806302995068
Jones 0.6436866081041521
1.@@ 0.1679148945899927
wor@@ 0.06827792587663546
CO 1
Kenn@@ 0.5776314358427256
edi 1
cht@@ 0.8286052581397046
Tol@@ 0.8792498954893998
1907 0.7374990484989651
fri@@ 0.1778596449645903
Cru@@ 0.6998534862997545
unk@@ 0.15622942813520552
Red@@ 0.5529086419058372
Guin@@ 1
ese 0.08279347852709064
cum@@ 0.8588152015597484
plas@@ 0.9715153817180253
cm 0.5394598920159963
Bow@@ 0.614161764230594
ural 0.33593463662247836
mm 0.3880729502601046
Q 0.7560000993874457
ika 0.460764355713204
mar 0.5916112009402108
Tim@@ 0.7711509192417109
ji@@ 1
Ander@@ 0.6982506343585854
try 0.1437382096457342
ns 0.14084127860924736
asa 0.4996231034129493
Tam@@ 0.6614298910834971
udi@@ 0.5220577472101104
Tow@@ 0.4055012765591841
ark@@ 0.4131582179156914
Sm@@ 0.7538427469213763
mente 1
Anth@@ 0.7592080726047281
tern@@ 0.56835283871838
ficie 1
Ki@@ 0.522722421633308
Tu@@ 0.7217615557748234
Victoria 0.6870719344323324
Ali 0.987563285272451
PC 1
Awards 0.4095015785654589
ater 0.11655602889060489
1904 0.7560170296894362
Dal@@ 1
stell@@ 0.142101638501393
nch@@ 0.6253562804668467
1901 0.8224410879334101
Alb@@ 0.6745547368259279
1915 0.6332586437406443
Sin@@ 0.5028661062390425
kin@@ 0.3899676661176995
Alex@@ 1
Manuel 0.9009125251402775
Pier@@ 1
Fu@@ 0.5334928485574648
cu 1
red@@ 0.689754093083354
IC@@ 0.7266167987472294
lan 1
ny@@ 0.9450831569573414
Williams 0.6487207500827571
Don 0.6226955569066994
1860 1
uh@@ 0.37750524244502126
1890 0.8664857016377864
ston 0.6330081639113686
Penn@@ 0.5347938616620059
otr@@ 1
ams 0.12785908885534097
unt 0.2655674359533457
dres 1
Man 0.4523987951552752
apos@@ 1
view 0.20157345670893398
dil@@ 1
onto 0.4209937771175793
Carlos 0.5887353753600669
Ear@@ 0.17187480766502658
P. 0.7438202246725945
Mak@@ 0.7171136221999168
ende 0.13999104604429477
ulu 1
dies 0.4173124544454591
ör@@ 0.09435348416195873
1909 0.7201971834170668
Kn@@ 0.4586666357372752
Lag@@ 0.8080760194550166
Ka@@ 1
Chem@@ 0.8010531507823129
Ł@@ 1
Joe 0.7546012867181393
Sir 0.5270872457245288
Sem@@ 0.5378502615837574
Nat@@ 1
Alexander 0.5055877375230262
ross 0.17831577621357964
AP@@ 0.8371575997983081
ob 0.5869316243428908
ion@@ 0.5427598650572516
ovi@@ 0.5349626047167733
tle 0.18346651974507847
incorpor@@ 0.45002859895078834
pes@@ 0.9443326457308071
Society 0.34577983569200865
1916 0.6286426898662287
cio 0.5657748861179326
Leg@@ 0.265663458794133
apar@@ 0.27468618166587866
S. 0.5722563241931751
Tit@@ 0.555322178943345
Hans 0.6310571231115804
Love 0.5159098266658466
CA 0.860475360926693
Archit@@ 0.5332939585837081
bury 0.5576941071283882
Acc@@ 1
2.@@ 0.1810484210135068
ew@@ 0.31807366766844547
pop 0.7100678304006365
uba 0.892098399084643
1848 1
NBA 0.9934607460962429
bridge 0.33877298812507295
jo 0.1850328146180029
hand@@ 0.1571250295111299
Kin@@ 0.23026418928322825
Arg@@ 1
set 0.14724921525927026
Carl 0.7127352239831855
tige 0.5042228335159085
bis@@ 1
John@@ 0.8759904281644493
ven 0.15139923349559284
lés 1
mam@@ 1
oy 1
anta 0.48484030956992413
aus 0.03431475819469031
Johnson 0.6165348382628397
Ky@@ 0.9394131177141458
tario 0.6031019234112655
1902 0.751289080392716
post 0.36100231104110214
fa 1
Virgin@@ 1
FA 0.8047431703031728
edi@@ 0.09962190995952003
Hay@@ 0.7060287536770375
sky 0.5024103111717322
quier 0.998218896572002
1830 1
Vis@@ 0.7236672943823586
olf 0.627431120392789
gaz@@ 1
R. 0.6686112408633692
bo 0.6954546630358309
Spr@@ 0.23186934436024478
Kan@@ 0.3787288910046186
Mach@@ 0.7500737894461786
Seg@@ 0.4047822023053484
L. 0.7831436856370653
we 0.24277792410525564
VII 1
tw@@ 0.12792294666661602
ū@@ 1
ebo@@ 0.8906769004813393
top 0.19681080229861916
carr@@ 0.8571156779502791
Brown 0.5384084021239951
1903 0.7271549184665568
Net@@ 0.4540502076784465
opo@@ 1
Tem@@ 0.5683480437317757
ür@@ 0.08946109860069759
ee 0.26580285059245545
Cant@@ 1
gel@@ 0.0770041192401879
All 0.18971123578003812
lus@@ 0.4472308137264474
Hill 0.44317681357360855
Fol@@ 0.17853709905806647
Station 0.4096927256270909
Tay@@ 0.6403112331828116
polis 0.7319543098005924
DC 0.8157751529281347
ket@@ 0.2686018768090672
capital 0.3268234017097269
D. 0.4490223877258491
Ku@@ 0.6602473952417253
CD@@ 0.5802185307527484
ista 0.11822762067398833
Canadi@@ 0.33157183012179886
Cup 0.18208941203667026
trag@@ 0.4033683818805533
gri@@ 0.5208362706918256
Kl@@ 0.25435474050693946
AM@@ 0.7937809870092122
Jackson 0.6998193644952644
eck 0.4347522097392898
White 0.37139021018452195
Sus@@ 0.5994635164906198
ouvern@@ 1
Philipp@@ 0.6198208677829595
She@@ 0.545196511788902
web 0.9563638000376232
Play@@ 0.35059700601385546
Proj@@ 0.4045055037350404
cia 0.7379943799043105
How@@ 0.6147188296114182
bin 0.9419030788446767
Kos@@ 0.9110406857322152
E. 0.5865026823295391
Sum@@ 0.2645635043435265
Tan@@ 0.606698637231182
ę@@ 1
distr@@ 0.5991111572838771
king 0.09079445336918888
House 0.18668375034148377
ë 1
Sher@@ 0.7267254753444236
Bah@@ 0.2149465299114288
Centr@@ 0.8019940055708933
Nob@@ 1
studi@@ 0.19743758242116308
sey 0.6607777457304616
stan@@ 0.8192610018486982
ago 0.38900101208630194
aft 0.2397298489384806
Mill@@ 0.6587871913796943
1898 0.7670771958120707
dae 0.9372298257007605
Museum 0.3034548299398339
fan@@ 0.32789954639296026
wer@@ 0.0647899868140895
conduc@@ 0.2962976385210463
Europ@@ 0.3699977978454827
Rock 0.5126011265823335
nas@@ 1
1871 0.9817553980364961
Nag@@ 0.7994909099336461
Team 0.34672944099329217
Gra@@ 0.4445354865248294
Big 0.4822895024172161
has@@ 0.8963219624324053
Haw@@ 0.4388410851025956
ks@@ 0.29146296975985503
Ash@@ 0.6183121014615832
ía 0.044363578245540394
enberg 0.6433858240071155
ms 0.16506475225465733
Tran@@ 0.7912495440154192
You 0.36760823195318476
Natur@@ 0.391398554576124
Young 0.5544232919798845
stitu@@ 0.9412566058768617
did@@ 0.424355329419037
seg@@ 0.38385208055931347
Sho@@ 0.5558645911208938
One 0.1870716039465164
ning 0.0990924867953463
1896 0.7815848837783328
proces@@ 0.5979040589762612
IX 1
uke 0.4724266108661747
Shi@@ 0.5873577876709422
Pow@@ 0.4787133261201209
igan 0.46656127345484905
11@@ 0.6662025793772384
Top 0.5604507207287748
Eliz@@ 0.6241827420264995
kr@@ 0.20260551901684312
ister@@ 0.1746824725315976
leg@@ 0.07274033545810221
onz@@ 0.5335558479429743
Jer@@ 0.44479198178741475
ask@@ 0.25545101114046315
diz@@ 1
Sz@@ 0.7297369015302029
1889 0.8557474220354019
house 0.1717345549349687
ř@@ 1
vo 0.41270471878542564
uela 0.6841447265186635
Ober@@ 0.17808656502250417
Blu@@ 0.659589072545491
ñ@@ 0.21341743114440676
cht 0.15966877699818566
Nam@@ 0.5773661936633508
Lud@@ 0.500810525610142
ž@@ 1
Cle@@ 0.5772198672995936
ín 0.3171176815038184
din 1
alla 0.4222804880061249
Johann 0.4732606023346978
1895 0.7632068172850907
Leon@@ 0.699677302155968
ken@@ 0.22607466672575138
Got@@ 0.3612633158568412
Pad@@ 0.7530063243041313
Award 0.24398235161952406
sho@@ 0.06307802673674033
erte 0.11593912289333079
onia 0.2937801251262609
North 0.13135160195357778
ding 0.1510019254311296
Chin@@ 0.2806871779988609
han@@ 0.8349715189830105
{ 0.7924996283465996
└ 1
1850 1
low@@ 0.09172568875002146
Progr@@ 0.35414784572132546
× 0.6895718813047327
Deb@@ 0.4385981242323968
$ 0.10348314164552026
án@@ 0.16538445122035939
aria 0.2426041251853536
aba 0.1130889767468444
lu 0.9430498596276109
bar 0.2119453347550314
ST@@ 0.8707089142413489
Rud@@ 0.6741020276316019
Star@@ 0.5017253983767331
H. 0.5528432855159496
ken 0.0705704808232751
1885 0.8332611288680429
1899 0.7253797348684512
support 0.20482752845395114
600 0.5801224255087953
onal@@ 0.33254007654997597
Ze@@ 0.15838927118442
Med@@ 0.27326850846131806
Squ@@ 0.4113509357854356
lor 0.5809424453407673
Kol@@ 0.36104997497510594
ho 1
dra@@ 0.2153954884261839
net@@ 0.24589179199189584
Group 0.25843549962743373
Island 0.2780138430749008
evi@@ 1
lara 0.6723762625163068
Tw@@ 0.5958238800760868
Whit@@ 0.5636836379504278
Lat@@ 0.3934525938435877
ebr@@ 0.37784525758076787
over@@ 0.14163686267492664
800 0.5995060175472565
rol@@ 0.27163592570969636
1893 0.8124439016646906
“ 0.02413201139991519
1897 0.7238511001977713
eron 0.20104933486467996
ause 0.4367440021611274
Hamb@@ 0.4539551500452486
Center 0.27245501407307265
MA 0.8024973356777988
Aug@@ 0.605461696770118
Friedrich 0.40870476817815554
metal 0.5939195616048907
dir 0.2872571174028275
Thom@@ 0.713721437164835
hin@@ 0.12003240679328754
Bang@@ 0.6001783561073923
Bill@@ 0.8197048325413371
eller 0.3658408566679073
mad@@ 0.31365090463047335
Á@@ 0.3095875215747434
Sof@@ 0.6000973402754712
isième 1
dorf 0.35055365638741376
eva 0.780036281993332
Tab@@ 0.6637301834638607
emble 1
wig 0.46727092399013553
Luis 0.5561791368253485
ism@@ 0.8372852127990358
eng 0.6767244760080388
A.@@ 0.7359531541442267
gi 1
CH@@ 0.9006516154900345
Dec@@ 0.3857171319342854
tia 0.6575253594995615
1867 0.9696661834372433
ansas 0.4855492338975436
Vid@@ 0.6196722793242394
thr@@ 0.19115493464258443
ein 0.021603875909976165
onge@@ 1
ft 0.13571022299726834
pro 0.5460410582183786
bir@@ 0.15943603427716663
Mod@@ 0.43678774702043116
Riv@@ 1
vent@@ 0.20202597788825297
alis 0.7339745150667794
gan 0.5814621737227261
ER@@ 0.653740256558333
12,@@ 1
yan@@ 0.44103773795884693
ben 0.11146060016860698
ls 0.2602432102124645
” 0.07457895824445587
Venez@@ 0.6619125624284399
Pak@@ 0.4111270667466603
Fel@@ 0.2939965739542778
tribut@@ 0.34433379584040014
ū 1
mill@@ 0.8787721028494573
tan 0.3263946990835007
Illinois 0.5483404772283076
eto 0.3454795800903211
alo 0.7684564196293344
1892 0.7742791390119691
Sub@@ 0.3318079687084773
iki 0.4503479508072521
British 0.11204785980077789
mel@@ 0.25236571703269695
ega 0.3633682839790366
cut 0.3629583877879582
auth@@ 0.14221365788699564
any@@ 0.31040793273243233
ó 0.016003618679491745
Bay 0.3487683505286093
Wer@@ 0.13718852691403033
ula 0.6647622202957946
Afr@@ 1
bis 0.037310944250914815
Pil@@ 0.5623873438370944
gan@@ 0.1941693461947188
1881 0.8751864999599213
box 0.5275163974327344
Profes@@ 0.5757224398965618
sch 0.18158144378008967
ck@@ 0.32710100736387876
oria 0.4675382463884362
azi 0.6290822661830932
Columb@@ 0.38982957840948634
adi 0.9002394065188556
AP 0.7502320655199811
æ@@ 1
eri@@ 0.247933233123939
Anton@@ 1
omo 0.9037176017072186
izi@@ 0.5110179132688913
1876 0.8939943516961276
1878 0.8349094356542393
anus 0.9715829482665391
ig 0.17976209083180564
Canton 1
earch 0.14869686205613275
Times 0.39783226024668655
Parti@@ 0.5568931957094515
1894 0.7499493772850552
South 0.09357334891623817
You@@ 0.8239778050456803
CC@@ 0.9288001771326023
ator 0.1190823377116915
NE@@ 0.869313931970051
Din@@ 0.7604444867342752
F. 0.5891533976304626
1886 0.8119919725875068
esh 0.45849662343422043
Techn@@ 0.29289319143664416
hard 0.3838726090430331
Windows 0.684213129770269
enh@@ 0.29464125175485656
Ant@@ 0.6470106379521903
Jap@@ 0.2022092741798048
uma 0.6658864043529422
ido 0.06837022242824185
Jersey 0.5433771895955908
Web@@ 0.49449000020157136
W. 0.5118383531322526
tural 0.16357183665151623
ô 0.4670545026743688
gs 0.15733834004306377
live 0.24577045584216684
ń@@ 1
lobal 0.43020356635396434
kan@@ 0.27045789643902574
London 0.1324832443456453
S.@@ 0.649466815988994
In 0.010146400483657173
Championship 0.22794855630518499
King@@ 0.2553148451312536
Live 0.569756846457778
unc@@ 0.09113587000793257
District 0.14902079475885285
120 0.6689907217526608
edy 0.3019937188628757
Blue 0.5036151851503874
ep 0.18795232142159968
Bet@@ 0.29410932820791075
Kim 0.6876086575714077
1888 0.7581363912272493
250 0.6280761547915888
kg 0.6994456407169798
1882 0.8446600704496722
tern 0.0750024436704472
gin@@ 1
Real 0.4892346356497875
elt 0.08527209484684212
state 0.0884661640292091
uer@@ 0.18642194877308624
1891 0.7279541489030747
Me 0.48041516117771166
ker@@ 0.26229053008230985
merc@@ 0.7798250694614832
nik 0.4221220138476336
Kom@@ 0.12165269766791345
Vik@@ 0.7798198619578635
das 0.01825925937556088
Seb@@ 0.7493209776142778
design 0.24316888371635315
1884 0.8040665352834747
Long 0.4965191430244935
tal 0.3383016207283859
Kas@@ 0.4793702647345514
1000 0.48892769302503186
Aires 0.6571005932888022
ilde 1
key 0.231437360263411
Feder@@ 0.2006523070497738
undi 1
Spe@@ 0.28196122937331586
Green 0.4020112446159716
ush@@ 0.2855128355746742
University 0.05369301793479559
Š@@ 0.9556385467280117
Sun@@ 0.5714949074319201
Film 0.16870696939019894
essor 0.25463036746783313
Corpor@@ 0.4285250365910235
endo 0.12288715553835085
Elec@@ 0.32727687721157367
Franz 0.6059032974928691
zig 0.5067124853612966
Institute 0.24572610393363323
ă@@ 0.8678834507694605
iga 0.7109577584833486
iss 0.4411481250177039
BBC 0.4648805189467359
gar 0.29729104965575953
Nam 0.3362801158144777
Emp@@ 0.7960205886058633
gir@@ 0.22549163887820925
press 0.3321942192393957
1887 0.7655739201570941
Div@@ 0.6612208123782893
River 0.1355456156682593
hir 1
tics 0.1093481878716153
Id@@ 0.7033414473526249
† 0.19357920248293486
aza 0.28032244028555997
rech@@ 0.14106667095636405
osh@@ 0.9286219214935436
Indon@@ 1
Provin@@ 0.1938888197898277
pon 0.20889750150433606
Wilhelm 0.4401570064764089
1875 0.8470219319704484
mad 0.5604987681755136
Sup@@ 0.7107355060837709
elo 0.42114390148746506
Pedro 0.5442600684313763
esa 0.21382143414157614
My 0.42768529809862715
NA 0.5995828775858938
more 0.04211230860590024
ael 0.860309409683915
Ran@@ 0.4975724019659196
1863 0.8094865989243062
East 0.16633386940974
etts 0.45777096520046356
Buenos 0.6228091883785993
oo 0.6665981943966447
ül@@ 0.16447058069623777
1883 0.8118995871496903
10,@@ 1
1868 0.8287100382502964
Kab@@ 0.614938607069756
Ohio 0.4333422143991438
Central 0.19947849209983012
nombr@@ 0.5247659004972672
libr@@ 0.23680166645766074
Astr@@ 0.6236521595215845
Law@@ 0.4504365128786469
1872 0.8361344397136601
Rech@@ 0.3044399470270116
Tenn@@ 0.41061226113335736
Studi@@ 0.17661778439370748
Rail@@ 0.2444284118718024
å@@ 0.8475064754930559
ace@@ 0.4400924974182194
inae 1
Ji@@ 0.9598891187555663
bara 0.8270094745982008
igo 0.5240205773262223
ś@@ 1
hai 0.26030003843725347
up 0.041079800874128686
Kit@@ 0.6875011593910797
RO@@ 0.7699279700566913
squ@@ 0.18886071655287284
ear@@ 0.07838752531884262
ento 0.1250526765727022
1877 0.8094513795227165
Sak@@ 0.7536090062392004
kel@@ 0.3335244155607993
zona 0.2844426534565618
dice 0.420313998561196
1865 0.7634906977741464
ste@@ 0.06360383264960551
Dig@@ 0.5836669076907061
Jose@@ 0.5444845909348891
ete 0.12312004823440569
1861 0.7497111603685632
bot 0.5631645945549918
ema 0.2118822438391587
eni 0.8250407332177834
IM@@ 0.7573344244461336
jud@@ 0.30242011393258433
Publi@@ 0.33189944732202814
eno 0.3761662056444732
ij@@ 0.4106318011060662
1873 0.7987166364113245
Medi@@ 0.15685145266850678
1864 0.7389445980123851
liga 0.27320033661979126
1874 0.8054318174283369
ag 0.5080044908714284
Entertainment 0.5744696349980832
Azer@@ 0.9100756057074149
wo 0.11043909916223005
fall@@ 0.2560462382158452
Carr@@ 0.6436150111016389
name 0.05989627243431206
chen 0.06627477933493407
Lon@@ 1
med 0.5791681449648246
Bad@@ 0.538558408526148
ń 1
1879 0.7607808725495386
feld 0.3440218870307107
Wit@@ 0.49391893088691374
Kle@@ 0.30004340858413664
dur 1
illo 0.29359961302243687
Sat@@ 0.5236417430838269
burg@@ 0.32225822044648655
Leb@@ 0.5134409732993915
Lake 0.24553828825360097
Wes@@ 0.457982074962589
Sah@@ 1
cine 0.37034763254018566
1862 0.7468074635800162
XX@@ 0.9717252728671397
AI@@ 0.6114334927374266
lock 0.23840933087669267
Fut@@ 0.5971326955927437
bec@@ 0.16264396122371544
put 0.2167820359797211
any 0.09658098980949785
Ges@@ 0.11935940420323822
America 0.17821134106542647
dest@@ 0.4656576216783577
öl@@ 0.12204436188021545
pha 0.7855903376705294
‘ 0.29385202380773856
ld 0.3490547213376424
attle 0.14099561510598985
1869 0.8231901281564171
1,5 1
iti 0.8177424042019941
1800 0.961126891785163
Bec@@ 0.3523684768785417
BM@@ 0.7543818153291376
tit@@ 0.16379739194196447
iler 0.3299003432847466
AM 0.6550316200283489
uki 1
VI@@ 0.9532269233090597
not 0.02313686102668943
tha 0.595739850505065
lich@@ 0.10479854159242834
ends 0.1516007596721829
Dani@@ 1
sche 0.1597266637596487
3.@@ 0.15110332400840895
Paulo 1
I. 0.27021095505626147
• 0.8007303294963919
Gold@@ 0.4479336365980357
Wa@@ 0.69591745687455
² 0.14162505642136683
Prim@@ 0.24892288172409777
aa 1
.com 0.6162623026912634
yo@@ 0.12483517331700134
under@@ 0.08787250932929494
Stadi@@ 0.3601067178827817
No 0.23645590395706528
Eurov@@ 1
hier 0.32041591964031446
Las 0.14454399570530171
inus 1
lam 0.4958568231098796
aro@@ 0.8838789002593981
è 1
isis 0.39672464578540834
wid@@ 0.16930805047198533
ár@@ 0.2722457278565028
High 0.1519535135959259
ogo 1
olo@@ 0.6647445779148488
Juni@@ 0.3307055691726649
Life 0.26332263805982226
ehr@@ 0.13458821760732545
Billboard 0.42868654733132217
day 0.05662184165231336
124@@ 1
ui@@ 1
BS 0.42374942012801625
umb@@ 0.2806426024907608
Hot@@ 0.3497851217712093
DS 0.5994403110903752
iko 0.5605481184595269
Academy 0.22286953750382762
ania 0.1796365154476491
11,@@ 1
Reich@@ 0.2509312326067255
ě@@ 1
MP@@ 0.6863955547469369
lar 0.11332917695410541
Greg@@ 0.5582045548698442
stadt 0.1943054336211379
gres@@ 0.20642142052832096
poli@@ 0.2733411638844374
Eg@@ 0.29894387093254693
Heinrich 0.42030881845914336
etz@@ 0.10886474992461388
oro 0.4409300918460933
State 0.08349082019328743
Migu@@ 0.6020916733521795
gang 0.2236321861436134
bir 0.06482544843571672
alth 0.12996455216374359
zer@@ 0.4816498622748587
Nak@@ 0.9039935546128666
ź 1
rif@@ 0.180193998033662
irat@@ 1
eck@@ 0.23651065340854333
wn@@ 0.21331170279707143
Ng@@ 0.3322275300607509
mid@@ 0.17803656724273237
vel 0.9368219625905972
} 0.6323729311003128
mant@@ 0.41322314816829026
acha 1
Baz@@ 1
Ny@@ 1
row 0.20595141775594494
eines 0.09999164598298675
kil@@ 0.19582113286958344
edo 0.38067361652284726
Yor@@ 0.5463255569700156
Berg@@ 0.33910485104648874
play 0.08663249803693851
Arti@@ 0.38473691898737833
egr@@ 0.31465751614473014
tico 0.11787106368159334
hip 0.2612941758124239
ater@@ 0.4727510798397537
Chil@@ 0.308646080562117
nam 0.2698432183672686
Road 0.18632999858672594
iri 0.7150102658297937
case 0.17145459187429585
tul@@ 0.7596635995088993
Has@@ 0.4832380473600374
enth@@ 0.23822873778444623
V. 0.3501063625783132
UEFA 0.6774084099338394
ór@@ 0.19582396215146802
amér@@ 1
iz 0.291070868296512
ben@@ 0.09505117523175761
nd@@ 0.5325078732170946
lem 0.26713122316829624
Christi@@ 0.4836806384129705
m. 0.5290367975487874
ku 0.9750347483273494
umi 1
tt@@ 0.4655813505488118
Gaz@@ 1
Time 0.40617244006378045
lage 0.22569724349845244
Yo@@ 0.8578526032694284
Gö@@ 0.45475978497320957
zon 1
kat@@ 0.2877043225458547
General 0.10612330372547182
unter 0.0477339837853049
deb@@ 0.30473650478857206
Sport@@ 0.3564786314125895
Ok@@ 0.552629358517795
ango 0.6003976872592891
är@@ 0.0665509696534467
AB@@ 0.6577945948686765
deu@@ 1
ás 0.22683652806510288
rat 0.2974432588378182
ops 0.15868736950607665
K. 0.6067561877807301
nay 0.7915586258144212
secre@@ 0.329323747549968
XVI 0.8029419671046686
vi 0.720983575051483
ograph@@ 0.20944298654217125
BA 0.46736439056123397
alia 0.5173197054213388
Rein@@ 0.2950386347081579
gia 0.12614675238080061
700 0.527321797635108
lag@@ 0.22185246919642576
120@@ 1
Radi@@ 0.5218349599711266
eda 0.5666030216251531
eus 0.7505648012277579
lah 0.7600320945059166
sion@@ 0.14172419858119908
ling@@ 0.4265113156841818
udi 1
right 0.1188642174424454
Inn@@ 0.3079553172455242
Kil@@ 0.4333096024050507
ados 0.037025703863830445
Bank 0.2843145084167966
š 1
tes@@ 0.34659461712917905
tica 0.10164271103314972
Meg@@ 0.6153745249634309
XV@@ 0.7392781397500565
alan 0.5630858314057455
TC 0.5368712133446302
orum 0.927300866917054
ways 0.14163414183367617
ow 0.1297064637348035
Se 0.11613879119715072
Num@@ 0.4386103329302111
isch@@ 0.08692288314204011
work 0.03951704170203676
ology 0.06961496770064626
Ō@@ 1
Show 0.37617988223687027
Jack@@ 0.7991264628526142
Mexico 0.27909805357195683
10.@@ 0.5385002348179138
Č@@ 1
etti@@ 0.8285500634202296
Hosp@@ 0.3089462431980776
eler 0.13539973311355188
his@@ 1
Wag@@ 0.6165164185158694
anistan 0.8200587749514903
igh 0.601171172224345
Mut@@ 0.2959315359986815
ej@@ 0.12011868512456814
allas 0.43275168177130713
ș@@ 0.8873050442659012
Day 0.26653994648718465
ą@@ 1
lands 0.09895569354534425
back 0.06902120988059003
ae@@ 0.28977877156696724
ern 0.04969424601517975
Ye@@ 0.20040637449370957
Microsoft 0.7061129472137111
Hot 0.467090373459451
zu@@ 0.10843939736954579
Ken@@ 0.5933231126529538
esi 0.19933096793432553
oko 1
Kun@@ 0.17203073412287231
María 0.3308667982670109
uta 0.382947623455704
ign 0.0740441433839469
icia 0.40577485335125796
dre@@ 0.1559403969992073
pi 1
elen 0.1136437948057304
amo 0.5660149006968158
Santiago 0.5115812663922724
cle@@ 0.17113367799075313
ran 0.21662963912353875
Hat@@ 0.7482437860736894
Die 0.013619592769717352
€ 0.9143434532749299
Scot@@ 0.14543542159271935
bet@@ 0.11819905416324133
tad@@ 0.2556313452846016
religi@@ 0.1799164574797428
aja 0.3238125204865294
180 0.7397761482752815
ön@@ 0.14583324636439485
aden 0.23341775893661376
Willi@@ 0.6515761675349866
ide@@ 0.14058211856296546
gest@@ 0.09883041981899177
Vor@@ 0.05354459371522188
ally 0.01686354880392064
110 0.6769914044711453
Stand@@ 0.2277901552961097
agen 0.09621099503703114
imi 0.6184622557014416
wo@@ 0.13213860347725423
Zi@@ 0.21605543097952967
kir@@ 0.3488430654030449
stre@@ 0.10193358181683561
An 0.11598749156814057
Nigeria 0.8109646225225433
vil 0.17003971582438168
USA 0.21080146308104097
carri@@ 0.16481800404422595
Beg@@ 0.13834525047794125
Google 0.767900415800626
ley@@ 0.3728656160865653
last 0.0968823403476129
foc@@ 0.16529261217425423
yal@@ 0.5134863411446132
Gru@@ 0.20916274226691847
mas 0.29996079448414387
eli 0.2859784530917052
tical 0.08377130907124686
sev@@ 0.7803378407233406
High@@ 0.21438046219034568
af 0.3457251050697186
5.@@ 0.16839774818556252
nec@@ 0.23622386541246126
ć@@ 1
eder@@ 0.08665563761642278
Kad@@ 0.5627757147912388
him 0.03625233219919793
0.@@ 0.09893030723494384
Kre@@ 0.10542207394157087
aret 1
ort@@ 0.19757459049558745
eci@@ 0.13550468814903796
Bundes@@ 0.1157081028239734
Roman 0.18186258511433276
elec@@ 0.04959875553329514
ights 0.10472498060914631
Deutsch@@ 0.24895149910611444
fel@@ 0.15499120886451626
ree 0.09557465344987759
Brand@@ 0.36892495440683504
Song 0.35108713931171576
nia 0.4393536298576031
dose 0.519481456705906
det@@ 0.07176085704684969
ated 0.010055595380746222
WWE 0.9360186616063557
aron 0.057354757928181795
alls 0.11953617119115088
lum 0.47204969877936076
awa@@ 1
tos 0.08496389128020004
anos 0.13619139396645735
zur 0.04005035675235867
dies@@ 0.6597505610325237
new 0.03301712527581408
imo 0.39759919817821043
sea 0.16212490550081726
23@@ 0.2677756145981187
ior 0.0880034748038078
wer 0.1156960062758709
aller@@ 0.5111784898504463
esh@@ 0.3495374796768481
wh@@ 0.04425103819625606
Mec@@ 1
iness 0.10147984447797755
States 0.04852612398200071
acy 0.13933647530286047
Univers@@ 0.5389744548573276
augh@@ 0.07276078168487174
com 0.8423784313956618
zen@@ 0.3937934587243513
Way@@ 0.6416477658807423
Schwar@@ 0.37670796930897404
Europa 0.23186074000774298
oks 0.1271504458365371
zen 0.09454556654454271
hil 0.7076006306579948
ierra 0.3904036219001384
hur@@ 0.3110436889012173
Hein@@ 0.5458027051455677
uro 0.4685686174518712
kel 0.2248862389787349
amba 0.9538279615877363
ells 0.18223276776477143
ome@@ 0.23529452899647663
én 0.31728264239203163
alar@@ 0.2763665565189306
ayo 0.4626053883194635
kur@@ 0.09897484308465258
GC 1
Oper@@ 0.14638184979598862
with 0.004249322843932691
yi 0.3764427178973048
eb 0.2524814831085705
arios 0.173233909370053
fi 1
amar@@ 0.5091991326112656
aca 0.32542690750728875
auf@@ 0.023872716717602785
inos 0.20212217616648082
show 0.08375123829078697
bay@@ 0.5696666730351313
ems 0.0698959572983134
Viet@@ 0.31459360943320996
iller@@ 0.4965960039694635
els@@ 0.13155096037732011
Sach@@ 0.3410109725518452
130 0.6355743667573153
Kap@@ 0.1814009820238198
mano 0.3604233631487949
nin 0.2753307735355292
acht 0.08823121850174162
zer 0.3382689332433723
140 0.7210594018096749
fo 0.47989607535775325
ground 0.08719873407224668
inn 0.22431713619193505
aha 0.5908959932662773
wa@@ 0.31819669036725245
kon@@ 0.0703642546022611
series 0.04859673019796795
ingo 0.5240524206191776
wen@@ 0.08953525193465185
zar@@ 0.6784094832236908
apa 0.31001235953890444
film@@ 0.2159046670660164
ii 0.6551937852129824
riff@@ 0.2352982665476142
apo 1
Ein@@ 0.04652569765409771
ustri@@ 0.2923947175864468
4.@@ 0.14663174557822678
Games 0.21024820821101842
SS@@ 0.46483958425384936
Bask@@ 0.3739211265114956
wn 0.06486049865549452
band@@ 0.24712931258301016
tas 0.2640542039038925
eing 0.2676627009231868
fic 0.10324032140529225
her 0.013423572492089718
101 0.7098255166630253
ê 0.3375638949439508
zon@@ 0.5516332280247259
160 0.6771309698034205
ders 0.11249354563492257
thern 0.05728348021160648
pendi@@ 0.2694658258266011
ż@@ 1
eme 0.12105820744495673
uk 0.3733510335178532
itt 0.4904431049695512
dom 0.13431848808414448
kab@@ 0.6032703155886194
AG 0.37000954083499454
Media 0.28678381536301784
ills 0.1580721989395201
uld 0.1334706970578392
auer 0.17467365425579826
Fir@@ 0.2922872428270308
rio 0.4430859940321551
uli 1
Tod@@ 0.25196716107690414
ness 0.1087682970457018
det 0.10816034439016191
Tex@@ 0.27009803177498476
~ 0.9795392190474461
dar@@ 0.051826451390110634
à@@ 1
än@@ 0.04495787698833335
Great 0.16780829409086576
Buch@@ 0.24448631916689142
Kis@@ 0.8362743388712657
· 0.05345872463581043
ī@@ 0.6054840810610588
Best 0.16183719385327547
inclus@@ 0.33397585002851454
og 0.2993784558922992
Kenya 0.8865371249826002
ana@@ 0.6758948723318893
wat@@ 0.13150749423085026
sun@@ 0.35780033866892635
aer@@ 0.3236435217642298
hiz@@ 0.846344952916005
Milit@@ 0.1703776254809929
Bed@@ 0.3069195922727784
ío 0.20666276681730608
It 0.01353186631012327
Hand@@ 0.12386912604653075
Unter@@ 0.06688897262005429
mpi@@ 1
bio 0.26818083050146496
aup@@ 0.5734547546534178
Nord@@ 0.1317656969050907
ency 0.09168156848943806
vez 0.1278827818666307
fav@@ 0.21573736920069428
peri@@ 0.07902781629250843
Jes@@ 0.1953016459614272
Meh@@ 0.6681149379127539
var 0.49517376560705784
ono 0.7597882510734701
Stein@@ 0.2762017355996973
ilia 0.6719589322896821
ischer 0.05393208426912665
Rum@@ 0.450863899603122
Copa 0.32170017577381743
country 0.08829125256610411
oka 1
ely 0.03516652834532483
ako 1
tet 0.06913770327554737
1500 0.511688887378657
flo@@ 0.09972252008762826
ishi 0.7904211911911049
zin@@ 0.3551249689660556
FIFA 0.5223644349456987
Gener@@ 0.1555438226314823
350 0.6727364273882595
900 0.5703827048821601
Coun@@ 0.16857346208859803
trong 0.025907580623734543
oman 0.14938153113902633
.C. 0.2259470948937162
Ž@@ 1
water 0.07325375510922763
cos 0.1638581602146046
inde@@ 0.23214201807711238
ats@@ 0.21013729140413712
kom@@ 0.06098383523106183
ough@@ 0.07871529957121297
Rep@@ 0.8970982669556727
alan@@ 0.44175664026539657
oca 0.4471490086894045
avi 0.7686804301409357
azar@@ 0.6896115579223102
ä 1
dad 0.20922625445499995
sal 0.3115805838415475
Alt@@ 0.2897752433776853
üs@@ 0.09829873670143001
50@@ 0.33118080057185967
Town 0.2216707903363512
sian 0.07389033181777759
System 0.23071380094750077
Muh@@ 0.407545574246145
htt@@ 0.6530481555918651
â 1
Rah@@ 0.2069418181376416
stanbul 0.9998732878410425
tuy@@ 1
ers@@ 0.2530151144176095
î 0.776719417791105
para 0.01562931644968684
sburg 0.23341790343006852
very 0.03578108634594345
enburg 0.25986911210246477
Hak@@ 0.7653274124837036
sah@@ 0.798501526540154
wes@@ 0.08494984241653218
estra 0.16041512481198725
into 0.01951374070486517
orio 0.1736357381017601
zam@@ 0.8173061992859666
Colomb@@ 0.3192546652570517
sia 0.12869790934059017
ilo 0.5729876248852044
zu 0.010464240076296642
ð@@ 0.8993162223870099
40@@ 0.4339642165953263
rol 0.6306209721379217
agua 0.2007271268382444
eum 0.16354446599283265
town 0.0511488051654493
Was@@ 0.645070723330767
Cum@@ 0.5230225697002523
Nig@@ 0.6688247792030804
ng 0.18216800712577844
ump@@ 0.1272162829430447
Bun@@ 0.32568922257815713
ying 0.05361937516598043
È@@ 1
Jug@@ 0.2135480627649509
annel 0.1575248169549972
Fried@@ 0.2203407732660345
Army 0.09351168360096598
kal@@ 0.13572064611263554
ilio 0.5138797522540516
ods 0.09454383425821174
ias 0.2105580930110047
Mann@@ 0.241994611053746
Gel@@ 0.1752414634712066
wilaya 1
hat@@ 0.35728834711735935
hem 0.6154364065018252
rid 0.5346416442166789
6.@@ 0.14089847973241784
August 0.03128987525320295
First 0.11098257673554328
Cao 0.851141205252847
Mai 0.09993591057290839
dem 0.007817012021330219
ö 0.7316514800088953
War 0.049047844669430074
win@@ 0.07150511286723817
7.@@ 0.14485674407654636
ú 0.14248462405013798
Liga 0.16112451573634795
ender 0.09463800495443325
Ost@@ 0.21351851857912318
boy@@ 0.24396618969753636
Party 0.0866269201075875
ean 0.10001525838997988
yon@@ 0.17618540272100391
maf@@ 1
red 0.01818978203142981
play@@ 0.047152337184325564
Ö@@ 0.12240631769916917
Bras@@ 0.5762235708933081
eph@@ 0.26815213996163906
Band 0.1424120538232522
isch 0.05121579994818215
gel 0.25577157328954986
tak@@ 0.040146249617227577
Kim@@ 0.6935798808916211
eti 0.32016515975840276
aki@@ 1
isp@@ 0.5678175213705514
star@@ 0.054476230723159685
alt 0.13620687735703618
yu 0.7132395022889513
ward 0.08518942136949235
rich 0.2703787225977168
Western 0.12069010863007452
alc@@ 0.9036301501252423
r. 0.13228889937191887
Haz@@ 0.6670064947784187
ww@@ 0.759677227929041
Tang@@ 1
Hist@@ 0.21487178057454676
Gem@@ 0.2543686015683818
tín 0.3412392065140781
kan 0.3250750965347492
mak@@ 0.0872355067516347
35@@ 0.5162304196686467
Um@@ 0.09653903199043354
Stre@@ 0.19182623630725135
colspan 0.40810986559954604
Mün@@ 0.11981495506563207
8.@@ 0.1512961615354776
edr@@ 0.11329767380532436
road 0.07473595987155629
enda 0.22929170949461472
tarde 0.23817060906106283
others 0.07268833525113934
uj@@ 0.8032482543342613
Ś@@ 1
Famil@@ 0.22295950701461148
dul@@ 0.3411218181317646
lama 0.6113809205017343
vier@@ 0.23936071740278084
w.@@ 0.7696426684517684
Institu@@ 0.23505142330193612
erra 0.17414275002109905
oso 0.1514849479639133
och 0.2912996677646155
down 0.05824952729183247
Ç@@ 0.18264465967531363
him@@ 0.09762561759091323
mark 0.14671573845331834
investig@@ 0.10021763270892063
hav@@ 0.15900167834404472
km@@ 0.1452091059246131
def@@ 0.04544945363827521
May 0.03761067863862064
Der 0.0173206670684208
vor 0.03434252542169566
kam@@ 0.38528734967637873
c. 0.2967181115510884
200@@ 0.22786659775740867
č 1
tar 0.20579776142710385
map@@ 0.4613128818187963
kol@@ 0.2783503484532543
teri@@ 0.13182399928910513
forma 0.09822312446946378
To 0.12923644060795175
eria 0.3014161810328169
Serie 0.20866001363378509
neg@@ 0.06853816633397132
European 0.07576973804675782
atu 1
bab@@ 0.3508008864930719
incor@@ 1
may@@ 0.21946653303942099
Biz@@ 0.9669874645305532
light 0.06827656613303669
Schw@@ 0.12834646181671874
from 0.004017304084722354
Micro@@ 0.6892090183077849
rí@@ 0.3132748513013491
33@@ 0.6231129294064226
α 0.07071743518710687
other 0.011898517391142959
wil@@ 0.15222976816865785
ña 0.151975795120403
Def@@ 0.18339373939025777
ayn@@ 0.7211723339007283
tory 0.08748673518677766
hel@@ 0.04673194889954853
dar 0.17310446658195552
band 0.034553622650843246
kor@@ 0.16108089708993711
Volks@@ 0.16294205099674552
Olymp@@ 0.09999582040242516
aland 0.13330659130655134
Herr@@ 0.1420878290329102
afa 0.7115612155319625
añ@@ 0.10467245000725657
esia 0.4258632034777532
ò 0.3811768416363366
Wak@@ 0.74047948680088
igt 0.12004442501190796
DR 0.21995949621089125
gradu@@ 0.06520810301552496
kay@@ 0.30391592682618757
ering 0.06355163551911
Hin@@ 0.14905530689554944
Munici@@ 0.18029663643443294
Church 0.07625716913664059
ís 0.24901151860487455
Say@@ 0.6362126310510908
eer 0.07303897609476498
tas@@ 0.1950833017751604
ý 0.22460737621385832
Do 0.35528901882028385
iden 0.11794989694801136
Kö@@ 0.12853952149756595
ual 0.03304410160878107
bia 0.29445734920105504
uru 0.58661528066507
ā 0.6506202214255622
eca 0.2674113986929443
Æ@@ 1
80@@ 0.4333652418944007
oper@@ 0.024141900244646294
model@@ 0.11401974865614657
´ 1
uka 0.8699132077093586
sm@@ 0.11992022525094674
æ 1
kad@@ 0.26458773056545415
inga 0.7349859900828638
Luf@@ 0.17905248475563915
contra 0.11197892039394892
einer 0.01644790773621424
eros 0.11575121005141002
elop@@ 0.15749126195095364
sta@@ 0.12221387690025429
ás@@ 0.14691581146904328
inci 0.6123247692924025
rod@@ 0.5024691901094769
ù 0.40538911891392837
Kais@@ 0.1710758815857343
tors 0.06311624759172639
jer@@ 0.2728424728437183
vat@@ 0.30193809754136125
hen 0.2149140104056844
book 0.05806301895629263
ische 0.016407800279799635
Amer@@ 0.15022985562675112
Japan 0.0869846623472561
ț@@ 0.9152992202463921
deg@@ 0.1039616314700415
Sept@@ 1
alle@@ 0.2301185785121112
yat@@ 0.4714521614900456
bay 0.17498290115250323
Tanz@@ 0.9802812047113967
head 0.06185780944346736
9.@@ 0.14221455342154
üh@@ 0.04888537244010442
nac@@ 0.2778090839029411
3000 0.44356788229541383
üt@@ 0.08552350815395603
bei 0.014188758841707292
bak@@ 0.30055669833989396
enga 1
tag 0.191265968361149
Ż@@ 1
omin@@ 0.42359584412632195
ño 0.20812916452308797
ict 0.1797050829750023
Hoch@@ 0.10085777105627404
wards 0.07084700097359176
encia 0.025659508967515125
ily 0.06478477051234267
eg 0.08615663970575092
hin 0.1372381288279318
ican 0.07755073565248806
game 0.035105029485530355
xu@@ 1
gem@@ 0.08021390579265196
ife 0.07010397160168036
anza 0.17019079435356463
ful 0.03897933993220749
→ 0.6917792917839107
rail@@ 0.08561519765055564
fast 0.12345391612465517
uo 0.38146344552314937
eka 0.6868507129186121
Braz@@ 0.14965967259838855
unda 0.11870123343662696
UK 0.09431987340416197
now 0.0363721993122637
iler@@ 0.2982666513374822
olan 0.10917043030114011
born 0.02210138088547754
teil@@ 0.07413648777131024
bers 0.09036860811144577
Kul@@ 0.14014845175770452
even 0.05310068733470359
ney@@ 0.736892991753305
Yah@@ 0.6382793641581831
stand 0.046176320645900236
Kem@@ 0.6213992117452612
hap@@ 0.15860569696797053
align 0.25295177419759357
inda 0.6522816938877297
Council 0.0689383304315962
Virginia 0.11709643306974307
Haus@@ 0.1654034276317765
oj@@ 0.5046563732191979
chil@@ 0.07797485013764296
County 0.03191487009182492
Shu@@ 0.584788207212829
emati@@ 0.07956872315487841
inde 0.1009205770804582
chia 0.46486678870296694
ahl 0.11755853026262206
isha 0.4788947182462589
zel@@ 0.20576955762893645
Kri@@ 0.11732855992172818
ación 0.007832116914810675
eren 0.039465957285082065
hib@@ 0.13674304002397797
Kay@@ 0.6573124539729454
uel@@ 0.23073311902968482
gli@@ 0.192842038797328
kw@@ 0.2632406116022331
ün@@ 0.04289312163782784
XVIII 0.3407711852598069
appe@@ 0.07045695027845597
Kus@@ 0.6136405737491616
Prof@@ 0.23904078198157067
ener@@ 0.17959036802605713
dru@@ 0.11011088412866075
ainer 0.17232134485807069
xa 0.4563130376893369
ths 0.061964615484892585
Nacional 0.10852388167413414
Indian 0.08079327622039578
Bez@@ 0.07696053434193446
Da 0.14526644071632613
ț 1
.S. 0.5738217687806575
ional 0.09330571343292772
Album 0.1499487651980757
wel@@ 0.06065291168591585
má@@ 0.10530295984827379
idea 0.13034706695556816
lau@@ 0.17653649531933902
uss 0.0957011366444834
UE@@ 1
Spi@@ 0.055615635463823296
WW@@ 0.53645068231326
agre@@ 0.074950261846053
teil 0.0678524293852853
dle 0.07949442233452467
toria 0.18709241298568807
hat 0.037167604664169386
icht 0.042027842661363335
haf@@ 0.13850299362054208
Eisen@@ 0.1811256660175567
igi@@ 0.183206734824704
tras 0.09509847099037652
bao 0.18458115542073822
back@@ 0.09223092773720037
esch@@ 0.13048877261479983
oci@@ 0.10571093012652684
ehr 0.08797217020090119
For 0.045614530909095424
As 0.027394157834296547
Ent@@ 0.08840758461840455
ahl@@ 0.07339463867549212
rea 0.09670062481661189
Zu@@ 0.10419662864396437
sten 0.02472115868255172
ful@@ 0.081094454951406
ited 0.03244061053098751
für 0.007259936326727612
dern 0.06700663489392249
atro 0.18437607897550942
tí@@ 0.1588604162827535
ference 0.07309019904532048
ál@@ 0.19281309760135887
ý@@ 0.9826028725152894
This 0.016106970498408597
China 0.05937646342754305
£ 0.15621203249589577
onen 0.0557306586667163
nen 0.04727954670411672
isto 0.47204266832733965
enz 0.11344691227209977
&apos;@@ 0.02114184420985728
inas 0.13208445738175453
por 0.005742196737434238
äl@@ 0.039093929956962085
Women 0.09143870735617356
under 0.01715381632600771
stor@@ 0.07298031046628253
Chic@@ 0.8078597976180936
Uz@@ 0.5842826052928451
Africa 0.09627733536561534
elt@@ 0.11297289527935771
wak@@ 0.2069874672322035
lag 0.06643501141346995
ving 0.059370741115583825
esto 0.13981654910022326
ī 0.526447370301043
craft 0.07701599886963431
ân 0.14754341469903673
west 0.03912921107992255
Enter@@ 0.4063173164853925
inen 0.10125735161771197
invol@@ 0.05035023383142267
ift 0.29398425502092657
kt 0.03808616833480471
arte 0.22974257875462967
mus 0.17875818525173742
unds 0.0679369077262342
French 0.043319745786682434
chu@@ 0.3756720222100715
tura 0.0483590343323676
Educ@@ 0.08002749109225919
Kamp@@ 0.18493582302279868
endi 0.4267250336256371
law 0.050782332219502874
lik@@ 0.054491277323635144
tivo 0.10822876725316129
ular 0.024577288138038163
β 0.4833650608376871
Å@@ 0.9425776028975638
aten 0.036922832987804396
History 0.03731808937345244
afr@@ 0.2568034480834773
Đ@@ 0.046708024593506384
leb@@ 0.08507292480082233
Sta@@ 0.08024173351719191
bol 0.1402036342236572
Beh@@ 0.15049000829363762
Frank@@ 0.13111813367280373
yak@@ 0.2749867150464561
õ@@ 0.5384075412018576
depend@@ 0.07668506731566628
cargo 0.15321049347682095
engo 1
Dies@@ 0.09548518459731907
DV@@ 0.6650441381978022
this 0.009113290803977278
benz@@ 0.5610861507162532
video 0.054643744123502994
Anc@@ 1
center 0.07612288620045246
ety 0.04665595708949888
jas 0.1692302431581911
ă 0.9074074446963609
U.S. 0.04550423110056779
namo 0.9305151477841275
bah@@ 0.09498396429394138
straße 0.09612232022498154
König@@ 0.1015076029693172
Schi@@ 0.14437594765535236
bek@@ 0.06198157399874257
ò@@ 0.6593655564658036
río 0.13716815738694466
gun@@ 0.11861772811963713
Pf@@ 0.06662088283376923
aber 0.02944986444612781
Yun@@ 0.47178308279946485
Von 0.05177750854829176
ted 0.006878521082080253
Ó@@ 0.5212547920053693
ede 0.17583386107436008
gun 0.16122182837799065
Schl@@ 0.12362272783978841
gil@@ 0.14147374622391576
tn@@ 0.15057496986986885
ambo 0.9538208707992142
kaz@@ 0.7113061276763623
`@@ 1
− 0.16913524895672324
medi@@ 0.016391262142158608
Revol@@ 0.10020895882513595
Italia 0.21886869645391047
Kid@@ 0.7015696049024613
enas 0.19056705783019925
kho@@ 0.38654004484350435
California 0.050129782179403434
mem@@ 0.0487791914862253
sak@@ 0.5695084822569543
üb@@ 0.13755811943138588
music 0.03085034760823216
haus 0.12700501183423052
uerto 0.13624688164410542
ü 0.09702137748877225
Ago@@ 1
ancia 0.09623922910827211
alifor@@ 0.40450023498203985
Sek@@ 0.16935374863337815
unga 0.7988218870289434
Auch 0.08289626491323067
war 0.005857791215448808
juli@@ 1
tries 0.061768536879175925
Mek@@ 0.680448465504298
Fes@@ 0.5170772665286573
201@@ 0.3662043094718381
mez 0.43478150615556077
öh@@ 0.05184634038108823
round 0.046592527238188
‰ 1
ő@@ 1
cast 0.05661632672624001
Eis@@ 0.23288158826228636
mah@@ 0.37890850705966445
less 0.04256664750445027
board 0.07336330451958398
hips 0.03524115501708863
umba 0.603616398025677
than 0.016514863349087344
CN 0.3381024099121371
anas 0.11477652263129597
utz 0.13897366918749926
shu@@ 0.3460262771994433
Sult@@ 0.31028476285357337
ahr@@ 0.0598785442287246
kul@@ 0.07711601205738934
Ú@@ 0.37978313647248174
ht 0.12405915866359626
lil@@ 1
jun@@ 0.22049266462582198
adan 0.42728194836425837
Schul@@ 0.08276330397479886
med@@ 0.03810277084374303
ón@@ 0.0682790073769431
ei@@ 0.0575085570750681
has 0.005523410404782651
Nis@@ 1
lí@@ 0.07663480912166444
Gün@@ 0.3407459236011341
onder@@ 0.1704472182502375
fu 0.7868796913761618
Zw@@ 0.07828234258465018
hut@@ 0.5652623395000952
Milli@@ 0.08688279548669062
tech@@ 0.5029663680983224
hara 0.841356368060245
Ere@@ 0.23144852018085538
best 0.04082074424504139
Am 0.03129428782430412
haz@@ 0.32966043191693895
sei 0.09450656421419237
ina@@ 0.7197992343650623
ș 1
Ni 1
ł 1
ien@@ 0.12843424694237848
English 0.036312293712194986
erk@@ 0.07423210914440512
icio 0.05607505677238201
aban 0.047186121190529784
baz@@ 0.7217996308759269
ì 0.19247535577296002
ebe 0.20860539232501332
zur@@ 0.3123809094227118
Kut@@ 0.5489165926430646
design@@ 0.030643379981387223
Krieg@@ 0.08188624510379751
adem@@ 0.06575917495010089
sik@@ 0.8447822877107021
bern@@ 0.14755298072308107
Yar@@ 0.38226315910621517
Oy@@ 0.49241328999297507
saf@@ 0.09850453918726136
contribut@@ 0.11265041764191643
say@@ 0.05116191339323513
equ@@ 0.04217533127137604
wah@@ 0.08662161945699785
So 0.0751442612039498
gol 0.3620876034701363
ück 0.1165568672720146
India 0.04317442583229056
XX 0.13966406251588623
angel@@ 0.0881310011353206
parte 0.032283153882461425
Ê@@ 1
spe@@ 0.03424111148112285
yar@@ 0.18362782120868984
Wan@@ 0.6130675219243507
lerin 0.1289587477020181
Gran 0.18251638321236785
đ@@ 0.0222154339853974
strum@@ 0.2408261644198625
forman@@ 0.341574645553381
tros 0.29021258881703077
world 0.03180686969477519
rom 0.546369806594952
ē@@ 0.8228586285806959
sing 0.05584232987979622
away 0.05493943313528576
enst@@ 0.08553742954901587
Ukr@@ 0.18583595721695992
scher 0.07802281834721685
endel@@ 0.6020889831945849
Australian 0.05419298673324444
mara 0.22314196804048608
ological 0.05016097779322667
Wilhel@@ 0.41972334846770415
iki@@ 0.3530508414195698
ß 0.040515694016408726
ating 0.013451940165381855
ayan 0.18270383933184806
@ 0.8703139404035726
sad@@ 0.5033680291760136
park 0.06826005982864808
Minh 0.3031019879598338
americ@@ 0.12037374223280148
ween 0.15296520390029708
Arth@@ 1
pen 0.07624741200093527
Nieder@@ 0.06729367103855419
erek 0.2541292686379728
spi@@ 0.020831962650026386
featur@@ 0.02739371603490387
later 0.01294643948941854
pad@@ 0.2121671014109931
ya@@ 0.6294278056719835
furt 0.1314797667554433
maz@@ 0.6214816205367082
Ped@@ 0.42120182801350603
uda 0.185361843119626
ʻ@@ 0.7318381103266705
ikan@@ 0.13754718226984478
Este 0.09832894425790913
run@@ 0.028652245390564508
idas 0.07749176367818612
ambu@@ 1
He 0.004019198440895026
kop@@ 0.18363376145292962
tish 0.11165319036971529
eki 0.4840764592332138
anno@@ 0.4876317963559962
atos 0.08630602718892204
Tari@@ 0.49565859777446997
ác@@ 0.07406147298767968
gu 0.7325019089976368
mez@@ 0.18702338328031176
ät@@ 0.029861257648276088
ning@@ 0.14416575094751494
Tek@@ 0.4519555600408986
COVID 0.1438123509379337
liz@@ 0.14337830814433744
acio 0.11408569680331401
its@@ 0.08732085603802323
י@@ 1
chn@@ 0.35669345021277477
kön@@ 0.12711748538494438
African 0.06369771221617344
ayr@@ 0.19812780361224555
his 0.0023590768596110975
Das 0.012375959044314865
izi 0.8325204722895266
erst@@ 0.04568515151123548
trol 0.20593857039394078
zt 0.11708152948916498
tras@@ 0.09182716717528132
Roma 0.1745889191766982
ş@@ 0.03634659636286841
Ort@@ 0.08265998902990243
nes@@ 0.2274150336419588
utz@@ 0.02935908905263509
Govern@@ 0.04245905578791924
life 0.0169309495828206
get@@ 0.05965969245032261
Asia 0.09647399639804828
obr@@ 0.4569981304849875
kid@@ 0.2906380438318701
opo 1
Su 0.04489578050710819
ß@@ 0.023215951464749512
ungs@@ 0.00871482185416697
spr@@ 0.02473719755203602
uz 0.1549227730790484
eon@@ 0.5405082692913349
pio 0.13924062493385947
idad 0.013645968314055372
was 0.0007905552591345953
Kant@@ 0.12498098883688798
ority 0.037918530944617085
come 0.03670600221396411
ext 0.32180311376711274
Yer@@ 0.4954849050552942
From 0.03910711352257829
lich 0.007002659877809642
tima 0.12356421669169393
eras 0.08275141278063115
ism 0.024841955787840337
usi 0.8548181601687976
aliz@@ 0.02231949974029225
lim 0.1371289734725027
lay@@ 0.09334911573428828
irk 0.10513823695724833
ías 0.05385175568035354
ality 0.030008096689074563
ulia 0.7897714441968137
ishing 0.04693229153433846
Israel 0.0830577375256988
hay@@ 0.2558284898696652
refer@@ 0.028334750621541765
lek@@ 0.1137208394058677
adas 0.01717992075343616
inger@@ 0.23162026967080598
raz@@ 0.12571593011924367
tur 0.06520894004167245
gemein@@ 0.036462379988200885
works 0.03221023176790602
ə@@ 0.5703434522405794
-- 0.404549740127445
ensa 0.10557742565086538
führ@@ 0.029355828140208807
lug@@ 0.10648930909600748
tham 0.12698450573205702
thu@@ 0.09971811997111099
wing 0.029259379850080026
Jah@@ 0.0809955236899772
mittee 0.04450227239937382
isco 0.6426299793109258
kum@@ 0.18483588956594335
ample 0.04187118149518729
had 0.0039246602081466275
ň 1
anya 0.26336363697053555
thi 0.151816064658478
ción 0.011122580783430886
unge 0.16463560826641982
Nach@@ 0.028313836774567863
won 0.016237725663484182
ól@@ 0.11746775085821048
nach 0.007098902634492414
sobre 0.026845610583265313
anan 0.29767599438703896
kit@@ 0.1639933926830536
ו@@ 1
vy@@ 0.9555835656663895
ational 0.04255718126379087
iff 0.08656608125285262
brit@@ 0.14801374868874823
emba 1
aji 0.32245659874460486
empres@@ 0.09476378134771034
wi 0.6052333082783983
coun@@ 0.013556246771715304
kle@@ 0.03796651437245852
inh 0.09954703650625212
assen 0.07066991075910724
amu 0.5280682118232864
icos 0.035601997414122635
histor@@ 0.04710325841430076
alen 0.05935553296977765
With 0.042322812548797224
media 0.04494480531021821
cier@@ 0.10240457537718228
kun@@ 0.06853788812473645
schaft 0.012624663484307404
Papa 0.558613824019985
Wir@@ 0.0789607803090586
inden 0.08107083482859659
ˈ@@ 1
KK 0.5827636876595005
lise 1
essen 0.0869385692343053
kö@@ 0.10850443807252844
bahn 0.06204852583246803
eza 0.06933524550431196
Oly@@ 1
uten 0.09555239409847892
nig 0.08403748113382227
Klo@@ 0.0922706754281801
Ayr@@ 1
naci@@ 0.06256650081583877
11.@@ 0.17201990107924275
lik 0.13998358706600111
BK 0.6533292261908059
topl@@ 0.19347342163847367
rö@@ 0.09695523163102748
grup@@ 0.07078719810593347
mim@@ 0.45882072070993735
git@@ 0.28531470360959077
º 0.1323572223802801
ø 0.6836353617890363
ÿ 1
dings 0.03901967640163521
́ 0.02573215431632085
12.@@ 0.16784098257155275
undo 0.347684248546381
uso 0.050724637381416006
Geb@@ 0.06157276742796532
atia 0.21284503658162351
uch 0.06742373909174645
new@@ 0.03806616903435725
tiva 0.13416030156601982
kas@@ 0.1948812860959092
chini 1
abu 0.5195510319910788
kis@@ 0.32530942762899046
Spiel@@ 0.04831707816079076
aina 0.5198882177110878
England 0.027540948534274738
sti 1
ime@@ 0.5904906476634442
schule 0.05371596649978064
kn@@ 0.05868650773379549
atz 0.052851463471653315
mann@@ 0.06715577705478724
nah@@ 0.07210687619467845
geb@@ 0.011794296798388315
Fren@@ 0.8086857173820113
liche 0.012903988304282812
Ankara 0.39053156332225836
± 0.6232518665256058
sam 0.07435390721335557
Ø@@ 0.7548855275895723
team 0.010390997774404612
ities 0.031575053160223625
fen 0.042941148710410756
eles 0.10520861254764279
eleg@@ 0.047100867142069854
trai 0.35391420719723526
dren 0.17007565303051167
Stra@@ 0.07451689315370263
angi 0.35341767333436713
form 0.012901640403600452
itung 0.04463578456871404
kap@@ 0.08207951161303165
Ireland 0.05544548939830913
esen 0.03655059850175879
self 0.016341966557285287
then 0.009338981928908804
partment 0.029881486616640956
ird 0.1370484097501115
zor@@ 0.3514523619153847
ʿ@@ 0.47695820746507583
Fak@@ 0.13197398062537488
Burundi 1
hak@@ 0.27187606860265656
power 0.03000502930287151
Florida 0.05929769254670619
erne@@ 0.08204610818663821
kus@@ 0.17565402362960603
March 0.014629350103020194
Academ@@ 0.12094618140118701
anl@@ 0.06999250130739978
azu 0.0666468789584294
erh@@ 0.04002463061848529
bau 0.04623231864085888
zw@@ 0.06663916623272405
eso 0.1500607786437135
§ 0.28526871207744164
1. 0.01803399616651377
yer@@ 0.11899198419387576
tei 0.06843718828071921
etes 0.10116300174114926
hio 1
Bü@@ 0.11331581453115534
europ@@ 0.06892147544168634
mula 0.17920560618939033
zis@@ 0.2872909918270299
azo 0.14880293246829235
Liter@@ 0.06630778695340377
Democ@@ 0.04208727318393701
langu@@ 0.10293277186754532
ists 0.01815834422836421
onio 0.11562310799680044
imba 0.9389692817270824
ös@@ 0.06604483952766683
ín@@ 0.05172164317516493
text 0.05343441986532131
Alem@@ 0.10965111811107868
Ban 0.20231796531911242
arak 0.13039420773593124
ilg@@ 0.29082772661989087
umbo 0.5463899704589001
å 0.7449564996322577
Schwe@@ 0.045460552290538844
ún 0.050440759727782745
they 0.006053039310042778
educ@@ 0.017965865370700773
Stad@@ 0.13873001427220003
edad 0.03705605710188745
Gü@@ 0.11424098366999205
death 0.022394822476831243
àn 0.09975401108843744
Sü@@ 0.04171899348643267
ã@@ 0.2942124363716569
ellschaft 0.05873179239832172
jed@@ 0.7657564837620151
eig@@ 0.025785047796508424
was@@ 0.06376150665576334
eder 0.12005635690619347
ece 0.02593798936245178
platz 0.07846346318932367
sey@@ 0.4299567359528003
ungen 0.005794014973776248
Australia 0.02665127219228268
estruc@@ 0.09532961903035456
umo 0.3384056248481911
Kik@@ 0.8440622097810478
0.000 0.07111952534044502
kara 0.45272302756203137
aster@@ 0.0663897636042175
Ba 0.21176227459052116
fass@@ 0.04627710113096629
ool 0.43561430129086953
bere@@ 0.042911106465969975
Öster@@ 0.07072627422367142
weg@@ 0.03361423303783716
zog 0.062300005589140964
mich@@ 0.8449276976956661
real 0.043032878408059874
maya 0.15933115116949076
Hung@@ 0.06842595249076724
meister 0.05764661435969617
When 0.023740339430540602
that 0.001285358200041816
At 0.015619888540436073
kri@@ 0.04890410499822874
sos@@ 0.22151667217950372
brach@@ 0.08342099763728568
199@@ 0.05653977759855572
División 0.10127535497799786
late 0.02304946023252771
yas@@ 0.11798753878440955
ğ@@ 0.048911751395213324
ſ@@ 1
kim@@ 0.2827060628651268
ühr@@ 0.057665037841430976
iwa 0.5807642609691748
isen 0.05692458331419911
enen 0.011142641513875746
law@@ 0.03522648166520128
left 0.01794592286846038
isten 0.0218344126046104
group 0.014645954669511624
leri 0.0383883168297216
ersch@@ 0.03620205758372743
rem 0.9549291934649918
After 0.010312381460846672
trat 0.039382909700548835
pia 0.42973227295771693
bü@@ 0.07861164338481454
mec@@ 0.1688115573713116
Ş@@ 0.08179454704833757
entras 0.21286744136983066
Historia 0.05992606420777049
Hö@@ 0.07096454788641261
issen 0.07881690850134443
enes 0.03950150369551441
body 0.032303640878481255
arias 0.09396006206628066
ş 0.08403415167385747
tek 0.27180175265457734
³ 0.21087840091334548
Ü@@ 0.06264059312340418
ź@@ 1
kes@@ 0.1252582318567026
vania 0.05670144625154393
elek@@ 0.08234940427566442
tig 0.052840933322444196
ede@@ 0.23738294418214312
aras@@ 0.4624043758882391
Sin 0.0565145273051561
egen 0.035211796189165326
aining 0.01948228634936728
open@@ 0.04252683210706877
a. 0.06873007958781721
sau 0.03930957999818554
color 0.04888361732207672
unter@@ 0.009473531396228987
XIX 0.07904499911892361
ḥ@@ 0.9251145336523144
data 0.04600946237980248
äng@@ 0.018102815451015615
hid@@ 0.09161278511373956
church 0.027536401747043332
Wah@@ 0.19071238430292478
üc@@ 0.037072683661064434
emen 0.06373815042227886
issen@@ 0.07032115379765372
nak@@ 0.22469080866800029
apon 0.23850210638082117
Yes@@ 0.5163879379102004
gener@@ 0.014069024076915657
optera 0.22362249984822766
Í@@ 0.40273929014677984
eshi 0.4924401497327848
ő 1
rá@@ 0.07561673622345247
Alman@@ 0.599609702768316
Grün@@ 0.05029916947953216
iken 0.11712618480347592
ž 1
esper@@ 0.10359816657987868
ů@@ 0.8771672573916017
linois 1
nt 0.03541545192522006
^ 0.7289965787359793
bey@@ 0.3575474867607896
kre@@ 0.027855265345086828
ôn 0.04928844197230774
schw@@ 0.03829216008237653
Theo 0.1572468153362229
erin 0.04931826447390308
elde 0.26588985675374127
provid@@ 0.018784947836728468
ň@@ 1
kup@@ 0.3569509871604888
sanat@@ 0.39091836579325207
jah@@ 0.05556595469344527
hr 0.046177697758609915
mov@@ 0.013552885378584125
ר@@ 1
lieb 0.6221604060235367
pf@@ 0.025250109764939004
Apr@@ 0.7084087975166685
ě 1
embargo 0.039520044426936525
hus@@ 0.04813537510029616
Bev@@ 0.41803115873821844
iç@@ 0.14584797608531108
Soh@@ 0.27834427635482667
tung 0.01610281414940375
sche@@ 0.04924143979140399
ṣ@@ 0.8543170094229027
fest@@ 0.05913605064549966
lub 0.21384427604807255
class 0.027474550136617502
Zwe@@ 0.06230641083483039
immer 0.03970769138166564
ė 0.5779795218905657
cula 0.24333470691947617
ought 0.013669036402183112
ù@@ 0.19784138286384176
Con 0.05600433562403441
äd@@ 0.03190253639610231
iran 0.9827896619294433
ip 0.2537893954980346
school 0.010492060354247329
ος 0.020293933710547114
Dok@@ 0.08994333444611825
isches 0.059010944842831765
them 0.009107802549176877
äs@@ 0.027494295055791956
schen 0.018989425900006737
will 0.011122168433202958
alian 0.03602616889759417
Heim@@ 0.05716397488002216
eye 0.09496150195907016
ned 0.010195119159644848
ì@@ 0.6186021759855694
É 0.8197780841739649
dad@@ 0.08110701127603727
ên 0.07024109610128713
dini 0.623200531464428
icas 0.026178842489553003
stad@@ 0.27170134315659195
γ 0.5811833831958255
yok@@ 0.3396900850997314
א@@ 1
Süd@@ 0.03237399155386228
bez@@ 0.04128454414249726
ç 0.05681627839601908
Kib@@ 0.5864394089347716
Groß@@ 0.034144531655146936
aben 0.031401720356318635
prac@@ 0.022574486536029174
Name 0.04165915522039414
event 0.02497227517921422
üm@@ 0.04190019306652963
ellen 0.019989426762983407
′ 0.321447347543321
full 0.025528185688119116
ilk 0.05538782423727474
ording 0.024155269386416683
½ 0.32129014802430494
same 0.010319512540794846
Mp@@ 1
--@@ 0.4712337631393354
2. 0.028903131186949472
By 0.022869981225706815
She 0.0070665625547302255
ı@@ 0.03578001935090037
gru@@ 0.0659514844730574
eden@@ 0.07115147751479077
where 0.00548582839429931
werk 0.038824008582636675
ã 0.15821478625972402
atur 0.04813644389170219
aum 0.028018026491373353
198@@ 0.04052759511659321
meng@@ 0.5095235029305447
jia 1
iku@@ 0.6443512137416977
trat@@ 0.05472983746833478
about 0.006638703645283491
ainst 0.30290877436447045
uko 0.8061443712356541
Ô 1
iten 0.018792723493502955
dok@@ 0.505323047695674
allen 0.05330596559894685
His 0.010946160527029253
ischen 0.0029307385869569327
made 0.006088508881615915
âm 0.05693790976499918
perten@@ 0.0528080157644011
hac@@ 0.07397432920911948
ismo 0.028085541912436854
aña 0.07660311378151119
wur@@ 0.10468578347298498
Ä@@ 0.03473831866290379
beg@@ 0.009117345854439083
lake 0.07609674160565641
alist 0.021633172546078223
ampi@@ 0.9556709223451383
lang 0.03278698140126653
National@@ 0.02967152174611828
на 0.0008272694772918941
eral 0.04076789314529926
Þ@@ 0.805085428866857
ecke 0.036439177641486506
Landes@@ 0.04176245280683148
Sov@@ 0.29551499459838554
ography 0.018501934439755004
sek 0.4259561170258335
auch 0.0036676567289900034
ɔ@@ 1
hiv@@ 0.4106047546066637
jos 0.04364689099916953
ging 0.02384897610290868
establ@@ 0.029226809551967048
zil@@ 0.3849619688587255
ÿ@@ 1
June 0.009687458772910409
eben 0.00840280528592804
may 0.008914821640919475
enton@@ 1
kata 0.2897771169818644
.000 0.062003714260723194
eas 0.018648034589958794
head@@ 0.01994127944930227
eas@@ 0.019247838657942985
tee 0.17349833939837409
kio 0.2082560566310848
tik 0.04650853842741372
unia 1
Her 0.02776691735784237
Bei 0.019587316556266887
Việt 0.05390955135776066
eran 0.018562749179559218
Rus 0.3288993495376398
fore 0.02941506219852534
run 0.022054591370974104
cá@@ 0.043164511862535164
usu 0.133510367756607
inner@@ 0.05166389645763486
pero 0.01409760492870737
fall 0.025934511867233567
There 0.011146472111412965
hii 0.46025020933028865
Universidad 0.03403281895846125
iev@@ 0.01865316103948903
iker 0.04625453075274798
odo 0.05474229724200891
ב@@ 1
eler@@ 0.05327670324672574
track 0.02174316019796833
ís@@ 0.033469317201037616
ṭ@@ 0.7889021460723394
Pia 1
ihr 0.025980870256738425
inning 0.0149899894672836
system 0.01150289301162035
Kongo 0.5811468922756898
ög@@ 0.06387833688902393
Bir 0.19814059556843128
φ 0.1751155022671632
çe 0.1640738072083016
building 0.012926222450490127
leh@@ 0.0677046604528608
מ@@ 1
Staats@@ 0.04783716619267741
España 0.03377656617257629
ished 0.012266420809780233
wana 0.7429666449857716
С@@ 0.0032882988356532877
μ@@ 0.017003775595067026
reich@@ 0.015506709907643832
unde 0.034965821259570026
neo 0.03980075650375324
Kup@@ 0.12942767624125184
tek@@ 0.09697008640550367
äh@@ 0.01997725278969992
igen 0.00600782172945211
umu 0.21084838696638816
ogen 0.03101614157701798
wann 0.5507434093792613
kt@@ 0.05158384043908066
196@@ 0.03917434957440335
drei 0.01578365464161523
stil@@ 0.1357368755209555
city 0.009050212509766349
nea 0.10905816760066037
elem@@ 0.04819738829530765
gut 0.05806679282386681
ǎ@@ 1
ngu@@ 0.27908556846101124
unas 0.07210564018804558
enin 0.10410779454992136
feder@@ 0.022561086655787804
aten@@ 0.03966603094243125
ɛ@@ 1
eski 0.1544899179322577
she 0.004109969623463522
deut@@ 0.021910010807192067
λ 0.06116962720819013
home 0.01133230312809257
ś 1
Una 0.05463923454221828
iß@@ 0.03947834651957305
Distr@@ 0.06863189992056674
oren 0.02403209601463966
atura 0.0549605673042918
Deutschland 0.025365983671462467
otra 0.05824695846347137
statt 0.029779311233073664
büt@@ 0.2435158002045594
tiz@@ 0.032790084982173624
ש@@ 1
wana@@ 1
uza 0.46687155487964865
April 0.006481104650844027
led 0.006683187447963483
194@@ 0.10879390477568898
kia 0.43176996055322897
ı 0.013113789230442867
ved 0.005829674821678807
nacional 0.024522373552865292
kik@@ 1
reib@@ 0.027624815118950673
Es 0.008819408162853782
Ș@@ 0.9102778058805935
ℝ 1
like 0.010239080101526582
regi@@ 0.015250867857473382
ieurs 1
oğlu 0.19006131452009292
dik@@ 0.11055842198315896
cil 0.037627035301750905
octu@@ 0.24996836700330688
ა@@ 0.8326392792615688
eten 0.010610666965167836
大@@ 0.0060892183792934955
dort 0.021771775286834237
tores 0.04427424935782794
gesch@@ 0.00794507534621617
Barcelona 0.05491506580738871
Straße 0.046917017693206504
ω 0.1337241060903951
ký 0.1323983997275733
Haupt@@ 0.020785992446444225
short 0.020180620745430165
wir@@ 0.021365113139923744
ember 0.0670408840250993
oyn@@ 0.1364865699120743
197@@ 0.03411143189198054
bed@@ 0.03336350008628412
uvent 1
song 0.010221992068149685
ṇ@@ 0.8800796787004048
kam 0.018466517732718457
µ@@ 0.40036105370607106
σ 0.5592168329061424
Film@@ 0.04350636307730184
huy@@ 0.221348616830463
adores 0.020149784109721156
ifu 0.7366938033264216
quan 0.03714375185290062
4. 0.04586905006742591
elte 0.027220855750003776
Nguyễn 0.12285266457404635
ichte 0.034760341318263194
ⴰ@@ 1
kreis 0.033817561490541416
ל@@ 1
् 0.0012571190275589002
Guerra 0.051439619062459675
kend@@ 0.10566397151355585
nord@@ 0.048532958875209246
π 0.16269139207035632
oder 0.0059672554194443615
esha 0.4292721647877084
estas 0.034835925828681655
zas 0.06826942749053122
Span@@ 0.022307869701132455
phi 0.17511264929033507
ε 0.03854783377065469
ober@@ 0.041222395535318646
utsch@@ 0.20280730746426526
ʼ@@ 0.3875526720605411
Dez@@ 0.5931444274167542
195@@ 0.04611843534267746
eden 0.07164081774160444
Wilaya 1
tof@@ 0.7377384413993452
soft 0.15215704605955843
kno@@ 0.02557199772234811
Santi@@ 0.7091395692550932
і@@ 0.19913894148670053
inco 0.37573800566245824
Nueva 0.04730975215076959
Mittel@@ 0.028081463134668014
many 0.004957300697620762
él 0.03813877765809629
kut@@ 0.23793922585915853
mf@@ 0.22486498898212684
fied 0.011779619878040342
kim 0.18631464204917883
tam 0.23812817872116157
Ö 0.17674835543919734
dah@@ 0.04344144602333271
ütz@@ 0.041575278054025784
heit 0.01769184260240448
indi 0.4377684859821103
190@@ 0.20361269781249267
Ó 0.6707303564444526
wr@@ 0.033637947205524175
itos 0.0529094265140928
县 0.03386508877517633
nach@@ 0.02027620408256606
icht@@ 0.031120840156405084
Mw@@ 0.713179880380099
enzi 1
tah@@ 0.1754620713447879
geh@@ 0.011323546603044634
high 0.009332347496754741
Akadem@@ 0.07303031359751176
Musik@@ 0.0322800062347297
leit@@ 0.03235258623564797
loss 0.014696031848231568
נ@@ 1
ße 0.029378554757270584
Kig@@ 0.924422768585967
inin 0.036302080410940116
kana 0.5045486920062847
record@@ 0.014956892692042286
izo 0.17823040106156127
İ@@ 0.03319901040634746
во 0.007173015235638583
Compan@@ 0.20558292585872476
ė@@ 0.46479431515713887
δ 0.6175574898142978
Zentr@@ 0.0385802439247544
α@@ 0.02129560161939231
193@@ 0.05719540406509931
mak 0.08271160625969712
lieg@@ 0.024604494535915802
ligh@@ 0.01834356990864113
imbo 0.3897921748202713
two 0.0024694057076406132
noch 0.00823743788332423
ν 0.03381993437709772
gö@@ 0.09249935253493412
idos 0.019283840302749048
ה@@ 1
idir 0.1068117199048408
uzi 0.7803788174005944
‑ 0.819317040560922
reich 0.028112354053706233
tional 0.008767036081773297
ück@@ 0.035592748417196785
Argentina 0.033721490732534894
çal@@ 0.14790244483783563
publ@@ 0.018981837950499972
ibu 0.8286305011831137
isión 0.014163223133627204
Öz@@ 0.13319475816671988
eñ@@ 0.03470393403304228
dak@@ 0.31344936908799215
ability 0.016379541676360184
adora 0.05191868634590329
pedi@@ 0.04589848532368827
verl@@ 0.014190535327057156
Ć@@ 1
ð 0.7963375827933833
eño 0.030618748072817722
Ngo@@ 0.5784566092448311
sed 0.012972069953484502
riff 0.03732926978733495
ņ@@ 0.9828053071115413
people 0.006093721317015549
quy 0.15603843573271045
ended 0.006713741633281977
kem@@ 0.2149893963738655
Brasil 0.07757872106741807
year 0.004014077908632451
gether 0.01502975839401289
ests 0.017132604828367263
cian 0.028618265514189105
А@@ 0.003048240953497564
schi@@ 0.017770979456988103
bul 0.424081084938824
estudi@@ 0.042398472346509876
kamp@@ 0.07609121037798397
Bür@@ 0.08296380583193554
в@@ 0.0016266420095920157
Eins@@ 0.029066779479695114
number 0.006337753181706201
auen 0.0279099428491922
icha 0.28498305296177046
aje 0.01643435488782493
pios 0.04831134812720663
Wasser@@ 0.032463842301193015
Zeit@@ 0.025105943006515734
doğ@@ 0.06811171676780628
entos 0.010866270457179094
ი@@ 0.8960857385105245
ún@@ 0.026609031509245488
ücke 0.034944404193541015
event@@ 0.01649396498232589
ease 0.011574459281466932
ť 1
German 0.011331891044267111
leich@@ 0.0367532712087514
tim 0.07271499285863199
Stadt@@ 0.018337796720530562
ς 0.03842528364094638
ľ@@ 0.9033680479427953
eln 0.022423391842942314
anyika 1
gü@@ 0.054345142659138916
enden 0.006957415667899341
party 0.015400607198317505
lung 0.01259623552977121
games 0.012078289757535452
weit@@ 0.01583889709171218
general 0.009363129128527485
unu 0.0706489300966219
ŏ@@ 0.5594983583802099
Grund@@ 0.021305765041156468
Ein 0.018179288353922154
Nguy@@ 0.5494766169855748
äus@@ 0.032314593036754824
θ 0.264236192572937
sana 0.4701967460539494
vita 0.8243031132650557
ա@@ 0.5785994540779147
р@@ 0.0032760660887831317
ро@@ 0.0017641484434889223
ー@@ 0.9042890999298022
Bu 0.033126063371282724
mw@@ 0.0554866971508152
angu 1
area 0.006074988214145428
َ@@ 0.05873533299456148
orden 0.04451420175570294
wie 0.006516818544695611
omen 0.22541214832326853
title 0.012241382339654277
Gruppe 0.03091398097984195
unci@@ 0.0303422566687106
graf@@ 0.043408050952184724
ün 0.0478396382213448
have 0.0021561090287094465
Lan 0.07154761423164502
Wash@@ 0.39867717946244535
verdi 0.2685493255199991
west@@ 0.013146670170721719
ería 0.03926721212481667
retur@@ 0.012760581758460742
О@@ 0.0030184719799391845
ül 0.2508038455985653
ungu 0.8484440400168359
chter 0.029911995022089577
They 0.0067420595330359165
span 0.08903682971850549
tena 0.35877349915013473
3. 0.030472633866228244
speci@@ 0.012624604473194991
day@@ 0.08627771333219844
sich@@ 0.016995998124234035
β@@ 0.011192049826484978
model 0.023048562483853185
þ@@ 0.9564541489290841
8. 0.04216052457100631
Nh@@ 0.05997088315791208
ativa 0.04314784346469954
ansa 0.4185782122655787
ρ 0.03778894675494043
Auf@@ 0.0060576178219958095
divers@@ 0.04331310568511352
útbol 0.09822451577997392
lanz@@ 0.0188781918768479
mik@@ 0.168503189894631
ℤ 1
vida 0.025780186416191717
ż 1
ked 0.009755645556039761
Famili@@ 0.027386737577547032
üd@@ 0.03893758995876339
р 0.002170668434731614
ellas 0.04526694203190767
first 0.0014834519392100236
zey 0.4838652109358181
msh@@ 0.3720616467962606
reci@@ 0.01266072926732883
ünde 0.051551361742545376
„ 0.0020458621392543327
riere 0.14981879551822144
н 0.0018996380938212968
ע@@ 1
bang 0.05961965123068851
Mei 0.603142540540845
й 0.001645478008532522
ה 1
wenn 0.032262200169961695
schluss 0.02844625241069882
192@@ 0.4542932532662886
hari@@ 0.7068766722377464
orta@@ 1
una@@ 0.5297746527283805
respon@@ 0.009951153629091445
sequ@@ 0.010270211675174439
kav@@ 0.18217442493193467
вич 0.013164435153488025
uu 0.5811346314740532
yap@@ 0.02742838388265209
ected 0.005065600692212058
anh 0.03405667168233735
kip@@ 0.5180501499037939
≤ 0.8883924896614598
ifa 1
yol@@ 0.09044146190659813
ezo 0.41367011478186233
5. 0.03527671200127347
vili@@ 0.06501803212767175
ús@@ 0.06947512276814334
Д@@ 0.003499267095199493
Feb@@ 0.9145750650145776
spor 0.1906080947636475
lerine 0.1327605525204008
ßen 0.012444873014220523
σ@@ 0.011260203353775915
lichen 0.003547033466376088
tly 0.013524251505454155
üm 0.09194490138875819
ieder 0.11404081001843856
Chile 0.029740377936893138
edit@@ 0.015092606451040916
epis@@ 0.010379577851736798
ngh@@ 0.0856426698797441
wich@@ 0.025463968866089856
cion@@ 0.011572348063651866
anderen 0.015207941889366644
Woh@@ 0.023821525831217532
alem@@ 0.036751661931400184
pain@@ 0.012656367654740278
malar@@ 0.10452788577329108
ř 1
leo 0.06459998540855791
ď@@ 1
Professor 0.02275371921108245
mab@@ 0.40795685461206593
ubic@@ 0.03801613806900335
― 0.2139425550400867
leng@@ 0.014275128729384759
constr@@ 0.0593618230161934
tere 0.047943974203454795
acter@@ 0.01932326076277581
enso 0.0163290694728747
deutsche 0.028451406649517064
novel@@ 0.026958245921066454
ingi 0.5578315598510992
ograf@@ 0.02390365669287771
waka 1
imiento 0.01204284895448894
deutscher 0.023363332895876547
gian 0.024453602560324517
ometr@@ 0.09761256818319364
γ@@ 0.01399132248246897
wam@@ 0.4105273304881875
cada 0.019957238819596164
Ā@@ 0.49580960636090315
Δ@@ 0.032094333259612765
Mär@@ 0.11669215693570141
went 0.00951449898755658
к 0.0012939987397611202
Platz 0.015720024491683124
achen 0.025131907236165197
kirche 0.0296260463785009
osas 0.03101180618433845
orden@@ 0.040173942463050526
の@@ 0.8129404186356323
Para 0.02995575174956349
liter@@ 0.011575587954399336
Best@@ 0.03030765846926849
reco@@ 0.0297095141305397
fund@@ 0.008000269737899086
municipio 0.021527519025734396
úa 0.04565197521198486
Mart 0.10564768387089839
ский 0.002643067189482935
ד@@ 1
ɛ 1
ן 1
ţ@@ 0.4861930926509588
writ@@ 0.006675306875107762
äch@@ 0.00855945944203162
区 0.01256600119712772
К@@ 0.0028943807631562407
mek@@ 0.07967501394483607
Phi 0.09705955012586857
189@@ 0.1576133380375129
0,000 0.01497584389662252
enst 0.03113577412055784
luk 0.12280457877945009
ת 1
ded 0.007881695612810912
sek@@ 0.050716685974753234
л@@ 0.0017669818185936598
cual 0.014333858924600505
ка 0.0019760795432558426
did 0.006629923497678254
ür 0.023928990769241442
Thanh 0.10805421562002976
ending 0.011708751138310805
perior 0.030719258130943432
kub@@ 0.2252698999366556
áng 0.0818821680914135
oku@@ 0.20090460990560888
prec@@ 0.01822974721043251
Afrika 0.0981208729859199
ongo@@ 0.08973950485305612
Ab 0.02172208881643205
lima 0.10255967432782796
й@@ 0.0016598464276313257
elik 0.18139625279423907
ähr@@ 0.016159005709443168
beri 0.17512707072311562
Geg@@ 0.016867882092730525
bed 0.021109591167761604
н@@ 0.0017007163302653902
bora 0.6174525166353965
yote 0.5652387626841251
δ@@ 0.010142569293988477
tay@@ 0.20618008887541928
rece@@ 0.015580766436059662
casa 0.03293811914519036
making 0.011703982040499
most 0.0031287819181861753
huo 0.5360666394744639
laya 0.33184553501513775
ezi 0.3537276694264471
zwe@@ 0.012517046350965694
egos 0.02868477782666683
י 1
qued@@ 0.02909931826949556
success@@ 0.011294141989229723
alar 0.077518977123888
buil@@ 0.010589818819127926
lege 0.014722471799986907
͡ 1
yet 0.027840354733661202
osu 0.17941952757037521
Г@@ 0.003258422873022946
ť@@ 1
в 0.00024195443333981085
ecu@@ 0.03095435269711359
anst@@ 0.026251117362142088
μ 0.06109645112050711
feh@@ 0.026537106970194787
äf@@ 0.010073323337610657
mt@@ 0.07803599499748916
President 0.011359092053579234
ät 0.018811523128971348
ʾ@@ 0.9889344999849979
Ω 0.8599892335038064
Ḥ@@ 0.7423204362342248
ン@@ 0.9561078343246973
Teil@@ 0.021621998663592986
econom@@ 0.010017549837798831
encontr@@ 0.019556655855544763
Er 0.004069169728097265
geri 0.13150379094189102
↔ 1
fica 0.019526984596854435
logr@@ 0.023738770476507635
wap@@ 0.6887611369515347
ą 1
iliz@@ 0.030644809395536394
ə 0.5375006819513151
Δ 0.18498215390492428
κ@@ 0.008419193166842974
fak@@ 0.07618134158164604
ּ@@ 1
zum 0.0022215982239420593
ın@@ 0.019972903299221786
и 0.0003098228319082086
187@@ 0.15335626574304845
escu@@ 0.02343139611105362
π@@ 0.009928692309849422
ם 1
through 0.0035456059537953212
DNA 0.042138570664132236
half 0.009620261712384708
ль@@ 0.0011893877061883245
naf@@ 0.8491773556902539
éx@@ 0.033831434899500405
ло@@ 0.0017481075471323761
hay 0.01742144112515171
kwa 0.049268339382672735
aciones 0.0044317823098137575
khi 0.010703210706894319
Ñ@@ 0.48260788626537515
τ@@ 0.009287709209549353
м@@ 0.0014976974667647548
Stadt 0.007851459811428683
sever@@ 0.029995122561543935
hali 0.40182867137453127
small 0.007028749496179682
И@@ 0.0027350298978173464
с@@ 0.0009017570511196198
temper@@ 0.018742876852492985
186@@ 0.16675753838524696
Arbeit@@ 0.013476924445433983
ağ@@ 0.02214979169792895
ekt 0.020946429060449717
Sơn 0.0879924036301554
Flug@@ 0.02019446423552417
út 0.056823608334837364
188@@ 0.12465282561128227
enos 0.10146471934165664
θ@@ 0.009455824960841313
ν@@ 0.010228235957495238
Pub@@ 0.07489966506000713
mash@@ 0.23835637045300562
η 0.004330201464282721
6. 0.028635676713252817
Estado 0.03175992566625778
ла@@ 0.002604001383307674
Zeit 0.007402685226459413
schaf@@ 0.024387588013579597
teilung 0.024657656707261097
ğ 0.08303730140877341
ⵉ@@ 1
año 0.00567858053140481
fahr@@ 0.012454243744894756
ε@@ 0.010791652265751525
deren 0.014385477397660036
À@@ 1
quay 0.09216339931705488
ē 0.5741849472812753
ndi@@ 0.2656744668901521
zial@@ 0.020142629809984804
öch@@ 0.017193974754397684
hoa 0.01785781343082234
λ@@ 0.011837958442126961
া@@ 0.8767390735878547
ко@@ 0.001488878468227087
ufu 1
ewa 0.3562068604105854
jina 0.3539974897956945
Ř@@ 1
Gesch@@ 0.011537725879248027
öz@@ 0.03301865879618366
ός 0.01499609914372024
istas 0.012968299291403975
kung 0.02438123948463874
Francia 0.031109447051620723
Sein 0.020803247107455788
nde 0.04115808163484876
----@@ 0.44084753590874365
Partido 0.036459531883602916
Т@@ 0.00320822373477943
jaw@@ 0.31612773340598976
schrift 0.02593709885786944
were 0.0006855730887956925
В@@ 0.0025512810332757557
я 0.0015208804320256874
ци 0.03000464116207498
ре@@ 0.0011539826602818299
ე@@ 0.7103560881808443
″ 0.2461893868352499
bier@@ 0.03765632873219844
änd@@ 0.019214354816042258
д@@ 0.0012487964694195613
ω@@ 0.013156333368378277
რ@@ 0.808616679800774
≥ 0.7973177703112636
vur@@ 0.23226130590731528
П@@ 0.0030992253347179696
Văn 0.06483218386868339
México 0.021660938852813068
ın 0.008095325042133249
Eyl@@ 1
Frau 0.02370084304399627
0s 0.003475676034251487
tay 0.07627696612439801
Im 0.0025362247998720897
mt 0.011635375238679194
ör 0.07713915047807643
т 0.0011722272611316947
after 0.001597147864379772
Б@@ 0.0032882804962167727
ached 0.008550622939510694
aş@@ 0.02447121545243016
ον 0.052121455580497904
polic@@ 0.015497402212578207
у@@ 0.0009431982411846409
ː@@ 0.8642151941167001
天@@ 0.011483961544739987
lı 0.02068016686868684
wake 0.08251149539794463
о@@ 0.0009728797376705127
Mitte 0.023039753148235174
bt 0.014924576408756784
ь 0.0027700867913717426
ח@@ 1
mundo 0.020797694206395222
⇒ 1
order 0.006943136274187535
yaz@@ 0.028033070884687327
dül@@ 0.38479738656053764
kama 0.12256160469533241
novi@@ 0.26956000621040643
山@@ 0.013214772508869458
óg@@ 0.07256547203833574
siz 0.11841365058882247
פ@@ 1
М@@ 0.0029988800741962323
ː 0.5800267240615792
present@@ 0.0053339918465960074
Σ@@ 0.007704591324863527
their 0.001096397909300899
ל 1
Trần 0.10695085618130615
ва 0.002551170739965652
ṃ@@ 1
abaj@@ 0.055193739687650414
ghi 0.06751953843806004
ciones 0.005042486185699267
för@@ 0.017788757902981032
munici@@ 0.08949571018793262
nje 0.7818840244319339
each 0.004762198687579927
ָ@@ 0.9891687344179659
Minister@@ 0.02491898028074615
eser@@ 0.09557905793337566
emas 0.028967742184226757
Р@@ 0.0041178885680664985
emu 0.5014962172225214
ι 0.012909638318878307
level 0.00852204329911226
wala 0.33899501510125596
7. 0.02633949431572536
χ@@ 0.00823684544103682
thu 0.045130873000291005
telev@@ 0.023279157745803913
über 0.0022625813403528345
Böl@@ 0.10059175977174555
bilin@@ 0.12586262698739958
Lehr@@ 0.01769555094319368
ünst@@ 0.01639525473248803
ш@@ 0.0015633908253010497
hud@@ 0.4112672257467894
ק@@ 1
ი 0.7245711886118983
е 0.0006928663334094299
Α@@ 0.009692078638386128
ле@@ 0.0012277917063616636
ר 0.9913350751771874
kari@@ 0.08638972774331434
stud@@ 0.006242885989670624
Welt@@ 0.011971715743050731
ông 0.006990003124108334
а@@ 0.0017144663942970653
к@@ 0.0015697471330645288
ת@@ 1
años 0.0044536780952086595
át 0.03674565891418253
ḍ@@ 0.7376018410866014
schaften 0.006317804743253073
natural 0.012644000179448694
schafts@@ 0.009898050674762406
control 0.008098243048533894
ρ@@ 0.009350902688491139
yana@@ 0.7834754186187554
ра@@ 0.00139999682738897
úl@@ 0.023940713756333953
ლ@@ 0.7558504002269979
Đại 0.029572296260650745
ayar@@ 0.2118955170558228
best@@ 0.0058483996025974015
ük@@ 0.0397364217891505
ʾ 1
中@@ 0.004159587315349833
ļ@@ 1
ي@@ 0.004356263131695084
onu 0.09147988774468123
ְ@@ 1
Indonesia 0.03848964607508345
some 0.0027207254355446063
̃ 1
་ 0.5718998806540556
estos 0.014004920885482854
wach@@ 0.02562287778706382
who 0.0010680234803027984
ered 0.0038482384480798197
seh@@ 0.02149789791735637
ви@@ 0.0013843922406133692
muda 0.12287634985757788
zeug@@ 0.013423770239608944
innen 0.015418874209385303
Region 0.012844141125729397
auspi@@ 0.020027904459710803
ская 0.0033729854864441963
comun@@ 0.012633291104408015
make 0.007100683053075156
Tod 0.018401331342468397
ched 0.006774510153200752
imani 0.6210262207132546
yet@@ 0.04586394570168014
Fuß@@ 0.014036321142083879
numer@@ 0.010153324386810221
vom 0.0037733664451014134
а 0.001726240487192673
ه@@ 0.006928718135737159
isim@@ 0.09018703069321868
kale 0.08685722272013596
player 0.007102965757004519
teh@@ 0.08884108307506265
tish@@ 0.35968942750806987
¡ 0.13365318091054604
nung 0.006037381791946109
umia 0.3483264058765624
enten 0.008922051513954319
muz 1
9. 0.024014038366438912
bán 0.05076623084919107
culo 0.0228772285772464
ệm 0.08721795181815922
espec@@ 0.025579892287202585
luy@@ 0.09327159877035553
ım 0.02794154907791468
jap@@ 0.04254172229035249
Verein@@ 0.012429626365414921
ри@@ 0.0011847605856640652
partido 0.01682349603550634
ır@@ 0.014752546362349848
seine 0.004013190941029923
ַ@@ 1
ִ@@ 1
eş@@ 0.03501719342520031
imu 0.4178709813787629
using 0.004675330133432668
כ@@ 0.9656039535648892
fico 0.0175159040145543
ǔ 1
ِ@@ 0.04642510952423988
cito 0.29889061140788764
These 0.006800050927554193
Bình 0.05527742336046917
isho 0.4758362688438399
∈ 0.9806400958389848
üst@@ 0.01888414803801772
days 0.007375311672245838
ɔ 1
з@@ 0.0013149721913489165
Bürger@@ 0.016902447269965825
came 0.006409895387082111
Verein 0.019426683368542825
high@@ 0.0055236664800925855
zus@@ 0.00683000812869875
lado 0.02258342152494266
ли@@ 0.0009728545604829233
ни@@ 0.0009723512737002129
三@@ 0.006091515077123257
afu 0.5329652197863116
ıl@@ 0.011843893150924682
л 0.0007288503774717375
мо@@ 0.0011885113675265807
Hoa 0.021482137560821738
actor 0.011982668548734254
company 0.004113961384454725
quien 0.0126189276810899
ehe 0.014870009150487135
bish@@ 0.010702301728353356
ét 0.08378716014443154
т@@ 0.000889983651940866
ْ@@ 0.09760160667974788
incia 0.07749675517860832
Κ@@ 0.007677952688815352
what 0.005665133498240286
Tür@@ 0.036995031431167016
ations@@ 0.010609027982212133
до@@ 0.0010584656717571635
üng@@ 0.025442077252836027
Ț@@ 0.9679432313177311
zul@@ 0.025692725953933543
ь@@ 0.0017234714003547906
charac@@ 0.00610756955557808
just 0.006210953627567452
neh@@ 0.010865314695390094
Universität 0.008406899562824605
anah@@ 0.2265977828047587
aş 0.05368396333188573
seinen 0.006602400582836116
ük 0.09823879658153285
ecto 0.015198006274915903
zun@@ 0.02761686610423277
ر@@ 0.007279127753266499
kea 0.5823980195428405
ق@@ 0.006722657662208415
só@@ 0.024019438408404432
there 0.0023162969022660477
July 0.003247362001075941
г@@ 0.00132591544773156
ℚ 1
ised 0.005730401503351252
herr@@ 0.018718083683182327
which 0.0005644257449559256
ј@@ 0.5858417218509835
Engl@@ 0.04935493518464769
Geschichte 0.005979141541945547
Yıl@@ 0.1238901897079652
ngo@@ 0.33040946218461326
Ко@@ 0.0032700339797501364
海@@ 0.006686554649570153
known 0.002011986814829657
ħ@@ 1
山 0.010235465924595441
entro 0.09238850082026984
Osman@@ 0.11336144274270046
einen 0.0018557434361528716
gew@@ 0.004507836054082512
е@@ 0.0014502279165138645
ц@@ 0.002577232955903889
س@@ 0.0065938994614866756
Ayn@@ 1
ào 0.0245591716513786
grab@@ 0.016559915734376873
adil@@ 0.07257652456534341
го@@ 0.0013505737414719011
・ 0.2189582051406631
only 0.001770400831024674
ır 0.01209974148488983
ס@@ 1
் 0.31751792589532646
zh 0.04053196899384697
ói 0.08190461779256057
alled 0.01681610783642269
ب@@ 0.0035728865154437397
licher 0.007581800064877725
Μ@@ 0.008128670559201228
Deutschen 0.014240678602856435
ن@@ 0.006958212373109086
alista 0.0260740216883345
adhi 0.3959222694687667
khi@@ 0.11248940882130366
ehem@@ 0.0801372231902972
ık@@ 0.024214691023802904
unca 0.03712429458806384
óm@@ 0.03774796108061068
Σ 0.15415660294241834
three 0.0018167328831471213
tiy@@ 0.1013961612566213
Ε@@ 0.01201892336320756
bö@@ 0.060603765801564194
ión 0.005568604580980302
cover@@ 0.005596547576434477
mbal@@ 0.7091978009725866
z. 0.01742764759351991
ǐ@@ 1
Leben 0.005883161143172415
kati@@ 0.3976998194737715
Ô@@ 0.7506462683172989
φ@@ 0.006405926239966688
ნ@@ 0.8836112530413494
่ 0.032063761345171825
ℂ 1
been 0.0010493344932822597
clos@@ 0.006683167247260465
κ 0.028387581344855122
ג@@ 1
б@@ 0.0012854610431790412
Como 0.021660449885833717
fik@@ 0.045899005787750274
öff@@ 0.012868039427995722
ο@@ 0.00749478090603463
nicht 0.0018559090341725617
ве@@ 0.0012594847914442267
ǐ 1
rek@@ 0.02235596765574853
Gür@@ 0.08603790556591277
hilo 0.3740205148559365
ickl@@ 0.04056341024428126
kua 0.49774252171296407
Wirt@@ 0.014866140599005552
chung 0.02413237330362191
ihr@@ 0.028376982106221724
kuj@@ 0.4042612166637758
ل@@ 0.00358147000790515
♭ 1
region 0.006348664225836818
но 0.0009050442553039348
ო@@ 0.7768096049788469
‐ 0.5561720055195682
イ@@ 0.8266837200263997
Nguyên 0.08533777742251177
nur 0.0032638878867295535
Form 0.01677763929399836
ζ 0.07323980688464693
Teil 0.007048530730464654
aliy@@ 0.11765001007629432
role 0.005378405217392688
Π@@ 0.007686053054679535
χ 0.11398483523295967
ح@@ 0.005867756606135982
primera 0.006286959713689051
Über@@ 0.006301172157505351
У@@ 0.0020709165063563626
ⵎ@@ 1
oldu@@ 1
τ 0.016564135948413276
← 0.625726733867428
mita 0.1043329019007422
ennen 0.011135728271471246
œ 1
ع@@ 0.0058175570515257
王@@ 0.010903276880083123
tigen 0.006135146447304324
南@@ 0.005945960816392936
nh 0.04690207416527919
ánh 0.01949280790244431
ảo 0.03276384922342458
equi@@ 0.00809736576486257
З@@ 0.0037201988633874354
Zu 0.013213536357320222
евич 0.010688374001037653
ḥ 0.7557828575350379
ativo 0.023141663427519655
м 0.0005810002228861936
ġ@@ 1
̄ 1
一@@ 0.001650515411544562
Бо@@ 0.005016719751667304
с 0.00040916924853445666
Meister@@ 0.015543275544199915
üz@@ 0.047792022444237754
на@@ 0.0007353988532543135
子 0.004175344077234582
again 0.004962568696956798
tische 0.014912153142302398
iyi 0.05748163240734863
puer@@ 0.02283740232344825
ί@@ 0.006000737767333548
República 0.020085074149312904
ided 0.006407289559207825
tür@@ 0.01774133527121999
ἀ@@ 0.5495159322307009
✝ 1
dej@@ 0.01584454520825131
waf@@ 0.19446492388646344
đa 0.06670973168456296
ч@@ 0.0010344522226279074
wani 0.24630392108712917
ス@@ 0.9301423056597861
Verw@@ 0.008329978980279257
ك@@ 0.0038800139938165007
ла 0.0009022584757659882
fot@@ 0.023691194904454354
ћ 0.7874613549937247
李@@ 0.014955822908002556
,000 0.00996219277600258
caracter@@ 0.020084701878112496
ained 0.003557508013159573
iye 0.08058039788066021
ⵍ@@ 1
ammen 0.0255849322135259
hili 0.5030933094227862
ảng 0.01935355939651187
ه 0.0058579185902909925
ს@@ 0.7616742846037643
ños 0.022457081845289717
я@@ 0.0011873761733006715
develop@@ 0.004199466609439306
banda 0.01435763607525074
modern 0.007708276918521893
ương 0.011581253560775735
ט@@ 1
ψ 1
fang@@ 0.012268921173644858
take 0.0055956228995686285
Geometr@@ 0.05656378904500768
ный 0.001111673662379996
luk@@ 0.0987272504931227
¹ 0.8103291412977245
и@@ 0.0011385168611292669
Lond@@ 0.1664374670497011
frances@@ 0.022473128955644003
̀ 0.1792616928255025
ي 0.0050123646644741355
ης 0.00755879111355276
д 0.001395997715017275
∞ 0.5262691021224863
along 0.0035666350500802198
ám 0.030160653302760285
when 0.001350686522752143
Э@@ 0.002153750850342019
ди@@ 0.0013305310460019148
Anh 0.016201510263747936
Campeonato 0.020463098238997553
lesia 0.013697782664108895
ǔ@@ 1
Λ@@ 0.011053205523254887
้ 0.02291335357796226
Kati 0.28656379671323046
Mỹ 0.0244543125876665
arse 0.006430140116104705
history 0.004180916644037239
used 0.0012625059017940502
西@@ 0.0035664422176540584
（ 0.001048336609686579
erten 0.006586377732236258
მ@@ 0.8929341298078719
≈ 0.4146040758025704
Τ@@ 0.00840078726752833
Е@@ 0.002943692839753744
found@@ 0.009504110651466939
ık 0.018519897284267773
ка@@ 0.0008941663259872956
ы@@ 0.0018817103628911696
ⵏ 1
wezi 0.5777920764318493
по@@ 0.0005137545674804054
но@@ 0.0007545648904651359
์ 0.0063273366158452206
្ 1
Entw@@ 0.010760597817033573
eyi 0.09757208895976946
muz@@ 0.2194033726042348
illed 0.005785173792888748
landa 0.05387662659254947
echo 0.01861889920527839
ко 0.0030572391986967784
Lebens@@ 0.01211138908714907
צ@@ 1
Sohn 0.008963814684193293
ác 0.026132314375154866
ʃ@@ 1
★ 0.9379171497031793
ehen 0.004293201777141848
ι@@ 0.004522492355401371
ր@@ 0.5429615285796635
ル@@ 0.8895043946821292
werden 0.001525638250957893
Ο@@ 0.014713365380965881
্ 0.7405337114640452
` 0.5831974938126461
yay@@ 0.0433596856438688
金@@ 0.008571233564457074
☆ 0.8018546034525964
deutschen 0.007773928321661627
Ка@@ 0.0022855119632181815
ッ@@ 0.9302532825094563
ラ@@ 0.8541639638873109
election 0.0037633005541911823
years 0.0012712767596874104
ύ@@ 0.0074637039312345785
Ц@@ 0.0057532158722070174
September 0.0017201552782061071
► 1
子@@ 0.019981148323512835
chte 0.012719237962453719
uzo 0.44022132402411646
Đồng 0.07233109509501531
Türk 0.03763131853256409
fü@@ 0.0056137960590144365
Γ 0.08852461004272864
п@@ 0.001204900329814831
بن 0.019802266525539628
bind@@ 0.007677685241129754
integr@@ 0.00814895405785712
Ľ@@ 1
ị 0.023840791306739873
ⵓ@@ 1
tions@@ 0.01238729492139897
） 0.0009840575456370598
dire@@ 0.010856139713731578
kuh@@ 0.3855954254491065
ц 0.003625037128469632
ვ@@ 0.7519100122994855
≠ 1
新@@ 0.005163661074262785
II. 0.010533064850038255
có@@ 0.020782522256577285
while 0.001771599448027933
aría 0.012811531001177281
د 0.005941135866413723
ʂ@@ 1
bila 0.5668111170276233
edil@@ 0.02714704750814069
who@@ 0.004693222000552304
İn@@ 0.07180866363231689
ǒ@@ 1
Lý 0.05750961715922243
ayı 0.03343808787466637
о 0.00118838456218544
高@@ 0.005321505605885599
grund 0.006867455427614066
yük 0.336002672831339
zeit 0.004688428445931274
Á 0.06481988719095652
Ü 0.2954912544046573
ŭ@@ 0.5820909286710972
не@@ 0.0006042427610350533
北@@ 0.005155374273982973
mek 0.028293023101534902
altung 0.008927844329565388
ո@@ 0.5224784747825058
Gemein@@ 0.005483938049303152
ش@@ 0.004773284433961583
ṛ@@ 0.7505409237811269
Ма@@ 0.003210171729981071
deutsch@@ 0.022548773099464528
ilim@@ 0.16714253270209942
phong 0.031850345720684556
本@@ 0.006715632237162094
organiz@@ 0.002618102512248737
ό@@ 0.006276827466766042
ж@@ 0.0008339985279966753
ία 0.004371193755014457
По@@ 0.0019275808178442263
во@@ 0.0009742281815393867
م@@ 0.004522937623828785
， 0.0001415149672211386
ἐ@@ 0.4460420114260297
Forsch@@ 0.013009780205933234
õ 0.041823267087863124
ـ@@ 0.0686950412034903
Ṣ@@ 1
şehir 0.0805751367845115
Ι@@ 0.016443148002537936
太@@ 0.009208997138580166
ilen 0.008478661887731137
October 0.002263166602280561
hadi 0.18288366538551484
keit 0.003962677319867458
Châu 0.04510477235941828
with@@ 0.012717541422804861
̯ 1
უ@@ 0.8536285071645413
energ@@ 0.008248103528454719
υ@@ 0.00673169118054538
이@@ 0.7812843733502045
Hà 0.032037856538731105
小@@ 0.005186238499909707
differ@@ 0.008995675120079092
verw@@ 0.005567196368360839
ма@@ 0.0010733710185291704
ア@@ 1
lere 0.026049744763733257
ñ 0.7179952954632589
х@@ 0.0013654484201303637
Por 0.009169157587143154
ά@@ 0.004896169928262122
ịnh 0.035208377334438504
文@@ 0.005312127727477311
王 0.012570239385013589
iş@@ 0.010370026032642575
ى 0.008605762789579634
東@@ 0.009736813766563822
egem@@ 0.09337270549047601
ingia 0.12932130069062556
το@@ 0.00943143074319646
ων 0.005189203651315343
uç@@ 0.03618608936067477
öne@@ 0.15416731485059873
ű@@ 1
ρος 0.034471565598715566
mej@@ 0.016270670736759266
zeh@@ 0.009398862004190794
Auf 0.007353384990912322
waz@@ 0.4510546904926272
father 0.0034547713863351294
örd@@ 0.07376063517014739
kuz@@ 0.20649343008159443
àng 0.01744159099696307
ů 0.7380416228673502
国@@ 0.005376629910039026
Kif@@ 0.47535224581318347
د@@ 0.005173978472384436
based 0.0022490518138327527
nú@@ 0.04544121329888055
ру@@ 0.00119511853086745
ⵜ@@ 1
pek@@ 0.19563313025948934
ài 0.016763961976443593
ج@@ 0.00421692156743405
nde@@ 0.3566117693881246
uvo 0.014904509133903373
äu@@ 0.005282494875837077
ρι@@ 0.007407022047612048
biy@@ 0.08621637935793561
ت@@ 0.003357926823568521
guerra 0.011634916874475302
still 0.003454893884356494
ан@@ 0.0012800164497197184
Β@@ 0.007734673696551045
日@@ 0.005673337504995541
Haup@@ 0.014889898771457676
Н@@ 0.0024477647498875373
≡ 1
erung 0.0028333191604261367
א 0.9268968709886131
yao 0.2520793622090531
ình 0.05689532959767273
ե@@ 0.5734880322975867
リ@@ 0.8086787764478308
besch@@ 0.00414780164145221
ihe 0.011719173225798976
koa 0.7521829030914097
Adem@@ 0.7604887660689102
prak@@ 0.025399595043325077
Ağ@@ 0.13173395277683259
ان 0.005235821312375652
Eine 0.006377589147819008
community 0.00418384159415065
faz@@ 0.21568500340055013
ế 0.03407474193275571
during 0.0011309706808127118
ɪ@@ 0.6928958947879945
де@@ 0.0007566599709604505
abab@@ 0.5250701957611842
köy 0.06264972975794451
თ@@ 0.7717917322221917
ái 0.012816308551470956
у 0.0007088852733442975
those 0.003316303249423239
ehir 0.11609623174350586
ismus 0.011799333746796483
near 0.003523252020900904
verk@@ 0.005206400051753951
İstanbul 0.03616815244668114
family 0.0016519279684748158
● 0.4830289272845549
ämp@@ 0.011369145701084106
Во@@ 0.0034399665420861373
ー 0.17606722920248435
ofu 0.33625427964075244
risto 0.21602699864907107
ξ 0.09477770105610753
ник 0.002564902016740397
上@@ 0.005641934049474708
Grenz@@ 0.01166075225103128
más 0.0012279194538264533
erste 0.0045243546371058875
next 0.004066866397044351
onya 0.05598714246254625
separ@@ 0.004383793588566407
duk@@ 0.06468521316170568
Со@@ 0.002213812774053599
♯ 1
州 0.004170961891898877
Mundial 0.012944940783035609
trieb@@ 0.007847737980764423
ɨ@@ 1
Я@@ 0.004179265283416602
ال@@ 0.0036992715050871913
encias 0.006337359288780689
út@@ 1
İz@@ 0.07159168900572634
ная 0.0012961200957282305
Ende 0.004189113801983747
also 0.00041496289215300295
sehen 0.008767653034459725
ف@@ 0.0037321165303644947
安@@ 0.0055912796233203626
水@@ 0.007380296271245069
ṅ@@ 0.7908860146238198
ogle 0.5335396690285029
че@@ 0.001073533731522094
ז@@ 1
como 0.0006642641371078737
soll 0.010831420168458039
Å 0.22141047306603176
trä@@ 0.005418443237883473
э@@ 0.0007620967653589878
Weit@@ 0.007975382292483214
Ф@@ 0.0019874252345514223
ен@@ 0.0012642329996841084
anay@@ 0.1550279712536689
such 0.0012110353699012783
Ν@@ 0.006518215280718373
στ@@ 0.004300454534127493
Nga 0.03794606229972088
sö@@ 0.06007579570110548
人 0.0012343667699169258
wegen 0.007071863606448474
η@@ 0.006232651149313785
神@@ 0.012935419251413826
November 0.0014861307192820046
ikia 0.28739803089859467
за@@ 0.0005059208584763858
武@@ 0.01084088507246899
ebil@@ 0.07166823505330082
áp 0.02035010032212995
ар@@ 0.0015977181836942594
Rück@@ 0.009047259572603987
бо@@ 0.0010526008180238202
ти@@ 0.0008369358858987933
ز@@ 0.005150365657411521
ン 0.1998463681121963
До@@ 0.005633628628371755
ё@@ 0.0011541429180887068
century 0.0023089164374369684
ŋ 0.593178017560145
ُ@@ 0.016973046351784933
greso 0.01451709998148867
historia 0.008766216284183118
mayor 0.0049671311224014645
ticos 0.006913482674094406
ⵔ@@ 1
cao 0.011466792770175925
dado 0.018402962501710557
Đức 0.016824683532485635
ва@@ 0.0006913800314057379
ֹ@@ 1
Anf@@ 0.03449715277531772
akt@@ 0.04255723519945738
cambi@@ 0.015364955178248384
ĩnh 0.029331342672522027
ɨ 1
道@@ 0.014064279060718226
aç 0.06901955660138509
ικ@@ 0.007314469118260161
οι 0.003959148373543544
ト@@ 0.9012716431256066
ız@@ 0.022599456921481582
dung 0.0056537311295335015
urch 0.017441865158193907
ков@@ 0.003412174006423908
hata 0.22315161664498845
се@@ 0.0008718317324953097
Thái 0.022805167883090987
amente 0.0018909597041306657
kuf@@ 0.2306811563069949
µ 1
klär@@ 0.00920223242041553
Λ 0.3052795743018188
ḫ@@ 0.36585380361773495
kiş@@ 0.03172850583388101
ustos 0.4168107193981493
siy@@ 0.05203482767932376
would 0.000960519842120076
yeri 0.052378206985835785
óng 0.02545455343098802
bajo 0.0058527785704517174
pili 0.403004916728936
ƒ 1
Fahr@@ 0.005973745590687519
muj@@ 0.02009034198957176
wissen@@ 0.006600699496840796
weit 0.009602347003772936
amii 0.17545525463649944
around 0.002339312512771322
grub@@ 0.03368788004936942
yü@@ 0.04970387403322048
® 0.25944094524449207
ца 0.0029498606733982394
aged 0.0028037136093589537
fand 0.005713222698509543
women 0.0030055395019611213
น@@ 0.003088802618061582
် 0.7255672003666367
ellos 0.008616601047754531
kehr@@ 0.007623678787324047
̱ 1
ا 0.004825741121846922
ク@@ 0.8506590162619078
Akad@@ 0.180440056555394
Hindi 0.0469193080421517
Türk@@ 0.03817506081161718
ŏ 1
г 0.0010416687186680076
да 0.0009598018106524349
محمد 0.031223702098172722
ṭ 1
Kirche 0.004785421421789198
found 0.001882529750334645
sich 0.00048061091168081474
да@@ 0.0008954006523243251
сь@@ 0.017459189775611856
Ò@@ 1
На@@ 0.002194696772842953
ῶ@@ 0.5021235928640532
idades 0.004133710027445069
σι@@ 0.0102259764457661
ủ 0.016941925496349493
Ἀ@@ 0.55112154658409
ῖ@@ 0.5759347580998011
scheid@@ 0.010306481016698272
¿ 0.05604897305261148
⋅ 0.8369966720808036
五@@ 0.008157506927056878
道 0.003358016663600802
haber 0.011222284155799586
ⵏ@@ 1
十@@ 0.003686825711960958
Ø 0.7139875232034069
̂ 1
ο 0.0013700108667051743
Бе@@ 0.0047979400704173955
gran 0.0048538641400324945
without 0.004048683917965734
Ми@@ 0.0043239659162193
aifa 0.09130230698455444
κα@@ 0.0065849394828728
ℓ 1
田@@ 0.02175913621460995
Besch@@ 0.008867592090730236
weng@@ 0.7771254117065532
τος 0.019360009548598633
Ле@@ 0.003178442253771798
бе@@ 0.0013587442838153046
со@@ 0.0005213320999892119
國@@ 0.0038745319844949197
Nha 0.04143469825450586
both 0.001462963049648428
uwe@@ 0.34784746382137555
Л@@ 0.0020910025093349655
平@@ 0.005615881495860848
ieren 0.00674131854216708
zey@@ 0.0661513958923896
της 0.0011029959398213632
ми@@ 0.0009985518797442465
ტ@@ 1
ⵙ@@ 1
khu 0.010417244213659556
城@@ 0.01019757115454272
ously 0.0031249860804378675
señ@@ 0.01074414737007422
zentr@@ 0.006359389556170986
seph 1
αν@@ 0.0035616867458880767
Ж@@ 0.00399846052879078
ajes 0.010598988012634359
та@@ 0.0008681348132102349
خ@@ 0.0052154111929389796
oyun@@ 0.04436695115947548
öst@@ 0.006475649676136461
ص@@ 0.004720699277462864
beit 0.005683567212981637
ба@@ 0.0014920930033331763
人@@ 0.0032056108513523335
vai 0.027014986493442462
ép 0.045976726469320016
đi@@ 0.03401653881256492
unden 0.008918497185179607
Φ 0.4457502634074216
нович 0.010552685183518238
auti 0.4405286766545841
çi 0.03861192445814347
ﬁ@@ 1
ն@@ 0.542138063208794
eyal@@ 0.23466710537436314
jeres 0.1144412532538533
member 0.002000917691344923
obra 0.00834292440397978
úc 0.01319030452068211
İs@@ 0.02532252483095321
̌ 1
ն 0.5377057969521888
before 0.0013425012995234708
ded@@ 0.05050411489679749
five 0.002355400185702707
otball 1
ев@@ 0.004624827161200316
ер@@ 0.0017698478074136177
habitantes 0.008161220138036492
said 0.0023784220526596725
wango 0.49452834058429446
Γ@@ 0.010251203841995852
έ@@ 0.0035066093241667125
Ра@@ 0.003625938057216958
ги@@ 0.0013680351401870877
Hòa 0.04394274427543896
aşa 0.12461868232153564
minh 0.03036775877974455
species 0.002241405633897379
си@@ 0.0009828209217988726
、 0.00045992916161748256
김@@ 1
December 0.0017844819285189075
Dương 0.02543810284717874
ası 0.007384821426584035
Tân 0.03962939007581994
Uganda 0.033095456177368365
between 0.0009639514239393403
early 0.0016735821896892067
pata 0.20195450875609036
ände 0.008004427698507047
公@@ 0.002553845213842107
Durante 0.008343446877894409
Tây 0.014884676826655799
huy 0.03885750058461817
menos 0.01053914819419556
ológ@@ 0.009348634818718898
program 0.004017365144889355
ución 0.008736836053426702
öster@@ 0.009850778795560249
ŵ@@ 0.9692403184559502
ʁ@@ 1
то@@ 0.0007761129409400159
白@@ 0.011394531011688436
Mannschaft 0.009550242301396812
Trung 0.008822597766249505
ы 0.0006147473227592733
ة 0.0032835203714282617
シ@@ 0.8546244398644218
之@@ 0.0028708191806983544
defin@@ 0.0036074032970282908
ή 0.0026419787949496063
ра 0.000957252589841121
ի@@ 0.625649161232129
given 0.003268656433735283
Α 0.021415432982926808
га@@ 0.0011036280667504903
タ@@ 0.9870576690431218
día 0.005898949116372002
inay@@ 0.18481337846842516
江@@ 0.010003186384091405
Hoàng 0.023735600852060064
̈ 1
Са@@ 0.002592293889126158
ología 0.007305680876362623
ב 0.9528695200170108
ر 0.004095756209681147
ា@@ 1
ⵜ 1
寺 0.022929164069937447
duy 0.038500024249540486
ɡ@@ 1
ʃ 1
españ@@ 0.01125632672981889
êm 0.024369219979079183
development 0.003194816465788447
propi@@ 0.009446492943860197
­ 0.027160676742936082
أ@@ 0.002477911627650701
amiento 0.0037715252093577286
ας 0.005581018426788859
Guinea 0.02071332118516961
thay 0.019069128175838345
zeich@@ 0.0038593828111616437
đ 0.7799650115603802
ẓ@@ 1
ently 0.0013413527748244564
materi@@ 0.0077251049099200065
Ħ@@ 1
са@@ 0.001118896300796085
tete 0.004009864578225495
ا@@ 0.007495452900650546
გ@@ 0.9279471076535296
Zus@@ 0.007628243559444297
formed 0.0019232986617803312
ätz@@ 0.006260760506606895
poder 0.011102155927464575
television 0.003642234494284632
Александ@@ 0.005043697607018504
ль 0.0011274049411528386
城 0.008542487478417054
自@@ 0.0036841430365840084
ùng 0.015294243765963098
па@@ 0.0010105605428964144
vard@@ 0.0877224518245441
ד 1
ა 0.5730889634988033
some@@ 0.0029167463723725195
Baş@@ 0.03768445052787055
ат@@ 0.0015309646218845518
ბ@@ 0.5806865430641929
jini 0.27953793444763464
lü@@ 0.04320726855630887
zug@@ 0.0040013355969530815
те@@ 0.0007831421008336867
і 0.14812388906574903
huri 0.22086088256563616
lte 0.013935251854568528
mev@@ 0.05601193955890909
unos 0.006816275767693603
üler 0.015393456498253417
ски 0.0035014371615786936
و 0.0035499292649103236
Tuy 0.021431314326002055
zeu@@ 0.0069951262489534845
А 0.0028392005037940985
against 0.001160338963564791
có 0.001038659769490432
ohne 0.006149333580671634
Ж 0.1480450019741218
ки 0.0006673657501136224
та 0.0006781770123021143
ط@@ 0.0037764749954982977
∪ 1
Hải 0.024069805579745026
ρο@@ 0.0061220590266546325
би@@ 0.0013381797404116791
нов 0.0022553668903728856
را@@ 0.005192272374152325
onship 0.0037775267061056174
ジ@@ 0.9085803607782882
Mit 0.0034194130775433737
¼ 0.2967465416562708
َ 0.05342953594494006
র@@ 0.7317052980383084
empe@@ 0.008857897527467766
ıy@@ 0.01746348448830425
ường 0.01408105583272833
ি@@ 0.719843434036986
ს 0.8455547767018567
Hồ 0.03985512279290363
iliy@@ 0.08352452844865403
rar 0.06588537511183479
Ï@@ 1
ʰ@@ 0.875451191037911
ⴷ@@ 1
的@@ 0.021995574556352013
Ə@@ 0.656509075847464
Х@@ 0.0022902670894434326
чи@@ 0.000954354285499481
ֵ@@ 1
ロ@@ 0.9475877986328456
Kilom@@ 0.06172334382606193
independ@@ 0.0035896145307498448
ę 0.6436341589115826
ʲ@@ 1
Φ@@ 0.008121263688213929
Ру@@ 0.004368174537094853
ὶ 0.3415923144865373
。 0.00015761982903639084
明@@ 0.006963413996349435
ganda 0.9899123536154014
kush@@ 0.3187770853579587
language 0.0035417999345496295
these 0.001544529826833347
tiki 0.3425211788790744
林@@ 0.0077675063386413645
ográ@@ 0.009335919077937432
pueblo 0.010784726048855489
ų 0.28056680260827543
Χ@@ 0.00730502820169746
დ@@ 0.6678688740241098
esine 0.0417010337079546
ích 0.0185839556747086
マ@@ 0.8830055646921214
wanza 0.5867980687848041
sind 0.0009096764629641061
écn@@ 0.010627171291383217
ξ@@ 0.00839708706421734
ля@@ 0.0009356763524994513
フ@@ 1
wür@@ 0.006401240868235459
ια 0.004878791181374338
ни 0.0013327757704696293
ện 0.008993414142584357
《 0.0015588394660570634
》 0.001558760593836808
hasa 0.11618804324052028
Ṭ@@ 0.9057800857860456
Juli 0.003757072484910819
follow@@ 0.0027063599557512127
üf@@ 0.010070972229718507
Го@@ 0.003885489334085116
ница 0.007871294422073351
√ 1
家@@ 0.0052779277628082506
represent@@ 0.001668714078566414
ει@@ 0.006671090596068285
ispi@@ 0.011040254908207496
schaft@@ 0.0030475485766504906
ército 0.008820375470094208
র 0.8203910431244947
ⴰ 1
京@@ 0.012589906898627877
Jahr@@ 0.015404847102104097
kila 0.24919653781117676
segu@@ 0.010285898655347117
Ī@@ 0.9044644237777587
ʒ@@ 1
ново 0.024174248974874857
stellung 0.004182628138047388
º@@ 0.08267382703615991
¥ 0.2489178899971509
сто@@ 0.0008267239517707896
រ@@ 1
ⵢ@@ 1
afir@@ 0.015170186759916887
ŋ@@ 0.46957645470678894
Ба@@ 0.0032568801683392472
icios 0.009820409758093552
wali@@ 0.07553951248501395
¾ 0.464386608183582
Ку@@ 0.0028447759683587755
Ч@@ 0.0024234027481394808
ї@@ 0.3148960853787052
Се@@ 0.0022899344304918414
osos 0.008448281765386373
lichkeit 0.00664998027162744
reduc@@ 0.00453129353025013
社 0.015522594696886763
elimin@@ 0.005560306728831911
lili@@ 0.06014670891897609
uş@@ 0.02288834213408653
άν@@ 0.0041096253228360075
ме@@ 0.000741924341741994
الم@@ 0.0024941838613739553
و@@ 0.0020723064462477617
和@@ 0.011313893919983815
河@@ 0.008013501396701319
Yeni 0.052123307015869876
could 0.0017933151620682355
sett@@ 0.0030697809664084804
ız 0.02221321238523603
ب 0.0038538692368954293
い@@ 0.6273386525500765
四@@ 0.004240064284929395
held 0.0015391236233271367
ķ@@ 0.8864104745227526
ή@@ 0.004792756752360416
einem 0.0008017324428526251
xem 0.02962410888688991
га 0.001435584635078189
น 0.003396980816034578
Bahari 0.16064296413884724
umri 0.371974890165295
Влади@@ 0.006576276175676124
ш 0.005435961086337083
ǎ 1
ব@@ 0.6497868192420521
ু@@ 0.9442375959869946
ง@@ 0.004211613910428379
inici@@ 0.00552091819312228
nun 0.005752723999492078
石@@ 0.010012186761096976
Cộng 0.021735800699463726
Kır@@ 0.06033481806842275
alik@@ 0.2809812978638995
ersten 0.002153024327031655
üş@@ 0.031036712102475387
ρα@@ 0.0062113295587494614
з 0.0018967498742697706
ⴱ@@ 1
dete 0.0027276352700565496
ilik 0.04360599469361327
ticas 0.005503560837152178
Ро@@ 0.003595179588898584
レ@@ 0.8437519921065304
劉@@ 0.023987124719458665
experi@@ 0.0034420958903953786
tainment 0.02164357882305235
ɲ@@ 1
не 0.0003997995074341162
不@@ 0.0016488891812678525
biri 0.036086872221858836
conoc@@ 0.004996123533890166
dows 0.018389177235743938
ları 0.004329388201044736
xico 0.22362876411791127
¬ 0.8390370953157141
ɑ 1
ор@@ 0.0013999144197901498
ւ@@ 0.5443814777826738
地@@ 0.002519772523626846
much 0.0025387526501564205
μα 0.006337379883777292
ли 0.00045983177670175685
յ@@ 0.6057499145049221
م 0.003698908091154534
antigu@@ 0.0062591656957052275
Ви@@ 0.002946572431917198
張@@ 0.017422092667242754
대@@ 0.7604159148467138
áo 0.01580904897255525
ὐ@@ 0.4849765298509425
arbeit@@ 0.0026980900431150773
òn 0.026697455067156407
ст@@ 0.0007013542664642366
ו 0.7529383356204641
Unidos 0.004509247216873509
Мо@@ 0.003332565325082443
За@@ 0.0023337502215836146
ম@@ 0.7690038269581642
durch 0.0007319971181749876
geg@@ 0.0031818971762513867
tlich 0.005404433810631014
Ан@@ 0.0024464571222681656
Па@@ 0.0029955195625410826
ল@@ 0.8591492363922494
় 1
Ġ@@ 1
ɕ@@ 1
Пет@@ 0.006055355180073179
ин@@ 0.0008492796708553705
ل 0.0034125552746731816
ม@@ 0.0022384786044452425
wech@@ 0.024522780093578493
yük@@ 0.03984756081596584
óa 0.031508395832998845
öß@@ 0.031593449896171626
ев 0.0032359784429296192
الح@@ 0.00464799194896628
া 0.70340258126514
Quốc 0.006455439242250491
being 0.0009104620593088785
north 0.0022260232748398502
osto 0.4950826791371618
woh@@ 0.005723382072339743
ав@@ 0.002761429017063817
кий 0.004856392168438443
ׁ@@ 1
alten 0.004292008165995586
alı 0.01095458375558726
ъ 0.03803960260011566
الع@@ 0.004594421129449407
ῆ@@ 0.43242121082501456
№ 0.005767386898741421
ⴻ@@ 1
deci@@ 0.0067022690873748325
ically 0.002685075289998894
include 0.0015277597631252495
̣ 0.8516255780915146
Алек@@ 0.00859527399871422
ф@@ 0.0008127361930199594
Kön@@ 0.05875043869592333
biet 0.059331310582073436
ου@@ 0.004359731143033218
ド@@ 0.8777878045371226
baş@@ 0.007422582652050056
familia 0.003647795453390785
̩ 1
Ρ@@ 0.006693164635197748
Paşa 0.05894504170535329
acto 0.010618446801591255
uyên 0.023802683556258315
ɣ@@ 1
αλ@@ 0.005030813004926273
Но@@ 0.0039035315266729882
мир 0.00798031726076407
хо@@ 0.0009591267997777136
ǧ@@ 0.7570511920171467
ч 0.003061051328137993
ֶ@@ 0.8956427516332597
ọc 0.012983846961761115
oğ@@ 0.041913902712640234
trag 0.003900988292803092
vek@@ 0.04059743881634263
ки@@ 0.0012802597711569184
ков 0.0014644933009627578
ров@@ 0.0019786562532059923
عبد 0.02386991763713768
า@@ 0.011267447368752796
Als 0.0023731872806605978
dır@@ 0.03103332808816035
engine 0.0061570495816146015
ᵉ 1
八@@ 0.009073455728168183
Bắc 0.012619732381517472
òng 0.019458481152814015
üz 0.055128805550634506
̍ 1
х 0.0004373333954965303
ше@@ 0.0010046607764935107
ℕ 1
Thành 0.01748462892701523
lagen 0.004978281279657327
oría 0.006248697270294355
present 0.002299131022657964
pueb@@ 0.024560661391886847
ım@@ 0.009460552331484132
ル 0.2328512151651704
20. 0.0059788933594862054
caso 0.008705492070555484
üne 0.020486867239514896
elten 0.005379578968323721
mch@@ 0.2304065549656094
ách 0.012929782966060123
◄ 1
kent@@ 0.02700470095484149
lerini 0.016468299387832574
Đ 0.14860967345436613
ɑ@@ 0.7355763725171418
ζ@@ 0.003907985427256206
ское 0.001840948576563152
غ@@ 0.003193917169669495
coi 0.034738538144708016
haup@@ 0.007046524865522213
Ва@@ 0.0036616294777811432
კ@@ 0.6319790059182497
ạc 0.016260370751209695
ehir@@ 0.05408300615763172
junto 0.003085832210041592
Ш@@ 0.0021496362211530355
ت 0.003141484433328037
fäl@@ 0.006220576591934663
ق 0.004049339437900641
ḳ@@ 1
伊@@ 0.005953831121516689
元@@ 0.007057238948026173
法@@ 0.0031770914962917754
Bere@@ 0.003590906718731724
mayo 0.0053168277036610805
Гор@@ 0.010439030029876586
二@@ 0.0034104503416576004
有@@ 0.0027099028413754655
Proz@@ 0.004913184145786764
tä@@ 0.0098043239112121
ăng 0.009007150979392116
س 0.003660092007688638
elected 0.002420515544954527
gün 0.029794719341852113
muerte 0.007304544707126688
ận 0.009170284571826615
Ð@@ 0.7806537129590728
об@@ 0.0008408072318759721
ска 0.0024777683686409272
Ω@@ 0.08256608304488755
ạm 0.01058163177515447
alre@@ 0.0034210709359800344
liği 0.016141677853761856
wirt@@ 0.0038895544455503158
ĭ@@ 1
ма 0.0009127633318851812
пе@@ 0.000949433792797047
ần 0.00981028571768682
川@@ 0.023686207037074046
族@@ 0.024108610309621525
season 0.000649106185748616
óc 0.027900266544773084
ʼ 0.4204386031199807
ก@@ 0.0024977914272826473
ṯ@@ 1
ῦ@@ 0.5937062618182661
正@@ 0.005635792603805426
19. 0.004650617766522724
Janu@@ 0.35899969454552166
治@@ 0.006788357860497138
kij@@ 0.2545091745671698
ũ 0.013253853819370663
～ 0.05299005983389155
Θ@@ 0.018362583769087004
αρ@@ 0.004099778908843701
С 0.0010413038165228649
ス 0.20241034894560977
民@@ 0.0025644160047662403
花@@ 0.01174066542452315
Amerika 0.018607615492580127
categ@@ 0.0038628338653179596
irse 0.009608114788920999
ου 0.0023396216924707696
ّ@@ 0.011115572498564614
க@@ 0.35815949094964056
东@@ 0.004169086400673779
Für 0.0036976352913418295
unzi 0.32240566498084083
© 0.9937220428722142
êu 0.009622668117156598
ʿ 0.4369432627029232
Ю@@ 0.0026539695917991222
カ@@ 0.6770815021222985
Jahre 0.0013238357245624326
medio 0.0072999448358181205
ί 0.0070455629071387305
ло 0.0007770702924831109
January 0.001087195025764758
gek@@ 0.005083400583812525
llev@@ 0.00415760952857326
voll@@ 0.005900045672027322
ıl 0.033736116656267835
ελ@@ 0.006053884631723285
ხ@@ 0.7181115569074591
║ 1
ⵣ@@ 1
バ@@ 0.941740107511136
学@@ 0.002818221104162529
atika 0.46044238337455656
kül@@ 0.03461568843172612
ন@@ 0.8662792635956347
清@@ 0.006316227532430151
government 0.001279282111626053
sao 0.02373528314563765
нов@@ 0.0021024552022050405
children 0.0017086887724060635
nying@@ 1
ţ 0.7405205758440746
Де@@ 0.002623882239130218
な@@ 0.6803270318718719
馬@@ 0.012355144353057786
ª 0.01745457942325228
光@@ 0.00853251592981592
14. 0.0070034655290120516
edrich 0.3959798318245242
esini 0.04500054910563442
otros 0.0026781481859549506
Í 0.38238395777046325
ġ 1
Ō 1
ש 0.9920162801449457
ến 0.00712802901443723
木@@ 0.013580202099325405
υ 0.03315658669842434
ку@@ 0.0009056095187499059
ọ 0.017628188747477135
awala 0.1886000520705095
centro 0.006829843561025109
meister@@ 0.0035383578452621856
πο@@ 0.0069603518420412016
♰ 1
会@@ 0.008166885319074774
古@@ 0.005510182307456279
村 0.00674366493727189
ít 0.019917752574126705
Đi@@ 0.015793586659237975
ɾ@@ 1
ψ@@ 0.007921423624833734
О 0.003400005052966999
ний 0.0009235345092434275
ار 0.004863359768059851
か@@ 0.627271320794728
真@@ 0.010808697126778895
Công 0.012156181744679306
Türkiye 0.013104013285788892
sitz@@ 0.00541609119133348
third 0.0015866961252507593
ду@@ 0.000923429710062029
গ@@ 1
ạng 0.021342754365310943
テ@@ 0.8772367764112361
phân 0.007124528627359241
Ǧ@@ 1
Ме@@ 0.0030575256016175897
百@@ 0.008861627135152305
kann 0.002289264830398522
Пе@@ 0.0031252325861352015
إ@@ 0.003163640558889188
⊕ 1
女@@ 0.004269206208957243
州@@ 0.009998724892491925
̤ 1
് 0.27505421213313513
ṣ 0.7251692716091719
ất 0.010736460400591346
イ 0.21522615754717875
ived 0.0052915564382019905
ĕ@@ 0.6972245290620729
̥ 1
Β 0.018116915948850437
Π 0.1373469383227594
ف 0.003560644172141254
型 0.003647978472229978
Sie 0.0012704905348225044
aße 0.09694895193862896
änge 0.00504354352675219
ού@@ 0.005054190308972243
দ@@ 1
式@@ 0.08446442263262535
皇@@ 0.009294019502129295
阿@@ 0.0027730768125845805
са 0.0007805533082875093
พ@@ 0.0033316069493397704
方@@ 0.004171348105326176
정@@ 0.7286582635512459
ağı 0.016623703151049492
ק 1
ري@@ 0.0036459468088928977
ா@@ 0.38877798955277404
‚ 0.017718172673583634
美@@ 0.0034377586519284144
äre 0.006053326497390142
úbl@@ 0.052606674197235775
ατ@@ 0.0043454419451003316
ста@@ 0.0008051784168327878
ъ@@ 0.004203587762540854
ע 0.9747527364336651
़ 0.0020377786063028596
帝 0.009211569340087107
̲ 1
ю@@ 0.0007145077429945861
し@@ 0.582128037912926
陳@@ 0.06423868381783468
13. 0.0065104246073782466
interpret@@ 0.00550407932742565
provincia 0.005739929334890818
resul@@ 0.0012791572235705826
ßen@@ 0.005187210188499819
Υ@@ 0.01745830365499631
μα@@ 0.009569652898263245
migu@@ 0.2251736070311841
İl@@ 0.03387715827620817
長@@ 0.2918843373919594
declar@@ 0.002970745588772663
political 0.002058751545176179
Ве@@ 0.0038850969982057366
ἰ@@ 0.4358349006264638
中国@@ 0.01049637954381078
16. 0.005866743263224449
Sau 0.008562043206214566
kuli@@ 0.0802548849862512
ış 0.009490701136075383
↑ 0.4814405651128781
玉@@ 0.02129878928905403
ordu 0.015997511953439826
signed 0.002239077070411098
ǫ@@ 0.4975587708598014
ερ@@ 0.0034366411233074834
الش@@ 0.004779519411337074
ḏ@@ 1
ῦ 0.4363876220070344
キ@@ 0.8597789217173669
我@@ 0.014695828675184009
郎 0.021999321807781847
Jahr 0.0008558202022796933
gez@@ 0.006714912709388402
leich 0.0044975743877372415
timm@@ 0.00522598403322458
zeit@@ 0.004200282970644732
Не@@ 0.0021056207551249408
лу@@ 0.001274864924765959
Parlam@@ 0.007362759661749004
ασ@@ 0.004098933852952792
τι@@ 0.004565979903293862
В 0.00021096501204104633
ал@@ 0.001440470679973846
স@@ 0.8521759587813975
ト 0.22825601169491075
ナ@@ 0.9626077496946424
九@@ 0.007821458934415573
無@@ 0.006405709173503215
院 0.0030722845970956136
kuna 0.18474400743076763
ʰ 0.775992133215574
Бу@@ 0.003614675934118788
الق@@ 0.0041241680033755
ე 0.7694515613522278
と@@ 0.6680915020418454
コ@@ 0.9090035870597799
通@@ 0.004112185546258504
15. 0.00548054373084346
ск@@ 0.0014581309859017994
ю 0.0004716737629571099
ع 0.003366128722152124
ქ@@ 0.7347033184796263
지@@ 0.8888368817970304
arı 0.011461864694717596
mang 0.01399376087474904
να@@ 0.006373674797716075
ско 0.003240813369570178
প@@ 1
andere 0.004822787857767766
ased 0.0018205852502663684
ihm 0.0022206497624705362
ى@@ 0.4198370528046625
ܐ 1
∧ 1
た@@ 0.648602753404107
福@@ 0.005957901668399032
competi@@ 0.0017561601736264213
за 0.0003933596251792937
野@@ 0.0187841102678057
recog@@ 0.0024370468944958563
ű 1
Му@@ 0.0035893669718803692
рий 0.004128529680580363
ἄ@@ 0.5984340545135125
ⵄ@@ 1
ん@@ 0.699857844157976
パ@@ 0.977160008824344
青@@ 0.00694842148021917
사@@ 0.6436807515404276
ición 0.003965289518259622
Ар@@ 0.0021220842820418376
ге@@ 0.0012281278450997303
ية 0.0015566455895374349
ی 0.00767970241706705
原@@ 0.0029433729112059
島 0.008053466450254251
華@@ 0.00624741054839139
ió 0.005662651317866047
resid@@ 0.0021252030712422465
result@@ 0.0029397692645498296
ũng 0.026233385128657735
̓ 1
ον@@ 0.0036852973101861135
Миха@@ 0.007649947873855975
Э 0.021698647944768636
ⵡ@@ 1
い 0.13721560142384678
会 0.002132597525630453
永@@ 0.010996697386641595
another 0.0015519393184716282
ưng 0.010149015930326051
ши@@ 0.0010386705621318072
الله 0.03031134489136153
ক@@ 0.5394616441128807
周@@ 0.006934702005219551
生 0.0017189249675252866
皇 0.02857465035699994
umani 0.3339357673115386
λα@@ 0.010580454111002148
ィ@@ 0.9238466323037093
物@@ 0.004144576697186741
生@@ 0.002250721280929031
cuer@@ 0.005036532406409443
λι@@ 0.0045022981203450265
ώ@@ 0.004206553149920875
Ива@@ 0.006018896414299215
пу@@ 0.0008724724437118056
ِ 0.019574679421805404
龍@@ 0.014478974095457692
kez@@ 0.06405023024358777
Ä 0.36454575488973395
αι@@ 0.004596715256521128
όν@@ 0.005000494366207837
То@@ 0.002383853422098402
щи@@ 0.0012262861321436721
世@@ 0.005213630120469532
镇 0.00656577022585589
änder@@ 0.0035766566324133067
Ž 0.4922851192455615
λλ@@ 0.005990432772341276
И 0.0027026037235674417
შ@@ 0.7782212608673316
‌ 0.08844209617502495
七@@ 0.008390260355562411
經 0.0065325888355868686
Güney 0.035741751347253034
director 0.0018042064458339195
ܝ@@ 1
த@@ 0.3574605758235511
ὸ@@ 0.400800105280037
‡ 0.32774623356370886
一 0.0033916797989579765
愛@@ 0.00969487559825989
黄@@ 0.01256185947175085
Menschen 0.0044436414390615605
since 0.0009569924594694793
uzak@@ 0.07825330388019983
àu 0.040983353341829114
ũ@@ 0.0394933988115256
αγ@@ 0.00441874252041445
Васи@@ 0.005868657178449909
К 0.0018695574050328714
سي@@ 0.003960157665885294
한@@ 0.6657713370755602
ección 0.004329841227193197
otro 0.00496290492031924
Đông 0.01033064515069368
τα@@ 0.004038418781721245
Об@@ 0.003659549226295016
اب@@ 0.004259449834781677
ار@@ 0.003205908422507308
ền 0.009235796582516347
年@@ 0.0026500871296217276
abei 0.005676301010529155
¨ 0.2624273310277575
Ķ@@ 1
αυ@@ 0.009201943514566616
ி@@ 0.2790764195416085
ャ@@ 0.8521214944629376
春@@ 0.01711323464664179
terior 0.0036365345204945098
Η@@ 0.01577572810310839
Си@@ 0.002370807283374396
‒ 0.4461609172079329
ⵉ 1
星@@ 0.007384830477941375
田 0.01135782526259608
aliye@@ 0.14800894480821292
nuevo 0.003675929228663871
poco 0.005263228705704919
ucu 0.025661391732273556
ρί@@ 0.005047145234256749
տ@@ 0.5687198022482494
دي 0.009088924311835726
رو@@ 0.0029966579399988156
ウ@@ 0.8267463026221857
門 0.006992414129560263
Machi 0.2452614735625472
different 0.0015278120994774525
über@@ 0.0008212323537463771
ακ@@ 0.003925576496366083
ит@@ 0.00110758974298286
ết 0.007944718355831392
台@@ 0.005924061407924767
黃@@ 0.048409189981662416
ambao 0.13034062725482481
bierno 0.011767274139187708
esab@@ 0.1682610552699469
largo 0.005218527923484992
much@@ 0.00822230168824209
ŭ 0.5968588639454936
ча@@ 0.0005623048475403698
الك@@ 0.0038413145772444924
る 0.21327577703039197
Meter 0.0036185502387437517
haa 0.3753621156187961
wenda 0.25247670661987803
̪ 1
пи@@ 0.0007246219624199815
ър@@ 0.00602281449964209
⟩ 0.3372883926741688
德@@ 0.0020222124901067345
空@@ 0.005470776600424919
govern@@ 0.0026801146637776387
maji 0.1671728001499058
popular 0.0018960107557383392
ydi 0.033196489682902466
εν@@ 0.0024819051517272145
Ки@@ 0.0023053325956598715
бу@@ 0.0011825342791005886
ния 0.0004470154394180826
ش 0.007031839368440427
แ@@ 0.0025949720189836385
オ@@ 0.7638126375306029
neue 0.003630253204574028
ʔ@@ 0.43854913093920656
ство 0.0008299686887416737
ْ 0.08772360837297453
合@@ 0.002713448543501407
appear@@ 0.000919506025709917
ȝ@@ 1
ين 0.002413797586765239
香@@ 0.016932314693712865
ciudad 0.0016578745287637098
endet 0.0031546641252897163
español 0.005533507071830727
julio 0.003931019113101333
nda 0.013380521900318292
tischen 0.002713489117750812
todo 0.0027520705589968897
written 0.0017224459519819054
÷ 0.44527523525792645
ģ@@ 0.9748023717936568
կ@@ 0.5548573137889411
ạch 0.006967934792217576
∂ 1
成@@ 0.0025288297268377304
藤@@ 0.04248396911481738
khai 0.01925846351392031
zaman 0.023809071310389448
ơ 0.008774503236434136
ιος 0.027298940418707892
ذ@@ 0.00398147580925744
າ@@ 1
ạnh 0.014365244496548983
チ@@ 0.9878080974412344
allow@@ 0.0017160159068853541
llam@@ 0.003439987856459855
tiempo 0.002855515620370673
ĝ@@ 1
ĩ 0.016090721821657654
Да@@ 0.0029716038222209746
Ре@@ 0.0019317341885703393
гу@@ 0.0011906217486327073
ย@@ 0.0016517422931462225
河 0.004904262293249251
구@@ 1
Maji 0.10648233312226614
consider@@ 0.0010166945183450757
inah@@ 0.4651331506192409
padre 0.005757058080809897
sahi@@ 0.036426656399546446
tener 0.005894532852165738
wird 0.0005499316676522141
Га@@ 0.002971137356969435
り@@ 0.7253082328569652
六@@ 0.005737357818397448
Durch@@ 0.004750085206790096
Juni 0.0021021484415115537
Θ 0.20422206286892947
όν 0.013699520225858927
صر 0.021144436910897565
ộc 0.009982646455879865
⁰ 1
り 0.2194021386059706
エ@@ 0.8380750957515117
グ@@ 0.9424669059240685
デ@@ 0.8574718856771253
oldu 0.00902991362804884
ƒ@@ 1
Ψ 0.9022738548750135
δι@@ 0.002494257289747233
Про@@ 0.0019960467100957847
ẵ@@ 0.03495856844454004
∘ 1
∩ 1
ま@@ 0.6023645430683641
氏 0.00751773078690506
akini 0.2249401077388299
του 0.0003704330845121984
он@@ 0.0011847365745285535
ন 0.5884393273478602
■ 1
心@@ 0.008479278294823388
Kwa 0.06818652029029953
duy@@ 0.01902787971828005
präs@@ 0.00390947454829215
quy@@ 0.05114320088582963
Η 0.0020374460881376483
وَ@@ 0.0816293680598688
プ@@ 0.9909175592140612
Cumhuriy@@ 0.06457588489836759
beit@@ 0.02134090156862775
gegen 0.0011575701883936316
zuri 0.259183320041677
ôi 0.0055834866433021515
ʐ@@ 1
ʒ 0.9503388401528157
ро 0.002271198681566535
ⴳ@@ 1
少@@ 0.0072417417933228374
гор@@ 0.0028635765904147627
же@@ 0.000640506217442829
ур@@ 0.0017753443078535878
ци@@ 0.0008143050249564
، 0.0003187647042716381
ு@@ 0.32316565938182623
ช@@ 0.0030174162846059133
名@@ 0.0028947785413088556
determin@@ 0.0030661068515408264
enek@@ 0.03440010857556838
linal@@ 0.22489726756768105
ommen 0.007002390875847292
Мар@@ 0.0024860760893774354
лов@@ 0.002423530211146303
ܘ@@ 1
ม 0.0018695988838601442
ὁ 0.6173914223299379
サ@@ 0.7373417558111829
公司 0.0029181346450155086
松@@ 0.017576082172166045
acı 0.027370088782384984
complet@@ 0.0012842896780174008
eneo 0.0874866589042887
sión 0.004336734834523456
̧ 1
ри 0.0014121868906033272
ров 0.0008760843904526039
ح 0.003916165926407306
ⴼ@@ 1
ブ@@ 0.8792934439960198
堂 0.006224878452119022
letz@@ 0.003304194692641133
música 0.00542543000918095
prepar@@ 0.0027153119978641487
àm 0.01868044788403651
ɪ 0.5828470825775971
έν@@ 0.0038118681848109187
ض@@ 0.0031192927548641587
ُ 0.033977370971137955
ی@@ 0.005611340533798425
› 0.24014949369411845
軍 0.003844931004486216
17. 0.004557881325280651
Thiên 0.023092293921597742
ammen@@ 0.0059952424620218605
nueva 0.005133418368953962
unid@@ 0.5987042929702577
và 0.0003609395710917423
vì 0.005939882583083776
within 0.0010941609896100962
Æ 1
ες 0.0016454530897076804
Та@@ 0.001450497671694913
Чер@@ 0.005235233624947659
зо@@ 0.0006264564238164496
য 0.7507138461965592
ว@@ 0.002370403003351544
ც@@ 1
ổ 0.004469877958638034
江 0.0071700858728995205
法 0.0017882895093520976
都@@ 0.011741344466429394
atao 1
inglés 0.006621843007428177
ği 0.006802251963681656
άκ@@ 0.007835984490097371
κλ@@ 0.00550108055258167
τα 0.0013292210014275423
Ста@@ 0.0035259453946294528
Я 0.009301752071569868
му@@ 0.0009438738233319124
њ@@ 0.6335578854198538
ام@@ 0.003932645570108394
ان@@ 0.0024655084113246375
پ@@ 0.005191620774928103
ར@@ 0.9054907559877983
‹ 0.24727634779376215
∅ 1
市 0.0017078222709593436
because 0.001103359810960018
drit@@ 0.0039305274221876855
nete 0.0036202429039658844
Â 1
ική 0.001864124776284846
λε@@ 0.005003195819263701
οφ@@ 0.009233027277353438
ное 0.0006842090446995515
زي@@ 0.006004606249008962
نا@@ 0.005397326935319624
ក@@ 1
⊗ 1
平 0.005908052126448897
行@@ 0.0027810943627539974
阳@@ 0.01666500009950818
dass 0.0005966793579208909
pequ@@ 0.010847333956155503
б 0.0018913034592767763
ня 0.0020639709241859435
ك 0.0032912118982129476
さ@@ 0.6703755203235439
千@@ 0.006245235666552341
文 0.0033117088380204703
月@@ 0.006337128506626607
18. 0.0038393468106987577
lü 0.013891795126205697
̠ 1
У 0.0031346365838995295
зе@@ 0.001340839565367788
лен@@ 0.0009408607575729171
лю@@ 0.0010557245160503605
الأ@@ 0.001898531652253868
ن 0.004068659252178209
⟨ 0.3052227075695676
に@@ 0.7668661006876578
る@@ 0.783364415204444
박@@ 1
ABD 0.0201627737217839
Produk@@ 0.0035440033644440743
among 0.0014429253475678708
personal 0.0025689682508205653
wieder 0.001383965844849056
ʊ@@ 0.7198377866115636
θος 0.03670652973244887
ϐ@@ 1
Су@@ 0.002251272642795352
ет@@ 0.0017189580917387176
мен@@ 0.0007220192858846237
ные 0.00033807093450591297
↦ 1
」 0.001046877320531794
ん 0.14285087642986685
ダ@@ 0.8400172449615149
楊@@ 0.02220579290318448
Irel@@ 0.6912109388081193
fuer@@ 0.0030348739366547763
hombres 0.006416373591086546
Ни@@ 0.0023456059993536994
ха@@ 0.0012682752920908419
це 0.002584579476001833
ս@@ 0.5816793134507703
ور 0.003604355140755639
「 0.0010392711488751605
asili 0.11586841307632016
tesi 0.03421858202997284
ην@@ 0.018434771758727007
ις 0.037809213353220135
παρ@@ 0.002860901678594392
ба 0.0016999728475425788
մ@@ 0.5964385826241081
ون 0.002959023374853707
ុ@@ 1
ự 0.016238318768738588
ク 0.1982801800850549
下@@ 0.002855958824827855
工@@ 0.002864974087989203
海 0.004342443967973777
wohl 0.0023813912111918744
Ā 1
ȝ 1
΄ 0.005471025374001153
ών 0.0018575351681183907
Ј@@ 0.6349954330694079
بي@@ 0.003334647818714544
گ@@ 0.006152652192886295
ก 0.0020307582893238753
ṯ 1
お@@ 0.6802230280173713
ミ@@ 0.7549669022422051
全@@ 0.0017321973137116153
张@@ 0.010559269515577304
記 0.019125525810281152
einz@@ 0.002223430725913912
kommen 0.00290822277989819
setz@@ 0.0015619308884782426
ɓ@@ 1
μέ@@ 0.008836131057528264
τρ@@ 0.004409537277839967
Укра@@ 0.0030665869694188833
вица 0.01947794022929655
ди 0.0013774382105423563
الس@@ 0.002779120567602779
स 0.0011349331904308656
⊂ 1
ニ@@ 0.7122545671676126
神 0.008572766665160353
Tanzania 0.01816825683902835
vuel@@ 0.0046414247348229255
zös@@ 0.015274052079533095
È 1
Š 0.39838633635215726
να 0.0009027983506352242
ле 0.0006919363987718497
أبو 0.053145178270857074
त 0.001933858611763995
ო 1
ệu 0.014764078237448738
う@@ 0.5769396238282007
国 0.0017800142752147402
家 0.0014924646688603924
立@@ 0.004331601867370328
部@@ 0.0029513616150944554
陽@@ 0.02070746284194788
리 0.6362329455468528
Kanada 0.013936466277120366
emente 0.002857555276196984
rund 0.0034791327334437153
south 0.0012955720407488765
wao 0.16666063954809038
ʷ@@ 0.7599399707302672
ιν@@ 0.0030569424365023204
ομ@@ 0.0037525411891545964
Сте@@ 0.006432540077603058
ря@@ 0.0008563877688251644
сти@@ 0.000712949683342327
اد@@ 0.0042505949410970864
ร 0.0036311145048734056
პ@@ 1
ạt 0.008342261460104848
き@@ 0.6445591608195297
Agosti 0.2735154681591034
called 0.0006553559120223029
días 0.004912262435565455
east 0.0016093558742286108
Ε 0.027128213339319307
θε@@ 0.00439985533041828
ј 0.9487655287525091
Ա@@ 0.5553888086226492
في 0.0003859935903661504
ส@@ 0.0012801112557051968
ძ@@ 0.7769856844855
Ἰ@@ 0.8188550544091885
こ@@ 0.7902335222431385
hệ 0.005052265855058488
iriki 0.16750211565092943
жи@@ 0.0005792337212986673
су@@ 0.0006131886923402903
то 0.0007716310980029026
ะ@@ 0.005294970035714763
አ@@ 1
Ḫ@@ 0.25949834108742015
あ@@ 0.6911507281404241
天 0.003873908766538808
漢@@ 0.011637212133521879
軍@@ 0.0029702677316034497
está 0.0015453225843734362
unkt 0.007122399543730797
Θε@@ 0.018361545450714178
ά 0.001996176270474778
άλ@@ 0.005177514273585569
ρά@@ 0.005335254061602433
из@@ 0.0004595275740502926
лов 0.0020182197398765224
ние 0.0005333985304614713
ạo 0.015251337633336243
ắ@@ 0.1340921440538495
∨ 0.8967576785055082
が@@ 0.8579880796227514
く@@ 0.7409897051287397
ビ@@ 1
港@@ 0.008628130208578116
hiệu 0.006426163671513974
Õ@@ 0.78025582625522
ос@@ 0.001385696650751392
ի 0.5135357223822622
اس@@ 0.004775011671809429
र 0.0020566145578184906
ে@@ 0.4872926381292687
代@@ 0.0037172877935858248
明 0.003185960927227523
潜@@ 0.04107540646967945
龙@@ 0.011933094651539399
동@@ 0.7449646499032159
Familie 0.002333414791531927
dió 0.0031220965257015903
mito 0.06342021532816013
tü@@ 0.019127824137002328
ulus@@ 0.022800261569287307
ßer@@ 0.004073279732479635
ⵔ 1
景@@ 0.0119590573814347
朱@@ 0.011875475120174573
社@@ 0.003317406881118776
花 0.00907805675809495
수@@ 0.8495791227278011
ıt 0.03001387929628177
ρα 0.010199014322584044
Ду@@ 0.004183824553202336
стро@@ 0.0010934008574875456
مو@@ 0.003952947579959029
ர@@ 0.31336346079048366
อ@@ 0.0018992978718536254
ệ 0.009341689460444511
♥ 0.690272762701019
ュ@@ 0.8461408058915717
建@@ 0.0017602847172055096
ately 0.0009246737155233465
̞ 1
Ν 0.12221134074218502
фа@@ 0.00125234437799395
خان 0.024721581039183583
مان 0.009754595642821608
ப@@ 0.34876235986338966
ต@@ 0.0015497752903578376
ស@@ 1
ằng 0.025722719546875387
ⵃ@@ 1
主@@ 0.0009958223960390622
大 0.001511555386004981
教@@ 0.0021072978333601337
村@@ 0.011046180534243262
alidad 0.002630485662296815
kiye 0.12264745068284512
partamento 0.004730046312512448
ĭ 1
Гри@@ 0.005792640674016713
вет@@ 0.0020895182342328747
با@@ 0.004772686914006288
لي@@ 0.0031258134404620864
ོ@@ 0.7528197294486472
ỳ@@ 0.06623314000883744
ὑ@@ 0.6649907610129716
♂ 0.12514796186728294
唐@@ 0.009348511167005226
株@@ 0.09860568462560353
alipo@@ 0.17373613369928684
allem 0.0024785819663801978
debut 0.001416357893565345
Ē@@ 0.5887528749836549
ʁ 0.8277238613125718
Ла@@ 0.0026964360983142755
го 0.00045045241124231896
кова 0.0045618238698499364
лы@@ 0.0015805804926364785
про@@ 0.00022495134268329573
ח 0.9079932242970028
ག@@ 0.8690274472064128
ἔ@@ 0.4883710051042207
⁄ 0.44838594340928195
∆ 0.664706490153302
♀ 0.18209232582618687
會 0.001009078943856259
아@@ 0.6282579380236837
celebr@@ 0.001994806417760276
çı 0.029666604831342216
Ά@@ 0.0063331246080179536
ολ@@ 0.004534180243493452
Те@@ 0.0020575945182737952
Че@@ 0.0026237323959141705
ной 0.00020199567443221608
لا@@ 0.002967343333910014
म 0.002482263208659836
ਾ@@ 0.714427791285797
宗@@ 0.007140202859117035
行 0.0012061380512349536
門@@ 0.013922135356692003
ıs@@ 0.005395579456287436
ước 0.004737347643428765
ʷ 1
الن@@ 0.0029981693563147656
고@@ 0.709793618250399
이 0.39940368169148327
acional 0.00824381828828608
aliza 0.00790549668588168
ìn 0.015226754740640015
ính 0.009285816018708646
σα 0.012291848261778099
ων@@ 0.004834315302291337
Нико@@ 0.009655995031557152
аль@@ 0.0006098080395410138
миро@@ 0.003719097972993862
الج@@ 0.0028421720384663373
ک@@ 0.0036527166283006895
জ@@ 0.7926292861865063
ὰ 0.33413236130237306
英@@ 0.0017953212013732418
草@@ 0.013920357057534971
部 0.0010232918750610394
陽 0.017474880610232287
Gebiet 0.003500911053317537
Hội 0.01330338462585665
Nach 0.0006966552599122503
died 0.0008837744558772998
gebiet 0.002509197350948048
¢ 0.23892154589045583
äß@@ 0.01538741312460079
̆ 1
κο@@ 0.00903064195080683
П 0.002510318579488621
п 0.0014545955471166846
ша 0.0037670770126987086
ด@@ 0.0013993319357150007
ấn 0.006858219533947291
┬ 1
宗 0.007591062817930417
後@@ 0.0024501817039684283
국@@ 0.6128554853495547
ationen 0.0019289723967003238
kte 0.0029952936851250075
üçük 0.08251742766064389
ľ 0.7172995621625241
έρ@@ 0.003534616318075208
Пре@@ 0.0023189936226782164
ские 0.0009677039706411153
ще 0.002579871724565981
ج 0.0034304069339305128
مَ@@ 0.06377090887662856
چ@@ 0.006856929432340532
म@@ 0.002794848092359617
ョ@@ 1
里@@ 0.003200010683574547
陈@@ 0.011755700779620746
sü@@ 0.013253229811158193
ǒ 1
ʲ 1
ής 0.0019371461207900798
ισ@@ 0.0031775489689774934
М 0.0026765367451994523
آ@@ 0.0037864034996757676
ত@@ 0.5561286493174791
大学 0.004343047184061656
encu@@ 0.02259092592721127
few 0.001379550752895574
though 0.0005995372065262023
Ď@@ 0.7869821695850064
ʊ 0.8685088636857787
ʽ@@ 0.4824482589822353
ικός 0.007131964002454376
ского 0.00026496707784471826
те 0.0005579038543862767
Հ@@ 0.6745561453585769
ס 0.8505273137129884
เ@@ 0.0023544379761886586
ら@@ 0.6344474015804994
ァ@@ 1
ガ@@ 0.7635774953966048
ド 0.24965341387017526
士 0.0017952828150979172
外@@ 0.002784219946277459
館 0.00801116816871182
incre@@ 0.0009523547157977527
̇ 1
αμ@@ 0.006385412578274279
εία 0.004268317653647985
Серге@@ 0.005509662574218278
э 0.004376488666995023
ך 0.9449966155573662
َّ@@ 0.018000731058945257
ち@@ 0.7253669480057433
仁 0.02185637463403407
吉@@ 0.004613028828265583
手@@ 0.005066123617680404
리@@ 0.628054805405127
학@@ 0.6434337145422194
Ort 0.0021411558932720146
Н 0.002312441743095167
ту@@ 0.0008067507686485864
モ@@ 0.7840434758972358
井@@ 0.03223168150764928
博@@ 0.004343450817655062
義@@ 0.005797181540771934
路 0.0017154818155971049
기@@ 0.6832189341574896
성@@ 0.6289445328459133
ildi 0.00822131654998106
neces@@ 0.003285543872253734
tanto 0.0025251316207862214
άρ@@ 0.0034482954467593163
І@@ 0.05950661396995881
ран@@ 0.001058651157892458
род@@ 0.001347267787851261
ской 0.00025325592256438174
င 0.6865715932571662
ზ@@ 0.8865365201969609
Ḳ@@ 1
ải 0.004166887766697147
₁ 0.6801550363108375
₂ 0.424016142869627
™ 0.20918277442849642
ズ 0.4403423969955202
华@@ 0.007107593559005041
市@@ 0.00276642480678509
政@@ 0.0023217993286943966
重@@ 0.002102828167570767
도 0.7022302436296981
신@@ 0.7078182827036745
Kilometer 0.0032030232190132387
punkt 0.0028761777178973043
ɐ 1
ίας 0.0015134214763095175
сты@@ 0.0023343840745264684
ть 0.000586323439337984
це@@ 0.0006216754140100678
Ἐ@@ 0.5930644060549767
┌ 1
ⴷ 1
原 0.004796422723051009
canción 0.0035064550729614883
daki 0.006842027236520446
fte 0.0024447645617448853
lý 0.004011843631354501
nhi@@ 0.02198825443443378
Ú 0.7920421680415527
Ι 0.06262424340037119
δρ@@ 0.0120129198097671
Андре@@ 0.005093667209810837
ст 0.0009215933153723842
լ@@ 0.7156486559283547
ไ@@ 0.002590419121610912
ục 0.006047425111416415
⇔ 1
ハ@@ 0.8017307572530702
夫 0.002951045430333234
安 0.004110730645097748
戦@@ 0.9603148630833479
interpre@@ 0.004704847263793359
mehr@@ 0.0021339475857273305
period 0.0011141700144210063
þ 0.7028634539485706
Ο 0.001724724788643155
σκ@@ 0.003920765216662214
слав 0.010179376425796808
ция 0.0007504280032780771
จ@@ 0.0018329388384258213
ท@@ 0.0016466309454407592
ạ 0.010513563129605677
ữu 0.050714090463823344
ⵓ 1
ⵙ 1
민@@ 0.7264450796169291
주@@ 0.6639485267708389
Cuando 0.005104327991863426
February 0.0006979499071988224
trieb 0.0023520931637267565
Ï 1
üre@@ 0.00809453382087906
ʔ 0.4040027552262907
λόγ@@ 0.02092858836578254
Ли@@ 0.001653307281183407
мит@@ 0.003555923528024066
ти 0.0005999338813392328
بر@@ 0.0032180457593908793
بن@@ 0.005535355093857125
ير 0.0035209779475110893
ầu 0.00946367161207831
ὀ@@ 0.7125952656758928
ⴽ@@ 1
化@@ 0.0037223075751381452
川 0.006422125606856234
awali 0.1519918517784692
ihn 0.0015365008893767544
jiji 0.14982011461271696
zäh@@ 0.0019348608836106443
ünden 0.004729758241868907
ħ 0.8600347927599673
ɣ 0.9876528587824142
άρι@@ 0.0265820790260938
При@@ 0.0017234739306548686
Сер@@ 0.005440124558861493
вя@@ 0.0011850354157927694
по 0.00019649187766048351
يد 0.008052675513201801
अ@@ 0.003463347490628757
ச@@ 0.3861912036106816
ย 0.0026947904195393302
า 0.002721329129403212
ម 1
は@@ 0.6167856289737075
島@@ 0.012303788165378644
語 0.004450697555276026
heute 0.0013997738370789539
Υ 0.13741776827687516
бро@@ 0.0018624464052299028
зи@@ 0.0006546843955892816
хи@@ 0.0010560367925477765
ܕ@@ 1
द 0.0019216809020447373
ো@@ 0.7778550390975117
வ@@ 0.31184566740134617
ḍ 0.7306441841233853
航@@ 0.004467534537700718
艦 0.01537636930276086
马@@ 0.002709115165085084
ilç@@ 0.012707147869709237
members 0.0007945049381839586
tionen 0.002295921901438497
yali@@ 0.1802750385517699
zwei 0.0007013741738436795
ública 0.03218342231052285
Ев@@ 0.005975999814559124
Иван 0.00667910861245335
Ха@@ 0.0018812878334596318
ман 0.0025643973034220236
нова 0.003058867623141714
ня@@ 0.0008593843300578121
ץ 1
أحمد 0.0446430016448088
الت@@ 0.0015258806580531101
الد@@ 0.0030315684261047913
ܪ@@ 1
ศ@@ 0.0032849788867583174
█ 0.4696164754273606
國 0.0011387212578048331
型@@ 0.02613426874487068
字 0.0036697388093096866
孫@@ 0.02262734847121923
是@@ 0.008976278977920592
縣 0.0030290020344902
의 0.37197344588305786
조@@ 0.6298293048480946
Gemeinde 0.0012892390078537222
endung 0.003152829204670512
ually 0.0007327896457921923
Ло@@ 0.002853894036773763
жа@@ 0.0006446228533883996
при@@ 0.00019723206205094152
ز 0.00245403104363164
ما@@ 0.003830235095618892
れ@@ 0.81978420511837
朝@@ 0.005903247246082129
湖@@ 0.006227059891476948
火@@ 0.004997677339148661
胡@@ 0.009414821828762883
长@@ 0.004179660278100532
인@@ 0.5449224438122108
kati 0.03579676453107986
uvu 0.1748498353832542
πι@@ 0.010625898975532604
το 0.0003625536907582725
ля 0.0006578955990599067
ры@@ 0.0008518184951995451
чен@@ 0.0016484167461679957
رة 0.002866736218483173
لَ@@ 0.07431382340366689
مي@@ 0.003058024758980839
وا@@ 0.0021829570118635736
হ@@ 0.7110335157292025
ம@@ 0.2943480063118495
ု@@ 0.7069431982849309
ống 0.0054207138190687084
ボ@@ 1
定@@ 0.003986837939112288
梁@@ 0.01511039112673285
沙@@ 0.004932315814967911
老@@ 0.006246753158453209
교 0.8494720689068929
anı 0.0053649072084191165
dır 0.015051926079449423
folg@@ 0.001868431570804036
große 0.0029586514992379176
Ç 0.4901472841442187
Ë@@ 1
Гра@@ 0.00509210200230708
Т 0.005110488386595986
вер@@ 0.0004813406878413707
љ@@ 0.5143094742076662
الخ@@ 0.004465501986431338
ន@@ 1
​ 0.010275046124272071
中 0.000521230832359048
林 0.0030754954577320603
水 0.0036107417242643783
Khi 0.010811131801841307
especi@@ 0.0010876812447384006
konn@@ 0.003758110135135527
udur 0.021688720829367868
äuf@@ 0.0019749428674289845
ίν@@ 0.003800825806298418
Лу@@ 0.002160430925791725
Лю@@ 0.0031853347672692197
сть 0.0008562810181871218
ט 0.7904886895503704
علي 0.021485775633869685
巴@@ 0.0016517216084278303
書 0.0069763129557440665
源@@ 0.011436432143862581
羅@@ 0.004000869269787809
스@@ 0.7276631297168903
Dr. 0.0020309022379618588
Makala 0.14872816621725332
cional 0.0041737066969413815
ieron 0.003465102720717775
polí@@ 0.002769796244817488
ǀ@@ 0.7735149551860605
ευ@@ 0.0022219925377835507
ως 0.001522479517121943
ны 0.00039727078118740163
ф 0.002067851612081008
ابن 0.01958319248967334
र@@ 0.0016363580981262026
ร@@ 0.0012857319640317934
็ 0.8842899364225827
ာ@@ 0.5501342922444639
∀ 1
ワ@@ 1
你@@ 0.08230206233509044
cuar@@ 0.004561080289297143
ierte 0.0012971039454605549
lık 0.004603025272357903
obras 0.003466092021864255
Ğ@@ 0.46661351714868093
ˁ@@ 1
ορ@@ 0.002252374777513473
Би@@ 0.002821368517204598
Г 0.003757649291206815
Никола@@ 0.0038491525440188155
ре 0.0006110753475091348
ско@@ 0.0007277251205254121
ша@@ 0.0009759075819401607
ਰ@@ 0.7092525460659951
รั@@ 0.004929267239800919
み@@ 0.6703710265274054
ェ@@ 0.9933509048543347
内@@ 0.0034874812341287352
字@@ 0.004828000231892903
理@@ 0.0023343960413853776
谷@@ 0.02655481470912408
超@@ 0.00383518650573989
Nội 0.013494825674610337
arded 0.0011913454628008104
iliz 0.11557443114379495
todos 0.0020263110251436942
uyền 0.013691367588802848
âu 0.006648144844451263
̰ 1
ед@@ 0.0026456125999491324
лек@@ 0.0014457689991017309
си 0.0010775492773115185
ча 0.001611728812553817
مر@@ 0.00419427235692006
क 0.0012231334060755134
ế@@ 0.014884697181518889
ệt 0.0046612430129482855
之 0.0017895319783636963
女 0.0041337570337932625
特@@ 0.0011636095922068657
術 0.005797135763944872
限@@ 0.005457903543596046
風@@ 0.005682118068629926
기 0.58616881772095
나@@ 0.6378113021159837
원 0.6694282589415615
유@@ 0.9072742165758372
Amerik@@ 0.021510812252650176
Chuo 0.12467861212220248
ambaye 0.12211627282511876
frente 0.0037825594075585095
gelen 0.013740102005917366
hasta 0.0007614853408006688
kazi 0.05242500122112971
ư 0.004666545447910759
Περ@@ 0.02192324244563089
вая 0.0012109379282841024
мона@@ 0.0036155267270984643
сла@@ 0.0015379856007818177
стра@@ 0.0006637622066532054
ья 0.001483062816535793
ү@@ 0.13457374006840903
اِ@@ 0.10007311662493178
در@@ 0.004881187010752258
ܰ@@ 1
∙ 0.4339625101082404
〜 0.1460214117188408
っ@@ 0.6952079411934011
も@@ 0.5952122784190078
ノ@@ 0.8286149477871289
ム@@ 0.8018546034525964
史@@ 0.005213329692793517
同@@ 0.0018784174707943493
志@@ 0.011580622687789862
雲@@ 0.015264534103139845
音@@ 0.003034477685553664
우@@ 0.8093223995266601
COVI@@ 0.4170822053073358
cuatro 0.0024714517972703
material 0.001929496051648052
ŷ@@ 0.41885918366226665
ʹ 1
με@@ 0.0047005931447030415
ό 0.001325396527082611
Б 0.004144323499786842
Росси@@ 0.0021823330672443558
ства 0.0004041888266985765
ات 0.0015351794510026259
ای@@ 0.005847592671723335
من@@ 0.002274632913643799
ور@@ 0.002544848769361719
प 0.0007157975284157413
श 0.0033281858965402205
ง 0.0018359695299454536
ล@@ 0.001195979324101353
メ@@ 0.7058314243662606
土@@ 0.0047156674073368056
玄@@ 0.03266652293905654
科@@ 0.0015946132339373406
趙@@ 0.14343177131244353
郡 0.006678042529568607
风@@ 0.0072895615659548975
경@@ 0.7629552536109802
According 0.001144677661990702
fiz@@ 0.005425823725482569
ơn 0.013105595696408026
ργ@@ 0.005509069071857972
рина 0.005014084183443557
ր 0.511383886126732
ام 0.003290358018726908
ܡ@@ 1
བ@@ 0.6468787619380885
ေ@@ 0.5475589520263723
ម@@ 1
ℓ@@ 1
宮@@ 0.021122653693897517
星 0.003225464816395293
衛@@ 0.009336632166248247
ihre 0.0010887360930699006
oloj@@ 0.014030282292753441
ported 0.0008297457421464627
usawa 0.19075864003523207
اء 0.0030208052924034583
بي 0.008111235849029143
فر@@ 0.004655027163958778
يم 0.00853678068462954
ས 0.4730814272873755
ṛ 1
ⵛ@@ 1
宮 0.014121094132478218
普@@ 0.002445277625618936
書@@ 0.006817355681132922
校 0.002586602490463458
bió 0.0017684761773999096
defe@@ 0.0010082927238226284
fue 0.0002221359654529213
oeste 0.003137713740214442
απ@@ 0.0020237858125046284
Ал@@ 0.002853239289204585
ден@@ 0.000792770473127503
доро@@ 0.001327887504848242
льный 0.001348335660563276
ми 0.00025047626378762083
الر@@ 0.004555483918304139
न 0.0014436924496598364
ང 0.5495211955916088
ን@@ 1
ង 1
ラ 0.12290322981728319
仁@@ 0.015177656901492767
光 0.00478149333396559
号 0.003087097725802587
師 0.005152291716467509
木 0.010198253175085426
미@@ 0.9369645104609735
Esta 0.0027394440115036363
eht 0.003582496249847583
pobl@@ 0.0038493403370125096
ğr@@ 0.010026984278343604
ˌ@@ 0.6316712239348481
εύ@@ 0.0039192306902889485
Вла@@ 0.012032381134012326
Р 0.0031758307866823006
Ша@@ 0.0033004326385700027
ж 0.001671307908719196
ке@@ 0.0012531755366736016
нь 0.00242687864074912
ນ@@ 1
て@@ 0.7622360612146838
園 0.005662612733972568
集@@ 0.003030384017573275
龍 0.006386320072483008
azini 1
chữ 0.013026831160625122
cá 0.0063923469541978094
moja 0.04527376960662871
ografía 0.0021956425865150373
schied@@ 0.0031546883906907125
stän@@ 0.002730197348604619
μος 0.022008294351136323
че 0.0014365906875838522
بو@@ 0.006420185668543867
لو@@ 0.0029430082267599455
ფ@@ 0.7296917615370047
ក 1
ὸ 0.35282232662108004
保@@ 0.001715293869178694
信@@ 0.00333182385976103
利@@ 0.0014408663777368813
多@@ 0.0011846333070475309
徐@@ 0.012117077510355291
第@@ 0.0015351279360998995
영@@ 0.7887368678449507
During 0.00067701085345706
ases@@ 0.004170174824358853
denen 0.0017860945286286387
ecek 0.01478514793434919
escri@@ 0.003535767074794204
etzt 0.0011537896523359191
hakk@@ 0.03656828121012748
país 0.002088072837965366
prä@@ 0.0022575016567870647
quốc 0.002241196634101346
released 0.00042965686347672404
tiem@@ 0.011758154957490621
üç@@ 0.012930605130583075
ış@@ 0.0025598680709388024
ŝ@@ 1
πρ@@ 0.00553330270681263
ρε@@ 0.004782062222069166
Констан@@ 0.004952524159934704
ак@@ 0.0007634317452697879
дар@@ 0.001350685583401954
нови@@ 0.0036563107283133205
لة 0.002606130062644252
ک 0.004950968075249615
ṃ 0.3816017862606747
⅓ 0.3259595480016762
广@@ 0.003027762373178437
昌@@ 0.02004877805794818
汉@@ 0.006646555324938243
津@@ 0.015580278400118703
durante 0.0008933527583655687
entw@@ 0.0052398796416959145
hizo 0.0027195638757443355
¦ 1
ılar 0.005147734953866062
ŕ@@ 1
νης 0.00965461816469542
πλ@@ 0.002947417193409092
Кара@@ 0.006651084229675842
Николай 0.005739133167810476
Ор@@ 0.0028343365639271942
али@@ 0.0018720928143169675
ман@@ 0.0010995815617862734
ного 0.00018392927359727314
фи@@ 0.0007012269496863007
шо@@ 0.002573338870533713
红@@ 0.008607849372329874
Hồng 0.014164213789034699
dür@@ 0.005762230644019732
nte 0.0020692646312584005
tiene 0.0009715908531096368
until 0.00039394823832768905
ď 0.6495449324426806
νη 0.007552848051659076
Крас@@ 0.0023197863004482725
лий 0.0036953003523751875
он 0.0003703648340653981
ө@@ 0.1371245865191426
الف@@ 0.003033246396941487
سل@@ 0.006277385968084309
مح@@ 0.0037232744367535317
ّ 0.011120622523696656
ल 0.0019278034250658199
ড 1
ວ@@ 1
₹ 0.10003279823784873
ⵖ@@ 1
宁@@ 0.010595969876718108
通 0.0031185746464096253
雄 0.010482960726944024
麻@@ 0.018148089569755298
전@@ 0.7037942308092742
ingana 0.17877142929932247
schnit@@ 0.0020378193073543618
Üniversitesi 0.010774487412171694
ċ 1
ǧ 1
ʑ@@ 1
άσ@@ 0.004001388783231095
Ди@@ 0.0019542870802259876
ани 0.008423544940096115
ף 0.9780671624889379
مة 0.002382991954178463
ட@@ 0.3642103244932583
บ@@ 0.0012652976493855187
း@@ 0.5728551025026868
⅔ 0.4274862632219092
丁@@ 0.008651148441100608
万@@ 0.0046268446144481805
夏@@ 0.004569404843177394
帝@@ 0.0066458769773867915
志 0.006594337351549246
音 0.003435852011975917
산 0.9600382747011234
상@@ 0.7593984408632214
！ 0.01648471281171185
Kỳ 0.0031655650434606855
actual 0.0023251957135326084
gör@@ 0.0065128907643533015
huko 0.05081511507229128
kadar 0.004474974215884471
Рес@@ 0.0028691336567609063
Сто@@ 0.005438710599034828
Ти@@ 0.002396504360482953
тан@@ 0.001253756148735586
чу@@ 0.0018638032766139896
وي@@ 0.0016783979140818344
ܳ@@ 1
य 0.0012902472171236066
ḷ@@ 0.34331256355229683
ỉ@@ 0.10854779806677223
ị@@ 0.004337249360561872
の 0.04969142926939002
司@@ 0.004487811111229896
吳@@ 0.012387744099311102
嘉@@ 0.006328990315384415
殿 0.01208728830110776
美 0.005454215484502509
보@@ 0.8328337121214748
원@@ 0.6761078932102126
하@@ 0.5669381783432424
： 0.0006589007786739239
become 0.0009298599624333925
ίου 0.003254564356949453
от@@ 0.00023552781579919092
ਿ@@ 0.6982174993803855
ข@@ 0.0016020041744226907
ậu 0.00680637602448571
ử 0.005620064135316376
∑ 1
☉ 0.4628335696650282
ツ@@ 1
交@@ 0.0016869627615816402
侯 0.02462674588672353
元 0.002101270901116559
廣@@ 0.003459438575986757
御@@ 0.017142465051147263
武 0.01305958213714622
站 0.0010870456549651121
論 0.004959897317316988
소@@ 0.7343032595647083
화@@ 0.696625213178834
Bộ 0.005959383944202532
Ligi 0.023309197943631184
bildung 0.002271179592416616
marri@@ 0.0022252855109143716
mà 0.0031265816724385487
partidos 0.003735082439770053
ãi 0.008500619468520078
önem@@ 0.026862290255383878
ĉ@@ 1
οσ@@ 0.005053072915713846
ών@@ 0.00365508064372978
ато@@ 0.0007925173183577184
اد 0.004936430815369918
ال 0.002387065445783887
شا@@ 0.010241974213881799
व@@ 0.0022520556882252222
ป@@ 0.0014842510630094581
ℵ 1
し 0.09232808584643638
ム 0.26464417595159523
作@@ 0.0014442789212391403
信 0.00518709585853402
君 0.01953289376808139
校@@ 0.004949417377120919
공@@ 0.6717664177102785
성 0.7373846270104277
시@@ 0.49993212708736784
grün@@ 0.0022450238160234824
haben 0.0010883895895402315
placed 0.0007472844635140567
και 0.00022012578019467508
Д 0.002848015855700335
З 0.006939598747692131
Фе@@ 0.002994014471518002
ке 0.00035717790153645847
сте@@ 0.0007632654378357367
ә@@ 0.08672028288322582
ג 0.9355732085975601
ܐ@@ 1
್ 0.20625283589676688
ิ@@ 0.0025960565538405878
ស 1
់ 1
ừa 0.007912610783780203
ữ 0.0073764592627843075
∃ 1
≃ 1
ピ@@ 1
京 0.0034653877156680508
南 0.0015649138677305133
台 0.0015302506949763201
學@@ 0.0011841101297496534
年 0.00011642329369800868
tü 0.016509653352989068
ızı 0.013076623393312784
υρ@@ 0.007723787886094806
град 0.003550694969866467
دي@@ 0.0025083917530572646
ज 0.0018795114918524693
ད@@ 0.7960504786085646
Ῥ@@ 1
つ@@ 0.5732491784732229
を@@ 0.7670655457073425
セ@@ 0.7401171952935337
兴@@ 0.011288146904641503
出@@ 0.0007810999514673216
口 0.0026263402982602164
和 0.0002633288176806316
士@@ 0.0038912165276892845
心 0.003942055418809287
日 0.0004153213267850655
空 0.003761228111005205
西 0.0017724987519199572
장@@ 0.6576069171114228
Dân 0.006261358752700692
gab 0.0011544966598448449
partam@@ 0.015577173536431285
published 0.0006144828351159111
Ã 1
êng 0.030227730640631122
Œ 1
μά@@ 0.004595747667733626
των 0.0007248328009230603
Пи@@ 0.0027888813499751157
па 0.0012943445173118932
ֲ@@ 0.888492533860746
بل@@ 0.004961701729911036
ث@@ 0.0018211308337556106
พระ@@ 0.002986070506750599
መ@@ 1
う 0.0994796214733998
け@@ 0.8083926521673362
上 0.000517991795520181
手 0.0021910871854917083
도@@ 0.6039907794949734
서@@ 0.5776522321235376
스 0.6761613714763914
Vương 0.008619933531576186
agosto 0.0021374412113405387
kır@@ 0.012957152174261435
took 0.0005036528308512185
Ő@@ 1
Ɛ 1
˚ 0.26499254476592377
εί@@ 0.002749662396624705
οδ@@ 0.003846474685052086
вый 0.0011172810948270658
ем@@ 0.0013156869191351182
кто@@ 0.001153401542685245
сь 0.0008750492738067488
سع@@ 0.012995752550866695
من 0.00041731200141489986
يا 0.002689921472872543
ण 0.0036636390228431703
ำ@@ 0.013487347162981974
⁣ 1
ア 0.12509858782888386
下 0.0008619959339065002
人民@@ 0.00294761714516392
前@@ 0.0024087712023440314
回@@ 0.0026863450170108902
石 0.004485102072455564
集 0.0032212216298653086
電@@ 0.0016175647844048273
오@@ 0.7197859997204404
besonder@@ 0.0026570182567022867
gobierno 0.0019223059883475234
hijo 0.0029036591268705642
nungen 0.0024161452446066606
ǃ@@ 0.5247292410886121
ɒ@@ 0.8887601520938365
̝ 1
Δι@@ 0.004664221673787467
Ге@@ 0.0018388279782500152
Кар@@ 0.0015665716415766214
ата@@ 0.0010590879758022303
де 0.0004640420450413052
ных 0.00016041629282409134
шка 0.005748481514113892
Մ@@ 0.6149259430703301
اني 0.006697041200697664
ورة 0.008675327110698463
ী 0.7145810268091148
สุ@@ 0.00610438395943395
ỗ 0.004160862135270771
ῥ@@ 0.9043028574563678
♦ 0.4507183021712008
口@@ 0.006716891198234066
宝@@ 0.01698081909842838
赤@@ 0.01203721372455359
다 0.43321134603203004
Trường 0.012271657198797668
culos 0.0035714870271127772
ectos 0.00308166361254729
ċ@@ 0.9586761005183592
ĩ@@ 0.40797690261710856
Ţ@@ 0.26764373268402025
ǫ 0.7470534506698916
πος 0.018101050228887694
Ин@@ 0.0012605130484132268
Кон@@ 0.001960640192173826
ге 0.0009101448770164269
нато@@ 0.004591840996728556
рус@@ 0.0010865559479950146
се 0.00035546625089217604
тин 0.003739369620286607
ье 0.0011678655293352012
الب@@ 0.002182474427283479
ظ@@ 0.0046305602072498455
می@@ 0.004703366416648598
ون@@ 0.0021520917974715025
रा@@ 0.002097320949546993
জ 1
ী@@ 0.8460605344936121
ਸ@@ 0.7039902191776422
ိ@@ 0.5047477043160453
で@@ 0.8447882630131706
在@@ 0.004013116895881463
常@@ 0.0029624655647392264
康@@ 0.006679398800382351
德 0.0013157093153897787
思@@ 0.0063177188423984895
方 0.0014936738948117657
朝 0.0026443623080865653
義 0.006265926753111954
聖@@ 0.006362366020790488
강@@ 0.8723357063722957
영 1
ﬂ@@ 1
häng@@ 0.0017876169457216094
Č 0.2564779900450585
Ζ@@ 0.006013548676098745
κος 0.01509679409114925
λος 0.02097398459234259
лица 0.005379144130507131
пар@@ 0.0009197301173738832
публика 0.009017439451040481
рав@@ 0.0014771630888021894
тра@@ 0.0010059784255890428
ха 0.001338294528169227
գ@@ 0.47213778082337143
ি 0.5754791415637567
ན 0.5870496216586895
ḫ 0.5864290618049276
ᾶ@@ 0.5165380749231485
〉 0.013560876395596604
す@@ 0.6882901891655849
事@@ 0.0018099839559005077
云@@ 0.009686610893252456
何@@ 0.01001230675114535
區 0.0011686307931930405
孝@@ 0.019820711439046106
学 0.0018740879492308263
知@@ 0.003871034969175161
路@@ 0.002256606528937481
陵 0.014333821472946836
韓@@ 0.007393079406000446
마@@ 0.7130615584414672
사 0.375092557449264
진@@ 0.8764010939454367
toda 0.003502372834953191
Ɔ 1
ɐ@@ 0.7847272063483732
ˁ 1
Из@@ 0.001695520490669165
Михаил 0.0061700451712344215
ви 0.001846547674135585
лин@@ 0.0010670424975038513
лно 0.005180599362815921
тар@@ 0.0016494702623879437
ղ@@ 0.5577796232496584
ود 0.004738108786373749
ล 0.0016298717503300407
ห@@ 0.0020532355334808936
อง@@ 0.0049767362350641876
က@@ 0.725482900703529
ὄ@@ 0.6704278947749871
公 0.0060785660862408665
号@@ 0.01101449033825664
峰 0.007207858590788037
智@@ 0.009573523788428785
良@@ 0.012718608415714589
라@@ 0.7303194533748859
Nhân 0.010371682349232123
estado 0.0014554464785750904
often 0.000707121319143671
sebe@@ 0.018784036948338342
 1
άγ@@ 0.004669366305946127
Вели@@ 0.0023931897299941025
Геор@@ 0.004904598652070963
ан 0.0020643973946544527
ате@@ 0.0007096362657486017
чо@@ 0.004775178059741842
վ@@ 0.4951623512773512
الدين 0.029442814462012936
ະ@@ 1
မ@@ 0.4311940092463058
ḳ 1
〈 0.01324054281783798
や@@ 0.7257950169058625
丹@@ 0.007534239321074399
佛@@ 0.005053527052794141
如@@ 0.002221498950685974
宋@@ 0.008557007241570937
寶@@ 0.010377056587308182
師@@ 0.009885503813573943
昌 0.011675028881005042
本 0.0014852463133581853
洋@@ 0.010234654898449188
級@@ 0.03367276669540837
馬 0.0020493747753221304
． 0.06894266066490724
Jahren 0.00056439884682468
así 0.0012314228874647736
mals 0.0036173881978538835
mujeres 0.003251323418390653
taifa 0.08257697433986856
undan 0.01295942365981668
άς 0.0064264210044742195
γκ@@ 0.001999149632937285
[...]
