, 0.9244499078285354
. 0.8826995114348536
του 1
και 1
της 1
το 1
ο 1
&quot; 0.8726245856638345
η 1
την 1
από 1
με 1
να 1
) 1
( 1
σε 1
τον 1
ή 1
που 1
των 1
τα 1
β@@ 1
κ@@ 1
τη 1
στην 1
ος 1
ι@@ 1
για 1
στο 1
ία 1
μ@@ 1
Σ@@ 1
σ@@ 1
α 1
τ@@ 1
δ@@ 1
αν@@ 1
θ@@ 1
ου 1
έ@@ 1
οι 1
χ@@ 1
π@@ 1
φ@@ 1
ες 1
ί@@ 1
ά@@ 1
στ@@ 1
είναι 1
ν@@ 1
Κ@@ 1
ων 1
ε@@ 1
ική 1
τους 1
ρ@@ 1
ίας 1
ο@@ 1
ό 1
Η 1
γ@@ 1
ών 1
Α@@ 1
Μ@@ 1
Π@@ 1
λ@@ 1
ό@@ 1
ικό 1
ως 1
Το 1
α@@ 1
ά 1
εν@@ 1
Ο 1
ης 1
@-@ 0.4231893086641793
άν@@ 1
υ@@ 1
ω@@ 1
ύ@@ 1
δι@@ 1
ής 1
ικά 1
η@@ 1
ους 1
ζ@@ 1
ήταν 1
ι 1
Τ@@ 1
Ν@@ 1
ια 1
στη 1
ές 1
ός 1
ου@@ 1
ερ@@ 1
ρι@@ 1
ή@@ 1
ας 1
ει 1
προ@@ 1
αρ@@ 1
Β@@ 1
κα@@ 1
ση 1
ικ@@ 1
παρ@@ 1
τις 1
ον@@ 1
εκ@@ 1
απ@@ 1
Ε@@ 1
ρο@@ 1
αλ@@ 1
ευ@@ 1
ορ@@ 1
ασ@@ 1
εξ@@ 1
ατ@@ 1
το@@ 1
επ@@ 1
ιν@@ 1
Λ@@ 1
ού 1
απο@@ 1
: 1
συν@@ 1
ακ@@ 1
τα@@ 1
ικής 1
ώ@@ 1
ρα@@ 1
ν 1
ει@@ 1
τι@@ 1
μα 1
ένα 1
στις 1
ού@@ 1
ε 1
λι@@ 1
γκ@@ 1
έν@@ 1
αγ@@ 1
αν 1
Χ@@ 1
ισ@@ 1
αι@@ 1
μπ@@ 1
ομ@@ 1
ότι 1
ουν 1
μια 1
στα 1
Ρ@@ 1
ελ@@ 1
όν@@ 1
Φ@@ 1
έρ@@ 1
επι@@ 1
στον 1
άρ@@ 1
σι@@ 1
ρί@@ 1
ξ@@ 1
ς 1
τ 1
« 1
» 1
τη@@ 1
Ο@@ 1
πλ@@ 1
Δ@@ 1
τά@@ 1
περι@@ 1
τρ@@ 1
Γ@@ 1
ρ 1
θε@@ 1
ικές 1
εί@@ 1
ί 1
πο@@ 1
δεν 1
λλ@@ 1
λε@@ 1
σκ@@ 1
να@@ 1
όρ@@ 1
εται 1
εία 1
ολ@@ 1
ίν@@ 1
ίου 1
Οι 1
δια@@ 1
ικού 1
έχει 1
κλ@@ 1
λ 1
σης 1
ικών 1
Ι@@ 1
ψ@@ 1
.@@ 1
άλ@@ 1
είχε 1
αρχ@@ 1
ων@@ 1
΄ 1
ρά@@ 1
ιστ@@ 1
ίσ@@ 1
τική 1
θηκε 1
εύ@@ 1
τέ@@ 1
ών@@ 1
ιο 1
όταν 1
μετα@@ 1
ηση 1
ούς 1
άσ@@ 1
κατά 1
αί@@ 1
ίες 1
ματα 1
υπο@@ 1
όλ@@ 1
αφ@@ 1
οδ@@ 1
ματ@@ 1
αστ@@ 1
τε@@ 1
αλλά 1
κατα@@ 1
με@@ 1
υπ@@ 1
τες 1
ησε 1
ονται 1
προσ@@ 1
δε@@ 1
ήθηκε 1
ίκ@@ 1
μα@@ 1
ενώ 1
σαν 1
Ά@@ 1
Έ@@ 1
είο 1
κ 1
ρε@@ 1
ανα@@ 1
οποία 1
ξη 1
θα 1
τικά 1
ριο 1
Μπ@@ 1
- 1
όπως 1
τικό 1
έλ@@ 1
δύο 1
&apos; 0.8952485174246653
άκ@@ 1
αμ@@ 1
ιλ@@ 1
μά@@ 1
αυ@@ 1
ηγ@@ 1
τσ@@ 1
μβ@@ 1
οντας 1
ργ@@ 1
ωση 1
τερ@@ 1
ημ@@ 1
Δι@@ 1
έχ@@ 1
σία 1
αντι@@ 1
Αν@@ 1
οί 1
οσ@@ 1
μία 1
τος 1
ρο 1
ρέ@@ 1
θεί 1
ρού@@ 1
όσ@@ 1
πρ@@ 1
άγ@@ 1
μετά 1
ικός 1
λα@@ 1
θη@@ 1
αθ@@ 1
οπ@@ 1
ότητα 1
τί@@ 1
ται 1
ήσει 1
όπου 1
όμ@@ 1
επίσης 1
ογ@@ 1
εγ@@ 1
εί 1
οφ@@ 1
ήρ@@ 1
γραφ@@ 1
μο 1
θέ@@ 1
μέ@@ 1
περ@@ 1
γεν@@ 1
μον@@ 1
χρ@@ 1
/ 1
ρου 1
ετ@@ 1
καλ@@ 1
ματος 1
2 0.8928241409766825
ον 1
Τα 1
εργ@@ 1
ρω@@ 1
έκ@@ 1
Α 1
οι@@ 1
κά@@ 1
υλ@@ 1
βι@@ 1
τι 1
μ 1
οικ@@ 1
οκ@@ 1
οβ@@ 1
δυ@@ 1
καθώς 1
τελ@@ 1
καθ@@ 1
κο@@ 1
ητ@@ 1
1 0.7759924377449483
μένη 1
καν@@ 1
τικές 1
οποίο 1
Ζ@@ 1
Παρ@@ 1
εφ@@ 1
ίλ@@ 1
σημ@@ 1
γι@@ 1
Κα@@ 1
αυτ@@ 1
έχουν 1
Γκ@@ 1
ώς 1
αυτό 1
μη 1
Τζ@@ 1
ρα 1
είας 1
του@@ 1
άδ@@ 1
στους 1
κιν@@ 1
ίδ@@ 1
αδ@@ 1
είται 1
ολογ@@ 1
ειδ@@ 1
μέχρι 1
τον@@ 1
μεταξύ 1
εις 1
τού@@ 1
ουλ@@ 1
Ό@@ 1
αντ@@ 1
τησε 1
νη 1
πολ@@ 1
σύν@@ 1
άς 1
λέ@@ 1
υγ@@ 1
ωσε 1
μένο 1
ρος 1
έπ@@ 1
δο@@ 1
ίων 1
ηλ@@ 1
έγινε 1
όπ@@ 1
ίστηκε 1
ούν 1
Θ@@ 1
χρόνια 1
3 0.8669928357773727
μεν@@ 1
ξε 1
οχ@@ 1
είς 1
ήματα 1
Πολ@@ 1
κτ@@ 1
όν 1
πρώτη 1
προς 1
δημ@@ 1
υρ@@ 1
συ@@ 1
σύ@@ 1
εια 1
πολι@@ 1
πιο 1
τύ@@ 1
Υ@@ 1
έφ@@ 1
Β 1
ω 1
βασ@@ 1
ημα 1
πρω@@ 1
Στις 1
έγ@@ 1
ώντας 1
τικής 1
μή@@ 1
μι@@ 1
τού 1
λογ@@ 1
; 0.35090078224703647
Η@@ 1
συγκ@@ 1
εισ@@ 1
άλλ@@ 1
ομάδα 1
μένα 1
ουν@@ 1
περιοχή 1
πόλη 1
Γι@@ 1
οπο@@ 1
τά 1
μπορεί 1
τεχν@@ 1
σπ@@ 1
θέση 1
σεις 1
κύ@@ 1
πτ@@ 1
αυτή 1
πέ@@ 1
πι@@ 1
τυ@@ 1
είχαν 1
σα 1
υσ@@ 1
4 0.8561081455324091
υμ@@ 1
τρι@@ 1
πρό@@ 1
5 0.8165861457085579
νομ@@ 1
εν 1
ένας 1
ορι@@ 1
τικ@@ 1
έ 1
άστηκε 1
γράφ@@ 1
εδ@@ 1
διάρκεια 1
νη@@ 1
νης 1
Με@@ 1
σημαν@@ 1
μικρ@@ 1
διακ@@ 1
στι@@ 1
όγ@@ 1
κοιν@@ 1
ερ 1
θηκαν 1
δρ@@ 1
Αγ@@ 1
παρα@@ 1
έρα 1
τε 1
αιώνα 1
μπο@@ 1
Αυ@@ 1
ϊ@@ 1
εθν@@ 1
λη@@ 1
ουσ@@ 1
μερ@@ 1
ήσεις 1
ελλην@@ 1
ότερα 1
παν@@ 1
στρατ@@ 1
φ 1
πε@@ 1
δικα@@ 1
χρησιμοποι@@ 1
όφ@@ 1
άν 1
φορά 1
κατ@@ 1
S@@ 0.1654403711584755
ρίζ@@ 1
ψη 1
αγων@@ 1
κατέ@@ 1
είου 1
οποίος 1
Μαρ@@ 1
αζ@@ 1
ονομ@@ 1
Από 1
έσ@@ 1
αβ@@ 1
ιμ@@ 1
υν@@ 1
σσ@@ 1
δημιουργ@@ 1
εβ@@ 1
3@@ 0.9968611858502066
ούν@@ 1
σμ@@ 1
ιδ@@ 1
&amp; 0.9601611768995421
ρον@@ 1
μέν@@ 1
γκ 1
ειας 1
βλ@@ 1
τζ@@ 1
αποτελ@@ 1
ότ@@ 1
Στην 1
μάτων 1
ισμό 1
κυ@@ 1
στο@@ 1
18@@ 1
ιά 1
% 0.6491054776778863
μαν@@ 1
όκ@@ 1
ήματος 1
έναν 1
– 0.40841280401232555
οποί@@ 1
νο@@ 1
νω@@ 1
ενός 1
ότητας 1
κατά@@ 1
σίας 1
μουσ@@ 1
νε@@ 1
περίοδο 1
Συν@@ 1
πα@@ 1
ρκ@@ 1
τοπ@@ 1
στα@@ 1
τηκε 1
μέρος 1
Κά@@ 1
μόνο 1
θεση 1
φέρ@@ 1
έα 1
δη 1
τή 1
όχ@@ 1
άζ@@ 1
γραμ@@ 1
πολύ 1
ώθηκε 1
κόμ@@ 1
ίζεται 1
ήγ@@ 1
μφ@@ 1
οποι@@ 1
ρίας 1
συμβ@@ 1
άρχ@@ 1
Προ@@ 1
ποι@@ 1
μένων 1
όδ@@ 1
σχ@@ 1
μαζί 1
ίο 1
Μετά 1
τορ@@ 1
ριστ@@ 1
ώσεις 1
έως 1
επικ@@ 1
π 1
ικούς 1
όμεν@@ 1
Γερμαν@@ 1
Ρω@@ 1
μένες 1
ήλ@@ 1
Με 1
αναγ@@ 1
εκδ@@ 1
βολ@@ 1
ηθ@@ 1
τικών 1
βά@@ 1
4@@ 1
έδ@@ 1
πρόσ@@ 1
2@@ 1
μή 1
πως 1
Παν@@ 1
οτ@@ 1
Εκ@@ 1
άφ@@ 1
ην@@ 1
17@@ 0.878955938401394
αλλ@@ 1
ησαν 1
6 0.7708217828128301
1@@ 1
ούσε 1
νέ@@ 1
λά@@ 1
16@@ 1
περίπου 1
C@@ 0.1976947906130466
βρίσκεται 1
ίδια 1
μεγάλ@@ 1
όμως 1
ανδ@@ 1
τας 1
Αλ@@ 1
δευ@@ 1
αντί@@ 1
χρον@@ 1
ίδα 1
αριθμ@@ 1
τές 1
κλη@@ 1
ραν@@ 1
ησης 1
έβ@@ 1
Καρ@@ 1
φιλ@@ 1
ητής 1
ισμός 1
κα 1
ώ 1
ανακ@@ 1
ότερ@@ 1
ζ 1
Θε@@ 1
P@@ 0.18688179031923707
Κύ@@ 1
στά@@ 1
φορ@@ 1
χω@@ 1
Πρω@@ 1
M@@ 0.19387612785302613
ιρ@@ 1
ντ 1
ώσ@@ 1
βο@@ 1
15@@ 1
Αρ@@ 1
ξι@@ 1
ναν 1
έλαβε 1
L@@ 0.1609412522909288
ύγ@@ 1
Συ@@ 1
όνομα 1
αργότερα 1
έας 1
ημερ@@ 1
ισχ@@ 1
Στο 1
οργαν@@ 1
τότε 1
τής 1
ατρ@@ 1
πρώ@@ 1
κάθε 1
ήν@@ 1
ικοί 1
Τσ@@ 1
Κατά 1
στη@@ 1
ανά@@ 1
Δημ@@ 1
ισμού 1
λεγ@@ 1
μέσα 1
τικός 1
D@@ 0.16124910697282335
είν@@ 1
εμφαν@@ 1
μακ@@ 1
στρα@@ 1
Βι@@ 1
ιδι@@ 1
Επ@@ 1
ιακ@@ 1
μένος 1
7 0.76647116260041
E@@ 0.22514283963957746
αναπ@@ 1
ονταν 1
&#93; 1
συμ@@ 1
ήσ@@ 1
ασία 1
Μά@@ 1
8 0.7804769521564003
ιτ@@ 1
κατασκευ@@ 1
λί@@ 1
&#91; 1
τηση 1
άμ@@ 1
ύλ@@ 1
μένου 1
πλη@@ 1
τηκαν 1
R@@ 0.16818476487896789
5@@ 0.985968072326048
F@@ 0.17914878385433383
δί@@ 1
σχε@@ 1
ίζει 1
διο 1
ρά 1
καταστ@@ 1
Τον 1
G@@ 0.1796868812228284
Είναι 1
N@@ 0.19521305845138345
ειο 1
αυτοκ@@ 1
10 0.8203872881173684
παί@@ 1
σει 1
διαφ@@ 1
ιερ@@ 1
κορ@@ 1
Σε 1
Ου@@ 1
Γου@@ 1
πρώτο 1
14@@ 1
H@@ 0.1768370880216236
T@@ 0.17385956646097328
Επι@@ 1
τών 1
B@@ 0.15591512530267307
άνει 1
αξι@@ 1
κομ@@ 1
αποφ@@ 1
ώσει 1
λόγω 1
ογραφ@@ 1
χή 1
ύν@@ 1
ασε 1
ωπ@@ 1
ωνία 1
13@@ 1
τικού 1
Απ@@ 1
πριν 1
ροφ@@ 1
Γεν@@ 1
Εθν@@ 1
χώ@@ 1
σε@@ 1
ηθεί 1
υ 1
υπό 1
ταινία 1
μόν@@ 1
κυρίως 1
Άν@@ 1
φω@@ 1
σειρά 1
τυχ@@ 1
σφ@@ 1
οξ@@ 1
ήθηκαν 1
διασ@@ 1
περί@@ 1
που@@ 1
καρ@@ 1
Την 1
αση 1
ήμ@@ 1
αρκ@@ 1
ότητες 1
A@@ 0.18862060295855768
συνέχεια 1
κας 1
παι@@ 1
σταση 1
πί@@ 1
Καλ@@ 1
ταν@@ 1
ιζ@@ 1
ακή 1
κρι@@ 1
εων 1
9 0.7782717612917428
ιος 1
βαθμ@@ 1
ξης 1
πολλ@@ 1
ϊκ@@ 1
6@@ 1
ετών 1
πλέον 1
Σύ@@ 1
ίσει 1
Για 1
ωγ@@ 1
ούνται 1
ιστορ@@ 1
ότη@@ 1
ιών 1
δυν@@ 1
πάνω 1
ιδρ@@ 1
λειτουργ@@ 1
Υπ@@ 1
απε@@ 1
υφ@@ 1
έργο 1
ψηφ@@ 1
άβ@@ 1
ειες 1
ύ 1
αιτ@@ 1
Αρχ@@ 1
δήμ@@ 1
φορές 1
μιας 1
τρο 1
δρο@@ 1
γιος 1
διά@@ 1
πατ@@ 1
κυβ@@ 1
μν@@ 1
ψε 1
έξ@@ 1
είδ@@ 1
θυν@@ 1
20 0.8655762178272433
περιλαμβ@@ 1
αερ@@ 1
9@@ 1
λευ@@ 1
ψει 1
οικονομ@@ 1
δικ@@ 1
παλ@@ 1
γλ@@ 1
Ελλάδα 1
ταγ@@ 1
υπέ@@ 1
Εν@@ 1
ζω@@ 1
10@@ 1
ρι 1
έρας 1
τρί@@ 1
ριν@@ 1
λόγ@@ 1
πει@@ 1
Στη 1
αναφ@@ 1
θρ@@ 1
ερν@@ 1
ούμεν@@ 1
2011 1
κος 1
ομάδες 1
ιγ@@ 1
τιμ@@ 1
ταν 1
ισμ@@ 1
κρά@@ 1
ιν 1
Ελλην@@ 1
ωσης 1
ώματα 1
χωριό 1
τροπ@@ 1
Ήταν 1
άζεται 1
τρο@@ 1
αία 1
απλ@@ 1
εμ@@ 1
Λου@@ 1
φαν@@ 1
σήμερα 1
θη 1
υχ@@ 1
7@@ 0.9848017255452607
χωρίς 1
ρυ@@ 1
επιτυχ@@ 1
κολ@@ 1
ότερο 1
ολογία 1
Ιταλ@@ 1
σχολ@@ 1
12 0.83757235954084
εμπ@@ 1
τρα@@ 1
ερι@@ 1
χν@@ 1
ύρ@@ 1
όλα 1
από@@ 1
μαχ@@ 1
γαλλ@@ 1
βασιλ@@ 1
ωρ@@ 1
προσωπ@@ 1
s 0.08852120228921737
σκην@@ 1
δίν@@ 1
γαρ@@ 1
τια 1
πά@@ 1
μονα@@ 1
υπουργ@@ 1
Δήμ@@ 1
ηματ@@ 1
δέ@@ 1
πον@@ 1
ρη@@ 1
σμό 1
ρύ@@ 1
ταλ@@ 1
αυτά 1
ουσία 1
ρίου 1
πυ@@ 1
όμενη 1
Κ 1
υπερ@@ 1
τολ@@ 1
αξ@@ 1
άσεις 1
ίγ@@ 1
διάφορ@@ 1
Ιωάν@@ 1
προστ@@ 1
συνεχ@@ 1
Πρ@@ 1
15 0.8750850209801728
διοικ@@ 1
Γ 1
τιο 1
ίδιο 1
φυλ@@ 1
Ανα@@ 1
ΐ@@ 1
όμενο 1
Ε 1
αίν@@ 1
μου 1
σύμφωνα 1
8@@ 1
νες 1
γνωστ@@ 1
Επίσης 1
όμε@@ 1
ρου@@ 1
μέσω 1
μέσ@@ 1
ξει 1
ώρ@@ 1
Σύμφωνα 1
μεγάλη 1
ραγ@@ 1
Ερ@@ 1
φυ@@ 1
O@@ 0.21848986730292516
αποτέλεσμα 1
τηγ@@ 1
12@@ 1
πληθυσμ@@ 1
διάσ@@ 1
I@@ 0.23834203225568243
επο@@ 1
ίκη 1
οργάν@@ 1
εταιρ@@ 1
έμ@@ 1
κίν@@ 1
ήχ@@ 1
y 0.05116278645456713
επιστη@@ 1
μέλος 1
Ιν@@ 1
πόλης 1
πιθαν@@ 1
άζει 1
μο@@ 1
εποχή 1
_ 1
σχέ@@ 1
αρι@@ 1
ουσα 1
τευ@@ 1
ιστορία 1
ήσουν 1
Ευ@@ 1
φυσ@@ 1
όσο 1
έτσι 1
λιο 1
χώρ@@ 1
κω@@ 1
πολλές 1
Κυ@@ 1
πο 1
πόλε@@ 1
χθηκε 1
τμήμα 1
σο@@ 1
Δημοκρατ@@ 1
έργ@@ 1
χ 1
Περ@@ 1
Περι@@ 1
άσει 1
τός 1
σή 1
χωρι@@ 1
λαβ@@ 1
Λι@@ 1
εκλογές 1
ολόγ@@ 1
μό@@ 1
θε 1
στοιχεία 1
καλύ@@ 1
είες 1
ραβ@@ 1
άπ@@ 1
επαν@@ 1
ασκ@@ 1
αίνει 1
αχ@@ 1
έστ@@ 1
δρά@@ 1
ορά 1
εύτηκε 1
Αφ@@ 1
βιβλ@@ 1
πος 1
ούσαν 1
Κοιν@@ 1
συνεργ@@ 1
έκανε 1
ανά 1
άμε@@ 1
λίγ@@ 1
επί@@ 1
τρεις 1
ηματο@@ 1
ράφ@@ 1
άλλα 1
ανθρ@@ 1
επαρχ@@ 1
αρχές 1
Απο@@ 1
περισσότερ@@ 1
π.Χ. 1
αναφέρεται 1
όλο 1
ιπ@@ 1
ώπ@@ 1
ουρ@@ 1
ωμα 1
30 0.8815323006248015
Παλ@@ 1
τέλος 1
πρωταθλ@@ 1
ταρ@@ 1
θούν 1
γραψε 1
ψήφ@@ 1
χής 1
χώρα 1
καν 1
Ωστόσο 1
ταιν@@ 1
επί 1
χαρ@@ 1
τηλε@@ 1
λο 1
ηκε 1
τημα 1
= 1
θεωρ@@ 1
ορισ@@ 1
κοντά 1
φερ@@ 1
έμου 1
μό 1
ισε 1
πορ@@ 1
υπηρε@@ 1
μος 1
έμβ@@ 1
ωνίας 1
αποτελεί 1
ματική 1
τίτλο 1
εντρ@@ 1
τυπ@@ 1
πολλά 1
Πέ@@ 1
χει@@ 1
θησε 1
εφαλ@@ 1
εχ@@ 1
κι 1
τόσο 1
σιο 1
άρι@@ 1
έζ@@ 1
στρατιω@@ 1
Ντ@@ 1
αδελφ@@ 1
θέσεις 1
δύ@@ 1
άδες 1
άλλες 1
τρα 1
Νικ@@ 1
Ελ@@ 1
ώνει 1
αϊ@@ 1
ηλικία 1
πηγ@@ 1
έδρα 1
κάπο@@ 1
μυ@@ 1
συγ@@ 1
νέα 1
11 0.8058304083187114
διατ@@ 1
όβ@@ 1
ξεκίνησε 1
εκατο@@ 1
πλο@@ 1
21 1
υψηλ@@ 1
κε 1
άδα 1
Δ 1
14 0.915525725153592
πολη 1
16 0.8895794523936663
ειρ@@ 1
τραγούδ@@ 1
ευρ@@ 1
ούλιο 1
ύθηκε 1
χαρακτηριστ@@ 1
Ηνω@@ 1
Έλλην@@ 1
ηδ@@ 1
άλι 1
ιση 1
The 0.0680707941762081
τιν@@ 1
ραση 1
σκοπ@@ 1
ητή 1
άλυ@@ 1
Γαλλ@@ 1
εσ@@ 1
ταυ@@ 1
ρική 1
ζωή 1
υπάρχει 1
άνουν 1
τούν 1
ελ 1
πλευ@@ 1
άριο 1
ηλε@@ 1
συγκεκρι@@ 1
πους 1
ιάς 1
μητ@@ 1
ειν@@ 1
εκ 1
τελευτα@@ 1
ίνα 1
Οικ@@ 1
Γεω@@ 1
βαρ@@ 1
ακό 1
18 0.7945704142982537
νας 1
βρίσκ@@ 1
πρωτάθλημα 1
μαρ@@ 1
ανο@@ 1
θεια 1
θήκη 1
κόρη 1
ξεις 1
κυκλ@@ 1
μεγάλο 1
όδου 1
μές 1
2010 0.6853846724441371
Χρ@@ 1
κατοίκους 1
όπουλ@@ 1
Σου@@ 1
δολ@@ 1
αγγελ@@ 1
προσπά@@ 1
όρος 1
ώστε 1
έργα 1
τηρ@@ 1
επίσ@@ 1
συμφ@@ 1
κρατ@@ 1
μέρ@@ 1
χρήση 1
στερ@@ 1
κερ@@ 1
Ένω@@ 1
διεξ@@ 1
άλογ@@ 1
νόμ@@ 1
κάποι@@ 1
όρεια 1
ούργ@@ 1
οδηγ@@ 1
ανδρ@@ 1
μέλη 1
V@@ 0.17930304583197051
ητές 1
Ιουλίου 1
άντα 1
W@@ 0.1348748155302224
Αυγούστου 1
σμού 1
παράγ@@ 1
λει@@ 1
μεσ@@ 1
ούλ@@ 1
κι@@ 1
σώ@@ 1
25 0.8910219916857368
ιστο@@ 1
ανατολ@@ 1
ελλ@@ 1
of 0.0197132760687857
ελέγ@@ 1
δέχ@@ 1
τελε@@ 1
Μα@@ 1
o 0.11086531493397214
Μπο@@ 1
13 0.8874064600657976
Μον@@ 1
θος 1
λος 1
Μαρτίου 1
Εθνική 1
χρόνο 1
οιν@@ 1
όλη 1
ιχ@@ 1
ότερη 1
κο 1
βάλλ@@ 1
17 0.9052402006944199
μπορού@@ 1
β 1
εμπο@@ 1
όνα 1
αυτές 1
Εξ@@ 1
χο 1
ξ 1
αφού 1
μέτρ@@ 1
οθε@@ 1
ρατ@@ 1
γεω@@ 1
υπάρχουν 1
διεθν@@ 1
ωτερ@@ 1
κάτο@@ 1
υπήρ@@ 1
Σεπτεμβρίου 1
τοπο@@ 1
φή 1
παρουσι@@ 1
Οκτωβρίου 1
βάση 1
εγκ@@ 1
συνα@@ 1
γραφή 1
εκτός 1
de 0.014344894338136085
ακόμη 1
τελικά 1
formula 1
νά@@ 1
μιο 1
ρακ@@ 1
’ 0.21704935911640777
ιώ@@ 1
Ιουνίου 1
Στα 1
θ 1
συμμετο@@ 1
οποίες 1
είτε 1
Μαΐου 1
συνολ@@ 1
γύρω 1
ώρα 1
Αγγλ@@ 1
πν@@ 1
ριστιαν@@ 1
περιοχές 1
Όταν 1
Ιανουαρίου 1
ποταμ@@ 1
Μουσ@@ 1
εικ@@ 1
τέσσ@@ 1
ντ@@ 1
άρκ@@ 1
σύστημα 1
ειλ@@ 1
ρή@@ 1
σκευ@@ 1
γον@@ 1
τοποθε@@ 1
δεύτερη 1
Ομ@@ 1
τούς 1
ις 1
ύτερ@@ 1
σχηματ@@ 1
πρέπει 1
γνω@@ 1
φά@@ 1
διαφορε@@ 1
μετ@@ 1
ράς 1
θεω@@ 1
στατ@@ 1
παλαι@@ 1
τεί 1
μηχαν@@ 1
έμεινε 1
αύ@@ 1
ώργ@@ 1
συχνά 1
Απριλίου 1
κοσμ@@ 1
ακόμα 1
σεζόν 1
νερ@@ 1
κου@@ 1
ομάδας 1
αρμ@@ 1
παραγωγ@@ 1
είων 1
οδο 1
μεγαλύτερ@@ 1
οπλ@@ 1
επιστ@@ 1
τερ 1
κατάσταση 1
αιν@@ 1
κει@@ 1
μάν@@ 1
αγγλ@@ 1
Ί@@ 1
ανεξ@@ 1
εδρ@@ 1
κυβέρνηση 1
δρόμ@@ 1
πραγματοποι@@ 1
μετά@@ 1
καλύτερ@@ 1
αυτο@@ 1
θερ@@ 1
μορφή 1
Ανατολ@@ 1
ότια 1
αρχικά 1
Αυτό 1
τό 1
οσφ@@ 1
ερα 1
Αγίου 1
χε 1
τέλε@@ 1
ορο@@ 1
0 0.8765419707550889
Νοεμβρίου 1
ταξ@@ 1
κλει@@ 1
Κατ@@ 1
ζή@@ 1
τελευταία 1
ταχ@@ 1
Παγκόσ@@ 1
K@@ 0.12107918665460114
μην@@ 1
βρα@@ 1
εκεί 1
προβλ@@ 1
βαν@@ 1
Ιστορία 1
σμός 1
Ισ@@ 1
ασίας 1
ρη 1
s@@ 0.05767317221694245
Αργ@@ 1
ριση 1
ίνο 1
ντε 1
οικογέν@@ 1
δία 1
ουμε 1
δού@@ 1
ολο 1
Κορ@@ 1
νησ@@ 1
νήθηκε 1
φύ@@ 1
όρι@@ 1
ταγων@@ 1
δημο@@ 1
κυρι@@ 1
γυναίκ@@ 1
ωματ@@ 1
19 0.8028994038661635
τή@@ 1
συλλ@@ 1
Αθήνα 1
έρον@@ 1
εναντίον 1
ίζ@@ 1
κρί@@ 1
ονομασία 1
στρ@@ 1
άλλων 1
γερμαν@@ 1
ωνα 1
πρώην 1
συγγραφ@@ 1
δείχ@@ 1
2012 0.722306288002606
σεων 1
προηγ@@ 1
er 0.044110355307969924
περιοδ@@ 1
a 0.02013185611891968
κοινότητα 1
Ξ@@ 1
δηλ@@ 1
πολυ@@ 1
όλου 1
A 0.22814984981187358
οφορ@@ 1
γέν@@ 1
χεί@@ 1
χος 1
τω 1
βραβ@@ 1
αγώνες 1
υψ@@ 1
όχι 1
δημοσι@@ 1
ώνες 1
οίκ@@ 1
αναφέρ@@ 1
σχετικά 1
μάχ@@ 1
Σο@@ 1
Βρεταν@@ 1
επίπεδ@@ 1
βί@@ 1
ογράφ@@ 1
οχή 1
κοινων@@ 1
γλώσσα 1
ήρω@@ 1
εκκλη@@ 1
Έχει 1
θήκ@@ 1
δηλαδή 1
έδωσε 1
αναλ@@ 1
λάβ@@ 1
αλλαγ@@ 1
συνήθως 1
κέντρο 1
ήλ 1
Βουλ@@ 1
Δεκεμβρίου 1
on 0.04649984969635884
Μεγάλ@@ 1
δα 1
πήρε 1
ρία 1
κεντρ@@ 1
μελ@@ 1
κατηγορ@@ 1
πραγματ@@ 1
us 0.1529895285435064
σω@@ 1
τρία 1
άρι 1
2009 0.7185764614766407
βασιλιά 1
ιού 1
Βασιλ@@ 1
άλληλ@@ 1
επισκ@@ 1
gt 0.6643225756520882
αρχι@@ 1
ξε@@ 1
ανάπτυ@@ 1
2008 0.7168599883571662
ησι@@ 1
γιο 1
βιβ@@ 1
ρόλο 1
μη@@ 1
θεν@@ 1
Σερ@@ 1
50 0.9227672648219313
σας 1
ίδρυ@@ 1
μέρα 1
2014 0.6942425029031173
ιστική 1
Μπρ@@ 1
ενεργ@@ 1
λεπ@@ 1
πρώτος 1
000 0.9667780313106294
μπορούν 1
Ολυμπιακ@@ 1
σύζυγ@@ 1
σημεριν@@ 1
παιχν@@ 1
ίδες 1
λαμβ@@ 1
ιλι@@ 1
καταλ@@ 1
Κόμ@@ 1
μάχη 1
ώνεται 1
πού@@ 1
μέτρα 1
όνο 1
Σχολ@@ 1
ικαν@@ 1
22 0.9415435976268729
ότε 1
αυξ@@ 1
νησι@@ 1
C 0.518173516189263
Αυτοκρα@@ 1
Βασίλ@@ 1
σπουδ@@ 1
Ορ@@ 1
πολιτι@@ 1
υζαντιν@@ 1
ητική 1
μικ@@ 1
24 0.8530282989439766
οδος 1
άχ@@ 1
μυθ@@ 1
1.@@ 1
σμα 1
lt 0.8888207551785977
Φεβρουαρίου 1
νι@@ 1
κατηγορία 1
στολ@@ 1
θησαν 1
πόλ@@ 1
άλλη 1
2015 0.6922380529698127
αγωγ@@ 1
φόρ@@ 1
ρού 1
αρχαι@@ 1
οί@@ 1
Βαλ@@ 1
πεδ@@ 1
νό@@ 1
σίες 1
2013 0.6933971897324782
σον 1
μένοι 1
ίνη 1
19@@ 1
γε@@ 1
τοκ@@ 1
διδ@@ 1
έλευ@@ 1
ζε 1
μεγαλύτερο 1
τικούς 1
θερμ@@ 1
γεννήθηκε 1
γρ@@ 1
Του@@ 1
χρόν@@ 1
-@@ 1
δομ@@ 1
μορφ@@ 1
άνω 1
μαϊκ@@ 1
Μάρ@@ 1
τέλη 1
Βιογραφία 1
έλλ@@ 1
d 0.09910762132124164
βιε@@ 1
δυνατ@@ 1
άλμπουμ 1
καλλι@@ 1
ίκης 1
Σ 1
οθέ@@ 1
ρίσ@@ 1
ποδοσφαι@@ 1
έρχεται 1
αγώνα 1
παντρ@@ 1
γίνει 1
Πλ@@ 1
Ισπαν@@ 1
λις 1
βορ@@ 1
στοιχ@@ 1
τς 1
συμμετ@@ 1
βουλευ@@ 1
ακολού@@ 1
Θεσσαλον@@ 1
an 0.04421117034761066
καρι@@ 1
άρχισε 1
γαλ@@ 1
ισαν 1
ουσι@@ 1
ανάμεσα 1
ροι 1
τραγου@@ 1
κυκλοφόρησε 1
20@@ 1
στικά 1
i 0.15591737941693418
γεγονός 1
δύνα@@ 1
δραστηρι@@ 1
κάτω 1
οσπον@@ 1
παιδιά 1
Ως 1
δεί@@ 1
έτος 1
Πανεπιστήμιο 1
θρη@@ 1
23 0.9163708665014886
μας 1
2007 0.7087311353668783
ευση 1
Στρ@@ 1
στική 1
εμφ@@ 1
πρόεδρος 1
μει@@ 1
κέρδισε 1
σύγχρον@@ 1
μεγαλύτερη 1
ιστεί 1
αμπ@@ 1
λεύθερ@@ 1
γνώ@@ 1
πρώτα 1
Αν 1
παρά@@ 1
δοση 1
2016 0.6676275341161093
υποστήρι@@ 1
άρια 1
δεύτερο 1
θωμαν@@ 1
δίσ@@ 1
ίζονται 1
πολιτική 1
ΗΠΑ 1
δυνα@@ 1
χώρας 1
γνωστή 1
χρονιά 1
όνομ@@ 1
υπόλοι@@ 1
τό@@ 1
Αντι@@ 1
σχεδόν 1
δεκαετία 1
αντικ@@ 1
σταθμ@@ 1
Ευρωπαϊκ@@ 1
ρό@@ 1
γυνα@@ 1
ροφή 1
τεκ@@ 1
υπήρξε 1
Παπ@@ 1
Ελλάδας 1
ϊ 1
ιου@@ 1
όλες 1
γνωστό 1
t 0.05472645013376952
άνδρ@@ 1
in 0.01410937220287191
συμπεριλαμβ@@ 1
σχέση 1
Ιερ@@ 1
φρά@@ 1
ιδιαίτερα 1
Μέ@@ 1
πολί@@ 1
ρεψε 1
ικότητα 1
Κου@@ 1
αίσ@@ 1
χώρες 1
δική 1
λευθερ@@ 1
τεύ@@ 1
περιοχής 1
Έτσι 1
λυ@@ 1
2006 0.6952448458534397
Βεν@@ 1
28 0.9684481169761737
ανήκ@@ 1
σκι 1
πέντε 1
επειδή 1
κον@@ 1
ίζουν 1
χορ@@ 1
Μακεδ@@ 1
ην 1
γραμμα 1
Πολιτ@@ 1
ώδ@@ 1
e 0.07952637555673249
συλλογ@@ 1
ανατολικά 1
χωρ@@ 1
δρα@@ 1
the 0.008280373879416578
o@@ 0.10758748094342438
διευ@@ 1
κατοικ@@ 1
ωλ@@ 1
επίσημ@@ 1
ομηχαν@@ 1
μέρες 1
πολεμ@@ 1
καδημ@@ 1
ίδι 1
έφερε 1
ρισης 1
συμπ@@ 1
ζεται 1
οποίοι 1
τρια 1
Αλεξ@@ 1
δίας 1
άμεις 1
διπλ@@ 1
Πο@@ 1
δεδο@@ 1
ρασε 1
πιστ@@ 1
λλογ@@ 1
μένης 1
οδήγ@@ 1
φθ@@ 1
περισσότερο 1
Πρό@@ 1
τάν@@ 1
ίλι@@ 1
υποστη@@ 1
Φρ@@ 1
ριβ@@ 1
υπολογ@@ 1
Φιλ@@ 1
θάνατο 1
ροφορ@@ 1
εβί@@ 1
χαρακτήρ@@ 1
συστ@@ 1
συμμετείχε 1
κατο@@ 1
26 0.9318490065097795
κόσμο 1
κε@@ 1
επέστ@@ 1
πυρ@@ 1
στεί 1
λύ@@ 1
ρισκ@@ 1
ώθηκαν 1
ίδιος 1
τρόπο 1
αντι 1
ωθεί 1
οκρατ@@ 1
άλασ@@ 1
φέρει 1
2019 0.685971261402595
οκα@@ 1
Ευρώπη 1
ζει 1
πελλο 1
άρα 1
αντ 1
δοκ@@ 1
παραγωγή 1
επισ@@ 1
γίνεται 1
Κο@@ 1
ίμ@@ 1
ίνου 1
ειακ@@ 1
κάνει 1
U@@ 0.21398396802983818
επιχειρ@@ 1
ήσεων 1
πληθυσμό 1
φαλ@@ 1
ξαν 1
γράμ@@ 1
διαθέ@@ 1
αγγ@@ 1
Κλ@@ 1
εκείνη 1
μμύρια 1
ησ@@ 1
τροφ@@ 1
ημάτων 1
ωστόσο 1
πρωτεύ@@ 1
ίδι@@ 1
πίσ@@ 1
αντιμετ@@ 1
ρν@@ 1
Λε@@ 1
τορα 1
χιλι@@ 1
αγι@@ 1
27 0.928829675432123
τρου 1
απογραφή 1
σεν@@ 1
δό@@ 1
Αμερικαν@@ 1
αισ@@ 1
Στα@@ 1
ενέργ@@ 1
ήφ@@ 1
εσωτερ@@ 1
ατιν@@ 1
ακολουθ@@ 1
βιτς 1
άνθρω@@ 1
χλμ. 1
καταγ@@ 1
J@@ 0.13759757306086812
ειο@@ 1
ηχ@@ 1
πατέρα 1
αϊκ@@ 1
δος 1
σωματ@@ 1
φάν@@ 1
κόσ@@ 1
2017 0.6353522716803744
x 0.25463331916190196
ίζοντας 1
χρησιμοποιείται 1
ασχολ@@ 1
μενα 1
ξεκ@@ 1
απέκ@@ 1
40 0.867210676532389
καταστά@@ 1
νέο 1
όλων 1
2018 0.6079002278566537
λη 1
άλλους 1
ηρε@@ 1
ολοκλη@@ 1
μετρ@@ 1
παράδειγμα 1
μισ@@ 1
νύ@@ 1
έγι@@ 1
ίδας 1
θυ@@ 1
χαμ@@ 1
έκταση 1
αρκετά 1
ηθοποι@@ 1
αγωγή 1
Πόλε@@ 1
ειών 1
θμ@@ 1
άτομα 1
πέθανε 1
ημι@@ 1
λα 1
οικογένεια 1
ποι 1
Κωνσταντ@@ 1
Αθηνών 1
ίστοιχ@@ 1
χιλιόμετρα 1
Γαλλία 1
Μια 1
ήθ@@ 1
δρομ@@ 1
φερε 1
2004 0.7829654458523734
θεωρείται 1
στασης 1
άσκ@@ 1
κοπ@@ 1
ρυθμ@@ 1
κη 1
Κωνστ@@ 1
Καλλ@@ 1
2000 0.7031867340550831
αντιν@@ 1
τήρ@@ 1
τάθλημα 1
ing 0.03408680530132067
al 0.04546416760552672
βασιλι@@ 1
ατο@@ 1
έδρ@@ 1
29 0.9487456960149261
εκλογ@@ 1
μ. 1
Ω@@ 1
ογραφία 1
τίτ@@ 1
ιω@@ 1
2005 0.7007704528151062
amp 0.44765807665750884
ολο@@ 1
Αμερ@@ 1
ανή@@ 1
ποδ@@ 1
0.000 1
ώνα 1
g@@ 0.06405543557118812
αργ@@ 1
y@@ 0.09455102003512617
θαν@@ 1
συνέχ@@ 1
&#124; 1
S 0.49096493694063537
es 0.02827717080103543
θρω@@ 1
2001 0.8197517912617978
τμή@@ 1
p 0.20328343982735925
ρεί 1
0@@ 0.7717629886151279
100 0.7504010415143806
n 0.1117036258770788
χαρακτη@@ 1
περισσ@@ 1
60 0.983300924473211
π.@@ 1
n@@ 0.05740540292081433
l 0.10513035327093968
p@@ 0.0577432393614281
Νο@@ 1
ακολου@@ 1
e@@ 0.06619173138816029
δεκαετ@@ 1
υνα@@ 1
δεύτερ@@ 1
m@@ 0.064725002774656
κόρ@@ 1
γλώσ@@ 1
Ιστο@@ 1
· 0.7727790023169575
ϋ@@ 1
31 0.8854527751110358
ραφ@@ 1
2.@@ 1
t@@ 0.051818213358545376
80 1
ισσ@@ 1
ηφ@@ 1
I 0.2503412469214395
1990 0.8820606629244969
χλ@@ 1
a@@ 0.12147254056327239
! 0.7492922251042542
is 0.029553174349740488
k 0.10728604331622561
2002 0.730819793551581
παράδ@@ 1
ρωπαϊκ@@ 1
ρίσκ@@ 1
P 0.411389858870453
δεκα@@ 1
2020 0.5411917190361549
2003 0.7303973197175843
r@@ 0.05057159885796369
θλ@@ 1
and 0.011721809409776704
καλλ@@ 1
... 1
χειρ@@ 1
Βασ@@ 1
νώ@@ 1
αγκόσ@@ 1
1999 0.7833370251175688
70 1
πραγ@@ 1
ουλίου 1
Μακ@@ 1
k@@ 0.06238365678329392
c 0.10217841084994633
d@@ 0.05348035603811604
ογέν@@ 1
et 0.0316315108404462
el 0.028469864647334413
c@@ 0.05129873663954872
κατοίκ@@ 1
ταμ@@ 1
en 0.014210192189592328
i@@ 0.0772816876902121
ξύ 1
Ch@@ 0.12818563182148426
Τ 1
έρν@@ 1
στασ@@ 1
ταση 1
F 0.4724439530920011
1997 0.8913359153387823
χρή@@ 1
D 0.36537035882179414
r 0.2789250328050166
όπο@@ 1
επιστήμ@@ 1
διαφορ@@ 1
um 0.11452226979536177
Ή@@ 1
ινε 1
γρά@@ 1
h@@ 0.05181729838311648
ia 0.12124891245153188
T 0.4025328272265076
on@@ 0.06603071094113847
τομα 1
στή@@ 1
90 1
ούσ@@ 1
όρε@@ 1
L 0.3297456059292351
1998 0.7612765513000669
υργ@@ 1
1,@@ 0.6925350685513015
μαζ@@ 1
Ψ@@ 1
1991 0.8743989033931341
m 0.10383608519996844
θή@@ 1
Ιω@@ 1
1980 0.9199336155389868
O 0.423711034676348
δη@@ 1
ματο@@ 1
Χ. 1
en@@ 0.04179363062359582
R 0.3991382412247715
1996 0.8025596936983259
Σεπ@@ 1
l@@ 0.050778757620490104
v@@ 0.056615372042956774
b@@ 0.05057240188201425
ταθλ@@ 1
Οκτ@@ 1
.. 1
ποδοσφ@@ 1
M 0.3862025963899514
w@@ 0.05080274693152309
35 0.9344439577717564
.000 1
er@@ 0.04180716812178699
h 0.12314741201761706
E 0.392820290700506
τσι 1
br 1
0,@@ 1
ήμερα 1
σχεδ@@ 1
in@@ 0.04097341120837596
Εί@@ 1
Αυτοκ@@ 1
ύρια 1
f@@ 0.03998041367599717
έρχ@@ 1
γίν@@ 1
+ 0.9949673941647029
H 0.7548857336558762
1970 0.949274101087018
Δεκ@@ 1
Ιανου@@ 1
an@@ 0.056093378551745704
z@@ 0.06376979070328491
Ι 1
ειδή 1
1992 0.7793061014707596
185@@ 0.6363007549716939
g 0.11407635710631821
2021 0.5394562011850413
λαβε 1
1960 1
γεγον@@ 1
πρι@@ 1
αποτέλε@@ 1
3.@@ 1
ούδ@@ 1
τηγορ@@ 1
1994 0.7705833773501228
1993 0.814096648441962
or@@ 0.0554442437931307
B 0.3185595766318495
Ελλ@@ 1
Αθη@@ 1
ch@@ 0.04346969627154157
ar 0.05589318069319504
,@@ 0.7499635585259824
2,@@ 0.774425773887466
γμα 1
ομάδ@@ 1
1995 0.742651022445938
to 0.012313684192472637
ετα@@ 1
ς@@ 1
1989 0.8403183966434791
j@@ 0.07742659743208498
ur@@ 0.06679003432491797
ηλικ@@ 1
at@@ 0.062207976322633515
ar@@ 0.04558050173315629
el@@ 0.05938691861370399
Al@@ 0.10750005290794279
Z@@ 0.10562863741788293
1974 1
32 0.9093493755916779
° 0.889273502693948
οφόρ@@ 1
δελ@@ 1
Ευρώπ@@ 1
εδρος 1
Ελλάδ@@ 1
κέν@@ 1
έπει 1
500 0.9391027957541608
200 0.8402566601469205
ic@@ 0.0793393840479836
u 0.1051346323537928
ρεταν@@ 1
et@@ 0.08205247763434786
Y@@ 0.1533313363533659
είχ@@ 1
at 0.03042662487200647
as@@ 0.05929719338645686
μορ@@ 1
εω@@ 1
Mar@@ 0.11824943284276297
184@@ 0.7206944394303371
ad@@ 0.05154988468696387
al@@ 0.04205547220189861
τραγ@@ 1
χρησιμ@@ 1
x@@ 0.12077780724103912
1940 1
γ 1
τουργ@@ 1
or 0.03928306004520713
λεύ@@ 1
st@@ 0.03890831451702675
συχν@@ 1
ac@@ 0.04609971775058239
ουλευ@@ 1
it@@ 0.054966042802984595
5.@@ 1
ation 0.03201832049377231
St@@ 0.11258463314229716
διά 1
ιδιαίτερ@@ 1
N 0.38846575465885774
th@@ 0.05443784725110704
1981 0.9100593480688498
z 0.09841435251514666
ag@@ 0.06439816091880285
γρα@@ 1
25@@ 0.5841277254478253
ed 0.012405180523087943
33 0.9041531862232299
In@@ 0.11226283491926446
1950 0.8972895267664083
λλο 1
ul@@ 0.06469550555728289
Π 1
σ 1
συμμε@@ 1
ot@@ 0.07505538422650991
αποτελε@@ 1
36 0.8807757314963353
κέρ@@ 1
θν@@ 1
am@@ 0.06033321721681797
Φεβρου@@ 1
34 0.9038844113654358
le 0.020673823334889298
179@@ 0.8730874154018234
X@@ 0.26879587837683167
1945 0.6571430708326889
1985 0.7941252365153607
180@@ 0.7586288169025688
μεγ@@ 1
1944 0.8668810843067135
f 0.11412170481633364
Αθή@@ 1
An@@ 0.09562362433258269
δελφ@@ 1
ine 0.07454411881246058
av@@ 0.07967164192633464
1988 0.6982055886647075
1986 0.7532660787025197
75 0.8905879575147655
ay 0.13667567305746123
37 0.8853157379709682
es@@ 0.060644097224339236
V 0.3879780194351262
00 0.7947303011957664
la 0.009646213527448074
μμ@@ 1
11@@ 1
4.@@ 1
1987 0.734347374231043
Bo@@ 0.18169453197173152
li@@ 0.05687520446565133
Χ 1
ol@@ 0.060785390672504894
45 0.758597547001786
is@@ 0.05260679343227343
1920 0.9958210386191647
1975 0.7847995635332045
os 0.04387141385055159
1984 0.735247855182967
le@@ 0.04455263653691075
1982 0.7791077954991301
38 0.8316268363817568
b 0.16124192596575726
3,@@ 0.7580660764680855
όμα 1
im@@ 0.046616592511447084
τοιχ@@ 1
Ar@@ 0.10214401235972012
1979 0.7782417876892583
w 0.09321120300909098
1967 0.8784333397220238
στημα 1
om@@ 0.07751758585288494
μπου@@ 1
εινε 1
1941 0.838243244021527
1912 1
G 0.379825082945358
έφερ@@ 1
θω@@ 1
” 0.2679464816491626
39 0.8965921312062967
De@@ 0.1667783152289075
Th@@ 0.10611330533268977
un@@ 0.0419994670536763
“ 0.08188765950529324
1978 0.7763558348407257
24@@ 0.7001969490425448
am 0.06820045823854257
στηρι@@ 1
1983 0.7337075458076179
os@@ 0.07860807452372143
1973 0.7855335522856413
u@@ 0.054811236866322395
Ύ@@ 1
1976 0.7615145185257766
as 0.014661871653703386
X 0.527590966039544
1930 0.9205550196872367
ξεκίν@@ 1
στε 1
1977 0.7977935068378292
νών 1
1971 0.7646490722331211
ers 0.03933025903117136
55 0.9754002086933586
1972 0.7158103707977344
1968 0.7440524827947371
1964 0.8272081128069544
ph@@ 0.07089306881783697
Tr@@ 0.10395480369048862
εκρι@@ 1
65 0.7175818721195852
1961 0.9196558446540164
Έχ@@ 1
Br@@ 0.10927464603969209
1939 0.8130792162033605
θανε 1
δ 1
30@@ 0.6889030732990225
ter 0.049422691657783485
ie 0.056765273713825386
85 1
CH@@ 1
U 0.3186022560148062
1963 0.863648834624786
em@@ 0.055091643518209055
ab@@ 0.04507070435792644
tr@@ 0.03354178068954339
lo@@ 0.06814327665147772
μεγαλ@@ 1
# 0.9833622331651809
00@@ 1
Con@@ 0.09976666959183825
1943 0.7906778323999233
1969 0.7488323609667746
διαί@@ 1
σειρ@@ 1
ti@@ 0.04559148364463296
1946 0.8356043502803995
Re@@ 0.08978949168772783
6.@@ 1
ri@@ 0.08181871997082901
To 1
ad 0.08491275614370182
42 0.9185975094013936
έρνηση 1
one 0.05269241961016833
64 0.7905010168142382
1965 0.7612719514591791
us@@ 0.05158520528637975
48 0.8730423536614331
αρκε@@ 1
1918 0.8820153838726953
08 1
300 0.9259420936691732
son 0.04524612358540557
όλε@@ 1
Λ 1
οργ@@ 1
1966 0.7532672840341562
Com@@ 0.1079595833893994
ard 0.10100292470239751
Μ 1
83 1
συνήθ@@ 1
re@@ 0.01651955120259856
Ν 1
ωβ@@ 1
ps 0.20882485053475594
1928 1
47 0.9466320851336045
htt@@ 1
88 1
95 1
52 0.9232016493508609
1947 0.8338806224062301
W 0.4721877728124304
72 1
ησιμ@@ 1
id@@ 0.05872149587681417
53 0.9937787578664979
il@@ 0.05063312892901809
26@@ 0.6553846785518049
54 0.9761024516467152
04 1
71 1
44 0.7927962240001737
1948 0.753979891266578
1958 0.7794865933915813
ve 0.03909845522570948
ir@@ 0.07172099298848789
41 0.9104014588416948
1962 0.7429815132075771
ig@@ 0.05156925327333602
1956 0.7666135133111941
89 1
4,@@ 0.793959713109377
λεξ@@ 1
86 1
Sh@@ 0.14071259956737012
εκεί@@ 1
66 1
στήρι@@ 1
28@@ 0.6880564515154828
κυρί@@ 1
56 0.9565644260250408
od@@ 0.11585421067172086
78 1
61 1
58 0.9882704143780672
68 1
43 0.9170244099585061
51 0.9030381291433336
1919 0.8712487398879868
Μεγ@@ 1
Co@@ 0.11201188921935624
ρίς 1
Mo@@ 0.15529636492767604
Sp@@ 0.14762387906001737
62 0.9818717094724966
ro@@ 0.05068529889449175
84 1
1955 0.8117418535152752
ap@@ 0.047860382445468294
7.@@ 0.889095387407815
1959 0.7598007755599822
07 1
76 0.9852279657692856
82 1
1942 0.6605635728038581
άτων 1
Gr@@ 0.12259571005800927
— 0.037717520845420356
K 0.35248460075191823
87 1
67 1
46 0.9038418129094495
59 1
ic 0.07675098610664065
74 1
ref 1
77 1
1951 0.8522598380505203
1922 1
81 1
ak@@ 0.061123429687618164
1936 0.7742654877296117
ision 0.30312487474926103
He@@ 0.15652298432710712
Ολυμπ@@ 1
1949 0.7288705482095234
69 1
63 0.9545789384411801
επιστήμιο 1
8.@@ 0.9275082517249418
der 0.008889605849173973
57 0.9279920137548342
1957 0.7422906916140778
1938 0.7106308504961321
qu@@ 0.03976404484985559
05 1
99 1
1952 0.7422933750170757
For@@ 0.14558663130683897
Pr@@ 0.12219901504306833
1924 0.9219723308864365
di@@ 0.030998842348490235
49 0.8651831383573574
Ζ 1
di 0.2812049815791159
ut@@ 0.06379828724643755
1927 0.9483946561514014
92 1
Car@@ 0.11141327854518154
09 1
79 1
400 0.8190281256982275
co@@ 0.049044932596268034
oc@@ 0.06020677231368431
01 0.923359422801475
µ@@ 1
Be@@ 0.08755820823403589
1953 0.7510429866732397
5,@@ 0.6616394292315773
ec@@ 0.047111517797848404
te 0.021647888676127897
1929 0.8347056792941691
1954 0.7198276605364486
27@@ 0.6101011343113962
73 0.9950229843459663
96 1
ov@@ 0.12158250403330531
06 1
τίου 1
1935 0.8023613813313636
03 1
θάνα@@ 1
ent@@ 0.030749688329011867
ent 0.024944926487792982
ev@@ 0.06413855098620921
ch 0.06932261715967375
man 0.08314455069953393
02 1
χολ@@ 1
ed@@ 0.05170973262689398
97 1
da 0.07978100085188408
it 0.021797115676184406
Le@@ 0.09191745115275365
1926 0.8797231233512263
άνα@@ 1
ww@@ 1
w.@@ 1
98 1
93 1
ice 0.09445462919348728
1933 0.6896188910094881
-- 1
29@@ 0.6192695992948669
um@@ 0.04784564636324762
1934 0.7688853319277603
πλέ@@ 1
Pl@@ 0.16539896881266647
1937 0.6976545880115264
6,@@ 0.7822932258445097
op@@ 0.05096366241890508
ta 0.08508713581608876
0.@@ 0.3595674303148717
des 0.012371071139838222
7,@@ 0.798182975821557
94 1
po@@ 0.045478035116709496
1923 0.879908016912078
ight 0.10363438628448596
Θεσσαλ@@ 1
1932 0.8004462277974522
αρίου 1
Ro@@ 0.12501398159564894
age 0.03490470351011205
υζ@@ 1
Di@@ 0.09932469174060875
az@@ 0.1054152910958019
χαρακ@@ 1
‘ 0.7739424315253047
ik@@ 0.10409636355620672
af@@ 0.060034706308046255
1917 0.7650537562434052
σύγ@@ 1
au@@ 0.04462029129122034
Υ 1
1925 0.829471114094155
Mon@@ 0.1167775939113912
Ma@@ 0.1503846468952472
ate 0.035333962698716845
ϋ 1
ανου@@ 1
91 1
Ex@@ 0.13593393326712436
de@@ 0.0391085559160116
na 0.12337336138283679
1914 0.7243905182284547
eg@@ 0.04817492991409002
ale 0.05062862257691407
περιοχ@@ 1
ou@@ 0.07427765730435883
ton 0.09350082570772196
Eurov@@ 1
og@@ 0.09081381416429415
th 0.04311623493849635
ἐ@@ 1
8,@@ 0.8471537095777733
ill@@ 0.09038012456074786
II 0.15206790417253455
La 0.04053135970027688
all@@ 0.06889500836305458
πληθ@@ 1
id 0.12797277762580464
v 0.14291570996700567
Αυγ@@ 1
New 0.0826699383505435
9,@@ 0.9280031124136016
ver@@ 0.024087156578379395
1913 0.8637808529973142
1931 0.7554962375565989
ana 0.08110286454251812
Θ 1
Ad@@ 0.10193366106038791
CO@@ 0.8066357914632539
κυκλοφόρ@@ 1
Επίσ@@ 1
ηχαν@@ 1
9.@@ 0.7961939158107862
TV 0.291635857952524
vi@@ 0.04117355367310209
ell 0.11400864418806636
ame 0.21456858316307217
Sch@@ 0.045594886172675146
J 0.5138044867660981
ζυγ@@ 1
les 0.01676181436310502
si@@ 0.03490457003053797
ts 0.03325848023961767
ina 0.0863963490454349
Gu@@ 0.11820664319119004
ens 0.07156671559443864
se 0.01542525442240536
sh@@ 0.053721678491076466
Pe@@ 0.18414553249338475
Ευρ@@ 1
1900 0.77823398859768
Par@@ 0.0793788364846982
En@@ 0.11933495095323844
ὶ 1
όπο 1
Cl@@ 0.22178909001693847
Cr@@ 0.18492580572921694
εριν@@ 1
ica 0.08407438889536271
150 0.8644662139378158
1921 0.7211848132347662
re 0.042653981286974486
Cor@@ 0.12736029917121314
eb@@ 0.0547910922606323
League 0.18031295709736977
ell@@ 0.06845579091109995
ne 0.042734458261411534
for 0.011889107219413785
ter@@ 0.03513214392180962
ous 0.0652984303163137
est 0.013729850545278956
é@@ 0.024305239586466004
Qu@@ 0.10021507031973703
ep@@ 0.06548367575086449
600 0.9314160597898526
to@@ 0.0479658121169055
ner 0.07312369403909603
ons 0.045948204890458366
σωτερ@@ 1
120@@ 1
Ne@@ 0.11578195030541283
1910 0.7288376698767982
ok@@ 0.08797890488665297
IS@@ 0.5636402943639168
Records 0.47840170135304483
ace 0.11255267136091539
all 0.04524225358457901
Or@@ 0.08768249597678963
Fre@@ 0.12898735945049927
πουδ@@ 1
Bl@@ 0.2092687091777145
and@@ 0.05191409445040236
World 0.12683735922205538
ce 0.03762008753249029
ka 0.15682482119764804
ob@@ 0.05927169151462078
UN@@ 0.7929530957257196
il 0.02794243912496764
br@@ 0.035568149410622474
800 0.9267373494320004
Se@@ 0.08461476548142935
BBC 0.8509487719964364
od 0.08769649033355076
ati@@ 0.05944170621386545
single 0.21498927126806167
1915 0.7673548153223675
ho@@ 0.044941207811392964
un 0.012787040596803023
1908 0.8028485917873308
ge 0.04526671610075025
und@@ 0.06334124928568449
per@@ 0.033018217680194
ant 0.026423111700817143
Col@@ 0.10845181407463038
von 0.017483836667189417
ni@@ 0.056949143511179766
* 0.1763236461749787
Ph@@ 0.13207598284436803
ae 0.2802032481024771
Po@@ 0.130686225637128
Fo@@ 0.20020250673683898
Li@@ 0.12297832397606945
John 0.12005659528705896
κανε 1
uc@@ 0.09199674016141661
our 0.094401737506584
AS@@ 0.41322752603805485
ES@@ 0.621003820874139
λαδ@@ 1
ff@@ 0.06756748850176325
1916 0.7544901866769295
$ 0.15614412885970005
δισε 1
? 0.34065876416817725
iss@@ 0.12645678348709463
ley 0.10252356082871326
mo@@ 0.050510317500138895
bi@@ 0.04681641842137047
bo@@ 0.0583088989966666
ἀ@@ 1
1905 0.7357530447900813
ore 0.11339530241548806
You 0.5005665210971649
ber@@ 0.056770486451378374
Music 0.3288893064270608
ler 0.07905191545193722
ιουργ@@ 1
Man@@ 0.09275343868178289
υσμ@@ 1
Bar@@ 0.10215801050454604
Ac@@ 0.12596962991826974
Am@@ 0.09157716203289483
Eur@@ 0.4967084267389881
DNA 1
tion 0.023153970361135184
é 0.018285761720917806
Her@@ 0.09218492126815209
Un@@ 0.11084662594223751
est@@ 0.03571297012060324
ack@@ 0.11085163968702216
• 1
tic@@ 0.10973967239722802
1906 0.7710920316483166
ang@@ 0.03814125459017689
ot 0.13318498457281913
− 0.983498002189657
do@@ 0.056445050919706155
align 1
ass@@ 0.04081942830308974
CA@@ 0.3253202766198148
Q@@ 0.21180602796269807
El@@ 0.10066485872300583
ay@@ 0.06189238605451806
so@@ 0.04697495798437552
ance 0.043649294047156034
tro@@ 0.10267372637967392
Disney 1
διάρκ@@ 1
1904 0.7798862105697227
Windows 0.9922751128891767
ach@@ 0.035084098703572965
ail@@ 0.1031897768300764
FI@@ 0.7795325538491021
om 0.14369616513827063
Met@@ 0.32741372165260146
CD 0.5155672607900244
Mor@@ 0.12174273523289464
1911 0.668402567538183
λίου 1
ci@@ 0.04177138954330595
ver 0.07458397156078093
​ 1
la@@ 0.06376805253037912
Str@@ 0.11722647369723152
NA 0.9340170939528177
gr@@ 0.031832894585941726
are 0.020200230419436707
ain 0.074874571285839
ick 0.10292860938740946
1896 0.9260539797811731
he@@ 0.046091311087406384
Hol@@ 0.1336366088821417
1907 0.7174836254689795
Me@@ 0.1059857204845832
ra@@ 0.05165903888309559
Mag@@ 0.18335975366449686
name 0.10307437559705193
Mer@@ 0.19771688398026693
ue 0.04556904564945893
2022 0.4362206826367445
end@@ 0.04114938659321538
Per@@ 0.09470661884837407
Go@@ 0.18005280538960008
se@@ 0.0256858544193791
´ 1
OS 0.7030777506102547
ly 0.022874297450569844
ol 0.10837470084382268
den 0.01208528944155623
1000 0.7150454832429943
art 0.0786300139048645
1909 0.7233750150113266
Gi@@ 0.18051913840637931
AR@@ 0.4506142324134568
πέν@@ 1
υπάρχ@@ 1
ence 0.03620511392058819
Gre@@ 0.14892379433337063
mar@@ 0.04073618230042878
ah@@ 0.05807086555764933
ano 0.07716492449328938
co 0.08397904192853019
Pol@@ 0.08627113966087978
Billboard 0.735826200005814
ari@@ 0.07674486946025962
Ser@@ 0.09528934572221001
und 0.006596337668993931
style 0.25197072799544984
ground 0.21241442625827628
Ste@@ 0.12872867029778928
del 0.017475208631369362
tri@@ 0.046487911413695786
Φ 1
SS 0.6007065563003218
1897 0.8533405647551849
Son@@ 0.3453024527339459
So@@ 0.11046307857142612
As@@ 0.096525695231616
pl@@ 0.026314200674336114
ra 0.06982501040345915
RA@@ 0.5178856070202175
120 0.8814719364308702
700 0.9589748330723556
ῶ@@ 1
III 0.20160512296373737
Ώ@@ 1
ep 0.2600228428715949
Fi@@ 0.23148976219546302
ary 0.03776145497563876
iz@@ 0.04961477651136884
ë@@ 0.6212126688962432
50@@ 0.8882403376301677
ne@@ 0.036510914165621466
1903 0.7240544538755143
ure 0.04971152482502665
pr@@ 0.03018056332297512
ty 0.05937074317366867
ory 0.06801026638960651
200@@ 0.720264229650391
ard@@ 0.07635755417562645
ήρε 1
ite 0.03438600929588058
no@@ 0.0624114916010034
iv@@ 0.05958086045061388
BA 0.8179844351581671
1878 0.997519878406143
ath@@ 0.06041089674574232
aw@@ 0.06765235721070285
1890 0.7547903137414278
ata 0.13149310525447522
Live 0.7138041082044159
CO 0.9532005244168316
ino 0.09768074731867003
ow@@ 0.06519167484127225
by 0.00884384499707388
Wh@@ 0.1563490086979668
sp@@ 0.035969074837852416
ey 0.10531412235981696
ity 0.0383894250260535
ire 0.059889853199256805
oy@@ 0.10995466103336181
ess 0.05090518824268006
αθμ@@ 1
back@@ 0.36645325207248464
tor 0.06324650095074255
Black 0.35115523335233123
ans 0.03514732542104728
1899 0.7636724371191669
ini 0.13379190535437052
IV 0.3077505712155808
ok 0.15219683718577778
θλημα 1
Ho@@ 0.15038737047439432
International 0.16252900062889242
Man 0.40027139222046365
par@@ 0.02285844121355585
eo 0.14932556642423964
Air@@ 0.27648106950829093
ise 0.051532531224042916
ah 0.13606648249007333
ai 0.09538028456809827
Si@@ 0.1204507563946398
der@@ 0.036659790453077636
23@@ 0.5271985579634388
Ci@@ 0.22287198588553128
Ver@@ 0.02988831205274229
1870 0.7727020200377264
ma 0.07910127658749579
ist@@ 0.04648967674371769
pop 0.6199090531656413
land 0.041967655827340244
250 0.7468895130539532
ma@@ 0.04269089234920513
Ρ 1
́ 0.1836853813179203
1881 0.959362863301052
Lo@@ 0.12407373733471518
Bur@@ 0.10661136615448757
anc@@ 0.057071281285950744
1902 0.6537771456413346
1880 0.7828259769662429
AT@@ 0.3770024031221371
Mot@@ 0.22699741350648522
do 0.04979351438467107
em 0.08868132963058395
sch@@ 0.020021941816755432
io 0.0932220246063669
st 0.03831744332373572
ea 0.11202746453706464
color 0.43783995901091344
ke 0.0781603761298946
ann@@ 0.05026470518120251
1895 0.7334038900226559
ing@@ 0.04396134305311539
Mas@@ 0.14546562502865895
ῆ@@ 1
ta@@ 0.05878969769085244
Pro@@ 0.09701334572568338
We@@ 0.09522599426139632
ti 0.12970400035043408
Ber@@ 0.0752500875580968
era 0.043950501597630955
… 0.30013304588172307
ουνίου 1
ug@@ 0.07590397795021853
Love 0.4315515637533064
Le 0.03253149794618739
be@@ 0.020427745233811113
pi@@ 0.04008810404637268
ks 0.04468167194880348
Har@@ 0.10434420523528125
124@@ 1
Rock 0.4689686338950634
No 0.3273678946181887
ile 0.04661707127966012
ya 0.05657669160920807
lin@@ 0.051459816262906584
Ab@@ 0.05189566404655451
Ag@@ 0.21156966105998692
ναι 1
1901 0.6210422073825983
ena 0.11419971754981599
ist 0.013878657565457853
{ 0.7333824022807811
ek@@ 0.04333735295904785
Ir@@ 0.11598162235462
Top 0.5144611380302704
Pi@@ 0.1834452696837895
1,5 1
Wil@@ 0.1332036659246977
á@@ 0.0431101056517766
Wal@@ 0.15132713142499685
pe@@ 0.05397911151059556
ak 0.07775528964778601
que 0.006835343487996155
yl@@ 0.1280054778390297
Me 0.5327385395727484
Mus@@ 0.10667319927296873
AN@@ 0.6617201806502323
Do@@ 0.2121442881336823
ie@@ 0.06077217654128206
Ben@@ 0.17248641768080286
cm 0.40064113723493183
1898 0.6524762942045631
te@@ 0.028175970808153743
The@@ 0.10252621471332496
Dr@@ 0.14407694408299593
ib@@ 0.06665935940109596
mm 0.2927369249711326
gen@@ 0.031140392811912974
NBA 0.7506532113276446
j 0.2346007102635603
inc@@ 0.046378312405352305
ran@@ 0.04827247884297277
ack 0.08161925850934267
War@@ 0.20037781418312814
All 0.16348634983813803
gi@@ 0.04011032708411054
cor@@ 0.04291474318686914
12,@@ 1
Y 0.32213557847279617
mi@@ 0.05193264295145187
tu@@ 0.06326963688553244
Er@@ 0.039765343620999045
ess@@ 0.048598826259606626
NGC 0.8808658280352092
MS 0.4407447481198339
Times 0.40842050490108284
ca 0.08785459036027027
11,@@ 1
One 0.16708930656512805
du 0.010799962846125622
atis@@ 0.278132057889498
ζόν 1
1889 0.7147498494896563
Te@@ 0.110211345869819
To@@ 0.10681388313001336
ake 0.17643827849861743
Ang@@ 0.09550413373156715
Z 0.36588526085638823
van 0.2215403991101686
πολε@@ 1
man@@ 0.031067223031205897
My 0.46523804566446064
hi@@ 0.03815494190037805
Jo@@ 0.14802403274096876
metal 0.5332057151972593
ek 0.07743711321931414
lu@@ 0.06004412427506036
ὸ@@ 1
pp@@ 0.07585239135013112
ings 0.050574859188451046
pe 0.060677766792866614
1830 1
Fr@@ 0.07572288086322343
tic 0.0884334059891242
WWE 1
ade 0.05906918363928988
ys@@ 0.08960621843960553
ens@@ 0.03656243478674966
Mc@@ 0.10456516741097284
bl@@ 0.04108871471227764
we@@ 0.02792268760268522
1885 0.6995292336307728
su@@ 0.024232778865433652
au 0.015549467226624009
Studi@@ 0.1983699086597485
Saint 0.09183206117868149
1860 0.7229359972265993
ast 0.05808088018969434
oll@@ 0.10329608563153134
ker 0.09027765732696298
10,@@ 1
ain@@ 0.06920241330182463
Play@@ 0.27841814216923805
DVD 0.5731509700767519
1848 0.762746375689895
Nor@@ 0.054827946748302644
10.@@ 0.7287558749004195
Star 0.3650515526622649
ur 0.046481368735262776
right 0.1657001079713694
ome 0.08317280502945348
ῦ 1
York 0.0764172656642923
Min@@ 0.07686755825573431
ane 0.10903321119418215
In 0.010336405564453827
DS 0.7017442157829609
180 1
Char@@ 0.10992145201050803
US@@ 0.2398942435191661
ick@@ 0.06540957241992103
car@@ 0.0345162802634934
διαίτερ@@ 1
AC 0.4293581349280261
² 0.16866475088315355
American 0.056898390856238254
ost 0.07441437708330872
Time 0.5122603742862627
za 0.08896961239474552
× 0.5570631446379994
ect 0.052824663349740356
ars 0.08332563956534342
mann 0.13131154394713304
ple 0.1022894690798902
40@@ 0.8529339356718477
1866 0.6795917038848396
Fl@@ 0.08553508316258206
Sal@@ 0.09562669540338731
me 0.03710404198388025
ali@@ 0.04977001374839148
Ge@@ 0.05506316862429545
It 0.0246307605043889
É@@ 0.08676636442247741
1894 0.6623673570832805
ir 0.03959799904035385
ors 0.04508944214389566
1879 0.7781343311617086
Cup 0.13874761338520633
cens@@ 0.25581559392234887
Q 0.4710783253721704
im 0.011765460237791094
De 0.11159511107619036
gu@@ 0.03664983012491691
ὐ@@ 1
μεσα 1
int@@ 0.05028831633170529
ud@@ 0.07291906026642443
Hot 0.6148538411577054
ac 0.17848030326531808
λευτα@@ 1
BC 0.2206052360534622
ins 0.04625211588859004
} 0.7151903161310276
ῖ@@ 1
ari 0.19964048849502244
1892 0.6394798603458293
School 0.08180200778652952
Res@@ 0.10277279243758546
­ 1
National 0.06787827513277947
be 0.01548201103315349
Por@@ 0.13760823273443668
Val@@ 0.09820055391399513
BM@@ 0.7671793525471062
Lu@@ 0.10654832262464556
way 0.043522261872726786
ut 0.08704174080736737
Ed@@ 0.11855982058742424
if@@ 0.046209519390682796
port 0.050087690884484726
γύρ@@ 1
ex@@ 0.014693371704351709
ong@@ 0.054990933885068365
1871 0.6730476751869735
Hall 0.21578121703575887
Inter@@ 0.09648146547758969
Microsoft 0.8719222391745082
ion 0.041973852487795726
ant@@ 0.03926570379897065
ge@@ 0.027905545690038298
ly@@ 0.09672413372792492
Dis@@ 0.16261300074211696
ill 0.11726327392966464
Cas@@ 0.12677740401089632
Net@@ 0.3111205592956599
ash 0.262034451899263
ja 0.10902923850757244
900 0.9492796649895408
Tur@@ 0.08688210424481325
Chr@@ 0.13448347767529759
Kr@@ 0.08908766480047497
ā@@ 0.23559177968620695
ics 0.0653136298781703
1893 0.6063420091018701
1888 0.6421486344020058
Bre@@ 0.14515316630091238
Rom@@ 0.13417476012474885
Mat@@ 0.11108202253762295
top 0.13705893092628385
enti@@ 0.03616529031674878
Jean 0.13332653496316768
Super 0.3631336257409829
1884 0.6803182115640778
no 0.02778078721094458
110 0.8417514190739303
Gal@@ 0.12786134545735872
Lin@@ 0.15749522802182078
Cap@@ 0.13538643070971043
dr@@ 0.04120713872143749
ματοποι@@ 1
ub@@ 0.07994281594533174
ὰ 1
elle 0.023446855033967078
fac@@ 0.049620903545110624
ara 0.10881585612857153
end 0.03291589441231076
University 0.04963973908562079
out 0.03247594783841364
King 0.16118775063141133
Bal@@ 0.12483336112902742
Dar@@ 0.13770205830373397
TA 0.5067292477071855
11.@@ 0.8492488068879894
ni 0.12404381542538999
1867 0.7089684909231624
off 0.08561521572431201
CI@@ 0.5398058125575387
.com 0.611102119404207
FIFA 0.8371466584422859
box 0.4239100659414746
No@@ 0.12612007194099153
mer@@ 0.04377215510321732
80@@ 0.941135220535858
1886 0.6422385942977981
eh@@ 0.029385152504036886
ey@@ 0.10971700694653264
1891 0.5997756488703859
ˈ@@ 1
ky 0.14799520464962967
Club 0.13306945238031612
1500 0.8082489770554773
Ros@@ 0.1336603575045005
1864 0.6660178252189426
Tri@@ 0.11864070637849158
ws 0.058211248312412575
€ 1
ich@@ 0.03631702478469028
ang 0.05069797609200976
Pic@@ 0.3451928576062691
amb@@ 0.05033098780555924
1850 0.6914523132975818
Fe@@ 0.2004720573982965
Paul 0.1259626703243522
va 0.09303614537047851
ical 0.04025505092957769
Pal@@ 0.09598772429072046
Su@@ 0.0767809225535
Tel@@ 0.18998977369947956
cre@@ 0.034562030610178276
res@@ 0.01921448012127717
1887 0.6322089392029325
com@@ 0.019032361208933698
λλην@@ 1
ó@@ 0.039982527234831595
ich 0.052920884643263826
Sil@@ 0.1559463753019257
ass 0.09668786894959777
James 0.12708881519421675
1882 0.6613518737170402
ford 0.09739718668968957
ani 0.14114110924929638
Bro@@ 0.10592396914550026
David 0.1364503403683341
1883 0.678835923851596
Life 0.2655245125646308
las 0.016672432882244504
FC 0.13599020501997747
ere 0.05321430240930246
met@@ 0.09267372165206485
William 0.11655801405188818
ette 0.10577979630339833
sa 0.034729353497983236
ou 0.03385544144746504
SA 0.43970498935225544
Reg@@ 0.04738339340364019
Ren@@ 0.182883168456519
lo 0.03395071437342314
min@@ 0.02683793870879331
play 0.09279412360799125
Dre@@ 0.17073683476043208
str@@ 0.0280192659630374
App@@ 0.4026327602089505
Ger@@ 0.06332806367418087
annel 0.27448207871652747
ili@@ 0.04397094748448944
li 0.13631508719198837
At@@ 0.10882863972985486
ach 0.03693290686476309
1877 0.6778489738547596
Stu@@ 0.14804861692056484
ega 0.2753467173335324
ling 0.1112281431516305
RO@@ 0.6423861660281278
Au@@ 0.08741641176289182
yr@@ 0.08237212133622326
Sol@@ 0.1223951745488833
ations 0.017659651048234977
Vol@@ 0.17055781063120487
q@@ 0.20560368992462344
mer 0.04858720471307702
Fac@@ 0.25090793462436295
up@@ 0.060566595963900155
IN@@ 0.32309927214799317
q 0.22576039656041802
ko@@ 0.13552299380203767
Wor@@ 0.1319812121858085
Em@@ 0.11076669803725231
IC@@ 0.3862875054963921
Awards 0.22468068759070509
160 0.8876922525780242
1861 0.618471870755466
Cre@@ 0.14268083281924257
Gar@@ 0.10883401529577855
ath 0.13215144856906183
1876 0.6318670898073179
ning 0.06636025667107315
ru@@ 0.03520020949492203
tro 0.15535542839010183
Pa@@ 0.20072933525734563
Fran@@ 0.09304803242994206
Bel@@ 0.07123462983657428
enn@@ 0.04945682829200884
ἰ@@ 1
amm@@ 0.06515906637594325
Bor@@ 0.09836507988782589
Hor@@ 0.14154764154923866
1875 0.6489692594116521
line 0.06095185719251343
140 0.8946391930955833
ten 0.012028158861892286
1863 0.630690232690733
Kar@@ 0.08312914085314442
ki 0.1250441674981004
130 0.7910583180542796
Company 0.16461438942989884
con@@ 0.012580746253880387
mon@@ 0.022943314377567053
Sk@@ 0.28598051051423395
oh@@ 0.07597430475968256
College 0.09598641881160754
House 0.11797092411793986
ST@@ 0.5422717621388224
1868 0.6437284858421825
Des@@ 0.08710066372063954
Hel@@ 0.17959568951283675
Robert 0.126030530330212
ave 0.06697538123196717
me@@ 0.01993116013903392
Mad@@ 0.13610167864324188
igh@@ 0.058480062846721116
Bi@@ 0.07740245629139055
`@@ 1
Radio 0.24785231598596505
Av@@ 0.20835082342685846
Pres@@ 0.12753828073627285
ski 0.15667828809997528
ike 0.12229958113858115
aus@@ 0.026884891154309677
ce@@ 0.07044356939014665
Cam@@ 0.13988906496756762
sc@@ 0.05071972426306894
ble 0.07040993619142431
Association 0.14277524218493692
ish 0.03140629835696407
Grand 0.1480411987410314
Es@@ 0.10158809604797497
Gir@@ 0.21712648207844648
ten@@ 0.023890271668473326
Michael 0.15001507055479066
els 0.058988872362083326
Can@@ 0.11996159560128794
bit 0.37893624336720555
ita 0.08736822934083623
1862 0.6010802953336142
1873 0.6222917398743004
berg 0.07134817803743226
City 0.07078123468727643
ung 0.011452559714936326
Air 0.16410732422511312
Hal@@ 0.1667915466067475
amp@@ 0.05701869222016136
aj@@ 0.056168753456831824
km 0.057710614843730496
ais 0.07909074521496055
Group 0.16805972320511242
1800 0.7593054951812949
eng@@ 0.02817354785160074
ment 0.025612698365197306
ind@@ 0.0438394988226803
Off@@ 0.13518224702080162
Tom@@ 0.21511493964313053
Cer@@ 0.17631686262498247
ef@@ 0.04048907062005445
per 0.05344704317023012
AC@@ 0.3032943449334297
ro 0.10420433314242175
1869 0.6502601120484545
inal 0.10801369031883923
UEFA 0.6041597090787272
its 0.012883291574499644
tor@@ 0.03959249271034646
12.@@ 0.6997771452040563
Is@@ 0.06950518285078783
DC 0.4311167280201279
ters 0.047767621751621615
with 0.005189263746114483
Pan@@ 0.1638701655717226
AI@@ 0.48543064718766726
adi@@ 0.062196984666081055
1872 0.6106914029331699
ama 0.06408457994812443
dice 0.32617408120532876
š@@ 0.2343581608785135
1865 0.5677085506827215
1874 0.6021687043717754
ish@@ 0.05587001401564208
ony 0.1102971074037529
oph@@ 0.08054307660882162
bu@@ 0.054536422123307296
ա@@ 1
Na@@ 0.3354044407170025
ax@@ 0.09050053600192554
Entertainment 0.43985003959132685
ies 0.03902630481517275
Vi@@ 0.08443798485307875
kh@@ 0.05732845103689528
more 0.03272483818186709
als 0.009195089382050691
El 0.023137581481351192
my 0.1626074319965381
όμετρα 1
Google 0.7657210019364773
350 0.8631147041456677
tra 0.13038302937221682
Cal@@ 0.11058292608608657
able 0.018878061177799207
ster 0.07231379546167696
ube 0.3884503189679387
Charles 0.1129565648698804
ff 0.1708774123249598
Ul@@ 0.19984648882656994
vel 0.7615155642591798
tes 0.02911895623267139
Mal@@ 0.06923958047121799
SE@@ 0.32116589173316695
My@@ 0.25119667857776307
San 0.0633427330797788
ord@@ 0.04909185301557646
Ri@@ 0.12319289195701613
Young 0.3070573516371789
fr@@ 0.030978744118345506
Royal 0.12995680246544797
own 0.06981557107633833
Red 0.2012936353046201
du@@ 0.039671469949193426
Wi@@ 0.11640693635113325
ella 0.1085191652582032
ger 0.04839664566939323
ler@@ 0.040673749276361644
± 1
SA@@ 0.37365437572799187
ora 0.0858249175493711
ault 0.23561865984611294
ones 0.04484900021400482
Tor@@ 0.08653162899981984
ερμαν@@ 1
101 0.7935263164455788
bert 0.1367365675345923
of@@ 0.06520161166119873
Sci@@ 0.13635793418299116
rest@@ 0.0892277836570177
ros@@ 0.10454569085726566
ba@@ 0.04624232823694576
Pri@@ 0.100939005932924
ting 0.02683631633971023
ebo@@ 0.4312499370976825
yp@@ 0.07212780328125694
ille 0.07122489459173655
office 0.16005439016635267
ux 0.07212585749119159
Mi@@ 0.10918393454416542
BS 0.34192771806176214
dia 0.14890587806480582
cu@@ 0.026765135226617026
sen 0.06150522846124892
Ἀ@@ 1
Maria 0.21034842210522628
tions 0.019340582721636114
Blo@@ 0.29111246550675907
ł@@ 0.20222464952990069
Je@@ 0.07652969279961667
tin 0.09054808065398086
ello 0.179659278789313
pol@@ 0.055006890806208714
vil 0.17015488947439167
Gl@@ 0.11641695163301749
ital 0.07028367673104167
tw@@ 0.06646109877043516
You@@ 0.49459179340277143
met 0.11416403960364035
ister 0.061474532727009985
che 0.03321077422141216
wood 0.11760297015697159
35@@ 0.7404433091752193
ori@@ 0.05672502638407015
Im@@ 0.11344531704520334
Christ@@ 0.11992620779431352
ange 0.08216086502211806
ario 0.07020538115694606
όμη 1
ry 0.0855359701728767
air@@ 0.04031527962432989
sk@@ 0.07069383897492795
ds 0.048776604997138144
ye 0.09343128817986197
AB@@ 0.5368091458764426
Sec@@ 0.06939724076024682
George 0.10006689075175228
ator 0.07639923557548346
tle 0.08743275317357772
District 0.09718751115498676
ales 0.018017068068565675
har@@ 0.06246470967412224
ola 0.1262590071265018
old 0.035985716501161495
Award 0.13461927742711327
Sam@@ 0.12481860432873786
Wol@@ 0.14745078128806613
ER@@ 0.3698768165994986
ada 0.01820228070309782
Bu@@ 0.09356310320351958
Mac@@ 0.11573045169419201
Mel@@ 0.12585389685229803
cr@@ 0.025291094348209142
Station 0.19931485973412505
à 0.004561794971326853
yn@@ 0.08458375096487811
ὲ 1
→ 1
Os@@ 0.16009396115814298
Sy@@ 0.08895762347781519
Sing@@ 0.11614316727111375
onn@@ 0.03575645899261854
Wat@@ 0.1673599879590215
ater 0.052568368645719
Best 0.18464286315405962
char@@ 0.06659092638362617
ὴ@@ 1
Mil@@ 0.09752337951464465
ier 0.09144810782328798
ball 0.08606600758505234
Big 0.23849710227745854
ειγμα 1
ha 0.05316766548582034
for@@ 0.0195959042617642
ὸ 1
dis@@ 0.01207029964706012
On 0.026469293660695108
Lit@@ 0.1694329031640143
RE@@ 0.45899773520100445
dy 0.14737037584597257
Super@@ 0.210730190693341
CN 0.7899607109170806
Luc@@ 0.18356035892593686
arr@@ 0.028133374228871005
zo 0.16775481680488297
CD@@ 0.2668330893823973
eli@@ 0.10268185162619203
Ru@@ 0.14904840034558825
Uni@@ 0.1744054614509866
Op@@ 0.1711265169528142
ala 0.0845458213542882
ΠΑ 1
Medi@@ 0.10739184997304815
aci@@ 0.04249447688970959
sion 0.03236863673502692
por@@ 0.03110722966859177
ΰ@@ 1
Film 0.10609164321812029
ust 0.13420954181299963
del@@ 0.06051507918233144
AM@@ 0.35153074145625196
ero 0.0703655550213404
low 0.04277833045377467
Que@@ 0.11347511427368183
Del@@ 0.1127863056439155
Al 0.11257237934309788
Sw@@ 0.09345665373916762
dio 0.11766577207344837
the@@ 0.03443119560942168
tics 0.06984874924481038
ase 0.04229372728791779
Tour 0.15590791415029873
tures 0.10286351544833694
³ 0.9147102314109112
ö@@ 0.027301590199955015
oth@@ 0.07845518589156414
det@@ 0.06787582908226529
Blue 0.28995376381236704
ez 0.07678826444339724
ene 0.03596789222220615
MP@@ 0.47411008314950487
Vo@@ 0.18635703518689178
Park 0.08899208781371397
Elec@@ 0.1974111755177222
ve@@ 0.03993198332779834
ico 0.03971532153196024
Day 0.21960178227306348
Thomas 0.10317540542572438
ota 0.10509882203021406
ign 0.0638023423277108
Rus@@ 0.05113399569110511
Sc@@ 0.17098876652545822
ign@@ 0.03533940721163698
Gol@@ 0.15119418172551236
Sim@@ 0.1343809194189853
tel@@ 0.04414954294448366
ensis 0.20747069536781015
une 0.008226363607461961
IM@@ 0.4612710003096791
aur@@ 0.07863176848749051
ze 0.038110457773507266
COVID 0.39209104744744644
ong 0.04522278491621016
Sou@@ 0.09566440346019994
ab 0.046998239286009026
A. 0.12974744154305698
Sur@@ 0.13999837085002728
dro@@ 0.06761267198335631
33@@ 0.834706944149746
AP@@ 0.32920187161328734
Football 0.1584048250958449
Hy@@ 0.1382498677594767
ki@@ 0.08202489055562535
col@@ 0.023522040200571817
mag@@ 0.05637710900300413
ber 0.07908830054208311
ets 0.03604229347169717
Martin 0.14002406312015686
elli 0.27135885890823513
oles 0.23394474954445466
Les 0.030836414847692464
λαδή 1
Cro@@ 0.11810708214656601
ney 0.07311394936579597
sa@@ 0.03469500648289039
ith 0.13372480600334544
S.@@ 0.34838533388090726
ez@@ 0.06018182299420139
ici@@ 0.03533157977852748
Dig@@ 0.3512694261423031
Louis 0.11485569150081819
pha 0.4818089939048816
AS 0.3658687857594615
tur@@ 0.02270816217162456
ῦ@@ 1
Ath@@ 0.14985861691036853
CA 0.33279180889643484
Richard 0.1329761244415856
SP@@ 0.2616485802368478
Win@@ 0.1250351520737094
Wo@@ 0.09406016031597296
Mich@@ 0.09301942630864102
Leg@@ 0.10916872492100595
Ra@@ 0.18951181905082598
London 0.07474103064324002
illa 0.07956298504957332
Nov@@ 0.1830517541296666
ä@@ 0.014545406158676529
ai@@ 0.05533722186474803
Bus@@ 0.12983766424213727
CE@@ 0.25226080683798485
Rec@@ 0.092165085250572
cl@@ 0.035382419015082635
hi 0.10874833568837536
ken 0.035174781661094605
uk@@ 0.05425345813516129
Ter@@ 0.09956944112797707
Ur@@ 0.08633543478122135
Peter 0.11235714609168103
St 0.1482947610198683
ology 0.05460866624882886
~ 0.8847849025034473
Mis@@ 0.09633555766617675
General 0.0783057523379298
MA 0.36916670518135386
ime 0.07978601230651071
Show 0.2823268301393704
Geor@@ 0.08961866425102138
All@@ 0.15335140420698523
Sab@@ 0.23106717318158698
Lord 0.2180205099125782
ide 0.07248024805709581
off@@ 0.026266319873169477
Bas@@ 0.07655187849689767
Du@@ 0.1045483309330746
from 0.005420522629593802
ven@@ 0.029283615865947573
í@@ 0.022191326658955103
Mir@@ 0.19238145268927997
ider 0.14509026484318807
Ye@@ 0.15620451806726424
ym@@ 0.05720460454223581
на 0.004368753322851388
kg 0.36191627094580436
ko 0.12665644746341212
Tw@@ 0.2740866673139357
ever 0.06521426745318597
yc@@ 0.09030516709140197
fl@@ 0.024133358984097138
ier@@ 0.03931695835508911
EP 0.28623256574181216
sel@@ 0.026378525483463772
PS 0.3051977423038768
track 0.12000711652704739
Ti@@ 0.09505459075271919
A.@@ 0.3383335102568252
ha@@ 0.06420562455262066
gar@@ 0.05254535984234824
Mur@@ 0.11387729496032147
wid@@ 0.11065709823122875
val@@ 0.041390346078019134
FA 0.30636315673652825
ἔ@@ 1
Blu@@ 0.2839857168368354
iller 0.11874097831033655
è@@ 0.03261178109472036
Ω 1
201@@ 0.7100397844859702
Ni@@ 0.1249502901129318
Ty@@ 0.13113337420983578
ated 0.008567114902639627
rock 0.13238306266106203
Corpor@@ 0.22926778813597676
ser@@ 0.02553941681424899
Pin@@ 0.2489524172494311
ny 0.18351650208364442
Art 0.10079216738383333
rec@@ 0.018848260840535088
ury 0.12297751005192936
Don 0.2223756403940464
unt 0.10003587824939196
ée 0.01045272521762449
On@@ 0.0885525472301477
Ham@@ 0.11564910579877624
ement 0.011625921646677471
center 0.1404102509567735
mi 0.10508962248491673
ci 0.11294904036579959
TC 0.36941984415203794
US 0.05107375865246858
oni@@ 0.06663829632154271
ast@@ 0.047298760491003795
bar@@ 0.034011911827673366
ents 0.01492133105052352
bel@@ 0.026241507876558812
ona 0.08846188613037927
up 0.023920244140223635
iti@@ 0.04398665939974381
ov 0.10753488478491714
Vic@@ 0.12406753662292737
so 0.02332033636721167
tim@@ 0.03780817616350791
ans@@ 0.07058750026591705
Rol@@ 0.12742318221537338
Cat@@ 0.1021171290492891
Center 0.12418742922972817
High 0.09526087526896664
Ca@@ 0.2249313665302037
int 0.13895729833199968
tar@@ 0.03796473452860154
Ear@@ 0.063794318410778
Die 0.01031367683661991
Juli@@ 0.12833397843702155
Street 0.09310143007907191
ato 0.07770920287428464
rit@@ 0.0548676527625165
Bir@@ 0.130275936244546
lar@@ 0.0313274545715527
stein 0.09633987583792472
ates 0.025023467475170782
ung@@ 0.04117170872170464
Pre@@ 0.07320677399992279
Lee 0.1849428427157785
Camp@@ 0.11898994043105536
â@@ 0.05025432474631647
Joseph 0.11396653649057442
endo 0.06480967150217101
time 0.01727969128469543
uz@@ 0.07007403767095996
Gen@@ 0.09551839323092144
Hon@@ 0.11164653810962713
ond 0.07107787322057701
Bri@@ 0.12235742839831378
ian 0.049397403804482494
La@@ 0.1070294364667645
ture 0.03077102144126331
inter@@ 0.01225042233696452
ft 0.06318549735884735
ura 0.07459519413011659
Dev@@ 0.10147025859800654
Journ@@ 0.18089114467756967
Bask@@ 0.3131115662119972
Ap@@ 0.12304199902111836
Society 0.12376159167130896
po 0.09773336238577947
France 0.040459001421610755
field 0.05378079962254447
sol@@ 0.019123131653220982
inn@@ 0.04061174279797613
ison 0.046835311449744385
ady 0.08750754924922406
Hum@@ 0.13964455245279112
til@@ 0.04728162228492749
chi@@ 0.06646327670256595
hy@@ 0.0624066655755216
Chil@@ 0.19128461548564415
Europe 0.08247064800846617
ole 0.06611163597019938
mas@@ 0.0384004820910888
ock 0.09047839211373444
ō@@ 0.18125883385286773
ér@@ 0.02296173592487359
Festival 0.11782914763746408
anz@@ 0.048139757360505464
Sum@@ 0.10204369554450962
Media 0.2412463731882473
wa 0.06462550953584552
AD@@ 0.28922651405016686
fer@@ 0.020992905546093444
Jac@@ 0.17177877258635532
Kon@@ 0.0424298769874489
Trans@@ 0.0946191734578787
die 0.002786187474474237
dom@@ 0.07356929094028952
eing 0.22081697158925345
go 0.05358918470101078
oni 0.20747395700237692
si 0.06412790718031137
rol@@ 0.1150104370157308
stre@@ 0.07339971190017824
ash@@ 0.07287566419355647
bre@@ 0.030422576004254288
wor@@ 0.02272370946817426
Sho@@ 0.21068645235237915
Soci@@ 0.09877848867891426
ke@@ 0.047320093128621454
Sar@@ 0.10208384285427476
Andre@@ 0.11780500661507877
Bul@@ 0.10505862520724918
Nic@@ 0.12556724043002448
Arts 0.14272698963019212
lan@@ 0.03451792123955139
στιαν@@ 1
Cur@@ 0.12102452127097747
kin 0.20663298738535077
ese 0.027497928043646157
work 0.02651010091112457
Cy@@ 0.16752457709558008
Far@@ 0.1043609259964116
Ke@@ 0.1312643338964352
Paris 0.055224957870905096
ection 0.03560479553433077
peri@@ 0.07003822849658904
Ferr@@ 0.3023309481184087
Kil@@ 0.27087040450902516
album 0.030215217383563555
cur@@ 0.02998821457474407
But@@ 0.23087036583848525
Harr@@ 0.12160578239032681
Vid@@ 0.25354731045828044
White 0.1354433158193541
cul@@ 0.02697618369811016
itz 0.06454466742816686
mp@@ 0.07169571974692159
Champi@@ 0.09552418008696321
ap 0.09491928384509293
Sm@@ 0.2302024088734686
bor@@ 0.03915750425445301
vo 0.15964912818361496
Bab@@ 0.20803017696442327
Rot@@ 0.16028278167736587
System 0.21269353986099687
back 0.04635947753575543
United 0.026023183579966563
ece 0.08183117451990116
aff@@ 0.041094711358702796
Sa@@ 0.09306823190019446
alis 0.29560992588732704
orum 0.5414056655537162
bat@@ 0.058486448627575266
tel 0.08719398020025962
ć 0.1296422745902289
agen 0.0663444105638643
ima 0.0928087360907572
ports 0.05502058219817609
att@@ 0.016742746977514128
atus 0.1680421707231577
Cir@@ 0.20474199362576467
fication 0.09794249701247419
use 0.022873830513458752
lie 0.10477645763700294
nh@@ 0.0404072413330286
colspan 0.4081610950603699
burg 0.0659428007736006
lines 0.12705827235360545
Bank 0.1749173890226877
Mem@@ 0.13000395050264985
wer@@ 0.024512658051258684
Pu@@ 0.09827137566040614
Vir@@ 0.16495701367830856
Hu@@ 0.10128873302349424
Phil@@ 0.08190205311223786
iki 0.18602234122300623
sing@@ 0.06852817270093431
European 0.08217400741953741
Kn@@ 0.14467129961787467
ois 0.19897284271139015
3000 0.5178650020853085
vo@@ 0.02755919919728548
\ 0.5199271756820479
live 0.10847086067513882
ati 0.1600569467788926
PC 0.29651603136399096
Aut@@ 0.07658602618101336
her@@ 0.020133110166957662
tain 0.03778490809233887
ανάπ@@ 1
king 0.03314752372364523
cas@@ 0.03007463744556937
ik 0.06081720568625345
ms 0.06076093153146501
ng@@ 0.04435668823670164
ör@@ 0.030744835528484105
edi@@ 0.03422927615779421
ii 0.4666165710898785
pre@@ 0.018604820546994322
tica 0.06256802698822628
Pow@@ 0.17089784840611028
Hill 0.14838890363008309
Open 0.1609599589014065
Tre@@ 0.0957254251246145
Natur@@ 0.13892910587950097
ado 0.008338338265607795
omo 0.3522677376782549
ative 0.024950232155688687
zi@@ 0.038798144473197564
č@@ 0.1769522872236346
Laur@@ 0.1425970859662244
anga 0.21521931311145456
NE@@ 0.3418689265422967
air 0.06533485004531486
Sof@@ 0.22509977238205847
ava 0.15761086677233796
pel@@ 0.07419983446750099
Est@@ 0.04922321289261562
Oc@@ 0.09838176011101343
West 0.0546859287893778
cap@@ 0.028926112149484394
op 0.05316933222102531
Volks@@ 0.1745979424830725
atr@@ 0.06315393011221525
ante 0.022787569494825733
Green 0.17485271284628587
Fer@@ 0.1020153772516195
Fin@@ 0.05136400903076903
Lor@@ 0.11929661005339028
Seg@@ 0.1321664391013783
atur@@ 0.07802456138682456
ines 0.03933889066040165
yn 0.19348499543023878
Pierre 0.12729339239712054
Roc@@ 0.14567439241747573
isi@@ 0.026340103573093982
Stadi@@ 0.18200080772806707
Dem@@ 0.0858747792112106
reg@@ 0.018909899562487634
Anth@@ 0.21282246837745067
Ko@@ 0.09735685656300942
pos@@ 0.014238619362258953
serv@@ 0.03233815420396432
ze@@ 0.04322012631355091
sti@@ 0.03372308961062563
Ban@@ 0.12012533645135916
Gro@@ 0.10292972156478676
eth 0.15799777308416119
fi@@ 0.019173693242661025
Ju@@ 0.08391205216666561
San@@ 0.08933482891774858
app@@ 0.03855070153310546
Friedrich 0.15227851544072044
Ob@@ 0.08557132280251756
try 0.043068076473907466
ville 0.03408728015298955
Hot@@ 0.17910233044423035
cus 0.2090355519619488
Rob@@ 0.12531688003035016
ays 0.05367049368876935
cer@@ 0.024482541372161874
ρωπα@@ 1
Marie 0.14186975146225292
sy@@ 0.05037798680391542
America 0.08747408654360457
Mark 0.14739911945359857
go@@ 0.0200132665040222
bus 0.14110417050214452
Cel@@ 0.16902616365059434
Jones 0.17511335615685733
nes 0.050338650628736055
text 0.1481167757939368
tis 0.14488067113565364
Columb@@ 0.15409094504464474
Oper@@ 0.10117937734248493
Proj@@ 0.13178735023011434
bour@@ 0.11747342082182416
Il@@ 0.15526006198923056
Feder@@ 0.08614184481372297
Univers@@ 0.3448524944942384
ond@@ 0.03443201378094013
osa 0.07995421444826664
Fri@@ 0.16766334685864415
Liber@@ 0.11435695371823201
Ven@@ 0.13085942496772351
Boy@@ 0.18719972096315798
well 0.02420899952441157
р@@ 0.019557289198139014
ō 0.15786465157501556
hu@@ 0.04455692954188236
left 0.053304124406932565
Š@@ 0.3700103819601245
С@@ 0.014218118545360975
New@@ 0.10110605546425458
eta 0.0870218327755225
pu@@ 0.02644863633012253
ἄ@@ 1
Ig@@ 0.1562561732270713
su 0.009483132261527328
Chi@@ 0.07478990527160764
Mid@@ 0.09567925737585865
ba 0.08170555778069044
fo@@ 0.04374020726470616
ji 0.13333252743566748
Doc@@ 0.16470777818846052
Pas@@ 0.10101180388811308
SS@@ 0.31484675276157076
Phili@@ 0.12177566004257132
ein@@ 0.009893865724213536
aux 0.012640077456923379
fran@@ 0.10912679335621245
Dom@@ 0.1329206257294161
Tro@@ 0.0881765210628203
ali 0.10740543443724164
ista 0.03837226310581979
fin@@ 0.012244244000733644
Patr@@ 0.10957383352046035
des@@ 0.014689735583367801
і@@ 0.9401199777150955
lam@@ 0.04160850071333384
ys 0.08543133550106621
vol@@ 0.02290809430833621
chi 0.12430306842241409
pen@@ 0.04271078338064856
ster@@ 0.0484460604108907
ts@@ 0.02153525436929889
ida 0.04033441394195671
ental 0.03387781274041131
over 0.01846219582616069
Cin@@ 0.23337065956712966
can@@ 0.029151405254741313
ern@@ 0.043973112589817634
other 0.011704272850235942
ὁ 1
low@@ 0.0319987486347909
British 0.04249244781669367
Ev@@ 0.09521845238897683
Region 0.1350706573346156
Deutsch@@ 0.1516360745285784
ough 0.054059864747214754
Spe@@ 0.11318986266865665
art@@ 0.07165691661885087
inger 0.09988935185947401
Fil@@ 0.09411808104293024
Plan@@ 0.14234608835614276
ret@@ 0.0447757377650168
amo@@ 0.10714107494621465
ban@@ 0.037338962087166465
Bat@@ 0.1056231890935048
Santa 0.10195085499858604
ham 0.07477214698331956
ins@@ 0.02659785050597628
ket 0.06751625584514363
Liv@@ 0.2020799360870676
Mary 0.11522704901158186
ela 0.0685183015603761
ito 0.05557845253164766
ré@@ 0.00989397509795478
ther 0.02038021798100337
AP 0.2624028378671997
ote 0.039997109845960784
set 0.04345541067187689
Sav@@ 0.14231804128680353
ón 0.0226546204135272
Clar@@ 0.12089692640012172
Institute 0.09822478429366625
occ@@ 0.07278078899673224
Karl 0.13910448157327068
unc@@ 0.03549679086110668
ature 0.03526743471906033
oman 0.11105255825935086
je 0.10794110037103613
Land@@ 0.0402384034414171
rel@@ 0.012721342407147347
mat@@ 0.024902819356232467
Los 0.03176377638921318
Mari@@ 0.09082373805771232
Sun@@ 0.21500528770182864
nik 0.15904882416359456
May@@ 0.11530175870132947
Max 0.19562717331046164
ding 0.05000669912221474
ira 0.08745360142396694
Rem@@ 0.193869940010967
cole 0.1357291243709649
For 0.05425036451340219
fer 0.035419761323461946
antas@@ 0.20831271936164267
Lim@@ 0.1312202580398216
enc@@ 0.023368167782139928
ort 0.051510965830130144
Hug@@ 0.1441480955630811
dem@@ 0.022470603326358644
war@@ 0.03230257670973528
Il 0.01365604382915365
Oli@@ 0.16619590901773787
υπόλ@@ 1
CC@@ 0.3106740134603402
net 0.0752619831438479
This 0.019414395810739064
VI@@ 0.3806992433655904
Henry 0.0888929168551893
anus 0.3194031751847015
Mach@@ 0.20152257390466047
Techn@@ 0.10560283408734975
Haw@@ 0.13028607010318763
ando 0.020322185499110808
ele 0.04515074498638172
ema 0.08716635347559308
mb@@ 0.055756185525263714
vir@@ 0.06525098196792975
ium 0.12109742003157173
lem@@ 0.05955531362832582
nam@@ 0.027014542927808912
Ann@@ 0.17067083107130185
Nav@@ 0.062440897822441686
atre 0.10249893023197662
Sir 0.1360706340420669
eter@@ 0.06276682934387792
AG 0.23435278729821146
Loc@@ 0.10555642749482576
crip@@ 0.06880683204905626
idae 0.04564340274765826
ann 0.1320763826332564
loc@@ 0.02371303662139422
pro@@ 0.014185103630274875
War 0.03920427799847275
una 0.006916151248864963
Ali@@ 0.20891049436594253
ix 0.07787232815367057
ome@@ 0.13951449438917168
Med@@ 0.08681982413453572
day 0.02573187244365904
Produc@@ 0.12477264506184248
iness 0.05949986888223238
sur 0.010536215872475762
err@@ 0.0482590014819837
Star@@ 0.1534716139239929
ei 0.0702782753466677
oma 0.07736086707695636
ful 0.03975192002806526
row 0.09442078838890652
Bern@@ 0.11228840349061699
Jan@@ 0.10240590696026995
aceae 0.13348979042166903
ree 0.05452324579466719
eme 0.07723657692059153
we 0.06762091510652257
Ly@@ 0.1554208759275221
Mont@@ 0.0818491039293694
log@@ 0.06374841921341956
eci@@ 0.07616391266776733
ee 0.07420198405074742
mor@@ 0.038852195863927595
ame@@ 0.10579581290236341
lin 0.13108141205810614
ψ 1
Ale@@ 0.10607890367176649
Band 0.11215854528656874
Bon@@ 0.11881911119671408
das 0.006839637244454287
Bay@@ 0.10173443208084089
Tow@@ 0.0993776567380352
video 0.06924186918533558
Lar@@ 0.16142269073980986
ku@@ 0.05645078955632519
sen@@ 0.030839751545276982
tron@@ 0.0858005108095003
Bol@@ 0.09251964468727954
anti@@ 0.03251150142477789
bur@@ 0.031970937602545456
Gra@@ 0.12636087100395493
ius 0.20941860329253223
Ram@@ 0.09730231751654538
elec@@ 0.02786143519625507
fre@@ 0.02122423824838756
action 0.04576003499431553
ax 0.22847377289984683
εγον@@ 1
Hil@@ 0.10739317812405105
az 0.07161379099389419
Meg@@ 0.2837941162055178
enne 0.03481096053849668
ington 0.08002376525038894
side 0.02386053468286743
ὑ@@ 1
Edward 0.13229382941589568
Smith 0.10052290322605485
ean 0.0770503633308616
ento 0.04909342969942462
Island 0.08550413463573817
Ern@@ 0.11520795657857873
ats@@ 0.14297686199509088
Not@@ 0.07328399787973638
Whit@@ 0.16706911965513663
£ 0.17335032063027256
Beau@@ 0.17925818064907909
Road 0.08407659011123368
ø@@ 0.15517303074493277
Bru@@ 0.07590775079438353
ces@@ 0.04178210085891041
Dec@@ 0.1199177370597339
Dor@@ 0.05911475008409213
let@@ 0.03331718550888048
Οκτωβ@@ 1
Ak@@ 0.07571242853273617
Mos@@ 0.06398824227038606
Cul@@ 0.09718443851155636
Kur@@ 0.06199709431595999
ams 0.03233859862431856
eld 0.06656634486436429
aus 0.009226880390850931
sche 0.06577447040441792
Dav@@ 0.09279572419791043
ais@@ 0.04528345601841804
alm@@ 0.04704906016350196
ox@@ 0.09886562045642136
Mu@@ 0.10067406040020291
earch 0.05027233306257415
Great 0.10403509554348879
ex 0.12311014845421374
ür@@ 0.02447463083058022
aga 0.11534103293720878
light 0.05728248626362571
ila 0.10546934301064283
ü@@ 0.016688349240174746
lor 0.1670318969333126
│ 0.1935435862882971
arch@@ 0.04543809818759624
men@@ 0.016361202266417168
á 0.03418949961253825
Kh@@ 0.05515823275078908
Tay@@ 0.16249352985859014
σσαλ@@ 1
fa 0.24607221139852428
view 0.049746350857130174
ih@@ 0.046352063706901064
lock 0.09317661807669901
oug@@ 0.10979813378083107
Arch@@ 0.09949664201718164
Fal@@ 0.15508607187897036
lis 0.12259827754589986
tin@@ 0.08467702507677718
zi 0.18322288393955677
aro 0.21391954070951133
fe@@ 0.019759079054335466
ua 0.08550004874186912
AM 0.24563480705803392
Eng@@ 0.08418748020507308
вич 0.07110484462994972
Wilhelm 0.1529686088466005
act 0.031146430136468846
ç@@ 0.02988427041391361
194@@ 0.40027573915435344
arg@@ 0.04477296998179671
aya 0.08073841114518031
Tal@@ 0.11907183180893814
Ot@@ 0.07750923292254787
soci@@ 0.03329639337791049
ny@@ 0.20574567861762322
ope 0.08083622697489523
Lud@@ 0.13804334170463683
onia 0.08382205956466608
Union 0.054059890256121616
show 0.04716531786299442
sub@@ 0.0152259350784122
Hi@@ 0.08218638845039024
VI 0.21831311617628704
ami 0.09978559700610067
fol@@ 0.0247222993585559
Van 0.16150927012365773
ck 0.08195742329208949
pa 0.11479963593590542
ats 0.025169399629918203
bro@@ 0.031578340195376524
len@@ 0.05035648316476424
ère 0.01602988990312871
Internet 0.20561385059640805
cal 0.05794694944547735
Song 0.1776180173823456
ania 0.0735679751982008
bas@@ 0.019302658560225526
fa@@ 0.019210621051390767
Coun@@ 0.10730575508038734
ls 0.07983482166042667
Mak@@ 0.16055301371921177
kl@@ 0.03541714833123444
ust@@ 0.07613099515180555
estr@@ 0.03873825908465752
ῷ 1
Johann 0.12905260385926556
ao 0.05683785274953937
ont 0.01856010056384979
olog@@ 0.03470654097049766
ual 0.02804430859316142
dan 0.07125443521457231
house 0.04786263044094308
isa 0.12877107407500785
son@@ 0.02960336341795096
cy 0.08754176399670394
mod@@ 0.063729481606801
ente 0.014262998088742115
ights 0.05364431890010844
tre 0.02166330537435635
wig 0.1338704002221925
wo 0.04085811773386903
Ol@@ 0.09045439502093887
ὺ@@ 1
Alexander 0.11537263694992028
ains 0.03199879913283903
ul 0.08350693698294206
Han@@ 0.0827234005035505
estra 0.10553212875160713
State 0.034290109187119125
put@@ 0.048654520730688586
Cast@@ 0.12072344528620943
oria 0.14043691935998384
Championship 0.072979242916829
key 0.076234914103731
qui@@ 0.027699217524998824
ὰ@@ 1
mus@@ 0.017195381033810547
Rh@@ 0.08278183590843186
less 0.052943561841207645
Brown 0.12836599664780074
Ind@@ 0.08746668853864657
Wit@@ 0.1726022157805816
urs 0.025681771392735208
Joh@@ 0.09749734559504558
Sand@@ 0.11204952200485628
Si 0.17162413442189783
Stand@@ 0.10714093395476378
Christian 0.0782612759558837
cal@@ 0.03264895413366566
loy@@ 0.055959695968260136
agr@@ 0.10534047571467303
tan@@ 0.03712747739410497
Albert 0.14343977365576424
ally 0.00805703186098844
aria 0.06680693355922597
Ba@@ 0.13835592919810935
Fel@@ 0.08656981682116922
len 0.0309623608505886
Astr@@ 0.20364354981201568
Sel@@ 0.08560181610212958
aki 0.1145264767952152
bo 0.15978969329507464
erry 0.1051671478266858
ori 0.17176133504711
vent@@ 0.059345273475545995
ends 0.05671734869074843
ids 0.08072371671953284
anger 0.12108013083979537
ns 0.03126890511967954
Tar@@ 0.109320507263169
ische 0.013936144814118477
uv@@ 0.04847313401003718
ὴ 1
Ori@@ 0.12761966857966697
ager 0.0527993728847352
ef 0.05792944740271886
ald 0.13039950331910904
ince 0.050379841950453495
ula 0.18665812239855467
ə@@ 0.870925359010913
Lou@@ 0.09488903747566828
ems 0.037010533017422145
North 0.035780948303272345
ech 0.08403073894982824
thr@@ 0.055054571724989454
′ 0.8689861313663446
abeth 0.11183016735982554
cher 0.03985545328043777
vers 0.024216050965553296
ross 0.04064453590426457
ution 0.0372665890295361
P. 0.1555744959188928
head 0.05209572121179406
ī@@ 0.32044952378937314
Mul@@ 0.12456498687329408
gre@@ 0.022308583651991544
aire 0.017109952158100537
ett 0.07438578140754108
ga 0.07501739671910437
ism 0.03852626204701705
rey 0.08593474278929213
sil@@ 0.05641794655651903
ὲ@@ 1
Division 0.052329902425034804
Ha@@ 0.09476164840752532
eck 0.10333602533051513
kat@@ 0.11531957691211754
men 0.017546207949515318
Franc@@ 0.10961873326684826
Gil@@ 0.12379250500799337
Nar@@ 0.1734560180898452
azine 0.07353515125964408
Den@@ 0.055872349776009654
sho@@ 0.017005197760610293
wal@@ 0.04348022397031858
ū@@ 0.22419180759055057
ὅ@@ 1
yan 0.09663337267566567
Bet@@ 0.08949356540178623
Scott 0.1436871138224569
West@@ 0.05046926055266056
Kin@@ 0.05279325355306233
alis@@ 0.02753157028169138
mo 0.0661438531646285
dition 0.032942759291626794
Commun@@ 0.06902498109675753
tre@@ 0.02264430439032013
ted 0.0075859161659033
Kor@@ 0.05054228976756194
abri@@ 0.07930101454234086
hr@@ 0.04653429226692163
type 0.06703147614093251
Mol@@ 0.09679275551685528
ae@@ 0.12305003870831352
ger@@ 0.018123072447558747
Mit@@ 0.046533475565588546
he 0.0037082838135856985
under@@ 0.03222620392772325
Cu@@ 0.0945657297558436
Rel@@ 0.07014018789327865
her 0.007148714696694738
ão 0.1118781749967006
tu 0.19905188513758618
ways 0.05900291182832278
wi@@ 0.031332927490928475
yth@@ 0.1027257498875546
Fol@@ 0.04196848660896218
South 0.027666496168161903
Steph@@ 0.11830518562549087
VII 0.2677040653444836
attle 0.0494134356310691
ech@@ 0.032534672842359856
port@@ 0.017442291193674363
ense 0.04991228053294735
А@@ 0.012192360096654918
Lev@@ 0.1321169412577845
Museum 0.07298562302355215
anim@@ 0.04289413596781157
gl@@ 0.03600042823957153
ova 0.15161808631742335
Gold@@ 0.15350052190712837
How@@ 0.13842728142391653
Rod@@ 0.10839122953616717
Sto@@ 0.07877064218824065
ality 0.045427902671647716
eri 0.10661408784867117
eri@@ 0.07087806543353865
Johnson 0.1317459055369127
Prot@@ 0.07476880045596332
ail 0.07718484946720681
0,000 0.08107949081457823
Pat@@ 0.11089390533039967
uy@@ 0.06146445210888146
ј@@ 1
GC 0.5384792177615848
sal@@ 0.03572961210666843
tal@@ 0.04492175532603818
‎ 1
Gener@@ 0.08776184465522423
hip 0.09779295363421689
ћ 1
conom@@ 0.12210086496368293
ges 0.04466278118122826
tiv@@ 0.0297261910069001
uch@@ 0.02751499497869921
195@@ 0.15893224924332683
cli@@ 0.0648868324703188
mu@@ 0.0304148811576354
leg@@ 0.018235579201398875
lia 0.15189980357378827
tice 0.049783964091764894
yo 0.06414461512902582
Shi@@ 0.13612755035610435
model 0.1013945173523963
win 0.04152915288107467
ո@@ 1
inus 0.3198315420701766
ods 0.059000847965513005
olf 0.13325341715511918
tive 0.037902079883157226
Luf@@ 0.13451504254873387
Team 0.08123830241014646
IX 0.28913464660501315
Pap@@ 0.08956012335194422
ž@@ 0.2420357039807309
tem@@ 0.026772315872439806
Augus@@ 0.18717537312002444
East 0.051892773617546066
dic@@ 0.02572666701246135
ld 0.11500554472682917
oto 0.07233805300869721
ums 0.03949439295697307
Sub@@ 0.08877590905423394
Ta@@ 0.0801429794612222
Academy 0.07869035070368258
Men@@ 0.09402598713721592
dom 0.06839487468169782
ost@@ 0.09366943581615561
Squ@@ 0.10122263141338507
Lang@@ 0.08924213228357865
Reich@@ 0.08821259195472304
ani@@ 0.05463152572280723
lat@@ 0.02370778059724364
press 0.09794786068092802
wn 0.03261229197837698
Williams 0.12513767890344307
ob 0.11691263496359568
ople 0.10642028198562486
ր@@ 1
Atlan@@ 0.12057663132776486
Cru@@ 0.1289708210367542
fe 0.053030850953035745
hard 0.10518536002481206
let 0.090018004437002
Ἐ@@ 1
Hen@@ 0.15341801224007925
Juni@@ 0.11286760137821665
tors 0.0479559629607757
uf@@ 0.02612801264670024
Dol@@ 0.10318254493575285
Pop@@ 0.10335365977721325
Az@@ 0.12917079320599673
Rog@@ 0.11038681279951372
alb@@ 0.04478427712046797
comp@@ 0.013572452563019245
ides 0.041182713728961165
web 0.19678587978251524
р 0.009537476364095304
As 0.024391525938900892
Jack 0.12476300499075751
ili 0.1301334855595243
isti@@ 0.018770208300885775
Brit@@ 0.08065459358229589
Law@@ 0.13445591092746964
ika 0.08758942714984845
itu@@ 0.10090537902223645
music 0.03226529575742038
An 0.04933372541556207
ush@@ 0.08205394280286687
Prim@@ 0.08305070879174403
^ 1
в@@ 0.0061863465343656105
Bil@@ 0.051411712895696404
Vil@@ 0.11391479936130211
Washington 0.058824897043768934
ards 0.03286735796666192
ness 0.05484458567780469
ret 0.10399241963695643
ask@@ 0.060115209386133336
ear@@ 0.024676003009359584
gio 0.1742321720938489
ks@@ 0.06662033444220178
Fut@@ 0.18293285320112032
uke 0.10645455519714579
Eu@@ 0.1511339379383868
augh@@ 0.03299877250737621
ein 0.005701456679449848
sive 0.031073383661775075
ô@@ 0.04137293319787451
Do 0.24374852027090113
ants 0.016991530201253383
cle 0.09074343719455336
Bos@@ 0.10543594400879285
Lam@@ 0.13647040407728506
Pon@@ 0.161043975440609
ason 0.0777636982286896
mes 0.030692019273059
Arm@@ 0.09118534805428255
She@@ 0.11479418796839687
eus 0.26321316961203683
tis@@ 0.033702986989409725
uel 0.08318596070151658
Don@@ 0.09761575364670118
arm@@ 0.01966445609070204
kar@@ 0.05220884571244589
sky 0.10236603439818334
Ϊ 1
Chicago 0.07908556955192872
Frank 0.11437717368375877
Nu@@ 0.13239339855732274
ark@@ 0.07742896605812555
istr@@ 0.055357191176759656
tern 0.021193161535130282
UK 0.07317978207759017
con 0.0053503238597461126
iy@@ 0.0651156830969951
pan@@ 0.03581126720039986
Tun@@ 0.11818696703960385
ban 0.055700288355717824
tus 0.21542850700249852
Aus@@ 0.015690325816997374
Daniel 0.11127288165457497
Ran@@ 0.14022040709503536
oo 0.18462423393493324
ser 0.030598660668205976
н 0.008112698986588158
Long 0.1327095938024306
Prix 0.13220593663446348
agu@@ 0.0593060845677538
don 0.083268569969037
Mah@@ 0.07423024372371745
Kenn@@ 0.10214645120026146
ques 0.011897583777099433
Vill@@ 0.1024226634997093
iki@@ 0.407840053001382
mel@@ 0.06423538331055746
tical 0.034761151073008804
ωνστ@@ 1
Gh@@ 0.12610289178908543
Kir@@ 0.04614059350045525
Sen@@ 0.03795951463904796
ᾶ@@ 1
First 0.06436986242976864
Hans 0.1191125191279418
elop@@ 0.11022169713380929
Bow@@ 0.10840451445376117
Games 0.09642757496925494
form@@ 0.011484207758662076
mond 0.09399025193336513
Alb@@ 0.12034787959306367
ons@@ 0.029729047275214162
outh 0.0535915751926522
ste@@ 0.019247730615844675
Force 0.08994898841429323
kr@@ 0.04555447052488203
mit@@ 0.019585237950352156
very 0.01967538974205749
§ 0.4722688557196861
anda 0.07720049766311048
itz@@ 0.032501325980460155
Leon@@ 0.1501294183506172
Sat@@ 0.152300435878913
iden 0.07981975649180241
Ox@@ 0.10509281114987183
Fried@@ 0.12258255208543142
Kal@@ 0.08017290790970615
Mes@@ 0.13616403567538446
edy 0.07909811994203277
ew@@ 0.06194825359811784
idge 0.07510994521994643
ship 0.018114055993604737
High@@ 0.08549208530908237
Nik@@ 0.11660801789957018
Publi@@ 0.096029542303761
Tran@@ 0.16010647358748703
bridge 0.06597930125642483
kin@@ 0.07128802264247405
lu 0.19735736772986076
og 0.14085463818509342
SC 0.13453889165578145
Spr@@ 0.04711669250238266
acc@@ 0.01332306445570917
bes 0.06335538591379877
eller 0.08531036031693134
now 0.027322993714300553
vin 0.15575766361713803
≡ 1
Cou@@ 0.10554396010030441
Dou@@ 0.1323107537637212
Dur@@ 0.08562617383683178
Jer@@ 0.09555544559682837
Rev@@ 0.13032270739133428
jo 0.0365793579928617
ston 0.1127753348748231
vic@@ 0.02280440700432263
wat@@ 0.06308754673352078
н@@ 0.00847648220446504
Famil@@ 0.13238235912849586
It@@ 0.04785387469496332
XX@@ 0.26518528834059096
ri 0.08185350617865955
ying 0.030044116364825013
King@@ 0.06604918857918202
Maj@@ 0.07949578160450092
Ze@@ 0.0365697279819961
enz@@ 0.03187253646828889
én@@ 0.019982950557566787
Arthur 0.12313841465297329
ip@@ 0.07143276260624445
our@@ 0.044692050687257914
λυμπ@@ 1
Carl 0.1306288741139317
ş@@ 0.0454284576331837
Tem@@ 0.10966618303378714
cep@@ 0.0580843722988192
ine@@ 0.053047027579191185
uma 0.16025511968589135
Af@@ 0.059507694526262395
Der 0.010644565214904938
Fu@@ 0.09379393675301545
Lib@@ 0.12882966494581896
Maur@@ 0.10227891126000467
erg@@ 0.042817928975610674
ó 0.004016695179966568
act@@ 0.07209004165992834
ú@@ 0.04229084195165136
.C. 0.11103797898791615
Clau@@ 0.1256207058260819
Walter 0.12613906152841386
den@@ 0.022333738098317936
eum 0.08735721819720788
ode 0.043157664068810005
eto 0.08191437932862956
sta 0.053641687639378224
Pau@@ 0.1370833736065125
emb@@ 0.02564310267884458
Hom@@ 0.10102687567393329
Jus@@ 0.06716370306519298
Plat@@ 0.07937664850433107
ces 0.015607194296306953
eth@@ 0.0608039241453312
mil@@ 0.038954494963363485
199@@ 0.10125274985661982
Rap@@ 0.14172341970726746
eca 0.17185447042757865
ited 0.02613892376228315
tory 0.05479656351578139
Jacques 0.12974605637294145
Tom 0.1191825797770243
iro 0.09598656719651513
onald 0.11757965620468697
ven 0.029116864541744426
án 0.023804351483666778
D. 0.08645162669436189
lobal 0.10472861837342441
ves 0.019256856731738485
Eg@@ 0.09251559279029381
Got@@ 0.07670851578439103
Lab@@ 0.07644044340878976
lus@@ 0.08552886902279706
oks 0.05225433288826024
tion@@ 0.027128807264029536
К@@ 0.013221751750027254
Wer@@ 0.033104793524304635
vel@@ 0.02471573658057369
י@@ 1
ა@@ 1
Victoria 0.11398360741171853
ders 0.04969187075853448
olo 0.16096022120519832
sin@@ 0.033905135726926744
Sus@@ 0.11342339791697793
agement 0.04840540727696838
asi@@ 0.03473403617206989
sur@@ 0.011081397320332295
Direc@@ 0.06425405390227949
map@@ 0.2602711351596211
Anna 0.13688873906195184
History 0.032126299057557976
face 0.03312492693763641
yle 0.09003156253460338
Land 0.08066587829399088
ingen 0.03468935313784605
assi@@ 0.09061342232384371
eau 0.03196563629039029
ety 0.04110115463755959
pres@@ 0.00994294339507597
sw@@ 0.04193612232940095
vice 0.049008622817248264
й 0.006426813051351717
cel@@ 0.03606364066767359
ences 0.02286862656491599
ular 0.02095423090856489
ро@@ 0.006284396102940793
ng 0.09449225963845265
ties 0.01346500833350239
Hay@@ 0.1252738464075688
Party 0.046864579834407956
esc@@ 0.04043656952259125
Alli@@ 0.11670338803024424
C. 0.06100706496717004
ego 0.05830397085682702
emp@@ 0.019064239874099206
ures 0.03240986870262438
Tour@@ 0.07712337578895315
others 0.04118785972687978
zy@@ 0.11743642747755015
bul@@ 0.05893181005935615
Gor@@ 0.12091354677985224
Stan@@ 0.10572518547613868
ely 0.016609202496024718
sey 0.12420420525964693
agn@@ 0.04405597714633151
ering 0.039418703679359526
media 0.060336914203470336
196@@ 0.10120028432059715
Cab@@ 0.11772837593928018
cin@@ 0.039489654365822725
ket@@ 0.051027919928566874
ther@@ 0.02925928558750287
hat@@ 0.18055841677808757
Ari@@ 0.08723747121771987
Red@@ 0.0882995683904328
ви@@ 0.00882593080606692
Real 0.11535598573602938
duc@@ 0.05245027391151728
unk@@ 0.026231659422910586
Thom@@ 0.14533203013349896
asa 0.08105555568067774
bus@@ 0.023869669502887186
John@@ 0.1459552936891856
long@@ 0.040672135696648654
ἡ 1
Dan@@ 0.052341879155139825
Eri@@ 0.10849734122727393
Web@@ 0.11237692219315068
ague 0.0414337879062722
ert 0.014847277714744797
Heinrich 0.1214454307137591
etti 0.13378837704640945
lay@@ 0.11229134074673727
ple@@ 0.05001543452253989
ric@@ 0.046268220705536114
uli@@ 0.11054244209398462
ῳ 1
Syst@@ 0.12094383815539449
ami@@ 0.06986293921654592
fic 0.04311915102481608
tig@@ 0.02107433012186952
æ@@ 0.27203845953326666
Bill@@ 0.1624850860733805
Sz@@ 0.1370767131840957
aka 0.08184065224656491
ă@@ 0.1969924315726319
Alfre@@ 0.13073693994384789
dé@@ 0.005256060919705992
olas 0.10726729650814508
Bay 0.07699654957189223
data 0.08184377778476326
land@@ 0.025234552648368803
level 0.049418831973501144
¨ 1
bal@@ 0.038395879341710196
River 0.03382877814080007
sit@@ 0.028709625828897797
Kan@@ 0.0673828052616372
fes@@ 0.04520146772420287
Div@@ 0.15328688746904767
Tu@@ 0.1113822258106804
iger 0.036737874685428565
Def@@ 0.10428693397090866
Jackson 0.12188119383780363
struc@@ 0.023946233705619848
Bau@@ 0.03441594916818927
Gran@@ 0.07853778190380792
Maz@@ 0.17533928868064697
alia 0.15733122825260507
eter 0.03609810915405781
res 0.02210494624226022
Vel@@ 0.14692435626909586
ages 0.014957834915560624
cop@@ 0.04139433787023055
fri@@ 0.02862403167882395
mac@@ 0.11647989790663611
å@@ 0.199531225604451
Antonio 0.09486576012680961
trans@@ 0.011794160695417171
Mé@@ 0.11175672364433774
Num@@ 0.1368844023917047
USA 0.07306281404439212
acy 0.052098397183180045
198@@ 0.08609202419040268
Mik@@ 0.1346905344387089
Pot@@ 0.09798484874407468
E. 0.10309259948195428
With 0.05353979574230249
ו@@ 1
Kis@@ 0.31757501385478687
Progr@@ 0.06935277154127438
Rich@@ 0.046207011537516315
bach 0.05451533814635058
down 0.03128372951713923
gen 0.021731609425443638
public 0.019096544299651536
rati@@ 0.03362493917119035
Orig@@ 0.08009876325130426
berto 0.12091462190221283
bir@@ 0.03405952493232854
ots 0.04714481924818728
᾽ 1
Acc@@ 0.20140869965198369
Kom@@ 0.02852900211927017
Tim@@ 0.11398766384340613
dec@@ 0.009838532388407371
din@@ 0.05565840352611599
inf@@ 0.03189455733490823
Vis@@ 0.11874908176134064
Vit@@ 0.18506973695398418
alt@@ 0.024317245053899417
dou@@ 0.033026379172436574
Cop@@ 0.12286705609127434
uti@@ 0.025681786995520123
ː@@ 1
cho 0.0187222597137283
ols 0.032609583796051396
Angeles 0.06926691819328018
Bak@@ 0.09004673281131421
fur@@ 0.030528758838057446
lands 0.03217682843816259
ð@@ 0.3821215301637254
bit@@ 0.06907385861380046
dig@@ 0.027158836413351775
ion@@ 0.08578754287610248
½ 0.6274509083777075
eti@@ 0.03499012980546695
onal 0.017547690367522458
Gaz@@ 0.26714907050949793
Henri 0.14102207912379777
enberg 0.11265130108858175
rom@@ 0.02613045484059377
í 0.027846787332588576
ΐ 1
ardo 0.09942726973118877
prin@@ 0.042278477750545766
wh@@ 0.016044541512412372
О@@ 0.009980590391326956
ἶ@@ 1
odi@@ 0.07905763229305215
Bot@@ 0.05154166850510043
ouv@@ 0.021565108393320327
Women 0.0663027944183157
alth 0.03659632726473573
ect@@ 0.03874730606107519
Pen@@ 0.07169104999182287
François 0.10635491864651704
Mass@@ 0.06510073660085518
lam 0.12767877823972254
non 0.02488153659380878
ow 0.04010989860134378
thi@@ 0.047795619094278846
εναντί@@ 1
П@@ 0.015380959124432613
ка 0.00807437319923717
Andr@@ 0.10812444209402963
Arti@@ 0.10608160954943271
M. 0.07680387480483453
mus 0.13094549346017806
ores 0.019994166917038456
sec@@ 0.01053572436091542
Ç@@ 0.09280288079553123
ém@@ 0.04129661948746409
ΐου 1
Premier 0.10030960667315168
и 0.0013845831436847425
Cath@@ 0.09588863197624213
Grande 0.1282167288111911
Liga 0.07658906568247299
station 0.022226131763984816
Joe 0.11251011578149432
Sor@@ 0.11502739214384466
И@@ 0.012455908240763553
ῇ 1
Jor@@ 0.09227493518545576
Math@@ 0.12106530727666573
Mill@@ 0.11096552313783352
rap@@ 0.026801733068859107
anne 0.09928909591004025
cast 0.04743570125994128
cio 0.0866900532436291
ischer 0.022442173300030677
je@@ 0.022997647823115357
ord 0.09606925714357095
ā 0.34225548405173317
Kat@@ 0.05946440317298844
Ker@@ 0.08995031196270402
ace@@ 0.10178152627932989
ades 0.030800431834870013
cat@@ 0.029991332618680026
proj@@ 0.027866336715718542
sus 0.013909620236180585
és 0.007043419488568568
Hand@@ 0.04972541969177683
Tam@@ 0.09451292604856319
ă 0.6288166927437121
Central 0.04676716509807226
orial 0.04832778448112843
year 0.011549800541436565
af 0.11102231020922887
alls 0.040858580125395276
Ay@@ 0.10660960610671001
Kle@@ 0.07231521982582337
Town 0.09442129960522823
ester 0.049360736719778524
red 0.008671304052196516
thern 0.021875117116264765
Ing@@ 0.06853494040705962
eur 0.017160037816311632
iss 0.09549211951377463
Enter@@ 0.27887051926377027
aft 0.04174095086965497
awa 0.08431277175963156
cht 0.029402373685000312
pal@@ 0.03201937771427978
ward 0.04072196467837633
Sin@@ 0.07325916255703044
los@@ 0.037150515726315385
ե@@ 1
azz 0.08829368619259435
ique 0.023234361714601283
ker@@ 0.056308402215238425
Dam@@ 0.07829485569116482
В@@ 0.012017676504460773
Alexand@@ 0.10320335388965478
Eliz@@ 0.10504380333006076
Hav@@ 0.09863646111659981
ado@@ 0.12852933333734506
apo@@ 0.03314178855384518
cy@@ 0.05838415830706664
Kit@@ 0.1501937272173754
mot@@ 0.01965565157841091
oz@@ 0.08136612252753586
ń@@ 0.2268186599254848
к 0.004815656546314022
xim@@ 0.028405751615707575
Sher@@ 0.11567630496894563
hal@@ 0.022731186987296103
gia 0.03624343485860656
los 0.002803871588415776
éri@@ 0.01901851769058644
с@@ 0.003920641764836591
gh@@ 0.0657437246043956
mix@@ 0.06424629578131506
oro 0.11151396465511315
yon@@ 0.07978805702937074
ë 0.4011022030736887
Fern@@ 0.042740865683666404
esp@@ 0.021768756857968898
Bud@@ 0.06953716523510273
Europa 0.07750605568428774
Simon 0.12242666509511221
ede@@ 0.3560791980330806
esta 0.02338912882388137
even 0.03168352110884058
Am 0.026648632280702574
Kre@@ 0.033960665711848276
lit@@ 0.030628937221491792
sch 0.03631336257409829
uri 0.07296131069766607
в 0.000980605455253607
ва 0.012685593833737794
Chap@@ 0.09497627526793374
Sem@@ 0.07763715092514907
ects 0.02373269726029162
Ö@@ 0.05529866479708944
Bou@@ 0.11251288913804676
Cle@@ 0.09676626595104211
Kl@@ 0.041140333505883656
Wa@@ 0.16003870773878062
ren@@ 0.011807339539243141
udi@@ 0.07211147462047313
ía 0.007704153785145727
Bib@@ 0.09615220644269652
He 0.0038242024173212167
Tit@@ 0.08054049926162958
eu 0.047661863491446944
shire 0.04588007625686804
Д@@ 0.011810175421010023
Blan@@ 0.10124029956020887
Chem@@ 0.11042591867611035
da@@ 0.09255825979733502
ext 0.3169245970597013
ference 0.047617647392641974
ween 0.13853244902286843
When 0.03376032290518618
Roy@@ 0.11367013121044155
les@@ 0.033760495757316315
él@@ 0.016158473456276405
197@@ 0.07817472701982088
avi@@ 0.06447885064264804
mas 0.09052755493447444
not 0.005639094633905105
у@@ 0.004408015503305889
† 0.04132771769661626
193@@ 0.1444470383710123
Radi@@ 0.13735681329346996
ité 0.010294923066242944
Tod@@ 0.08911918676405081
ating 0.01207262236826397
lers 0.05129388563069661
ont@@ 0.045071790722793194
rem@@ 0.020950742348192327
ɪ@@ 1
Ф@@ 0.019610602120264612
ἡ@@ 1
Comp@@ 0.1133476681286257
José 0.056833156875118196
bi 0.09372642054771342
dren 0.20386352953347756
tho@@ 0.03211512254043107
л@@ 0.00651570412619872
ль@@ 0.004872332712236569
Tou@@ 0.1181227903261
mis@@ 0.012476774270977698
syn@@ 0.048256901796886166
ś@@ 0.29681495573855654
depend@@ 0.05344041992875877
hie 0.0648832942187318
й@@ 0.0062217165669621426
Mand@@ 0.1124971122067729
ag 0.10887687927513802
ide@@ 0.04120524896022852
onom@@ 0.042323314591253665
ume 0.04191999700880898
öl@@ 0.02845616686161397
ül@@ 0.035449823021741586
ն@@ 1
Archit@@ 0.07532926254587058
Francisco 0.05603256799341617
Revol@@ 0.07239681876278213
Tan@@ 0.0921344903278002
annes 0.09289013985740223
out@@ 0.021420470473176814
е 0.00345331511777778
Barr@@ 0.10311952425059627
Buc@@ 0.09734033903675207
Kun@@ 0.049062321029671827
Sau@@ 0.08815626252702213
V. 0.08772612977310855
not@@ 0.013270847247721247
ès 0.028355280052558447
via 0.04199210500105728
а 0.009197301725459437
bil@@ 0.012768954267335706
ches 0.016913515453206945
ig 0.03444816854858694
Ş@@ 0.1160178471693306
ἑ@@ 1
fil@@ 0.02224490500694921
ская 0.01761030069678993
Anti@@ 0.08225007954302993
ла@@ 0.010831407991910954
Kam@@ 0.07231634872787254
ὀ@@ 1
Ash@@ 0.09403197435627604
Rud@@ 0.10809123818102202
ache 0.04529764714466346
if 0.026656231103764378
emati@@ 0.044950749090418365
grap@@ 0.0337697699633015
unter 0.012478147318228692
Lat@@ 0.06595154105137684
So 0.06169266547659504
arc@@ 0.11186850522573173
м@@ 0.005994178562833969
् 0.002826038222282339
Prin@@ 0.08525166733180742
elo 0.0840116111893614
mont 0.06896909708237191
prim@@ 0.016901530273817557
vin@@ 0.07048176176643345
dis 0.09021229421854447
Anne 0.10927991821883982
Juan 0.05254439769831454
Lake 0.05342922974535619
Rou@@ 0.04225547684841322
chen 0.014540167856772214
cia 0.1053724607760234
fal@@ 0.04397824560693684
nor@@ 0.013619650512531414
oli 0.19312994567314454
org@@ 0.058214313229484525
ories 0.03777810230055953
uno 0.035331644938932094
Der@@ 0.06466210352068835
ebr@@ 0.06260898830797625
gal@@ 0.04357833364271314
,000 0.06773000834156356
Sig@@ 0.10980450067669284
ules 0.053828229261975016
ï@@ 0.02789007757019622
ʲ@@ 1
≤ 1
arti@@ 0.02107623615881424
beg@@ 0.01655631433465071
bury 0.07525587555266901
iti 0.16748328462469325
mal@@ 0.024148223471945316
trol 0.18326941680919628
Empire 0.06329721162099526
eer 0.03533235289407763
esa 0.04303067604809343
gi 0.16313663398551514
pa@@ 0.025919311281887666
anta 0.06663092897212868
hol@@ 0.023233815486087384
water 0.027028653448495626
Centre 0.06932142604625888
Organ@@ 0.05097795140437671
Som@@ 0.0415398141170181
body 0.044235508813014204
hom@@ 0.021906337588194262
lad@@ 0.04020562971577339
abr@@ 0.0488321819167331
lum 0.13342969253193818
progr@@ 0.025513834951088683
я 0.006297651948247813
bs 0.03428404893787464
dri@@ 0.033642798695115446
iga 0.12892017206710282
section 0.04293381258449664
verse 0.04597558367175458
vor 0.015198098550133812
wo@@ 0.036792447834606036
yst@@ 0.06998488724120745
Serie 0.09136424511626476
polit@@ 0.07474337123938876
ი@@ 1
Hab@@ 0.08349344848817564
Ober@@ 0.02827123608431597
ev 0.100949079653976
hor@@ 0.02454068024802429
nu@@ 0.03994861844783025
sum@@ 0.02871458413453998
μπουμ 1
DR 0.10066915872925664
Tak@@ 0.081702002078051
Universit@@ 0.07505829279545148
heim 0.06662329026754372
ishi 0.25722584947435256
pon 0.040795887989770754
var@@ 0.05528757341312043
ī 0.30551815331342835
dern 0.03902587454657518
sions 0.026897443081395588
М@@ 0.013145252019794234
ло@@ 0.006587089925647775
From 0.03595631533737997
Moh@@ 0.08392431454318372
aun@@ 0.07468851888589668
polis 0.09867047891536268
ustri@@ 0.09061782896876522
vis@@ 0.01326171552048973
für 0.004233258600844486
ju@@ 0.020477063747392294
kil@@ 0.045613251520379476
Ant@@ 0.10979886258198118
ación 0.004225478527114704
don@@ 0.03085240499402285
lem 0.06286823504333833
о@@ 0.0041414050982007495
Lis@@ 0.1342963241951302
eu@@ 0.08701947346286987
ident 0.018838140169660164
án@@ 0.026338688974533793
ἱ@@ 1
esi 0.05180931700429291
ses 0.008035417668168848
Conn@@ 0.06452901127817855
Les@@ 0.10056892362420751
ham@@ 0.08460736057970214
California 0.03330908399170565
ills 0.050522510139844136
tol@@ 0.06476537126228861
tom@@ 0.02050301300728363
Ah@@ 0.07583598407811344
Educ@@ 0.04877784180563881
Ki@@ 0.06344499293635929
Olympi@@ 0.06948241844101806
ete 0.024882954062372974
nia 0.11932157945443733
tern@@ 0.06850525190889221
that 0.0016198463831842735
urt 0.03087979077681228
yd@@ 0.1153408988391587
Scot@@ 0.03812140669869998
was 0.0007076357773967447
Ξ 1
ἱ 1
Nat@@ 0.11924078153556819
Jose@@ 0.10311987190161684
Mun@@ 0.06887302402367036
Rad@@ 0.07269903278673344
Rail@@ 0.0475474503822709
Tab@@ 0.10131069466345444
esti@@ 0.023291146049956496
imb@@ 0.0776327335233542
sian 0.026634715782268448
Esp@@ 0.04954009491550646
esse 0.03295011332277741
д@@ 0.004927781187242758
After 0.013173137358851783
Hat@@ 0.17837971111162884
bun@@ 0.05469976566995851
ishing 0.04220574123751452
Á@@ 0.04873445261040752
Č@@ 0.23431036403689298
″ 0.9451913958239831
Sant@@ 0.08861051984911743
Sup@@ 0.1242480354195562
gs 0.02757077462033666
world 0.024465477847202963
yer 0.0422846837095541
zen 0.027243993269426652
Mod@@ 0.06887964380170461
Stre@@ 0.07570710515824428
ido 0.012040373159335335
ty@@ 0.05259163736425485
Г@@ 0.011139309644290307
к@@ 0.006990355371972585
Rum@@ 0.14270339479226143
Thi@@ 0.0986719808092937
egr@@ 0.06931193024490763
pun@@ 0.044440218507915116
ն 1
bar 0.03217896369628036
craft 0.04465812120253117
aud 0.08920184973749605
blo@@ 0.0514663394777208
sim@@ 0.019901670173946392
super@@ 0.033626810200902815
tia 0.09828495047275806
wn@@ 0.04650697947891797
Ό 1
August 0.011819856717701931
Gas@@ 0.10257714512431412
otte 0.06568892412360813
din 0.1379654348454158
евич 0.06346666647068654
Nati@@ 0.06994941929945415
Var@@ 0.09519529461720619
auf@@ 0.00696537013117207
bon 0.06088543056931028
cha 0.02616894944631916
position 0.016027030266174486
Б@@ 0.01297304568019369
Carol@@ 0.049981868614935435
Deb@@ 0.0634049274796235
aise 0.0612738283722141
imo 0.10482938647262836
san@@ 0.046298077729263344
î@@ 0.030482784805936816
DV@@ 0.37043360883979953
H. 0.07919865853007413
Sul@@ 0.08695368913095769
asti@@ 0.061752460602592804
vid@@ 0.02425551298659234
Et@@ 0.08567033166086362
anti 0.05542903202290513
bot@@ 0.03911934888149723
dor@@ 0.048174648069761884
eder@@ 0.022948963047886933
adr@@ 0.035820433443008566
ands 0.025175587536744617
lig@@ 0.026529333815825156
ę@@ 0.20356839811300054
Anton@@ 0.20951844674632575
Franz 0.1011393268712998
WW@@ 0.26155275996378696
nationale 0.038560296690585895
ago 0.05238165351636067
atin 0.0547541118381298
aut 0.026075283068834585
com 0.20991694393889138
š 0.235945452841868
cell@@ 0.04546636268267637
ener 0.037806180233291874
stand@@ 0.01770636331467179
Centr@@ 0.10125719013632341
bet@@ 0.029134315747410384
pin@@ 0.054068919292009375
proc@@ 0.017493397518177353
Indi@@ 0.03077650790993015
Syn@@ 0.06805514496037514
There 0.018882317034356926
aha 0.15910668132218508
cip@@ 0.044406235728012236
class 0.03869975244251759
mak@@ 0.03327276182072287
ñ@@ 0.03048608139119128
Ή 1
lar 0.0237129422337752
Church 0.03233989069047699
Pil@@ 0.0853888676456839
bon@@ 0.07689350456715521
sem@@ 0.019338433440823904
ւ@@ 1
Album 0.07396811234670482
Hit@@ 0.08662908478762707
anth@@ 0.05607702785445233
eti 0.11422501743428641
urg 0.04011621364385065
uss@@ 0.028467921466187797
а@@ 0.007223234589340879
т 0.004450641372570497
Pom@@ 0.09778215292835411
book 0.025774782944517897
eine 0.0037618416879851486
eno 0.06775214988613867
ē@@ 0.540996503731609
Flor@@ 0.08643743326819377
Tok@@ 0.09303086861499373
endi 0.2279782824948469
och@@ 0.059765037060091855
stat@@ 0.020092974428824937
Ἑ@@ 1
Ander@@ 0.07504177501510344
can 0.009345750769493599
nis 0.03267950354695509
ords 0.031389684423640755
tura 0.02696311161766323
zu 0.003612717222842241
anci@@ 0.026207450060277346
führ@@ 0.025095956774743796
kom@@ 0.019760347937326405
wer 0.030280058062037922
Kol@@ 0.05084703664296656
win@@ 0.02545277078760297
ye@@ 0.03967338726105422
Ky@@ 0.1057431633138763
fu@@ 0.017251712622907832
gro@@ 0.015024164396007208
mid@@ 0.03660998932581532
semb@@ 0.03150021271837182
ji@@ 0.10312637455007223
kan 0.11635832350210525
mission 0.016454852489348484
sons 0.046197840491290776
Kos@@ 0.10752740419372822
Nacional 0.051975248992599664
ango 0.12205477866331968
band 0.013953920633449466
vers@@ 0.01872674398928978
yan@@ 0.06452469834281224
ш@@ 0.006304756536234098
Japan 0.03767259203018547
Kap@@ 0.04915730083842566
tal 0.05469639805827133
urn@@ 0.05712297375306101
Ku@@ 0.07874357296175655
Sach@@ 0.0900985219697394
Zi@@ 0.051307814077457485
jam@@ 0.062464087459268965
orio 0.05681321515685314
studio 0.04816646734962716
uh@@ 0.04240135616796434
Italia 0.12587925509861142
nov@@ 0.025071222459348147
olo@@ 0.12181066866858808
Council 0.03182758384288733
idi@@ 0.03515789983997622
mula 0.18107416177983207
onne 0.03701978599347186
@ 0.5563070553150846
Domin@@ 0.08545771528720134
Ges@@ 0.02222783661874878
Sport@@ 0.07326880294572834
aves 0.03214385191320232
car 0.024760993836800985
eck@@ 0.04704907032084448
ierra 0.09801045772258495
oa 0.07095430798339682
з@@ 0.005929543903041665
Way@@ 0.15417114228342021
Yor@@ 0.10533494790360515
ken@@ 0.030735151986224292
ump@@ 0.042658859305220266
Beh@@ 0.0816924681905412
Greg@@ 0.10442812417964083
ett@@ 0.03270829473548731
fic@@ 0.01398167322640998
kel@@ 0.05732182472475292
ῃ 1
Sain@@ 0.0760522714423548
bers 0.04058801015866014
eli 0.06724692244733543
formation 0.03191025553511432
ский 0.007500520367707569
Abr@@ 0.10085623186351966
lot 0.03443036140779773
lov@@ 0.06438815245003361
mit 0.0023653774693117836
new 0.008357473409265872
ous@@ 0.07106671937475346
sych@@ 0.046679451482262185
ла 0.005004979149140215
jo@@ 0.025768909954084453
pes 0.0286251943752409
sig@@ 0.014035002645805676
ра@@ 0.005625773928381927
ի@@ 1
Carlos 0.06307830315904556
self 0.015661509560201854
tan 0.04715933898937124
tha 0.10370345371200539
uni@@ 0.015476169733337942
Canada 0.026976098087041458
Din@@ 0.10754093068574527
iko 0.10207217187417911
oy 0.12206112113491568
pat@@ 0.031691160731946486
sia 0.04129467357447595
ells 0.04600459827950282
enburg 0.08040789450574103
main 0.017101074804535734
Ré@@ 0.031883264245612886
ologi@@ 0.038567405957525426
pul@@ 0.02563165608504607
ues 0.02987977659083169
ult@@ 0.01865991287548446
ą@@ 0.28178880782795535
Т@@ 0.01095567335248614
ird 0.12786469094390457
medi@@ 0.009273948820756491
ose 0.05845330591634329
wan@@ 0.04315229310498612
на@@ 0.003928362300843887
192@@ 1
English 0.02320135329842718
dal@@ 0.08498301836209922
idi 0.1116670993748096
ovi@@ 0.0574872411256431
ères 0.019811187075196888
Ben 0.09886298924061387
Gru@@ 0.048135187328139095
igo 0.08437441059723269
kel 0.05559874594289537
oper@@ 0.00965203512124172
prise 0.04248770452844237
umb@@ 0.052075432183841246
ár@@ 0.049907606776273206
Kaz@@ 0.10138581604950811
Pier@@ 0.16847856414223655
adem@@ 0.04204452091429001
ancia 0.05431150769517183
aqu@@ 0.03369977098687607
imi 0.1317742973120847
works 0.0253343478461777
active 0.038912925669076066
aza 0.04433041396822495
has@@ 0.10227575972820703
ien 0.011155966896693908
ites 0.03065338229822933
omb@@ 0.04428623283140031
za@@ 0.1459532843904836
и@@ 0.0063528852940338875
.S. 0.2434256634126209
coun@@ 0.01107604577551362
о 0.0073910110755139626
Kas@@ 0.07120552625265321
dium 0.11461565435032074
kon@@ 0.018270634511059362
sk 0.07951186477831632
à@@ 0.37098487014351944
ни@@ 0.0041860011511850705
ὁ@@ 1
ho 0.13420779138125716
lor@@ 0.10627870361182745
т@@ 0.003873239984019374
190@@ 0.36273723257671275
aly@@ 0.036088757080278804
prot@@ 0.009437456677822155
vil@@ 0.05252449667363859
är@@ 0.013444764884006774
Hein@@ 0.12598594726718537
c. 0.10169663400051587
ographi@@ 0.05938505430351048
Brand@@ 0.08329951792529439
Bundes@@ 0.02691771229269265
Haz@@ 0.2074229984143619
aul@@ 0.07529670283769761
ember 0.1114057109971356
ène 0.03429139180368692
Ἰ@@ 1
Bah@@ 0.02580014915826946
Willi@@ 0.13276589781648807
erie 0.0550856919845705
pri@@ 0.019569996218342427
round 0.026328530979865476
ακολ@@ 1
א@@ 1
four 0.01288745604017066
ingo 0.125761226030572
osp@@ 0.06387267272482088
tres 0.015206869404516562
wen@@ 0.022777302003267625
ames 0.09227159122768765
entr@@ 0.009891503455712115
opp@@ 0.040701157844017614
ὡ@@ 1
Sak@@ 0.11363542609671515
aine 0.0188545354366498
asi 0.09590392747528259
mun@@ 0.029358150259040046
uld 0.03473039319786766
States 0.011543023168048793
aco 0.08249376436302122
ency 0.02502272449244021
plic@@ 0.021670499397308227
post 0.039442983748863715
Europ@@ 0.04314074704619737
Hir@@ 0.07961992784528503
Seb@@ 0.10334091623318047
ament 0.03612003554323296
gan 0.07494628108323527
get 0.02616512284954606
kol@@ 0.09350785686844496
two 0.004568894118151933
var 0.128726034086082
Jos@@ 0.10591337764846477
Lag@@ 0.07863314673452967
Lon@@ 0.170293964286119
any@@ 0.042048003067154914
eph@@ 0.08353440268927453
ern 0.010458476597986932
test 0.057263150503956486
─ 0.20625005195040072
Rein@@ 0.057080222817625245
Un 0.028830072260660904
come 0.02637511122648502
iter 0.03464713096372239
tra@@ 0.014742417652120776
enta 0.03705163441363604
form 0.011357528294384514
ior 0.020295560284504254
Profes@@ 0.07540417966874949
gar 0.04387874799089145
grup@@ 0.05794594476089002
stan@@ 0.08837730052580034
adi 0.11319774186497783
lev@@ 0.038373595768252264
ungs@@ 0.006136620609087109
yg@@ 0.09898182010905425
б@@ 0.005887385891407414
Ka@@ 0.10640057223358106
mir@@ 0.04137573649936212
igu@@ 0.021517918800057687
sequ@@ 0.023116658733872066
ü 0.050568873732892386
ū 0.1674734999273768
Christi@@ 0.0855384782717755
County 0.013156044043342445
aba 0.014088092071343273
ait 0.00890798013781961
asse 0.0328545714967972
deg@@ 0.039430361198775944
design 0.03480662346076573
na@@ 0.10434888943390144
vi 0.12842088382628078
ê@@ 0.014342200002051435
Historia 0.06110526194295265
bis 0.0051184645584833105
ecture 0.03604248163156868
esh 0.061118657904931546
gir@@ 0.03305503909300608
group 0.014833862039372385
ij@@ 0.06272759777538896
ires 0.020412111253523015
onz@@ 0.06058612657663255
ко 0.01655977795776417
რ@@ 1
fun@@ 0.019959149130634617
ἴ@@ 1
Berlin 0.024495564713875314
Name 0.051589868265384455
ational 0.031783464626908155
ici 0.11791057191986086
site 0.016541652832278392
ste 0.018241548157126815
viv@@ 0.029416095860080066
yo@@ 0.02112945248941596
ь@@ 0.007066335978773844
Das 0.008238478764163166
chester 0.04648429967457938
icia 0.07907281003212696
ner@@ 0.019418811507604713
Bed@@ 0.07646293987847266
cou@@ 0.02046767233319345
law 0.02405439598331013
Boston 0.059012940858419086
Jes@@ 0.05005840623152878
ister@@ 0.02039432314156805
nom@@ 0.021135733922352476
power 0.025886266734822853
Democ@@ 0.03742940931265541
Nak@@ 0.14226069423685855
alt 0.041440246228308206
amar@@ 0.11045299638455656
elt 0.012033856457398002
Gö@@ 0.07861927523684102
sor@@ 0.014418234549350156
Hau@@ 0.07830195673507549
Tek@@ 0.2742928816722838
fon@@ 0.026475106219230132
ku 0.1561734413499268
solo 0.030636889882466028
span 0.17860872363949867
tier 0.054027346719455444
tique 0.025048659431008733
under 0.007675577148202326
van@@ 0.08877653761096471
ר@@ 1
ー@@ 1
At 0.01481950623118946
alog@@ 0.046082397710439836
liv@@ 0.01888540794408625
Hosp@@ 0.057356955698870365
Milit@@ 0.04203542655939264
Vik@@ 0.09905214871159787
inda 0.23576630659393186
net@@ 0.029133431354370742
ე@@ 1
Bad@@ 0.0782391342745308
bau@@ 0.02703957210815083
ective 0.028864178488139398
iri 0.11567121774257913
life 0.011084282295001815
uta 0.07210384787647726
María 0.06247466119051281
Ny@@ 0.1639144789718818
ander@@ 0.03195475568818812
bara 0.1122290597767909
eron 0.024069405294687263
isi 0.04579312536058023
rie 0.07790776287121333
tab@@ 0.0357795586238645
tural 0.021792436470353414
ute 0.022652552889031275
1. 0.015375004920219225
cho@@ 0.0221781611880236
dit 0.03429169403211953
dle 0.032450557958407344
eni 0.11277375550420712
eva 0.08751280778125786
lag 0.029345529437630774
ppe 0.07414365879923256
rich@@ 0.016976371781379552
sburg 0.06230968666191846
system 0.015815666281913346
uz 0.1001832828480021
xi@@ 0.09553004446785841
յ@@ 1
--@@ 0.5341354207283339
Ein@@ 0.010771489948334592
Franç@@ 0.12900230903238857
Micro@@ 0.206890136862593
Parti@@ 0.06871019393692716
Leb@@ 0.07426742911278926
abl@@ 0.025437737680142063
hab@@ 0.017828953053790262
nati@@ 0.02764389436626566
oir 0.04488367636370719
ui 0.08611072740382711
yi 0.08000812401631247
ı 0.019039224392306247
Um@@ 0.02894723863391792
any 0.014935405171262938
ben 0.013893196864646642
club 0.011538277582492842
mar 0.05155349197051105
uk 0.08396293275643034
ò@@ 0.28771554647442893
Cant@@ 0.12216396738109989
Lan@@ 0.06245161505901361
Yah@@ 0.22334652499715457
kan@@ 0.03497304090603794
min 0.09776174126645612
oi 0.08463712782774799
prop@@ 0.0123282919698611
sou@@ 0.010969492088575878
stant@@ 0.07521693820057553
ż@@ 0.32132337952157286
ри@@ 0.0042933051869597045
Bec@@ 0.05270409934728781
Jam@@ 0.06467460252217741
dez 0.0666248138898831
edr@@ 0.03381924505266309
ges@@ 0.010347523025808556
han 0.02931171859753202
mir 0.06712198178337585
usi@@ 0.03165377706493686
vat@@ 0.1021420383049575
ş 0.07981690941036228
Has@@ 0.07817115051322218
Id@@ 0.09007777443262474
aca 0.06886386570941114
illo 0.042901623446382306
neg@@ 0.02155594244370656
nier 0.0648314370671527
ín 0.0348080850222227
ко@@ 0.004196858711816412
Р@@ 0.012973492858648048
Aug@@ 0.06658043742175215
aliz@@ 0.014603716537877776
lan 0.08436096476305648
lek@@ 0.07463406014347483
retur@@ 0.024279414818644072
rup@@ 0.030937054675742207
ule 0.023725047238918284
ὕ@@ 1
Kad@@ 0.10551358523268772
Kul@@ 0.05107302477392013
Mut@@ 0.052800682180094045
Was@@ 0.1630514918443111
Wes@@ 0.0650300012005087
añ@@ 0.033507902038289926
ck@@ 0.03980522462381233
ehr@@ 0.02131126665645987
Wan@@ 0.3155610680506195
ben@@ 0.01603596393577018
eds 0.032501171863882954
ological 0.028355230427154807
osh@@ 0.1141401475669979
sin 0.02510150954578343
tera 0.059797940161369655
vie@@ 0.01647455531977811
е@@ 0.005666251201519757
ре@@ 0.003283165542656264
Arg@@ 0.09143888962936822
Sult@@ 0.15110061085126872
bot 0.07604391723181647
eff@@ 0.010669399144924504
flu@@ 0.03874551862827084
hon@@ 0.018575253461416436
iles 0.04810685585430287
Ü@@ 0.05852947713091914
Pad@@ 0.0765528279624598
aa 0.1514149857085637
hips 0.017444798196892233
hum@@ 0.011598474125102055
ops 0.027098564953160237
play@@ 0.013232022049756894
sm@@ 0.03947493160395528
ი 1
0s 0.010036321745363747
Roman 0.035752966331341514
ape 0.05039713751632614
enf@@ 0.024319838037907916
geh@@ 0.017588826342231818
kur@@ 0.020768178054963754
mittee 0.029557418011004633
French 0.018489073323996612
L. 0.07082713741435843
Tol@@ 0.06964052155405041
bin 0.08625489506661072
iter@@ 0.06603024355194467
pas@@ 0.012145342022678888
xe 0.04635804902126477
ὄ@@ 1
ὶ@@ 1
Premi@@ 0.0428050639779546
fo 0.0979663076889897
ift 0.11999369280018313
into 0.005076807900971238
lé@@ 0.03786578306369809
mol@@ 0.03568631078953867
ton@@ 0.044810594514833005
May 0.01111622151792082
ling@@ 0.07059835552241651
mt@@ 0.19066151718288146
nch@@ 0.05231597879177927
unds 0.028626284198701283
ò 0.11445613051515265
ы@@ 0.008900147673041321
া@@ 1
alen 0.04034479883398333
gel@@ 0.007622663156275426
ists 0.014737358559073153
onder@@ 0.08439673826654175
teri@@ 0.038638885380627035
Academ@@ 0.09344240116225604
B. 0.030302214729816934
She 0.00793827729672308
Texas 0.03420995386454416
aume 0.05224862037527069
board 0.03522683076091866
qua 0.058554897927310307
vit@@ 0.06409748691762715
ɛ@@ 1
Ϊ@@ 1
ave@@ 0.0760546190199435
opo@@ 0.10104154499517366
point 0.018019584075267926
rac@@ 0.020234339755861763
stor@@ 0.029448999206981814
uer@@ 0.02337005777948212
до@@ 0.0038094085034670977
ле@@ 0.0038147538743349236
chan@@ 0.019374213767698854
ender 0.0254128616145615
ities 0.023448857784744807
onal@@ 0.035271421821110156
pen 0.04202906891468555
rier 0.054402974660638155
trac@@ 0.022387028818676873
Fir@@ 0.06240690558275961
Pedro 0.06761523355999412
spec@@ 0.016352723145347813
tam@@ 0.034290158898909504
õ@@ 0.2152320857158849
г@@ 0.004840721780221538
Chin@@ 0.029218023563926408
Las 0.021421501593325263
dh@@ 0.04415028625329821
eria 0.0852767973391872
hin@@ 0.013326722991767667
Н@@ 0.013628318170382703
Africa 0.03834922967721845
bin@@ 0.038034168762802564
bol@@ 0.051469246752612136
bri@@ 0.01839416367268584
burg@@ 0.04380422248338541
icul@@ 0.027441809668102946
ilia 0.1428410587823035
mul@@ 0.037918262964851866
oca 0.1025100033721548
uli 0.2230463412555912
У@@ 0.00835113143444526
ли@@ 0.003365597249251462
мо@@ 0.004131163503252108
Portu@@ 0.03840356369826002
hil 0.12935966273534436
inae 0.12393621649794757
lier 0.022106092553491986
rea 0.03647268330071198
п@@ 0.00578669383414302
Dal@@ 0.08131998334797057
Dé@@ 0.03519165165472361
lab@@ 0.02178925271402866
som@@ 0.030459697918677982
vier 0.02176806665728269
Tenn@@ 0.05220928899335572
abe 0.031196578381395366
bu 0.02751232023845501
dre@@ 0.02703833489918956
lav@@ 0.049174846588218454
ned 0.010642903931953602
ography 0.021522070036883844
pour 0.002910200798294358
ulu 0.10990665266183643
у 0.003990303508652023
Frank@@ 0.05381131133640565
Ni 0.5284067200496788
ael 0.1007087588137277
iz 0.04446950301645097
ley@@ 0.06522529002581251
л 0.0024857084304174765
By 0.024553498174277922
Manuel 0.06924212811352691
Ou@@ 0.06030928938661136
Wag@@ 0.09724471928750322
bac@@ 0.056347376806255164
cam@@ 0.02314700059873224
elles 0.014679541928406628
mark 0.04037671724459281
mem@@ 0.02129831126958183
town 0.012895238654559807
President 0.026449640439610275
Vor@@ 0.009458686388884674
alo 0.07945245394697174
cro@@ 0.019761756632086434
eg 0.028265919620828285
etz@@ 0.01625485374485427
evi@@ 0.1414430279608917
tico 0.018030168739826793
umin@@ 0.05609301060933282
ù 0.12128808934184702
Nord@@ 0.028798469518682715
Papa 0.3414357306495445
agon@@ 0.04100398085056119
ca@@ 0.04022980742784833
cent@@ 0.028972523528152834
hel@@ 0.013635027797465225
like 0.013356323304656869
put 0.029351551582024456
usa 0.07120050151016837
version 0.016936286161600103
è 0.18546717212390165
ğ@@ 0.04074942439438541
ɾ@@ 1
Ми@@ 0.02757037583226719
Son 0.030080563017015973
ador 0.010775419337686656
esh@@ 0.06348005987868707
que@@ 0.0407905337054327
this 0.003785869104950727
ц@@ 0.009201987906647537
Rep@@ 0.1859292768599009
aye 0.06368361730317254
edo 0.05506734726313004
nd@@ 0.07709319468499977
see 0.01761774926117178
spe@@ 0.017157904152381956
wa@@ 0.06176869874927012
ön@@ 0.024938499421126244
Hin@@ 0.04351780104429937
Institut 0.06833476110108795
Neu@@ 0.04231445909179493
Tex@@ 0.055282316445041745
ease 0.01854384063208084
equ@@ 0.020792203840175157
forman@@ 0.16538153569841346
stadt 0.028002830232972963
été 0.0063230372783459115
S. 0.046504218541262195
fort 0.024046826740333933
pic@@ 0.030153769534664355
с 0.0016380135418417442
Ali 0.0722038757835225
England 0.01863164806773945
Hist@@ 0.05504364218928844
def@@ 0.012340683891805784
oti@@ 0.032801971780610055
parti@@ 0.01363097509516593
tt@@ 0.06744664185013159
atro 0.06573889876143427
aut@@ 0.016992219478319408
elen 0.018973039826045923
fas@@ 0.03297482052507616
ud 0.034808204856176306
wil@@ 0.04240407022946799
zer 0.06391421746175696
cri@@ 0.009917310898262482
feld 0.04350214063319917
inga 0.20107993835190044
lim@@ 0.02493082966035252
spr@@ 0.013889513552077865
Е@@ 0.012666863715494579
Army 0.022670056770086877
Beg@@ 0.0237186841669935
Nord 0.04130188576628954
Western 0.030439543662927133
bli@@ 0.04066858356574141
dorf 0.03534545012341866
vie 0.033033368459681696
än@@ 0.009303848569684331
ь 0.007327010952732604
ლ@@ 1
Nob@@ 0.0976767380178146
astr@@ 0.02595130213556617
comm@@ 0.00839726551212135
dam@@ 0.01669629889121731
plat@@ 0.01887578669496661
sci@@ 0.030117886520252067
sort 0.057940778530397745
ма@@ 0.005208957306175054
Gem@@ 0.06345714055200756
aro@@ 0.10994683531178213
asc@@ 0.04511716928406807
chia 0.14464427059773896
inde@@ 0.050232558805053375
ischen 0.0031071277027838037
top@@ 0.05523855933049514
ə 1
ב@@ 1
best 0.018674316428205065
pon@@ 0.017209497078249713
rot@@ 0.029039193782424266
tional 0.012569632786556416
vention 0.03245655083650273
ἦ@@ 1
XX 0.06536428807079318
aer@@ 0.06427514124371828
auer 0.03446330037649149
fore 0.03274287361764602
gan@@ 0.02075413605616844
Öster@@ 0.054028122860169135
го@@ 0.004608181455359199
но@@ 0.0031994290424024133
מ@@ 1
Lig@@ 0.044517814430689084
Liter@@ 0.04731835035064095
Luis 0.05351006531586414
aborat@@ 0.05874343952231245
cons@@ 0.0069679679099499976
par 0.002138208734319448
ка@@ 0.0037496930085478076
∈ 1
Kö@@ 0.036128410605330646
Nag@@ 0.06695826218896132
ares 0.018140449708652955
but@@ 0.022034219533038957
ices 0.024244129308880598
ilk 0.05431620058081638
lip@@ 0.06396764811591868
ment@@ 0.02208601299476785
Olymp@@ 0.027276796979486456
aç@@ 0.04701076756465835
ept@@ 0.039823403821791004
pi 0.17359369303808234
vec@@ 0.06849915602510906
war 0.0024298900882890797
where 0.005505570849601157
dol@@ 0.031509247400890075
gener@@ 0.011844998114121173
home 0.013338790801374697
ney@@ 0.2111587066409048
tak@@ 0.009749846261233078
tran@@ 0.03759447251600962
trong 0.0055532092924899645
ě@@ 0.15211563711297924
я@@ 0.00470136234958718
kul@@ 0.03303313092347513
ogr@@ 0.07232595919764165
rez 0.052334382272223964
ths 0.020063156347301107
ı@@ 0.03524966933511821
I. 0.034414619420780175
isches 0.05426163503774609
leri 0.029792213103791623
ras@@ 0.04429287334430459
urg@@ 0.038668768033637765
м 0.002165382337943101
Arab@@ 0.050455146092232325
Asia 0.05019018936195992
Govern@@ 0.02209884437264046
U.S. 0.01742541980594317
ige 0.009716898644080107
kw@@ 0.08115370847189955
rou@@ 0.0244084333044576
schaft 0.0075626873295822385
tag 0.055583572800859814
ú 0.03314480503618979
大@@ 0.007327020586110996
Kim 0.06949894057733107
Person@@ 0.02799384843660795
control 0.022198327429406944
nam 0.03680206441034277
Ά 1
agne 0.016470638937772123
rain 0.042368989690771436
Pf@@ 0.025307415270324003
away 0.025547648461383837
concep@@ 0.027220344059160725
ej@@ 0.018095838482202344
ün@@ 0.013431439404195526
ț@@ 0.23437266040252117
∞ 1
2. 0.02749286729878748
Riv@@ 0.12615921928137222
dat@@ 0.05038123256911802
estruc@@ 0.06793390718894188
fast 0.03635394729616714
fel@@ 0.025565072887252606
fi 0.18502538137039357
lies 0.024810124139260654
liga 0.0319646307709172
sea 0.027123580087183484
ה@@ 1
Amer@@ 0.041971529493236716
aud@@ 0.05564096539900448
change 0.01892354736104116
dam 0.04191775287236267
film 0.005498938976409287
isch@@ 0.012873401301776471
sing 0.02564443145472894
spir@@ 0.032664966915673
Со@@ 0.011162542378018567
Da 0.04485009197543351
Institu@@ 0.05576707413154222
Roma 0.08604741717418872
ainst 0.28345757102539604
anos 0.022579562836873974
cine 0.04325321855690028
doc@@ 0.021814265459436648
ments 0.01698678228513569
His 0.010726294627656839
ables 0.019242445845303564
alg@@ 0.02368787244276907
contr@@ 0.005736766956408668
dings 0.02337772212311779
ils 0.011077476233911728
kal@@ 0.029986328617276434
phy@@ 0.04123312465055884
ски 0.022818943704531962
Eins@@ 0.040644367965342626
amer@@ 0.034472873924245744
dae 0.07203236506942173
flo@@ 0.019835865863653258
hand@@ 0.01230266811731209
inst@@ 0.014677303440618695
sam@@ 0.047252546365140806
ска 0.021227548363448527
Canadi@@ 0.026492842594770808
acht 0.015483500435938213
aug@@ 0.04207899839378075
dem 0.0017652147069565822
number 0.008901647305336493
pil@@ 0.022396579882322878
unda 0.03443673118947601
ça 0.07567445567306874
ña 0.0380652613500763
Jul@@ 0.12602899850457813
death 0.015408891039227665
ellschaft 0.04027854229038901
este 0.009792554862412883
rich 0.060281099124066026
sel 0.02440626769528043
İ@@ 0.04227298662032166
та@@ 0.004938113986076135
China 0.01937840827084662
bec@@ 0.01919022337966034
mal 0.014805877765956882
ministr@@ 0.027779223689071816
tit@@ 0.019589406057965112
âteau 0.04519485859904281
ди@@ 0.005024495252263099
Nam@@ 0.04757219626684327
antes 0.009488464729592225
dans 0.0018435120501625673
dev@@ 0.011077795394391245
gal 0.05137888502565836
multi@@ 0.02515247946800657
tut@@ 0.035650142902116363
χρι 1
Алек@@ 0.06662732095816991
ἁ@@ 1
Carr@@ 0.06870830791169588
Virginia 0.03391473389365483
igh 0.08072018917221975
liber@@ 0.027596114145285493
lit 0.03102907420149856
qui 0.0027482815000568774
ron@@ 0.02678298420423479
ses@@ 0.02616776174300051
Hung@@ 0.04735800082744978
amo 0.07796513521180248
els@@ 0.022260564275063673
imi@@ 0.04289446056602631
ional 0.02795160532070488
pedi@@ 0.05971725142378227
poli@@ 0.03373943739666908
ór@@ 0.02544536017004712
ö 0.14657758164672746
Ital@@ 0.026135675352453612
allas 0.0588088843602507
aver@@ 0.017600516760288745
icro@@ 0.053497147856398475
ées 0.005281369723943723
≥ 1
Stra@@ 0.04477184566441851
cit@@ 0.030696100683039237
his 0.0011206060498913989
mad 0.05612141099363319
ording 0.02141367196710356
plan 0.023178389399263727
unge 0.08566882952269535
ás 0.02986270194652471
Ко@@ 0.00977896761230352
Alex@@ 0.11107970146743114
Con 0.04650435362721401
aining 0.01430071850735763
ext@@ 0.01851580318193539
haus 0.045810924388222464
med 0.06115614256220019
pur@@ 0.011083988283559481
sac@@ 0.0327042194659504
Ὀ@@ 1
ῖ 1
Bun@@ 0.06587588677923059
chin@@ 0.03990193916390007
cos@@ 0.05292350396146448
isch 0.011160990354310325
km@@ 0.033173682079667643
trol@@ 0.037703042141209925
տ@@ 1
ه@@ 0.018348641955566083
March 0.00898381381009563
enci@@ 0.01892638551137028
rat 0.03828270604217837
ţ@@ 0.8124463274808711
ș@@ 0.11138170808752945
ל@@ 1
ه 0.020566895018034305
Gel@@ 0.036141063875515224
Krieg@@ 0.033311327247678366
König@@ 0.03493711353185479
Spi@@ 0.016480118929899534
dar@@ 0.009172395974781193
eux 0.018468243288520085
rent 0.018700359537772132
ῶ 1
ises 0.021686292815424044
real 0.02876466823733897
д 0.004979479955944036
― 0.34214481861179574
aja 0.044442898397291104
ough@@ 0.014928291918829346
uki 0.10992832545323897
ég@@ 0.013009552665356892
ש@@ 1
African 0.028797477095796786
Yo@@ 0.09839379647002006
ias 0.042474951266817274
mes@@ 0.01788856626858691
nos 0.043858154126800386
peti@@ 0.01717592853453901
schule 0.030271459454903917
utz@@ 0.013571421328637449
ἕ@@ 1
ᾳ 1
Austr@@ 0.024255937119435023
Ok@@ 0.06630109174949893
aces 0.031091605634857186
ball@@ 0.024884661732751567
chem@@ 0.025826410444963123
cial 0.013610421635798647
dos 0.008648258121539779
dér@@ 0.047292723175552595
eur@@ 0.03098487921140892
wards 0.018671593411632503
ř@@ 0.08991175026112053
„ 0.00303360495408005
En 0.002111908524456411
arte 0.07131755532956424
chil@@ 0.021354117651949278
game 0.009290710107966614
iste 0.013591733943596895
mut@@ 0.022603821441471165
Gran 0.07289562581573716
isp@@ 0.1112661147915147
tif@@ 0.02395854641797941
Л@@ 0.01075173717422526
188@@ 0.24121090111778185
Baz@@ 0.14412691637376707
J. 0.026765195017484724
Kais@@ 0.04193539697203982
artic@@ 0.020537321278398118
cont@@ 0.007014792103117122
eb 0.03856554807693336
lec@@ 0.03893809228254796
rif@@ 0.021181125719028873
road 0.01607531704089895
ural 0.02142211314900537
camp@@ 0.007799214958789301
dur@@ 0.016174906152379848
eil 0.04780496321752698
tn@@ 0.05031753305140276
ć@@ 0.22584883479259582
ნ@@ 1
Jug@@ 0.04140092335697045
isco 0.28866618383006304
main@@ 0.016318349514496604
pap@@ 0.016370511985020233
sour@@ 0.016321577193505542
ì 0.07287887084935359
Ž@@ 0.16397567463902263
х@@ 0.005437122718738173
Emp@@ 0.07060033094636979
Milli@@ 0.032208374634296655
Su 0.020190206937036992
fen@@ 0.040007969394149245
xa 0.11845583756200949
éro@@ 0.02345654718924464
Ц@@ 0.020830879393051765
нович 0.0545058890280814
ს@@ 1
ン@@ 1
Ji@@ 0.08731728270251915
fir@@ 0.013456397554770178
igan 0.03451338718763713
isse 0.017096929910139624
nav@@ 0.017703840181897284
rique 0.042445768007501106
tir@@ 0.024381914321254784
utz 0.0491857860851943
З@@ 0.011641122728321053
ד@@ 1
ى 0.034102007948657975
Mann@@ 0.04623768356965019
Migu@@ 0.06481820982813075
Penn@@ 0.033379336161456524
R. 0.04412394975807604
chr@@ 0.05427270146309679
itation 0.03260470304028768
mand@@ 0.02288625823317006
quit@@ 0.021350504070158406
187@@ 0.2764328318227281
Bang@@ 0.046317937711114344
adel@@ 0.03100121841533519
but 0.0025098019832662435
itung 0.024585220090851442
ligh@@ 0.02095801719700893
mad@@ 0.02523631447958505
player 0.017326459061379782
sed 0.015449435931199396
sis 0.10802537671106563
͵ 1
◊ 1
Alg@@ 0.050043531239425745
Sin 0.037455430921043975
amba 0.12620447343154886
essen 0.04358996668649937
ingu@@ 0.025115107554424695
milit@@ 0.01646463522789161
och 0.05911065550347177
ologie 0.015488860386917888
partment 0.016479149136592437
pot@@ 0.016732638736413095
state 0.008177314239169243
ч@@ 0.003262457792887413
Australian 0.021318779764002826
endi@@ 0.03006696142000167
fle@@ 0.02093567331167234
gang 0.024901436081031007
quar@@ 0.016044404938277808
ás@@ 0.034266983418772566
ɣ@@ 1
נ@@ 1
♦ 1
F. 0.048599859625275715
Fam@@ 0.11469418248141137
alla 0.031179247922149437
amu 0.23852071782893364
atri@@ 0.040940000150735394
boy@@ 0.046413055393000016
einer 0.003861600590532156
enh@@ 0.025407939095522154
ize 0.031221209005567616
stand 0.01183639474789362
tific@@ 0.04473952857352193
uj@@ 0.14946994130169586
vari@@ 0.009003828559080416
üt@@ 0.02070379721709309
ан@@ 0.005165477220263077
і 0.8140872079752881
189@@ 0.24868646350238136
3. 0.04002921198087139
Australia 0.016016304786571563
KK 0.2689200418946697
eas@@ 0.016784475014418248
itt 0.07286357045362109
ought 0.010188785228284213
rio 0.06683910328301555
éc@@ 0.020514549901017948
ба@@ 0.007357030161390817
ра 0.004949967751956924
Hak@@ 0.12552606254137505
Jack@@ 0.0900715775689997
Schl@@ 0.03903008945798991
Schwar@@ 0.051821457199172936
ements 0.008103319184576734
identi@@ 0.008778283356155861
kir@@ 0.04442185250525292
lob@@ 0.037639291055748814
ев@@ 0.023165101880235586
anza 0.040975728248693624
eler 0.0166452826000988
por 0.00164660197891322
ris@@ 0.02278997101620077
tec@@ 0.04501133674331516
бо@@ 0.004588530155144892
ти@@ 0.003648457409869925
Ord@@ 0.06317213243576826
bia 0.06381804549768522
edit@@ 0.021780846326572265
ismo 0.023051692020608815
pis@@ 0.026122440712850897
reich@@ 0.014083344284842753
ungen 0.0034163479350980005
ő@@ 0.3423244507838283
би@@ 0.007344510450720464
ва@@ 0.003029379818216403
Ost@@ 0.039546586163131156
aland 0.02840548697841143
esia 0.08748960093197619
ony@@ 0.027525965690807123
ority 0.01620309071128973
part@@ 0.013260288905376925
prom@@ 0.0082250628873104
syst@@ 0.019582008642123335
ui@@ 0.09594396150076183
wing 0.013234267413038736
äl@@ 0.011028569545074087
öh@@ 0.016983405957560517
ý 0.04839275216270226
India 0.01573625734138561
ging 0.020011834801083473
inv@@ 0.007877186715798267
lik@@ 0.015929222635162103
natur@@ 0.021133266059271762
west 0.011223002926498839
Nig@@ 0.11167038576999053
esto 0.03919520036058405
europ@@ 0.03749938588060857
nat@@ 0.032645227580097684
riff@@ 0.033926785661152405
yon 0.03532151808516426
ɑ@@ 1
Ἄ@@ 1
Inn@@ 0.03509808168317946
aliy@@ 0.3256633636106107
final 0.008349126366030194
sion@@ 0.016481589208785417
tains 0.021240233726106495
vor@@ 0.006243416034132467
Ка@@ 0.007565900739361209
Es 0.008188262366545847
Ken@@ 0.06763412485753109
angel@@ 0.031353737883407874
include 0.009819215343543988
reich 0.03015865119783553
sul@@ 0.056034692064977173
syl@@ 0.028921416030496094
uo 0.08651619923603078
ét@@ 0.006543206232780991
Ан@@ 0.015333282038087814
то@@ 0.0037975556991234325
Mün@@ 0.022777942986970966
alle 0.016654966428032124
ator@@ 0.04488845495135308
cant@@ 0.019773844868668393
erra 0.033288250111612315
first 0.0019257653842747475
ool 0.23728968442744924
oso 0.029080717426878615
raine 0.038979317207501994
tain@@ 0.013513565754879343
ʃ@@ 1
Бе@@ 0.021646824489781478
г 0.0046180400932500296
да 0.00425512513747023
да@@ 0.003981342991699722
Kab@@ 0.052256360901194676
XVI 0.08267304730544009
abil@@ 0.019950221315549122
him 0.004704360870094889
over@@ 0.01053243459307145
ples 0.01461738579671803
ː 1
` 1
cos 0.026172597094196212
ordin@@ 0.018303846492404872
publi@@ 0.014925322206270282
sist@@ 0.015545037186024865
til 0.031503400546445466
ustr@@ 0.016436082971707396
Grou@@ 0.11482205515751698
Hoch@@ 0.02280376891293
Kim@@ 0.1161770884713627
eral 0.0322109415332697
fied 0.011651674106674507
gem@@ 0.018338384991626922
incia 0.18276200737599216
kt 0.010507125497902706
nes@@ 0.08767145870225707
tag@@ 0.03514875224684295
ç 0.040926498412602194
Ψ 1
во@@ 0.003350600148193861
Ա@@ 1
ὼ@@ 1
Bes@@ 0.012870833503232272
División 0.05776464312785918
atom@@ 0.05452453443490786
bol 0.039177761716854706
coll@@ 0.006183827210014725
long 0.008580669825466333
sten 0.00637624052390639
ḥ@@ 0.5049382216675408
ὔ@@ 1
Cum@@ 0.08442308118238706
Shu@@ 0.1282599704430456
amin@@ 0.03867991171082314
gres@@ 0.020729654218731533
its@@ 0.03307657608009788
kor@@ 0.032000741328727066
pad@@ 0.07601795392200261
versi@@ 0.013728229077660367
wr@@ 0.03306484237212675
ɔ@@ 1
They 0.00805569767677846
have 0.0025276665231563056
icio 0.01876739908750917
ife 0.01576282509904944
tour 0.01752581849803055
uses 0.00869630463611358
ân 0.039072160758303776
Ма@@ 0.010726192974068514
ве@@ 0.0032619994762021626
ная 0.005026455849100176
Berg@@ 0.03381198918581282
XV@@ 0.07560754364667695
ande 0.02088213548913451
apa 0.041469387444840244
ehr 0.021873462227982622
eng 0.04618438573073261
igi@@ 0.04447649169727584
new@@ 0.01766755300320797
pos 0.015290192643243366
tempor@@ 0.026182089247913327
ɐ@@ 1
ვ@@ 1
ἢ 1
Ἱ@@ 1
Venez@@ 0.046268868906119975
avi 0.11055032341561877
bes@@ 0.006120964389731731
dra@@ 0.015051330485365243
emple 0.06168311915846192
ended 0.007056000803254809
fall 0.02070659658219645
fem@@ 0.008500721500708278
plan@@ 0.013619338563227154
publ@@ 0.019391273275234357
tos 0.010740725250241322
ving 0.015660838008755083
ούστου 1
Александ@@ 0.024551109733748473
ի 1
ان 0.019309741311284392
√ 1
anas 0.03509947540428571
cher@@ 0.035831672119834714
fin 0.012687085483308947
gol@@ 0.020706542843611966
lake 0.05675297838492185
sar@@ 0.052778506265341044
them 0.0061662461842789396
uni 0.09650227416053314
˙ 1
Kib@@ 0.37747187680971916
adém@@ 0.05107537211314589
cir@@ 0.010213265480632215
ennes 0.022437766444005837
kun@@ 0.029570248762365213
ning@@ 0.05214445396635524
order 0.012711168218058155
plu@@ 0.04333696335373246
uss 0.022651725882346242
yu 0.11451349951584865
zen@@ 0.048130851039084245
са 0.00571300607962961
մ@@ 1
ო@@ 1
Muh@@ 0.06127307213819993
ability 0.016571728423983027
ados 0.0040261326825698366
allen 0.03878658958048531
andi@@ 0.05591682889433969
major 0.011164877504567607
neur 0.022833283905899088
pass@@ 0.0065881953365017586
support 0.01397219000702775
voc@@ 0.014299664477633527
за@@ 0.0019501522285783183
կ@@ 1
ander 0.02880548361222857
hai 0.021957988191033364
high 0.00884324200588662
tric@@ 0.02287535080282147
Ł@@ 0.1163641529596661
ж@@ 0.0026965937672856575
по@@ 0.001507306752237859
ע@@ 1
Dani@@ 0.10663876606652
Stein@@ 0.0390353444857029
eka 0.13761793755987886
hav@@ 0.028300167309799035
ican 0.016536769053376373
liz@@ 0.05106021056968274
mach@@ 0.016635997196129595
mos@@ 0.021394270709756535
opsis 0.053694622741948014
otr@@ 0.0890995853642672
zur 0.004937056642103544
На@@ 0.00898623452937039
га 0.007761536560785976
ق@@ 0.015293913364438663
ي 0.014152267462391625
্ 1
4. 0.04005449186054699
ahl 0.025977845776325278
alist 0.015748853129060752
eda 0.05591555744835423
lag@@ 0.022874546228872188
orie 0.025999254647219975
æ 0.524398568460319
Са@@ 0.011720306636265311
᾿ 1
Se 0.012317859569350734
abor@@ 0.009283658516546375
ances 0.010910013676205687
court 0.017497123369237394
enz 0.027523839721182768
gin@@ 0.07401547408932942
maj@@ 0.017741458884894548
radi@@ 0.026397734245583875
İs@@ 0.10850018478771685
Бо@@ 0.013113885298315824
ор@@ 0.007674892268844573
Copa 0.044618835513695713
inci 0.11316414369308582
onde 0.023753385450565385
Ј@@ 1
ар@@ 0.005982904000102627
ру@@ 0.004030115664559282
са@@ 0.005107139378913937
се@@ 0.003357671439070915
ر@@ 0.016191903807617807
eros 0.022532676676929576
tar 0.03573721361592182
techni@@ 0.02346299841896701
tou@@ 0.01435435612874988
té 0.009601643779503621
მ@@ 1
Deutschland 0.020335303688278454
aden 0.025085634803300283
azar@@ 0.09361974619792968
enter 0.035362694694896786
event@@ 0.016834634224702095
far@@ 0.01819831413668803
indi@@ 0.014425691401166991
isha 0.09807088979327837
istan 0.02169355958406056
ulation 0.025148672479231356
umi 0.10114148265361482
years 0.0037100818547483923
Î@@ 0.10874548875182574
év@@ 0.011042052321677603
По@@ 0.005991386029684962
ս@@ 1
ῥ@@ 1
Tang@@ 0.15183619743706736
ansa 0.4450541303571243
eure 0.037924761574110975
eurs 0.011950990429827384
grand 0.01879410787184212
han@@ 0.0487972810432399
hem 0.09075370630227891
prises 0.03564906410591815
rus@@ 0.037648871039294804
tad@@ 0.027054126000497076
tur 0.024637521680471494
ège 0.021476969812758512
én 0.03744694242834345
ė 0.3333489021161351
Ś@@ 0.1828605636833802
ат@@ 0.007006326711499391
ح@@ 0.014307902548606404
ش@@ 0.014557946080798143
ende 0.007467128638778803
has 0.0016264234615468668
ilo 0.08142926547225973
isto 0.10486930401865151
ition 0.015681429453035314
pas 0.006214324434954684
priv@@ 0.009423926065491469
ram@@ 0.034353797932006214
ref@@ 0.012710666950239199
tas 0.03293095720959477
tun@@ 0.027852930104637148
де@@ 0.002583107467249422
ё@@ 0.0042244700728589135
ἵ@@ 1
Meh@@ 0.0844550802410449
Schw@@ 0.022505259892227302
alar@@ 0.03238382437764813
cru@@ 0.023691631805524884
many 0.004298220904592876
times 0.009207770624078659
tival 0.03436138114825437
wel@@ 0.01324545164325532
zer@@ 0.04209520298995936
aber 0.0076498173690132095
contin@@ 0.014103425559919901
get@@ 0.020790159293851414
lib@@ 0.041599187700625734
orient@@ 0.030895208384246586
tiva 0.055472330212797315
ἠ@@ 1
ὺ 1
aron 0.006520934472983393
azi 0.040852106913444534
libr@@ 0.018252275322978365
part 0.0034551969088345534
sign@@ 0.018065168115416155
ulia 0.26017818385379293
Пет@@ 0.03238489703205722
ми@@ 0.003913105719912064
Alt@@ 0.039991119157775167
Histoire 0.028169092131647058
apo 0.13121764858316537
bis@@ 0.054694115848308245
enda 0.03665232875520959
enes 0.020418516974423123
iler 0.026847055410410072
ogo 0.09707186583165024
then 0.0040743584807870735
tour@@ 0.008266347637468426
vet@@ 0.04733654281490949
éli@@ 0.023328792943526605
си@@ 0.004005788616314883
ָ@@ 1
ὖ@@ 1
Indian 0.01689977578573228
Von 0.01315425399385312
geb@@ 0.004955202610547671
ism@@ 0.04933832804301065
strum@@ 0.07154502697308748
sun@@ 0.044665717768088434
Ба@@ 0.015669229472117675
Во@@ 0.011496929839580942
во 0.006304944372254637
га@@ 0.00458154449296828
س@@ 0.014140155865100397
Buch@@ 0.030354148993417495
Kri@@ 0.023816354895925117
Wilaya 0.8770533101689572
ble@@ 0.026972281274074115
lang 0.02187244240114069
mari@@ 0.02658950386607788
oko 0.11474762812427321
park 0.021195785655044635
titu@@ 0.015026966580681046
trav@@ 0.008391955815992865
ß 0.012575383904531808
û@@ 0.01891131214859937
ب@@ 0.007751192888001078
Unter@@ 0.00865116214791028
lah 0.06669160830004962
pre 0.016723317089574065
tei 0.030155797548331264
uru 0.09829489408454063
wes@@ 0.012064761572074215
zig 0.03500740249653413
ð 0.6598208049044553
Au 0.017807275941612265
Dies@@ 0.022917622835645936
Form@@ 0.029173640030168816
alli@@ 0.019272455714684607
bab@@ 0.056366785680635745
nen 0.010469639788939345
œ@@ 0.021982937018621848
ǎ@@ 0.903135174648347
ск 0.020846263603980838
љ@@ 1
ὐ 1
Biz@@ 0.14283120111287437
ahl@@ 0.015671057090516857
fan@@ 0.01801447290260057
fund@@ 0.009801567189306422
gether 0.01364459641257563
ilio 0.07103519720484677
isation 0.015212178641846298
sie 0.0027532319740867684
Her 0.01867287879030655
Sud 0.0363180614843342
atura 0.04010582852516244
cour@@ 0.007901955926490385
cut 0.022791420316729916
iment 0.015878932872271073
kab@@ 0.06786423509274678
onto 0.020013521613895018
sav@@ 0.023783463008931884
sup@@ 0.005686819546184187
tivo 0.02490560100131477
сь@@ 0.06289120198954587
ә@@ 1
Devlet@@ 0.27847348620185064
americ@@ 0.03586967490571111
bourg 0.03227201699878072
chen@@ 0.020509659653695347
led 0.004916992159182012
nin 0.030728621278744265
nit@@ 0.030308840030121003
trop@@ 0.018931418737487937
Ż@@ 0.26982381739382044
ي@@ 0.007602627177920964
8. 0.04253837994951743
based 0.006701478404413784
erre 0.02280800265920095
rod@@ 0.08363851805570792
ä 0.1268302988900741
Х@@ 0.009846878860809597
не@@ 0.0016609581755942732
э@@ 0.0024865702142781
њ@@ 1
་ 0.9330466459728184
K. 0.05081284018936537
ede 0.041574279333827256
inning 0.010171489424199466
lang@@ 0.00945112060774023
mine 0.020310225425061567
pro 0.03196020842853295
sol 0.052826180347752036
spi@@ 0.006250412999058439
К 0.01329276498856284
ров@@ 0.010230985311992888
ч 0.015758353862830837
ف@@ 0.01194835878421421
ل@@ 0.007747579576875852
Kem@@ 0.10935330890922798
ativa 0.04284317240982557
him@@ 0.014900138700649527
isis 0.030690111842631367
rid 0.07114986293383528
sep@@ 0.021727114312281776
па@@ 0.004087079255888282
ה 0.9608722858698737
ა 1
186@@ 0.22186342243954918
Barcelona 0.03983621625952714
Kid@@ 0.15385761315346785
archit@@ 0.013657120179748785
ei@@ 0.014988594430117623
idea 0.02540994277818496
ongo 0.05267396556460913
star@@ 0.007918981246019785
ál@@ 0.03929281328194088
ın@@ 0.026288591873439664
Bez@@ 0.014798881413268768
Mp@@ 0.5508146250105787
ater@@ 0.03780910687175256
diff@@ 0.010515209220186464
fus@@ 0.02626603274860401
imani 1
meister 0.02578363878814833
neo 0.02693710598261291
unter@@ 0.004589561055650177
Я@@ 0.012991051107841425
бе@@ 0.004786369350042126
з 0.008776043217082205
ный 0.002634571126530561
سلطان 0.4260645697207218
Span@@ 0.01674953212221285
apar@@ 0.012863475145445927
clus@@ 0.022400768107274035
entes 0.006085190215825182
feder@@ 0.015459223251857933
kn@@ 0.02221707288750553
kre@@ 0.0143425198186326
leb@@ 0.01881767070190837
lich@@ 0.007999984350525876
patr@@ 0.015217695516385923
plus 0.0027767163791474155
social 0.012173435694699699
soft 0.113298704297516
team 0.004020693619066414
test@@ 0.01753264628790197
ΰ 1
ן 1
ṭ@@ 0.46831089201389076
ἤ@@ 1
∆ 1
Wak@@ 0.10839061370987822
aum 0.016362650163093316
ause 0.024038718278772162
bec 0.027356599197706995
emi 0.07674316899091721
enth@@ 0.019432608272915926
ers@@ 0.0319786560074374
extr@@ 0.010578019609913808
head@@ 0.012501718239266466
ible 0.01506713074667045
kri@@ 0.02166861819482741
termin@@ 0.011005020671991128
through 0.0045836036613637055
vas@@ 0.0368901246589348
ös@@ 0.02737509877545007
Jersey 0.032245974003778745
Munici@@ 0.02848423687050445
Ng@@ 0.02584758572972991
ambo 0.19491156830374534
cab@@ 0.011873981396928248
football 0.007963174765369927
lub 0.11045833250196628
r. 0.01860054171020921
squ@@ 0.013152316978663236
tie 0.02737800458240997
tish 0.03230046887981458
Ле@@ 0.01092160467801705
Ро@@ 0.016291319037194725
не 0.0018193438966864295
் 0.5960777641723657
უ@@ 1
∙ 1
Wir@@ 0.027284870764887545
ana@@ 0.07158937863030745
bre 0.011868183479177515
conn@@ 0.006542445885386053
deutsche 0.03025946190669635
div@@ 0.01725880264515601
dul@@ 0.04748425725366121
elek@@ 0.03764142093558377
irs 0.02024426375742326
open@@ 0.019704514738017386
rech@@ 0.009365646627024396
sat@@ 0.016419836798082645
zar@@ 0.06756311329455042
ł 0.27770525970972926
・ 0.40992670120861313
asp@@ 0.019735612776061038
cla@@ 0.009449043420332221
force 0.015994129371449686
kno@@ 0.018733534836060543
lich 0.0021800984795835635
liche 0.004786006449906738
match 0.009779973204074676
red@@ 0.028501634167218775
regi@@ 0.010471920218121357
tot@@ 0.021683479577583414
tras@@ 0.02708095401286303
ɡ@@ 1
Ч@@ 0.010306551911161319
َ@@ 0.05217211074057321
Sta@@ 0.017059153549631664
dies 0.018059466797361992
direc@@ 0.0042780666709352115
ected 0.005031719645038892
format 0.03329870522713041
lau@@ 0.0323100450311182
lik 0.048396714008438355
ockey 0.01798898309844269
ono 0.08072020224219857
positi@@ 0.008601042257540102
ın 0.011284190856135665
ы 0.002206706472006643
ַ@@ 1
د@@ 0.014163550454521286
Herr@@ 0.021401615037061245
Histori@@ 0.019741067090211704
Sü@@ 0.017042224442870155
aires 0.007889251690826505
ako 0.1506999940958263
cad@@ 0.017515473549462056
ebe 0.05198730830155236
ked 0.009174285368428892
med@@ 0.009294088209192865
pio 0.041345260732202356
ran 0.0190098966603213
tas@@ 0.029821688216506975
tru@@ 0.015919317537044394
és@@ 0.03915256928917735
Florida 0.022298953483283698
atives 0.015908959145753767
city 0.005817896273846301
dan@@ 0.018952711156210368
dies@@ 0.058977081001128175
elt@@ 0.022418899656778683
esch@@ 0.024359527589309333
jur@@ 0.012848438032890682
lara 0.03378077758676652
loss 0.010931031217543482
m. 0.03974184373110821
san 0.051200000524852934
school 0.005373115479211318
teur 0.00672982981795776
ät@@ 0.008443666960555495
ع@@ 0.011848040083572355
ἂ@@ 1
Bras@@ 0.07112385448255217
athol@@ 0.0098167468709519
atique 0.022186273205070276
date 0.01523432013428711
enant 0.020141629317823116
faire 0.015750623630685613
hib@@ 0.023789693826220572
inos 0.020021443274917058
lic@@ 0.012813455989826764
num@@ 0.013352583618118736
uro 0.043841592206137474
wak@@ 0.040207074115402086
ío 0.022560128764719835
ен@@ 0.0037125674773788708
≈ 0.8952310402856932
5. 0.03407906358846494
Afr@@ 0.05525217823458079
Seine 0.019874389664943596
aille 0.01667078496853119
ayo 0.04330143801426704
det 0.0115325177752278
had 0.0012323545579573142
hur@@ 0.029436337046263347
leng@@ 0.01436088136988731
seg@@ 0.01845665713297079
short 0.013442937037266444
stell@@ 0.006015699624577105
tech@@ 0.11393078976570434
than 0.0038408067993252622
which 0.00100606631157235
ì@@ 0.2961187058410909
üs@@ 0.011691015475629844
͡ 1
Ра@@ 0.012327887287997462
ль 0.004107828339742952
ни 0.005248831263481928
со@@ 0.0016872826673858697
ל 1
თ@@ 1
├ 0.19158093765053236
Akadem@@ 0.05232234899030547
afa 0.09604955266002091
ahr@@ 0.013889309916282462
atu 0.12691678447806717
commun@@ 0.006732470404903936
ement@@ 0.01654378532493655
isl@@ 0.01331828527224753
mig@@ 0.01295531847310708
oci@@ 0.019287923852236585
run@@ 0.00773856167782529
undo 0.11363153444256265
vill@@ 0.02331722355813316
ís 0.03644751531957574
üh@@ 0.007831690230158136
С 0.005215229313141422
ш 0.022626108064909372
Ἡ@@ 1
イ@@ 1
Nach@@ 0.008815210756066899
bio 0.02841786741234172
capit@@ 0.017439905798354312
inas 0.02478406450769862
jas 0.03439242534095354
most 0.003486580744695872
mé@@ 0.006191333855038121
oire 0.02588092037091844
public@@ 0.006427433434407945
rev@@ 0.014194768904419277
tes@@ 0.02719835560364968
toria 0.0329060379495594
ги@@ 0.004569819559662151
сла@@ 0.016349171379389644
վ@@ 1
atia 0.06977316416353407
auto@@ 0.025867716959255348
born 0.0036630272535321004
class@@ 0.010191673057251941
list@@ 0.008474619497883156
moder@@ 0.013123447405166438
phe 0.04922011616216614
place 0.004022776768220526
sta@@ 0.01845774514583725
tras 0.016910258853529155
yet@@ 0.07079022438951697
ав@@ 0.012047048607543447
ев 0.014057977267876963
нов 0.008251322273414118
Ὁ 1
Yar@@ 0.08860123514834684
about 0.0035295339524628083
adu@@ 0.03726141512880398
française 0.02089989996234487
full 0.013040949567406895
plac@@ 0.0067416345216079
service 0.00691133141665541
sev@@ 0.06246779861259661
umbo 0.19416412481138054
wi 0.17300539180912
will 0.005504307236436675
ї@@ 1
լ@@ 1
ن@@ 0.012409108990250302
် 1
Eis@@ 0.049458369703620116
Wilhel@@ 0.1000334902528137
XVIII 0.05491341193900973
ativ@@ 0.016012977408819
building 0.007606601323092184
last 0.008378641606255625
olan 0.017506761961749714
sei 0.02194716193469242
werk 0.02013555845330233
¬ 1
ло 0.0038067882064927562
та 0.002427833207855172
ج@@ 0.01078979297070073
￼ 1
----@@ 0.5184288135462225
Kus@@ 0.09469645641775751
Kut@@ 0.12114569540565352
bles 0.01435104650756892
front 0.014650315016192551
ief 0.01337948025200849
mati@@ 0.026383013817677155
mov@@ 0.006272142696593989
ograph@@ 0.01592069372275097
ved 0.0036076260966928218
yat@@ 0.06794340690274153
Ре@@ 0.01264173301036655
ци@@ 0.00558135169326369
ة 0.010776468057301158
Haus@@ 0.026275796440521602
aten 0.0070760819271504195
clo@@ 0.011015528495048492
econom@@ 0.011049003791987169
eles 0.035139936304313564
grou@@ 0.010115331780536746
ily 0.010032788047914217
kam@@ 0.04854982084353423
opo 0.2550471054570037
schen 0.009120656290421764
senti@@ 0.034727522121867443
veau 0.08050688928684212
érie 0.054934872088641895
č 0.13706138025588557
đ@@ 0.005372212636639636
А 0.009939246718085167
Ку@@ 0.010867692391079495
ер@@ 0.005627637749723722
Braz@@ 0.023144385512782792
Sah@@ 0.05868713261905991
Say@@ 0.08295746245923007
auth@@ 0.007494957123644737
eon@@ 0.13750150450534893
idad 0.003732103258648631
iller@@ 0.04388777514896091
inn 0.02082338368180663
kle@@ 0.011273795970880752
oj@@ 0.07609950347864644
philos@@ 0.02103510824830797
ular@@ 0.011785472339386767
Мо@@ 0.013592674345314784
ك@@ 0.007540603165122291
ἅ@@ 1
UE@@ 0.23409289235609537
alit@@ 0.01808101876808974
comple@@ 0.00823081416606963
educ@@ 0.006569109972930966
eil@@ 0.014071568216033519
encia 0.003916371309868243
formes 0.04059473024852014
gli@@ 0.03042646966848412
lim 0.0374102406493767
pend@@ 0.016535398196744957
platz 0.028862505294413365
rant 0.023711515256698703
uda 0.0452138225410156
zu@@ 0.008568670111264743
å 0.2463180209928349
ʿ@@ 0.1512582919020576
мир 0.033749595775492976
م@@ 0.010366153354565567
ἰ 1
Ireland 0.01829563261359091
anes 0.036272487879934395
aster@@ 0.024540665320473522
bos@@ 0.03238039376875315
did@@ 0.018476347990185094
featur@@ 0.006719432387652408
furt 0.03187393745138205
jus@@ 0.011149573687465733
make 0.010248557640160208
nas@@ 0.04349748908135843
plas@@ 0.032907783510004354
tribu@@ 0.024209703235523395
tí@@ 0.026974787783480336
were 0.0008213731491095337
writ@@ 0.006526074281662393
ác@@ 0.018613562745759444
äf@@ 0.010701847232494089
üm@@ 0.020121663422805407
ск@@ 0.007866118643129685
че@@ 0.0028253692597038
ּ@@ 1
Ἡ 1
Kamp@@ 0.03304982032783813
Türk 0.07982468652696403
ayn@@ 0.0873611687728749
chu@@ 0.0651281371473965
cu 0.09863677040716204
dru@@ 0.01741367516699118
ener@@ 0.028127480448748857
kho@@ 0.07262159910407319
kis@@ 0.09795101230685406
national 0.006230779642496778
produc@@ 0.004404606250143917
scor@@ 0.006682706180804113
studi@@ 0.008625892150681392
tima 0.03272507484975271
tul@@ 0.048689670559122156
umba 0.11698068478100092
Ви@@ 0.011533404889659756
Film@@ 0.026281561092331724
amen 0.014410866467525483
ası 0.02264864283089487
tik 0.024384496711918092
who 0.0014841259199333567
ır@@ 0.021594779478966594
ста@@ 0.004036461654113877
د 0.012775887167203787
Ba 0.07455422054126742
Constitu@@ 0.023268879820827558
bak@@ 0.04187253941430563
bay 0.024533903880483557
erte 0.005307094677063873
hat 0.0060212026089484574
jan@@ 0.03574023993093828
kad@@ 0.035402521014028625
pf@@ 0.011004267523404871
prob@@ 0.00826762091158549
quel 0.02634998216736528
yak@@ 0.048732172146680394
ки@@ 0.005253943318498699
ков 0.0060099133806065085
ц 0.007651314556598766
ال@@ 0.009348918244904662
া 1
の@@ 0.6862185007560483
Santiago 0.036769080010219016
ağ@@ 0.023939746606295307
ded 0.0075104461582895824
domin@@ 0.010514996052186126
elde 0.10878581526691473
isme 0.014348692564088683
known 0.003162469694315201
lug@@ 0.028717202900826206
person@@ 0.006715184728434383
present@@ 0.006609204367746351
üb@@ 0.02602314039218344
Φεβ@@ 1
Не@@ 0.01073943749758335
Ру@@ 0.014689292616016487
ин@@ 0.0033073647799603733
си 0.010113834236967144
ъ 0.14954316450123264
Հ@@ 1
ز@@ 0.01338378982555654
ব@@ 1
র@@ 1
German 0.00806827300325286
Pub@@ 0.08044259575440743
cover@@ 0.00911651954349688
fu 0.1485685867667474
ific@@ 0.010706705836755035
imp@@ 0.00953348800806638
issen@@ 0.02728299827487519
ʁ@@ 1
Σεπτε@@ 1
Нико@@ 0.07412563117982819
но 0.0015259575111656494
Bü@@ 0.036646736148183125
Conse@@ 0.024099747497854693
Madrid 0.019105998211590664
alian 0.015820387152301236
aup@@ 0.05101719915238202
erst@@ 0.011106439017414971
icht 0.006599824362169969
run 0.01127837054246726
sans 0.011968917578374134
song 0.0059153626662207
Ва@@ 0.015028440033662062
Миха@@ 0.04018144062658739
Ш@@ 0.008863411154000467
כ@@ 1
天@@ 0.013537822777775712
Rech@@ 0.016520925122811964
W. 0.0244326440356042
ción 0.002999323406531841
cle@@ 0.01249640091378329
father 0.007722840542248049
fs 0.01729485871770235
ien@@ 0.026614466216782946
irk 0.026621006541608802
mur@@ 0.011798534674570848
nt 0.014125323980139928
prov@@ 0.009073038779282993
rad@@ 0.029151524164808523
tex@@ 0.010074326149212394
uka 0.10280826500067196
yana@@ 0.925214855032104
zona 0.01569250389419251
ép@@ 0.02876734204371227
Влади@@ 0.02345858096618796
нов@@ 0.009287642726345288
ր 1
ბ@@ 1
ṣ@@ 0.32506277177101894
ἷ@@ 1
6. 0.030197794656467165
auc@@ 0.023380875153850556
clu@@ 0.008479100959499393
country 0.008409440266050118
ered 0.005035426037582876
ests 0.011387554688247726
jer@@ 0.035230199743875174
law@@ 0.012559737120403239
mill@@ 0.037766582271667466
obj@@ 0.00806215287023735
oka 0.0867683769308222
omin@@ 0.05550511013267593
pain@@ 0.010606309142864081
para 0.0016054407696447011
phil@@ 0.04441546969205569
phot@@ 0.0119533103639179
uel@@ 0.03304945969472563
wie 0.00469535832029364
¹ 1
ди 0.009189267334636708
ки 0.0021015420637268177
ше@@ 0.003951075943316683
י 0.953680232149943
ى@@ 1
Zu@@ 0.016113346397610303
aissance 0.018215935535411985
bau 0.014451585922750065
bou@@ 0.027368075168365938
haus@@ 0.018310055181733544
hir 0.07881008929309109
hist@@ 0.02620918996848593
late 0.008058561334075554
may@@ 0.025796497859336645
model@@ 0.01455355030458327
nig 0.023369307276314037
nuc@@ 0.021515262212074886
princip@@ 0.008858251091564547
sous 0.005255951890809117
stitu@@ 0.034955736543961564
vy@@ 0.22377996069066258
zel@@ 0.029138135100778808
ˌ@@ 1
Па@@ 0.011028476636588366
្ 1
ὠ@@ 1
Compan@@ 0.12226803834383332
Fes@@ 0.08931214063600551
Gün@@ 0.06436564750487779
Paulo 0.05880403694197828
Schul@@ 0.01605269650028446
Sur 0.02134913044225281
aller@@ 0.03780631399395333
anni@@ 0.03108150547787838
ansas 0.02093960743388104
dir@@ 0.017585977754230497
eaux 0.022557100717451106
gul@@ 0.05935023064425941
iff 0.02248060598547581
iliz@@ 0.02997174724799097
lis@@ 0.04882160399403667
nak@@ 0.08151202556255553
natural 0.01574394684018114
prof@@ 0.007594511654562505
sal 0.02950992041470488
small 0.007117014849475353
techn@@ 0.008803540753819372
zon@@ 0.044577622550193804
פ@@ 1
ת 0.8871834735251065
ا 0.01247153053043574
≠ 1
España 0.016962084448769236
Famili@@ 0.020413451522535726
Yes@@ 0.1797053322024518
Zeit@@ 0.016622728597760414
atos 0.01929109358752651
case 0.010715350563031483
event 0.010719963986251257
gri@@ 0.019059444631179825
imin@@ 0.020383628549330648
kap@@ 0.024053960873190543
kirche 0.025237233386025407
schrift 0.027667830023572097
viol@@ 0.009397344754411506
ė@@ 0.2652926430521642
Ж@@ 0.010693742960180257
Ю@@ 0.011020883715904721
ст@@ 0.002496756923588929
թ@@ 1
خ@@ 0.01398962278233188
ط@@ 0.011513150283339067
ス@@ 1
Argent@@ 0.031861853724421456
Des 0.02165900295237777
Parti 0.037366315261351535
Schwe@@ 0.014409354662188232
Universität 0.011839342976211907
acio 0.02542404730146713
aller 0.007732264192212237
bek@@ 0.010560801745656998
cus@@ 0.011194132570327121
epis@@ 0.00826514440824784
industri@@ 0.013183261432337487
isten 0.007491578695703536
itali@@ 0.011866543970645583
kop@@ 0.03974402461226869
nec@@ 0.01708867615664837
rí@@ 0.03547670970900146
typ@@ 0.009059425143057753
vern@@ 0.031641369709960704
ème 0.0105625140543163
ʊ@@ 1
сто@@ 0.0026913280123551956
գ@@ 1
ল@@ 1
Universidad 0.016230311703207
ectiv@@ 0.012815466673157888
eki 0.10012737838847757
eras 0.019477503079649006
ful@@ 0.012058147716029501
gesch@@ 0.004203639720489194
gian 0.019903678191710444
just 0.008624797338976272
kas@@ 0.052538603964134956
mani@@ 0.02072261258002505
onen 0.008446989529801203
rue 0.024089777813565805
speci@@ 0.008939579041999053
tend@@ 0.0176390215542135
tionn@@ 0.009950401300778776
Ἁ@@ 1
ῆ 1
Distribu@@ 0.026212892831837233
activ@@ 0.004907419407862935
bei 0.0018281079603542191
dir 0.01194915258925206
eren 0.005425549583844171
essor 0.012222222697474451
histori@@ 0.006789764252468593
nation@@ 0.013589338750308606
series 0.003924262371770743
stad@@ 0.10763179877131279
zone 0.017575170731583663
Απρι@@ 1
О 0.014340591030110606
Сер@@ 0.04210704717816325
城 0.02449643958707123
Jap@@ 0.009201397252530852
National@@ 0.013177943824554722
Provin@@ 0.009471166470545854
a. 0.023512572908365812
pression 0.01692351582512243
sab@@ 0.02218197153225944
tig 0.017930432645799417
Å@@ 0.13306311303690574
èse 0.02487958412219445
î 0.06666707100527941
ón@@ 0.01258989130237122
Рес@@ 0.027201630894801165
ם 0.892153017666356
Haupt@@ 0.010639080330608031
Lebens@@ 0.021315825696169785
area 0.004005432566899023
cription 0.008877548375933948
heit 0.00981010812113796
offici@@ 0.005054542172501137
saf@@ 0.01894755557178245
seud@@ 0.03346888368371802
tien 0.026844536483962442
tín 0.03425488020102553
visi@@ 0.019546754232925363
wanza 1
ý@@ 0.1272282200955851
ִ@@ 1
ג@@ 1
ت@@ 0.006956476560587447
Arbeit@@ 0.01266675743525882
Eisen@@ 0.024869757406387936
June 0.004305825158755646
Süd@@ 0.012869731909299504
after 0.0016522415346876477
aill@@ 0.018732770251722597
base 0.008088797729910158
fen 0.011722896460840019
grav@@ 0.02107989260213264
inen 0.015224419816816739
isión 0.008250629400107868
liter@@ 0.009302969691220494
má@@ 0.014253389400919726
pris@@ 0.01256609390994701
uba 0.02753652720714986
used 0.0021442267434916154
zin@@ 0.029822154199801325
ß@@ 0.005151009605603927
útbol 0.067115402990602
Đ@@ 0.007309849464080585
ге@@ 0.005688983663320137
ма 0.0034451891847291053
ф@@ 0.002807684249689965
ղ@@ 1
ק@@ 1
BK 0.1535112334577068
Chic@@ 0.10704697077811225
ambi@@ 0.023032870604023314
avec 0.0016806466511536525
ayan 0.03558315429859029
estig@@ 0.03581964408581025
games 0.007657914650057585
ht 0.02172709095517509
iker 0.020857353873031958
resp@@ 0.00817088146480712
sam 0.019782903792548004
shu@@ 0.05825411873285951
tiz@@ 0.015876819018906457
Ú@@ 0.06410038183798768
ève 0.022868311539488505
ĝ@@ 1
Де@@ 0.010312372413149787
Э@@ 0.0035630314274915733
пи@@ 0.003626832941973566
ח@@ 0.9698437206829312
Partido 0.03541818890195919
Ped@@ 0.08011089102037777
Politi@@ 0.014209680159265265
atur 0.019411460533776532
cum@@ 0.02404976924636317
esses 0.011302696479802648
kt@@ 0.024039948034842808
limit@@ 0.009638352362410686
only 0.0024013924485362255
refer@@ 0.006416463424173974
sus@@ 0.007271984093510565
tir 0.015944248744099238
zum 0.001985120347311169
ʒ@@ 1
ца 0.006846886027164362
ְ@@ 1
Ἔ@@ 1
7. 0.028067841038512568
Ent@@ 0.012019559430849544
Kay@@ 0.07772863715042762
Paşa 0.19800359295894368
bez@@ 0.01585123812723768
bres 0.01611425518066424
enst 0.024773417881071656
erek 0.048574505079053455
etes 0.027918940777352144
fut@@ 0.009761856367860103
gun 0.02515527435254631
iche 0.020832818492428625
jum@@ 0.031523162378480976
kit@@ 0.037529266597154345
mann@@ 0.017331431432768572
obr@@ 0.09170222327450174
popul@@ 0.008303095277681997
quel@@ 0.03388595458658515
tari@@ 0.027842696416037854
they 0.0017652783222087591
usi 0.16849262935413467
weg@@ 0.010111056106554758
Ō@@ 0.08874071418497191
ƒ 1
ров 0.004721630126355554
слав 0.07213759787340018
ר 0.9672473783123053
ق 0.014348175859190192
ル@@ 1
December 0.004445639343977226
Dok@@ 0.03267441946681778
Elle 0.004542159124994986
leo 0.04658430057815251
oğlu 0.08886893186428431
pia 0.12687801788033023
stati@@ 0.021227078275469304
uerto 0.021421901585480106
using 0.0056232243429518965
¡ 0.153222210310268
Ä@@ 0.014214281054997106
Í@@ 0.1271676532344479
üc@@ 0.01206354128277534
ħ@@ 1
ал@@ 0.0061187425995344775
нови@@ 0.030895036096063203
сть 0.006462883253627959
ر 0.010504243316365703
ტ@@ 1
リ@@ 1
Mex@@ 0.01713147206636751
Zw@@ 0.013420360833411717
cer 0.017486099054190803
chev@@ 0.02352756843933483
eig@@ 0.0074149607844212
frag@@ 0.01925473156788229
hau@@ 0.01750522759690031
lie@@ 0.0067062751319578095
mina 0.021801758759390416
ograf@@ 0.0174277806000378
ort@@ 0.012972649589635548
possible 0.010596087591389677
publique 0.01844746992057407
scienti@@ 0.013224121027505234
she 0.0018821401119398834
title 0.0075445278585249825
tung 0.005738986442429009
unga 0.1150670087998015
yet 0.022930810525021886
ɐ 1
Ива@@ 0.026860909194388948
за 0.0016970150911963836
ме@@ 0.0021996698635106562
ник 0.005195604022205016
ون 0.016583729832559912
დ@@ 1
└ 0.24098357468994086
asser 0.020259468595944973
chap@@ 0.01148013992061159
enten 0.010226162391747394
fest@@ 0.02078085343197313
ım 0.032144322492942724
ų 0.7497400781908987
Се@@ 0.006627619072792385
рий 0.01768546126799092
ђ@@ 1
ل 0.010736329545962996
ি@@ 1
Auf@@ 0.003838608265878443
Flug@@ 0.01752135077344933
Geb@@ 0.014788547784139532
Israel 0.017500770616718217
July 0.004011942666192309
Mw@@ 0.3310616602583743
Staats@@ 0.02057672919675751
adas 0.003671839953899196
auf 0.0008514635905297312
ayr@@ 0.03826315381079889
dar 0.017571340361961313
edi 0.047127555679728976
enst@@ 0.01550569009273147
eş@@ 0.040422523125887046
ilde 0.07426263126235165
inger@@ 0.04808623851711307
trad@@ 0.01661284407788069
Մ@@ 1
⋅ 1
Ago@@ 0.20047095728773323
Landes@@ 0.01654548711720897
Pour 0.015679725589934062
Schi@@ 0.02082547853921447
XIX 0.024073317127989772
Yer@@ 0.09510291695812471
bahn 0.014292436753504141
kum@@ 0.039021638695382034
rö@@ 0.022544932176701577
thé@@ 0.012847631185582947
vania 0.017023549335125752
ßen 0.008436987700455954
äd@@ 0.011027771548180814
ól@@ 0.02539997592348919
μβρίου 1
Васи@@ 0.0258210460561442
Росси@@ 0.016466685092722828
лу@@ 0.0051231809673582835
ний 0.0034144995437348836
Ս@@ 1
را@@ 0.013465367264042155
س 0.012298779305417198
Ἦ@@ 1
Pak@@ 0.015150167443828692
Ukr@@ 0.03242539648345714
Uz@@ 0.07217162589064055
hap@@ 0.01828233919978777
kö@@ 0.024469681570198184
¼ 0.7426369344687946
Вла@@ 0.09341660000798312
Констан@@ 0.039293772677812186
ге 0.008305261658384916
ا@@ 0.018471332372387128
ὥ@@ 1
Ῥ@@ 1
Musik@@ 0.015829183019382697
ateur 0.007791798404472471
audi@@ 0.014423281595202937
aş@@ 0.022419848106195055
bah@@ 0.013419419604870225
bed 0.015899715115228488
conver@@ 0.01144111791651062
docum@@ 0.007406292671198506
due 0.004817359244750954
former 0.0040647567937689534
his@@ 0.05290733447336503
iken 0.0359231380434409
immer 0.013303305787363414
indi 0.2008194094179528
international 0.00682676204595217
istes 0.012543465522254762
language 0.009209649385054683
lung 0.007112088866844902
people 0.0032211247540760166
sak@@ 0.07795171529340222
Öz@@ 0.06753665028957205
ń 0.08309677685856265
За@@ 0.006918416044233731
Пе@@ 0.011427603788150926
кий 0.01463419426962658
ство 0.0037609325610759403
م 0.010742886526809707
Hamb@@ 0.015461382441148613
Kig@@ 0.402455784698266
November 0.0029026059968175863
Rah@@ 0.016230039137060177
Una 0.023079054890117568
atz 0.01231242968324605
capital 0.00995156803144029
dist@@ 0.0037392960053554396
what 0.006482104643745406
ête 0.011128549601621133
Сте@@ 0.03437659323624725
ли 0.0013183565709661363
нова 0.02032477559998773
ро 0.010836886664275111
հ@@ 1
ס@@ 1
محمد 0.06507414013386054
⟩ 1
9. 0.025488207031853376
Estado 0.02607570738447551
band@@ 0.01643233039423393
cas 0.011839082231875086
contribut@@ 0.018407080843065006
ensa 0.02109733559068539
erc@@ 0.018546429210129587
icos 0.007533916982281166
kara 0.11403851677718704
monde 0.010204796371463796
performan@@ 0.007266196581279022
radio 0.009648772141581687
riff 0.019076407207468546
sti 0.2513618368269405
their 0.0010173282883900315
tros 0.04731925930508312
unde 0.014227809357406994
yen 0.01646352035197456
éch@@ 0.013920826886671208
ühr@@ 0.01586425506051474
Ар@@ 0.00845765159199543
те@@ 0.0019010020345535702
х 0.001339783843162347
بن 0.03052889490394003
ص@@ 0.01021673185531862
გ@@ 1
Brasil 0.03912852597528909
Professor 0.014756015614484485
Sa 0.018649354704877812
Stad@@ 0.03509843276111736
alternati@@ 0.018714343792316835
compos@@ 0.003815574778285562
för@@ 0.016421748783145746
iç@@ 0.045940289273902396
jos 0.01634657649197551
lement 0.011735156544403434
lı 0.01839510339568854
mam@@ 0.04145334973401126
onc@@ 0.022861985007713068
roy@@ 0.02236376182175069
say@@ 0.008317315321235318
univers@@ 0.023333965877834133
Æ@@ 0.1782089719442902
É 0.24694451922487082
ő 0.32533068363777246
ду@@ 0.0032113055649184955
ку@@ 0.003102564842940959
ө@@ 1
ת@@ 0.9567155674930476
ار 0.01682218774246977
ে@@ 1
⟨ 1
April 0.002680537481048122
Ohio 0.017180524583066306
Une 0.01139752807196145
chez 0.016372380009431354
eza 0.014736561395716118
hen 0.021290798699161124
high@@ 0.005933727670770581
ident@@ 0.02056835825139809
ina@@ 0.10258604583905087
party 0.008228233014839935
premi@@ 0.009109120761487417
sé@@ 0.007226268772427984
umo 0.08383682536546742
usal@@ 0.03062533167172238
voy@@ 0.011940531133117941
zog 0.01620418484124295
ŋ@@ 1
Л 0.0319592647722255
Ме@@ 0.010538074305465049
Укра@@ 0.015502783473492765
по 0.001230525561002323
чи@@ 0.0023264001308041025
و@@ 0.005460574661724257
ainer 0.018821566917163638
avant 0.006888003446183632
carri@@ 0.009232364213558969
cion@@ 0.007208326844684946
esper@@ 0.029814634614639242
eye 0.030393969026947645
inde 0.01091618977508811
instrum@@ 0.011122863696101151
lead@@ 0.0037055808723809895
scher 0.012742887148847897
sir@@ 0.02970857605682812
three 0.002130017882463676
when 0.0018666236678835737
ô 0.016624853586059835
То@@ 0.009382093184535156
ет@@ 0.008323404409447201
ско 0.012116095148083065
ু@@ 1
Ἕ@@ 1
本@@ 0.010431684255195424
Groß@@ 0.011094092825700529
Kant@@ 0.022513498898739284
Zentr@@ 0.01772501236478044
bt 0.012772165350368682
endel@@ 0.09045777030346713
ending 0.007973856677527943
ict 0.018014210439783487
iques 0.02045149457393144
jun@@ 0.03149397761837736
mess@@ 0.014892927804128219
nie 0.02051053972614362
ograp@@ 0.02083439952270193
riere 0.08432032433570882
was@@ 0.01577465204202152
zon 0.06397847872869908
ño 0.02072138406556767
Мар@@ 0.01122170263503971
вет@@ 0.011092297263414687
ха 0.01124235733764969
ט@@ 1
ب 0.009909365121559655
日@@ 0.009501603163476539
神@@ 0.023484632067659526
Campeonato 0.02753206359544794
Fuß@@ 0.013659849560188151
aines 0.012511118332501608
anya 0.04920952317134368
centr@@ 0.007989244167539902
deb@@ 0.014349056549307897
dial 0.021047119333516332
endre 0.011056573827726051
gu 0.11304494443712074
homme 0.017252959142090404
journ@@ 0.006546794881900895
kus@@ 0.03911087902781701
mez@@ 0.031008440313278533
onio 0.026971943112831732
pendi@@ 0.016864259439613487
tena 0.18489866802540852
tent 0.018826230813739034
union 0.012412642855652462
أ@@ 0.005401816524667576
ম@@ 1
ジ@@ 1
寺 0.04937931879794128
Philipp@@ 0.0166633435711107
blan@@ 0.011127298684425335
dil@@ 0.027312783856583048
phi 0.07183457607774817
politi@@ 0.005365651019502293
production 0.0052856776614699005
rom 0.07968932932262983
vita 0.3802158804189068
zeich@@ 0.008345848374233203
Ö 0.07478204939209308
ín@@ 0.012127040794145253
μφωνα 1
غ@@ 0.009148637046047863
ἥ@@ 1
ὃ@@ 1
ὗ@@ 1
ン 0.3488388417435601
山 0.011057425067955429
Ein 0.009149701999726312
alle@@ 0.021393406277059518
elem@@ 0.017997101395194635
enas 0.024139041989309874
expres@@ 0.007517934335922492
gest@@ 0.005149021043487353
leur 0.003784705217380427
lon@@ 0.022681596882014866
mara 0.033812297756318575
neu@@ 0.008765388409383037
tim 0.03513072518728054
while 0.0025226473788979072
yar@@ 0.027224505600984893
yer@@ 0.026413936753246908
ос@@ 0.006822699388195357
դ@@ 1
ὼ 1
ラ@@ 1
ー 0.28836082288477416
三@@ 0.0061177334364755104
República 0.024295727312373352
alc@@ 0.0630345672762659
bir 0.00286568035912415
ched 0.006283886346101412
echo 0.024784544338185353
erk@@ 0.010661146090240197
ichte 0.013885839314698759
politique 0.011795798927984118
vot@@ 0.0064536774601994225
zial@@ 0.015000790823053224
Å 0.3649868469358933
ʻ@@ 0.10542410389302351
Го@@ 0.009000953851479108
Про@@ 0.008215715132921034
али@@ 0.012871888713891728
она@@ 0.00952973849036572
публи@@ 0.01169281133565878
публика 0.07140892271364156
се 0.0027803062651098024
ў@@ 1
қ@@ 1
շ@@ 1
պ@@ 1
الج@@ 0.014695122168249256
ـ@@ 0.09960730494312961
、 0.0009164883154494458
中@@ 0.003732267283316292
Grund@@ 0.010382253438122407
September 0.0023190906759515332
These 0.006521640441433883
aide 0.01769533248547518
ained 0.004339306985625755
aret 0.059680596479401306
etts 0.016214848085571942
eño 0.013735957680607994
graf@@ 0.02144715515459233
nach 0.0012991593309270094
porte 0.00603426841559535
roi 0.014847153159220049
tet 0.00454820119426981
èle 0.016730779344369402
ération 0.015526110888613352
̯ 1
И 0.009794623495595232
б 0.00826488056997192
ля@@ 0.0021119150233264105
мо 0.012269946585872245
კ@@ 1
appro@@ 0.003832709509694399
bay@@ 0.030207313495168697
been 0.0011267617540289578
chang@@ 0.0041906951431653515
culp@@ 0.013286195677541265
dens@@ 0.008084460161112523
hin 0.012716591296019064
ished 0.004297511828078779
izi@@ 0.015950686413686604
jed@@ 0.1572818579002073
jou@@ 0.005233320943580212
lí@@ 0.010317304164708215
mw@@ 0.026690989121546212
odes 0.012638325020464658
organ@@ 0.00876339998184871
program 0.007859712043367575
seau 0.01464501373918451
some 0.0023847896871646156
temp@@ 0.005497688261332031
® 0.44556340190050364
À 0.005948957290396352
ías 0.009169190472077718
̃ 1
ское 0.004963657600876159
фа@@ 0.00603030465177511
ِ@@ 0.043482353787804275
ხ@@ 1
Arth@@ 0.17622561629474243
Geschichte 0.005947596120670892
acha 0.0689609992014594
esen 0.007408136079153423
exp@@ 0.00381205058814814
gaz@@ 0.04985671706722095
git@@ 0.052445057185045066
iwa 0.12712835733128738
jini 0.560291997519525
jug@@ 0.006898788113205738
leh@@ 0.023066768737763158
nea 0.03790882291180793
oder 0.0023020521335207263
pes@@ 0.020828223010612698
qu 0.009909760790048445
teilung 0.017352299976547633
tige 0.01207120645537897
verg@@ 0.020495115554926016
vida 0.013115323066966321
yal@@ 0.024532929515647162
ße 0.01201205658269182
Да@@ 0.011448137970705569
ке@@ 0.007962385658695758
пе@@ 0.002625149596421957
сти@@ 0.0032016123478853195
ша 0.01874551241298922
ю@@ 0.0022459936060492056
الع@@ 0.011524701309627756
ს 1
⁄ 1
Chile 0.016092541089300718
Nueva 0.018298389378927356
also 0.0006539053426150125
amii 0.2946512223918775
eas 0.0059876367159105
erh@@ 0.008229466997527458
fig@@ 0.0076483506848099335
gel 0.01796463004407766
icas 0.007464805981018317
mah@@ 0.04528197477415681
ques@@ 0.01120102729178793
schi@@ 0.007759328867875018
stud@@ 0.005135356788540114
suc@@ 0.007242182767426271
temps 0.006816190306676067
uch 0.01270641843792134
zw@@ 0.013723776824828568
ø 0.11738955647947594
ún 0.010900731178120765
ɕ 1
ʰ@@ 1
Пре@@ 0.011453013033769447
ры@@ 0.004768393043033243
բ@@ 1
国@@ 0.007779260503885725
Colomb@@ 0.02055612835986182
aji 0.053361610043024435
bas 0.023666482453741297
bom@@ 0.0167174026293138
eran 0.005942289005374964
feh@@ 0.01665925037141874
indic@@ 0.008622067405507715
mez 0.04987647596615856
modi@@ 0.010964696630410437
perior 0.018184224914677707
relig@@ 0.011968125963046616
straße 0.010910788988024386
zis@@ 0.05728056495831397
ą 0.6791291062783379
гор@@ 0.01118708644182759
ле 0.0029861530634705535
ха@@ 0.005314527768166765
ية 0.0051143232758637785
Ὑ@@ 1
子 0.004641250959170649
Best@@ 0.01696709950007479
Form 0.01744259169312538
Jah@@ 0.013313209297818386
Türkiye 0.037409418684982425
aban 0.006202606644805781
around 0.0038785570732968472
aş 0.049719516779322515
culture 0.009537853374149351
family 0.0024659000980288854
gun@@ 0.013281515923066542
gö@@ 0.036722638186040456
imba 0.17170062912534317
made 0.0018127414816090474
terr@@ 0.01337767918139171
tly 0.007077656434999963
â 0.1410876677357083
êt 0.014577131719906393
öz@@ 0.022723014952564954
ù@@ 0.05135588928944768
ÿ@@ 0.7050150258738279
ɪ 1
До@@ 0.00889592025770837
Лу@@ 0.011930064678233848
ем@@ 0.009126668745632963
ков@@ 0.005496380070505067
ция 0.003845564887140433
الم@@ 0.005476531775994589
ت 0.008010939920386465
ক@@ 1
ッ@@ 1
村 0.019072291361979264
Ab 0.012580914277846396
Amér@@ 0.01880388816227175
Este 0.01384374559072449
Zeit 0.0048782476949109956
aje 0.006969846511664366
apos@@ 0.04055293322105425
bern@@ 0.01909345014343162
continu@@ 0.005414697587199158
crit@@ 0.017812858952632935
erin 0.012358889528264257
lieg@@ 0.009632620664462296
ogle 0.7561190024365269
sible 0.009748081591388014
take 0.006344437958457511
trag@@ 0.0096141367006742
tér@@ 0.01820415622451771
Гор@@ 0.0263931398504163
Ду@@ 0.018421602108792182
же@@ 0.0024206610889650586
лов 0.008682666263611312
об@@ 0.002157238661238707
хо@@ 0.0023023533935396154
ս 1
北@@ 0.006579705654266897
Klo@@ 0.015816909901138324
Prof@@ 0.021035246845713132
ampi@@ 0.246691452035674
gique 0.017115723657808
mili@@ 0.014041830633477475
nacional 0.008214686595799768
onge@@ 0.1264436064938081
tham 0.02001379340061369
thu@@ 0.015775554279294883
ê 0.017494999495801907
ütz@@ 0.015307951170711848
ɔ 1
εμβρίου 1
Бу@@ 0.010917365609499617
Ев@@ 0.030699389414423295
Никола@@ 0.020951473365966228
Та@@ 0.005538257312056505
мит@@ 0.017771657563509197
он@@ 0.004313917955657646
то 0.003238798959878755
ћ@@ 1
ク@@ 1
道 0.005493434271910872
Sek@@ 0.018634436603032933
Tanzania 0.0731614493882987
distr@@ 0.013742958573481089
eleg@@ 0.00852855834828829
emen 0.014369500061611074
engine 0.014456977770132967
hiz@@ 0.042193511004792676
inden 0.013428323053085259
isen 0.012111307358189834
race 0.007407687793576008
region 0.006221540103139807
territ@@ 0.005715858760172209
thi 0.023795809927268843
uso 0.008780267695892822
voir 0.008439659333771572
zeug@@ 0.01060260499489007
zil@@ 0.10771129597442818
üd@@ 0.01796709662649105
ŏ@@ 0.22246947940972292
Ки@@ 0.007784681617890858
вя@@ 0.005874743221425049
ит@@ 0.0036716882247654964
он 0.0022238109016178664
ст 0.004446438850254203
لي@@ 0.01351035960998926
ی 0.0235629536846321
ქ@@ 1
ᾶ 1
♭ 1
Ere@@ 0.02699227120961232
Illinois 0.014500431557725478
Mittel@@ 0.009848760713943779
Sov@@ 0.08121966409959266
agre@@ 0.0067345012866888996
ample 0.006473576444284955
chter 0.013017878766433198
concer@@ 0.004558942164203396
eben 0.002435016583151246
edad 0.007297843048296661
embr@@ 0.022223790016974655
found@@ 0.01056590809106025
fron@@ 0.009374437305644065
idos 0.007216479354650067
initi@@ 0.004103006305681449
ised 0.0050500937479464715
issu@@ 0.003941028410302172
naci@@ 0.010424137551557765
née 0.011863880393524094
ogen 0.00963972298638114
uko 0.19838809454731557
àn 0.019505330882259364
ık 0.020565660500572024
Андре@@ 0.02413722031054493
Ди@@ 0.011656971440985825
ви 0.012567992222604008
ա 1
զ@@ 1
الله 0.0922186415896436
و 0.0065415788694032735
দ@@ 1
র 1
ῃ@@ 1
國@@ 0.006211899372909325
October 0.0027759562226965526
alan@@ 0.02406705713477328
azo 0.0272742413142381
chn@@ 0.04667419400002995
condi@@ 0.007228378986579236
dest@@ 0.015022114499271197
eder 0.02318211225908866
election 0.0042732496614342344
etti@@ 0.030716123728184663
general 0.0038546398477024677
ided 0.006469602893839732
igen 0.001833711190710157
information 0.007869257011577707
kes@@ 0.026266663858688647
mis 0.010215941450380824
omen 0.09145181173537338
second 0.001914726460457283
unci@@ 0.012686546288805948
ya@@ 0.07618922914388693
État 0.010550135680592458
Ó@@ 0.051155062682616194
äch@@ 0.004471550738353941
Ни@@ 0.008861262258661297
У 0.011672081977974893
Федера@@ 0.021775535757349335
бу@@ 0.00385347563605901
ке 0.0021911126799988214
миро@@ 0.016022624726559825
му@@ 0.0034415084182035072
п 0.006320029931538355
ши@@ 0.0031123719871725053
رو@@ 0.009525263945925061
ك 0.012168007090942274
ন 1
ন@@ 1
រ@@ 1
∧ 1
➢ 1
山@@ 0.009003583852067632
Mexico 0.010886124865453845
Nam 0.00976288638587958
acter@@ 0.00929972715828778
acu@@ 0.015360819078821766
apon 0.05033325805285113
clos@@ 0.006061324874717175
days 0.005912624555241615
ecke 0.009995672775789536
français 0.00702613458516503
hr 0.010736096298044586
ip 0.05903566000428582
kio 0.05710037201710552
namo 0.0836665958329299
sil 0.01996187485322679
species 0.0036535408594153143
études 0.014553686936816615
über 0.0015928621659080026
ē 0.3254710866323554
Но@@ 0.008573423339559825
России 0.0069812061590074055
Ста@@ 0.012619489074485143
град 0.021636827514254407
ран@@ 0.004753915859867951
ре 0.0030973745577629196
Қ@@ 1
ք 1
شا@@ 0.060937905706069766
ἓ@@ 1
タ@@ 1
ト@@ 1
Alem@@ 0.019929043776849523
Azer@@ 0.02587122739202028
Ce 0.007200574449888165
Oy@@ 0.05470576741442219
adol@@ 0.022860731086922964
afr@@ 0.02404547111333628
anan 0.042708505252936894
bran@@ 0.007748369998852968
constitu@@ 0.0038922489882111553
cours 0.0055364031248541145
enden 0.002739337856226625
ently 0.0022690206506277024
idas 0.00984382101010346
illes 0.016831359520697788
integr@@ 0.009069865372548211
kreis 0.010863209061039058
licher 0.006562034761193705
mant@@ 0.01407630080382027
milli@@ 0.011814299072547111
national@@ 0.007979341911376949
record 0.004441137117832815
there 0.0019168796387629054
tries 0.006456126744813614
won 0.00241920616933708
économ@@ 0.013935651760421974
Си@@ 0.007218265084685472
Су@@ 0.008136679181755525
Те@@ 0.008404314614871506
ня@@ 0.004035495467097041
рина 0.02596565487804941
ти 0.002740384557255315
ري@@ 0.009538188970156528
ア@@ 1
ド@@ 1
社 0.02994658958318959
Indonesia 0.027282827146133313
Mek@@ 0.06425747137098009
Stadt@@ 0.006947565713007108
alled 0.01423806517371631
angi 0.05633756627319807
anst@@ 0.01403301034865383
buil@@ 0.005605769287530148
caus@@ 0.0044065252535843355
construc@@ 0.0077317338002172884
conv@@ 0.009209748674015032
during 0.001444278780470569
egen 0.007114775151007709
explo@@ 0.008114264852842324
fé@@ 0.009272228535684943
history 0.00429187715096486
mash@@ 0.1333487321875932
may 0.002398687847724395
strat@@ 0.010303601454332586
tere 0.022112926578016695
uela 0.014905451490779003
äng@@ 0.003723232980677575
Ā@@ 0.2200470212327143
ǔ 0.8755689896444852
І@@ 0.25615980651530107
зо@@ 0.002144623842156601
ми 0.0012998207527750892
хи@@ 0.004820243052005294
ча@@ 0.0017111209449491998
կ 1
الش@@ 0.012730561384161055
الق@@ 0.011166840690442043
ش 0.02165224925139185
Ὅ@@ 1
Gü@@ 0.02029492938669095
Ort@@ 0.010612155627995544
aque 0.013640947741432553
associ@@ 0.0055834108107532514
cula 0.05328075801639717
fahr@@ 0.007131503385962544
illed 0.0059472205962085144
ime@@ 0.08657596741658233
ları 0.008402889704737557
mf@@ 0.07040355946982961
riv@@ 0.011899610169345735
sche@@ 0.011029543365917409
sein 0.0028406876922022943
total 0.003254839824414818
trou@@ 0.008279136409791676
undi 0.08944738846446107
wir@@ 0.006421518516276744
élé@@ 0.010439938217132719
ɕ@@ 1
Ђ@@ 1
Вели@@ 0.015026255569912918
кая 0.017599065298192846
кра@@ 0.004223020950926949
лий 0.019848265121740014
лов@@ 0.007969802707073915
про@@ 0.000877148356038858
футбо@@ 0.016626217999671643
ю 0.0012599593472000447
الأ@@ 0.006555857573362287
ان@@ 0.0083346372518292
ی@@ 0.018701999769274943
জ@@ 1
ὗ 1
‰ 0.21013880839899382
↑ 1
東@@ 0.011303419453145561
武@@ 0.014381413083172844
aged 0.003884844957482484
alista 0.021311979481981554
bind@@ 0.008026460206222762
ellen 0.004675673779292915
eñ@@ 0.011753776979212226
figur@@ 0.010302005865103986
five 0.0035212506012716766
idence 0.00744558354507502
iye 0.07486609273046939
jour 0.012238719184565745
lieb 0.12502707782789071
optera 0.04406441124055319
pero 0.003730313474201588
schaften 0.00422653169304944
season 0.0014310692448460812
toral 0.01006898267161798
tribut@@ 0.008338291152755323
verl@@ 0.004858026325865614
ã@@ 0.050041278782471825
þ@@ 0.33703006451023493
ɛ 0.8138987645886531
Ха@@ 0.00833342749574445
ве 0.0041033641342321835
кова 0.01743261997416978
лу 0.009400810916537017
ша@@ 0.004580058346737869
ү@@ 0.6383213705019349
ار@@ 0.009097245686649989
ْ@@ 0.07332744338100734
ე 1
フ@@ 1
モ@@ 1
会@@ 0.019243997590299457
海@@ 0.005295861189464409
Mec@@ 0.04440636268409342
México 0.012589362935928588
Theo 0.032099153095258716
aben 0.007147907028394787
agua 0.010608694471460149
assen 0.009812250249569852
ağı 0.040151497596576435
dad@@ 0.01806050505577279
did 0.0031464482674976504
entre 0.0012703139146406357
fico 0.01258673997995331
guerre 0.00819183954213914
hara 0.07922359095206759
haz@@ 0.03346740765136279
histor@@ 0.006597439765861244
institu@@ 0.005615346133311712
ismus 0.014328433261993864
local 0.0028868743253299576
mab@@ 0.16876715096866213
mom@@ 0.00914936189227596
nung 0.004220608933995015
points 0.004586237961730478
pose 0.005199042237896711
sey@@ 0.07104708557232046
éd@@ 0.006679940184910229
üz@@ 0.04243491588152814
ņ@@ 0.2949343665332464
ŭ@@ 0.5750518294067053
Ве@@ 0.009647687431904651
Га@@ 0.008960185199127235
ля 0.0029106248032449975
ман 0.011131554529623937
ד 1
اب@@ 0.011843803312594126
ف 0.0084794828207791
შ@@ 1
Como 0.017490132717147493
aten@@ 0.010673369146051164
bien 0.004935866337702141
casa 0.015791489312939236
comb@@ 0.006498426296518019
contempor@@ 0.010444018488873196
eln 0.007904513648177871
fam@@ 0.0070331445967236105
given 0.004859178375000018
histoire 0.00984416658230617
köy 0.07347938905246802
plant@@ 0.00853160578176337
stanbul 0.04531354020306402
tard 0.008796919430735168
west@@ 0.004863201087905026
yal 0.015102942943944002
ät 0.009352715971040333
Иван 0.028391766920590342
гу@@ 0.0034952374543567115
рав@@ 0.008508458982616382
ур@@ 0.005457981973398975
ֹ@@ 1
إ@@ 0.007305641406770685
ု@@ 1
ṇ@@ 0.2254456514483871
Ἅ@@ 1
Ὁ@@ 1
カ@@ 1
市 0.005434028028548208
田@@ 0.029746738427635547
anı 0.02297677580909591
arias 0.01679232373988438
dad 0.010128290813785929
differ@@ 0.009533068049212874
emba 0.18611284067908973
envir@@ 0.006762218527532033
famili@@ 0.004666365216260745
forc@@ 0.005652252400786725
joint 0.00917454206775112
lichen 0.00145602139250711
mak 0.02557260579540654
matr@@ 0.017119945673050814
nou@@ 0.01893965554179424
rol 0.03011486526608218
services 0.005349244039526424
such 0.0014701697564642499
vu 0.024694897762132215
zur@@ 0.03110823547876024
ğ 0.04330475781695501
Ал@@ 0.013380349656577405
Серге@@ 0.02115467691350182
дар@@ 0.006541353231229129
лы 0.007619518277008932
чка 0.02891492349089371
ז@@ 1
پ@@ 0.016169383117788434
Ḥ@@ 0.3300058205376013
ᾷ 1
‑ 0.232682569180364
№ 0.010790908211125487
デ@@ 1
バ@@ 1
Eine 0.007181251999339177
Isra@@ 0.015324644579743118
Nis@@ 0.0892816241441952
Stadt 0.003922619715441267
bü@@ 0.013657352006966538
curr@@ 0.004698138979406965
develop@@ 0.0036830204014462317
development 0.00464258003161339
distribu@@ 0.007275561004416795
diz@@ 0.023006537691894164
engo 0.08381789565368064
fall@@ 0.006884460020937902
fici@@ 0.008659628598880224
ilg@@ 0.04502143760134928
ived 0.011827714436753642
march@@ 0.01232394889153927
mau@@ 0.02560072785737487
nant 0.011811474907511749
ographie 0.008317639616168973
raz@@ 0.01543252491291974
respon@@ 0.003811753710136317
universit@@ 0.004860130402840952
äs@@ 0.005693498006871494
ün 0.016742867061351568
жа@@ 0.0026520350673839557
кто@@ 0.006133909372284456
Կ@@ 1
الك@@ 0.010337053854598485
يا 0.014303908229112742
ين 0.006661007917842107
க@@ 0.7118870923742873
ா@@ 0.8474095936342511
Ἠ@@ 1
← 0.46813486264050497
白@@ 0.016007998784160947
Bir 0.04712038741842424
Türk@@ 0.04767754149480938
Zwe@@ 0.012320338494772555
arri@@ 0.004541000415987122
cultur@@ 0.013625004445241564
enin 0.025984729459143183
gemein@@ 0.004446082177081059
hus@@ 0.00944850828474195
issen 0.013470867535288786
iten 0.004164967876020864
kaz@@ 0.05612306306340773
nac@@ 0.01733693667220749
nay 0.023182813486217282
orig@@ 0.011241754698636907
original 0.0031792077053813044
secre@@ 0.010255014110926837
tradi@@ 0.0028226904963334055
usu 0.031224844211977652
yas@@ 0.019496198663691646
yok@@ 0.06740222170241922
ız@@ 0.027160210616287556
Би@@ 0.011915119003391763
Николай 0.02689565994371976
Ти@@ 0.01161662079328597
ча 0.006875334425194965
տ 1
ք@@ 1
ّ@@ 0.022447375005251013
ܝ@@ 1
ニ@@ 1
金@@ 0.007889340700809041
한@@ 1
Bev@@ 0.07649721714909594
Heim@@ 0.011395811192444818
Hö@@ 0.011862497452904412
Nieder@@ 0.006983504103986631
aki@@ 0.10718959469821361
between 0.0012928270242213184
champ@@ 0.008520011498637325
deutscher 0.009296799811827126
ekt 0.010061461428709973
inh 0.012316876967256626
izo 0.05014781192343541
lege 0.006590647039452028
né@@ 0.005654319965695347
resul@@ 0.002822918078188597
sent@@ 0.010016701772978219
suff@@ 0.004566538839337042
tek 0.04452967140696936
tif 0.008754047531340337
wani 0.19406322845362567
¥ 0.3805878177871222
Ø@@ 0.09516859210251388
äh@@ 0.004862823675652021
ís@@ 0.007869358481640071
Έ 1
Ф 0.012751145596045356
ница 0.012149879029412534
пу@@ 0.002115826045085579
א 0.8783761419812532
بي@@ 0.010225120104113875
سي@@ 0.00982922555433543
محافظة 0.1564507815374642
مي@@ 0.01214615111456053
় 1
ῴ@@ 1
一@@ 0.0013161980901266106
島 0.019071885736749283
Entw@@ 0.009261542166835847
Guerra 0.013399144019190325
Por 0.008932177390568409
auch 0.0008073714371428038
conduc@@ 0.005410118555448709
conf@@ 0.004377843403301156
grande 0.006686224970663479
influ@@ 0.0033057479940325424
itos 0.014497723732511562
liste 0.0127476678818396
musical 0.006940745167006401
numer@@ 0.006160430537312874
once 0.003997776168920721
same 0.002091066109715768
tek@@ 0.022824491653026285
zam@@ 0.03458165242757209
ück 0.011088502949763837
ś 0.29395292273992485
ɑ 1
Гри@@ 0.018881837225140505
Д 0.013656803885815756
Ла@@ 0.008862824451536404
Михаил 0.032235556245021654
Ор@@ 0.01269492663038175
ба 0.005057802957793088
лна 0.03286201747743386
ное 0.00196419040450369
сь 0.004350163069242793
це@@ 0.00224271481103221
э 0.015374823521700356
Վ@@ 1
مان 0.031532189828881244
ە@@ 1
স@@ 1
ἧ@@ 1
ὧ@@ 1
ℓ@@ 1
サ@@ 1
式@@ 0.17584812743022898
Mart 0.041387623155335486
Wah@@ 0.03107855240595263
ations@@ 0.00681502153432766
aç 0.07675204753021454
century 0.0025602427778181644
course 0.006383694602434955
day@@ 0.028246750736120495
deux 0.0017422529383269497
enen 0.0017593360096319957
eski 0.03584819101588134
exper@@ 0.005493889820089506
fab@@ 0.01205869545516431
firm@@ 0.006051975594154516
haf@@ 0.009329382782171458
icht@@ 0.008376763275957365
idente 0.013028022828006896
later 0.0012994427614416938
né 0.0033295832120216816
onship 0.0052939962695564965
poin@@ 0.03879989170811978
prec@@ 0.007495833120542078
umu 0.04784133923523091
ète 0.009043699834797183
üş@@ 0.04886208600172604
ır 0.008194778737594628
При@@ 0.006295151142355886
вер@@ 0.001842871027210934
лек@@ 0.005756261364633566
лена 0.011617077671876927
мен@@ 0.002068217896169213
род@@ 0.004705328051136398
ян@@ 0.006425590390032369
ֶ@@ 1
צ@@ 0.8834851802909245
ئ@@ 0.021551740688433282
خات@@ 0.2849516555203074
र 0.006347034766490548
ា@@ 1
₹ 0.43924451706264156
ⴰ@@ 0.9797584427543014
ス 0.3715921057303357
人 0.0013427310008527157
Apr@@ 0.11562899464893567
Califor@@ 0.03624652993941446
Deutschen 0.009542508623178389
Guin@@ 0.07068162502077797
adora 0.014478079510533341
aina 0.06136535400111111
alar 0.03206227302994531
auté 0.009715176378368441
charac@@ 0.0038634537100618576
classi@@ 0.006129576548986525
ectu@@ 0.00765535234983909
energ@@ 0.007589433713809863
entos 0.0032145794098053866
franc@@ 0.014565610534873452
isons 0.011577170471829231
istas 0.006136714747468957
izi 0.0770131383782142
japon@@ 0.012461839001271105
kwa 0.021569082578799754
reduc@@ 0.006770814031197878
sang 0.013214822214743535
sexu@@ 0.005827799089803099
signed 0.0047034611470275255
tario 0.00936875955160653
tische 0.011146857766333134
yap@@ 0.009475266336242544
ähr@@ 0.006542166802505571
çe 0.03579498120429889
ę 0.8317043499931214
ǒ@@ 1
Ли@@ 0.005841505366472406
Ша@@ 0.013644447937964493
ман@@ 0.004696525810386703
ния 0.0010859504253158902
ской 0.0008635206936492884
сп@@ 0.008743229308836665
ци 0.014270311250809927
Գ@@ 1
ن 0.011292065910501813
ܐ 1
প@@ 1
ி@@ 0.6345080605944734
マ@@ 1
八@@ 0.015318351674723894
南@@ 0.00433294867848525
御@@ 0.0764930272292959
新@@ 0.004477315626300799
Aires 0.013300420815253202
Argentina 0.00905968660352876
Fren@@ 0.09142983341003441
Para 0.011168609511430708
abu 0.0597142578589159
administr@@ 0.00275162970489707
altung 0.007756451409938551
ased 0.003856334687381001
autom@@ 0.0055818935503719885
conc@@ 0.00993188762981969
ense@@ 0.006397443877402449
held 0.0022707230614007583
hid@@ 0.014382570521354896
inform@@ 0.005338057383433201
kia 0.09396220301086983
leurs 0.004923791150251863
lui 0.0025995210671630044
mich@@ 0.11031344011159738
odo 0.011600787409540306
quot@@ 0.012939365817999303
requ@@ 0.004780274813424004
rá@@ 0.012209955470177813
schluss 0.0093767006715752
sich@@ 0.005349724401179743
âte@@ 0.05864128680629055
étr@@ 0.008182727223864952
ücke 0.010082867032413696
ıl@@ 0.007106958260791089
В 0.00043717297231526774
Геор@@ 0.024147444395688156
Чер@@ 0.013779833062025947
ван 0.007088778219828501
кт 0.007062683842578223
лен@@ 0.002548354916120174
اد@@ 0.012114861580364174
الس@@ 0.007804711288909812
من@@ 0.008800475726634872
ُ@@ 0.017891129653098595
গ@@ 1
レ@@ 1
小@@ 0.004668575341471239
西@@ 0.002816410600031592
Afrika 0.037098684633166935
February 0.002345916116928743
Grün@@ 0.00797068922380776
Mai 0.004423368879499555
Mundial 0.012742681920215155
Yeni 0.07423237002660875
alter@@ 0.007473813123834517
appar@@ 0.0036437551502910104
beau@@ 0.00876088941267021
categ@@ 0.006766088095412456
ciones 0.0024909005988049825
compl@@ 0.003646994812587745
each 0.0023588396659293418
emas 0.014340232397333102
eten 0.002427213811507154
gil@@ 0.010423775116183934
ifa 0.29800296554467126
kav@@ 0.05789684569292752
kim@@ 0.03972552192883709
ký 0.029894305963787424
meng@@ 0.08996880938290786
ometr@@ 0.03414739786410375
personal 0.006831851556316985
pré@@ 0.00235154631390969
terior 0.008145932958922788
trag 0.0062412410823217
yen@@ 0.009023425943926244
Þ@@ 0.14397004928143725
ġ@@ 0.6772300049010748
Ș@@ 0.18307127115495456
ʾ@@ 0.3533133540332999
Ϋ@@ 1
Б 0.01563083086790229
Все@@ 0.012970566272982459
СССР 0.00626825637638684
ан 0.009911704472733632
го 0.001343126460700278
де 0.00211819628929409
ние 0.0015170299040357853
сан@@ 0.021090036460144748
сы 0.006732037757467003
тин 0.017278207024346674
ции 0.0011183542505392439
բ 1
الن@@ 0.009084038605996974
ح 0.009913785904938835
ত@@ 1
ფ@@ 1
₯ 1
∇ 1
∗ 1
家@@ 0.007223193892042165
﻿ 1
Distr@@ 0.014683499537701579
Kik@@ 0.1033380818498231
Osman@@ 0.06773192653264534
Viet@@ 0.010293696322016849
again 0.003442568479055985
alif@@ 0.005479000322355584
andes 0.01321060284922937
baz@@ 0.05492191125059415
cet 0.011714884004516474
division 0.004659870513996373
iev@@ 0.003763472556081717
iß@@ 0.008465074380650087
ión 0.003504747373225919
libre 0.013728540605416529
maz@@ 0.05203675428539572
nicht 0.001193684189594611
tant 0.003576595796802693
third 0.0028720305873167823
tores 0.009834414969941415
trat@@ 0.010060655751440026
trä@@ 0.005286587581045792
uza 0.09566372683382625
vez 0.0047563077892033585
º 0.014980063000173897
¾ 0.6020758971554899
áng 0.03004409276957223
änd@@ 0.008502885086047681
ļ@@ 0.4896309115245537
ɨ@@ 1
̱ 1
Я 0.02341177212940135
дор 0.028852731625466095
лю@@ 0.0027164565588290415
ско@@ 0.0025956473052639573
стиче@@ 0.009099296562833346
те 0.0017178212201841105
ту@@ 0.002527178404100516
ام@@ 0.00990371153816517
ℓ 0.9956406610969575
太@@ 0.0077605711704321475
平@@ 0.006126670767013215
民@@ 0.004356625492455523
민@@ 1
Buenos 0.012302397711186552
Jahr@@ 0.020200964400321604
January 0.0018333050531263895
Leben 0.003624134553621738
Soh@@ 0.04371122350996393
Wash@@ 0.1079420709392234
Yun@@ 0.031192255592468528
alan 0.014341790876246024
appe@@ 0.004040199506492469
bed@@ 0.007335950043044682
büt@@ 0.04983201506896238
conqu@@ 0.009683763207277398
const@@ 0.010223643475733223
dav@@ 0.006444483979751039
early 0.0018873018445949132
eden@@ 0.01247522777338089
embre 0.00633140222507124
eso 0.018255120801126554
half 0.00380390188902755
hier 0.007371469271616848
ient 0.009028603057140197
iler@@ 0.015955140168558066
inner@@ 0.010063468982086099
minut@@ 0.0060968025386262635
modern 0.00544603698032587
next 0.003782140610314623
onnat 0.008625825521938024
oren 0.0050402384946147145
relati@@ 0.004133408283951971
sad@@ 0.04089966628873163
wake 0.03688637658207327
Ş 0.6880854751128539
ŭ 1
ż 0.3888470403952671
ǔ@@ 0.9603688112686226
̀ 0.12537388033917024
доро@@ 0.004902678681625433
фе@@ 0.003518668608691329
ռ@@ 1
الح@@ 0.006789799369086681
ور@@ 0.009107178246787305
ზ@@ 1
ო 1
῾ 1
‐ 0.32972105486601755
≪ 1
シ@@ 0.8763237285322011
ロ@@ 1
文@@ 0.004454908302732099
Fak@@ 0.01518124287870092
Im 0.0010953619187547342
Platz 0.005233440214599726
Santi@@ 0.14503897621547143
Virgin@@ 0.06666766103754179
Wasser@@ 0.008401049731016654
abaj@@ 0.024864555330373215
adap@@ 0.004841478483868597
aña 0.01365089238825731
bao 0.01063675373325522
benz@@ 0.0349266147204387
both 0.001512813815688239
carr@@ 0.011539738570902158
champi@@ 0.003077610355173587
cil 0.007895848702546764
commer@@ 0.003782791426047218
conserv@@ 0.004191570026181326
cost@@ 0.006664875148662072
droit 0.011109783215336712
enga 0.05941273349596354
esha 0.08966252972057406
hak@@ 0.030990432795364117
keit 0.0031806961869912855
provin@@ 0.009631225867217989
tah@@ 0.039769838415701475
yaz@@ 0.012362700362409362
º@@ 0.1050109131598609
û 0.03732180634953309
ħ 1
Œ@@ 0.05459610665058463
Ге@@ 0.007747107344980429
Лю@@ 0.010552039209470301
М 0.007739677278809148
Об@@ 0.007476189246478071
Сан@@ 0.009946255506700636
др 0.02075106779993823
мар@@ 0.005106603604498729
стро@@ 0.002938149586646577
խ@@ 1
بن@@ 0.017166004755381742
ير 0.010921211528117494
ং@@ 1
য 1
າ@@ 1
⊕ 1
ハ@@ 1
五@@ 0.008277794178256229
会 0.004158270814975841
宮 0.05014161259331936
林@@ 0.00956160421421599
Ban 0.02402581957393582
Unternehmen 0.009570835440457528
adores 0.004246843676219115
best@@ 0.0027781161669656928
chini 0.10481724452419205
contra 0.005367189513001839
coul@@ 0.00980650442946975
defin@@ 0.0038847089509605336
destr@@ 0.004775150288057808
deut@@ 0.004329868169206424
director 0.003541793767591328
edil@@ 0.020308101331834146
ellas 0.01285743856260898
encore 0.0059471441081354656
estas 0.007474817597468759
iş@@ 0.008260602878626348
kana 0.1078243562545608
large 0.0023133302984717527
mik@@ 0.04642464413398907
mont@@ 0.00970513064618059
mort 0.004565065753109697
nur 0.001975504210543671
retr@@ 0.009765529948021967
sah@@ 0.027329144340135503
schafts@@ 0.00464596325608773
tous 0.006224751532731515
without 0.004032346377706794
ık@@ 0.01390478788305017
̌ 1
Кра@@ 0.025532714933952573
Му@@ 0.0067263389882379985
Ту@@ 0.012131552257778462
ед@@ 0.008776717488398412
зи@@ 0.002011375125931318
нин 0.022008067350629622
ня 0.004856246458186193
от@@ 0.0008983104532420988
ри 0.0032091139072867227
спор@@ 0.006462021872049521
ای@@ 0.019789317732631113
بر@@ 0.009704564779988229
ز 0.007680416102550853
عبد 0.03419010128557844
ေ@@ 1
Ὠ@@ 1
テ@@ 1
ル 0.32963533215692653
李@@ 0.00973070373919402
語 0.013543376864340925
Guerre 0.010592589748495362
Tari@@ 0.03880638501095406
adan 0.028845049303268068
aî@@ 0.004397734789535267
design@@ 0.0023044078722281444
enos 0.037510609552811484
ensemble 0.007327156987955271
foc@@ 0.004459455680712455
gü@@ 0.013604846913891213
mano 0.010552492863148391
ngu@@ 0.05132797995678016
ously 0.0030792877856021025
pay@@ 0.006461066440055036
pens@@ 0.0084902658312759
sever@@ 0.011055453912674231
sik@@ 0.05721546000237499
tee 0.02996856002110285
tent@@ 0.008553887480912827
util@@ 0.009350883999066247
wah@@ 0.006535101086310221
would 0.0008921674344029055
ım@@ 0.013360021979755663
ű@@ 0.7736210676944503
ɫ@@ 1
ʋ@@ 1
ʔ@@ 0.8474785638614607
Н 0.006480303126115313
бра@@ 0.003685949397632322
жи@@ 0.0014252107763203302
ита@@ 0.004149950214268359
льный 0.004574503406349135
ф 0.006533667511629138
ъ@@ 0.007090815595159513
اد 0.018494948518060658
ج 0.009289027498692839
چ@@ 0.01856106960824863
ப@@ 0.861017589986292
င 1
ძ@@ 1
神 0.020450966653782914
門 0.01373294613315433
조@@ 1
Kup@@ 0.02324637687814762
Straße 0.00906357728712355
Vier@@ 0.009723258518791671
Welt@@ 0.005252051838617829
achen 0.007667100529500931
actor 0.005969563974379442
against 0.0012691515059318136
aison 0.012023413370166967
aliste 0.008694668227737803
assist@@ 0.004559589758494573
auen 0.0065946629040342
cht@@ 0.00906511055829961
church 0.003601347941400206
dose 0.013418748817439853
eines 0.0022279375915883488
enso 0.004817886888275239
europé@@ 0.008141249606768606
expl@@ 0.0037053111768426475
forma 0.004057918667819086
gew@@ 0.0023809010259592898
hii 0.0759222587991779
hiv@@ 0.0661340214060567
kup@@ 0.048232493801027634
leich@@ 0.008786852846301187
pein@@ 0.00902233708181811
recher@@ 0.008818984470230365
reib@@ 0.005272305699919632
rem 0.10540892986281293
six 0.0023984820342207416
uten 0.009302389385767678
z. 0.009543502430925317
zeit 0.0033469040156520404
Ét@@ 0.0286662446847761
ã 0.024670023974876873
ï 0.021071676258865486
ög@@ 0.01133861629558648
ús@@ 0.019608185182384268
ük@@ 0.017715622254453903
ünst@@ 0.007059460782055754
ız 0.026862928400975823
ž 0.13510259040281697
ǐ 0.6211587009133757
Мак@@ 0.010411862421417683
Фа@@ 0.016800397063083432
бри@@ 0.012470772386153597
вина 0.0288260929337367
гла@@ 0.0029003346813391865
зе@@ 0.0029960117399210028
обо@@ 0.00400452451453617
окру@@ 0.004620383010095708
тив@@ 0.003965615670732588
ть 0.0016232718036108928
є@@ 1
ј 1
ث@@ 0.006863621333183202
دي@@ 0.009340712488491651
म@@ 0.007345890536205915
़ 0.0033371635745617634
ர@@ 0.7472919473233366
ိ@@ 1
ც@@ 1
ḍ@@ 0.2958575713884473
ἠ 1
‌ 0.16113225706861825
≫ 1
♠ 1
♯ 0.9768956536819074
十@@ 0.003441600065683146
園 0.01883735445787271
地@@ 0.0031650817405637836
株@@ 0.24427822160669443
郎 0.037108999664396757
Entre 0.007909081617362273
II. 0.007138993942174134
Yıl@@ 0.06161498701990509
arios 0.004811459648246135
artist@@ 0.004781300425482309
cian 0.006415390610225237
compar@@ 0.0038264590041278334
deutsch@@ 0.015752141651230383
dik@@ 0.020390117300926047
disput@@ 0.006919441388094182
foot@@ 0.004948485130321972
génér@@ 0.005255895334583106
ilit@@ 0.007268544955211776
kale 0.03898873426033084
lesia 0.00855287545690669
million 0.002552621629067294
near 0.00279688681518979
oyun@@ 0.041308826272681155
represent@@ 0.0018816241401491002
rég@@ 0.0062117286038803465
rés@@ 0.004921222985189306
traf@@ 0.007137367606006345
transfer@@ 0.0061901786516679585
¿ 0.050245546241533406
éti@@ 0.006925379451964393
ül 0.060174026442232964
İstanbul 0.02858988977411173
ɲ@@ 1
ʃ 0.9536532704508764
Г 0.011283147825881315
Крас@@ 0.007818206995182599
Пер@@ 0.00393717665073766
Фе@@ 0.010683502859285402
до 0.001144083820190724
ите@@ 0.006980427601734106
лин@@ 0.004149944983622484
мов 0.0074414381086328465
па 0.004730605733201123
су@@ 0.0014199999374717197
ты@@ 0.0026449193861481654
ър 0.013736227457396343
ұ@@ 1
է@@ 1
ב 0.8508232452824512
ע 1
اء 0.00954379521653567
اس@@ 0.011224238082426324
خان 0.059369134908381166
گ@@ 0.013715976013103055
ۇ@@ 1
ស@@ 1
ḥ 0.39666010169191174
ἤ 1
⊆ 1
ⱏ@@ 1
Burundi 0.10925226230712541
Bürger@@ 0.007793007375240359
Spiel@@ 0.004595805841373266
ayı 0.022237019461108964
brach@@ 0.009495847575956798
chs 0.009275260037498173
comun@@ 0.005466982997483315
drei 0.002729168412926068
dur 0.023910798545390265
films 0.004353488654232456
fond@@ 0.005380345746301213
government 0.0018248944811040402
guit@@ 0.004974869926008905
gut 0.010016960319375974
iku@@ 0.08925677841300464
inco 0.06935328765227011
iran 0.1193410713105069
irat@@ 0.024722508891065215
kay@@ 0.012142997012584393
llev@@ 0.005871748841356912
mundo 0.007885126257885209
nouveau 0.005336164849262762
pays 0.004539352022354714
promot@@ 0.0033909328334996683
role 0.002898339662914211
sana 0.10311688669717242
spor 0.04998267187939325
telev@@ 0.009304488798120543
vier@@ 0.008817946581973922
yü@@ 0.04231699514565542
zor@@ 0.03372856281551056
éré@@ 0.006462523679222657
ör 0.0284344275218217
ʌ@@ 1
ʹ 1
Кара@@ 0.021467713282267407
Петер@@ 0.011770488224540937
Сто@@ 0.018155211886382003
аль@@ 0.0014811040923129023
вый 0.004004160538659397
ева 0.01365942504926607
йской 0.004746897294862084
лы@@ 0.00374565249006168
ме 0.002219932416531577
ные 0.0007147968766213381
санд@@ 0.10418923152324228
фи@@ 0.0022646154735921687
ья 0.004402174094494001
қ 1
ծ@@ 1
ց 1
ׁ@@ 1
اش@@ 0.02207315872648613
الإ@@ 0.00895037333144214
دي 0.016271173712730746
ما@@ 0.010615925227832904
مر@@ 0.012322066254180163
مو@@ 0.00914404667643108
نا 0.0202250405429307
් 0.9608400778602916
ු@@ 1
ἶ 1
ὤ@@ 1
京@@ 0.013784961843734345
安@@ 0.00440241823872917
Forsch@@ 0.008630660998619628
Kenya 0.02299429626990887
Kır@@ 0.06758620629062516
Tanz@@ 0.03710743275988025
Verein 0.0086785501549061
aciones 0.0014298920753799723
anno@@ 0.033641130658074725
azu 0.006605552069996013
contre 0.0023112759105401496
cá@@ 0.006809846566110647
deutschen 0.004791326487614648
district 0.002255104329992282
enfants 0.009483891587372053
fav@@ 0.006263803077479669
fot@@ 0.013170595047119035
herr@@ 0.008835962928737251
ieder 0.029484471269992388
independ@@ 0.0036577241147373405
loi 0.007595711644332632
là 0.0005839162050825204
members 0.0021117518479482626
munici@@ 0.033619046764863734
mé 0.013475108744319697
ober@@ 0.0076192981113022695
polic@@ 0.005617483710682416
registr@@ 0.005860094029611522
said 0.002146894596184291
sek 0.06166623138412901
sich 0.0004032108910942178
still 0.002474070933462515
tigen 0.0032711858446787204
tout 0.003055140960424739
unu 0.015742697902614875
women 0.0024985739784264467
zas 0.012497779081179593
Â@@ 0.022371777686558326
èmes 0.00850439234382155
ünde 0.012582812447950674
ŋ 0.4361885932082451
ϛ 1
Кар@@ 0.005500088308124267
Ком@@ 0.010165242810104407
Мария 0.025333683007363703
П 0.005948351033580684
Ю 0.03637420448553186
бли@@ 0.005864912167012833
боль@@ 0.002433574462125857
ван@@ 0.003843356017188633
дро@@ 0.010024329563958897
ны 0.0011077315566697713
пол@@ 0.002019532523724139
рис 0.02075663879761553
ские 0.002312683606328337
стан 0.019702559540514284
щи@@ 0.0020393820595715757
ёт@@ 0.010388683791054492
џ@@ 1
Ե@@ 1
Ն@@ 1
ւ 1
ال 0.0078928740665972
الد@@ 0.008055900909126145
جب@@ 0.08389228697498968
رة 0.007763136680518788
لل@@ 0.004092667258787131
لو@@ 0.008998096897330965
مع@@ 0.008682360474611395
ک@@ 0.008582744200129578
ܘ@@ 1
ර@@ 1
ᾱ@@ 1
ⰻ@@ 1
オ@@ 1
四@@ 0.004671824065897321
少@@ 0.01381225670313791
者 0.002964353928686215
華@@ 0.010088634825941299
高@@ 0.003445314814470775
선@@ 1
Böl@@ 0.037578206063901644
Frau 0.00820107826456607
Mär@@ 0.030713796082803644
Nigeria 0.016971069118692776
alı 0.012637656761253094
being 0.0010472651227018126
bul 0.08203656891256438
combin@@ 0.003964091631042084
determin@@ 0.005732709355795869
ersch@@ 0.0039564639101243105
exten@@ 0.003567420251873947
fak@@ 0.023159689194122337
kid@@ 0.0208919617957821
organiz@@ 0.0016656894719581637
present 0.002771704641432935
probl@@ 0.0033863437282640463
religi@@ 0.003985942275993688
sociation 0.007113285570863523
Über@@ 0.0031878285058328437
èg@@ 0.007709939060051683
équ@@ 0.007733966701879093
úl@@ 0.009345983470923221
ück@@ 0.00692576683474918
Ć@@ 0.24064946396076312
ĕ@@ 0.9064463142522078
İk@@ 0.06585478713954576
ź@@ 0.15695721074361454
ș 0.062055431792408404
ɾ 1
ʂ@@ 1
Димит@@ 0.04621515784659508
ата@@ 0.0035945715502513436
ж 0.004887641097751783
лё@@ 0.003536790961986013
рец 0.030531661042699727
ска@@ 0.0023489150408194034
сов 0.004380050520205722
це 0.0051478600454792035
Թ@@ 1
ց@@ 1
آ@@ 0.008818819681624984
با@@ 0.010492246009060145
في@@ 0.007291361493359828
وا@@ 0.0057147908211894185
ور 0.007178184529829137
ۋ@@ 1
দ 1
হ@@ 1
ਾ@@ 1
த@@ 0.5580146385425441
བ@@ 1
ὦ 1
∂ 1
和@@ 0.011993158717883558
明@@ 0.006880722200132582
江@@ 0.0090057776058231
法@@ 0.003933218945149717
Alman@@ 0.06321736741772419
Gemein@@ 0.0033441694091387517
Wirt@@ 0.007122022313373133
anlığı 0.06717913187552167
ately 0.0019479404949219277
awa@@ 0.04604895337221112
beit 0.004667665884814938
candid@@ 0.003115542551749592
children 0.00221217799730603
community 0.0028683127286480664
deu@@ 0.03669449490992187
gran 0.0038669692439782743
ibu 0.14113822913490695
ically 0.0030192587074522096
ités 0.003302034605469254
kip@@ 0.11527045080471499
monum@@ 0.005670533090836185
naf@@ 0.22853423199875578
ndi@@ 0.08119136456506319
ngh@@ 0.020803661883712774
nomin@@ 0.003182007658061134
propi@@ 0.008348763823874648
qued@@ 0.008255188872417591
stil@@ 0.020849499277640654
temper@@ 0.005710817892054379
vile 0.02697449977446679
vom 0.0014920558821804077
wap@@ 0.18552485374341668
who@@ 0.0028169506763204514
ède 0.0059619532435079585
être 0.0017558477722765182
ıs 0.11643683512891011
ň@@ 0.11114677619925178
ǐ@@ 0.6605789264400606
ʼ@@ 0.06378626964632508
̞ 1
Бал@@ 0.017198259377203585
Македо@@ 0.06599241469887605
Моск@@ 0.005852566818349457
Национа@@ 0.012044281895744472
Ново@@ 0.013102376580827763
из@@ 0.0009383138372833478
льная 0.0073281380061318985
рен@@ 0.003401790045135423
рин 0.023815137850859147
ске 0.010020877240475042
ского 0.0006011679014468604
тов 0.0019780708294838243
три@@ 0.0041603795149760215
ғ@@ 0.7023940205025813
մ 1
أبو 0.10465718225992875
ام 0.009001790215773325
در@@ 0.013082055976012483
ذ@@ 0.006772042672025672
ند@@ 0.014102078299522284
ަ@@ 1
द 0.004722496967398334
प 0.0019388075137300254
रा@@ 0.006958134188398532
မ@@ 1
წ@@ 1
™ 0.47640013555171246
∪ 1
● 0.3163872590654872
ド 0.5515247723117902
プ@@ 1
대@@ 0.7456614921655403
Ağ@@ 0.08541992071234075
Parlam@@ 0.010289860049403523
anderen 0.0036036582564261638
anl@@ 0.006229494874429489
appear@@ 0.001489560933051343
bang 0.013173210692529509
before 0.0010838955449548697
bey@@ 0.038660891506161796
bish@@ 0.004376956912789661
brit@@ 0.01107844132818826
chef 0.006104385840027775
company 0.0016786385552750413
ehir 0.07661978651679378
exist@@ 0.002312793106138835
ezi 0.09173650479563658
formed 0.0016684937894497211
four@@ 0.003363200416608353
govern@@ 0.004286507227661632
habit@@ 0.0036538193463662547
hac@@ 0.009869095603817345
hoa 0.005448077453259157
imbo 0.06668559175955256
imiento 0.002936641200206657
jud@@ 0.004706585564479428
kem@@ 0.03925783073381159
lima 0.026880457157156087
nom 0.002161791042775175
prac@@ 0.002841820982367233
rière 0.007346583775964309
tam 0.03961863729768357
versit@@ 0.014056637119435248
wann 0.07698731472313584
wissen@@ 0.004893309482054092
ür 0.006242474836593053
İn@@ 0.04119197991407913
ʼ 0.4756752610400897
Гра@@ 0.01252675497021233
Ин@@ 0.004032864617013136
бал@@ 0.013124543208534414
град@@ 0.009202815820848408
лин 0.012475028880248302
нато@@ 0.014686445022921305
ря@@ 0.0016481036949598136
слав@@ 0.00879587021065392
сов@@ 0.011481271869182958
ў 1
Տ@@ 1
փ@@ 1
ֵ@@ 0.9101654741622779
ات 0.004009333846633639
الخ@@ 0.010986021680624474
القدم 0.06401170897623029
نا@@ 0.00972362190910492
त 0.0036934511313507674
न 0.003889511882184739
ြ@@ 1
ង 1
ἀ 1
ὃ 1
Ὄ@@ 1
ῷ@@ 1
☉ 1
り@@ 1
ァ@@ 1
ウ@@ 1
パ@@ 1
人@@ 0.0025394201631523615
佐@@ 0.046921869263129704
宮@@ 0.05562153634106377
拳 0.16398255897377295
皇 0.04189374502355036
김@@ 0.7728189215264398
Engl@@ 0.020141255163621787
Mkoa 0.1830196545281399
Phi 0.023773878844228855
Việt 0.007319052761989748
aifa 0.06698656756809516
alem@@ 0.008384433784412736
another 0.002198170467466373
direction 0.005033995883601989
eden 0.01145750524574495
ehem@@ 0.033925209558779146
eler@@ 0.007356252996163134
jeu 0.007062711218438725
kam 0.002873582121250145
member 0.001550622212980032
mois 0.006216756485313396
partic@@ 0.00226670947687216
political 0.0027131277027865547
rail@@ 0.0032758837269891337
resid@@ 0.0029927332292425967
seur 0.0048913224727519895
trois 0.002637485037531441
ungu 0.1535527270936882
utsch@@ 0.031772542584151305
uzi 0.12301022544962671
written 0.0027038001476502194
wur@@ 0.01344142297797926
zey 0.09633256678319034
çal@@ 0.02551403777031686
ême 0.012297090132683175
üst@@ 0.007265995443650321
ıl 0.03981323640754283
ź 0.04373752160414249
ʎ@@ 1
ак@@ 0.002045342435395825
бан@@ 0.007609660411858706
ера 0.0032598990815919213
осу@@ 0.005790071890979218
пор@@ 0.003983311723564011
ских 0.0013166410913191793
тина 0.014507936139322688
чи 0.0036697751123662466
шка 0.01748414096932596
ё 0.0038250590940225376
ջ@@ 1
ש 1
ست@@ 0.006840274608895705
سل@@ 0.017182163627880043
لكرة 0.05963618454238087
ون@@ 0.006629770361466697
وي@@ 0.004700636235708401
শ@@ 1
ো@@ 1
ு@@ 0.5185739642082526
์ 0.0032876866394316293
ṛ@@ 0.3864701702449536
ἣ@@ 1
↔ 0.5138022833265501
し@@ 0.7048045165012814
な@@ 0.7542483191839421
キ@@ 1
ト 0.2991186957883441
上@@ 0.003666751170409988
国 0.00327376485350733
木@@ 0.01646250896381431
王@@ 0.005025650540241925
국@@ 1
도 1
19. 0.005147864437679334
According 0.002796682091977705
Anc@@ 0.07693907334090488
Francia 0.008964608348237132
Gesch@@ 0.00331349122881327
Lond@@ 0.07873707240568595
Tür@@ 0.014094410019254603
Verein@@ 0.004490164004682708
actu@@ 0.0018690860241412366
arak 0.01118601413746292
atif 0.009823023787535457
auspi@@ 0.006972018370553202
cada 0.0045313848617892115
called 0.0011766698057176959
clas@@ 0.004400837040088722
conse@@ 0.003697312740233812
développ@@ 0.005232241067004692
elected 0.002618878469578687
español 0.008348286746870416
hui 0.0062011161168814355
kut@@ 0.03640948010639619
lieu 0.003619003143174771
maf@@ 0.04201602901963435
nah@@ 0.005602137202617914
[...]
