ya 435152
. 413752
wa 361368
na 314408
, 300899
katika 123455
kwa 117974
ni 107799
ku@@ 97863
&quot; 96989
m@@ 92620
la 89292
) 84269
( 84121
za 81158
i 72470
M@@ 68366
a 59809
u 58896
ia 57319
k@@ 57220
u@@ 55127
am@@ 54100
w@@ 52437
ak@@ 50373
o 49737
K@@ 49252
U@@ 48402
kuwa 48090
cha 42961
mwaka 42311
kama 41404
ali@@ 41245
j@@ 40932
yake 40101
ki@@ 38088
@-@ 38001
h@@ 37766
in@@ 37503
an@@ 36137
ana 34866
n@@ 34251
W@@ 34072
ani 33836
z@@ 32963
a@@ 32767
ik@@ 32537
hu@@ 32135
y@@ 32064
af@@ 31483
o@@ 31381
N@@ 31260
p@@ 30665
um@@ 29991
ch@@ 29514
at@@ 29456
nchini 28672
al@@ 28455
: 27603
H@@ 27137
as@@ 27094
it@@ 26949
ili 26386
ili@@ 26161
im@@ 26133
ini 25933
ama 25652
b@@ 25612
ut@@ 25383
isha 24833
Ki@@ 24707
ung@@ 24430
B@@ 24426
ali 24309
au 23907
aji 23754
ano 23741
v@@ 23635
ah@@ 23612
S@@ 23361
un@@ 23311
ad@@ 23219
T@@ 23158
f@@ 22830
uli@@ 22377
ari 22089
ika 21977
ma@@ 21832
mw@@ 21505
ab@@ 21383
aj@@ 21182
kutoka 21150
il@@ 21001
wan@@ 20909
i@@ 20848
ot@@ 20681
us@@ 20680
ar@@ 20357
D@@ 20288
vi@@ 20181
kwenye 20178
ang@@ 20121
t@@ 19904
L@@ 19888
ek@@ 19756
wake 19535
J@@ 19492
pia 19283
wali@@ 19250
lugha 19223
A@@ 19057
e 18977
ina 18960
zaidi 18897
vya 18893
watu 18559
s@@ 18517
kati 18506
sh@@ 18491
iki 17664
ea 17573
alikuwa 17451
el@@ 17272
ny@@ 17202
&#91; 17132
&#93; 17076
ish@@ 17067
R@@ 17009
I@@ 16907
wak@@ 16889
aw@@ 16880
d@@ 16842
az@@ 16789
mji 16781
amb@@ 16714
om@@ 16599
ua 16506
oni 16493
; 16275
mi@@ 16232
mak@@ 16000
Mto 15849
ir@@ 15794
ishi 15760
uk@@ 15674
P@@ 15503
aka 15492
zi 15360
awa 15343
on@@ 15253
e@@ 14663
kum@@ 14654
en@@ 14621
ilikuwa 14614
zo 14340
kwanza 14316
mwa 14293
iko 14270
ap@@ 14268
is@@ 14221
ok@@ 14209
l@@ 14077
Kwa 14030
mat@@ 14019
nchi 14010
hii 13969
ig@@ 13909
yo 13869
ag@@ 13858
ha 13792
Tanzania 13766
aa 13763
ao 13691
eo 13646
kut@@ 13631
ka 13561
moja 13489
pamoja 13396
amu 13277
ing@@ 13244
hadi 13194
wakazi 13178
g@@ 13095
G@@ 13092
miaka 13049
asi 12994
up@@ 12985
li@@ 12979
Mwaka 12965
azi 12833
iwa 12750
r@@ 12700
ha@@ 12623
jina 12617
si 12590
kus@@ 12551
&apos; 12525
Afrika 12463
wakati 12446
iri 12438
po@@ 12331
ur@@ 12328
ach@@ 12303
av@@ 12233
Ali@@ 12209
E@@ 12160
juu 12149
V@@ 12073
os@@ 12041
Kenya 11966
ati@@ 11932
isi 11770
and@@ 11706
lakini 11675
huko 11581
ul@@ 11562
da 11542
abu 11532
Z@@ 11502
kata 11426
ji 11383
tarehe 11339
ara 11203
asa 11011
uni 10976
em@@ 10956
O@@ 10949
mara 10939
ug@@ 10883
F@@ 10881
mto 10867
an 10861
ji@@ 10725
ich@@ 10723
ima 10704
ishwa 10692
hiyo 10626
kit@@ 10525
C@@ 10489
aba 10486
ndani 10479
mnamo 10478
mwan@@ 10385
Y@@ 10378
kazi 10329
ba@@ 10328
ati 10233
ambayo 10189
ala 10177
eza 10124
Ch@@ 10093
Bahari 10082
uz@@ 10069
ti@@ 10065
et@@ 10038
hi@@ 9987
we 9975
wat@@ 9936
anz@@ 9896
ata 9890
idadi 9886
anya 9769
mas@@ 9737
kubwa 9685
aki 9656
imbo 9654
eneo 9585
Mkoa 9448
uma 9439
ita 9426
ta@@ 9420
Katika 9361
uh@@ 9359
anza 9324
ub@@ 9312
or@@ 9305
.@@ 9285
bu@@ 9281
ol@@ 9279
mt@@ 9266
Kati 9254
sana 9174
Mar@@ 9168
Maji 9138
sehemu 9133
hatimaye 9088
op@@ 8982
eni 8941
kim@@ 8919
if@@ 8901
any@@ 8900
hi 8896
nyingi 8881
yao 8832
kup@@ 8794
maj@@ 8776
baada 8749
oto 8739
wal@@ 8724
mkoa 8659
kwamba 8654
idi 8575
ari@@ 8509
ema 8505
th@@ 8386
chini 8371
una 8358
kundi 8300
oma 8298
of@@ 8270
id@@ 8236
Marekani 8227
wana@@ 8205
we@@ 8191
ambao 8190
Wilaya 8178
Al@@ 8122
ong@@ 8102
mb@@ 8092
apo 8087
uch@@ 8063
ja 8046
iti 8015
Wa@@ 8012
wenye 7997
be 7993
umu 7986
eli 7975
tu 7970
huo 7960
bu 7872
ile 7868
ai 7842
di 7837
unapatikana 7831
esh@@ 7793
au@@ 7789
hasa 7786
kuf@@ 7773
adi 7738
unga 7738
hivyo 7721
mp@@ 7658
Kusini 7650
2 7648
ogo 7645
3@@ 7636
ng@@ 7612
y 7555
anga 7547
iz@@ 7517
de 7513
bi@@ 7512
aweza 7476
du@@ 7471
oa 7468
mkuu 7439
1 7420
eng@@ 7335
uf@@ 7317
uo 7304
timu 7272
ib@@ 7231
ar 7192
es@@ 7135
usi 7077
har@@ 7067
ale 7062
yanaishia 7054
oh@@ 7044
itwa 7017
di@@ 7015
ba 7012
ezo 7012
ada 7005
fu@@ 6988
er@@ 6967
imu 6941
kawaida 6939
sensa 6939
sababu 6933
kuj@@ 6925
weza 6905
fu 6876
ko 6864
eka 6863
ye 6819
mbalimbali 6815
- 6799
Baada 6763
ri 6738
4@@ 6728
isiwa 6714
yote 6702
kur@@ 6686
us 6624
Sh@@ 6623
on 6597
ira 6592
tu@@ 6588
ote 6581
yenye 6565
Kik@@ 6540
andi@@ 6525
kik@@ 6523
map@@ 6519
od@@ 6517
Uganda 6512
al 6509
wen@@ 6479
wah@@ 6470
zin@@ 6460
si@@ 6440
kin@@ 6439
wasemaji 6433
do@@ 6410
Kis@@ 6397
Kim@@ 6396
ongo 6395
was@@ 6387
kil@@ 6380
huu 6365
und@@ 6357
mab@@ 6349
hut@@ 6334
Wak@@ 6330
5@@ 6329
namba 6319
zake 6309
gen@@ 6305
og@@ 6304
me@@ 6303
Mashariki 6273
kaskazini 6267
ta 6262
yo@@ 6256
endelea 6191
3 6154
wengi 6147
wilaya 6143
ind@@ 6138
Kil@@ 6137
ambu@@ 6127
kila 6111
sa@@ 6105
man@@ 6078
kaunti 6057
Kit@@ 6050
An@@ 6022
mad@@ 6004
irika 5991
iliy@@ 5977
wa@@ 5963
KK 5912
vile 5912
maji 5894
alizaliwa 5892
ikia 5873
uzi 5859
in 5847
6@@ 5824
ambo 5818
po 5816
5 5785
eti 5777
ath@@ 5773
eno 5748
ob@@ 5743
kuu 5727
is 5724
ingine 5718
bahari 5696
chi 5681
una@@ 5680
lin@@ 5670
yan@@ 5665
ambaye 5645
bar@@ 5644
be@@ 5631
s 5630
hali 5623
Kufuatana 5616
aliwa 5614
eb@@ 5610
hal@@ 5600
alit@@ 5563
wapatao 5551
lake 5550
uainishaji 5537
m 5531
Wakati 5526
waf@@ 5516
kabla 5512
uliwa 5503
mah@@ 5492
ri@@ 5489
Mungu 5485
adi@@ 5464
iliyofanyika 5445
2012 5434
am 5428
Mak@@ 5427
Mnamo 5410
ume 5399
siku 5393
isi@@ 5388
aina 5384
iki@@ 5383
vy@@ 5378
ud@@ 5372
ih@@ 5368
magharibi 5362
amba 5346
kuto@@ 5345
vit@@ 5338
ev@@ 5337
/ 5329
Kanisa 5327
isho 5322
umb@@ 5318
umia 5311
4 5292
Kristo 5285
aifa 5267
ania 5263
kul@@ 5253
kuna 5251
Ma@@ 5244
inayozungumzwa 5244
eshi 5234
upande 5227
io 5217
Ni 5211
fa 5206
apa 5199
uta 5197
karne 5191
ay@@ 5180
ki 5171
mbili 5168
ambapo 5163
maz@@ 5163
Uingereza 5161
kusini 5150
Kib@@ 5133
indi 5118
izi 5115
dia 5104
udi 5094
iv@@ 5084
ubwa 5077
adil@@ 5074
pe@@ 5067
njia 5065
oliki 5065
akiwa 5060
muziki 5058
imehesabiwa 5057
ej@@ 5040
ne 5034
Ny@@ 5030
kan@@ 5023
atu 5020
uka 5019
dhidi 5008
do 5005
olewa 5002
undi 4999
ep@@ 4993
Naili 4992
eg@@ 4983
ikiwa 4979
d 4978
7@@ 4972
kw@@ 4971
iriki 4969
mo@@ 4965
wani 4964
andishi 4963
emb@@ 4963
In@@ 4958
Ku@@ 4956
inayo@@ 4956
afu 4955
tena 4952
h 4949
ge 4945
ona 4928
ajili 4923
karibu 4908
cheza 4906
ash@@ 4900
maf@@ 4891
yewe 4860
aliy@@ 4858
inahusu 4858
tofauti 4850
Kin@@ 4848
taifa 4842
er 4838
Papa 4831
muda 4824
ez@@ 4818
jimbo 4815
uru 4815
hak@@ 4800
inga 4800
ov@@ 4797
endo 4775
iliyo@@ 4775
end@@ 4770
umi 4764
aja 4760
filamu 4760
fuata 4754
Mat@@ 4729
sasa 4723
ush@@ 4707
mtu 4702
Makala 4691
ilit@@ 4689
umba 4683
nyingine 4679
zinaz@@ 4677
ai@@ 4674
ham@@ 4669
olojia 4659
ame@@ 4652
ef@@ 4625
hata 4625
hin@@ 4621
ota 4613
inay@@ 4612
le 4585
es 4578
tangu 4559
ane 4556
wote 4549
wao 4548
mil@@ 4546
– 4544
mmoja 4535
jiji 4525
awala 4523
serikali 4501
kua 4493
kis@@ 4470
kadhaa 4469
6 4465
pili 4455
mashariki 4453
hili 4451
ezi 4442
kutokana 4442
ra@@ 4437
humo 4426
lil@@ 4424
hivi 4419
du 4417
elekea 4409
hat@@ 4405
nafasi 4404
eh@@ 4395
Kaskazini 4380
lia 4379
anda 4378
pa 4374
dh@@ 4370
wanja 4368
ifu 4360
uu 4350
ilia 4343
Kir@@ 4342
wengine 4337
kuliko 4334
ingi 4333
7 4327
de@@ 4326
mag@@ 4310
mit@@ 4300
hilo 4299
umika 4296
ziliz@@ 4289
Tar@@ 4272
okea 4266
tatu 4255
Tangu 4248
Kongo 4246
20 4244
re@@ 4240
ras@@ 4236
maisha 4227
refu 4224
onekana 4222
huri 4220
&amp; 4214
asili 4213
Mw@@ 4208
kij@@ 4200
esha 4188
&#124; 4186
aliye@@ 4184
jini 4177
Chuo 4173
cho 4170
wezi 4160
imb@@ 4148
alipo@@ 4145
ye@@ 4140
ful@@ 4137
um 4134
ro@@ 4122
Mji 4103
kon@@ 4091
ow@@ 4085
unda 4085
mich@@ 4083
el 4082
kuhusu 4076
aye 4072
aya 4065
Vi@@ 4041
isa 4039
ma 4038
saf@@ 4030
tam@@ 4028
eta 4021
onjwa 4003
chake 4001
Mas@@ 3997
2@@ 3993
baadaye 3991
mu@@ 3989
duniani 3988
ziwa 3985
leo 3984
ataifa 3974
ou@@ 3974
jum@@ 3967
x 3957
Sikukuu 3956
kuz@@ 3953
k 3952
mujibu 3952
t 3952
Ar@@ 3948
falme 3944
umo 3941
ho@@ 3936
A 3935
10 3931
maeneo 3928
mik@@ 3924
uri 3916
9@@ 3909
kea 3905
Kig@@ 3902
sim@@ 3894
tar@@ 3893
ndi@@ 3889
9 3888
linal@@ 3884
uv@@ 3881
000 3879
kub@@ 3876
Ulaya 3849
uli 3846
mash@@ 3844
iy@@ 3833
kush@@ 3833
mkubwa 3830
enga 3827
ina@@ 3826
yak@@ 3826
usi@@ 3824
mf@@ 3803
muhimu 3801
ele 3800
pan@@ 3800
Bar@@ 3790
Kiingereza 3790
10@@ 3789
uza 3789
ewa 3787
Ufaransa 3784
oka 3775
“ 3773
kam@@ 3772
dio 3756
nje 3754
fa@@ 3752
mar@@ 3752
endel@@ 3744
shule 3743
walio@@ 3743
pata 3742
Pia 3741
mchezaji 3740
oz@@ 3734
mch@@ 3728
ongozi 3728
8 3721
san@@ 3715
8@@ 3708
oko 3696
walikuwa 3696
pos@@ 3693
kale 3691
wany@@ 3691
maarufu 3687
asi@@ 3684
uwe@@ 3684
imba 3682
imo 3680
bila 3679
thi 3679
ed@@ 3677
ti 3677
Hindi 3675
kufanya 3673
chang@@ 3669
mwen@@ 3652
se@@ 3652
alia 3636
yali@@ 3636
ofu 3634
wango 3626
gi@@ 3617
kuli@@ 3616
Ujerumani 3615
anisha 3612
mjini 3611
anyika 3609
bin@@ 3605
of 3599
adhi 3596
Eneo 3593
19 3589
watoto 3589
hud@@ 3588
wana 3588
yaani 3586
Magharibi 3584
zote 3584
hur@@ 3579
familia 3575
vin@@ 3567
pekee 3554
kupitia 3550
” 3544
singi 3543
wili 3541
hus@@ 3539
ing 3536
inda 3533
kodi 3529
imani 3527
to 3521
ungu 3515
opo 3512
fo 3502
ula 3500
15@@ 3499
atia 3491
Kat@@ 3488
Mis@@ 3480
ishaji 3479
enda 3471
ana@@ 3463
wam@@ 3462
aguzi 3457
alis@@ 3455
kar@@ 3450
ino 3449
wanawake 3448
ababisha 3446
umizi 3439
Ba@@ 3437
zamani 3436
en 3432
I 3431
biashara 3431
% 3427
and 3427
ke 3427
ila 3424
kabisa 3424
iti@@ 3422
Mp@@ 3418
The 3417
usu 3413
vita 3413
12 3404
alim@@ 3381
julikana 3378
Januari 3369
Was@@ 3364
aha 3362
umiwa 3361
unzi 3360
kid@@ 3358
msh@@ 3356
ayo 3355
ida 3354
15 3351
angi 3350
zili@@ 3348
bunge 3346
lamu 3345
Mei 3337
azo 3337
klabu 3336
ime@@ 3334
Kif@@ 3322
kutumia 3321
wimbo 3312
habari 3307
ilim@@ 3304
tish@@ 3303
oro 3301
l 3298
wenda 3294
ingia 3290
lima 3286
wala 3277
Wakristo 3275
waz@@ 3269
far@@ 3268
Mal@@ 3267
ist@@ 3264
mwisho 3263
onyesha 3263
okana 3262
historia 3258
elimu 3239
ango 3237
kamp@@ 3235
huwa 3231
anzishwa 3229
bora 3220
apo@@ 3215
maana 3205
mtakatifu 3204
Oktoba 3198
chu@@ 3198
Japani 3195
so@@ 3192
awali 3190
bo@@ 3181
alo 3172
Italia 3161
alif@@ 3160
eria 3156
alik@@ 3155
ask@@ 3140
ulikana 3139
ako 3136
eshimiwa 3136
mita 3131
mpya 3129
kipindi 3128
ko@@ 3126
p 3119
kat@@ 3118
ezwa 3117
mengine 3115
Kikuu 3112
iga 3107
kun@@ 3106
albamu 3102
Jam@@ 3101
16@@ 3100
ten@@ 3099
enzi 3093
Julai 3091
hizi 3091
Roma 3090
BK 3089
arabu 3087
fupi 3082
Juni 3080
zao 3078
ent@@ 3071
ito 3069
ezaji 3068
n 3068
ezaliwa 3067
kati@@ 3067
ku 3067
uj@@ 3066
sit@@ 3065
ambazo 3062
uki 3058
pen@@ 3042
kupata 3040
binadamu 3035
kuanzia 3030
mi 3027
engo 3025
ehe 3022
Man@@ 3021
mpira 3021
oy@@ 3021
air@@ 3019
Novemba 3015
le@@ 3014
izaji 3013
Burundi 3012
16 3011
Id@@ 3010
waishio 3006
17@@ 2994
unia 2994
mwanam@@ 2990
onge@@ 2986
aduni 2985
opatikana 2985
mis@@ 2978
jamii 2975
18 2972
gh@@ 2969
jumla 2968
mito 2967
11 2963
umri 2962
30 2961
lili@@ 2960
yanay@@ 2951
Machi 2944
hayo 2942
uko 2936
milioni 2932
ike 2931
Desemba 2927
ais@@ 2926
uzo 2926
uvu 2923
Agosti 2918
Wan@@ 2911
Septemba 2910
amii 2906
anay@@ 2906
2000 2905
ikuu 2905
ip@@ 2903
Maisha 2892
ine 2892
1@@ 2887
kab@@ 2887
bel@@ 2886
ado 2883
ongo@@ 2883
Wat@@ 2877
Aprili 2876
huadhimishwa 2875
km 2874
Mi@@ 2871
mfano 2868
baad@@ 2866
Historia 2864
omo 2858
New 2854
tr@@ 2851
13 2850
wi 2848
sa 2847
dogo 2842
angaza 2841
zuri 2840
et 2834
iku@@ 2834
migu@@ 2827
takriban 2826
dunia 2825
ingana 2824
usawa 2818
he@@ 2811
17 2804
2014 2802
thi@@ 2789
omb@@ 2777
st@@ 2775
nde@@ 2771
Nigeria 2758
atifu 2746
ant@@ 2745
2007 2741
mau@@ 2737
egem@@ 2734
tiki 2730
aki@@ 2721
14 2720
nd@@ 2712
Yes@@ 2709
14@@ 2702
Febru@@ 2695
akini 2693
Kid@@ 2690
dini 2682
ie 2682
to@@ 2679
ais 2674
jaw@@ 2671
meng@@ 2671
Am@@ 2667
era 2664
ulia 2663
18@@ 2658
auti 2652
Ab@@ 2651
As@@ 2644
su@@ 2633
Sal@@ 2627
wach@@ 2627
,@@ 2611
ony@@ 2608
ora 2605
elek@@ 2600
25 2586
aza 2586
icha 2585
sw@@ 2582
isp@@ 2577
ii 2576
Mor@@ 2568
0,000 2567
g 2554
Hi@@ 2546
Th@@ 2542
as 2539
zwa 2537
1,@@ 2535
ard@@ 2535
isto 2533
13@@ 2532
hizo 2522
the 2518
bi 2496
Kar@@ 2495
2008 2489
2009 2483
Mu@@ 2475
afa 2465
ang 2437
ule 2434
zi@@ 2434
ache 2433
gez@@ 2431
II 2428
21 2426
os 2425
at 2420
ato 2416
lik@@ 2412
2006 2410
or 2405
umbo 2404
esi 2403
kom@@ 2400
ain@@ 2394
Ur@@ 2378
U 2376
w 2370
ibu 2369
2011 2362
unge 2362
gu 2357
kuv@@ 2355
emu 2347
ah 2341
bio 2338
aga 2332
vu 2330
’ 2320
sp@@ 2316
her@@ 2311
li 2296
ra 2294
izo 2289
kisi@@ 2282
B 2272
c@@ 2271
2015 2270
C 2269
c 2268
24 2265
12@@ 2263
amo 2256
tur@@ 2256
tak@@ 2240
aus@@ 2237
vili@@ 2229
afr@@ 2219
ae 2217
M 2211
kip@@ 2211
ay 2210
X@@ 2206
yeye 2202
onde 2186
Di@@ 2182
wap@@ 2174
apatikana 2163
amp@@ 2161
Tang@@ 2159
dok@@ 2154
anah@@ 2139
ad 2138
ansa 2137
ic@@ 2135
ter@@ 2135
shu@@ 2130
,000 2127
ani@@ 2125
vil@@ 2123
te@@ 2122
zil@@ 2114
Gh@@ 2110
kio 2110
22 2105
ola 2099
osa 2094
Ser@@ 2092
pu@@ 2091
un 2091
ac@@ 2087
kilom@@ 2086
ge@@ 2084
z 2083
nam@@ 2082
undo 2080
ortho@@ 2078
fi@@ 2045
ed 2039
Kut@@ 2032
Amerika 2031
Kab@@ 2023
x@@ 2020
Mil@@ 2015
ate 2015
é 2015
2005 2007
est@@ 2002
tab@@ 1999
Atlan@@ 1998
yana@@ 1997
son 1996
23 1992
insi 1983
Ben@@ 1966
aliz@@ 1966
Do@@ 1963
ikali 1951
kor@@ 1951
acha 1950
pi@@ 1949
uy@@ 1949
ke@@ 1946
zu@@ 1945
Mo@@ 1943
mam@@ 1924
Wal@@ 1922
0@@ 1919
ass@@ 1918
mal@@ 1918
Mad@@ 1917
atikana 1911
te 1911
eye 1909
Ang@@ 1906
ono 1906
Ad@@ 1903
2002 1898
² 1898
il 1897
ilo 1891
2010 1890
men@@ 1887
27 1886
Shu@@ 1883
Br@@ 1882
Gu@@ 1879
Su@@ 1878
War@@ 1878
Guinea 1874
pot@@ 1864
ela 1862
28 1853
Ukr@@ 1850
uso 1850
ura 1848
me 1847
pel@@ 1847
b 1842
2,@@ 1841
ong 1841
Mah@@ 1834
ire 1827
sel@@ 1824
Maj@@ 1817
mon@@ 1815
Bo@@ 1813
50 1812
26 1808
bas@@ 1808
= 1805
len@@ 1804
Mag@@ 1803
hab@@ 1800
Ng@@ 1792
ando 1782
hai 1782
El@@ 1780
Wah@@ 1777
tun@@ 1769
29 1765
40 1765
lo@@ 1753
Bib@@ 1741
St@@ 1739
endi 1739
3,@@ 1735
2016 1726
rod@@ 1723
kana 1716
kia 1712
uti@@ 1712
Tur@@ 1710
one 1708
Kor@@ 1705
are 1701
ayar@@ 1700
Kom@@ 1698
jo 1696
2018 1681
ori 1676
abil@@ 1673
ond@@ 1673
ph@@ 1669
Paulo 1666
angu 1655
ru@@ 1654
has@@ 1650
Ag@@ 1647
ij@@ 1647
esia 1636
ran@@ 1635
Tr@@ 1631
gu@@ 1624
ami@@ 1623
kuh@@ 1620
Lu@@ 1619
ton 1614
20@@ 1613
man 1612
Le@@ 1610
2017 1608
Sab@@ 1608
ere 1605
100 1604
pas@@ 1600
T 1599
2013 1596
31 1595
bao 1595
ulu 1593
aliza 1592
r 1592
Sp@@ 1589
ers 1589
eri 1586
Ru@@ 1581
ation 1579
Pe@@ 1575
Australia 1568
ui 1564
2020 1563
ni@@ 1562
gt 1560
lim@@ 1560
engine 1558
ekana 1548
haz@@ 1546
tron@@ 1544
2019 1539
uba 1537
la@@ 1530
lt 1529
Be@@ 1525
ju@@ 1525
! 1524
afya 1516
Kal@@ 1514
Mon@@ 1513
K. 1510
Way@@ 1510
Asia 1509
vir@@ 1502
mati@@ 1501
eme 1500
2003 1495
br@@ 1495
sal@@ 1492
York 1489
2001 1488
Gr@@ 1484
ber@@ 1483
John 1482
Kam@@ 1482
f 1482
5,@@ 1480
kuanz@@ 1477
ee 1475
jia 1475
dal@@ 1470
ho 1470
udi@@ 1468
Co@@ 1465
D 1463
Bur@@ 1461
kari@@ 1460
Har@@ 1459
1990 1457
say@@ 1453
por@@ 1452
ingo 1451
land 1451
2004 1450
Ak@@ 1450
Car@@ 1448
ak 1446
par@@ 1445
yet@@ 1444
ard 1439
no 1437
bia 1435
emi 1431
ena 1430
ast@@ 1426
ikuwa 1424
Ir@@ 1423
Mus@@ 1417
China 1409
Pol@@ 1409
Ta@@ 1403
Un@@ 1398
amer@@ 1397
ashara 1397
it 1397
wanza 1393
.. 1392
amin@@ 1392
takatifu 1391
yen@@ 1391
Gal@@ 1390
Re@@ 1387
kol@@ 1385
Pr@@ 1378
ne@@ 1376
jerumani 1370
Ro@@ 1363
esa 1363
dan 1360
ungum@@ 1360
iger 1354
abab@@ 1347
O 1345
kr@@ 1344
ze 1344
usal@@ 1341
min@@ 1332
4,@@ 1331
aume 1330
met@@ 1330
60 1327
bara 1327
Alb@@ 1326
Af@@ 1323
Nor@@ 1323
ech@@ 1322
war@@ 1319
III 1315
aria 1314
vid@@ 1314
kir@@ 1311
fur@@ 1304
haa 1304
kad@@ 1304
Mich@@ 1300
lich@@ 1300
Maria 1298
Or@@ 1297
aur@@ 1297
pa@@ 1296
Ale@@ 1294
ga 1293
dar@@ 1292
Hu@@ 1291
zen@@ 1289
ole 1282
pol@@ 1281
ene 1280
Ji@@ 1279
San@@ 1278
risto 1278
Ing@@ 1276
P 1274
sin@@ 1271
ze@@ 1269
Tab@@ 1268
amp 1267
ol 1267
Q@@ 1263
80 1260
jam@@ 1260
id 1259
ou 1257
N 1255
all@@ 1251
Tak@@ 1244
ger@@ 1244
Kamp@@ 1243
Fran@@ 1240
prot@@ 1239
ur 1239
oli 1230
oo 1230
ver@@ 1230
Is@@ 1224
ograf@@ 1223
ec@@ 1218
1.@@ 1217
Con@@ 1217
R 1216
Wag@@ 1214
ingereza 1213
och@@ 1210
ake 1208
0 1206
ew@@ 1206
osh@@ 1206
Mer@@ 1205
oj@@ 1205
sam@@ 1205
30@@ 1203
cho@@ 1202
ishia 1202
je 1201
vo@@ 1201
ley 1200
hay@@ 1199
é@@ 1198
70 1193
Pi@@ 1193
1999 1191
Mit@@ 1191
Si@@ 1185
tay@@ 1184
tol@@ 1180
Her@@ 1179
sil@@ 1179
hib@@ 1178
Sher@@ 1177
bur@@ 1177
ekani 1173
Braz@@ 1170
Kas@@ 1168
Kon@@ 1168
ey 1168
ui@@ 1165
se 1162
Kh@@ 1161
yas@@ 1161
nia 1160
ks@@ 1157
Indonesia 1156
ins@@ 1156
25@@ 1148
E 1147
dak@@ 1146
kh@@ 1146
6,@@ 1145
sum@@ 1139
tw@@ 1139
Se@@ 1137
Hak@@ 1134
bah@@ 1132
-- 1130
--@@ 1129
Pap@@ 1126
Bi@@ 1119
1991 1117
anti 1116
Par@@ 1115
8,@@ 1109
bak@@ 1108
90 1107
En@@ 1105
tar 1097
adu@@ 1096
ok 1096
7,@@ 1095
lu 1089
Muh@@ 1088
pl@@ 1088
----@@ 1087
vua 1086
ens@@ 1084
esabiwa 1084
emba 1083
200 1082
ope 1082
oc@@ 1080
Kan@@ 1078
1995 1077
jwa 1073
mim@@ 1073
De@@ 1071
Sam@@ 1070
1994 1064
Sing@@ 1064
aro 1064
Cap@@ 1056
? 1055
F 1054
hau@@ 1054
yat@@ 1050
CC@@ 1044
mach@@ 1043
1993 1040
amoja 1040
progr@@ 1040
Al 1039
For@@ 1038
Li@@ 1038
tro 1038
Nam@@ 1037
1997 1033
ilio 1031
Fil@@ 1030
ei 1030
re 1028
ame 1027
za@@ 1027
kez@@ 1026
fun@@ 1024
Pas@@ 1020
1998 1017
igi@@ 1015
Cor@@ 1014
his@@ 1013
Isra@@ 1010
Tun@@ 1010
AN@@ 1006
ann@@ 1005
ve 1005
London 999
leng@@ 998
video 997
Ho@@ 993
1996 991
1980 989
lit@@ 989
yr@@ 989
1970 988
lig@@ 988
Bot@@ 987
Maz@@ 987
Mos@@ 985
igo 985
Som@@ 983
Sah@@ 981
ous 978
1992 977
Nak@@ 977
ter 977
Kr@@ 976
chap@@ 976
dom@@ 974
Bu@@ 972
S 971
Nob@@ 970
ren@@ 969
telev@@ 969
Sa@@ 968
ng 968
edi@@ 967
City 966
awa@@ 964
L 963
hol@@ 961
adamu 960
ago 960
ic 958
United 957
naf@@ 956
tan@@ 956
V 953
ega 953
He@@ 951
Per@@ 951
bor@@ 950
500 948
Pal@@ 948
ick 948
California 945
ent 945
hara 943
ome 942
Oli@@ 941
Com@@ 935
nam 935
2.@@ 930
Sen@@ 930
nak@@ 930
19@@ 928
Sim@@ 928
• 928
ngo@@ 927
q@@ 923
qu@@ 922
bo 920
tim@@ 916
kal@@ 915
ch 913
Sch@@ 912
ufu 909
So@@ 908
agua 907
Hab@@ 901
Viet@@ 901
aster@@ 901
Ligi 900
Yer@@ 900
hum@@ 899
Bal@@ 898
ory 898
rel@@ 898
Chi@@ 896
yon@@ 892
ice 891
35 889
Me@@ 889
idae 887
gr@@ 886
arufu 885
ir 885
v 885
Em@@ 884
vis@@ 884
ace 882
32 881
Ste@@ 881
1988 879
1960 877
onia 877
Ali 874
Mur@@ 874
Ne@@ 874
Mik@@ 873
imi 873
ue 872
Kanada 867
Yo@@ 863
eva 863
9,@@ 862
der@@ 861
Col@@ 858
pad@@ 858
Hal@@ 857
olo 855
ell@@ 852
Ber@@ 850
sen@@ 848
Kais@@ 846
atom@@ 843
vi 843
0.@@ 842
burg 840
lu@@ 838
ey@@ 835
co@@ 834
sar@@ 833
gaz@@ 830
Fre@@ 828
kas@@ 828
Vik@@ 827
col@@ 826
36 825
ff@@ 824
ary 823
sur@@ 823
idi@@ 822
ore 822
Ju@@ 820
TV 819
yi 817
1989 816
agon@@ 816
‘ 816
Ka@@ 814
band@@ 812
1987 810
tas@@ 810
ung 810
tem@@ 808
huy@@ 807
sk@@ 807
lang@@ 806
co 805
les 805
ust@@ 803
by 800
gir@@ 800
Vil@@ 799
son@@ 798
ot 796
Say@@ 795
hari@@ 795
Den@@ 794
India 786
Ver@@ 786
Po@@ 785
zis@@ 785
taraf@@ 783
yal@@ 783
At@@ 782
24@@ 781
hosp@@ 780
ler 779
vol@@ 779
Juli@@ 778
im 778
iro 776
umani 776
2021 775
Paris 775
Rom@@ 775
34 772
La 770
pe 769
26@@ 768
Moh@@ 768
aunti 766
no@@ 766
adhim@@ 765
age 764
ford 764
sc@@ 764
To@@ 763
ie@@ 763
IM@@ 762
tekn@@ 762
33 759
West 759
may@@ 759
sia 759
39 757
ly 756
ami 755
Mach@@ 753
Tam@@ 752
ce 752
ast 749
Austr@@ 748
ez 748
Kol@@ 747
ab 747
ell 747
der 746
fal@@ 745
fut@@ 745
ken@@ 745
ava 744
Michael 743
Bus@@ 741
Fo@@ 741
all 739
Bas@@ 738
Il@@ 738
em 738
Kur@@ 733
Lo@@ 732
ro 732
Dar@@ 731
lo 731
Tor@@ 727
ill@@ 727
oria 727
King@@ 726
Vit@@ 726
bl@@ 726
Ni@@ 725
ica 725
sab@@ 723
amm@@ 720
den 720
FC 719
istan 719
We@@ 718
° 718
The@@ 717
eng 717
ail@@ 716
ich 716
James 715
ben@@ 715
uc@@ 715
X 714
br 714
37 713
Bab@@ 713
for 713
per@@ 711
fan@@ 705
Gi@@ 704
Sek@@ 703
chan@@ 702
jer@@ 701
kem@@ 701
mad 701
sik@@ 699
studio 699
3.@@ 697
28@@ 695
Val@@ 693
inc@@ 693
Du@@ 692
him@@ 692
elem@@ 690
pr@@ 690
1982 687
Africa 687
Go@@ 687
Ig@@ 686
fer@@ 686
chen@@ 685
Far@@ 684
Jo@@ 684
opo@@ 684
Kul@@ 683
ure 683
1981 681
27@@ 680
tri@@ 680
1986 679
38 679
tia 679
Fr@@ 678
ens 678
African 677
fab@@ 677
fas@@ 677
win@@ 677
G 676
ess 676
hand@@ 676
Qu@@ 675
K 674
IV 670
om 668
hip 667
ende 665
J 663
med@@ 661
1985 658
1984 657
El 656
FIFA 656
Hat@@ 654
Sar@@ 654
ac 654
ence 654
Can@@ 653
00 651
75 651
William 651
ram@@ 651
Wil@@ 650
ngu@@ 648
ban 647
imi@@ 646
zu 645
Ed@@ 644
Mc@@ 644
45 642
George 641
ans 641
UN@@ 640
row 639
Gar@@ 638
La@@ 638
ner 638
gesi 637
300 636
Ath@@ 636
Bro@@ 636
Paul 635
bal@@ 635
fuatana 635
Ko@@ 634
Pak@@ 634
yer@@ 633
chester 632
pin@@ 631
q 631
uke 631
va 631
Ger@@ 629
Joseph 629
j 629
od 629
185@@ 628
juli@@ 628
nas@@ 627
Mari@@ 624
Er@@ 623
Ah@@ 622
Cr@@ 622
tag@@ 621
Ge@@ 619
usa 619
* 618
enn@@ 618
400 617
Ph@@ 617
Min@@ 616
berg 616
mir@@ 616
Sou@@ 615
gun@@ 615
pek@@ 615
Ham@@ 614
jo@@ 614
gar@@ 612
Greg@@ 611
Bel@@ 610
rie 609
Bon@@ 608
0,@@ 607
National 606
run@@ 605
des 604
Ram@@ 603
dis@@ 603
29@@ 601
Nar@@ 600
gia 600
Que@@ 599
anc@@ 598
47 597
Hol@@ 597
atimaye 596
Az@@ 595
Joh@@ 595
Saint 595
chem@@ 595
49 594
Bor@@ 594
Ter@@ 593
th 593
Te@@ 591
da@@ 590
-@@ 589
fuat@@ 589
inah@@ 589
onom@@ 589
East 588
Ha@@ 588
1964 587
Na@@ 587
Robert 586
isim@@ 586
Awards 585
bun@@ 585
Mand@@ 584
Nik@@ 583
avi 583
ik 582
lam@@ 582
pat@@ 581
ya@@ 581
Kl@@ 580
sahi@@ 580
Charles 579
Tu@@ 579
ris@@ 579
42 578
Med@@ 578
atur@@ 578
bus@@ 578
mark 578
tel@@ 577
som@@ 576
afir@@ 575
tor@@ 575
ut 575
Gre@@ 574
ek 573
go 573
pi 573
1950 572
so 572
Lag@@ 571
South 571
haf@@ 571
She@@ 569
pend@@ 569
San 568
David 566
H 566
ost@@ 566
Mass@@ 565
Uz@@ 565
48 564
Ri@@ 564
+ 563
Str@@ 563
don@@ 563
International 561
ly@@ 561
Eri@@ 560
Fl@@ 560
eto 560
he 560
kop@@ 559
single 558
Bak@@ 557
pp@@ 557
55 556
Char@@ 556
ser@@ 556
# 555
ero 555
ci@@ 554
bul@@ 552
wi@@ 552
Records 551
eso 551
stant@@ 550
Kap@@ 547
North 545
Kus@@ 542
the@@ 541
1979 540
Pl@@ 540
ant 540
est 540
ony 540
ney 539
ord@@ 539
Cas@@ 538
Ken@@ 537
wer@@ 537
mig@@ 536
1977 535
Tol@@ 535
ein@@ 535
toria 535
Peter 534
Tek@@ 534
No@@ 533
lad@@ 533
00@@ 532
1978 532
65 532
Jackson 532
ista 532
School 531
ham 531
1983 530
oth@@ 530
yap@@ 530
Um@@ 529
bei 529
Sy@@ 527
iss@@ 527
kara 527
1975 525
les@@ 525
Bah@@ 524
World 524
Andre@@ 523
Jersey 523
mer@@ 523
Ros@@ 521
ES@@ 520
bil@@ 520
ecture 520
41 519
kav@@ 519
Famil@@ 518
takri@@ 518
Sol@@ 516
fund@@ 516
tir@@ 516
... 515
54 515
44 514
hom@@ 514
bin 513
eli@@ 513
ungumzwa 513
Geor@@ 512
Sul@@ 512
ain 512
lab@@ 512
pré@@ 512
1969 511
4.@@ 511
Pro@@ 511
Rus@@ 511
Bre@@ 510
ange 510
Es@@ 509
1976 508
52 507
Music 507
Sult@@ 507
anti@@ 507
ty 507
Tri@@ 506
1963 505
ori@@ 505
sera 505
Sin@@ 504
sem@@ 504
bek@@ 503
Argentina 502
Lin@@ 502
ult@@ 502
Cal@@ 501
51 500
85 500
46 499
che 499
sak@@ 498
43 497
ity 497
ven@@ 497
yan 497
eki 496
ess@@ 496
1972 495
Bay@@ 494
visi@@ 494
Bul@@ 493
Vid@@ 493
ap 493
azz 492
Maur@@ 491
56 490
Bl@@ 490
53 489
Cl@@ 489
Ky@@ 489
Mir@@ 489
Sil@@ 489
Por@@ 488
Ze@@ 488
ight 488
Dal@@ 487
des@@ 487
let@@ 487
1961 486
1974 486
Town 486
West@@ 486
oi 486
ith 485
biri 484
rati@@ 484
You 483
dr@@ 483
184@@ 482
Dis@@ 482
ance 482
fik@@ 482
und 482
Ol@@ 481
tis@@ 481
ans@@ 479
ver 479
Vol@@ 477
iliz@@ 477
our 477
11,@@ 476
1973 476
67 476
ca 476
600 475
95 474
Sak@@ 474
1967 473
res@@ 473
Del@@ 471
Kem@@ 470
data 470
72 469
New@@ 469
gol@@ 469
adhimishwa 468
Mel@@ 467
ade 467
Mun@@ 466
Washington 466
ban@@ 466
dest@@ 464
ese 464
eti@@ 464
lem@@ 464
ks 462
99 461
astr@@ 461
div@@ 461
oug@@ 461
61 460
fin@@ 460
1965 459
uniani 459
Ke@@ 457
indi@@ 457
58 455
Ti@@ 455
88 454
wood 454
Pan@@ 453
sek@@ 453
tro@@ 453
itz@@ 452
kel@@ 452
09 451
ise 451
ster@@ 451
ach 450
ian 450
Gen@@ 448
inn@@ 448
ons 448
sea 448
Os@@ 447
ete 447
1971 446
64 446
Lim@@ 446
elle 446
pitia 446
Ac@@ 445
Billboard 445
uno 445
5.@@ 444
62 444
arr@@ 444
07 443
Anti@@ 443
800 442
ion@@ 442
01 441
87 441
97 441
Tel@@ 441
igh@@ 440
mar 440
yl@@ 440
66 439
79 439
ario 439
tin@@ 439
1962 438
Richard 438
ille 438
ville 438
yu 438
Ok@@ 437
git@@ 437
ite 437
ofanyika 436
tion 436
6.@@ 435
98 435
Im@@ 435
Hot@@ 434
River 434
yn@@ 434
Ex@@ 433
pap@@ 433
tal@@ 433
University 432
ales 432
kaz@@ 432
1945 431
Sw@@ 431
On@@ 430
chi@@ 430
69 429
ist 429
iter@@ 429
AR@@ 428
Black 428
Bay 427
Patr@@ 426
Sau@@ 426
Wash@@ 426
lav@@ 426
mol@@ 426
.C. 425
ack@@ 425
etts 425
Bil@@ 424
Tim@@ 424
05 423
89 423
57 422
von 422
Thomas 421
aland 421
lis@@ 421
04 420
Ash@@ 420
73 419
odi@@ 419
Cam@@ 418
74 417
76 417
Liber@@ 417
ikan@@ 417
1966 416
Sum@@ 416
amar@@ 416
go@@ 416
10,@@ 415
179@@ 415
63 415
68 414
83 414
Fal@@ 414
Martin 413
Park 413
art 413
1968 412
IC@@ 412
Fi@@ 411
96 410
Jer@@ 410
Kup@@ 410
May@@ 410
UEFA 409
jap@@ 409
Men@@ 408
59 407
92 407
Fel@@ 407
dig@@ 406
fr@@ 406
del@@ 405
profes@@ 405
himu 404
sig@@ 404
81 403
ts 403
esh 402
ikukuu 402
mid@@ 402
rio 401
tor 401
AS@@ 400
Sel@@ 400
Bun@@ 399
oph@@ 399
71 398
84 398
Kay@@ 398
78 397
ars 397
illa 397
ker 397
lan@@ 397
… 397
BC 396
Bol@@ 396
Hung@@ 396
ings 396
tend@@ 396
35@@ 395
W 395
ins 395
86 394
7.@@ 393
fi 393
ill 393
weng@@ 393
Hor@@ 392
Mul@@ 392
malar@@ 392
na@@ 392
way 392
91 390
XX@@ 390
edi 390
ler@@ 390
82 389
Gir@@ 389
eri@@ 389
lar@@ 389
eon@@ 388
ico 388
zam@@ 388
Eliz@@ 387
77 386
bert 386
03 385
Love 385
ick@@ 385
Aug@@ 384
Berlin 383
anta 383
mot@@ 382
08 381
ish 381
aro@@ 380
ther 379
$ 378
Chr@@ 378
Hosp@@ 378
IS@@ 378
Plat@@ 378
1000 377
esab@@ 377
for@@ 377
06 376
enti@@ 376
mos@@ 376
trop@@ 376
Reg@@ 375
hav@@ 375
93 374
King 374
Mac@@ 374
Una 374
die 374
8.@@ 373
Dam@@ 373
Han@@ 373
Lit@@ 373
Pa@@ 373
1958 372
Dr@@ 372
ande 372
1959 371
Ker@@ 371
Party 371
dy 371
thern 371
700 370
Ireland 370
á@@ 370
Christ@@ 369
Lib@@ 369
atr@@ 369
own 369
az 368
hy@@ 367
Madrid 366
Tan@@ 366
trol@@ 366
ā@@ 366
ack 365
1930 364
180@@ 363
Jean 363
Rob@@ 362
Central 361
my 361
ws 361
del 360
kl@@ 360
tah@@ 360
Cat@@ 359
dem@@ 359
liko 359
ts@@ 358
Los 357
Pre@@ 357
mo 357
olog@@ 357
van 357
yar@@ 357
Henry 356
My@@ 356
oku@@ 356
sad@@ 356
Afr@@ 355
ates 355
ambi@@ 353
ison 353
tic 353
9.@@ 352
Ob@@ 352
CO 351
Luc@@ 351
94 350
Bos@@ 349
Kaz@@ 349
Nat@@ 349
1957 348
Louis 348
tut@@ 348
Hon@@ 347
etwa 347
ine@@ 347
200@@ 346
Don@@ 346
Dor@@ 346
str@@ 346
car@@ 345
uel 345
Bern@@ 343
Hil@@ 343
VI 343
bom@@ 343
1940 342
abeth 342
ganda 342
sir@@ 342
urg 342
02 341
dur@@ 341
lah 341
old 341
Brit@@ 340
Son@@ 340
bir@@ 340
ps 340
Mek@@ 339
tra 338
Me 337
wo 337
AT@@ 336
Leb@@ 336
inae 336
pal@@ 336
12,@@ 335
Dav@@ 335
Man 335
Mol@@ 335
ase 335
ella 335
pop 335
st 335
1948 334
ment 334
1956 333
Kad@@ 333
Eu@@ 332
Vir@@ 332
ener@@ 332
je@@ 332
mer 332
1954 331
Kun@@ 331
Rh@@ 331
op 331
33@@ 330
Harr@@ 330
Mes@@ 330
sich@@ 330
rit@@ 329
wo@@ 329
1949 328
Bad@@ 328
Bang@@ 328
Lam@@ 328
MA 328
ve@@ 328
Mary 327
alm@@ 327
ifa 327
inde 327
Gol@@ 326
ost 326
ov 326
Jan@@ 325
sen 325
uss@@ 325
Ay@@ 324
ky 324
ć 324
den@@ 323
kt@@ 323
í@@ 323
23@@ 322
C. 322
Mexico 322
P. 322
Pen@@ 322
Ra@@ 322
Tom@@ 322
anistan 322
ax@@ 322
dan@@ 321
Award 320
field 320
ube 320
Sk@@ 319
emp@@ 319
wir@@ 319
1920 318
J. 318
Real 318
oni@@ 318
viv@@ 318
1947 317
My 317
liv@@ 317
Daniel 315
Mot@@ 315
tin 315
uel@@ 315
Democ@@ 314
St. 314
abr@@ 314
enz@@ 314
tof@@ 314
Edward 313
Math@@ 313
Mut@@ 313
ego 313
vur@@ 313
ond 312
que 312
sta 312
ão 312
150 311
1918 311
Abr@@ 311
Angeles 311
Brown 311
Je@@ 311
Ot@@ 311
ger 311
wil@@ 311
Des@@ 310
imp@@ 310
mir 310
ologi@@ 310
1955 309
aten@@ 309
mann 309
nah@@ 309
Hel@@ 308
isti@@ 308
yon 308
DNA 307
B. 306
Bou@@ 306
gl@@ 306
per 306
— 306
1952 305
reg@@ 305
Academy 304
Cel@@ 304
Domin@@ 304
eter@@ 304
wel@@ 304
a. 303
m. 303
Albert 302
Bir@@ 302
One 302
igu@@ 302
ort 302
uk 302
Ca@@ 301
Haw@@ 301
Smith 301
Z 301
ash 301
atika 301
len 301
Au@@ 300
FA 300
State 300
ds 300
CA@@ 299
Victoria 299
leb@@ 299
CO@@ 298
County 298
Hum@@ 298
ber 298
ros@@ 298
ry 298
Wol@@ 297
elo 297
han@@ 297
sah@@ 297
ó@@ 297
Barcelona 296
De 296
Fu@@ 296
Ly@@ 296
fre@@ 296
uda 296
wor@@ 296
Lee 295
Pres@@ 295
mand@@ 295
Has@@ 294
It 294
asti@@ 294
elli 294
Ban@@ 293
Gl@@ 293
Ngo@@ 293
bury 293
fiz@@ 293
1900 292
900 292
Camp@@ 292
cor@@ 292
inus 292
Laur@@ 291
S.@@ 291
Y 291
aden 291
Fer@@ 290
ations 290
life 289
1946 288
CD 288
Hot 288
Mex@@ 288
ement 288
raine 288
Acc@@ 287
Boy@@ 287
Progr@@ 287
Sec@@ 287
Times 287
ime 287
1953 286
Texas 286
ean 286
ô@@ 286
Jac@@ 285
bol@@ 285
Av@@ 284
igan 284
Sand@@ 283
Fin@@ 282
anus 282
ardo 282
Pad@@ 281
hio 281
til@@ 280
anth@@ 279
use 279
Stu@@ 278
Tok@@ 278
gal@@ 278
ington 278
Biz@@ 277
Dur@@ 277
Pau@@ 277
Van 277
port 277
Ven@@ 276
You@@ 276
dul@@ 276
hid@@ 276
him 275
AD@@ 274
ador 273
amo@@ 273
ebe 273
ido 273
try 273
ul 273
1939 272
ies 272
Air@@ 271
Dem@@ 271
con@@ 271
But@@ 270
Met@@ 270
Pu@@ 270
Sur@@ 270
abe 270
ae@@ 269
250 268
AC@@ 268
Hay@@ 268
Tro@@ 268
1888 267
E. 267
Hit@@ 267
bay@@ 267
IX 266
Pat@@ 266
Union 266
bro@@ 266
pun@@ 266
tis 266
Inter@@ 265
Wor@@ 265
_ 265
ff 265
1886 264
All 264
Ari@@ 264
ex@@ 264
ion 264
open@@ 264
Anth@@ 263
bon@@ 263
hor@@ 263
Florida 262
lat@@ 262
tha 262
aje 261
sburg 261
Tay@@ 260
duk@@ 260
vo 260
Ap@@ 259
CD@@ 259
Franc@@ 259
Wo@@ 259
lara 259
Dan@@ 258
abri@@ 258
anne 258
bab@@ 258
ova 258
11@@ 257
Res@@ 257
Sun@@ 257
ern@@ 257
hel@@ 257
ys@@ 257
Ant@@ 256
Don 256
Ul@@ 256
ello 256
M. 255
hui 255
ster 255
Society 254
att@@ 254
fil@@ 254
mm 254
outh 254
yn 254
Liv@@ 253
Nag@@ 253
Rod@@ 253
Tal@@ 253
ave 253
but@@ 253
dir@@ 253
int@@ 253
ker@@ 253
tek@@ 253
waka 253
American 252
Hy@@ 252
las 252
1951 251
Chicago 251
Kenn@@ 251
SA@@ 251
lov@@ 251
Alexander 250
Les@@ 250
Phil@@ 250
Dom@@ 249
ling@@ 249
Carol@@ 248
League 248
out 248
Cer@@ 247
Eur@@ 247
Group 247
Mid@@ 247
cel@@ 247
fon@@ 247
ics 247
its 247
lor@@ 247
A. 246
Jones 246
Nov@@ 246
pon@@ 246
1941 245
1500 243
1914 243
Est@@ 243
Ev@@ 243
yol@@ 243
1936 242
College 242
Leon@@ 242
Lor@@ 242
Sto@@ 242
beg@@ 242
ius 242
sta@@ 242
1917 241
Kim 241
Le 241
bet@@ 241
bot@@ 241
imin@@ 241
med 241
shire 241
tom@@ 241
1944 240
High 240
Jor@@ 240
Nic@@ 240
ö@@ 240
ür@@ 240
1933 239
Dev@@ 239
Rog@@ 239
Star 239
ark@@ 239
ette 239
jus@@ 239
50@@ 238
Grand 238
Williams 238
alb@@ 238
enne 238
ensis 238
lie 238
vin 238
ym@@ 237
Columb@@ 236
Island 236
Oc@@ 236
agu@@ 236
une 236
Radio 235
Vo@@ 235
ck 235
ech 235
ns 235
.com 234
Chil@@ 234
Vic@@ 234
ierra 234
lands 234
uni@@ 233
3000 232
House 232
Jack 232
Jose@@ 232
Lou@@ 232
Wh@@ 232
avi@@ 232
ski 232
tad@@ 232
yc@@ 232
AM@@ 231
Association 231
Sav@@ 231
ital 231
jah@@ 231
unu 231
£ 231
Bri@@ 230
Chile 230
Sus@@ 230
bes@@ 230
ign@@ 230
itu@@ 230
log@@ 230
ï@@ 230
Stan@@ 229
Tw@@ 229
r. 229
Lab@@ 228
com@@ 228
hap@@ 228
ross 228
Cur@@ 227
Hill 227
Scot@@ 227
Ty@@ 227
département 227
ier@@ 227
vent@@ 227
Johnson 225
ento 225
err@@ 225
sch@@ 225
well 225
Club 224
fe 224
nit@@ 224
urs 224
win 224
St 223
Women 223
nh@@ 223
Pon@@ 222
ome@@ 222
ute 222
É@@ 222
Eng@@ 221
Win@@ 221
aire 221
ige 221
ision 221
mun@@ 221
onald 221
Der@@ 220
sk 220
val@@ 220
« 220
ath 219
stein 219
» 219
Pot@@ 218
Star@@ 218
ebo@@ 218
Google 217
Pri@@ 217
Young 217
cu@@ 217
gel@@ 217
1934 216
Gor@@ 216
Lat@@ 216
ology 216
poli@@ 216
1922 215
1925 215
1929 215
BBC 215
Cre@@ 215
Kos@@ 215
Profes@@ 215
Santa 215
White 215
dor@@ 215
ther@@ 215
1942 214
DC 214
Media 214
Q 214
Trans@@ 214
US@@ 214
aceae 214
din@@ 214
mond 214
onn@@ 214
ston 214
ys 214
Company 213
XVI 213
dam 213
ors 213
1885 212
Mont@@ 212
eth 212
eth@@ 212
sol@@ 212
su 212
1943 211
Canada 211
Hir@@ 211
Net@@ 211
Sem@@ 211
ret@@ 211
sul@@ 211
Ox@@ 210
Vis@@ 210
apar@@ 210
ign 210
1926 209
Cro@@ 209
fig@@ 209
ical 209
Band 208
Japan 208
Si 208
lor 208
mus@@ 208
onya 208
180 207
1890 207
erry 207
esse 207
120@@ 206
AP@@ 206
Hen@@ 206
Pom@@ 206
ep 206
men 206
pro@@ 206
sho@@ 206
tes 206
var@@ 206
Wit@@ 205
able 205
els 205
lis 205
nom@@ 205
radi@@ 205
rom@@ 205
Bat@@ 204
CH@@ 204
Gaz@@ 204
Hom@@ 204
ams 204
ä@@ 204
All@@ 203
It@@ 203
bos@@ 203
toba 203
י@@ 203
120 202
Ben 202
adr@@ 202
low 202
AC 201
AI@@ 201
Rich@@ 201
ass 201
Arab@@ 200
Ear@@ 200
Fac@@ 200
Scott 200
abor@@ 200
cre@@ 200
tle 200
Marie 199
Sir 199
Tran@@ 199
area 199
ling 199
ople 199
124@@ 198
1910 198
1937 198
Ci@@ 198
Gran@@ 198
Penn@@ 198
Sm@@ 198
ax 198
berto 198
estra 198
ited 198
Christian 197
Dr. 197
Pow@@ 197
Zi@@ 197
ald 197
cy 197
mes@@ 197
1938 196
Dre@@ 196
Hamb@@ 196
Simon 196
Venez@@ 196
inayoz@@ 196
nying@@ 196
sy@@ 196
1905 195
IN@@ 195
Tow@@ 195
han 195
hr@@ 195
yp@@ 195
cas@@ 194
cl@@ 194
eld 194
rey 194
sou@@ 194
Big 193
Life 193
Mark 193
NA 193
erg@@ 193
land@@ 193
pha 193
Best 192
eau 192
ide 192
sav@@ 192
ø@@ 192
Cab@@ 191
Cu@@ 191
Cy@@ 191
D. 191
Gro@@ 191
Hug@@ 191
Royal 191
Shi@@ 191
Thi@@ 191
idge 191
1919 190
AB@@ 190
Blo@@ 190
Roc@@ 190
aut@@ 190
ble 190
ester 190
ix 190
rek@@ 190
ship 190
1923 189
British 189
In 189
Rad@@ 189
arg@@ 189
ci 189
estr@@ 189
gre@@ 189
ting 189
uro 189
1931 188
2022 188
Bud@@ 188
Law@@ 188
Nis@@ 188
OS 188
Rec@@ 188
aci@@ 188
Illinois 187
Ou@@ 187
Pic@@ 187
1912 186
I. 186
Israel 186
apos@@ 186
iller 186
1927 185
Bru@@ 185
Entertainment 185
Lev@@ 185
Sc@@ 185
UK 185
Astr@@ 184
Conn@@ 184
Ren@@ 184
gio 184
kap@@ 184
ven 184
with 184
Ind@@ 183
Rou@@ 183
Sant@@ 183
bon 183
cia 183
cr@@ 183
oper@@ 183
Carl 182
Rail@@ 182
ogr@@ 182
sion 182
tic@@ 182
tions 182
َ@@ 182
Indi@@ 181
Nu@@ 181
Pierre 181
ated 181
dro@@ 181
lip@@ 181
stanbul 181
wig 181
{ 181
Arthur 180
Steph@@ 180
ait 180
ny 180
unt 180
zw@@ 180
Rem@@ 179
TA 179
ante 179
edo 179
span 179
Bau@@ 178
Fe@@ 178
Rock 178
VII 178
htt@@ 178
Air 177
ingen 177
ism 177
Francisco 176
May 176
cus 176
emen 176
ize 176
1928 175
Kilom@@ 175
day@@ 175
gan@@ 175
ince 175
sent@@ 175
án 175
1889 174
Ern@@ 174
Fern@@ 174
Frank 174
Frank@@ 174
Joe 174
Lis@@ 174
S. 174
Sho@@ 174
Wi@@ 174
ef 174
end 174
inger 174
Alexand@@ 173
Fir@@ 173
Phili@@ 173
Seb@@ 173
Western 173
dis 173
ett 173
ref 173
w.@@ 173
} 173
Anna 172
Cle@@ 172
Gil@@ 172
Lang@@ 172
Lig@@ 172
Mem@@ 172
Whit@@ 172
Zu@@ 172
ste@@ 172
ten 172
á 172
Carlos 171
Jos@@ 171
Oper@@ 171
ady 171
faransa 171
jan@@ 171
mem@@ 171
nes 171
olf 171
Ç@@ 171
α 171
‎ 171
Tem@@ 170
beri 170
bridge 170
ente 170
uela 170
unc@@ 170
1903 169
1916 169
Coun@@ 169
How@@ 169
ally 169
als 169
ob 169
A.@@ 168
Karl 168
ator 168
dens@@ 168
mek@@ 168
tou@@ 168
市 168
Num@@ 167
Pin@@ 167
Tre@@ 167
Uni@@ 167
Virginia 167
ag 167
bs 167
inf@@ 167
ock 167
via 167
Bet@@ 166
Not@@ 166
dol@@ 166
ect 166
key 166
Clar@@ 165
Osman@@ 165
Prot@@ 165
Seg@@ 165
sat@@ 165
see 165
ww@@ 165
1935 164
Bes@@ 164
MS 164
SC 164
arm@@ 164
aus 164
rock 164
ust 164
1932 163
Prim@@ 163
dae 163
eci@@ 163
plat@@ 163
polis 163
tan 163
vania 163
1908 162
1913 162
Kri@@ 162
R. 162
ide@@ 162
1896 161
1906 161
Super 161
W. 161
any 161
entr@@ 161
neo 161
ough 161
rec@@ 161
sey 161
tern 161
vel@@ 161
ō@@ 161
40@@ 160
agr@@ 160
edy 160
fer 160
ld 160
ls 160
ons@@ 160
tus 160
€ 160
Medi@@ 159
SA 159
Sor@@ 159
Walter 159
fus@@ 159
km@@ 159
liz@@ 159
ovi@@ 159
Dou@@ 158
Sof@@ 158
Spr@@ 158
aff@@ 158
ater 158
ays 158
gen 158
ias 158
ont 158
sur 158
work 158
1870 157
Cop@@ 157
No 157
non 157
én@@ 157
Ander@@ 156
Green 156
Hall 156
ever 156
iz 156
350 155
Boston 155
Sig@@ 155
WWE 155
annes 155
aux 155
bes 155
dik@@ 155
ein 155
elop@@ 155
istr@@ 155
mili@@ 155
oks 155
oll@@ 155
ores 155
syl@@ 155
ér@@ 155
160 154
1860 154
AS 154
Center 154
Cru@@ 154
burg@@ 154
etti 154
hir 154
lam 154
â@@ 154
ος 154
1902 153
Dol@@ 153
Time 153
kung 153
Alli@@ 152
Ann@@ 152
Antonio 152
Aus@@ 152
Leg@@ 152
Red 152
Vill@@ 152
ative 152
aun@@ 152
loy@@ 152
mez@@ 152
1907 151
Alfre@@ 151
Flor@@ 151
RE@@ 151
Show 151
fo@@ 151
ux 151
vers 151
1924 150
Chem@@ 150
EP 150
Lud@@ 150
Rap@@ 150
app@@ 150
ft 150
gi 150
inter@@ 150
itz 150
line 150
serv@@ 150
Day 149
Feder@@ 149
Gas@@ 149
Liga 149
Tom 149
ister@@ 149
izi@@ 149
mont 149
nor@@ 149
ont@@ 149
1800 148
Disney 148
bar 148
din 148
icia 148
int 148
sti@@ 148
ón 148
BS 147
Dani@@ 147
awaida 147
ern 147
eter 147
furt 147
ges 147
ters 147
was 147
ו@@ 147
Clau@@ 146
ental 146
ights 146
ë@@ 146
Fri@@ 145
Rah@@ 145
SP@@ 145
ode 145
sions 145
ú@@ 145
140 144
1911 144
Mill@@ 144
ear@@ 144
eda 144
ets 144
ican 144
lin 144
nch@@ 144
ric@@ 144
tari@@ 144
101 143
1880 143
1921 143
America 143
José 143
US 143
ansas 143
cal 143
fol@@ 143
pro 143
Studi@@ 142
Yor@@ 142
ature 142
gan 142
mor@@ 142
our@@ 142
tario 142
ˈ@@ 142
​ 142
110 141
Migu@@ 141
Nav@@ 141
Ye@@ 141
ici@@ 141
oso 141
tre@@ 141
unde 141
ç@@ 141
Andr@@ 140
Eg@@ 140
Nach@@ 140
ce@@ 140
erre 140
ier 140
war 140
1884 139
1887 139
1904 139
CE@@ 139
Kn@@ 139
Sci@@ 139
adel@@ 139
eck 139
nat@@ 139
olo@@ 139
Chap@@ 138
Institute 138
Oy@@ 138
Techn@@ 138
ents 138
from 138
olas 138
onto 138
others 138
1899 137
Blue 137
Commun@@ 137
fl@@ 137
sein 137
tics 137
Great 136
azar@@ 136
fes@@ 136
otte 136
tain 136
11.@@ 135
1891 135
BA 135
Dig@@ 135
Juni@@ 135
ebr@@ 135
imeh@@ 135
nav@@ 135
ous@@ 135
1898 134
Arch@@ 134
Road 134
fel@@ 134
liga 134
zur@@ 134
Bec@@ 133
Bundes@@ 133
Sat@@ 133
Spe@@ 133
Stand@@ 133
`@@ 133
art@@ 133
elec@@ 133
tho@@ 133
ump@@ 133
yok@@ 133
Beau@@ 132
Tou@@ 132
king 132
media 132
pil@@ 132
solo 132
Ago@@ 131
Anne 131
Hau@@ 131
Op@@ 131
aud@@ 131
fe@@ 131
onne 131
ré@@ 131
ud 131
ա@@ 131
1915 130
eu 130
fri@@ 130
ien 130
ig 130
kt 130
mang 130
oman 130
partment 130
1897 129
1901 129
Rud@@ 129
Tit@@ 129
ills 129
ines 129
num@@ 129
over 129
ports 129
Film 128
air 128
alt@@ 128
gar 128
ı@@ 128
Wilhelm 127
alls 127
lar 127
lob@@ 127
mes 127
ture 127
ũng 127
10.@@ 126
1866 126
France 126
Hand@@ 126
Street 126
ides 126
ken 126
lobal 126
low@@ 126
orum 126
sing@@ 126
thu@@ 126
ty@@ 126
ş@@ 126
Anton@@ 125
Arts 125
Lan@@ 125
banda 125
heim 125
130 124
App@@ 124
Bank 124
Jus@@ 124
ards 124
encia 124
ning 124
not@@ 124
pres@@ 124
pri@@ 124
res 124
1892 123
England 123
Ré@@ 123
alla 123
atre 123
cer@@ 123
day 123
fran@@ 123
gul@@ 123
yth@@ 123
ạc 123
201@@ 122
CI@@ 122
Centre 122
Rot@@ 122
chin@@ 122
ehem@@ 122
él@@ 122
„ 122
1895 121
On 121
Produc@@ 121
Wer@@ 121
dez 121
elen 121
form@@ 121
isini 121
pre@@ 121
tivo 121
ves 121
ía 121
ł@@ 121
Gold@@ 120
L. 120
Live 120
Ran@@ 120
adan 120
eski 120
onz@@ 120
tico 120
Arm@@ 119
Cath@@ 119
Die 119
Din@@ 119
Fut@@ 119
H. 119
SS@@ 119
Soci@@ 119
aco 119
bis@@ 119
cap@@ 119
ه@@ 119
Augus@@ 118
Haz@@ 118
Red@@ 118
Web@@ 118
alar@@ 118
atus 118
eu@@ 118
ids 118
iness 118
tete 118
trans@@ 118
ward 118
1861 117
1871 117
Da 117
Lake 117
af 117
ayan 117
bre@@ 117
kin 117
ways 117
š@@ 117
CA 116
Div@@ 116
Hav@@ 116
SS 116
agen 116
ail 116
azine 116
can@@ 116
cul@@ 116
grav@@ 116
her 116
mel@@ 116
ones 116
ord 116
sun@@ 116
1893 115
Deb@@ 115
Var@@ 115
alg@@ 115
cop@@ 115
cur@@ 115
dam@@ 115
eff@@ 115
enberg 115
enc@@ 115
tre 115
Barr@@ 114
Long 114
Max 114
Ori@@ 114
Tenn@@ 114
Wes@@ 114
aul@@ 114
lev@@ 114
more 114
ple@@ 114
rap@@ 114
right 114
town 114
wer 114
1894 113
80@@ 113
Kle@@ 113
Luis 113
Ohio 113
omin@@ 113
rique 113
ton@@ 113
ː 113
Ankara 112
Aut@@ 112
Cup 112
F. 112
Gö@@ 112
Microsoft 112
RA@@ 112
Serie 112
auf@@ 112
eds 112
mom@@ 112
ness 112
ow 112
rain 112
ted 112
ER@@ 111
Gem@@ 111
Lar@@ 111
Rol@@ 111
aca 111
anger 111
bez@@ 111
nu@@ 111
off@@ 111
ose 111
Chin@@ 110
Hans 110
Loc@@ 110
ainishaji 110
into 110
out@@ 110
tig@@ 110
vel 110
yd@@ 110
à 110
ָ@@ 110
Art 109
Pop@@ 109
^ 109
isl@@ 109
leri 109
onal@@ 109
pul@@ 109
time 109
ğ@@ 109
AP 108
SE@@ 108
Song 108
ague 108
aut 108
cher 108
esta 108
kg 108
nach@@ 108
ometr@@ 108
poin@@ 108
put@@ 108
ī@@ 108
Educ@@ 107
Mod@@ 107
RO@@ 107
ense 107
illo 107
plas@@ 107
teri@@ 107
Azer@@ 106
Cul@@ 106
Juan 106
ape 106
ats 106
elt 106
eus 106
graf@@ 106
lock 106
off 106
rem@@ 106
ser 106
sky 106
up 106
1881 105
Corpor@@ 105
District 105
Jack@@ 105
Willi@@ 105
XV@@ 105
bay 105
ider 105
12.@@ 104
John@@ 104
Organ@@ 104
Rum@@ 104
bec 104
ei@@ 104
och 104
para 104
pur@@ 104
yle 104
ê@@ 104
COVID 103
dom 103
enburg 103
hie 103
ox@@ 103
sub@@ 103
öl@@ 103
Buch@@ 102
Copa 102
NBA 102
ason 102
bat@@ 102
ering 102
1830 101
1850 101
Council 101
Super@@ 101
assi@@ 101
bou@@ 101
did@@ 101
dir 101
if 101
wes@@ 101
ü@@ 101
1909 100
Church 100
Ferr@@ 100
Fol@@ 100
Play@@ 100
agne 100
egr@@ 100
ept@@ 100
ers@@ 100
ien@@ 100
lem 100
net 100
oy 100
wh@@ 100
ör@@ 100
1869 99
Aires 99
Gel@@ 99
Pil@@ 99
Proj@@ 99
Thom@@ 99
ensa 99
æ@@ 99
Buenos 98
Henri 98
Meg@@ 98
Squ@@ 98
depend@@ 98
hist@@ 98
iche 98
itt 98
lan 98
ran 98
senti@@ 98
unk@@ 98
Christi@@ 97
Journ@@ 97
USA 97
Vel@@ 97
Windows 97
augh@@ 97
bour@@ 97
leh@@ 97
ms 97
qui@@ 97
xim@@ 97
1882 96
Dec@@ 96
anim@@ 96
annel 96
crip@@ 96
loc@@ 96
optera 96
peri@@ 96
ree 96
stadt 96
è@@ 96
Gra@@ 95
alth 95
ann 95
bus 95
ces 95
ding 95
ges@@ 95
inal 95
inh 95
kan 95
ket@@ 95
sev@@ 95
tera 95
uerto 95
ə@@ 95
Brand@@ 94
Jes@@ 94
NE@@ 94
Nig@@ 94
Tanz@@ 94
Yah@@ 94
ander@@ 94
char@@ 94
cio 94
house 94
igh 94
name 94
side 94
yst@@ 94
1883 93
Alt@@ 93
Hin@@ 93
Plan@@ 93
ST@@ 93
alis 93
ator@@ 93
bec@@ 93
c. 93
emaji 93
ister 93
mas 93
ning@@ 93
other 93
publ@@ 93
ū@@ 93
β 93
European 92
For 92
Friedrich 92
cut 92
ique 92
itali@@ 92
los@@ 92
ron@@ 92
sti 92
ē@@ 92
DS 91
Got@@ 91
Land@@ 91
Publi@@ 91
Top 91
ado@@ 91
ahr@@ 91
ces@@ 91
dev@@ 91
hon@@ 91
occ@@ 91
union 91
Festival 90
Lon@@ 90
Stadi@@ 90
chen 90
conom@@ 90
dé@@ 90
ium 90
mit 90
tel 90
1865 89
Cast@@ 89
Jap@@ 89
allas 89
dad 89
eron 89
ev 89
idad 89
jed@@ 89
ret 89
tit@@ 89
van@@ 89
zona 89
ς 89
Cir@@ 88
Las 88
Tour@@ 88
XIX 88
act@@ 88
don 88
dri@@ 88
ection 88
eller 88
long@@ 88
luk@@ 88
mej@@ 88
og 88
rea 88
tion@@ 88
tul@@ 88
utz@@ 88
Bill@@ 87
Champi@@ 87
Colomb@@ 87
Europa 87
Les 87
Orig@@ 87
Santiago 87
Univers@@ 87
ael 87
aine 87
dos 87
ement@@ 87
star@@ 87
trong 87
urn@@ 87
ı 87
ב@@ 87
1867 86
Amer@@ 86
Dé@@ 86
Kre@@ 86
To 86
acc@@ 86
ck@@ 86
cons@@ 86
jug@@ 86
sei 86
sis 86
ution 86
Inn@@ 85
XVIII 85
atao 85
atin 85
ex 85
ext 85
has 85
lies 85
oti@@ 85
ots 85
BM@@ 84
Beg@@ 84
Football 84
MP@@ 84
adem@@ 84
atis@@ 84
attle 84
law@@ 84
rol@@ 84
sian 84
Á@@ 84
án@@ 84
ée 84
ém@@ 84
1864 83
DVD 83
FI@@ 83
Jacques 83
Johann 83
` 83
dic@@ 83
ede 83
tures 83
were 83
ר@@ 83
1863 82
Heinrich 82
High@@ 82
alifor@@ 82
aug@@ 82
bit@@ 82
eb 82
eck@@ 82
hariki 82
lim 82
prop@@ 82
rad@@ 82
í 82
ː@@ 82
א@@ 82
Blan@@ 81
Buc@@ 81
Elec@@ 81
Force 81
PS 81
ativ@@ 81
deb@@ 81
dle 81
fen@@ 81
geg@@ 81
oca 81
ple 81
quel@@ 81
set 81
å@@ 81
ā 81
1862 80
Do 80
Station 80
ert 80
née 80
pes 80
proj@@ 80
sec@@ 80
viol@@ 80
ī 80
́ 80
ְ@@ 80
Ere@@ 79
Off@@ 79
Sz@@ 79
Vor@@ 79
bas 79
fac@@ 79
ife 79
iss 79
leg@@ 79
red 79
tif@@ 79
weg@@ 79
won 79
yg@@ 79
ès 79
ب@@ 79
ح@@ 79
1879 78
AM 78
Arg@@ 78
Et@@ 78
Franz 78
Grande 78
Lord 78
This 78
ager 78
alle 78
ating 78
ayn@@ 78
eder@@ 78
ely 78
ful 78
nis 78
ods 78
ops 78
org@@ 78
ouv@@ 78
press 78
she 78
ō 78
ِ@@ 78
1873 77
As 77
General 77
aqu@@ 77
das 77
hard 77
iye 77
neg@@ 77
tors 77
vice 77
wn 77
yaz@@ 77
ère 77
ה@@ 77
An 76
Carr@@ 76
Doc@@ 76
ades 76
ages 76
album 76
car 76
gun 76
hoa 76
rez 76
stan@@ 76
ties 76
tru@@ 76
1878 75
Rel@@ 75
So 75
Sub@@ 75
azini 75
dipl@@ 75
enf@@ 75
eshim@@ 75
had 75
kno@@ 75
osp@@ 75
ury 75
Ş@@ 75
ּ@@ 75
Esp@@ 74
V. 74
cal@@ 74
can 74
ett@@ 74
main 74
rest@@ 74
vic@@ 74
× 74
ْ@@ 74
1876 73
Berg@@ 73
Jul@@ 73
Nati@@ 73
abl@@ 73
acy 73
ands 73
court 73
edr@@ 73
fam@@ 73
illes 73
lus@@ 73
now 73
ses 73
wur@@ 73
· 73
ó 73
1875 72
Mann@@ 72
PC 72
auer 72
cher@@ 72
dad@@ 72
diz@@ 72
ehr@@ 72
film 72
hil 72
ior 72
let 72
tica 72
田 72
1874 71
Bow@@ 71
Cou@@ 71
Kant@@ 71
She 71
Tod@@ 71
XX 71
ency 71
kay@@ 71
tt@@ 71
199@@ 70
Manuel 70
Tour 70
cin@@ 70
diplom@@ 70
enta 70
eph@@ 70
esp@@ 70
inger@@ 70
los 70
zy@@ 70
ï 70
ʿ@@ 70
ُ@@ 70
Baz@@ 69
Cant@@ 69
Jah@@ 69
Meh@@ 69
Mé@@ 69
States 69
With 69
ants 69
arak 69
formes 69
ment@@ 69
odo 69
sie 69
sin 69
sos@@ 69
unter 69
ḥ@@ 69
Blu@@ 68
DV@@ 68
Sup@@ 68
U.S. 68
bac@@ 68
cat@@ 68
enh@@ 68
hayat@@ 68
orial 68
polit@@ 68
that 68
yer 68
éd@@ 68
ég@@ 68
1848 67
1868 67
1877 67
First 67
Rev@@ 67
atri@@ 67
chil@@ 67
este 67
lau@@ 67
lier 67
music 67
prin@@ 67
public 67
san 67
tes@@ 67
urg@@ 67
מ@@ 67
Championship 66
Gener@@ 66
Internet 66
Tex@@ 66
aron 66
bach 66
ball 66
bau@@ 66
ben 66
cm 66
ders 66
face 66
fem@@ 66
format 66
fort 66
sons 66
tical 66
yay@@ 66
ying 66
ğ 66
ن@@ 66
Comp@@ 65
ander 65
anes 65
radio 65
riff@@ 65
sep@@ 65
ual 65
water 65
zon 65
ık@@ 65
Bed@@ 64
Def@@ 64
Ein@@ 64
François 64
Sa 64
There 64
deg@@ 64
dorf 64
dren 64
eaux 64
fic 64
gang 64
hiv@@ 64
sup@@ 64
tot@@ 64
urt 64
är@@ 64
ül@@ 64
נ@@ 64
1872 63
adol@@ 63
angel@@ 63
box 63
eer 63
els@@ 63
ilg@@ 63
less 63
lé@@ 63
model 63
mur@@ 63
ords 63
rat 63
top 63
under@@ 63
vil 63
′ 63
Cin@@ 62
Kır@@ 62
Provin@@ 62
When 62
aban 62
ace@@ 62
ality 62
ats@@ 62
bot 62
ems 62
esti@@ 62
eum 62
fir@@ 62
koa 62
ority 62
ough@@ 62
pon 62
vention 62
İz@@ 62
ία 62
Land 61
Nam 61
asser 61
ater@@ 61
cle 61
country 61
elik 61
modi@@ 61
orio 61
plan@@ 61
port@@ 61
pos 61
rac@@ 61
spir@@ 61
view 61
vor 61
č@@ 61
ש@@ 61
ر@@ 61
0s 60
Deutsch@@ 60
Olympi@@ 60
Pedro 60
Premier 60
Sain@@ 60
Stre@@ 60
asp@@ 60
ault 60
ists 60
ket 60
lib@@ 60
lines 60
neu@@ 60
pens@@ 60
school 60
seg@@ 60
traf@@ 60
world 60
Rein@@ 59
VI@@ 59
aille 59
aise 59
athol@@ 59
contribut@@ 59
eur@@ 59
hat 59
prim@@ 59
rup@@ 59
sch 59
sus@@ 59
tice 59
top@@ 59
umin@@ 59
ums 59
ár@@ 59
ór@@ 59
ş 59
م@@ 59
− 59
.S. 58
Pier@@ 58
Prin@@ 58
arch@@ 58
aten 58
domin@@ 58
eca 58
ennes 58
ference 58
idea 58
light 58
rot@@ 58
sel 58
tie 58
tras@@ 58
³ 58
ın 58
ś@@ 58
μ@@ 58
ִ@@ 58
ع@@ 58
Arti@@ 57
Nguy@@ 57
System 57
agement 57
aissance 57
antes 57
change 57
cy@@ 57
eg 57
elles 57
esc@@ 57
even 57
ift 57
influ@@ 57
mut@@ 57
ples 57
rev@@ 57
wing 57
ío 57
س@@ 57
198@@ 56
Army 56
Son 56
agn@@ 56
dou@@ 56
thu 56
west 56
ր@@ 56
ك@@ 56
ل@@ 56
AG 55
Album 55
Alex@@ 55
He 55
Seine 55
Yun@@ 55
autom@@ 55
dar 55
gli@@ 55
gs 55
lug@@ 55
mac@@ 55
nik 55
pio 55
semb@@ 55
tiv@@ 55
ular 55
uld 55
zon@@ 55
ַ@@ 55
ם 55
Au 54
Enter@@ 54
Museum 54
band 54
con 54
cri@@ 54
etti@@ 54
etz@@ 54
ily 54
lek@@ 54
min 54
partement 54
rö@@ 54
sion@@ 54
soci@@ 54
thr@@ 54
uz 54
versi@@ 54
very 54
üt@@ 54
ın@@ 54
August 53
Revol@@ 53
War 53
ames 53
blo@@ 53
com 53
dice 53
nov@@ 53
ories 53
struc@@ 53
sus 53
tham 53
tural 53
var 53
én 53
ق@@ 53
ي@@ 53
Am 52
Ba 52
English 52
Indian 52
Minh 52
Nh@@ 52
antas@@ 52
bourg 52
cht 52
ences 52
ischer 52
kel 52
mus 52
zus@@ 52
ê 52
î@@ 52
şehir 52
α@@ 52
ṣ@@ 52
Eisen@@ 51
Es 51
Fak@@ 51
Olymp@@ 51
Roy@@ 51
ains 51
bish@@ 51
cial 51
earch 51
inas 51
iter 51
kri@@ 51
live 51
oir 51
pes@@ 51
super@@ 51
text 51
ène 51
ön@@ 51
ü 51
ɛ@@ 51
ɪ@@ 51
ν 51
大@@ 51
Herr@@ 50
König@@ 50
Micro@@ 50
Prix 50
Sach@@ 50
Syn@@ 50
act 50
aft 50
aup@@ 50
azu 50
comp@@ 50
coun@@ 50
dit 50
dre@@ 50
eing 50
mina 50
otr@@ 50
vier 50
ž@@ 50
بن 50
Cum@@ 49
Dok@@ 49
Ober@@ 49
alt 49
anan 49
back 49
ball@@ 49
cole 49
enci@@ 49
haribi 49
jou@@ 49
mission 49
nati@@ 49
nes@@ 49
not 49
part@@ 49
quar@@ 49
sist@@ 49
tima 49
under 49
zen 49
éli@@ 49
ín 49
ú 49
ד@@ 49
ל@@ 49
ال@@ 49
س 49
َ 49
Bei 48
Empire 48
From 48
Zw@@ 48
ahl@@ 48
also 48
born 48
ety 48
formula 48
head 48
his 48
icul@@ 48
ography 48
stati@@ 48
ste 48
tier 48
tive 48
verse 48
ün@@ 48
山@@ 48
Il 47
Radi@@ 47
Sport@@ 47
ados 47
aly@@ 47
asc@@ 47
aç@@ 47
body 47
dition 47
doc@@ 47
igen 47
iken 47
inst@@ 47
kle@@ 47
zer 47
ν@@ 47
ה 47
ע@@ 47
Ἀ@@ 47
0.000 46
Bez@@ 46
Klo@@ 46
Mai 46
TC 46
alan@@ 46
ause 46
aver@@ 46
bit 46
city 46
ender 46
ends 46
erie 46
imbali 46
lag 46
ols 46
prom@@ 46
ques 46
rich@@ 46
stat@@ 46
syn@@ 46
zig 46
è 46
éré 46
ę@@ 46
ן 46
Nord@@ 45
Yar@@ 45
agre@@ 45
ahl 45
akt@@ 45
eine 45
enes 45
enin 45
flu@@ 45
gil@@ 45
kn@@ 45
lers 45
ley@@ 45
put 45
sive 45
stre@@ 45
tran@@ 45
wards 45
ık 45
196@@ 44
Amér@@ 44
Geb@@ 44
Premi@@ 44
Sud 44
WW@@ 44
anos 44
arti@@ 44
benz@@ 44
bers 44
bli@@ 44
cell@@ 44
ches 44
ease 44
ells 44
eran 44
grap@@ 44
iden 44
ilde 44
ities 44
kö@@ 44
ments 44
mul@@ 44
onal 44
onu 44
spr@@ 44
stand@@ 44
tal 44
zor@@ 44
ép@@ 44
ö 44
DR 43
Ges@@ 43
aer@@ 43
aide 43
cir@@ 43
dah@@ 43
dec@@ 43
emati@@ 43
ener 43
fak@@ 43
fied 43
form 43
habit@@ 43
ices 43
lum 43
many 43
mix@@ 43
mod@@ 43
ner@@ 43
new 43
opp@@ 43
par 43
spec@@ 43
tains 43
ures 43
vie 43
県 43
197@@ 42
Como 42
Games 42
Gran 42
Mün@@ 42
Universit@@ 42
aud 42
book 42
dem 42
high 42
jur@@ 42
language 42
long 42
mbal@@ 42
million 42
nationale 42
net@@ 42
stil@@ 42
techni@@ 42
Î@@ 42
ères 42
ñ@@ 42
ña 42
Š@@ 42
د@@ 42
محمد 42
∘ 42
Ost@@ 41
Philipp@@ 41
Schwar@@ 41
duc@@ 41
esto 41
eur 41
gin@@ 41
icro@@ 41
isis 41
mal 41
mano 41
medi@@ 41
ographi@@ 41
ording 41
than 41
tific@@ 41
vari@@ 41
éri@@ 41
ū 41
θ@@ 41
ش@@ 41
Fried@@ 40
History 40
Region 40
action 40
ares 40
away 40
dium 40
ective 40
ehir 40
eles 40
feder@@ 40
fic@@ 40
formation 40
found@@ 40
haus@@ 40
number 40
ological 40
seud@@ 40
tempor@@ 40
tory 40
unds 40
wn@@ 40
xi@@ 40
ð@@ 40
Π@@ 40
β@@ 40
ة 40
☉ 40
1. 39
German 39
Neu@@ 39
cip@@ 39
ect@@ 39
esper@@ 39
ils 39
inv@@ 39
issen@@ 39
kes@@ 39
phy@@ 39
pour 39
priv@@ 39
this 39
ʻ@@ 39
γ@@ 39
ا 39
ج@@ 39
د 39
† 39
Australian 38
Her 38
aining 38
ainst 38
alog@@ 38
ational 38
aves 38
ca@@ 38
cli@@ 38
ground 38
kre@@ 38
lag@@ 38
mittee 38
muj@@ 38
nin 38
né@@ 38
oire 38
ois 38
olan 38
sm@@ 38
ths 38
tos 38
tries 38
Ö@@ 38
ır@@ 38
π@@ 38
ח@@ 38
כ@@ 38
ز@@ 38
ف@@ 38
و@@ 38
ّ@@ 38
At 37
Nord 37
Tari@@ 37
alan 37
asse 37
cast 37
ingu@@ 37
ites 37
lic@@ 37
met 37
model@@ 37
mov@@ 37
má@@ 37
por 37
proc@@ 37
spor@@ 37
tim 37
tura 37
vat@@ 37
ving 37
zeit@@ 37
än@@ 37
ça 37
és 37
ɡ@@ 37
р@@ 37
ر 37
َّ@@ 37
ܝ@@ 37
Alg@@ 36
April 36
Fam@@ 36
Govern@@ 36
María 36
Roman 36
acter@@ 36
aines 36
cam@@ 36
cas 36
chez 36
entes 36
ires 36
ism@@ 36
osu 36
pedi@@ 36
pic@@ 36
quit@@ 36
red@@ 36
ref@@ 36
sek 36
tres 36
Κ@@ 36
κ@@ 36
ός 36
ان 36
ي 36
Gru@@ 35
Munici@@ 35
Natur@@ 35
Riv@@ 35
alem@@ 35
anl@@ 35
auen 35
board 35
but 35
down 35
fot@@ 35
gem@@ 35
ici 35
inn 35
ip 35
isation 35
ische 35
lang 35
pis@@ 35
ppe 35
sam 35
sche 35
series 35
show 35
stad@@ 35
tra@@ 35
trav@@ 35
tuy@@ 35
vie@@ 35
à@@ 35
äl@@ 35
év@@ 35
İ@@ 35
ń@@ 35
ə 35
ե@@ 35
ո@@ 35
أ@@ 35
ص@@ 35
ى 35
ἀ@@ 35
CN 34
Centr@@ 34
Haus@@ 34
Hein@@ 34
Ital@@ 34
audi@@ 34
bir 34
bri@@ 34
eig@@ 34
eros 34
left 34
lich 34
lit 34
nier 34
park 34
play 34
rif@@ 34
ses@@ 34
squ@@ 34
system 34
tional 34
uer@@ 34
ustr@@ 34
year 34
és@@ 34
Σ@@ 34
ն 34
ֹ@@ 34
ا@@ 34
Bask@@ 33
Beh@@ 33
Das 33
Franç@@ 33
French 33
Professor 33
aş 33
comm@@ 33
cro@@ 33
dil@@ 33
fication 33
have 33
hiz@@ 33
iff 33
isch@@ 33
like 33
part 33
seh@@ 33
sor@@ 33
tique 33
ustri@@ 33
~ 33
ë 33
ís 33
ô 33
üs@@ 33
ɾ@@ 33
ρ@@ 33
الله 33
ṭ@@ 33
193@@ 32
March 32
Schi@@ 32
alian 32
camp@@ 32
come 32
eral 32
flo@@ 32
ishing 32
isten 32
ión 32
kiş@@ 32
nen 32
rid 32
sci@@ 32
tern@@ 32
trac@@ 32
trol 32
ular@@ 32
éc@@ 32
ées 32
ă@@ 32
Đ@@ 32
ε@@ 32
ск 32
ֶ@@ 32
ُ 32
195@@ 31
Esta 31
Liter@@ 31
Luf@@ 31
Prof@@ 31
September 31
Sta@@ 31
Von 31
aber 31
alist 31
aras@@ 31
aş@@ 31
back@@ 31
contin@@ 31
dra@@ 31
dur 31
ede@@ 31
eler 31
equ@@ 31
fast 31
first 31
get 31
hips 31
jun@@ 31
lı 31
ministr@@ 31
orie 31
plus 31
program 31
qui 31
song 31
tric@@ 31
ween 31
wid@@ 31
xe 31
ás 31
üz@@ 31
ır 31
ũ@@ 31
γ 31
δ@@ 31
ת 31
ت 31
ه 31
وَ@@ 31
藤 31
郎 31
By 30
Name 30
Open 30
Pf@@ 30
Syst@@ 30
akter@@ 30
anh 30
cine 30
dat@@ 30
dern 30
dings 30
ember 30
gether 30
isch 30
its@@ 30
law 30
milli@@ 30
otra 30
pen 30
rier 30
self 30
sing 30
spe@@ 30
teur 30
tn@@ 30
toral 30
wais@@ 30
yen 30
zer@@ 30
ège 30
ʁ@@ 30
י 30
פ@@ 30
الس@@ 30
ب 30
् 30
.000 29
2. 29
Academ@@ 29
Europe 29
Form@@ 29
Kö@@ 29
Nacional 29
Ped@@ 29
anas 29
auto@@ 29
ayr@@ 29
cep@@ 29
cos 29
ece 29
evi@@ 29
force 29
geb@@ 29
gri@@ 29
ief 29
iran 29
kam 29
lama 29
lay@@ 29
mari@@ 29
mez 29
point 29
prise 29
real 29
tain@@ 29
tere 29
tish 29
zur 29
élé@@ 29
č 29
ħ@@ 29
š 29
σ@@ 29
р 29
ط@@ 29
ِ 29
3. 28
5. 28
Archit@@ 28
Institut 28
Reich@@ 28
Team 28
company 28
cos@@ 28
erek 28
feld 28
haup@@ 28
ident 28
iler 28
inci 28
inde@@ 28
kho@@ 28
liber@@ 28
nay 28
onder@@ 28
padre 28
pass@@ 28
power 28
test@@ 28
til 28
trad@@ 28
té 28
will 28
ál@@ 28
ò 28
üb@@ 28
ıy@@ 28
ʾ@@ 28
η 28
ֵ@@ 28
ת@@ 28
ل 28
Elle 27
En 27
arc@@ 27
boy@@ 27
cou@@ 27
def@@ 27
eas@@ 27
ects 27
educ@@ 27
einer 27
eleg@@ 27
embr@@ 27
eren 27
father 27
gal 27
get@@ 27
haus 27
hen 27
incia 27
ité 27
ked 27
mine 27
ool 27
over@@ 27
sal 27
ulation 27
vai 27
zun@@ 27
ĩ@@ 27
ış 27
ɔ@@ 27
ο@@ 27
τ@@ 27
χ@@ 27
ի@@ 27
ל 27
ר 27
إ@@ 27
الع@@ 27
يد 27
ܐ 27
194@@ 26
Volks@@ 26
abaj@@ 26
ables 26
aret 26
bis 26
cus@@ 26
eux 26
für 26
group 26
idas 26
irs 26
level 26
loi 26
new@@ 26
nom 26
ort@@ 26
pas 26
prof@@ 26
retur@@ 26
rí@@ 26
test 26
works 26
ē 26
ί@@ 26
ον 26
ρος 26
φ@@ 26
ль@@ 26
ская 26
الج@@ 26
木 26
本 26
田@@ 26
野 26
Bras@@ 25
Bu 25
Chic@@ 25
Division 25
Oly@@ 25
Schw@@ 25
Schwe@@ 25
Stein@@ 25
Tod 25
UE@@ 25
ases@@ 25
ateur 25
centr@@ 25
docum@@ 25
ellen 25
enst@@ 25
erk@@ 25
hay 25
ht 25
inos 25
luk 25
matr@@ 25
ockey 25
people 25
peti@@ 25
qua 25
rus@@ 25
same 25
sau 25
syst@@ 25
tec@@ 25
tex@@ 25
tiz@@ 25
track 25
ural 25
vers@@ 25
which 25
xa 25
zar@@ 25
ás@@ 25
ė@@ 25
Ł@@ 25
Α@@ 25
Μ@@ 25
ης 25
Со@@ 25
н 25
ׁ@@ 25
الح@@ 25
ذ@@ 25
را@@ 25
ῖ@@ 25
山 25
190@@ 24
Canadi@@ 24
Stra@@ 24
Wir@@ 24
anci@@ 24
atz 24
bahn 24
bey@@ 24
church 24
cle@@ 24
det@@ 24
ellschaft 24
enter 24
four 24
ict 24
iller@@ 24
join@@ 24
kır@@ 24
lon@@ 24
ograph@@ 24
rich 24
sten 24
tee 24
tros 24
vas@@ 24
verg@@ 24
version 24
vet@@ 24
voc@@ 24
Å@@ 24
été 24
ín@@ 24
ño 24
ò@@ 24
ük 24
üm@@ 24
ω@@ 24
к 24
اد 24
الش@@ 24
ج 24
غ@@ 24
ق 24
و 24
ْ 24
ܘ@@ 24
‏ 24
夫 24
After 23
Apr@@ 23
Direc@@ 23
Emp@@ 23
GC 23
Institu@@ 23
Person@@ 23
aller 23
bol 23
champ@@ 23
cit@@ 23
emple 23
featur@@ 23
forman@@ 23
gro@@ 23
heit 23
high@@ 23
led 23
lik 23
made 23
nea 23
nos 23
phil@@ 23
que@@ 23
sang 23
sour@@ 23
style 23
tí@@ 23
vern@@ 23
writ@@ 23
xico 23
yal 23
å 23
édi@@ 23
Č@@ 23
ʼ@@ 23
κα@@ 23
ρι@@ 23
א 23
ק@@ 23
الك@@ 23
الم@@ 23
خ@@ 23
Ḥ@@ 23
″ 23
川 23
高@@ 23
Portu@@ 22
arri@@ 22
ağ@@ 22
been 22
coll@@ 22
dete 22
edad 22
eş@@ 22
fore 22
gres@@ 22
identi@@ 22
irat@@ 22
ird 22
kim 22
lie@@ 22
obr@@ 22
oci@@ 22
onio 22
post 22
pou@@ 22
site 22
state 22
stor@@ 22
studi@@ 22
they 22
title 22
Ø@@ 22
éré@@ 22
ün 22
üş@@ 22
ɑ@@ 22
Τ@@ 22
ι 22
τος 22
вич 22
յ@@ 22
اء 22
الن@@ 22
ية 22
一 22
189@@ 21
Film@@ 21
Hist@@ 21
October 21
Thanh 21
aller@@ 21
andes 21
artic@@ 21
bul 21
class@@ 21
classi@@ 21
enso 21
etes 21
game 21
icht 21
icio 21
initi@@ 21
international 21
ished 21
ition 21
main@@ 21
ned 21
order 21
ously 21
patr@@ 21
phot@@ 21
play@@ 21
plic@@ 21
rol 21
seau 21
television 21
territ@@ 21
tif 21
yeni 21
µ@@ 21
½ 21
æ 21
ón@@ 21
С@@ 21
ла@@ 21
на 21
ւ@@ 21
ג@@ 21
ار@@ 21
عبد 21
→ 21
井 21
口 21
村 21
松@@ 21
Akadem@@ 20
Bir 20
Bình 20
Constitu@@ 20
Cuando 20
Eis@@ 20
July 20
June 20
Milit@@ 20
Nguyễn 20
Nueva 20
Ort@@ 20
Parti@@ 20
Se 20
Su 20
These 20
\ 20
cab@@ 20
cant@@ 20
cer 20
econom@@ 20
ense@@ 20
enth@@ 20
epis@@ 20
esch@@ 20
eñ@@ 20
football 20
ible 20
ional 20
iyi 20
last 20
list@@ 20
mani@@ 20
muz@@ 20
namo 20
nuc@@ 20
ogen 20
perior 20
phe 20
produc@@ 20
publi@@ 20
sey@@ 20
them 20
tly 20
uch 20
ues 20
uses 20
using 20
vek@@ 20
vor@@ 20
women 20
wr@@ 20
ç 20
ıl@@ 20
Ž@@ 20
ʉ@@ 20
ά@@ 20
ξ@@ 20
σι@@ 20
στ@@ 20
в 20
в@@ 20
ро@@ 20
Ա@@ 20
տ@@ 20
ح 20
م 20
Ἰ@@ 20
三 20
小@@ 20
雄 20
9. 19
Ban 19
Des 19
February 19
Milli@@ 19
Soh@@ 19
Spi@@ 19
Un 19
abei 19
about 19
alc@@ 19
allen 19
atur 19
aî@@ 19
bed@@ 19
chia 19
club 19
cont@@ 19
contr@@ 19
dav@@ 19
direc@@ 19
dès 19
egen 19
ext@@ 19
fang@@ 19
fle@@ 19
iles 19
ilk 19
irk 19
ismo 19
iste 19
köy 19
lieu 19
lot 19
mt 19
nig 19
parti@@ 19
pay@@ 19
pios 19
program@@ 19
sous 19
techn@@ 19
teh@@ 19
titu@@ 19
utz 19
years 19
yet 19
Öz@@ 19
çe 19
équ@@ 19
õ@@ 19
Đồng 19
ė 19
ğr@@ 19
ż@@ 19
ɨ@@ 19
ή@@ 19
της 19
ύ@@ 19
й 19
й@@ 19
ский 19
ז@@ 19
ס@@ 19
رة 19
ك 19
አ@@ 19
ọ 19
ῆ@@ 19
三@@ 19
原 19
和@@ 19
福@@ 19
7. 18
Canton 18
Der 18
Jug@@ 18
Rep@@ 18
Theo 18
acht 18
acio 18
aill@@ 18
ativa 18
auth@@ 18
ave@@ 18
añ@@ 18
ble@@ 18
capit@@ 18
commer@@ 18
deu@@ 18
dies 18
enas 18
enz 18
ered 18
erra 18
formed 18
gian 18
gut 18
inin 18
isco 18
jour@@ 18
journ@@ 18
langu@@ 18
later 18
may 18
mé@@ 18
noch 18
novi@@ 18
pain@@ 18
prov@@ 18
rom 18
rou@@ 18
sych@@ 18
tam 18
termin@@ 18
tet 18
tir 18
zey 18
â 18
üc@@ 18
ων 18
И@@ 18
ва 18
н@@ 18
с@@ 18
ш@@ 18
ь 18
ت@@ 18
ري@@ 18
لا@@ 18
مَ@@ 18
ܪ@@ 18
中@@ 18
佐@@ 18
岡@@ 18
正@@ 18
長@@ 18
6. 17
Böl@@ 17
División 17
España 17
Gün@@ 17
His 17
January 17
Nha 17
Span@@ 17
adém@@ 17
alar 17
ampi@@ 17
comun@@ 17
district 17
ected 17
erst@@ 17
essen 17
estig@@ 17
française 17
late 17
lead@@ 17
lí@@ 17
mec@@ 17
mek 17
mula 17
multi@@ 17
orig@@ 17
pendi@@ 17
round 17
said 17
tig 17
uss 17
vez 17
with@@ 17
ä 17
ät@@ 17
èle 17
ét@@ 17
ì 17
ück 17
ɐ@@ 17
ʃ@@ 17
λογ@@ 17
το@@ 17
ω 17
А@@ 17
евич 17
і@@ 17
կ@@ 17
بي@@ 17
دي 17
لي@@ 17
مل@@ 17
ܕ@@ 17
ἰ@@ 17
安@@ 17
川@@ 17
187@@ 16
4. 16
Ab 16
Arth@@ 16
Gü@@ 16
Janu@@ 16
Spiel@@ 16
Sur 16
aband@@ 16
americ@@ 16
arte 16
commun@@ 16
cover@@ 16
cula 16
dır 16
elten 16
eure 16
fs 16
ging 16
head@@ 16
ises 16
lec@@ 16
ligh@@ 16
liter@@ 16
local 16
national 16
nec@@ 16
ologie 16
onc@@ 16
onship 16
pero 16
person@@ 16
positi@@ 16
sever@@ 16
sign@@ 16
some 16
station 16
tag 16
versit@@ 16
­ 16
éro@@ 16
ên 16
öh@@ 16
ös@@ 16
ł 16
Ō@@ 16
ή 16
λ@@ 16
Б@@ 16
л@@ 16
ն@@ 16
الأ@@ 16
الب@@ 16
الق@@ 16
من 16
مي@@ 16
نا 16
ون 16
وي@@ 16
ين 16
ّ 16
ܬ@@ 16
186@@ 15
192@@ 15
Campeonato 15
Ent@@ 15
Feb@@ 15
Mec@@ 15
Nieder@@ 15
They 15
Universität 15
Wilhel@@ 15
aces 15
ación 15
alli@@ 15
amen 15
arias 15
atives 15
champi@@ 15
chn@@ 15
cla@@ 15
dist@@ 15
doğ@@ 15
edit@@ 15
enen 15
esen 15
essor 15
family 15
fin 15
gener@@ 15
grou@@ 15
gü@@ 15
ihe 15
include 15
inco 15
issu@@ 15
iç@@ 15
khi@@ 15
limit@@ 15
nie 15
only 15
original 15
ought 15
oğlu 15
qué 15
road 15
sequ@@ 15
short 15
sol 15
tent@@ 15
through 15
tur 15
type 15
ules 15
unter@@ 15
ved 15
vida 15
Öster@@ 15
çal@@ 15
ð 15
ù 15
ý 15
ım 15
ım@@ 15
ız@@ 15
ń 15
αγ@@ 15
ι@@ 15
τι@@ 15
υ@@ 15
ό@@ 15
О@@ 15
а@@ 15
и 15
м@@ 15
ма@@ 15
ի 15
צ@@ 15
دی 15
ع 15
مو@@ 15
وس@@ 15
ስ 15
ảng 15
ὁ 15
⁄ 15
↑ 15
也 15
司 15
島 15
森@@ 15
樹 15
治 15
直@@ 15
ﬁ@@ 15
188@@ 14
8. 14
@ 14
Akad@@ 14
Eurov@@ 14
Ord@@ 14
after 14
alled 14
ament 14
andere 14
bles 14
culp@@ 14
cum@@ 14
division 14
eil@@ 14
ements 14
enant 14
ended 14
enek@@ 14
ersch@@ 14
esses 14
estos 14
eyi 14
history 14
iker 14
inden 14
isons 14
maya 14
muz 14
offici@@ 14
ograp@@ 14
oles 14
opsis 14
rech@@ 14
rem 14
rent 14
roy@@ 14
six 14
tas 14
team 14
tei 14
their 14
tik 14
tiy@@ 14
tín 14
used 14
when 14
where 14
who 14
ác@@ 14
érie 14
ù@@ 14
ún 14
ă 14
ő@@ 14
Ś@@ 14
Χ@@ 14
αν@@ 14
ει@@ 14
μ 14
У@@ 14
ка 14
о@@ 14
т@@ 14
ј@@ 14
الل@@ 14
بر@@ 14
بع@@ 14
ث@@ 14
سع@@ 14
ی@@ 14
ܡ@@ 14
ṯ@@ 14
ἐ@@ 14
Ἐ@@ 14
一@@ 14
中 14
人 14
林 14
男 14
道 14
Anc@@ 13
Cao 13
Dies@@ 13
Distribu@@ 13
Guin@@ 13
Hoch@@ 13
Hö@@ 13
Irel@@ 13
Para 13
ability 13
achen 13
administr@@ 13
against 13
aged 13
appe@@ 13
appear@@ 13
aque 13
atos 13
aum 13
best@@ 13
blan@@ 13
bran@@ 13
cent@@ 13
crit@@ 13
cá@@ 13
dial 13
dru@@ 13
echo 13
eden@@ 13
ehr 13
endi@@ 13
enos 13
eurs 13
fait 13
film@@ 13
hem 13
home 13
illed 13
isse 13
laya 13
metal 13
mill@@ 13
named 13
nda 13
neur 13
odes 13
once 13
organ@@ 13
organiz@@ 13
party 13
porte 13
pose 13
public@@ 13
refer@@ 13
run 13
rég@@ 13
scor@@ 13
sil 13
stell@@ 13
strat@@ 13
strum@@ 13
tiva 13
ungs@@ 13
uzak@@ 13
± 13
ày 13
ân 13
ôn 13
ý@@ 13
İn@@ 13
ış@@ 13
ţ@@ 13
ũ 13
Δ@@ 13
Ε@@ 13
αλ@@ 13
ας 13
εια 13
ια 13
ου@@ 13
π 13
ρ 13
ών 13
Влади@@ 13
К@@ 13
Са@@ 13
к@@ 13
л 13
мо@@ 13
т 13
ы@@ 13
Մ@@ 13
ս@@ 13
ּ 13
آ@@ 13
الد@@ 13
رو@@ 13
مة 13
محافظة 13
من@@ 13
ون@@ 13
া@@ 13
ር@@ 13
ụ@@ 13
ῦ 13
ῶ@@ 13
宮@@ 13
島@@ 13
清@@ 13
西 13
西@@ 13
谷 13
Amerik@@ 12
Ayr@@ 12
Bü@@ 12
Europ@@ 12
Geg@@ 12
Grou@@ 12
Haupt@@ 12
Im 12
Musik@@ 12
Sov@@ 12
Sü@@ 12
acu@@ 12
alen 12
alista 12
atta@@ 12
auf 12
based 12
baz@@ 12
being 12
bre 12
brit@@ 12
ción 12
class 12
concer@@ 12
condi@@ 12
control 12
culture 12
development 12
eas 12
eil 12
eler@@ 12
elt@@ 12
ently 12
erh@@ 12
europ@@ 12
foot@@ 12
hasta 12
inning 12
iques 12
itation 12
jos 12
lande 12
libr@@ 12
most 12
mundo 12
perten@@ 12
phố 12
pression 12
prises 12
production 12
provid@@ 12
raz@@ 12
region 12
released 12
reste 12
scher 12
segu@@ 12
siy@@ 12
small 12
tard 12
tigen 12
times 12
two 12
west@@ 12
while 12
zone 12
´ 12
Â@@ 12
ß 12
ève 12
ías 12
öz@@ 12
ě@@ 12
ŋ@@ 12
ʊ@@ 12
ʒ@@ 12
Λ@@ 12
ε 12
εύ@@ 12
ζ 12
λι@@ 12
μα@@ 12
να@@ 12
Ка@@ 12
Рес@@ 12
а 12
до@@ 12
ни@@ 12
публика 12
Հ@@ 12
الخ@@ 12
الف@@ 12
عب 12
علي 12
فة 12
لَ@@ 12
مان 12
ن 12
ور 12
وم 12
يل 12
ა@@ 12
ም 12
ን@@ 12
ḇ@@ 12
ὶ 12
ー 12
二 12
太 12
本@@ 12
良@@ 12
野@@ 12
Deutschland 11
Hà 11
November 11
Stad@@ 11
Universidad 11
Vier@@ 11
aborat@@ 11
active 11
adas 11
around 11
arı 11
assen 11
ağı 11
aşa 11
baş@@ 11
case 11
categ@@ 11
caus@@ 11
chr@@ 11
contempor@@ 11
date 11
dej@@ 11
det 11
ectiv@@ 11
fall 11
full 11
gest@@ 11
hin 11
ific@@ 11
ived 11
kiye 11
lege 11
mak 11
mann@@ 11
nomin@@ 11
nou@@ 11
ordin@@ 11
osas 11
pf@@ 11
present@@ 11
pris@@ 11
province 11
rant 11
resp@@ 11
rir 11
role 11
sed 11
social 11
terr@@ 11
thành 11
tradi@@ 11
tribut@@ 11
trou@@ 11
tés 11
ually 11
unci@@ 11
uten 11
yeri 11
zel@@ 11
Æ@@ 11
Ú@@ 11
û@@ 11
üh@@ 11
ĩnh 11
ź 11
ž 11
ɛ 11
ʾ 11
Β@@ 11
εία 11
η@@ 11
ο 11
ού@@ 11
τη@@ 11
χ 11
όν@@ 11
з@@ 11
нович 11
у@@ 11
ц@@ 11
ד 11
اب@@ 11
ار 11
اس@@ 11
الإ@@ 11
الر@@ 11
ة@@ 11
رب 11
ش 11
هر 11
ير 11
ܩ@@ 11
ር 11
ới 11
Ἄ@@ 11
‌ 11
久@@ 11
南@@ 11
州 11
幸 11
忠@@ 11
藤@@ 11
金@@ 11
Adem@@ 10
Argent@@ 10
Distr@@ 10
Grün@@ 10
Hoa 10
Hòa 10
Schul@@ 10
Süd@@ 10
adora 10
ained 10
apon 10
atro 10
aç 10
aña 10
bajo 10
best 10
bier@@ 10
bres 10
bt 10
chs 10
cian 10
clim@@ 10
clo@@ 10
compl@@ 10
comple@@ 10
deki 10
dır@@ 10
empl@@ 10
erin 10
eten 10
event@@ 10
exp@@ 10
famili@@ 10
former 10
för@@ 10
govern@@ 10
histori@@ 10
ically 10
icos 10
idence 10
ident@@ 10
information 10
institu@@ 10
issen 10
iten 10
itung 10
known 10
lung 10
mayo 10
né 10
ober@@ 10
où 10
phi 10
plac@@ 10
plant@@ 10
pre 10
published 10
religi@@ 10
schule 10
service 10
signed 10
suff@@ 10
sé@@ 10
then 10
toire 10
tour@@ 10
typ@@ 10
zog 10
º 10
Ó@@ 10
âteau 10
äs@@ 10
éo 10
ération 10
ól@@ 10
ø 10
ć@@ 10
İl@@ 10
ız 10
œ@@ 10
ǎ@@ 10
ɪ 10
ʿ 10
Ζ@@ 10
Ν@@ 10
Φ@@ 10
άν@@ 10
άρ@@ 10
έ@@ 10
ερ@@ 10
θ 10
ικ@@ 10
λα@@ 10
λόγ@@ 10
ξ 10
ρα@@ 10
ρο@@ 10
ώ@@ 10
На@@ 10
Ро@@ 10
ба@@ 10
за@@ 10
ка@@ 10
ный 10
о 10
си@@ 10
ци@@ 10
լ@@ 10
վ@@ 10
ב 10
ח 10
الدين 10
با@@ 10
ز 10
ست@@ 10
عل@@ 10
فر@@ 10
ند@@ 10
وا@@ 10
ور@@ 10
ک@@ 10
ܣ@@ 10
ስ@@ 10
ብ@@ 10
Ọ@@ 10
℟ 10
ー@@ 10
井@@ 10
介 10
健@@ 10
加@@ 10
原@@ 10
吉@@ 10
武@@ 10
永@@ 10
鈴@@ 10
20. 9
Bắc 9
Er 9
Estado 9
Gür@@ 9
Krieg@@ 9
México 9
President 9
Rus 9
aben 9
aires 9
alle@@ 9
along 9
ample 9
ances 9
atif 9
atura 9
because 9
bed 9
before 9
both 9
century 9
clos@@ 9
conqu@@ 9
cu 9
ded 9
design@@ 9
diff@@ 9
eras 9
esini 9
ests 9
extr@@ 9
front 9
government 9
grand 9
gö@@ 9
hac@@ 9
held 9
hr 9
iev@@ 9
itos 9
landa 9
leur 9
lieb 9
match 9
moder@@ 9
nac@@ 9
ney@@ 9
numer@@ 9
orient@@ 9
oyn@@ 9
propi@@ 9
publique 9
qu 9
ques@@ 9
reich 9
sac@@ 9
second 9
speci@@ 9
such 9
tung 9
vec@@ 9
vot@@ 9
zial@@ 9
ã@@ 9
èse 9
ét 9
úc 9
ünde 9
Ā@@ 9
ıl 9
ŏ@@ 9
ʲ@@ 9
Γ@@ 9
Θε@@ 9
δ 9
δι@@ 9
ευ@@ 9
ζ@@ 9
ιος 9
λε@@ 9
λλ@@ 9
μα 9
νη 9
πος 9
ρί@@ 9
όρ@@ 9
Г@@ 9
али@@ 9
ан@@ 9
б@@ 9
вет@@ 9
д@@ 9
да@@ 9
е 9
ен@@ 9
ла 9
ло@@ 9
пе@@ 9
с 9
ё@@ 9
թ@@ 9
մ@@ 9
آل 9
أم@@ 9
ئ@@ 9
ات 9
اس 9
ال 9
الص@@ 9
الغ@@ 9
ام 9
بي 9
حي@@ 9
دي@@ 9
سي@@ 9
ف 9
قي@@ 9
لل@@ 9
ما@@ 9
مع@@ 9
مي 9
مُ@@ 9
وا 9
ين@@ 9
ی 9
ܐ@@ 9
์ 9
ክ@@ 9
የ@@ 9
ድ@@ 9
ḥ 9
ọ@@ 9
ἱ@@ 9
ὐ@@ 9
ᾶ@@ 9
二@@ 9
俊@@ 9
前@@ 9
北@@ 9
史 9
太@@ 9
子 9
宏 9
崎 9
平 9
幸@@ 9
彦 9
昌@@ 9
李@@ 9
橋 9
水@@ 9
江@@ 9
津@@ 9
輝 9
部 9
隆@@ 9
도 9
시 9
According 8
Alem@@ 8
Arbeit@@ 8
Bev@@ 8
Con 8
Form 8
Fren@@ 8
Mundial 8
Sơn 8
actor 8
adap@@ 8
afin 8
ainer 8
anni@@ 8
arios 8
became 8
bilin@@ 8
bind@@ 8
brach@@ 8
cht@@ 8
compos@@ 8
conf@@ 8
conserv@@ 8
cour@@ 8
cru@@ 8
design 8
déf@@ 8
dér@@ 8
each 8
elde 8
emble 8
ending 8
energ@@ 8
erc@@ 8
found 8
geri 8
guit@@ 8
half 8
iment 8
industri@@ 8
jas 8
ledi 8
luy@@ 8
make 8
manif@@ 8
monde 8
mpi@@ 8
naci@@ 8
nation@@ 8
natural 8
observ@@ 8
ographie 8
oloji 8
onen 8
orden 8
played 8
prec@@ 8
quot@@ 8
race 8
riv@@ 8
section 8
septi@@ 8
serve 8
sible 8
situ@@ 8
soit 8
south 8
spi@@ 8
suc@@ 8
take 8
tech@@ 8
tent 8
tionn@@ 8
trag@@ 8
ulus@@ 8
ungen 8
universit@@ 8
vill@@ 8
wie 8
zug@@ 8
º@@ 8
Ü@@ 8
ß@@ 8
ßen 8
èg@@ 8
î 8
ą@@ 8
ĩ 8
İstanbul 8
ǁ@@ 8
ɐ 8
ɑ 8
ɣ@@ 8
ɲ@@ 8
ʎ@@ 8
ˌ@@ 8
͡ 8
Ά@@ 8
Θ@@ 8
έλ@@ 8
έν@@ 8
αι@@ 8
ακ@@ 8
αρ@@ 8
θος 8
ισ@@ 8
πι@@ 8
σ 8
Васи@@ 8
Е@@ 8
М@@ 8
П@@ 8
Та@@ 8
Х@@ 8
би@@ 8
ви@@ 8
г@@ 8
го@@ 8
ж@@ 8
и@@ 8
ко 8
ли@@ 8
ная 8
ре@@ 8
ха@@ 8
я 8
ћ 8
ղ@@ 8
ր 8
ו 8
ע 8
ף 8
اب 8
ابن 8
ات@@ 8
الت@@ 8
ام@@ 8
برا@@ 8
بل@@ 8
بن@@ 8
زي@@ 8
سل@@ 8
سي 8
ط 8
لة 8
مؤ@@ 8
مار@@ 8
ني 8
وب@@ 8
وط@@ 8
يُ@@ 8
ܠ@@ 8
ܢ@@ 8
ተ@@ 8
ṇ@@ 8
Ṣ@@ 8
Ἁ@@ 8
℣ 8
≥ 8
ン@@ 8
之 8
保 8
古@@ 8
名@@ 8
孝@@ 8
平@@ 8
朝 8
泰@@ 8
海@@ 8
渡@@ 8
澤 8
真@@ 8
輔 8
都@@ 8
青@@ 8
대@@ 8
1,5 7
Baş@@ 7
Histoire 7
However 7
Indon@@ 7
National@@ 7
Phi 7
Unter@@ 7
Virgin@@ 7
Yıl@@ 7
Zeit@@ 7
alien 7
among 7
base 7
biy@@ 7
cao 7
cause 7
cens@@ 7
center 7
ched 7
children 7
cil 7
communes 7
conc@@ 7
craft 7
death 7
debut 7
defin@@ 7
differ@@ 7
drei 7
due 7
during 7
early 7
erte 7
ería 7
faz@@ 7
fen 7
films 7
following 7
fron@@ 7
given 7
gradu@@ 7
idos 7
inen 7
ised 7
isinin 7
isión 7
just 7
liche 7
lub 7
mess@@ 7
modern 7
musical 7
nacional 7
natur@@ 7
octu@@ 7
office 7
ouver@@ 7
plan 7
player 7
possible 7
prak@@ 7
promot@@ 7
reci@@ 7
recog@@ 7
regi@@ 7
relati@@ 7
retr@@ 7
sche@@ 7
secre@@ 7
services 7
since 7
straße 7
stud@@ 7
tant 7
tek 7
thé@@ 7
tival 7
tour 7
tér@@ 7
udur 7
web 7
what 7
zey@@ 7
Ä@@ 7
áng 7
âm 7
äng@@ 7
ì@@ 7
òn 7
Ć@@ 7
ıt 7
ř@@ 7
ʉ 7
ʊ 7
Ι@@ 7
Κύ@@ 7
ά 7
άς 7
ίας 7
κλ@@ 7
να 7
ογ@@ 7
ολ@@ 7
παρ@@ 7
πλ@@ 7
πολι@@ 7
ων@@ 7
όκ@@ 7
Алек@@ 7
Д@@ 7
Ки@@ 7
Ко@@ 7
Никола@@ 7
Т@@ 7
Я@@ 7
га@@ 7
д 7
де@@ 7
м 7
миро@@ 7
но@@ 7
ри@@ 7
ру@@ 7
стро@@ 7
сь@@ 7
то@@ 7
ї@@ 7
ә 7
ә@@ 7
Ե@@ 7
Ս@@ 7
ց@@ 7
ֲ@@ 7
أن@@ 7
البح@@ 7
الو@@ 7
ان@@ 7
اه@@ 7
بة 7
تُ@@ 7
جب@@ 7
دا@@ 7
در@@ 7
طر@@ 7
ظ@@ 7
عة 7
علی 7
عي@@ 7
لو@@ 7
مد 7
مر 7
نة 7
ول 7
ول@@ 7
ولی 7
يا 7
يم 7
ٱ@@ 7
ܥ@@ 7
ი 7
ი@@ 7
ნ@@ 7
ት 7
ያ@@ 7
ደ@@ 7
ግ@@ 7
ḏ@@ 7
ṃ@@ 7
ẵ@@ 7
ῦ@@ 7
ク@@ 7
仁 7
光@@ 7
内 7
千@@ 7
博@@ 7
岡 7
崎@@ 7
州@@ 7
弘 7
徳@@ 7
志 7
戸@@ 7
明 7
朗 7
木@@ 7
江 7
石@@ 7
神@@ 7
茂@@ 7
行 7
谷@@ 7
近@@ 7
한@@ 7
𝄆 7
𝄇 7
Ağ@@ 6
Brasil 6
Califor@@ 6
Conse@@ 6
Geschichte 6
Groß@@ 6
Guerra 6
Kirche 6
Lan 6
Nisan 6
Parti 6
Partido 6
Pub@@ 6
Rech@@ 6
Sin 6
Thái 6
Tuy 6
Türk 6
again 6
alter@@ 6
alı 6
anst@@ 6
appel@@ 6
archit@@ 6
ations@@ 6
auc@@ 6
avec 6
beau@@ 6
bere@@ 6
bern@@ 6
between 6
cad@@ 6
central 6
charac@@ 6
chev@@ 6
community 6
concentr@@ 6
conduc@@ 6
constitu@@ 6
conten@@ 6
contribu@@ 6
conv@@ 6
cost@@ 6
coul@@ 6
cré@@ 6
curr@@ 6
days 6
director 6
disput@@ 6
donde 6
east 6
eln 6
enst 6
enten 6
envir@@ 6
erung 6
exper@@ 6
feh@@ 6
follow@@ 6
français 6
games 6
gel 6
general 6
homme 6
ided 6
inaug@@ 6
incre@@ 6
integr@@ 6
introduc@@ 6
ischen 6
isine 6
isme 6
istes 6
iş@@ 6
jour 6
khu 6
lement 6
material 6
member 6
merc@@ 6
nant 6
novel@@ 6
obj@@ 6
ogle 6
ológ@@ 6
omen 6
onnat 6
period 6
platz 6
police 6
political 6
position 6
present 6
prob@@ 6
puer@@ 6
quali@@ 6
received 6
record 6
reti@@ 6
served 6
sett@@ 6
sexu@@ 6
simil@@ 6
sociation 6
some@@ 6
stitu@@ 6
teil 6
teilung 6
there 6
three 6
tien 6
unun 6
village 6
voir 6
wech@@ 6
who@@ 6
wich@@ 6
woh@@ 6
zh 6
¥ 6
ße 6
àn 6
àu 6
áo 6
äd@@ 6
éch@@ 6
éti@@ 6
ête 6
óa 6
ông 6
õ 6
û 6
über 6
üm 6
ıt@@ 6
ś 6
ǐ 6
ǒ@@ 6
ș@@ 6
ʁ 6
ʃ 6
ʋ@@ 6
ʌ@@ 6
ʔ@@ 6
̣ 6
͵ 6
Μαρ@@ 6
άρι@@ 6
άσ@@ 6
ί 6
αμ@@ 6
απ@@ 6
δρ@@ 6
εν@@ 6
ις 6
κυ@@ 6
λ 6
με@@ 6
μφ@@ 6
οι 6
ομ@@ 6
πολ@@ 6
ρά@@ 6
σα 6
τα@@ 6
τε@@ 6
υρ@@ 6
ψ@@ 6
Ба@@ 6
Бе@@ 6
Во@@ 6
Ле@@ 6
Ма@@ 6
Ми@@ 6
Миха@@ 6
Р@@ 6
Ра@@ 6
То@@ 6
Ч@@ 6
ав@@ 6
бо@@ 6
ве@@ 6
во 6
г 6
кий 6
мир 6
на@@ 6
не@@ 6
нов 6
ров@@ 6
ь@@ 6
э@@ 6
Қ@@ 6
қ@@ 6
բ@@ 6
գ@@ 6
կ 6
ս 6
ֱ@@ 6
ַ 6
ט@@ 6
ק 6
ש 6
، 6
أبو 6
إل@@ 6
اث@@ 6
اد@@ 6
است@@ 6
اق 6
الز@@ 6
بر 6
جه@@ 6
خان 6
دو@@ 6
رب@@ 6
رج@@ 6
ري 6
سك@@ 6
سو@@ 6
شن@@ 6
ظ 6
عر@@ 6
عم@@ 6
كة 6
لية 6
مح@@ 6
وادي 6
وي 6
يوم 6
چ@@ 6
کل 6
ക@@ 6
ል 6
ሕ@@ 6
መ@@ 6
ማ@@ 6
ም@@ 6
ራ 6
ት@@ 6
ኢ@@ 6
ይ@@ 6
ዮ@@ 6
ፍ@@ 6
ḗ@@ 6
ắ@@ 6
ế 6
Ἅ@@ 6
Ἡ@@ 6
い@@ 6
久 6
信@@ 6
剛 6
友@@ 6
周@@ 6
四@@ 6
富@@ 6
岩@@ 6
康@@ 6
志@@ 6
敏@@ 6
橋@@ 6
永 6
河@@ 6
生 6
秀@@ 6
秋@@ 6
立@@ 6
美 6
蔵 6
裕@@ 6
貴@@ 6
賀@@ 6
輝@@ 6
那@@ 6
重@@ 6
隆 6
雅@@ 6
남@@ 6
안@@ 6
주@@ 6
 6
﻿ 6
December 5
Dương 5
Ein 5
Flug@@ 5
Hải 5
Hồ 5
Mart 5
Minister@@ 5
República 5
Schl@@ 5
Việt 5
Zentr@@ 5
ached 5
activ@@ 5
allow@@ 5
alternati@@ 5
anlar 5
arded 5
aría 5
assist@@ 5
ası 5
atique 5
auté 5
bang 5
called 5
capac@@ 5
capital 5
centre 5
combin@@ 5
competi@@ 5
consid@@ 5
dans 5
defe@@ 5
deut@@ 5
distribu@@ 5
dung 5
eben 5
eder 5
eines 5
election 5
entos 5
exemple 5
famil@@ 5
fav@@ 5
fest@@ 5
fico 5
final 5
financi@@ 5
founded 5
frag@@ 5
fue 5
gesch@@ 5
gique 5
hijo 5
histor@@ 5
ichte 5
inclu@@ 5
independ@@ 5
interpre@@ 5
inté@@ 5
jud@@ 5
kent@@ 5
khi 5
lieg@@ 5
located 5
major 5
mant@@ 5
moved 5
much@@ 5
nach 5
national@@ 5
nete 5
north 5
nt 5
oloj@@ 5
parti 5
pays 5
philos@@ 5
plu@@ 5
popular 5
princi@@ 5
produ@@ 5
produced 5
propos@@ 5
propri@@ 5
requ@@ 5
respon@@ 5
rière 5
région 5
scienti@@ 5
sigui@@ 5
species 5
started 5
students 5
tay 5
temp@@ 5
tiem@@ 5
topl@@ 5
tras 5
trat@@ 5
tribu@@ 5
univers@@ 5
until 5
usunda 5
uş@@ 5
voy@@ 5
went 5
yük@@ 5
zt 5
® 5
ài 5
óc 5
úa 5
üd@@ 5
ür 5
þ@@ 5
đ@@ 5
đa 5
Ē@@ 5
ĩa 5
ılar 5
ŋ 5
ŕ@@ 5
ŭ 5
ź@@ 5
ǀ 5
ʒ 5
ʕ@@ 5
̄ 5
̯ 5
Α 5
Ο@@ 5
Σ 5
Υ@@ 5
άκ@@ 5
ής 5
ίδ@@ 5
αρχ@@ 5
ατ@@ 5
βασιλ@@ 5
βι@@ 5
γιος 5
γράφ@@ 5
εκ@@ 5
ελ@@ 5
ες 5
θη@@ 5
ιγ@@ 5
ιδ@@ 5
ικός 5
ιλ@@ 5
ιν@@ 5
κος 5
μέ@@ 5
μος 5
οβ@@ 5
ολογία 5
ον@@ 5
ορ@@ 5
οσ@@ 5
ρα 5
ρε@@ 5
τ 5
τα 5
τρο@@ 5
των 5
φάν@@ 5
φύ@@ 5
ψ 5
ώς 5
Александ@@ 5
З@@ 5
Ива@@ 5
Ни@@ 5
По@@ 5
Ру@@ 5
Серге@@ 5
Укра@@ 5
Ф@@ 5
Ха@@ 5
Че@@ 5
Э@@ 5
бе@@ 5
га 5
ев 5
ев@@ 5
з 5
зер@@ 5
кин 5
ков 5
ку@@ 5
море 5
нова 5
ра@@ 5
ры@@ 5
се@@ 5
сия 5
ское 5
со@@ 5
стиче@@ 5
ти@@ 5
у 5
ч 5
я@@ 5
ү@@ 5
Գ@@ 5
Վ@@ 5
ա 5
դ@@ 5
շ@@ 5
պ@@ 5
ջ@@ 5
־ 5
ס 5
ץ 5
أر@@ 5
أس@@ 5
أل@@ 5
از@@ 5
اط@@ 5
الإسلا@@ 5
البي@@ 5
المه@@ 5
امة 5
اني 5
بلا@@ 5
به 5
ث 5
جي@@ 5
حسن 5
دة 5
راء 5
رية 5
سلطان 5
ض 5
عب@@ 5
عبد@@ 5
عن@@ 5
كت@@ 5
كر@@ 5
لا 5
مال 5
مر@@ 5
مس@@ 5
می@@ 5
نا@@ 5
نج@@ 5
ني@@ 5
وال@@ 5
وت 5
ود 5
وق@@ 5
ولاية 5
ولي 5
وم@@ 5
يخ 5
ير@@ 5
٢ 5
گ@@ 5
ܝ 5
ܦ@@ 5
का@@ 5
া 5
് 5
ු@@ 5
น@@ 5
่ 5
ვ@@ 5
ቀ@@ 5
ታ@@ 5
ን 5
ወ@@ 5
ዘ@@ 5
ያ 5
ዳ@@ 5
ገ@@ 5
ẖ@@ 5
ị@@ 5
ịnh 5
ἄ@@ 5
ἔ@@ 5
Ἑ@@ 5
ἡ 5
ἡ@@ 5
Ὀ@@ 5
ὸ@@ 5
ᾶ 5
‑ 5
ⴰ@@ 5
上 5
今@@ 5
代 5
倉 5
八@@ 5
内@@ 5
勇@@ 5
勝@@ 5
南 5
市@@ 5
愛@@ 5
慶@@ 5
新@@ 5
日@@ 5
明@@ 5
智@@ 5
杉@@ 5
東@@ 5
横@@ 5
浦 5
知@@ 5
紀 5
義 5
英@@ 5
辺 5
馬 5
국@@ 5
라 5
부@@ 5
왕 5
원@@ 5
Alman@@ 4
Anh 4
Auch 4
Barcel@@ 4
Bere@@ 4
Bür@@ 4
COVI@@ 4
Ce 4
Compan@@ 4
Công 4
During 4
Este 4
Fahr@@ 4
Famili@@ 4
Fes@@ 4
Histori@@ 4
II. 4
Juli 4
Mit 4
NGC 4
Par 4
Pour 4
Sept@@ 4
Teil 4
Trung 4
Türk@@ 4
Welt@@ 4
adores 4
amér@@ 4
artist@@ 4
ased 4
askazini 4
associ@@ 4
ately 4
avant 4
bau 4
bildung 4
cada 4
carr@@ 4
carri@@ 4
celebr@@ 4
clu@@ 4
color 4
commune 4
compar@@ 4
continu@@ 4
contra 4
conver@@ 4
could 4
cription 4
daki 4
develop@@ 4
did 4
died 4
direction 4
dose 4
dres 4
ecke 4
ectu@@ 4
enden 4
escu@@ 4
expres@@ 4
favor@@ 4
few 4
finale 4
four@@ 4
gew@@ 4
gol 4
gran 4
ieder 4
ihr@@ 4
ihre 4
ildi 4
immer 4
including 4
inner@@ 4
instrum@@ 4
interpret@@ 4
istas 4
logr@@ 4
loss 4
making 4
married 4
materi@@ 4
members 4
minh 4
mis 4
mise 4
mé 4
ngh@@ 4
orden@@ 4
organis@@ 4
partic@@ 4
place 4
polic@@ 4
politi@@ 4
ported 4
previ@@ 4
proces@@ 4
professi@@ 4
provin@@ 4
quan 4
quel 4
rece@@ 4
recher@@ 4
represent@@ 4
rá@@ 4
sans 4
sao 4
serie 4
stand 4
still 4
sı@@ 4
tarihi 4
temper@@ 4
temps 4
third 4
though 4
tores 4
total 4
trä@@ 4
unca 4
unid@@ 4
uyên 4
vard@@ 4
various 4
verl@@ 4
wann 4
without 4
would 4
xu@@ 4
z. 4
zeh@@ 4
zum 4
¢ 4
§ 4
À 4
État 4
Ì@@ 4
Í@@ 4
Ñ@@ 4
ào 4
âte@@ 4
äch@@ 4
äh@@ 4
çi 4
çı 4
ème 4
étu@@ 4
ör 4
öster@@ 4
ück@@ 4
ġ@@ 4
Ī@@ 4
ıs 4
Ľ@@ 4
ő 4
ŭ@@ 4
ų 4
ż 4
ǐ@@ 4
ț@@ 4
ɕ 4
ɫ@@ 4
ʂ@@ 4
ʹ 4
ʽ@@ 4
̃ 4
̈ 4
Δημ@@ 4
Η@@ 4
Κα@@ 4
Κλ@@ 4
Νικ@@ 4
Περ@@ 4
ασ@@ 4
γέν@@ 4
γεν@@ 4
δό@@ 4
εί@@ 4
θρ@@ 4
ική 4
κ 4
κά@@ 4
κύ@@ 4
λί@@ 4
μά@@ 4
μή@@ 4
μι@@ 4
ξι@@ 4
οφ@@ 4
πο@@ 4
πρ@@ 4
ρή@@ 4
ραν@@ 4
ρη@@ 4
ριστ@@ 4
σσ@@ 4
τί@@ 4
τυ@@ 4
υν@@ 4
φαν@@ 4
φιλ@@ 4
χρ@@ 4
ως 4
ώ 4
Ан@@ 4
Би@@ 4
Бо@@ 4
Ви@@ 4
Вол@@ 4
Ж@@ 4
Ме@@ 4
Мо@@ 4
Москов@@ 4
Н@@ 4
Но@@ 4
Ново@@ 4
Пре@@ 4
Ре@@ 4
Росси@@ 4
Свети 4
Су@@ 4
Чер@@ 4
ат@@ 4
би 4
гар@@ 4
ги@@ 4
град 4
да 4
ди@@ 4
зи@@ 4
ке@@ 4
ко@@ 4
лен@@ 4
ний 4
но 4
п@@ 4
по@@ 4
пол@@ 4
рий 4
рин@@ 4
ров 4
ск@@ 4
ски 4
ские 4
ст 4
ст@@ 4
та@@ 4
тин 4
ха 4
чи@@ 4
э 4
қ 4
Կ@@ 4
տ 4
ך 4
أحمد 4
أس 4
أص@@ 4
أه@@ 4
إن@@ 4
اج@@ 4
ارة 4
اش@@ 4
افظ 4
اق@@ 4
الأح@@ 4
الأر@@ 4
الذ@@ 4
الرحمن 4
الفر@@ 4
القي@@ 4
اله@@ 4
الي 4
الي@@ 4
او@@ 4
اي@@ 4
باب 4
بح@@ 4
بني 4
بير 4
تا@@ 4
تب@@ 4
تع@@ 4
جنوب 4
جو@@ 4
حم@@ 4
داد 4
دار 4
دري@@ 4
دی@@ 4
را 4
رسول 4
زبان 4
زة 4
زي 4
زی 4
سب@@ 4
سة 4
سما@@ 4
سين 4
سين@@ 4
صر 4
عائ@@ 4
عمر 4
فار@@ 4
فق@@ 4
قال 4
كي@@ 4
لب 4
لش@@ 4
لي 4
لی 4
مج@@ 4
مل 4
مه@@ 4
مية 4
ند 4
نه 4
نوا@@ 4
نی 4
واح@@ 4
ولی@@ 4
يم@@ 4
يو@@ 4
ِّ@@ 4
ّة 4
پ@@ 4
کم 4
کور@@ 4
ܚ@@ 4
ܟ@@ 4
ܢ 4
गु@@ 4
प 4
ल@@ 4
জ@@ 4
ব@@ 4
ম@@ 4
ল@@ 4
ে@@ 4
ੰ@@ 4
් 4
ง@@ 4
ช@@ 4
ณ 4
ม 4
ม@@ 4
་ 4
ლ@@ 4
რ@@ 4
ს@@ 4
ለ@@ 4
ረ@@ 4
ሳ@@ 4
በ@@ 4
ባ@@ 4
ቤ@@ 4
ች 4
ዎ@@ 4
ዲ@@ 4
ጵ@@ 4
ḇ 4
ḍ 4
ṓ@@ 4
ạng 4
ạt 4
ận 4
ến 4
ọng 4
ủ 4
ὄ@@ 4
≤ 4
々@@ 4
さ@@ 4
の@@ 4
タ@@ 4
マ@@ 4
ャ@@ 4
ル 4
ル@@ 4
上@@ 4
下@@ 4
京@@ 4
伊@@ 4
保@@ 4
分@@ 4
取@@ 4
合@@ 4
和 4
哲@@ 4
営@@ 4
地 4
坂 4
天@@ 4
奈@@ 4
宁 4
宇@@ 4
安 4
宏@@ 4
广@@ 4
悟 4
手@@ 4
拓@@ 4
昭@@ 4
武 4
水 4
沢 4
洋 4
洋@@ 4
熊@@ 4
相@@ 4
章 4
米@@ 4
義@@ 4
茂 4
菊@@ 4
謙@@ 4
遠@@ 4
酒@@ 4
阪@@ 4
阳 4
静@@ 4
香@@ 4
鳥@@ 4
鹿@@ 4
龍@@ 4
개@@ 4
김@@ 4
동@@ 4
산 4
신@@ 4
여 4
자@@ 4
전@@ 4
청@@ 4
￼ 4
Auf 3
Best@@ 3
Bürger@@ 3
Châu 3
Engl@@ 3
Entre 3
Francia 3
Für 3
Grenz@@ 3
Heim@@ 3
Lehr@@ 3
Lond@@ 3
Mitte 3
Mär@@ 3
Mỹ 3
Nguyên 3
Politi@@ 3
Santi@@ 3
Sein 3
Thiên 3
Tây 3
Văn 3
Weit@@ 3
Wirt@@ 3
Zeit 3
Zwe@@ 3
absol@@ 3
aciones 3
adop@@ 3
ailleurs 3
aison 3
align 3
aliste 3
alité 3
allem 3
anderen 3
anno@@ 3
another 3
appro@@ 3
après 3
ativo 3
auch 3
beit 3
beit@@ 3
bien 3
building 3
bán 3
came 3
career 3
charg@@ 3
chef 3
cion@@ 3
ciones 3
concep@@ 3
conn@@ 3
cours 3
created 3
cual 3
có@@ 3
described 3
deutscher 3
deş@@ 3
dici@@ 3
dies@@ 3
different 3
dire@@ 3
distr@@ 3
dows 3
düz@@ 3
dı 3
ecu@@ 3
eden 3
einem 3
embar@@ 3
enton@@ 3
entre 3
erste 3
established 3
estim@@ 3
exist@@ 3
experi@@ 3
expl@@ 3
febr@@ 3
figur@@ 3
foc@@ 3
forma 3
fuer@@ 3
fäl@@ 3
führ@@ 3
grab@@ 3
gru@@ 3
gün 3
habitants 3
harek@@ 3
hier 3
hô@@ 3
icht@@ 3
ilgili 3
ilik 3
ilç@@ 3
incorpor@@ 3
indic@@ 3
individu@@ 3
ingt 3
install@@ 3
isches 3
ités 3
ió 3
iş 3
japon@@ 3
jeun@@ 3
jähr@@ 3
kend@@ 3
kez 3
larg@@ 3
ları 3
lichen 3
lés 3
meye 3
mont@@ 3
municipal@@ 3
near 3
nh 3
occas@@ 3
oder 3
often 3
origin@@ 3
oğ@@ 3
particip@@ 3
performan@@ 3
popul@@ 3
prepar@@ 3
princip@@ 3
quốc 3
rar 3
restaur@@ 3
riere 3
rés@@ 3
schaft 3
schen 3
schi@@ 3
schrift 3
season 3
seinen 3
sent 3
separ@@ 3
seur 3
soft 3
support 3
these 3
tige 3
tions@@ 3
tế 3
ucu 3
unas 3
unos 3
uvo 3
veau 3
verk@@ 3
vier@@ 3
vom 3
và 3
weit@@ 3
written 3
yük 3
zul@@ 3
zwe@@ 3
¼ 3
É 3
Ê@@ 3
Ö 3
Ü 3
ái 3
ánh 3
áp 3
ã 3
ãi 3
äf@@ 3
ähr@@ 3
çek@@ 3
ète 3
études 3
ême 3
êu 3
ói 3
öff@@ 3
ög@@ 3
önem@@ 3
ús@@ 3
ühr@@ 3
ük@@ 3
ül 3
ăng 3
ą 3
Đi@@ 3
ĕ@@ 3
ğu 3
Ħ@@ 3
ĭ@@ 3
İs@@ 3
ıs@@ 3
ň 3
œuvre 3
Şark@@ 3
Ż@@ 3
ưng 3
ương 3
ǃ@@ 3
ǧ@@ 3
ɦ@@ 3
ɯ@@ 3
ʷ@@ 3
ˀ@@ 3
ˌ 3
ˤ 3
˧ 3
̀ 3
̞ 3
΄ 3
Ό@@ 3
Β 3
Δι@@ 3
Ιω@@ 3
Π 3
Παν@@ 3
Συ@@ 3
άλασ@@ 3
άπ@@ 3
έγ@@ 3
ήμ@@ 3
ίλι@@ 3
ίν@@ 3
ίνα 3
ίσ@@ 3
αλλ@@ 3
ανδ@@ 3
βί@@ 3
βιβλ@@ 3
γεω@@ 3
δί@@ 3
δια@@ 3
δο@@ 3
εδ@@ 3
ειδ@@ 3
εσ@@ 3
ετ@@ 3
ηδ@@ 3
θε@@ 3
ιο 3
καλ@@ 3
κρά@@ 3
λά@@ 3
νομ@@ 3
ντ@@ 3
οπ@@ 3
οπο@@ 3
οτ@@ 3
πά@@ 3
πα@@ 3
ποι@@ 3
πολη 3
πους 3
ρυ@@ 3
ρω@@ 3
ρό@@ 3
σία 3
σμα 3
σμός 3
στο@@ 3
σχ@@ 3
σω@@ 3
σύ@@ 3
τά@@ 3
τέ@@ 3
ταυ@@ 3
τερ@@ 3
τη 3
τός 3
υλ@@ 3
φέρ@@ 3
χαρ@@ 3
χος 3
όν 3
όπο@@ 3
όφ@@ 3
ύρ@@ 3
ώπ@@ 3
Ал@@ 3
Ар@@ 3
В@@ 3
Вели@@ 3
Ду@@ 3
Иван 3
Крас@@ 3
Ку@@ 3
Кур@@ 3
Л@@ 3
Моск@@ 3
Не@@ 3
Нико@@ 3
Ти@@ 3
Фе@@ 3
Федера@@ 3
Ц@@ 3
Ш@@ 3
авто@@ 3
ар@@ 3
бург 3
ва@@ 3
вета 3
вя@@ 3
ган@@ 3
ге 3
ге@@ 3
город 3
гу@@ 3
дар@@ 3
за 3
им@@ 3
ки@@ 3
ле@@ 3
ли 3
лиза@@ 3
ло 3
лу@@ 3
ль 3
ме@@ 3
мы@@ 3
нин 3
ня 3
он@@ 3
ор@@ 3
полу@@ 3
ран@@ 3
ре 3
рен@@ 3
ры 3
са@@ 3
сан@@ 3
ско@@ 3
слав@@ 3
ста@@ 3
сти@@ 3
сто@@ 3
сы@@ 3
та 3
ты 3
ур@@ 3
ф@@ 3
фа@@ 3
х 3
х@@ 3
хо@@ 3
це@@ 3
ции 3
ч@@ 3
ш 3
ъ 3
ю@@ 3
і 3
ғ@@ 3
ұ@@ 3
ӣ 3
Բ@@ 3
զ@@ 3
ծ@@ 3
հ@@ 3
ռ@@ 3
ց 3
ְ 3
ֹ 3
ׂ@@ 3
ז 3
ך@@ 3
ائ@@ 3
ابو 3
اة 3
اح@@ 3
ادة 3
اسم 3
اص@@ 3
اع@@ 3
اف@@ 3
الأص@@ 3
الأك@@ 3
الأول 3
الجزائر 3
الجنوب@@ 3
الدین 3
السلام 3
الط@@ 3
العربية 3
المج@@ 3
المملكة 3
المن@@ 3
اِ@@ 3
بري@@ 3
بش@@ 3
بط@@ 3
بلو@@ 3
به@@ 3
بو@@ 3
بور@@ 3
ةً 3
تح@@ 3
جز@@ 3
خ 3
خل@@ 3
داء 3
دان 3
دن 3
دية 3
ربي 3
ربية 3
رق@@ 3
رم 3
ری@@ 3
سا 3
ستان 3
سر@@ 3
سلام 3
شا@@ 3
شر@@ 3
شي@@ 3
شی@@ 3
ض@@ 3
طان 3
عد@@ 3
عط@@ 3
على 3
عي 3
ـ@@ 3
فو@@ 3
في 3
في@@ 3
فی 3
قر@@ 3
قل@@ 3
كر 3
لاد 3
لال 3
لف 3
لو 3
مار 3
مت 3
مد@@ 3
مس 3
نط@@ 3
نق@@ 3
نية 3
هار@@ 3
وار@@ 3
وت@@ 3
وج@@ 3
وس 3
وسف 3
وف 3
وف@@ 3
وی@@ 3
يل@@ 3
ينة 3
يني 3
يون 3
يون@@ 3
٠ 3
١ 3
٣ 3
٤ 3
٥ 3
٧ 3
٩ 3
کی 3
کی@@ 3
گ 3
یر 3
ܛ@@ 3
ܫ@@ 3
त 3
म@@ 3
मु@@ 3
य 3
ली 3
ु 3
ং@@ 3
ন@@ 3
র 3
র@@ 3
স@@ 3
ু@@ 3
ਜ@@ 3
ਬ 3
ਰ@@ 3
ਸ@@ 3
ਾ@@ 3
ੀ 3
ા@@ 3
் 3
ව@@ 3
ා@@ 3
จ@@ 3
ท@@ 3
น 3
ส@@ 3
า@@ 3
แ@@ 3
็ 3
้ 3
ລ@@ 3
ຸ@@ 3
ა 3
ე@@ 3
თ@@ 3
უ@@ 3
ለ 3
ል@@ 3
ሐ@@ 3
ሙ@@ 3
ረ 3
ራ@@ 3
ሬ@@ 3
ሰ@@ 3
ቆ@@ 3
ቡ@@ 3
ባ 3
ብ 3
ቦ@@ 3
ቱ 3
ቴ@@ 3
ና 3
ና@@ 3
ኤ@@ 3
ዊ 3
ዋ@@ 3
ዝ@@ 3
ይ 3
ዱ@@ 3
ጣ@@ 3
ጾ@@ 3
ḍ@@ 3
ṅ@@ 3
ṗ@@ 3
ṛ@@ 3
Ṭ@@ 3
ṭ 3
ṯ 3
ẓ 3
ẓ@@ 3
ạn 3
ấn 3
ằng 3
ẹ 3
ện 3
ị 3
ừa 3
ἶ@@ 3
Ὑ@@ 3
Ὕ@@ 3
ὴ 3
‚ 3
‡ 3
ⴷ@@ 3
す@@ 3
ま@@ 3
み 3
り@@ 3
ア@@ 3
イ@@ 3
キ@@ 3
グ@@ 3
シ@@ 3
ジ@@ 3
ッ@@ 3
ナ@@ 3
ニ@@ 3
フ 3
ュ@@ 3
リ@@ 3
レ@@ 3
ワ@@ 3
ヶ@@ 3
下 3
世 3
主@@ 3
之@@ 3
亮@@ 3
仲@@ 3
会@@ 3
伸@@ 3
佑@@ 3
信 3
倉@@ 3
健 3
充 3
克@@ 3
児@@ 3
全@@ 3
勝 3
博 3
口@@ 3
台@@ 3
名 3
哉 3
土@@ 3
坂@@ 3
城 3
堀@@ 3
塚 3
好@@ 3
子@@ 3
孔@@ 3
孝 3
家@@ 3
寛 3
寿@@ 3
尔@@ 3
岐@@ 3
廣@@ 3
形@@ 3
慎@@ 3
成 3
成@@ 3
指@@ 3
文@@ 3
斉@@ 3
新 3
春 3
昭 3
晃 3
月 3
有@@ 3
望@@ 3
朝@@ 3
松 3
柳@@ 3
桑@@ 3
森 3
次 3
歌@@ 3
池@@ 3
沢@@ 3
治@@ 3
波 3
浅@@ 3
浜@@ 3
浦@@ 3
浩 3
淳@@ 3
源@@ 3
潟@@ 3
潤@@ 3
牟 3
特@@ 3
玉@@ 3
理@@ 3
甘@@ 3
祐@@ 3
神 3
竹@@ 3
笠@@ 3
篤@@ 3
聖@@ 3
聡 3
肥 3
航@@ 3
良 3
色@@ 3
若@@ 3
葉@@ 3
語 3
豊@@ 3
贵@@ 3
道@@ 3
達@@ 3
邦@@ 3
都 3
鎌@@ 3
长@@ 3
関@@ 3
阜@@ 3
陽@@ 3
雄@@ 3
韓@@ 3
須@@ 3
가@@ 3
강@@ 3
경@@ 3
광@@ 3
동 3
방@@ 3
북@@ 3
상@@ 3
성 3
소@@ 3
여@@ 3
원 3
주 3
창@@ 3
천 3
치@@ 3
 3
 3
ﻟ@@ 3
𐤔 3
14. 2
16. 2
17. 2
19. 2
Anf@@ 2
Auf@@ 2
Cumhuriy@@ 2
Cumhuriyeti 2
Cộng 2
Dez@@ 2
Doğu 2
Eine 2
Einwohner 2
Gemein@@ 2
Güney 2
Hàn 2
Khi 2
Kỳ 2
Mittel@@ 2
Nội 2
Platz 2
Por 2
Sie 2
Staats@@ 2
Stadt@@ 2
Straße 2
Thành 2
Trần 2
Tân 2
Türkiye 2
Verw@@ 2
Woh@@ 2
Zu 2
Zusammen@@ 2
acces@@ 2
actu@@ 2
adı 2
alre@@ 2
ammen 2
ancak 2
año 2
aşı 2
besch@@ 2
buil@@ 2
bulun@@ 2
bö@@ 2
büt@@ 2
ciudad 2
clas@@ 2
clus@@ 2
comb@@ 2
commen@@ 2
complet@@ 2
const@@ 2
course 2
dass 2
declar@@ 2
ded@@ 2
dedic@@ 2
destr@@ 2
deutsch@@ 2
deutsche 2
difer@@ 2
dirig@@ 2
donn@@ 2
durch 2
déc@@ 2
ehen 2
eint 2
ellas 2
emas 2
encias 2
endant 2
endet 2
entras 2
entre@@ 2
ersten 2
establ@@ 2
estas 2
event 2
eyal@@ 2
eño 2
fica 2
fici@@ 2
fils 2
five 2
forces 2
forme 2
franç@@ 2
fé@@ 2
fér@@ 2
gab 2
ghi 2
grande 2
grup@@ 2
gé@@ 2
génér@@ 2
histoire 2
however 2
hệ 2
icas 2
ient 2
ieron 2
igt 2
imiento 2
included 2
inform@@ 2
inspir@@ 2
inten@@ 2
investig@@ 2
isant 2
isen 2
istre 2
kehr@@ 2
keit 2
kte 2
ký 2
kı@@ 2
large 2
leich@@ 2
lere 2
lesia 2
licher 2
lider@@ 2
lui 2
là 2
lü 2
lü@@ 2
march@@ 2
maç@@ 2
meil@@ 2
minut@@ 2
much 2
munici@@ 2
nde 2
neh@@ 2
next 2
nicht 2
nouvelle 2
nun 2
nur 2
obra 2
oren 2
orta@@ 2
otro 2
ouest 2
partam@@ 2
pendant 2
permet@@ 2
pointed 2
premi@@ 2
premier 2
première 2
principal 2
probl@@ 2
propor@@ 2
provincia 2
quier 2
rail@@ 2
reco@@ 2
record@@ 2
reduc@@ 2
reich@@ 2
relig@@ 2
resid@@ 2
resul@@ 2
retir@@ 2
returned 2
riff 2
roi 2
rue 2
régi@@ 2
schaft@@ 2
schafts@@ 2
schw@@ 2
seine 2
seph 2
signific@@ 2
soll 2
sát 2
tainment 2
tesi 2
thuộc 2
ticos 2
tober 2
todo 2
transfer@@ 2
trực 2
tü 2
tı 2
tır@@ 2
unden 2
vement 2
verdi 2
vient 2
vì 2
wirt@@ 2
within 2
ydi 2
yü@@ 2
zaman@@ 2
zentr@@ 2
zäh@@ 2
¨ 2
¾ 2
Ét@@ 2
Üniversitesi 2
Þ@@ 2
ám 2
âce 2
änge 2
èmes 2
église 2
él 2
érieur 2
éta@@ 2
étr@@ 2
être 2
ình 2
òng 2
óg@@ 2
öğ@@ 2
ública 2
ún@@ 2
útbol 2
üf@@ 2
ünden 2
ütz@@ 2
üç@@ 2
üçük 2
üş 2
ÿ 2
Ă@@ 2
ĉ 2
ď 2
Ĕ@@ 2
ĝ 2
Ġ@@ 2
ħ 2
İk@@ 2
İm@@ 2
ıc@@ 2
ılı 2
ından 2
ĵ 2
ř 2
Ś 2
ŝ 2
şu 2
ů 2
ů@@ 2
ước 2
ượng 2
ǀ@@ 2
ǔ 2
ǫ@@ 2
Ș@@ 2
ș 2
ɒ@@ 2
ɔ 2
ɕ@@ 2
ɜ@@ 2
ɫ 2
ʂ 2
ʌ 2
ʤ@@ 2
ʰ@@ 2
ˀ 2
ˁ@@ 2
̩ 2
̱ 2
Ή@@ 2
Ί@@ 2
Ύ@@ 2
ΐ@@ 2
Αγ@@ 2
Αν@@ 2
Απο@@ 2
Βι@@ 2
Δ 2
Θεσσαλον@@ 2
Ιερ@@ 2
Ισ@@ 2
Μ 2
Με@@ 2
Μεγάλ@@ 2
Ν 2
Ξ 2
Ο 2
Παρ@@ 2
Τ 2
Χ 2
Ψ 2
Ω 2
άγ@@ 2
άδ@@ 2
άλ@@ 2
άμ@@ 2
άφ@@ 2
έας 2
έρ@@ 2
έργ@@ 2
ήγ@@ 2
ίγ@@ 2
ίδα 2
ίκ@@ 2
ίκη 2
ίου 2
αί@@ 2
αβ@@ 2
αφ@@ 2
βά@@ 2
βολ@@ 2
για 2
γκ@@ 2
γλ@@ 2
γραφ@@ 2
δε@@ 2
δελφ@@ 2
δημ@@ 2
δοκ@@ 2
δρο@@ 2
δυ@@ 2
είδ@@ 2
είς 2
εβ@@ 2
ειν@@ 2
εις 2
εισ@@ 2
εν 2
εφ@@ 2
ζω@@ 2
ηλ@@ 2
ηματ@@ 2
ηφ@@ 2
θέ@@ 2
θεν@@ 2
θμ@@ 2
ιμ@@ 2
καθ@@ 2
καρι@@ 2
κερ@@ 2
κη 2
κτ@@ 2
λεύ@@ 2
λη@@ 2
λιο 2
λις 2
λος 2
λύ@@ 2
μένη 2
μέρα 2
μβ@@ 2
μετα@@ 2
μη 2
μικρ@@ 2
νε@@ 2
νες 2
νης 2
νησι@@ 2
οί 2
οδος 2
οι@@ 2
ους 2
οχ@@ 2
ούν@@ 2
παράδ@@ 2
πατ@@ 2
ποδ@@ 2
πολλ@@ 2
πορ@@ 2
πυ@@ 2
ρία 2
ργ@@ 2
ρη 2
ρκ@@ 2
στολ@@ 2
σύν@@ 2
ταν@@ 2
τικ@@ 2
τον 2
τρα 2
υσ@@ 2
φ 2
φορά 2
φυσ@@ 2
φω@@ 2
χολ@@ 2
ωνία 2
ϊ@@ 2
όδ@@ 2
όλ@@ 2
όλων 2
όπ@@ 2
όρι@@ 2
όρος 2
ύλ@@ 2
ώδ@@ 2
ϛ 2
ϝ 2
Андре@@ 2
Бал@@ 2
Бел@@ 2
Бело@@ 2
Ва@@ 2
Вла@@ 2
Га@@ 2
Гор@@ 2
Де@@ 2
Ин@@ 2
Кали@@ 2
Кара@@ 2
Карл 2
Ке@@ 2
Констан@@ 2
Кри@@ 2
Ла@@ 2
Мак@@ 2
Михаил 2
Николай 2
Ор@@ 2
Пе@@ 2
Пер@@ 2
Пет@@ 2
Пи@@ 2
Пу@@ 2
России 2
СР 2
Се@@ 2
Сер@@ 2
Си@@ 2
Сою@@ 2
Ста@@ 2
Сте@@ 2
Те@@ 2
Ту@@ 2
Ша@@ 2
Ши@@ 2
Ю@@ 2
ал@@ 2
армия 2
ата@@ 2
бъ@@ 2
вая 2
вер@@ 2
вина 2
го 2
гор@@ 2
джи@@ 2
ди 2
дия 2
дро@@ 2
дру@@ 2
е@@ 2
ек@@ 2
ем@@ 2
ене@@ 2
ера 2
ет@@ 2
зан@@ 2
зиден@@ 2
ин@@ 2
ит@@ 2
ита 2
йн 2
йской 2
кар 2
км 2
ков@@ 2
кова 2
кор@@ 2
кос@@ 2
лий 2
лин 2
лы 2
ля 2
ля@@ 2
ма 2
мал@@ 2
ман@@ 2
мар@@ 2
международ@@ 2
ми 2
ми@@ 2
мит@@ 2
миче@@ 2
мия 2
му@@ 2
мя@@ 2
ник 2
ников 2
нин@@ 2
ново 2
ной 2
ня@@ 2
обла@@ 2
окру@@ 2
ора 2
ос@@ 2
остро@@ 2
осу@@ 2
п 2
пер@@ 2
пора@@ 2
публи@@ 2
ра 2
рон@@ 2
са 2
се 2
смо@@ 2
сов 2
сп@@ 2
ста 2
сто 2
сть 2
сы 2
те 2
те@@ 2
ти 2
тия 2
ты@@ 2
укра@@ 2
ф 2
фа 2
фе@@ 2
хан@@ 2
хар@@ 2
хи@@ 2
ц 2
ца 2
ция 2
ча@@ 2
че@@ 2
чер@@ 2
чна 2
шин@@ 2
щ@@ 2
ы 2
ян 2
ян@@ 2
яр@@ 2
ёт@@ 2
њ@@ 2
ҷ@@ 2
һ@@ 2
ө@@ 2
Դ@@ 2
Է@@ 2
Ի@@ 2
Լ@@ 2
Ղ@@ 2
Ն@@ 2
Փ@@ 2
բ 2
դ 2
յ 2
շ 2
ք@@ 2
և@@ 2
֫ 2
ָ 2
ֽ@@ 2
ג 2
נ 2
״ 2
؛ 2
آباد 2
آزاد 2
آيت 2
أف@@ 2
أك@@ 2
أكبر 2
أكتوبر 2
ؤ@@ 2
إلا 2
ئر 2
ابات 2
احمد 2
ادات 2
اری 2
از 2
ازی 2
اص 2
اف 2
اك@@ 2
الأس@@ 2
الأول@@ 2
البر@@ 2
الة 2
التح@@ 2
التع@@ 2
الرا@@ 2
الري@@ 2
السع@@ 2
السي@@ 2
القر@@ 2
المؤ@@ 2
المدينة 2
المر@@ 2
المسي@@ 2
المص@@ 2
المغ@@ 2
الملك 2
النا@@ 2
امل 2
انية 2
انی 2
ای@@ 2
ایران 2
با 2
باد 2
بار 2
بت@@ 2
بد@@ 2
بل 2
بيل 2
تاریخ 2
تر@@ 2
تق@@ 2
تم@@ 2
ته 2
ته@@ 2
تون@@ 2
تی@@ 2
جام@@ 2
جد 2
جر 2
جمي@@ 2
جن@@ 2
جی@@ 2
حد@@ 2
حر@@ 2
حس@@ 2
حق 2
خال@@ 2
خلی@@ 2
درجة 2
دری@@ 2
دولة 2
دون 2
دى 2
ديد 2
دين 2
دُ@@ 2
راب 2
رام 2
ران 2
رف 2
رير 2
رين 2
ری 2
ریا 2
زب@@ 2
زر@@ 2
زی@@ 2
سر 2
سم@@ 2
سن 2
سن@@ 2
سنة 2
سور@@ 2
سی@@ 2
شت 2
شع@@ 2
شعب@@ 2
شه@@ 2
صح@@ 2
صن@@ 2
ضاء 2
طة 2
طف@@ 2
طور 2
طي@@ 2
ظهر 2
عت 2
عث@@ 2
عد 2
عشر 2
عمر@@ 2
غة 2
فائ@@ 2
فارسی 2
فض@@ 2
فلسط@@ 2
فن@@ 2
قا 2
قائ@@ 2
قائد 2
قب@@ 2
قص@@ 2
قط@@ 2
كان 2
كتاب 2
كري@@ 2
كل@@ 2
لاح 2
لام 2
لف@@ 2
له 2
لی@@ 2
ما 2
ماء 2
مال@@ 2
مانية 2
مانی 2
محافظ@@ 2
محمود 2
مدر@@ 2
مدينة 2
مرا@@ 2
مز 2
مش@@ 2
مص@@ 2
مض@@ 2
مق@@ 2
ملكة 2
منظ@@ 2
مهورية 2
مون 2
نام@@ 2
ندر 2
نو@@ 2
نين 2
نگ 2
نی@@ 2
ها 2
هد 2
هـ 2
هم 2
هو 2
هي@@ 2
واقع 2
ود@@ 2
ورة 2
ورية 2
ولد 2
ولي@@ 2
وى 2
وية 2
يف@@ 2
يه@@ 2
ٌ 2
ٍ 2
َّة 2
٢@@ 2
٦ 2
ٻ@@ 2
پن@@ 2
پی@@ 2
چ 2
ک 2
کر@@ 2
کری@@ 2
کو@@ 2
ین 2
ܒ@@ 2
ܗ@@ 2
ܘ 2
ܠ 2
ܣ 2
ܨ@@ 2
ܪ 2
ܶ@@ 2
ܺ@@ 2
क 2
ग@@ 2
ठ@@ 2
ड@@ 2
धर 2
न 2
ना 2
ब 2
म 2
मा@@ 2
य@@ 2
राज 2
राज@@ 2
ला 2
वंश 2
स@@ 2
हिन 2
আ@@ 2
খ 2
ম 2
শ@@ 2
হ@@ 2
় 2
ি@@ 2
্ 2
ਪ@@ 2
ਿ@@ 2
੍ 2
ં@@ 2
ક@@ 2
ગ@@ 2
મ@@ 2
ર@@ 2
ી 2
ப@@ 2
வ@@ 2
ಿ 2
ര 2
ല@@ 2
സ@@ 2
ി 2
ി@@ 2
ൊ@@ 2
ත@@ 2
ම@@ 2
ර@@ 2
ස 2
ා 2
ේ 2
ก 2
กร@@ 2
ค 2
ง 2
จ 2
ช 2
ชิ@@ 2
ต 2
ตร 2
ท 2
ธ 2
พ@@ 2
พระ@@ 2
ย@@ 2
ยาม 2
ร 2
ร@@ 2
ล 2
ว@@ 2
วั@@ 2
ษ 2
ะ@@ 2
ิ 2
ิ@@ 2
ิน@@ 2
ี@@ 2
เอ 2
ไทย 2
ດ 2
ສ@@ 2
ິ@@ 2
མ 2
င 2
် 2
კ@@ 2
ო 2
ო@@ 2
ტ@@ 2
ქ@@ 2
ღ@@ 2
შ@@ 2
ჯ@@ 2
ህ@@ 2
ሊ@@ 2
ላ 2
ላ@@ 2
ሎ@@ 2
ሓ@@ 2
ሔ@@ 2
ሕ 2
ሚ@@ 2
ሥ@@ 2
ሪ 2
ሮ@@ 2
ሱ@@ 2
ሲ@@ 2
ሳ 2
ሽ 2
ቅ@@ 2
ቶ@@ 2
ኃ@@ 2
ኖ@@ 2
ኣ@@ 2
ከ@@ 2
ኮ@@ 2
ው 2
ው@@ 2
ዓ@@ 2
ዕ@@ 2
ዝ 2
ድ 2
ዶ@@ 2
ጀ@@ 2
ጅ 2
ጉ@@ 2
ጎ@@ 2
ጠ@@ 2
ጥ@@ 2
ᐃ@@ 2
ᑦ 2
ᓗ@@ 2
ន 2
ន@@ 2
ស@@ 2
ុ@@ 2
ḳ@@ 2
ḵ 2
Ẓ@@ 2
ảm 2
ất 2
ậu 2
ền 2
ỉ 2
ἕ@@ 2
ἠ@@ 2
Ἥ@@ 2
ἴ@@ 2
Ἱ@@ 2
ὀ@@ 2
ὁ@@ 2
Ὅ@@ 2
Ὠ@@ 2
ὰ 2
ὺ@@ 2
ὼ@@ 2
ῑ@@ 2
Ῥ@@ 2
ῳ@@ 2
ῴ@@ 2
‐ 2
‬ 2
⁰ 2
₦ 2
₹ 2
≈ 2
ⴱ@@ 2
ⴻ@@ 2
ⵔ 2
ⵢ@@ 2
ⵣ@@ 2
う@@ 2
え 2
き 2
そ@@ 2
た@@ 2
の 2
ふ@@ 2
や@@ 2
り 2
ィ@@ 2
エ@@ 2
オ@@ 2
コ@@ 2
ゴ 2
サ@@ 2
ジ 2
ス 2
ス@@ 2
ダ@@ 2
デ@@ 2
ト@@ 2
ド@@ 2
ナ 2
ハ@@ 2
パ@@ 2
ビ 2
フ@@ 2
プ@@ 2
メ@@ 2
モ@@ 2
ョ@@ 2
・ 2
业 2
东 2
並 2
丸 2
丸@@ 2
习@@ 2
云@@ 2
亨@@ 2
京 2
亮 2
仙@@ 2
伯 2
伯@@ 2
佑 2
佳@@ 2
修@@ 2
偉 2
元@@ 2
光 2
児 2
兰@@ 2
兵@@ 2
典 2
列@@ 2
利@@ 2
勉 2
化 2
北 2
卯@@ 2
又 2
取 2
右@@ 2
司@@ 2
吉 2
向@@ 2
味@@ 2
命 2
哈@@ 2
唐@@ 2
啓@@ 2
嗣 2
嘉@@ 2
國@@ 2
園@@ 2
在 2
圭@@ 2
坪@@ 2
城@@ 2
基@@ 2
堂 2
塩@@ 2
増@@ 2
士 2
壮@@ 2
売@@ 2
夢@@ 2
夫@@ 2
姣 2
孫@@ 2
実 2
宮 2
対@@ 2
尙@@ 2
尹@@ 2
尾@@ 2
屋 2
屋@@ 2
岸@@ 2
峡 2
嶋 2
巳 2
希 2
幌@@ 2
幕 2
幻 2
広 2
広@@ 2
庄 2
府 2
府@@ 2
康 2
建 2
式@@ 2
弘@@ 2
弥 2
彰@@ 2
征@@ 2
忠 2
思@@ 2
恒@@ 2
恵 2
悠@@ 2
想 2
感@@ 2
憲@@ 2
我@@ 2
戸 2
政@@ 2
敬 2
敬@@ 2
文 2
斗 2
早@@ 2
昌 2
春@@ 2
時@@ 2
晃@@ 2
智 2
服@@ 2
札@@ 2
朱@@ 2
李 2
村@@ 2
東 2
板@@ 2
柏@@ 2
柔@@ 2
柱@@ 2
栃@@ 2
栄 2
栄@@ 2
株@@ 2
梅@@ 2
槙@@ 2
正 2
毅 2
氏@@ 2
汉 2
汉@@ 2
汕@@ 2
池 2
沖@@ 2
沙 2
沼 2
泰 2
津 2
浩@@ 2
深@@ 2
淵 2
湖@@ 2
源 2
滨 2
漢@@ 2
澤@@ 2
濟@@ 2
瀬 2
瀬@@ 2
爱 2
獨@@ 2
王 2
瑟 2
璠 2
甲@@ 2
男@@ 2
町 2
百@@ 2
盛@@ 2
真 2
矢@@ 2
碁 2
碩 2
磨 2
社 2
社@@ 2
科 2
立 2
竜@@ 2
算 2
篠@@ 2
篤 2
純 2
素@@ 2
細@@ 2
維@@ 2
羅@@ 2
美@@ 2
翁 2
習@@ 2
老@@ 2
聖 2
船@@ 2
色 2
芳@@ 2
苦@@ 2
菅 2
菅@@ 2
菱@@ 2
葉 2
蒙 2
蘇@@ 2
街@@ 2
裕 2
覇@@ 2
訓 2
誠 2
誠@@ 2
豊 2
貝 2
貴 2
越@@ 2
足@@ 2
路 2
迫 2
通@@ 2
達 2
郑@@ 2
門 2
阳@@ 2
阿@@ 2
陽 2
雪@@ 2
順@@ 2
風@@ 2
馬@@ 2
高 2
黄@@ 2
黒@@ 2
공@@ 2
구@@ 2
군 2
나 2
나@@ 2
당@@ 2
도@@ 2
독@@ 2
라@@ 2
루 2
림 2
립@@ 2
말 2
명@@ 2
모 2
모@@ 2
문 2
문@@ 2
박 2
보@@ 2
본@@ 2
비@@ 2
사 2
사@@ 2
산@@ 2
서@@ 2
선@@ 2
성@@ 2
송@@ 2
수@@ 2
에@@ 2
영@@ 2
왕@@ 2
울@@ 2
윤@@ 2
의 2
의@@ 2
인@@ 2
자 2
장@@ 2
점 2
제@@ 2
조@@ 2
졸@@ 2
진 2
천@@ 2
추@@ 2
충@@ 2
특@@ 2
한 2
할@@ 2
회 2
ﺍ@@ 2
ﺐ 2
ﺮ@@ 2
ﺳ@@ 2
ﻠ@@ 2
ﻤ@@ 2
ﻥ 2
ﻴ@@ 2
（ 2
： 2
13. 1
15. 1
Après 1
Aralık 1
Avru@@ 1
Ayn@@ 1
Biografía 1
Biographie 1
Büyük 1
Daha 1
Deutschen 1
Dezember 1
Durante 1
Dân 1
Eins@@ 1
Ekim 1
Ende 1
Entw@@ 1
Estados 1
Fransa 1
Fue 1
Fuß@@ 1
Grund@@ 1
Hội 1
Jahrhunder@@ 1
Kilometer 1
Kuzey 1
Leben 1
Lebens@@ 1
Liste 1
Liên 1
Lý 1
Müz@@ 1
Một 1
Nach 1
Ort 1
Parlam@@ 1
Quốc 1
Saison 1
Stadt 1
Trường 1
Tür@@ 1
Une 1
Verein 1
Verein@@ 1
acak 1
acto 1
actual 1
agric@@ 1
aları 1
allem@@ 1
altung 1
altı 1
alın@@ 1
amente 1
amerikan@@ 1
amiento 1
ancia 1
anderem 1
anlığı 1
announced 1
annt 1
anı 1
appar@@ 1
arse 1
asyon@@ 1
autor@@ 1
ayı 1
aît 1
años 1
befin@@ 1
bilg@@ 1
bâ@@ 1
bü@@ 1
bır@@ 1
canción 1
cargo 1
caso 1
celle 1
chter 1
chung 1
cier@@ 1
colon@@ 1
colspan 1
command@@ 1
compet@@ 1
condu@@ 1
conoc@@ 1
conse@@ 1
consider@@ 1
consist@@ 1
constr@@ 1
contre 1
coup 1
cuatro 1
culo 1
cô@@ 1
dado 1
daha 1
dağ@@ 1
dedor 1
depor@@ 1
deren 1
desc@@ 1
descri@@ 1
determin@@ 1
deutschen 1
dont 1
durant 1
développ@@ 1
dù 1
dü 1
dül@@ 1
dış@@ 1
ecto 1
edil@@ 1
edrich 1
egos 1
eht 1
einen 1
elected 1
embre 1
emper@@ 1
empres@@ 1
endre 1
enero 1
ensemble 1
entro 1
equi@@ 1
erne@@ 1
eser@@ 1
español 1
espec@@ 1
especi@@ 1
estado 1
estruc@@ 1
europé@@ 1
explo@@ 1
exten@@ 1
fahr@@ 1
faire 1
fall@@ 1
fand 1
fass@@ 1
firm@@ 1
fois 1
forc@@ 1
franc@@ 1
gebaut 1
gebiet 1
geführt 1
genommen 1
geç@@ 1
giao 1
gibi 1
große 1
grub@@ 1
grund 1
guerre 1
gén@@ 1
göre 1
herr@@ 1
hàng 1
icklung 1
idir 1
ieren 1
ilen 1
iler@@ 1
ileri 1
import@@ 1
inclus@@ 1
individ@@ 1
intro@@ 1
invol@@ 1
ismus 1
iß@@ 1
joined 1
kadar 1
karşı 1
không 1
kirche 1
konn@@ 1
kreis 1
kurul@@ 1
lado 1
lage 1
lanz@@ 1
ların 1
larına 1
leit@@ 1
lerin 1
lerine 1
leurs 1
leş@@ 1
libre 1
ligne 1
liste 1
lors 1
lık@@ 1
marqu@@ 1
marri@@ 1
menos 1
mente 1
mesi 1
mev@@ 1
milit@@ 1
military 1
moins 1
monum@@ 1
mort 1
muş 1
mà 1
más 1
neue 1
nord 1
nung 1
número 1
ocup@@ 1
ofici@@ 1
oldu@@ 1
ología 1
ommen 1
opened 1
oppos@@ 1
origine 1
oría 1
osos 1
otball 1
otras 1
ouvern@@ 1
oyun@@ 1
partido 1
película 1
pequ@@ 1
perman@@ 1
personn@@ 1
peu 1
phong 1
placed 1
politique 1
population 1
pour@@ 1
prac@@ 1
preu@@ 1
primera 1
programa 1
proxim@@ 1
präs@@ 1
prés@@ 1
présente 1
puesto 1
puis 1
punkt 1
quatre 1
quay 1
quelle 1
quement 1
rağ@@ 1
registr@@ 1
releas@@ 1
remain@@ 1
rement 1
result@@ 1
sahip@@ 1
saison 1
sanat@@ 1
schaf@@ 1
scheid@@ 1
schluss 1
secu@@ 1
segundo 1
similar 1
siz 1
sobre 1
sont 1
sort 1
spor 1
standen 1
statt 1
stieg 1
ständi@@ 1
succ@@ 1
sud 1
tasar@@ 1
terior 1
thay 1
theo 1
those 1
ticas 1
tiene 1
tionen 1
tiếng 1
took 1
toute 1
trat 1
trois 1
trouve 1
trung 1
tä@@ 1
tür 1
tür@@ 1
tỉnh 1
ubic@@ 1
ustos 1
util@@ 1
utiliz@@ 1
verw@@ 1
veya 1
weit 1
weiten 1
worked 1
xième 1
yüz@@ 1
zas 1
zeit 1
¡ 1
¬ 1
µ 1
¹ 1
À@@ 1
Â 1
Ç 1
È 1
È@@ 1
États 1
Ê 1
Ó 1
Ödül@@ 1
Ù@@ 1
àm 1
ác 1
ách 1
át 1
ät 1
äuf@@ 1
çok 1
çu 1
çı@@ 1
çık@@ 1
écn@@ 1
élec@@ 1
évol@@ 1
éx@@ 1
êm 1
ìm 1
ís@@ 1
óng 1
ôle 1
öch@@ 1
÷ 1
ùa 1
ùng 1
úl@@ 1
über@@ 1
ücke 1
üler 1
üne 1
üng@@ 1
ünst@@ 1
üre@@ 1
üz 1
Ą 1
Ć 1
Č 1
Đông 1
Đại 1
Đảng 1
Độ 1
Ę 1
ę 1
Ě@@ 1
ě 1
Ğ 1
Ğ@@ 1
ği 1
ġ 1
ĥ 1
Ħ 1
Ī 1
į 1
İ 1
İsp@@ 1
ıca 1
ıcı 1
ıf@@ 1
ına 1
ıya 1
ığ@@ 1
ĵ@@ 1
ĺ@@ 1
ľ 1
Ł 1
Ń 1
Ń@@ 1
ŏ 1
Ř@@ 1
Ş 1
şehr@@ 1
şir@@ 1
ť 1
Ů@@ 1
ű 1
Ź 1
Ź@@ 1
Ż 1
Ž 1
Ə@@ 1
ơ 1
ơn 1
ǃ 1
Ǎ@@ 1
ǎ 1
Ǧ@@ 1
ǧ 1
ǭ@@ 1
ǰ@@ 1
ɒ 1
ɓ@@ 1
ɘ@@ 1
ɟ@@ 1
ɡ 1
ɤ 1
ɧ@@ 1
ɨ 1
ɬ 1
ɲ 1
ɳ 1
ɹ@@ 1
ɾ 1
ʀ@@ 1
ʈ@@ 1
ʋ 1
ʏ 1
ʏ@@ 1
ʔ 1
ʕ 1
ʝ@@ 1
ʲ 1
ʻ 1
ˈ 1
ˤ@@ 1
˥ 1
˩ 1
̇ 1
̌ 1
̚ 1
̟ 1
̥ 1
̪ 1
̽ 1
Ͳ 1
ͳ 1
Έ@@ 1
Αθήνα 1
Αλεξ@@ 1
Αρ@@ 1
Αυτοκρα@@ 1
Βασ@@ 1
Βασίλ@@ 1
Βασιλ@@ 1
Γ 1
Γεν@@ 1
Δήμ@@ 1
Ε 1
Ελλ@@ 1
Ελλάδα 1
Επ@@ 1
Ερ@@ 1
Ευ@@ 1
Ευρώπη 1
Ζ 1
Η 1
Θ 1
Ιν@@ 1
Ιωάν@@ 1
Κατ@@ 1
Κορ@@ 1
Κυ@@ 1
Κωνστ@@ 1
Κωνσταντ@@ 1
Λ 1
Λε@@ 1
Λου@@ 1
Μέ@@ 1
Μα@@ 1
Μακ@@ 1
Μακεδ@@ 1
Μεγ@@ 1
Ξ@@ 1
Ορ@@ 1
Πέ@@ 1
Παλ@@ 1
Περι@@ 1
Πλ@@ 1
Πο@@ 1
Πρ@@ 1
Ρ@@ 1
Σεπ@@ 1
Στρ@@ 1
Σύ@@ 1
Φ 1
Ψ@@ 1
Ω@@ 1
Ως 1
άβ@@ 1
άδα 1
άλλ@@ 1
άρα 1
έ 1
έα 1
έδ@@ 1
έκ@@ 1
έμ@@ 1
έπ@@ 1
έρα 1
ές 1
έσ@@ 1
έχ@@ 1
ήλ 1
ήσ@@ 1
ίζ@@ 1
ίκης 1
ίλ@@ 1
ίνη 1
ίων 1
αία 1
αγγ@@ 1
αθ@@ 1
αισ@@ 1
ακολ@@ 1
αμπ@@ 1
αν 1
ανή@@ 1
ανου@@ 1
αντιν@@ 1
αξ@@ 1
αξι@@ 1
απε@@ 1
από 1
αρι@@ 1
αρκ@@ 1
αρμ@@ 1
ασία 1
αστ@@ 1
ατο@@ 1
ατρ@@ 1
αχ@@ 1
βαρ@@ 1
βασ@@ 1
γι@@ 1
γνωστ@@ 1
γραφή 1
δήμ@@ 1
δία 1
δίν@@ 1
δα 1
διά 1
διακ@@ 1
διδ@@ 1
διπλ@@ 1
δομ@@ 1
δος 1
δύνα@@ 1
είας 1
εγ@@ 1
ειρ@@ 1
επίσ@@ 1
επι@@ 1
επισκ@@ 1
ερ 1
εφαλ@@ 1
εχ@@ 1
ηγ@@ 1
ημ@@ 1
ην@@ 1
ησι@@ 1
ητ@@ 1
ητής 1
θή@@ 1
θήκη 1
θα 1
θεια 1
θν@@ 1
θρω@@ 1
θυν@@ 1
ιερ@@ 1
ιλι@@ 1
ιπ@@ 1
ιρ@@ 1
ισμός 1
ισσ@@ 1
ιστορ@@ 1
ιστορία 1
ιτ@@ 1
ιχ@@ 1
ιώ@@ 1
κάτω 1
κέν@@ 1
κα 1
καδημ@@ 1
και 1
καλλι@@ 1
καν@@ 1
καρ@@ 1
κε@@ 1
κι@@ 1
κλει@@ 1
κλη@@ 1
κο@@ 1
κον@@ 1
κορ@@ 1
κρατ@@ 1
κυρί@@ 1
κω@@ 1
κόσ@@ 1
λέ@@ 1
λαμβ@@ 1
λει@@ 1
λεξ@@ 1
λευ@@ 1
λυ@@ 1
μέρος 1
μία 1
μακ@@ 1
ματ@@ 1
μαϊκ@@ 1
μεν@@ 1
μεσ@@ 1
μετ@@ 1
μη@@ 1
μικ@@ 1
μν@@ 1
μο@@ 1
μονα@@ 1
μορ@@ 1
μου 1
μουσ@@ 1
μπο@@ 1
μυ@@ 1
μυθ@@ 1
νά@@ 1
νέ@@ 1
νας 1
νη@@ 1
νησ@@ 1
νο@@ 1
νόμ@@ 1
ξεις 1
οί@@ 1
οίκ@@ 1
ογραφία 1
οδ@@ 1
οιν@@ 1
οκρατ@@ 1
ολόγ@@ 1
οποι@@ 1
ορι@@ 1
ουλ@@ 1
ουν 1
ουρ@@ 1
ουσ@@ 1
ουσία 1
ουσα 1
ουσι@@ 1
οχή 1
ούμεν@@ 1
πέ@@ 1
παλ@@ 1
παρά@@ 1
παρα@@ 1
πει@@ 1
περι@@ 1
πιστ@@ 1
πν@@ 1
ποι 1
πολύ 1
ποταμ@@ 1
που 1
πού@@ 1
προ@@ 1
ράς 1
ρίου 1
ρακ@@ 1
ρατ@@ 1
ριν@@ 1
ρν@@ 1
ρου 1
ρου@@ 1
ροφή 1
ρού@@ 1
ς@@ 1
σεν@@ 1
σκ@@ 1
σμ@@ 1
στά@@ 1
στή@@ 1
στήρι@@ 1
στατ@@ 1
στερ@@ 1
συγκ@@ 1
συνα@@ 1
σώ@@ 1
τά 1
τή 1
τή@@ 1
ται 1
ταιν@@ 1
ταμ@@ 1
τελε@@ 1
τερ 1
τεχν@@ 1
τική 1
τικός 1
τοιχ@@ 1
τοκ@@ 1
τορ@@ 1
του@@ 1
τρία 1
τρι@@ 1
τρια 1
υζ@@ 1
υζαντιν@@ 1
υμ@@ 1
υπ@@ 1
υργ@@ 1
υχ@@ 1
φρά@@ 1
χλ@@ 1
χωρ@@ 1
ωγ@@ 1
ωμα 1
ωπ@@ 1
ωρ@@ 1
ϊκ@@ 1
ό 1
όβ@@ 1
όλη 1
όμ@@ 1
όσ@@ 1
όχ@@ 1
ύν@@ 1
ύτερ@@ 1
ών@@ 1
ώρα 1
ώργ@@ 1
ϑ 1
ϙ 1
Ϝ 1
ϟ 1
Ϡ 1
ϡ 1
Ђ@@ 1
Є@@ 1
І@@ 1
Ј@@ 1
Љ@@ 1
Ў@@ 1
А 1
Авто@@ 1
Ад@@ 1
Бар@@ 1
Бра@@ 1
Бу@@ 1
Бур@@ 1
България 1
Ве@@ 1
Вер@@ 1
Г 1
Геор@@ 1
Гер@@ 1
Гри@@ 1
Д 1
Да@@ 1
Дж@@ 1
До 1
До@@ 1
Е 1
Ев@@ 1
З 1
Йо@@ 1
Кор@@ 1
Ли@@ 1
Май@@ 1
Македо@@ 1
Ман@@ 1
Мар@@ 1
Мария 1
Мон@@ 1
Но 1
Об@@ 1
Па@@ 1
Петер@@ 1
Под@@ 1
Про@@ 1
Рос@@ 1
С 1
Сан@@ 1
Север@@ 1
Северна 1
Ско@@ 1
София 1
Сре@@ 1
Т 1
Уи@@ 1
Фран@@ 1
Ц 1
Ча@@ 1
Юж@@ 1
акаде@@ 1
ан 1
арти@@ 1
бе 1
бере@@ 1
бли@@ 1
български 1
бы 1
вар@@ 1
ват@@ 1
ве 1
вез@@ 1
вели@@ 1
версите@@ 1
ви 1
во@@ 1
вод@@ 1
вой 1
война 1
восто@@ 1
вре@@ 1
вро@@ 1
вый 1
гда 1
гов 1
года 1
гори@@ 1
горо@@ 1
государ@@ 1
государствен@@ 1
град@@ 1
гре@@ 1
гро@@ 1
дан 1
дан@@ 1
дви@@ 1
де 1
ден@@ 1
деятель@@ 1
дж@@ 1
джа@@ 1
дии 1
дин@@ 1
дне@@ 1
до 1
дор 1
дри@@ 1
ду@@ 1
ды@@ 1
ева 1
ед@@ 1
един@@ 1
ези@@ 1
език 1
ер@@ 1
ж 1
жа 1
же@@ 1
жен@@ 1
жение 1
жество 1
жи 1
зависи@@ 1
зар@@ 1
зах@@ 1
зе@@ 1
зи 1
зо@@ 1
зы@@ 1
из@@ 1
изи@@ 1
име@@ 1
институ@@ 1
итель 1
ити 1
ить 1
йн@@ 1
йский 1
кате@@ 1
като@@ 1
ки 1
кия 1
кон@@ 1
кт 1
ктор 1
ку 1
лаго@@ 1
ле 1
лек@@ 1
лин@@ 1
лов 1
лов@@ 1
лу 1
лы@@ 1
льный 1
лё@@ 1
ман 1
март 1
мат 1
мат@@ 1
мен 1
мен@@ 1
мии 1
мо 1
над@@ 1
народ@@ 1
нато@@ 1
нау@@ 1
не 1
нен@@ 1
ни 1
ници 1
ния 1
нов@@ 1
нови@@ 1
ного 1
ное 1
ноември 1
ности 1
нски 1
ны 1
ны@@ 1
ные 1
ных 1
няя 1
образ@@ 1
око@@ 1
он 1
остров 1
от@@ 1
отноше@@ 1
па@@ 1
пло@@ 1
по 1
пове@@ 1
под@@ 1
подоб@@ 1
поли@@ 1
пра@@ 1
право@@ 1
през 1
при 1
про@@ 1
пу@@ 1
пут@@ 1
раб@@ 1
рак@@ 1
рал 1
рен 1
ри 1
рин 1
рио@@ 1
ро 1
род@@ 1
росси@@ 1
рус@@ 1
ря@@ 1
санд@@ 1
си 1
ски@@ 1
ско 1
сков@@ 1
ского 1
ской 1
ском 1
сла@@ 1
слав 1
служ@@ 1
спи@@ 1
сси@@ 1
стан 1
ств 1
ства 1
ствен@@ 1
ственной 1
сти 1
стин@@ 1
стов 1
стра@@ 1
су@@ 1
съ@@ 1
сь 1
тер@@ 1
тий 1
тина 1
то 1
тов 1
тов@@ 1
той 1
тон 1
тон@@ 1
тра@@ 1
три@@ 1
ту@@ 1
ул 1
ун@@ 1
федера@@ 1
фи@@ 1
физи@@ 1
фо@@ 1
фон 1
хозяй@@ 1
ца@@ 1
це 1
цент@@ 1
цер@@ 1
цы 1
ча 1
чат@@ 1
чев 1
ческой 1
чина 1
чно 1
ша 1
ша@@ 1
ше@@ 1
ши@@ 1
шки 1
шко@@ 1
шу@@ 1
ща@@ 1
ще@@ 1
щен@@ 1
ър@@ 1
ье 1
ья 1
эн@@ 1
язы@@ 1
ёл 1
ёр@@ 1
ј 1
љ@@ 1
ѣ@@ 1
Ѯ 1
ѯ 1
Ѱ 1
ҝ@@ 1
ң@@ 1
ҳ@@ 1
ҹ@@ 1
ӧ 1
Ճ@@ 1
Յ@@ 1
Չ@@ 1
Պ@@ 1
Ջ@@ 1
Ց@@ 1
Ք@@ 1
է 1
ը@@ 1
թ 1
ժ@@ 1
լ 1
խ 1
խ@@ 1
ծ 1
ղ 1
ճ 1
ճ@@ 1
մ 1
չ 1
պ 1
ջ 1
ռ 1
ք 1
֛ 1
֥ 1
ֶ 1
ֿ@@ 1
ט 1
כ 1
ם@@ 1
פ 1
װ@@ 1
ء 1
ء@@ 1
آب@@ 1
آخر 1
آن 1
أ 1
أة 1
أح@@ 1
أد@@ 1
أش@@ 1
أن 1
أي@@ 1
أُ@@ 1
إن 1
إي@@ 1
ئ 1
ئیں 1
ائد 1
ائر 1
ائی 1
ابة 1
ابل 1
اتب 1
اته 1
اج 1
اح 1
ادت 1
ادر 1
ادل 1
ارب 1
ارد 1
اردو 1
اره 1
اسلا@@ 1
اسلام 1
اسم@@ 1
اسی 1
اصل 1
اض 1
اض@@ 1
اضي 1
اط 1
اع 1
اغ@@ 1
افغانستان 1
اك 1
الأولى 1
التعل@@ 1
الث@@ 1
الثاني 1
الجيش 1
الح 1
الحياة 1
الدولة 1
الرح@@ 1
الرو@@ 1
الشر@@ 1
الض@@ 1
العرا@@ 1
العسك@@ 1
العلا@@ 1
الفل@@ 1
الفي@@ 1
القدي@@ 1
اللہ 1
المت@@ 1
المتحدة 1
المث@@ 1
المح@@ 1
المد@@ 1
المس@@ 1
المسل@@ 1
المش@@ 1
المغربية 1
المق@@ 1
المنا@@ 1
الموس@@ 1
المي@@ 1
النظ@@ 1
الوطني 1
الولا@@ 1
اليا 1
الی 1
امات 1
انس@@ 1
انے 1
اول 1
اون 1
اً 1
اک@@ 1
اگر@@ 1
باد@@ 1
باش@@ 1
بالإ@@ 1
بالق@@ 1
بان@@ 1
برو@@ 1
بريل 1
بس@@ 1
بط 1
بع 1
بغ@@ 1
بق@@ 1
بو 1
بين 1
بھ@@ 1
تا 1
تاج 1
تخ@@ 1
تر 1
تس@@ 1
تش 1
تش@@ 1
تص@@ 1
تصني@@ 1
تف@@ 1
تو 1
تو@@ 1
تور@@ 1
تي@@ 1
تی 1
ثة 1
ثلا@@ 1
جا 1
جا@@ 1
جامعة 1
جان 1
جب 1
جة 1
جد@@ 1
جر@@ 1
جس 1
جم@@ 1
جماعة 1
جنة 1
جون 1
جی 1
حة 1
حزب 1
حل@@ 1
حية 1
حی@@ 1
خار@@ 1
خت@@ 1
خر@@ 1
خلا@@ 1
خوا@@ 1
خي@@ 1
خی@@ 1
دا 1
دائ@@ 1
دار@@ 1
دان@@ 1
داً 1
درا@@ 1
دریا 1
دس 1
دع@@ 1
دف@@ 1
ده 1
دور@@ 1
دوس@@ 1
دیا 1
دیث 1
دین 1
ذات 1
رئ@@ 1
رئيس 1
رائ@@ 1
رات 1
راج 1
رار 1
رانی 1
رح@@ 1
رس 1
رف@@ 1
رقم 1
روا@@ 1
روز 1
روع 1
روم 1
ريق 1
ريقة 1
ریز 1
زار 1
زيد 1
سائ@@ 1
سابق 1
ساح@@ 1
سام 1
سام@@ 1
سرائ@@ 1
سرکاری 1
سط@@ 1
سعو@@ 1
سف@@ 1
سفر 1
سلا@@ 1
سلسل@@ 1
سلط@@ 1
سلی@@ 1
سم 1
سند@@ 1
سندھ 1
سية 1
سی 1
سید 1
سیم 1
سین 1
شام 1
شب@@ 1
شري@@ 1
شمال 1
شو@@ 1
ص 1
صاح@@ 1
صة 1
صف@@ 1
صي@@ 1
ضر@@ 1
طالب 1
طق 1
طل@@ 1
طلا@@ 1
طلاق 1
عباس 1
عبر 1
عرب 1
عش@@ 1
عص@@ 1
عق@@ 1
علی@@ 1
عمو@@ 1
عه 1
عہ@@ 1
غ 1
غز@@ 1
غي@@ 1
فا@@ 1
فر 1
فري@@ 1
فس@@ 1
فظ 1
فق 1
فور@@ 1
قات 1
قان@@ 1
قبال 1
قة 1
قع 1
قل 1
قو@@ 1
قہ 1
قی@@ 1
كا 1
كار@@ 1
كس 1
كل 1
كو 1
كو@@ 1
كومة 1
كي 1
لات 1
لان@@ 1
لح@@ 1
لد 1
لر 1
لس 1
لم@@ 1
ليل 1
مات 1
مارس 1
ماس@@ 1
مالي 1
مان@@ 1
ماني 1
ماں 1
مب@@ 1
مبار@@ 1
مت@@ 1
متح@@ 1
مثل 1
محل 1
مخت@@ 1
مذ@@ 1
مرکز 1
مری@@ 1
مز@@ 1
مسجد 1
مسل@@ 1
مسلم 1
مشرق 1
مصر 1
مط@@ 1
مغرب 1
مم@@ 1
موت 1
مور@@ 1
مون@@ 1
می 1
نئی 1
ناصر 1
نجلي@@ 1
نح@@ 1
نصف 1
نف 1
نف@@ 1
نوب@@ 1
نور 1
نور@@ 1
نوف@@ 1
نگ@@ 1
هة 1
هذا 1
هٔ 1
وأ@@ 1
واء 1
وار 1
والا 1
وان 1
وة 1
وح@@ 1
ودية 1
ورت 1
وز 1
وز@@ 1
وسط 1
وسی 1
وش@@ 1
وص@@ 1
وط 1
وع@@ 1
وغ@@ 1
وك@@ 1
وني 1
ونية 1
وه@@ 1
ى@@ 1
يت 1
يح@@ 1
يران 1
يرة 1
يز 1
يز@@ 1
يس@@ 1
يش@@ 1
يك@@ 1
يلي 1
يمكن 1
يمية 1
ينية 1
يه 1
يين 1
ً@@ 1
ًا 1
ٍ@@ 1
٠@@ 1
١@@ 1
٥@@ 1
٨ 1
ٹ@@ 1
ٹھ@@ 1
پ 1
پر@@ 1
پرو@@ 1
پنج@@ 1
ڃ@@ 1
چر@@ 1
ڈیا 1
ڌ@@ 1
ژ 1
ڙ@@ 1
ڤ@@ 1
کر 1
کش@@ 1
کشمیر 1
ګ@@ 1
ڵ 1
ڻ 1
ڻ@@ 1
ہ@@ 1
ہو 1
ہور 1
ۇ@@ 1
یا 1
یت 1
ید 1
یل 1
یم 1
یون@@ 1
یں 1
ۍ 1
ې@@ 1
ۑ 1
ە@@ 1
۷ 1
۸ 1
ܒ 1
ܓ@@ 1
ܛ 1
ܟ 1
ܡ 1
ܩ 1
ܬ 1
ܵ@@ 1
ܸ@@ 1
ߊ 1
ߋ@@ 1
ߌ 1
ߌ@@ 1
ߏ@@ 1
ߕ@@ 1
ߖ@@ 1
ߘ@@ 1
ߡ@@ 1
ߣ@@ 1
ं 1
ं@@ 1
ंग 1
ंब@@ 1
ई 1
कम 1
कश 1
के 1
गा 1
गि@@ 1
गौ@@ 1
ङ 1
चंद 1
चा@@ 1
ज@@ 1
जय 1
जा@@ 1
जि@@ 1
जी 1
ण@@ 1
त@@ 1
तन 1
तम 1
ता 1
थ 1
था 1
दास 1
दिल 1
दी 1
दू 1
ध@@ 1
धार 1
नई 1
नदी 1
नर 1
ना@@ 1
पं@@ 1
फ 1
बा 1
भ@@ 1
भा@@ 1
महा@@ 1
मान 1
मी@@ 1
र 1
र@@ 1
रम 1
रह 1
रा@@ 1
राम 1
रु 1
रु@@ 1
रूप 1
रे@@ 1
रो@@ 1
ल 1
लि@@ 1
ली@@ 1
लू 1
ले 1
लो 1
ळ@@ 1
व 1
वत 1
विक 1
श 1
श@@ 1
स 1
सं@@ 1
सम 1
सा@@ 1
साम 1
सि@@ 1
सिद 1
सु@@ 1
हिंदी 1
़ 1
ान 1
ि 1
ि@@ 1
ी 1
ै 1
ौ 1
ौ@@ 1
ौर 1
ই@@ 1
ও@@ 1
ক@@ 1
গ 1
চ@@ 1
ট 1
ট@@ 1
ড 1
দ 1
দ@@ 1
ন 1
ভ@@ 1
য 1
ল 1
শ 1
ষ@@ 1
ী 1
ো@@ 1
ਖ@@ 1
ਗ 1
ਗ@@ 1
ਥ 1
ਦ 1
ਦ@@ 1
ਵ@@ 1
ਸ 1
ਹ@@ 1
਼ 1
ੁ@@ 1
ੂ 1
ੱ@@ 1
ચ@@ 1
છ@@ 1
જ@@ 1
ત@@ 1
દ 1
દ@@ 1
ધ@@ 1
ન@@ 1
મ 1
સ 1
હ@@ 1
ુ@@ 1
ે@@ 1
ો 1
ો@@ 1
ச@@ 1
த 1
ன@@ 1
ப 1
ம 1
ய@@ 1
ஸ 1
ா@@ 1
ி@@ 1
ு 1
ு@@ 1
ே@@ 1
ோ@@ 1
ಕ@@ 1
ದ@@ 1
ನ@@ 1
ಳ@@ 1
ಾ@@ 1
ം 1
ക 1
ങ 1
ച 1
ച@@ 1
ത 1
ത@@ 1
ന@@ 1
പ 1
ഭ 1
മ@@ 1
യ@@ 1
ര@@ 1
റ@@ 1
ള@@ 1
ാ 1
ാ@@ 1
ു@@ 1
േ@@ 1
ോ@@ 1
ං@@ 1
අ@@ 1
ක@@ 1
ජ@@ 1
ත 1
න 1
න@@ 1
ප@@ 1
ය@@ 1
ල@@ 1
ශ 1
ශ@@ 1
ස@@ 1
ළ@@ 1
ි@@ 1
ී 1
ො@@ 1
ก@@ 1
ข 1
ฃ 1
ฅ 1
ฅ@@ 1
ฆ 1
ฉ 1
ชา 1
ชา@@ 1
ชี@@ 1
ซ 1
ฌ 1
ญ 1
ฎ 1
ฏ 1
ฐ 1
ฑ 1
ฒ 1
ณ@@ 1
ด 1
ดิ 1
ดี 1
ติ@@ 1
ถ 1
ทธ@@ 1
ธ@@ 1
บ 1
บา@@ 1
บิน 1
บู@@ 1
ป 1
ป@@ 1
ปร@@ 1
ประ@@ 1
ปล@@ 1
ผ 1
ฝ 1
พ 1
พิ@@ 1
ฟ 1
ภ 1
ภ@@ 1
มี 1
ย 1
ยุ@@ 1
รัช@@ 1
รา@@ 1
รุ@@ 1
ฤ@@ 1
ล@@ 1
ลง@@ 1
ละ@@ 1
ลักษ@@ 1
ลา@@ 1
ว 1
วะ 1
วิ@@ 1
ศ 1
ษ@@ 1
ส 1
สงคราม 1
สม@@ 1
สา@@ 1
สิ@@ 1
สู@@ 1
ห 1
หัว 1
ฬ 1
อ 1
อ@@ 1
อก 1
อย@@ 1
ฮ 1
ักษ@@ 1
ันท@@ 1
ำ@@ 1
ู 1
ู@@ 1
เ@@ 1
เก@@ 1
เด 1
เป@@ 1
เว@@ 1
โอ@@ 1
ไฟ@@ 1
๐ 1
๑ 1
๒ 1
๓ 1
๔ 1
๕ 1
๖ 1
๗ 1
๘ 1
๙ 1
ງ 1
ງ@@ 1
ຈ@@ 1
ຍ@@ 1
ທ@@ 1
ນ 1
ນ@@ 1
ບ@@ 1
ວ@@ 1
ອ@@ 1
ະ@@ 1
ັ@@ 1
ີ@@ 1
ໍ@@ 1
ཐ@@ 1
ཕ@@ 1
བ@@ 1
ི@@ 1
ུ 1
ླ 1
မ@@ 1
ဝ@@ 1
့ 1
း@@ 1
ြ@@ 1
ბ 1
ბ@@ 1
დ@@ 1
ზ@@ 1
მ@@ 1
წ@@ 1
ሀ@@ 1
ሃ@@ 1
ሆ 1
ሊ 1
ሌ@@ 1
መ 1
ማ 1
ሞ@@ 1
ሠ@@ 1
ሩ 1
ሬ 1
ሮ 1
ሴ 1
ሶ@@ 1
ሻ@@ 1
ሾ@@ 1
ቂ 1
ቄ 1
ቅ 1
ቢ@@ 1
ተ 1
ቲ@@ 1
ቸ@@ 1
ች@@ 1
ነ 1
ኔ@@ 1
ኛ 1
አ 1
እ@@ 1
ኦ@@ 1
ኪ 1
ካ@@ 1
ክ 1
ዋ 1
ዐ@@ 1
ዕ 1
ዘ 1
ዜ 1
ዳ 1
ዴ 1
ዶ 1
ጊ@@ 1
ጋ 1
ጋ@@ 1
ጌ 1
ጌ@@ 1
ግ 1
ጐ@@ 1
ጣ 1
ጦ@@ 1
ጨ@@ 1
ጫ 1
ጮ 1
ጮ@@ 1
ፅ@@ 1
ፈ@@ 1
ፋ@@ 1
ፍ 1
፡ 1
ᑖ@@ 1
ᑭ@@ 1
ᒃ 1
ᓄ@@ 1
ᓇ@@ 1
ᕗ@@ 1
ᕿ@@ 1
ᖃ@@ 1
ᖅ@@ 1
ត 1
ត@@ 1
ម 1
ម@@ 1
រ@@ 1
ហ 1
ហ@@ 1
ី 1
ី@@ 1
ែ@@ 1
ោ@@ 1
៊ 1
្ 1
ᵗ 1
ᵘ 1
ḏ 1
ḗ 1
ḡ@@ 1
Ḥ 1
ḩ@@ 1
ḫ@@ 1
Ḳ@@ 1
ḳ 1
ḷ@@ 1
ṑ@@ 1
ṣ 1
ẖ 1
ạ 1
ạch 1
ạm 1
ạnh 1
ạo 1
ảo 1
ần 1
ầu 1
Ẹ 1
ẽ@@ 1
ết 1
ệm 1
ỉ@@ 1
ỉnh 1
Ọ 1
ổ 1
ột 1
ợ 1
ụ 1
ἁ@@ 1
ἑ@@ 1
ἒ 1
Ἔ@@ 1
ἢ@@ 1
ἥ@@ 1
ἱ 1
ἷ@@ 1
Ἵ@@ 1
ὅ@@ 1
Ὄ@@ 1
ὐ 1
ὑ@@ 1
ὔ@@ 1
ὕ@@ 1
ὤ@@ 1
Ὦ@@ 1
ὰ@@ 1
ὴ@@ 1
ὸ 1
ὺ 1
ᾍ@@ 1
ᾱ@@ 1
ᾳ 1
᾿ 1
ῆ 1
ῑ 1
ῖ 1
῞ 1
ῳ 1
ῷ 1
ῷ@@ 1
‍ 1
‛ 1
‰ 1
₨ 1
™ 1
⅓ 1
⅛ 1
Ⅽ 1
↵ 1
∑ 1
☞ 1
✓ 1
ⲁ 1
ⲁ@@ 1
Ⲡ@@ 1
ⲣ@@ 1
ⵃ@@ 1
ⵏ@@ 1
ⵓ 1
ⵜ 1
、 1
《 1
》 1
あ 1
い 1
う 1
え@@ 1
お@@ 1
が 1
き@@ 1
く@@ 1
け@@ 1
さ 1
し@@ 1
ず@@ 1
だ 1
ち@@ 1
な@@ 1
に@@ 1
ぬ@@ 1
は@@ 1
ほ 1
ま 1
み@@ 1
ゆ@@ 1
よ 1
よ@@ 1
ら 1
ら@@ 1
ろ@@ 1
わ@@ 1
ん 1
ァ 1
ァ@@ 1
ア 1
ウ@@ 1
ェ@@ 1
ク 1
シ 1
ソ@@ 1
チ 1
チ@@ 1
ト 1
バ@@ 1
ブ@@ 1
ペ@@ 1
マ 1
ミ@@ 1
ラ@@ 1
ロ 1
ン 1
ㄴ 1
ㅎ 1
ㅏ 1
与@@ 1
丘 1
业@@ 1
东@@ 1
中国 1
中國 1
丹 1
丹@@ 1
主 1
义 1
乾 1
五 1
五@@ 1
亨 1
他 1
他@@ 1
代@@ 1
任@@ 1
份 1
伍 1
休 1
伸 1
何 1
何@@ 1
佛@@ 1
作 1
佟@@ 1
俊 1
修 1
倍 1
偁 1
僚@@ 1
兄 1
公@@ 1
六@@ 1
兰 1
关@@ 1
円 1
冈 1
冨@@ 1
冰 1
凱@@ 1
出 1
別@@ 1
利 1
制 1
則@@ 1
剛@@ 1
剣@@ 1
副@@ 1
割 1
功 1
功@@ 1
加 1
助 1
勇 1
務@@ 1
匝@@ 1
卒@@ 1
卓@@ 1
協@@ 1
印@@ 1
县 1
友 1
反@@ 1
发 1
叔@@ 1
可@@ 1
合 1
君@@ 1
吳@@ 1
吾 1
呂@@ 1
問 1
善@@ 1
喜@@ 1
四 1
回@@ 1
囲@@ 1
围@@ 1
国 1
国@@ 1
圀@@ 1
國 1
園 1
圣@@ 1
在@@ 1
圳@@ 1
埜 1
域@@ 1
基 1
埼@@ 1
堂@@ 1
堅@@ 1
場 1
堺@@ 1
壁 1
夏 1
多@@ 1
大 1
天 1
失@@ 1
奇@@ 1
奥 1
奥@@ 1
奧 1
女@@ 1
好 1
始 1
婁 1
媛@@ 1
学 1
学@@ 1
孫 1
宁@@ 1
宅 1
守@@ 1
宗 1
客 1
宣@@ 1
室@@ 1
寅 1
寛@@ 1
寺 1
寺@@ 1
寿 1
将@@ 1
尚 1
尼 1
尾 1
居 1
岩 1
岳 1
岸 1
崇 1
崇@@ 1
嶋@@ 1
嶽 1
工@@ 1
巧 1
巩@@ 1
己 1
巻 1
帝 1
師 1
帯@@ 1
常@@ 1
年 1
年@@ 1
庫@@ 1
庭 1
庭@@ 1
延 1
建@@ 1
弦@@ 1
張@@ 1
強 1
强 1
彌 1
彌@@ 1
彥@@ 1
彼 1
律 1
後 1
後@@ 1
得@@ 1
徳 1
徵@@ 1
徽 1
怒@@ 1
性 1
恋 1
恋@@ 1
恪@@ 1
悌@@ 1
悠 1
悦 1
情 1
惠@@ 1
慈 1
慕@@ 1
憲 1
戈@@ 1
成立 1
房@@ 1
扇@@ 1
手 1
才@@ 1
拳@@ 1
挙@@ 1
振@@ 1
掛@@ 1
揭@@ 1
播@@ 1
撲 1
操 1
收 1
政 1
敦 1
斎@@ 1
斯@@ 1
族 1
旭@@ 1
时@@ 1
旿 1
昂 1
昆@@ 1
昇@@ 1
昊 1
晁 1
晋@@ 1
晴 1
暁@@ 1
暉 1
暎@@ 1
暢@@ 1
曜@@ 1
更@@ 1
曹@@ 1
曽@@ 1
曾@@ 1
會 1
會@@ 1
望 1
末@@ 1
朴 1
杜@@ 1
杭@@ 1
枕 1
枕@@ 1
枝 1
柳 1
柴@@ 1
柿@@ 1
栗@@ 1
根 1
根@@ 1
桑 1
梁@@ 1
梠 1
梦@@ 1
梧 1
梨@@ 1
梶@@ 1
棄@@ 1
棋 1
棠 1
植@@ 1
楊@@ 1
楢@@ 1
業 1
楽@@ 1
榎 1
権@@ 1
樫 1
橡@@ 1
次@@ 1
歌 1
殿 1
母@@ 1
比@@ 1
氏 1
民@@ 1
気 1
気@@ 1
汗 1
汰 1
沈@@ 1
河 1
沼@@ 1
泉 1
法 1
法@@ 1
波@@ 1
洪 1
洵 1
活 1
流@@ 1
济@@ 1
浙@@ 1
浮@@ 1
海 1
涛 1
润@@ 1
淸@@ 1
渓@@ 1
游 1
湖 1
湛@@ 1
湯@@ 1
満@@ 1
準 1
溝@@ 1
滉 1
滋@@ 1
漁 1
漱 1
潟 1
潤 1
潮@@ 1
澳@@ 1
瀧 1
烏@@ 1
然 1
煥 1
照@@ 1
熹 1
爭@@ 1
片@@ 1
版 1
物@@ 1
王@@ 1
玟 1
现@@ 1
玲 1
珠@@ 1
現 1
現@@ 1
琛 1
琢@@ 1
琵@@ 1
琶@@ 1
瑜 1
瑠@@ 1
瑳@@ 1
甄@@ 1
生@@ 1
由@@ 1
申@@ 1
电@@ 1
畑 1
畠@@ 1
當 1
畿@@ 1
疾 1
病 1
症 1
痛@@ 1
登 1
發 1
白@@ 1
皆@@ 1
皇@@ 1
益@@ 1
目 1
瞳 1
矢 1
矩@@ 1
石 1
碓@@ 1
碧 1
礒@@ 1
祐 1
祖 1
祥@@ 1
祭 1
禹@@ 1
秀 1
私@@ 1
秋 1
秦@@ 1
税 1
稔 1
種@@ 1
稲@@ 1
積 1
穣 1
空@@ 1
童 1
端 1
竿 1
策 1
箕@@ 1
節 1
範 1
築 1
精@@ 1
紀@@ 1
納 1
純@@ 1
素 1
紳@@ 1
統@@ 1
継@@ 1
綺 1
綺@@ 1
総@@ 1
緣 1
縄 1
縄@@ 1
縣 1
繁@@ 1
纥 1
维@@ 1
缘@@ 1
置@@ 1
群@@ 1
羽 1
羽@@ 1
翔 1
翔@@ 1
耀 1
耳 1
聃 1
聞 1
肃 1
育@@ 1
胡@@ 1
能@@ 1
脇 1
脩@@ 1
腐 1
腰 1
自@@ 1
致@@ 1
興@@ 1
航 1
花 1
花@@ 1
芹 1
苏 1
英 1
茨@@ 1
茶 1
茶@@ 1
草@@ 1
荒@@ 1
莉@@ 1
莞@@ 1
菜@@ 1
華@@ 1
萌 1
萩 1
落@@ 1
葵 1
蘭 1
虎@@ 1
蛍 1
行@@ 1
術 1
衛 1
衛@@ 1
袖@@ 1
裂@@ 1
要@@ 1
覇 1
見 1
規@@ 1
解 1
解@@ 1
言@@ 1
訓@@ 1
記 1
誓@@ 1
語@@ 1
調@@ 1
諫@@ 1
謙 1
话 1
豆@@ 1
象@@ 1
豪 1
貞@@ 1
貢 1
賀 1
賢@@ 1
路@@ 1
車@@ 1
軍 1
軒 1
軽@@ 1
軾 1
輪 1
辛@@ 1
辽@@ 1
迁 1
近 1
远@@ 1
這 1
遊 1
遼@@ 1
邉 1
邊 1
邑 1
邦 1
郁@@ 1
郡 1
鄂@@ 1
鄒@@ 1
里@@ 1
重 1
釜@@ 1
鍾@@ 1
鑊 1
铃@@ 1
锦@@ 1
長 1
間 1
闘@@ 1
门@@ 1
陈 1
陈@@ 1
陕@@ 1
陳 1
隼@@ 1
雍@@ 1
雲 1
靖 1
非 1
非@@ 1
靱@@ 1
鞏 1
鞏@@ 1
韶@@ 1
須 1
頭@@ 1
顏@@ 1
额@@ 1
餘 1
館@@ 1
香港 1
駅 1
駒 1
駒@@ 1
駿@@ 1
马@@ 1
髙@@ 1
鬥 1
魯 1
鮮 1
鳳 1
鴇@@ 1
鴨@@ 1
麻@@ 1
麿 1
黃@@ 1
黎@@ 1
黑@@ 1
黒 1
齋@@ 1
齐@@ 1
龙@@ 1
가 1
강 1
건 1
고@@ 1
구 1
국 1
금@@ 1
기@@ 1
깨@@ 1
꽃@@ 1
남 1
녀 1
노 1
다 1
단@@ 1
당 1
델@@ 1
드@@ 1
랑@@ 1
레@@ 1
록@@ 1
루@@ 1
류@@ 1
리@@ 1
립 1
면 1
몽 1
몽@@ 1
무 1
무@@ 1
미@@ 1
민@@ 1
바@@ 1
백 1
별 1
별@@ 1
병@@ 1
불@@ 1
비 1
빈@@ 1
삼 1
삼@@ 1
석 1
선 1
설@@ 1
섭@@ 1
센@@ 1
손 1
송 1
수 1
스 1
스@@ 1
승@@ 1
시@@ 1
식@@ 1
아 1
압@@ 1
애@@ 1
양 1
양@@ 1
어 1
역 1
역@@ 1
연@@ 1
예 1
오 1
옹 1
와@@ 1
요@@ 1
우@@ 1
울 1
위 1
위@@ 1
유@@ 1
육@@ 1
이@@ 1
인 1
일 1
재@@ 1
전 1
정@@ 1
제 1
조 1
족 1
좌@@ 1
중 1
중@@ 1
지@@ 1
직@@ 1
착 1
철@@ 1
춘@@ 1
크@@ 1
탁@@ 1
탐@@ 1
태@@ 1
텔 1
토@@ 1
평@@ 1
포@@ 1
퐁 1
핑@@ 1
하@@ 1
함@@ 1
해 1
해@@ 1
헌 1
현@@ 1
협@@ 1
호 1
호@@ 1
화 1
화@@ 1
환 1
회@@ 1
후 1
후@@ 1
흥 1
 1
﨑 1
ﷲ 1
ﷺ 1
ﺎ@@ 1
ﺑ@@ 1
ﺞ 1
ﺟ@@ 1
ﺣ@@ 1
ﺪ@@ 1
ﺮ 1
ﺯ@@ 1
ﺷ@@ 1
ﻄ@@ 1
ﻗ@@ 1
ﻧ@@ 1
ﻬ@@ 1
ﻮ@@ 1
ﻲ 1
ﻳ@@ 1
， 1
𐤕 1
𒈥@@ 1
𒌅 1
