, 4589530
. 4222548
του 2860604
και 2709934
της 2091464
το 2032753
ο 1706214
&quot; 1466922
η 1375118
την 1365039
από 1249766
με 1128727
να 1040967
) 949684
( 945028
σε 929432
τον 889175
ή 815365
που 812814
των 803044
τα 754148
β@@ 741047
κ@@ 738726
τη 729089
στην 719828
ος 718909
ι@@ 716967
για 698691
στο 696297
ία 686930
μ@@ 685800
Σ@@ 682008
σ@@ 669376
α 659909
τ@@ 656244
δ@@ 647904
αν@@ 639462
θ@@ 632514
ου 630462
έ@@ 628411
οι 627247
χ@@ 622114
π@@ 620865
φ@@ 618927
ες 613132
ί@@ 600224
ά@@ 596028
στ@@ 595992
είναι 594120
ν@@ 583926
Κ@@ 561831
ων 554183
ε@@ 541207
ική 533875
τους 529936
ρ@@ 523705
ίας 523089
ο@@ 520867
ό 517773
Η 515717
γ@@ 515614
ών 512763
Α@@ 511554
Μ@@ 495354
Π@@ 491590
λ@@ 489953
ό@@ 479425
ικό 478007
ως 469547
Το 464429
α@@ 456914
ά 455039
εν@@ 451267
Ο 450815
ης 449821
@-@ 442241
άν@@ 440192
υ@@ 436805
ω@@ 427797
ύ@@ 427557
δι@@ 426728
ής 426563
ικά 413551
η@@ 407600
ους 402778
ζ@@ 401947
ήταν 397239
ι 395204
Τ@@ 393876
Ν@@ 390788
ια 389048
στη 389012
ές 380463
ός 378546
ου@@ 376646
ερ@@ 375993
ρι@@ 374572
ή@@ 374059
ας 373519
ει 371987
προ@@ 364925
αρ@@ 361083
Β@@ 355982
κα@@ 351052
ση 341486
ικ@@ 338479
παρ@@ 335529
τις 333910
ον@@ 331690
εκ@@ 330393
απ@@ 328754
Ε@@ 328717
ρο@@ 324515
αλ@@ 322847
ευ@@ 321253
ορ@@ 313916
ασ@@ 312134
εξ@@ 311676
ατ@@ 307116
το@@ 306665
επ@@ 306448
ιν@@ 304320
Λ@@ 302406
ού 298758
απο@@ 297616
: 296761
συν@@ 290216
ακ@@ 290065
τα@@ 288856
ικής 286467
ώ@@ 285423
ρα@@ 282926
ν 282624
ει@@ 280742
τι@@ 279875
μα 272964
ένα 270365
στις 269833
ού@@ 267771
ε 267327
λι@@ 266464
γκ@@ 266318
έν@@ 265930
αγ@@ 265312
αν 263477
Χ@@ 261929
ισ@@ 259647
αι@@ 259534
μπ@@ 249746
ομ@@ 247822
ότι 246135
ουν 244560
μια 243706
στα 243270
Ρ@@ 242675
ελ@@ 239580
όν@@ 238729
Φ@@ 237897
έρ@@ 235316
επι@@ 235256
στον 233818
άρ@@ 230847
σι@@ 228580
ρί@@ 226918
ξ@@ 226311
ς 224164
τ 223171
« 218447
» 217092
τη@@ 216944
Ο@@ 216511
πλ@@ 215966
Δ@@ 215382
τά@@ 214899
περι@@ 214820
τρ@@ 213986
Γ@@ 212427
ρ 211885
θε@@ 209455
ικές 209301
εί@@ 208508
ί 205953
πο@@ 201504
δεν 198521
λλ@@ 197868
λε@@ 197863
σκ@@ 197775
να@@ 196891
όρ@@ 195472
εται 194657
εία 190004
ολ@@ 189463
ίν@@ 189283
ίου 186941
Οι 186392
δια@@ 183898
ικού 182776
έχει 181889
κλ@@ 181498
λ 179910
σης 177605
ικών 177346
Ι@@ 177191
ψ@@ 175665
.@@ 175612
άλ@@ 175209
είχε 175037
αρχ@@ 174421
ων@@ 174420
΄ 173941
ρά@@ 169869
ιστ@@ 169409
ίσ@@ 169267
τική 168256
θηκε 168176
εύ@@ 167587
τέ@@ 166916
ών@@ 164460
ιο 164039
όταν 162566
μετα@@ 157383
ηση 156772
ούς 155537
άσ@@ 155390
κατά 154614
αί@@ 153690
ίες 151829
ματα 151120
υπο@@ 150860
όλ@@ 150263
αφ@@ 150166
οδ@@ 148921
ματ@@ 147869
αστ@@ 147540
τε@@ 146827
αλλά 145965
κατα@@ 145875
με@@ 145737
υπ@@ 145555
τες 143625
ησε 143414
ονται 141284
προσ@@ 139969
δε@@ 138890
ήθηκε 138346
ίκ@@ 137810
μα@@ 137479
ενώ 136856
σαν 136410
Ά@@ 135209
Έ@@ 134767
είο 134469
κ 134294
ρε@@ 134285
ανα@@ 134048
οποία 132932
ξη 132768
θα 132462
τικά 130735
ριο 129964
Μπ@@ 129922
- 128571
όπως 128375
τικό 127756
έλ@@ 127542
δύο 127389
&apos; 126918
άκ@@ 126824
αμ@@ 126588
ιλ@@ 126315
μά@@ 126281
αυ@@ 125239
ηγ@@ 124952
τσ@@ 123666
μβ@@ 123412
οντας 123338
ργ@@ 122690
ωση 122033
τερ@@ 121886
ημ@@ 121553
Δι@@ 121052
έχ@@ 120300
σία 120147
αντι@@ 120013
Αν@@ 119962
οί 119759
οσ@@ 118956
μία 118475
τος 117498
ρο 117411
ρέ@@ 117357
θεί 117295
ρού@@ 116788
όσ@@ 116530
πρ@@ 116098
άγ@@ 115162
μετά 114944
ικός 114386
λα@@ 113819
θη@@ 113816
αθ@@ 113770
οπ@@ 113460
ότητα 112317
τί@@ 111795
ται 110166
ήσει 110083
όπου 109727
όμ@@ 108987
επίσης 108578
ογ@@ 108310
εγ@@ 108269
εί 108249
οφ@@ 107196
ήρ@@ 107143
γραφ@@ 107055
μο 106948
θέ@@ 106863
μέ@@ 106521
περ@@ 103788
γεν@@ 103739
μον@@ 103422
χρ@@ 103368
/ 103096
ρου 102014
ετ@@ 101291
καλ@@ 100711
ματος 100663
2 100159
ον 99185
Τα 98834
εργ@@ 98570
ρω@@ 98383
έκ@@ 97722
Α 97273
οι@@ 97097
κά@@ 96850
υλ@@ 96229
βι@@ 96080
τι 95257
μ 94340
οικ@@ 94028
οκ@@ 93270
οβ@@ 93128
δυ@@ 92882
καθώς 92708
τελ@@ 92681
καθ@@ 92611
κο@@ 92564
ητ@@ 92511
1 92239
μένη 91996
καν@@ 91468
τικές 91368
οποίο 91206
Ζ@@ 91075
Παρ@@ 90924
εφ@@ 90630
ίλ@@ 90509
σημ@@ 90298
γι@@ 90173
Κα@@ 89858
αυτ@@ 89344
έχουν 89211
Γκ@@ 88572
ώς 88019
αυτό 87736
μη 87702
Τζ@@ 86573
ρα 86376
είας 86340
του@@ 86269
άδ@@ 86202
στους 86135
κιν@@ 85803
ίδ@@ 85655
αδ@@ 85384
είται 85275
ολογ@@ 84883
ειδ@@ 84615
μέχρι 84367
τον@@ 84279
μεταξύ 83846
εις 83477
τού@@ 83280
ουλ@@ 83261
Ό@@ 83181
αντ@@ 83168
τησε 83009
νη 82742
πολ@@ 82614
σύν@@ 82461
άς 82197
λέ@@ 81806
υγ@@ 81607
ωσε 81228
μένο 81130
ρος 81063
έπ@@ 81046
δο@@ 80213
ίων 80164
ηλ@@ 79668
έγινε 79536
όπ@@ 79113
ίστηκε 79104
ούν 79044
Θ@@ 78927
χρόνια 78797
3 78757
μεν@@ 78365
ξε 78258
οχ@@ 78046
είς 77638
ήματα 77427
Πολ@@ 77416
κτ@@ 77294
όν 77159
πρώτη 76314
προς 75881
δημ@@ 75860
υρ@@ 75761
συ@@ 75641
σύ@@ 75381
εια 74819
πολι@@ 74783
πιο 74705
τύ@@ 74679
Υ@@ 74508
έφ@@ 74469
Β 74006
ω 73924
βασ@@ 73515
ημα 73450
πρω@@ 73046
Στις 72715
έγ@@ 72665
ώντας 72381
τικής 72377
μή@@ 72320
μι@@ 72298
τού 72261
λογ@@ 71926
; 71912
Η@@ 71541
συγκ@@ 71301
εισ@@ 71041
άλλ@@ 70919
ομάδα 70750
μένα 70732
ουν@@ 70689
περιοχή 70631
πόλη 70479
Γι@@ 70328
οπο@@ 70324
τά 70324
μπορεί 69834
τεχν@@ 69557
σπ@@ 69539
θέση 69378
σεις 69378
κύ@@ 69351
πτ@@ 69190
αυτή 68949
πέ@@ 68775
πι@@ 68605
τυ@@ 68351
είχαν 68350
σα 68235
υσ@@ 67999
4 67878
υμ@@ 67667
τρι@@ 67630
πρό@@ 67399
5 67199
νομ@@ 66925
εν 66316
ένας 66252
ορι@@ 66236
τικ@@ 65970
έ 65916
άστηκε 65799
γράφ@@ 65770
εδ@@ 65720
διάρκεια 65588
νη@@ 65587
νης 65417
Με@@ 65394
σημαν@@ 65380
μικρ@@ 65134
διακ@@ 65037
στι@@ 64961
όγ@@ 64916
κοιν@@ 64861
ερ 64795
θηκαν 64766
δρ@@ 64711
Αγ@@ 64708
παρα@@ 64626
έρα 64408
τε 64405
αιώνα 64316
μπο@@ 64269
Αυ@@ 64209
ϊ@@ 64177
εθν@@ 64088
λη@@ 63435
ουσ@@ 63406
μερ@@ 63347
ήσεις 63296
ελλην@@ 63200
ότερα 63026
παν@@ 62852
στρατ@@ 62685
φ 62627
πε@@ 62470
δικα@@ 62433
χρησιμοποι@@ 62395
όφ@@ 62118
άν 61957
φορά 61682
κατ@@ 61674
S@@ 61577
ρίζ@@ 61508
ψη 61495
αγων@@ 61441
κατέ@@ 61353
είου 61329
οποίος 61287
Μαρ@@ 61245
αζ@@ 60950
ονομ@@ 60938
Από 60696
έσ@@ 60632
αβ@@ 60624
ιμ@@ 60260
υν@@ 60181
σσ@@ 59714
δημιουργ@@ 59605
εβ@@ 59516
3@@ 59180
ούν@@ 59096
σμ@@ 59085
ιδ@@ 59058
&amp; 59007
ρον@@ 58960
μέν@@ 58849
γκ 58769
ειας 58561
βλ@@ 58535
τζ@@ 58463
αποτελ@@ 58162
ότ@@ 57953
Στην 57737
μάτων 57698
ισμό 57593
κυ@@ 57555
στο@@ 57530
18@@ 57308
ιά 57293
% 57174
μαν@@ 57113
όκ@@ 57099
ήματος 57081
έναν 56850
– 56709
οποί@@ 56584
νο@@ 56548
νω@@ 56409
ενός 56408
ότητας 56358
κατά@@ 56357
σίας 56191
μουσ@@ 56171
νε@@ 56139
περίοδο 56113
Συν@@ 56112
πα@@ 56107
ρκ@@ 56000
τοπ@@ 55961
στα@@ 55893
τηκε 55855
μέρος 55643
Κά@@ 55579
μόνο 55402
θεση 55395
φέρ@@ 55368
έα 55243
δη 55222
τή 55195
όχ@@ 55168
άζ@@ 55118
γραμ@@ 55058
πολύ 54792
ώθηκε 54731
κόμ@@ 54497
ίζεται 54491
ήγ@@ 54489
μφ@@ 54487
οποι@@ 54465
ρίας 54441
συμβ@@ 54425
άρχ@@ 54380
Προ@@ 54340
ποι@@ 54276
μένων 54260
όδ@@ 54230
σχ@@ 54099
μαζί 53989
ίο 53932
Μετά 53880
τορ@@ 53850
ριστ@@ 53837
ώσεις 53552
έως 53514
επικ@@ 53510
π 53499
ικούς 53424
όμεν@@ 53423
Γερμαν@@ 53112
Ρω@@ 52990
μένες 52969
ήλ@@ 52954
Με 52943
αναγ@@ 52849
εκδ@@ 52848
βολ@@ 52443
ηθ@@ 52416
τικών 52248
βά@@ 52195
4@@ 52187
έδ@@ 52124
πρόσ@@ 52028
2@@ 51883
μή 51872
πως 51819
Παν@@ 51811
οτ@@ 51739
Εκ@@ 51572
άφ@@ 51539
ην@@ 51463
17@@ 51449
αλλ@@ 51414
ησαν 51400
6 51353
1@@ 51317
ούσε 51205
νέ@@ 51107
λά@@ 51039
16@@ 50944
περίπου 50924
C@@ 50765
βρίσκεται 50765
ίδια 50756
μεγάλ@@ 50458
όμως 50434
ανδ@@ 50377
τας 50059
Αλ@@ 50058
δευ@@ 49973
αντί@@ 49946
χρον@@ 49933
ίδα 49931
αριθμ@@ 49894
τές 49818
κλη@@ 49775
ραν@@ 49756
ησης 49714
έβ@@ 49559
Καρ@@ 49548
φιλ@@ 49462
ητής 49251
ισμός 49199
κα 49196
ώ 49098
ανακ@@ 48998
ότερ@@ 48980
ζ 48965
Θε@@ 48692
P@@ 48691
Κύ@@ 48688
στά@@ 48617
φορ@@ 48514
χω@@ 48291
Πρω@@ 48215
M@@ 48144
ιρ@@ 48132
ντ 47957
ώσ@@ 47873
βο@@ 47842
15@@ 47802
Αρ@@ 47704
ξι@@ 47634
ναν 47584
έλαβε 47493
L@@ 47447
ύγ@@ 47429
Συ@@ 47375
όνομα 47310
αργότερα 47169
έας 47116
ημερ@@ 47111
ισχ@@ 47108
Στο 47014
οργαν@@ 46868
τότε 46858
τής 46755
ατρ@@ 46589
πρώ@@ 46503
κάθε 46398
ήν@@ 46382
ικοί 46366
Τσ@@ 46271
Κατά 46261
στη@@ 46174
ανά@@ 45860
Δημ@@ 45663
ισμού 45527
λεγ@@ 45317
μέσα 45206
τικός 45140
D@@ 44857
είν@@ 44799
εμφαν@@ 44789
μακ@@ 44759
στρα@@ 44736
Βι@@ 44696
ιδι@@ 44532
Επ@@ 44322
ιακ@@ 44305
μένος 44296
7 44295
E@@ 44280
αναπ@@ 44269
ονταν 44246
&#93; 44168
συμ@@ 44161
ήσ@@ 44132
ασία 43965
Μά@@ 43908
8 43792
ιτ@@ 43778
κατασκευ@@ 43773
λί@@ 43667
&#91; 43581
τηση 43542
άμ@@ 43499
ύλ@@ 43492
μένου 43450
πλη@@ 43446
τηκαν 43420
R@@ 43378
5@@ 43372
F@@ 43290
δί@@ 43264
σχε@@ 43221
ίζει 43141
διο 43105
ρά 43056
καταστ@@ 43046
Τον 42999
G@@ 42998
Είναι 42991
N@@ 42978
ειο 42966
αυτοκ@@ 42943
10 42905
παί@@ 42881
σει 42864
διαφ@@ 42838
ιερ@@ 42810
κορ@@ 42725
Σε 42720
Ου@@ 42637
Γου@@ 42579
πρώτο 42545
14@@ 42475
H@@ 42423
T@@ 42422
Επι@@ 42384
τών 42349
B@@ 42323
άνει 42319
αξι@@ 42114
κομ@@ 41991
αποφ@@ 41955
ώσει 41918
λόγω 41870
ογραφ@@ 41819
χή 41698
ύν@@ 41508
ασε 41493
ωπ@@ 41426
ωνία 41203
13@@ 41151
τικού 41145
Απ@@ 41134
πριν 41130
ροφ@@ 41112
Γεν@@ 41105
Εθν@@ 41096
χώ@@ 41058
σε@@ 41001
ηθεί 40940
υ 40900
υπό 40854
ταινία 40792
μόν@@ 40746
κυρίως 40709
Άν@@ 40708
φω@@ 40707
σειρά 40700
τυχ@@ 40661
σφ@@ 40573
οξ@@ 40540
ήθηκαν 40527
διασ@@ 40421
περί@@ 40411
που@@ 40380
καρ@@ 40335
Την 40328
αση 40279
ήμ@@ 40144
αρκ@@ 40033
ότητες 40020
A@@ 39999
συνέχεια 39890
κας 39690
παι@@ 39680
σταση 39670
πί@@ 39659
Καλ@@ 39633
ταν@@ 39512
ιζ@@ 39441
ακή 39405
κρι@@ 39280
εων 39250
9 39123
ιος 39108
βαθμ@@ 39088
ξης 38967
πολλ@@ 38931
ϊκ@@ 38866
6@@ 38688
ετών 38648
πλέον 38638
Σύ@@ 38599
ίσει 38592
Για 38565
ωγ@@ 38557
ούνται 38520
ιστορ@@ 38494
ότη@@ 38442
ιών 38429
δυν@@ 38395
πάνω 38375
ιδρ@@ 38214
λειτουργ@@ 38194
Υπ@@ 38028
απε@@ 38027
υφ@@ 37772
έργο 37768
ψηφ@@ 37759
άβ@@ 37701
ειες 37654
ύ 37651
αιτ@@ 37629
Αρχ@@ 37610
δήμ@@ 37563
φορές 37477
μιας 37462
τρο 37434
δρο@@ 37399
γιος 37338
διά@@ 37323
πατ@@ 37306
κυβ@@ 37277
μν@@ 37224
ψε 37220
έξ@@ 37211
είδ@@ 37209
θυν@@ 37151
20 37144
περιλαμβ@@ 37098
αερ@@ 37001
9@@ 36950
λευ@@ 36884
ψει 36870
οικονομ@@ 36819
δικ@@ 36815
παλ@@ 36808
γλ@@ 36807
Ελλάδα 36776
ταγ@@ 36772
υπέ@@ 36750
Εν@@ 36740
ζω@@ 36684
10@@ 36674
ρι 36632
έρας 36593
τρί@@ 36482
ριν@@ 36379
λόγ@@ 36377
πει@@ 36360
Στη 36319
αναφ@@ 36269
θρ@@ 36187
ερν@@ 36116
ούμεν@@ 36089
2011 36074
κος 36065
ομάδες 36042
ιγ@@ 36034
τιμ@@ 35979
ταν 35945
ισμ@@ 35912
κρά@@ 35890
ιν 35889
Ελλην@@ 35848
ωσης 35783
ώματα 35765
χωριό 35736
τροπ@@ 35728
Ήταν 35703
άζεται 35690
τρο@@ 35568
αία 35554
απλ@@ 35380
εμ@@ 35299
Λου@@ 35298
φαν@@ 35243
σήμερα 35175
θη 35085
υχ@@ 35029
7@@ 34951
χωρίς 34800
ρυ@@ 34781
επιτυχ@@ 34769
κολ@@ 34750
ότερο 34722
ολογία 34717
Ιταλ@@ 34711
σχολ@@ 34609
12 34554
εμπ@@ 34536
τρα@@ 34531
ερι@@ 34504
χν@@ 34460
ύρ@@ 34382
όλα 34314
από@@ 34311
μαχ@@ 34299
γαλλ@@ 34297
βασιλ@@ 34267
ωρ@@ 34222
προσωπ@@ 34207
s 34196
σκην@@ 34162
δίν@@ 34056
γαρ@@ 33998
τια 33920
πά@@ 33867
μονα@@ 33815
υπουργ@@ 33789
Δήμ@@ 33775
ηματ@@ 33772
δέ@@ 33724
πον@@ 33708
ρη@@ 33659
σμό 33657
ρύ@@ 33618
ταλ@@ 33592
αυτά 33584
ουσία 33544
ρίου 33540
πυ@@ 33526
όμενη 33514
Κ 33501
υπερ@@ 33498
τολ@@ 33441
αξ@@ 33418
άσεις 33403
ίγ@@ 33356
διάφορ@@ 33294
Ιωάν@@ 33208
προστ@@ 33192
συνεχ@@ 33186
Πρ@@ 33184
15 33174
διοικ@@ 33111
Γ 33098
τιο 33066
ίδιο 32993
φυλ@@ 32983
Ανα@@ 32949
ΐ@@ 32947
όμενο 32899
Ε 32896
αίν@@ 32757
μου 32692
σύμφωνα 32641
8@@ 32630
νες 32590
γνωστ@@ 32566
Επίσης 32512
όμε@@ 32510
ρου@@ 32492
μέσω 32471
μέσ@@ 32443
ξει 32372
ώρ@@ 32334
Σύμφωνα 32317
μεγάλη 32315
ραγ@@ 32300
Ερ@@ 32259
φυ@@ 32222
O@@ 32219
αποτέλεσμα 32203
τηγ@@ 32189
12@@ 32169
πληθυσμ@@ 32116
διάσ@@ 32103
I@@ 32064
επο@@ 32053
ίκη 32021
οργάν@@ 31993
εταιρ@@ 31984
έμ@@ 31951
κίν@@ 31870
ήχ@@ 31839
y 31837
επιστη@@ 31836
μέλος 31827
Ιν@@ 31773
πόλης 31744
πιθαν@@ 31726
άζει 31683
μο@@ 31679
εποχή 31665
_ 31621
σχέ@@ 31599
αρι@@ 31585
ουσα 31482
τευ@@ 31482
ιστορία 31470
ήσουν 31465
Ευ@@ 31441
φυσ@@ 31432
όσο 31429
έτσι 31413
λιο 31385
χώρ@@ 31350
κω@@ 31263
πολλές 31248
Κυ@@ 31234
πο 31226
πόλε@@ 31221
χθηκε 31202
τμήμα 31186
σο@@ 31100
Δημοκρατ@@ 31041
έργ@@ 30969
χ 30947
Περ@@ 30935
Περι@@ 30925
άσει 30911
τός 30873
σή 30867
χωρι@@ 30854
λαβ@@ 30826
Λι@@ 30816
εκλογές 30803
ολόγ@@ 30763
μό@@ 30757
θε 30748
στοιχεία 30743
καλύ@@ 30698
είες 30663
ραβ@@ 30614
άπ@@ 30607
επαν@@ 30594
ασκ@@ 30587
αίνει 30571
αχ@@ 30534
έστ@@ 30520
δρά@@ 30493
ορά 30381
εύτηκε 30365
Αφ@@ 30333
βιβλ@@ 30316
πος 30313
ούσαν 30302
Κοιν@@ 30281
συνεργ@@ 30255
έκανε 30252
ανά 30243
άμε@@ 30226
λίγ@@ 30167
επί@@ 30149
τρεις 30134
ηματο@@ 30124
ράφ@@ 30116
άλλα 30079
ανθρ@@ 30005
επαρχ@@ 29954
αρχές 29943
Απο@@ 29937
περισσότερ@@ 29927
π.Χ. 29869
αναφέρεται 29811
όλο 29768
ιπ@@ 29658
ώπ@@ 29631
ουρ@@ 29624
ωμα 29615
30 29564
Παλ@@ 29551
τέλος 29545
πρωταθλ@@ 29472
ταρ@@ 29470
θούν 29467
γραψε 29426
ψήφ@@ 29412
χής 29364
χώρα 29296
καν 29216
Ωστόσο 29082
ταιν@@ 29079
επί 29071
χαρ@@ 29058
τηλε@@ 29055
λο 29043
ηκε 28960
τημα 28949
= 28946
θεωρ@@ 28933
ορισ@@ 28932
κοντά 28920
φερ@@ 28910
έμου 28907
μό 28883
ισε 28880
πορ@@ 28872
υπηρε@@ 28869
μος 28839
έμβ@@ 28804
ωνίας 28773
αποτελεί 28757
ματική 28718
τίτλο 28685
εντρ@@ 28631
τυπ@@ 28631
πολλά 28615
Πέ@@ 28599
χει@@ 28588
θησε 28563
εφαλ@@ 28530
εχ@@ 28492
κι 28455
τόσο 28442
σιο 28436
άρι@@ 28410
έζ@@ 28373
στρατιω@@ 28366
Ντ@@ 28359
αδελφ@@ 28344
θέσεις 28309
δύ@@ 28303
άδες 28225
άλλες 28223
τρα 28219
Νικ@@ 28209
Ελ@@ 28197
ώνει 28184
αϊ@@ 28127
ηλικία 28083
πηγ@@ 28083
έδρα 28077
κάπο@@ 28050
μυ@@ 28042
συγ@@ 28020
νέα 28007
11 27991
διατ@@ 27990
όβ@@ 27981
ξεκίνησε 27962
εκατο@@ 27922
πλο@@ 27915
21 27914
υψηλ@@ 27910
κε 27879
άδα 27877
Δ 27850
14 27845
πολη 27832
16 27830
ειρ@@ 27784
τραγούδ@@ 27782
ευρ@@ 27771
ούλιο 27755
ύθηκε 27741
χαρακτηριστ@@ 27691
Ηνω@@ 27654
Έλλην@@ 27652
ηδ@@ 27648
άλι 27586
ιση 27578
The 27563
τιν@@ 27555
ραση 27547
σκοπ@@ 27535
ητή 27519
άλυ@@ 27483
Γαλλ@@ 27455
εσ@@ 27436
ταυ@@ 27404
ρική 27403
ζωή 27384
υπάρχει 27375
άνουν 27370
τούν 27322
ελ 27273
πλευ@@ 27235
άριο 27230
ηλε@@ 27212
συγκεκρι@@ 27175
πους 27138
ιάς 27134
μητ@@ 27134
ειν@@ 27077
εκ 27031
τελευτα@@ 27020
ίνα 27014
Οικ@@ 27011
Γεω@@ 27003
βαρ@@ 26984
ακό 26980
18 26978
νας 26948
βρίσκ@@ 26934
πρωτάθλημα 26901
μαρ@@ 26898
ανο@@ 26883
θεια 26834
θήκη 26799
κόρη 26796
ξεις 26784
κυκλ@@ 26755
μεγάλο 26755
όδου 26748
μές 26718
2010 26711
Χρ@@ 26697
κατοίκους 26668
όπουλ@@ 26646
Σου@@ 26611
δολ@@ 26610
αγγελ@@ 26552
προσπά@@ 26551
όρος 26544
ώστε 26532
έργα 26522
τηρ@@ 26514
επίσ@@ 26470
συμφ@@ 26459
κρατ@@ 26453
μέρ@@ 26442
χρήση 26425
στερ@@ 26384
κερ@@ 26346
Ένω@@ 26322
διεξ@@ 26316
άλογ@@ 26278
νόμ@@ 26248
κάποι@@ 26232
όρεια 26230
ούργ@@ 26219
οδηγ@@ 26218
ανδρ@@ 26195
μέλη 26188
V@@ 26177
ητές 26174
Ιουλίου 26156
άντα 26128
W@@ 26109
Αυγούστου 26075
σμού 26036
παράγ@@ 26022
λει@@ 26011
μεσ@@ 26011
ούλ@@ 25999
κι@@ 25998
σώ@@ 25973
25 25971
ιστο@@ 25965
ανατολ@@ 25915
ελλ@@ 25898
of 25873
ελέγ@@ 25823
δέχ@@ 25809
τελε@@ 25801
Μα@@ 25799
o 25770
Μπο@@ 25762
13 25710
Μον@@ 25684
θος 25671
λος 25662
Μαρτίου 25622
Εθνική 25603
χρόνο 25603
οιν@@ 25598
όλη 25551
ιχ@@ 25527
ότερη 25524
κο 25506
βάλλ@@ 25500
17 25479
μπορού@@ 25469
β 25463
εμπο@@ 25442
όνα 25434
αυτές 25426
Εξ@@ 25404
χο 25374
ξ 25358
αφού 25329
μέτρ@@ 25327
οθε@@ 25305
ρατ@@ 25293
γεω@@ 25288
υπάρχουν 25278
διεθν@@ 25243
ωτερ@@ 25225
κάτο@@ 25208
υπήρ@@ 25208
Σεπτεμβρίου 25203
τοπο@@ 25201
φή 25192
παρουσι@@ 25185
Οκτωβρίου 25147
βάση 25141
εγκ@@ 25136
συνα@@ 25121
γραφή 25092
εκτός 25058
de 25043
ακόμη 25028
τελικά 24965
formula 24962
νά@@ 24960
μιο 24951
ρακ@@ 24927
’ 24904
ιώ@@ 24901
Ιουνίου 24864
Στα 24825
θ 24824
συμμετο@@ 24816
οποίες 24812
είτε 24790
Μαΐου 24788
συνολ@@ 24771
γύρω 24753
ώρα 24742
Αγγλ@@ 24700
πν@@ 24679
ριστιαν@@ 24677
περιοχές 24658
Όταν 24636
Ιανουαρίου 24608
ποταμ@@ 24580
Μουσ@@ 24567
εικ@@ 24550
τέσσ@@ 24541
ντ@@ 24533
άρκ@@ 24495
σύστημα 24488
ειλ@@ 24447
ρή@@ 24445
σκευ@@ 24423
γον@@ 24416
τοποθε@@ 24384
δεύτερη 24375
Ομ@@ 24345
τούς 24334
ις 24329
ύτερ@@ 24326
σχηματ@@ 24311
πρέπει 24305
γνω@@ 24300
φά@@ 24277
διαφορε@@ 24270
μετ@@ 24259
ράς 24255
θεω@@ 24252
στατ@@ 24244
παλαι@@ 24230
τεί 24222
μηχαν@@ 24195
έμεινε 24169
αύ@@ 24157
ώργ@@ 24145
συχνά 24140
Απριλίου 24132
κοσμ@@ 24128
ακόμα 24117
σεζόν 24108
νερ@@ 24057
κου@@ 24011
ομάδας 23971
αρμ@@ 23963
παραγωγ@@ 23942
είων 23940
οδο 23920
μεγαλύτερ@@ 23905
οπλ@@ 23899
επιστ@@ 23897
τερ 23875
κατάσταση 23866
αιν@@ 23860
κει@@ 23848
μάν@@ 23848
αγγλ@@ 23802
Ί@@ 23800
ανεξ@@ 23791
εδρ@@ 23789
κυβέρνηση 23773
δρόμ@@ 23754
πραγματοποι@@ 23744
μετά@@ 23730
καλύτερ@@ 23727
αυτο@@ 23721
θερ@@ 23707
μορφή 23687
Ανατολ@@ 23674
ότια 23670
αρχικά 23646
Αυτό 23641
τό 23641
οσφ@@ 23637
ερα 23631
Αγίου 23628
χε 23606
τέλε@@ 23574
ορο@@ 23555
0 23551
Νοεμβρίου 23505
ταξ@@ 23502
κλει@@ 23489
Κατ@@ 23485
ζή@@ 23479
τελευταία 23460
ταχ@@ 23435
Παγκόσ@@ 23427
K@@ 23417
μην@@ 23387
βρα@@ 23370
εκεί 23361
προβλ@@ 23350
βαν@@ 23317
Ιστορία 23314
σμός 23313
Ισ@@ 23291
ασίας 23268
ρη 23258
s@@ 23254
Αργ@@ 23249
ριση 23243
ίνο 23238
ντε 23227
οικογέν@@ 23208
δία 23199
ουμε 23167
δού@@ 23153
ολο 23144
Κορ@@ 23141
νησ@@ 23140
νήθηκε 23111
φύ@@ 23108
όρι@@ 23107
ταγων@@ 23105
δημο@@ 23093
κυρι@@ 23092
γυναίκ@@ 23072
ωματ@@ 23066
19 23042
τή@@ 23025
συλλ@@ 23020
Αθήνα 23016
έρον@@ 23011
εναντίον 23008
ίζ@@ 22994
κρί@@ 22983
ονομασία 22981
στρ@@ 22977
άλλων 22971
γερμαν@@ 22944
ωνα 22938
πρώην 22900
συγγραφ@@ 22889
δείχ@@ 22872
2012 22855
σεων 22840
προηγ@@ 22783
er 22765
περιοδ@@ 22759
a 22750
κοινότητα 22748
Ξ@@ 22734
δηλ@@ 22720
πολυ@@ 22705
όλου 22692
A 22678
οφορ@@ 22652
γέν@@ 22639
χεί@@ 22631
χος 22623
τω 22605
βραβ@@ 22597
αγώνες 22593
υψ@@ 22585
όχι 22565
δημοσι@@ 22560
ώνες 22560
οίκ@@ 22544
αναφέρ@@ 22531
σχετικά 22506
μάχ@@ 22488
Σο@@ 22480
Βρεταν@@ 22458
επίπεδ@@ 22444
βί@@ 22440
ογράφ@@ 22432
οχή 22417
κοινων@@ 22401
γλώσσα 22365
ήρω@@ 22343
εκκλη@@ 22326
Έχει 22317
θήκ@@ 22299
δηλαδή 22298
έδωσε 22282
αναλ@@ 22275
λάβ@@ 22270
αλλαγ@@ 22264
συνήθως 22238
κέντρο 22222
ήλ 22212
Βουλ@@ 22191
Δεκεμβρίου 22191
on 22189
Μεγάλ@@ 22161
δα 22160
πήρε 22153
ρία 22120
κεντρ@@ 22114
μελ@@ 22114
κατηγορ@@ 22106
πραγματ@@ 22106
us 22081
σω@@ 22073
τρία 22059
άρι 22055
2009 22051
βασιλιά 22044
ιού 22027
Βασιλ@@ 22020
άλληλ@@ 22010
επισκ@@ 21967
gt 21951
αρχι@@ 21937
ξε@@ 21923
ανάπτυ@@ 21904
2008 21901
ησι@@ 21895
γιο 21877
βιβ@@ 21871
ρόλο 21851
μη@@ 21845
θεν@@ 21834
Σερ@@ 21806
50 21783
σας 21782
ίδρυ@@ 21747
μέρα 21730
2014 21707
ιστική 21672
Μπρ@@ 21667
ενεργ@@ 21644
λεπ@@ 21644
πρώτος 21642
000 21640
μπορούν 21638
Ολυμπιακ@@ 21628
σύζυγ@@ 21625
σημεριν@@ 21610
παιχν@@ 21606
ίδες 21595
λαμβ@@ 21589
ιλι@@ 21564
καταλ@@ 21547
Κόμ@@ 21544
μάχη 21537
ώνεται 21537
πού@@ 21535
μέτρα 21533
όνο 21526
Σχολ@@ 21525
ικαν@@ 21518
22 21512
ότε 21507
αυξ@@ 21493
νησι@@ 21493
C 21462
Αυτοκρα@@ 21456
Βασίλ@@ 21455
σπουδ@@ 21425
Ορ@@ 21415
πολιτι@@ 21410
υζαντιν@@ 21400
ητική 21383
μικ@@ 21383
24 21372
οδος 21372
άχ@@ 21366
μυθ@@ 21351
1.@@ 21347
σμα 21342
lt 21339
Φεβρουαρίου 21335
νι@@ 21335
κατηγορία 21334
στολ@@ 21331
θησαν 21318
πόλ@@ 21316
άλλη 21276
2015 21272
αγωγ@@ 21263
φόρ@@ 21263
ρού 21260
αρχαι@@ 21234
οί@@ 21232
Βαλ@@ 21213
πεδ@@ 21209
νό@@ 21167
σίες 21158
2013 21145
σον 21136
μένοι 21126
ίνη 21120
19@@ 21116
γε@@ 21116
τοκ@@ 21109
διδ@@ 21095
έλευ@@ 21083
ζε 21067
μεγαλύτερο 21066
τικούς 21054
θερμ@@ 21034
γεννήθηκε 21019
γρ@@ 21019
Του@@ 21017
χρόν@@ 21017
-@@ 21009
δομ@@ 21003
μορφ@@ 21003
άνω 20961
μαϊκ@@ 20955
Μάρ@@ 20936
τέλη 20922
Βιογραφία 20915
έλλ@@ 20902
d 20895
βιε@@ 20895
δυνατ@@ 20889
άλμπουμ 20885
καλλι@@ 20859
ίκης 20848
Σ 20835
οθέ@@ 20834
ρίσ@@ 20804
ποδοσφαι@@ 20801
έρχεται 20794
αγώνα 20779
παντρ@@ 20700
γίνει 20692
Πλ@@ 20674
Ισπαν@@ 20673
λις 20661
βορ@@ 20657
στοιχ@@ 20651
τς 20647
συμμετ@@ 20632
βουλευ@@ 20629
ακολού@@ 20620
Θεσσαλον@@ 20612
an 20600
καρι@@ 20596
άρχισε 20565
γαλ@@ 20558
ισαν 20555
ουσι@@ 20544
ανάμεσα 20517
ροι 20512
τραγου@@ 20506
κυκλοφόρησε 20504
20@@ 20500
στικά 20494
i 20481
γεγονός 20472
δύνα@@ 20467
δραστηρι@@ 20444
κάτω 20419
οσπον@@ 20413
παιδιά 20404
Ως 20403
δεί@@ 20400
έτος 20394
Πανεπιστήμιο 20385
θρη@@ 20369
23 20352
μας 20342
2007 20336
ευση 20332
Στρ@@ 20300
στική 20299
εμφ@@ 20273
πρόεδρος 20263
μει@@ 20262
κέρδισε 20259
σύγχρον@@ 20258
μεγαλύτερη 20254
ιστεί 20247
αμπ@@ 20238
λεύθερ@@ 20226
γνώ@@ 20189
πρώτα 20163
Αν 20156
παρά@@ 20112
δοση 20082
2016 20079
υποστήρι@@ 20078
άρια 20058
δεύτερο 20046
θωμαν@@ 20045
δίσ@@ 20034
ίζονται 20029
πολιτική 20028
ΗΠΑ 20022
δυνα@@ 20019
χώρας 20008
γνωστή 19988
χρονιά 19968
όνομ@@ 19935
υπόλοι@@ 19933
τό@@ 19929
Αντι@@ 19872
σχεδόν 19868
δεκαετία 19842
αντικ@@ 19838
σταθμ@@ 19808
Ευρωπαϊκ@@ 19731
ρό@@ 19730
γυνα@@ 19712
ροφή 19695
τεκ@@ 19695
υπήρξε 19672
Παπ@@ 19671
Ελλάδας 19649
ϊ 19637
ιου@@ 19633
όλες 19591
γνωστό 19585
t 19583
άνδρ@@ 19575
in 19553
συμπεριλαμβ@@ 19527
σχέση 19523
Ιερ@@ 19519
φρά@@ 19517
ιδιαίτερα 19508
Μέ@@ 19502
πολί@@ 19487
ρεψε 19486
ικότητα 19482
Κου@@ 19476
αίσ@@ 19447
χώρες 19428
δική 19424
λευθερ@@ 19421
τεύ@@ 19416
περιοχής 19404
Έτσι 19401
λυ@@ 19395
2006 19390
Βεν@@ 19373
28 19361
ανήκ@@ 19336
σκι 19332
πέντε 19311
επειδή 19305
κον@@ 19304
ίζουν 19297
χορ@@ 19292
Μακεδ@@ 19270
ην 19262
γραμμα 19260
Πολιτ@@ 19259
ώδ@@ 19236
e 19234
συλλογ@@ 19229
ανατολικά 19222
χωρ@@ 19221
δρα@@ 19211
the 19192
o@@ 19171
διευ@@ 19162
κατοικ@@ 19158
ωλ@@ 19122
επίσημ@@ 19120
ομηχαν@@ 19117
μέρες 19101
πολεμ@@ 19096
καδημ@@ 19080
ίδι 19078
έφερε 19073
ρισης 19068
συμπ@@ 19067
ζεται 19065
οποίοι 19050
τρια 19046
Αλεξ@@ 19033
δίας 18993
άμεις 18976
διπλ@@ 18956
Πο@@ 18913
δεδο@@ 18913
ρασε 18905
πιστ@@ 18893
λλογ@@ 18892
μένης 18887
οδήγ@@ 18871
φθ@@ 18868
περισσότερο 18845
Πρό@@ 18840
τάν@@ 18840
ίλι@@ 18782
υποστη@@ 18766
Φρ@@ 18764
ριβ@@ 18760
υπολογ@@ 18752
Φιλ@@ 18746
θάνατο 18719
ροφορ@@ 18698
εβί@@ 18687
χαρακτήρ@@ 18676
συστ@@ 18644
συμμετείχε 18642
κατο@@ 18633
26 18624
κόσμο 18613
κε@@ 18609
επέστ@@ 18576
πυρ@@ 18576
στεί 18570
λύ@@ 18568
ρισκ@@ 18563
ώθηκαν 18563
ίδιος 18560
τρόπο 18557
αντι 18556
ωθεί 18553
οκρατ@@ 18546
άλασ@@ 18545
φέρει 18543
2019 18538
οκα@@ 18533
Ευρώπη 18509
ζει 18509
πελλο 18507
άρα 18505
αντ 18503
δοκ@@ 18495
παραγωγή 18488
επισ@@ 18485
γίνεται 18471
Κο@@ 18468
ίμ@@ 18465
ίνου 18421
ειακ@@ 18420
κάνει 18416
U@@ 18404
επιχειρ@@ 18387
ήσεων 18379
πληθυσμό 18367
φαλ@@ 18360
ξαν 18286
γράμ@@ 18282
διαθέ@@ 18274
αγγ@@ 18266
Κλ@@ 18249
εκείνη 18237
μμύρια 18229
ησ@@ 18228
τροφ@@ 18223
ημάτων 18213
ωστόσο 18205
πρωτεύ@@ 18204
ίδι@@ 18202
πίσ@@ 18197
αντιμετ@@ 18196
ρν@@ 18196
Λε@@ 18195
τορα 18189
χιλι@@ 18181
αγι@@ 18140
27 18131
τρου 18128
απογραφή 18103
σεν@@ 18102
δό@@ 18092
Αμερικαν@@ 18078
αισ@@ 18066
Στα@@ 18057
ενέργ@@ 18047
ήφ@@ 18041
εσωτερ@@ 18041
ατιν@@ 18040
ακολουθ@@ 18038
βιτς 18033
άνθρω@@ 18031
χλμ. 18022
καταγ@@ 18011
J@@ 18004
ειο@@ 18004
ηχ@@ 17979
πατέρα 17962
αϊκ@@ 17946
δος 17928
σωματ@@ 17928
φάν@@ 17921
κόσ@@ 17911
2017 17903
x 17901
ίζοντας 17898
χρησιμοποιείται 17885
ασχολ@@ 17865
μενα 17823
ξεκ@@ 17810
απέκ@@ 17797
40 17790
καταστά@@ 17765
νέο 17760
όλων 17749
2018 17733
λη 17731
άλλους 17730
ηρε@@ 17706
ολοκλη@@ 17687
μετρ@@ 17685
παράδειγμα 17684
μισ@@ 17680
νύ@@ 17678
έγι@@ 17677
ίδας 17674
θυ@@ 17671
χαμ@@ 17664
έκταση 17653
αρκετά 17653
ηθοποι@@ 17650
αγωγή 17646
Πόλε@@ 17638
ειών 17618
θμ@@ 17604
άτομα 17600
πέθανε 17594
ημι@@ 17588
λα 17588
οικογένεια 17575
ποι 17573
Κωνσταντ@@ 17551
Αθηνών 17550
ίστοιχ@@ 17550
χιλιόμετρα 17534
Γαλλία 17527
Μια 17510
ήθ@@ 17502
δρομ@@ 17479
φερε 17477
2004 17451
θεωρείται 17434
στασης 17420
άσκ@@ 17418
κοπ@@ 17404
ρυθμ@@ 17382
κη 17367
Κωνστ@@ 17307
Καλλ@@ 17280
2000 17276
αντιν@@ 17252
τήρ@@ 17215
τάθλημα 17212
ing 17163
al 17092
βασιλι@@ 16993
ατο@@ 16952
έδρ@@ 16928
29 16853
εκλογ@@ 16836
μ. 16823
Ω@@ 16821
ογραφία 16820
τίτ@@ 16758
ιω@@ 16740
2005 16551
amp 16311
ολο@@ 16262
Αμερ@@ 16258
ανή@@ 16217
ποδ@@ 16174
0.000 16147
ώνα 16147
g@@ 16142
αργ@@ 16119
y@@ 16109
θαν@@ 15986
συνέχ@@ 15969
&#124; 15932
S 15817
es 15774
θρω@@ 15739
2001 15726
τμή@@ 15713
p 15702
ρεί 15642
0@@ 15593
100 15585
n 15559
χαρακτη@@ 15507
περισσ@@ 15456
60 15450
π.@@ 15385
n@@ 15383
l 15377
p@@ 15327
Νο@@ 15260
ακολου@@ 15217
e@@ 15205
δεκαετ@@ 15163
υνα@@ 15129
δεύτερ@@ 15005
m@@ 14982
κόρ@@ 14980
γλώσ@@ 14925
Ιστο@@ 14865
· 14856
ϋ@@ 14724
31 14703
ραφ@@ 14544
2.@@ 14521
t@@ 14488
80 14437
ισσ@@ 14437
ηφ@@ 14422
I 14385
1990 14322
χλ@@ 14318
a@@ 14211
! 14191
is 14131
k 14105
2002 14057
παράδ@@ 14006
ρωπαϊκ@@ 13985
ρίσκ@@ 13876
P 13848
δεκα@@ 13836
2020 13821
2003 13749
r@@ 13735
θλ@@ 13723
and 13685
καλλ@@ 13611
... 13566
χειρ@@ 13546
Βασ@@ 13504
νώ@@ 13468
αγκόσ@@ 13434
1999 13389
70 13310
πραγ@@ 13307
ουλίου 13293
Μακ@@ 13267
k@@ 13234
c 13204
d@@ 13186
ογέν@@ 13167
et 13124
el 13073
c@@ 13026
κατοίκ@@ 12949
ταμ@@ 12894
en 12883
i@@ 12870
ξύ 12848
Ch@@ 12846
Τ 12820
έρν@@ 12795
στασ@@ 12778
ταση 12764
F 12752
1997 12701
χρή@@ 12699
D 12664
r 12654
όπο@@ 12467
επιστήμ@@ 12464
διαφορ@@ 12406
um 12334
Ή@@ 12237
ινε 12208
γρά@@ 12203
h@@ 12185
ia 12183
T 12172
on@@ 12120
τομα 11923
στή@@ 11920
90 11857
ούσ@@ 11851
όρε@@ 11845
L 11840
1998 11809
υργ@@ 11761
1,@@ 11748
μαζ@@ 11741
Ψ@@ 11732
1991 11725
m 11718
θή@@ 11710
Ιω@@ 11701
1980 11687
O 11653
δη@@ 11541
ματο@@ 11501
Χ. 11492
en@@ 11490
R 11485
1996 11473
Σεπ@@ 11468
l@@ 11436
v@@ 11411
b@@ 11384
ταθλ@@ 11363
Οκτ@@ 11339
.. 11334
ποδοσφ@@ 11320
M 11318
w@@ 11302
35 11295
.000 11292
er@@ 11288
h 11237
E 11232
τσι 11196
br 11172
0,@@ 11170
ήμερα 11133
σχεδ@@ 11126
in@@ 11096
Εί@@ 11080
Αυτοκ@@ 11073
ύρια 11068
f@@ 11050
έρχ@@ 11049
γίν@@ 11034
+ 10981
H 10976
1970 10947
Δεκ@@ 10944
Ιανου@@ 10886
an@@ 10875
z@@ 10802
Ι 10788
ειδή 10787
1992 10772
185@@ 10746
g 10691
2021 10690
λαβε 10684
1960 10664
γεγον@@ 10641
πρι@@ 10632
αποτέλε@@ 10625
3.@@ 10609
ούδ@@ 10609
τηγορ@@ 10589
1994 10483
1993 10451
or@@ 10418
B 10344
Ελλ@@ 10336
Αθη@@ 10333
ch@@ 10320
ar 10237
,@@ 10196
2,@@ 10196
γμα 10190
ομάδ@@ 10176
1995 10149
to 10122
ετα@@ 10102
ς@@ 10092
1989 10083
j@@ 10080
ur@@ 10072
ηλικ@@ 10048
at@@ 10042
ar@@ 10037
el@@ 10037
Al@@ 9954
Z@@ 9948
1974 9914
32 9902
° 9898
οφόρ@@ 9885
δελ@@ 9854
Ευρώπ@@ 9767
εδρος 9763
Ελλάδ@@ 9759
κέν@@ 9727
έπει 9719
500 9667
200 9610
ic@@ 9584
u 9546
ρεταν@@ 9448
et@@ 9425
Y@@ 9416
είχ@@ 9416
at 9329
as@@ 9326
μορ@@ 9321
εω@@ 9286
Mar@@ 9267
184@@ 9236
ad@@ 9233
al@@ 9233
τραγ@@ 9218
χρησιμ@@ 9215
x@@ 9186
1940 9169
γ 9169
τουργ@@ 9121
or 9102
λεύ@@ 9084
st@@ 9076
συχν@@ 9059
ac@@ 8955
ουλευ@@ 8875
it@@ 8868
5.@@ 8815
ation 8789
St@@ 8738
διά 8723
ιδιαίτερ@@ 8671
N 8632
th@@ 8622
1981 8610
z 8568
ag@@ 8555
γρα@@ 8555
25@@ 8521
ed 8511
33 8502
In@@ 8501
1950 8498
λλο 8489
ul@@ 8476
Π 8473
σ 8435
συμμε@@ 8364
ot@@ 8357
αποτελε@@ 8352
36 8313
κέρ@@ 8263
θν@@ 8253
am@@ 8249
Φεβρου@@ 8193
34 8191
le 8186
179@@ 8178
X@@ 8141
1945 8098
1985 8076
180@@ 8068
μεγ@@ 8066
1944 8061
f 8039
Αθή@@ 7989
An@@ 7988
δελφ@@ 7948
ine 7933
av@@ 7902
1988 7894
1986 7863
75 7857
ay 7839
37 7833
es@@ 7825
V 7817
00 7814
la 7814
μμ@@ 7814
11@@ 7728
4.@@ 7708
1987 7701
Bo@@ 7614
li@@ 7603
Χ 7582
ol@@ 7546
45 7541
is@@ 7538
1920 7537
1975 7504
os 7496
1984 7494
le@@ 7476
1982 7474
38 7450
b 7449
3,@@ 7444
όμα 7416
im@@ 7409
τοιχ@@ 7381
Ar@@ 7377
1979 7334
w 7300
1967 7299
στημα 7279
om@@ 7275
μπου@@ 7248
εινε 7232
1941 7230
1912 7224
G 7220
έφερ@@ 7206
θω@@ 7187
” 7162
39 7150
De@@ 7115
Th@@ 7103
un@@ 7103
“ 7055
1978 7048
24@@ 7037
am 7035
στηρι@@ 7035
1983 7034
os@@ 7021
1973 6989
u@@ 6978
Ύ@@ 6976
1976 6937
as 6936
X 6922
1930 6916
ξεκίν@@ 6896
στε 6893
1977 6871
νών 6867
1971 6852
ers 6850
55 6789
1972 6771
1968 6767
1964 6731
ph@@ 6717
Tr@@ 6687
εκρι@@ 6682
65 6668
1961 6654
Έχ@@ 6648
Br@@ 6642
1939 6610
θανε 6605
δ 6603
30@@ 6588
ter 6556
ie 6548
85 6547
CH@@ 6526
U 6516
1963 6515
em@@ 6513
ab@@ 6482
tr@@ 6478
lo@@ 6468
μεγαλ@@ 6468
# 6415
00@@ 6373
Con@@ 6366
1943 6341
1969 6334
διαί@@ 6328
σειρ@@ 6326
ti@@ 6320
1946 6311
Re@@ 6297
6.@@ 6256
ri@@ 6241
To 6239
ad 6227
42 6224
έρνηση 6202
one 6197
64 6113
1965 6112
us@@ 6104
48 6073
αρκε@@ 6028
1918 6018
08 5999
300 5999
son 5993
όλε@@ 5992
Λ 5988
οργ@@ 5980
1966 5971
Com@@ 5957
ard 5956
Μ 5915
83 5911
συνήθ@@ 5895
re@@ 5884
Ν 5868
ωβ@@ 5853
ps 5848
1928 5841
47 5825
htt@@ 5810
88 5799
95 5794
52 5770
1947 5764
W 5762
72 5753
ησιμ@@ 5750
id@@ 5736
53 5717
il@@ 5713
26@@ 5687
54 5684
04 5675
71 5670
44 5649
1948 5641
1958 5639
ve 5635
ir@@ 5622
41 5612
1962 5609
ig@@ 5600
1956 5598
89 5597
4,@@ 5586
λεξ@@ 5576
86 5555
Sh@@ 5555
εκεί@@ 5555
66 5550
στήρι@@ 5544
28@@ 5536
κυρί@@ 5520
56 5483
od@@ 5481
78 5469
61 5452
58 5448
68 5426
43 5424
51 5424
1919 5415
Μεγ@@ 5414
Co@@ 5403
ρίς 5397
Mo@@ 5395
Sp@@ 5394
62 5385
ro@@ 5371
84 5360
1955 5359
ap@@ 5357
7.@@ 5348
1959 5327
07 5315
76 5310
82 5280
1942 5275
άτων 5273
Gr@@ 5267
— 5265
K 5262
87 5252
67 5248
46 5240
59 5220
ic 5216
74 5206
ref 5203
77 5201
1951 5199
1922 5176
81 5175
ak@@ 5160
1936 5155
ision 5152
He@@ 5141
Ολυμπ@@ 5139
1949 5117
69 5117
63 5098
επιστήμιο 5088
8.@@ 5073
der 5065
57 5062
1957 5061
1938 5033
qu@@ 5029
05 5017
99 5003
1952 4991
For@@ 4966
Pr@@ 4963
1924 4962
di@@ 4945
49 4943
Ζ 4932
di 4931
ut@@ 4926
1927 4915
92 4912
Car@@ 4912
09 4903
79 4896
400 4873
co@@ 4867
oc@@ 4859
01 4848
µ@@ 4845
Be@@ 4844
1953 4827
5,@@ 4824
ec@@ 4816
te 4813
1929 4794
1954 4789
27@@ 4775
73 4763
96 4760
ov@@ 4760
06 4755
τίου 4754
1935 4753
03 4740
θάνα@@ 4732
ent@@ 4720
ent 4715
ev@@ 4710
ch 4696
man 4696
02 4689
χολ@@ 4660
ed@@ 4659
97 4657
da 4646
it 4629
Le@@ 4608
1926 4607
άνα@@ 4593
ww@@ 4589
w.@@ 4586
98 4577
93 4562
ice 4537
1933 4518
-- 4504
29@@ 4499
um@@ 4496
1934 4478
πλέ@@ 4475
Pl@@ 4465
1937 4455
6,@@ 4446
op@@ 4443
ta 4441
0.@@ 4439
des 4439
7,@@ 4435
94 4435
po@@ 4432
1923 4419
ight 4412
Θεσσαλ@@ 4393
1932 4389
αρίου 4385
Ro@@ 4383
age 4378
υζ@@ 4361
Di@@ 4355
az@@ 4349
χαρακ@@ 4342
‘ 4331
ik@@ 4324
af@@ 4320
1917 4304
σύγ@@ 4290
au@@ 4288
Υ 4287
1925 4283
Mon@@ 4282
Ma@@ 4275
ate 4231
ϋ 4216
ανου@@ 4199
91 4194
Ex@@ 4192
de@@ 4188
na 4168
1914 4162
eg@@ 4158
ale 4155
περιοχ@@ 4148
ou@@ 4145
ton 4145
Eurov@@ 4140
og@@ 4133
th 4128
ἐ@@ 4128
8,@@ 4126
ill@@ 4093
II 4073
La 4072
all@@ 4056
πληθ@@ 4047
id 4040
v 4038
Αυγ@@ 4012
New 4005
9,@@ 4002
ver@@ 3979
1913 3978
1931 3978
ana 3973
Θ 3971
Ad@@ 3959
CO@@ 3942
κυκλοφόρ@@ 3938
Επίσ@@ 3926
ηχαν@@ 3926
9.@@ 3921
TV 3905
vi@@ 3903
ell 3893
ame 3884
Sch@@ 3877
J 3876
ζυγ@@ 3876
les 3859
si@@ 3856
ts 3854
ina 3853
Gu@@ 3847
ens 3846
se 3844
sh@@ 3835
Pe@@ 3823
Ευρ@@ 3819
1900 3818
Par@@ 3816
En@@ 3804
ὶ 3801
όπο 3790
Cl@@ 3780
Cr@@ 3771
εριν@@ 3743
ica 3734
150 3718
1921 3718
re 3716
Cor@@ 3713
eb@@ 3712
League 3690
ell@@ 3673
ne 3668
for 3667
ter@@ 3662
ous 3657
est 3646
é@@ 3645
Qu@@ 3637
ep@@ 3625
600 3614
to@@ 3613
ner 3599
ons 3599
σωτερ@@ 3592
120@@ 3582
Ne@@ 3578
1910 3565
ok@@ 3563
IS@@ 3556
Records 3551
ace 3549
all 3536
Or@@ 3527
Fre@@ 3523
πουδ@@ 3513
Bl@@ 3508
and@@ 3500
World 3487
ce 3484
ka 3476
ob@@ 3466
UN@@ 3463
il 3450
br@@ 3441
800 3440
Se@@ 3424
BBC 3422
od 3420
ati@@ 3419
single 3418
1915 3410
ho@@ 3396
un 3395
1908 3386
ge 3384
und@@ 3380
per@@ 3350
ant 3336
Col@@ 3333
von 3323
ni@@ 3312
* 3307
Ph@@ 3307
ae 3306
Po@@ 3304
Fo@@ 3300
Li@@ 3295
John 3285
κανε 3283
uc@@ 3280
our 3279
AS@@ 3277
ES@@ 3275
λαδ@@ 3275
ff@@ 3269
1916 3254
$ 3253
δισε 3247
? 3240
iss@@ 3238
ley 3215
mo@@ 3215
bi@@ 3206
bo@@ 3205
ἀ@@ 3203
1905 3202
ore 3187
You 3185
ber@@ 3182
Music 3166
ler 3166
ιουργ@@ 3163
Man@@ 3155
υσμ@@ 3149
Bar@@ 3139
Ac@@ 3134
Am@@ 3127
Eur@@ 3120
DNA 3115
tion 3115
é 3112
Her@@ 3102
Un@@ 3095
est@@ 3089
ack@@ 3080
• 3072
tic@@ 3061
1906 3055
ang@@ 3045
ot 3036
− 3036
do@@ 3032
align 3028
ass@@ 3028
CA@@ 3009
Q@@ 3003
El@@ 3000
ay@@ 2997
so@@ 2993
ance 2973
tro@@ 2966
Disney 2963
διάρκ@@ 2960
1904 2958
Windows 2951
ach@@ 2942
ail@@ 2935
FI@@ 2932
om 2931
Met@@ 2928
CD 2925
Mor@@ 2925
1911 2924
λίου 2924
ci@@ 2922
ver 2914
​ 2913
la@@ 2906
Str@@ 2901
NA 2898
gr@@ 2891
are 2890
ain 2889
ick 2888
1896 2882
he@@ 2875
Hol@@ 2865
1907 2864
Me@@ 2862
ra@@ 2859
Mag@@ 2857
name 2857
Mer@@ 2855
ue 2852
2022 2850
end@@ 2848
Per@@ 2840
Go@@ 2839
se@@ 2834
´ 2830
OS 2816
ly 2814
ol 2811
den 2801
1000 2798
art 2795
1909 2793
Gi@@ 2793
AR@@ 2787
πέν@@ 2782
υπάρχ@@ 2779
ence 2771
Gre@@ 2761
mar@@ 2759
ah@@ 2754
ano 2746
co 2743
Pol@@ 2733
Billboard 2732
ari@@ 2731
Ser@@ 2711
und 2707
style 2700
ground 2697
Ste@@ 2692
del 2670
tri@@ 2664
Φ 2664
SS 2663
1897 2661
Son@@ 2650
So@@ 2649
As@@ 2644
pl@@ 2643
ra 2643
RA@@ 2633
120 2632
700 2630
ῶ@@ 2628
III 2621
Ώ@@ 2608
ep 2607
Fi@@ 2598
ary 2598
iz@@ 2598
ë@@ 2597
50@@ 2593
ne@@ 2590
1903 2588
ure 2586
pr@@ 2580
ty 2578
ory 2571
200@@ 2569
ard@@ 2557
ήρε 2547
ite 2546
no@@ 2544
iv@@ 2533
BA 2519
1878 2516
ath@@ 2513
aw@@ 2513
1890 2497
ata 2496
Live 2491
CO 2488
ino 2478
ow@@ 2476
by 2475
Wh@@ 2467
sp@@ 2465
ey 2462
ity 2457
ire 2454
oy@@ 2450
ess 2449
αθμ@@ 2434
back@@ 2428
tor 2428
Black 2426
ans 2425
1899 2423
ini 2421
IV 2419
ok 2416
θλημα 2414
Ho@@ 2413
International 2412
Man 2401
par@@ 2401
eo 2399
Air@@ 2392
ise 2385
ah 2384
ai 2384
Si@@ 2383
der@@ 2382
23@@ 2381
Ci@@ 2380
Ver@@ 2378
1870 2370
ma 2365
ist@@ 2361
pop 2360
land 2355
250 2354
ma@@ 2350
Ρ 2350
́ 2349
1881 2345
Lo@@ 2343
Bur@@ 2326
anc@@ 2313
1902 2311
1880 2303
AT@@ 2299
Mot@@ 2298
do 2298
em 2295
sch@@ 2289
io 2286
st 2281
ea 2278
color 2272
ke 2272
ann@@ 2271
1895 2270
ing@@ 2263
Mas@@ 2254
ῆ@@ 2254
ta@@ 2253
Pro@@ 2248
We@@ 2246
ti 2245
Ber@@ 2241
era 2238
… 2236
ουνίου 2235
ug@@ 2228
Love 2224
Le 2221
be@@ 2221
pi@@ 2221
ks 2220
Har@@ 2218
124@@ 2203
Rock 2200
No 2198
ile 2192
ya 2190
lin@@ 2189
Ab@@ 2188
Ag@@ 2187
ναι 2185
1901 2184
ena 2184
ist 2182
{ 2179
ek@@ 2178
Ir@@ 2174
Top 2168
Pi@@ 2167
1,5 2163
Wil@@ 2160
á@@ 2159
Wal@@ 2156
pe@@ 2154
ak 2152
que 2152
yl@@ 2147
Me 2145
Mus@@ 2143
AN@@ 2136
Do@@ 2128
ie@@ 2128
Ben@@ 2127
cm 2120
1898 2118
te@@ 2118
The@@ 2116
Dr@@ 2112
ib@@ 2112
mm 2111
gen@@ 2108
NBA 2107
j 2106
inc@@ 2097
ran@@ 2095
ack 2091
War@@ 2090
All 2088
gi@@ 2088
cor@@ 2083
12,@@ 2072
Y 2068
mi@@ 2065
tu@@ 2060
Er@@ 2059
ess@@ 2057
NGC 2056
MS 2054
Times 2053
ca 2053
11,@@ 2036
One 2035
du 2030
atis@@ 2029
ζόν 2026
1889 2025
Te@@ 2022
To@@ 2021
ake 2016
Ang@@ 2012
Z 2010
van 2007
πολε@@ 2003
man@@ 1997
My 1992
hi@@ 1988
Jo@@ 1987
metal 1987
ek 1985
lu@@ 1984
ὸ@@ 1984
pp@@ 1981
ings 1973
pe 1973
1830 1970
Fr@@ 1968
tic 1968
WWE 1967
ade 1966
ys@@ 1966
ens@@ 1965
Mc@@ 1964
bl@@ 1964
we@@ 1963
1885 1961
su@@ 1959
au 1953
Studi@@ 1945
Saint 1940
1860 1937
ast 1936
oll@@ 1933
ker 1930
10,@@ 1929
ain@@ 1929
Play@@ 1926
DVD 1925
1848 1921
Nor@@ 1920
10.@@ 1919
Star 1919
ur 1916
right 1915
ome 1914
ῦ 1913
York 1906
Min@@ 1903
ane 1899
In 1898
DS 1897
180 1896
Char@@ 1896
US@@ 1895
ick@@ 1892
car@@ 1890
διαίτερ@@ 1888
AC 1886
² 1884
American 1883
ost 1883
Time 1876
za 1876
× 1875
ect 1874
ars 1872
mann 1870
ple 1868
40@@ 1863
1866 1856
Fl@@ 1849
Sal@@ 1849
me 1848
ali@@ 1847
Ge@@ 1846
It 1845
É@@ 1843
1894 1840
ir 1839
ors 1836
1879 1835
Cup 1828
cens@@ 1826
Q 1825
im 1820
De 1818
gu@@ 1816
ὐ@@ 1815
μεσα 1810
int@@ 1808
ud@@ 1806
Hot 1805
ac 1801
λευτα@@ 1801
BC 1799
ins 1795
} 1793
ῖ@@ 1793
ari 1787
1892 1783
School 1782
Res@@ 1781
­ 1781
National 1780
be 1776
Por@@ 1767
Val@@ 1767
BM@@ 1766
Lu@@ 1762
way 1760
ut 1756
Ed@@ 1753
if@@ 1752
port 1752
γύρ@@ 1752
ex@@ 1749
ong@@ 1746
1871 1744
Hall 1744
Inter@@ 1742
Microsoft 1742
ion 1741
ant@@ 1740
ge@@ 1734
ly@@ 1732
Dis@@ 1731
ill 1729
Cas@@ 1728
Net@@ 1728
ash 1728
ja 1725
900 1722
Tur@@ 1722
Chr@@ 1717
Kr@@ 1717
ā@@ 1716
ics 1714
1893 1713
1888 1710
Bre@@ 1710
Rom@@ 1708
Mat@@ 1704
top 1703
enti@@ 1701
Jean 1700
Super 1700
1884 1696
no 1694
110 1693
Gal@@ 1692
Lin@@ 1692
Cap@@ 1688
dr@@ 1685
ματοποι@@ 1685
ub@@ 1682
ὰ 1680
elle 1679
fac@@ 1679
ara 1675
end 1674
University 1673
out 1669
King 1668
Bal@@ 1667
Dar@@ 1665
TA 1665
11.@@ 1663
ni 1663
1867 1662
off 1660
CI@@ 1657
.com 1656
FIFA 1656
box 1656
No@@ 1655
mer@@ 1655
80@@ 1653
1886 1651
eh@@ 1649
ey@@ 1648
1891 1646
ˈ@@ 1644
ky 1641
Club 1640
1500 1638
Ros@@ 1635
1864 1634
Tri@@ 1632
ws 1630
€ 1629
ich@@ 1627
ang 1626
Pic@@ 1623
amb@@ 1623
1850 1621
Fe@@ 1618
Paul 1617
va 1616
ical 1615
Pal@@ 1613
Su@@ 1612
Tel@@ 1612
cre@@ 1611
res@@ 1608
1887 1605
com@@ 1605
λλην@@ 1605
ó@@ 1603
ich 1601
Sil@@ 1600
ass 1598
James 1594
1882 1593
ford 1590
ani 1588
Bro@@ 1587
David 1585
1883 1584
Life 1584
las 1584
FC 1582
ere 1580
met@@ 1580
William 1579
ette 1578
sa 1578
ou 1576
SA 1575
Reg@@ 1574
Ren@@ 1572
lo 1572
min@@ 1572
play 1571
Dre@@ 1569
str@@ 1569
App@@ 1568
Ger@@ 1563
annel 1563
ili@@ 1560
li 1557
At@@ 1553
ach 1552
1877 1551
Stu@@ 1551
ega 1551
ling 1545
RO@@ 1539
Au@@ 1538
yr@@ 1538
Sol@@ 1536
ations 1536
Vol@@ 1534
q@@ 1531
mer 1530
Fac@@ 1529
up@@ 1528
IN@@ 1522
q 1522
ko@@ 1520
Wor@@ 1519
Em@@ 1517
IC@@ 1517
Awards 1516
160 1512
1861 1509
Cre@@ 1509
Gar@@ 1509
ath 1509
1876 1508
ning 1506
ru@@ 1506
tro 1506
Pa@@ 1505
Fran@@ 1504
Bel@@ 1502
enn@@ 1497
ἰ@@ 1497
amm@@ 1495
Bor@@ 1490
Hor@@ 1489
1875 1488
line 1488
140 1487
ten 1487
1863 1484
Kar@@ 1484
ki 1484
130 1483
Company 1483
con@@ 1483
mon@@ 1483
Sk@@ 1482
oh@@ 1482
College 1481
House 1479
ST@@ 1474
1868 1472
Des@@ 1472
Hel@@ 1465
Robert 1464
ave 1462
me@@ 1459
Mad@@ 1455
igh@@ 1455
Bi@@ 1454
`@@ 1454
Radio 1453
Av@@ 1451
Pres@@ 1449
ski 1449
ike 1448
aus@@ 1446
ce@@ 1446
Cam@@ 1443
sc@@ 1442
ble 1441
Association 1439
ish 1438
Grand 1437
Es@@ 1436
Gir@@ 1433
ten@@ 1433
Michael 1431
els 1431
Can@@ 1426
bit 1426
ita 1426
1862 1425
1873 1425
berg 1424
City 1422
ung 1422
Air 1419
Hal@@ 1416
amp@@ 1415
aj@@ 1412
km 1412
ais 1411
Group 1410
1800 1409
eng@@ 1406
ment 1405
ind@@ 1403
Off@@ 1401
Tom@@ 1397
Cer@@ 1396
ef@@ 1395
per 1394
AC@@ 1393
ro 1393
1869 1392
inal 1390
UEFA 1387
its 1386
tor@@ 1386
12.@@ 1384
Is@@ 1383
DC 1380
ters 1380
with 1380
Pan@@ 1379
AI@@ 1378
adi@@ 1375
1872 1374
ama 1372
dice 1369
š@@ 1367
1865 1366
1874 1365
ish@@ 1365
ony 1364
oph@@ 1363
bu@@ 1362
ա@@ 1362
Na@@ 1361
ax@@ 1360
Entertainment 1359
ies 1356
Vi@@ 1354
kh@@ 1354
more 1354
als 1353
El 1352
my 1352
όμετρα 1352
Google 1351
350 1349
tra 1349
Cal@@ 1346
able 1346
ster 1345
ube 1345
Charles 1343
ff 1343
Ul@@ 1340
vel 1340
tes 1336
Mal@@ 1334
SE@@ 1334
My@@ 1333
San 1333
ord@@ 1332
Ri@@ 1331
Young 1329
fr@@ 1326
Royal 1325
own 1325
Red 1323
du@@ 1322
Wi@@ 1320
ella 1320
ger 1320
ler@@ 1320
± 1320
SA@@ 1316
ora 1316
ault 1311
ones 1309
Tor@@ 1307
ερμαν@@ 1302
101 1301
bert 1299
of@@ 1299
Sci@@ 1298
rest@@ 1298
ros@@ 1298
ba@@ 1295
Pri@@ 1294
ting 1294
ebo@@ 1293
yp@@ 1293
ille 1292
office 1290
ux 1290
Mi@@ 1287
BS 1285
dia 1285
cu@@ 1284
sen 1284
Ἀ@@ 1281
Maria 1280
tions 1280
Blo@@ 1276
ł@@ 1276
Je@@ 1271
tin 1271
ello 1270
pol@@ 1270
vil 1270
Gl@@ 1269
ital 1269
tw@@ 1263
You@@ 1261
met 1261
ister 1260
che 1259
wood 1259
35@@ 1258
ori@@ 1258
Im@@ 1253
Christ@@ 1248
ange 1247
ario 1245
όμη 1245
ry 1243
air@@ 1242
sk@@ 1242
ds 1240
ye 1239
AB@@ 1237
Sec@@ 1237
George 1234
ator 1234
tle 1232
District 1231
ales 1230
har@@ 1230
ola 1229
old 1227
Award 1226
Sam@@ 1225
Wol@@ 1224
ER@@ 1222
ada 1218
Bu@@ 1216
Mac@@ 1215
Mel@@ 1213
cr@@ 1213
Station 1212
à 1211
yn@@ 1210
ὲ 1210
→ 1208
Os@@ 1206
Sy@@ 1205
Sing@@ 1201
onn@@ 1201
Wat@@ 1200
ater 1200
Best 1199
char@@ 1198
ὴ@@ 1197
Mil@@ 1187
ier 1187
ball 1186
Big 1185
ειγμα 1185
ha 1184
for@@ 1182
ὸ 1182
dis@@ 1180
On 1179
Lit@@ 1178
RE@@ 1176
dy 1175
Super@@ 1174
CN 1173
Luc@@ 1171
arr@@ 1167
zo 1165
CD@@ 1164
eli@@ 1164
Ru@@ 1162
Uni@@ 1161
Op@@ 1160
ala 1160
ΠΑ 1160
Medi@@ 1158
aci@@ 1158
sion 1158
por@@ 1157
ΰ@@ 1157
Film 1154
ust 1150
del@@ 1148
AM@@ 1147
ero 1147
low 1147
Que@@ 1146
Del@@ 1145
Al 1144
Sw@@ 1144
dio 1144
the@@ 1143
tics 1143
ase 1142
Tour 1140
tures 1138
³ 1138
ö@@ 1138
oth@@ 1137
det@@ 1135
Blue 1132
ez 1131
ene 1129
MP@@ 1127
Vo@@ 1127
Park 1125
Elec@@ 1124
ve@@ 1124
ico 1123
Day 1122
Thomas 1122
ota 1122
ign 1121
Rus@@ 1120
Sc@@ 1120
ign@@ 1120
Gol@@ 1119
Sim@@ 1119
tel@@ 1119
ensis 1117
une 1116
IM@@ 1115
aur@@ 1115
ze 1115
COVID 1113
ong 1113
Sou@@ 1112
ab 1111
A. 1110
Sur@@ 1110
dro@@ 1110
33@@ 1108
AP@@ 1108
Football 1108
Hy@@ 1108
ki@@ 1106
col@@ 1104
mag@@ 1103
ber 1102
ets 1102
Martin 1099
elli 1097
oles 1096
Les 1094
λαδή 1093
Cro@@ 1092
ney 1091
sa@@ 1091
ith 1090
S.@@ 1085
ez@@ 1084
ici@@ 1084
Dig@@ 1082
Louis 1082
pha 1082
AS 1078
tur@@ 1078
ῦ@@ 1078
Ath@@ 1076
CA 1076
Richard 1076
SP@@ 1076
Win@@ 1076
Wo@@ 1075
Mich@@ 1072
Leg@@ 1071
Ra@@ 1070
London 1069
illa 1067
Nov@@ 1066
ä@@ 1065
ai@@ 1064
Bus@@ 1063
CE@@ 1063
Rec@@ 1063
cl@@ 1062
hi 1062
ken 1062
uk@@ 1061
Ter@@ 1060
Ur@@ 1060
Peter 1058
St 1058
ology 1055
~ 1055
Mis@@ 1054
General 1053
MA 1053
ime 1053
Show 1049
Geor@@ 1048
All@@ 1047
Sab@@ 1047
Lord 1046
ide 1046
off@@ 1044
Bas@@ 1042
Du@@ 1042
from 1042
ven@@ 1042
í@@ 1042
Mir@@ 1041
ider 1041
Ye@@ 1040
ym@@ 1040
на 1040
kg 1039
ko 1039
Tw@@ 1038
ever 1038
yc@@ 1038
fl@@ 1035
ier@@ 1034
EP 1033
sel@@ 1032
PS 1031
track 1030
Ti@@ 1029
A.@@ 1027
ha@@ 1027
gar@@ 1025
Mur@@ 1023
wid@@ 1022
val@@ 1021
FA 1020
ἔ@@ 1019
Blu@@ 1017
iller 1014
è@@ 1014
Ω 1014
201@@ 1013
Ni@@ 1013
Ty@@ 1013
ated 1013
rock 1013
Corpor@@ 1012
ser@@ 1012
Pin@@ 1011
ny 1011
Art 1010
rec@@ 1008
ury 1006
Don 1004
unt 1003
ée 1003
On@@ 1001
Ham@@ 998
ement 997
center 994
mi 994
ci 993
TC 990
US 988
oni@@ 988
ast@@ 985
bar@@ 985
ents 985
bel@@ 984
ona 984
up 984
iti@@ 983
ov 981
Vic@@ 980
so 980
tim@@ 980
ans@@ 979
Rol@@ 978
Cat@@ 977
Center 977
High 977
Ca@@ 976
int 976
tar@@ 976
Ear@@ 972
Die 971
Juli@@ 971
Street 971
ato 970
rit@@ 970
Bir@@ 969
lar@@ 969
stein 969
ates 965
ung@@ 963
Pre@@ 962
Lee 960
Camp@@ 959
â@@ 959
Joseph 958
endo 958
time 958
uz@@ 958
Gen@@ 957
Hon@@ 957
ond 956
Bri@@ 955
ian 953
La@@ 952
ture 952
inter@@ 950
ft 948
ura 948
Dev@@ 947
Journ@@ 947
Bask@@ 946
Ap@@ 945
Society 944
po 944
France 942
field 942
sol@@ 942
inn@@ 939
ison 939
ady 938
Hum@@ 937
til@@ 936
chi@@ 934
hy@@ 931
Chil@@ 930
Europe 928
ole 925
mas@@ 924
ock 924
ō@@ 924
ér@@ 923
Festival 922
anz@@ 922
Sum@@ 921
Media 920
wa 920
AD@@ 918
fer@@ 918
Jac@@ 917
Kon@@ 917
Trans@@ 917
die 917
dom@@ 917
eing 917
go 915
oni 915
si 913
rol@@ 912
stre@@ 912
ash@@ 911
bre@@ 911
wor@@ 909
Sho@@ 908
Soci@@ 908
ke@@ 907
Sar@@ 906
Andre@@ 903
Bul@@ 903
Nic@@ 903
Arts 902
lan@@ 902
στιαν@@ 902
Cur@@ 901
kin 900
ese 899
work 899
Cy@@ 897
Far@@ 897
Ke@@ 897
Paris 897
ection 897
peri@@ 897
Ferr@@ 896
Kil@@ 895
album 895
cur@@ 895
But@@ 894
Harr@@ 893
Vid@@ 892
White 892
cul@@ 892
itz 891
mp@@ 891
Champi@@ 890
ap 890
Sm@@ 889
bor@@ 889
vo 889
Bab@@ 888
Rot@@ 888
System 886
back 886
United 885
ece 885
aff@@ 884
Sa@@ 882
alis 882
orum 881
bat@@ 880
tel 879
ć 878
agen 876
ima 876
ports 874
att@@ 872
atus 871
Cir@@ 870
fication 870
use 868
lie 867
nh@@ 867
colspan 866
burg 865
lines 865
Bank 864
Mem@@ 864
wer@@ 863
Pu@@ 862
Vir@@ 861
Hu@@ 858
Phil@@ 858
iki 858
sing@@ 857
European 854
Kn@@ 854
ois 854
3000 853
vo@@ 853
\ 852
live 852
ati 851
PC 850
Aut@@ 848
her@@ 848
tain 848
ανάπ@@ 847
king 846
cas@@ 845
ik 845
ms 844
ng@@ 844
ör@@ 842
edi@@ 841
ii 841
pre@@ 841
tica 841
Pow@@ 840
Hill 839
Open 838
Tre@@ 838
Natur@@ 837
ado 837
omo 837
ative 836
zi@@ 835
č@@ 834
Laur@@ 833
anga 833
NE@@ 832
air 832
Sof@@ 830
ava 830
pel@@ 830
Est@@ 829
Oc@@ 829
West 829
cap@@ 829
op 829
Volks@@ 827
atr@@ 827
ante 826
Green 825
Fer@@ 824
Fin@@ 824
Lor@@ 824
Seg@@ 824
atur@@ 824
ines 824
yn 824
Pierre 823
Roc@@ 822
isi@@ 822
Stadi@@ 818
Dem@@ 817
reg@@ 817
Anth@@ 816
Ko@@ 815
pos@@ 815
serv@@ 815
ze@@ 815
sti@@ 814
Ban@@ 813
Gro@@ 813
eth 813
fi@@ 812
Ju@@ 811
San@@ 811
app@@ 811
Friedrich 810
Ob@@ 810
try 810
ville 810
Hot@@ 809
cus 809
Rob@@ 808
ays 808
cer@@ 807
ρωπα@@ 806
Marie 805
sy@@ 805
America 804
Mark 804
go@@ 804
bus 803
Cel@@ 802
Jones 802
nes 801
text 801
tis 801
Columb@@ 800
Oper@@ 797
Proj@@ 797
bour@@ 797
Il@@ 796
Feder@@ 795
Univers@@ 795
ond@@ 795
osa 795
Fri@@ 794
Liber@@ 794
Ven@@ 793
Boy@@ 792
well 792
р@@ 791
ō 790
hu@@ 789
left 789
Š@@ 786
С@@ 786
New@@ 784
eta 784
pu@@ 784
ἄ@@ 783
Ig@@ 782
su 781
Chi@@ 780
Mid@@ 779
ba 779
fo@@ 779
ji 779
Doc@@ 777
Pas@@ 777
SS@@ 777
Phili@@ 776
ein@@ 776
aux 775
fran@@ 775
Dom@@ 774
Tro@@ 774
ali 773
ista 773
fin@@ 772
Patr@@ 770
des@@ 769
і@@ 767
lam@@ 765
ys 765
vol@@ 764
chi 763
pen@@ 762
ster@@ 761
ts@@ 760
ida 759
ental 758
over 758
Cin@@ 757
can@@ 757
ern@@ 757
other 757
ὁ 757
low@@ 754
British 753
Ev@@ 753
Region 753
Deutsch@@ 751
ough 751
Spe@@ 750
art@@ 750
inger 750
Fil@@ 749
Plan@@ 749
ret@@ 749
amo@@ 747
ban@@ 747
Bat@@ 745
Santa 745
ham 745
ins@@ 745
ket 745
Liv@@ 744
Mary 744
ela 743
ito 742
ré@@ 741
ther 741
AP 740
ote 740
set 740
Sav@@ 739
ón 737
Clar@@ 736
Institute 736
occ@@ 736
Karl 735
unc@@ 733
ature 732
oman 732
je 731
Land@@ 730
rel@@ 730
mat@@ 729
Los 728
Mari@@ 728
Sun@@ 728
nik 727
May@@ 726
Max 725
ding 725
ira 725
Rem@@ 724
cole 723
For 722
fer 721
antas@@ 719
Lim@@ 718
enc@@ 718
ort 718
Hug@@ 717
dem@@ 717
war@@ 716
Il 715
Oli@@ 715
υπόλ@@ 715
CC@@ 714
net 714
This 713
VI@@ 712
Henry 711
anus 711
Mach@@ 709
Techn@@ 708
Haw@@ 707
ando 706
ele 705
ema 705
mb@@ 705
vir@@ 705
ium 704
lem@@ 704
nam@@ 704
Ann@@ 703
Nav@@ 703
atre 703
Sir 702
eter@@ 702
AG 701
Loc@@ 698
crip@@ 698
idae 698
ann 697
loc@@ 697
pro@@ 697
War 696
una 696
Ali@@ 695
ix 695
ome@@ 695
Med@@ 694
day 694
Produc@@ 693
iness 693
sur 693
err@@ 692
Star@@ 691
ei 691
oma 691
ful 690
row 690
Bern@@ 689
Jan@@ 689
aceae 689
ree 689
eme 688
we 688
Ly@@ 687
Mont@@ 687
log@@ 687
eci@@ 686
ee 686
mor@@ 686
ame@@ 685
lin 685
ψ 685
Ale@@ 684
Band 684
Bon@@ 684
das 684
Bay@@ 683
Tow@@ 683
video 683
Lar@@ 682
ku@@ 682
sen@@ 682
tron@@ 682
Bol@@ 681
anti@@ 681
bur@@ 681
Gra@@ 679
ius 679
Ram@@ 677
elec@@ 676
fre@@ 676
action 675
ax 675
εγον@@ 675
Hil@@ 674
az 674
Meg@@ 673
enne 673
ington 673
side 673
ὑ@@ 672
Edward 671
Smith 670
ean 670
ento 670
Island 669
Ern@@ 668
ats@@ 668
Not@@ 667
Whit@@ 667
£ 667
Beau@@ 666
Road 666
ø@@ 666
Bru@@ 665
ces@@ 665
Dec@@ 664
Dor@@ 664
let@@ 664
Οκτωβ@@ 664
Ak@@ 663
Mos@@ 663
Cul@@ 662
Kur@@ 662
ams 662
eld 661
aus 660
sche 660
Dav@@ 659
ais@@ 659
alm@@ 659
ox@@ 659
Mu@@ 658
earch 658
Great 657
ex 657
ür@@ 657
aga 656
light 656
ila 655
ü@@ 654
lor 653
│ 653
arch@@ 652
men@@ 652
á 652
Kh@@ 651
Tay@@ 651
σσαλ@@ 651
fa 650
view 650
ih@@ 649
lock 649
oug@@ 649
Arch@@ 648
Fal@@ 648
lis 648
tin@@ 648
zi 648
aro 647
fe@@ 647
ua 647
AM 646
Eng@@ 646
вич 646
Wilhelm 645
act 645
ç@@ 645
194@@ 644
arg@@ 643
aya 643
Tal@@ 642
Ot@@ 640
soci@@ 640
ny@@ 639
ope 639
Lud@@ 638
onia 638
Union 637
show 637
sub@@ 637
Hi@@ 636
VI 636
ami 636
fol@@ 636
Van 635
ck 635
pa 635
ats 633
bro@@ 633
len@@ 633
ère 633
Internet 632
cal 632
Song 631
ania 631
bas@@ 631
fa@@ 631
Coun@@ 630
ls 630
Mak@@ 629
kl@@ 629
ust@@ 628
estr@@ 627
ῷ 627
Johann 626
ao 626
ont 626
olog@@ 625
ual 624
dan 623
house 623
isa 623
son@@ 623
cy 622
mod@@ 622
ente 621
ights 621
tre 621
wig 621
wo 620
Ol@@ 619
ὺ@@ 619
Alexander 618
ains 618
ul 618
Han@@ 617
estra 617
State 616
put@@ 616
Cast@@ 615
oria 615
Championship 614
key 614
qui@@ 614
ὰ@@ 613
mus@@ 612
Rh@@ 611
less 611
Brown 610
Ind@@ 610
Wit@@ 610
urs 610
Joh@@ 609
Sand@@ 609
Si 609
Stand@@ 609
Christian 608
cal@@ 607
loy@@ 607
agr@@ 606
tan@@ 606
Albert 605
ally 605
aria 605
Ba@@ 604
Fel@@ 604
len 604
Astr@@ 603
Sel@@ 603
aki 603
bo 603
erry 602
ori 602
vent@@ 602
ends 601
ids 601
anger 600
ns 600
Tar@@ 599
ische 599
uv@@ 599
ὴ 599
Ori@@ 598
ager 598
ef 598
ald 597
ince 597
ula 597
ə@@ 597
Lou@@ 596
ems 596
North 595
ech 595
thr@@ 594
′ 594
abeth 592
cher 592
vers 592
ross 591
ution 591
P. 590
head 590
ī@@ 590
Mul@@ 589
gre@@ 589
aire 588
ett 588
ga 588
ism 588
rey 588
sil@@ 588
ὲ@@ 588
Division 587
Ha@@ 587
eck 587
kat@@ 587
men 587
Franc@@ 586
Gil@@ 586
Nar@@ 586
azine 586
Den@@ 585
sho@@ 585
wal@@ 585
ū@@ 585
ὅ@@ 585
yan 584
Bet@@ 583
Scott 583
West@@ 583
Kin@@ 582
alis@@ 582
mo 581
dition 580
Commun@@ 579
tre@@ 578
ted 577
Kor@@ 576
abri@@ 576
hr@@ 576
type 576
Mol@@ 575
ae@@ 575
ger@@ 575
Mit@@ 574
he 574
under@@ 573
Cu@@ 572
Rel@@ 571
her 571
ão 571
tu 570
ways 570
wi@@ 570
yth@@ 570
Fol@@ 569
South 569
Steph@@ 569
VII 569
attle 569
ech@@ 569
port@@ 569
ense 568
А@@ 568
Lev@@ 567
Museum 567
anim@@ 567
gl@@ 567
ova 567
Gold@@ 566
How@@ 566
Rod@@ 566
Sto@@ 566
ality 566
eri 566
eri@@ 566
Johnson 565
Prot@@ 565
ail 565
0,000 563
Pat@@ 563
uy@@ 563
ј@@ 563
GC 562
sal@@ 562
tal@@ 562
‎ 561
Gener@@ 560
hip 560
ћ 560
conom@@ 558
ges 558
tiv@@ 558
uch@@ 558
195@@ 557
cli@@ 557
mu@@ 557
leg@@ 556
lia 556
tice 556
yo 556
Shi@@ 555
model 555
win 555
ո@@ 555
inus 554
ods 554
olf 554
tive 554
Luf@@ 553
Team 553
IX 552
Pap@@ 552
ž@@ 552
tem@@ 551
Augus@@ 550
East 550
dic@@ 550
ld 550
oto 550
ums 550
Sub@@ 549
Ta@@ 549
Academy 548
Men@@ 548
dom 548
ost@@ 548
Squ@@ 547
Lang@@ 546
Reich@@ 546
ani@@ 546
lat@@ 546
press 546
wn 546
Williams 545
ob 545
ople 545
ր@@ 545
Atlan@@ 544
Cru@@ 544
fe 544
hard 544
let 544
Ἐ@@ 544
Hen@@ 543
Juni@@ 543
tors 543
uf@@ 543
Dol@@ 542
Pop@@ 542
Az@@ 541
Rog@@ 541
alb@@ 541
comp@@ 541
ides 541
web 541
р 540
As 539
Jack 539
ili 539
isti@@ 539
Brit@@ 538
Law@@ 538
ika 538
itu@@ 538
music 538
An 537
ush@@ 537
Prim@@ 536
^ 536
в@@ 536
Bil@@ 535
Vil@@ 535
Washington 535
ards 535
ness 535
ret 535
ask@@ 534
ear@@ 534
gio 534
ks@@ 534
Fut@@ 533
uke 532
Eu@@ 531
augh@@ 531
ein 531
sive 531
ô@@ 531
Do 530
ants 530
cle 530
Bos@@ 529
Lam@@ 529
Pon@@ 529
ason 528
mes 528
Arm@@ 526
She@@ 526
eus 526
tis@@ 526
uel 526
Don@@ 525
arm@@ 525
kar@@ 525
sky 525
Ϊ 525
Chicago 524
Frank 523
Nu@@ 523
ark@@ 523
istr@@ 523
tern 523
UK 522
con 522
iy@@ 522
pan@@ 522
Tun@@ 521
ban 521
tus 521
Aus@@ 520
Daniel 520
Ran@@ 520
oo 520
ser 520
н 519
Long 518
Prix 518
agu@@ 518
don 518
Mah@@ 517
Kenn@@ 516
ques 516
Vill@@ 515
iki@@ 515
mel@@ 515
tical 515
ωνστ@@ 515
Gh@@ 513
Kir@@ 513
Sen@@ 513
ᾶ@@ 513
First 512
Hans 512
elop@@ 512
Bow@@ 511
Games 511
form@@ 511
mond 511
Alb@@ 510
ons@@ 510
outh 510
ste@@ 510
Force 509
kr@@ 509
mit@@ 509
very 509
§ 509
anda 508
itz@@ 508
Leon@@ 507
Sat@@ 507
iden 507
Ox@@ 506
Fried@@ 504
Kal@@ 504
Mes@@ 504
edy 504
ew@@ 504
idge 504
ship 504
High@@ 503
Nik@@ 503
Publi@@ 503
Tran@@ 503
bridge 503
kin@@ 503
lu 503
og 503
SC 502
Spr@@ 502
acc@@ 502
bes 502
eller 502
now 501
vin 501
≡ 501
Cou@@ 500
Dou@@ 500
Dur@@ 500
Jer@@ 500
Rev@@ 500
jo 500
ston 500
vic@@ 500
wat@@ 500
н@@ 500
Famil@@ 499
It@@ 499
XX@@ 499
ri 499
ying 499
King@@ 498
Maj@@ 498
Ze@@ 497
enz@@ 497
én@@ 497
Arthur 496
ip@@ 496
our@@ 496
λυμπ@@ 496
Carl 495
ş@@ 495
Tem@@ 494
cep@@ 494
ine@@ 494
uma 494
Af@@ 493
Der 493
Fu@@ 492
Lib@@ 492
Maur@@ 492
erg@@ 492
ó 491
act@@ 490
ú@@ 490
.C. 489
Clau@@ 489
Walter 489
den@@ 489
eum 489
ode 489
eto 488
sta 488
Pau@@ 487
emb@@ 487
Hom@@ 486
Jus@@ 486
Plat@@ 486
ces 486
eth@@ 486
mil@@ 486
199@@ 485
Rap@@ 484
eca 484
ited 484
tory 484
Jacques 483
Tom 483
iro 483
onald 482
ven 482
án 482
D. 481
lobal 481
ves 481
Eg@@ 480
Got@@ 480
Lab@@ 480
lus@@ 480
oks 480
tion@@ 480
К@@ 480
Wer@@ 479
vel@@ 479
י@@ 479
ა@@ 479
Victoria 478
ders 478
olo 478
sin@@ 478
Sus@@ 477
agement 477
asi@@ 477
sur@@ 477
Direc@@ 476
map@@ 476
Anna 475
History 475
face 475
yle 475
Land 474
ingen 474
assi@@ 473
eau 473
ety 473
pres@@ 473
sw@@ 473
vice 473
й 473
cel@@ 472
ences 472
ular 472
ро@@ 472
ng 471
ties 471
Hay@@ 470
Party 470
esc@@ 470
Alli@@ 469
C. 469
ego 469
emp@@ 469
ures 469
Tour@@ 468
others 468
zy@@ 468
bul@@ 467
Gor@@ 466
Stan@@ 466
ely 466
sey 466
agn@@ 465
ering 465
media 465
196@@ 464
Cab@@ 464
cin@@ 464
ket@@ 464
ther@@ 464
hat@@ 463
Ari@@ 462
Red@@ 462
ви@@ 462
Real 461
duc@@ 461
unk@@ 461
Thom@@ 460
asa 460
bus@@ 460
John@@ 459
long@@ 459
ἡ 457
Dan@@ 456
Eri@@ 456
Web@@ 456
ague 456
ert 456
Heinrich 455
etti 455
lay@@ 455
ple@@ 455
ric@@ 455
uli@@ 455
ῳ 455
Syst@@ 454
ami@@ 454
fic 454
tig@@ 454
æ@@ 454
Bill@@ 453
Sz@@ 453
aka 453
ă@@ 453
Alfre@@ 452
dé@@ 452
olas 452
Bay 451
data 451
land@@ 451
level 451
¨ 451
bal@@ 450
River 449
sit@@ 449
Kan@@ 448
fes@@ 448
Div@@ 447
Tu@@ 447
iger 447
Def@@ 446
Jackson 446
struc@@ 446
Bau@@ 445
Gran@@ 445
Maz@@ 445
alia 445
eter 445
res 445
Vel@@ 444
ages 444
cop@@ 444
fri@@ 444
mac@@ 444
å@@ 444
Antonio 443
trans@@ 443
Mé@@ 442
Num@@ 442
USA 442
acy 442
198@@ 440
Mik@@ 440
Pot@@ 440
E. 439
With 439
ו@@ 439
Kis@@ 438
Progr@@ 438
Rich@@ 438
bach 438
down 438
gen 438
public 438
rati@@ 438
Orig@@ 437
berto 437
bir@@ 436
ots 436
᾽ 436
Acc@@ 435
Kom@@ 435
Tim@@ 435
dec@@ 435
din@@ 435
inf@@ 435
Vis@@ 434
Vit@@ 434
alt@@ 434
dou@@ 434
Cop@@ 433
uti@@ 433
ː@@ 433
cho 432
ols 432
Angeles 431
Bak@@ 431
fur@@ 431
lands 431
ð@@ 431
bit@@ 430
dig@@ 430
ion@@ 430
½ 430
eti@@ 429
onal 429
Gaz@@ 428
Henri 428
enberg 428
rom@@ 428
í 428
ΐ 428
ardo 427
prin@@ 427
wh@@ 427
О@@ 427
ἶ@@ 427
odi@@ 426
Bot@@ 425
ouv@@ 425
Women 424
alth 424
ect@@ 424
Pen@@ 423
François 422
Mass@@ 422
lam 422
non 422
ow 422
thi@@ 422
εναντί@@ 422
П@@ 422
ка 422
Andr@@ 421
Arti@@ 421
M. 421
mus 421
ores 421
sec@@ 421
Ç@@ 421
ém@@ 421
ΐου 421
Premier 420
и 420
Cath@@ 419
Grande 419
Liga 419
station 419
Joe 418
Sor@@ 418
И@@ 418
ῇ 418
Jor@@ 417
Math@@ 417
Mill@@ 417
rap@@ 417
anne 416
cast 416
cio 416
ischer 416
je@@ 416
ord 416
ā 416
Kat@@ 415
Ker@@ 414
ace@@ 414
ades 414
cat@@ 414
proj@@ 414
sus 414
és 414
Hand@@ 413
Tam@@ 413
ă 413
Central 412
orial 412
year 412
af 411
alls 411
Ay@@ 410
Kle@@ 410
Town 410
ester 410
red 410
thern 410
Ing@@ 409
eur 409
iss 409
Enter@@ 408
aft 408
awa 408
cht 408
pal@@ 408
ward 408
Sin@@ 407
los@@ 407
ե@@ 407
azz 406
ique 406
ker@@ 406
Dam@@ 405
В@@ 405
Alexand@@ 403
Eliz@@ 403
Hav@@ 403
ado@@ 403
apo@@ 403
cy@@ 403
Kit@@ 402
mot@@ 402
oz@@ 402
ń@@ 402
к 402
xim@@ 401
Sher@@ 400
hal@@ 400
gia 399
los 399
éri@@ 399
с@@ 399
gh@@ 398
mix@@ 398
oro 398
yon@@ 398
ë 398
Fern@@ 397
esp@@ 397
Bud@@ 396
Europa 396
Simon 396
ede@@ 396
esta 396
even 396
Am 395
Kre@@ 395
lit@@ 395
sch 395
uri 395
в 395
ва 395
Chap@@ 393
Sem@@ 393
ects 393
Ö@@ 393
Bou@@ 392
Cle@@ 392
Kl@@ 392
Wa@@ 392
ren@@ 392
udi@@ 392
ía 392
Bib@@ 391
He 391
Tit@@ 391
eu 391
shire 391
Д@@ 391
Blan@@ 390
Chem@@ 390
da@@ 390
ext 390
ference 390
ween 390
When 389
Roy@@ 387
les@@ 387
él@@ 387
197@@ 386
avi@@ 386
mas 386
not 386
у@@ 386
† 386
193@@ 384
Radi@@ 384
ité 384
Tod@@ 383
ating 383
lers 383
ont@@ 383
rem@@ 383
ɪ@@ 383
Ф@@ 383
ἡ@@ 383
Comp@@ 382
José 382
bi 382
dren 382
tho@@ 382
л@@ 382
ль@@ 382
Tou@@ 381
mis@@ 381
syn@@ 381
ś@@ 381
depend@@ 380
hie 380
й@@ 380
Mand@@ 379
ag 379
ide@@ 379
onom@@ 379
ume 379
öl@@ 379
ül@@ 379
ն@@ 379
Archit@@ 378
Francisco 378
Revol@@ 378
Tan@@ 378
annes 378
out@@ 378
е 378
Barr@@ 377
Buc@@ 377
Kun@@ 377
Sau@@ 377
V. 377
not@@ 377
ès 377
via 376
а 376
bil@@ 375
ches 375
ig 375
Ş@@ 375
ἑ@@ 375
fil@@ 374
ская 374
Anti@@ 373
ла@@ 373
Kam@@ 372
ὀ@@ 372
Ash@@ 371
Rud@@ 371
ache 371
if 371
emati@@ 370
grap@@ 370
unter 370
Lat@@ 369
So 369
arc@@ 369
м@@ 369
् 369
Prin@@ 368
elo 368
mont 368
prim@@ 368
vin@@ 368
dis 367
Anne 365
Juan 365
Lake 365
Rou@@ 365
chen 365
cia 365
fal@@ 365
nor@@ 365
oli 365
org@@ 365
ories 365
uno 365
Der@@ 364
ebr@@ 364
gal@@ 364
,000 363
Sig@@ 363
ules 363
ï@@ 363
ʲ@@ 363
≤ 363
arti@@ 362
beg@@ 362
bury 362
iti 362
mal@@ 362
trol 362
Empire 361
eer 361
esa 361
gi 361
pa@@ 360
anta 359
hol@@ 359
water 359
Centre 357
Organ@@ 357
Som@@ 357
body 357
hom@@ 357
lad@@ 357
abr@@ 356
lum 356
progr@@ 356
я 356
bs 355
dri@@ 355
iga 355
section 355
verse 355
vor 355
wo@@ 355
yst@@ 355
Serie 354
polit@@ 354
ი@@ 354
Hab@@ 353
Ober@@ 353
ev 353
hor@@ 353
nu@@ 353
sum@@ 353
μπουμ 353
DR 352
Tak@@ 352
Universit@@ 352
heim 352
ishi 352
pon 352
var@@ 352
ī 352
dern 351
sions 351
М@@ 351
ло@@ 351
From 350
Moh@@ 350
aun@@ 350
polis 350
ustri@@ 350
vis@@ 350
für 349
ju@@ 349
kil@@ 349
Ant@@ 348
ación 348
don@@ 348
lem 348
о@@ 348
Lis@@ 347
eu@@ 347
ident 347
án@@ 347
ἱ@@ 347
esi 346
ses 346
Conn@@ 345
Les@@ 345
ham@@ 345
California 344
ills 344
tol@@ 344
tom@@ 344
Ah@@ 343
Educ@@ 343
Ki@@ 343
Olympi@@ 343
ete 343
nia 343
tern@@ 343
that 343
urt 343
yd@@ 343
Scot@@ 342
was 342
Ξ 342
ἱ 342
Nat@@ 341
Jose@@ 340
Mun@@ 340
Rad@@ 340
Rail@@ 340
Tab@@ 340
esti@@ 340
imb@@ 340
sian 340
Esp@@ 339
esse 339
д@@ 338
After 337
Hat@@ 337
bun@@ 337
ishing 336
Á@@ 336
Č@@ 336
″ 336
Sant@@ 335
Sup@@ 335
gs 335
world 335
yer 335
zen 335
Mod@@ 334
Stre@@ 334
ido 334
ty@@ 334
Г@@ 334
к@@ 334
Rum@@ 333
Thi@@ 333
egr@@ 333
pun@@ 333
ն 333
bar 332
craft 332
aud 331
blo@@ 331
sim@@ 331
super@@ 331
tia 331
wn@@ 331
Ό 331
August 330
Gas@@ 330
otte 330
din 329
евич 329
Nati@@ 328
Var@@ 328
auf@@ 328
bon 328
cha 328
position 328
Б@@ 328
Carol@@ 327
Deb@@ 327
aise 327
imo 327
san@@ 327
î@@ 327
DV@@ 326
H. 326
Sul@@ 326
asti@@ 326
vid@@ 326
Et@@ 325
anti 325
bot@@ 325
dor@@ 325
eder@@ 325
adr@@ 324
ands 324
lig@@ 324
ę@@ 324
Anton@@ 323
Franz 323
WW@@ 323
nationale 323
ago 322
atin 322
aut 322
com 322
š 322
cell@@ 321
ener 321
stand@@ 321
Centr@@ 320
bet@@ 320
pin@@ 320
proc@@ 320
Indi@@ 319
Syn@@ 319
There 319
aha 319
cip@@ 319
class 319
mak@@ 319
ñ@@ 319
Ή 319
lar 318
Church 317
Pil@@ 317
bon@@ 317
sem@@ 317
ւ@@ 317
Album 316
Hit@@ 316
anth@@ 316
eti 316
urg 316
uss@@ 316
а@@ 316
т 316
Pom@@ 315
book 315
eine 315
eno 315
ē@@ 315
Flor@@ 314
Tok@@ 314
endi 314
och@@ 314
stat@@ 314
Ἑ@@ 314
Ander@@ 313
can 313
nis 313
ords 313
tura 313
zu 313
anci@@ 312
führ@@ 312
kom@@ 312
wer 312
Kol@@ 311
win@@ 311
ye@@ 311
Ky@@ 310
fu@@ 310
gro@@ 310
mid@@ 310
semb@@ 310
ji@@ 309
kan 309
mission 309
sons 309
Kos@@ 308
Nacional 308
ango 308
band 308
vers@@ 308
yan@@ 308
ш@@ 308
Japan 307
Kap@@ 307
tal 307
urn@@ 307
Ku@@ 306
Sach@@ 306
Zi@@ 306
jam@@ 306
orio 306
studio 306
uh@@ 306
Italia 305
nov@@ 305
olo@@ 305
Council 304
idi@@ 304
mula 304
onne 304
@ 303
Domin@@ 303
Ges@@ 303
Sport@@ 303
aves 303
car 303
eck@@ 303
ierra 303
oa 303
з@@ 303
Way@@ 302
Yor@@ 302
ken@@ 302
ump@@ 302
Beh@@ 301
Greg@@ 301
ett@@ 301
fic@@ 301
kel@@ 301
ῃ 301
Sain@@ 300
bers 300
eli 300
formation 300
ский 300
Abr@@ 299
lot 299
lov@@ 299
mit 299
new 299
ous@@ 299
sych@@ 299
ла 299
jo@@ 298
pes 298
sig@@ 298
ра@@ 298
ի@@ 298
Carlos 297
self 297
tan 297
tha 297
uni@@ 297
Canada 296
Din@@ 296
iko 296
oy 296
pat@@ 296
sia 296
ells 295
enburg 295
main 295
Ré@@ 294
ologi@@ 294
pul@@ 294
ues 294
ult@@ 294
ą@@ 294
Т@@ 294
ird 293
medi@@ 293
ose 293
wan@@ 293
на@@ 293
192@@ 292
English 292
dal@@ 292
idi 292
ovi@@ 292
ères 292
Ben 291
Gru@@ 291
igo 291
kel 291
oper@@ 291
prise 291
umb@@ 291
ár@@ 291
Kaz@@ 290
Pier@@ 290
adem@@ 290
ancia 290
aqu@@ 290
imi 290
works 290
active 289
aza 289
has@@ 289
ien 289
ites 289
omb@@ 289
za@@ 289
и@@ 289
.S. 288
coun@@ 288
о 288
Kas@@ 287
dium 287
kon@@ 287
sk 287
à@@ 287
ни@@ 287
ὁ@@ 287
ho 286
lor@@ 286
т@@ 286
190@@ 285
aly@@ 285
prot@@ 285
vil@@ 285
är@@ 285
Hein@@ 284
c. 284
ographi@@ 284
Brand@@ 283
Bundes@@ 283
Haz@@ 283
aul@@ 283
ember 283
ène 283
Ἰ@@ 283
Bah@@ 282
Willi@@ 282
erie 282
pri@@ 282
round 282
ακολ@@ 282
א@@ 282
four 281
ingo 281
osp@@ 281
tres 281
wen@@ 281
ames 280
entr@@ 280
opp@@ 280
ὡ@@ 280
Sak@@ 279
aine 279
asi 279
mun@@ 279
uld 279
States 278
aco 278
ency 278
plic@@ 278
post 278
Europ@@ 277
Hir@@ 277
Seb@@ 277
ament 277
gan 277
get 277
kol@@ 277
two 277
var 277
Jos@@ 276
Lag@@ 276
Lon@@ 276
any@@ 276
eph@@ 276
ern 276
test 276
─ 276
Rein@@ 275
Un 275
come 275
iter 275
tra@@ 275
enta 274
form 274
ior 274
Profes@@ 273
gar 273
grup@@ 273
stan@@ 273
adi 272
lev@@ 272
ungs@@ 272
yg@@ 272
б@@ 272
Ka@@ 271
mir@@ 271
igu@@ 270
sequ@@ 270
ü 270
ū 270
Christi@@ 269
County 269
aba 269
ait 269
asse 269
deg@@ 269
design 269
na@@ 269
vi 269
ê@@ 269
Historia 268
bis 268
ecture 268
esh 268
gir@@ 268
group 268
ij@@ 268
ires 268
onz@@ 268
ко 268
რ@@ 268
fun@@ 267
ἴ@@ 267
Berlin 266
Name 266
ational 266
ici 266
site 266
ste 266
viv@@ 266
yo@@ 266
ь@@ 266
Das 265
chester 265
icia 265
ner@@ 265
Bed@@ 264
cou@@ 264
law 264
Boston 263
Jes@@ 263
ister@@ 263
nom@@ 263
power 263
Democ@@ 262
Nak@@ 262
alt 262
amar@@ 261
elt 261
Gö@@ 260
sor@@ 260
Hau@@ 259
Tek@@ 259
fon@@ 259
ku 259
solo 259
span 259
tier 259
tique 259
under 259
van@@ 259
ר@@ 259
ー@@ 259
At 258
alog@@ 258
liv@@ 258
Hosp@@ 257
Milit@@ 257
Vik@@ 257
inda 257
net@@ 257
ე@@ 257
Bad@@ 256
bau@@ 256
ective 256
iri 256
life 256
uta 256
María 255
Ny@@ 255
ander@@ 255
bara 255
eron 255
isi 255
rie 255
tab@@ 255
tural 255
ute 255
1. 254
cho@@ 254
dit 254
dle 254
eni 254
eva 254
lag 254
ppe 254
rich@@ 254
sburg 254
system 254
uz 254
xi@@ 254
յ@@ 254
--@@ 253
Ein@@ 253
Franç@@ 253
Micro@@ 253
Parti@@ 253
Leb@@ 252
abl@@ 252
hab@@ 252
nati@@ 252
oir 252
ui 252
yi 252
ı 252
Um@@ 251
any 251
ben 251
club 251
mar 251
uk 251
ò@@ 251
Cant@@ 250
Lan@@ 250
Yah@@ 250
kan@@ 250
min 250
oi 250
prop@@ 250
sou@@ 250
stant@@ 250
ż@@ 250
ри@@ 250
Bec@@ 249
Jam@@ 249
dez 249
edr@@ 249
ges@@ 249
han 249
mir 249
usi@@ 249
vat@@ 249
ş 249
Has@@ 248
Id@@ 248
aca 248
illo 248
neg@@ 248
nier 248
ín 248
ко@@ 248
Р@@ 247
Aug@@ 246
aliz@@ 246
lan 246
lek@@ 246
retur@@ 246
rup@@ 246
ule 246
ὕ@@ 246
Kad@@ 245
Kul@@ 245
Mut@@ 245
Was@@ 245
Wes@@ 245
añ@@ 245
ck@@ 245
ehr@@ 245
Wan@@ 244
ben@@ 244
eds 244
ological 244
osh@@ 244
sin 244
tera 244
vie@@ 244
е@@ 244
ре@@ 244
Arg@@ 243
Sult@@ 243
bot 243
eff@@ 243
flu@@ 243
hon@@ 243
iles 243
Ü@@ 243
Pad@@ 242
aa 242
hips 242
hum@@ 242
ops 242
play@@ 242
sm@@ 242
ი 242
0s 241
Roman 241
ape 241
enf@@ 241
geh@@ 241
kur@@ 241
mittee 241
French 240
L. 240
Tol@@ 240
bin 240
iter@@ 240
pas@@ 240
xe 240
ὄ@@ 240
ὶ@@ 240
Premi@@ 239
fo 239
ift 239
into 239
lé@@ 239
mol@@ 239
ton@@ 239
May 238
ling@@ 238
mt@@ 238
nch@@ 238
unds 238
ò 238
ы@@ 238
া@@ 238
alen 237
gel@@ 237
ists 237
onder@@ 237
teri@@ 237
Academ@@ 236
B. 236
She 236
Texas 236
aume 236
board 236
qua 236
vit@@ 236
ɛ@@ 236
Ϊ@@ 236
ave@@ 235
opo@@ 235
point 235
rac@@ 235
stor@@ 235
uer@@ 235
до@@ 235
ле@@ 235
chan@@ 234
ender 234
ities 234
onal@@ 234
pen 234
rier 234
trac@@ 234
Fir@@ 233
Pedro 233
spec@@ 233
tam@@ 233
õ@@ 233
г@@ 233
Chin@@ 232
Las 232
dh@@ 232
eria 232
hin@@ 232
Н@@ 232
Africa 231
bin@@ 231
bol@@ 231
bri@@ 231
burg@@ 231
icul@@ 231
ilia 231
mul@@ 231
oca 231
uli 231
У@@ 231
ли@@ 231
мо@@ 231
Portu@@ 230
hil 230
inae 230
lier 230
rea 230
п@@ 230
Dal@@ 229
Dé@@ 229
lab@@ 229
som@@ 229
vier 229
Tenn@@ 228
abe 228
bu 228
dre@@ 228
lav@@ 228
ned 228
ography 228
pour 228
ulu 228
у 228
Frank@@ 227
Ni 227
ael 227
iz 227
ley@@ 227
л 227
By 226
Manuel 226
Ou@@ 226
Wag@@ 226
bac@@ 226
cam@@ 226
elles 226
mark 226
mem@@ 226
town 226
President 225
Vor@@ 225
alo 225
cro@@ 225
eg 225
etz@@ 225
evi@@ 225
tico 225
umin@@ 225
ù 225
Nord@@ 224
Papa 224
agon@@ 224
ca@@ 224
cent@@ 224
hel@@ 224
like 224
put 224
usa 224
version 224
è 224
ğ@@ 224
ɾ@@ 224
Ми@@ 224
Son 223
ador 223
esh@@ 223
que@@ 223
this 223
ц@@ 223
Rep@@ 222
aye 222
edo 222
nd@@ 222
see 222
spe@@ 222
wa@@ 222
ön@@ 222
Hin@@ 221
Institut 221
Neu@@ 221
Tex@@ 221
ease 221
equ@@ 221
forman@@ 221
stadt 221
été 221
S. 220
fort 220
pic@@ 220
с 220
Ali 219
England 219
Hist@@ 219
def@@ 219
oti@@ 219
parti@@ 219
tt@@ 219
atro 218
aut@@ 218
elen 218
fas@@ 218
ud 218
wil@@ 218
zer 218
cri@@ 217
feld 217
inga 217
lim@@ 217
spr@@ 217
Е@@ 217
Army 216
Beg@@ 216
Nord 216
Western 216
bli@@ 216
dorf 216
vie 216
än@@ 216
ь 216
ლ@@ 216
Nob@@ 215
astr@@ 215
comm@@ 215
dam@@ 215
plat@@ 215
sci@@ 215
sort 215
ма@@ 215
Gem@@ 214
aro@@ 214
asc@@ 214
chia 214
inde@@ 214
ischen 214
top@@ 214
ə 214
ב@@ 214
best 213
pon@@ 213
rot@@ 213
tional 213
vention 213
ἦ@@ 213
XX 212
aer@@ 212
auer 212
fore 212
gan@@ 212
Öster@@ 212
го@@ 212
но@@ 212
מ@@ 212
Lig@@ 211
Liter@@ 211
Luis 211
aborat@@ 211
cons@@ 211
par 211
ка@@ 211
∈ 211
Kö@@ 210
Nag@@ 210
ares 210
but@@ 210
ices 210
ilk 210
lip@@ 210
ment@@ 210
Olymp@@ 209
aç@@ 209
ept@@ 209
pi 209
vec@@ 209
war 209
where 209
dol@@ 208
gener@@ 208
home 208
ney@@ 208
tak@@ 208
tran@@ 208
trong 208
ě@@ 208
я@@ 208
kul@@ 207
ogr@@ 207
rez 207
ths 207
ı@@ 207
I. 206
isches 206
leri 206
ras@@ 206
urg@@ 206
м 206
Arab@@ 205
Asia 205
Govern@@ 205
U.S. 205
ige 205
kw@@ 205
rou@@ 205
schaft 205
tag 205
ú 205
大@@ 205
Kim 204
Person@@ 204
control 204
nam 204
Ά 204
agne 203
rain 203
Pf@@ 202
away 202
concep@@ 202
ej@@ 202
ün@@ 202
ț@@ 202
∞ 202
2. 201
Riv@@ 201
dat@@ 201
estruc@@ 201
fast 201
fel@@ 201
fi 201
lies 201
liga 201
sea 201
ה@@ 201
Amer@@ 200
aud@@ 200
change 200
dam 200
film 200
isch@@ 200
sing 200
spir@@ 200
Со@@ 200
Da 199
Institu@@ 199
Roma 199
ainst 199
anos 199
cine 199
doc@@ 199
ments 199
His 198
ables 198
alg@@ 198
contr@@ 198
dings 198
ils 198
kal@@ 198
phy@@ 198
ски 198
Eins@@ 197
amer@@ 197
dae 197
flo@@ 197
hand@@ 197
inst@@ 197
sam@@ 197
ска 197
Canadi@@ 196
acht 196
aug@@ 196
dem 196
number 196
pil@@ 196
unda 196
ça 196
ña 196
Jul@@ 195
death 195
ellschaft 195
este 195
rich 195
sel 195
İ@@ 195
та@@ 195
China 194
bec@@ 194
mal 194
ministr@@ 194
tit@@ 194
âteau 194
ди@@ 194
Nam@@ 193
antes 193
dans 193
dev@@ 193
gal 193
multi@@ 193
tut@@ 193
χρι 193
Алек@@ 193
ἁ@@ 193
Carr@@ 192
Virginia 192
igh 192
liber@@ 192
lit 192
qui 192
ron@@ 192
ses@@ 192
Hung@@ 191
amo 191
els@@ 191
imi@@ 191
ional 191
pedi@@ 191
poli@@ 191
ór@@ 191
ö 191
Ital@@ 190
allas 190
aver@@ 190
icro@@ 190
ées 190
≥ 190
Stra@@ 189
cit@@ 189
his 189
mad 189
ording 189
plan 189
unge 189
ás 189
Ко@@ 189
Alex@@ 188
Con 188
aining 188
ext@@ 188
haus 188
med 188
pur@@ 188
sac@@ 188
Ὀ@@ 188
ῖ 188
Bun@@ 187
chin@@ 187
cos@@ 187
isch 187
km@@ 187
trol@@ 187
տ@@ 187
ه@@ 187
March 186
enci@@ 186
rat 186
ţ@@ 186
ș@@ 186
ל@@ 186
ه 186
Gel@@ 185
Krieg@@ 185
König@@ 185
Spi@@ 185
dar@@ 185
eux 185
rent 185
ῶ 185
ises 184
real 184
д 184
― 184
aja 183
ough@@ 183
uki 183
ég@@ 183
ש@@ 183
African 182
Yo@@ 182
ias 182
mes@@ 182
nos 182
peti@@ 182
schule 182
utz@@ 182
ἕ@@ 182
ᾳ 182
Austr@@ 181
Ok@@ 181
aces 181
ball@@ 181
chem@@ 181
cial 181
dos 181
dér@@ 181
eur@@ 181
wards 181
ř@@ 181
„ 181
En 180
arte 180
chil@@ 180
game 180
iste 180
mut@@ 180
Gran 179
isp@@ 179
tif@@ 179
Л@@ 179
188@@ 178
Baz@@ 178
J. 178
Kais@@ 178
artic@@ 178
cont@@ 178
eb 178
lec@@ 178
rif@@ 178
road 178
ural 178
camp@@ 177
dur@@ 177
eil 177
tn@@ 177
ć@@ 177
ნ@@ 177
Jug@@ 176
isco 176
main@@ 176
pap@@ 176
sour@@ 176
ì 176
Ž@@ 176
х@@ 176
Emp@@ 175
Milli@@ 175
Su 175
fen@@ 175
xa 175
éro@@ 175
Ц@@ 175
нович 175
ს@@ 175
ン@@ 175
Ji@@ 174
fir@@ 174
igan 174
isse 174
nav@@ 174
rique 174
tir@@ 174
utz 174
З@@ 174
ד@@ 174
ى 174
Mann@@ 173
Migu@@ 173
Penn@@ 173
R. 173
chr@@ 173
itation 173
mand@@ 173
quit@@ 173
187@@ 172
Bang@@ 172
adel@@ 172
but 172
itung 172
ligh@@ 172
mad@@ 172
player 172
sed 172
sis 172
͵ 172
◊ 172
Alg@@ 171
Sin 171
amba 171
essen 171
ingu@@ 171
milit@@ 171
och 171
ologie 171
partment 171
pot@@ 171
state 171
ч@@ 171
Australian 170
endi@@ 170
fle@@ 170
gang 170
quar@@ 170
ás@@ 170
ɣ@@ 170
נ@@ 170
♦ 170
F. 169
Fam@@ 169
alla 169
amu 169
atri@@ 169
boy@@ 169
einer 169
enh@@ 169
ize 169
stand 169
tific@@ 169
uj@@ 169
vari@@ 169
üt@@ 169
ан@@ 169
і 169
189@@ 168
3. 168
Australia 168
KK 168
eas@@ 168
itt 168
ought 168
rio 168
éc@@ 168
ба@@ 168
ра 168
Hak@@ 167
Jack@@ 167
Schl@@ 167
Schwar@@ 167
ements 167
identi@@ 167
kir@@ 167
lob@@ 167
ев@@ 167
anza 166
eler 166
por 166
ris@@ 166
tec@@ 166
бо@@ 166
ти@@ 166
Ord@@ 165
bia 165
edit@@ 165
ismo 165
pis@@ 165
reich@@ 165
ungen 165
ő@@ 165
би@@ 165
ва@@ 165
Ost@@ 164
aland 164
esia 164
ony@@ 164
ority 164
part@@ 164
prom@@ 164
syst@@ 164
ui@@ 164
wing 164
äl@@ 164
öh@@ 164
ý 164
India 163
ging 163
inv@@ 163
lik@@ 163
natur@@ 163
west 163
Nig@@ 162
esto 162
europ@@ 162
nat@@ 162
riff@@ 162
yon 162
ɑ@@ 162
Ἄ@@ 162
Inn@@ 161
aliy@@ 161
final 161
sion@@ 161
tains 161
vor@@ 161
Ка@@ 161
Es 160
Ken@@ 160
angel@@ 160
include 160
reich 160
sul@@ 160
syl@@ 160
uo 160
ét@@ 160
Ан@@ 160
то@@ 160
Mün@@ 159
alle 159
ator@@ 159
cant@@ 159
erra 159
first 159
ool 159
oso 159
raine 159
tain@@ 159
ʃ@@ 159
Бе@@ 159
г 159
да 159
да@@ 159
Kab@@ 158
XVI 158
abil@@ 158
him 158
over@@ 158
ples 158
ː 158
` 157
cos 157
ordin@@ 157
publi@@ 157
sist@@ 157
til 157
ustr@@ 157
Grou@@ 156
Hoch@@ 156
Kim@@ 156
eral 156
fied 156
gem@@ 156
incia 156
kt 156
nes@@ 156
tag@@ 156
ç 156
Ψ 156
во@@ 156
Ա@@ 156
ὼ@@ 156
Bes@@ 155
División 155
atom@@ 155
bol 155
coll@@ 155
long 155
sten 155
ḥ@@ 155
ὔ@@ 155
Cum@@ 154
Shu@@ 154
amin@@ 154
gres@@ 154
its@@ 154
kor@@ 154
pad@@ 154
versi@@ 154
wr@@ 154
ɔ@@ 154
They 153
have 153
icio 153
ife 153
tour 153
uses 153
ân 153
Ма@@ 153
ве@@ 153
ная 153
Berg@@ 152
XV@@ 152
ande 152
apa 152
ehr 152
eng 152
igi@@ 152
new@@ 152
pos 152
tempor@@ 152
ɐ@@ 152
ვ@@ 152
ἢ 152
Ἱ@@ 152
Venez@@ 151
avi 151
bes@@ 151
dra@@ 151
emple 151
ended 151
fall 151
fem@@ 151
plan@@ 151
publ@@ 151
tos 151
ving 151
ούστου 151
Александ@@ 151
ի 151
ان 151
√ 151
anas 150
cher@@ 150
fin 150
gol@@ 150
lake 150
sar@@ 150
them 150
uni 150
˙ 150
Kib@@ 149
adém@@ 149
cir@@ 149
ennes 149
kun@@ 149
ning@@ 149
order 149
plu@@ 149
uss 149
yu 149
zen@@ 149
са 149
մ@@ 149
ო@@ 149
Muh@@ 148
ability 148
ados 148
allen 148
andi@@ 148
major 148
neur 148
pass@@ 148
support 148
voc@@ 148
за@@ 148
կ@@ 148
ander 147
hai 147
high 147
tric@@ 147
Ł@@ 147
ж@@ 147
по@@ 147
ע@@ 147
Dani@@ 146
Stein@@ 146
eka 146
hav@@ 146
ican 146
liz@@ 146
mach@@ 146
mos@@ 146
opsis 146
otr@@ 146
zur 146
На@@ 146
га 146
ق@@ 146
ي 146
্ 146
4. 145
ahl 145
alist 145
eda 145
lag@@ 145
orie 145
æ 145
Са@@ 145
᾿ 145
Se 144
abor@@ 144
ances 144
court 144
enz 144
gin@@ 144
maj@@ 144
radi@@ 144
İs@@ 144
Бо@@ 144
ор@@ 144
Copa 143
inci 143
onde 143
Ј@@ 143
ар@@ 143
ру@@ 143
са@@ 143
се@@ 143
ر@@ 143
eros 142
tar 142
techni@@ 142
tou@@ 142
té 142
მ@@ 142
Deutschland 141
aden 141
azar@@ 141
enter 141
event@@ 141
far@@ 141
indi@@ 141
isha 141
istan 141
ulation 141
umi 141
years 141
Î@@ 141
év@@ 141
По@@ 141
ս@@ 141
ῥ@@ 141
Tang@@ 140
ansa 140
eure 140
eurs 140
grand 140
han@@ 140
hem 140
prises 140
rus@@ 140
tad@@ 140
tur 140
ège 140
én 140
ė 140
Ś@@ 140
ат@@ 140
ح@@ 140
ش@@ 140
ende 139
has 139
ilo 139
isto 139
ition 139
pas 139
priv@@ 139
ram@@ 139
ref@@ 139
tas 139
tun@@ 139
де@@ 139
ё@@ 139
ἵ@@ 139
Meh@@ 138
Schw@@ 138
alar@@ 138
cru@@ 138
many 138
times 138
tival 138
wel@@ 138
zer@@ 138
aber 137
contin@@ 137
get@@ 137
lib@@ 137
orient@@ 137
tiva 137
ἠ@@ 137
ὺ 137
aron 136
azi 136
libr@@ 136
part 136
sign@@ 136
ulia 136
Пет@@ 136
ми@@ 136
Alt@@ 135
Histoire 135
apo 135
bis@@ 135
enda 135
enes 135
iler 135
ogo 135
then 135
tour@@ 135
vet@@ 135
éli@@ 135
си@@ 135
ָ@@ 135
ὖ@@ 135
Indian 134
Von 134
geb@@ 134
ism@@ 134
strum@@ 134
sun@@ 134
Ба@@ 134
Во@@ 134
во 134
га@@ 134
س@@ 134
Buch@@ 133
Kri@@ 133
Wilaya 133
ble@@ 133
lang 133
mari@@ 133
oko 133
park 133
titu@@ 133
trav@@ 133
ß 133
û@@ 133
ب@@ 133
Unter@@ 132
lah 132
pre 132
tei 132
uru 132
wes@@ 132
zig 132
ð 132
Au 131
Dies@@ 131
Form@@ 131
alli@@ 131
bab@@ 131
nen 131
œ@@ 131
ǎ@@ 131
ск 131
љ@@ 131
ὐ 131
Biz@@ 130
ahl@@ 130
fan@@ 130
fund@@ 130
gether 130
ilio 130
isation 130
sie 130
Her 129
Sud 129
atura 129
cour@@ 129
cut 129
iment 129
kab@@ 129
onto 129
sav@@ 129
sup@@ 129
tivo 129
сь@@ 129
ә@@ 129
Devlet@@ 128
americ@@ 128
bourg 128
chen@@ 128
led 128
nin 128
nit@@ 128
trop@@ 128
Ż@@ 128
ي@@ 128
8. 127
based 127
erre 127
rod@@ 127
ä 127
Х@@ 127
не@@ 127
э@@ 127
њ@@ 127
་ 127
K. 126
ede 126
inning 126
lang@@ 126
mine 126
pro 126
sol 126
spi@@ 126
К 126
ров@@ 126
ч 126
ف@@ 126
ل@@ 126
Kem@@ 125
ativa 125
him@@ 125
isis 125
rid 125
sep@@ 125
па@@ 125
ה 125
ა 125
186@@ 124
Barcelona 124
Kid@@ 124
archit@@ 124
ei@@ 124
idea 124
ongo 124
star@@ 124
ál@@ 124
ın@@ 124
Bez@@ 123
Mp@@ 123
ater@@ 123
diff@@ 123
fus@@ 123
imani 123
meister 123
neo 123
unter@@ 123
Я@@ 123
бе@@ 123
з 123
ный 123
سلطان 123
Span@@ 122
apar@@ 122
clus@@ 122
entes 122
feder@@ 122
kn@@ 122
kre@@ 122
leb@@ 122
lich@@ 122
patr@@ 122
plus 122
social 122
soft 122
team 122
test@@ 122
ΰ 122
ן 122
ṭ@@ 122
ἤ@@ 122
∆ 122
Wak@@ 121
aum 121
ause 121
bec 121
emi 121
enth@@ 121
ers@@ 121
extr@@ 121
head@@ 121
ible 121
kri@@ 121
termin@@ 121
through 121
vas@@ 121
ös@@ 121
Jersey 120
Munici@@ 120
Ng@@ 120
ambo 120
cab@@ 120
football 120
lub 120
r. 120
squ@@ 120
tie 120
tish 120
Ле@@ 120
Ро@@ 120
не 120
் 120
უ@@ 120
∙ 120
Wir@@ 119
ana@@ 119
bre 119
conn@@ 119
deutsche 119
div@@ 119
dul@@ 119
elek@@ 119
irs 119
open@@ 119
rech@@ 119
sat@@ 119
zar@@ 119
ł 119
・ 119
asp@@ 118
cla@@ 118
force 118
kno@@ 118
lich 118
liche 118
match 118
red@@ 118
regi@@ 118
tot@@ 118
tras@@ 118
ɡ@@ 118
Ч@@ 118
َ@@ 118
Sta@@ 117
dies 117
direc@@ 117
ected 117
format 117
lau@@ 117
lik 117
ockey 117
ono 117
positi@@ 117
ın 117
ы 117
ַ@@ 117
د@@ 117
Herr@@ 116
Histori@@ 116
Sü@@ 116
aires 116
ako 116
cad@@ 116
ebe 116
ked 116
med@@ 116
pio 116
ran 116
tas@@ 116
tru@@ 116
és@@ 116
Florida 115
atives 115
city 115
dan@@ 115
dies@@ 115
elt@@ 115
esch@@ 115
jur@@ 115
lara 115
loss 115
m. 115
san 115
school 115
teur 115
ät@@ 115
ع@@ 115
ἂ@@ 115
Bras@@ 114
athol@@ 114
atique 114
date 114
enant 114
faire 114
hib@@ 114
inos 114
lic@@ 114
num@@ 114
uro 114
wak@@ 114
ío 114
ен@@ 114
≈ 114
5. 113
Afr@@ 113
Seine 113
aille 113
ayo 113
det 113
had 113
hur@@ 113
leng@@ 113
seg@@ 113
short 113
stell@@ 113
tech@@ 113
than 113
which 113
ì@@ 113
üs@@ 113
͡ 113
Ра@@ 113
ль 113
ни 113
со@@ 113
ל 113
თ@@ 113
├ 113
Akadem@@ 112
afa 112
ahr@@ 112
atu 112
commun@@ 112
ement@@ 112
isl@@ 112
mig@@ 112
oci@@ 112
run@@ 112
undo 112
vill@@ 112
ís 112
üh@@ 112
С 112
ш 112
Ἡ@@ 112
イ@@ 112
Nach@@ 111
bio 111
capit@@ 111
inas 111
jas 111
most 111
mé@@ 111
oire 111
public@@ 111
rev@@ 111
tes@@ 111
toria 111
ги@@ 111
сла@@ 111
վ@@ 111
atia 110
auto@@ 110
born 110
class@@ 110
list@@ 110
moder@@ 110
phe 110
place 110
sta@@ 110
tras 110
yet@@ 110
ав@@ 110
ев 110
нов 110
Ὁ 110
Yar@@ 109
about 109
adu@@ 109
française 109
full 109
plac@@ 109
service 109
sev@@ 109
umbo 109
wi 109
will 109
ї@@ 109
լ@@ 109
ن@@ 109
် 109
Eis@@ 108
Wilhel@@ 108
XVIII 108
ativ@@ 108
building 108
last 108
olan 108
sei 108
werk 108
¬ 108
ло 108
та 108
ج@@ 108
￼ 108
----@@ 107
Kus@@ 107
Kut@@ 107
bles 107
front 107
ief 107
mati@@ 107
mov@@ 107
ograph@@ 107
ved 107
yat@@ 107
Ре@@ 107
ци@@ 107
ة 107
Haus@@ 106
aten 106
clo@@ 106
econom@@ 106
eles 106
grou@@ 106
ily 106
kam@@ 106
opo 106
schen 106
senti@@ 106
veau 106
érie 106
č 106
đ@@ 106
А 106
Ку@@ 106
ер@@ 106
Braz@@ 105
Sah@@ 105
Say@@ 105
auth@@ 105
eon@@ 105
idad 105
iller@@ 105
inn 105
kle@@ 105
oj@@ 105
philos@@ 105
ular@@ 105
Мо@@ 105
ك@@ 105
ἅ@@ 105
UE@@ 104
alit@@ 104
comple@@ 104
educ@@ 104
eil@@ 104
encia 104
formes 104
gli@@ 104
lim 104
pend@@ 104
platz 104
rant 104
uda 104
zu@@ 104
å 104
ʿ@@ 104
мир 104
م@@ 104
ἰ 104
Ireland 103
anes 103
aster@@ 103
bos@@ 103
did@@ 103
featur@@ 103
furt 103
jus@@ 103
make 103
nas@@ 103
plas@@ 103
tribu@@ 103
tí@@ 103
were 103
writ@@ 103
ác@@ 103
äf@@ 103
üm@@ 103
ск@@ 103
че@@ 103
ּ@@ 103
Ἡ 103
Kamp@@ 102
Türk 102
ayn@@ 102
chu@@ 102
cu 102
dru@@ 102
ener@@ 102
kho@@ 102
kis@@ 102
national 102
produc@@ 102
scor@@ 102
studi@@ 102
tima 102
tul@@ 102
umba 102
Ви@@ 102
Film@@ 101
amen 101
ası 101
tik 101
who 101
ır@@ 101
ста@@ 101
د 101
Ba 100
Constitu@@ 100
bak@@ 100
bay 100
erte 100
hat 100
jan@@ 100
kad@@ 100
pf@@ 100
prob@@ 100
quel 100
yak@@ 100
ки@@ 100
ков 100
ц 100
ال@@ 100
া 100
の@@ 100
Santiago 99
ağ@@ 99
ded 99
domin@@ 99
elde 99
isme 99
known 99
lug@@ 99
person@@ 99
present@@ 99
üb@@ 99
Φεβ@@ 99
Не@@ 99
Ру@@ 99
ин@@ 99
си 99
ъ 99
Հ@@ 99
ز@@ 99
ব@@ 99
র@@ 99
German 98
Pub@@ 98
cover@@ 98
fu 98
ific@@ 98
imp@@ 98
issen@@ 98
ʁ@@ 98
Σεπτε@@ 98
Нико@@ 98
но 98
Bü@@ 97
Conse@@ 97
Madrid 97
alian 97
aup@@ 97
erst@@ 97
icht 97
run 97
sans 97
song 97
Ва@@ 97
Миха@@ 97
Ш@@ 97
כ@@ 97
天@@ 97
Rech@@ 96
W. 96
ción 96
cle@@ 96
father 96
fs 96
ien@@ 96
irk 96
mur@@ 96
nt 96
prov@@ 96
rad@@ 96
tex@@ 96
uka 96
yana@@ 96
zona 96
ép@@ 96
Влади@@ 96
нов@@ 96
ր 96
ბ@@ 96
ṣ@@ 96
ἷ@@ 96
6. 95
auc@@ 95
clu@@ 95
country 95
ered 95
ests 95
jer@@ 95
law@@ 95
mill@@ 95
obj@@ 95
oka 95
omin@@ 95
pain@@ 95
para 95
phil@@ 95
phot@@ 95
uel@@ 95
wie 95
¹ 95
ди 95
ки 95
ше@@ 95
י 95
ى@@ 95
Zu@@ 94
aissance 94
bau 94
bou@@ 94
haus@@ 94
hir 94
hist@@ 94
late 94
may@@ 94
model@@ 94
nig 94
nuc@@ 94
princip@@ 94
sous 94
stitu@@ 94
vy@@ 94
zel@@ 94
ˌ@@ 94
Па@@ 94
្ 94
ὠ@@ 94
Compan@@ 93
Fes@@ 93
Gün@@ 93
Paulo 93
Schul@@ 93
Sur 93
aller@@ 93
anni@@ 93
ansas 93
dir@@ 93
eaux 93
gul@@ 93
iff 93
iliz@@ 93
lis@@ 93
nak@@ 93
natural 93
prof@@ 93
sal 93
small 93
techn@@ 93
zon@@ 93
פ@@ 93
ת 93
ا 93
≠ 93
España 92
Famili@@ 92
Yes@@ 92
Zeit@@ 92
atos 92
case 92
event 92
gri@@ 92
imin@@ 92
kap@@ 92
kirche 92
schrift 92
viol@@ 92
ė@@ 92
Ж@@ 92
Ю@@ 92
ст@@ 92
թ@@ 92
خ@@ 92
ط@@ 92
ス@@ 92
Argent@@ 91
Des 91
Parti 91
Schwe@@ 91
Universität 91
acio 91
aller 91
bek@@ 91
cus@@ 91
epis@@ 91
industri@@ 91
isten 91
itali@@ 91
kop@@ 91
nec@@ 91
rí@@ 91
typ@@ 91
vern@@ 91
ème 91
ʊ@@ 91
сто@@ 91
գ@@ 91
ল@@ 91
Universidad 90
ectiv@@ 90
eki 90
eras 90
ful@@ 90
gesch@@ 90
gian 90
just 90
kas@@ 90
mani@@ 90
onen 90
rue 90
speci@@ 90
tend@@ 90
tionn@@ 90
Ἁ@@ 90
ῆ 90
Distribu@@ 89
activ@@ 89
bei 89
dir 89
eren 89
essor 89
histori@@ 89
nation@@ 89
series 89
stad@@ 89
zone 89
Απρι@@ 89
О 89
Сер@@ 89
城 89
Jap@@ 88
National@@ 88
Provin@@ 88
a. 88
pression 88
sab@@ 88
tig 88
Å@@ 88
èse 88
î 88
ón@@ 88
Рес@@ 88
ם 88
Haupt@@ 87
Lebens@@ 87
area 87
cription 87
heit 87
offici@@ 87
saf@@ 87
seud@@ 87
tien 87
tín 87
visi@@ 87
wanza 87
ý@@ 87
ִ@@ 87
ג@@ 87
ت@@ 87
Arbeit@@ 86
Eisen@@ 86
June 86
Süd@@ 86
after 86
aill@@ 86
base 86
fen 86
grav@@ 86
inen 86
isión 86
liter@@ 86
má@@ 86
pris@@ 86
uba 86
used 86
zin@@ 86
ß@@ 86
útbol 86
Đ@@ 86
ге@@ 86
ма 86
ф@@ 86
ղ@@ 86
ק@@ 86
BK 85
Chic@@ 85
ambi@@ 85
avec 85
ayan 85
estig@@ 85
games 85
ht 85
iker 85
resp@@ 85
sam 85
shu@@ 85
tiz@@ 85
Ú@@ 85
ève 85
ĝ@@ 85
Де@@ 85
Э@@ 85
пи@@ 85
ח@@ 85
Partido 84
Ped@@ 84
Politi@@ 84
atur 84
cum@@ 84
esses 84
kt@@ 84
limit@@ 84
only 84
refer@@ 84
sus@@ 84
tir 84
zum 84
ʒ@@ 84
ца 84
ְ@@ 84
Ἔ@@ 84
7. 83
Ent@@ 83
Kay@@ 83
Paşa 83
bez@@ 83
bres 83
enst 83
erek 83
etes 83
fut@@ 83
gun 83
iche 83
jum@@ 83
kit@@ 83
mann@@ 83
obr@@ 83
popul@@ 83
quel@@ 83
tari@@ 83
they 83
usi 83
weg@@ 83
Ō@@ 83
ƒ 83
ров 83
слав 83
ר 83
ق 83
ル@@ 83
December 82
Dok@@ 82
Elle 82
leo 82
oğlu 82
pia 82
stati@@ 82
uerto 82
using 82
¡ 82
Ä@@ 82
Í@@ 82
üc@@ 82
ħ@@ 82
ал@@ 82
нови@@ 82
сть 82
ر 82
ტ@@ 82
リ@@ 82
Mex@@ 81
Zw@@ 81
cer 81
chev@@ 81
eig@@ 81
frag@@ 81
hau@@ 81
lie@@ 81
mina 81
ograf@@ 81
ort@@ 81
possible 81
publique 81
scienti@@ 81
she 81
title 81
tung 81
unga 81
yet 81
ɐ 81
Ива@@ 81
за 81
ме@@ 81
ник 81
ون 81
დ@@ 81
└ 81
asser 80
chap@@ 80
enten 80
fest@@ 80
ım 80
ų 80
Се@@ 80
рий 80
ђ@@ 80
ل 80
ি@@ 80
Auf@@ 79
Flug@@ 79
Geb@@ 79
Israel 79
July 79
Mw@@ 79
Staats@@ 79
adas 79
auf 79
ayr@@ 79
dar 79
edi 79
enst@@ 79
eş@@ 79
ilde 79
inger@@ 79
trad@@ 79
Մ@@ 79
⋅ 79
Ago@@ 78
Landes@@ 78
Pour 78
Schi@@ 78
XIX 78
Yer@@ 78
bahn 78
kum@@ 78
rö@@ 78
thé@@ 78
vania 78
ßen 78
äd@@ 78
ól@@ 78
μβρίου 78
Васи@@ 78
Росси@@ 78
лу@@ 78
ний 78
Ս@@ 78
را@@ 78
س 78
Ἦ@@ 78
Pak@@ 77
Ukr@@ 77
Uz@@ 77
hap@@ 77
kö@@ 77
¼ 77
Вла@@ 77
Констан@@ 77
ге 77
ا@@ 77
ὥ@@ 77
Ῥ@@ 77
Musik@@ 76
ateur 76
audi@@ 76
aş@@ 76
bah@@ 76
bed 76
conver@@ 76
docum@@ 76
due 76
former 76
his@@ 76
iken 76
immer 76
indi 76
international 76
istes 76
language 76
lung 76
people 76
sak@@ 76
Öz@@ 76
ń 76
За@@ 76
Пе@@ 76
кий 76
ство 76
م 76
Hamb@@ 75
Kig@@ 75
November 75
Rah@@ 75
Una 75
atz 75
capital 75
dist@@ 75
what 75
ête 75
Сте@@ 75
ли 75
нова 75
ро 75
հ@@ 75
ס@@ 75
محمد 75
⟩ 75
9. 74
Estado 74
band@@ 74
cas 74
contribut@@ 74
ensa 74
erc@@ 74
icos 74
kara 74
monde 74
performan@@ 74
radio 74
riff 74
sti 74
their 74
tros 74
unde 74
yen 74
éch@@ 74
ühr@@ 74
Ар@@ 74
те@@ 74
х 74
بن 74
ص@@ 74
გ@@ 74
Brasil 73
Professor 73
Sa 73
Stad@@ 73
alternati@@ 73
compos@@ 73
för@@ 73
iç@@ 73
jos 73
lement 73
lı 73
mam@@ 73
onc@@ 73
roy@@ 73
say@@ 73
univers@@ 73
Æ@@ 73
É 73
ő 73
ду@@ 73
ку@@ 73
ө@@ 73
ת@@ 73
ار 73
ে@@ 73
⟨ 73
April 72
Ohio 72
Une 72
chez 72
eza 72
hen 72
high@@ 72
ident@@ 72
ina@@ 72
party 72
premi@@ 72
sé@@ 72
umo 72
usal@@ 72
voy@@ 72
zog 72
ŋ@@ 72
Л 72
Ме@@ 72
Укра@@ 72
по 72
чи@@ 72
و@@ 72
ainer 71
avant 71
carri@@ 71
cion@@ 71
esper@@ 71
eye 71
inde 71
instrum@@ 71
lead@@ 71
scher 71
sir@@ 71
three 71
when 71
ô 71
То@@ 71
ет@@ 71
ско 71
ু@@ 71
Ἕ@@ 71
本@@ 71
Groß@@ 70
Kant@@ 70
Zentr@@ 70
bt 70
endel@@ 70
ending 70
ict 70
iques 70
jun@@ 70
mess@@ 70
nie 70
ograp@@ 70
riere 70
was@@ 70
zon 70
ño 70
Мар@@ 70
вет@@ 70
ха 70
ט@@ 70
ب 70
日@@ 70
神@@ 70
Campeonato 69
Fuß@@ 69
aines 69
anya 69
centr@@ 69
deb@@ 69
dial 69
endre 69
gu 69
homme 69
journ@@ 69
kus@@ 69
mez@@ 69
onio 69
pendi@@ 69
tena 69
tent 69
union 69
أ@@ 69
ম@@ 69
ジ@@ 69
寺 69
Philipp@@ 68
blan@@ 68
dil@@ 68
phi 68
politi@@ 68
production 68
rom 68
vita 68
zeich@@ 68
Ö 68
ín@@ 68
μφωνα 68
غ@@ 68
ἥ@@ 68
ὃ@@ 68
ὗ@@ 68
ン 68
山 68
Ein 67
alle@@ 67
elem@@ 67
enas 67
expres@@ 67
gest@@ 67
leur 67
lon@@ 67
mara 67
neu@@ 67
tim 67
while 67
yar@@ 67
yer@@ 67
ос@@ 67
դ@@ 67
ὼ 67
ラ@@ 67
ー 67
三@@ 67
República 66
alc@@ 66
bir 66
ched 66
echo 66
erk@@ 66
ichte 66
politique 66
vot@@ 66
zial@@ 66
Å 66
ʻ@@ 66
Го@@ 66
Про@@ 66
али@@ 66
она@@ 66
публи@@ 66
публика 66
се 66
ў@@ 66
қ@@ 66
շ@@ 66
պ@@ 66
الج@@ 66
ـ@@ 66
、 66
中@@ 66
Grund@@ 65
September 65
These 65
aide 65
ained 65
aret 65
etts 65
eño 65
graf@@ 65
nach 65
porte 65
roi 65
tet 65
èle 65
ération 65
̯ 65
И 65
б 65
ля@@ 65
мо 65
კ@@ 65
appro@@ 64
bay@@ 64
been 64
chang@@ 64
culp@@ 64
dens@@ 64
hin 64
ished 64
izi@@ 64
jed@@ 64
jou@@ 64
lí@@ 64
mw@@ 64
odes 64
organ@@ 64
program 64
seau 64
some 64
temp@@ 64
® 64
À 64
ías 64
̃ 64
ское 64
фа@@ 64
ِ@@ 64
ხ@@ 64
Arth@@ 63
Geschichte 63
acha 63
esen 63
exp@@ 63
gaz@@ 63
git@@ 63
iwa 63
jini 63
jug@@ 63
leh@@ 63
nea 63
oder 63
pes@@ 63
qu 63
teilung 63
tige 63
verg@@ 63
vida 63
yal@@ 63
ße 63
Да@@ 63
ке@@ 63
пе@@ 63
сти@@ 63
ша 63
ю@@ 63
الع@@ 63
ს 63
⁄ 63
Chile 62
Nueva 62
also 62
amii 62
eas 62
erh@@ 62
fig@@ 62
gel 62
icas 62
mah@@ 62
ques@@ 62
schi@@ 62
stud@@ 62
suc@@ 62
temps 62
uch 62
zw@@ 62
ø 62
ún 62
ɕ 62
ʰ@@ 62
Пре@@ 62
ры@@ 62
բ@@ 62
国@@ 62
Colomb@@ 61
aji 61
bas 61
bom@@ 61
eran 61
feh@@ 61
indic@@ 61
mez 61
modi@@ 61
perior 61
relig@@ 61
straße 61
zis@@ 61
ą 61
гор@@ 61
ле 61
ха@@ 61
ية 61
Ὑ@@ 61
子 61
Best@@ 60
Form 60
Jah@@ 60
Türkiye 60
aban 60
around 60
aş 60
culture 60
family 60
gun@@ 60
gö@@ 60
imba 60
made 60
terr@@ 60
tly 60
â 60
êt 60
öz@@ 60
ù@@ 60
ÿ@@ 60
ɪ 60
До@@ 60
Лу@@ 60
ем@@ 60
ков@@ 60
ция 60
الم@@ 60
ت 60
ক@@ 60
ッ@@ 60
村 60
Ab 59
Amér@@ 59
Este 59
Zeit 59
aje 59
apos@@ 59
bern@@ 59
continu@@ 59
crit@@ 59
erin 59
lieg@@ 59
ogle 59
sible 59
take 59
trag@@ 59
tér@@ 59
Гор@@ 59
Ду@@ 59
же@@ 59
лов 59
об@@ 59
хо@@ 59
ս 59
北@@ 59
Klo@@ 58
Prof@@ 58
ampi@@ 58
gique 58
mili@@ 58
nacional 58
onge@@ 58
tham 58
thu@@ 58
ê 58
ütz@@ 58
ɔ 58
εμβρίου 58
Бу@@ 58
Ев@@ 58
Никола@@ 58
Та@@ 58
мит@@ 58
он@@ 58
то 58
ћ@@ 58
ク@@ 58
道 58
Sek@@ 57
Tanzania 57
distr@@ 57
eleg@@ 57
emen 57
engine 57
hiz@@ 57
inden 57
isen 57
race 57
region 57
territ@@ 57
thi 57
uso 57
voir 57
zeug@@ 57
zil@@ 57
üd@@ 57
ŏ@@ 57
Ки@@ 57
вя@@ 57
ит@@ 57
он 57
ст 57
لي@@ 57
ی 57
ქ@@ 57
ᾶ 57
♭ 57
Ere@@ 56
Illinois 56
Mittel@@ 56
Sov@@ 56
agre@@ 56
ample 56
chter 56
concer@@ 56
eben 56
edad 56
embr@@ 56
found@@ 56
fron@@ 56
idos 56
initi@@ 56
ised 56
issu@@ 56
naci@@ 56
née 56
ogen 56
uko 56
àn 56
ık 56
Андре@@ 56
Ди@@ 56
ви 56
ա 56
զ@@ 56
الله 56
و 56
দ@@ 56
র 56
ῃ@@ 56
國@@ 56
October 55
alan@@ 55
azo 55
chn@@ 55
condi@@ 55
dest@@ 55
eder 55
election 55
etti@@ 55
general 55
ided 55
igen 55
information 55
kes@@ 55
mis 55
omen 55
second 55
unci@@ 55
ya@@ 55
État 55
Ó@@ 55
äch@@ 55
Ни@@ 55
У 55
Федера@@ 55
бу@@ 55
ке 55
миро@@ 55
му@@ 55
п 55
ши@@ 55
رو@@ 55
ك 55
ন 55
ন@@ 55
រ@@ 55
∧ 55
➢ 55
山@@ 55
Mexico 54
Nam 54
acter@@ 54
acu@@ 54
apon 54
clos@@ 54
days 54
ecke 54
français 54
hr 54
ip 54
kio 54
namo 54
sil 54
species 54
études 54
über 54
ē 54
Но@@ 54
России 54
Ста@@ 54
град 54
ран@@ 54
ре 54
Қ@@ 54
ք 54
شا@@ 54
ἓ@@ 54
タ@@ 54
ト@@ 54
Alem@@ 53
Azer@@ 53
Ce 53
Oy@@ 53
adol@@ 53
afr@@ 53
anan 53
bran@@ 53
constitu@@ 53
cours 53
enden 53
ently 53
idas 53
illes 53
integr@@ 53
kreis 53
licher 53
mant@@ 53
milli@@ 53
national@@ 53
record 53
there 53
tries 53
won 53
économ@@ 53
Си@@ 53
Су@@ 53
Те@@ 53
ня@@ 53
рина 53
ти 53
ري@@ 53
ア@@ 53
ド@@ 53
社 53
Indonesia 52
Mek@@ 52
Stadt@@ 52
alled 52
angi 52
anst@@ 52
buil@@ 52
caus@@ 52
construc@@ 52
conv@@ 52
during 52
egen 52
explo@@ 52
fé@@ 52
history 52
mash@@ 52
may 52
strat@@ 52
tere 52
uela 52
äng@@ 52
Ā@@ 52
ǔ 52
І@@ 52
зо@@ 52
ми 52
хи@@ 52
ча@@ 52
կ 52
الش@@ 52
الق@@ 52
ش 52
Ὅ@@ 52
Gü@@ 51
Ort@@ 51
aque 51
associ@@ 51
cula 51
fahr@@ 51
illed 51
ime@@ 51
ları 51
mf@@ 51
riv@@ 51
sche@@ 51
sein 51
total 51
trou@@ 51
undi 51
wir@@ 51
élé@@ 51
ɕ@@ 51
Ђ@@ 51
Вели@@ 51
кая 51
кра@@ 51
лий 51
лов@@ 51
про@@ 51
футбо@@ 51
ю 51
الأ@@ 51
ان@@ 51
ی@@ 51
জ@@ 51
ὗ 51
‰ 51
↑ 51
東@@ 51
武@@ 51
aged 50
alista 50
bind@@ 50
ellen 50
eñ@@ 50
figur@@ 50
five 50
idence 50
iye 50
jour 50
lieb 50
optera 50
pero 50
schaften 50
season 50
toral 50
tribut@@ 50
verl@@ 50
ã@@ 50
þ@@ 50
ɛ 50
Ха@@ 50
ве 50
кова 50
лу 50
ша@@ 50
ү@@ 50
ار@@ 50
ْ@@ 50
ე 50
フ@@ 50
モ@@ 50
会@@ 50
海@@ 50
Mec@@ 49
México 49
Theo 49
aben 49
agua 49
assen 49
ağı 49
dad@@ 49
did 49
entre 49
fico 49
guerre 49
hara 49
haz@@ 49
histor@@ 49
institu@@ 49
ismus 49
local 49
mab@@ 49
mom@@ 49
nung 49
points 49
pose 49
sey@@ 49
éd@@ 49
üz@@ 49
ņ@@ 49
ŭ@@ 49
Ве@@ 49
Га@@ 49
ля 49
ман 49
ד 49
اب@@ 49
ف 49
შ@@ 49
Como 48
aten@@ 48
bien 48
casa 48
comb@@ 48
contempor@@ 48
eln 48
fam@@ 48
given 48
histoire 48
köy 48
plant@@ 48
stanbul 48
tard 48
west@@ 48
yal 48
ät 48
Иван 48
гу@@ 48
рав@@ 48
ур@@ 48
ֹ@@ 48
إ@@ 48
ု@@ 48
ṇ@@ 48
Ἅ@@ 48
Ὁ@@ 48
カ@@ 48
市 48
田@@ 48
anı 47
arias 47
dad 47
differ@@ 47
emba 47
envir@@ 47
famili@@ 47
forc@@ 47
joint 47
lichen 47
mak 47
matr@@ 47
nou@@ 47
rol 47
services 47
such 47
vu 47
zur@@ 47
ğ 47
Ал@@ 47
Серге@@ 47
дар@@ 47
лы 47
чка 47
ז@@ 47
پ@@ 47
Ḥ@@ 47
ᾷ 47
‑ 47
№ 47
デ@@ 47
バ@@ 47
Eine 46
Isra@@ 46
Nis@@ 46
Stadt 46
bü@@ 46
curr@@ 46
develop@@ 46
development 46
distribu@@ 46
diz@@ 46
engo 46
fall@@ 46
fici@@ 46
ilg@@ 46
ived 46
march@@ 46
mau@@ 46
nant 46
ographie 46
raz@@ 46
respon@@ 46
universit@@ 46
äs@@ 46
ün 46
жа@@ 46
кто@@ 46
Կ@@ 46
الك@@ 46
يا 46
ين 46
க@@ 46
ா@@ 46
Ἠ@@ 46
← 46
白@@ 46
Bir 45
Türk@@ 45
Zwe@@ 45
arri@@ 45
cultur@@ 45
enin 45
gemein@@ 45
hus@@ 45
issen 45
iten 45
kaz@@ 45
nac@@ 45
nay 45
orig@@ 45
original 45
secre@@ 45
tradi@@ 45
usu 45
yas@@ 45
yok@@ 45
ız@@ 45
Би@@ 45
Николай 45
Ти@@ 45
ча 45
տ 45
ք@@ 45
ّ@@ 45
ܝ@@ 45
ニ@@ 45
金@@ 45
한@@ 45
Bev@@ 44
Heim@@ 44
Hö@@ 44
Nieder@@ 44
aki@@ 44
between 44
champ@@ 44
deutscher 44
ekt 44
inh 44
izo 44
lege 44
né@@ 44
resul@@ 44
sent@@ 44
suff@@ 44
tek 44
tif 44
wani 44
¥ 44
Ø@@ 44
äh@@ 44
ís@@ 44
Έ 44
Ф 44
ница 44
пу@@ 44
א 44
بي@@ 44
سي@@ 44
محافظة 44
مي@@ 44
় 44
ῴ@@ 44
一@@ 44
島 44
Entw@@ 43
Guerra 43
Por 43
auch 43
conduc@@ 43
conf@@ 43
grande 43
influ@@ 43
itos 43
liste 43
musical 43
numer@@ 43
once 43
same 43
tek@@ 43
zam@@ 43
ück 43
ś 43
ɑ 43
Гри@@ 43
Д 43
Ла@@ 43
Михаил 43
Ор@@ 43
ба 43
лна 43
ное 43
сь 43
це@@ 43
э 43
Վ@@ 43
مان 43
ە@@ 43
স@@ 43
ἧ@@ 43
ὧ@@ 43
ℓ@@ 43
サ@@ 43
式@@ 43
Mart 42
Wah@@ 42
ations@@ 42
aç 42
century 42
course 42
day@@ 42
deux 42
enen 42
eski 42
exper@@ 42
fab@@ 42
firm@@ 42
haf@@ 42
icht@@ 42
idente 42
later 42
né 42
onship 42
poin@@ 42
prec@@ 42
umu 42
ète 42
üş@@ 42
ır 42
При@@ 42
вер@@ 42
лек@@ 42
лена 42
мен@@ 42
род@@ 42
ян@@ 42
ֶ@@ 42
צ@@ 42
ئ@@ 42
خات@@ 42
र 42
ា@@ 42
₹ 42
ⴰ@@ 42
ス 42
人 42
Apr@@ 41
Califor@@ 41
Deutschen 41
Guin@@ 41
adora 41
aina 41
alar 41
auté 41
charac@@ 41
classi@@ 41
ectu@@ 41
energ@@ 41
entos 41
franc@@ 41
isons 41
istas 41
izi 41
japon@@ 41
kwa 41
reduc@@ 41
sang 41
sexu@@ 41
signed 41
tario 41
tische 41
yap@@ 41
ähr@@ 41
çe 41
ę 41
ǒ@@ 41
Ли@@ 41
Ша@@ 41
ман@@ 41
ния 41
ской 41
сп@@ 41
ци 41
Գ@@ 41
ن 41
ܐ 41
প@@ 41
ி@@ 41
マ@@ 41
八@@ 41
南@@ 41
御@@ 41
新@@ 41
Aires 40
Argentina 40
Fren@@ 40
Para 40
abu 40
administr@@ 40
altung 40
ased 40
autom@@ 40
conc@@ 40
ense@@ 40
held 40
hid@@ 40
inform@@ 40
kia 40
leurs 40
lui 40
mich@@ 40
odo 40
quot@@ 40
requ@@ 40
rá@@ 40
schluss 40
sich@@ 40
âte@@ 40
étr@@ 40
ücke 40
ıl@@ 40
В 40
Геор@@ 40
Чер@@ 40
ван 40
кт 40
лен@@ 40
اد@@ 40
الس@@ 40
من@@ 40
ُ@@ 40
গ@@ 40
レ@@ 40
小@@ 40
西@@ 40
Afrika 39
February 39
Grün@@ 39
Mai 39
Mundial 39
Yeni 39
alter@@ 39
appar@@ 39
beau@@ 39
categ@@ 39
ciones 39
compl@@ 39
each 39
emas 39
eten 39
gil@@ 39
ifa 39
kav@@ 39
kim@@ 39
ký 39
meng@@ 39
ometr@@ 39
personal 39
pré@@ 39
terior 39
trag 39
yen@@ 39
Þ@@ 39
ġ@@ 39
Ș@@ 39
ʾ@@ 39
Ϋ@@ 39
Б 39
Все@@ 39
СССР 39
ан 39
го 39
де 39
ние 39
сан@@ 39
сы 39
тин 39
ции 39
բ 39
الن@@ 39
ح 39
ত@@ 39
ფ@@ 39
₯ 39
∇ 39
∗ 39
家@@ 39
﻿ 39
Distr@@ 38
Kik@@ 38
Osman@@ 38
Viet@@ 38
again 38
alif@@ 38
andes 38
baz@@ 38
cet 38
division 38
iev@@ 38
iß@@ 38
ión 38
libre 38
maz@@ 38
nicht 38
tant 38
third 38
tores 38
trat@@ 38
trä@@ 38
uza 38
vez 38
º 38
¾ 38
áng 38
änd@@ 38
ļ@@ 38
ɨ@@ 38
̱ 38
Я 38
дор 38
лю@@ 38
ско@@ 38
стиче@@ 38
те 38
ту@@ 38
ام@@ 38
ℓ 38
太@@ 38
平@@ 38
民@@ 38
민@@ 38
Buenos 37
Jahr@@ 37
January 37
Leben 37
Soh@@ 37
Wash@@ 37
Yun@@ 37
alan 37
appe@@ 37
bed@@ 37
büt@@ 37
conqu@@ 37
const@@ 37
dav@@ 37
early 37
eden@@ 37
embre 37
eso 37
half 37
hier 37
ient 37
iler@@ 37
inner@@ 37
minut@@ 37
modern 37
next 37
onnat 37
oren 37
relati@@ 37
sad@@ 37
wake 37
Ş 37
ŭ 37
ż 37
ǔ@@ 37
̀ 37
доро@@ 37
фе@@ 37
ռ@@ 37
الح@@ 37
ور@@ 37
ზ@@ 37
ო 37
῾ 37
‐ 37
≪ 37
シ@@ 37
ロ@@ 37
文@@ 37
Fak@@ 36
Im 36
Platz 36
Santi@@ 36
Virgin@@ 36
Wasser@@ 36
abaj@@ 36
adap@@ 36
aña 36
bao 36
benz@@ 36
both 36
carr@@ 36
champi@@ 36
cil 36
commer@@ 36
conserv@@ 36
cost@@ 36
droit 36
enga 36
esha 36
hak@@ 36
keit 36
provin@@ 36
tah@@ 36
yaz@@ 36
º@@ 36
û 36
ħ 36
Œ@@ 36
Ге@@ 36
Лю@@ 36
М 36
Об@@ 36
Сан@@ 36
др 36
мар@@ 36
стро@@ 36
խ@@ 36
بن@@ 36
ير 36
ং@@ 36
য 36
າ@@ 36
⊕ 36
ハ@@ 36
五@@ 36
会 36
宮 36
林@@ 36
Ban 35
Unternehmen 35
adores 35
best@@ 35
chini 35
contra 35
coul@@ 35
defin@@ 35
destr@@ 35
deut@@ 35
director 35
edil@@ 35
ellas 35
encore 35
estas 35
iş@@ 35
kana 35
large 35
mik@@ 35
mont@@ 35
mort 35
nur 35
retr@@ 35
sah@@ 35
schafts@@ 35
tous 35
without 35
ık@@ 35
̌ 35
Кра@@ 35
Му@@ 35
Ту@@ 35
ед@@ 35
зи@@ 35
нин 35
ня 35
от@@ 35
ри 35
спор@@ 35
ای@@ 35
بر@@ 35
ز 35
عبد 35
ေ@@ 35
Ὠ@@ 35
テ@@ 35
ル 35
李@@ 35
語 35
Guerre 34
Tari@@ 34
adan 34
aî@@ 34
design@@ 34
enos 34
ensemble 34
foc@@ 34
gü@@ 34
mano 34
ngu@@ 34
ously 34
pay@@ 34
pens@@ 34
sever@@ 34
sik@@ 34
tee 34
tent@@ 34
util@@ 34
wah@@ 34
would 34
ım@@ 34
ű@@ 34
ɫ@@ 34
ʋ@@ 34
ʔ@@ 34
Н 34
бра@@ 34
жи@@ 34
ита@@ 34
льный 34
ф 34
ъ@@ 34
اد 34
ج 34
چ@@ 34
ப@@ 34
င 34
ძ@@ 34
神 34
門 34
조@@ 34
Kup@@ 33
Straße 33
Vier@@ 33
Welt@@ 33
achen 33
actor 33
against 33
aison 33
aliste 33
assist@@ 33
auen 33
cht@@ 33
church 33
dose 33
eines 33
enso 33
europé@@ 33
expl@@ 33
forma 33
gew@@ 33
hii 33
hiv@@ 33
kup@@ 33
leich@@ 33
pein@@ 33
recher@@ 33
reib@@ 33
rem 33
six 33
uten 33
z. 33
zeit 33
Ét@@ 33
ã 33
ï 33
ög@@ 33
ús@@ 33
ük@@ 33
ünst@@ 33
ız 33
ž 33
ǐ 33
Мак@@ 33
Фа@@ 33
бри@@ 33
вина 33
гла@@ 33
зе@@ 33
обо@@ 33
окру@@ 33
тив@@ 33
ть 33
є@@ 33
ј 33
ث@@ 33
دي@@ 33
म@@ 33
़ 33
ர@@ 33
ိ@@ 33
ც@@ 33
ḍ@@ 33
ἠ 33
‌ 33
≫ 33
♠ 33
♯ 33
十@@ 33
園 33
地@@ 33
株@@ 33
郎 33
Entre 32
II. 32
Yıl@@ 32
arios 32
artist@@ 32
cian 32
compar@@ 32
deutsch@@ 32
dik@@ 32
disput@@ 32
foot@@ 32
génér@@ 32
ilit@@ 32
kale 32
lesia 32
million 32
near 32
oyun@@ 32
represent@@ 32
rég@@ 32
rés@@ 32
traf@@ 32
transfer@@ 32
¿ 32
éti@@ 32
ül 32
İstanbul 32
ɲ@@ 32
ʃ 32
Г 32
Крас@@ 32
Пер@@ 32
Фе@@ 32
до 32
ите@@ 32
лин@@ 32
мов 32
па 32
су@@ 32
ты@@ 32
ър 32
ұ@@ 32
է@@ 32
ב 32
ע 32
اء 32
اس@@ 32
خان 32
گ@@ 32
ۇ@@ 32
ស@@ 32
ḥ 32
ἤ 32
⊆ 32
ⱏ@@ 32
Burundi 31
Bürger@@ 31
Spiel@@ 31
ayı 31
brach@@ 31
chs 31
comun@@ 31
drei 31
dur 31
films 31
fond@@ 31
government 31
guit@@ 31
gut 31
iku@@ 31
inco 31
iran 31
irat@@ 31
kay@@ 31
llev@@ 31
mundo 31
nouveau 31
pays 31
promot@@ 31
role 31
sana 31
spor 31
telev@@ 31
vier@@ 31
yü@@ 31
zor@@ 31
éré@@ 31
ör 31
ʌ@@ 31
ʹ 31
Кара@@ 31
Петер@@ 31
Сто@@ 31
аль@@ 31
вый 31
ева 31
йской 31
лы@@ 31
ме 31
ные 31
санд@@ 31
фи@@ 31
ья 31
қ 31
ծ@@ 31
ց 31
ׁ@@ 31
اش@@ 31
الإ@@ 31
دي 31
ما@@ 31
مر@@ 31
مو@@ 31
نا 31
් 31
ු@@ 31
ἶ 31
ὤ@@ 31
京@@ 31
安@@ 31
Forsch@@ 30
Kenya 30
Kır@@ 30
Tanz@@ 30
Verein 30
aciones 30
anno@@ 30
azu 30
contre 30
cá@@ 30
deutschen 30
district 30
enfants 30
fav@@ 30
fot@@ 30
herr@@ 30
ieder 30
independ@@ 30
loi 30
là 30
members 30
munici@@ 30
mé 30
ober@@ 30
polic@@ 30
registr@@ 30
said 30
sek 30
sich 30
still 30
tigen 30
tout 30
unu 30
women 30
zas 30
Â@@ 30
èmes 30
ünde 30
ŋ 30
ϛ 30
Кар@@ 30
Ком@@ 30
Мария 30
П 30
Ю 30
бли@@ 30
боль@@ 30
ван@@ 30
дро@@ 30
ны 30
пол@@ 30
рис 30
ские 30
стан 30
щи@@ 30
ёт@@ 30
џ@@ 30
Ե@@ 30
Ն@@ 30
ւ 30
ال 30
الد@@ 30
جب@@ 30
رة 30
لل@@ 30
لو@@ 30
مع@@ 30
ک@@ 30
ܘ@@ 30
ර@@ 30
ᾱ@@ 30
ⰻ@@ 30
オ@@ 30
四@@ 30
少@@ 30
者 30
華@@ 30
高@@ 30
선@@ 30
Böl@@ 29
Frau 29
Mär@@ 29
Nigeria 29
alı 29
being 29
bul 29
combin@@ 29
determin@@ 29
ersch@@ 29
exten@@ 29
fak@@ 29
kid@@ 29
organiz@@ 29
present 29
probl@@ 29
religi@@ 29
sociation 29
Über@@ 29
èg@@ 29
équ@@ 29
úl@@ 29
ück@@ 29
Ć@@ 29
ĕ@@ 29
İk@@ 29
ź@@ 29
ș 29
ɾ 29
ʂ@@ 29
Димит@@ 29
ата@@ 29
ж 29
лё@@ 29
рец 29
ска@@ 29
сов 29
це 29
Թ@@ 29
ց@@ 29
آ@@ 29
با@@ 29
في@@ 29
وا@@ 29
ور 29
ۋ@@ 29
দ 29
হ@@ 29
ਾ@@ 29
த@@ 29
བ@@ 29
ὦ 29
∂ 29
和@@ 29
明@@ 29
江@@ 29
法@@ 29
Alman@@ 28
Gemein@@ 28
Wirt@@ 28
anlığı 28
ately 28
awa@@ 28
beit 28
candid@@ 28
children 28
community 28
deu@@ 28
gran 28
ibu 28
ically 28
ités 28
kip@@ 28
monum@@ 28
naf@@ 28
ndi@@ 28
ngh@@ 28
nomin@@ 28
propi@@ 28
qued@@ 28
stil@@ 28
temper@@ 28
vile 28
vom 28
wap@@ 28
who@@ 28
ède 28
être 28
ıs 28
ň@@ 28
ǐ@@ 28
ʼ@@ 28
̞ 28
Бал@@ 28
Македо@@ 28
Моск@@ 28
Национа@@ 28
Ново@@ 28
из@@ 28
льная 28
рен@@ 28
рин 28
ске 28
ского 28
тов 28
три@@ 28
ғ@@ 28
մ 28
أبو 28
ام 28
در@@ 28
ذ@@ 28
ند@@ 28
ަ@@ 28
द 28
प 28
रा@@ 28
မ@@ 28
წ@@ 28
™ 28
∪ 28
● 28
ド 28
プ@@ 28
대@@ 28
Ağ@@ 27
Parlam@@ 27
anderen 27
anl@@ 27
appear@@ 27
bang 27
before 27
bey@@ 27
bish@@ 27
brit@@ 27
chef 27
company 27
ehir 27
exist@@ 27
ezi 27
formed 27
four@@ 27
govern@@ 27
habit@@ 27
hac@@ 27
hoa 27
imbo 27
imiento 27
jud@@ 27
kem@@ 27
lima 27
nom 27
prac@@ 27
rière 27
tam 27
versit@@ 27
wann 27
wissen@@ 27
ür 27
İn@@ 27
ʼ 27
Гра@@ 27
Ин@@ 27
бал@@ 27
град@@ 27
лин 27
нато@@ 27
ря@@ 27
слав@@ 27
сов@@ 27
ў 27
Տ@@ 27
փ@@ 27
ֵ@@ 27
ات 27
الخ@@ 27
القدم 27
نا@@ 27
त 27
न 27
ြ@@ 27
ង 27
ἀ 27
ὃ 27
Ὄ@@ 27
ῷ@@ 27
☉ 27
り@@ 27
ァ@@ 27
ウ@@ 27
パ@@ 27
人@@ 27
佐@@ 27
宮@@ 27
拳 27
皇 27
김@@ 27
Engl@@ 26
Mkoa 26
Phi 26
Việt 26
aifa 26
alem@@ 26
another 26
direction 26
eden 26
ehem@@ 26
eler@@ 26
jeu 26
kam 26
member 26
mois 26
partic@@ 26
political 26
rail@@ 26
resid@@ 26
seur 26
trois 26
ungu 26
utsch@@ 26
uzi 26
written 26
wur@@ 26
zey 26
çal@@ 26
ême 26
üst@@ 26
ıl 26
ź 26
ʎ@@ 26
ак@@ 26
бан@@ 26
ера 26
осу@@ 26
пор@@ 26
ских 26
тина 26
чи 26
шка 26
ё 26
ջ@@ 26
ש 26
ست@@ 26
سل@@ 26
لكرة 26
ون@@ 26
وي@@ 26
শ@@ 26
ো@@ 26
ு@@ 26
์ 26
ṛ@@ 26
ἣ@@ 26
↔ 26
し@@ 26
な@@ 26
キ@@ 26
ト 26
上@@ 26
国 26
木@@ 26
王@@ 26
국@@ 26
도 26
19. 25
According 25
Anc@@ 25
Francia 25
Gesch@@ 25
Lond@@ 25
Tür@@ 25
Verein@@ 25
actu@@ 25
arak 25
atif 25
auspi@@ 25
cada 25
called 25
clas@@ 25
conse@@ 25
développ@@ 25
elected 25
español 25
hui 25
kut@@ 25
lieu 25
maf@@ 25
nah@@ 25
oku@@ 25
ortho@@ 25
oyn@@ 25
period 25
published 25
régi@@ 25
sent 25
stellung 25
tainment 25
toire 25
udi 25
una@@ 25
xu@@ 25
zentr@@ 25
éo 25
öster@@ 25
ún@@ 25
̰ 25
Ϛ 25
Българ@@ 25
Пи@@ 25
Пу@@ 25
бе 25
ден 25
кате@@ 25
ктор 25
мия 25
обще@@ 25
пар@@ 25
спо@@ 25
сси@@ 25
стра@@ 25
ты 25
фо@@ 25
Պ@@ 25
լ 25
ات@@ 25
اط@@ 25
الل@@ 25
ستان 25
ع 25
من 25
وال@@ 25
य 25
स 25
ক 25
ས@@ 25
က@@ 25
ὀ 25
ὖ 25
お@@ 25
エ@@ 25
ズ 25
チ@@ 25
ナ@@ 25
ャ@@ 25
命 25
忍@@ 25
花@@ 25
院 25
Dans 24
Tod 24
arbeit@@ 24
besch@@ 24
cause 24
central 24
einen 24
eser@@ 24
fass@@ 24
fica 24
film@@ 24
following 24
greso 24
gru@@ 24
hio 24
ikan@@ 24
incre@@ 24
kari@@ 24
lage 24
lık 24
mec@@ 24
onales 24
population 24
princi@@ 24
professi@@ 24
puis 24
reti@@ 24
route 24
sera 24
signific@@ 24
tiy@@ 24
unia 24
until 24
éré 24
ét 24
üng@@ 24
ısı 24
ıy@@ 24
Ț@@ 24
̂ 24
За 24
Кор@@ 24
Ши@@ 24
ати@@ 24
йский 24
лия 24
мя@@ 24
народ@@ 24
ной 24
ных 24
ру 24
сте@@ 24
тур@@ 24
чки 24
ң@@ 24
ү 24
Բ@@ 24
Շ@@ 24
ձ@@ 24
فر@@ 24
مة 24
می@@ 24
يم 24
र@@ 24
ী 24
တ@@ 24
პ@@ 24
ḏ@@ 24
ẓ@@ 24
Ἴ@@ 24
⊥ 24
ⰰ@@ 24
コ@@ 24
ブ@@ 24
公@@ 24
殿 24
河@@ 24
立@@ 24
사@@ 24
Kirche 23
cier@@ 23
comme 23
could 23
cré@@ 23
different 23
ecto 23
ehe 23
endant 23
erung 23
eshi 23
fik@@ 23
forme 23
geri 23
gé@@ 23
hay@@ 23
inin 23
isho 23
isim@@ 23
jaw@@ 23
jours 23
kamp@@ 23
kung 23
lagen 23
langu@@ 23
mais 23
manif@@ 23
más 23
même 23
occas@@ 23
pek@@ 23
schaft@@ 23
sek@@ 23
sett@@ 23
situ@@ 23
siy@@ 23
só@@ 23
tür@@ 23
unas 23
yük 23
zh 23
© 23
¯ 23
Í 23
ôle 23
ôt 23
õ 23
İz@@ 23
Бар@@ 23
Р 23
Че@@ 23
ари 23
бург 23
воло@@ 23
йн 23
клуб 23
кон@@ 23
нина 23
нь 23
од@@ 23
рия 23
рус@@ 23
ста 23
сти 23
цы 23
ян 23
և@@ 23
أحمد 23
الب@@ 23
دة 23
مه@@ 23
وري 23
يد 23
ھ@@ 23
ین 23
ܪ@@ 23
އ@@ 23
ला 23
ச@@ 23
ວ@@ 23
ັ@@ 23
ម@@ 23
រ 23
ᠠ@@ 23
ⲁ@@ 23
ⲓ@@ 23
ⵉ@@ 23
セ@@ 23
ダ@@ 23
ワ@@ 23
州 23
本 23
清@@ 23
田 23
국 23
Canton 22
Cumhuriy@@ 22
Minister@@ 22
Oly@@ 22
Osmanlı 22
Uganda 22
Woh@@ 22
alten 22
anh 22
anyika 22
aşa 22
cito 22
dini 22
durch 22
escu@@ 22
familia 22
inclu@@ 22
ingi 22
ingt 22
introduc@@ 22
jour@@ 22
marqu@@ 22
mim@@ 22
mt 22
muj@@ 22
novel@@ 22
observ@@ 22
parte 22
premier 22
prepar@@ 22
qué 22
these 22
tés 22
verw@@ 22
yay@@ 22
Ó 22
át 22
çi 22
ɴ 22
ʝ@@ 22
̩ 22
̪ 22
Гу@@ 22
Из@@ 22
Ло@@ 22
Пра@@ 22
Сою@@ 22
Сре@@ 22
бы@@ 22
вет 22
дру@@ 22
жа 22
им@@ 22
кин 22
ку 22
мир@@ 22
нин@@ 22
соци@@ 22
тар@@ 22
тор@@ 22
тра@@ 22
шо@@ 22
ҡ@@ 22
һ@@ 22
Լ@@ 22
، 22
علي 22
في 22
قاد@@ 22
وم 22
يل 22
ک 22
ܕ@@ 22
ܡ@@ 22
ल 22
আ@@ 22
ল 22
ར@@ 22
န 22
း@@ 22
ὓ@@ 22
‍ 22
‒ 22
⅓ 22
∀ 22
∘ 22
ⲟ@@ 22
り 22
ム@@ 22
ラ 22
一 22
主@@ 22
古@@ 22
合@@ 22
石@@ 22
韓@@ 22
Après 21
Besch@@ 21
Bu 21
Bür@@ 21
Pia 21
Sept@@ 21
alité 21
amente 21
ancak 21
ativo 21
autor@@ 21
biet 21
biy@@ 21
celle 21
clim@@ 21
concentr@@ 21
declar@@ 21
dows 21
egos 21
elerin 21
españ@@ 21
excep@@ 21
financi@@ 21
franç@@ 21
général 21
ihr 21
istre 21
kuj@@ 21
lande 21
popular 21
propri@@ 21
serie 21
since 21
some@@ 21
teurs 21
tof@@ 21
village 21
visit@@ 21
wach@@ 21
went 21
zeu@@ 21
zwe@@ 21
áo 21
äu@@ 21
écn@@ 21
élec@@ 21
érieur 21
ñ 21
ôn 21
ě 21
ĝ 21
ği 21
ʊ 21
Авто@@ 21
Жи@@ 21
Зе@@ 21
Т 21
Ше@@ 21
дия 21
зы@@ 21
лина 21
мы@@ 21
ности 21
ны@@ 21
обла@@ 21
ора 21
партия 21
пер@@ 21
сен 21
ства 21
ствен@@ 21
сы@@ 21
ѣ@@ 21
ו 21
ائ@@ 21
الز@@ 21
اني 21
مل@@ 21
ني@@ 21
وب@@ 21
މ@@ 21
ட@@ 21
வ@@ 21
ས 21
ပ@@ 21
ာ@@ 21
Ἥ@@ 21
ᾧ 21
ῤ@@ 21
ῳ@@ 21
ベ@@ 21
中国@@ 21
六@@ 21
刀 21
城@@ 21
堂 21
子@@ 21
宇@@ 21
家 21
師 21
朝@@ 21
焼@@ 21
球@@ 21
社@@ 21
福@@ 21
美@@ 21
道@@ 21
青@@ 21
이@@ 21
정@@ 21
주@@ 21
Baş@@ 20
Jahre 20
ached 20
alifor@@ 20
among 20
because 20
capac@@ 20
charg@@ 20
como 20
complet@@ 20
contribu@@ 20
dej@@ 20
depuis 20
donn@@ 20
enzi 20
equi@@ 20
fér@@ 20
hay 20
hut@@ 20
interpret@@ 20
kön@@ 20
landa 20
ligne 20
luk 20
making 20
material 20
nach@@ 20
ongo@@ 20
ouver@@ 20
ported 20
präs@@ 20
rement 20
rir 20
scheid@@ 20
separ@@ 20
serve 20
ubic@@ 20
È@@ 20
États 20
ük 20
üncü 20
İl@@ 20
ǎ 20
ɒ@@ 20
ɵ@@ 20
ʁ 20
ʰ 20
ʲ 20
̈ 20
Боль@@ 20
Хри@@ 20
би 20
ган@@ 20
горо@@ 20
дан 20
лен 20
пре@@ 20
при@@ 20
рин@@ 20
ры 20
тру@@ 20
шки 20
шко@@ 20
ье 20
Յ@@ 20
դ 20
ּ 20
ץ 20
اج@@ 20
از@@ 20
الت@@ 20
الدين 20
اه@@ 20
بلا@@ 20
سن@@ 20
سو@@ 20
لا@@ 20
لة 20
ܢ@@ 20
य@@ 20
ක@@ 20
ා@@ 20
ດ@@ 20
ສ@@ 20
། 20
ყ@@ 20
አ@@ 20
ក 20
ុ@@ 20
ὅ 20
ℝ 20
♣ 20
》 20
た@@ 20
ボ@@ 20
世@@ 20
周@@ 20
士 20
會 20
水@@ 20
百@@ 20
Auf 19
Dez@@ 19
Er 19
Gruppe 19
Lehr@@ 19
aband@@ 19
alim@@ 19
allem@@ 19
along 19
cargo 19
commune 19
département 19
día 19
experi@@ 19
fait 19
ghi 19
gradu@@ 19
historia 19
hô@@ 19
ifu 19
inten@@ 19
jeun@@ 19
kua 19
lama 19
laya 19
lichkeit 19
materi@@ 19
named 19
nuevo 19
osas 19
parti 19
pios 19
reci@@ 19
sobre 19
tay@@ 19
ually 19
uş@@ 19
waf@@ 19
wam@@ 19
within 19
zeit@@ 19
ª 19
Ò@@ 19
ände 19
édi@@ 19
éta@@ 19
óng 19
úa 19
üf@@ 19
ĭ@@ 19
ũ@@ 19
Ț 19
ɨ 19
ϝ@@ 19
Є@@ 19
Пар@@ 19
Фили@@ 19
ад@@ 19
вен@@ 19
вица 19
вы@@ 19
ды@@ 19
зан@@ 19
зер@@ 19
ита 19
област 19
при 19
рай@@ 19
ран 19
стан@@ 19
сто 19
ут@@ 19
чен@@ 19
щ@@ 19
ър@@ 19
ён 19
ө 19
շ 19
است@@ 19
حسن 19
زيرة 19
عب 19
فة 19
ما 19
نج@@ 19
ण 19
व@@ 19
ह@@ 19
চ@@ 19
ய@@ 19
ප@@ 19
ි@@ 19
ม@@ 19
ོ@@ 19
့ 19
ṭ 19
ἃ 19
ἣ 19
Ὡ@@ 19
∩ 19
⊂ 19
《 19
う@@ 19
ま@@ 19
ア 19
ィ@@ 19
ガ@@ 19
グ@@ 19
メ@@ 19
人民@@ 19
文 19
氏 19
画 19
自@@ 19
기@@ 19
의 19
인@@ 19
Amerika 18
Esta 18
angu 18
baş@@ 18
bâ@@ 18
bö@@ 18
có@@ 18
dung 18
egem@@ 18
ehen 18
elik 18
emente 18
fils 18
found 18
gol 18
gün 18
hosp@@ 18
ickl@@ 18
jeres 18
kend@@ 18
klär@@ 18
maya 18
military 18
muda 18
noch 18
ológ@@ 18
origin@@ 18
ouvern@@ 18
pour@@ 18
quier 18
received 18
recog@@ 18
seh@@ 18
système 18
those 18
though 18
titul@@ 18
travail 18
yol@@ 18
ào 18
âm 18
était 18
öß@@ 18
üm 18
ızı 18
ış@@ 18
Ţ@@ 18
ů@@ 18
̣ 18
Бело@@ 18
Вер@@ 18
Йо@@ 18
Ке@@ 18
Кри@@ 18
Ри@@ 18
Центра@@ 18
ата 18
бо 18
лиза@@ 18
лова 18
нал 18
ного 18
нски 18
рон@@ 18
тия 18
чу@@ 18
ҳ@@ 18
Ի@@ 18
Ք@@ 18
ג 18
اس 18
الر@@ 18
العربية 18
ث 18
خان@@ 18
دائ@@ 18
زي@@ 18
صر 18
وت@@ 18
ܬ@@ 18
न@@ 18
म 18
ত 18
க 18
ம@@ 18
ང 18
ṃ@@ 18
ṯ@@ 18
ὂ@@ 18
ⲙ@@ 18
き 18
つ@@ 18
ノ@@ 18
佛@@ 18
南 18
帝 18
治@@ 18
王 18
藤@@ 18
野@@ 18
館 18
龍@@ 18
15. 17
Cuando 17
Geg@@ 17
Meister@@ 17
Mitte 17
Nh@@ 17
Par 17
Zu 17
après 17
años 17
came 17
chte 17
dah@@ 17
ded@@ 17
derni@@ 17
dire@@ 17
duk@@ 17
dül@@ 17
einem 17
famille 17
igt 17
import@@ 17
larg@@ 17
leit@@ 17
much 17
nouvelle 17
où 17
oğ@@ 17
program@@ 17
propor@@ 17
quan 17
quatre 17
record@@ 17
rek@@ 17
released 17
spor@@ 17
sud 17
suite 17
sö@@ 17
tish@@ 17
weit@@ 17
zus@@ 17
¢ 17
Üniversitesi 17
ài 17
änder@@ 17
äus@@ 17
óm@@ 17
÷ 17
ıs@@ 17
ɣ 17
ɦ@@ 17
ʾ 17
ʿ 17
Бра@@ 17
Вол@@ 17
Кон@@ 17
СР 17
ССР 17
Хо@@ 17
авто@@ 17
ани 17
бар@@ 17
гра@@ 17
дво@@ 17
дов 17
ды 17
ер 17
зем@@ 17
лица 17
мя 17
ники 17
ок@@ 17
парти@@ 17
пера@@ 17
сер@@ 17
ственный 17
ститу@@ 17
стов 17
ше 17
эн@@ 17
Ո@@ 17
ֲ@@ 17
ח 17
ק 17
اف@@ 17
اق@@ 17
بي 17
تر@@ 17
دان@@ 17
ربي 17
رية 17
شر@@ 17
قط@@ 17
مح@@ 17
مص@@ 17
ް@@ 17
ख@@ 17
ग@@ 17
ल@@ 17
গ 17
ট@@ 17
ভ@@ 17
ম 17
ਸ@@ 17
ம 17
ி 17
น@@ 17
่ 17
ྲ@@ 17
ት@@ 17
ដ@@ 17
ន@@ 17
ប 17
ἒ@@ 17
ᾳ@@ 17
‣ 17
∨ 17
ⰾ@@ 17
ⱄ@@ 17
ⲣ@@ 17
き@@ 17
ん@@ 17
イ 17
ゴ@@ 17
國 17
川 17
松@@ 17
漢@@ 17
特@@ 17
記 17
足@@ 17
阿@@ 17
도@@ 17
Ankara 16
Ayr@@ 16
Haup@@ 16
Janu@@ 16
agric@@ 16
anistan 16
aras@@ 16
arded 16
arı 16
atika 16
atta@@ 16
autre 16
celebr@@ 16
civil 16
consider@@ 16
cual 16
dado 16
elimin@@ 16
emper@@ 16
erste 16
fois 16
frances@@ 16
hata 16
huy@@ 16
ieren 16
ingia 16
innen 16
kata 16
mek@@ 16
mente 16
msh@@ 16
muz@@ 16
nouv@@ 16
obra 16
octu@@ 16
onu 16
origine 16
oría 16
osu 16
pendant 16
result@@ 16
señ@@ 16
sont 16
sos@@ 16
teil@@ 16
television 16
trieb@@ 16
unos 16
vard@@ 16
zt 16
µ 16
Ü 16
üne 16
üre@@ 16
Ž 16
ʒ 16
Вар@@ 16
З 16
Кур@@ 16
Москов@@ 16
ате@@ 16
ать 16
вая 16
воз@@ 16
гар@@ 16
гово@@ 16
гре@@ 16
ден@@ 16
жо@@ 16
кан@@ 16
кру@@ 16
му 16
ников 16
росси@@ 16
сия 16
сло@@ 16
спа@@ 16
уч@@ 16
фа 16
цо@@ 16
че 16
ще@@ 16
ժ@@ 16
ծ 16
الاتحاد 16
البح@@ 16
الص@@ 16
الغ@@ 16
ایران 16
باش@@ 16
بل@@ 16
تح@@ 16
سلط@@ 16
ض@@ 16
عبد@@ 16
عة 16
عث@@ 16
وم@@ 16
يخ 16
ދ@@ 16
क 16
ज 16
त@@ 16
ली 16
ਰ@@ 16
ன 16
ல@@ 16
้ 16
ລ@@ 16
ະ@@ 16
ခ@@ 16
ር@@ 16
គ@@ 16
ជ@@ 16
ម 16
់ 16
ḫ@@ 16
Ṣ@@ 16
ἆ@@ 16
ἳ 16
ἴ 16
ᾠ@@ 16
ⰲ@@ 16
ⰵ@@ 16
ⴻ@@ 16
い@@ 16
し 16
っ@@ 16
全@@ 16
天 16
川@@ 16
春@@ 16
池 16
法 16
流 16
猿 16
猿@@ 16
生@@ 16
義@@ 16
部 16
都@@ 16
長@@ 16
香@@ 16
馬@@ 16
구@@ 16
이 16
Allem@@ 15
Anf@@ 15
Büyük 15
Desde 15
Durch@@ 15
Ende 15
Grenz@@ 15
ambu@@ 15
appel@@ 15
autres 15
beri 15
canción 15
consist@@ 15
dok@@ 15
déc@@ 15
emu 15
ennen 15
entro 15
faz@@ 15
fuer@@ 15
fäl@@ 15
fü@@ 15
inclus@@ 15
jah@@ 15
jap@@ 15
jiji 15
kiye 15
mita 15
neue 15
orden 15
organisation 15
otros 15
perman@@ 15
prak@@ 15
principal 15
proces@@ 15
propos@@ 15
puer@@ 15
quali@@ 15
reco@@ 15
todo 15
tourn@@ 15
unca 15
uu 15
verk@@ 15
wenn 15
with@@ 15
ái 15
âce 15
çu 15
ên 15
þ 15
ľ@@ 15
ň 15
şu 15
˘ 15
̇ 15
στόσο 15
Георги 15
Пред@@ 15
Ча@@ 15
Шу@@ 15
ато@@ 15
вета 15
вод@@ 15
вой@@ 15
ги 15
государствен@@ 15
дь@@ 15
ез@@ 15
жен@@ 15
зар@@ 15
кор@@ 15
крат@@ 15
мет@@ 15
мор@@ 15
оло@@ 15
публики 15
сен@@ 15
су 15
тиче@@ 15
тов@@ 15
тура 15
университет 15
чер@@ 15
ҙ@@ 15
ң 15
ә 15
յ 15
չ@@ 15
آل 15
اسلامی 15
الف@@ 15
بع@@ 15
حزب 15
راء 15
ري 15
سی@@ 15
علم 15
كل@@ 15
مجلس 15
مي 15
مَ@@ 15
نة 15
وری 15
ने@@ 15
वा@@ 15
स@@ 15
প 15
ি 15
ী@@ 15
ਿ@@ 15
ੰ@@ 15
ກ@@ 15
ມ@@ 15
ເ@@ 15
້ 15
འ@@ 15
ོ 15
ྱ@@ 15
ွ@@ 15
ჭ@@ 15
ჯ@@ 15
ក@@ 15
ា 15
ệu 15
› 15
ⵔ@@ 15
と@@ 15
ど@@ 15
る 15
ん 15
ョ@@ 15
克@@ 15
内@@ 15
区 15
唐@@ 15
女@@ 15
字 15
市@@ 15
幡@@ 15
所 15
朝 15
汉@@ 15
河 15
皇@@ 15
絵 15
강@@ 15
남@@ 15
의@@ 15
 15
14. 14
Geometr@@ 14
Guinea 14
Gür@@ 14
Jahrhunderts 14
Lan 14
Ligi 14
Mit 14
Nguyễn 14
Sein 14
Teil@@ 14
afu 14
angla@@ 14
ateurs 14
became 14
bier@@ 14
bora 14
built 14
colon@@ 14
cuer@@ 14
dak@@ 14
debut 14
dır@@ 14
east 14
ellos 14
fte 14
geg@@ 14
icha 14
idades 14
ihre 14
imu 14
including 14
invol@@ 14
isine 14
khi 14
kub@@ 14
lil@@ 14
mek 14
médi@@ 14
nda 14
rece@@ 14
sind 14
siz 14
soll 14
south 14
statt 14
suiv@@ 14
también 14
tü@@ 14
waka 14
wala 14
wirt@@ 14
Ø 14
ám 14
Ħ@@ 14
ına 14
ķ@@ 14
ɯ@@ 14
ʏ@@ 14
ʐ@@ 14
ʑ@@ 14
ʔ 14
ʤ@@ 14
̡ 14
Ϝ 14
Вы@@ 14
Рос@@ 14
Свети 14
Х 14
вар@@ 14
дь 14
зна@@ 14
или 14
им 14
имени 14
итель@@ 14
кло@@ 14
комите@@ 14
къ@@ 14
лан@@ 14
лка 14
нау@@ 14
обра@@ 14
пра@@ 14
прав@@ 14
тин@@ 14
ту 14
федера@@ 14
ши 14
ще 14
Ռ@@ 14
զ 14
׃ 14
الي 14
انية 14
برا@@ 14
تب@@ 14
تي 14
رب 14
سط@@ 14
على 14
عي@@ 14
قر@@ 14
محمود 14
ندي 14
وادي 14
وق@@ 14
ين@@ 14
ܠ@@ 14
ܣ@@ 14
ި@@ 14
अ@@ 14
का@@ 14
ग 14
ना@@ 14
ই@@ 14
ு 14
ම@@ 14
ස@@ 14
ງ@@ 14
ຊ@@ 14
ག@@ 14
ན 14
ི@@ 14
ရ@@ 14
ာ 14
ჩ@@ 14
ክ@@ 14
ន 14
ប@@ 14
Ἤ@@ 14
ᾗ 14
ῇ@@ 14
₂ 14
₤ 14
⇆ 14
⇒ 14
▪ 14
♥ 14
ⱀ@@ 14
ⱝ@@ 14
「 14
」 14
い 14
ェ@@ 14
ク 14
ュ@@ 14
之@@ 14
京 14
元@@ 14
华@@ 14
協@@ 14
士@@ 14
宗@@ 14
書@@ 14
木 14
楽@@ 14
正@@ 14
津@@ 14
洲@@ 14
菜 14
門@@ 14
고@@ 14
공@@ 14
인 14
지@@ 14
평@@ 14
화@@ 14
16. 13
Als 13
Barcel@@ 13
Bei 13
Mungu 13
Müz@@ 13
absol@@ 13
adı 13
amiento 13
command@@ 13
competi@@ 13
construction 13
desc@@ 13
diplom@@ 13
dün@@ 13
encias 13
estos 13
favor@@ 13
few 13
fut 13
guerra 13
having 13
important 13
inici@@ 13
kı 13
lég@@ 13
lü 13
lü@@ 13
lük 13
lığı 13
meil@@ 13
menos 13
mittel@@ 13
oblig@@ 13
osos 13
personn@@ 13
père 13
rar 13
schw@@ 13
taş@@ 13
teil 13
très 13
yük@@ 13
yıl 13
Ç 13
çı 13
él 13
öch@@ 13
üçük 13
üş 13
ğr@@ 13
ĩ@@ 13
İ 13
œuvre 13
Ə@@ 13
ɲ 13
ˀ 13
ˈ 13
˚ 13
΅ 13
Ак@@ 13
Дру@@ 13
София 13
арти@@ 13
бер@@ 13
блиоте@@ 13
бург@@ 13
воен@@ 13
ген@@ 13
гори@@ 13
ду 13
ек@@ 13
же 13
жи 13
ил 13
каде@@ 13
кре@@ 13
лев@@ 13
лич@@ 13
миче@@ 13
мокра@@ 13
ность 13
ну@@ 13
око@@ 13
остров 13
пас@@ 13
пат@@ 13
рат 13
ственной 13
теле@@ 13
фу@@ 13
хра@@ 13
ца@@ 13
цион@@ 13
чев 13
ща 13
ёр@@ 13
Ա 13
Դ@@ 13
Զ@@ 13
Փ@@ 13
թ 13
ճ@@ 13
ׁ 13
ז 13
الت 13
العرا@@ 13
او@@ 13
اي@@ 13
بة 13
بر 13
رض@@ 13
سع@@ 13
عب@@ 13
علی 13
مد@@ 13
مُ@@ 13
ول@@ 13
ولا@@ 13
يو@@ 13
ّ 13
ہ 13
ܐ@@ 13
ު@@ 13
ट 13
प@@ 13
या@@ 13
ง@@ 13
ນ 13
ນ@@ 13
ུ@@ 13
ပ 13
ယ 13
ብ@@ 13
ត 13
ត@@ 13
ែ@@ 13
ṣ 13
ἵ 13
‛ 13
⇄ 13
ⰴ@@ 13
ⲉ@@ 13
ⲛ 13
ⵎ@@ 13
ⵜ@@ 13
く@@ 13
ち@@ 13
る@@ 13
ザ@@ 13
ソ@@ 13
七@@ 13
东@@ 13
九@@ 13
伊@@ 13
信@@ 13
共和@@ 13
動@@ 13
千@@ 13
原 13
原@@ 13
县 13
台@@ 13
吉@@ 13
塔 13
多@@ 13
夫 13
学@@ 13
官@@ 13
島@@ 13
帝@@ 13
年 13
戦@@ 13
方@@ 13
日 13
時@@ 13
月@@ 13
条@@ 13
洛@@ 13
清 13
秋@@ 13
藤 13
성@@ 13
수@@ 13
시 13
일@@ 13
회 13
13. 12
20. 12
Akad@@ 12
Anh 12
Cumhuriyeti 12
Dr. 12
Für 12
However 12
Kif@@ 12
Sohn 12
Unis 12
acı 12
ajes 12
akt@@ 12
alien 12
asyonu 12
banda 12
bere@@ 12
biri 12
career 12
corresp@@ 12
created 12
culo 12
doğ@@ 12
dres 12
drit@@ 12
dön@@ 12
eyi 12
fonc@@ 12
forces 12
gez@@ 12
huri 12
investig@@ 12
join@@ 12
juli@@ 12
kommen 12
kül@@ 12
lerin 12
lili@@ 12
lés 12
mehr 12
moja 12
nete 12
nh 12
occup@@ 12
onya 12
orden@@ 12
organis@@ 12
otra 12
partement 12
particip@@ 12
particu@@ 12
poco 12
police 12
previ@@ 12
produ@@ 12
provincia 12
schließ@@ 12
succ@@ 12
tions@@ 12
topl@@ 12
ufu 12
ulus@@ 12
uvu 12
werden 12
wezi 12
xième 12
zul@@ 12
àng 12
äre 12
étu@@ 12
óg@@ 12
ış 12
şehir 12
ț 12
ʉ@@ 12
ʎ 12
ϕ@@ 12
Ϟ@@ 12
Ј 12
Љ@@ 12
Бер@@ 12
Е 12
Мал@@ 12
СА@@ 12
Ско@@ 12
Три@@ 12
Чи@@ 12
Щ@@ 12
Ы@@ 12
анд@@ 12
бы 12
града 12
ени 12
зах@@ 12
зе 12
зя@@ 12
кой 12
мер@@ 12
мон@@ 12
над@@ 12
национа@@ 12
опера@@ 12
от 12
профе@@ 12
раз@@ 12
рас@@ 12
сре@@ 12
сс 12
стар@@ 12
тан@@ 12
тат@@ 12
тер 12
това 12
фут@@ 12
ху@@ 12
цар@@ 12
шая 12
шин@@ 12
ый 12
ят 12
љ 12
Ө@@ 12
ט 12
أس 12
الفل@@ 12
الوطني 12
تا@@ 12
دار 12
دير 12
رب@@ 12
رين 12
زا 12
زی@@ 12
عل@@ 12
قل@@ 12
كة 12
مش@@ 12
منطقة 12
هر 12
ު 12
क@@ 12
ड 12
वि@@ 12
ष 12
ष@@ 12
ফ@@ 12
য@@ 12
ৈ@@ 12
ৰ 12
ย@@ 12
ส@@ 12
່ 12
མ@@ 12
န@@ 12
လ@@ 12
း 12
መ@@ 12
ព@@ 12
ូ@@ 12
Ṭ@@ 12
Ὕ@@ 12
ὢ@@ 12
ᾱ 12
ᾷ@@ 12
ῄ@@ 12
ⱁ@@ 12
ⱃ@@ 12
ⱅ@@ 12
ⲡ@@ 12
ⲥ@@ 12
ⲧ@@ 12
ⴷ@@ 12
か@@ 12
さ@@ 12
み@@ 12
ィ 12
ケ@@ 12
ゲ@@ 12
ミ@@ 12
下@@ 12
二 12
井@@ 12
伝@@ 12
光@@ 12
利@@ 12
加@@ 12
大 12
安 12
广@@ 12
手@@ 12
政@@ 12
旗 12
明 12
楊@@ 12
武 12
湖 12
玉@@ 12
科@@ 12
術 12
话 12
马@@ 12
鮮@@ 12
黄@@ 12
단 12
원 12
원@@ 12
육@@ 12
 12
Auch 11
Fahr@@ 11
Mto 11
Verw@@ 11
allow@@ 11
amı 11
anlar 11
année 11
arriv@@ 11
become 11
caso 11
centre 11
communes 11
cô@@ 11
died 11
ería 11
etzt 11
ezo 11
fang@@ 11
gesi 11
grandes 11
hud@@ 11
individu@@ 11
interpre@@ 11
jia 11
kehr@@ 11
letz@@ 11
liği 11
located 11
luy@@ 11
meister@@ 11
miş 11
mondi@@ 11
muerte 11
nombre 11
novi@@ 11
nun 11
ohne 11
ología 11
profes@@ 11
proxim@@ 11
quien 11
réalis@@ 11
segu@@ 11
sehen 11
seiner 11
setz@@ 11
several 11
simil@@ 11
tesi 11
ticos 11
tür 11
umia 11
various 11
wana 11
wegen 11
À@@ 11
Õ@@ 11
ìn 11
ños 11
öff@@ 11
öst@@ 11
üç@@ 11
ÿ 11
ĉ@@ 11
Ġ@@ 11
ř 11
ů 11
ǧ@@ 11
ɬ@@ 11
Ё@@ 11
Ж 11
Й@@ 11
Тур@@ 11
Ху@@ 11
Це@@ 11
Э 11
акаде@@ 11
ара 11
аре@@ 11
бу 11
вен 11
вла@@ 11
води@@ 11
вре@@ 11
гро@@ 11
дж@@ 11
доб@@ 11
дра@@ 11
жение 11
каз@@ 11
кня@@ 11
куль@@ 11
лат@@ 11
льное 11
любо@@ 11
мат@@ 11
мы 11
ника 11
них 11
няя 11
пере@@ 11
рио@@ 11
ръ@@ 11
смо@@ 11
со 11
стран@@ 11
тер@@ 11
тор 11
туры 11
хов@@ 11
чна 11
шен@@ 11
шта@@ 11
щен@@ 11
ѧ 11
Ֆ@@ 11
افغانستان 11
الدولة 11
الو@@ 11
الي@@ 11
به@@ 11
ترا@@ 11
تو@@ 11
تي@@ 11
جو@@ 11
حي@@ 11
در 11
دور@@ 11
سة 11
سين@@ 11
شاہ 11
شی@@ 11
ص 11
ط 11
طة 11
مهورية 11
نگ@@ 11
وز@@ 11
ير@@ 11
يس 11
َّ@@ 11
ُ 11
ِ 11
ٱ@@ 11
کو@@ 11
ܒ@@ 11
ލ@@ 11
ः 11
गु@@ 11
पा@@ 11
बा@@ 11
मा 11
খ@@ 11
ড 11
ব 11
শ 11
ன@@ 11
න@@ 11
ร@@ 11
ພ@@ 11
ອ@@ 11
ည 11
အ@@ 11
ျ@@ 11
რ 11
የ@@ 11
យ@@ 11
ស 11
ហ@@ 11
ṅ@@ 11
ἃ@@ 11
῎ 11
‡ 11
⁰ 11
∉ 11
ⵓ@@ 11
ⵙ@@ 11
う 11
は@@ 11
も@@ 11
ら@@ 11
ヒ@@ 11
ビ@@ 11
不@@ 11
丸@@ 11
仁@@ 11
作@@ 11
侍 11
別@@ 11
化@@ 11
协@@ 11
史@@ 11
喜@@ 11
宁@@ 11
州@@ 11
平 11
愛@@ 11
成@@ 11
橋 11
歌@@ 11
洋 11
海 11
照@@ 11
物@@ 11
理 11
胡@@ 11
花 11
茶@@ 11
行@@ 11
通@@ 11
金 11
陳@@ 11
기 11
상@@ 11
선 11
주 11
체@@ 11
17. 10
18. 10
Biographie 10
Cao 10
Doğu 10
Feb@@ 10
Kilom@@ 10
Londres 10
Maji 10
Mei 10
Menschen 10
Nguy@@ 10
Rus 10
Unidos 10
Weit@@ 10
Zus@@ 10
acto 10
adil@@ 10
adop@@ 10
alidad 10
atı 10
bağ@@ 10
compte 10
deren 10
dernier 10
elte 10
enton@@ 10
especi@@ 10
estim@@ 10
está 10
fand 10
ikia 10
jina 10
junto 10
lanz@@ 10
lise 10
llam@@ 10
marri@@ 10
mesi 10
often 10
ofu 10
pueblo 10
quay 10
releas@@ 10
région 10
seine 10
société 10
sü@@ 10
tete 10
tiene 10
tiki 10
tionen 10
tischen 10
umani 10
uzo 10
uç@@ 10
vai 10
wich@@ 10
Ê@@ 10
Ñ@@ 10
ämp@@ 10
çı@@ 10
òng 10
üsü 10
ĉ 10
Ğ@@ 10
Ī@@ 10
ılar 10
ĺ@@ 10
Ţ 10
ŷ 10
ǫ@@ 10
ɒ 10
ɟ@@ 10
ɴ@@ 10
̓ 10
Ί 10
Ϻ 10
І 10
Ћ@@ 10
Ад@@ 10
Кали@@ 10
На 10
Ос@@ 10
От@@ 10
Пол@@ 10
Север@@ 10
Хар@@ 10
Ь 10
ати 10
бит@@ 10
бор@@ 10
вой 10
вы 10
года 10
гу 10
джи@@ 10
дин 10
дри@@ 10
ене@@ 10
ет 10
зи 10
зов 10
ите 10
ком@@ 10
лей@@ 10
лет 10
мен 10
насти@@ 10
нат 10
они 10
оп@@ 10
площа@@ 10
район 10
рал@@ 10
рес@@ 10
ром 10
свя@@ 10
сою@@ 10
тво@@ 10
тон 10
ть@@ 10
уби@@ 10
ули@@ 10
ща@@ 10
ьо@@ 10
язы@@ 10
яр@@ 10
ён@@ 10
ї 10
Ү@@ 10
ҷ@@ 10
Ә@@ 10
գ 10
ը@@ 10
չ 10
ؤ@@ 10
احمد 10
ارة 10
السع@@ 10
الط@@ 10
الوطنية 10
انی 10
بير 10
تا 10
جة 10
حة 10
حم@@ 10
دولة 10
ران 10
ری@@ 10
سا@@ 10
سر@@ 10
سك@@ 10
سلسل@@ 10
شو@@ 10
غ 10
فت@@ 10
كر@@ 10
له 10
لو 10
لي 10
مار@@ 10
مال 10
مج@@ 10
مسجد 10
مه 10
نی@@ 10
وات 10
ود 10
وية 10
کر@@ 10
ܛ@@ 10
ާ@@ 10
ड@@ 10
ण@@ 10
ध 10
ध@@ 10
भ@@ 10
रु@@ 10
व 10
ह 10
অ@@ 10
ট 10
ণ@@ 10
ਹ@@ 10
ந@@ 10
് 10
ව@@ 10
พ@@ 10
ว@@ 10
ຈ@@ 10
ທ@@ 10
ད@@ 10
མ 10
ལ 10
ེ 10
သ@@ 10
ნ 10
ღ@@ 10
ሕ@@ 10
ረ@@ 10
ራ@@ 10
ስ 10
ን@@ 10
ᗅ 10
ᗅ@@ 10
ᗷ@@ 10
ᗺ@@ 10
យ 10
ោ@@ 10
Ἀ 10
Ἂ@@ 10
ἢ@@ 10
Ὦ 10
‏ 10
‹ 10
₩ 10
⅔ 10
∃ 10
⊃ 10
⊗ 10
ⱆ@@ 10
ⲓ 10
ⲥ 10
ⴱ@@ 10
ⵣ@@ 10
け@@ 10
こ@@ 10
オ 10
グ 10
ツ@@ 10
万@@ 10
上 10
中华@@ 10
丹@@ 10
久@@ 10
二@@ 10
仁 10
代 10
友@@ 10
名@@ 10
和 10
图@@ 10
土@@ 10
坂@@ 10
宝@@ 10
建@@ 10
张@@ 10
戸@@ 10
書 10
术 10
朱@@ 10
村@@ 10
江 10
温@@ 10
港@@ 10
界@@ 10
知@@ 10
紫@@ 10
臺@@ 10
親@@ 10
赤@@ 10
越 10
重@@ 10
音 10
食 10
黑@@ 10
동@@ 10
람 10
박@@ 10
부@@ 10
산@@ 10
설@@ 10
시@@ 10
영@@ 10
～ 10
Birliği 9
During 9
Estados 9
Familie 9
Kwa 9
adhi 9
aları 9
armée 9
año 9
chung 9
constr@@ 9
coup 9
cü 9
dici@@ 9
déf@@ 9
ekonom@@ 9
esine 9
ewa 9
gebiet 9
gek@@ 9
häng@@ 9
individ@@ 9
ität 9
kez 9
kır@@ 9
lado 9
leich 9
linois 9
mbal@@ 9
medio 9
mise 9
mondiale 9
moved 9
nú@@ 9
ográ@@ 9
oppos@@ 9
peu 9
première 9
preu@@ 9
province 9
près 9
restaur@@ 9
schaf@@ 9
sitz@@ 9
soit 9
students 9
tanto 9
ticas 9
tiempo 9
tä@@ 9
tı 9
vili@@ 9
zun@@ 9
zwischen 9
zäh@@ 9
çek@@ 9
ército 9
éx@@ 9
óc 9
über@@ 9
üz 9
Ğ 9
ıcı 9
ılık 9
ť@@ 9
ǒ 9
ɡ 9
ʷ@@ 9
ϕ 9
Ϟ 9
Ϲ 9
Ў@@ 9
Бур@@ 9
България 9
Гер@@ 9
Ги@@ 9
Дж@@ 9
Кли@@ 9
Мон@@ 9
Под@@ 9
Све@@ 9
Фран@@ 9
Ц 9
Цент@@ 9
Ш 9
Юж@@ 9
българ@@ 9
ват 9
вин@@ 9
вра@@ 9
город 9
дер@@ 9
дне@@ 9
его 9
еди@@ 9
жда 9
зу@@ 9
име@@ 9
ис@@ 9
кла@@ 9
кол@@ 9
ком 9
край 9
лата 9
лер 9
лет@@ 9
лод@@ 9
май@@ 9
мин 9
мона@@ 9
най@@ 9
нии 9
ниче@@ 9
ново 9
ном 9
ну 9
под@@ 9
рал 9
рев@@ 9
ристи@@ 9
род 9
совет@@ 9
ств 9
стре@@ 9
сты@@ 9
так 9
тре@@ 9
тро@@ 9
ун@@ 9
уни@@ 9
хе@@ 9
ческий 9
чь 9
щи 9
ъл@@ 9
Բ 9
Օ@@ 9
ը 9
հ 9
վ 9
օ@@ 9
ַ 9
ׂ@@ 9
آباد 9
أف@@ 9
أن@@ 9
اب 9
اخ@@ 9
ادي 9
الدین 9
الري@@ 9
المح@@ 9
المر@@ 9
المغ@@ 9
اله@@ 9
انی@@ 9
باب@@ 9
بد@@ 9
بو@@ 9
تم@@ 9
جن@@ 9
جي 9
خی@@ 9
دو@@ 9
سان 9
سما@@ 9
سپ@@ 9
طف@@ 9
عم@@ 9
عمر 9
كي 9
لی@@ 9
مس@@ 9
مہ 9
ني 9
هم 9
وس 9
وس@@ 9
ول 9
ێ@@ 9
ހ@@ 9
ނ@@ 9
का 9
गो@@ 9
ज@@ 9
ता 9
द@@ 9
ब 9
री 9
ळ 9
श 9
शा@@ 9
सं@@ 9
ि@@ 9
ঁ@@ 9
উ@@ 9
ঙ 9
ণ 9
স 9
ਮ@@ 9
ਲ@@ 9
ਵ@@ 9
ੀ 9
ੁ@@ 9
୍ 9
ங 9
ப 9
ய 9
ர 9
ே@@ 9
ඳ@@ 9
ල@@ 9
ු 9
ො@@ 9
ห@@ 9
อ@@ 9
ะ@@ 9
ບ@@ 9
ິ@@ 9
ີ@@ 9
ག 9
ད 9
ྒ@@ 9
စ@@ 9
ဒ@@ 9
ဝ@@ 9
ီ@@ 9
ု 9
္ 9
ራ 9
ር 9
በ@@ 9
ት 9
ያ 9
ደ@@ 9
ዳ@@ 9
ገ@@ 9
ខ 9
ល 9
វ@@ 9
អ@@ 9
ḳ@@ 9
ền 9
Ọ@@ 9
ἁ 9
∑ 9
⌈ 9
☃ 9
ⰱ@@ 9
ⱉ@@ 9
ⱑ@@ 9
ⲩ@@ 9
ⵍ@@ 9
ⵏ 9
ⵏ@@ 9
が@@ 9
じ@@ 9
ズ@@ 9
ホ@@ 9
ム 9
ヤ@@ 9
ヴ@@ 9
主 9
仏@@ 9
仙 9
代@@ 9
体@@ 9
党 9
共@@ 9
剣 9
可@@ 9
台 9
同@@ 9
地 9
塔@@ 9
字@@ 9
學@@ 9
宿@@ 9
富@@ 9
寺@@ 9
尔@@ 9
岡@@ 9
工@@ 9
心 9
技 9
教@@ 9
料@@ 9
族 9
林 9
桃@@ 9
毛@@ 9
湖@@ 9
火@@ 9
燈 9
直@@ 9
禅@@ 9
織@@ 9
红@@ 9
聖@@ 9
能@@ 9
英@@ 9
草@@ 9
蔡@@ 9
話 9
豊@@ 9
鉄@@ 9
隊 9
集@@ 9
魔@@ 9
麻@@ 9
黒@@ 9
ꜣ@@ 9
경@@ 9
리 9
무@@ 9
보@@ 9
스@@ 9
신@@ 9
아@@ 9
안@@ 9
양@@ 9
어 9
일 9
Bere@@ 8
Genel 8
Kanada 8
Proz@@ 8
Savaşı 8
Sie 8
abab@@ 8
acces@@ 8
alik@@ 8
amér@@ 8
arse 8
bierno 8
connu 8
dedic@@ 8
dete 8
différ@@ 8
dipl@@ 8
divers@@ 8
emein@@ 8
entw@@ 8
erst 8
ersten 8
famil@@ 8
gab 8
grub@@ 8
gén@@ 8
hari@@ 8
hasta 8
icklung 8
iendo 8
iş 8
jimbo 8
kann 8
khi@@ 8
kij@@ 8
kim 8
kiş@@ 8
kuz@@ 8
merc@@ 8
mpi@@ 8
neces@@ 8
nord 8
nord@@ 8
north 8
nueva 8
olarak 8
opened 8
ordu 8
partam@@ 8
pili 8
placed 8
pou@@ 8
provid@@ 8
prä@@ 8
quelle 8
reste 8
sau 8
toujours 8
ución 8
ustos 8
vek@@ 8
verdi 8
vient 8
waz@@ 8
weit 8
yeri 8
zey@@ 8
ßen@@ 8
ông 8
üy@@ 8
Č 8
ıc@@ 8
ıca 8
ıyor 8
Ľ@@ 8
Ł 8
Ŋ@@ 8
ŏ 8
ȝ 8
ɫ 8
ʝ 8
ʹ@@ 8
ˁ@@ 8
ˤ@@ 8
̆ 8
Ϋ 8
Ϙ@@ 8
Њ@@ 8
Аль@@ 8
Й 8
Кро@@ 8
Рабо@@ 8
Северна 8
бере@@ 8
бро@@ 8
бъ@@ 8
вана 8
вдо@@ 8
вез@@ 8
ву@@ 8
гна@@ 8
гов@@ 8
гри@@ 8
дел@@ 8
дер 8
дивизи@@ 8
дин@@ 8
догово@@ 8
жество 8
институ@@ 8
искус@@ 8
исто@@ 8
кам@@ 8
кия 8
кого 8
лаго@@ 8
льного 8
мент 8
нет 8
она 8
пут@@ 8
ради@@ 8
рак@@ 8
реб@@ 8
рода 8
рок 8
руп@@ 8
рё@@ 8
све@@ 8
сков@@ 8
соб@@ 8
собо@@ 8
спе@@ 8
став@@ 8
стер@@ 8
тен@@ 8
цен@@ 8
чин 8
чо 8
є 8
Ү 8
Һ 8
Ө 8
Գ 8
ղ 8
ֆ@@ 8
ס 8
أر@@ 8
أل@@ 8
ابن 8
اتحاد 8
اص@@ 8
اع 8
اع@@ 8
اك@@ 8
الأم@@ 8
الح 8
المص@@ 8
بل 8
جه@@ 8
جي@@ 8
حر@@ 8
خ 8
خو@@ 8
دا@@ 8
دار@@ 8
دود 8
دول@@ 8
رش@@ 8
رض 8
رير 8
ری 8
سين 8
شع@@ 8
شه@@ 8
ض 8
كان 8
لال 8
لف@@ 8
لية 8
مصر 8
مية 8
نادي 8
ند 8
نو@@ 8
هة 8
ينة 8
يون 8
ۆ@@ 8
ې@@ 8
ީ@@ 8
ं@@ 8
आ@@ 8
को@@ 8
चन 8
ठ@@ 8
दु@@ 8
पाल 8
मा@@ 8
रा 8
वर 8
ि 8
े@@ 8
জ 8
থ@@ 8
ধ@@ 8
ষ 8
ু 8
ো 8
ਗ@@ 8
ા@@ 8
ண@@ 8
ை 8
గ@@ 8
ల@@ 8
ా@@ 8
න 8
ල 8
ก@@ 8
จ@@ 8
น 8
ุ@@ 8
པ@@ 8
ར 8
ံ@@ 8
თ 8
ስ@@ 8
ኢ@@ 8
ព 8
ល@@ 8
ំ@@ 8
ᠣ@@ 8
ḍ 8
ḫ 8
ṛ 8
ṯ 8
ὣ@@ 8
ὦ@@ 8
ᾐ@@ 8
ῒ@@ 8
‖ 8
‧ 8
☆ 8
⟶ 8
ⰽ@@ 8
ⲏ@@ 8
ⲛ@@ 8
ⲱ@@ 8
ⵜ 8
〈 8
〉 8
〜 8
え@@ 8
す@@ 8
に@@ 8
れ@@ 8
タ 8
ブ 8
ヨ@@ 8
リ 8
九 8
书@@ 8
事@@ 8
依@@ 8
元 8
光 8
出@@ 8
功@@ 8
区@@ 8
右@@ 8
名 8
回@@ 8
基@@ 8
央@@ 8
女 8
姫@@ 8
宗 8
定@@ 8
尊 8
年@@ 8
府 8
形@@ 8
恩@@ 8
拉@@ 8
放@@ 8
教 8
最@@ 8
有@@ 8
永@@ 8
沙@@ 8
洞@@ 8
浦 8
澳@@ 8
無@@ 8
物 8
理@@ 8
生 8
甲@@ 8
男@@ 8
町 8
盛@@ 8
祭 8
秀@@ 8
空@@ 8
老@@ 8
育@@ 8
舞@@ 8
苏@@ 8
行政@@ 8
術@@ 8
衛@@ 8
観@@ 8
言 8
譜 8
議@@ 8
豆@@ 8
路 8
身 8
軍 8
造 8
達@@ 8
镇 8
間@@ 8
雲@@ 8
電@@ 8
頭 8
饭 8
馆 8
魏@@ 8
鶴@@ 8
龍 8
龙@@ 8
구 8
군 8
리@@ 8
서@@ 8
성 8
소@@ 8
연@@ 8
오@@ 8
자 8
전@@ 8
𒀭@@ 8
Avrupa 7
Juli 7
Kuzey 7
Kön@@ 7
Meter 7
Minh 7
Namen 7
Produk@@ 7
Rück@@ 7
acional 7
ailleurs 7
altı 7
ammen 7
andere 7
angaza 7
aussi 7
avoir 7
ayant 7
ayar@@ 7
began 7
beit@@ 7
ciudad 7
compr@@ 7
conten@@ 7
continued 7
có 7
destin@@ 7
deş@@ 7
distrito 7
dió 7
dort 7
ecu@@ 7
empl@@ 7
eneo 7
entre@@ 7
establ@@ 7
follow@@ 7
fútbol 7
geord@@ 7
grab@@ 7
hali 7
hasa 7
haup@@ 7
heute 7
hijo 7
hilo 7
ición 7
ihr@@ 7
ilik 7
inay@@ 7
inspir@@ 7
inté@@ 7
kazan@@ 7
koa 7
kü 7
laş@@ 7
lere 7
luk@@ 7
malar@@ 7
ması 7
mayor 7
mch@@ 7
mej@@ 7
mismo 7
municip@@ 7
mà 7
nde 7
ografía 7
otball 7
pata 7
perten@@ 7
played 7
pointed 7
poste 7
prés@@ 7
représent@@ 7
risto 7
sprech@@ 7
spé@@ 7
sız 7
tay 7
timm@@ 7
took 7
trat 7
vur@@ 7
wird 7
worked 7
wrote 7
zwei 7
Æ 7
È 7
ßer@@ 7
ác 7
ách 7
äuf@@ 7
église 7
épo@@ 7
époque 7
ít 7
örd@@ 7
öğ@@ 7
út 7
út@@ 7
Ē@@ 7
ımı 7
ında 7
ıt 7
şir@@ 7
ţ 7
Ū@@ 7
ŵ@@ 7
Ə 7
ɯ 7
ɸ 7
ʀ@@ 7
ʕ@@ 7
ˑ 7
̠ 7
Ϙ 7
ϟ@@ 7
Ў 7
Ав@@ 7
Ай@@ 7
Бри@@ 7
Бы@@ 7
Велико@@ 7
Въ@@ 7
Исто@@ 7
Ман@@ 7
Ст@@ 7
Тре@@ 7
Фи@@ 7
Ъ 7
ана 7
арх@@ 7
ато 7
атов 7
бай@@ 7
большо@@ 7
бор 7
ват@@ 7
вена 7
вер 7
вое 7
война 7
дви@@ 7
дни 7
зы 7
има 7
имо@@ 7
йского 7
коми@@ 7
кос@@ 7
кри@@ 7
ление 7
логи@@ 7
льной 7
мла@@ 7
музе@@ 7
наи@@ 7
нар@@ 7
нен@@ 7
ност 7
остро@@ 7
пис@@ 7
поли@@ 7
револю@@ 7
рова@@ 7
рю@@ 7
село 7
син@@ 7
сту@@ 7
ся 7
тен 7
тече@@ 7
тий 7
ток 7
фло@@ 7
хан@@ 7
ците 7
ця@@ 7
чный 7
чо@@ 7
шу@@ 7
ься 7
Җ 7
Ҡ@@ 7
Ң 7
ҧ@@ 7
һ 7
Ә 7
ӣ 7
ӧ@@ 7
Խ@@ 7
ռ 7
֣ 7
ף 7
أس@@ 7
أم@@ 7
اق 7
الأح@@ 7
الإسلا@@ 7
الث@@ 7
الحزب 7
الدي@@ 7
الفر@@ 7
المج@@ 7
باد@@ 7
بال@@ 7
بت 7
بط@@ 7
ة@@ 7
تی@@ 7
حد@@ 7
حی@@ 7
داء 7
دل 7
ديدة 7
دی 7
زر@@ 7
زی 7
سب@@ 7
سلام 7
سي 7
شي@@ 7
طر@@ 7
ظ@@ 7
عد@@ 7
غل@@ 7
فر 7
فلسط@@ 7
فو@@ 7
قة 7
قو@@ 7
قي 7
قية 7
لح@@ 7
لق@@ 7
لی 7
مار 7
متا@@ 7
مر 7
ملی 7
مين 7
نه 7
ها 7
ودية 7
ورة 7
ورية 7
يت 7
پاکستان 7
پی@@ 7
کی@@ 7
گ 7
ە 7
ܩ@@ 7
ܫ@@ 7
ރ@@ 7
ް 7
ंग 7
ंग@@ 7
कर 7
ङ 7
चा@@ 7
चि@@ 7
धी 7
नी 7
पु@@ 7
महा@@ 7
मि@@ 7
रू@@ 7
वे@@ 7
सत 7
सू@@ 7
हा@@ 7
ा 7
ी 7
ৰ@@ 7
ਦ@@ 7
ਪ@@ 7
ਰ 7
ਾ 7
ੀ@@ 7
ட 7
த 7
ം 7
ാ@@ 7
ක 7
ත@@ 7
ิ@@ 7
็ 7
ດ 7
ຫ@@ 7
າ 7
ང@@ 7
ི 7
ထ@@ 7
သ 7
ላ@@ 7
ማ@@ 7
ም@@ 7
ረ 7
ዊ 7
ያ@@ 7
ዮ@@ 7
ድ@@ 7
ጵ@@ 7
ច@@ 7
ើ@@ 7
័ 7
ᠨ@@ 7
ᠭ@@ 7
ᠮ@@ 7
ᠷ@@ 7
ἐ 7
ἦ 7
Ἠ 7
ὔ 7
ῑ@@ 7
῞ 7
ℳ 7
↓ 7
ⰳ@@ 7
ⱌ@@ 7
ⲕ@@ 7
ⲫ@@ 7
ⵔ 7
ⵙ 7
す 7
だ@@ 7
ち 7
ば@@ 7
び@@ 7
め@@ 7
ょ@@ 7
ザ 7
ジ 7
ナ 7
レ 7
东 7
事件 7
信 7
僧@@ 7
冒@@ 7
刀@@ 7
动@@ 7
動 7
博@@ 7
双@@ 7
図 7
園@@ 7
場 7
夏 7
大学 7
奥@@ 7
孔@@ 7
学 7
守 7
宝 7
屋 7
展@@ 7
崎 7
府@@ 7
庭@@ 7
式 7
成 7
手 7
日本 7
旧@@ 7
星@@ 7
根@@ 7
様 7
横@@ 7
泉 7
泉@@ 7
洋@@ 7
渡@@ 7
源@@ 7
漫@@ 7
瀬@@ 7
灯 7
省 7
真@@ 7
科 7
絵@@ 7
線 7
羅@@ 7
膳 7
蔵 7
藏@@ 7
見@@ 7
言@@ 7
谷@@ 7
跡 7
車 7
輪@@ 7
近@@ 7
连@@ 7
郎@@ 7
部@@ 7
野 7
长@@ 7
陸@@ 7
陽@@ 7
雄@@ 7
雅@@ 7
靈@@ 7
面 7
革@@ 7
音@@ 7
風 7
風@@ 7
馬 7
ꙑ@@ 7
ꜥ@@ 7
가@@ 7
계@@ 7
관 7
다@@ 7
당 7
대 7
두@@ 7
라 7
라@@ 7
북@@ 7
비@@ 7
삼@@ 7
자@@ 7
장 7
제@@ 7
진 7
창@@ 7
천@@ 7
치@@ 7
하@@ 7
학@@ 7
🇬 7
🇷 7
Adem@@ 6
Cumhur@@ 6
Dünya 6
Eyl@@ 6
Jahr 6
Mayıs 6
Mỹ 6
Nha 6
Saison 6
Văn 6
akter@@ 6
anah@@ 6
anischen 6
annte 6
annten 6
aría 6
ases@@ 6
asili 6
así 6
ationen 6
auti 6
cambi@@ 6
caract@@ 6
cette 6
cinq 6
cional 6
condu@@ 6
consid@@ 6
diese 6
dont 6
duy@@ 6
découver@@ 6
eht 6
enek@@ 6
erne@@ 6
erreich@@ 6
erten 6
established 6
gibi 6
gibt 6
gleich@@ 6
gouvernement 6
göz@@ 6
iert 6
incorpor@@ 6
install@@ 6
isième 6
iyi 6
kama 6
kez@@ 6
kuh@@ 6
mujeres 6
muz 6
nde@@ 6
nje 6
nte 6
padre 6
partamento 6
partie 6
pequeñ@@ 6
plusieurs 6
premiers 6
produced 6
quelques 6
realiz@@ 6
recu@@ 6
remain@@ 6
río 6
sao 6
schnit@@ 6
seinen 6
septi@@ 6
served 6
signi@@ 6
similar 6
spéci@@ 6
started 6
sử 6
teh@@ 6
thu 6
thư 6
tlich 6
tuy@@ 6
tü 6
unden 6
vement 6
voll@@ 6
weng@@ 6
zaman 6
Ä 6
Þ 6
ép 6
équi@@ 6
ói 6
ört 6
ünden 6
Ă 6
Đại 6
đ 6
ĕ 6
Ė@@ 6
İm@@ 6
ını 6
ığ@@ 6
ığı 6
Ķ@@ 6
ļ 6
Ō 6
Şark@@ 6
Š 6
ť 6
ǵ@@ 6
ȝ@@ 6
ȣ 6
ɗ@@ 6
ɜ@@ 6
ɟ 6
ɬ 6
ɭ@@ 6
ɹ 6
ɹ@@ 6
ʂ 6
ʏ 6
ʱ 6
ˀ@@ 6
̅ 6
̥ 6
Ύ 6
Ώ 6
Гла@@ 6
Мини@@ 6
Од@@ 6
Олимпи@@ 6
Спи@@ 6
Хи@@ 6
армия 6
виде@@ 6
волю@@ 6
вро@@ 6
городе 6
государ@@ 6
дан@@ 6
ези@@ 6
жения 6
жур@@ 6
зиден@@ 6
ити@@ 6
ить 6
как 6
кар@@ 6
ких 6
кни@@ 6
кро@@ 6
кры@@ 6
кс 6
ления 6
лище 6
лли@@ 6
лни 6
мии 6
мира 6
мост 6
нер@@ 6
ново@@ 6
образ@@ 6
ору@@ 6
пла@@ 6
плани@@ 6
под 6
полк 6
полу@@ 6
пред@@ 6
работ@@ 6
рам@@ 6
ред@@ 6
рии 6
рито@@ 6
само@@ 6
слу@@ 6
служ@@ 6
сни@@ 6
сс@@ 6
став 6
стра 6
сты 6
ся@@ 6
тие 6
том@@ 6
тя@@ 6
тё@@ 6
уче@@ 6
учи@@ 6
фильм 6
хи 6
ход@@ 6
цер@@ 6
чие 6
чно 6
ём 6
ёт 6
ѧ@@ 6
Ғ@@ 6
Қ 6
ҡ 6
֖ 6
ֱ@@ 6
ֹ 6
־ 6
ך 6
أي@@ 6
اج 6
ادة 6
ادہ 6
اری 6
اضي 6
اعظم 6
الجز@@ 6
الشر@@ 6
الصح@@ 6
القر@@ 6
المسل@@ 6
المك@@ 6
المن@@ 6
امة 6
باب 6
بال 6
بح@@ 6
بش@@ 6
بعة 6
بني 6
بور@@ 6
جامعة 6
جد 6
خال@@ 6
خلا@@ 6
دری@@ 6
دی@@ 6
را 6
رق@@ 6
زة 6
سم@@ 6
شعب@@ 6
شہ@@ 6
صف@@ 6
ضاء 6
ضة 6
طن 6
طي@@ 6
عت 6
عر@@ 6
عز@@ 6
غر@@ 6
فا@@ 6
فار@@ 6
فية 6
فی@@ 6
قب@@ 6
قص@@ 6
قي@@ 6
كل 6
كم 6
لا 6
لاد 6
لك 6
ماء 6
مان@@ 6
مدينة 6
مرا@@ 6
مط@@ 6
مق@@ 6
مقرا@@ 6
مك@@ 6
نام@@ 6
نش@@ 6
نوا@@ 6
نی 6
هي 6
وان 6
وب 6
وة 6
ود@@ 6
وسف 6
وف 6
وف@@ 6
ولد 6
ولي 6
وي 6
وَ@@ 6
وی@@ 6
يران 6
يم@@ 6
يني 6
يه 6
يوم 6
ْ 6
پر@@ 6
کور@@ 6
ڭ@@ 6
ܚ@@ 6
ܬ 6
ܵ@@ 6
ެ@@ 6
ं 6
कु@@ 6
ख 6
च@@ 6
ता@@ 6
धर 6
मन 6
मे@@ 6
राज 6
राज@@ 6
रू 6
वी@@ 6
सु@@ 6
हिन 6
ु 6
ू@@ 6
ও@@ 6
ড@@ 6
ਤ@@ 6
ਬ@@ 6
ਲ 6
્ 6
ஃ@@ 6
ழ 6
ழ@@ 6
ீ@@ 6
ை@@ 6
ொ@@ 6
ಸ@@ 6
ക@@ 6
യ@@ 6
ං@@ 6
ජ@@ 6
ත 6
ර 6
හ@@ 6
ි 6
ช@@ 6
ด@@ 6
ต@@ 6
ท@@ 6
พระ@@ 6
ร 6
ล@@ 6
วิ@@ 6
สม@@ 6
า 6
ไ@@ 6
ງ 6
ຸ@@ 6
ູ@@ 6
ົ@@ 6
ໃ@@ 6
ཁ@@ 6
က 6
ှ@@ 6
ል 6
ል@@ 6
ም 6
ባ@@ 6
ን 6
ኤ@@ 6
ዋ@@ 6
ድ 6
ង@@ 6
ណ 6
ទ@@ 6
ិ@@ 6
ី@@ 6
េ@@ 6
ṃ 6
ận 6
ẽ@@ 6
ị 6
ἅ 6
ἥ 6
Ὥ@@ 6
Ὦ@@ 6
ᾴ@@ 6
‬ 6
⁴ 6
₣ 6
ℕ 6
⅛ 6
↦ 6
∝ 6
⊇ 6
⌊ 6
█ 6
ⰸ@@ 6
ⱓ@@ 6
ⲧ 6
ⴰ 6
ⴳ@@ 6
け 6
な 6
ぶ@@ 6
や@@ 6
ゅ 6
わ@@ 6
ギ@@ 6
コ 6
ゼ@@ 6
ネ@@ 6
ピ@@ 6
ポ@@ 6
マ 6
ミ 6
ヶ@@ 6
三 6
中 6
中国 6
中心 6
丸 6
之 6
乌@@ 6
五 6
亚@@ 6
今@@ 6
仙@@ 6
令 6
伽@@ 6
佛 6
保@@ 6
倉 6
入@@ 6
公司 6
内 6
写@@ 6
列@@ 6
刘@@ 6
功 6
北 6
區 6
區@@ 6
午@@ 6
号 6
員@@ 6
商@@ 6
嘉@@ 6
土 6
夏@@ 6
外@@ 6
夷@@ 6
嫦@@ 6
孫@@ 6
客@@ 6
宿 6
寧@@ 6
将@@ 6
屋@@ 6
岩@@ 6
峰 6
崎@@ 6
巴@@ 6
师 6
師@@ 6
幹@@ 6
庁 6
康@@ 6
延 6
延@@ 6
張@@ 6
強@@ 6
徳@@ 6
志 6
志@@ 6
戸 6
拳@@ 6
散@@ 6
敬@@ 6
新 6
昌@@ 6
星 6
東 6
森@@ 6
業@@ 6
極@@ 6
樂@@ 6
正 6
水 6
波 6
浄@@ 6
浦@@ 6
湄@@ 6
溪@@ 6
滅@@ 6
玄@@ 6
男 6
画@@ 6
白 6
矢@@ 6
稲@@ 6
竹@@ 6
米@@ 6
統@@ 6
經 6
總@@ 6
维@@ 6
義 6
者@@ 6
良 6
色@@ 6
若@@ 6
英 6
行 6
袁@@ 6
説 6
语 6
趙@@ 6
遠 6
遺@@ 6
郑@@ 6
都 6
酒 6
鎮 6
鎮@@ 6
门 6
限@@ 6
院@@ 6
集 6
須@@ 6
鬼@@ 6
鲁@@ 6
ꞑ@@ 6
나@@ 6
내@@ 6
레@@ 6
로@@ 6
말 6
문@@ 6
반@@ 6
방@@ 6
부 6
세@@ 6
수 6
어@@ 6
연 6
윤@@ 6
재@@ 6
청@@ 6
합@@ 6
 6
： 6
𐌹@@ 6
Amerik@@ 5
Ayn@@ 5
Bahari 5
Bevöl@@ 5
Cộng 5
Febru@@ 5
Gemeinde 5
Indon@@ 5
Januar 5
Liste 5
Ngo@@ 5
Präs@@ 5
Quốc 5
St. 5
Sơn 5
Teil 5
Trung 5
Ulus@@ 5
afin 5
aliye@@ 5
américain 5
ancien 5
aujour@@ 5
avait 5
bajo 5
bildung 5
büyü@@ 5
conoc@@ 5
cuatro 5
daki 5
denen 5
denomin@@ 5
descri@@ 5
described 5
desde 5
después 5
dispar@@ 5
durante 5
début 5
ebil@@ 5
ección 5
edrich 5
ellement 5
entras 5
estudi@@ 5
febr@@ 5
founded 5
gegen 5
gegen@@ 5
großen 5
grund 5
icios 5
ierte 5
ierung 5
ihe 5
ihm 5
ilç@@ 5
included 5
irse 5
ispi@@ 5
kaç@@ 5
kea 5
keş@@ 5
kik@@ 5
kush@@ 5
leş@@ 5
lugar 5
luğu 5
mals 5
married 5
mejor 5
migu@@ 5
mji 5
municipal@@ 5
neh@@ 5
nungen 5
ommen 5
ouest 5
primera 5
principales 5
présent@@ 5
secu@@ 5
sinh 5
standen 5
success@@ 5
sür@@ 5
tiem@@ 5
titre 5
vertr@@ 5
vuel@@ 5
wany@@ 5
wieder 5
woh@@ 5
yeni 5
zeh@@ 5
Ð 5
Ô 5
Ô@@ 5
ánh 5
ãn 5
äche 5
äude 5
èrement 5
èrent 5
óa 5
úbl@@ 5
ública 5
üğü 5
ġ 5
ĥ 5
ŝ 5
ŷ@@ 5
ương 5
ȁ@@ 5
ȟ@@ 5
ȣ@@ 5
ɘ@@ 5
ɭ 5
ʨ 5
˜ 5
̊ 5
̻ 5
ϙ 5
ϝ 5
ϟ 5
ϡ 5
ϩ@@ 5
ϳ@@ 5
Ё 5
Во 5
Вто@@ 5
Его 5
Карл 5
Меж@@ 5
Но 5
Пло@@ 5
Пор@@ 5
Пър@@ 5
Роди@@ 5
СС@@ 5
Ы 5
ано 5
анти@@ 5
вал 5
вест@@ 5
вид 5
вия 5
вобо@@ 5
все@@ 5
гат 5
гер@@ 5
гия 5
год@@ 5
граф@@ 5
графи@@ 5
група 5
губер@@ 5
джа@@ 5
для 5
дом 5
ей 5
еле@@ 5
ент@@ 5
жан@@ 5
жд@@ 5
ждение 5
звез@@ 5
зда@@ 5
зии 5
зия 5
зо 5
импера@@ 5
ителей 5
йн@@ 5
йна 5
каза@@ 5
кар 5
ким 5
кин@@ 5
кли@@ 5
клу@@ 5
коман@@ 5
литера@@ 5
луч@@ 5
мал@@ 5
манасти@@ 5
мати@@ 5
мини@@ 5
мыш@@ 5
най 5
нан@@ 5
нер 5
низ@@ 5
ници 5
ному 5
ол@@ 5
ологи@@ 5
отде@@ 5
отли@@ 5
пе 5
пен@@ 5
песни 5
пи 5
пове@@ 5
пол 5
рани 5
рой 5
ря 5
села 5
сель@@ 5
сем@@ 5
систе@@ 5
ската 5
ски@@ 5
ску@@ 5
ству 5
стен@@ 5
строитель@@ 5
ступ@@ 5
сю@@ 5
так@@ 5
тель@@ 5
той 5
укра@@ 5
физи@@ 5
филь@@ 5
фрон@@ 5
цев 5
цент@@ 5
ческой 5
чина 5
ший 5
юр@@ 5
ята 5
ях 5
҃ 5
Ғ 5
җ@@ 5
Һ@@ 5
ӕ 5
ӧ 5
Է@@ 5
Ի 5
Ծ@@ 5
Ճ@@ 5
Չ@@ 5
ճ 5
֔ 5
ָ 5
ֿ@@ 5
׳ 5
ء 5
اح@@ 5
اري 5
از 5
اط 5
اف 5
افظ@@ 5
البي@@ 5
الجام@@ 5
الجزائر 5
الرا@@ 5
الرح@@ 5
السل@@ 5
الفي@@ 5
المس@@ 5
المغربية 5
امی@@ 5
اپ@@ 5
با 5
بار 5
بيل 5
بين 5
تع@@ 5
جام@@ 5
جان 5
جی@@ 5
خار@@ 5
خت@@ 5
خر@@ 5
خل@@ 5
دان 5
دري@@ 5
دس 5
ده 5
دى 5
دية 5
دين 5
رار 5
رت 5
رف@@ 5
روم 5
سا 5
سام@@ 5
سن 5
سور@@ 5
سية 5
سی 5
عائ@@ 5
عباس 5
عش@@ 5
عين 5
عی@@ 5
غز@@ 5
فل@@ 5
كت@@ 5
كتاب 5
كو@@ 5
لب 5
لم 5
لَ@@ 5
محافظ@@ 5
مد 5
مز@@ 5
مس 5
نط@@ 5
نية 5
هي@@ 5
والم@@ 5
وت 5
وج@@ 5
وخ@@ 5
وسط 5
ّة 5
چ 5
کار 5
ہ@@ 5
یت 5
یر 5
ۍ 5
ܙ@@ 5
ܢ 5
ܥ@@ 5
ܦ@@ 5
ܪ 5
ܲ@@ 5
ފ@@ 5
ގ@@ 5
इ@@ 5
कला@@ 5
चल 5
छ@@ 5
जी 5
ट@@ 5
दे@@ 5
ना 5
पुर 5
पूर 5
भाई 5
मान 5
मु@@ 5
या 5
रे@@ 5
लय 5
श@@ 5
शि@@ 5
सा@@ 5
सी 5
हि@@ 5
ान 5
ृ@@ 5
े 5
ছ@@ 5
ঞ 5
ঢ@@ 5
ে 5
ਜ@@ 5
਼ 5
દ@@ 5
ନ@@ 5
େ@@ 5
ற@@ 5
ள 5
ஸ 5
ெ@@ 5
వ@@ 5
ి@@ 5
ు 5
ಗ@@ 5
ര@@ 5
ග@@ 5
ය 5
ය@@ 5
ශ 5
ැ@@ 5
ී 5
ทร@@ 5
ธ@@ 5
บุ@@ 5
ป@@ 5
ผ@@ 5
ภ@@ 5
มหา@@ 5
รั@@ 5
ลา@@ 5
า@@ 5
ฺ@@ 5
แ@@ 5
ไทย 5
ວ 5
ົ 5
ແ@@ 5
ཕ@@ 5
ལ@@ 5
ུ 5
ྐ@@ 5
ྟ@@ 5
ဆ@@ 5
တ 5
ရ 5
ေ 5
დ 5
ቅ@@ 5
ባ 5
ቤ@@ 5
ተ@@ 5
ዲ@@ 5
ግ@@ 5
ጎ@@ 5
គ 5
ណ@@ 5
ធ@@ 5
ី 5
ឹ@@ 5
ᠤ@@ 5
ᠨ 5
ᠪ@@ 5
ᠳ@@ 5
ᵻ@@ 5
ḏ 5
Ḳ@@ 5
ḷ@@ 5
ṁ 5
ẽ 5
Ỉ@@ 5
ịnh 5
Ἆ@@ 5
ἲ@@ 5
Ὀ 5
Ὃ@@ 5
ᾤ@@ 5
ᾰ 5
ᾰ@@ 5
ῒ 5
‿ 5
₴ 5
℃ 5
∅ 5
∠ 5
∴ 5
∼ 5
⊋ 5
⊙ 5
★ 5
☧ 5
ⰶ@@ 5
ⱂ@@ 5
ⱈ@@ 5
ⱜ@@ 5
ⲗ@@ 5
ⴼ@@ 5
ⵢ@@ 5
あ@@ 5
え 5
ず 5
の 5
ば 5
ひ@@ 5
ゃ 5
ゆ@@ 5
ら 5
ろ@@ 5
ウ 5
ォ@@ 5
カ 5
チ 5
ツ 5
フ 5
プ 5
ユ@@ 5
ロ 5
下 5
书 5
争@@ 5
云@@ 5
亭 5
什@@ 5
仮@@ 5
住@@ 5
像 5
像@@ 5
克 5
八 5
公 5
兰@@ 5
兵@@ 5
分@@ 5
前@@ 5
勝@@ 5
勢@@ 5
参@@ 5
口@@ 5
史 5
后@@ 5
向@@ 5
君 5
味 5
味@@ 5
喜 5
団 5
團 5
在@@ 5
壁@@ 5
売@@ 5
大學 5
奘 5
娥 5
宛 5
実 5
室@@ 5
居 5
峰@@ 5
崇@@ 5
左@@ 5
常 5
常@@ 5
幣@@ 5
庵 5
廳 5
弁@@ 5
弘@@ 5
征@@ 5
後 5
後@@ 5
德@@ 5
心@@ 5
念@@ 5
性@@ 5
悪@@ 5
憲@@ 5
房@@ 5
技@@ 5
掌@@ 5
政 5
敦@@ 5
早@@ 5
映@@ 5
昭@@ 5
智@@ 5
曲 5
杉@@ 5
杜@@ 5
柳@@ 5
校 5
櫓 5
殺@@ 5
母 5
池@@ 5
津 5
洪@@ 5
活@@ 5
派 5
流@@ 5
浮@@ 5
深@@ 5
渠 5
澤 5
燈@@ 5
班 5
用@@ 5
由@@ 5
石 5
章 5
等@@ 5
紀@@ 5
紅@@ 5
納@@ 5
素@@ 5
維@@ 5
総@@ 5
縣 5
羽 5
联@@ 5
興@@ 5
良@@ 5
节 5
茂 5
菊@@ 5
菩@@ 5
華 5
葉@@ 5
薩 5
藩 5
蘇@@ 5
虎@@ 5
表@@ 5
西 5
語@@ 5
談@@ 5
諸@@ 5
语@@ 5
賀@@ 5
赤 5
路@@ 5
身@@ 5
車@@ 5
辭 5
連@@ 5
進@@ 5
運@@ 5
鄭@@ 5
里@@ 5
銀@@ 5
防@@ 5
陵@@ 5
隠@@ 5
雄 5
雅 5
雲 5
霊 5
青 5
面@@ 5
食@@ 5
香港 5
體@@ 5
黃@@ 5
과@@ 5
광@@ 5
글 5
날 5
는 5
로 5
백@@ 5
벌 5
승@@ 5
아 5
앙@@ 5
위@@ 5
은 5
정 5
준@@ 5
중@@ 5
진@@ 5
최@@ 5
카@@ 5
한 5
해@@ 5
협@@ 5
호 5
 5
， 5
𐌰@@ 5
𐤠@@ 5
Cette 4
Durch 4
Dương 4
Güney 4
Hindi 4
Hoa 4
Hòa 4
Kongo 4
Kupası 4
Kusini 4
Kỳ 4
Machi 4
También 4
Titel 4
Weltkri@@ 4
Zusammen@@ 4
abei 4
acak 4
actual 4
aient 4
alre@@ 4
alık 4
ammen@@ 4
améric@@ 4
années 4
ausge@@ 4
başkan@@ 4
beim 4
beledi@@ 4
compet@@ 4
constru@@ 4
damit 4
dass 4
dağ@@ 4
deci@@ 4
defe@@ 4
depor@@ 4
deven@@ 4
difer@@ 4
dài 4
dır 4
ecek 4
einige 4
eint 4
einz@@ 4
ekana 4
eleri 4
elten 4
endung 4
escri@@ 4
esini 4
eviz@@ 4
finale 4
gehört 4
gesam@@ 4
geç@@ 4
grün@@ 4
gör@@ 4
haa 4
haber 4
hacer 4
hadi 4
halten 4
hombres 4
however 4
ilen 4
ileri 4
ilim@@ 4
inaug@@ 4
incor@@ 4
insi 4
itwa 4
kadar 4
keiten 4
kuf@@ 4
kuna 4
kuu 4
letzten 4
liko 4
lý 4
manera 4
mayo 4
momento 4
much@@ 4
muş 4
mış 4
nahme 4
nahmen 4
occu@@ 4
ofici@@ 4
otro 4
peut 4
phong 4
pitia 4
poder 4
presidente 4
punkt 4
punto 4
péri@@ 4
quement 4
quốc 4
returned 4
rôle 4
schied@@ 4
sehr 4
tatu 4
territoire 4
toda 4
toute 4
toàn 4
trai 4
ucu 4
uncu 4
urch 4
vya 4
weiter 4
wohl 4
yı 4
zug@@ 4
zuri 4
 4
 4
 4
Â 4
Ë@@ 4
Ñ 4
Ý 4
áp 4
änge 4
ätz@@ 4
ích 4
öffent@@ 4
öffentlich@@ 4
úc 4
último 4
ċ@@ 4
Ď@@ 4
đa 4
đi@@ 4
đồng 4
ğu 4
ĩ 4
ĭ 4
ının 4
ĵ 4
ĵ@@ 4
ľ 4
œ 4
ŝ@@ 4
ǃ@@ 4
ǝ 4
ǫ 4
Ȣ 4
ɤ@@ 4
ɵ 4
ʋ 4
ʑ 4
ʷ 4
˄ 4
ˆ 4
ˠ 4
˧ 4
̑ 4
̤ 4
͜ 4
Ͱ@@ 4
· 4
ϛ@@ 4
ϣ@@ 4
ϯ 4
Ϲ@@ 4
Ђ 4
Ѓ@@ 4
Глав@@ 4
Запад@@ 4
Кла@@ 4
Май@@ 4
Международ@@ 4
Софи@@ 4
Ч 4
Щ 4
аб@@ 4
авиа@@ 4
ал 4
архи@@ 4
без 4
берг 4
бур@@ 4
бю@@ 4
вед@@ 4
вели@@ 4
версите@@ 4
вете 4
вор@@ 4
вос@@ 4
времен@@ 4
время 4
вс@@ 4
вые 4
вых 4
гда 4
ген 4
гимна@@ 4
гле@@ 4
гов 4
грани@@ 4
гръц@@ 4
дале@@ 4
дат 4
дет@@ 4
дии 4
дина@@ 4
дя@@ 4
един@@ 4
език 4
ел 4
емы@@ 4
ен 4
ено 4
ец 4
заво@@ 4
из 4
ител@@ 4
итель 4
их 4
кой@@ 4
коло@@ 4
комплек@@ 4
коро@@ 4
крепо@@ 4
лез@@ 4
лъ@@ 4
льные 4
мени 4
мер 4
мери@@ 4
мно@@ 4
нд 4
него 4
ник@@ 4
нию 4
нова@@ 4
нове@@ 4
об 4
оба@@ 4
обе@@ 4
община 4
ографи@@ 4
организация 4
оста@@ 4
пан@@ 4
пло@@ 4
поле@@ 4
поль@@ 4
послед@@ 4
права 4
рана 4
регион 4
река 4
рен 4
риа@@ 4
роди@@ 4
свобо@@ 4
сед@@ 4
селе@@ 4
сили 4
син 4
ском 4
сон 4
съ@@ 4
телевизи@@ 4
техниче@@ 4
тно 4
того 4
тъ@@ 4
уча@@ 4
училище 4
фер@@ 4
хан 4
ход 4
цией 4
цу 4
църква 4
чной 4
щ 4
ют 4
ёл 4
ђ 4
Ѡ 4
ғ 4
ҙ 4
ҥ 4
ӕ@@ 4
Ӧ 4
ӯ@@ 4
Ջ@@ 4
Ֆ 4
է 4
խ 4
ո 4
օ 4
֫ 4
ֽ@@ 4
أك@@ 4
إل@@ 4
ئ 4
ائية 4
ابة 4
ابل 4
ادر 4
ارت 4
اسم 4
اض 4
اض@@ 4
افغ@@ 4
البا@@ 4
الحر@@ 4
الشرق@@ 4
الض@@ 4
العالم 4
القي@@ 4
الوط@@ 4
اور@@ 4
اون 4
اگ@@ 4
بان@@ 4
برو@@ 4
بط 4
بند 4
به 4
بی@@ 4
تاریخ 4
تف@@ 4
تل 4
تلا@@ 4
تی 4
جز@@ 4
جل@@ 4
جم 4
جمي@@ 4
جن 4
جوا@@ 4
دا 4
درا@@ 4
دن 4
دُ@@ 4
رئيس 4
ربية 4
رج@@ 4
رف 4
روز 4
رون 4
زار 4
زل 4
ست 4
سر 4
سل 4
شري@@ 4
صح@@ 4
صدر 4
عص@@ 4
عن@@ 4
عي 4
فری@@ 4
قد@@ 4
قض@@ 4
قل 4
كار@@ 4
كري@@ 4
لان 4
لس 4
لف 4
لیگ 4
مانية 4
مانی 4
مست@@ 4
ملا@@ 4
مون 4
می 4
ندی 4
نس@@ 4
نص@@ 4
نظ@@ 4
نور 4
نہ 4
هد 4
وأ@@ 4
وار 4
وار@@ 4
وزیر 4
وطن 4
ولاية 4
وی 4
يت@@ 4
ينية 4
يو 4
يون@@ 4
ٌ 4
َ 4
ِّ@@ 4
ٰ@@ 4
ٷ@@ 4
ٹی@@ 4
ژ@@ 4
کا 4
کلی@@ 4
ګ@@ 4
ڭ 4
گو@@ 4
گی@@ 4
ۋ 4
یا 4
ێ 4
ܓ@@ 4
ܝ 4
ܣ 4
ބ@@ 4
ވ@@ 4
ޔ@@ 4
ާ 4
ޭ@@ 4
उ@@ 4
की 4
गां@@ 4
जु@@ 4
जो@@ 4
तक 4
ताल 4
ते 4
दा@@ 4
दि@@ 4
दी 4
देव@@ 4
धा@@ 4
धार 4
धि@@ 4
पर@@ 4
पस 4
फ 4
फ@@ 4
बि@@ 4
बु@@ 4
बो@@ 4
भ 4
भा@@ 4
भारतीय 4
योग 4
रण 4
रह 4
राय@@ 4
रि@@ 4
रु 4
ला@@ 4
शे@@ 4
सिंह 4
से@@ 4
ार@@ 4
ारी 4
ो 4
। 4
এ@@ 4
ঘ@@ 4
থ 4
হ 4
ৃ@@ 4
ਕ@@ 4
ਨ@@ 4
ੂ 4
ક@@ 4
ર@@ 4
ો@@ 4
ର 4
ା 4
ା@@ 4
அ@@ 4
இ@@ 4
ண 4
ல 4
ள@@ 4
ஷ 4
ா 4
ூ@@ 4
ே 4
జ@@ 4
య@@ 4
ಾ@@ 4
್ 4
മ@@ 4
ല@@ 4
ള@@ 4
ു@@ 4
ට 4
ද 4
ද@@ 4
ා 4
ก 4
ช 4
ญ@@ 4
รา@@ 4
ราช@@ 4
รี@@ 4
วง@@ 4
ศ@@ 4
สภา 4
สา@@ 4
ะ 4
ัน@@ 4
ันท@@ 4
าน 4
ิ 4
ิน@@ 4
ู 4
ู@@ 4
เพ@@ 4
เว@@ 4
ຂ@@ 4
ຕ@@ 4
ໄ@@ 4
ཆ@@ 4
ཚ@@ 4
ཤ@@ 4
ེ@@ 4
ဘ@@ 4
ဝ 4
ူ@@ 4
ბ 4
ლ 4
ሱ@@ 4
ሲ@@ 4
ሴ 4
ቀ@@ 4
ብ 4
ኃ@@ 4
ነ@@ 4
ይ 4
ይ@@ 4
ᐃ@@ 4
ᓗ@@ 4
ᖅ 4
ជ 4
ថ 4
ទ 4
ួ@@ 4
ៃ 4
ᠯ@@ 4
ᠵ@@ 4
ᱟ@@ 4
ᱤ@@ 4
Ḵ@@ 4
ḷ 4
ṉ@@ 4
ẏ@@ 4
Ẩ@@ 4
ỉ 4
ọ 4
ử@@ 4
Ἃ@@ 4
ἔ 4
Ἓ@@ 4
Ὤ@@ 4
ᾀ@@ 4
ᾅ@@ 4
ᾖ 4
ᾗ@@ 4
⁵ 4
⁷ 4
₰ 4
₺ 4
₽ 4
ℛ@@ 4
ℝ@@ 4
┌ 4
▶ 4
◦ 4
♂ 4
ⰵ 4
ⱨ@@ 4
ⲁ 4
ⲑ@@ 4
ⲙ 4
ⵉ 4
ⵡ@@ 4
か 4
ぎ 4
ご@@ 4
そ@@ 4
つ 4
ぴ@@ 4
ゃ@@ 4
ょ 4
を 4
を@@ 4
シ 4
ビ 4
七 4
丈 4
井 4
亞@@ 4
交@@ 4
仏 4
仲@@ 4
份@@ 4
体 4
何@@ 4
俊@@ 4
倉@@ 4
先@@ 4
兔@@ 4
內@@ 4
全 4
兴@@ 4
兵 4
円@@ 4
军 4
劉@@ 4
匹@@ 4
十 4
厚@@ 4
友 4
发@@ 4
口 4
古 4
司@@ 4
吾@@ 4
哀@@ 4
哈@@ 4
哩@@ 4
喀@@ 4
善@@ 4
圓 4
圖@@ 4
地區 4
场 4
坂 4
坊 4
域 4
基 4
堂@@ 4
墨 4
夜@@ 4
奇@@ 4
套@@ 4
好@@ 4
妙@@ 4
妻 4
姫 4
娥@@ 4
孝 4
孫 4
宁 4
宋@@ 4
宏@@ 4
官 4
宙@@ 4
寶@@ 4
対@@ 4
尊@@ 4
小 4
尾 4
居@@ 4
岳@@ 4
嶽@@ 4
巨@@ 4
布@@ 4
希@@ 4
幸 4
幸@@ 4
広@@ 4
店 4
店@@ 4
度 4
康 4
建 4
引@@ 4
微@@ 4
忠 4
忠@@ 4
思@@ 4
怪@@ 4
慈@@ 4
慶@@ 4
懐@@ 4
戔@@ 4
战 4
战@@ 4
承@@ 4
摩@@ 4
擂@@ 4
支 4
改@@ 4
斗@@ 4
方 4
旭@@ 4
时@@ 4
昆@@ 4
昌 4
景@@ 4
来 4
来@@ 4
板 4
架@@ 4
柔@@ 4
栗@@ 4
格@@ 4
桑@@ 4
桜@@ 4
桥 4
梅@@ 4
棋 4
植@@ 4
楽 4
標@@ 4
橋@@ 4
機 4
機@@ 4
次@@ 4
段@@ 4
氏@@ 4
油 4
治 4
沼 4
波@@ 4
泰@@ 4
洞 4
洲 4
浅@@ 4
济@@ 4
浜@@ 4
渋 4
準@@ 4
滿@@ 4
漠 4
澤@@ 4
瀬 4
灣 4
烏@@ 4
燵 4
爵 4
牛@@ 4
猛@@ 4
猫@@ 4
玄 4
瑞@@ 4
産 4
申@@ 4
盆@@ 4
目@@ 4
省@@ 4
県 4
真 4
眼@@ 4
砂@@ 4
碑@@ 4
祭@@ 4
秦@@ 4
空 4
窟 4
章@@ 4
竹 4
竺@@ 4
第@@ 4
節 4
篮@@ 4
籃@@ 4
精@@ 4
紀 4
紋 4
级@@ 4
羅 4
羽@@ 4
老 4
聯@@ 4
股@@ 4
腾@@ 4
臨@@ 4
舒@@ 4
航@@ 4
芝@@ 4
茶 4
荷@@ 4
葉 4
裏@@ 4
角 4
角@@ 4
解@@ 4
記@@ 4
詞 4
説@@ 4
論 4
议 4
记 4
貴@@ 4
赛 4
超@@ 4
趙 4
造@@ 4
遊@@ 4
遠@@ 4
郷 4
释@@ 4
針 4
錄 4
錦@@ 4
铁 4
関@@ 4
閣 4
门@@ 4
阳@@ 4
陰@@ 4
険 4
際@@ 4
雨@@ 4
雪 4
雪@@ 4
震 4
霊@@ 4
頭@@ 4
飛@@ 4
飯 4
鲜@@ 4
鳳@@ 4
黨 4
龙 4
Ꙗ 4
ꜜ@@ 4
거@@ 4
계 4
금@@ 4
남 4
더@@ 4
드@@ 4
랑 4
룡@@ 4
림@@ 4
마@@ 4
명@@ 4
본@@ 4
불@@ 4
비 4
사 4
산 4
엔@@ 4
여@@ 4
역 4
유@@ 4
은@@ 4
장@@ 4
전 4
죽 4
축@@ 4
치 4
태@@ 4
통@@ 4
포@@ 4
현 4
호@@ 4
홍@@ 4
화 4
 4
𐤭@@ 4
🜨 4
Başkan@@ 3
COVI@@ 3
Jahrhundert 3
Japon 3
Kaskazini 3
Kati 3
Kristo 3
Mais 3
Mji 3
Nga 3
Oktober 3
Ort 3
Thanh 3
Thành 3
aiss@@ 3
aliwa 3
alors 3
ambazo 3
amment 3
anay@@ 3
announced 3
aît 3
aşı 3
beiden 3
cerca 3
ciud@@ 3
crit 3
crí@@ 3
cuar@@ 3
culos 3
descu@@ 3
dieser 3
donc 3
donde 3
durch@@ 3
dü 3
düz@@ 3
ectos 3
ehir@@ 3
embar@@ 3
emble 3
empe@@ 3
encontr@@ 3
endet 3
etc. 3
etwa 3
eğ@@ 3
fahren 3
frente 3
fue 3
futbol@@ 3
gouvern@@ 3
größ@@ 3
haben 3
harek@@ 3
hizi 3
hunder@@ 3
huu 3
hàng 3
ihn 3
ildi 3
iliy@@ 3
inah@@ 3
intro@@ 3
isant 3
isini 3
için 3
joined 3
karş@@ 3
kati@@ 3
keine 3
kent@@ 3
khu 3
kila 3
kilom@@ 3
kisi@@ 3
kuli@@ 3
kuv@@ 3
lanan 3
largo 3
lerini 3
lider@@ 3
linal@@ 3
logr@@ 3
lık@@ 3
mayan 3
mev@@ 3
misma 3
mito 3
municipio 3
muy 3
música 3
neuen 3
nın 3
ocup@@ 3
onóm@@ 3
orta@@ 3
osto 3
país 3
pequ@@ 3
président 3
pueb@@ 3
puede 3
respectiv@@ 3
respons@@ 3
retir@@ 3
segunda 3
sión 3
sonr@@ 3
stän@@ 3
ständi@@ 3
série 3
sız@@ 3
tarde 3
tener 3
thay 3
tober 3
todos 3
trabajo 3
tế 3
umri 3
unzi 3
uvo 3
uwe@@ 3
wali@@ 3
wana@@ 3
waren 3
wech@@ 3
wür@@ 3
yüz@@ 3
 3
 3
Ã 3
Ú 3
ält 3
äß@@ 3
évol@@ 3
êm 3
òn 3
öne@@ 3
üdür 3
Ć 3
Ĉ@@ 3
Đ 3
Đi@@ 3
Đồng 3
Đức 3
ğin 3
ģ@@ 3
Ĥ 3
ıf@@ 3
ıp 3
ıt@@ 3
ű 3
Ź@@ 3
Ǝ 3
ƣ@@ 3
ƶ 3
ǁ@@ 3
ǂ@@ 3
Ǧ@@ 3
ɥ@@ 3
ɱ 3
ɱ@@ 3
ɳ@@ 3
ɿ 3
ʧ 3
ˁ 3
ˑ@@ 3
˥ 3
̄ 3
̍ 3
̔ 3
̚ 3
̝ 3
͈ 3
ϖ 3
ϗ 3
Ϝ@@ 3
Ϡ 3
ϡ@@ 3
ϵ 3
Ѕ@@ 3
Бел@@ 3
Дим@@ 3
История 3
При 3
Раз@@ 3
Сле@@ 3
Фор@@ 3
Ь@@ 3
армии 3
бат@@ 3
български 3
бър@@ 3
бя@@ 3
в. 3
вала 3
веро@@ 3
вид@@ 3
вну@@ 3
вого 3
вод 3
вода 3
вол@@ 3
восто@@ 3
всех 3
вто@@ 3
въ@@ 3
гат@@ 3
гата 3
глав@@ 3
год 3
гон@@ 3
госу@@ 3
гъ@@ 3
дат@@ 3
два 3
дей 3
дена 3
дой 3
дол@@ 3
душ@@ 3
души 3
ена 3
жав@@ 3
жен 3
живо@@ 3
живот 3
жиз@@ 3
жина 3
зави@@ 3
зависи@@ 3
зако@@ 3
зва@@ 3
зма 3
иг@@ 3
ины 3
ити 3
ито 3
йки 3
кино@@ 3
ките 3
компания 3
кул@@ 3
кур@@ 3
ланд@@ 3
лей 3
лии 3
литератур@@ 3
лно 3
лок 3
лото 3
лько 3
мат 3
мата 3
меда@@ 3
меж@@ 3
мей@@ 3
мена 3
мили@@ 3
мина@@ 3
мм 3
много 3
мом 3
море 3
мпи@@ 3
музы@@ 3
мъ@@ 3
над 3
нари@@ 3
населения 3
нах 3
нение 3
ните@@ 3
нитель@@ 3
нк@@ 3
нор@@ 3
ност@@ 3
ным 3
обаче 3
оби@@ 3
области 3
образо@@ 3
объ@@ 3
обы@@ 3
оз@@ 3
ори@@ 3
писи 3
помо@@ 3
поэ@@ 3
право@@ 3
прия@@ 3
проек@@ 3
пы@@ 3
раб@@ 3
рабо@@ 3
рая 3
рез@@ 3
рей@@ 3
рим@@ 3
рите 3
ряд@@ 3
ским 3
сме@@ 3
сно 3
сра@@ 3
среди 3
сса 3
ссо@@ 3
ств@@ 3
ству@@ 3
стей 3
стри@@ 3
стъп@@ 3
сть@@ 3
съю@@ 3
тна 3
тни 3
тол@@ 3
том 3
точ@@ 3
тран@@ 3
треб@@ 3
трен@@ 3
треш@@ 3
труд@@ 3
тър@@ 3
тя 3
удо@@ 3
управ@@ 3
фон 3
фон@@ 3
хоро@@ 3
хот@@ 3
хся 3
художе@@ 3
цио@@ 3
част@@ 3
ческого 3
чет@@ 3
шение 3
шим 3
шно 3
ъм 3
њ 3
ќ 3
ќ@@ 3
ѝ@@ 3
Ѧ 3
Җ@@ 3
ҥ@@ 3
ҫ 3
Ұ@@ 3
ҳ 3
Ҷ@@ 3
Ӏ@@ 3
ӹ 3
Ժ@@ 3
Ձ@@ 3
Ղ@@ 3
ե 3
փ 3
և 3
֥ 3
ְ 3
ֻ@@ 3
ך@@ 3
ײ@@ 3
آر@@ 3
آغ@@ 3
أة 3
أن 3
أول 3
ئر 3
ائر 3
ادية 3
ادی 3
اذ@@ 3
ارا 3
الأولى 3
التح@@ 3
التر@@ 3
التع@@ 3
الث 3
الحكومة 3
الرحمن 3
السلام 3
السي@@ 3
العل@@ 3
اللا@@ 3
اللغة 3
الم 3
المتحدة 3
المدينة 3
الملك 3
الموس@@ 3
الی 3
انص@@ 3
انق@@ 3
اه 3
اول@@ 3
اون@@ 3
اُ@@ 3
بار@@ 3
بند@@ 3
بو 3
بول@@ 3
بی 3
تاب 3
تاج 3
تب 3
تر 3
تش@@ 3
تص@@ 3
ته 3
تور@@ 3
تون@@ 3
جا@@ 3
جر@@ 3
جل 3
جم@@ 3
حسین 3
حص@@ 3
حي 3
خط@@ 3
داخ@@ 3
دل@@ 3
دو 3
رائ@@ 3
رام 3
روا@@ 3
روس 3
رہ 3
زب@@ 3
زي 3
زيد 3
سال@@ 3
سم 3
سید 3
شار@@ 3
شن 3
شی 3
ضي@@ 3
طان 3
طل@@ 3
طي 3
عراق 3
عمر@@ 3
عمل 3
فاع 3
فتح 3
فرا@@ 3
فري@@ 3
فی 3
قا 3
قبل 3
كا 3
كر 3
كي@@ 3
لاء 3
لاب 3
لاح 3
لغ@@ 3
لك@@ 3
مال@@ 3
مبار@@ 3
مت@@ 3
مدر@@ 3
مع 3
منظ@@ 3
مول@@ 3
مى 3
مک@@ 3
مین 3
ناصر 3
نان 3
نان@@ 3
نت@@ 3
نس 3
نشر 3
نظام 3
نق@@ 3
نور@@ 3
نک@@ 3
هٔ 3
وال 3
وث@@ 3
وح@@ 3
وط 3
وع@@ 3
وقت 3
ولا 3
وه@@ 3
وى 3
ويل 3
يات 3
يس@@ 3
يش 3
يع@@ 3
يُ@@ 3
ٰ 3
ٹ 3
پ 3
چی@@ 3
کار@@ 3
کشمیر 3
کل 3
گا@@ 3
گر@@ 3
ڵ@@ 3
ڼ@@ 3
ہی@@ 3
یم 3
۹@@ 3
ܟ@@ 3
ܩ 3
ܼ 3
ށ@@ 3
ޝ@@ 3
ި 3
ंच@@ 3
ंड@@ 3
ई 3
कानू@@ 3
कृ@@ 3
खा 3
गि@@ 3
घ@@ 3
च 3
चार 3
ची 3
जय@@ 3
जि@@ 3
झ@@ 3
ञ 3
ठ 3
डा 3
तम 3
तर@@ 3
ति 3
ती 3
ते@@ 3
थ 3
थ@@ 3
थि@@ 3
दुर 3
धु@@ 3
नि@@ 3
पड 3
पि@@ 3
पी 3
पी@@ 3
पुरा@@ 3
फे@@ 3
ब@@ 3
भारत 3
भाषा 3
भो@@ 3
मण 3
मध 3
मान@@ 3
मी 3
मू@@ 3
मो@@ 3
ये@@ 3
यो@@ 3
रम 3
रसा@@ 3
राम@@ 3
राष 3
री@@ 3
लक 3
ले@@ 3
वन 3
विश 3
वी 3
शर 3
शी 3
शु@@ 3
संघ 3
संस 3
सर 3
सि@@ 3
सो@@ 3
हिंदी 3
िल 3
ीय 3
ू 3
ौ@@ 3
॰ 3
ও 3
খ 3
ঙ@@ 3
ঠ 3
ঠ@@ 3
ফ 3
৳ 3
ਅ@@ 3
ਟ@@ 3
ਨ 3
ਬ 3
ਭ@@ 3
ਸ 3
ੋ@@ 3
ଟ@@ 3
ବ@@ 3
ଳ@@ 3
ଶ 3
ି 3
ି@@ 3
ୀ 3
ୁ@@ 3
ஆ@@ 3
ோ@@ 3
ం@@ 3
ద@@ 3
ర@@ 3
ల 3
స@@ 3
ు@@ 3
్ 3
ಕ@@ 3
ಪ@@ 3
ವ@@ 3
ು 3
അ@@ 3
ക 3
ത@@ 3
യ 3
ി 3
ി@@ 3
අ@@ 3
ධ@@ 3
ඹ 3
ේ@@ 3
ค@@ 3
ง 3
ณ 3
ณ@@ 3
ต 3
ติ@@ 3
นา@@ 3
บ@@ 3
ประ@@ 3
ย 3
ยา 3
ยุ@@ 3
ระ 3
รา 3
ล 3
วั@@ 3
ศ 3
สุ@@ 3
ัด@@ 3
ัย 3
ำ@@ 3
ิน 3
ี@@ 3
เ@@ 3
โค@@ 3
ຄ@@ 3
ປ@@ 3
ຫ 3
ຮ 3
ຽ@@ 3
ཙ@@ 3
ླ@@ 3
ဟ@@ 3
ါ@@ 3
Ⴈ 3
Ⴈ@@ 3
ტ 3
ለ 3
ለ@@ 3
ሊ@@ 3
ሐ@@ 3
ሔ@@ 3
ሚ@@ 3
ማ 3
ሥ@@ 3
ሪ@@ 3
ሮ@@ 3
ሰ@@ 3
ሳ 3
ሳ@@ 3
ተ 3
ቱ 3
ታ@@ 3
ና 3
ክ 3
ዓ@@ 3
ዝ@@ 3
ዶ 3
ጅ@@ 3
ጉ@@ 3
ጋ@@ 3
ᓂ@@ 3
ិ 3
ៀ@@ 3
ំ 3
ះ 3
ះ@@ 3
៍ 3
។ 3
ᠡ@@ 3
ᠤ 3
ᠥ@@ 3
ᠰ@@ 3
ᠶ@@ 3
ḗ@@ 3
ḯ@@ 3
ḱ@@ 3
ḵ@@ 3
ḻ@@ 3
Ṁ 3
ṅ 3
ṇ 3
ṓ@@ 3
Ṛ@@ 3
ẋ 3
ẓ 3
ảng 3
ẵ@@ 3
ết 3
ỉ@@ 3
ới 3
ở 3
ụ 3
ục 3
ἑ 3
Ἧ@@ 3
Ἰ 3
Ἵ@@ 3
Ὃ 3
Ὅ 3
ὒ@@ 3
ὢ 3
ὧ 3
ᾄ@@ 3
ᾔ@@ 3
῏ 3
ῑ 3
ῡ 3
‚ 3
⁠ 3
⁶ 3
⁺ 3
₁ 3
ℍ 3
⅜ 3
Ⅰ 3
Ⅻ@@ 3
∫ 3
⊢ 3
⌉ 3
⏨ 3
④ 3
┘ 3
┤ 3
► 3
♀ 3
♈ 3
♮ 3
➙ 3
⠅ 3
⠊ 3
⠐ 3
ⰿ@@ 3
ⱏ 3
ⱞ@@ 3
ⲃ@@ 3
ⲅ@@ 3
ⲇ@@ 3
ⲉ 3
ⲏ 3
ⴼ 3
ⵊ@@ 3
ⵍ 3
々 3
〚 3
〛 3
あ 3
ぎ@@ 3
く 3
ぐ@@ 3
さ 3
ざ@@ 3
じ 3
せ@@ 3
ぢ@@ 3
て 3
で@@ 3
と 3
み 3
よ@@ 3
ゥ@@ 3
ゴ 3
ダ 3
デ 3
ペ@@ 3
ャ 3
ュ 3
ヲ 3
世 3
世界 3
中國 3
乐@@ 3
乗@@ 3
也 3
乱 3
亀@@ 3
仔@@ 3
以@@ 3
伎 3
伏@@ 3
伝 3
佐 3
侯@@ 3
俱@@ 3
個@@ 3
偉 3
備@@ 3
僧 3
共和国 3
典 3
円 3
冬@@ 3
冲 3
凰@@ 3
初 3
判@@ 3
助 3
勃@@ 3
勒 3
務 3
務@@ 3
医 3
卓@@ 3
厥@@ 3
取@@ 3
受@@ 3
叶@@ 3
合 3
吉 3
同 3
后 3
吳 3
吴@@ 3
吹@@ 3
呂 3
员 3
品@@ 3
問@@ 3
嗚@@ 3
四 3
团 3
団@@ 3
园 3
圏 3
地区 3
垣 3
垣@@ 3
場@@ 3
塘@@ 3
壁 3
壮@@ 3
壹@@ 3
夢@@ 3
夫@@ 3
失@@ 3
头@@ 3
奈@@ 3
妻@@ 3
委@@ 3
委员会 3
娘 3
嫗 3
孝@@ 3
季@@ 3
学院 3
宅 3
守@@ 3
完@@ 3
定 3
宣 3
富 3
寶 3
寿 3
對 3
尾@@ 3
局 3
屏@@ 3
岛 3
岡 3
岸 3
峡 3
崔@@ 3
嶋@@ 3
巴 3
布 3
席 3
庄@@ 3
庙 3
庚@@ 3
座@@ 3
廊 3
廣@@ 3
弘 3
彦@@ 3
影@@ 3
彼@@ 3
律 3
徒@@ 3
得@@ 3
徽@@ 3
忍 3
快@@ 3
总@@ 3
息 3
惣@@ 3
慧 3
我@@ 3
才@@ 3
扶@@ 3
抱@@ 3
挙 3
捨@@ 3
探 3
搜@@ 3
撃 3
撃@@ 3
支@@ 3
攻@@ 3
政府 3
散 3
数@@ 3
數@@ 3
族@@ 3
旗@@ 3
早 3
時 3
普@@ 3
曆@@ 3
曹 3
曹@@ 3
曾@@ 3
會@@ 3
月 3
服@@ 3
朗 3
期@@ 3
未@@ 3
术@@ 3
杉 3
杞 3
杨@@ 3
极@@ 3
枣@@ 3
枸@@ 3
柏@@ 3
染@@ 3
柱 3
柱@@ 3
根 3
桓@@ 3
桜 3
梁 3
梵@@ 3
森 3
楼 3
楼@@ 3
樞 3
横 3
檀@@ 3
歌 3
母@@ 3
毒 3
比@@ 3
民 3
気@@ 3
氣 3
氣@@ 3
汁 3
汉 3
汗 3
泽@@ 3
浙@@ 3
涼 3
渓 3
湯 3
湾 3
満@@ 3
源 3
满@@ 3
灘 3
火 3
灯@@ 3
灵@@ 3
烏 3
然 3
然@@ 3
熊@@ 3
熱@@ 3
爆@@ 3
牧@@ 3
特 3
猩@@ 3
獣 3
獣@@ 3
玉 3
珠@@ 3
琶@@ 3
瑠@@ 3
瓜 3
瓠@@ 3
甘@@ 3
电@@ 3
界 3
畑 3
留@@ 3
疾@@ 3
盟 3
盤@@ 3
相 3
相@@ 3
祖@@ 3
禅 3
禹 3
突@@ 3
站 3
笙 3
箇@@ 3
節@@ 3
籤 3
米 3
紙 3
級@@ 3
素 3
絹@@ 3
綠@@ 3
縄 3
纪@@ 3
经@@ 3
罗@@ 3
置@@ 3
翼@@ 3
肥@@ 3
臣 3
舍@@ 3
舞 3
舟 3
芸@@ 3
莫@@ 3
萬@@ 3
著@@ 3
葛 3
蓮@@ 3
蔵@@ 3
藏 3
蘭 3
蘭@@ 3
蝦@@ 3
衆@@ 3
街@@ 3
袖 3
製@@ 3
見 3
誉@@ 3
誌 3
誓@@ 3
講@@ 3
豬@@ 3
貞@@ 3
賊@@ 3
賢 3
赫@@ 3
越@@ 3
跡@@ 3
輪 3
辛@@ 3
辰@@ 3
農@@ 3
辽@@ 3
达@@ 3
迅 3
运@@ 3
远@@ 3
送@@ 3
速@@ 3
進 3
逸@@ 3
遷 3
選@@ 3
那@@ 3
邦@@ 3
里 3
銅@@ 3
鋼@@ 3
錬@@ 3
録 3
鎌@@ 3
鏡@@ 3
锦@@ 3
镇@@ 3
長 3
間 3
阪@@ 3
阳 3
陀 3
际@@ 3
陈@@ 3
陕@@ 3
陽 3
隊@@ 3
雷@@ 3
露@@ 3
靖@@ 3
領@@ 3
飞@@ 3
騎@@ 3
高 3
魯@@ 3
鳥@@ 3
鴻@@ 3
鸣 3
麟 3
麦@@ 3
麵 3
麹 3
黄 3
鼓 3
齐@@ 3
ꙑ 3
ꠤ@@ 3
가 3
개 3
건 3
건@@ 3
과 3
권@@ 3
그@@ 3
근@@ 3
꽁@@ 3
녀 3
다 3
달@@ 3
당@@ 3
독@@ 3
동 3
란@@ 3
려 3
려@@ 3
루 3
마 3
만@@ 3
맨@@ 3
명 3
몰@@ 3
무 3
묵 3
문 3
바@@ 3
빛@@ 3
빵 3
서 3
손 3
송@@ 3
식 3
양 3
역@@ 3
영 3
옥@@ 3
와@@ 3
요 3
용 3
우@@ 3
을 3
음 3
족 3
종@@ 3
차 3
찬@@ 3
창 3
철 3
철@@ 3
추@@ 3
픽 3
현@@ 3
황@@ 3
흥@@ 3
힘 3
 3
ﷲ 3
︰ 3
ﺣ@@ 3
ﻭ 3
ﻮ@@ 3
ﻯ 3
（ 3
） 3
� 3
𐌺@@ 3
𐌿@@ 3
𐎠@@ 3
𐤦@@ 3
𒀭 3
𒌓 3
Beispi@@ 2
Bắc 2
Chuo 2
Daha 2
Durante 2
Eylül 2
Giải 2
Hán 2
Hồ 2
Hồng 2
Ils 2
Irel@@ 2
Jahren 2
Jahrhunder@@ 2
Liên 2
Lý 2
Mannschaft 2
Mashariki 2
März 2
Nachdem 2
Ocak 2
Seit 2
Tarih@@ 2
Thiên 2
Tuy 2
Tân 2
Tây 2
Zweiten 2
acción 2
afir@@ 2
agosto 2
ainsi 2
alcanz@@ 2
alement 2
aliza 2
almente 2
altında 2
anisha 2
antigu@@ 2
anın 2
arası 2
asyon 2
asında 2
asının 2
aße 2
başkanı 2
bekannt 2
besonder@@ 2
bilin@@ 2
bió 2
bà 2
bán 2
cao 2
centro 2
chaque 2
chữ 2
coi 2
commen@@ 2
cuando 2
daha 2
dedor 2
desarrol@@ 2
deter@@ 2
deuxième 2
devlet 2
diesen 2
doit 2
dòng 2
dür@@ 2
dı 2
effet 2
ehemal@@ 2
ejemplo 2
empres@@ 2
encuentr@@ 2
enero 2
esab@@ 2
escrit@@ 2
espec@@ 2
estado 2
estadounidense 2
existe 2
finales 2
fiz@@ 2
folg@@ 2
frü@@ 2
ganda 2
groupe 2
gön@@ 2
habitantes 2
hili 2
ierten 2
ieurs 2
ihrer 2
ikinci 2
ilir 2
importante 2
ingana 2
ishwa 2
ió 2
juu 2
jähr@@ 2
kati 2
kazi 2
kendi 2
konnte 2
kte 2
kuto@@ 2
kıs@@ 2
lararası 2
larda 2
larla 2
ların 2
larından 2
lassen 2
lerinden 2
liegt 2
ließ@@ 2
lte 2
línea 2
maji 2
mang 2
marzo 2
maç@@ 2
mäß@@ 2
müc@@ 2
nhất 2
nombre@@ 2
norte 2
nuev@@ 2
nörd@@ 2
oldu@@ 2
olmak 2
ouvent 2
partido 2
película 2
pobl@@ 2
primer 2
préc@@ 2
públ@@ 2
quả 2
rund 2
sahi@@ 2
sahip 2
sağ@@ 2
schon 2
seit 2
seph 2
siglo 2
situé 2
sondern 2
spä@@ 2
steht 2
sır@@ 2
sản 2
taifa 2
theo 2
thảo 2
tiếng 2
trabaj@@ 2
tranh 2
trieb 2
trí 2
trò 2
tır@@ 2
unid@@ 2
unkt 2
verschied@@ 2
vió 2
wanja 2
wao 2
weise 2
wenda 2
weza 2
wilaya 2
worden 2
wurde 2
xã 2
yake 2
yali@@ 2
yaş@@ 2
yaşam@@ 2
ydi 2
zahl@@ 2
zahlreich@@ 2
zaman@@ 2
zeichnet 2
zweiten 2
zös@@ 2
 2
¦ 2
ª@@ 2
¶ 2
Á 2
Ê 2
àu 2
çev@@ 2
ço@@ 2
équipe 2
ísticas 2
óm 2
ôi 2
önc@@ 2
önem@@ 2
ùa 2
ùng 2
ünü 2
Ă@@ 2
Ą@@ 2
ď 2
đi 2
ĥ@@ 2
İmparator@@ 2
ılan 2
ıları 2
ılmış 2
ılı 2
ımc@@ 2
ından 2
ĳ@@ 2
ķ 2
ĸ@@ 2
ĺ 2
Ŋ 2
şek@@ 2
ũ 2
ũng 2
Ż 2
ſ@@ 2
Ƅ 2
ược 2
ượng 2
Ƶ 2
ƿ@@ 2
ǜ 2
ǟ@@ 2
ǣ@@ 2
ǰ 2
ǰ@@ 2
ȃ@@ 2
ȳ@@ 2
Ɋ 2
ɖ@@ 2
ɚ 2
ɢ@@ 2
ɧ@@ 2
ɮ@@ 2
ʌ 2
ʙ@@ 2
ʦ@@ 2
ʽ@@ 2
ˇ@@ 2
ˏ@@ 2
˞ 2
ˠ@@ 2
̟ 2
͗ 2
͘ 2
Ͳ 2
ϙ@@ 2
Ϡ@@ 2
ϫ@@ 2
ϰ@@ 2
ϲ 2
Ї 2
Ћ 2
Ќ@@ 2
Џ@@ 2
Администра@@ 2
Амери@@ 2
Бълга@@ 2
Дже@@ 2
Евро@@ 2
Йор@@ 2
Кита@@ 2
Лон@@ 2
Македония 2
Нор@@ 2
Основ@@ 2
От 2
Рай@@ 2
Роб@@ 2
СШ@@ 2
Спо@@ 2
Те 2
Фридрих 2
Шве@@ 2
автомоби@@ 2
ално 2
ане 2
без@@ 2
бия 2
бло@@ 2
брат 2
бре@@ 2
был 2
вает 2
вари@@ 2
вата 2
века 2
верх@@ 2
вли@@ 2
водо@@ 2
войны 2
вом 2
времени 2
връ@@ 2
все 2
вым 2
высо@@ 2
гене@@ 2
гим@@ 2
гли@@ 2
годи@@ 2
два@@ 2
действи@@ 2
действия 2
дела@@ 2
дени 2
дение 2
дент@@ 2
дерев@@ 2
дж 2
диа@@ 2
дон@@ 2
други 2
дъ@@ 2
евре@@ 2
есть 2
ждан@@ 2
ждения 2
женщи@@ 2
запад@@ 2
зат@@ 2
зву@@ 2
изве@@ 2
изи@@ 2
изо@@ 2
импе@@ 2
истории 2
ител 2
ителите 2
йска 2
йски 2
кари@@ 2
кви 2
кие 2
кило@@ 2
ключ@@ 2
коле@@ 2
комму@@ 2
контра@@ 2
кораб@@ 2
которые 2
кси@@ 2
ландия 2
лд 2
лектро@@ 2
лист 2
лись 2
личе@@ 2
лиш@@ 2
логия 2
лосо@@ 2
льных 2
мате@@ 2
международ@@ 2
мене@@ 2
мени@@ 2
мента@@ 2
мест@@ 2
места 2
меха@@ 2
мин@@ 2
мл@@ 2
моби@@ 2
моде@@ 2
мой 2
нала 2
нам 2
нами 2
населе@@ 2
ната 2
независи@@ 2
ней@@ 2
нен 2
нения 2
нието 2
ника@@ 2
ним 2
ните 2
нове 2
нос@@ 2
освобо@@ 2
оте@@ 2
офи@@ 2
пей@@ 2
писате@@ 2
побе@@ 2
пора@@ 2
посе@@ 2
поч@@ 2
правитель@@ 2
продол@@ 2
противо@@ 2
пря@@ 2
птември 2
пти@@ 2
раз 2
разв@@ 2
развити@@ 2
рази@@ 2
ране 2
распо@@ 2
рах 2
ред 2
реда@@ 2
реди@@ 2
резу@@ 2
рите@@ 2
рих 2
рован@@ 2
ряд 2
сам 2
сбор@@ 2
связи 2
седате@@ 2
сент@@ 2
сериа@@ 2
скую 2
сле@@ 2
следовате@@ 2
смер@@ 2
сна@@ 2
соеди@@ 2
составе 2
ссе@@ 2
стат@@ 2
стве 2
стве@@ 2
стви@@ 2
ством 2
стин@@ 2
строй@@ 2
стта 2
стър 2
сце@@ 2
там 2
твор@@ 2
теат@@ 2
тек@@ 2
три 2
тря@@ 2
уда@@ 2
уез@@ 2
ул 2
уме@@ 2
упо@@ 2
ферен@@ 2
фли@@ 2
фор@@ 2
форма 2
фри@@ 2
хай@@ 2
хер@@ 2
ху 2
цата 2
цел 2
чели 2
чемпиона@@ 2
чения 2
чень 2
что 2
шие 2
ших 2
школ@@ 2
ълга@@ 2
ью 2
юще@@ 2
ющих 2
яв@@ 2
января 2
ѓ@@ 2
ѕ@@ 2
џ 2
ѡ 2
ѡ@@ 2
ѩ@@ 2
ѫ@@ 2
Ѱ 2
ѵ 2
ѷ@@ 2
ѹ 2
ѹ@@ 2
Ҙ 2
ҟ@@ 2
Ҡ 2
Ҥ 2
Ҥ@@ 2
Ҫ 2
ҷ 2
Ҹ@@ 2
ҹ 2
ҹ@@ 2
Ӄ@@ 2
ӄ@@ 2
ӑ@@ 2
Ӝ 2
Ӧ@@ 2
ӱ 2
Ӹ 2
ӹ@@ 2
Ԥ 2
Դ 2
Ս 2
Վ 2
Ց@@ 2
՝ 2
՟ 2
պ 2
ջ 2
֑ 2
ֳ@@ 2
ֵ 2
ֶ 2
מ 2
נ 2
צ 2
װ 2
״ 2
آن 2
أح@@ 2
أما 2
إي@@ 2
ئة 2
ئن 2
ائل 2
ائے 2
ابو 2
ابی 2
اث@@ 2
ادا 2
ادی@@ 2
ارات 2
اردو 2
اسلا@@ 2
اسی 2
اغ@@ 2
اك 2
الآ@@ 2
الأر@@ 2
الأرض 2
الأس@@ 2
الا 2
البر@@ 2
الة 2
الثاني 2
الثانية 2
الجنوب@@ 2
الجيش 2
الحدي@@ 2
الحرب 2
الحي@@ 2
الخاصة 2
الرو@@ 2
الف 2
القدي@@ 2
المت@@ 2
المط@@ 2
المع@@ 2
المق@@ 2
المملكة 2
النا@@ 2
النس@@ 2
النظ@@ 2
النه@@ 2
الولايات 2
انت@@ 2
اک@@ 2
اگر@@ 2
اں 2
بات@@ 2
باز 2
بخ@@ 2
بد 2
بز@@ 2
بس@@ 2
بغ@@ 2
بق@@ 2
بلو@@ 2
بية 2
بھ@@ 2
بہ@@ 2
تت@@ 2
تج@@ 2
تد@@ 2
تز@@ 2
تل@@ 2
تن@@ 2
ته@@ 2
تو 2
ثار 2
ثم 2
جائ@@ 2
جماعة 2
جنگ 2
جو 2
حل 2
حل@@ 2
خر 2
خلی@@ 2
خوا@@ 2
داد 2
دخ@@ 2
درجة 2
دریائے 2
دست@@ 2
دع@@ 2
دف 2
دوس@@ 2
ديد 2
رات 2
راج 2
راض@@ 2
رانی 2
ربی 2
رح@@ 2
رس@@ 2
ریت 2
ریز 2
زب 2
زبان 2
زم 2
زوج@@ 2
ساح@@ 2
سام 2
سان@@ 2
ستانی 2
سف@@ 2
سلا@@ 2
سلی@@ 2
سین@@ 2
شت 2
شركة 2
شریف 2
شمال 2
شن@@ 2
طالب 2
طلب 2
عاب 2
عام 2
عام@@ 2
عد 2
علا@@ 2
علوم 2
غي@@ 2
فات 2
فارسی 2
فرو@@ 2
فض@@ 2
فق@@ 2
فل 2
قائد 2
قات 2
قومی 2
كام@@ 2
كبير 2
كس 2
كية 2
لان@@ 2
لش@@ 2
لم@@ 2
لول 2
لگ@@ 2
لہ 2
ماس@@ 2
ماني 2
مت 2
متح@@ 2
مث@@ 2
مخت@@ 2
مرة 2
مری@@ 2
مز 2
مسل@@ 2
معر@@ 2
مل 2
ملكة 2
منتخب 2
منص@@ 2
مور@@ 2
ناء 2
نار@@ 2
نح@@ 2
ندا 2
ندر 2
نز@@ 2
نف@@ 2
نه@@ 2
واء 2
واح@@ 2
واز 2
وان@@ 2
وري@@ 2
وز 2
وسی 2
وش@@ 2
ولة 2
ولی@@ 2
ومت 2
يح@@ 2
يز 2
يش@@ 2
يف 2
يك@@ 2
يلي 2
يمية 2
ينا 2
ًا 2
٢@@ 2
ٹر 2
ٹو 2
پار@@ 2
پاس 2
پری@@ 2
پن@@ 2
چل@@ 2
چو@@ 2
ڈ@@ 2
ڊ@@ 2
ڑ@@ 2
ړ@@ 2
ڕ@@ 2
ڤ@@ 2
کرا@@ 2
کری@@ 2
کش@@ 2
کل@@ 2
کن@@ 2
کو 2
کون@@ 2
کی 2
کے 2
ګ 2
گور@@ 2
گی 2
ہر 2
ہو 2
ۆ 2
ۇ 2
ۈ@@ 2
یو@@ 2
ے 2
۱@@ 2
ܕ 2
ܖ 2
ܗ@@ 2
ܘ 2
ܛ 2
ܰ@@ 2
ܼ@@ 2
ݨ@@ 2
ކ@@ 2
ސ@@ 2
ޖ@@ 2
ޙ@@ 2
ީ 2
ޫ@@ 2
ެ 2
ޮ@@ 2
ँ 2
ँ@@ 2
अ 2
अक 2
अधि@@ 2
अन 2
अव@@ 2
आ 2
आर 2
इला@@ 2
उत 2
उप@@ 2
ऊ 2
ऋ@@ 2
ए@@ 2
ऐ 2
ओ@@ 2
कर@@ 2
कवि@@ 2
कारी 2
कुमार 2
गढ 2
गर 2
गा@@ 2
गी 2
घा@@ 2
चो@@ 2
छो@@ 2
जग@@ 2
जा@@ 2
जी@@ 2
जै@@ 2
ञा@@ 2
टा 2
टि@@ 2
ठी 2
डा@@ 2
डे@@ 2
डो@@ 2
तं@@ 2
तथा 2
तन 2
तान 2
ति@@ 2
थन 2
था 2
दा 2
दिल 2
देवी 2
नक 2
नाग@@ 2
नाथ 2
निक 2
नी@@ 2
नो@@ 2
पल 2
पा 2
पुस 2
पृथ 2
पो@@ 2
फिर 2
फिल 2
फु@@ 2
बी@@ 2
बॉ@@ 2
भग@@ 2
भी@@ 2
मंदिर 2
यास 2
रदेश 2
रानी 2
राम 2
रिय 2
रिय@@ 2
रीय 2
लम 2
लाल 2
लि@@ 2
लिय@@ 2
लौ@@ 2
ळ@@ 2
वत 2
वरण 2
वल 2
वविद 2
वस 2
वा 2
वास 2
विक 2
शा 2
शी@@ 2
षि@@ 2
सक 2
सा 2
साम 2
सार 2
सिद 2
सी@@ 2
से 2
हर 2
ही 2
ही@@ 2
हो 2
हो@@ 2
ा@@ 2
ार 2
ित 2
िया 2
ु@@ 2
ूर 2
ौर 2
ং 2
ই 2
চ 2
ধ 2
ਂ@@ 2
ਆ@@ 2
ਇ@@ 2
ਈ 2
ਖ 2
ਘ 2
ਜ 2
ਣ@@ 2
ਦ 2
ਧ@@ 2
ਮ 2
ੂ@@ 2
ੇ 2
ੌ@@ 2
੍ 2
ચ 2
છ 2
જ@@ 2
ટ 2
મ@@ 2
ર 2
લ 2
લ@@ 2
ળ 2
વ@@ 2
સ@@ 2
ા 2
ી 2
ો 2
ଉ 2
ଓ@@ 2
କ@@ 2
ଖ@@ 2
ଗ@@ 2
ଙ 2
ଚ@@ 2
ନ 2
ଭ@@ 2
ର@@ 2
ଲ@@ 2
ଳ 2
ଶ@@ 2
ଷ 2
ସ@@ 2
ୱ@@ 2
எ@@ 2
ஒ@@ 2
ஜ@@ 2
ீ 2
ా 2
ి 2
ನ@@ 2
ಯ@@ 2
ರ@@ 2
ಿ 2
ೂ@@ 2
ೆ 2
ന@@ 2
പ 2
റ@@ 2
ള 2
വ@@ 2
സ 2
സ@@ 2
ණ@@ 2
ම 2
ව 2
ෂ 2
ස 2
ූ@@ 2
ෙ@@ 2
ේ 2
ෝ@@ 2
กร@@ 2
กระ@@ 2
กระท@@ 2
กล@@ 2
คร@@ 2
จ 2
ชา@@ 2
ชาติ 2
ญ 2
ฒ@@ 2
ด 2
ดิ 2
ตา@@ 2
ถ 2
ถ@@ 2
ธ 2
ธา@@ 2
นิ@@ 2
บ 2
บุรี 2
ป 2
พล@@ 2
ฟุต@@ 2
ภ 2
ภา@@ 2
ภู@@ 2
ม 2
มพ@@ 2
มา 2
มา@@ 2
ยาม 2
ระ@@ 2
รัฐ@@ 2
ราช 2
วัฒ@@ 2
วุ@@ 2
ศา@@ 2
ษ 2
ษ@@ 2
ษฎ@@ 2
ส 2
สถ@@ 2
ห 2
อ 2
อด@@ 2
อน 2
อม@@ 2
อย@@ 2
อล@@ 2
อา@@ 2
ั@@ 2
ัก@@ 2
ัน 2
ิง 2
ีย@@ 2
ือง 2
เฉ@@ 2
เช@@ 2
เผ@@ 2
เอ 2
แดง 2
แท@@ 2
ไท@@ 2
ກ 2
ຈ 2
ຊ 2
ທ 2
ບ 2
ຣ@@ 2
ຮ@@ 2
ະ 2
ູ 2
ໂ@@ 2
໌ 2
ໍ@@ 2
ໝ@@ 2
ཁ 2
ཅ@@ 2
ཇ@@ 2
ཉ@@ 2
པ 2
བ 2
ཧ@@ 2
ཨ@@ 2
ྤ@@ 2
ྩ@@ 2
ླ 2
စ 2
ထ 2
ဓ@@ 2
ဗ@@ 2
မ 2
လ 2
ဲ@@ 2
Ⴊ@@ 2
Ⴒ@@ 2
გ 2
ზ 2
მ 2
ჟ@@ 2
უ 2
ህ@@ 2
ላ 2
ሌ 2
ሓ@@ 2
ሞ@@ 2
ሬ@@ 2
ቁ 2
ቡ@@ 2
ቦ@@ 2
ቲ 2
ች 2
ነ 2
ና@@ 2
ኦ@@ 2
ከ@@ 2
ኪ@@ 2
ዝ 2
ደ 2
ዱ@@ 2
ፐ@@ 2
ᐊ@@ 2
ᑐ@@ 2
ᑭ@@ 2
ᑲ@@ 2
ᒃ 2
ᕿ@@ 2
ᖅ@@ 2
ᖏ@@ 2
ᛋ@@ 2
ដ 2
ផ 2
ភ@@ 2
អ 2
ឱ 2
ឿ@@ 2
ែ 2
ៅ 2
ᠢ@@ 2
ᠦ@@ 2
ᠩ@@ 2
ᠬ@@ 2
ᠯ 2
ᠲ@@ 2
ᠳ 2
ᡠ 2
ᡠ@@ 2
ᡥ@@ 2
ᡳ@@ 2
ᱛ@@ 2
ᱥ@@ 2
ᱱ@@ 2
ḇ@@ 2
Ḏ@@ 2
Ḥ 2
ḻ 2
ṙ 2
ṵ 2
Ẓ@@ 2
ẖ@@ 2
ẚ 2
ẩm 2
ậu 2
ế 2
ển 2
ị@@ 2
ống 2
ổi 2
ợi 2
Ụ@@ 2
ứ@@ 2
Ἐ 2
Ἣ@@ 2
Ἶ@@ 2
Ὄ 2
ὑ 2
ὠ 2
Ὣ@@ 2
Ὧ@@ 2
ᾇ 2
ᾌ@@ 2
ᾍ@@ 2
ῄ 2
ῠ 2
ῢ@@ 2
ῥ 2
ῴ 2
‱ 2
⁻ 2
₨ 2
₭ 2
₱ 2
ℂ 2
ℚ 2
ℤ 2
Ↄ 2
↗ 2
↘ 2
⇔ 2
∥ 2
∶ 2
≅ 2
⊊ 2
⋯ 2
␣ 2
╚ 2
╤ 2
╧ 2
◌ 2
☰ 2
☿ 2
♋ 2
✝ 2
✡ 2
⠁ 2
⠎ 2
⠸ 2
ⰲ 2
ⱅ 2
ⱪ@@ 2
Ⲁ@@ 2
ⲗ 2
Ⲥ@@ 2
Ⲭ@@ 2
ⲭ 2
ⲭ@@ 2
⳩ 2
ⴽ@@ 2
ⵄ@@ 2
ⵓ 2
ⵖ@@ 2
ⵗ 2
ⵛ@@ 2
ⵟ@@ 2
。 2
げ@@ 2
こ 2
ご 2
そ 2
ぢ 2
っ 2
づ 2
て@@ 2
ぬ 2
ね@@ 2
ひ 2
ふ@@ 2
ぷ@@ 2
べ@@ 2
ま 2
む 2
ゅ@@ 2
ろ 2
ァ 2
キ 2
ケ 2
ゲ 2
ゾ@@ 2
ハ 2
パ 2
ヘ@@ 2
ボ 2
メ 2
ㅊ 2
丁 2
万 2
丈@@ 2
上海 2
丝@@ 2
个@@ 2
为 2
丽@@ 2
举 2
乃@@ 2
义 2
乎@@ 2
乘 2
乾 2
争 2
于 2
云 2
互 2
互@@ 2
亜@@ 2
亥 2
亦@@ 2
产@@ 2
人民 2
们@@ 2
伎@@ 2
伐@@ 2
传 2
传@@ 2
伦@@ 2
伯 2
位 2
佑 2
余@@ 2
你 2
你@@ 2
佰 2
佶 2
使@@ 2
供@@ 2
保 2
修@@ 2
倍 2
偃@@ 2
健 2
側 2
偵@@ 2
傅@@ 2
傘@@ 2
傳@@ 2
僕@@ 2
兒@@ 2
关@@ 2
其@@ 2
具 2
农@@ 2
冠@@ 2
冥@@ 2
冲@@ 2
净@@ 2
凡 2
凯@@ 2
凱@@ 2
分 2
切@@ 2
刈@@ 2
刎 2
初@@ 2
別 2
别@@ 2
前 2
剑 2
剣@@ 2
劍@@ 2
力 2
力@@ 2
劳@@ 2
匪 2
华 2
单@@ 2
単@@ 2
博 2
占@@ 2
卢@@ 2
卦 2
卦@@ 2
卿 2
厅 2
厦 2
厦@@ 2
厩@@ 2
县@@ 2
句@@ 2
台灣 2
司 2
君@@ 2
吳@@ 2
呂@@ 2
告@@ 2
呼@@ 2
品 2
哔@@ 2
哲 2
哲@@ 2
善 2
嗶@@ 2
嘉 2
嘎@@ 2
国家 2
圓@@ 2
團@@ 2
在 2
圭 2
圭@@ 2
坊@@ 2
坑@@ 2
坡@@ 2
坪 2
垂@@ 2
報 2
報@@ 2
塁 2
塚@@ 2
塞 2
塞@@ 2
境@@ 2
墨@@ 2
墳@@ 2
壤 2
壤@@ 2
変 2
変@@ 2
夢 2
太 2
奇 2
奕 2
始@@ 2
姓 2
姓@@ 2
姚@@ 2
姦 2
姬 2
姻@@ 2
威 2
婁@@ 2
婉@@ 2
婦@@ 2
學 2
宋 2
宣@@ 2
室 2
宫@@ 2
宰 2
寂 2
寄@@ 2
實@@ 2
寧 2
寨@@ 2
对@@ 2
封@@ 2
對@@ 2
尙 2
尚 2
就@@ 2
尹@@ 2
尻 2
届@@ 2
屍@@ 2
屿 2
岐@@ 2
岛@@ 2
岳 2
嵩 2
嶋 2
巌@@ 2
巩@@ 2
己 2
巳@@ 2
巻@@ 2
巾 2
帖 2
席@@ 2
帶 2
幌 2
幕@@ 2
幡 2
干@@ 2
幻@@ 2
幽 2
幾@@ 2
庆 2
床@@ 2
序 2
庫 2
庭 2
廣 2
廷@@ 2
弥 2
弥@@ 2
强@@ 2
录 2
彝@@ 2
形 2
彦 2
彫@@ 2
得 2
復@@ 2
徳 2
德 2
徽 2
忌@@ 2
応@@ 2
怡 2
怡@@ 2
急 2
恭@@ 2
恵@@ 2
您@@ 2
情@@ 2
想 2
想@@ 2
意 2
意@@ 2
愛 2
慈 2
態 2
慢 2
慧@@ 2
慶 2
憶 2
應@@ 2
戦 2
戴@@ 2
房 2
所@@ 2
扇@@ 2
才 2
打 2
托@@ 2
扯@@ 2
批@@ 2
投@@ 2
护@@ 2
押 2
押@@ 2
拉 2
拓@@ 2
拼@@ 2
拿 2
指@@ 2
按@@ 2
振@@ 2
排@@ 2
掘@@ 2
掛@@ 2
提@@ 2
摩 2
操@@ 2
攘@@ 2
放 2
敎@@ 2
敷 2
文化 2
斎@@ 2
斗 2
斬@@ 2
斯@@ 2
旅@@ 2
旦 2
旺@@ 2
昇@@ 2
易@@ 2
映 2
春 2
是@@ 2
時間 2
景 2
暉 2
暴@@ 2
曳@@ 2
曽@@ 2
有 2
服 2
望@@ 2
末 2
札@@ 2
朱 2
朴 2
朴@@ 2
李 2
杖 2
杯@@ 2
杰@@ 2
杵@@ 2
松 2
板@@ 2
枕@@ 2
枝 2
枯@@ 2
柴@@ 2
标@@ 2
核@@ 2
桂 2
桑 2
桥@@ 2
梗@@ 2
梨 2
棟@@ 2
棺 2
植 2
業 2
極 2
榔@@ 2
槟@@ 2
樓 2
樘 2
権@@ 2
樹 2
樺@@ 2
櫻 2
次 2
欢 2
歳 2
死@@ 2
殖@@ 2
毘@@ 2
毫 2
気 2
永 2
汁@@ 2
決@@ 2
沈@@ 2
沖@@ 2
沙 2
沢 2
沢@@ 2
油@@ 2
沼@@ 2
泓@@ 2
洛 2
涅@@ 2
淘@@ 2
淡@@ 2
測@@ 2
湘@@ 2
湛@@ 2
湾@@ 2
溪 2
溫@@ 2
滝@@ 2
漁@@ 2
潮 2
濟@@ 2
瀛@@ 2
灣@@ 2
炬 2
炬@@ 2
焼 2
照 2
熊 2
燃@@ 2
爾 2
版@@ 2
牛 2
牟@@ 2
狂@@ 2
狐 2
狗@@ 2
狩@@ 2
猩 2
猫 2
獒 2
玛@@ 2
珍@@ 2
現 2
現@@ 2
琵@@ 2
璃@@ 2
環@@ 2
瓊@@ 2
瓦@@ 2
甚@@ 2
産@@ 2
用 2
甫 2
町@@ 2
略@@ 2
疆 2
疆@@ 2
痴 2
癖 2
発 2
発@@ 2
登@@ 2
的@@ 2
盂@@ 2
盆 2
目 2
眼 2
督@@ 2
瞿@@ 2
短@@ 2
研 2
研究@@ 2
破 2
碩 2
碼@@ 2
磁 2
磐@@ 2
磨@@ 2
磯@@ 2
示@@ 2
禁@@ 2
禪 2
禰@@ 2
積@@ 2
竜@@ 2
童@@ 2
競@@ 2
箆@@ 2
範 2
篤 2
糊 2
糕 2
系 2
紂@@ 2
約 2
紋@@ 2
索@@ 2
紫 2
経 2
統 2
絶@@ 2
継 2
縁@@ 2
线 2
练 2
组织 2
统@@ 2
续@@ 2
绸@@ 2
绿@@ 2
罡@@ 2
罪 2
群 2
群@@ 2
翔@@ 2
耶 2
職@@ 2
肇@@ 2
肉 2
肖@@ 2
能 2
腹 2
膾 2
臣@@ 2
致@@ 2
興 2
艦 2
艾@@ 2
芥@@ 2
芳@@ 2
苑 2
苗 2
若 2
茅@@ 2
茉@@ 2
荃 2
荒@@ 2
莉@@ 2
莞 2
菅@@ 2
菲 2
萍 2
葫@@ 2
葬 2
葭@@ 2
蒙 2
蒙@@ 2
蒹@@ 2
蓮 2
蔣@@ 2
薇 2
藍 2
藍@@ 2
虎 2
號 2
虹@@ 2
蜀 2
衆 2
衡@@ 2
衣@@ 2
被@@ 2
装@@ 2
裏 2
襖 2
覚@@ 2
観 2
觀 2
許@@ 2
詩 2
詩@@ 2
詹@@ 2
調@@ 2
諾@@ 2
謙 2
许@@ 2
诗 2
说@@ 2
诺@@ 2
谋@@ 2
谷 2
豆 2
豊 2
象 2
豹 2
貞 2
財@@ 2
貴 2
賀 2
賢@@ 2
質@@ 2
賽 2
贵@@ 2
赛@@ 2
超 2
踊@@ 2
軍@@ 2
転@@ 2
车 2
辛 2
辞@@ 2
辰 2
辻 2
込@@ 2
进@@ 2
追@@ 2
遊 2
遵@@ 2
遷@@ 2
邓@@ 2
邸 2
郝@@ 2
郡 2
郭@@ 2
鄧@@ 2
酒@@ 2
酢 2
醋 2
醍@@ 2
重 2
銃 2
銃@@ 2
銭@@ 2
鎖@@ 2
鐘 2
钢@@ 2
钦 2
钧 2
開@@ 2
関 2
闇@@ 2
间 2
闽@@ 2
阁 2
队 2
阪 2
降@@ 2
陶@@ 2
隅 2
隅@@ 2
障@@ 2
雀@@ 2
雍@@ 2
零 2
電 2
霜 2
霞@@ 2
靖 2
静@@ 2
非 2
革 2
韓 2
韩@@ 2
順 2
额@@ 2
飞 2
餅 2
餘 2
館@@ 2
饌 2
首@@ 2
香 2
駒@@ 2
驌 2
骨@@ 2
魂@@ 2
魚 2
鯱 2
鱼 2
鳳 2
鴨@@ 2
鷹@@ 2
鸭@@ 2
鹿 2
鹿@@ 2
麒@@ 2
麗 2
黎@@ 2
鼓@@ 2
齡 2
ꙁ@@ 2
ꙋ@@ 2
ꙗ 2
Ꙡ 2
ꙡ 2
ꙮ 2
꙯ 2
ꞏ 2
ꞑ 2
ꠍ@@ 2
ꠐ 2
ꠘ@@ 2
ꠛ@@ 2
ꠞ 2
ꠟ@@ 2
ꠣ@@ 2
간 2
강 2
고 2
관@@ 2
교 2
군@@ 2
권 2
근 2
길@@ 2
꽃 2
꿀@@ 2
낙@@ 2
년@@ 2
노@@ 2
농@@ 2
니 2
닭@@ 2
덕@@ 2
들@@ 2
등@@ 2
디@@ 2
량@@ 2
러@@ 2
럴@@ 2
력 2
령@@ 2
록@@ 2
룡 2
르 2
르@@ 2
만 2
맥@@ 2
먼@@ 2
모@@ 2
물 2
미@@ 2
민 2
받@@ 2
발 2
방 2
배@@ 2
법@@ 2
별@@ 2
병@@ 2
복 2
봉@@ 2
블@@ 2
빙@@ 2
살@@ 2
상 2
석@@ 2
섬 2
세 2
션 2
소 2
손@@ 2
슈@@ 2
스 2
슬@@ 2
악@@ 2
압@@ 2
애 2
애@@ 2
억 2
업@@ 2
없@@ 2
에 2
열 2
오 2
온 2
올@@ 2
와 2
우 2
운 2
운@@ 2
울@@ 2
웅@@ 2
월@@ 2
유 2
으@@ 2
음@@ 2
재 2
절 2
제 2
죤 2
지 2
찌@@ 2
차@@ 2
천 2
쳐 2
총@@ 2
충@@ 2
카 2
크@@ 2
클 2
타@@ 2
탑 2
터 2
터@@ 2
테@@ 2
텔@@ 2
톡 2
트 2
특@@ 2
패@@ 2
퍼@@ 2
표@@ 2
항 2
행 2
행@@ 2
형 2
형@@ 2
회@@ 2
훈@@ 2
희 2
 2
 2
 2
 2
️ 2
ﺍ 2
ﺍ@@ 2
ﺎ@@ 2
ﺮ@@ 2
ﺯ 2
ﺱ 2
ﻗ@@ 2
ﻤ@@ 2
ﻥ 2
ﻨ@@ 2
ﻪ 2
ﻲ@@ 2
！ 2
－ 2
Ｂ@@ 2
Ｓ@@ 2
Ｕ@@ 2
ｅ@@ 2
ｍ@@ 2
ｎ@@ 2
ｏ@@ 2
𐌲@@ 2
𐌳@@ 2
𐌹 2
𐍄@@ 2
𐎢@@ 2
𐎼@@ 2
𐤍 2
𐩨@@ 2
𐩩@@ 2
𐩬 2
𐭔@@ 2
𐭥@@ 2
𐭮@@ 2
𒆠 2
𒉀 2
🏴 2
ABD 1
Agosti 1
Alman 1
Avru@@ 1
Biografía 1
Bình 1
Bộ 1
Ces 1
Chiến 1
Châu 1
Chính 1
Công 1
Dezember 1
Dân 1
Februar 1
Fue 1
Gebiet 1
Hà 1
Hàn 1
Hải 1
Hội 1
Juni 1
Katika 1
Kilometer 1
Magharibi 1
Mitglied 1
Mwaka 1
Nach 1
Naili 1
Nguyên 1
Nhà 1
Nisan 1
Nội 1
Pháp 1
Temmuz 1
Thái 1
Tháng 1
Trần 1
Tổng 1
Từ 1
abril 1
acuer@@ 1
adhim@@ 1
adounid@@ 1
adığı 1
afya 1
akiwa 1
alipo@@ 1
allem 1
allerdings 1
ambao 1
amerikan@@ 1
amoja 1
andı 1
anlat@@ 1
announc@@ 1
annt 1
artí@@ 1
atao 1
aunque 1
awala 1
awali 1
aynı 1
azini 1
baad@@ 1
bahari 1
başka 1
bedeut@@ 1
besondere 1
bila 1
bilg@@ 1
biên 1
boyunca 1
britanni@@ 1
bất 1
caracter@@ 1
caractér@@ 1
casi 1
celui 1
chuy@@ 1
chí 1
chính 1
cinco 1
comenzó 1
conocida 1
construcción 1
cuenta 1
cá 1
cáo 1
cầu 1
dann 1
deki 1
dentro 1
destac@@ 1
devient 1
değ@@ 1
diesem 1
dieses 1
dirig@@ 1
diğ@@ 1
diği 1
dogo 1
durant 1
duy 1
dân 1
dès 1
dével@@ 1
días 1
dù 1
düş@@ 1
dış@@ 1
eceğ@@ 1
ejempl@@ 1
ekani 1
enfalls 1
ensuite 1
entwick@@ 1
eonato 1
errich@@ 1
espè@@ 1
espèce 1
eyal@@ 1
eği 1
fark@@ 1
febrero 1
ficie 1
französ@@ 1
führt 1
fün@@ 1
gelen 1
genannt 1
gerek@@ 1
gesetzt 1
gestell@@ 1
gestellt 1
getir@@ 1
gewäh@@ 1
geçir@@ 1
giai 1
giám 1
giới 1
große 1
grupo 1
göster@@ 1
gün@@ 1
habitants 1
hacia 1
hakk@@ 1
hatte 1
hatten 1
hecho 1
hielt 1
himu 1
hizo 1
huwa 1
huy 1
hành 1
hạt 1
idadi 1
igten 1
ihrem 1
ihren 1
ilerin 1
iliz 1
ilmiş 1
imeh@@ 1
itig 1
juego 1
julio 1
junio 1
jwa 1
karşı 1
khai 1
khoa 1
kodi 1
konn@@ 1
kubwa 1
kwamba 1
köy@@ 1
kı@@ 1
kıy@@ 1
ladı 1
lamu 1
lardan 1
larında 1
layan 1
ledi 1
lendir@@ 1
lenen 1
lerden 1
lerine 1
lerle 1
ließ 1
llamado 1
lleg@@ 1
lossen 1
luğ@@ 1
lã@@ 1
lığ@@ 1
mahalle@@ 1
mehr@@ 1
membre 1
merkezi 1
meye 1
miembros 1
millones 1
millî 1
miş@@ 1
moins 1
muchos 1
mwan@@ 1
màu 1
mög@@ 1
müz@@ 1
mới 1
mục 1
nchi 1
ngo@@ 1
người 1
ngữ 1
nhi@@ 1
nhà 1
nhân 1
niveau 1
nivel 1
nommé 1
notamment 1
número 1
nước 1
obras 1
oeste 1
okea 1
oldu 1
olewa 1
oloj@@ 1
oloji 1
onun 1
otras 1
parator@@ 1
partidos 1
partir 1
permet@@ 1
personas 1
pesar 1
phố 1
población 1
posición 1
proy@@ 1
présente 1
période 1
quy 1
quân 1
rağ@@ 1
sanat@@ 1
sasa 1
schri@@ 1
sechs 1
segundo 1
según 1
selb@@ 1
selbst 1
selon 1
seç@@ 1
sido 1
siendo 1
siku 1
sistem@@ 1
sistema 1
sonra 1
stieg 1
stütz@@ 1
sách 1
sát 1
sông 1
söy@@ 1
söz@@ 1
süd@@ 1
tamente 1
taraf@@ 1
tekn@@ 1
tenía 1
thuộc 1
thần 1
tient 1
tigt 1
timu 1
tipo 1
tiền 1
toba 1
todas 1
tragen 1
través 1
tritt 1
triều 1
troisième 1
trouve 1
tài 1
títul@@ 1
tığı 1
tử 1
udur 1
undan 1
uniani 1
unun 1
usawa 1
utilis@@ 1
utiliz@@ 1
uzak@@ 1
varios 1
veces 1
veröffentlich@@ 1
vieron 1
viện 1
văn 1
wechsel@@ 1
weiten 1
wengine 1
wieder@@ 1
wili 1
wobei 1
wurden 1
wäh@@ 1
während 1
xem 1
xico 1
yao 1
yapan 1
yür@@ 1
yüzyıl@@ 1
yıl@@ 1
yılı 1
zahl 1
zake 1
zwa 1
 1
 1
 1
 1
 1
Ã@@ 1
Ë 1
Ì 1
Ì@@ 1
Ï@@ 1
Û 1
Ý@@ 1
ßerdem 1
àm 1
ành 1
álb@@ 1
áu 1
ãi 1
ächst 1
çık@@ 1
êu 1
ình 1
ían 1
ödül@@ 1
ölç@@ 1
önem 1
üler 1
ülk@@ 1
ümü 1
ünün 1
üğ@@ 1
Ċ 1
Ċ@@ 1
ċ 1
ď@@ 1
Đông 1
Đảng 1
Đế 1
điều 1
đá 1
đô 1
định 1
đổi 1
ğer 1
ģ 1
ĩnh 1
Ī 1
Į@@ 1
į@@ 1
İngiliz 1
ıda 1
ıldı 1
ılır 1
ındaki 1
ısında 1
ıya 1
ışt@@ 1
Ĳ@@ 1
Ĵ@@ 1
ŀ@@ 1
Ń@@ 1
Ņ@@ 1
ņ 1
Ň 1
Ň@@ 1
Ŏ@@ 1
Ő@@ 1
Œ 1
ŕ 1
ŕ@@ 1
Ř@@ 1
Ś 1
Şampiyon@@ 1
şehir@@ 1
şehr@@ 1
Ť 1
Ť@@ 1
Ŭ 1
Ŭ@@ 1
ų@@ 1
Ź 1
ƅ 1
ƅ@@ 1
Ɔ 1
Ɔ@@ 1
Ɖ 1
ƒ@@ 1
Ɣ@@ 1
ƕ@@ 1
Ɵ 1
Ƣ 1
Ƣ@@ 1
Ʃ@@ 1
ư 1
ưu 1
ước 1
ướng 1
ườ@@ 1
ười 1
ường 1
ưởng 1
Ʋ@@ 1
ƿ 1
ǀ 1
ǀ@@ 1
ǃ 1
Ǎ@@ 1
ǘ 1
ǚ 1
ǝ@@ 1
ǣ 1
ǧ 1
Ƿ 1
Ǻ 1
ǿ@@ 1
ȏ@@ 1
Ȝ 1
Ȟ 1
ȯ@@ 1
ȳ 1
Ʌ@@ 1
ɍ 1
ɘ 1
ɚ@@ 1
ɜ 1
ɝ@@ 1
ɢ 1
ɰ 1
ɰ@@ 1
ɷ 1
ɻ@@ 1
ɽ@@ 1
ʈ@@ 1
ʉ 1
ʐ 1
ʕ 1
ʙ 1
ʥ@@ 1
ʧ@@ 1
ʨ@@ 1
ʱ@@ 1
ʻ 1
ˇ 1
ˉ 1
ˊ 1
ˋ 1
ˌ 1
˕ 1
˝ 1
ˤ 1
˦ 1
˨ 1
˩ 1
ˮ 1
̨ 1
̺ 1
̼ 1
Ͱ 1
ͱ 1
ͱ@@ 1
ͳ 1
Ϗ 1
ϐ 1
ϑ 1
ϑ@@ 1
ϒ 1
Ϛ@@ 1
ϣ 1
ϥ@@ 1
ϧ@@ 1
Ϫ@@ 1
Ϯ@@ 1
ϯ@@ 1
ϰ 1
ϱ 1
ϳ 1
Ϸ@@ 1
ϸ@@ 1
Ϻ@@ 1
ϻ 1
Є 1
Ї@@ 1
Ќ 1
Џ 1
Герма@@ 1
Гър@@ 1
Гърция 1
Джо@@ 1
Европа 1
Има 1
Населе@@ 1
Население 1
Населението 1
По 1
Пос@@ 1
След 1
Според 1
Сред@@ 1
Съ@@ 1
Так@@ 1
Това 1
Фридри@@ 1
Это 1
Южна 1
Япо@@ 1
администра@@ 1
актив@@ 1
ални 1
альбо@@ 1
анали@@ 1
андар@@ 1
апре@@ 1
архите@@ 1
архитек@@ 1
бата 1
баща 1
била 1
бира@@ 1
благо@@ 1
бле@@ 1
бое@@ 1
брига@@ 1
буду@@ 1
были 1
быть 1
бя 1
ване 1
вания 1
вате@@ 1
век 1
вени 1
вз@@ 1
вида 1
визи@@ 1
вил 1
вмест@@ 1
вне@@ 1
вно 1
води 1
вонача@@ 1
време 1
вую 1
вши@@ 1
вший 1
върху 1
генерал 1
герман@@ 1
геро@@ 1
гии 1
гите 1
гли 1
гло@@ 1
година 1
году 1
годы 1
големи 1
голя@@ 1
город@@ 1
города 1
граф 1
груп@@ 1
группы 1
дате@@ 1
дах 1
две 1
дей@@ 1
дек@@ 1
дера@@ 1
деревня 1
дет 1
деца 1
дея@@ 1
дже@@ 1
дипло@@ 1
дли@@ 1
дней 1
доку@@ 1
дре@@ 1
других 1
друго@@ 1
дър@@ 1
е. 1
европей@@ 1
едо@@ 1
ем 1
ему 1
еписко@@ 1
епископ 1
ется 1
её 1
жава 1
жда@@ 1
жде@@ 1
жени 1
жизни 1
жил 1
жители 1
заве@@ 1
закон@@ 1
занима@@ 1
запа@@ 1
знач@@ 1
игра@@ 1
игро@@ 1
извест@@ 1
изда@@ 1
изслед@@ 1
имат 1
името 1
империя 1
инте@@ 1
истори@@ 1
история 1
ители 1
йни 1
йся 1
карь@@ 1
ката 1
ква@@ 1
квар@@ 1
км 1
ког@@ 1
компози@@ 1
коно@@ 1
кономи@@ 1
кономиче@@ 1
контро@@ 1
корпу@@ 1
которая 1
которой 1
която 1
крал 1
кти@@ 1
лась 1
лах 1
лед@@ 1
лиан@@ 1
лиза 1
лите 1
лите@@ 1
лния 1
лож@@ 1
лом 1
лось 1
лями 1
ляр@@ 1
май 1
малко 1
материа@@ 1
мая 1
медици@@ 1
между 1
мета@@ 1
мето@@ 1
милия 1
много@@ 1
мож@@ 1
мощ@@ 1
мс 1
мъж@@ 1
мър@@ 1
назна@@ 1
нали@@ 1
наме@@ 1
науч@@ 1
началь@@ 1
нем 1
необ@@ 1
необходи@@ 1
нес 1
нима@@ 1
ниците 1
нията 1
ниях 1
ную 1
някои 1
обре@@ 1
ография 1
около 1
окръ@@ 1
оне 1
организации 1
осно@@ 1
основа@@ 1
особ@@ 1
отбор 1
откры@@ 1
отноше@@ 1
офици@@ 1
пад@@ 1
памя@@ 1
пара@@ 1
парла@@ 1
партии 1
пен 1
первые 1
первый 1
пет 1
писа@@ 1
писал 1
писание 1
пит@@ 1
пита@@ 1
план@@ 1
плат@@ 1
пле@@ 1
подготов@@ 1
подоб@@ 1
поз@@ 1
позво@@ 1
пози@@ 1
полити@@ 1
поме@@ 1
пон@@ 1
попу@@ 1
после 1
постоян@@ 1
посё@@ 1
пр@@ 1
прави@@ 1
пред 1
преда@@ 1
преде@@ 1
председате@@ 1
представ@@ 1
президен@@ 1
прин@@ 1
пробле@@ 1
програм@@ 1
прода@@ 1
произ@@ 1
проце@@ 1
пру@@ 1
пъл@@ 1
пы 1
пя@@ 1
работа 1
ради 1
района 1
рано 1
рата 1
рели@@ 1
рение 1
реша@@ 1
рий@@ 1
роден 1
свет@@ 1
светов@@ 1
свой 1
себя 1
север 1
север@@ 1
сек@@ 1
секре@@ 1
сел@@ 1
сентября 1
сигур@@ 1
сил 1
система 1
ския 1
ският 1
скому 1
ското 1
след@@ 1
сли 1
сни 1
сня@@ 1
совер@@ 1
современ@@ 1
сом 1
спек@@ 1
спи@@ 1
според 1
срав@@ 1
сред@@ 1
става 1
стал 1
станов@@ 1
стати@@ 1
ствие 1
ство@@ 1
стоя@@ 1
сут@@ 1
така 1
тат 1
тах 1
тем 1
тем@@ 1
темпера@@ 1
терито@@ 1
террито@@ 1
тех@@ 1
технологи@@ 1
тит@@ 1
тому 1
тон@@ 1
тора 1
тся 1
турата 1
турни@@ 1
тът 1
тях 1
убий@@ 1
уз@@ 1
университета 1
ус 1
усло@@ 1
успе@@ 1
фек@@ 1
фика@@ 1
фил@@ 1
фици@@ 1
форма@@ 1
форми@@ 1
хар@@ 1
хия 1
худож@@ 1
църк@@ 1
част 1
чат 1
чат@@ 1
чва 1
чего 1
человека 1
чемпи@@ 1
чен 1
чена 1
через 1
чески 1
ческих 1
чни 1
шампи@@ 1
шего 1
шей 1
шел 1
широ@@ 1
шла 1
шли 1
щая 1
щения 1
що 1
ък 1
ью@@ 1
эк@@ 1
эти@@ 1
это 1
этого 1
этой 1
юли 1
юни 1
ются 1
ющего 1
ям 1
ями 1
ято 1
ѐ 1
ѐ@@ 1
ённых 1
Ѣ 1
Ѣ@@ 1
ѣ 1
Ѩ 1
ѩ 1
Ѫ 1
Ѫ@@ 1
ѫ 1
Ѭ 1
ѭ 1
Ѯ 1
ѯ 1
ѱ 1
ѱ@@ 1
ѳ 1
ѳ@@ 1
ѵ@@ 1
Ѹ@@ 1
Ѻ 1
ѻ 1
Ҁ@@ 1
Ґ@@ 1
Ҕ 1
Ҕ@@ 1
ҕ 1
ҕ@@ 1
җ 1
Ҧ 1
ҧ 1
ҫ@@ 1
Ұ 1
Ҳ@@ 1
ҵ@@ 1
Ҷ 1
Ҹ 1
Ҿ@@ 1
Ӂ 1
ӂ 1
Ӌ 1
ӌ 1
Ӓ 1
ӓ 1
ӓ@@ 1
ӗ@@ 1
ӝ 1
ӝ@@ 1
Ӱ 1
Ӱ@@ 1
Ӷ 1
Ԁ 1
Ԃ 1
Ԅ 1
Ԇ 1
Ԉ 1
Ԋ 1
Ԍ 1
Ԏ 1
ԥ 1
ԥ@@ 1
Ե 1
Զ 1
Ը@@ 1
Կ 1
Հ 1
Ն 1
Պ 1
Տ 1
Ր@@ 1
Ւ@@ 1
Օ 1
՚ 1
՛ 1
ժ 1
ֆ 1
։ 1
֩ 1
ֿ 1
כ 1
ן@@ 1
פ 1
ء@@ 1
آب@@ 1
آخ@@ 1
آخر 1
آد@@ 1
آز@@ 1
آزاد 1
آزادی 1
آيت 1
أخ@@ 1
أد@@ 1
أش@@ 1
أص@@ 1
أغ@@ 1
أكتوبر 1
أكثر 1
أو 1
ؤ 1
إ 1
إقليم 1
إلا 1
إلى 1
إن 1
ئی 1
ئے 1
ائد 1
ائم 1
ائی 1
ابت 1
اة 1
اتب 1
اتی 1
اجتماع@@ 1
اح 1
اخت@@ 1
ادل 1
ارد 1
است 1
اسم@@ 1
اسي 1
اسک@@ 1
اصة 1
اعة 1
اعدة 1
افة 1
افظ 1
افواج 1
الأد@@ 1
الأل@@ 1
الأمريكية 1
الأول 1
الإي@@ 1
الات@@ 1
الاح@@ 1
الاست@@ 1
الاق@@ 1
الاقتص@@ 1
الان@@ 1
البط@@ 1
التق@@ 1
الجن@@ 1
الحياة 1
الطبي@@ 1
العام 1
العامة 1
الفت@@ 1
الفرنس@@ 1
القان@@ 1
القرن 1
المؤ@@ 1
المست@@ 1
المسي@@ 1
المش@@ 1
المه@@ 1
النق@@ 1
الية 1
الہ 1
امت 1
امل 1
امیر 1
امین 1
انتق@@ 1
انج@@ 1
انس@@ 1
انگ@@ 1
انہ 1
او 1
اول 1
اوی@@ 1
ايا 1
اية 1
اِ@@ 1
اکی@@ 1
اہ 1
باد 1
بادشاہ 1
باسم 1
بت@@ 1
بج@@ 1
برائے 1
برت 1
بري@@ 1
بری 1
بص@@ 1
بلا 1
بنا 1
بنگ@@ 1
بنی 1
بوا@@ 1
بول 1
بھارت 1
بھی 1
بیر 1
تاب@@ 1
تاريخ 1
تال 1
تان 1
تبا@@ 1
تحت 1
ترقی 1
ترو@@ 1
تش 1
تض@@ 1
تط@@ 1
تق@@ 1
تك@@ 1
تمام 1
تين 1
تُ@@ 1
تک 1
تھ@@ 1
تھا 1
ثة 1
جا 1
جان@@ 1
جب 1
جد@@ 1
جر 1
جما@@ 1
جمع@@ 1
جنوب 1
جور@@ 1
جوم 1
جون 1
جون@@ 1
جية 1
جھ@@ 1
جہ@@ 1
جی 1
حال@@ 1
حد 1
حس@@ 1
حية 1
حين 1
خاندان 1
خانہ 1
خت 1
خد@@ 1
خص@@ 1
داً 1
دد 1
درج 1
دش@@ 1
دم 1
دوب@@ 1
دور 1
دوران 1
دون 1
دون@@ 1
دھ@@ 1
دہ 1
دین 1
ذ 1
ذا 1
ذكر 1
ذي 1
رئ@@ 1
راب 1
راہ@@ 1
ربة 1
رد 1
رر 1
رسول 1
رقم 1
رن 1
روز@@ 1
رک 1
ریا 1
ریاست 1
ریس 1
رین 1
زمانے 1
زن 1
زند@@ 1
زية 1
ستہ 1
سج@@ 1
سرائ@@ 1
سعو@@ 1
سفر 1
سلطنت 1
سلو@@ 1
سنة 1
سند 1
سند@@ 1
سون 1
سک@@ 1
سے 1
شار 1
شام 1
شاہ@@ 1
شاہی 1
شہر@@ 1
شیخ 1
صاح@@ 1
صاحب 1
صة 1
صد@@ 1
صف 1
صل 1
صن@@ 1
صوب@@ 1
صي@@ 1
صی@@ 1
ضلع 1
طاني 1
طب@@ 1
طرح 1
طقة 1
طلا@@ 1
طور 1
طی@@ 1
ظ 1
ظم 1
ظه@@ 1
عات 1
عالم@@ 1
عدة 1
عرا@@ 1
عرب 1
عشر 1
عط@@ 1
عظیم 1
عل 1
عليه 1
علی@@ 1
عم 1
عملية 1
عند 1
عوام 1
غة 1
غرا@@ 1
غير 1
غيرة 1
فا 1
فائ@@ 1
فاق 1
فت 1
فتار 1
فرد 1
فضل 1
فور@@ 1
قائم 1
قال 1
قبال 1
قلي@@ 1
قوم 1
قوم@@ 1
قہ 1
قی@@ 1
كات 1
كان@@ 1
كث@@ 1
كرة 1
كن 1
كن@@ 1
كو 1
كور@@ 1
كول@@ 1
كومة 1
كون@@ 1
لأ@@ 1
لإ@@ 1
لات 1
لار@@ 1
لام 1
لاہور 1
لت 1
لت@@ 1
لدي@@ 1
لر 1
لز 1
للا@@ 1
لن 1
لها 1
ليس 1
لکھ@@ 1
لیم 1
لے 1
مات 1
ماری 1
مالي 1
مالية 1
مب@@ 1
مثال 1
مذ@@ 1
مرح@@ 1
مركز 1
مسلم 1
مسي@@ 1
مسی@@ 1
مشرق 1
مض@@ 1
مظ@@ 1
معظم 1
مغ@@ 1
مقام 1
مقد@@ 1
ملا 1
ملک 1
ممل@@ 1
منذ 1
منها 1
منی 1
موا@@ 1
مود 1
مون@@ 1
موں 1
مہ@@ 1
میل 1
میں 1
نات 1
نت 1
ندھ@@ 1
نشط 1
نف 1
نم@@ 1
نما 1
نواب 1
نوان 1
نوب@@ 1
نوف@@ 1
نى 1
نڈ 1
نڈ@@ 1
نگ 1
نہیں 1
هار@@ 1
هذا 1
هذه 1
هما 1
وإ@@ 1
وا 1
واض@@ 1
واق@@ 1
والح@@ 1
ورت 1
وسط@@ 1
وص@@ 1
وط@@ 1
وع 1
وفي 1
وفي@@ 1
وق 1
وك@@ 1
ولي@@ 1
ولية 1
ولی 1
وما 1
ومات 1
ومن 1
ونية 1
وير 1
وّ@@ 1
وں 1
ویت 1
يرة 1
يز@@ 1
يف@@ 1
يق@@ 1
ينات 1
يه@@ 1
يين 1
ً 1
َّة 1
ٔ@@ 1
١@@ 1
٣ 1
٥ 1
٦@@ 1
ٯ@@ 1
ٲ@@ 1
ٴ@@ 1
ٶ@@ 1
ٽ@@ 1
پا 1
پارٹی 1
پانی 1
پاک 1
پاک@@ 1
پنج@@ 1
پنجاب 1
پور 1
ڀ@@ 1
چار@@ 1
چر@@ 1
ڇ@@ 1
ڈ 1
ډ@@ 1
ڌ@@ 1
ڑا 1
ڑھ 1
ڑی 1
ړ 1
ڕ 1
ژ 1
ڙ@@ 1
ڠ@@ 1
ڤ 1
ڨ@@ 1
کال@@ 1
کامی@@ 1
کان 1
کت 1
کت@@ 1
کتاب@@ 1
کتب 1
کس@@ 1
کوئی 1
کونسل 1
کھ@@ 1
کہتے 1
ڪ@@ 1
ڬ@@ 1
گرام 1
گرو@@ 1
گول@@ 1
ڵ 1
ں 1
ں@@ 1
ڻ@@ 1
ھی 1
ۀ 1
ہند@@ 1
ہندوستان 1
ہو@@ 1
ہوئی 1
ہور 1
ہی 1
ہیں 1
ۅ@@ 1
ۈ 1
ۊ 1
ۊ@@ 1
یار 1
ید 1
یو 1
یون@@ 1
یں 1
یہ 1
ۓ 1
۞ 1
۰ 1
۰@@ 1
۲@@ 1
۳ 1
۵@@ 1
۷ 1
۸ 1
۸@@ 1
ۻ@@ 1
ܒ 1
ܓ 1
ܟ 1
ܠ 1
ܡ 1
ܥ 1
ܦ 1
ܽ@@ 1
ܿ@@ 1
ތ@@ 1
ޞ@@ 1
ޢ@@ 1
ޤ@@ 1
ަ 1
ंद 1
ंप@@ 1
ंब@@ 1
ः@@ 1
अग 1
अच 1
अन@@ 1
अनु@@ 1
अब 1
अभि@@ 1
अम@@ 1
अर@@ 1
आग@@ 1
आज 1
आदि 1
आन 1
आने 1
आम 1
इ 1
इं@@ 1
इंड@@ 1
इन 1
ई@@ 1
उ 1
उपा@@ 1
ए 1
एँ 1
एल 1
ओ 1
औ 1
औ@@ 1
और 1
कट 1
कड 1
कता 1
कन 1
कम 1
कश 1
काल@@ 1
कास 1
कि@@ 1
कृत 1
कृष 1
के@@ 1
केन 1
कॉ@@ 1
को 1
खण 1
खा@@ 1
गण@@ 1
गल 1
गी@@ 1
गौ@@ 1
घो@@ 1
चक 1
चा 1
चित 1
चिम 1
ची@@ 1
चु@@ 1
चे 1
चे@@ 1
छ 1
छा@@ 1
छे 1
छोड 1
जन 1
जन@@ 1
जय 1
जा 1
जित 1
जे 1
ञ@@ 1
टर@@ 1
टल 1
टा@@ 1
टिक 1
टी 1
टू@@ 1
टे 1
टे@@ 1
ठा 1
ठा@@ 1
डल 1
डि@@ 1
डिया 1
ढ 1
णन 1
णा 1
णा@@ 1
णि@@ 1
णी 1
णु 1
तत 1
तव 1
तार 1
तिक 1
तीस@@ 1
तु@@ 1
तृत 1
तो 1
तो@@ 1
थल 1
थान 1
थी 1
दन 1
दर 1
दर@@ 1
दार 1
दिन 1
दिर 1
दी@@ 1
दूर 1
दे 1
देश 1
देश@@ 1
दो@@ 1
दोलन 1
दौ@@ 1
धन 1
धि 1
नई 1
नदी 1
नन 1
निया 1
निर 1
नु@@ 1
ने 1
नै@@ 1
नौ@@ 1
पक 1
पट@@ 1
पण 1
पत 1
पद 1
पन 1
पश 1
पार@@ 1
पू@@ 1
पे@@ 1
पै@@ 1
फो@@ 1
बंगा@@ 1
बच 1
बद@@ 1
बन 1
बर 1
बल 1
बा 1
बाद 1
भा 1
भाग 1
भि@@ 1
भूमि@@ 1
भे@@ 1
मंड@@ 1
मक 1
मर 1
मल 1
मस 1
मह@@ 1
माण 1
मी@@ 1
मूर 1
मृत 1
मै@@ 1
यत 1
यन 1
यान 1
यालय 1
यी 1
यु@@ 1
यू@@ 1
रण@@ 1
रता 1
रति@@ 1
रम@@ 1
रमुख 1
रह@@ 1
रां@@ 1
राचीन 1
राप 1
राय 1
रित 1
रिया 1
रिया@@ 1
रूप 1
रे 1
रेन 1
रेस 1
रो 1
ऱ 1
लग@@ 1
लता 1
लिस 1
ली@@ 1
लु@@ 1
लू 1
ले 1
लो@@ 1
वंश 1
वक 1
वतंत 1
वरी 1
वान 1
वाले 1
वि 1
विद 1
विभाग 1
विष 1
वृ@@ 1
वै@@ 1
शं@@ 1
शन 1
शिष 1
शीर 1
षा 1
षा@@ 1
सन 1
सरकार 1
सह@@ 1
सौ@@ 1
हत 1
हन 1
हरी 1
हल 1
हैं 1
हॉ@@ 1
ारा 1
िक 1
िया@@ 1
ृ 1
ॅ@@ 1
ै@@ 1
ॉ 1
ोर 1
ौ 1
॥ 1
२ 1
ঐ@@ 1
ঢ 1
ভ 1
ষ@@ 1
ূ@@ 1
ৈ 1
ৌ@@ 1
ৎ 1
ৎ@@ 1
ৱ@@ 1
ਂ 1
ਆ 1
ਊ@@ 1
ਕ 1
ਖ@@ 1
ਗ 1
ਚ@@ 1
ਛ@@ 1
ਝ@@ 1
ਡ@@ 1
ਤ 1
ਥ 1
ਥ@@ 1
ਧ 1
ਪ 1
ੇ@@ 1
ੈ@@ 1
ੱ@@ 1
ં@@ 1
અ@@ 1
ખ 1
ડ@@ 1
ઢ@@ 1
ણ 1
ધ@@ 1
ન@@ 1
પ@@ 1
ફ@@ 1
બ@@ 1
ળ@@ 1
વ 1
ષ 1
હ@@ 1
િ@@ 1
ી@@ 1
ુ@@ 1
ે 1
ૌ@@ 1
ଂ@@ 1
ଆ 1
ଇ 1
ଇ@@ 1
ଈ 1
ଊ 1
କ 1
ଛ@@ 1
ଜ@@ 1
ଞ 1
ଡ 1
ତ 1
ତ@@ 1
ଧ@@ 1
ବ 1
ଯ 1
ଲ 1
ସ 1
ହ 1
ହ@@ 1
଼ 1
ୁ 1
ୈ@@ 1
ୋ@@ 1
ୟ 1
ୟ@@ 1
ୱ 1
ஈ@@ 1
உ@@ 1
ஏ@@ 1
ஐ@@ 1
ச 1
ஜ 1
ஞ 1
ந 1
ற 1
ஷ@@ 1
ூ 1
ఆ@@ 1
ఇ@@ 1
ఉ@@ 1
క@@ 1
డ 1
డ@@ 1
ణ 1
త@@ 1
న@@ 1
ప@@ 1
బ@@ 1
మ@@ 1
ర 1
ళ 1
వ 1
ూ@@ 1
ె@@ 1
ే@@ 1
ో@@ 1
ಂ@@ 1
ಇ@@ 1
ಏ@@ 1
ಕ 1
ಟ 1
ಟ@@ 1
ಡ 1
ದ@@ 1
ನ 1
ಬ@@ 1
ಮ@@ 1
ರ 1
ಲ@@ 1
ಳ 1
ಶ 1
ಶ@@ 1
ಸ 1
ಿ@@ 1
ು@@ 1
ೆ@@ 1
ೈ@@ 1
ೋ@@ 1
ഏ@@ 1
ഗ 1
ച 1
ജ@@ 1
ട@@ 1
ത 1
ന 1
പ@@ 1
ബ@@ 1
ഴ 1
ഴ@@ 1
ഹ@@ 1
ീ@@ 1
ൂ@@ 1
േ@@ 1
එ@@ 1
ඛ@@ 1
ග 1
ඟ 1
ට@@ 1
ඨ@@ 1
ඩ@@ 1
ණ 1
බ 1
බ@@ 1
භ@@ 1
ෂ@@ 1
හ 1
ළ 1
ළ@@ 1
ී@@ 1
ෛ@@ 1
กรรม 1
กรุง@@ 1
กล 1
กัด 1
กา 1
การ 1
กี@@ 1
กุล 1
ข 1
ข@@ 1
ค 1
คร 1
คา@@ 1
คำ 1
จน 1
จุ@@ 1
ชา 1
ชาย 1
ชิ@@ 1
ชี@@ 1
ญา@@ 1
ฎ@@ 1
ฐ 1
ฐาน@@ 1
ดา@@ 1
ดิ@@ 1
ตน 1
ตร 1
ท 1
ทธ@@ 1
ทร 1
ทะ@@ 1
ทั@@ 1
ทำ@@ 1
ทิ@@ 1
ธิ@@ 1
นคร 1
นัก@@ 1
นี 1
นี@@ 1
บร@@ 1
บั@@ 1
บา@@ 1
บาท 1
ปร@@ 1
ปลา 1
ฝ@@ 1
พ 1
พล 1
พิ@@ 1
ภา 1
ภาษา@@ 1
ภูมิ@@ 1
มว@@ 1
มาก 1
มิ 1
มี 1
ยก@@ 1
ยา@@ 1
ยู 1
ยู@@ 1
รร@@ 1
ริ@@ 1
ลง@@ 1
ลักษ@@ 1
ลา 1
ลำ@@ 1
ลิ@@ 1
ลีก 1
ว 1
วง 1
วะ 1
วา@@ 1
วิท@@ 1
วี@@ 1
ศัก@@ 1
ศึ@@ 1
ษฐ@@ 1
ษา@@ 1
สต@@ 1
สน@@ 1
สมา@@ 1
สร@@ 1
สอน 1
สำ@@ 1
สิ@@ 1
สิทธิ@@ 1
สิน@@ 1
สี@@ 1
สโม@@ 1
หน@@ 1
หม@@ 1
หร@@ 1
หล@@ 1
หั@@ 1
ฬ@@ 1
อก 1
อก@@ 1
อง@@ 1
อย 1
อั@@ 1
อี@@ 1
อุ@@ 1
ั 1
ัก 1
ักษ@@ 1
าน@@ 1
ำ 1
ิก 1
ิด@@ 1
ี 1
ียง 1
ียง@@ 1
ียว 1
ึ 1
ื@@ 1
ือ 1
ุ 1
ูน@@ 1
ูล 1
฿ 1
เก 1
เก@@ 1
เกาะ 1
เคร@@ 1
เด 1
เด@@ 1
เต 1
เท@@ 1
เทศ@@ 1
เฟ@@ 1
เมือง 1
เร@@ 1
เล@@ 1
เศ@@ 1
เส@@ 1
แข@@ 1
แม@@ 1
โ@@ 1
โก@@ 1
โรง@@ 1
โอ@@ 1
ใน@@ 1
ให@@ 1
ไฟ 1
๗ 1
ຍ@@ 1
ຕ 1
ຖ 1
ຜ@@ 1
ຝ@@ 1
ພ 1
ຢ@@ 1
ຣ 1
ັ 1
ຳ@@ 1
ີ 1
ື@@ 1
ໍ 1
༄ 1
༅ 1
ཀ@@ 1
ཏ 1
ཐ@@ 1
ན@@ 1
ཛ@@ 1
ཞ@@ 1
འ 1
ཡ@@ 1
ཱ 1
ྔ@@ 1
ྗ@@ 1
ྡ@@ 1
ྣ@@ 1
ྤ 1
ྫ@@ 1
ྰ@@ 1
ྷ 1
ྷ@@ 1
ခ 1
ဂ 1
င@@ 1
ည@@ 1
ဍ@@ 1
ဒ 1
ဢ 1
ဧ@@ 1
ါ 1
ီ 1
ဳ 1
ဳ@@ 1
ံ 1
ွ 1
ၚ 1
ၢ 1
ၣ 1
ၤ 1
ၵ 1
ၶ 1
ၷ 1
ၸ 1
ၹ 1
ၺ 1
ၻ 1
ၼ 1
ၽ 1
ၾ 1
ၿ 1
ႀ 1
ႁ 1
Ⴁ 1
Ⴁ@@ 1
Ⴄ 1
Ⴅ 1
Ⴆ 1
Ⴇ 1
Ⴊ 1
Ⴋ 1
Ⴌ 1
Ⴍ 1
Ⴍ@@ 1
Ⴎ 1
Ⴐ 1
Ⴑ@@ 1
Ⴒ 1
Ⴓ 1
Ⴔ@@ 1
Ⴚ 1
Ⴜ 1
Ⴝ 1
Ⴠ 1
Ⴡ 1
Ⴣ 1
Ⴥ 1
ვ 1
პ 1
ქ 1
ყ 1
ც 1
წ 1
ჭ 1
ჰ 1
ჱ 1
ჲ 1
ჲ@@ 1
ჳ 1
ჴ@@ 1
ჵ 1
ሀ@@ 1
ሂ@@ 1
ሃ@@ 1
ህ 1
ሊ 1
ሌ@@ 1
መ 1
ሙ@@ 1
ሜ@@ 1
ሪ 1
ሬ 1
ሮ 1
ሶ@@ 1
ሻ@@ 1
ሾ@@ 1
ቆ@@ 1
ቐ@@ 1
ቢ@@ 1
ቤ 1
ቨ@@ 1
ቲ@@ 1
ቴ@@ 1
ቶ@@ 1
ች@@ 1
ኅ@@ 1
ኒ 1
ኒ@@ 1
ኔ 1
ኖ@@ 1
ኛ 1
ኝ 1
ኣ@@ 1
ወ@@ 1
ዋ 1
ው@@ 1
ዎ@@ 1
ዐ@@ 1
ዓ 1
ዕ@@ 1
ዘ@@ 1
ዜ@@ 1
ዩ@@ 1
ዬ 1
ዲ 1
ዴ@@ 1
ዶ@@ 1
ጀ@@ 1
ጃ@@ 1
ጊ@@ 1
ጋ 1
ጌ@@ 1
ጣ 1
ጥ@@ 1
ጭ 1
ጭ@@ 1
ጸ@@ 1
ፈ@@ 1
ፋ@@ 1
ፌ@@ 1
ፎ 1
ፓ@@ 1
ᐅ@@ 1
ᐸ@@ 1
ᑕ@@ 1
ᑖ@@ 1
ᑦ 1
ᑦ@@ 1
ᒡ@@ 1
ᓗ 1
ᓴ@@ 1
ᔪ@@ 1
ᕐ@@ 1
ᖃ@@ 1
ᖠ@@ 1
᛭ 1
ខ@@ 1
ឃ@@ 1
ច 1
ញ 1
ញ@@ 1
ឋ 1
ឋ@@ 1
ភ 1
វ 1
ហ 1
ឥ@@ 1
ឭ@@ 1
ឮ 1
ឲ 1
ុ 1
ៈ 1
៉ 1
៊ 1
៌ 1
៛ 1
១ 1
២ 1
៣ 1
ᠠ 1
ᠡ 1
ᠢ 1
ᠭ 1
ᡤ@@ 1
ᡨ@@ 1
ᥐ 1
ᥐ@@ 1
ᥖ@@ 1
ᥘ@@ 1
ᥟ 1
ᥤ 1
ᥫ@@ 1
ᥭ@@ 1
ᥰ@@ 1
ᥴ 1
ᮊ 1
ᮓ@@ 1
ᮕ@@ 1
ᮦ@@ 1
ᮧ@@ 1
᮪ 1
ᱟ 1
ᱠ@@ 1
ᱣ@@ 1
ᱤ 1
ᱭ@@ 1
ᱯ@@ 1
ᱰ@@ 1
ᱲ 1
ᱲ@@ 1
ᴉ@@ 1
ᵃ 1
ᵊ 1
ᵑ 1
ᵒ 1
ᵘ 1
ᵞ@@ 1
ᵢ 1
ᵹ 1
ᶕ 1
ḃ 1
ḋ@@ 1
Ḍ@@ 1
Ḑ@@ 1
ḑ 1
ḗ 1
Ḩ@@ 1
ḩ 1
ḩ@@ 1
Ḫ@@ 1
ḵ 1
ḿ 1
ṁ@@ 1
ṉ 1
ṓ 1
ṕ 1
ṕ@@ 1
ṙ@@ 1
Ṣ 1
ṫ 1
ṳ 1
ẃ 1
Ẋ@@ 1
ẋ@@ 1
ẍ 1
ẏ 1
Ẑ@@ 1
ẕ@@ 1
ẗ 1
ẞ 1
ạ 1
ạch 1
ạm 1
ạn 1
ạnh 1
ạt 1
ả 1
ải 1
ảm 1
ấp 1
ất 1
ấu 1
ần 1
ẫ@@ 1
ậ 1
ập 1
ật 1
ằng 1
ặt 1
ẹ 1
ẹ@@ 1
ẻ 1
ề@@ 1
ều 1
ể@@ 1
ệ 1
ịch 1
ọ@@ 1
ọc 1
ọng 1
ỏ 1
ố 1
ốc 1
ối 1
ồ 1
ồn 1
ổ 1
ỗ 1
ộ@@ 1
ột 1
ụy 1
ủ 1
ứ 1
ứng 1
ử 1
ỷ 1
ỹ 1
ἂ 1
ἇ 1
ἇ@@ 1
Ἁ 1
Ἅ 1
ἕ 1
Ἒ@@ 1
Ἤ 1
ἳ@@ 1
ὄ 1
Ὂ@@ 1
ὒ 1
ὕ 1
Ὑ 1
Ὕ 1
Ὤ 1
ᾆ@@ 1
ᾎ@@ 1
ᾑ@@ 1
ᾕ 1
ᾕ@@ 1
ᾖ@@ 1
ᾟ 1
ᾦ@@ 1
ᾧ@@ 1
ᾯ 1
ᾲ 1
ᾲ@@ 1
Ᾱ 1
ᾼ 1
῀ 1
Ὴ 1
ῌ 1
ῐ 1
ῲ 1
ῲ@@ 1
Ὼ 1
ῼ 1
․ 1
‴ 1
※ 1
ⁱ 1
⁸ 1
⁹ 1
⁽ 1
⁾ 1
ⁿ 1
₃ 1
₄ 1
₅ 1
₇ 1
ₐ@@ 1
ₑ 1
₠ 1
₡ 1
₦ 1
₪ 1
₫ 1
₮ 1
₸ 1
₾ 1
℅ 1
ℛ 1
℞ 1
℧ 1
ℰ 1
ℵ@@ 1
⅝ 1
↊ 1
↋ 1
↪ 1
↵ 1
⇋ 1
⇌ 1
⇪ 1
∄ 1
∏ 1
∖ 1
≃ 1
≗ 1
≧ 1
≲ 1
≳ 1
⊔ 1
⎧ 1
⎩ 1
␠ 1
␢ 1
┐ 1
□ 1
○ 1
◘ 1
◙ 1
☀ 1
☊ 1
☥ 1
☫ 1
♆ 1
♉ 1
♊ 1
♌ 1
♍ 1
♎ 1
♏ 1
♐ 1
♑ 1
♒ 1
♓ 1
♔ 1
♕ 1
♖ 1
♗ 1
♘ 1
♙ 1
♚ 1
♛ 1
♜ 1
♝ 1
♞ 1
♟ 1
♡ 1
♩ 1
♪ 1
⚢ 1
⚣ 1
⚧ 1
⛩ 1
✖ 1
⠏ 1
⠑ 1
⠕ 1
⠗ 1
⠙ 1
⠚ 1
⠛ 1
⠜ 1
⠝ 1
⠨ 1
ⰰ 1
ⰱ 1
ⰹ@@ 1
ⰼ@@ 1
ⰾ 1
ⱁ 1
ⱃ 1
ⱉ 1
ⱋ@@ 1
ⱌ 1
ⱎ@@ 1
ⱒ@@ 1
ⱗ@@ 1
ⱞ 1
Ⱪ@@ 1
Ɑ 1
ⱱ 1
ⲃ 1
ⲍ@@ 1
Ⲓ 1
Ⲓ@@ 1
ⲝ@@ 1
ⲟ 1
ⲣ 1
Ⲫ@@ 1
ⲫ 1
ⴁ 1
ⴄ 1
ⴅ 1
ⴆ 1
ⴇ 1
ⴈ 1
ⴊ 1
ⴋ 1
ⴌ 1
ⴍ 1
ⴍ@@ 1
ⴎ 1
ⴐ 1
ⴒ 1
ⴓ 1
ⴚ 1
ⴜ 1
ⴝ 1
ⴠ 1
ⴡ 1
ⴣ 1
ⴥ 1
ⴷ 1
ⴹ@@ 1
ⴽ 1
ⵀ@@ 1
ⵃ@@ 1
ⵇ@@ 1
ⵈ 1
ⵖ 1
ⵘ@@ 1
⸗ 1
⹀ 1
々@@ 1
〇 1
『 1
』 1
ぇ 1
お 1
げ 1
ず@@ 1
た 1
で 1
ど 1
ぬ@@ 1
ね 1
び 1
ぶ 1
へ 1
へ@@ 1
ぼ 1
ぼ@@ 1
ぽ@@ 1
む@@ 1
や 1
ゆ 1
よ 1
れ 1
わ 1
ゐ 1
ゑ 1
ェ 1
エ 1
ギ 1
セ 1
ヂ@@ 1
ッ 1
テ 1
ニ 1
ヌ 1
ネ 1
ノ 1
バ 1
ヒ 1
ベ 1
ホ 1
モ 1
ヤ 1
ョ 1
ヰ 1
ヱ 1
ヶ 1
ㄲ 1
ㄹ 1
ㄹ@@ 1
ㅂ@@ 1
ㅍ 1
ㅏ 1
ㅓ 1
ㅓ@@ 1
ㅜ 1
ㅣ 1
ㆍ 1
ㆍ@@ 1
ㆎ 1
丁@@ 1
不 1
与 1
与@@ 1
丘@@ 1
业@@ 1
两@@ 1
丨 1
丰 1
丰@@ 1
丶 1
丿 1
久 1
么 1
乌 1
乐 1
乘@@ 1
乙 1
乙@@ 1
乚 1
乛 1
也@@ 1
习@@ 1
亅 1
了 1
予@@ 1
于@@ 1
亘 1
亡@@ 1
交 1
亥@@ 1
亨@@ 1
享 1
亭@@ 1
亮 1
人口 1
人物 1
什 1
介 1
仑@@ 1
付 1
仟 1
仟@@ 1
代表 1
仰@@ 1
仲 1
价 1
仿@@ 1
企@@ 1
伊 1
伍@@ 1
伏 1
伐 1
众@@ 1
伟@@ 1
伦 1
伯@@ 1
伸@@ 1
伽 1
位@@ 1
佑@@ 1
佔@@ 1
何 1
佗 1
佤@@ 1
佩 1
佩@@ 1
佳 1
使 1
例@@ 1
侍@@ 1
侠 1
俐 1
俐@@ 1
俗 1
俣 1
修 1
倒@@ 1
候 1
借@@ 1
倪@@ 1
倫@@ 1
倭@@ 1
倻 1
值@@ 1
偉@@ 1
偕@@ 1
停@@ 1
健@@ 1
偵 1
偽@@ 1
傑@@ 1
傳 1
働 1
僕 1
儀 1
儒 1
儺@@ 1
儿 1
允@@ 1
兆@@ 1
児 1
児@@ 1
兒 1
党@@ 1
兜 1
內 1
六 1
兰 1
典@@ 1
兼@@ 1
冊 1
再@@ 1
冑 1
冕 1
冠 1
冥 1
冨@@ 1
冫 1
冰 1
冰@@ 1
准@@ 1
凉@@ 1
凡@@ 1
凤@@ 1
凰 1
凱 1
函@@ 1
刃 1
刄 1
则@@ 1
刚 1
利 1
刺@@ 1
刻 1
剑@@ 1
剛 1
剛@@ 1
副@@ 1
割@@ 1
剳@@ 1
劇 1
动 1
励@@ 1
勅@@ 1
勘@@ 1
勛 1
勢 1
包 1
包@@ 1
匈@@ 1
化 1
匡@@ 1
千 1
升@@ 1
午 1
半@@ 1
卍 1
卐 1
单位 1
南部 1
占 1
卧@@ 1
卫 1
卫@@ 1
印 1
印@@ 1
危@@ 1
卻 1
厂 1
历 1
历@@ 1
厚 1
厳@@ 1
又 1
又@@ 1
发 1
变 1
叢@@ 1
句 1
只@@ 1
叶 1
号@@ 1
吒 1
吞@@ 1
否@@ 1
含@@ 1
听@@ 1
启@@ 1
吴 1
吽 1
呉@@ 1
告 1
呦 1
呦@@ 1
周 1
咀 1
咆@@ 1
咏@@ 1
咖@@ 1
咫@@ 1
咲 1
咲@@ 1
哉 1
員 1
哩 1
哪@@ 1
唄@@ 1
唐 1
商 1
問 1
啤@@ 1
喝@@ 1
喬 1
喬@@ 1
單@@ 1
喼@@ 1
嗔@@ 1
嘗@@ 1
噌 1
噌@@ 1
器 1
器@@ 1
囃@@ 1
囊@@ 1
回 1
因@@ 1
囯 1
囲@@ 1
图 1
圆 1
圆@@ 1
國家 1
圳 1
均 1
坎@@ 1
坛 1
坤@@ 1
坦 1
坪@@ 1
型 1
垦@@ 1
城市 1
域@@ 1
埴@@ 1
埼@@ 1
堯 1
塊@@ 1
塑@@ 1
塚 1
塩@@ 1
塵 1
塾 1
塾@@ 1
墓 1
墓@@ 1
増@@ 1
墩 1
壘@@ 1
壬@@ 1
壮 1
壯@@ 1
壽@@ 1
夕 1
夜 1
央 1
头 1
夷 1
奈 1
奔 1
奘@@ 1
奧@@ 1
奨@@ 1
奴 1
如@@ 1
妃 1
妃@@ 1
妓 1
妖@@ 1
妙 1
妮 1
妹 1
姉@@ 1
始 1
姐 1
委员@@ 1
姜@@ 1
姣 1
姬@@ 1
姮@@ 1
威@@ 1
娛@@ 1
娜 1
娜@@ 1
娼 1
婁 1
婚@@ 1
婷@@ 1
嫂 1
嫘@@ 1
嫦 1
嬌 1
嬴 1
嬿 1
孙 1
孙@@ 1
孟@@ 1
季 1
孤@@ 1
宛@@ 1
宜 1
宜@@ 1
实@@ 1
実@@ 1
宫 1
害@@ 1
宸 1
容@@ 1
寂@@ 1
密@@ 1
寒@@ 1
寛 1
寛@@ 1
寢 1
寰 1
寸 1
导@@ 1
寿@@ 1
尋@@ 1
導@@ 1
少 1
尔 1
尖@@ 1
尤 1
尧 1
就 1
尸 1
尸@@ 1
尻@@ 1
尼 1
尼@@ 1
屁@@ 1
屈@@ 1
属 1
屠 1
屠@@ 1
層@@ 1
屯 1
屯@@ 1
岑@@ 1
岩 1
岭@@ 1
岱@@ 1
岸@@ 1
峠 1
峪 1
峯@@ 1
峻@@ 1
峽 1
崑@@ 1
崙 1
崙@@ 1
嵐@@ 1
嵩@@ 1
嶺 1
嶽 1
巒 1
巡 1
巢 1
巣 1
左 1
巧@@ 1
巻 1
师@@ 1
希 1
带@@ 1
帳 1
帽@@ 1
幌@@ 1
幞@@ 1
幟 1
幣 1
干 1
幹 1
幻 1
广 1
庄 1
庇 1
库@@ 1
应@@ 1
度@@ 1
座 1
庶 1
廉 1
廓 1
廟 1
廬 1
开@@ 1
弐@@ 1
弓@@ 1
弟@@ 1
弦 1
弧@@ 1
張 1
强 1
弾 1
弾@@ 1
彌 1
归@@ 1
当 1
当@@ 1
彗@@ 1
彩@@ 1
彬 1
彭@@ 1
影 1
役@@ 1
待 1
待@@ 1
很@@ 1
律@@ 1
従 1
従@@ 1
御 1
徹 1
忘@@ 1
応 1
念 1
怛 1
性 1
怪 1
恆 1
恆@@ 1
恋@@ 1
恒@@ 1
恩 1
恭 1
息@@ 1
恵 1
悔@@ 1
悬@@ 1
情 1
惠 1
惠@@ 1
惺 1
愔 1
慜 1
憂@@ 1
懸@@ 1
戈@@ 1
戊@@ 1
戒 1
或@@ 1
截@@ 1
戯 1
戯@@ 1
戰 1
戰@@ 1
戲 1
扁 1
扁@@ 1
扑@@ 1
扱@@ 1
抄 1
抖@@ 1
折@@ 1
抜@@ 1
択@@ 1
报 1
报@@ 1
抹@@ 1
拂@@ 1
拌@@ 1
拍@@ 1
拓 1
招@@ 1
拜 1
拝 1
拝@@ 1
择 1
拵 1
拽@@ 1
持@@ 1
挂 1
挙@@ 1
捉@@ 1
捶 1
授@@ 1
掌 1
探@@ 1
接@@ 1
推@@ 1
掬@@ 1
掾@@ 1
提 1
握@@ 1
援@@ 1
搜 1
搶@@ 1
摂 1
摄@@ 1
摆@@ 1
摔@@ 1
摠@@ 1
摺@@ 1
撈@@ 1
撒 1
撫@@ 1
擇 1
擒@@ 1
收 1
改 1
故 1
故@@ 1
效@@ 1
敎 1
敦 1
敬 1
整@@ 1
敷@@ 1
斉 1
斋@@ 1
斧@@ 1
斯 1
斷 1
斷@@ 1
於@@ 1
施@@ 1
旃@@ 1
旋@@ 1
无 1
旨@@ 1
旬 1
昊 1
昣 1
昭 1
昱@@ 1
昺 1
显@@ 1
晋 1
晋@@ 1
晏@@ 1
晓@@ 1
晩@@ 1
晶 1
智 1
暁@@ 1
暗@@ 1
暢@@ 1
暦 1
暦@@ 1
曇 1
曝@@ 1
曲@@ 1
曷@@ 1
曼@@ 1
替@@ 1
朋@@ 1
朗@@ 1
望 1
末@@ 1
札 1
机 1
杏 1
条 1
杨 1
杭@@ 1
杯 1
杰 1
枚 1
果 1
枡@@ 1
枢@@ 1
枧@@ 1
枪@@ 1
架 1
柏 1
查@@ 1
柯@@ 1
柳 1
柴 1
査@@ 1
栄@@ 1
树@@ 1
栖 1
格 1
桃 1
案 1
案@@ 1
桐@@ 1
桝@@ 1
梁@@ 1
梅 1
條@@ 1
梦 1
梦@@ 1
梧 1
梯@@ 1
梴 1
梶@@ 1
棍 1
棍@@ 1
棒 1
棒@@ 1
棟 1
棣 1
楊 1
楓@@ 1
楚 1
楞@@ 1
楠@@ 1
概@@ 1
榎@@ 1
槃 1
槃@@ 1
槍@@ 1
樂 1
樊@@ 1
標 1
模@@ 1
権 1
樵 1
樸@@ 1
樹@@ 1
橫 1
橫@@ 1
檀 1
檗 1
櫃@@ 1
櫓@@ 1
欣 1
欧@@ 1
欲 1
欽@@ 1
歐@@ 1
歩 1
歩@@ 1
歲@@ 1
歳@@ 1
歸@@ 1
死 1
殊 1
殊@@ 1
残@@ 1
殷@@ 1
殿@@ 1
毅 1
毒@@ 1
比 1
毗@@ 1
毫@@ 1
气@@ 1
汇@@ 1
汕@@ 1
汝@@ 1
汤@@ 1
汪@@ 1
汽@@ 1
沟 1
沟@@ 1
沸 1
沸@@ 1
況 1
泊@@ 1
泡 1
泡@@ 1
泥@@ 1
注 1
注@@ 1
泰 1
泼@@ 1
洒@@ 1
洪 1
派@@ 1
浄 1
济 1
浔@@ 1
浜 1
浩 1
浩@@ 1
浪@@ 1
浴@@ 1
涙 1
涛 1
润@@ 1
涯 1
涼@@ 1
淇 1
淑 1
淵 1
渇@@ 1
渕@@ 1
渚 1
渝 1
渡 1
渦@@ 1
温 1
港 1
湘 1
湴@@ 1
満 1
溝@@ 1
溥@@ 1
滅 1
滑@@ 1
滝 1
滟@@ 1
滨 1
滨@@ 1
演@@ 1
漠@@ 1
漢 1
漪@@ 1
漳@@ 1
潇@@ 1
潑@@ 1
潔 1
潘@@ 1
潛@@ 1
潤@@ 1
潮@@ 1
潽@@ 1
激@@ 1
濃@@ 1
濊@@ 1
濠@@ 1
濤@@ 1
濱 1
瀆@@ 1
瀋@@ 1
瀟@@ 1
灌@@ 1
炁 1
炉@@ 1
炎@@ 1
炫 1
炮@@ 1
炷 1
点 1
点@@ 1
為@@ 1
烈@@ 1
热@@ 1
烹 1
焕 1
焚@@ 1
無 1
焦 1
煌 1
煌@@ 1
煎@@ 1
熙 1
熜 1
熹 1
燊 1
燒@@ 1
燕 1
營@@ 1
燵@@ 1
爪 1
爱 1
父 1
父@@ 1
爸 1
爸@@ 1
爺 1
爾@@ 1
牁 1
牂 1
片@@ 1
版 1
牌 1
牡@@ 1
犁@@ 1
犬 1
犬@@ 1
狄@@ 1
狐@@ 1
狒@@ 1
狗 1
狛@@ 1
狢 1
独 1
独@@ 1
狭 1
狮 1
狸@@ 1
猟@@ 1
猨 1
猪 1
献@@ 1
猴@@ 1
猷@@ 1
獄 1
獨@@ 1
玃 1
玛 1
环@@ 1
现@@ 1
玲@@ 1
珠 1
班@@ 1
球 1
琦 1
琼@@ 1
瑕 1
瑛@@ 1
瑜@@ 1
瑟 1
瑤 1
瑾 1
璃 1
璋@@ 1
璐@@ 1
璠 1
瓜@@ 1
瓮@@ 1
甘 1
產@@ 1
甲 1
申 1
电 1
畅@@ 1
畜@@ 1
畠 1
略 1
異@@ 1
畳 1
畵@@ 1
疏@@ 1
疑@@ 1
病 1
症 1
瘋@@ 1
瘞 1
瘞@@ 1
療 1
癲@@ 1
發@@ 1
的 1
盘 1
盧@@ 1
盲@@ 1
直 1
盾 1
県@@ 1
眞@@ 1
眠@@ 1
督 1
瞳 1
瞿 1
矢 1
砒@@ 1
研@@ 1
砦@@ 1
破@@ 1
硏 1
硕 1
确@@ 1
碁@@ 1
碕@@ 1
磬@@ 1
示 1
礼@@ 1
祇@@ 1
祈 1
祐 1
祐@@ 1
祖 1
祠 1
禄 1
禊 1
福 1
禧@@ 1
禪@@ 1
禮@@ 1
禰 1
禽@@ 1
秀 1
私@@ 1
秋 1
秘@@ 1
程@@ 1
稜@@ 1
稣 1
稷 1
稽@@ 1
穂@@ 1
穆@@ 1
穣 1
穴 1
穴@@ 1
究 1
突 1
窓 1
立 1
端 1
端@@ 1
笛@@ 1
笠@@ 1
第 1
第二@@ 1
笼@@ 1
筆 1
等 1
筑@@ 1
筵@@ 1
箏 1
箒@@ 1
算@@ 1
篁@@ 1
築@@ 1
篠@@ 1
篨 1
簡 1
簪 1
籌@@ 1
籠@@ 1
籧@@ 1
类@@ 1
粋 1
粒 1
粘@@ 1
粟@@ 1
粤@@ 1
粧 1
粹 1
精 1
糖 1
糠 1
糸 1
糸@@ 1
系@@ 1
系列 1
紅 1
紇 1
納 1
純 1
純@@ 1
紗@@ 1
索 1
紧 1
紧@@ 1
紬@@ 1
紹@@ 1
終@@ 1
組 1
経@@ 1
結@@ 1
絕@@ 1
絞@@ 1
經@@ 1
継@@ 1
続@@ 1
綬 1
綵 1
綽 1
緋@@ 1
総 1
緒 1
緞@@ 1
緣@@ 1
緯 1
練@@ 1
縣@@ 1
縱 1
繆 1
續@@ 1
红 1
纯@@ 1
纵 1
终@@ 1
经 1
绣 1
缑@@ 1
缪 1
罪@@ 1
美 1
羲 1
羹@@ 1
羿 1
習@@ 1
翠@@ 1
翳@@ 1
翻@@ 1
翼 1
耀 1
考@@ 1
耶@@ 1
职@@ 1
聚 1
聚@@ 1
聞@@ 1
聴@@ 1
聽 1
聿@@ 1
肃 1
肱@@ 1
肴 1
背@@ 1
胤 1
胶@@ 1
脇@@ 1
脉 1
脱@@ 1
腊@@ 1
腐 1
腦 1
腰@@ 1
腾 1
膳@@ 1
臘 1
臭 1
臭@@ 1
至@@ 1
舉 1
舉@@ 1
舊@@ 1
舎 1
舎@@ 1
舟@@ 1
般@@ 1
船 1
船@@ 1
艺 1
艺@@ 1
节@@ 1
芙@@ 1
芝 1
芦 1
芭@@ 1
芸 1
芽@@ 1
苏 1
苓 1
苔@@ 1
苦 1
苦@@ 1
茂@@ 1
范@@ 1
茨@@ 1
茯@@ 1
荀@@ 1
荘@@ 1
荪 1
莞@@ 1
莱@@ 1
莲@@ 1
莽 1
菅 1
菓@@ 1
菖@@ 1
菜@@ 1
菱@@ 1
菲@@ 1
菴 1
菻 1
萨@@ 1
萩@@ 1
萬 1
落 1
落@@ 1
葛@@ 1
葡@@ 1
葵 1
蒋@@ 1
蒲@@ 1
蒼@@ 1
蒿@@ 1
蓀 1
蓉@@ 1
蓝@@ 1
蔻 1
蕃@@ 1
蕉 1
蕪@@ 1
薄@@ 1
薙@@ 1
薩@@ 1
薪@@ 1
薬@@ 1
薮@@ 1
藝@@ 1
藩@@ 1
藻@@ 1
蘆 1
蘇 1
虞 1
號@@ 1
虫@@ 1
蚊 1
蚩@@ 1
蛋 1
蛙@@ 1
蛛 1
蛮 1
蛮@@ 1
蛸@@ 1
蜘@@ 1
蜜@@ 1
蜡@@ 1
螂 1
螂@@ 1
融@@ 1
螳@@ 1
蟷@@ 1
蟾@@ 1
血 1
衒@@ 1
衛 1
衡 1
衫 1
衷@@ 1
袋@@ 1
袓 1
袖@@ 1
裁@@ 1
裂@@ 1
裕@@ 1
裙 1
裝@@ 1
裸@@ 1
褌 1
褔 1
襴@@ 1
要@@ 1
覆@@ 1
覇@@ 1
覧@@ 1
观 1
观@@ 1
视@@ 1
触@@ 1
計 1
計@@ 1
訓 1
訓@@ 1
訪@@ 1
設 1
診@@ 1
詠 1
詠@@ 1
話@@ 1
認 1
誓 1
誕@@ 1
誠 1
誠@@ 1
誡@@ 1
誥 1
誼@@ 1
請@@ 1
諏@@ 1
論@@ 1
謙@@ 1
謝 1
謝@@ 1
譚 1
警@@ 1
譯@@ 1
議 1
譲 1
護 1
護@@ 1
讃 1
讃@@ 1
讓 1
让 1
讯 1
词 1
诗@@ 1
话@@ 1
请@@ 1
诺 1
调@@ 1
谊@@ 1
谋 1
谢@@ 1
谿 1
谿@@ 1
豌@@ 1
豔@@ 1
豚@@ 1
象@@ 1
豪@@ 1
貅 1
貊@@ 1
貔@@ 1
貝 1
貝@@ 1
貢@@ 1
貫 1
貿@@ 1
賓 1
賜 1
賜@@ 1
賞 1
賦 1
賭 1
賴@@ 1
賽@@ 1
贄 1
贡@@ 1
质@@ 1
贺 1
赋 1
赡@@ 1
走@@ 1
赵@@ 1
起 1
足 1
趾 1
跃@@ 1
跆@@ 1
跋@@ 1
跑@@ 1
跤 1
跳@@ 1
蹄@@ 1
蹊@@ 1
蹟 1
蹴@@ 1
蹻 1
車站 1
軒 1
軸@@ 1
載 1
輔 1
輩@@ 1
輸 1
輿 1
轼 1
载 1
辣@@ 1
辯@@ 1
辻@@ 1
达 1
返@@ 1
进 1
连 1
迦@@ 1
迪 1
迪@@ 1
迹 1
送 1
通 1
通常 1
速 1
連 1
週@@ 1
達 1
遥 1
遥@@ 1
適 1
遵 1
選 1
遼@@ 1
邉 1
邊@@ 1
邙@@ 1
那 1
邦 1
邪@@ 1
邱 1
邳@@ 1
邺@@ 1
郁@@ 1
郓@@ 1
郡@@ 1
郭 1
郷@@ 1
鄭 1
鄴@@ 1
配 1
酎 1
酢@@ 1
酱@@ 1
醉 1
醉@@ 1
醐 1
醐@@ 1
醤 1
醫 1
醫@@ 1
醬 1
采@@ 1
量 1
釜@@ 1
鈍 1
鈎 1
鈴@@ 1
鈿@@ 1
鉄 1
鉋 1
銀 1
銓 1
銘 1
鋒 1
鋸 1
錆@@ 1
錢@@ 1
鍋 1
鍋@@ 1
鍍 1
鍔 1
鍵 1
鍾@@ 1
鎖 1
鎚 1
鎧 1
鎭 1
鏵 1
鐘@@ 1
鐚 1
鐵 1
鐵@@ 1
鐸 1
鑒@@ 1
鑜@@ 1
钟@@ 1
钢 1
钰@@ 1
铁@@ 1
铜@@ 1
银@@ 1
锋 1
锤@@ 1
键@@ 1
閃@@ 1
閣@@ 1
閤 1
閩@@ 1
閭@@ 1
闘 1
關@@ 1
闪@@ 1
问 1
问@@ 1
陀@@ 1
附@@ 1
陆@@ 1
陈 1
陌 1
陣@@ 1
陰 1
陵 1
険@@ 1
隆 1
隆@@ 1
階@@ 1
隠 1
隱 1
隼 1
隼@@ 1
难@@ 1
雉 1
雙 1
雜@@ 1
雞@@ 1
難 1
雨 1
零@@ 1
雷 1
需@@ 1
震@@ 1
霍@@ 1
霑 1
霜@@ 1
霧@@ 1
霸 1
霸@@ 1
靑 1
靑@@ 1
靜@@ 1
非@@ 1
靱@@ 1
鞆 1
鞆@@ 1
鞘 1
鞭 1
韶@@ 1
響@@ 1
頂 1
頓@@ 1
領 1
頤@@ 1
頼 1
題 1
顔@@ 1
顕 1
類@@ 1
顧@@ 1
顯@@ 1
顶@@ 1
项@@ 1
顺 1
顺@@ 1
顿@@ 1
领@@ 1
颍@@ 1
颖 1
飆 1
风@@ 1
飢@@ 1
飾 1
餅@@ 1
養 1
養@@ 1
餓@@ 1
餡 1
駄@@ 1
駅 1
駆@@ 1
騒 1
験 1
騫 1
驗@@ 1
髪@@ 1
鬥 1
鬼 1
魁 1
魂 1
魄@@ 1
魏 1
魔 1
鮮 1
鯉 1
鯉@@ 1
鯊@@ 1
鰹 1
鲟 1
鲨@@ 1
鲸 1
鳥 1
鳰@@ 1
鳴@@ 1
鵬 1
鶻 1
鸝 1
鸞@@ 1
鸟@@ 1
鸿 1
鸿@@ 1
鹂@@ 1
鹊 1
麒 1
麗@@ 1
麺 1
麻 1
麼 1
黒 1
黙 1
黥 1
鼠@@ 1
齉 1
齋@@ 1
齐 1
龕@@ 1
ꆈ@@ 1
ꉙ 1
ꌠ@@ 1
ꓯ 1
Ꙉ 1
Ꙍ 1
ꙍ 1
ꙮ@@ 1
ꜣ 1
ꜥ 1
Ꞑ 1
Ꞑ@@ 1
꠆ 1
ꠉ 1
ꠉ@@ 1
ꠎ@@ 1
ꠕ@@ 1
ꠘ 1
ꠙ@@ 1
ꠜ@@ 1
ꠝ@@ 1
ꠥ@@ 1
ꦃ 1
ꭠ 1
ꭡ 1
ꭣ 1
ꯂ@@ 1
ꯃ@@ 1
ꯇ@@ 1
ꯏ@@ 1
ꯐ@@ 1
ꯜ 1
ꯝ@@ 1
ꯟ 1
ꯣ@@ 1
ꯤ@@ 1
ꯥ@@ 1
ꯩ@@ 1
각 1
각@@ 1
갑@@ 1
개@@ 1
거 1
것 1
게@@ 1
겜@@ 1
겨@@ 1
견@@ 1
경 1
광 1
괜@@ 1
괴@@ 1
굴@@ 1
급 1
김 1
깃@@ 1
꼬@@ 1
꽃@@ 1
나 1
난 1
난@@ 1
내 1
냻 1
너 1
너@@ 1
넝@@ 1
녀@@ 1
년 1
념@@ 1
녕@@ 1
녹@@ 1
누@@ 1
뉴@@ 1
느@@ 1
능 1
니@@ 1
님 1
단@@ 1
더 1
데@@ 1
돌 1
돌@@ 1
됨 1
듀@@ 1
드 1
득@@ 1
들 1
등 1
딘@@ 1
땅 1
때 1
뜻 1
뜻@@ 1
랑@@ 1
래 1
랙@@ 1
랜 1
럭@@ 1
런@@ 1
렁@@ 1
력@@ 1
령 1
론 1
루@@ 1
류 1
률@@ 1
름@@ 1
릉@@ 1
림 1
립 1
립@@ 1
막 1
많@@ 1
맘 1
메@@ 1
면 1
몸@@ 1
물@@ 1
뭉@@ 1
뮤 1
뮤@@ 1
미 1
밀@@ 1
박 1
반 1
밥 1
배 1
번@@ 1
범 1
범@@ 1
법 1
벙@@ 1
베@@ 1
벨@@ 1
벳 1
변@@ 1
별 1
보 1
복@@ 1
볶@@ 1
봄 1
빔@@ 1
살 1
삼 1
새@@ 1
생@@ 1
석 1
설 1
센 1
센@@ 1
셋@@ 1
솟@@ 1
송 1
쇄 1
숙 1
순 1
술@@ 1
습@@ 1
식@@ 1
신 1
실@@ 1
심@@ 1
십@@ 1
싸@@ 1
써@@ 1
알@@ 1
암@@ 1
압 1
앙 1
앞@@ 1
액@@ 1
야 1
야@@ 1
억@@ 1
언@@ 1
엄@@ 1
업 1
엑@@ 1
여 1
열@@ 1
엽 1
예@@ 1
옥 1
올 1
왕 1
외 1
욕@@ 1
용@@ 1
욱 1
울 1
을@@ 1
익 1
임 1
있@@ 1
잘 1
잠@@ 1
잣@@ 1
저 1
족@@ 1
죽@@ 1
준 1
중 1
쥐 1
증@@ 1
직 1
직@@ 1
짓@@ 1
징@@ 1
째 1
찮@@ 1
찾@@ 1
채@@ 1
첩 1
청 1
체 1
춘@@ 1
충 1
칙 1
칠@@ 1
침@@ 1
코 1
코@@ 1
콜 1
콤@@ 1
쿨@@ 1
크 1
클@@ 1
키 1
타 1
탄@@ 1
탕 1
태 1
투@@ 1
트@@ 1
틀 1
티 1
티@@ 1
틸@@ 1
팀 1
팅 1
팅@@ 1
파 1
파@@ 1
판@@ 1
팝 1
팥@@ 1
팽@@ 1
평 1
표 1
풍@@ 1
퓨@@ 1
프@@ 1
플@@ 1
피@@ 1
핑@@ 1
학 1
할@@ 1
함 1
함@@ 1
합 1
해 1
햇@@ 1
헌 1
혁 1
혁@@ 1
혈@@ 1
혜 1
혜@@ 1
홍 1
확@@ 1
환 1
훈 1
휴@@ 1
 1
 1
 1
 1
 1
 1
ﬁ@@ 1
ﭖ 1
ﭺ 1
ﮊ 1
ﮎ 1
ﮒ 1
ﮪ 1
ﯘ@@ 1
ﯙ 1
﷼ 1
︦ 1
ﺃ 1
ﺃ@@ 1
ﺋ 1
ﺋ@@ 1
ﺏ 1
ﺒ@@ 1
ﺓ 1
ﺕ 1
ﺗ@@ 1
ﺘ@@ 1
ﺝ 1
ﺡ 1
ﺥ 1
ﺩ 1
ﺪ@@ 1
ﺭ 1
ﺰ@@ 1
ﺲ 1
ﺵ 1
ﻀ@@ 1
ﻉ 1
ﻍ 1
ﻏ@@ 1
ﻑ 1
ﻕ 1
ﻛ@@ 1
ﻝ 1
ﻠ@@ 1
ﻡ 1
ﻣ@@ 1
ﻧ@@ 1
ﻪ@@ 1
ﻭ@@ 1
ﻳ 1
ﻴ@@ 1
＇ 1
／ 1
０@@ 1
１@@ 1
２ 1
？ 1
Ａ 1
Ｃ 1
Ｎ 1
Ｔ@@ 1
Ｖ 1
ａ@@ 1
ｃ@@ 1
ｅ 1
ｇ 1
ｈ@@ 1
ｉ@@ 1
ｎ 1
ｐ@@ 1
ｒ 1
ｒ@@ 1
ｓ@@ 1
ｔ@@ 1
𐀢@@ 1
𐀫 1
𐇤 1
𐌰 1
𐌴@@ 1
𐌸@@ 1
𐌻@@ 1
𐌾@@ 1
𐍀@@ 1
𐍂@@ 1
𐍃 1
𐍃@@ 1
𐍅@@ 1
𐎡@@ 1
𐎤@@ 1
𐎶 1
𐎹 1
𐎽@@ 1
𐏁 1
𐏁@@ 1
𐤁@@ 1
𐤉@@ 1
𐤊@@ 1
𐤋@@ 1
𐤍@@ 1
𐤎@@ 1
𐤕@@ 1
𐤡 1
𐤩 1
𐤬 1
𐤲 1
𐤲@@ 1
𐤳@@ 1
𐩡 1
𐩣@@ 1
𐩤@@ 1
𐩥@@ 1
𐩧 1
𐩧@@ 1
𐩫@@ 1
𐩱@@ 1
𐩺@@ 1
𐭅@@ 1
𐭇@@ 1
𐭊@@ 1
𐭍 1
𐭓 1
𐭕@@ 1
𐭠@@ 1
𐭭 1
𐭲@@ 1
𑄋@@ 1
𑄖 1
𑄟@@ 1
𑄡 1
𑄢@@ 1
𑄳 1
𒀉@@ 1
𒁉@@ 1
𒂊@@ 1
𒂗@@ 1
𒂟 1
𒃲 1
𒅆 1
𒆳@@ 1
𒆷 1
𒇷@@ 1
𒇻@@ 1
𒉡@@ 1
𒊒@@ 1
𒊩@@ 1
𒊺@@ 1
𒋢@@ 1
𒋼@@ 1
𒋾@@ 1
𒌆@@ 1
𒌈@@ 1
𒌑 1
𓂀 1
𝕄 1
🌐 1
🐶 1
😂 1
󠁿 1
