#version: 0.2 - Trained by `huggingface/tokenizers`
e n
e r
i n
c h
t h
a n
e s
o n
u n
i s
a t
i t
i e
o r
a l
th e
a r
s t
r e
d er
i ch
a s
i on
u r
l e
an d
t e
o f
e in
g e
t o
en t
d e
b e
a u
un d
o m
un g
in g
d ie
r o
e l
d en
i l
i g
i c
e d
o l
a m
i r
u s
i m
t er
v er
f or
t en
s ch
s e
at ion
z u
o p
h e
a b
u t
r a
w e
h r
i es
is t
e m
u l
c t
n e
b er
g en
l ich
v e
al l
u m
ü r
n o
is ch
i er
ich t
d as
p ro
k e
th at
es t
s o
c on
a ch
es s
om m
v on
s p
c e
au f
a d
ar e
w h
i d
w ir
er e
l o
e t
I n
i th
m it
l a
o ur
l y
f ür
w er
k t
d es
i f
or t
w ith
ein e
in d
ur op
T he
t r
p r
s u
h a
au s
o u
il l
de m
V er
i v
d ies
t s
h o
m e
t a
c k
m ent
E urop
p o
a f
m a
el l
m en
at e
g r
e x
f r
g es
q u
is s
c o
d a
ung en
U n
n en
b en
c om
0 0
isch en
te l
i en
ar t
z e
r es
th is
no t
it y
er s
A n
u st
s ich
i ve
S t
S ie
n icht
an t
en d
R e
ü ber
b y
a p
a g
i b
s er
ä n
wer den
i al
a h
au ch
l i
s en
l ie
an n
m o
f a
w or
ie l
das s
ha ve
p ort
p e
ig en
w o
ig h
v or
it s
D ie
B e
y ou
w ill
f e
ul d
w as
m an
i k
er n
a y
al s
a c
d u
t z
w ie
h en
d o
p er
ion s
wh ich
t ra
S ch
omm iss
h al
Europ e
te d
ung s
T h
st e
fr om
u p
W e
th er
h as
for m
st r
ol l
o ut
f er
P ro
s ind
a ge
sch af
c an
i p
ein er
s it
E n
id ent
w ar
im m
ommiss ion
ab le
on e
. .
u g
in ter
f en
wir d
f ü
be i
h at
in e
u re
j e
i de
ö n
us s
E r
ab en
ein en
P ar
an g
isch e
i o
H o
h er
A r
f t
i z
p l
f in
o der
ur ch
b es
is e
b r
A u
en n
g o
i re
g er
ic k
b o
un ter
it en
i a
2 00
as s
p ol
z ur
hr en
i ge
am ent
or e
H er
Europe an
s ie
ation s
h aben
M it
al so
c l
ar d
P r
all y
A us
F r
p art
A l
ct ion
com p
un s
lich en
ch en
ul t
d r
E in
ic e
ation al
at ed
o k
ä t
ch e
k ön
an k
sp e
ver y
n ach
der n
g an
o d
m ö
an ge
re g
at en
st en
G e
s s
ch t
h l
W ir
s ho
schaf t
o g
an s
f f
ier en
al le
g ro
o b
S e
r it
w n
h t
is h
st ell
e ar
s h
ä r
v el
u e
we it
igh t
wor k
b le
y our
c ess
D as
Un ion
ier t
ein em
at es
d urch
an der
le g
k ann
w ur
y st
p t
1 9
or d
u b
d ar
te t
h in
c omm
G r
el t
ke it
ig n
ü n
a st
us e
t im
b ut
n ational
I t
c re
V or
em ber
co un
ä s
ic al
yst em
B er
am e
I ch
o t
f re
it e
a k
om e
f ol
kön nen
th ere
an ce
lich e
E U
M r
m ore
ar y
p re
Her r
u d
i h
C ommission
ö r
be it
m ar
L e
p le
p la
omm en
l and
a in
A b
l t
a hr
zu m
wo uld
s sen
l in
p ar
be en
the ir
es e
an y
it ion
m in
c ial
he it
t re
b ar
i le
d is
ch te
En t
a v
in s
z en
g lich
o ther
D e
G es
s el
Europ ä
u ch
w ä
no w
Th is
on g
m er
en s
u te
w ay
ch n
n ur
dies e
pro du
Ho tel
Un ter
h and
ent s
pro v
ge l
c r
k en
ne h
a ct
pol it
i an
D er
ne w
sho uld
as e
re ich
g t
n er
ü ck
P res
v ie
ne t
S p
F or
K on
un der
un ser
f ul
l l
wh o
at er
e v
te il
gr am
c ent
ut ion
s ol
no ch
äs ident
ier ung
st and
m ü
be t
s oll
C o
I h
et z
dies er
k on
T e
ber e
E s
kt ion
coun tr
t ro
ah l
de d
m ust
d s
2 0
D ies
c es
.. .
me hr
K ommission
da y
da ß
ge b
el y
k l
ing s
form ation
of f
In ter
o ver
t y
the y
ge m
it ies
st a
ab er
sch en
u al
ser v
y ear
f l
imm er
li ke
tim e
g re
s ein
on ly
wur de
ment s
for e
c ur
an z
o s
su p
Pres ident
ß en
ut z
Pr äsident
ge t
M a
Au f
w ick
U m
h n
ge gen
k s
le ich
g lie
ab out
M ar
w enn
1 0
e f
n ah
Re g
ol le
s ystem
pr es
Z e
a ck
ct s
ol og
k ommen
al t
as sen
il d
f o
ges ch
f ir
st at
ib le
z w
b ie
c ed
po s
ta in
n is
se hr
io us
c il
s ome
) .
vel op
mü ssen
F ra
ne ed
neh men
c y
w s
m s
l ament
fü hr
con s
b is
g u
Mit glie
ers on
at ive
or s
ie d
ver s
d ire
k ing
de t
th ese
li ament
it ät
au se
on der
ü tz
s a
Par lament
am men
w en
l d
ke t
m at
su ch
B es
ter n
b est
M ember
ul ar
M en
im port
ust r
p h
ein es
ib t
l ung
se tz
us ammen
at z
d if
st it
mo st
weit er
dies em
de velop
ig er
in t
ro om
ig keit
d am
op le
m y
w ell
i der
il ity
ig t
ur es
N e
k te
man y
v o
if ic
re port
ent r
su b
po sit
ih re
on s
lo w
er g
Europä ischen
än d
m al
hal ten
und en
g est
in to
S o
th o
iv en
sch e
Par liament
w ere
c le
v iel
ate g
l ä
w icht
the m
op er
com e
l es
ct ive
l ic
i ent
b as
ge ben
re l
at ing
v is
pe ople
m on
am en
u ß
O r
I m
w el
i hr
wh at
p f
is m
ho tel
J ahr
d ition
ze it
j ust
p ub
ne u
ic es
i den
h el
g l
ar beit
b al
C h
) ,
M e
str u
A s
mö chte
p en
Ze it
b re
inter national
c ause
m ach
p or
in v
lo c
con om
is ten
te chn
h ier
Ü ber
th an
h ol
Mitglie d
h igh
em ent
St ates
at s
T r
in cl
ein g
a il
or der
an sp
le d
G er
x t
Co un
fir st
it te
s on
de c
urop ä
wh en
N ach
o ch
countr ies
or y
h is
er t
v om
l er
g leich
al e
Fr au
f ä
qu al
ro ug
stell en
C on
U S
part ic
ie den
o c
re ad
s icht
Ber icht
r u
S tr
e le
st er
pro gram
Men schen
le gen
Coun cil
pol ic
p a
all en
w end
ess en
L and
o wn
con t
so wie
e uropä
e conom
po ss
r icht
wh ere
g ibt
b u
H e
sup port
ag ain
g ar
zw ischen
en z
etz t
ge w
of t
C omm
h ere
än der
F re
ma ke
st ütz
import ant
z we
dies es
in n
de ut
pr ess
ag re
we en
er v
c our
en ce
v ent
ar ge
t schaft
bes onder
h ör
hal b
P ol
be d
lie ß
g h
th ing
bet ween
igh ts
fa ct
ta ke
qu est
for t
ist r
b in
se t
ma in
hal t
iv es
pro pos
mö glich
Ent wick
iss en
Z u
o h
w are
be cause
Mitglied sta
c i
ur al
ar r
ig ung
wor ld
pro ble
f ra
je ct
se e
for der
F l
B ere
is ter
in formation
19 9
b st
it al
N o
em p
l ine
ic t
m uss
Pro du
Ar t
n at
t wo
ä ch
z ial
or gan
te m
o us
c ted
ß er
M in
z ie
en g
go od
el s
ma de
uns ere
s ame
k eine
B r
tra g
w ür
k o
w a
ion en
b l
E x
ver sch
Ih re
u ation
s c
au t
r ight
l ang
fin den
F in
h ad
Ih nen
ev en
h ä
e very
d it
Ar beit
v oll
Gr und
year s
Mitgliedsta aten
ö ff
th roug
is su
ion al
I f
re al
ander en
a kt
ur ing
am il
j ed
Europ a
ur n
i um
br ing
res p
y s
b us
ß e
n um
r at
b eing
th en
de l
un kt
t ing
m ed
in k
M on
Z usammen
ich er
tho se
1 5
ce pt
isch er
K r
la g
P l
T o
j o
r est
b ess
pub lic
cle ar
vie w
sich er
l ess
p s
le tz
R at
Pro ble
st änd
we ise
ke iten
S ta
we ver
mit tel
ch ä
p erson
ma y
B o
g ra
sch ließ
pr om
c er
un ity
polic y
W enn
f all
at t
br auch
ch ten
v ir
ä m
R o
wä hr
gem ein
d ann
it ed
is en
Vor sch
w elt
lo s
um an
sp re
mar ket
k now
um ent
H aus
gen er
z ahl
is ation
ö s
ef fe
v en
sit e
f ind
st ar
Th ere
be lie
ze ich
O n
Bere ich
nah men
D es
la st
pla y
we il
su re
ach t
pres ent
wie der
pla ce
dif fer
l im
ste hen
partic ular
it ik
G ro
fa hren
1 2
dies en
er r
of fen
dam it
G en
bes te
la ge
wo hl
n ung
af ter
pro cess
ver n
us ed
i or
W elt
wur den
in nen
d i
f ach
3 0
J a
be l
P o
ter s
f un
re i
v al
ho w
a ur
ou gh
poss ible
el le
K o
sp r
in ess
au m
ad t
a de
con c
1 8
a ir
s ay
re qu
H and
c or
W o
ent lich
Y ou
I hr
de b
are a
Dies e
qu e
ge hen
ch ts
än dern
tr ä
ra g
an ts
k r
stit ution
reich en
all er
be g
unser er
s ur
r ent
tr ans
ha be
comp le
s m
f ar
G em
l en
tro l
econom ic
w ort
F e
wir tschaft
ein z
a ce
r if
i x
W as
throug h
it t
son dern
B ar
wer t
00 0
po int
s im
l au
B ür
f est
an gen
al th
u er
o w
s eine
g a
5 0
pro te
wir k
jed och
p ut
k le
ell en
in ce
Europä ische
ex per
v ar
ur o
in cre
te gr
ol d
ind ustr
p ly
h uman
fa hr
B et
conc ern
el n
gre at
er st
aus ge
h ist
fü hren
In formation
ten s
M o
ac cess
ges tel
A t
S ystem
pl ic
S icher
it i
ch ange
z iel
lo bal
cont in
ne ue
pr of
A m
h ö
gr und
ard s
la gen
co uld
k er
polit ical
tr ansp
he ute
Pro gram
a ges
at a
hel p
prov ide
w ant
of fer
In d
M an
l assen
num ber
Unter nehmen
b ack
le vel
P re
Ä n
f und
develop ment
is p
Te il
c ap
R es
u de
We b
ap pro
do es
r ights
l ish
with in
p ra
read y
g ung
ra ft
k om
ier te
s atz
te xt
lo ok
ß nahmen
ex am
it z
av ail
Än der
oh ne
gan z
lo y
op en
ä hr
bere its
s k
Al l
s ign
ab ility
sel bst
m uch
t al
R icht
ihr er
again st
bo th
m ich
ic s
zu g
go vern
wicht ig
f le
it ä
countr y
b ur
fre e
re e
pe ct
l arge
a th
do wn
there fore
W er
ic ult
W ie
ut ions
Gem ein
Entwick lung
neu en
europä ischen
est s
führ t
v ed
soll te
k un
Le ben
c lo
ier ten
vir on
un t
M ö
ust om
gro up
Ja hren
to o
at or
ul ation
D aten
E R
f ur
ein fach
fin an
pr iv
st ill
hl en
e igen
re t
ander e
den en
oft ware
oper ation
lie gt
P art
l ong
el d
I s
un e
zwe i
posit ion
f il
K om
1 1
ä tz
gr ö
ke hr
r en
g ent
age ment
ü h
c ord
differ ent
qual ity
with out
ke y
itte e
S te
sch n
so cial
spe c
ct or
cons ider
Fra ge
me as
as k
viron ment
in ner
u x
se it
serv ices
ct ions
w oll
imm t
in st
i ver
h op
l if
versch ieden
soll ten
se hen
h än
mach en
serv ice
bie tet
Bür ger
e p
u f
C hin
t i
P erson
schaf ts
D a
W or
nah me
k omm
c ar
po wer
way s
ze ug
lich er
unter stütz
fa st
is ion
i ze
c it
b il
ist s
ar be
avail able
k es
Mit tel
des ign
f ut
w es
gen d
B ed
k ten
iv id
le t
at ur
St and
al ten
p ass
in c
im e
requ ire
ich te
n ess
ge ht
m ember
room s
T re
m et
n or
a z
bus iness
m ir
t ion
is ed
Inter net
f ern
spre chen
D em
besonder e
e ben
ib ility
stat t
v es
cer tain
E N
th or
b t
ll en
l uss
cour se
vie le
isp iel
fin det
cur rent
1 6
bes ch
da zu
am er
c ustom
g ut
K ommiss
ien ce
u ten
ff ic
al en
be fore
u ck
b au
ch an
ent er
om en
al ready
Ar be
belie ve
Mö glich
fut ure
ien st
i ß
v an
stell ung
ar ch
k ur
kt ur
on d
s einer
re d
bess er
L a
str ateg
spe cial
gestel lt
M ed
den n
re as
Z iel
af f
v ing
T ra
g lobal
n am
B ut
c ing
h ar
emp loy
re cht
techn olog
to day
Th at
resp ons
] ]
1 4
id es
kön n
dar auf
C om
ent wick
produ cts
c ase
j or
A f
j etzt
ah men
[ [
th ink
ism us
200 9
ra p
m b
on t
en vironment
dis c
be tr
re du
con d
R ahmen
ch ar
sch on
ic ally
d ata
z entr
kl är
ah re
1 7
m or
L age
su c
Ma ßnahmen
S erv
a gen
can not
En erg
d y
in tegr
nis se
rit t
Information en
pl an
c ity
cur ity
s or
n a
K in
bie ten
ö l
Fin anz
am p
fol g
z us
Q u
ch o
fall s
ic a
A mer
im in
ind ivid
1 3
ater ial
I N
war d
fol low
is k
m us
is l
F all
s af
ol ution
un i
ud ing
off ers
act iv
u es
inv est
at ely
z usammen
quest ion
ein ige
c ol
im ple
lo ssen
we b
ank en
ex p
s am
da für
sm all
w issen
iv ing
St adt
le ist
Z immer
fa ir
ges am
B l
sit uation
ok rat
bere it
An d
f amil
c ell
an te
me et
R uss
Commission er
Herr n
leg al
S pe
it er
E uro
il t
as se
en erg
c as
ful ly
ne cess
Aus sch
dire ct
P al
la w
r ie
no v
lie gen
en th
c a
sp ra
E m
gr ess
issu e
n un
d uring
zur ück
cit iz
if f
p ay
war en
ä ß
h of
u ally
b ind
finan cial
i hren
N or
An ge
in en
he iten
alle m
e qu
b s
J ahre
setz ung
sa id
ah n
kun ft
co st
be gr
mo dern
to p
b ro
A d
s ide
reg ard
ach ie
proble m
sh ip
r on
o und
deb ate
au to
me ans
incl uding
A N
Ver ein
il y
m eine
exam ple
w ach
au pt
Kommiss ar
propos al
2 5
ma jor
fol gen
ap plic
stell t
F ür
Re chts
Arbe its
ck en
ste ht
coun t
wor den
he its
w al
n ie
e as
c ult
s ince
B est
o ws
woll en
p unkt
U r
Pol itik
st ay
et t
E ine
S u
ud get
O ur
ill ion
ver fü
c all
wür de
f te
ie le
2 4
Ho wever
iz ed
st re
a ction
us ing
ab il
W ith
unser en
bas ed
sa gen
ant wort
L in
stru ct
ut es
ation en
au thor
ta ken
or en
bu ild
k ün
p p
be wer
e ach
comp et
ktion en
ad op
is ierung
y ing
to ur
de p
all ow
v i
imm ung
leg t
E S
sp iel
le ben
I T
Pro je
Comm ittee
bring en
F ir
c olle
K olle
A T
währ end
so zial
sch ein
Parlament s
con trol
st är
L änder
t es
comm on
am end
th ree
ich ter
p age
S er
hist or
hä lt
et was
Te chn
t un
f fen
E C
con ta
Re cht
ir d
L ös
ent ial
tr ib
g ive
De ut
ab lish
ord in
aur ant
ne xt
do ch
Vorsch lag
are as
en sure
d ra
meas ures
U N
suc cess
Un d
spec ific
I S
re ce
l ungs
er sten
er halten
li k
Ges chä
ord nung
M ill
ar en
comp any
fe w
Z we
energ y
sch rif
co ver
in ing
B ild
s y
lo g
lin ie
res ult
j a
un de
sche id
in es
b ank
agre ement
gan gen
Unter stütz
20 10
p op
th ank
arbe iten
l ungen
disc uss
est ablish
wh ile
D urch
bo ok
as ed
ins besondere
ür lich
f ts
fur ther
necess ary
R est
setz en
Q ual
citiz ens
ear ch
It al
lif e
d ig
schaf ten
Chin a
dit ions
h men
Be i
S an
p at
g ang
m il
k auf
ge hör
gro w
Sp iel
ad dition
at ic
ig in
hal f
ch er
au ßer
Mar kt
ein mal
ie t
Änder ungs
vent ion
comm un
Ver fü
g lichen
w ish
200 8
t on
ges etzt
Gro up
ach e
l ing
f iel
w rit
w he
M ein
um f
s ing
p ack
le ad
se curity
il fe
inc ip
ut zen
u c
ich ten
l ight
bo t
alle d
For m
letz ten
be im
grö ß
proble ms
b it
be de
sh all
Unterstütz ung
n ing
ver wen
op port
tra gen
N amen
ul es
F ol
D ar
m iss
S it
la y
Ges ch
d id
an e
leg isl
in a
j en
z o
st art
kt iv
1 00
Zusammen arbeit
w alt
de fin
pra ct
B el
vo te
he alth
b udget
g iven
gen ommen
ex t
T ag
um en
in form
ci ally
D ienst
z ess
d rei
ag t
pr incip
se qu
C O
L ändern
k m
es se
M ad
ge d
por te
op p
K unden
em ents
tra dition
b at
dr ess
hop e
ent lichen
is es
inv ol
ell schaft
G u
St ra
ig ten
f lo
Sicher heit
system s
M al
le icht
M us
g n
Um welt
re le
sp l
comple te
Fl ug
war ds
B en
d ing
wh y
so ur
Or gan
ho wever
reg ion
sel f
loc ated
program m
ze pt
Proble m
ie ty
mar kt
z ü
re fer
C l
ein ge
beste ht
w ater
O b
co operation
tre ten
ör der
is ing
ro ss
con ne
w w
st ra
H in
an al
p ur
ge ther
V ol
s um
der en
st im
G ar
prote ction
as ch
führ ung
imple ment
ful l
lich t
ier ungs
iv ely
ö t
comp an
K l
if ied
u ge
B us
str eng
A R
il dr
S ol
itä ten
R om
c are
al ways
S tel
jo y
Reg ierung
gl au
need s
work ing
I I
g aben
vie ws
ap pe
le men
The y
Fra gen
K ar
w är
fr ien
I r
st ate
s einen
Ho use
govern ment
re ach
wend ung
Be it
m ult
be kann
e ig
Un ited
bere ich
ildr en
zie h
u ter
produ ction
a der
st ud
re chte
Au to
wel che
bet ter
d om
cent r
inter est
el f
Serv ice
dif f
hän g
hand elt
Energ ie
n al
po in
Se ite
transp ort
wä re
Kolle gen
Comm unity
US A
ko sten
ät ze
n on
h ang
ck s
bre ak
da bei
4 0
iv il
vis it
in iti
c rit
se cond
Bes ch
sp ol
h y
w ide
Ver trag
gen au
P ort
ch es
fo und
er k
cons um
ar ound
200 7
N ot
dr uck
res pect
lo ad
ial og
as h
F amil
W hat
e k
C hr
ur y
ma king
is te
Fra ktion
gro ßen
bl ick
to gether
m uß
h im
h ip
ze igt
gro ße
o th
Gen er
pr ü
fe ct
program me
Be deut
ga be
ing ungen
ac cept
polit ischen
ter m
d ist
Kin der
ra d
Ger man
se ver
Program m
r än
200 0
chä ft
ro w
l ad
ho to
bur g
A S
re cent
d ate
Mr s
porte ur
Ent scheid
Re gel
de al
ter ms
ver b
E ben
Verfü gung
' '
ichter stat
sch w
W hen
Inter national
A ir
sh ort
tra de
prof ess
cl us
H ier
ta x
Bedeut ung
Er geb
u ft
c arr
T ur
wirk lich
um s
cent re
ne ar
ig es
c al
whe ther
ex ist
be come
particular ly
pro per
Leben s
go ing
pro je
ac count
ke ts
Th ese
ass ung
y o
man agement
de ta
um ents
loc al
je der
ex tre
Sch utz
ent en
Möglich keit
ik an
m aterial
6 0
fä h
l auf
S k
A ber
F o
bas is
o se
p ers
diff icult
incl u
an other
L i
Sta aten
c el
- ,
ro le
b ild
la ck
en de
ch ildren
ent ion
P er
schließ lich
Z ug
res earch
to wn
ar s
w and
person al
komm t
F un
be ach
rap porteur
Au ch
m ut
issu es
ex press
gu ar
an c
all es
not wend
best imm
L ie
con ditions
Be ispiel
o cr
trä ge
reas on
8 0
i ben
re co
ult ur
x im
Z ahl
v ious
con trib
per io
ty p
or g
Al s
An t
hal ts
Ne w
her vor
ge f
ie f
who le
b on
st o
n äch
dep end
spe ak
we gen
fer t
öl ker
k re
lich keit
f ig
da von
n ers
L o
in stit
The ma
ent fern
sho w
K re
ta g
EU R
Str ateg
or igin
po st
fa cil
we isen
ie g
sch ied
c ut
equ ip
se ctor
at y
ad dress
Frau en
dar über
es pe
su chen
gegen über
schn ell
er forder
H aupt
W ett
we g
k ein
a im
se le
" ,
l le
" .
Z entr
Ber ichterstat
F ort
da her
f on
Proble me
G ä
clo se
t schafts
an ges
com ing
sch utz
W ahl
en zen
We g
gro und
Ge gen
ig keiten
2 3
J e
dec ision
eigen en
cord ing
Ind ustr
compan ies
w omen
au er
mon th
am m
wor d
V iel
var ious
We ise
T our
g ere
l ist
ge ord
comm it
exper ience
ateg or
F ahr
dar f
fe at
sp ort
k äm
ben ef
re form
ig r
c alled
fre i
industr y
so wohl
do c
h il
v our
sel ves
D E
guar ante
b an
in o
fa ce
Se iten
weit ere
m einer
isch es
I C
Art ik
b ig
com es
Ihr er
En de
be findet
th ough
ik a
er reichen
Ver s
zie hen
gre if
th ird
d istr
polit ik
s he
Produ kt
espe cially
könn te
in nov
Deut sch
e hen
pr ior
hat te
i ar
Aussch uss
one y
nat ürlich
S oftware
mat ter
W ar
ra cht
d essen
loc ation
fo od
ne ten
C ar
re ally
t t
k no
st aff
he ad
Zu kunft
w ind
p ed
Al le
kl ar
For sch
besonder s
A L
id ay
i ate
go ti
Ch ar
land s
n ame
S y
Me hr
d ings
h ard
kt or
ab ly
us er
te le
con tra
effe ct
E l
r y
Gr up
priv ate
so c
and s
ho ch
unterstütz en
cell ent
F est
cr ip
d one
im prov
ih nen
200 6
Richt linie
S w
ro ad
com fort
verschieden en
cre ate
iz ation
pro ject
D en
lin es
O N
P e
po se
auto mat
mo t
d ou
il s
produ ct
Min ister
r ä
en ces
pro ced
r un
ü ss
inst all
ab häng
K ol
t urn
Com p
Sit uation
ge geben
v est
ä d
inner halb
z ip
or n
commun ic
gen ann
ne goti
en den
gesch lossen
is ions
W ähr
j ob
k ind
entfern t
A fr
re present
D o
Wett bewer
viel en
D ire
d ort
iv al
tel l
at iven
de f
reg ul
ho use
h ome
ge führt
T V
sche iden
et y
cl ass
en joy
R olle
lang u
Ger many
fa vour
tro du
min istr
appro ach
t est
G o
spol itik
Gr ün
iv ed
z war
ith er
s amen
in str
a id
ich tet
ev ent
enn t
sing le
m illion
am ong
Geschä fts
gener al
ame work
i vers
un ge
ä uß
ab o
c ke
international en
at iv
st immung
employ ment
W ind
b lo
B u
some thing
dire kt
T a
ol s
ffic ient
under stand
its elf
our s
de li
a way
fin anz
sever al
F il
v ol
res our
at ten
cr is
N utz
if iz
r ange
mö chten
W es
A p
F ä
et s
Tr ansp
res olution
s oftware
it or
in trodu
K ü
kno wn
Ver brauch
itt le
contin ue
organ is
om ent
vers ion
Techn olog
Par k
A G
fol gt
I hren
ü hr
pe ace
of ten
an zu
ur s
wer k
m äß
d ür
ag o
än de
T O
o v
reg ional
as ing
hl t
ic an
lo t
in stitution
mar k
ex cellent
v il
ad van
Wir tschaft
Was ser
A C
ap p
Hotel s
G re
pro gress
ra el
ta king
Ber lin
spra che
Wor ld
le ast
M y
D r
sub ject
rel ations
t able
R ück
et c
op in
day s
Artik el
er ste
at ives
follow ing
on es
K omm
Fr ank
Wir tschafts
gent lemen
ver l
famil y
ser ious
J an
Part ner
ol f
in de
europä ische
im p
kon n
neh mer
u gen
U hr
ks am
aus sch
an ces
ap art
cris is
2 1
ta ge
zeit ig
partic ip
B au
i ans
h under
individ ual
gr icult
r ules
op tim
Ges und
fiel d
dire ctive
hin aus
pr ice
ün st
N atur
ul ts
ter r
E le
on ce
St ud
f el
on line
Ge bie
Sp ra
A c
af fen
Berichterstat ter
if ft
fra ge
net work
ier e
D is
mil it
m oney
for ward
fer enz
d est
ar ed
ant rag
fe el
In vest
fle x
g ern
einz el
ic le
ier ungen
ment ion
fun ction
schaf fen
ab sol
wel come
F isch
Mein ung
w ahr
T er
er ien
R u
to wards
im ate
K ultur
str ong
lie ßen
so ci
leist ungen
une hmen
Ab geord
ent sprechen
Sp an
2 2
z er
l ittle
b i
th ings
G leich
ing en
v ier
m ann
perio d
we is
us es
beste hen
am o
extre m
po t
gr ün
icht s
h ät
ges ehen
T err
H ilfe
R O
Proje kt
teil ung
unt il
instit utions
z immer
hn t
Zusammen hang
ik en
z a
ies en
J ul
ra gen
sit u
N ational
ele ct
Reg ion
Person en
agre e
if ul
st y
7 0
Lös ung
o te
Un s
lä ge
ific ation
Gä ste
s weise
ide o
bei den
fer ence
unser em
au en
B as
ein ander
technolog y
200 5
be tre
Mad am
ges agt
v ia
ke ep
frien d
ge legt
custom ers
gr at
I P
ra ph
S on
Tre aty
rit te
ro und
Ent schließ
S ü
at tra
tem ber
as st
zo gen
re icht
is se
incre ase
K lim
grow th
um e
mach t
pre par
polit ische
Präsident in
le it
e ver
a ve
mo sp
Ver antwort
stand ards
s w
iden ce
Pre is
j ähr
gro ß
opport unity
reich e
ra ther
Sch luss
Se p
b zw
B ank
is on
Dies es
St re
ff iz
Produ kte
le ar
qu ite
bar en
an st
activ ities
an im
Gemein schaft
val ue
iden cy
build ing
Dem okrat
pr ä
P at
s al
h aus
sol id
posit ive
vis ion
bo dy
p hoto
begr ü
ho st
in dem
C an
wen iger
aut iful
l on
M il
O R
Haus halts
ob je
hal te
ed om
et wa
A P
se em
ru ck
teil en
f our
s at
fr ont
part ners
provide d
st ain
Ko sten
for ce
ag er
Z ust
me an
ide al
con stru
resour ces
dar an
Entwick lungs
stand ard
m ight
öff entlichen
ent ly
D ate
Sch l
Fre i
R ed
pro chen
on a
c ame
w ün
hl er
g ht
c kt
te am
c u
S ou
u ellen
E L
ge währ
St ate
g ilt
be half
e ded
er war
forder ungen
200 4
sh op
s om
A D
Des halb
S al
ha ving
pers ön
B al
Member s
No v
R ates
fr amework
ken nen
k a
er folg
ver t
ück sicht
y et
Af ter
ap an
tro ll
ens ion
So zial
äm lich
po ol
je den
A ustr
schrif t
b itte
fra gen
mo del
id ing
Str u
r aum
Sep tember
m ind
incl ude
ha p
g ute
tre at
n ight
ib il
ver ständ
ament al
cont ent
Sch w
n ämlich
ed uc
sign ific
öff entlich
ide d
gem acht
u tet
k ung
member s
Ver fahren
f ang
le ft
ent scheiden
O ne
f ten
fä hr
re chts
bind ung
sch l
lau b
ma il
st ation
re quest
In iti
su per
man u
Er fahr
alt ung
le isten
Pr iv
an a
lad ies
k ar
so gar
Europ as
Mill ionen
st adt
fo c
P a
b order
sicht lich
st ück
al ong
äch lich
tim es
legen heit
ger ade
l at
Ge b
sol ution
w ahl
propos als
we ek
ro p
S el
Is rael
amend ments
r ic
v ölker
ick en
auf ge
re comm
wor ds
poin ts
be autiful
Jahr es
Zug ang
m ass
saf ety
19 8
P unkt
ze igen
er en
min utes
re main
g ing
to ber
K ap
vi ol
In stitution
eas y
appro pr
Or t
che ck
im es
T ür
gra ph
200 3
abo ve
r ing
ber al
econom y
er ziel
än ger
cost s
m ess
J o
unter schied
sta at
ra cy
m m
2 7
re gel
ih n
C D
zeich net
du e
ro s
W h
th od
oth ers
Deutsch land
me isten
adop ted
c op
res erv
st ant
C he
mo bil
eben falls
H ol
G eld
Des ign
ob ject
Ver hand
T ats
beg inn
if y
be w
dem okrat
brauch en
ih m
ver kehr
S a
Web site
ein zu
char ac
Uns ere
Dies er
ma kes
conta ct
Eben e
Le ist
En g
Jan u
Pr of
s einem
verb unden
ret urn
ch allen
ent ire
r ate
Be zug
opin ion
z unehmen
d on
ein igen
min ister
a gricult
web site
s end
O S
l ar
mo der
sen s
centr al
En gl
Qual ität
un st
ne ver
Ver kehr
ic ial
lä ss
op t
B uch
arbeit et
S ub
applic ation
he im
Aus sprache
s of
ne te
Re chte
legisl ation
ü t
p ast
dem ocr
T ext
w in
re la
unterstütz t
se a
In str
effe ctive
sit es
ist ic
en ted
b ath
proje cts
Rest aurant
b our
aur ants
he art
la den
mit t
res ults
pro ve
led ge
le is
Chr ist
sch ö
fre edom
prov ides
stim men
lich es
ile d
group s
am es
ad ministr
dar in
N ä
r isk
te ile
J ust
K am
respons ibility
b ahn
kün ft
att ention
con f
er klär
ber g
O ff
polic ies
N icht
M är
concern ed
f ung
pl atz
for man
E ast
Ab stimmung
un ver
st u
der zeit
per fect
le ase
is iert
Re i
200 1
glau be
national en
Organ isation
her r
kom ple
geb ung
struct ure
Me er
to tal
ständ ig
sim ply
bekann t
mö glichen
b are
H ö
ter min
hen s
Ab kommen
dür fen
Fr üh
Ma il
ot ing
in fl
nicht s
age d
be h
yo ung
ste p
for dern
ex tra
g as
c ir
c li
of fe
am a
Jahr hunder
f ish
quest ions
z ä
import ance
Bes chäft
soc iety
ier s
be ispiel
den ken
Ben utz
s se
fir m
en e
Verbrauch er
u th
soll en
if t
d ien
con text
hol iday
lin k
K ur
ish ed
P ra
me thod
Kol leg
environment al
nat ural
ihre m
gre ater
st or
ble iben
un a
M or
fre und
gest immt
tra ining
W ach
k einen
dr ück
vo ted
ad a
en ch
D ank
Gro ß
Ro om
D ok
in ge
ander er
wär t
kur z
strateg y
I D
le i
Ges etz
spe ziel
9 0
incre asing
der s
zus ätz
äch st
gr iff
cult ural
for ts
h es
wen ig
on str
betr ifft
ent liche
ver bess
u en
un kte
De bat
zu stellen
ar ian
break fast
I M
mus ic
l lt
b ung
me chan
le ader
mit ted
princip le
d an
t in
sp ir
P C
akt iv
se i
D am
Sch we
weiter hin
ans wer
ass ist
Strateg ie
ist an
u ell
qu ick
ad d
un ächst
u z
comm od
C or
por ted
utz t
p assen
re f
inter ess
ä ter
af fe
Sicher heits
D isk
Fort sch
look ing
setz t
au d
v ement
in ten
pre c
h nen
cle an
b all
weit e
gesch lagen
manu fact
bo ard
require d
B il
M ay
dem and
se its
u elle
n u
wirtschaft lichen
ver fahren
respons ible
A pr
S itz
m als
B em
chan ges
J u
deut lich
trol le
stru ktur
Ges ellschaft
sp an
sch wer
200 2
pa ges
cap ital
S port
Wind ows
Sch ul
Änderungs an
h ib
F und
signific ant
Wo hn
e hr
bes ten
oc racy
cent ury
a den
re mo
G over
Klim a
saf e
use um
pos ed
su g
wicht ige
sh are
gest at
at ors
bede utet
in ed
tr y
meet ing
ä l
clear ly
ze hn
ich en
St at
mo un
J apan
terr or
l ange
ben öt
sol che
des halb
G l
techn ical
W el
Bet rie
author ities
ess ential
halt ung
n utzen
Be zieh
ver ein
V on
B y
contin u
it es
Nov ember
m oment
rela x
c ast
distr ib
sch o
bo ten
O p
h ab
st um
grat ul
gr up
auf grund
g liche
pf ung
Fo to
au p
su stain
Gener al
at al
w an
fair s
teil t
W ill
l ab
b ra
u cht
R E
ult ure
T ro
sp ace
ac cording
geb racht
st op
achie ve
wür den
c la
zü glich
lo ss
act ive
Fir st
gehör t
fund amental
al ter
ac y
cr imin
inter nal
nat ure
2 6
äs ent
F örder
In sel
Mit arbeit
Te le
F ar
fun ktion
Menschen rechte
sch re
Be völker
l ive
pf licht
Industr ie
N etz
Herr en
5 00
in zip
itä ts
A M
B re
Pro zess
fe hl
direct ly
month s
hör den
Demokrat ie
lon ger
Mus ik
facil ities
Richt ung
Apr il
fr ist
es en
sol utions
hist ory
Au ßen
er ous
z el
näch sten
W ert
current ly
An sicht
en ough
Um setzung
P ub
propos ed
sch luss
c ure
cor re
S h
F ern
S E
neu er
develop ed
l änd
O pt
sub s
rel ated
dra w
rest aurant
ev ents
ab les
ta kt
Ver besser
charac ter
un ch
aus zu
c ivil
Stru ktur
y l
I ra
inter ests
ch arge
gu ests
Ste uer
wer de
ne eded
ou ght
Pl an
it em
Bes uch
require ments
reg ions
f am
pre vent
f ight
Nä he
langu age
on en
forman ce
ag ing
h m
Gover n
greif en
Bo ok
nor mal
2 8
l ö
part ies
An wendung
mb H
t ar
we der
ap er
umen te
aller dings
con dition
organ isation
reco gn
Fr om
sit ion
K unst
an o
P lease
Z iele
ant i
invol ved
v olle
le x
com bin
Par te
ap ply
them selves
enth alten
up on
Bed ingungen
Verantwort ung
mo b
con tain
ges etz
fore ign
T ages
beispiel sweise
üss el
fü n
I de
lie d
reg ulation
ty pe
iel len
hof fe
ch ter
in er
dem ocracy
Ver tr
B rit
compet ition
richt ung
Te am
comfort able
D ah
implement ation
se par
wirk ungen
c ard
ß t
cept ion
Russ ia
hap pen
A spe
cent er
am t
notwend ig
mar kets
M ot
Em p
gemein samen
Par is
pres ented
extrem ely
t ä
ä u
compet it
b ad
h on
K rit
Vers ion
an ten
ste ad
v a
je weil
c am
schein t
ple ase
hin der
at ch
e th
ef forts
Sel bst
par k
n immt
hel d
G mbH
cas es
Vorsch läge
sozial en
ä lt
Wie der
ac c
A ug
et zen
c aus
viel leicht
be tra
Gebie t
al tern
kle inen
m essen
Grund lage
lin ien
Er weiter
Er folg
verwen det
gemein sam
Inter esse
D u
ll ig
Rei he
ww w
far m
ph one
A ktiv
friend ly
Ein satz
so on
unter nehmen
ma xim
K ön
Tr ans
br it
stand en
Sou th
ber ücksicht
ch em
ke i
il la
Fr ieden
Gesch ichte
w ider
democr atic
cl ar
er fü
pe ten
forder t
work s
Ver f
h or
f ile
be vor
W ort
l ig
th us
de ll
es ted
ist ischen
min im
Ihre m
Re al
k or
er möglich
de v
m el
Fr ance
N ord
har mon
199 9
R ad
C our
r up
recomm end
sit z
appropr iate
er reicht
is her
- -
m and
D amen
R aum
cla im
res pe
Möglich keiten
Dah er
M E
e ither
act ions
Au ßer
a x
M ore
K ir
C H
ire d
pre vious
St ar
so und
hö ch
Z us
e y
ind ic
W est
at ory
on y
gel ten
negoti ations
situ ated
and id
tr ue
Institution en
W issen
pr ise
Off ice
fin al
su cht
In tegr
cre ated
3 5
m id
mer ksam
Debat te
N ie
K le
main tain
y p
Ö ff
ig ungs
un ded
gleich en
Pl atz
ct ors
schw ier
as es
ne g
Un ser
Er klär
2 9
Fun ktion
st ates
every thing
entwick elt
k am
develop ing
Ver walt
lo se
l ater
all gem
Entscheid ung
Amer ican
D ruck
se en
comm er
ib r
Ar ch
d anken
Fr ench
p ict
imm ed
dis k
In st
vor sch
ex ten
be finden
ho ut
es ten
in ation
d ialog
fam ous
c los
iten s
uni que
pr im
arbeit ung
mo dif
dem onstr
umf assen
mon itor
K a
educ ation
U p
er wä
addition al
ach en
A part
an no
l iving
fund s
av o
we iß
verschieden e
C as
im prove
pr ices
Pres idency
Ho w
lin ks
Re chn
Bl ick
könn ten
Hin blick
anal ys
par ts
ru h
cl imate
al most
In form
H ar
Mitglie der
ac commod
ha pp
tra vel
ach ten
L is
un ik
vor geschlagen
Dienst leistungen
r i
spr äsident
h inter
r ich
design ed
at ure
inclu ded
ing t
v ic
L E
Min uten
neh m
Ho ch
welt weit
ex pect
4 5
ide a
ab ge
gemein same
h ung
doc ument
bild ung
resp on
act ually
Disk uss
K raft
d re
e uro
hol d
verfü gt
ges ellschaft
Her aus
he iß
hin zu
p an
t ats
re ib
ermöglich t
L uft
Früh stück
miss ion
hat ten
Aus wirkungen
ha ps
know ledge
b a
Änderungs antrag
f ör
Reg ionen
rie ben
en cour
depend ent
communic ation
if fen
fr ü
f ive
D och
Ver tre
rece ive
ür z
ur en
hel fen
work ers
wal k
in tens
Abgeord neten
jen igen
ch s
B ü
In nen
ear ly
ce ed
M et
eben so
j ud
Land es
iel le
as soci
it ing
Program me
d ict
fort un
c en
initi ative
schrif ten
g ain
Tats ache
kr ä
bis her
c ies
Pro to
prote ct
sch ie
se ite
erforder lich
al er
ent sch
Verhand lungen
lead ing
er hö
f u
is ieren
Famil ien
ta kes
out side
ch sel
Aus druck
spre ch
fün f
Ergeb nis
proced ure
part ner
Port ug
profess ional
bede uten
g ab
H af
k ra
Kolleg innen
ra ce
amer ikan
spiel en
z one
L ond
bu ilt
gesam ten
il ar
H a
ad urch
p al
ver antwort
us ers
it ions
Ein zel
Ho st
ta ck
Sch ritt
Aug ust
19 7
B innen
br u
D an
h end
major ity
sug gest
en able
L iste
ex clus
Forsch ung
feat ures
einzel nen
re fle
dar um
amo unt
N et
m p
origin al
M ob
res ol
Z ur
gen ie
Ir an
sp äter
Nor th
Se it
ition en
den ke
ma g
emp has
ge tr
er he
to ok
sp richt
Zentr um
h ours
z if
grö ßer
aus gestat
lo k
f fer
Grup pe
be f
cr u
l äs
B ahn
sch ön
end ing
ent re
au ber
On line
R is
ce p
V is
v in
do ing
custom er
D ialog
ast er
throug hout
imp act
mittel n
H igh
weiter en
guarante e
tern al
angen ommen
S ter
Ant wort
al d
conne ction
Terr or
F ühr
Außer dem
än den
Z um
l ändern
Änderungsan träge
S T
w under
fol ge
rel ig
cor por
ind est
pr äsent
ac ross
cl ub
med ia
prof it
pub lish
Lond on
part y
c ross
igr ation
th re
Bereich en
Wer k
ne ben
b ian
streng then
wach sen
G ra
tradition al
writ ing
international e
ak zept
t ic
Be g
form s
g ame
mention ed
se arch
rei ben
certain ly
invest ment
käm pfung
We iter
je dem
Sta ats
con sequ
Hand el
r ates
e ffiz
sch le
änder t
i j
ü lt
or f
fäh igkeit
us st
se x
konn te
Bevölker ung
Un ivers
Fisch ere
hät te
d le
per formance
tr an
ar ing
richt ig
P lay
exist ing
gegen wärt
Bezieh ungen
alth ough
ö st
Verein igten
colle ag
g än
M ag
it ten
Hand els
L et
Engl ish
on om
t le
ul l
for men
A ben
programm es
Tur key
par liament
gleich zeitig
leis tet
comple x
pra kt
P E
Ver bindung
gem äß
de te
heiß t
Pro z
an zen
he ut
Ver ordnung
u le
3 00
concern s
co ordin
A kt
crip t
l änder
ien s
wicht igen
co de
Govern ment
F uß
l ux
p ing
s ent
en or
C entr
letz t
Inter essen
f an
ha ft
bar keit
te id
con fl
us h
au sch
a ware
corre ct
m ein
The men
pl ant
im age
ass ess
her aus
cult ure
ze ugen
Amer ica
ig te
k n
trans fer
ck er
ble ibt
concern ing
ne ut
f s
je de
r und
Beit rag
S or
comp uter
iver sit
comm ittee
absol ute
ab on
Förder ung
Auf gabe
comm unity
has e
D V
ar i
Kr ise
Haus halt
dig ital
milit ary
Cour t
Tür kei
Kon trolle
reas ons
establish ed
Ver pflicht
cr i
spe ed
be kommen
am b
hand lung
im ent
är en
agre ements
kle ine
Wettbewer bs
no thing
Stand ard
Kam pf
jo int
complete ly
verständ lich
inter net
R el
dec isions
Re form
w est
trans l
pop ulation
constru ction
un abhäng
ex tens
richt ungen
Fe bru
d iv
inclu des
St abil
P L
Bar cel
arch ite
j ahr
ap prov
aff ung
gar ant
k rit
s ag
ger ichtet
pract ice
De c
ple as
m einen
bas ic
K or
H ome
p et
bo x
war m
it err
ie b
off icial
f allen
f al
na he
en large
ra chten
pa th
if el
ac qu
ber t
3 1
Schluss el
al b
cap ac
amer a
f li
sty le
L ux
ir es
läs st
Se e
unser es
es ter
Ausschuss es
p fen
go t
fil es
cons ult
equip ped
gu est
p on
all ows
cre dit
k raft
ob lig
anz ös
hand eln
bed ingungen
bal d
sen se
no te
ad v
C ol
v ö
es h
E T
job s
Cl ub
cl ick
A gen
C ity
Str and
tro tz
Erweiter ung
pl ann
gangen en
k ulture
sie ht
S ince
in i
kt ive
un ities
jed es
Man agement
cho ice
con clus
integr ation
Th ank
und es
un sch
rele v
fa il
sim ple
Mitarbeit er
val ues
. ,
19 6
object ives
prü fen
wor ten
av a
gesam t
wirtschaft liche
ho he
pack age
ig ent
st age
po or
Fol gen
Entschließ ung
En ter
fl ä
P ass
r ichten
rece ived
Be hörden
dou ble
b and
gu ide
Nutz ung
imm ungen
as pe
An al
c ul
sat is
M S
g al
Lis bon
it ness
men d
regard ing
al te
olog ical
ill s
Re ise
io s
uf ig
Dok ument
D on
B ur
hotel s
w ise
ant ic
j our
G lobal
equip ment
P an
tem por
e fficient
applic ations
spe ct
H am
ge fähr
O L
do or
ge legen
Benutz er
mo ve
ell er
r is
Pr ior
p urch
Vol ks
er sch
industr ial
Frank reich
r om
air port
b uch
Ser ver
Au fen
down load
ie ben
at mosp
O ber
benef it
ter rit
agricult ural
S ome
pop ular
Lös ungen
Au gen
Wo chen
wichtig sten
pot ential
s un
Aufen th
L es
L iss
an er
U kra
Not wend
Dam it
H ere
instr ument
ó n
p ite
Ver anst
Wach stum
pub lik
ger ne
bro ad
F ur
Person al
se as
eng ine
so uth
reg ular
pro b
P la
n ice
treat ment
ha fen
B itte
M ich
obje ctive
r id
Inform ations
pro zess
form er
report s
For der
enn ung
M er
resp ond
St unden
ser ies
w onder
appe ar
S to
mehr ere
för dern
quick ly
lim ited
be low
ver tr
wo bei
g y
F ach
good s
lear n
og raph
wen den
hin sichtlich
Aus wahl
exper ien
su it
ic les
bre it
ver g
be züglich
flo or
No w
cover ed
cre ation
nach halt
stell ungen
be ein
fahr t
n issen
ik o
it el
ör per
fig ur
Verbesser ung
G et
co unter
zahl en
Liss abon
profess ion
Af fairs
st off
Bus iness
gan ze
K ern
prom ise
gan zen
ange messen
fortun ately
ra il
enth ält
sp ac
ger ä
entwick eln
s an
li z
In nov
G ree
m is
fil m
Gesund heit
sk i
success ful
Binnen markt
ö hn
M ic
be teil
er möglichen
D i
ic o
h uge
br igen
foc us
re in
Ge w
genann ten
M acht
ge lt
pla ced
ge eig
Barcel ona
achie ved
conta ins
Centr al
pl ies
sp ar
in ne
seem s
B ro
gar den
inde ed
P S
Kon ferenz
ip l
J une
An fang
reg ister
mob ile
s ix
dy nam
M aterial
ir gend
on nen
recent ly
T age
ster reich
n ation
deli ver
fon ds
opp el
p ie
er lau
Sch affung
z y
im men
op e
end s
er ster
ge wä
sten s
L auf
er weise
A mend
off ice
So cial
F erien
Kr ieg
stell er
Ange bot
dr ing
s ize
f eld
Lie fer
d at
new s
ho ben
level s
S omm
O k
beginn ing
ex change
high ly
h aupt
schließ end
sc ient
Fin ally
M iss
dialog ue
E ur
f urn
Rom an
Ergeb nisse
N at
ster dam
S c
ad ded
s mo
con gratul
pla ces
cre en
o il
I L
L at
Y or
Sü d
Ge legenheit
A ut
iven ess
Ver wendung
B ad
Russ land
Am sterdam
S il
st ances
F R
vor schriften
k oll
gef unden
if e
ask ed
Su per
every one
ex e
tre ffen
verfü g
ex port
k an
v ideo
Dar über
wert ungen
hä re
Sol id
vö llig
govern ments
relev ant
ar m
Initi ative
Arbeit spl
at tem
wo od
C ap
verbess ern
S S
O c
dire ction
bal ance
Wo che
T H
ser ver
ure d
Fe hler
Transp ort
kon kre
av ing
Notwend igkeit
W ell
einz ig
un ion
Lin ux
commer cial
auf zu
Vor aus
An zahl
n ern
Ex per
who se
ü sse
sozial e
grund legen
agre ed
verwen den
incre ased
let ter
U R
the less
G ip
eigen e
M ac
f ix
carr ied
w all
Her zen
t liche
gro ßer
str ess
T or
d ang
gu ten
gehör en
au l
consum ers
ph ys
I V
sup ply
qu ar
high er
kl us
wo hn
offen en
i ally
Ge walt
sho ws
key word
st ic
subs id
princip les
Po st
m em
H inter
er ve
sch ließen
asch inen
Ne u
pre t
E igen
is ted
spe zif
ver stär
verfü gen
S im
Ber g
con du
Zeit punkt
Se cond
amend ment
set ting
ist ische
sicher heit
C al
sour ce
sustain able
pl at
gr enz
imm ing
sim ilar
st ag
ar g
ff et
best ät
Famil ie
g ünst
er o
Fur ther
consider ed
Ju gend
re views
schn itt
d ro
pf lich
poss ibility
disk ut
wor th
M än
wissen schaft
ab or
Gemein schafts
n ä
nu clear
cho ose
per haps
ges prochen
C a
p ain
ve h
größ ten
commit ment
O f
zeug t
l am
star k
T at
ma ßnahmen
mo d
De velop
Ma i
w ent
stat us
m einem
material s
le b
Ma ß
Art icle
G olf
J uni
v olution
it ation
Über ein
cir c
Änder ungen
z unächst
c ategor
ä hn
effe cts
3 2
clos ed
at ast
There fore
rif ten
wä hlen
gesam te
S um
mäß ig
mat ters
thank s
ig lich
m ä
ele kt
vor hand
M useum
sho wn
tr ip
pt ion
A uss
H y
aspe cts
3 6
Nie der
D om
tats ächlich
i ation
st ein
gre en
sor gen
x is
innov ative
Z w
E M
or ient
Reg ierungen
spr uch
Erfahr ung
sch t
W ahr
prom ote
De bian
to ol
fr ieden
Sp ain
roug ht
P f
H T
g ült
fä lt
Vertrag s
e hm
Ko so
prepar ed
A gr
capac ity
O pen
Produ ktion
iterr ane
ob tain
sour cen
aussch uss
schrift lich
Kön ig
su fficient
fre ien
li ance
Ne ben
P h
us ion
ein deut
Beschäft igung
Ein führung
Um gebung
Währ end
lat est
beh ind
lo wer
i que
t ung
deta ils
sum mer
k ü
men ted
Rat spräsident
tra in
opport unities
d raft
u chen
art ige
Po sition
öff net
Kon fli
ver treten
bau en
pr int
Stel lung
press ure
reg istr
ak ter
respon se
L oc
gestel l
Gesund heits
Ital y
Komm unik
ieren den
h ne
sof ort
G ot
th in
Re public
u fen
Kon takt
k it
ex ternal
Comp uter
S am
mb ol
ver stehen
contra ct
de ath
Fil m
prov iding
An wend
de termin
Yor k
hin dern
re view
C re
Da bei
reach ed
or ed
accommod ation
ipl om
r ang
Inst all
DV D
Integr ation
R ot
Le it
Verein bar
äuß erst
k i
atmosp here
eas ily
sp o
199 8
ar ity
ex hib
em pf
W TO
c up
s es
üh m
play ed
bestimm te
dec ided
l ies
de ck
u ted
ho hen
Afr ica
B ul
Mar ket
Part y
redu ce
au lt
System s
stand s
re ma
ne y
S P
con cept
ad ap
op tion
E ing
crit er
produ ced
A B
som it
bes chäft
Wettbewer b
Aktiv itäten
li beral
led iglich
et te
leg ung
Spra che
V al
blo ck
ar ily
gewähr leisten
De z
D el
tal k
trä gt
ver pflich
Hö he
c ou
au st
W ein
s l
fl uss
fe hlen
Brit ish
b ein
ne igh
lo ck
y er
ad o
ist ics
comp re
Med ien
ier ter
ä ude
Con vention
bring t
Ital ien
read ing
se cure
wün schen
erfolg reich
D rit
e es
4 8
ar k
de fen
Mar ch
sub mitted
stand ing
hör en
sprech end
voll en
ob wohl
Ukra ine
g ives
be y
vir t
u it
S up
ibil ities
Dec ember
proper ty
ver suchen
D own
Kommissar in
Flug hafen
Serv ices
anno un
le ct
es te
O per
su ffer
re cord
7 5
ge ts
arr ange
enlarge ment
prior ity
S icht
bestimm ten
T ät
iss ions
con ven
par te
im press
Be kämpfung
rema ins
B ra
ess ion
Kom prom
Al so
fund ing
Pr ä
im ension
Wes tern
Stand punkt
K op
is land
setz ungen
z weite
V ideo
i ately
ein schließlich
Grup pen
ausgestat tet
! !
in fra
Jahrhunder t
to m
S en
Fre e
Sp a
ro at
sup ported
consum er
er ing
l as
le ave
E rachten
he ar
it ure
ic y
D inge
' .
Priv at
b illion
Somm er
m eines
Erachten s
el se
Instr ument
f fe
in dependent
Koso vo
vor liegen
r as
fo ot
ma ß
Au ff
auf genommen
s ätz
avo id
sch ütz
S lo
kr imin
Sta at
ab zu
K ing
pur pose
rest aurants
erhe b
zahl reiche
S ite
wes entlich
produ ce
ze uge
hand el
assist ance
Gr and
mo vement
vor gesehen
Best immungen
ien cy
kon zentr
fr anzös
In de
pres ents
ru le
Book ing
em er
scho ol
N ur
cre ating
ar a
wur f
S uch
H el
infl u
transp aren
en gen
qu are
In stit
Bas is
ing er
iel t
nor th
qu iet
atast rop
Ital ian
accept able
Fortsch ritte
er hält
per form
sur round
poin ted
Dez ember
t ät
.. ..
B on
gere cht
compre hens
Technolog ie
wert ung
gh an
alle in
R en
spr ün
sag te
St ad
industr ie
D I
con cl
i ke
sch ätz
G ast
iterrane an
möglich keiten
ta ins
apart ment
activ ity
leit et
rel ation
Pre ise
itz er
P unkte
w ander
P hil
b rought
L u
oll ar
ke its
brauch t
regul ations
med ium
n ommen
y a
lar gest
außer dem
writ ten
ste ps
Erklär ung
b ase
sit zen
B undes
Janu ary
Stel le
st elle
L ast
V illa
sol chen
s us
re ign
ein heit
Mehr heit
ü st
vor her
ev al
Pr ü
ple ased
ch ild
gel n
et imes
instr uments
d adurch
ä st
Fe der
ex cept
fre qu
zwe iten
T ex
T em
Schwe iz
il en
W ä
categor ies
Oc tober
D et
lo sen
fish ing
a ther
ber ühm
ex pla
o ben
mor gen
pa id
var iety
se ction
if fe
ins gesamt
con ference
s ha
legen heiten
b or
Vorsch riften
un er
ver se
ren ov
mo us
d lich
tho us
in stead
mess age
f isher
ständ igen
Ge fahr
é s
discuss ion
ut ter
einz ige
geb aut
re pe
T est
j ün
S ign
k il
Auf merksam
3 8
relations hip
il legal
be came
ander s
allow ed
olog y
Med iterranean
os op
ategor ien
reg ards
meas ure
C E
E very
d ut
stud y
Vol k
f alt
Mär z
Anal y
U K
ug s
k ürz
st ability
Entscheid ungen
* *
fr esh
ver gangenen
g iving
dist ance
Bil der
Proto koll
ob vious
ad es
ous ly
Verkehr s
interest ing
C ons
An forderungen
Land wirtschaft
Öff entlich
Ok tober
be zogen
r ig
M ult
de ten
for get
Kü che
Frei heit
r ies
legisl ative
M art
ef fort
H ung
gew iesen
vorhand en
kle in
ar enz
A ktion
Un iversit
Fl ü
be wertungen
Me tho
star ted
L og
ür f
Aufmerksam keit
9 8
i as
ab kommen
C enter
P ap
e he
ik er
A gent
To day
Pr inzip
Y our
proced ures
genie ßen
leist ungs
An satz
ver kauf
lö sen
w on
bre chen
Span ish
typ es
ren e
co ast
R ights
Er zeug
res se
son st
“ ,
Proje kte
Jul i
elect ron
c ement
qu es
r um
archite ct
ha ir
pre is
Präsident en
vers ity
opp ing
i ro
er fahren
it ude
Bild ung
ail s
advan tage
hält nis
T al
stat ement
shop s
et ary
G al
pay ment
ac cep
eig entlich
c raft
pr ises
k einer
comp on
Bericht s
h om
G el
St äd
Gr enzen
com promise
" ...
transp ar
agen da
t ask
so le
V o
B io
W ider
ot es
ex act
3 4
St är
we e
po ver
stär ker
dam age
W inter
oc cur
contrib ution
um b
Bel g
C r
prov isions
0 1
lab our
An frage
dr ive
serv ed
ater al
histor ical
Unternehmen s
folgen den
vil lage
Develop ment
Bereich e
b ü
199 7
ap e
Transp arenz
Date i
le ider
Arbeit nehmer
ü b
at o
B ot
au ern
Gäste bewertungen
ser ve
an lage
ennt nis
Stra ßen
gl ück
Solid ar
min or
cons ist
d ise
l ate
E G
viol ence
ffic iency
Jul y
G ed
sport s
pos es
gew öhn
z i
A K
per fe
I st
wir ken
konn ten
erwar ten
D uring
N r
Diskuss ion
la unch
dien en
Room s
Emp fehl
tempor ary
ein gesetzt
Portug al
pl es
spra ch
confl ict
er inn
l ives
I B
de cl
hä ufig
lauf en
Tages ordnung
pre fer
w ine
m ing
our selves
wicht iger
men sch
d ient
doc uments
rit ts
M ann
. )
criter ia
M od
n öt
leg it
de part
Agr ar
oper ating
l änger
ac cord
wen ige
Fl or
Invest itionen
nie dr
Ur laub
N ationen
to ols
de cken
f ine
zie ht
Regel n
gr iffen
Unter such
Auf trag
3 7
ro ll
Re publik
integr ated
reib ung
I F
an ced
s ort
fin ally
distrib ution
Al t
n el
J ava
Janu ar
ge ber
M eine
durch geführt
benef its
St art
... "
Bul gar
le iten
M id
un mittel
be ziehen
con stit
O s
grow ing
l isten
M any
Fir ma
d ienst
spir it
ü cke
v ital
/ /
C entre
happ y
Lin ie
betre ffen
akt uellen
er c
forder ung
St u
if ik
größ te
lim it
ele ments
wes en
kt iven
cop y
Lebens mittel
Univers ity
D A
d ent
Spe zial
produ z
europä ischer
Tra dition
Schw ier
benöt igen
S inne
Af ghan
Mob il
st abil
altern ative
ieren de
ün d
off iz
he ben
con stant
d ank
immed iately
Ira q
high est
hö her
l s
wür dig
ay s
d ates
Grün den
pl us
Enter prise
apart ments
S af
Ver änder
help ful
for ces
transparen cy
Al though
mot or
H ä
get an
or ies
ge hend
ihr es
f ire
Aufenth alt
par king
anges ichts
im at
al ity
go es
V e
kl ass
Gre en
institution al
lich keiten
D F
S he
K oh
Forsch ungs
moun tain
drück lich
n es
h am
H ins
Sch n
s inn
e qual
ann ual
Hins icht
E conom
crip tion
kann st
kon troll
Re de
employ ees
P H
ge worden
or ial
use ful
frien ds
gesch affen
ur sprün
Präsident schaft
bil den
id ge
At mosp
4 00
app lied
9 9
m as
zeich nung
N G
f as
real ity
Öffentlich keit
num erous
en h
Auff assung
re li
was ser
analys is
sto ck
den ce
e her
c ert
M P
ele ctions
w art
da ily
ver öffentlich
te ach
15 0
qu is
challen ges
S ache
F on
A F
for d
pover ty
op ol
b ür
il le
process es
Bem üh
oc cas
person s
zus ch
ü brigen
les en
E reign
Further more
w id
Betrie b
V ir
vo c
wer te
Auf gaben
öff entliche
C ast
solid arity
s ätze
histor ic
per man
th ought
3 3
demokrat ischen
ho t
He ute
oper ations
Ob je
ent sprechend
ge leg
tra ck
Be teil
m ic
er neut
we ak
wor tern
Mo dell
bere cht
Fä h
consequ ences
bath room
br and
offer ing
Bür gern
say ing
leg ation
die jenigen
pa ar
opt ions
schö nen
zeich nen
pract ical
frü her
Pal est
af r
rest r
H uman
begrü ße
bey ond
olog ie
Vertre ter
Fol ge
entsprechen den
verg essen
g nis
her z
Änder ung
Ar mut
leist ung
og le
bew usst
k ap
vic tim
fü hl
ler nen
ex pe
ä re
cur ren
fre ie
S at
we chsel
ade qu
s creen
it zen
w r
pa ign
O st
kann t
Beg inn
tr itt
sel y
Ger icht
Res sourcen
n ungen
ion e
k ungen
ros oft
iz in
human it
beit ragen
b ill
b io
bu ffet
V en
ir a
S m
carr y
un ten
zu führen
ien te
ver standen
Se curity
offer ed
schein lich
sal es
Rest aurants
colleag ues
Nach bar
Austr ia
minim um
z ah
Fä llen
hes ion
Bemüh ungen
sy n
s il
y e
be handelt
Wo hl
kom p
Arch ite
N AT
and en
B ay
ste igen
Ne ws
Schlussel wortern
lang frist
ell ing
wan ted
be halten
Sitz ung
scient ific
Mon aten
modif ied
E ven
ide as
b ir
Be handlung
Pub lic
terror ism
besch rän
publish ed
P et
Bed ürf
ive au
grup pe
D ritt
requ ires
ic ated
Date ien
O T
unter st
t it
us ch
Gr ö
S hop
19 5
Wer te
ver w
ver hindern
ver z
bed ingt
zu frieden
fl ü
sh opping
spe e
) :
organis ations
imple mented
ausge zeich
k ret
wa ste
Stabil ität
W unsch
Mic rosoft
I R
Dire ctive
stre et
span nen
refer ence
be zieh
199 6
mor row
M oder
ze p
mach ine
gemein schaft
berücksicht igt
monitor ing
ze iten
start ing
C y
form ul
wee ks
T agen
er kennen
M c
dou bt
ne tz
hät ten
e fficiency
dom in
{ {
ste uer
Geb äude
lo st
mean ing
partners hip
Spiel er
Tele fon
t te
est ic
to morrow
er folgt
d auer
congratul ate
f ill
be ant
Ko ordin
In halt
cli ents
change d
maxim um
cru cial
Sch ließ
ander em
dis crimin
redu ction
C am
I G
em ail
a be
ien z
Mill iar
o st
min ute
techn ischen
Bürger innen
M ess
rel ating
D ien
we ist
isch em
end lich
im ages
fr ied
9 5
technolog ies
umf ang
Nat ürlich
gew esen
A V
Nach t
lang t
Jo hn
te x
M and
pur su
pre ci
ad vert
Atmosp häre
D oppel
al ität
restr ict
som etimes
f örder
sp a
mor ning
circ um
9 7
richt ige
Air port
ell schaften
G est
ver sucht
O ut
ch air
In s
Amend ment
Min der
form at
Ver gangen
g ames
dec or
us w
C amp
a ver
Al tern
comprehens ive
caus ed
to uch
jo in
Al ler
deut schen
j em
effiz ient
R ats
g ers
Erfahr ungen
c ities
val id
Finanz ierung
ange boten
wür d
Ver teid
L ang
ur ance
Ar ab
H il
de gre
be mü
sele ct
Wh ile
ern s
stehen den
M ass
crit ic
cam paign
gesch rieben
ist a
Dem ocr
pl ans
accord ance
rap id
se chs
m i
moder nen
Produkt ions
ra f
Rechts vorschriften
T y
Pra xis
any thing
K an
le y
Kre dit
Down load
ver läss
' ,
he av
über haupt
al one
voll ständig
tour ist
Span ien
tar get
T ier
war um
sw imming
erklär t
beg in
histor ischen
ma p
ständ ige
erfü llen
men u
fü gen
verantwort lich
prob ably
trä gen
pict ures
A re
los igkeit
play ers
ol a
leg ant
langu ages
Sto ck
ber u
ig ungen
zahl reichen
inter ested
M os
Terror ismus
F el
bo te
hervor ragen
kit chen
s äm
tem per
Go ogle
W aren
Con ference
N a
L assen
D enn
b ul
f it
wel ches
Ber uf
neu es
Th er
Frank fur
jün g
be gan
g ment
com b
d aten
statt ung
S onder
er a
lik ely
access ion
Aspe kte
l angen
ital ien
farm ers
ext ent
Fir men
grup pen
world wide
play er
rele ase
Ber at
I A
il ing
9 6
s ü
spl an
M L
kar te
v oting
i ö
} }
method s
Vergangen heit
var i
vor zu
ch ance
F lex
T ar
St ation
sc ale
D S
challen ge
flä che
Is lam
Ster ne
d ung
iz ing
führ te
Chin ese
An streng
n ungs
Gar ten
hol en
jeweil igen
se ctors
Menschen rechts
con centr
Vertr auen
er y
zum indest
Ad resse
verpflich tet
process ing
Op fer
zah lt
vers or
4 4
erwar tet
V iele
call s
power s
ver m
S oll
oc cup
iz es
Sw iss
en ze
P T
Zwe itens
adop t
schütz en
e ast
st ets
be für
sele ction
l ass
Z ivil
sein es
t p
mö gen
it a
wal king
fiel ds
c andid
just ice
außer halb
te te
p ul
V oll
re isen
Parte ien
business es
Bes onder
” .
Sch ritte
accep ted
wahr scheinlich
I re
c ia
cy cl
ap preci
ad just
h our
fä llt
beg innen
strateg ic
bre ite
des pite
trä cht
Co de
ge kommen
ex erc
ain t
Or d
Berichterstatter in
id s
r aten
sub stant
exper t
des cri
br an
M ün
Bes tel
Ire land
gen u
vil la
Pre m
K auf
r ise
En d
att le
ansp r
d io
bar er
Ange legenheiten
ot ion
persön lichen
Russ ian
sta aten
ab r
D ann
ag ieren
innov ation
at tack
Ange legenheit
In n
3 9
tr ust
influ ence
visit ors
a ktion
ver ab
p un
ra ised
aus schließlich
sich ern
G as
separ ate
gen ug
Kr ank
sor g
erst ör
Da zu
heut igen
Kon zept
P or
l ern
Ver gleich
Ges amt
letz te
tr ying
flex ible
m ill
seas on
en ded
st ieg
z t
we iten
erlau bt
b orn
it ch
invest ig
absolute ly
lo ve
geb ie
reich end
Schwier igkeiten
Heraus forderungen
ein gesch
N un
e legant
oper ate
work ed
amerikan ischen
O M
u ded
Proz ent
and a
% .
posit ions
Li beral
bess ere
O F
Sch la
Stel len
Entschließ ungs
K ünst
fe ed
gen utzt
D istr
res ort
kon om
Ein richtung
expe cted
D re
erinn ern
erk ennung
Solidar ität
Ö sterreich
leader s
ur gent
cre t
kr ise
Aller dings
ver urs
Kap ital
H off
An nahme
Verwalt ung
affe cted
dem ands
vor aus
ele ment
crit ical
Zentr al
ge tragen
In fra
l ier
gesch ütz
manufact ur
Q L
atal og
On ly
nam ely
6 4
k op
t ies
I ON
V ier
S D
border s
best immt
s av
Ein ige
re member
open ing
m ix
B a
Reg ierungs
Fall s
spr ü
T R
hon our
P hoto
over all
inten ded
Ge org
ho od
Second ly
er weiter
be ge
E igent
he ard
priv aten
t ief
reg ime
käm pfen
stre am
More over
Le g
ü hren
Christ ian
nat ür
G old
te uer
Fischere i
n ütz
bit ten
d iplom
t ur
f angen
o ber
Ihr es
Her z
u be
c oll
zus etzen
neg ative
automat isch
la ws
ver me
en se
allgem einen
s le
st imm
S M
A gre
über nehmen
rup tion
your self
represent atives
zu künft
NAT O
bu y
al tet
ab y
M ex
for ced
fä lle
komple x
sho wer
Verf assung
Wissen schaft
tra ffic
sch lag
se iten
ehe mal
run ning
bank s
T un
igh ted
prü ft
u ern
wr ong
moder ne
initi atives
Arbeitspl ätze
Pe ople
rit ten
redu z
le bt
wh ite
Po wer
Afghan istan
5 5
us ually
even ing
Mittel me
is er
Aus gang
express ed
Ze ichen
suit able
199 0
qu em
to s
sim pl
Ger ä
0 8
y ch
Con stitution
gener ation
der e
begr enz
gra f
exp lo
begrü ßen
Milliar den
Kar te
dat ab
Ver kauf
Sch wer
bei de
is ely
dar stellt
commit ted
An trag
Organisation en
entwick el
imm ern
zeich en
coun ts
zu dem
W al
st offe
main ly
Ob wohl
to t
Tro tz
sc ope
Ter min
I ts
Land wir
p aper
sp er
administr ation
B ade
v ac
G od
= =
c ro
Parte i
approv ed
l än
tal king
eth n
sp ann
nah m
E d
ug g
System e
K al
Rom a
Über wach
Sk y
rene w
go al
Er stens
nach ten
ter race
la ger
D ro
be ha
Ver halten
sit ting
Le ute
pleas ant
Gip fel
t arge
E ind
Ein fluss
wa gen
plann ing
eindeut ig
kon stru
in tell
ent gegen
install ation
system e
colle ction
L icht
ch tet
A cht
Verpflicht ungen
curren cy
Aussch uß
er ung
at ers
des tens
struct ural
L AN
d eine
p oll
ch ann
An g
sam m
mitt ler
se ktor
con firm
Res erv
s agt
play ing
bour g
elekt ron
b lack
y al
un ic
ar ies
conf idence
F alle
Agen da
Er d
Co sta
D ub
ly ing
B ud
famil ies
S QL
dring end
val u
H ause
Host els
Sch iff
ü ckt
“ .
ges che
Mot or
H is
co hesion
br ief
Ele kt
j u
W ik
be darf
h und
Im mobil
improv ed
milit är
fre uen
em issions
Gr ie
Krit erien
ke pt
alle y
ht tp
gestell ten
ho sp
Al p
mit ten
fol ger
sen sit
S ing
zentr um
struct ures
he t
Zust immung
P ak
ag raph
lä uft
administr ative
Reg ional
größ ere
stud ents
führ ten
E D
Anstreng ungen
D av
feat ure
St il
entsch ieden
k aum
reform s
ben utzt
exp ens
ich ert
deli very
wh om
mo tion
ce le
ges und
ib ly
comm ents
D ig
Best and
We it
V ölker
increasing ly
dec kt
conclus ion
national e
W affen
av ig
dec ide
C ard
comp ar
attem pt
sch er
An erkennung
Gar ant
E W
circum stances
entwick lung
besch lossen
competit ive
rad io
pro ceed
zusätz liche
ein gehen
redu ced
prote cted
K örper
L iz
Hol z
transpar ent
Schl üssel
alt ungen
ex pl
ro t
Ide e
automat ically
N ations
w atch
um in
199 5
sour ces
V ie
Fun ktionen
vo ice
entr y
Bo ard
ent spricht
cr ime
Vereinbar ung
ab we
un bedingt
sh of
S and
genann t
N utzen
fel low
li o
20 20
Wahl en
electron ic
I dent
cut ive
med ic
k ategorien
D ol
L ad
sch ul
R and
gr an
lie fer
th af
ly mp
Zw ischen
ch urch
prior ities
Gl ück
Lux em
Sal z
getr offen
il er
über zeugt
au ty
IN G
offe e
un employment
Bo den
amp ag
Palest in
selbst verständlich
h le
Wor k
schö ne
vor gelegt
power ful
cli ent
support s
f low
” ,
s ession
is ol
contrib ute
6 5
j ur
infra structure
extens ive
S pr
Se a
cre d
ok er
speak ing
C ze
fo unded
in it
An y
aud io
a str
will ing
say s
W ann
particip ation
0 9
sel ben
ens uring
min destens
mult ip
r ank
4 7
gesch ä
L as
Frieden s
Prof ess
anal y
In halte
introdu ced
akt uelle
aup ts
en gl
Mil it
l ust
glau ben
4 9
Ö l
if en
berücksicht igen
sp art
fun ctions
pl ants
st ät
Produ kten
Durch führung
understand ing
w inter
pen dence
specific ally
Besuch er
D ollar
victim s
O sten
Aus gaben
Se ktor
grün det
encour age
unterschied lichen
As ia
erwä hnt
cele br
mann er
Em pf
u als
art igen
i at
ange geben
hin weisen
iv ity
: //
qu ant
Richt linien
effect ively
Qual itäts
asch ine
z z
ge zeigt
Ind ia
verfüg bar
ger ichte
sp unkt
defin ed
table d
ver e
Frankfur t
entsprechen de
sy mbol
Hinter grund
ifiz ierung
AD S
lemen te
as ks
Inde ed
Stra ße
a ded
stim me
B and
com peten
G B
k unden
p ension
dan ke
am ber
Leist ungs
or es
Ab schluss
St im
Mit teilung
market ing
d ish
ct ing
Konfli kt
A ss
leich ter
as ser
An spruch
agricult ure
her unter
be ds
0 7
ik al
mehr eren
get ting
Spra chen
bür ger
pur poses
ul y
E ach
Infra struktur
de ad
nach dem
uch s
elect ric
0 5
Men sch
Agre ement
gel öst
hoch wert
spe ctive
Währ ung
lie fert
lar ger
con ver
open ed
Bem erk
0 3
D P
man aged
sich ten
col or
res ist
Vor teile
A dr
l ös
st ated
ge halten
hab it
O lymp
s low
Technolog ien
r uss
refer red
anim als
F akt
wonder ful
au th
deta iled
l ant
ore a
Pol icy
bin den
ph il
man age
see k
Innov ation
Komprom iss
at ively
lo b
Sch aden
Ira k
Aben d
II I
aim ed
ar ischen
l isted
Aus bildung
sum mit
mar ks
Pro te
link ed
n y
schre iten
satis f
ien en
pre m
r ural
it ter
global en
M at
M io
e uch
wä lt
Cze ch
k enn
P ack
Re formen
E ffe
m är
c in
re ception
sen den
gu ard
er reich
Home page
ge wicht
re chten
ple ment
set t
L am
a i
h offen
om et
As soci
Verwalt ungs
c amera
Mid dle
N ahr
corpor ate
ra in
pol ice
Grie chen
techn ische
exact ly
ben utzen
ip s
besonder en
Kommunik ation
Ac cording
con stitution
anges prochen
f elt
su ite
Pa ket
an lagen
akzept ieren
adequ ate
sch lä
prov ider
kt oren
r asch
be coming
Febru ary
prec isely
ach tet
ste chn
ong s
assess ment
mit glie
land sc
ator en
geb iet
ris ks
A ust
other wise
mor al
O l
ö m
ch ron
Tur k
ium s
Pat ient
lux ur
re ise
Auf nahme
discuss ed
Stand ards
geeig net
ang s
bestehen den
ar us
Am b
sele cted
sch em
lie be
itzer land
ibil ität
O ther
sicher zustellen
C S
Bre ak
Stat us
ges p
gleich e
T op
fol gend
ein gerichtet
re presents
ur ban
om b
deb t
4 6
bre iten
budget ary
Che ck
nä her
A pp
for est
st änden
Well ness
war ten
W hy
lie ben
A k
h re
w ants
wer ke
ho uses
Ein kauf
pr ison
we ap
Netz werk
T hen
program s
sie he
jen e
develop ments
ange b
introdu ction
führ er
Sw itzerland
discuss ions
we gung
sol d
y n
gen cy
ag no
exp and
co ok
Schließ lich
Cl ick
med ical
Res earch
Su che
erziel t
v it
a el
all oc
ident s
Zu dem
Z unächst
spac ious
F le
am bit
möglich erweise
ta il
ins ide
s and
H altung
Anwend ungen
open ha
enter prises
0 6
met res
fan ta
I ma
kommen den
notwend igen
S ur
thous ands
An pass
is ine
O ver
Apart ments
in al
sp end
Ein richtungen
Ch ance
olog ischen
ück en
act ual
erfü llt
ent al
h ilfe
Er n
Vor bereit
H or
fest gelegt
CO 2
zu letzt
Me ter
il es
K enn
ang ing
conven ient
conne cted
Wettbewerbs fähigkeit
s ized
Mo st
Zwe ifel
ge ändert
prov ision
guide lines
ident ial
exclus ive
ear lier
K enntnis
amen te
build ings
pr äsident
finanz iellen
um gesetzt
st able
Stre et
follow ed
S em
inter pret
verkehr s
reg ret
ander es
R ä
n i
re je
M A
wo gen
pict ure
IS O
c ers
k ennt
p ft
dr am
tour ism
ha ften
den s
ta ges
voll er
clo sely
frei heit
defin it
ide t
Beit ritts
sc en
bereit et
h ner
sa ve
er greifen
s i
Char akter
eng th
L ab
be quem
be ar
c amp
Unter kategorien
C li
ure au
v otes
ass ungs
Mon ate
gra du
Econom ic
in come
pro to
dis cover
network s
if ying
sh ar
discrimin ation
pa ir
ian o
Schla f
urop a
comp ens
support ing
press ion
sa w
Fon ds
N ame
degre e
ome ter
pat i
imm igration
fa cing
G N
M el
A U
ger ing
ä den
pop ul
B anken
p as
Le hr
jeder zeit
brit ann
in ts
pro port
Ar ten
Sch o
Dien ste
Zwe ck
be ll
B an
improv ing
M aschinen
ge mü
verme iden
am s
is ierten
g g
ide os
la p
C C
P R
mer k
spee ch
it ate
Kin dern
dut y
ro l
We ge
Gree ce
comm ent
dar unter
ra hmen
Bet r
hn ung
tele phone
af fect
Viel falt
F en
book ing
own ed
consider able
anim al
ch ines
die d
hand s
P rag
tra v
belie b
rä ge
wel cher
c ore
st ände
proper ly
Pres se
kl icken
verbess ert
Austr al
if fer
nie der
U l
anc en
we ight
J ed
st one
ent it
M B
He alth
Cas ino
schwier ig
Bus h
Stim me
Bü ro
Kom fort
purch ase
ver folgen
statt finden
ic ts
bes itz
ig keits
com bat
Fre m
pres ence
M oment
ac cur
photo graph
sup pl
jeweil s
Got t
Install ation
ha fte
eingesch rän
20 11
Men ge
Be ih
sicher lich
thin king
Grund satz
W ien
dest ro
ga ve
4 2
Mit te
ent weder
Bel arus
Tät igkeit
cre te
di versity
gra de
ko st
typ ical
He il
par agraph
gel angen
il leg
Web seite
dra wn
mechan is
S om
t ut
Mar k
zä hlen
Ris iko
compon ents
For um
isten ce
Febru ar
E P
ro ck
S inn
bes uchen
gew ün
finan cing
Analy se
h ing
Leist ungen
m eld
S cript
teil weise
0 2
B is
cu isine
B lack
p il
comp at
staat lichen
Arbe iten
Br uss
P un
D at
exper ts
con tr
Groß britann
8 00
be hör
str ict
item s
Forder ung
c offee
p hr
erg än
erziel en
p ap
P oker
ange zeigt
Instr umente
ordin ary
d ir
ver trag
s age
ent stehen
Wir k
Beit ritt
spiel t
fisher ies
coordin ation
Verein ten
k ern
Bruss els
er leben
bo dies
Regel ung
re mind
ra y
gener ally
Pak istan
wa it
kl are
Pol and
erhö hen
E st
wo hner
l iter
ch mal
crimin al
Ber ichte
bind ungen
entire ly
Te ile
wander ung
E isen
ma ck
ü nen
sign al
competit iveness
T itel
ar f
aus drücklich
author ity
Bere it
figur ation
über nachten
ref uge
Ab schließend
F i
def ic
Gre at
bo und
uni vers
Initi ativen
aver age
Leist ung
pl ätze
s in
ber icht
ve y
auch er
S ach
co t
funktion iert
pres idency
deal ing
reco gnis
6 00
US S
wär en
S ho
E F
el imin
ru fen
rel ate
Vor gehen
ver ur
av es
Klima wand
h all
M ir
Pl en
deta il
Mitgliedsta at
Or igin
nam es
3 D
difficult ies
EN T
stär ken
dis play
Des k
M ain
Be cause
Gr enz
reason able
du le
En vironment
speziel l
o ts
6 8
gr and
ein iger
im ag
to ld
ang er
zentr al
) ;
ex ter
Abgeord nete
Se hens
inform ed
ma ster
Mad rid
Besch l
üt ze
ar ia
J etzt
richt igen
kom fort
flex ibility
parliament ary
tain ment
woll te
bet onen
leit ung
se ven
sp ot
abil ities
Un der
ap par
nat ur
meet ings
K il
Gr an
c ards
peace ful
er stellt
än ge
mach ines
Be griff
ö konom
z ig
Un abhäng
fix ed
C ur
Ar g
M esse
möglich st
Re zept
hän gt
Kr ä
per cent
Währ ungs
veh icles
Veränder ungen
ver ring
Me chan
se h
Ab satz
W ald
or ge
consider ation
inform ieren
PH P
Immobil ien
kulture llen
ro unded
perman ent
de clar
E ar
W i
m ie
ish ing
Break fast
V ien
hinder t
S amm
communic ations
Ze iten
ad s
gew innen
T i
distr ict
Le ider
Zeit raum
sch reiben
Br an
fl anzen
zu vor
Un fortunately
N um
ol o
krä ft
A ct
E ADS
W all
ame ter
order s
An teil
Eng agement
dar stellen
appe ars
des k
Pro v
mult i
ün ft
number s
prü fung
lok alen
M ü
ge fordert
Auf bau
sign ed
ap plies
Har mon
k ul
de ep
ü gen
War um
nen nen
establish ment
openha gen
An gaben
No te
0 4
Ne ver
B os
o ten
D R
init ial
be comes
krä fte
Über gang
da gegen
Krit ik
qual ität
B ern
R um
est ate
experien ced
id a
m useum
wen igen
Ge bieten
folgen de
gerä um
Ver ständ
dom estic
ad or
ä ger
San ta
cour ses
Son nen
H ard
own ers
pract ices
Viel en
konkre te
On ce
Rats vor
Ver hältnis
F ound
sche ch
n om
wir ks
Med ia
on to
durch aus
Ste in
en nen
ik ing
zentr ale
T ic
se ts
zwe ifel
ash ion
mö gliche
datab ase
mid dle
ta ste
Kir che
öff nen
w om
an ia
op position
kon ferenz
polit ics
A lex
mb ly
ma ßen
advan ced
verl oren
tä glich
Überein kommen
Haus es
el a
book s
Haf en
l ength
h um
him self
kar ten
Lin ks
call ing
de lay
Program ms
aim s
ele gan
et ze
199 4
t ests
Ser b
Rechn ung
t ür
gewähr leistet
se eing
fe der
ge fü
tz en
Priv ate
Her stellung
prom oting
v ents
pro pose
Sup port
mic ro
j et
Tra de
streng th
P DF
as pect
S aint
Prior itäten
be auf
Ge ist
my self
erklär en
transl ation
er folgen
sch we
ap point
t ten
u a
gl ass
Wor te
absol ut
M O
Techn ik
E X
te ten
ge ograph
veröffentlich t
sp lä
Heraus forderung
Ver such
enor mous
fre ue
t lichen
Bahn hof
eas ier
appro xim
Pe ter
ester day
König reich
ear n
fig ure
finanz ielle
K e
kr ieg
be ob
Associ ation
Br üssel
fail ure
Flü cht
unabhäng ig
K atastrop
p unkte
All gem
kun fts
P aul
iel l
anc ient
benöt igt
and o
Jahrhunder ts
sp ie
Reg ul
p hase
is ierte
ab geschlossen
R ein
Universit ät
id o
ack now
defen ce
Her steller
As yl
organ iz
Acht ung
é e
Fest ival
Fre und
Stellung nahme
Kl icken
model s
ge zogen
ut in
er scheint
ö der
gest alten
c m
gel ungen
C olle
associ ated
pro of
b ag
ar ten
k und
King dom
serious ly
Forder ungen
würdig keiten
fäh ig
dang erous
i us
ground s
sat ell
persön lich
continu ed
B ack
v ul
Dig ital
über tragen
R ou
ver tre
any one
gel assen
Terr asse
con crete
art icle
den noch
For men
zä hlt
er stellen
d é
act s
sp ent
G ol
Ge währ
Ein haltung
Afr ika
Mich ael
Kle in
gegen seit
ic ians
ub a
ful fil
Sch engen
Res ort
Kom peten
viel fält
näch ste
konzentr ieren
An ges
]] ,
thre at
B ib
g ig
charge d
st ore
differ ence
stu dies
p hen
neigh bour
Künst ler
humanit arian
t u
Sch ön
bro w
d ur
e it
Den noch
Ein igung
polit ischer
L ive
Kon s
differ ences
Entschließungs antrag
star ke
So und
Ir ish
An lagen
Bar ro
combin ation
Patient en
D orf
inst ance
8 5
Ele ment
gr ant
Tour ismus
Con trol
d lichen
wa iting
dr in
ven ue
implement ing
ere i
Kar ten
Sy n
tele vision
Aspe kt
ö k
reserv ation
De fin
adop tion
Ent sch
e c
ibr ary
architect ure
r al
unterschied liche
hol t
Ham burg
P il
ge gründet
im it
kosten los
mot iv
happen ed
phil osop
wor fen
Tex te
Ide en
W and
rele ased
der er
ps ych
br uch
redu cing
exhib ition
än glich
beach es
stat ements
a head
set tle
produ cers
Gemein samen
attra ctive
Les ung
acht ung
Nach folgend
alle l
cour t
Gu est
car s
H all
con dem
Pr ess
diskut ieren
as y
m ine
bal anced
Verpflicht ung
posit iv
im possible
att ach
end gült
US B
coll abor
con v
ust er
4 3
ind ire
sh ared
rei ber
care fully
gesche hen
kauf en
fre ut
comm and
arr ival
ge leistet
umf asst
First ly
ü ter
betra chtet
ver lassen
Afr ican
D ay
immed iate
ateg ory
avail ability
ed ia
Se hr
bere iten
announ ced
f are
qual it
wir kt
bo ts
F ore
keep ing
recogn ition
agen cies
Stud io
Ru he
tät ig
Just ice
licher weise
Großbritann ien
at ures
lei hen
descri bed
for th
D ata
ü ben
pass ed
S of
ss ystem
um welt
Kon tin
ev idence
fe ar
i ques
lear ning
W ür
Sehens würdigkeiten
Kop f
fact ory
s ale
Eng land
le iden
tr uly
cap able
we tt
Er st
guarante es
ul a
ch anging
k rat
p asst
roug h
TH E
mä cht
government al
tra ding
introdu ce
vern ünft
M un
ex cess
geleg ten
jähr igen
th es
Man ager
Pr ime
genu ine
W ander
de lic
beh aup
ten ance
Sor ge
äl ter
H O
de e
D ue
Tre ffen
mark ed
W icht
Stär kung
4 1
k el
S ar
st ance
but ton
mon etary
erforder lichen
the mat
comp la
qual ifiz
zeug ung
ins urance
med izin
Reg istr
fra g
Partner schaft
W ün
Liz enz
improv ement
fest stellen
verein bar
ad vis
Um fang
nie mand
f assen
ver folgt
adv ance
Pol ize
führen den
is o
garant iert
relig ious
z ert
regional en
register ed
m es
consum ption
erns thaf
B or
f is
mat ch
ehr te
gen et
territ ory
Pol en
F inn
en a
pro p
pre ise
ip p
Barro so
S eine
Viel zahl
phr ase
member ship
L ink
la bel
poss ibilities
har m
st il
über prüfen
au ms
fü ll
un it
He imat
auf merksam
Gleich zeitig
M ik
wish es
Milit är
f and
st ory
mo de
hän gen
F ire
un less
voll kommen
ausge wä
i ßen
mit tag
gew alt
ut ing
hal tet
versor gung
Found ation
ug os
par a
fig ures
defin ition
T ha
European s
Entwick lungen
relax ing
pla ys
Führ ung
gr enzen
Auss icht
re volution
Be ach
fl ug
Dro gen
un acceptable
Teil nehmer
C ustom
near by
b log
su che
Turk ish
ex cl
allow ing
Überwach ung
Nahr ungs
ro ute
no on
hin gewiesen
Kommiss ions
Nutz er
kor re
J our
N ah
in tel
arbe ite
d ated
. ”
sk ills
p ure
Arbeits losigkeit
des ire
2 50
combin ed
um n
P s
We chsel
am ing
be zeichnet
komp liz
1 20
T om
j un
to ler
sp read
sch ung
mit einander
pack ages
O ffen
contin ues
particip ate
Just iz
A no
at ta
wind ow
komple tt
fr uit
iss ionen
M use
V an
comple ted
l aut
inst alled
R ome
me ters
t asks
Ver sch
kr ank
gegenwärt ig
E lemente
dev ices
wir ksam
ear th
Kom ple
Democr ats
Archite ktur
ein setzen
sensit ive
posit e
respe ctive
F er
un fortunately
ie gen
Ver lust
tz entr
sicher ung
claim s
% ,
ra ise
great est
Dis krimin
adap t
französ ischen
Geschä ft
r iver
w inn
emp fehlen
S we
we alth
Ver y
For mat
gegenwärt igen
Ent wurf
bie ter
Proble men
reli able
í a
Tre k
Vien na
writ e
Zust änd
sur face
Deut sche
g ir
con vin
sch rän
strong ly
M utter
ro h
be auty
führ ungen
Rad io
Cl ass
D ut
st ums
ul s
ho se
profit ieren
B ol
Be wertung
demokrat ische
t ie
ur a
Ne ther
einge führt
kn ü
P ers
ann t
ol i
gy pt
ha f
Play er
C op
g olf
ens ions
F a
pie ce
T ime
weiter er
Ir land
ta bel
Je der
Bedürf nisse
sub je
olog ische
ab l
U ser
surround ing
techn ik
entit led
bar r
angen e
ire less
Str om
ge ist
Market ing
H alb
Ratsvor sitz
s ides
á n
appe al
en ables
rel ativ
ele ction
ele cted
n utz
ich e
Spe icher
cy cle
einfach en
k y
me ist
iert es
gut es
ch net
sch ir
dis pos
as yl
attra ctions
Agent ur
s quare
Wh ite
sof ern
econom ies
clo ser
C af
establish ing
Besch reibung
Rechn ungs
g ap
La ke
S et
Verteid igung
t ent
or ing
über all
Mar ken
An ti
mo v
holiday s
ausschuss es
exp end
dan ach
ob serv
con fir
ded icated
z erstör
as il
Geschäfts ordnung
ber uf
beginn t
Ch ancen
speziel le
Griechen land
bar s
Europä er
h aupts
20 13
Regel ungen
An lage
Vor sitzen
betr offen
Anges ichts
ap pointed
P PE
über ein
Go od
plat form
mem ory
andid aten
vorliegen den
ma k
legit im
sp ät
Comp any
us ual
la h
säm tliche
exerc ise
l antic
Re port
sto od
geschütz t
bestät igt
aller y
R a
Prior ität
sc ience
d imension
Feder al
T isch
Fortsch ritt
asyl um
al a
Reg ulation
unterst ütze
fin ance
Alt stadt
Gericht shof
ic kt
T ab
not ice
grenz über
besitz t
K ind
lin ge
individ uals
B udget
ok raten
beteil igt
Lat in
l ights
Po ol
ffiz ienz
East ern
keiner lei
ick ing
z il
condition ing
off ic
inter face
Spe cial
advert ising
zu stimmen
tit le
Opt ion
gew iss
stor age
groß es
Kom bin
N u
offen sichtlich
lab or
Beih il
on ic
er h
per spective
Kur z
an ischen
mo ving
un to
rail way
access ible
16 0
M einer
fl ight
wa hren
ve get
ate ver
comp ared
sp ending
Fore ign
Ind ien
n ia
ch ain
umfassen de
tot ally
Stud ien
ma gn
inter vention
wor tet
citiz en
e ur
lux ury
me ant
CO M
qu er
exten ded
dev ice
Meer es
P RO
ist isch
ör ter
stär k
aus reichend
einfach e
B ill
Austr ian
Ano ther
spe zial
Li ber
Mittel n
S A
wer s
fact or
grund sätz
bet t
Global isierung
S C
W here
in stru
p our
la ke
Mitglie ds
größer en
ben e
Er hö
genann te
am in
convin ced
C roat
fa iled
kl ang
Bl ue
p ä
Wor ten
Beteil igung
her gestellt
au x
high light
Qu est
" )
gran ted
ab ol
är m
mittel s
ie ht
organ ised
ag ue
big gest
Nether lands
er geben
sol cher
H ist
Grö ße
Never theless
ex istence
Mon at
sequ ent
ut il
up date
organ ization
z ö
9 00
la id
au ßen
vis ual
moun tains
eing ere
Mär kte
T on
EC U
Beschäft igungs
zusätz lich
garant ieren
Unter kunft
um p
verbunden en
M indest
Ma ße
Stad tzentr
wett bewer
col our
nöt ig
ra w
ist ik
Städ te
bl ue
bekann ten
F itness
ch st
Instit ute
gr ie
international er
co ol
wes entlichen
control s
Cor por
lo ws
Th ird
Gener ation
conclus ions
it age
or a
Ein kommen
ac a
ige m
ten d
star ken
g ä
fact ors
Ap parte
wen det
R oll
cho sen
ere cht
com pl
s ell
Ur s
express ion
Gree k
att form
weap ons
To des
y r
kt ors
tr ied
re den
ge be
hol ung
bein haltet
pat ent
adv ice
te en
schie de
ge gangen
fis cal
un able
contr ary
il ateral
main tenance
L ou
Re ich
A ktionen
B log
Fr ont
mü s
D ER
art ists
Er de
n ar
dise ase
pro z
the it
re c
da p
Aus land
Foto s
Exper ten
ut t
perfect ly
Daten bank
Z oll
on ial
T od
. -
Palestin ian
fa ces
prom otion
Pal ace
dies el
expens ive
p are
A 5
F ü
Ver letz
Jour nal
N iveau
f än
199 2
Rel ig
Grün de
pay ments
agen cy
as king
sch ed
back ground
geb il
destro y
Bo x
Fl ash
lim its
Kom pon
Met ro
Mart in
commit ments
Far ben
Koh äs
f ashion
Ver brechen
Men ü
F ert
form ed
klus ive
J oh
on ia
Erklär ungen
igr ants
ne ither
äu fer
om as
ambit ious
teil nehmen
Pal äst
Daten schutz
be glück
ver teid
deut sche
right ly
Al ban
candid ate
verab schie
Sch rif
in spe
er b
vorsch lag
ver letz
hl ten
the or
Gr unde
Zahl en
Wieder auf
hand lungen
fin de
se min
au ben
Ex press
Rezept ion
Th us
or am
Re isen
c ategory
ship s
I l
me ister
wün sche
veh icle
honour able
in ary
id ung
a e
Y et
ke hren
w iesen
che ap
Fen ster
vo us
lio the
i ant
stim ul
le un
betra chten
Gegen satz
Hin weis
achie ving
or al
gesund heit
amo un
st immt
le hnt
F ac
mittel t
blo od
Metho de
oblig ations
R oh
be wegen
recht lichen
Ges prä
Energ y
se c
a ktionen
T ER
out come
Flex ibilität
( )
G ut
fr üh
Mitglie dern
ungs verfahren
out standing
Mo del
C P
ern st
( "
success fully
Gebie te
Eind ruck
ic ed
Ereign isse
bal con
nehm ern
G anz
spec ies
kün st
Zu griff
Besch luss
obvious ly
vers ions
speziel len
person en
c at
P op
ben ach
G az
f em
K urs
et ter
est im
Be im
test ing
jour nal
S O
W il
contain ed
continu ing
pres erv
W in
Empfehl ungen
Verständ nis
L T
sens us
Beihil fen
kle iner
furn ished
thre aten
situ ations
h it
ed ge
constant ly
äs ser
sequ ently
N ik
zu folge
Po sit
brit ischen
spol it
dynam ic
F ax
approxim ately
ther ap
tex ts
r ück
phys ical
erhö ht
colleag ue
s n
s auber
dist in
some one
L os
us che
P hase
ge öffnet
N I
R em
ke te
dar aus
optim al
inform iert
M U
e quality
Ad ministr
cont ents
regel n
6 6
an en
De f
end um
Land schaft
eval u
occas ion
sur rounded
tes ten
Nach dem
1 000
Real ität
Bot schaft
tür k
stra ße
Weit ere
J ose
ass ign
Mus lim
Insel n
se con
haupts ächlich
ger ufen
satell ite
S un
p ush
Wir kung
produ ktion
y esterday
Be ob
gu ter
mass ive
Sum mit
Agen cy
im a
the dr
qu id
R am
ges ellschaften
ver anst
sk y
Au dio
air craft
sur v
employ ed
ver ste
K er
man chmal
tro llen
inde pendence
K affe
national er
Sp iele
D imension
sch au
go als
P lä
qual ified
gl ad
Ro yal
as sure
Hoff nung
ab len
Je an
ar ms
jem and
Fra ktionen
gew isse
plann ed
kün d
nam ed
ut s
u el
bring ing
gr iffe
j ungen
ga z
photo s
arg ument
expend iture
bind ing
berühm ten
Loc ated
recommend ations
allgem eine
E ssen
i ón
pre vention
In ner
ges pe
Al liance
fl u
Spra ch
B i
fü hlen
advan tages
ktiv ität
breit ung
kon tin
d au
br idge
Zust and
ict ion
cor respond
Distr ib
V I
u k
con vent
Sch war
Betrie bs
präsent iert
fr aud
cou ple
Frühstück s
ord entlich
put ting
sorg fält
or ien
Bild ungs
Prü fung
Fin an
ein verstanden
kt ions
Politik er
beach ten
Voraus setzungen
ausge wogen
H aut
Vor teil
re ve
Haupt stadt
Män ner
commun ities
ide ale
ange l
Is land
exten d
herz lich
R h
P ic
S V
Unabhäng igkeit
Sch ne
Mar ia
sub mit
mer ely
bes tel
Grund rechte
targe ts
Form ular
brow ser
lä gen
see king
lie b
Sy r
st ations
gesch ieht
Ris iken
Arbeits markt
L ord
V om
fu el
pleas ure
h aber
k örper
aus führ
E B
aus länd
f assung
th ers
cons ists
S quare
s oft
fest gestellt
Gra f
F ind
ans ion
con temporary
intens ive
fa vor
kom bin
stell te
Kon troll
einz igen
last ung
L ö
so bald
T hose
landsc ape
dam als
Gegen teil
persön liche
ich ern
ll er
jüng sten
R ich
Teil en
regel mäßig
war ded
rä ume
int ention
ategor ie
particip ants
substant ial
J er
mal e
Bed arf
hol ders
Bo th
v ak
unter nommen
look s
dispos al
schnell er
sm aller
kur s
registr ation
tr end
sel ten
ent standen
199 3
Minder heiten
Tour isten
Er wart
vorgeschlagen en
W C
guarante ed
sch lagen
Gesetz gebung
vere ign
f ein
comp liance
U T
s ight
mechan ism
so vereign
tr ifft
Gl as
T im
Mittelme er
L ager
erforder t
lead s
P ay
in spir
hosp ital
Eng ine
s light
V ia
Cy pr
R ules
wichtig ste
consist ent
über nommen
Teil nahme
Eben so
Zahl ungs
do g
qu ir
Nieder land
e chte
Liberal isierung
ste el
Aut or
me tho
H äl
he bung
D ach
O ld
spac es
M ak
prakt isch
The ater
determin ed
N L
örder t
w ann
tr uth
fra gt
Mein ungs
Re fer
gewün sch
result ing
Ge h
den k
betr offenen
R und
d isch
ass um
R iver
f if
Pra kt
Swe den
K orea
Stre it
ruh igen
dr än
Ge brauch
strengthen ing
nachhalt ige
s now
akt ual
de le
Nicht r
o ted
AN D
Nach richten
govern ance
y le
n ations
richt linie
Thank s
Dav id
respons ibilities
Verfü g
Pub lik
Bestand teil
ex ception
ey e
F A
an bieten
mo dell
caus es
manufact uring
territ orial
polit isch
viel er
Dut ch
exam ples
Veranst altungen
organisation en
Aust ausch
P od
wo durch
M aster
zu gleich
ident ity
near ly
Ged anken
Al ter
Ch amber
V il
F eld
ut tle
er neuer
rup t
associ ation
form al
Ge fühl
E ffizienz
st ö
Ver b
turn ed
in fo
]] .
anderer seits
Q ue
T wo
al p
S how
aus reichen
concl ude
B row
reco very
Klima anlage
br ings
bed room
Metho den
Mo un
technolog ical
e ight
pl ate
vel y
isten z
ent ially
condu ct
aus ende
geb oren
Lie be
Java Script
auch en
sur pr
K ey
A v
bur den
Wel che
N ice
beschäft igt
B M
N on
kon text
multip le
Erhö hung
as p
auto m
International en
auth ent
A kte
vorsch lagen
bir th
7 00
expla in
dr iving
Ko operation
T ip
wel chen
em pt
tre ated
Ser ie
Char ter
erv ice
tradition ellen
beein fl
Be wegung
sie ben
Pf licht
An griff
P flanzen
is ierungs
Be if
Nichtr aucher
gewä hlt
smo king
Aus nahme
Über prüfung
Koordin ierung
Ange bote
ange ht
Häl fte
Z immern
gram mat
dict ion
in corpor
ges te
fert igt
s id
Re volution
best and
pati ents
Mor gen
Ver öffentlich
fä llen
R A
m lich
cap t
atta cks
Ferien wohn
grie ch
ic ation
pl ug
Ta i
fl at
en te
do s
Sol ar
con sensus
lie fern
ick s
besser en
south ern
requ ested
prim ary
freund lich
8 8
Det ails
H ü
dec ades
eval uation
it ze
ex plan
address ed
19 80
li ability
previous ly
T P
per atur
D ort
Kr isen
ersch einen
Mon t
strateg ie
represent ative
M ach
spezif ischen
üst ung
Einkauf s
Vorbereit ung
Diskrimin ierung
con solid
K now
mat ic
prim arily
Finan cial
F ischer
T it
g one
g igen
iss ens
spr ing
zw ungen
freund liche
zu verläss
jähr lich
Roman ia
j unge
im per
ã o
ampag ne
vul ner
remo ve
n d
Ord nung
wer ten
Bes itz
Su ite
p i
be zieht
there by
7 7
Rot ary
K u
Dub lin
dest ru
scho ols
Rum än
Ab sicht
höch st
industr ies
will kommen
def ault
c ra
mat ik
L ob
m l
En joy
m 2
discuss ing
weiter es
diskut iert
wes tern
kind s
ar do
G U
b ac
se itens
Ar gent
unterschied lich
Lauf e
T el
lo ts
do k
for um
bo ot
cor ner
gegeben en
schaf ft
Gr enze
Ber ücksicht
weg s
flä chen
ta ct
Anpass ung
Auf grund
f ers
ten zial
gen der
Ex port
tal ks
ger icht
exe c
en ge
ol der
ab sicht
spra chen
J es
n one
global e
leb nis
Mün chen
con troll
b ureau
ent scheid
To ol
kürz lich
beg ann
sk in
Ob ama
fu hr
M erk
im al
in cent
Will en
Apart ment
spart ner
J un
Gä sten
re agieren
lä u
in ens
no ise
C L
gen ü
Sat ell
h ie
tour s
Stadtzentr um
hol ding
us etzen
T A
en jo
bereich e
Ge bur
system at
Dok umente
st äd
Au dit
bil det
ord nungs
bet ont
Stra f
Bra zil
im b
ur ge
Ch urch
ze ß
vent ure
D iv
ro b
posit iven
feel ing
ag ent
cal cul
ann es
extre me
akzept iert
sch ritt
ko ordin
einzel ne
competen ce
Fä lle
op posite
t w
be handeln
Frei zeit
bo at
pre pare
Fäh igkeit
Pat ent
i am
de alt
komm un
M as
deliver ed
H D
An liegen
Pro vin
iz on
Son n
re presented
S L
inde x
ber aten
m igration
able d
Mus ic
länd lichen
6 7
Co ok
Fre unde
T iere
control led
V ar
mut ual
O K
i ber
fol io
ac counts
El tern
mitt lung
respe kt
st ol
S au
ge arbeitet
über zeugen
Pro di
among st
Sign al
re ply
sy m
R os
ro te
abhäng ig
dr itten
K yo
dom ain
or te
De legation
sch war
invest ments
io t
ak a
St unde
F lä
speak ers
ma gaz
zahl ung
verstär kt
betr ieb
F OR
com plic
un anim
G lau
cil iation
Per spe
approv al
Fol low
Scho ol
Re aktion
la v
li ber
Z ul
ig ern
per mit
M ol
min i
noch mals
present ation
compat ible
sp ok
pr inzip
Engl isch
spezif ische
W ur
Des pite
heav y
Ge wicht
Sü den
St ück
Mun ich
qu ote
num mer
is to
Ges etze
st offen
geb unden
Untersuch ung
Jahr zehn
mechanis ms
sha pe
Kyo to
fe e
T urn
di verse
bel ong
manufactur ers
A 4
beg onnen
Be weis
Ein klang
zurück zu
C N
un sten
repe ated
ak es
um geben
D y
r uns
mo ved
intel lect
P aper
d ans
f ug
w aters
ag iert
Fl uss
schle cht
consult ation
sicher stellen
umin ium
ien e
err or
C R
Unter schiede
viel mehr
breit et
p ick
Klimawand el
dest ination
so weit
Um ständen
Origin al
co vers
Min utes
jähr ige
Berücksicht igung
ges tern
We gen
J ack
Ta ke
sw itch
gra d
verl angen
kulture lle
de legation
besch rieben
grund lage
verl ieren
leader ship
U se
te ch
Kombin ation
Be fore
char ming
region ale
n t
ill ustr
ult im
and al
Struktur fonds
Eigen schaften
L ife
A 3
ex cit
Sch au
bas iert
tran sit
term ine
man ager
K unde
C ent
uch ten
attem p
M assen
wer fen
priv acy
höch ste
Diskuss ionen
Sky pe
ehemal igen
att itude
recomm ended
z in
Über nach
Komm ent
ip ul
Kolle ge
m utz
fil ter
E gypt
fle et
u ters
reje cted
all gemein
ikan ischen
Gew inn
a is
stu ff
Defin ition
end or
gro ss
wach en
folger ungen
se ien
A ction
know s
out put
s we
cons c
akt uell
Amer ika
Prem ier
help ing
c old
Fre ude
M em
y m
ing u
tre es
improv ements
meld ung
A g
w ing
er griffen
derzeit igen
oblig ation
ent spannen
ob st
Hand eln
request s
Sch äden
An n
ib an
Kr anken
org nis
kt iver
Sch ule
art icles
iet ies
engine ering
D adurch
experien ces
dr ugs
Auf sicht
vis ible
launch ed
vor genommen
iger ung
Mehr wert
expert ise
Be denken
Stu die
ifiz iert
C ha
wieder um
proport ion
Hil fs
significant ly
bef assen
compens ation
leis ure
web sites
Gleich gewicht
A tom
re ject
ff end
igen ce
Up date
spar te
be k
Sch loss
bed rooms
find ing
aner kannt
v ess
ier n
Ges icht
Mon te
genau so
he ber
konkre ten
ä ten
ge iz
appe ared
c af
stre ets
d rop
op les
Strateg ien
Dienst leistungs
v ast
ah nen
tr ial
ziel t
B ö
cent res
Kl asse
è s
Wach stums
m aschinen
Er wachsen
akt ive
Schwer punkt
Nor den
flü ge
Brow ser
Ein wanderung
hol ds
famil iar
un its
stell ungs
Grund sätze
p fe
T E
ens wert
regel mäß
z za
E t
hel ps
isp iele
Ant worten
Technolog y
с т
Wes ten
B ör
K n
Unter schied
ian a
be hörden
fa ced
Sw ed
umfassen den
Leit linien
Gerä te
Ima ge
H ong
furn iture
m ur
subsid iar
Ro bert
ik as
Er wä
temper ature
Verfüg barkeit
K at
P en
Viel leicht
begr ün
d inner
extens ion
en ger
expect ations
Voraus setzung
arrange ments
san ctions
pen al
d or
k eines
histor ische
recogn ise
emphas is
Zus atz
geschä ft
Allgem einen
F ein
Kü ste
em a
Ti bet
par allel
Ur lau
Air bus
alb um
it ime
we ather
plic it
applic able
host els
Pla za
or gt
Ver träge
min uten
wall s
u ung
wichtig es
W he
W are
ver bind
la ir
dish es
g in
quar ter
ar ische
Ex e
grenzüber schreiten
c able
199 1
met ro
italien ischen
y es
tax es
a ward
fa ther
Ges am
comp ly
ex ists
draw ing
San ktionen
mensch lichen
oper ators
stra ight
emphas ise
at re
b ud
ent lang
wir t
bezieh ung
se cret
B C
erheb lich
Fahr zeug
198 9
cycl ing
contra st
Ge orge
sub stances
rel atively
amer as
gen ce
he il
K ategorie
fanta stic
P in
it ar
um er
Wel come
fight ing
, "
S zen
bi ke
resol ve
dis covered
hil ft
bahn hof
herr scht
Fr an
obje cts
Tag ung
unmittel bar
amerikan ische
ver walt
Ele ct
produ cing
win den
leben s
Gen au
enter ed
d ining
pro ud
th umb
Gen ehm
refle ct
Maß nahme
be zug
un zu
sle ep
w ild
individ uell
tag s
d einer
car bon
P A
isch ung
Fr ien
wh atever
betr ieben
li ge
Bed ien
ser vers
Fr ü
lob by
ho her
trotz dem
lat ter
Schul den
suffer ing
Saf ety
Empfehl ung
refuge es
ch a
entsch lossen
S ens
hl te
res erve
hand ling
gesp ielt
Da für
le ts
He iz
institution ellen
health y
appreci ate
dis aster
V i
p ill
af ford
il st
zie mlich
disch arge
er maßen
mär kte
Polize i
W ord
and els
Beif all
Dire kt
funktion ieren
dang er
ab ling
af fairs
Ma x
def end
künft ig
zu legen
zug änglich
Ru le
Far b
ann er
Frem den
Material ien
up pen
wind igkeit
confir med
Minister s
My SQL
außer gewöhn
recognis ed
st es
wh ilst
In c
B alt
par lament
Stud enten
re ds
au ght
Zwe i
dram at
condem n
bu chen
ga ther
enter tainment
trag ung
Sch ü
cre ative
person ally
D auer
cur s
se m
produ kte
Schn itt
the t
Wahr heit
r ant
Berat ung
F our
Kon sequ
ent decken
tic ket
V ision
Dire ctor
wissenschaft lichen
erhält lich
Landwir te
er öffnet
Br enn
Garant ie
Umwelt schutz
an cy
We iß
invol ving
spect ac
natur ally
help ed
Beruf s
hö here
mob ility
S ud
happ ens
re tain
8 6
ex c
änd ler
Nor men
renew able
tro p
E du
An fragen
ne ter
L ist
zunehmen d
ent y
wes entliche
Reg ime
Strateg y
k olle
us al
pe oples
, ”
GN U
polit icians
automat ic
Pap ier
beauf trag
disc ip
C ho
jour ney
L im
exclus ively
sch ule
Li ke
berecht igt
d ich
qu ellen
gän z
out door
komm erziel
G DP
repe at
fal sch
valu able
dr ink
è re
ö sterreich
fert ig
L O
Er inner
waren ess
Bade zimmer
op s
US D
vol ume
cast le
dise ases
So c
ange hör
Vier tel
u h
pie ces
i ary
Fern er
Eisen bahn
res idence
Brit ain
Amb iente
op posed
Br and
stre ben
Sk i
pres ident
first ly
7 2
Tem peratur
Swed ish
be trägt
x y
Nach frage
zusätz lichen
ie ßen
K amera
l u
safe guard
lo aded
Al b
Schwe den
Bo ot
welt weiten
es ch
con serv
liegen den
g old
ar io
enth us
re gen
S und
priv ile
tra ff
bes eit
interess iert
T yp
prof ile
kur r
Fr anc
except ional
Cop y
führen de
herr schen
grundlegen den
me at
natür lichen
ä umen
sol ve
O hne
Ein stellung
unkt ions
critic ism
Me et
kon takt
P uer
Un gleich
H aup
kon trolle
bes itzen
schön sten
co her
ik es
met al
sicher ungs
sex ual
Vor sitz
dire kte
obtain ed
leg te
schließ t
kurz em
CO N
schwier igen
be absicht
Un gar
le aving
Agrar politik
R et
cour age
zentr alen
pass word
gef ördert
staat liche
ier end
M all
an ne
comb ating
Erwart ungen
r ational
teil s
ant ly
B R
re v
Mittel punkt
Bib liothe
kün fte
Hin dern
K andidaten
ul ted
dis ast
drück en
ch ap
de termine
constru ctive
K ann
Aus gabe
off ices
eigen es
reach ing
ch est
Be w
füll ung
class ic
mill ions
ies t
re ten
ed s
Pl ug
passen gers
D C
loc ations
Stand ort
Opt im
k in
large ly
invol vement
é r
Um gang
de posit
fa ction
thor ough
sa una
direct ives
Am ts
vent ionen
Wirk lichkeit
mo ther
ey es
I X
i for
install iert
Can ada
E Z
ho le
interess ant
Altern ative
Pro ced
priv at
nie mals
mand ate
protect ing
Croat ia
b attle
u des
Veranst altung
bü ro
ethn ic
schn elle
par ks
gel ang
remo ved
einer seits
Bu cht
acqu is
M ut
Sy m
obst ac
Fe uer
V ene
m u
serv es
bild ungs
impress ive
Luxem bourg
zweifel los
se he
Be ispiele
univers al
Vie w
zu erst
gew onnen
us ern
tre aty
hervorragen de
entwickel ten
Bau ern
Kap az
neu esten
pl ause
own er
wes halb
Gar den
ver ändern
in zwischen
ver ändert
Japan ese
ruh ig
Get rän
sinn voll
durch zuführen
prä z
span ischen
amoun ts
T own
ta p
onom ie
B A
hl ung
def ine
ausgezeich nete
an ze
vil le
M ur
au ens
iv a
sta ke
Entwicklungs ländern
maintain ed
sp ür
strateg ies
go s
Mo de
Akt ien
U M
relig iö
An schluss
decor ated
a wareness
auf zunehmen
An gel
St ift
Verbesser ungen
Struktur en
h off
be le
ies sen
prov ed
Anwend ungs
5 6
D usche
um ping
official s
erweiter t
T S
t il
7 8
ro of
P ia
ein richtungen
An bieter
par ents
Y ear
z ir
Sta hl
str on
k al
str ing
ü g
Ar me
ign or
pä ck
equ ally
G rad
new ly
can cel
organiz ations
h i
weis ung
or ten
Sp ann
g or
ach te
impress ion
bemü ht
dire ctor
incre ases
F err
n ischen
happen ing
ch nen
lo vely
hard ware
ver langt
Aus stattung
nach zu
Bl ut
Kommunik ations
In stead
terror ist
fa ith
le v
Be fug
Lad ies
ot t
Pl us
remo te
k ill
sh ad
char ges
H of
Mar ina
Was hing
UN O
Kü sten
issu ed
contrib utions
cor ded
be trächt
ted ly
tele fon
leg ungen
dec is
rapporteur s
Z ert
ver halten
fin ished
organ ized
dep th
Bulgar ia
ta kte
Kr imin
sor gt
Ear th
colle ctive
E is
Kl ar
prepar ation
ausgezeich neten
organis iert
tic kets
Nahrungs mittel
and on
betreffen den
C le
r ichtet
Prü f
Sa una
E dit
er al
Ho hen
letz ter
höch sten
kost et
J ames
contra cts
ge hoben
erst re
N ein
Gesch le
K roat
vie t
aus gesprochen
pat tern
Web sites
re ported
Br asil
wach stum
prec ise
ursprün glichen
n avig
cre ates
er inner
se at
Ro ck
liberal isation
nor m
require ment
Bet t
restrict ions
5 2
I E
A ward
in fr
in habit
id den
Th omas
kur ze
grundlegen de
pro hib
remain ing
hab t
behör de
f lag
ip el
um zusetzen
ac compan
Abkommen s
fä llig
vis a
wirk ung
Über zeugung
gän ge
west lichen
lic ense
Sch atten
Gesetz es
od y
balcon y
Exe cutive
s ah
B ir
entscheiden d
c atalog
p m
does n
conne ctions
Zus ätz
K MU
ave c
S ad
Ar men
ket te
star ten
The ir
deb ates
dien ste
Ste uern
ab road
ange bot
character istics
An ton
road s
Ang st
ber ge
renov ated
W a
art ist
La w
Jed es
zö ger
br id
Über setzung
Pol ish
pl en
Aus stellung
produz iert
Fo od
Pun kten
ad voc
wirk lichen
deta ill
vol unt
Fr amework
resol ved
V ater
mus ste
- /
return ed
F air
opin ions
Bestel lung
Nah en
w itness
depend s
schir m
b ach
an wes
al ts
oper ational
mess ages
5 8
o gen
at iver
de ter
ic on
Ausgang spunkt
c ab
ge boten
ver an
Proble ms
surround ings
cut ting
dr itte
bei zu
Harmon isierung
is men
unic ip
it ag
voll ständige
Cli ent
Washing ton
5 7
Verf assungs
abge lehnt
f ab
p el
t went
spe kt
wer b
resol utions
V ER
ce eded
Bu dap
ident ify
V ice
be mer
Proje kten
colle ct
sol ar
aktiv ieren
9 2
E dition
W ild
an schließen
of in
you th
C A
ein s
künft igen
Mob ile
T schech
ge prä
act ing
wettbewer bs
certain ty
Ab schnitt
Überein stimmung
inten d
eingeschrän kt
HT ML
splä tzen
5 1
R ent
B aby
ver gleich
S co
F arbe
Sp ace
recommend ation
regular ly
Hostels club
D N
h art
über nimmt
contin ent
bot tom
in ations
lay er
ent deck
de fe
aus geschlossen
Fr iday
Con gress
itä re
W LAN
s cr
H ans
an statt
verurs acht
ko hol
top ic
itte es
Gen too
erlau ben
B SE
D O
tra ditions
gew inn
bur ger
proper ties
Ph one
be kämpfen
verschieden er
I K
e u
lo unge
gratul ieren
schätz ung
ar ma
Le gal
A gricult
Gest altung
definit ely
for schung
forder e
H imm
auf en
ries igen
sch ef
Kon sens
Fest legung
re iz
aufge fordert
günst ig
reich ung
fe hlt
Entscheid ungs
fest ival
Bal kon
ip t
dar y
under stood
Camp ing
Ind ones
komm unik
d ia
u ier
st amm
Ge heim
plan et
regul atory
Plan ung
perfe kt
Ma astr
Ein heit
Rumän ien
l it
Fäh igkeiten
invol ve
Be hinder
reserv es
Krank heiten
lau tet
Bal kan
Proced ure
ver besser
int ent
igh ten
ME Ps
Ratspräsident schaft
L ate
dr iver
jo ined
perform ed
lang sam
k ö
confl icts
ate ful
Kon to
div ided
s q
am az
unge fähr
infl ation
Kr ie
ru ct
auf treten
di agno
z ne
al es
custom s
komm e
Glau ben
amp ions
Ver bindungen
frei will
H en
st ab
facil itate
Kil ometer
Ro ad
Sp az
conne ct
ific ations
an nehmen
inter ior
Vorsch lägen
transport ation
proje kt
Änderungsan trägen
reve al
g ol
frequ ently
gew issen
gen ehm
Aus führungen
zip lin
mo dule
tr aum
foc used
Er satz
anges ehen
sch auen
vac ation
t d
Re ad
Aus führung
Stru ct
Buch ung
club s
condu cted
iel d
wal d
v ig
é n
in os
F u
co hol
Dritt ländern
zu stand
Mitglied schaft
erwä hn
chann el
su ites
com ed
fa c
einzig artige
E qu
star s
Ka bel
sup posed
gef allen
20 12
Ver ring
north ern
care er
Kompon enten
G M
kl aren
Mon etary
V iet
Ac cess
team s
he ating
hund reds
hervor heben
al arm
schätz en
An wen
Tai wan
Em issionen
Cypr us
Program men
Phil osop
k ans
ge le
con ciliation
Part nern
Komm un
real istic
aust ausch
N och
Son ne
dr ug
schw ed
Mich el
parliament s
ü ssen
an i
Kon zer
some what
print ing
l ists
zug unsten
phen omen
d im
s ac
spiel er
Prote ction
do ors
ver we
ir on
akt iven
Tats ächlich
to ile
Kon text
wirtschaft licher
wor se
beschrän kt
Haf t
C F
L iter
pal äst
f ing
ab andon
gest altet
n ut
Ur spr
C er
our ce
host el
b art
UN G
Auto mobil
minister s
kur zen
Geschä fte
H on
ir s
up dated
stud io
notwend ige
po ten
dis played
sett ings
in ser
der ung
S oft
u ese
is lands
ur g
Ge gend
p g
be wält
up per
Schlaf zimmer
at om
ph arma
fol lows
person nel
depend ing
P age
emer gency
T enn
r or
lich em
produ ctive
d t
ra di
fü llen
iz er
Tar if
Schrif t
zu ständigen
Gu ide
fa ster
kontin uier
tra ges
deut sch
minor ity
de als
wom an
paläst inens
ie bs
so u
Er holung
nachhalt igen
k ultur
ell es
fir ms
he at
ud s
beglück wünschen
re mark
no ted
sich ere
og raf
Entwicklungs länder
or ca
5 4
Ä r
ange hen
wind ows
correct ly
ultim ately
St immen
l ibrary
coun ting
Arbeit splätzen
anspr uchs
r é
ver wand
Pl attform
früher en
spok en
7 1
w affen
ed ition
ter y
techn iques
Tra ining
Al les
bestät igen
SM Es
ten nis
durch führen
fin ish
demand ing
chem ical
Zentral bank
ver änder
ver dient
best immen
Mex ico
schlä gt
gespe ichert
Wer bung
ion es
P O
l iste
ar ab
ou th
e chten
m ist
imm ers
ehr geiz
ver bringen
ta gen
Bes te
Ver mögen
Wir d
Sub sid
Arbeitspl atz
ar ded
angemessen e
Z iffer
der art
vis ited
theor et
iv als
sty lish
jud icial
most ly
н о
or ama
be zahlen
so dass
Son y
answer s
te a
wel fare
k ir
vers amm
Bet re
Ta x
part ment
Sem in
es tel
zu lassen
cas h
19 70
serv iert
uropä ischen
fä l
Prinzip ien
( {{
G ames
N az
h ill
an ke
verabschie det
Israel i
exp ansion
con ce
B IP
lin ed
V ill
Au thor
Miss ion
fr ame
feder al
interess ante
ver brauch
electric ity
C it
loy ment
k as
Qu ark
B O
ie gel
Deut schen
pos ing
bl ing
bil ateral
intellect ual
t or
V O
us sen
pr in
Hol iday
accompan ied
n ine
würd igkeit
Slo vak
end ung
außer ordentlich
T rag
it ts
dr ivers
ge prüft
Plen um
zeich nis
sch uld
Budap est
besch leun
Drit tens
V el
beha vi
her itage
a w
k ter
winn ing
v alley
re place
zü ge
proto col
Kompeten z
star ts
b urn
ier a
d orf
Gemein de
Bezieh ung
auf nehmen
east ern
der artige
Al li
Sch uld
Pl at
chines ischen
im edia
gr ateful
Sy mbol
function ing
Außen politik
indic ated
poll ution
b ay
C hair
inv ite
de cre
Europ ol
vier tel
Regierungs konferenz
Fe hl
Invest itions
Vereinbar ungen
chann els
gerä te
er mut
ro ot
Part ners
entr ance
effect iveness
Verring erung
li p
st em
arr ive
A do
Führ er
cre w
n s
un möglich
ial e
D ou
ar tet
aus end
r ical
Sch e
stat istics
Red ner
Lux us
lif t
tre iben
fl ights
fil ms
Balt ic
look ed
durch schnitt
Fund s
Pol it
Akt ual
Y es
aussch uß
di ver
visit ing
V AT
Kohäs ion
ausge zeichnet
conta cts
D al
D or
w ines
del ighted
suc ceed
tour ists
u ated
ver hindert
Li by
fern er
Host el
Whe ther
ver leihen
kre is
depart ment
Prag ue
wo hnen
н а
Ger ichte
defin iert
Opt ionen
function al
relax ation
Haf tung
aus gesetzt
An sprü
ass end
wide ly
Kre uz
Dy nam
Z yp
W olf
Portug uese
Fakt oren
magn ific
ce an
pla cement
sch einen
Ein beziehung
Ab häng
sche idet
Beit räge
Viet nam
Web seiten
Grün dung
invest ors
Ind ivid
mel den
Werk zeug
c atch
sor ge
im posed
subsid ies
m aschine
Fr anz
d un
wel chem
declar ation
Frei heiten
intens iv
L ag
B lock
the me
iz za
invol ves
Veröffentlich ung
E ss
j etz
dire kten
B aum
b ol
fa cts
am ed
As ien
stehen de
Ado be
W ater
activ ely
News letter
L td
f itness
den kt
Ein stellungen
Ges ellschaften
sup plement
Amer ikan
maintain ing
traff icking
sign s
pat ient
appear ance
F ast
G E
Ver bot
dar k
inhabit ants
co al
virt ual
Pers ön
after noon
kurz frist
ent steht
prom ises
speak er
is rael
ic ans
recht liche
ID S
ver ehrte
Besonder s
excit ing
ur ies
Be am
Ver pack
Pro p
erreich bar
Schweiz er
Fle isch
c ommission
con fer
compet ent
k g
stor ed
bin det
atten d
expl ore
U s
port s
correspond ing
par ad
Char ta
wün sch
ab gestimmt
so zi
show ing
ch r
pass iert
woll ten
garden s
po le
co sy
beein druck
Krä fte
collabor ation
su gar
cor ruption
begrü ßt
acc ident
A ble
C openhagen
f la
ge zwungen
Or te
care ful
Subsid iar
er leich
Te ch
l an
Wün sche
Verfahren s
demonstr ated
al cohol
it ors
ib ar
Bemerk ungen
ausge führt
ou red
new sp
passen ger
Net work
5 9
Mo z
tran sition
V ize
demonstr ate
L ine
in put
if ies
fo hlen
effe ktiv
Distrib ution
N os
iss es
S AP
ge äuß
aut onom
gelten den
on i
ak te
Mil ch
grenz ung
Kaffe e
fre m
qu ot
vor an
comm ittees
erg ing
P act
copy right
V P
k amen
5 3
re chen
Ap ple
Ident ität
Mobil ität
erleich tern
f asst
m use
pe kt
sorgfält ig
lic ens
m ung
Vor be
E vent
ro hung
spann ung
Ind ian
prov en
Ein wohner
Ne ue
m ünd
con figuration
wie gen
resist ance
Des wegen
Gesprä che
T en
nahe zu
dis p
k atastrop
sch icken
individ uelle
hinzu fügen
Vorschlag s
j ac
spectac ular
ev a
settle ment
del la
Sor gen
höher en
rest ruct
S K
sol ange
Je de
Maastr icht
th r
In tel
– ,
Spaz ier
wer ks
cr ib
Kon gress
Hung ary
last ing
facil ity
Sing le
Politik en
D ass
we ile
hä user
Quest ion
F ig
ger ät
b iz
br ight
re pair
sch wä
ict or
Wer ke
Z one
Profess ional
P as
j i
we ar
ex ceed
R ap
l or
As se
Krank heit
dist ingu
S ant
town s
j ung
Lo unge
Qu ad
Markt es
Alex ander
T och
Ger ät
tats äch
P utin
vor legen
hol m
wa ve
AR E
An mer
Al pen
w il
ra c
ag gress
just ified
concl uded
g allery
re iter
constitution al
je gliche
Can on
th ir
sto ß
ex klus
Amend ments
erinner t
n ights
educ ational
at i
co w
orien ted
Ge fahren
p lied
document ation
verring ern
reg arded
In fl
bemü hen
poss ibly
contain ing
präsent ieren
G R
on going
ex plicit
Vers and
So viet
ca dem
gefü gt
bo ost
Kir k
pro sper
St or
amer ika
B ru
Leg isl
W omen
r ub
ô tel
über ras
Ex pl
C up
t an
am i
Bur g
bestehen de
cr imes
Ziel en
found ation
Per haps
Führ ungs
Provin z
Belg ium
f uer
ge he
teil ungen
pl enty
heut ige
N iger
ä cht
é es
re corded
Über setz
Con tent
Sta ff
B ug
c ation
schl uß
ony mous
übrigen s
Z o
re placed
RO M
ex it
B at
inter pre
Vor haben
bed au
schwer en
a warded
Inter ess
Char les
gener ated
Med ik
W art
g i
E mail
Ge päck
Le on
gh ter
dig it
bezieh ungen
behavi our
Untersuch ungen
use hen
r ul
Me ister
z ed
it o
minor ities
un iversit
un ning
kon kret
occas ions
in sp
ame ters
ak ing
S par
respe cted
Fuß ball
S ein
gem ä
sh aring
Zwe cke
B ang
cover ing
Auto bahn
glau b
hor izon
sch äd
Des cription
Fern seh
cep ts
einheit lichen
M angel
Um feld
belie bt
zug ang
н и
ak zep
W ho
Z ür
Bar s
Ein schrän
ausge geben
letzt lich
ho b
P ot
r d
ro utes
imm igrants
vis ory
North ern
ü ne
Po int
At lantic
asse ts
Lo ok
ma x
ass ume
ath ol
Kl aus
prozess es
}} )
J ob
K no
Salz burg
smo oth
D ra
Wohn ung
tack le
Det ail
AK P
russ ischen
interpret ation
akzep tabel
Wer be
tradition elle
organis ieren
Mal ta
6 9
ein st
eig net
Soll ten
Kap itel
rapid ly
verur teilt
Toch ter
S ä
schaf fung
legit imate
destru ction
dr ückt
ab sen
Arg ument
la ys
Se cret
program ms
lok ale
Min i
O der
des ired
C lear
V ideos
Ver breitung
län g
Pre isen
d iss
manufactur er
G ang
un ent
de i
ver binden
over come
ven e
da hin
p ac
ge teilt
qu o
be kämpfung
Ver samm
Feder ation
B all
läss lich
grundsätz lich
W F
Sch le
mot ive
Selbst verständlich
lä ßt
adop ting
determin ation
vis ed
in fe
gewähr t
Res pekt
week end
s op
Bes orgnis
trans at
Ap plause
sch ne
pp ed
Ins besondere
mil k
pr est
He ad
Vers ionen
k ür
cert ific
Soll te
em erging
str ugg
schem e
pro test
einfach er
mar itime
istr y
B ord
cent uries
äuß ern
distrib uted
L er
sp akt
jen en
w rote
chn itten
information en
Energ ien
verkauf en
G iven
cour ts
nun mehr
subsidiar ity
pr äch
send ing
ident ified
trans actions
beschäft igen
v as
bo ast
r üstung
ü bt
part ly
br ut
global isation
bekann te
Fil ter
profession als
er setzt
install ieren
hand els
Pol y
div ision
st ammen
av i
Ur heber
i bel
broad cast
nation ally
S atz
at is
il and
endor se
arr ived
we ge
Puer to
L A
mil es
R ob
spe cially
Ch i
P M
enjoy ed
shar es
individ uellen
cel er
cred ibility
verkauf t
Kon stru
Hard ware
g ige
Def iz
decl ared
bil ater
aler ie
in klusive
Mitarbeit ern
stron ger
A z
A qu
ph ones
Op position
hund red
z onen
z ellen
vor stellen
satisf ied
N O
ein ig
offen e
Bet rag
vorhanden en
tro u
Vor stellung
rent al
Erzeug nisse
imit tel
Gaz a
entscheiden de
bedeuten d
is tern
Am t
brit ische
quar ters
beru ht
Mr d
chn ung
V IS
Res olution
erfolg reiche
z ell
Par ad
Don ner
em ot
Fre unden
luxur ious
With in
tax ation
zne imittel
Struct ural
consider ing
es cap
be kräft
zie le
Follow ing
Ein er
Form ul
jen er
Spa ß
H u
ho using
strateg ischen
suppl iers
ad ults
f ans
port al
Lob by
ad ding
Fr ie
Zahl ung
an be
Fre itag
Cap tain
P ac
gar ten
sch ieden
f ly
g änger
B E
L ok
gr unde
Th urs
well en
ursprün glich
F an
zusammen arbeiten
unver züglich
drin ks
address es
s ong
bon us
dr y
ergän zen
Rechts staat
Städ ten
s aving
Se ktoren
compon ent
zentr en
dür fte
& #
ein gerichte
W etter
un fair
alt ungs
begrenz t
i i
ver hält
á s
Au ge
s amer
mass age
Hung arian
Tab ak
up dates
ys ide
bestimm ter
Kons ult
un be
ie be
verstär ken
entwickel te
el ess
mar quis
Red uz
Bemerk ung
d ign
Frien d
S atur
Kon trollen
Rechnungs hof
Tenn is
K ong
cons ent
provider s
sp aren
pr ene
Ex change
technolog ie
Fund amental
ir ing
ag ers
Franc is
sc ene
ak ten
on ien
Pl ane
slight ly
magnific ent
Nach richt
dre am
encour aging
incl usion
extra ordinary
be handlung
ival ent
G ame
N ic
lie f
iel ler
Mod ul
reduz ieren
Sund ay
Aus maß
erheb liche
aus sprechen
L etz
ne un
vor bereitet
ac ión
ange wand
k os
de x
ou b
Ver lauf
Park platz
w jet
lös ung
E he
Mar ke
emp fohlen
flo ws
AC P
dire cted
9 3
sicher en
Schul en
h an
art istic
Gesch mack
sens ible
thous and
fa x
wieder holen
Tra in
ent wurf
Im m
Wohl stand
Bereit stellung
Gol den
r ied
V alley
_ marquis
Red _marquis
r ats
Ein w
tre e
cut s
G i
sub stance
Bet racht
prepar ing
fa ßt
N ext
wer ken
angegeben en
Invest ment
gestat tet
Z in
Ma de
ar my
ben utz
Subsidiar ität
propos es
hor se
z auber
Ham as
System en
fil led
groß zü
S ha
an ch
e e
en counter
Dol om
fert igen
BM W
Comm er
With out
betre iben
C 5
o un
ber ühr
Au fl
plen ary
G üter
g ess
eingere icht
ul f
hand le
Bal kans
Genehm igung
Män nern
betre ffend
Profess or
Liefer ung
Ungar n
verwalt ung
Be weg
pass ion
four th
mak ers
ter e
iss ion
offiz iellen
L en
al ing
did n
Num mer
Pr om
kehr t
bank ing
hon est
to bac
uni versity
decis ive
Asse mbly
Ex tre
R iv
ver mitteln
v ary
Tra vel
Gegen stand
exam ine
her zustellen
AR T
lich ten
Schluss folgerungen
X P
u che
E th
il ities
every day
wissenschaft liche
französ ische
dok ument
ig sten
ant worten
hy dr
claim ed
eur os
Sud an
m n
de leg
K en
an dern
Or ient
C ir
ens ures
Krieg s
Ern ähr
ver boten
men te
represent ation
stol z
the ory
erh ielt
rele van
se cur
ar es
erg ie
Cons ult
Third ly
w ed
erfolg reichen
con cepts
enth alt
F ün
ges ted
Er stellung
rä umen
event ually
ig a
wä l
Verbraucher schutz
plic ations
Bel ast
ins el
C all
ver d
her um
viel es
er lebt
hr t
carr ying
dut ies
Er lebnis
sätz en
Will kommen
v ine
lik ed
Flug zeug
aus einander
A cadem
li a
enh ance
angeb racht
Übergang s
k u
n iveau
р а
des to
Vor der
stra fe
gebie te
Zus ch
sta ges
F al
en det
af ft
bei getragen
Schl uß
rest ric
appoint ment
gebil det
schef s
fer nen
Sp itzen
gesch ichte
Tre at
verantwort ungs
absen ce
6 2
Cast le
subje cts
pain t
au b
Rechts grundlage
ic ing
Zusätz lich
zu grunde
Sp ir
spec ified
elektron ischen
F I
angen ehm
Am ong
spo ke
g am
pack aging
be hinder
top ics
defic it
t ons
Ä g
not es
z it
ä ume
for ests
ab use
if i
zwe if
else where
H R
groß em
sole ly
ver än
it als
Sta ates
Bed rohung
ship ping
A IDS
S har
Qu ellen
ge laden
St utt
inv ent
propos ing
Sicher ung
r t
i be
ins ist
reich er
accur ate
Besch rän
R io
’ .
So hn
Chin as
G laub
einge halten
r ide
Nach halt
beteil igen
tobac co
j apan
des cription
Pr äsent
t ables
H om
sup plies
gener ate
vulner able
Thurs day
P ie
apply ing
wechsel n
re vision
H at
hin gegen
ren owned
muse ums
Geb äu
never theless
Bulgar ien
an cing
ES T
Pa kete
kle ines
volunt ary
C AP
im pose
ähn lich
Z y
v ideos
countr yside
less ons
Model le
excess ive
anwes end
ge kenn
spl ans
MP 3
Beschl üsse
n ien
vor rang
wunder schönen
pol y
Qual ity
complic ated
l ings
zu tage
Str as
kil led
in j
bis lang
st ers
To ols
beob achten
lauf enden
ugg age
thedr al
T u
W issens
au dit
S low
Re gen
col ours
enable d
p ic
mach te
id ad
pr ime
7 3
R ab
g ate
z ern
er zeug
ul pt
De fen
mensch liche
Katastrop he
Gewähr leistung
Schü ler
villa ges
Eigent um
id y
d ating
et ten
bed auer
suggest ions
tes ted
Bud gets
Donner stag
philosop hy
fer enzen
Mon day
trip s
J ung
P fer
s au
sp ons
Kroat ien
ge leitet
integr iert
depart ure
H al
sen z
D iplom
bed ing
einzig artigen
aus gerichtet
ir l
ug h
Posit ionen
ind o
ren der
kap ital
N am
S ource
Sa ison
Comm on
sozial er
gebie ten
ss on
unver gess
export s
fr on
1 st
gain ed
R I
V ictor
bel n
Verhand lungs
ein bezogen
An sichten
wirtschaft lich
Stra ß
Eing ang
direct ory
ult ane
bereich en
entscheiden der
1 10
F C
í n
sol ches
weil en
empf angen
St ill
Be ge
Vize präsident
K as
g ast
ug ht
Pla ce
Bes ides
z weit
er zeugt
ob li
nar row
sho t
be währ
schre ck
Konsequ enzen
führ ungs
great ly
Mik ro
Moun tain
o x
Über legungen
Ad dition
Famil y
P fe
acknow ledge
Sch on
war n
satis faction
7 6
un forget
Agricult ure
sto ßen
aussch au
il ater
8 9
ches ter
clean ing
B 5
Minister präsident
Verletz ung
zu ständig
begr iffen
suppl ier
künst ler
kon front
Proz esse
ber gen
mus ical
pay ing
Kultur en
relig ion
anbe langt
ver bindet
gro sse
Kon takte
1 30
ab sor
Ver arbeitung
bereit gestellt
shad ow
mo vie
tra dem
And re
se g
ge führten
ra ising
gra v
Dar um
an ische
he m
At tra
D oc
Fr on
Sch wä
dem okraten
H aving
w ireless
bre ach
reserv ations
G erecht
L ay
perio ds
P G
Unter nehmer
inv ited
rece iving
Zivil gesellschaft
An stieg
at trib
inter nen
Met all
An lass
Stras bourg
n ör
dis abled
re action
wieder holt
W är
beant worten
g art
St offe
kil omet
compar ison
ur teilung
Pro ject
Gu ests
difficult y
resour ce
pursu e
mittler en
An kunft
iger t
ansp rechen
l ived
Kolleg in
she et
ab end
vor bei
Er füllung
delic ious
Ent fern
sug gested
pan oram
farm ing
or er
exper iment
ES S
el la
Is lands
H it
i Phone
Ar zneimittel
Po tenzial
tro vers
verteid igen
genü gend
as chen
letzten dlich
lie hen
Gr ünen
ix el
förder ung
attemp ts
in ational
wo o
Her bst
kn app
Pass wort
fol gung
miss ing
sav ings
bell ing
end ar
W äl
ber n
war rant
B ased
P SE
j pg
arbeit ungs
sparte i
Brasil ien
M igr
m outh
u um
ip her
E v
Ü brigen
st ick
be kommt
C atal
ten e
ziel en
Reduz ierung
it ra
produ kt
pp ing
Fahr t
Äg yp
Tre ib
Glaub würdigkeit
s cript
sp f
po ols
co very
ord nungen
ätz en
Schw imm
hom es
L ight
isl am
un ited
S ind
Lat ein
Wider spruch
Übernach tung
Ver zöger
Sch iffe
ystem e
re ibt
all zu
Ho t
Le iden
bedeuten de
gestell te
n ik
in mitten
sp iele
Su iten
klär ung
L aut
en abling
Text il
mus sten
wie gend
Al ger
ged acht
appropr i
arg uments
afr ika
Prakt iken
über prüft
bra chte
constit ute
B arr
D res
hin weg
bl ind
Ter rit
weit gehend
s ad
Zu cker
schle chter
ski ing
plat te
if est
Ent lastung
foot ball
as en
finanz iert
einz usetzen
AC H
Got tes
Obje kt
S mo
ES CO
per mitted
necess arily
continu ous
kennt nisse
ieren der
destroy ed
twent y
r ising
invest ieren
confirm ation
o le
so ught
grün den
oper ative
comple ment
ähn liche
prom ised
Play a
Belg ien
amaz ing
Samm lung
u ous
reserv ed
ch at
re put
Ger ade
m elt
erst mals
Verhalten s
Anwen der
C ub
wahl en
Wä hlen
wel coming
proble me
) )
act ors
vorzu legen
S pre
t ank
f i
ger aten
dr ich
m unicip
ha st
public ation
Sit uated
no vel
Comm unic
analy se
art ig
bet ten
F ull
V ari
Dire ct
beein trächt
Moder nis
alloc ated
g ift
commer ce
D rei
port folio
Kon zep
Kor ruption
V ul
Ver k
AN T
Haushalt splan
le aves
ref ers
jud ge
iz üg
Fin land
Jose ph
li quid
polit ically
geb ühren
e at
Arme e
for cement
sp here
p fer
ifiz ieren
kam pf
gemeinschaft lichen
Ge fän
ele ctor
sound s
g ner
z on
or ation
pla cing
erk ennt
H arr
IC H
er setzen
är kt
co operate
Trans fer
Tic ket
Gerecht igkeit
r are
tra ge
is a
r an
optim ale
freedom s
obli ged
H an
P ension
s elling
gel ingt
Bet ten
ange passt
flo od
reduz iert
Plane ten
6 3
Alb um
arbe its
weis ungen
aca dem
ck ing
refer endum
Geh minuten
prosper ity
W ol
unter scheiden
Mill enn
Berlin er
mon opol
over view
Eben en
Fahr zeuge
Fr ist
programm ing
Tät igkeiten
gehen de
erwä hnen
unforget table
Secret ary
no s
künft ige
kap az
Ven ice
zukünft igen
indire ct
ge plan
se ctions
rel ative
vent ions
Stock holm
instru ctions
Kar l
l unch
au schen
co s
Ab fall
N avig
ro lle
hier bei
signific ance
entre prene
Dokument en
V ort
em bar
gesch afft
cri be
di vers
bel le
d liche
ver teilt
Th rough
import s
ver sichern
Finanz ierungs
harmon isation
soc ieties
leg ally
well ness
illeg alen
Alli anz
Dem onstr
charac ters
H under
io de
8 2
b sp
be wahr
ell ers
spe ichern
organ ic
th ro
qu et
fe es
special ist
Prozess es
man che
Zür ich
bre ath
h ur
institution elle
tran qu
verfüg baren
Trotz dem
9 4
U P
poten ziel
wel comed
p u
bege g
V alen
ien ces
ex curs
B ig
zwe ck
Satell iten
u ers
des erv
fe hler
Bon us
Di kt
D ir
sur ve
Situation en
Gebur t
L y
s ung
des wegen
Gleich stellung
kurr enz
gesetz ten
c ue
m än
fle isch
enter prise
cell s
hervor gehoben
ag a
hy dro
vorgesehen en
ev ident
Organ e
us ive
inter n
neigh b
cess ion
19 60
Med izin
wer ben
ip ol
unterst reichen
militär ischen
Zeit ung
C ulture
h ers
Wider stand
mur der
recogn ized
Edu cation
re b
ste am
proje kte
Perspe ktive
to x
dou b
UR L
S W
ar med
Amer icans
pro xim
vor anzu
been det
behaup ten
3 50
Fern sehen
wel comes
whe el
UN ESCO
introdu cing
Ex istenz
negoti ating
u chte
ak s
Kom p
super vision
suffer ed
proceed ings
oub tedly
7 4
in ent
st ör
bo ards
Zyp ern
ad i
Rück kehr
Austral ia
Fac ilities
h u
Tha iland
kontakt ieren
H U
g s
mod ules
konzentr iert
rob ust
sch iff
fäh igen
remain ed
rom antic
it im
hunder t
V ista
T EN
Fre izüg
Late Rooms
qu i
Aus flüge
unabhäng igen
Social ist
Slo ven
S achen
Euro zone
Audit ors
EZ B
As ian
Lou is
к о
mit teilen
atur en
prevent ing
Rich ard
f ro
ha z
expla ined
F unktions
intell igent
öff nung
contrib uted
origin ally
el be
spre che
umf assend
unter zeichnet
class es
B our
le iter
sim ultane
mitglie der
voll ständigen
Gen ießen
Um satz
Instit ut
L uc
ke e
Bet reiber
o ss
р о
ar gu
gr enze
Ger ichts
R unde
st ret
every body
sure ly
geprä gt
n ic
turn ing
langfrist ige
forth coming
Corpor ate
wirks ame
b ann
ste igt
Wä hler
B lo
par ameters
Islam ic
Bran che
Aufsicht s
konfront iert
spr inzip
Energ ies
größer es
Por to
hospital ity
n ord
uni form
Weiter en
günst ige
an wend
der t
design s
indic ate
fem ale
er hoben
unter liegen
super ior
opol it
lä uter
being s
I ll
c ater
lie ber
Im port
blo cks
hä fen
hard ly
militär ische
Ver einfach
Zuständ igkeit
the tic
ab stimmen
ess ions
pan el
Able hnung
la belling
ik i
che cks
effiz ienz
amen ities
belie f
NG Os
Hist or
Ler nen
fähr t
Frühstücks buffet
L IN
Pia zza
( *
estim ated
W E
el lo
leg ten
Mor oc
mov ements
St ability
ös ung
bisher igen
vor ange
F öder
C ivil
bro chen
aktiv iert
kern el
restric ted
s ongs
Satur day
t ö
trans mission
bur gh
le ment
stud ent
St amm
where as
ver hältnis
tr ieben
jur is
ge we
her stellung
tr ends
land schaft
Leit ung
Mall orca
Tr aum
sto cks
acknow led
gener ations
P fle
ir re
port ug
err ors
Stift ung
G O
tr ig
Tour ism
democr at
firm ly
tä glichen
Ver g
Urlau bs
comp uters
Vor lage
Ges präch
IC HT
can cer
bed ded
real ise
könn t
Best ät
Vertr ieb
vorgeschlagen e
b ug
Kommission spräsident
aut ion
flex ib
Stutt gart
ed itor
dis cre
är ten
gel d
product ivity
explo itation
Custom er
Gen eva
Komple x
ac celer
bestimm ungen
Do es
Lang u
bestel len
S ex
z ivil
Wirtschafts wachstum
bew uß
rang ing
ko v
strateg ische
Christ mas
sustain ability
Cons umer
Hä user
Serb ia
mer z
ent stand
ul ous
Ab schaffung
abil ität
Betrieb ssystem
Spe kt
Veränder ung
in f
system en
Tr an
barr iers
C e
Vol kes
Plä ne
O ste
Ä uß
fo to
T ok
ivers ary
Steuer ung
Aben dessen
enh anced
Kan ada
b ing
r and
he aring
Sho uld
Le vel
exclus ion
Mag az
Drit ten
vess els
can cell
ket t
erg ibt
bo y
colle cted
Aktion splan
Schön heit
Meet ing
pre ce
Se arch
-- --
let ters
herunter laden
prakt ische
I deal
pla stic
hy th
function ality
unabhäng ige
O t
P ir
Freizüg igkeit
mitt lungs
elekt r
ugos law
über w
L ith
an schließend
ig end
gewä hren
Cas a
ö tz
sever e
Haupt bahnhof
en em
be ur
show ed
comb ine
W ed
Katastrop hen
weit ern
miss ions
Erinner ung
so genannten
sav ed
ge pf
be hoben
co sm
Bevölker ungs
vertr au
obstac les
tra cks
ov a
imag ine
an hand
ver dienen
Em issions
einge gangen
diplom at
consc ious
char akter
ä um
ap ers
Nachbar n
l ers
re marks
hochwert ige
P ier
m ern
ic als
ir ischen
zukünft ige
metho den
The or
Luxem burg
Sc ience
Oper a
investig ation
t ill
sc ar
besch reibung
mult ilateral
H oll
Ent spannung
su d
enthalten en
Kir chen
mult inational
natür liche
out ique
19 th
mal er
erhö h
comp act
Mär kten
worth y
regard less
E uch
et abl
Regierung schefs
accept ance
umfang reiche
en cy
zu ges
fest zulegen
hil fen
anzu zeigen
verein bart
langfrist ig
g io
adap ted
Lehr er
le hnen
S ir
d oppel
w is
Schn ell
besonder er
äd chen
v ict
International e
Ol iven
Volks gesundheit
fas cin
Moder n
O ffic
ur m
C at
Par ameter
Mon tag
coordin ated
jahr es
Bör se
B 4
M aschine
p in
Con tin
Joh annes
N ation
aus ser
cl in
Lin ien
refle cted
gebe ten
loss es
Sm all
re ader
ab sur
Grund lagen
me ter
Binnenmarkt es
Bud d
inter nationally
fin ed
Vor ausschau
incre d
Res erve
D EN
CH F
Augen blick
penal ty
universit ies
O P
w ies
sh ore
Mon itor
S CH
w ig
ro ots
Ch ile
deli ber
dank bar
Cook ies
dign ity
men s
Pr int
Befug nisse
R uf
Saf e
be er
he ißen
disast ers
B I
ge fragt
ab a
Verf asser
dar gestellt
hil fre
trav elling
Commission ers
vorliegen de
convent ional
ge plant
ine vit
Reg ister
lay out
L uf
mitglie d
Schwar z
bud gets
Academ y
F isher
h orn
i kt
la c
cl es
Ges chen
hervorragen den
We ih
Pr in
üh ne
dr iven
consult ing
Reserv ierung
an halten
ther mal
lin ken
consider ably
M eines
vor be
dict ator
B ag
m ol
jetz igen
ang est
tim et
Loc ation
con cer
ink el
rad ical
viol ations
Flücht linge
arbeite te
. “
av al
press ed
perfe kte
beschrän ken
M ap
Wochen ende
gef asst
Administr ation
D un
N ero
Re f
col umn
Himm el
m t
re ffen
conc ert
B it
sicht bar
App lik
angene h
wirt schaften
9 1
An dere
EC B
Wiederauf bau
S old
b lic
s ed
ab zusch
cl ause
Ber ichten
Wirtschaft spolitik
L it
sup plied
Fahr rad
pret ty
S ier
Le iter
gel esen
kontroll ieren
AS E
Dom ain
Heiz ung
man aging
nach drücklich
ernsthaf t
und oubtedly
korre kt
belie ves
normal en
usal em
Ver teilung
Be für
gehen den
Bas el
me al
wor st
sh uttle
Georg ia
E p
trä glich
sop hist
" -
be we
fo x
Min ute
freund lichen
Sie d
order ed
Beteil igten
fill ing
er freut
geb lieben
AL L
Dom in
auf gebaut
ph p
magaz ine
iss ance
förder t
under ground
produz ieren
gewünsch ten
prin ted
T U
m ith
ste uern
Ge werk
schn ellen
Gesch windigkeit
excl uded
Krimin alität
K ab
R ail
Proto col
hohe m
A ch
re chnen
Se ele
rest ored
einheit liche
H els
I ron
ar bit
Industr y
Kontin ent
Abhäng igkeit
D än
Pro cess
18 0
G au
antic ip
b ahnen
Ch ildren
char m
k ol
us can
gu ided
jo ining
Y ugos
über sch
LE D
Sil ver
Frie drich
Ka iser
Urs achen
equ ivalent
exter nen
Tic kets
M ul
S n
die val
Al lah
cal m
normal erweise
wachsen den
O mb
Re chten
zurück zuführen
Fahr er
j an
6 1
ist ischer
ach ter
Be arbeitung
transfer red
In fo
mehr fach
cas ino
bezogen en
beauftrag ten
gr ös
Kü hl
is ations
ter ra
Er gänz
F S
str and
ord an
process ed
e co
sub sequent
Im pul
iz ieren
Br ief
Team s
j unkt
C ro
K ä
pen se
bed ür
spie gelt
Zahl ungen
wesen heit
Ver trages
geb ühr
kor rig
in tim
Al ters
Innen stadt
refle cts
Konfli kte
nieder länd
F L
sch läge
tr as
bed ro
eng age
eld orf
Kor re
st ro
str onom
pl ates
techn isch
cult ures
Dar stellung
satisf y
C ross
er fordern
om a
St att
fre ely
Qu elle
P ad
we ich
all o
asse mbly
infr inge
V ent
Agent uren
ökonom ischen
Registr ierung
Sch reiben
bed anken
G PS
hoff entlich
quis ite
k enntnis
uds man
e gal
De ck
fest gelegten
sovereign ty
ar ise
exist iert
Sw imming
Aufenth alts
s ights
concentr ate
Muse en
Gener ationen
Bibliothe k
as ide
ent deckt
gesch ätz
Ex p
human itäre
graph ic
Ver sor
Gemein same
Di am
reli ability
L abor
U L
k au
any where
ian ischen
afr ikanischen
T anz
f at
über aus
ac ted
spolit ischen
T auch
com po
Wel th
Y o
em pl
tax i
tä us
quir y
h ell
komfort able
appro ve
opp elt
wär ts
Not es
learn ed
unter sucht
s qu
Spe isen
spl end
K öl
v ice
Entwick ler
b anken
be zahlt
Be wer
Al kohol
ak er
Arbeit er
flo ors
ein gestellt
m yst
kon vention
dienst leistungen
D ritte
er weitern
Be le
komple tte
Ass ist
Fakt or
pl atten
under taken
E asy
Flor enz
Fr anzös
L ic
ger inger
Per formance
mm ern
fisher men
unent gelt
D ör
ik el
str öm
stamm t
re construction
ten den
ach er
fun k
Öff nung
won ach
portug ies
erst klass
minim al
T ausende
Produ z
prom pt
Stär ke
lo ser
st ad
dam ages
Gel der
ze ige
Kredit karte
M iß
tr ies
gro wn
Spiel en
restruct uring
S ob
um setzen
Wo uld
strengthen ed
ber ichten
kl asse
Wür de
F ass
ä nen
form ats
gro ssen
mar ine
ä ne
ü mer
kt ure
gel ö
var ied
Ha ar
Dre h
event uell
rest ore
beg leitet
Inde x
Im mer
dec ade
Che m
Sam stag
G T
re tail
wor ben
K ategorien
zu gelassen
einzu führen
Friend ly
P hän
Rechtsstaat lichkeit
ist iken
'' '
An ne
iel ten
clo ck
Tun es
Finanz krise
ese it
F ut
au g
Aus einander
Tr uppen
Zugang s
Groß teil
V in
Se ver
mon t
p rag
con trovers
over looking
N ET
um ul
ach sen
Ho he
pa ket
every where
Den mark
exe cutive
pictures que
ack s
pass ing
Port al
ar men
Le ip
targe ted
G ay
Be ide
Im plement
er kannt
nütz lich
pro spe
hä l
Sm art
M ah
treat ments
n bsp
st on
Sie g
Foto graf
Bereit schaft
auf s
kun st
alen der
E vents
ö ch
iz en
bes orgt
proz esse
klass ischen
ange wendet
sh ift
sm art
Debat ten
h iking
qualit ativ
an zeigen
statt findet
ur laub
fr u
Do ha
bege ister
norm ally
it arian
ver weisen
produ ces
syn chron
künd igt
D B
K atalog
s la
ed it
li able
hier für
fäh ige
vorsch läge
co des
Welt krieg
niedr iger
IC E
l ighted
bo den
head ing
ie fer
Colle ge
Sad dam
S ah
ang le
oper ates
türk ischen
w age
Kon zentr
del n
present ing
Wik itra
ex h
Hand y
th aus
pro pr
Rei hen
pill ar
H aben
fr ischen
dr yer
War craft
neighbour ing
Bew usst
bewält igen
N E
lä dt
X I
r ess
ä le
im ents
Über blick
ver handlungen
vor nehmen
brief ly
attach ed
T ests
ol ive
tho tel
Män gel
ra id
Hand lungs
offiz ielle
n ail
str asse
ar ising
PE G
dee ply
panoram ic
X ML
B eseit
V arian
st unning
dist ort
Er haltung
prov ince
K openhagen
ann iversary
Best immung
lös ungen
Soc iety
Arbeit geber
neut ral
Mult i
ista ke
z io
se kret
mo use
F ang
Q U
end ors
Br un
inen ser
frü hen
H IV
fe et
cr y
Straß burg
k einem
bar es
mittler weile
P P
individ ually
ra gend
ou ter
Sonn tag
G a
eng aged
Ac count
gesetz lichen
Paläst inenser
griech ischen
teach ing
Wikitra vel
zu kommen
gest ärkt
Sing ap
C hat
f roh
list ings
greif t
ec ological
geäuß ert
trou ble
mar g
us age
ber ichte
Ze ich
amb ition
prof its
Ma ke
Invest oren
mp to
gegenwärt ige
n isses
pre dict
Vereinfach ung
ins of
por ters
kom peten
Den k
Stre cke
K und
Par l
Pet itions
Ferienwohn ung
horizon tal
iz iert
d auern
hol der
aut or
zeich nungen
Sport s
Som it
Jer usalem
effiz iente
Belg ian
Mit tag
Versor gung
- >
f esten
m istake
v ator
des crib
über winden
zerstör t
comp uls
fair ly
cu ted
bath rooms
therap y
S pl
z un
ak en
sel ber
head s
herr lichen
st anz
verwen de
fas zin
Wicht ig
ta st
An derer
high lights
arr en
P sy
Arch iv
Wand el
T onnen
press ing
Lo hn
Niederland en
be völker
manufact ure
reput ation
Sch lag
Lab our
d ance
Ver gn
sicher gestellt
Res ult
trans form
n ative
plic ation
ampions hip
er zeugen
Comm un
ad ds
zw ingen
appropri ations
c c
mutz ung
oper ated
Park plätze
il led
versch le
enter ing
angemessen en
R i
über lassen
polit isches
eng ines
Ex tra
Währungs union
Jahrzehn ten
chr ist
Energie effizienz
Instr uments
sen ken
Res idence
Berichterstat ters
on n
gew and
ci ón
Sier ra
r iding
Mic ro
B ou
th row
Con sequently
cop e
Design er
ar ts
ink i
digital en
geeig nete
beru hen
tw ice
strugg le
H z
ü che
ul en
dem ie
Nachbar schaft
Z er
be deut
Ma xim
Bran chen
integr ierten
ling en
Tele kommunik
Außen minister
decl ine
bes ucht
fun ded
Wirtschafts krise
dem ograph
re cording
oll ars
ol es
kon s
zahl ungen
condition ed
Auftrag s
Effe kt
M essen
aus gaben
enthus ia
C lin
for got
Gal ile
T sch
ch ern
tr am
graph y
thre ats
sufficient ly
exec ution
har ma
zieh ung
or i
E IN
er leichter
Wes entlichen
Expl orer
recht zeitig
Chr is
Are a
luxur iö
stärk ere
Jes us
R y
R enten
Hoch schul
Vis a
Ver zeichnis
hier zu
ste igern
rel ates
L änge
gest r
beg ins
Beseit igung
refer ring
Elekt ro
w ides
up p
unter suchen
reg ionen
ergän zt
Parl amente
inten ds
t é
her o
gar age
Fre ih
Relig ion
Pfle ge
ess entially
record s
chair man
medic ine
C ru
z icht
been den
anz ig
put s
kontroll iert
spezial isiert
t ip
rom ant
unmittel barer
M is
haus halt
con vert
dr uc
versch l
8 1
ed ig
Pr im
meet s
enor me
C ot
R ing
We il
serv ing
stru kture
def iz
aner kann
se gment
dies bezüglich
Apparte ment
un te
at on
Ber ge
produ cer
pa ce
Geb ühren
in halt
ay a
super b
gelegen en
Benutz ung
phenomen on
recht lich
secon ds
Amerikan er
Bewusst sein
K ampagne
h ause
CD s
pat ch
insp ired
old est
bedeuten den
Anderer seits
K äufer
zwe itens
Bü cher
op ter
Auto s
h ills
m ere
to ward
war ning
hy po
Elekt ron
Apparte ments
b aby
th y
gleich ermaßen
Ur teil
Mechan ismen
oper ator
efficient ly
cult iv
geograph ical
rec ip
D ingen
ag ents
Bild schirm
Im per
Drit tel
prospe cts
ge fühl
Re present
Omb udsman
Kl ass
länd liche
Verteid igungs
kilomet res
f abr
bo ats
zusammen zu
acqu ired
Hels inki
b aus
be wahren
AL E
anzu bieten
combin es
urgent ly
V IP
ung laub
Über tragung
log ical
Wär me
err ichtet
rä um
Veranst altungs
con struct
je glich
H ave
t at
ke ys
typ ischen
Projekt s
re min
halt ungs
st opp
t ort
Fün f
T ol
A th
A dam
K ennt
man ual
Dialog s
S i
Tr end
di ents
Mex iko
Zusammen halt
M ädchen
p has
Jugend lichen
d ollar
i Pod
B ER
to urn
se ats
Ober fläche
F uss
ver wal
hen ce
Nik on
an ca
auf fordern
Prä senz
sur prise
La den
app ell
constru cted
neg ativen
U sing
up grade
wirklich ung
Pat r
Eigent ums
man geln
Ch ic
occur red
ver knü
op es
ru f
scient ists
bran che
b ö
m ort
Kon zert
Todes strafe
S l
all i
Zu verläss
käm pft
be llen
pr ize
ör t
caus ing
Mand at
Journal isten
unter brochen
ehr ten
strict ly
h idden
con vention
Ge fangen
ster ben
And al
Sicherheit spolitik
fanta st
incorpor ated
gen z
nach ts
Akt ions
conven ience
es tens
ig are
ha i
or ous
Con ne
gem essen
Nor mal
Last ly
8 7
Spe ed
Jo int
nehm lichkeiten
te in
po ker
gekenn zeichnet
K DE
u led
high lighted
Produ ct
suc ceeded
Su ites
S now
as iat
be hält
res ulted
Aus gleich
favour able
consequ ence
Z auber
Kre is
coher ent
N ok
er sta
ev ol
Mon tene
kosten lose
t ab
candid ates
Wir ksam
so il
Ja zz
consider s
Ad d
Sco tt
me als
war tet
special ists
class ical
Ser ies
Dres den
Ven edig
as er
den jenigen
läss ig
G AP
b id
c row
in her
ch ief
genau e
authent ic
F lot
ver he
Früh jahr
pre chen
u ert
lä uf
kon zept
Inter nal
integr ate
Bedürf nissen
o ssen
’ ,
em ark
verl ust
X X
Air lines
bein halten
ado x
Nachhalt igkeit
f els
el and
St ör
Be grün
Umwelt fragen
Vertre tern
opt ional
affe cts
sophist icated
pre ad
airport s
e en
De partment
tax pay
diplom atic
man gel
hin ein
Tr ib
entscheiden den
bef ug
Wissenschaft ler
angene hmen
C ash
m ord
kl imat
Ab lauf
Co operation
Benutz ern
virt ually
Pil ot
Pac ific
ah me
vor gestellt
check ed
as i
ac compl
Sou verän
derzeit ige
profession elle
Th ree
dra st
graph ics
d ic
facil it
Engine ering
arbit r
associ ations
Ägyp ten
report ing
M igration
de em
sch icht
up gra
stor es
Dan ish
Versamm lung
sud den
E ver
ht ml
cho ices
m om
av iation
D üss
ie fe
qual ities
gradu ally
An hör
Sie mens
part ial
19 50
best re
versch är
kü mmern
a issance
20 th
trans fers
prison ers
unentgelt lich
Ter ms
Oper ation
Desk top
the atre
sen sor
gr ass
eigen er
exh aust
gr ünen
Be achtung
ator ium
min ing
iet ung
Spezial itäten
Flä che
. "
b omb
ch i
gült ig
verletz ungen
Qu art
prakt ischen
samm eln
se es
environment ally
Verkauf s
Ed in
v re
ge treten
Aus bau
yst al
mü ß
tro ops
fest zustellen
Hindern isse
Kohäsion spolitik
K ürz
Mass age
stechn ik
geräum t
N one
bere chnet
Sen kung
teach ers
müs ste
E A
re venue
anz unehmen
bel la
Mo dule
stor ies
re publik
gesch ickt
exp los
dau ert
Lith u
Bere its
encour aged
wides pread
S ort
il i
ver letzt
Hö chst
G A
V ide
198 8
S tern
col ors
explan ation
Betre uung
se her
ill er
gew id
offen bar
fund ament
kauf t
Constitution al
imper ial
K os
Vo y
bef asst
anspr uch
c s
Hin weise
Regul ierung
Sch ö
particip ating
A ff
Premier minister
lo hnt
ment al
Ar ena
Or der
L esen
ke ten
reich halt
bro ken
Cle an
se cre
ist ical
Ver wirklichung
Flor ence
krat ie
ct ic
pil ot
P y
h us
An meldung
At lant
ber s
see ks
Mechan ismus
gä ste
be aring
too th
Ergeb nissen
Wohn zimmer
Dat um
ö ss
р е
An im
ant as
acc idents
älter en
Ansprü che
so ul
ende av
ifik ation
Sob ald
L ong
be un
com position
gefähr det
v ibr
Nach mittag
E ure
O bst
ing ly
Un ions
real er
along side
Finn land
8 3
H alt
sp ite
fahr er
erklär te
п о
Ab st
inc ident
surpr ised
c z
Re par
Liefer anten
Treat ies
produ kten
effe ktive
Author ity
J os
context ual
clo sure
regel ung
wesentlich er
empt y
Nok ia
A br
k oh
im en
uz zi
A gain
ob served
sk a
Will iam
versamm lung
lang er
lossen heit
vari able
beabsicht igt
N ap
in folge
neh me
Gemein schaften
achie vement
s li
ard in
IM F
n ische
an forderungen
mit zu
clar ify
niedr ig
harm ful
ausgewä hlt
h ü
re ly
Vor rang
gere gelt
Leip zig
program men
p ending
op ens
Aus bildungs
assign ed
R SS
Y O
ad mit
Bes uchen
setz te
Dr ing
Dokument ation
angewand t
ver ank
As sozi
Modernis ierung
N T
W under
ut most
hä uf
renov iert
ur gency
pres erve
conver gence
woo den
B ier
er er
ste il
bring ung
cr atic
bel g
so eben
g lo
ne ts
sp häre
Auss age
Wirksam keit
i leg
Mit entscheid
stay ed
günst igen
Prem ium
Chair man
confer ences
book ed
jeden falls
Caf é
Entfern ung
ar ray
regul ated
Eur os
Rä ume
ge führte
Er richtung
т о
per mission
fü gt
illeg ale
B av
ein zur
ant es
müs sten
indo or
t ter
en der
gewä hlten
a kei
l uck
ein stimm
special ized
quot as
Edin burgh
achie v
Ver hält
Schl acht
F ace
sich ert
pure ly
haf tet
tr at
cl imb
är er
vict ory
i op
in ken
Ro th
junkt ur
ü bung
ta k
anzu wenden
Bur ma
l ib
gest altung
Z erstör
cap abilities
second ly
langfrist igen
gir ls
C uba
Fe ier
recogn ize
palästinens ischen
ad ays
pen ded
europä isches
K m
w ife
ic ian
aus üben
load ing
B lair
d rag
ma cro
spl it
Philosop hie
compuls ory
Sch r
wirk liche
mäß ige
Komple tt
beeinfl ussen
lo go
with draw
Ver mittlungs
wid th
tr ieb
Le ague
betra cht
italien ische
disp ute
com o
Str ände
F ord
y ards
Ma jor
Auf zug
humanit ären
Phän omen
Zuverläss igkeit
L or
br y
willing ness
un en
ver folg
Ver sicherungs
air lines
14 0
Innov ationen
kü ste
Fire fox
… ..
Vor stellungen
ed ited
R enn
dis count
beant wortet
gemü t
üt ung
communic ate
Rh ein
ell i
finanz ieren
ö hnen
In tell
K ra
Sch alt
reg ierung
il ation
Luft fahrt
maxim al
g no
ot ic
at te
pe te
organ ise
bel s
Betrie be
Pass ag
oft mals
gra p
ce ut
P on
8 4
K ür
s lo
be zeichnen
be merk
fest legen
an sehen
schwier ige
percent age
Hü gel
may be
Beschl uß
Smo king
bewer ten
Ein en
d ial
r öm
ann a
Aus arbeitung
ish ment
fl üss
Fremden verkehr
M ix
er neu
7 9
In spe
me dieval
vor zunehmen
develop ers
initi ally
B aden
kon zip
to ll
ad venture
fo ss
lap se
spf licht
L CD
b ast
Fil me
Che f
Ther ap
Riv iera
Montene gro
ze go
Er fordern
läng st
Sch m
geb au
hervor ragend
Wohn ungen
t win
ge liefert
oll en
exten ding
ing re
br ill
Je wish
Rechn er
Alp ha
un ab
iso de
design er
Di agno
S cot
Z immers
sch were
sch wach
relationship s
her auszu
Industr ial
T imes
bus y
H P
W W
ver breitet
ange bote
ven ues
ut ung
ap t
mär kten
er wiesen
govern ing
al ia
pre v
fal se
deck ung
Tradition en
concentr ation
hop es
Niger ia
E ti
amen ded
fä ll
Auto mat
Doppel zimmer
T ou
n it
Dan iel
berühm te
l ere
n amen
up s
Pro zeß
Bil dern
Kern el
Sm ith
In f
ac counting
Flug häfen
Weiter entwicklung
D M
en forcement
ess el
her steller
f isch
mix ed
ent fernen
Spir it
Re chen
N izza
co ach
beg leiten
aud ience
de z
pl ötz
sur vey
gefähr lich
v ior
Fin de
Jed och
le ite
act or
struktur en
D ia
de lt
est r
ult imate
conf idential
Valen cia
S Y
f ugen
M AN
ex pense
tourn ament
Sp itze
Entwicklungs hilfe
ape ut
Obje kte
schem es
M aus
Re vision
kon figur
belie ved
Gem ü
seem ed
dis krimin
techn ique
jun ction
he iz
Nutz ungs
an geschlossen
um zu
Arbeit nehmern
Emp ire
im plications
inter ne
Mar co
inn ere
Pal ma
stät ten
R ett
b ird
k at
and e
im s
igh ter
Kon vent
aufzu bauen
N ICHT
Br ut
Rat schlag
T ot
j er
j ah
ber ger
Al uminium
ü hen
pro spect
kon sequent
Über sicht
approach es
Aufl ösung
Wed nes
zu zu
short ly
T enden
be arbeiten
am ps
enn ess
car te
negoti ation
viol ation
Zu ge
+ +
K y
ver steht
stu died
moment an
kam mer
pain ting
würd igen
P ed
h abil
en vis
und s
len ken
princip al
L ud
af fil
form ular
Or ten
ear ning
news letter
Vermögen s
r ix
er teilt
Se ktors
cr ises
navig ation
lä ufig
Wer den
j ing
he ight
ide l
Nord ic
um m
Be vor
ac company
Se kunden
stat ten
Emp loyment
B ah
M i
M ie
S kr
T ieren
s ive
stay ing
UN D
M uster
o sen
it able
Kon kurrenz
Ster nen
Publik um
incent ives
con fig
ges ucht
click ing
T emp
k ä
enjo ys
K OM
Z war
Ge gner
Vorsitzen den
sch r
Aus blick
og a
stell ern
log ic
elimin ate
le ute
Sp iegel
gesch mack
Wer ten
Las er
Serb ien
ingre dients
our met
Prof il
surpr ising
F ile
H S
bran ch
Spr ing
Arg umente
K it
f anden
Copy right
druc kt
Ch ief
öl f
Sub ject
gesellschaft lichen
descri be
Über nahme
198 6
CE O
weit ung
g age
comple tion
Sam sung
sched uled
chap ter
p um
Ar m
sam ple
be lt
b ought
it é
welt weite
an wenden
as set
Ren nen
ad os
Her zego
cir cu
St imm
Fisher ies
Dän emark
ge heim
et a
qu a
Sch ick
transl ated
ehemal ige
fif th
R ichter
bes chä
ank a
constit utes
occup ation
Vorder grund
absur d
Düss eldorf
vor gelegten
ket ten
ux e
schl imm
Tun is
lo ved
gor ith
Unter künfte
medic ines
splend id
B enz
where by
um es
ex posed
zer o
Plen ar
I WF
R on
mon at
K arr
ver bindung
ga stronom
Erzeug er
remark able
n est
campaign s
Elect ron
beseit igen
ein seit
ab stain
OL AF
gen iessen
G ate
t schech
av en
ph an
verwen deten
satis factory
D L
vor n
Kre ativ
Steuer zahl
meaning fully
neighb ours
M au
vir us
Ro ss
sü dlichen
os ing
poor est
arrange d
Bestät igung
ab schließen
los ing
nehm bar
Volk spartei
weak en
Sold aten
ein gebracht
address ing
Dan ach
le ih
ve z
lo ud
do ctor
elect rical
Akte ure
Slovak ia
An reg
städ t
chn er
druck s
Mos cow
z ing
An nehmlichkeiten
Galile o
frequ ent
Fre qu
einge leitet
owners hip
verring ert
benach teil
O x
ör tern
exam ination
Internet zugang
chair s
List ings
E hre
R oc
el ig
Le ft
üst et
Le ban
gewöhn lich
d iving
ar ks
Res iden
B S
gere chte
Den ken
mäß igen
e uropa
or ted
auf bauen
Inter governmental
mittel alter
re ci
ir able
Bu ild
Är z
gewid met
F ans
n utzt
ort s
An betracht
Ris ik
H A
r ating
kur se
Zust ell
gemeinsam es
frequ ency
ig o
Be zeichnung
Niederland e
B ä
L ot
so ever
Se ction
refer ences
kontext uellen
ge kehrt
rat ification
s burg
to wer
ruh ige
F assung
pro zeß
über wachen
land wirtschaftlichen
öst lichen
path s
entdeck st
A y
um gehen
fa ire
gleich heit
cert ified
K G
e ase
ad m
man chen
Ph ys
gegebenen falls
Be fehl
her stellen
Cur rent
gol den
as che
ex po
sor ry
schre ibt
in ely
Aus weitung
Min im
kontext uell
enjo ying
Spazier gang
, /
. ).
Fo ot
F lag
P V
Um struktur
Leg itim
digit ale
d umping
cancell ation
G ir
iner y
** **
Souverän ität
th ick
Me ilen
Ex ternal
verste he
H uss
c racy
fol der
Sp am
innov ativen
grammat ically
I sol
x en
Dem okraten
context ually
legitim acy
D est
an träge
Kon junktur
Mon tage
mom ents
Gre m
hinzu fugen
An zeige
Mal ays
ref used
wohn ern
W M
т е
und ry
ges ichert
gest atten
defin ieren
opp on
näch ster
grammat isch
gen e
lo d
gl as
You th
EC D
Ges ell
e b
plan en
Infl ation
boast s
in ity
re agiert
le ger
fr ucht
tra ined
Kön nen
keines wegs
hilfre ich
Wednes day
H ändler
ad ult
An onymous
man agers
prefer red
Hist ory
E c
be cken
res idential
Kon ver
z og
th res
el der
Ko operations
heim ischen
Krie ges
rub ber
w i
ver öffentlichen
more over
Ne hmen
found ations
Schlussel wort
Schlussel phrase
… "...
for em
vor teil
per su
aufge zahlt
nom in
Geträn ke
J ur
la sten
Kon zern
ie fen
a he
g ie
and in
Pe ters
hinzu gefügt
Ver ab
arbeit er
Ereign is
Erwachsen e
ü br
Gre ens
tar iff
profession ellen
Commer ce
fascin ating
G ibt
ag on
exist ieren
instr umente
üb lichen
hochwert igen
escap e
deserv es
M illion
To gether
erst es
s is
fe wer
man ipul
chines ische
parlament arischen
ü d
Ein fach
genau er
timet able
ar o
fre ier
Min istry
text ile
198 7
IB M
secon dary
y ard
pla in
voll es
ök ologischen
on ie
ill as
consider ations
C AN
K W
K ling
as so
ob serve
coast al
het or
asse m
C ô
R S
ç a
zeich nete
journal ists
gr aben
erhe ben
S av
U V
ind igen
Se lect
O ECD
in adequate
So wohl
Cal ifor
zustand e
E del
ws ki
gew achsen
besonder es
trans action
Was ch
F abr
h ern
poss ess
statt gefunden
ativ ity
Verbrauch ern
er worben
re ifen
un dern
st al
T uscan
an ter
Universit äten
Empf ang
G ü
a er
sp hase
aus gehen
guarante eing
neighbour hood
Ab teilung
198 5
Rel ax
ver f
reich es
bus es
trav ellers
G P
G or
Ar ts
Deutsch lands
pl ural
deb ating
Pan orama
Sim ilar
elegan te
Dou ble
st ä
co decision
Mil an
Aspe kten
genu inely
Kompeten zen
ib ung
character istic
haf ter
ine a
mut lich
dram atic
Bos nia
repeated ly
d än
por ter
gener ell
ling u
T M
t ang
Verein igte
beteil igten
listen ing
C AD
be an
sekret är
f ell
ñ a
for ese
op ard
able hnen
beg un
erk unden
lö schen
bewuß t
s izes
Empf änger
Dynam ik
Er reichung
bre ad
volle m
vertr aut
C I
Re is
Kon vention
aner kennen
Partners hip
Beam ten
H ab
ber ichtet
met all
R uß
f ließen
Aus rüstung
Br ücke
pap ers
su ited
thumb nail
P atten
p end
p ensions
ein igt
am big
In genie
Ma ur
sub sequently
effizient er
cook ies
hal le
sicht ig
Mod us
Z E
Er folge
Ne uer
voc ational
Entsch lossenheit
R un
z em
un necessary
As ht
rie b
H ill
re fresh
forem ost
в а
vor über
Rat ifizierung
represent ing
üt ter
Extre m
AT ION
p fl
Re ferenz
Bes atz
Coun try
compar able
Moroc co
under lying
L od
p it
Ein es
economic ally
Rein igung
andin av
g iene
at ember
In kraft
Unter richt
energ ie
feat uring
Stabil itäts
gir l
Kenn zeichnung
Stor age
Z ahn
zu fügen
Ab bau
offiz iell
Al ps
expens es
bevölker ung
krä ften
Gew ässer
compl iment
Slow akei
atember auben
i ße
Ver he
com pete
bezogen e
S ER
un zä
auf recht
19 45
expand ed
f es
le kt
sch la
pr inter
Te e
aut umn
Fe ed
Sol ana
Francis co
C lau
K lassen
Nor m
GU E
L ibrary
W en
D J
Sch wellen
art ific
exam ined
big ger
spee ches
Ins gesamt
er werben
str ike
geb nis
schrift liche
desk top
Anmer kungen
C arr
wel le
plan e
purch ased
Graf ik
l ens
amp ere
grenzüberschreiten den
o is
land es
Gro w
w ich
größ ter
respe cts
Ha iti
Club s
D IN
ul tra
He ads
important ly
3 60
P i
the ater
arr est
inform al
beha vior
s essions
mult ilater
befür worten
Garant ien
T W
el low
l é
bevor zu
Komment are
intent ions
idy ll
Korre ktur
prom en
sl opes
Corpor ation
isch t
fore cast
effe ktiver
Schul z
Langu age
con stra
terr ible
fortun ate
bewe gt
K anal
l ively
est a
str ö
schwed ischen
n ament
ill ance
bo w
wid men
Sever al
Aus be
betr iebe
W eine
z weiter
se y
Durch setzung
Ru br
motor way
kompliz iert
Vil lage
cab in
Latein amerika
Z ut
IN D
Be hör
dele te
möglich keit
cert ification
Nichtraucher zimmer
prest ig
v acc
wor te
bei behalten
kl aus
weak ness
tr ess
ges to
stret ch
C oll
Z un
olog ne
Zeit plan
No bel
B L
ra ge
gel ern
wick lung
integr ierte
post s
suggest s
elektron ische
mag net
spo ts
Behör de
G elt
Mar ok
Log istik
verur teilen
un eingeschränkt
ann i
Zwe iten
aktiv itäten
enor men
arrange ment
D im
K la
Büro kratie
Asht on
ir ts
op enness
ac io
ev olution
tens ion
famil i
Sa al
Prof it
S po
Ber gen
20 15
stärk sten
fab ric
H um
inst antly
com pr
Vis ual
joint ly
, -
de voted
flex ibel
wärt ige
ausländ ischen
om in
ind u
aus wählen
com posed
C T
J ag
er led
gemü tliche
B ach
t ungen
con i
He kt
trib ute
cal endar
ir ak
vious ly
Hä fen
compla ints
Vene zu
t ier
Ver d
spect rum
ent täus
stell ten
Qu oten
amend ing
Univers al
excurs ions
E hr
a j
be weg
tho use
tes te
SD L
accur acy
K lang
T ank
for cing
Her kunfts
wa ke
Up dates
C 4
H alle
H ände
m und
ho hes
appar ent
bedro ht
m ater
un k
be zü
kun de
" ).
er lassen
ho c
fl ash
trag ic
Net ze
Urspr ungs
li zen
str äger
inter view
fre cht
auth ors
For ce
kosten losen
Plan et
quant it
Klar heit
juris diction
De posit
access ories
Gemein den
sp ell
ple d
typ isch
AL DE
H OT
nöt igen
büro krat
c ket
re med
finan ced
krank ungen
ar ians
res idents
dest inations
altern atives
behinder ten
E IB
olog isch
mus ik
span ische
klein ere
ent spann
Aus richtung
T ief
Br idge
] .
be wegung
Verhand lung
ein laden
cons isten
turn s
maß geb
Re icht
kur zer
distrib ut
fahr ts
Miss brauch
Bestel lungen
estel le
Köl n
c uss
Austral ien
ersten s
ampag nen
toile t
f ault
or ium
be am
Con tact
M I
P ur
y ers
er teilen
ver mittelt
ip pe
Pl atten
famil ien
Fort setzung
Zur ich
Werk zeuge
simultane ously
= "
geb äude
Pal ette
manufact ured
sun ny
forgot ten
R ic
schl üssel
according ly
arab ischen
W ireless
her ein
wä chst
find ung
aktual isiert
K ore
inner en
clar ity
Funktion ieren
vertr itt
lo v
ben ch
An dr
geb nisse
So wjet
Kon serv
termin al
S MS
er arbeitet
an bul
nor men
inspe ction
Gefän gnis
str om
beit rä
Stat istiken
drän gen
Grün buch
G il
qu elle
cell ence
post al
Aben teuer
l assung
auf nahme
ide ally
Au fr
install ations
modif y
Auss agen
measure ment
P au
Sch re
legen d
Br ü
La sten
gang s
empf än
Urs ache
krit erien
Schick sal
Er schein
conf ident
Govern ance
Fel der
e ure
unterschied licher
orient ation
Wahr ung
Freih andels
J acqu
hol z
del ight
Ad van
H ör
ü re
re cru
äs id
South ern
Ferienwohn ungen
ge ehrte
end o
Mit two
Bes tell
gest iegen
Pl ätze
Ren aissance
a qu
zu geben
iz z
bo om
chem ische
Kennt nisse
author ized
r ying
ce iling
Se en
sol ch
zw anzig
col lapse
preserv ed
trage dy
Grow th
ze igte
ven ted
answer ed
K im
K art
N EW
as is
con vey
mo s
ähn lichen
m ary
anzu passen
v ot
г о
ein her
Proble matik
zus agen
fal sche
um gehend
Ein fl
tre as
Fest platte
Cô te
m ant
ill on
wä sche
sc ore
sof a
Vir us
P ut
re vised
be weisen
He im
per pet
Mensch heit
4 50
S äu
s ul
it is
sol o
Nach druck
Bon n
Protokoll s
sü d
pharma ceut
P harma
19 30
öffentlich er
er örter
ver geben
zess ion
fel der
Liber alen
afford able
af raid
fall ing
ckt ail
Palestin ians
or ter
le ge
op h
ak ul
prom oted
find s
bewer tet
Wicht igkeit
B ell
en viron
be ef
viol ent
i dem
fr ank
sa ke
fert igung
K eine
In halten
po et
dep loy
Ther mal
Mittelme err
behaup tet
K lo
what soever
Con troll
überras cht
ch ung
al uminium
lo ans
part ition
Kon sum
cent ers
express ly
remo val
Zur ück
w inner
ber ichterstat
ph i
con version
ens ionen
Gemein sam
Dienst leistung
B ureau
Ver sprechen
ass urance
liefer ung
Califor nia
2 nd
un ions
continu ously
900 1
R in
re call
no body
affect ing
rei ze
chest ra
ir t
bas ically
kombin iert
Verhe ugen
K ein
le hr
ver sehen
incl usive
Vir t
st ern
sch rank
br ands
Finn ish
op pose
U fer
k new
str engen
euro zone
heraus ragen
Shop ping
er ungen
he ct
Mö bel
stät igkeit
arbeite ten
ipel ine
Ver länger
elector al
R af
b icy
g on
t um
pro cure
ma themat
Auf hebung
leben den
mechan ical
publish ing
irl pool
et r
Er öffnung
fun ktionen
Pe ace
ausgestat tete
Sau di
mar king
Fre edom
Mac ed
t ausend
z ia
Vorgehen sweise
S ac
gen öss
la kes
amp ion
Volks wirtschaften
d in
klär en
dead line
K lin
re p
se bene
vor liegt
And reas
lange m
komplex e
J ar
ger ingen
trop ical
stopp ed
comm end
De ep
eth ical
Defen ce
Mittwo ch
M und
T NG
sa iling
umfang reichen
Olymp ic
respekt ieren
dim ensions
Ziel setzungen
atten ded
progress ive
reib ungs
tät igen
v r
wo hnt
Part ic
verständ nis
Wün schen
Theor ie
bu ying
Chancen gleichheit
C lim
M ischung
aus wirken
Lebensmittel sicherheit
bas ieren
Altern ativen
landsc ap
liter ature
C ologne
T ampere
mon uments
Einzel heiten
architect ural
komplex en
doub ts
Kür ze
re lief
bei der
Weiter hin
erheb lichen
F utter
H old
Ein nahmen
hör t
Ind ik
health care
transit ional
ir n
innov ations
präz ise
Inter vention
foc uses
Phil ipp
Termin al
ab stra
cho se
Adr i
b ist
we hr
Pr ize
ider s
Other wise
endgült ige
Trag ö
Föder ation
Con serv
Ste igerung
relax ed
G ute
ar te
Vor red
verurs achen
ad vent
bel ongs
integr ity
b aut
vis its
än gen
quant ity
österreich ischen
erwähn ten
Beschrän kungen
Re präsent
tra ce
ange kündigt
Dies en
18 th
stress ed
ä ss
der selben
attra ct
gemü tlichen
mov ies
begeg nen
To wer
klär t
einge tragen
Grö ßen
Georg ien
T EC
b ib
ie hlt
de lays
rif ft
Russ lands
ref use
stop s
ü ge
ver mögen
Terror isten
renew ed
ro v
EUR O
jähr lichen
verw iesen
Syr ia
Geschle chter
über mitteln
wachsen de
Her kunft
par ameter
Geb ir
vertr auen
K atal
z immern
fre ige
zw ölf
vi able
Invest ition
Offen heit
T aten
per ipher
stimm ungs
grant ing
Millenn ium
C ome
vor sieht
kön ne
Arbeits losen
offic ially
drän gt
Represent ative
L ap
S ul
Er arbeitung
prof ound
Aut onomie
J ugoslaw
erforder liche
begrün det
tatsäch lichen
D ur
N OT
wir ft
Zimmer beschreibung
observ ation
distin ction
geb ro
techn ischer
decl are
Bos nien
Voy ager
T w
V it
fort setzen
bro ader
ab gesehen
12 5
oblig ator
Pro test
Pr est
ystem s
spür en
a o
g ten
ab gegeben
regional er
angenommen en
st ücke
occup ied
verab schieden
getr ennt
NG L
sold iers
erleichter t
fre ight
fur b
so genannte
ret ten
Liter atur
b om
r aums
Г ј
st et
Aus nahmen
N ight
st ipul
ge ar
modern er
adv ise
Minder heit
privile ged
Geschen k
fre ul
ose x
schle chte
e gg
ic i
real isiert
foc using
prec ision
exhib itions
C M
H änden
il lo
contra dict
Ist anbul
medizin ische
Andal us
da vor
post ed
H our
s ach
dam al
organ ize
public ations
gefähr den
arg ue
Log ik
dur ation
N ichts
re m
gest artet
formul iert
alloc ation
elegan ten
Zerstör ung
wunder schöne
er arbeiten
ver arbeitet
ign ore
deut liche
auto motive
felt reffen
R ural
krit ischen
Cap ital
C ou
F uer
arch ive
mus ikal
Dam pf
gelegen e
catalog ue
S ong
tr uck
Ma ils
E cht
N RO
k orea
fo under
Bet rifft
Sh are
R aums
n ier
н е
reichen de
in kl
Th y
str ip
Men gen
Fisch ler
c ameras
des erve
dies bezü
beg ünst
zentr aler
forman ces
Gip feltreffen
Roll en
ver teilung
ver bindungen
ach ed
ident ification
Bil anz
newsp aper
emot ional
Install ations
he ft
research ers
Erfolg s
ermut igen
min es
territ ories
Konver genz
te enth
char ter
plan ung
erk enn
concer ts
to ugh
se mi
du al
when ever
K äm
ge habt
ist all
Ver ordnungen
can o
Süd afrika
relevan ten
surve illance
H i
ic ars
fr isch
bre ed
Bei jing
am ar
demokrat isch
verz ichten
certific ate
Welth andels
az zo
AS S
tra ins
achiev ements
Re lease
Ch ange
FA Q
prestig ious
3 000
zu gestimmt
ber at
Ar c
Der zeit
int uit
sc ulpt
cred ible
ver arbeitung
inter active
prom ising
fu hren
neigh bor
beru h
angeneh me
Re cent
per ce
Sol utions
bo d
Char me
empfän gt
k lin
sho ck
geb rachten
schre it
Holl and
D iffer
Wieder herstellung
sched ule
F as
G alerie
R ass
b ass
er öffnen
ther apeut
Mar x
interess anten
St ick
prepar ations
Wik icars
cancel led
miss ed
Slo wen
popul ations
explicit ly
C ert
C AM
H L
g te
fo ster
wel s
Bar on
M ary
at em
at ik
prec ious
H em
bl au
Gro ßen
stu fen
h ors
ü ste
un ting
Unter haltung
Bro k
Privat sphäre
sym path
benef icial
erstre ckt
t ight
el i
ag anda
ans on
mechanis men
auf re
if ts
ip ulation
prem ium
g li
an to
schaf ter
sign als
greif ende
host s
Sh uttle
las er
Jos é
C ult
ter en
mach inery
Yo ung
J et
geb ill
sicher er
niedr igen
ursprün gliche
sec ution
Zert ifik
fac to
an passen
un usual
spiel te
tag on
f lying
un known
auf geführt
la via
dr ives
under take
gemein samer
mä h
Tal iban
ro se
il der
bes icht
zug s
B org
u he
aus ger
necess ity
reveal ed
Tarif a
Begrün dung
s hap
ma ps
mat ure
akt ions
pers ist
kö mm
J ane
re ct
dis put
my th
verstär kte
sil ver
pap ier
Karr iere
S ix
r ust
s wert
aus sehen
eindeut ige
Aus grenzung
verein t
adjust ment
ro us
ber ufen
ag g
S hang
with dra
President s
Jun ior
ipol itik
S ri
á r
er weisen
Er halt
Formul ierung
G allery
N A
O cean
est yle
Be wohner
ss ier
deb ated
promen ade
J ac
p act
verm ieden
sand y
metho de
J ordan
ed a
An na
oc ol
Every thing
religiö sen
proxim ity
C AR
S I
h ielt
ver mutlich
ungs bereich
feed back
diesel ben
Sp y
red und
rele ases
instit ute
refle ction
genie ßt
Ausbe utung
alt ar
Hy per
deter ior
ph y
medizin ischen
beruf lichen
gelang t
Mon ti
mechan ismus
197 9
green house
jeglich er
- )
st an
Um stände
Str asse
employ ers
nation als
G on
pl ätzen
zur zeit
Ne ues
eig entliche
komfort ablen
diesel be
gelern t
K red
En ts
iver se
rul ing
Huss ein
um so
fe hle
zeich neten
Wes en
ver liehen
Unter drück
leich te
änder ungen
bl att
C are
F inger
civil ian
Adr essen
ein treten
sen ior
pre vented
schen ken
pres idential
typ ically
infl uen
sus pended
C in
comp ass
Min ibar
Fin anzen
L ern
ein iges
sch m
po d
mag ic
hän ger
Bl umen
Ser ien
Train ings
cer em
verpflich ten
H I
ome ters
zug ute
col onial
amb res
berühr t
E E
N av
s cre
ú n
Con ver
läu fe
son n
Ord ner
gewünsch te
gebro chen
K och
P az
An gabe
industr iellen
spect ives
ökonom ische
gegenseit igen
Präsent ation
B in
G io
out s
pun kten
for tabel
ne o
All tag
har bour
ver schaffen
hand ed
far ben
tele communications
negoti ated
Abgeord neter
conserv ation
HOT EL
F ly
T ube
er ation
integr ieren
writ er
Technolog ies
Innov ations
Aut oren
Pf lichten
befür wortet
w ahre
wh el
ank ommen
kom pet
geeig neten
Menschenrechts verletzungen
L isten
Z imb
ren omm
sonst ige
al i
mat isch
log istics
Jugend liche
photograph s
L anz
S creen
sp are
glau bt
Zun ahme
un certainty
fr ustr
clos ing
D ist
h är
Hand lungen
Com ple
verb and
!! !
Spezial isten
jüng ste
lass ungen
Verab schied
F akten
Tour en
academ ic
K uba
R ay
re furb
St raft
sen der
wor rying
dass elbe
etz ung
Reg ard
indic ators
an x
best ände
subs cribe
chem icals
spirit ual
Stu fe
Democr atic
Berat ungs
I biz
he ated
men ge
dis ziplin
favour ite
Kunst stoff
verz err
P ER
T os
er läuter
to ps
est ag
Ta belle
ausführ lich
z ones
en rich
al in
ein stellen
Argent ina
S in
a co
ur er
Gen uss
Süd ti
C orn
H ub
f este
Ver folgung
W atch
w öch
real ize
Verabschied ung
B ase
ser b
zusammen arbeit
threaten ed
B ühne
S anti
Bes teuer
Zimb abwe
clo thing
Kapaz ität
re placement
rat ified
problem los
Arbeits zeit
Kü chen
organis ierten
Rou te
Vertr auens
emer ged
Heil igen
K el
Ver bind
Exper ience
cl im
Pr äsid
crip ts
höch ster
taxpay ers
Wh ich
acquis ition
Wäl der
ver age
com prises
hand lungs
Um wel
announ ce
Französ isch
g ul
ill ness
az z
box es
Nat ural
klein eren
Nichtraucher zonen
M s
is ons
Produ ktivität
reib ungen
G am
g ingen
m mer
ab geben
demokrat ischer
Gesetz geb
Pic ard
Jacqu es
g ip
o ul
all a
ble d
wün scht
Sar ko
B und
st unden
durch zusetzen
schwier iger
Funktion alität
L ärm
W ille
b lieb
ver sicherung
automat ische
Betr ug
bedauer lich
Spekt rum
con front
auf gestellt
ill es
ste iger
ste cken
Tür en
Adri atic
л ь
mer ken
Gew inner
Dritt staaten
fit ted
Argent in
as ion
contract ual
A bo
л и
su chte
man ifest
bis schen
far ms
Bürger beauftragten
thank ing
light ing
später en
ir ische
Kre bs
Un til
Se ven
best änd
hol es
supplement ary
Psy ch
R ang
k la
dis plays
rat io
Kommissions vorschlag
Marok ko
K ie
l us
Fr ied
author ised
pot ent
verfahren s
heut zutage
purch asing
B om
C anc
negoti ate
Sum me
evalu ate
Gemü se
in sufficient
De leg
sign ing
lies t
S us
er hol
sh el
ausländ ische
B B
im ported
Ver sorg
An träge
Co st
Mein ungen
date ien
Pan oram
er langen
Ber ater
fahr ten
citizen ship
r in
pattern s
R T
not ably
cater ing
P last
hes itate
Fischere ipolitik
endgült igen
over whel
Erzeug ung
r ival
mon ument
kr ie
Bu en
Dis play
gerecht fertigt
al ike
Re ader
just ify
death s
mist akes
) ).
lo vers
fa ils
war s
consist ently
Einw anderer
Gebäu den
Verlänger ung
ger inge
att ent
Bu ffet
nachhalt ig
K ö
form ing
einge laden
grat is
str ange
mon d
Con ditions
pat ents
jud gment
Ca thedral
spekt akul
B le
r ar
is c
and em
Zusammen setzung
pay s
C hap
Ge win
ge ograf
am id
Ver suche
men ü
down loaded
perform ing
R ac
mo ves
defin ing
M ahl
в о
coun cil
Vis um
An bindung
tra il
last et
Dr ive
198 4
T able
T ues
Wien er
unter nehmer
Per u
cir cle
mand atory
domin ant
cook ing
f liegen
к а
tr es
mitt lere
Frem d
sta ats
Ex cellent
gener ous
air line
indic ates
Scot land
auf er
In halts
agre es
Konstru ktion
Produz enten
get ö
demonstr ates
F F
re cession
id ance
An reize
Aus übung
Distr ict
S AT
err y
cop ies
reisen de
D ru
be at
Mit t
tim ely
human ity
Com fort
R ö
en kt
Ange hör
DI E
t ips
inter med
unter scheidet
bed ienen
s enten
intell igence
Be urteilung
San ter
occur s
angeboten en
Belast ung
L aur
ar ier
st ür
auf einander
trans mit
appar ently
bureau cracy
( „
ruh iger
17 0
kosten frei
AP I
ced es
schön es
Sloven ia
Repar atur
pass ieren
besch reibt
Kern kraft
a es
pol nischen
heav ily
ke en
ann ing
bein ahe
Klimawand els
Erwä gung
pfl anz
Menschen rechten
down town
Stud ios
Lithu ania
is n
al ign
cr ash
vo ices
drin king
Yugos lavia
Dar fur
Schnitt stelle
as ien
dar gelegt
sim ul
IN TER
organis ierte
beschleun igen
withdra wal
p d
Ver ts
applic ant
initi ated
maxim ale
defic its
Refer endum
Made ira
Oste uropa
A ctive
i ated
not ified
ste hung
Mar c
wert volle
favor ite
einstimm ig
A ma
R ight
T reiber
Ver mittlung
empf iehlt
Versorg ungs
M iet
am bi
ad ing
inter vene
io x
alt ies
Fest stellung
fe ier
cre ature
bil der
Vis it
spie geln
überw acht
Ergänz ung
f inger
ton nes
Schutz es
Mil ose
cop ying
freund schaft
Berat ungen
S end
S top
besch ließen
verl änger
Vo gel
church es
h ungen
iv ir
ug gl
bra in
coordin ate
engl ischen
Flä chen
um a
um ed
Inter pret
prom ot
spec ify
contrib uting
3 rd
c aught
z usehen
on ds
gu ards
Ex hib
nut rit
Ver me
sa al
qual ifications
terr asse
return s
sag ten
Steuerzahl er
ch amber
ch ocol
Consult ing
J on
tem pt
gef angen
convent ions
p ir
Rück gang
vertre ter
M D
An wesenheit
advert is
conver ted
vereinbar ten
D ich
ass ungen
where ver
geplan ten
ün den
staat licher
Vertr iebs
israel ischen
F O
F ok
meas uring
anal og
Verletz ungen
ge achtet
ier bar
bir ds
ausreichen de
A str
pr on
bor ne
sett led
Er ic
system atic
stream ing
prem ises
Muse ums
Edit or
im posing
Le id
technolog ische
grün dete
ehr lich
Div ision
F ab
le ather
sh ell
Dire ktor
gewinn t
elder ly
se ktors
fen ster
Ab schluß
Techn ical
Geschä ften
unanim ously
Mehrwert steuer
H anno
b ä
work shops
Sal es
competen ces
t auchen
sp unkte
CO D
russ ische
Gewin ne
re act
über geben
Mot iv
Vertre tung
sch alten
ben annt
nam ens
Qu ell
schön er
geleg te
alle t
rest aur
p ig
ein führen
eig entlichen
Cre dit
on ing
ier tem
auf wand
dire ctions
bewahr t
sch a
Lic ense
N CC
P ul
procure ment
teil te
hol fen
stay s
DS 9
G ärten
nu kle
experien cing
mem or
Hit ler
Schwimm bad
o z
ou ver
do t
ange legt
pass es
dist ur
sent ence
M eld
S ien
su ff
aus stattung
For est
M auer
ein nehmen
la ying
tr ennen
Pr äm
ok ol
tain ing
bal ances
Red u
rei he
geist igen
Beob achter
break ing
perio de
bew iesen
196 7
Olymp us
Trans l
Social ists
lager ung
ordnungs gemäß
viel seit
expo sure
S org
ent a
Bes itzer
Energie quellen
sonst igen
F lo
p reg
gel ingen
cor respon
ausge de
kom fortabel
bi ological
Ju an
prev ail
H as
J ak
P has
ang ere
Rahmen bedingungen
Arbeits gruppe
respect ively
197 8
L och
gesch ritten
Besch werden
ate ur
vor behalten
was h
blick en
pot entially
pursu ant
slow ly
über legen
spät estens
Anton io
Santi ago
2 20
et schen
li ver
appro x
Geb ühr
degre es
Haup tz
ver sprechen
kommerziel len
f acht
t one
cre ativity
integr al
vielfält igen
Ibiz a
k ong
work shop
appreci ated
Konzentr ation
Rass ismus
N ature
t v
Er be
12 8
leit ungen
cam ps
beeinfl usst
am ple
ver bleiben
Kon figuration
passen de
inten se
sil ence
Angel es
m esse
is st
An hang
lag ern
gerä ten
ärm sten
L ind
н ы
all ing
Kon tra
visit or
Mü ller
Einschrän kungen
f et
Ar zt
iz ens
structure d
assure d
Cho ose
municip al
C ra
essen ce
Schau spieler
a wa
der jenigen
be trag
em ission
Lo ve
Ta ste
unter wegs
Le uten
Grund sätzen
Israel is
O ra
tal ent
marg inal
P om
le m
de cent
em e
la ps
onen te
Rel ations
insof ern
us ste
Co ast
watch ing
ein geräumt
de tr
ver zeichnen
pf ern
trans formation
she ets
M T
zunehmen de
Prov ence
Verteidigung spolitik
Ruß land
bre iter
Ko hl
eigen em
gesam melt
Rück en
Cal a
consisten cy
d ollars
ver wirklichen
meld ungen
b les
ies e
hon or
accommod ate
kee ps
Elektron ik
Malays ia
Thy ssen
k ids
auf gerufen
teil zunehmen
Erd be
M ug
in ischen
mer kt
os is
Zu frieden
L earning
ch al
is y
st ones
reg imes
Ge ben
stütz en
autom ation
fr au
ann te
statt dessen
R AM
ol as
ver breite
Kon ferenzen
Auf nahmen
abkommen s
controll ing
Shang hai
all mäh
ür en
vor gehen
Beschäft igten
S her
Schne e
disput es
H ôtel
m ad
er ad
et ic
aus drück
An bau
St ich
view ed
kom pon
head quarters
Gerä ten
foto graf
T ö
po the
Ein schätzung
entr ies
B road
ungs weise
prü f
prob ieren
Mar ine
forder te
schw ung
uz z
bio diversity
Spann ungen
Inkraft treten
hand led
gesch oss
Po ss
contin ental
terror ists
parad ise
A ka
K up
con vers
ers atz
Mar g
Iran ian
Class ic
A par
H aupts
th al
lok aler
belieb igen
K ne
x x
st ü
wel ve
pursu ed
Regional politik
thes is
arbitr ary
c art
krit ische
expand ing
erb aut
it ive
sp err
St orn
exter ne
bag s
lad ung
AC K
cro ps
fulfil led
p se
per spectives
unst able
för m
Prä vention
roll ing
in akzeptabel
min eral
warm ly
Rubr ik
low est
rad ik
H ur
L ar
ge ziel
icher ung
star kes
power ed
Auto m
post pon
Übersetz ungs
zeit genöss
ikan ische
Get re
Super ior
p iano
un employed
voll ständ
Imm un
C ab
real istisch
technolog ischen
Ap ache
Be zir
Unter lagen
Ch ir
find ings
ober en
C ad
ha ven
Pal acio
21 st
Bü ros
: :
S U
and t
Europ ar
St off
ument en
respekt iert
ar me
A li
che ese
Gr ab
Le hren
invest iert
cover age
Sü do
suggest ion
capt ure
artific ial
C V
R ind
e cht
Herr schaft
Instrument en
Konzep te
Commun ist
P ast
b aum
d il
Aussch üsse
C old
n ick
er fasst
Col or
emer ge
Lanz ar
b one
will igen
liz z
Re cord
wor ry
fe as
Far m
pre lim
bl ame
Merk male
Q uer
se ch
wirtschaft ung
Landwir tschafts
Anhör ung
erweiter ten
f lich
z eln
fol glich
tho do
wirk ungs
pract ically
vernünft ig
erneuer baren
L ido
Inter face
Sitz ungen
Pier re
S per
s alt
ver arbeiten
dam er
ernsthaf te
controvers ial
sit ät
bas ierte
in depend
ir y
Pro gress
treat ies
Tor re
mod ular
Bedien ung
Ver stär
vor bereiten
fe iern
akt iver
fahr zeuge
specific ations
Tax i
plötz lich
b ien
at ro
per formances
ör tlichen
Ab u
Stud ium
swe et
kontinuier lich
Kreativ ität
unter breiten
bereit ung
Techn iken
conv ince
bes tens
mer ch
Amer ikas
Vergn ügen
I O
J av
d ust
pe ak
nach läss
Verlust e
scr utin
kapaz ität
Hanno ver
F at
sp am
Fe atures
figur ations
Individ ual
transat lant
e g
General sekretär
Gel ände
Überwach ungs
Syr ien
par adox
real en
harmon y
jem als
photograph y
Medik amente
Ger ichten
h ire
an schluss
des irable
gra ce
special ities
Hö hen
plat forms
teach er
Tues day
c ache
sol ved
Gu ard
ersch ienen
alle ine
gu itar
Ele vator
SS L
ausgewä hlten
describ es
d ein
Un fall
ann el
her kömm
Ein wander
Unter zeichnung
irgend wo
X L
ges onder
net te
Ma zed
14 9
bew aff
beizu tragen
Sarko zy
tä usch
leb te
sha ped
wirks amen
T ob
Ver markt
Ost see
temper atures
ere ien
ta pe
com od
ens ional
An reiz
ak i
vis ions
Fre uen
Mot to
krit isch
AK VIS
Inner halb
tak ings
che iden
Ben j
DS L
Eigent ümer
Übereinkommen s
detr iment
be arbeitet
ret ire
Krä ften
Communic ation
Venezu ela
L D
L om
р и
ein drucks
set up
Fern seher
emphas ised
erörter t
Klo ster
thres hold
no ck
weit aus
PC s
bureau cratic
Weiß buch
Optim ierung
Ob viously
typ ische
em bra
men gen
Aus ge
loy al
Gu ant
schwer wiegen
197 5
Pan as
sper iode
genet ic
G 20
L uz
Re zession
ious ly
normal e
enlarge d
bedau ere
S H
sh ut
stre cken
Sol che
nehm ung
pal ette
he bt
Erweiter ungs
S can
be wirken
sch aden
Ver w
fort gesetzt
sy mb
date i
Similar ly
getö tet
Ver lag
zwe ier
hö he
OR T
Cit izens
N ull
S id
i qu
coun ted
prom inent
hil fs
soc io
198 2
Koh le
M u
dis appointed
vo ters
Comp et
Jack son
breath taking
p ine
le z
us a
gest ütz
Fin ance
üh le
ien to
Zu behör
Wo od
bro ws
Organ ization
il a
ün de
bil anz
Lo go
sal on
B ath
d igt
lich keits
über mittelt
Qu ick
modern es
bat tery
Hel p
Leban on
ent worfen
Be wält
under mine
expla ins
partnership s
in begriffen
ch ambres
not iced
Ex cel
cho osing
IS T
rece ives
IC A
Hekt ar
r unde
che f
lin ess
Parliament ary
Stre cken
Que en
Wart ung
Äuß erungen
s hr
ange wiesen
Vor gaben
besch reiben
kir che
paint ings
h ändler
ce ase
sho ul
fair en
trig ger
Besteuer ung
in tr
Be auty
Fre il
deut lichen
talk ed
thorough ly
Ot to
ch ip
fü hle
fin est
ue ber
pre ced
Ch an
C i
G ulf
K ör
L ip
al and
ir regular
em en
haus en
Eing abe
verm ie
Alp ine
An griffe
warm ing
Treib haus
Panas onic
K alender
W ellen
ge handelt
pol is
Se le
olog ischer
prelim inary
Ho sp
pl ing
schließ e
neg ativ
acqu ire
l uft
kon serv
them es
avo ided
Drit ter
Mult ip
verw alten
Cub ase
auf gaben
res ted
Eigen schaft
Kapaz itäten
an teil
be fre
be find
we igh
Hol ly
Buch ungs
Aktiv ität
scen ery
ing ung
Energie politik
substant ially
Cer tain
Bat ter
a gr
Gr iff
net ze
develop s
regul ate
cr ystal
sign ature
Addition ally
incred ible
z iger
teil ten
Mon tre
hö re
dev ast
gewiss er
erwähn te
i ère
Par ks
mäß igkeit
sw ift
controll er
k ed
über wach
är enz
zen s
camp ing
a al
von einander
ap ol
ru ft
liegen de
gain ing
konstru ktive
Mittelmeerr aum
c ular
Sch mid
tro cken
bas ierten
Gem äß
flo wers
board ing
benutz er
Bewält igung
d al
Be kannt
ru fe
consequ ently
cript ions
Wolf gang
G all
j ack
w ast
bot t
Atlant ik
L iban
W A
str itten
meant ime
c ant
ru he
Gegen wart
einzu gehen
älter e
läu tern
on ze
we ib
lic ence
Min eral
sur fing
ohne hin
Flug gesellschaften
centr ally
Ober flächen
the ast
ex changes
Vor feld
ausge ht
Enter tainment
Iraq i
incent ive
r ivers
y ellow
under takings
näch st
exe cuted
endgült ig
qualifiz ierte
none theless
E hren
k id
er ten
ab und
vor kommen
tell s
dio x
F P
P ict
re per
ro ut
op hob
tel ling
age ments
br ä
bro ther
'' ,
Palest ine
propr iet
F oc
In haber
R od
j üd
der ived
angeb lich
Victor ia
T AC
Ein tritt
197 6
Zuständ igkeiten
k ok
and el
sch ol
Al ong
log in
sin cer
aktual isieren
E ther
m ischen
or ig
ges chen
We ek
equ ity
ped estr
isol ated
s ä
in cur
nach denken
sho ts
De clar
stat istical
Elekt r
Attra ktionen
S IM
g au
ar ro
Sch eit
meas ured
check ing
h ind
mir ror
E cke
st aben
le ister
ra ises
gu ides
nöt ige
vernünft ige
schritt weise
Mol do
Lanzar ote
for ums
kon to
pen den
kün dig
express ing
196 8
mä ss
M ig
wir tschafts
Un sicherheit
Er neuer
lä ub
änder ung
hä use
Fol ter
G ült
be denken
inter institutional
unter breitet
recht fertigen
Tem po
deem ed
pharmaceut ical
B ob
dam aged
ckt ails
ad mitted
Be zahlung
Or ts
Every one
Tim or
circu it
icht lich
if er
Ab out
äd igung
häl ter
f ought
ne ider
Al ber
cont est
Haus halte
ilt on
A A
v ens
re z
entreprene ur
M ID
finan ces
draft ing
Ban anen
Tran sit
E K
T ut
g ien
Ä hn
er örtern
ein gebunden
sch rieb
ab schließend
sport ing
mi xt
Maced onia
B lizz
G H
con gress
conf usion
Ka thedr
gy m
declar ations
belong ing
h ide
sch merz
dr ingen
uell er
Mer cedes
celebr ate
bilater alen
Advan ced
re cycling
Le hre
kon sum
RE ACH
Verk äufer
acknowled ged
ne ur
art iges
Auf wand
Ro sen
Chr isten
ch tern
com ings
Pro per
inter action
ins ula
Welt wirtschaft
einz usch
activ ated
Nor way
Os lo
N ear
er läutern
Ro und
Beweg ungen
N ev
м е
al ed
ein halten
Be haupt
wal ks
konzip iert
comp are
ließ t
Air es
ac id
Kin des
Tot al
Fuer te
F T
ge braucht
fr es
wa ges
conne cting
erfolg te
effizient en
m igr
s can
est imate
tre men
wom it
discip line
D U
Hol y
erinn ere
Ern st
Betr offenen
grenzüberschreiten de
detaill ierte
, ...
C lose
Sie he
wor ding
Se gel
hel m
Minister rat
shar p
K ul
found ing
tail ored
ra gt
Flug zeuge
Bewer ber
w uchs
mult imedia
Dis ziplin
gute m
verz ö
ne gl
olog ien
versch mutzung
public ly
clo thes
Dis cover
Prä z
beiträ gt
r hyth
anc ies
günst iger
begrenz te
C hal
F ed
urch t
hä usern
bat ter
Gu inea
Verantwort lichen
H ence
in no
je opard
Verein igung
Arbeits bedingungen
Eing rif
Abst immungen
P AR
j k
aus führen
Le gen
Me an
Trans aktionen
Wal es
Schaden s
be her
ver kün
sh ame
deut scher
food s
mot ions
convenient ly
prohib ited
Buen os
con figure
ess er
not ion
hop ed
Dar in
Vorsitzen der
Er ste
Se villa
Auftrag geber
Milose vic
ter a
Al m
sty les
f ate
u i
sch es
Ent spannen
less on
los es
krit isiert
Sum mer
isol ation
Budget ary
Zin ss
nen nt
ign ored
He ating
vol unte
orient ierte
registr iert
lager t
alp ine
Y a
im o
real ized
real isieren
demograph ic
E li
bie gen
Ch ampionship
exklus iven
beur teilen
B lau
fal schen
Tha i
toler ance
beruf liche
distingu ish
st ics
Ein trag
Produ cts
Besuch ern
bran ches
Aktual isierung
sch licht
tr au
Ab onn
Reg imes
Lie b
secure d
Kredit karten
Beob acht
L ow
k ord
at ile
Ver trägen
ständ igkeit
challen ging
Real isierung
engine ers
splä ne
eingerichte te
L uggage
un eingeschrän
Ar my
sc andal
sy mpto
greif enden
Sh ort
üb lich
a ire
k ulation
as ma
pr ere
pe z
govern ed
Is ra
stra ßen
though ts
search ing
op ing
An reise
So weit
mess er
character ized
tort ure
d ün
ma ker
mo dest
alle ged
hier arch
verbesser te
autonom y
mith ilfe
mar ried
ken ne
bed auern
monitor ed
Indones ia
gr ab
mar ke
circ ulation
rac ism
N H
\ "
Ab stand
so s
Car l
offic er
infringe ment
F if
ange ben
schle chten
be gangen
gu idance
Tr ink
lif eration
A venue
_ _
it udes
ger y
beg ab
sa ison
global er
Stad ium
qualifiz ierten
Verb ün
Erwachsen en
un like
wür fe
del le
Ste fan
Hin zu
interess ieren
download ing
gewün scht
L ü
rat ifiziert
Ste uers
Qu ar
short comings
TO R
IL L
handel te
P est
® ,
bo gen
regret table
re formen
tr i
aus zusch
An weisungen
schl üsse
würd ige
condemn ed
Medik ament
ersta un
environ ments
Zufrieden heit
we t
ne oli
Tour ist
E valu
ier er
An hänger
kon trollen
bere ite
Ch ip
opt ical
bert ies
Komprom iß
Shop s
explo it
autom ated
enthusia st
anson sten
d icht
Sp uren
transl ations
dau ghter
brut al
Vorred ner
re verse
sch lage
Me tern
Über arbeitung
198 3
complex ity
Declar ation
J en
str enge
Bet on
größer er
Sil ber
weap on
reje ction
H art
re cover
vor hin
Gr ill
Ges che
einzu halten
pet ition
surv ival
Benj amin
p ione
Ent decken
stat ut
Sub ventionen
philosop h
Unterdrück ung
P akt
b ands
le iste
St ore
I ER
ed iting
aus enden
Sch ott
ange fangen
ins on
Priv acy
indic ation
Weiter bildung
Stabilität spakt
Regul ierungs
C athol
S ab
bro ch
herr liche
W ay
ex cellence
Gip fels
Konsult ation
Build ing
out set
lack ing
subsid iary
Flücht lings
t aught
spar ungen
Tol er
Prest ige
C ore
d achte
in quiry
ze hnt
sü dlich
erreich te
semin ars
C au
M AR
f öder
Dienst ag
spolit ische
Legisl ativ
bekräft igt
Zimmers ervice
Gesell schafts
o cean
er be
un ken
der artigen
bre ites
trä ger
Pal azzo
accep ts
Alban ia
schutz es
ifiz ierungs
ibr aries
Semin ar
enttäus cht
th alten
con junction
vor sitzen
bit ter
distin ct
calcul ated
Urspr ung
transat lantic
d ol
de pendence
be fried
ak is
viel fach
Pal ast
dra f
Li quid
münd lichen
. '
af firm
gesch neider
gefähr lichen
т а
te c
ach ing
ma j
geord net
return ing
Ju den
cross ing
Mos kau
kul in
F RE
ent scheidet
19 20
fir es
hy per
erziel ten
grundlegen der
depart ments
iling ual
kurzfrist ig
Chic ago
Isra els
G astr
sitz ung
uner lässlich
Fu j
Clin ton
b ust
dis covery
Lit auen
Cult ural
in as
do us
De vis
bevor stehenden
domin ated
verwal tet
An zeigen
ger man
unter halten
ak ed
mach ten
Ko hlen
Med ical
Kur se
Dan ube
zunehmen den
None theless
T ap
in corporate
mit y
Auf forderung
read s
Mo unt
La bel
Kin nock
ensure d
amt ierender
Gest atten
zuverläss ig
erläuter t
qu art
An ders
reg ierungs
gest alte
ko dex
tox ic
Clim ate
b und
us chen
res sourcen
tra ils
tin y
orient iert
F ix
o ter
л е
at ie
bl ings
Komm ando
pan els
Del ta
schwar z
abandon ed
I sa
of ür
aus es
IV E
adjust ed
Tschech ischen
Gepäck raum
un fortunate
mit geteilt
tr itts
port ra
vor zusch
inv itation
Fut ure
S is
p ad
ch ed
ta ine
mo on
teil genommen
ru hen
flo wer
Car ib
fu els
L au
om s
den ted
em it
gain s
stät te
Gesprä chen
un ification
Le icht
por no
ausge arbeitet
Ukra in
pati bel
surv ive
Z ä
e urop
gr ants
Man hat
back s
meisten s
character ised
chs lungs
ordnungs gemä
aggress ive
ten der
Jugend her
except ions
Ty rol
quo ta
A ge
an ony
fe ars
wur fs
gleich er
lok al
Mag ic
Analy sen
Zivil isation
delic ate
veget ables
E EC
G L
T ä
w inkel
ev il
Gro ss
defe cts
aufre chter
la ß
iz ont
sol ide
fir men
Wor king
accept ing
katastrop hen
D rag
K ant
aus wärtige
Re aktionen
Mon ats
stre icht
unge achtet
separ ately
demonstr ation
mein t
verw öhnen
r ific
mo des
Al low
prov in
Lebens mitteln
tradem arks
P ho
we ißen
stra frecht
celebr ated
Anreg ungen
iger weise
grö ße
Rahmen programm
SP A
Gerichtshof s
Einschrän kung
Sien a
bed ien
EC T
gefähr liche
simpl ify
unzu reichend
rand om
Gewerk schaften
draf ted
h üb
Her berge
Lebens qualität
ethn ischen
Heimat land
Einkommen s
Clear ly
res ign
fe els
sub stit
chocol ate
Mazed onien
l iv
Er nen
schl immer
Fert igung
keines falls
T iro
ver größ
ät ter
Ab stimmungs
hier mit
stre it
einzu beziehen
Dan ke
irgend welche
Sim b
S IS
pen alties
registr ieren
resort s
wer be
Be wertungen
gegenseit ige
CN S
Schatten berichterstat
Echt zeit
t ub
up coming
Tragö die
under taking
15 00
zurück kehren
Dar auf
Gebie ts
share holders
immen se
Schiff s
analy t
N ar
is ierungen
bas es
Einzel nen
neut r
Hung er
Aus stellungen
Welt bank
lau ghter
16 th
Rand e
mu y
G lo
d äm
ze igten
str iking
redu ces
m iß
Tr ends
Fe hlen
ath on
Tag ungs
Fel sen
EW G
Som etimes
B outique
p ull
er ium
or gen
el led
Archite kten
begeister t
1 15
“ )
an che
igen de
Sch af
prof iles
unver zicht
Kathedr ale
B ast
mo unt
Pr ince
Je den
Stat istik
bad ly
Doc ument
Hotel safe
frei heiten
simpl ification
expl oring
stö ßt
b ou
ungs maßnahmen
my sq
ba thing
Therap ie
be zauber
den ied
ide alen
rece ipt
wan dern
schütz t
nutz bar
Amts zeit
enem y
de utet
aus gelöst
Con tain
El ite
fäl sch
Jugoslaw ien
Ö konom
ion i
Her itage
respect ing
äuß erster
ök ologische
Szen e
ofin anz
e ken
g un
w unsch
im prison
la de
Vor sicht
ias m
intell ig
Ernähr ung
auf trag
Al gar
benef ic
Span isch
moder ate
jeweil ige
analys ieren
Subsidiarität sprinzip
L ater
ver ehrten
for ma
Über setzungen
h ou
h ub
Pr ix
assum ed
landscap es
W örter
t tes
in y
contin uation
Lös ungs
AS T
gele iste
be e
em bedded
est one
bo oth
Aus legung
cr yp
offen kund
schl ies
Kohäs ions
alli ance
Lod ge
lo op
redu ctions
Durch schnitt
combin ing
offic ers
sight seeing
Equ ip
Virt ual
w ire
Ze ug
economic s
ignor iert
ex klusive
forder ten
öff nete
klar er
wenig stens
ält esten
Ty pe
C u
Sch ienen
Euro stat
sustain ed
prefer ences
künd igung
Flot te
Current ly
tremen dous
al ien
The atre
let te
kürz t
f usion
um stritten
Sch ätz
break s
Har bour
rein force
Koh ärenz
Verstär kung
un limited
hen de
inter im
particip ated
Haushalt splans
label s
übr ig
E tap
k ore
ab gesch
gre w
discre tion
Abo ve
H orn
ge holfen
ges unden
ac iones
do ctors
hand ic
respons es
separ ated
ma ils
kl ing
fail ing
Wohl befinden
Effe kte
compat ibility
erneuer bare
H ad
ö te
ul ate
ct ure
vo or
Finanz mittel
month ly
Hen ry
G 8
ct u
Au fre
Al bert
ign ano
vi ation
Natur ally
198 1
d ul
s br
Er kenntnisse
einzel ner
defen se
GB P
Spl it
L ange
o ge
r io
v illas
der og
me id
mind s
agent ur
Liban on
ab gest
sh ire
Ratsvorsitz es
lingu istic
m ild
contin ually
ep isode
Kar el
def ending
J ud
K az
o ste
che aper
international es
mail ing
reiter ate
endeav our
L ust
d einen
Ein fuhr
Fl ach
trans formed
Sa x
furn ish
Loc al
Grand e
proport ional
A zer
H ell
ü sten
Sp ons
requ iring
Moder ne
Lim ited
Liby a
F TP
L an
ver gangen
wes ens
week ly
Met al
radi ation
F ine
uld igen
Entwicklungs zusammenarbeit
C K
quant ities
M ang
die t
Ein wohnern
consist ing
ident ical
comm only
host ing
Del uxe
Bru der
Ernähr ungs
R ES
h aut
p up
Sch en
sens ib
Nie mand
Erdbe ben
ro les
if ferenz
verschieden sten
estim ates
stuff s
DN A
B ünd
m ischung
ver einfachen
art ikel
semin ar
dele ted
genehm igt
Lok al
eingerichte ten
habil itation
st roll
ur z
ver handeln
gr üne
Markt wirtschaft
komple tten
ikal ien
by l
newsp apers
Monitor ing
An der
Co uld
Con tra
Arbeits kräfte
tä gliche
analys es
ries ige
S ak
ung es
Aus nahm
sk ill
wär mung
dauer haft
Slowen ien
M PEG
p lot
t ü
fre ies
Ch ild
Dar le
lei ht
EG F
O h
al ows
re if
ver gleichen
Le der
lin der
gewä hlte
announ cement
Dien sten
niederländ ischen
K R
ó w
or th
kle idung
Man che
AS P
äuß erung
gesetz te
Betr ugs
hum ans
vot re
B isher
H ug
r hetor
auf weisen
Vor stand
Lie blings
Don au
qualit ative
Pot ential
re ine
am an
auf sicht
end less
einz iges
qu ery
know ing
h ôtel
tra ur
gere chnet
abge halten
adapt ation
Swimming pool
g aming
der iv
aus gesch
leben d
home page
freund liches
gesellschaft liche
concentr ated
schne iden
c end
über setzt
berecht igten
investig ate
schul den
winn ers
Implement ierung
Aufr uf
ge fällt
Dire ctors
Initi ativ
Zw angs
Singap ore
L ul
er re
re fined
17 th
freund licher
IM P
vorher ige
? ?
B ike
F ro
under line
ater ie
Verhält nisse
D ES
K ok
к и
Be at
listen ed
klass ische
eng ag
cal c
vorher igen
asp ir
beträcht liche
influen ced
M é
ad her
In dem
Aus fahrt
Vor bild
eng agiert
secur ities
B ung
l ds
present ations
Devis en
re vol
re chnung
durch geführten
zw angs
wend ungen
rest oration
EM U
abwe chslungs
Blue tooth
enthus iasm
Weih nachts
/ -
e ating
ern ste
her bei
Ent stehung
carr ier
aufge hoben
197 3
bann ed
Sorg falt
Manhat tan
is mo
al ive
ag og
son t
betre uung
säm tlichen
Komment ar
warrant y
overwhel ming
st anzen
str ichen
Ta bellen
Sozial demokraten
G raph
Golf platz
gegenseit ig
er te
ex zell
special ised
Forsch er
Flü ge
Leiden schaft
Gefangen en
Rechen schaft
s ick
u to
re tr
beit rag
Wh irlpool
ri age
glück lich
perman ently
p pe
un an
ill ing
sie d
Spe zif
Nor wegen
ifi able
sudden ly
C IA
ic ate
all ies
des ert
fe iert
kon solid
laub nis
vic inity
cul inary
Joh ann
or o
sp ont
sa il
kre dit
Eure x
" ),
7 50
e cho
n as
con fron
Ver stö
per or
Ber lus
... )
zw ing
Berichterstat tern
distr icts
ersch ien
Untersuch ungs
lev ard
G I
O ze
ver setzt
Er r
Ab sichten
feat ured
formul a
pursu ing
verhält nisse
asiat ischen
P OS
Geschäfts bedingungen
Halb insel
consolid ation
kommerziel le
beeinträcht igt
den selben
ver stoßen
we ichen
est ro
unter en
cin ema
compliment ary
V ic
al on
Er wer
part ially
bekann testen
G ift
b low
ob servers
Mar bella
Fra gest
Fre ib
Form el
Che mie
cri bed
Rand lage
ausgewogen en
was hing
cer am
acc used
Mult imedia
mie ten
Mitt ler
sch alter
isp ens
Bed ingung
gesund heits
Paläst ina
portugies ischen
es tet
el abor
des per
Bal i
beschäft igung
Perspe ktiven
Minim um
ll es
Vir gin
s lich
lö st
empf ind
Carib bean
Algar ve
m igrants
größ t
Staats an
bemer kt
tang ible
T ast
b ungen
in wie
ge kauft
res cue
fra gment
Nu kle
gericht shof
Mem ory
re ward
om ed
ann ten
Ma ison
IR C
abol ition
anne x
l uggage
un prece
Bar o
imin i
Rechts rahmen
Grün der
optim um
Val ent
inform ations
jour n
Tex tes
M are
re fund
el en
ab teilung
author isation
fäh iger
197 4
earn ed
tradem ark
el son
In fe
aus gebaut
bes ie
De kor
Sk la
" >
im plies
Sch uh
zahl reicher
activ ate
Sen ior
Koordin ation
iv o
mar vel
back ing
orient ierten
Imper ial
gebill igt
en force
is tet
An sprech
Ein heiten
bl as
leb ten
k ommission
end igung
bes etzt
Comm ander
fest ivals
personen bezogenen
E co
t welve
op f
Er ika
graph ical
tack ling
Besonder heiten
eingere ichten
Tsch etschen
) |
err ichten
et ime
vor ne
Ch annel
Tra ck
fried lichen
Verzöger ung
la va
wer tet
An f
inter ven
kon sequ
Fun k
ucht ung
Ereign issen
Gran ada
Fein d
einzur ichten
Scheit ern
S OL
is ms
Be frei
Bes icht
cou p
Out look
fif teen
E V
m art
mar gin
Star fleet
H aust
s ister
w ofür
th ly
port ion
General dire
Temp el
O pfern
auch t
lä gt
Qu artet
Integr ations
pal ace
amb ience
ge omet
zum al
He idel
bon ds
japan ischen
refurb ished
w der
into ler
getr enn
sus pic
V öl
m ás
Ver ona
ex empl
back ed
bew undern
län gere
at tain
ar rested
ung arischen
vor sichtig
durch setzen
gel ung
Über rasch
bau ten
DE M
demand ed
wirks amer
g lob
br icht
Im pf
Tr ust
Pal m
intens iven
irgend einer
obtain ing
tie fe
verank ert
Kore an
an as
un ilateral
gr id
pa kt
Partner schaften
Cr ist
jah rel
ver bot
ab zielen
Ab sol
clear er
deb ian
ausge legt
Stadt teil
further more
einzel staatlichen
ver k
har te
stu hl
Bre men
auszu üben
amerikan ischer
DVD s
Vorsitzen de
Temperatur en
as mus
über wiegend
ideal er
Assozi ierungs
im on
ut a
ex empt
not ification
viel falt
15 th
Kar ls
National park
Tats achen
rail ways
dog s
Anwendungs bereich
Mean while
unprece dented
M ast
R ental
c ere
Kommiss are
col on
congratul ations
vertrag s
Ann ual
j ar
bes cheiden
global ization
Spe c
enor m
sprach igen
climb ing
independ ently
re ck
gram m
stärker en
Eti kett
Einfl uß
E VP
U PS
o ve
den y
ab schluss
ind ispens
Internet seite
competit ors
vess el
beseit igt
R ain
v ina
an es
beit reten
inv ested
Relig ions
veranst altungen
Sowjet union
D id
con se
up load
med iterr
lif estyle
jähr iger
ench ant
Sc ient
befür worte
Ärz te
A x
st ir
employ ee
Organ en
Pe king
aster y
investig ations
Graf iken
no byl
ib iot
che cken
Vor sorge
Est onia
Frü hl
v ierte
er freul
pr ints
versch oben
num er
cap ability
Plug in
Tunis ia
uggl ing
be wertung
geb ucht
kom patibel
contrib utes
transl ate
G h
W agen
Sch ie
str ive
bo le
unter liegt
IF A
distingu ished
Auseinander setzung
K E
un o
con fort
An näher
Finanz märkte
bi ologischen
plug in
Fragest unde
end ienst
sho es
best immung
ium ph
energ ies
permit s
kons ult
M asse
R F
inter essen
Dies el
Mar ie
schn itts
proje kten
einzig artig
A wards
h au
dies mal
gra ve
Druck er
Defiz it
Varian te
W alter
be ars
sp at
Fr att
Gegen stände
Alle in
schwe mm
fru its
ge werb
str ik
fü llt
trans mitted
design ers
sum mar
Gal ax
scen es
rough ly
Ret urn
H ass
kt on
-- >
datab ases
D ivers
G EL
M es
or ange
pro se
Be griffe
ord nen
Ro bo
M uch
un likely
colle ctions
Be endigung
Fre ien
Arbeits weise
äu fe
Cre w
Colle ction
labor atory
regelmäß igen
gather ed
Tenden z
W ats
c to
bes uch
gem achten
gesch windigkeit
All gemein
Car dass
Entschließ ungen
ambit ions
Tok yo
elig ible
A to
dis par
Land e
deb att
jähr liche
Inner es
ction al
ven te
sk illed
heim er
gä be
inspir ation
Nam ens
C ube
S z
ge opolit
be legt
Fre ie
wieder hol
music ians
wood s
steigen den
sleep ing
Inter view
ator ies
electron ics
tur no
Verzöger ungen
maler ischen
zusammenzu arbeiten
f its
i ös
u ay
w olle
An kündigung
off set
oper a
Kin o
Gar da
gerichte te
cra fts
Komplett preise
c kets
ein schlä
att formen
führen der
Moldo va
re press
ve ter
än gern
Ge legenheiten
min s
Über leben
ras che
Prov ider
Element en
Moun tains
ein genommen
ver leiht
Hier bei
finanz iell
remo ving
motiv ated
Getre ide
But ton
zo om
gere chten
prevent ive
capac ities
Brut to
Lud wig
N ür
be zahl
Ro se
Welt markt
Bas il
Pra ct
credit ed
exe cut
resist ant
nör dlichen
d ive
as on
ra cing
co inc
To ile
Gen f
grundlegen d
to wels
Se ever
sur f
dang ers
aufrechter halten
b org
bereit zustellen
freie m
stake holders
un certain
sen det
ans a
ty ard
Nicht regierungs
begrenz ten
Naz i
selbst änd
different ly
Zwe cken
Christ demokraten
sprech ung
kil ometers
mak ro
gelö scht
preg n
S ongs
X V
el ite
ver suche
gu il
Eur oc
H ER
Z ellen
a wards
u an
v ation
ing ton
fr iger
gem el
med ien
ausge glichen
sbr uck
c ens
now adays
allgem einer
chs elt
vielfält ige
Zul assung
hect ares
G öt
O ffiz
pr ide
com forts
zeit raum
minister ium
lac ier
ic ke
En gel
touch ed
observ ations
Tip ps
Quad rat
t ube
al itäten
ge ehr
us sten
'' [[
assess ments
indigen ous
sch ar
Präsident schafts
star tet
Daten banken
stär ke
aren a
wenig sten
Musik er
197 7
kü mmer
türk ische
Statt dessen
5 th
N R
N OR
ar ios
aten te
weiter zu
neu este
herr schaft
Hil f
Vorbereit ungen
man s
tem plate
fla vour
wed ding
G ur
Vor wand
kon fli
versch ieben
inst ant
Gu atem
Zahl reiche
schnell es
konstru ktiven
Reihen folge
om an
ad ian
et us
bo da
kommen de
wünsch enswert
Rind fleisch
stru ck
speak s
stab ile
ASE AN
D eine
T hal
an bietet
id al
inter governmental
bes ides
ange hören
mal en
Con c
eng agement
Ben ach
klar es
Integr ität
Net to
bor row
ut ility
ne ys
vol umen
moun ted
mel det
dring lich
Wahr schein
Ve get
fein d
Mug abe
R ather
c io
n an
Wor ks
La eken
einmal ige
Inn sbruck
belieb ten
W HO
k amera
unter graben
Al arm
var ian
schn itte
Mail and
young er
Ox ford
Wats on
Seever kehr
M ER
vor geschrieben
mer zen
Bet ween
zerstör en
belg ischen
D ays
al beit
ul o
wir r
Bro wn
cool ing
Alban ien
Befür cht
Reicht um
C her
ge fahren
string ent
Fratt ini
in je
ein heiten
pr an
Re view
iz ität
versch winden
feel ings
unanim ous
S R
f ib
w aves
al ition
war men
uss y
Man u
bra chten
Armut s
best icht
Tr ennung
EC HO
tit les
sin ken
dee pen
h ut
is i
re vers
be greifen
ges unde
wor auf
Se hen
Unter haltungs
analys iert
Kop ie
w y
be c
Se kret
super visory
dro ht
nütz liche
mü sse
voll ziehen
schwer er
bevor zug
appreci ation
münd liche
jung er
Vul kan
Face book
st ahl
st unde
dis semin
cons ulted
Grund freiheiten
prom otes
unmittel baren
Kranken haus
Leon ardo
klaus el
ö hnt
Ab gesehen
count less
Je ws
ardo us
Gio v
ab stimmung
ex quisite
geb ir
subs cription
bound aries
T ony
ste ckt
cre am
dis mant
inv al
account ability
seas ide
zukünft ig
kin der
män n
er f
er mitteln
at ter
for tz
ib us
Be weise
land wirtschaftliche
Tr äger
sum mary
stabil ität
bestel lt
v ierten
wissen schaften
Jahres bericht
Konflikt s
Camping platz
interpre ted
tranqu il
Impul se
R imini
In cl
sup ple
No vo
IC T
nutz ung
Peters burg
P el
re ale
Be kann
heit lich
druck en
Hier zu
Lam an
i pe
ar re
co ck
Kl ick
gelten d
div ide
en o
an bieter
co d
after wards
Part ition
car go
Bl u
Ange bots
verl iert
profit able
vine yards
Anne x
A la
I DE
b ond
mehr erer
adequ ately
genet ically
M ust
ag ra
Mit wirkung
mar riage
vo y
Gro ße
Ur ban
Car los
tie fer
adi das
Telekommunik ations
B eing
ins ight
gent le
invest ing
constit u
Harr y
zuges chnitten
hors es
Exhib ition
4 th
high way
Menschen handel
effe ktiven
Gesch ichten
stud ios
verständ igen
exten ds
tief st
coher ence
Holly wood
L ama
w itz
“ -
to lle
Se bast
ahr t
sour cing
reach es
wand eln
tran se
gän gen
Pan el
Pf ad
ifik ationen
Dol met
conv iction
verknü pft
Verme idung
ac comod
unter streicht
design ated
Luft verkehrs
Material s
pain ted
parlament arische
Verpack ung
müß te
Conver ter
O d
fin ishing
Fol glich
separ ation
dre ams
Allgem eine
Berlus coni
J h
S wo
er we
zu kunfts
so zusagen
anst elle
D ry
q m
fin der
ian ische
Gast freundschaft
Lad y
Ak zept
delay ed
U B
ver nachläss
Aus stellungs
12 3
hervor zu
Bal ance
verein facht
Super visory
Vir en
Jahrzehn te
S äm
Be achten
sol ving
ow ing
let t
Blizz ard
N i
men us
zeit lich
clar ification
Parad ies
dictator ship
M ä
M uss
ge klärt
de central
Auf stieg
Informations gesellschaft
dauer hafte
Work shops
Territ orium
E ck
h lige
no ble
intens iver
seek ers
B urn
T C
Ten er
H ay
re venues
ein wand
eig nen
iar ies
sus pension
Ul tra
Fok us
re production
zu tiefst
wen de
Tur m
condition al
contain er
Cr imin
L arge
r ice
re conciliation
nach t
must er
mehr mals
dam aging
lä ß
saf ely
zusammen hängen
geschlossen en
196 9
verbind lich
Sort iment
Inf os
r of
w ein
es ischen
ap olog
Aus ser
For st
anz ler
real ised
Mon d
Rahmen s
infra structures
Lay out
Ora cle
st eine
ex tr
ok ed
vers prochen
oc ra
gas es
hung er
luxuriö se
p ipeline
ive aus
Er leben
Bet a
grün dlich
Bas ic
Binnenmarkt s
gip fel
n g
Se cure
fol k
Auf träge
pd f
c ch
c ements
For en
öl le
install ing
Ker nen
bedeutend sten
G oth
ul in
Ge geben
De b
just ification
deut licher
Stand punkte
Su chen
ek ut
Ac ro
block ed
Rä um
constra ints
sincer ely
D ifferenz
mo le
house hold
TO S
anspr üche
scen ario
systemat isch
S ave
ent ities
gew ann
law yers
dest abil
Effe ktivität
ignor ieren
Kühl schrank
Ether net
co at
unter einander
bereit stellen
Fest ung
dre hen
Roh stoff
ent ity
il ia
im ir
sch all
Ver knü
Vor gänger
bed ient
IT E
tradition ell
PC I
Tit an
unvergess lichen
ein schrän
C av
wo zu
vor ge
up pe
bl ess
Sta y
industr ielle
Kl uft
Gleich behandlung
Hil fen
symbol ic
VI EW
pedestr ian
Z ell
u ct
ol ly
hof ft
Fil es
chem ischen
fried liche
unab ding
Ausnahm ere
C anal
j ug
er l
den z
bre cher
Legitim ität
Jag d
Foc us
A X
Un i
vor haben
tens ions
institution en
ausgestat teten
mod ul
curren cies
Kons umenten
Tunes ien
C annes
In tens
len e
AS A
finanz ieller
Leistungs fähigkeit
Bol kes
kill ing
Regard ing
Argentin ien
N ick
de kor
aus bildung
man o
Energie versorgung
hinzu weisen
Sim ply
indire kt
Fron tex
Präsid ium
indispens able
B attle
H ein
l ibraries
lin king
10 5
AR D
pan orama
korrig ieren
kompeten z
an ien
um gekehrt
so cially
pr é
some where
Zug leich
beach tet
Fund ament
A zur
D é
Er reichen
pre d
process or
geschätz t
v y
re ar
ex isted
ser ial
du b
Sch okol
hel ic
parte ment
Tex as
Ausgang s
stimul ate
Moz illa
p flanzen
л о
Ver band
Spiel raum
sex uellen
Les er
korre kte
genü gt
Cha os
außergewöhn liche
coal ition
islam ischen
durch gesetzt
get estet
fil ters
besser es
betr ug
Toler anz
Ernen nung
" :
C res
v ou
st reichen
differ enz
Ap plication
Hinsicht lich
Ganz es
igen te
Ab fälle
Industr iel
bemer ken
B olog
c um
no isy
pl äne
view ing
pra ise
Sy ner
rä gen
optim alen
Christ ians
wunder bare
fehlen de
limit ations
M old
k ers
ck te
AC E
Bör sen
Umstruktur ierung
ge o
ab ends
weiter gegeben
markt es
Neu igkeiten
decor ation
Bestel ler
elegan ce
Wur zeln
attemp ted
Vermarkt ung
B ret
N ich
R ückt
en er
un iverse
Sch iffen
ty pen
Man chmal
Buch staben
säm t
explan ations
st ere
Welt meister
fahr zeug
bü cher
Ve gas
Orient ierung
Komp onente
Bolkes tein
L ittle
R ud
p id
in th
the men
ge folgt
pol ize
arr iving
Br ust
star ker
flo ur
engl isch
therap ie
schwar zen
Chem ikalien
häuf iger
calc ulation
r ated
it ären
bie tern
verhe er
Tou ch
PV C
zu lässig
dis agree
kl en
bu il
änder ungs
hän ge
Ziel setzung
Kl är
Netz es
avo iding
Ever est
ocra cies
auf tritt
Aus fuhr
glich keit
Bere chnung
hair dryer
Phas en
H ir
b ub
re präsent
be fehl
umfassen des
Erd öl
vorange gangenen
g aller
gre y
leich ten
enjoy able
Sub je
Künst lern
strö me
el ast
ed y
ter ia
Parlament en
lat ein
einzu stellen
Wahr nehmung
Controll er
B ind
H op
i ors
genau en
Mot oren
vorhand ene
inevit able
retire ment
Cathol ic
ra chte
ges orgt
work er
ru led
Stat ut
Pub lish
größten teils
gerichte ten
conv inc
Dolom iten
Messen ger
inter faces
zie he
New sp
Doppel bett
Wi Fi
Unions bürger
Err ungen
setz ungs
Ne ed
ko oper
Gra z
Ratspräsident en
proto koll
Mark us
CP U
wettbewerbs fähig
Konzer te
Aufre chter
Swo boda
M oh
ch rom
Ver sicherung
spr ung
Finanz iellen
EL L
Verkehrs mittel
Moz art
A sh
ä ts
be freien
ver br
uld ung
Th un
wirk licht
veröffentlich ten
з а
was n
Au th
Se gment
zwe imal
ep idem
automat ischen
fünf zehn
Defiz ite
L um
S hip
ck ten
go d
14 2
advoc ate
oppon ents
quantit ative
net t
schul en
Simb abwe
l isher
m ud
US E
Str änden
gra fen
ichte te
reason ably
groß artige
Sal v
advis ed
ausgewogen e
le idet
ver breiten
Un like
Bar ack
besch luss
unver bind
ver wirklicht
sch äden
sp ur
lo an
urop as
Ver schie
Aus sichten
Bar nier
capital ism
vorsch lägt
deliver ing
review ed
Stellen wert
bedür ft
k andidaten
cell or
graph ie
hinter lassen
vac uum
5 000
h te
p ix
ill en
men schen
Ge we
Le e
K L
be legen
bes agt
Tr ip
Bus se
dat um
Erwä g
ant iken
über wält
Sp enden
inv ites
imp etus
Eur or
Liby en
reb ungen
Johannes burg
n ad
zu gewiesen
Land schaften
tem p
pack ed
hope fully
dete ction
== ==
Infrastruktur en
Bang kok
b old
fü hlt
Sy d
Bege ister
f ter
ber ry
St immung
Fr isten
pre jud
far b
wahr nehmen
frist ig
anspruch nahme
a wait
ge liefer
tel n
Str assen
Mon opol
mult ilingual
rein forced
simpl ified
haz ardous
ro yal
out lined
Air ways
beautiful ly
brill iant
Z it
ass ador
b ikes
au ction
legen dary
Dar k
Gleich heit
berühm t
Dör fer
zwangs läufig
% )
ver bieten
ad mission
chn ungen
Zu erst
amp ed
vertr ieben
vorrang ig
Welthandels organisation
C ell
an melden
de penden
anz usch
stat ing
Nach folger
systemat ically
Dring lichkeit
Z ap
o o
co ding
bereit schaft
rup ted
Unser er
ab zielt
Ge ber
sho oting
sur plus
Mü he
E ly
T hr
r ation
r unden
ñ o
ñ os
enz a
Mö chten
cycl es
Annäher ung
Crimin al
G ig
fort schritt
Grund stück
pran ational
L ett
M achen
ve t
Sto l
Sof ia
A le
G EN
in et
less ly
modif ic
counter fe
ide ological
uten ant
P ent
S N
Ab wicklung
loc ally
Stel l
crit ique
acc umul
gradu al
hers elf
Baron ess
L L
zu cht
defiz it
d oppelt
sp äten
bet on
bas ket
Che chn
Dub ai
Muslim s
fundament ally
Säu le
S ich
z ione
over night
Ch allen
Kr upp
Pat ch
mixt ure
G ibr
s laughter
ro bots
ad minister
sie b
Ein ladung
Zentr en
beant ragen
G it
S ust
er suchen
if un
ther m
unter halb
bre ast
jud ges
engine er
Aufrechter haltung
ver such
ste ep
Bay er
subje cted
Merk el
be ck
fa ktor
tour en
Frankreich s
Sign ale
schwed ische
thir ty
inevit ably
glob ally
E ye
lo ben
Konfli kten
rig id
symb ols
re friger
mo od
ine quality
Sp äter
Kon vents
bl ut
point ing
rä der
dien sten
Adr ia
stechn ologie
T T
h ütung
in correct
amen to
carr ies
Comp act
Wahrschein lichkeit
Säm tliche
P D
т и
an streben
wick elt
Mehr ere
Mobil telefon
erweiter te
dee per
alp ha
al gorith
ad mir
lo ader
ungs system
lin ary
integr ating
flo tte
E tagen
an lässlich
St alin
Re den
Can aria
Sub stanzen
sil ent
bicy cle
R ating
u v
ap s
Dis ney
üt ten
tatsäch liche
argu ed
clin ical
b ish
ab uses
iss on
versch w
deli vers
attra ction
Volks wagen
Wachstum spakt
Entsch ädigung
Chechn ya
ch art
gült igen
Behinder ungen
Navig ation
E gal
Pr ice
pre vents
Ab weich
lang jährige
ven ir
Projekt es
L ac
O DER
S ardin
g iant
ut ze
ges chnitten
res id
str ich
fer ry
.. ...
Port folio
don ors
passen den
Fortsch ritts
D up
s alle
Ent deckung
ph on
gleich zeit
Nahr ung
appar at
religiö se
Automobil industrie
Anmer kung
Bolog na
G y
mach e
wish ing
Col omb
Ly on
n ac
r anges
am ination
co b
her es
einz eln
Fert igungs
griech ische
Spezif ik
K ameras
L ago
k w
r ischen
t auschen
ic ted
ver glichen
ap pen
17 01
personal ity
Kam mer
distrib ute
lizen z
Gült igkeit
% -
pro liferation
Tr i
open ly
Lin ken
Flor ida
Environment al
quir ies
breed ing
work force
gener ating
AN Y
Haushalts jahr
IL O
beeinträcht igen
g üter
Zeit ungen
dra fts
Roman ian
compla int
antas ie
T aschen
Ges etzen
Br anden
verstär kten
beant ragt
Cot on
YO U
B ull
L anka
be wirkt
inter ference
main tains
emp fehl
Sol ange
hear ts
Pfer de
Applik ationen
O ffer
ge änder
St an
gesch le
ij n
E po
G VO
m g
so zio
ag na
Dem o
strateg ien
persön licher
bü ros
Rä umen
B ass
D og
M ale
j azz
Frü chte
Indones ien
A then
C lo
S ara
en compass
fr ische
her an
Fest ivals
cast ing
exception ally
MID I
om o
wes ter
abo ard
Sozial politik
Bav aria
an fangen
ig ter
In anspruchnahme
organ s
IT Y
Geschäfts führer
ari at
Lu kas
select ing
autonom ous
R ub
de cess
Er werb
fol d
kl ick
10 1
Spiel ern
betre ibt
steuer ung
excl ude
hus band
H au
s é
un ches
be kam
Be förderung
sh if
Ze aland
techn ically
Nach teil
dist ant
Außen grenzen
vernünft igen
Gesam theit
reci pro
Kred ite
bezauber n
A er
M M
b unt
v iert
to ut
Pr omen
Ele ganz
Up on
criter ion
sensit ivity
schwe igen
bol lah
Us ers
indirect ly
re pression
el te
am os
ad resse
ag an
Au ft
gel ände
Ex po
gesetz lich
recru it
Treibhaus gas
Ein blick
R ational
ge zielt
ir r
he aling
bo ys
mar ken
No thing
schnell st
bi j
Mer co
decre ase
damal igen
allmäh lich
Völ kern
o vo
ö ten
д е
he ik
Pr ies
pre decess
dire kter
ausge übt
And or
AT E
197 2
threaten ing
ausführ liche
Nachbarschaft spolitik
ü chter
ver teilen
res umed
setz ten
Produ ction
rig orous
B G
ans äss
tun nel
advan ces
benöt igten
SE O
Caf e
W ies
de feat
An zeichen
gel aufen
lay ers
stop pen
IG C
voraus gesetzt
Rh ine
Turn ier
Verbind ungs
Coton ou
O W
U g
s z
in ch
af fair
lim itation
Kam in
Bol iv
koordin ieren
bekräft igen
Brü der
S ide
W oh
ver träge
new est
tour istischen
herr sch
Wil helm
anwend ungen
glo be
qua ke
orig ins
S ig
в е
de priv
qu asi
ser ie
igen en
Jahr estag
Teil nehmern
har ten
Eben falls
Oper ationen
Rail way
G let
al y
alle ys
dis appear
ens hr
Ro y
inc ere
P av
gen ossen
mat ches
Or chestra
Cy ber
Indik atoren
Tschetschen ien
P u
Entwicklung spolitik
Stat ute
ij k
revolution ary
Ath ens
cuss ions
agg reg
Apar thotel
P XI
ie th
bes ide
lauf ende
prec aution
crimin als
Bro t
Geburt stag
städt ischen
Tw itter
U EN
Kon solid
exam ining
chan ces
parte i
Bulgar ian
Stu dies
beliebt esten
terra ces
Nichtregierungs organisationen
Ger ne
fest gehalten
Ste el
IN I
Ter ra
feed ing
attempt ing
cot ton
Einw ände
Sah ara
gestr ichen
Merco sur
S ett
t aten
Er leichter
than ol
top ical
Bre it
Kle idung
dän ischen
de ar
be weist
tr ick
su pranational
Ze ile
key board
Ste phen
Augen merk
Lat via
Solidar itäts
cred its
theoret ical
Dikt atur
gewand elt
Kos met
envis aged
abstain ed
D G
F usion
M oney
ar ises
Vor stands
mus lim
Car ol
harmon ised
Sim on
Pun ta
tie fen
Migr ations
Erneuer ung
ein geben
ent es
ad verse
für chte
Un ix
An sätze
AT A
commun ist
gesetz liche
smo ke
Sof ern
B N
er zeugung
Her angehen
Internet seiten
24 0
anzu gehen
determin ing
entreprene urs
Hosp ital
ophob ia
Kernen ergie
ß ig
er for
there of
ath let
carr iers
model le
veröffentlich te
überein stimmen
nachzu denken
rar ely
T am
T win
ter rain
Mal ware
kre uz
öhn ung
Ged ächt
fem in
überras chen
Zentr ums
Tro cken
kommun istischen
Solid arity
Sen der
Offic er
b ugs
br un
pre ises
schein end
Do ctor
HT TP
Tun nel
furnish ings
G reg
H und
S op
м о
cl iff
bar bar
myst er
H unde
po ul
co ins
hal ter
Sal on
moral ische
, ,
F ont
P um
n nen
weit em
proced ural
ffe kt
Versch ieden
vig il
licens ed
em bry
spre is
Rechts an
dete ct
regelmäß ige
t ighten
se ed
aus wahl
Ein bindung
währ ung
ausge drückt
famil ie
gehör te
near est
Jahrhunder te
restrict ive
distribut ors
N er
Wir t
defin itions
röm ischen
besicht igen
ein bringen
bes etz
kl am
appe aring
Komprom isse
Dafür halten
inno cent
R ath
Ge fähr
stat ute
Sicherheits rat
Ren ov
1990 s
cerem ony
M á
re me
icht ung
immer hin
ON T
dynam ischen
disast rous
B SD
d imin
th ou
ag eing
Mit bürger
Le ader
lin ing
betra chte
anders wo
valid ity
exc use
durchschnitt lich
Fr ucht
Zusammen bruch
star b
bau te
Dienst es
Bu y
begrü ß
former ly
1 12
th ur
ad dit
ex ert
Fr ances
Fin al
resol ving
adjust ments
audio vis
Solar ium
pill ars
E specially
W hil
in land
the at
letz tes
constit uen
verm ietung
Passag iere
ü s
ie ur
re fra
mo uld
produ ctions
sy ner
Gesetz geber
Gon z
il ien
sam ples
optim ieren
anti que
cou ples
Mart ini
Glück s
erreich ten
vorzusch lagen
R iesen
k ne
qu ad
Un it
Me thod
Str ess
sicher ungen
stre cke
accommod ations
Ferien haus
Kä se
koh är
Kling on
Ama zon
s incere
par alle
sur gery
Cr us
dauer haften
vorzu bereiten
sch ien
ph ony
Me gap
Fl üss
custom ized
außer ord
OR K
vert ical
inser t
all erg
frü here
sau bere
B la
O liver
ein setzt
Mar io
fahr ung
track ing
H allen
j ub
Mar s
eng agieren
civil ians
Kraft stoff
K ün
N V
b ör
er zählt
fort geschritten
class ified
class ification
Ter mine
mod us
preserv ation
f ere
er fassen
am ik
fa kt
bei hilfen
Natur katastrophen
Demokrat isierung
liter ally
zuverläss ige
Gastr onomie
Colomb ia
ä gern
Un glück
inst ability
angehör igen
jac ent
un al
Re ifen
but tons
ile m
pass ive
arch ae
Artik els
Folgen des
Stellung nahmen
Bundes republik
imper ative
F M
K andid
be hold
ho o
enn y
Staats bürger
Ansprech partner
h unting
ange führt
omen te
hinzu zufügen
Erd gas
monopol y
me er
ges prä
qu oten
Un less
St ars
work place
Vor gang
pre isen
prote ctive
ausge hend
Rechts sicherheit
Viel mehr
fas c
engl ische
Stein berg
FRE E
T akt
V ital
p av
em issionen
art ic
hal be
Er kenntnis
dr um
ful fill
wieder hole
Cre ative
fortz usetzen
F res
M IT
in voice
om ass
em otion
Ho heits
19 40
vis as
pf legen
Natur a
Ter race
Maß stab
** *
quer ies
du plic
access ed
gehör igen
geord neten
bill igen
spons or
---- ----
eli hood
y en
he aded
ident ifizieren
inter ventions
alt itude
No ten
berecht igung
Euroc opter
W ag
auf kommen
ern annt
form ally
Auf lagen
best anden
Ne pal
attra ktiv
erkenn bar
r am
ung erecht
In sofern
pre ference
comfort ably
Demokrat ien
download s
Aka demie
Giov anni
T an
Ver z
ca thedral
amm ern
amt ierende
archite kton
gemeinschaft liche
Beweg ungs
Ver stoß
Tre ff
13 5
Kre atur
div isions
Download s
exec ute
Verpack ungs
Jac uzzi
K ath
c igare
re actions
el ine
pro be
Ver hinder
Bes etzung
Ex porte
ys is
finanz ierung
consolid ated
Tuscan y
intuit ive
B end
V M
m é
ser klärung
per ception
sum s
aufge worfen
abzu lehnen
koordin iert
scrutin y
W ritten
p es
to ire
us ions
pl ung
Po ts
Spiel s
congratul ating
Kapital ismus
Hong kong
Zin sen
re iten
ip en
10 3
wish ed
maß geschneider
Cast ro
engl ish
Ram blas
unanim ity
frem den
certific ates
reader s
L yn
cor rid
bur y
Ange boten
pac kt
aus genommen
stat ic
Photo shop
Ul tim
Fabr ik
Whil st
v ag
be arbeitung
ze u
Th ess
ak h
Mon aco
Can adian
üt te
Por sche
beglück wünsche
mangeln de
S og
ein satz
ro ten
ichter stattung
altern ativen
Vorbe halte
berat ung
K eller
S änger
p pen
Ver br
Ver gabe
We is
Con go
di am
unver meid
Industrie politik
safeguard ing
Bang lad
Magaz ine
Aff il
fes thalten
Hold ing
Gibr altar
T iefe
pro tests
ak o
land ing
sup porters
transp orted
Finanz rahmen
erwar te
mobil en
Bre ite
AV I
folger ung
Ima ges
bedür fen
be haltung
Par allel
Al c
Se attle
hol ungs
pra xis
regel ungen
ref usal
2 30
Her stellern
Al ic
par ent
lif ts
cel and
C 6
V ö
br ush
uf fer
Netz werke
kop ieren
secur ing
ent f
ab st
com promises
str ikes
Gewähr ung
Pop ular
Nukle ar
galler ies
2 15
O G
V aler
w rap
bar o
thin ks
caf e
convinc ing
д о
auf weist
Fl u
IS S
Ital iens
renov ierte
roh ungen
dahin gehend
Result at
ent lassen
ber gt
aus machen
wert vollen
wind igkeits
Rück sicht
wärt ig
amt ierenden
Ty pen
refuge e
diver sen
Wart ungs
abzusch ließen
Interpret ation
Mold au
G anzen
zu greifen
ne ck
want ing
öst lich
Col om
Ve ter
geschmack voll
L earn
b outique
n ast
qu el
Be y
ige bie
Kol onial
Bro sch
Prop he
C amer
G anze
be ts
ir at
unter strichen
So le
Med ina
Natur schutz
dien te
wan ne
Lauf zeit
zivil en
Zut aten
c and
er mor
Man chester
OR E
cro wn
Syd ney
L iv
r ug
aus gestellt
Re flex
scheid ung
ton ight
writ ers
concl udes
Persön lichkeiten
au gen
ant asy
über flüss
ian e
stand e
anz a
uni qu
invest itionen
hy giene
Gest alt
Zo om
Guatem ala
A 1
T rop
ro ws
ver ify
ank omm
bet es
Dem ocracy
Up grade
rout ine
v os
ann ually
dr it
bu yer
sequ ence
Chr isto
sex uelle
vari ables
explo ited
Ros a
Atom waffen
accompany ing
Hauptz iel
Begeister ung
H E
u ber
am ment
iel ds
seit dem
corpor ations
west lich
Stör ungen
Kla vier
C SS
K K
Pro gno
Er stellen
Auf klärung
stud ying
kop f
Look ing
seg ments
embar go
Gegeben heiten
Newsp apers
and auern
be hindert
ag ua
sta irs
inv iting
gän gig
assess ed
verlänger t
transatlant ischen
H ut
S OF
W rit
prov es
Wer ken
geschütz ten
beob achtet
benach richt
Streit kräfte
B ash
J im
cur y
order ing
icher ten
spl atz
zü gen
Rom ul
einzu leiten
modif ication
grenz t
Altern ativ
aka dem
Übersetz er
Sis ko
W andern
ver weist
ps y
dep loyment
consult ations
dynam ische
Vie h
medic inal
schlimm sten
s co
dem ocracies
Über trag
lad imir
Rede zeit
außergewöhn lichen
( “
R ate
W ER
ch ips
re ben
au lic
el ong
legisl ativen
Nutz ern
Kan äle
Entschließungs anträge
herunter geladen
App ell
tschech ischen
Immun ität
al ters
arch iv
Partner schafts
erfahren en
Königreich s
prag mat
thodo x
L etzt
a an
nam o
Fahr zeugen
Dec ision
E cu
el o
Autor ität
katastrop hal
intim ate
Co ol
führ end
tour ismus
miss ible
bath s
Exper t
blic ke
Akzept anz
d ungs
i age
in comes
art iger
Jahr zehnt
bu ffer
wert ungs
ikan en
aim ing
demonstr ations
rom ag
mem ories
audio visual
c attle
m ile
cess ions
develop er
verein baren
enh ancing
sympath y
St one
det ention
exp liz
modern sten
Dis abled
proportion ate
Zert ifizierung
oun ced
Luf th
Pol ice
Bo gen
begr iff
verbind liche
österreich ische
sac rific
I celand
ar ium
be kämpft
min ibar
Migr anten
wis dom
inwie weit
A Y
N y
R ica
Z ak
re tro
ic ons
bot tle
Nord ir
Fuß gänger
P ixel
h oney
l ighten
es cal
de du
tr ation
wor ried
Ein reise
dis appoint
Can ary
Kap it
196 5
angemessen er
zep te
Hoff nungen
Ke ep
Job s
L angen
any way
hn te
bre a
Durch führungs
Kol umb
wahr genommen
ürz t
Zul iefer
burn ing
perce ived
Sust ain
ein gest
ir respective
ho ws
19 0
paragraph s
geschen kt
Z ie
Te uf
val uation
sur faces
jen ige
sus pe
Thess alon
o on
r ush
Aus lands
vie wer
Ch or
Zu kunfts
saf er
Sk ip
grün de
ris iko
hom ogen
Mach ine
Straf gerichtshof
Polit ical
best raft
bas ierend
text iles
Richt igkeit
pack en
wunder baren
Gesundheits wesen
pun ishment
Komplex ität
L ig
fr ames
imm unity
Vol umen
dre w
Landwir ten
Beitritts verhandlungen
Besatz ung
Transl ation
Chan cellor
W id
y ield
ern er
str enger
Wer de
Besch leun
German s
Fo x
astr onom
barr ier
endors ed
Guant á
19 00
min ded
Artik eln
Spo ck
Schott land
Heidel berg
D ial
ü pp
un weit
ex otic
Tra v
night life
Anpass ungen
push ed
Vort rag
C art
L U
W ass
i ents
Sch wach
Ziel s
bild ungen
imp liz
197 1
Höhe punkt
üst ungs
benach bar
Darle hen
C hen
or ia
ab geschafft
if a
ze ile
Kon go
bet tz
You Tube
indic ations
Hindern is
1 200
k ana
un ified
re im
ge kr
Ne ither
Über mittlung
line ar
small est
Währ ungen
EL DR
Ster e
Work shop
Mitglieds staaten
Verhaltens kodex
gemüt lich
B ody
P es
Er krankungen
ko w
dead lines
Wander ungen
sec ular
Diagno se
P isa
ar isch
Par king
Europä isches
bereit gestellten
umen ted
Gegen wärtig
ausgewä hlte
O ft
g asse
ver ordnung
ru ins
rif t
irgend eine
Publik ationen
adm ire
B ab
ü ger
er ne
ac le
lim iting
Mot ion
36 5
Cli ents
confir ms
deleg ations
Guantá namo
V all
for tress
co ating
En des
kon stitution
Ze ilen
attra ktive
Sozial isten
arm ament
geräum igen
Quart al
Ukrain ian
sämt licher
k anal
se id
ident ifying
pol og
obstac le
Hunder te
ausger üstet
guil ty
benachricht igt
H ilton
S F
м и
anz usehen
War saw
stabil en
Schließ ung
vereinbar ung
nör dlich
retr ie
ne z
De pending
az ione
Cl ar
heim ische
Ged anke
Sens or
herrschen den
schuld ig
Chi anti
E sp
k ennung
ch sten
ge brauch
wh oles
ex zellen
Ein stieg
Any one
Fü lle
remed y
D ür
er kl
in hab
he ter
kt ives
Finanz minister
freund lichkeit
gewöhn liche
exklus iv
R auch
R out
p estic
es k
we i
ad jacent
Sie b
ong ue
bet tet
dec iding
Rest aur
ON E
voranzu treiben
config ured
shoul der
r ücken
auf rufen
ta ged
ben en
glich keiten
Bet räge
fast est
pass age
Med ium
modern isation
list ing
ME DA
rum än
Gal ic
Olymp ischen
tra gt
wes ten
Hy dr
gepf legt
F ul
p ets
ver setzen
stand es
posit ives
Zeit schrift
introdu ces
Sc andinav
definit ive
dor thin
freiwill ig
Again st
diesbezü glichen
beher bergt
D ell
pr icing
Fra cht
Hand buch
sam keit
Raum fahrt
popular ity
block iert
consolid ate
Fotograf ie
C MS
W ende
t ig
v ue
in te
An trieb
sc ape
dür ften
trial s
vibr ant
bemerk ens
er os
fr idge
wor lds
emphas ize
rene wal
Schwer punkte
Alger ia
kümmer t
Lufth ansa
p y
re lie
ab hängen
ges enkt
comple ting
Bürger rechte
Lin z
pot ato
jud ic
respond ing
Lab VIEW
Auth ent
E tage
H ague
St ütz
ip es
ön t
lin en
stock ung
ober fläche
Fran co
Recent ly
r us
v s
ar c
ro tt
hal ben
20 14
west liche
advis ory
S TO
so wjet
ges endet
fa den
Sch reib
stat tet
gl er
trans national
Stand orten
schätz t
unmittel bare
Herz lich
etter ing
dramat ically
witness ed
Verhinder ung
I ES
it ert
tra f
schl ug
bekannt lich
vergleich bar
Cru z
modific ations
ankomm t
K au
Z en
le id
ab ort
iz ations
spe isen
Co hesion
reichen den
block ing
Cons ider
psych ological
sn acks
Silver Fast
W ave
m ig
ein leiten
ein beziehen
ct r
isch of
tr inken
ger t
lif ting
komm ent
event uelle
BA E
ier bare
Aus kunft
Ma themat
Ex ekut
Gen fer
Obje ctive
gam bling
Residen z
I sch
an ium
for b
Pro be
Man uel
she ep
B IL
H ack
ausge liefert
künstler ischen
Verg essen
om er
gen oc
min der
ian er
To ten
Gen der
stre bt
vol umes
Design s
multilater alen
G utes
R C
sc rap
Dienst stellen
schrift lichen
flü gel
pul s
Schluß folgerungen
il m
da iry
ca ve
abzu geben
morgen s
broadcast ing
complement ary
X Press
л а
se ment
Er fassung
dis abilities
Po ints
folg te
mark iert
vorbe halt
tenden cy
mittelalter lichen
® -
ie u
sp reading
po wder
über trag
cl auses
cour tyard
bin nen
gratul iere
Fert ig
sparte ien
F els
P oc
Über schwemm
Tag ungen
kulture ller
Liz enzen
Cent ury
k W
es is
ra ces
kon tra
Pol o
Br ücken
Wohn sitz
spart nern
O ME
T ul
y ball
th a
auf halten
13 th
cost ly
wach stums
improv es
Sozial partner
Priv ileg
mass iven
Krit erium
Gemeinschafts recht
jün ger
Meinungs äußerung
A dress
F E
L ack
un ya
ge halt
ver handelt
ver danken
Re e
Industr ies
stechn ologien
Ungleich heiten
beweg ungen
kompon enten
reim bur
p hin
er bringen
ex akt
gesch icht
corre ction
Hoch schule
pas sport
1980 s
Addition al
c ort
k eln
er mittelt
tr ès
ta sty
Die jenigen
Mal aga
betre iber
send s
aul ts
niedr ige
earth quake
kommun izieren
D ere
g ourmet
l anges
w at
т ь
ar om
Coun ty
birth day
Vill en
Hochschul en
ur ity
Th ough
Fra gestel
vent ura
sm ell
tradition ally
hard t
Pa ar
Ansprü chen
grap her
Promen ade
D ame
V alle
s arge
if ahr
leg acy
wenn gleich
Wo hler
Spe ziel
Bei behaltung
schlä gen
rol led
fab ulous
ivir us
A dap
tel s
alt es
begr enzen
meaning ful
distin ctive
städ te
anspruchs volle
unglaub lich
ver leih
ach ts
Er ziehung
comm ands
fre d
Um stellung
kün ften
kar a
opt ionen
stu fe
condu cting
frag ile
Gebäu des
Zustell betten
C ards
ro ph
mar ch
Po ettering
could n
zusammen gestellt
pat r
AR C
verschär ft
Equip ment
ip end
Hand hab
hy brid
Tem ple
diox ide
e chter
priv ileg
Gleich wohl
administr ator
imag in
N ag
at um
co gn
Nach weis
Sit es
Hä usern
olo gen
confidential ity
L IF
W ant
un expected
Be autiful
Ho b
Jahres zeit
zy klus
forest ry
en cry
re par
aus geben
über trieben
Al ten
ong ol
Ven et
Flücht lingen
Wohler gehen
F ive
G S
p iel
s cripts
it ary
ge fertigt
su its
dem o
ik on
sel ts
bl end
Grund prinzip
coast line
g ur
l asst
An leger
spe icher
Nach teile
lauf end
tempor arily
Act iv
diplomat ischen
Herzego vina
Contain er
Gedächt nis
E state
V A
p ump
au ert
gram s
mach ung
Afr ikas
Stabil isierung
Fa hren
ä us
sp ä
do ck
Sch ritten
vis ibility
Or chester
inn ing
zurück kommen
Form ate
kre ative
Mann schaft
sort s
Croat ian
wettbewer b
Funktions weise
Offic ial
on na
at ar
ge zahlt
auf hören
Sch riften
fl ora
posit ionen
prote cts
klar stellen
Rot ter
bag gage
Proper ty
B AS
ver pflicht
geb ungen
Tr y
ausge prä
spec ul
bekann ter
manage ments
journal ist
evalu ated
veranst altet
schr auber
c atal
Er hebung
inv asion
Bo w
Med ic
Gegen den
attra ktiven
continu ity
dynam isch
Poss elt
Konsolid ierung
w iden
de pl
Ver schlechter
ex em
Her man
mar ble
Genau igkeit
Spann ung
Zusch auer
F X
o asis
w ins
ч е
il o
zu ständige
Ent täusch
human e
Beispiel sweise
verbunden e
virt uellen
mächt igen
retain ed
scre ens
prere quisite
to ys
sp un
ere ig
pr iced
qu oted
Sch ein
kön ig
Da von
Fest platten
attack ed
I z
[ ...
im ar
aus zus
co operative
Aus sehen
bi of
wid r
geräum ige
Sl ides
K ub
N erv
v ort
10 th
Dar aus
Per fect
betre ut
Stre am
mass iv
Fischerei abkommen
Pay Pal
caf é
Contin ental
n ein
ful filling
Co ver
posit iver
Wes te
Prof ile
don or
Wä sches
6 50
wir st
me x
]] ''
optim iert
anim ation
comprehens ible
gewöhn lichen
verwand eln
ex ac
Hotel zimmer
econom ical
Best rebungen
anzu erkennen
Ba jor
Card iff
Zwischen zeit
leite te
und i
An sehen
inc idents
bank rupt
capt ured
c ad
n arr
Au di
proble matic
back up
steigen de
intell igente
Est land
Pfe iler
ä len
tr u
An re
Be handlungen
Ma j
pf ten
Me as
Lie chten
Eur atom
encounter ed
Feed back
b out
Fort un
Up per
geleg entlich
Dolom ites
Halt estelle
6 th
aus s
Kon dition
Finanz ielle
Best ände
reserv ieren
infra struktur
perfe kten
settle ments
gather ing
drit tens
ü cht
for sch
rel uct
istr ib
proble matisch
Beg leitung
Sitzung speriode
Band breite
flexib ler
Goth ic
f uck
r ics
Ä ra
ö cke
le af
de hnung
comp iled
stütz t
schein bar
erhe bt
irgend wie
jem anden
tail or
hilfs bereit
r ia
ac ies
unter gebracht
ord net
auto mobile
Organ isations
Inform atik
ausch t
vorgesehen e
forese e
Canc ún
B ie
iz a
sh orter
ast on
cont amin
proble men
organ ising
even ings
bi ologische
Ra keten
Gesetzgeb ungs
Räum lichkeiten
B orn
M ön
g ion
end ums
Sch ad
kl er
defin ite
pain ful
durchschnitt liche
enem ies
Scient ific
S elf
s uns
ig i
ed t
In zwischen
ip edia
sh aus
Bo ots
14 th
Lie utenant
Erweiter ungen
assess ing
bestät igung
gg f
europa weit
Wäsches ervice
J ones
N it
it ur
ern ing
wind ung
nutrit ion
vermie ten
A raf
ent ers
sch me
Ver wand
über tragung
ap pr
Be grenzung
Ge häuse
All erg
transpar enter
Telekommunik ation
R é
Z agre
f ed
v öl
д а
ide ology
Ab fahrt
Auf preis
amend o
Eur ob
handel ten
proz essen
b att
pr i
sim ulation
Ste p
bau er
direct ors
sw im
Stre ben
Infl ations
democrat ically
per secution
icher heit
Hand lung
Tur in
Caf és
wäl te
hervorzu heben
N an
V ac
c us
sch loss
unter richt
stru ction
Zeit alter
kr istall
cas ual
Wh atever
recognis es
gewalt ige
Mittag essen
Südti rol
ener get
ar on
ir anischen
Un regelmäß
flexib len
Skr ipt
r ors
st if
be geben
we iger
if s
nach folgenden
qual ification
rest ri
beste hend
priv ater
Som alia
flood s
K O
tre u
vers org
11 1
material ien
krit isieren
impress ed
Econom y
versor gen
er holen
An schließend
har sh
IC K
safe guards
encour ages
Bir ma
Glauben s
C ant
E den
J ub
Z igare
ar n
St ufen
Zusammen fassung
aufge führten
outer most
Beobacht ungs
ge k
sh i
möglich er
aufge treten
Nord korea
König s
Bay ern
preserv ing
magaz ines
[...]
