{"[PAD]":0,"[SOS]":1,"[EOS]":2,"[UNK]":3,"[MASK]":4,"!":5,"\"":6,"#":7,"$":8,"%":9,"&":10,"'":11,"(":12,")":13,"*":14,"+":15,",":16,"-":17,".":18,"/":19,"0":20,"1":21,"2":22,"3":23,"4":24,"5":25,"6":26,"7":27,"8":28,"9":29,":":30,";":31,"<":32,"=":33,">":34,"?":35,"@":36,"A":37,"B":38,"C":39,"D":40,"E":41,"F":42,"G":43,"H":44,"I":45,"J":46,"K":47,"L":48,"M":49,"N":50,"O":51,"P":52,"Q":53,"R":54,"S":55,"T":56,"U":57,"V":58,"W":59,"X":60,"Y":61,"Z":62,"[":63,"\\":64,"]":65,"^":66,"_":67,"`":68,"a":69,"b":70,"c":71,"d":72,"e":73,"f":74,"g":75,"h":76,"i":77,"j":78,"k":79,"l":80,"m":81,"n":82,"o":83,"p":84,"q":85,"r":86,"s":87,"t":88,"u":89,"v":90,"w":91,"x":92,"y":93,"z":94,"{":95,"|":96,"}":97,"~":98,"":99,"":100,"":101,"":102,"":103,"":104,"":105,"":106,"":107,"":108,"":109,"":110,"":111,"":112,"":113,"":114,"":115,"":116,"":117,"":118,"":119,"":120,"":121,"":122,"":123,"":124,"":125,"":126,"":127,"¡":128,"¢":129,"£":130,"¤":131,"¥":132,"¦":133,"§":134,"¨":135,"©":136,"ª":137,"«":138,"¬":139,"­":140,"®":141,"¯":142,"°":143,"±":144,"²":145,"³":146,"´":147,"µ":148,"¶":149,"·":150,"¸":151,"¹":152,"º":153,"»":154,"¼":155,"½":156,"¾":157,"¿":158,"À":159,"Á":160,"Â":161,"Ã":162,"Ä":163,"Å":164,"Æ":165,"Ç":166,"È":167,"É":168,"Ê":169,"Ë":170,"Ì":171,"Í":172,"Î":173,"Ï":174,"Ð":175,"Ñ":176,"Ò":177,"Ó":178,"Ô":179,"Õ":180,"Ö":181,"×":182,"Ø":183,"Ù":184,"Ú":185,"Û":186,"Ü":187,"Ý":188,"Þ":189,"ß":190,"à":191,"á":192,"â":193,"ã":194,"ä":195,"å":196,"æ":197,"ç":198,"è":199,"é":200,"ê":201,"ë":202,"ì":203,"í":204,"î":205,"ï":206,"ð":207,"ñ":208,"ò":209,"ó":210,"ô":211,"õ":212,"ö":213,"÷":214,"ø":215,"ù":216,"ú":217,"û":218,"ü":219,"ý":220,"þ":221,"ÿ":222,"Ā":223,"ā":224,"Ă":225,"ă":226,"Ą":227,"ą":228,"Ć":229,"ć":230,"Ĉ":231,"ĉ":232,"Ċ":233,"ċ":234,"Č":235,"č":236,"Ď":237,"ď":238,"Đ":239,"đ":240,"Ē":241,"ē":242,"ĕ":243,"Ė":244,"ė":245,"Ę":246,"ę":247,"Ě":248,"ě":249,"ĝ":250,"Ğ":251,"ğ":252,"Ġ":253,"ġ":254,"Ģ":255,"ģ":256,"ĥ":257,"Ħ":258,"ħ":259,"ĩ":260,"Ī":261,"ī":262,"ĭ":263,"Į":264,"į":265,"İ":266,"ı":267,"Ĳ":268,"ĵ":269,"Ķ":270,"ķ":271,"ĸ":272,"Ĺ":273,"ĺ":274,"Ļ":275,"ļ":276,"Ľ":277,"ľ":278,"Ŀ":279,"Ł":280,"ł":281,"Ń":282,"ń":283,"Ņ":284,"ņ":285,"Ň":286,"ň":287,"ŋ":288,"Ō":289,"ō":290,"ŏ":291,"Ő":292,"ő":293,"Œ":294,"œ":295,"Ŕ":296,"ŕ":297,"Ř":298,"ř":299,"Ś":300,"ś":301,"Ŝ":302,"ŝ":303,"Ş":304,"ş":305,"Š":306,"š":307,"Ţ":308,"ţ":309,"Ť":310,"ť":311,"ũ":312,"Ū":313,"ū":314,"ŭ":315,"Ů":316,"ů":317,"Ű":318,"ű":319,"Ų":320,"ų":321,"ŵ":322,"ŷ":323,"Ÿ":324,"Ź":325,"ź":326,"Ż":327,"ż":328,"Ž":329,"ž":330,"ſ":331,"Ɔ":332,"Ƒ":333,"ƒ":334,"Ɠ":335,"Ɩ":336,"Ƙ":337,"ƛ":338,"Ɲ":339,"Ơ":340,"ơ":341,"Ʀ":342,"Ƭ":343,"ư":344,"ǎ":345,"ǐ":346,"ǒ":347,"ǔ":348,"ǘ":349,"ǜ":350,"ǝ":351,"ǟ":352,"ǣ":353,"ǫ":354,"Ǵ":355,"ǵ":356,"Ǻ":357,"ȃ":358,"ș":359,"ț":360,"Ȣ":361,"Ȥ":362,"Ȼ":363,"ɐ":364,"ɑ":365,"ɒ":366,"ɔ":367,"ɕ":368,"ə":369,"ɚ":370,"ɛ":371,"ɜ":372,"ɡ":373,"ɢ":374,"ɣ":375,"ɤ":376,"ɨ":377,"ɪ":378,"ɫ":379,"ɬ":380,"ɯ":381,"ɲ":382,"ɴ":383,"ɵ":384,"ɹ":385,"ɾ":386,"ʀ":387,"ʁ":388,"ʃ":389,"ʊ":390,"ʋ":391,"ʌ":392,"ʎ":393,"ʐ":394,"ʒ":395,"ʔ":396,"ʚ":397,"ʤ":398,"ʦ":399,"ʰ":400,"ʲ":401,"ʺ":402,"ʻ":403,"ʼ":404,"ʾ":405,"ʿ":406,"ˁ":407,"ˆ":408,"ˇ":409,"ˈ":410,"ˌ":411,"ː":412,"ˑ":413,"˘":414,"˙":415,"˚":416,"˛":417,"˜":418,"˝":419,"ˡ":420,"ˤ":421,"̀":422,"́":423,"̂":424,"̃":425,"̄":426,"̆":427,"̇":428,"̈":429,"̍":430,"̡":431,"̣":432,"̤":433,"̧":434,"̯":435,"̱":436,"̶":437,"͘":438,"͡":439,";":440,"΄":441,"Ά":442,"Έ":443,"Ί":444,"Ό":445,"Ώ":446,"ΐ":447,"Α":448,"Β":449,"Γ":450,"Δ":451,"Ε":452,"Ζ":453,"Η":454,"Θ":455,"Ι":456,"Κ":457,"Λ":458,"Μ":459,"Ν":460,"Ο":461,"Π":462,"Ρ":463,"Σ":464,"Τ":465,"Υ":466,"Φ":467,"Χ":468,"Ω":469,"ά":470,"έ":471,"ή":472,"ί":473,"α":474,"β":475,"γ":476,"δ":477,"ε":478,"ζ":479,"η":480,"θ":481,"ι":482,"κ":483,"λ":484,"μ":485,"ν":486,"ξ":487,"ο":488,"π":489,"ρ":490,"ς":491,"σ":492,"τ":493,"υ":494,"φ":495,"χ":496,"ψ":497,"ω":498,"ϊ":499,"ϋ":500,"ό":501,"ύ":502,"ώ":503,"Ё":504,"Ђ":505,"Ѓ":506,"Є":507,"Ѕ":508,"І":509,"Ї":510,"Ј":511,"Љ":512,"Њ":513,"Ћ":514,"Ќ":515,"Ў":516,"Џ":517,"А":518,"Б":519,"В":520,"Г":521,"Д":522,"Е":523,"Ж":524,"З":525,"И":526,"Й":527,"К":528,"Л":529,"М":530,"Н":531,"О":532,"П":533,"Р":534,"С":535,"Т":536,"У":537,"Ф":538,"Х":539,"Ц":540,"Ч":541,"Ш":542,"Щ":543,"Ъ":544,"Ы":545,"Ь":546,"Э":547,"Ю":548,"Я":549,"а":550,"б":551,"в":552,"г":553,"д":554,"е":555,"ж":556,"з":557,"и":558,"й":559,"к":560,"л":561,"м":562,"н":563,"о":564,"п":565,"р":566,"с":567,"т":568,"у":569,"ф":570,"х":571,"ц":572,"ч":573,"ш":574,"щ":575,"ъ":576,"ы":577,"ь":578,"э":579,"ю":580,"я":581,"ё":582,"ђ":583,"ѓ":584,"є":585,"ѕ":586,"і":587,"ї":588,"ј":589,"љ":590,"њ":591,"ћ":592,"ќ":593,"ў":594,"џ":595,"Ѳ":596,"ѳ":597,"Ґ":598,"ґ":599,"ғ":600,"ҙ":601,"қ":602,"Ҡ":603,"ҡ":604,"ң":605,"ү":606,"ұ":607,"Ҳ":608,"ҳ":609,"һ":610,"ә":611,"ө":612,"ӳ":613,"ְ":614,"ֲ":615,"ֳ":616,"ִ":617,"ֵ":618,"ֶ":619,"ַ":620,"ָ":621,"ֹ":622,"ּ":623,"ֿ":624,"ׁ":625,"א":626,"ב":627,"ג":628,"ד":629,"ה":630,"ו":631,"ז":632,"ח":633,"ט":634,"י":635,"כ":636,"ל":637,"ם":638,"מ":639,"ן":640,"נ":641,"ס":642,"ע":643,"פ":644,"ץ":645,"צ":646,"ק":647,"ר":648,"ש":649,"ת":650,"،":651,"ؒ":652,"؛":653,"ء":654,"آ":655,"أ":656,"ؤ":657,"إ":658,"ئ":659,"ا":660,"ب":661,"ة":662,"ت":663,"ث":664,"ج":665,"ح":666,"خ":667,"د":668,"ذ":669,"ر":670,"ز":671,"س":672,"ش":673,"ص":674,"ض":675,"ط":676,"ظ":677,"ع":678,"غ":679,"ـ":680,"ف":681,"ق":682,"ك":683,"ل":684,"م":685,"ن":686,"ه":687,"و":688,"ى":689,"ي":690,"ً":691,"ٌ":692,"ٍ":693,"َ":694,"ُ":695,"ِ":696,"ّ":697,"ْ":698,"ٲ":699,"ٹ":700,"ټ":701,"پ":702,"ځ":703,"چ":704,"ڠ":705,"ڤ":706,"ک":707,"ڬ":708,"ڭ":709,"گ":710,"ھ":711,"ہ":712,"ۂ":713,"ۆ":714,"ۇ":715,"ی":716,"ې":717,"ە":718,"۞":719,"۩":720,"۰":721,"۱":722,"۲":723,"۳":724,"۴":725,"۵":726,"۶":727,"۷":728,"۸":729,"۹":730,"ރ":731,"ކ":732,"އ":733,"މ":734,"ާ":735,"ި":736,"ެ":737,"ߖ":738,"ߧ":739,"߮":740,"ं":741,"अ":742,"आ":743,"ई":744,"उ":745,"क":746,"ग":747,"च":748,"छ":749,"ज":750,"ञ":751,"ट":752,"ड":753,"ढ":754,"ण":755,"त":756,"थ":757,"द":758,"ध":759,"न":760,"प":761,"ब":762,"भ":763,"म":764,"य":765,"र":766,"ल":767,"व":768,"श":769,"ष":770,"स":771,"ह":772,"़":773,"ा":774,"ि":775,"ी":776,"ु":777,"ृ":778,"े":779,"ॉ":780,"ो":781,"्":782,"ॐ":783,"ॡ":784,"०":785,"१":786,"२":787,"३":788,"५":789,"९":790,"ং":791,"আ":792,"ই":793,"এ":794,"ক":795,"গ":796,"ঙ":797,"চ":798,"ট":799,"ত":800,"ন":801,"প":802,"ব":803,"ম":804,"য":805,"র":806,"ল":807,"শ":808,"ষ":809,"হ":810,"়":811,"া":812,"ি":813,"ু":814,"ো":815,"্":816,"ৰ":817,"ਗ":818,"ਚ":819,"ਡ":820,"ਹ":821,"ੀ":822,"੍":823,"ੜ":824,"ੰ":825,"ં":826,"અ":827,"ક":828,"જ":829,"ત":830,"મ":831,"ય":832,"ર":833,"સ":834,"ા":835,"િ":836,"ુ":837,"ે":838,"્":839,"૦":840,"૧":841,"૨":842,"க":843,"ங":844,"ச":845,"ட":846,"த":847,"ன":848,"ப":849,"ம":850,"ய":851,"ர":852,"ல":853,"வ":854,"ஷ":855,"ா":856,"ி":857,"ு":858,"ூ":859,"ெ":860,"ை":861,"ோ":862,"்":863,"ం":864,"ఆ":865,"క":866,"గ":867,"జ":868,"డ":869,"ద":870,"ధ":871,"న":872,"ప":873,"ర":874,"శ":875,"ా":876,"ు":877,"ె":878,"ే":879,"ొ":880,"్":881,"ౕ":882,"ಐ":883,"ಯ":884,"ರ":885,"ವ":886,"ಶ":887,"ಾ":888,"ೆ":889,"ೈ":890,"್":891,"ೖ":892,"೦":893,"೧":894,"೨":895,"೩":896,"೫":897,"೬":898,"೮":899,"೯":900,"അ":901,"എ":902,"ക":903,"ത":904,"ദ":905,"ന":906,"പ":907,"മ":908,"യ":909,"ല":910,"വ":911,"ഷ":912,"സ":913,"ി":914,"ീ":915,"ു":916,"ോ":917,"്":918,"න":919,"ම":920,"ර":921,"ව":922,"හ":923,"ු":924,"ก":925,"ข":926,"ค":927,"ฆ":928,"ง":929,"จ":930,"ฉ":931,"ช":932,"ซ":933,"ญ":934,"ฎ":935,"ฏ":936,"ฐ":937,"ฑ":938,"ฒ":939,"ณ":940,"ด":941,"ต":942,"ถ":943,"ท":944,"ธ":945,"น":946,"บ":947,"ป":948,"ผ":949,"ฝ":950,"พ":951,"ฟ":952,"ภ":953,"ม":954,"ย":955,"ร":956,"ฤ":957,"ล":958,"ว":959,"ศ":960,"ษ":961,"ส":962,"ห":963,"อ":964,"ฮ":965,"ฯ":966,"ะ":967,"ั":968,"า":969,"ำ":970,"ิ":971,"ี":972,"ึ":973,"ื":974,"ุ":975,"ู":976,"฿":977,"เ":978,"แ":979,"โ":980,"ใ":981,"ไ":982,"ๆ":983,"็":984,"่":985,"้":986,"๊":987,"๋":988,"์":989,"๑":990,"ຂ":991,"ຄ":992,"ງ":993,"ຈ":994,"ດ":995,"ຖ":996,"ນ":997,"ບ":998,"ມ":999,"ລ":1000,"ວ":1001,"ັ":1002,"າ":1003,"ຸ":1004,"ົ":1005,"ຽ":1006,"ເ":1007,"້":1008,"ໜ":1009,"་":1010,"ཏ":1011,"ད":1012,"ན":1013,"བ":1014,"མ":1015,"ཚ":1016,"འ":1017,"ལ":1018,"ས":1019,"ཱ":1020,"ི":1021,"ོ":1022,"ྔ":1023,"ླ":1024,"န":1025,"ရ":1026,"ဝ":1027,"သ":1028,"ဟ":1029,"ေ":1030,"္":1031,"ა":1032,"ბ":1033,"გ":1034,"დ":1035,"ე":1036,"ვ":1037,"ზ":1038,"თ":1039,"ი":1040,"კ":1041,"ლ":1042,"მ":1043,"ნ":1044,"ო":1045,"პ":1046,"რ":1047,"ს":1048,"ტ":1049,"უ":1050,"ქ":1051,"ღ":1052,"შ":1053,"ც":1054,"ძ":1055,"წ":1056,"ხ":1057,"ჯ":1058,"ህ":1059,"ሊ":1060,"ል":1061,"ሓ":1062,"ሕ":1063,"መ":1064,"ሙ":1065,"ሜ":1066,"ም":1067,"ሥ":1068,"ረ":1069,"ሪ":1070,"ራ":1071,"ር":1072,"ሰ":1073,"ሴ":1074,"ስ":1075,"ሻ":1076,"ሽ":1077,"ቀ":1078,"ቐ":1079,"በ":1080,"ቢ":1081,"ባ":1082,"ተ":1083,"ት":1084,"ቶ":1085,"ነ":1086,"ን":1087,"አ":1088,"ኣ":1089,"ኤ":1090,"እ":1091,"ኦ":1092,"ካ":1093,"ክ":1094,"ዋ":1095,"ው":1096,"ዓ":1097,"ዕ":1098,"የ":1099,"ይ":1100,"ደ":1101,"ዲ":1102,"ድ":1103,"ገ":1104,"ጋ":1105,"ጨ":1106,"ጽ":1107,"ፅ":1108,"ፈ":1109,"ፍ":1110,"፣":1111,"Ꭰ":1112,"Ꭲ":1113,"Ꮊ":1114,"ᐃ":1115,"ᐊ":1116,"ᑦ":1117,"ᑲ":1118,"ᒃ":1119,"ᒥ":1120,"ᓄ":1121,"ᓕ":1122,"ដ":1123,"ឋ":1124,"រ":1125,"ស":1126,"ហ":1127,"្":1128,"ḇ":1129,"ḍ":1130,"ḏ":1131,"ḗ":1132,"Ḥ":1133,"ḥ":1134,"Ḫ":1135,"ḫ":1136,"ḳ":1137,"ḷ":1138,"ḿ":1139,"ṃ":1140,"ṅ":1141,"ṇ":1142,"ṉ":1143,"ṛ":1144,"ṣ":1145,"Ṭ":1146,"ṭ":1147,"Ṯ":1148,"ṳ":1149,"ẋ":1150,"ạ":1151,"ả":1152,"ấ":1153,"ầ":1154,"ẩ":1155,"ậ":1156,"ắ":1157,"ằ":1158,"Ẳ":1159,"ẵ":1160,"ặ":1161,"ẻ":1162,"ẽ":1163,"ế":1164,"ề":1165,"ể":1166,"ễ":1167,"ệ":1168,"ỉ":1169,"ị":1170,"Ọ":1171,"ọ":1172,"ỏ":1173,"ố":1174,"ồ":1175,"ổ":1176,"ộ":1177,"ớ":1178,"ờ":1179,"ở":1180,"ỡ":1181,"ợ":1182,"ụ":1183,"ủ":1184,"ứ":1185,"ừ":1186,"ử":1187,"ữ":1188,"ự":1189,"ỳ":1190,"ỹ":1191,"ἀ":1192,"ἁ":1193,"ἄ":1194,"ἅ":1195,"Ἀ":1196,"ἐ":1197,"ἑ":1198,"ἔ":1199,"Ἔ":1200,"ἠ":1201,"ἡ":1202,"ἦ":1203,"Ἡ":1204,"Ἥ":1205,"ἰ":1206,"Ἱ":1207,"ὁ":1208,"ὄ":1209,"Ὑ":1210,"ά":1211,"ὶ":1212,"ὺ":1213,"ῆ":1214,"ῑ":1215,"ῖ":1216,"ῥ":1217,"ῦ":1218,"​":1219,"‌":1220,"‍":1221,"‎":1222,"‏":1223,"‐":1224,"‑":1225,"‒":1226,"–":1227,"—":1228,"―":1229,"‖":1230,"‘":1231,"’":1232,"‚":1233,"‛":1234,"“":1235,"”":1236,"„":1237,"‟":1238,"†":1239,"‡":1240,"•":1241,"…":1242,"‪":1243,"‬":1244,"‭":1245,"‰":1246,"′":1247,"″":1248,"‶":1249,"‹":1250,"›":1251,"※":1252,"‼":1253,"‽":1254,"⁄":1255,"⁴":1256,"ⁿ":1257,"₁":1258,"₂":1259,"₠":1260,"₣":1261,"₤":1262,"₩":1263,"₪":1264,"€":1265,"₴":1266,"₵":1267,"⃛":1268,"℃":1269,"ℓ":1270,"℔":1271,"№":1272,"™":1273,"Ω":1274,"℮":1275,"⅓":1276,"⅔":1277,"⅛":1278,"⅞":1279,"Ⅱ":1280,"Ⅲ":1281,"←":1282,"↑":1283,"→":1284,"↓":1285,"↔":1286,"↧":1287,"⇒":1288,"⇔":1289,"⇗":1290,"⇢":1291,"∀":1292,"∃":1293,"∈":1294,"∑":1295,"−":1296,"∙":1297,"√":1298,"∞":1299,"∫":1300,"∴":1301,"∶":1302,"∼":1303,"≈":1304,"≠":1305,"≡":1306,"≤":1307,"≥":1308,"≪":1309,"≫":1310,"⋅":1311,"⌃":1312,"⌘":1313,"①":1314,"②":1315,"③":1316,"─":1317,"│":1318,"┌":1319,"┐":1320,"└":1321,"┘":1322,"┬":1323,"┴":1324,"╚":1325,"╞":1326,"╩":1327,"█":1328,"░":1329,"▒":1330,"■":1331,"□":1332,"▪":1333,"▲":1334,"△":1335,"▸":1336,"►":1337,"▼":1338,"◆":1339,"◇":1340,"◈":1341,"◊":1342,"○":1343,"◎":1344,"●":1345,"◙":1346,"◦":1347,"★":1348,"☆":1349,"☎":1350,"☏":1351,"☑":1352,"☯":1353,"☺":1354,"☻":1355,"☼":1356,"♀":1357,"♂":1358,"♠":1359,"♣":1360,"♥":1361,"♦":1362,"♪":1363,"♫":1364,"✿":1365,"➔":1366,"➚":1367,"➟":1368,"➲":1369,"Ⰶ":1370,"ⲉ":1371,"ⲟ":1372,"Ⲡ":1373,"ⲣ":1374,"ⲩ":1375,"、":1376,"。":1377,"々":1378,"《":1379,"》":1380,"「":1381,"」":1382,"『":1383,"』":1384,"【":1385,"】":1386,"〔":1387,"〕":1388,"〜":1389,"ぁ":1390,"あ":1391,"ぃ":1392,"い":1393,"う":1394,"ぇ":1395,"え":1396,"お":1397,"か":1398,"が":1399,"き":1400,"ぎ":1401,"く":1402,"ぐ":1403,"け":1404,"げ":1405,"こ":1406,"ご":1407,"さ":1408,"ざ":1409,"し":1410,"じ":1411,"す":1412,"ず":1413,"せ":1414,"ぜ":1415,"そ":1416,"ぞ":1417,"た":1418,"だ":1419,"ち":1420,"ぢ":1421,"っ":1422,"つ":1423,"づ":1424,"て":1425,"で":1426,"と":1427,"ど":1428,"な":1429,"に":1430,"ぬ":1431,"ね":1432,"の":1433,"は":1434,"ば":1435,"ひ":1436,"び":1437,"ふ":1438,"ぶ":1439,"ぷ":1440,"へ":1441,"べ":1442,"ほ":1443,"ぼ":1444,"ま":1445,"み":1446,"む":1447,"め":1448,"も":1449,"ゃ":1450,"や":1451,"ゅ":1452,"ゆ":1453,"ょ":1454,"よ":1455,"ら":1456,"り":1457,"る":1458,"れ":1459,"ろ":1460,"わ":1461,"ゐ":1462,"ゑ":1463,"を":1464,"ん":1465,"ゔ":1466,"゛":1467,"゜":1468,"ァ":1469,"ア":1470,"ィ":1471,"イ":1472,"ゥ":1473,"ウ":1474,"ェ":1475,"エ":1476,"ォ":1477,"オ":1478,"カ":1479,"ガ":1480,"キ":1481,"ギ":1482,"ク":1483,"グ":1484,"ケ":1485,"ゲ":1486,"コ":1487,"ゴ":1488,"サ":1489,"ザ":1490,"シ":1491,"ジ":1492,"ス":1493,"ズ":1494,"セ":1495,"ゼ":1496,"ソ":1497,"ゾ":1498,"タ":1499,"ダ":1500,"チ":1501,"ッ":1502,"ツ":1503,"テ":1504,"デ":1505,"ト":1506,"ド":1507,"ナ":1508,"ニ":1509,"ヌ":1510,"ネ":1511,"ノ":1512,"ハ":1513,"バ":1514,"パ":1515,"ヒ":1516,"ビ":1517,"ピ":1518,"フ":1519,"ブ":1520,"プ":1521,"ヘ":1522,"ベ":1523,"ペ":1524,"ホ":1525,"ボ":1526,"ポ":1527,"マ":1528,"ミ":1529,"ム":1530,"メ":1531,"モ":1532,"ャ":1533,"ヤ":1534,"ュ":1535,"ユ":1536,"ョ":1537,"ヨ":1538,"ラ":1539,"リ":1540,"ル":1541,"レ":1542,"ロ":1543,"ワ":1544,"ン":1545,"ヴ":1546,"・":1547,"ー":1548,"ㄅ":1549,"ㄆ":1550,"ㄇ":1551,"ㄈ":1552,"ㄤ":1553,"ㄧ":1554,"ㅓ":1555,"ㅔ":1556,"ㅕ":1557,"ㅖ":1558,"ㅡ":1559,"ㅣ":1560,"㎡":1561,"䟩":1562,"一":1563,"七":1564,"万":1565,"丈":1566,"三":1567,"上":1568,"下":1569,"不":1570,"与":1571,"专":1572,"世":1573,"丘":1574,"业":1575,"东":1576,"两":1577,"严":1578,"丨":1579,"个":1580,"中":1581,"丰":1582,"临":1583,"丸":1584,"丹":1585,"为":1586,"主":1587,"丼":1588,"丽":1589,"举":1590,"久":1591,"么":1592,"义":1593,"之":1594,"乌":1595,"乎":1596,"乏":1597,"乐":1598,"乗":1599,"乘":1600,"乙":1601,"九":1602,"也":1603,"习":1604,"乡":1605,"书":1606,"买":1607,"乱":1608,"乾":1609,"了":1610,"争":1611,"事":1612,"二":1613,"于":1614,"云":1615,"互":1616,"五":1617,"井":1618,"亚":1619,"些":1620,"亜":1621,"亞":1622,"交":1623,"产":1624,"亨":1625,"京":1626,"人":1627,"亿":1628,"什":1629,"仁":1630,"仅":1631,"今":1632,"介":1633,"仍":1634,"从":1635,"他":1636,"付":1637,"仙":1638,"仝":1639,"代":1640,"以":1641,"仪":1642,"们":1643,"仮":1644,"仲":1645,"件":1646,"价":1647,"任":1648,"伊":1649,"伎":1650,"伏":1651,"伐":1652,"休":1653,"众":1654,"优":1655,"会":1656,"伝":1657,"伟":1658,"传":1659,"伦":1660,"伯":1661,"估":1662,"伴":1663,"伸":1664,"似":1665,"但":1666,"位":1667,"低":1668,"住":1669,"佐":1670,"佑":1671,"体":1672,"何":1673,"佗":1674,"余":1675,"作":1676,"你":1677,"佰":1678,"使":1679,"例":1680,"侍":1681,"供":1682,"依":1683,"便":1684,"俄":1685,"俊":1686,"保":1687,"信":1688,"修":1689,"倉":1690,"個":1691,"倍":1692,"倒":1693,"候":1694,"值":1695,"假":1696,"做":1697,"健":1698,"側":1699,"備":1700,"储":1701,"傳":1702,"傷":1703,"働":1704,"像":1705,"僕":1706,"儀":1707,"儉":1708,"元":1709,"先":1710,"光":1711,"克":1712,"免":1713,"入":1714,"內":1715,"全":1716,"兩":1717,"八":1718,"公":1719,"六":1720,"兰":1721,"共":1722,"关":1723,"兴":1724,"兵":1725,"其":1726,"具":1727,"养":1728,"兽":1729,"内":1730,"円":1731,"冊":1732,"册":1733,"再":1734,"写":1735,"军":1736,"农":1737,"冤":1738,"冰":1739,"决":1740,"况":1741,"冷":1742,"净":1743,"凄":1744,"准":1745,"凉":1746,"凍":1747,"减":1748,"几":1749,"凶":1750,"凸":1751,"出":1752,"函":1753,"刀":1754,"分":1755,"切":1756,"刑":1757,"列":1758,"刘":1759,"则":1760,"刚":1761,"创":1762,"判":1763,"別":1764,"刨":1765,"利":1766,"别":1767,"到":1768,"制":1769,"刺":1770,"則":1771,"前":1772,"剑":1773,"剣":1774,"剥":1775,"剧":1776,"剩":1777,"副":1778,"割":1779,"創":1780,"劇":1781,"劉":1782,"力":1783,"功":1784,"加":1785,"务":1786,"动":1787,"助":1788,"努":1789,"劳":1790,"势":1791,"動":1792,"勝":1793,"勞":1794,"勢":1795,"勧":1796,"勿":1797,"包":1798,"化":1799,"北":1800,"匠":1801,"匡":1802,"匹":1803,"区":1804,"医":1805,"匿":1806,"區":1807,"十":1808,"千":1809,"升":1810,"半":1811,"卍":1812,"华":1813,"协":1814,"卐":1815,"卓":1816,"单":1817,"卖":1818,"南":1819,"博":1820,"卡":1821,"卦":1822,"卫":1823,"印":1824,"危":1825,"即":1826,"却":1827,"厂":1828,"原":1829,"去":1830,"县":1831,"参":1832,"參":1833,"及":1834,"友":1835,"双":1836,"反":1837,"发":1838,"取":1839,"受":1840,"变":1841,"叡":1842,"口":1843,"古":1844,"另":1845,"只":1846,"叫":1847,"召":1848,"可":1849,"台":1850,"史":1851,"右":1852,"号":1853,"司":1854,"吃":1855,"各":1856,"合":1857,"吉":1858,"吊":1859,"同":1860,"名":1861,"后":1862,"向":1863,"吗":1864,"君":1865,"否":1866,"吧":1867,"吨":1868,"含":1869,"听":1870,"吳":1871,"吴":1872,"吸":1873,"吹":1874,"吾":1875,"呀":1876,"呂":1877,"呆":1878,"呉":1879,"告":1880,"呑":1881,"员":1882,"周":1883,"味":1884,"呼":1885,"命":1886,"咆":1887,"和":1888,"咬":1889,"品":1890,"哈":1891,"响":1892,"員":1893,"哥":1894,"哮":1895,"哲":1896,"唐":1897,"售":1898,"唸":1899,"商":1900,"問":1901,"啤":1902,"啦":1903,"喀":1904,"喂":1905,"善":1906,"喇":1907,"喜":1908,"喫":1909,"嗣":1910,"嘉":1911,"嘛":1912,"嘟":1913,"噌":1914,"噛":1915,"器":1916,"嚴":1917,"四":1918,"回":1919,"因":1920,"団":1921,"囧":1922,"园":1923,"困":1924,"固":1925,"国":1926,"图":1927,"圆":1928,"國":1929,"圍":1930,"圏":1931,"園":1932,"圓":1933,"圖":1934,"土":1935,"在":1936,"地":1937,"圳":1938,"场":1939,"址":1940,"坂":1941,"均":1942,"坊":1943,"坐":1944,"块":1945,"坛":1946,"坝":1947,"坡":1948,"坤":1949,"坪":1950,"型":1951,"垣":1952,"城":1953,"埔":1954,"域":1955,"基":1956,"堂":1957,"堆":1958,"堤":1959,"堰":1960,"報":1961,"場":1962,"塊":1963,"塔":1964,"塗":1965,"塞":1966,"塩":1967,"塾":1968,"増":1969,"增":1970,"墟":1971,"墩":1972,"壊":1973,"士":1974,"壮":1975,"売":1976,"壳":1977,"壹":1978,"壽":1979,"处":1980,"备":1981,"変":1982,"复":1983,"夏":1984,"夕":1985,"外":1986,"多":1987,"夛":1988,"夜":1989,"够":1990,"夢":1991,"大":1992,"天":1993,"太":1994,"夫":1995,"央":1996,"头":1997,"夷":1998,"夹":1999,"奄":2000,"奇":2001,"奈":2002,"奉":2003,"套":2004,"奘":2005,"奚":2006,"奥":2007,"女":2008,"奶":2009,"奸":2010,"好":2011,"如":2012,"妖":2013,"妤":2014,"妨":2015,"妻":2016,"姆":2017,"始":2018,"委":2019,"姦":2020,"威":2021,"娃":2022,"娄":2023,"娜":2024,"娣":2025,"娥":2026,"娱":2027,"婁":2028,"婦":2029,"婷":2030,"媛":2031,"嫌":2032,"子":2033,"字":2034,"存":2035,"季":2036,"学":2037,"孴":2038,"學":2039,"宁":2040,"它":2041,"宇":2042,"安":2043,"宋":2044,"完":2045,"宏":2046,"宗":2047,"官":2048,"定":2049,"宜":2050,"宝":2051,"实":2052,"実":2053,"客":2054,"宣":2055,"室":2056,"宫":2057,"宮":2058,"宰":2059,"家":2060,"容":2061,"宿":2062,"寄":2063,"密":2064,"富":2065,"寤":2066,"實":2067,"寧":2068,"寨":2069,"寳":2070,"寶":2071,"寸":2072,"对":2073,"寺":2074,"寻":2075,"寿":2076,"専":2077,"将":2078,"小":2079,"少":2080,"尔":2081,"尘":2082,"就":2083,"尽":2084,"尾":2085,"尿":2086,"局":2087,"屄":2088,"居":2089,"屈":2090,"届":2091,"屋":2092,"屏":2093,"展":2094,"属":2095,"屯":2096,"山":2097,"屿":2098,"岐":2099,"岗":2100,"岛":2101,"岡":2102,"岩":2103,"岭":2104,"岳":2105,"岷":2106,"岸":2107,"島":2108,"峻":2109,"峽":2110,"崎":2111,"崔":2112,"崖":2113,"崩":2114,"嵥":2115,"嶺":2116,"嶼":2117,"川":2118,"州":2119,"工":2120,"左":2121,"巧":2122,"巨":2123,"差":2124,"己":2125,"已":2126,"巴":2127,"巻":2128,"市":2129,"布":2130,"师":2131,"希":2132,"帝":2133,"帥":2134,"带":2135,"師":2136,"席":2137,"帯":2138,"常":2139,"幌":2140,"幡":2141,"幣":2142,"干":2143,"平":2144,"年":2145,"并":2146,"幸":2147,"幹":2148,"幾":2149,"广":2150,"庁":2151,"広":2152,"庄":2153,"庆":2154,"序":2155,"库":2156,"应":2157,"底":2158,"店":2159,"庚":2160,"府":2161,"废":2162,"度":2163,"座":2164,"庫":2165,"庭":2166,"康":2167,"廃":2168,"廣":2169,"建":2170,"开":2171,"弁":2172,"异":2173,"弄":2174,"式":2175,"弓":2176,"弔":2177,"引":2178,"张":2179,"弦":2180,"張":2181,"强":2182,"当":2183,"形":2184,"彩":2185,"彭":2186,"彰":2187,"影":2188,"役":2189,"彻":2190,"彼":2191,"征":2192,"待":2193,"很":2194,"律":2195,"後":2196,"徐":2197,"徒":2198,"得":2199,"御":2200,"復":2201,"循":2202,"微":2203,"徳":2204,"德":2205,"徹":2206,"徽":2207,"心":2208,"必":2209,"忆":2210,"忍":2211,"志":2212,"忘":2213,"応":2214,"忠":2215,"快":2216,"念":2217,"忻":2218,"忽":2219,"态":2220,"怒":2221,"思":2222,"怡":2223,"急":2224,"性":2225,"怪":2226,"总":2227,"恋":2228,"恢":2229,"恩":2230,"息":2231,"恵":2232,"悟":2233,"悠":2234,"患":2235,"您":2236,"悩":2237,"悪":2238,"悬":2239,"情":2240,"惑":2241,"惠":2242,"惧":2243,"惯":2244,"想":2245,"意":2246,"愛":2247,"感":2248,"慈":2249,"態":2250,"慎":2251,"慢":2252,"慣":2253,"慶":2254,"憎":2255,"憨":2256,"憩":2257,"憶":2258,"憾":2259,"應":2260,"成":2261,"我":2262,"戒":2263,"或":2264,"战":2265,"截":2266,"戴":2267,"戶":2268,"户":2269,"戸":2270,"戻":2271,"房":2272,"所":2273,"扈":2274,"手":2275,"才":2276,"打":2277,"払":2278,"找":2279,"承":2280,"技":2281,"投":2282,"抗":2283,"折":2284,"抜":2285,"护":2286,"报":2287,"抵":2288,"抹":2289,"押":2290,"担":2291,"拉":2292,"拒":2293,"拓":2294,"招":2295,"拟":2296,"择":2297,"括":2298,"拳":2299,"拼":2300,"拿":2301,"持":2302,"挂":2303,"指":2304,"按":2305,"挑":2306,"挠":2307,"挡":2308,"振":2309,"损":2310,"据":2311,"捷":2312,"掉":2313,"排":2314,"掛":2315,"採":2316,"探":2317,"接":2318,"控":2319,"推":2320,"措":2321,"掻":2322,"揂":2323,"揃":2324,"提":2325,"揚":2326,"換":2327,"握":2328,"援":2329,"搅":2330,"損":2331,"搜":2332,"搞":2333,"携":2334,"摂":2335,"摆":2336,"摇":2337,"摩":2338,"撒":2339,"撤":2340,"撫":2341,"播":2342,"撮":2343,"操":2344,"支":2345,"收":2346,"改":2347,"攻":2348,"放":2349,"政":2350,"故":2351,"效":2352,"敏":2353,"救":2354,"教":2355,"散":2356,"敦":2357,"敬":2358,"数":2359,"整":2360,"文":2361,"斗":2362,"料":2363,"斯":2364,"新":2365,"方":2366,"施":2367,"旅":2368,"旋":2369,"族":2370,"无":2371,"日":2372,"旧":2373,"旨":2374,"旭":2375,"旱":2376,"时":2377,"昇":2378,"昌":2379,"明":2380,"易":2381,"星":2382,"映":2383,"春":2384,"昭":2385,"是":2386,"显":2387,"時":2388,"晏":2389,"晨":2390,"普":2391,"景":2392,"智":2393,"暂":2394,"暨":2395,"暫":2396,"暴":2397,"曌":2398,"曝":2399,"更":2400,"書":2401,"曹":2402,"曾":2403,"最":2404,"會":2405,"月":2406,"有":2407,"服":2408,"朔":2409,"朗":2410,"望":2411,"朝":2412,"期":2413,"木":2414,"未":2415,"末":2416,"本":2417,"札":2418,"术":2419,"朱":2420,"机":2421,"杂":2422,"李":2423,"杏":2424,"材":2425,"村":2426,"束":2427,"条":2428,"来":2429,"杨":2430,"杭":2431,"東":2432,"松":2433,"板":2434,"极":2435,"构":2436,"析":2437,"林":2438,"枚":2439,"果":2440,"枡":2441,"枫":2442,"架":2443,"某":2444,"染":2445,"柔":2446,"查":2447,"柱":2448,"柴":2449,"标":2450,"树":2451,"校":2452,"株":2453,"样":2454,"核":2455,"根":2456,"格":2457,"栽":2458,"桂":2459,"桃":2460,"框":2461,"案":2462,"桓":2463,"桜":2464,"桥":2465,"桩":2466,"桶":2467,"梁":2468,"梅":2469,"梨":2470,"械":2471,"检":2472,"棒":2473,"森":2474,"棲":2475,"椅":2476,"植":2477,"検":2478,"楠":2479,"業":2480,"極":2481,"楼":2482,"楽":2483,"樓":2484,"標":2485,"模":2486,"横":2487,"樱":2488,"樹":2489,"橋":2490,"機":2491,"橿":2492,"檀":2493,"次":2494,"欢":2495,"欧":2496,"款":2497,"歌":2498,"止":2499,"正":2500,"此":2501,"步":2502,"武":2503,"歩":2504,"歳":2505,"歸":2506,"死":2507,"殊":2508,"段":2509,"殷":2510,"殻":2511,"殿":2512,"毁":2513,"母":2514,"毎":2515,"每":2516,"毓":2517,"比":2518,"毛":2519,"氏":2520,"民":2521,"气":2522,"気":2523,"氣":2524,"氧":2525,"氮":2526,"水":2527,"氷":2528,"永":2529,"汁":2530,"求":2531,"汇":2532,"汉":2533,"汕":2534,"江":2535,"池":2536,"汤":2537,"汴":2538,"決":2539,"沈":2540,"沌":2541,"沙":2542,"沛":2543,"没":2544,"沢":2545,"沪":2546,"沱":2547,"河":2548,"油":2549,"治":2550,"沿":2551,"況":2552,"泄":2553,"泉":2554,"泊":2555,"法":2556,"波":2557,"泥":2558,"注":2559,"泰":2560,"泽":2561,"洁":2562,"洋":2563,"洒":2564,"洗":2565,"洛":2566,"洞":2567,"洪":2568,"洲":2569,"活":2570,"派":2571,"流":2572,"浄":2573,"测":2574,"济":2575,"浙":2576,"浜":2577,"浦":2578,"浮":2579,"浴":2580,"海":2581,"涂":2582,"消":2583,"涌":2584,"涩":2585,"淡":2586,"淫":2587,"深":2588,"混":2589,"淹":2590,"清":2591,"済":2592,"渋":2593,"渐":2594,"減":2595,"渝":2596,"渡":2597,"温":2598,"港":2599,"渲":2600,"渴":2601,"游":2602,"湄":2603,"湖":2604,"湘":2605,"湯":2606,"湾":2607,"満":2608,"溉":2609,"源":2610,"溜":2611,"溝":2612,"溢":2613,"溥":2614,"溪":2615,"溫":2616,"溯":2617,"溶":2618,"滇":2619,"滞":2620,"滨":2621,"滬":2622,"漢":2623,"漫":2624,"潜":2625,"潟":2626,"潢":2627,"潭":2628,"潮":2629,"澄":2630,"澎":2631,"澤":2632,"澳":2633,"激":2634,"濟":2635,"濱":2636,"灌":2637,"灣":2638,"火":2639,"灯":2640,"灰":2641,"灾":2642,"炎":2643,"炯":2644,"点":2645,"為":2646,"烈":2647,"烏":2648,"烦":2649,"烧":2650,"热":2651,"無":2652,"焦":2653,"然":2654,"焼":2655,"煙":2656,"照":2657,"煩":2658,"煮":2659,"熊":2660,"熟":2661,"熨":2662,"熱":2663,"燃":2664,"燕":2665,"燗":2666,"爆":2667,"爛":2668,"爪":2669,"爱":2670,"父":2671,"爻":2672,"爾":2673,"片":2674,"版":2675,"牌":2676,"牙":2677,"牛":2678,"物":2679,"特":2680,"状":2681,"狐":2682,"狗":2683,"独":2684,"狭":2685,"猛":2686,"猪":2687,"献":2688,"獄":2689,"獲":2690,"玄":2691,"率":2692,"玉":2693,"王":2694,"环":2695,"现":2696,"玲":2697,"珈":2698,"珍":2699,"珠":2700,"班":2701,"球":2702,"理":2703,"琢":2704,"琲":2705,"瑠":2706,"瑩":2707,"璃":2708,"璐":2709,"環":2710,"瓊":2711,"瓶":2712,"甜":2713,"生":2714,"用":2715,"田":2716,"由":2717,"甲":2718,"申":2719,"电":2720,"男":2721,"甸":2722,"町":2723,"画":2724,"界":2725,"留":2726,"畢":2727,"略":2728,"番":2729,"畿":2730,"疆":2731,"疏":2732,"疑":2733,"疗":2734,"疫":2735,"病":2736,"痛":2737,"痴":2738,"瘤":2739,"癌":2740,"癪":2741,"発":2742,"登":2743,"白":2744,"百":2745,"的":2746,"皇":2747,"皮":2748,"盆":2749,"益":2750,"盐":2751,"监":2752,"盖":2753,"盗":2754,"盛":2755,"監":2756,"盧":2757,"目":2758,"直":2759,"相":2760,"省":2761,"看":2762,"県":2763,"真":2764,"眩":2765,"眼":2766,"着":2767,"睛":2768,"睦":2769,"瞎":2770,"瞳":2771,"瞻":2772,"矢":2773,"知":2774,"短":2775,"石":2776,"矿":2777,"码":2778,"砂":2779,"砕":2780,"破":2781,"硝":2782,"硬":2783,"确":2784,"碁":2785,"碍":2786,"碧":2787,"碳":2788,"確":2789,"磁":2790,"磨":2791,"磷":2792,"礱":2793,"示":2794,"礼":2795,"社":2796,"祖":2797,"祝":2798,"神":2799,"票":2800,"祭":2801,"祸":2802,"祿":2803,"禁":2804,"禅":2805,"福":2806,"禪":2807,"禹":2808,"禽":2809,"秀":2810,"私":2811,"秉":2812,"秋":2813,"种":2814,"科":2815,"租":2816,"秦":2817,"积":2818,"称":2819,"移":2820,"稀":2821,"稅":2822,"程":2823,"税":2824,"稱":2825,"稲":2826,"稳":2827,"稻":2828,"稼":2829,"稿":2830,"穷":2831,"空":2832,"立":2833,"站":2834,"竜":2835,"竞":2836,"章":2837,"端":2838,"競":2839,"竹":2840,"笠":2841,"第":2842,"筆":2843,"等":2844,"筑":2845,"答":2846,"策":2847,"签":2848,"简":2849,"箍":2850,"箕":2851,"管":2852,"箱":2853,"節":2854,"篇":2855,"簡":2856,"米":2857,"类":2858,"粉":2859,"粤":2860,"粮":2861,"粵":2862,"精":2863,"糖":2864,"糸":2865,"系":2866,"紀":2867,"紂":2868,"紅":2869,"紋":2870,"納":2871,"純":2872,"紙":2873,"級":2874,"素":2875,"索":2876,"紧":2877,"細":2878,"紹":2879,"終":2880,"経":2881,"結":2882,"絞":2883,"統":2884,"經":2885,"継":2886,"続":2887,"網":2888,"綺":2889,"総":2890,"線":2891,"縣":2892,"縮":2893,"繁":2894,"織":2895,"红":2896,"约":2897,"级":2898,"纪":2899,"纷":2900,"纸":2901,"纹":2902,"纽":2903,"线":2904,"组":2905,"细":2906,"终":2907,"绍":2908,"经":2909,"绝":2910,"绞":2911,"统":2912,"绪":2913,"续":2914,"维":2915,"缓":2916,"缩":2917,"缺":2918,"网":2919,"罗":2920,"罪":2921,"置":2922,"署":2923,"羅":2924,"美":2925,"群":2926,"義":2927,"羲":2928,"羽":2929,"翁":2930,"習":2931,"翠":2932,"翻":2933,"翼":2934,"耀":2935,"老":2936,"考":2937,"者":2938,"而":2939,"耐":2940,"耕":2941,"耳":2942,"耶":2943,"耸":2944,"联":2945,"聖":2946,"聞":2947,"聼":2948,"肉":2949,"股":2950,"肥":2951,"育":2952,"胁":2953,"背":2954,"胖":2955,"胜":2956,"胞":2957,"胡":2958,"能":2959,"脑":2960,"脖":2961,"脚":2962,"脱":2963,"腔":2964,"腕":2965,"腰":2966,"腹":2967,"腺":2968,"膚":2969,"臂":2970,"臈":2971,"臓":2972,"臘":2973,"臣":2974,"臧":2975,"臨":2976,"自":2977,"至":2978,"致":2979,"臺":2980,"舁":2981,"舅":2982,"興":2983,"舊":2984,"舍":2985,"舐":2986,"舖":2987,"舞":2988,"舣":2989,"舩":2990,"航":2991,"舫":2992,"般":2993,"艮":2994,"良":2995,"色":2996,"艳":2997,"节":2998,"芋":2999,"芝":3000,"芦":3001,"花":3002,"苏":3003,"苑":3004,"若":3005,"英":3006,"茂":3007,"茜":3008,"茨":3009,"茶":3010,"草":3011,"荣":3012,"荷":3013,"莉":3014,"莞":3015,"莨":3016,"莲":3017,"获":3018,"莹":3019,"菜":3020,"菩":3021,"華":3022,"菱":3023,"萄":3024,"营":3025,"萧":3026,"萬":3027,"落":3028,"葉":3029,"著":3030,"葡":3031,"董":3032,"蒋":3033,"蒸":3034,"蓋":3035,"蓟":3036,"蓮":3037,"蔓":3038,"蔚":3039,"蔣":3040,"蕭":3041,"蕴":3042,"薇":3043,"薊":3044,"薔":3045,"薬":3046,"薯":3047,"藍":3048,"藏":3049,"藕":3050,"藤":3051,"蘇":3052,"虑":3053,"號":3054,"虫":3055,"蛋":3056,"蜀":3057,"蝦":3058,"融":3059,"螨":3060,"螳":3061,"螺":3062,"蟲":3063,"血":3064,"衆":3065,"行":3066,"術":3067,"街":3068,"衡":3069,"衣":3070,"表":3071,"裂":3072,"装":3073,"裕":3074,"製":3075,"西":3076,"要":3077,"見":3078,"視":3079,"覧":3080,"親":3081,"観":3082,"覺":3083,"见":3084,"观":3085,"视":3086,"觉":3087,"角":3088,"解":3089,"触":3090,"言":3091,"訃":3092,"訊":3093,"討":3094,"訓":3095,"記":3096,"設":3097,"許":3098,"訳":3099,"詠":3100,"試":3101,"詩":3102,"詰":3103,"話":3104,"詳":3105,"詹":3106,"誓":3107,"語":3108,"說":3109,"説":3110,"読":3111,"調":3112,"談":3113,"請":3114,"論":3115,"諸":3116,"謑":3117,"證":3118,"警":3119,"譯":3120,"護":3121,"讃":3122,"變":3123,"计":3124,"讣":3125,"认":3126,"讨":3127,"让":3128,"议":3129,"讯":3130,"记":3131,"讲":3132,"许":3133,"论":3134,"讼":3135,"设":3136,"证":3137,"评":3138,"识":3139,"诉":3140,"译":3141,"试":3142,"诘":3143,"话":3144,"该":3145,"详":3146,"语":3147,"说":3148,"请":3149,"诺":3150,"课":3151,"调":3152,"谈":3153,"谋":3154,"谢":3155,"谷":3156,"豆":3157,"豊":3158,"豐":3159,"豫":3160,"貌":3161,"負":3162,"財":3163,"貢":3164,"販":3165,"貮":3166,"貰":3167,"貴":3168,"貸":3169,"費":3170,"賀":3171,"資":3172,"賈":3173,"賢":3174,"贊":3175,"贞":3176,"负":3177,"贡":3178,"贤":3179,"货":3180,"质":3181,"贫":3182,"购":3183,"贱":3184,"贳":3185,"贷":3186,"贸":3187,"费":3188,"资":3189,"赌":3190,"赖":3191,"赛":3192,"赞":3193,"赤":3194,"赵":3195,"赶":3196,"起":3197,"超":3198,"越":3199,"趋":3200,"趙":3201,"足":3202,"跆":3203,"跋":3204,"跟":3205,"跨":3206,"路":3207,"跳":3208,"踌":3209,"蹟":3210,"躇":3211,"躊":3212,"躍":3213,"身":3214,"車":3215,"軍":3216,"転":3217,"較":3218,"載":3219,"輪":3220,"车":3221,"转":3222,"轮":3223,"轻":3224,"载":3225,"较":3226,"辑":3227,"辛":3228,"辞":3229,"辭":3230,"辱":3231,"農":3232,"込":3233,"达":3234,"迅":3235,"过":3236,"迎":3237,"运":3238,"近":3239,"返":3240,"还":3241,"这":3242,"进":3243,"远":3244,"连":3245,"迫":3246,"述":3247,"迷":3248,"追":3249,"送":3250,"适":3251,"逃":3252,"逆":3253,"选":3254,"透":3255,"途":3256,"通":3257,"速":3258,"造":3259,"逢":3260,"連":3261,"逸":3262,"遇":3263,"遊":3264,"運":3265,"過":3266,"道":3267,"達":3268,"遗":3269,"遝":3270,"遠":3271,"遣":3272,"適":3273,"遪":3274,"遭":3275,"遲":3276,"遷":3277,"遽":3278,"避":3279,"還":3280,"邊":3281,"邑":3282,"那":3283,"邱":3284,"郎":3285,"郑":3286,"郝":3287,"郡":3288,"部":3289,"郷":3290,"都":3291,"鄂":3292,"鄉":3293,"鄭":3294,"酉":3295,"配":3296,"酎":3297,"酒":3298,"酸":3299,"采":3300,"釉":3301,"里":3302,"重":3303,"野":3304,"量":3305,"金":3306,"釣":3307,"鈍":3308,"鈴":3309,"鉄":3310,"鉋":3311,"銀":3312,"銭":3313,"鋍":3314,"鋑":3315,"鋒":3316,"鋓":3317,"鋖":3318,"鋘":3319,"鋜":3320,"鋝":3321,"鋞":3322,"鋟":3323,"録":3324,"鍋":3325,"鎚":3326,"鏡":3327,"鐵":3328,"针":3329,"钓":3330,"钟":3331,"钢":3332,"钦":3333,"钧":3334,"钱":3335,"铁":3336,"铃":3337,"铭":3338,"银":3339,"链":3340,"销":3341,"锈":3342,"锋":3343,"错":3344,"锦":3345,"键":3346,"镜":3347,"長":3348,"长":3349,"門":3350,"開":3351,"間":3352,"関":3353,"閣":3354,"閥":3355,"閩":3356,"關":3357,"门":3358,"问":3359,"间":3360,"闵":3361,"闻":3362,"闽":3363,"阜":3364,"队":3365,"阪":3366,"防":3367,"阳":3368,"阶":3369,"阻":3370,"阿":3371,"陀":3372,"际":3373,"陈":3374,"降":3375,"限":3376,"院":3377,"除":3378,"险":3379,"陰":3380,"陳":3381,"陵":3382,"陶":3383,"陽":3384,"隆":3385,"隊":3386,"階":3387,"際":3388,"障":3389,"难":3390,"雄":3391,"雅":3392,"集":3393,"雙":3394,"雛":3395,"離":3396,"難":3397,"雨":3398,"雪":3399,"雲":3400,"雷":3401,"電":3402,"需":3403,"霊":3404,"霖":3405,"霜":3406,"露":3407,"青":3408,"静":3409,"非":3410,"靠":3411,"面":3412,"革":3413,"靳":3414,"韓":3415,"音":3416,"韻":3417,"頂":3418,"項":3419,"順":3420,"須":3421,"頑":3422,"領":3423,"頭":3424,"題":3425,"顗":3426,"顯":3427,"页":3428,"顶":3429,"顷":3430,"须":3431,"顾":3432,"预":3433,"颐":3434,"颖":3435,"题":3436,"颜":3437,"额":3438,"風":3439,"风":3440,"飛":3441,"飞":3442,"食":3443,"飯":3444,"飲":3445,"飼":3446,"館":3447,"饮":3448,"饲":3449,"馆":3450,"首":3451,"香":3452,"馬":3453,"駄":3454,"駅":3455,"験":3456,"騙":3457,"騜":3458,"驗":3459,"马":3460,"验":3461,"骨":3462,"髄":3463,"體":3464,"高":3465,"鬼":3466,"魔":3467,"鮨":3468,"鮮":3469,"鯨":3470,"鰀":3471,"鰃":3472,"鰄":3473,"鰈":3474,"鰊":3475,"鰎":3476,"鱲":3477,"鱼":3478,"鲁":3479,"鲞":3480,"鳩":3481,"鳳":3482,"鴻":3483,"鵜":3484,"鷹":3485,"鸡":3486,"鸭":3487,"鸯":3488,"鸳":3489,"鹅":3490,"鹈":3491,"鹤":3492,"鹿":3493,"麗":3494,"麩":3495,"麺":3496,"黃":3497,"黄":3498,"黎":3499,"黒":3500,"黚":3501,"點":3502,"黡":3503,"黨":3504,"黮":3505,"黵":3506,"黷":3507,"鼻":3508,"齋":3509,"齡":3510,"龍":3511,"龙":3512,"검":3513,"겜":3514,"경":3515,"계":3516,"고":3517,"곡":3518,"구":3519,"국":3520,"군":3521,"권":3522,"글":3523,"김":3524,"뀌":3525,"나":3526,"널":3527,"녀":3528,"년":3529,"노":3530,"누":3531,"는":3532,"니":3533,"닌":3534,"님":3535,"다":3536,"단":3537,"당":3538,"대":3539,"도":3540,"돌":3541,"동":3542,"드":3543,"디":3544,"딘":3545,"딩":3546,"라":3547,"레":3548,"려":3549,"령":3550,"로":3551,"루":3552,"류":3553,"르":3554,"린":3555,"마":3556,"막":3557,"맨":3558,"면":3559,"목":3560,"무":3561,"문":3562,"미":3563,"바":3564,"박":3565,"반":3566,"백":3567,"뱅":3568,"번":3569,"벌":3570,"법":3571,"베":3572,"변":3573,"별":3574,"보":3575,"블":3576,"비":3577,"빅":3578,"빌":3579,"빛":3580,"사":3581,"산":3582,"서":3583,"선":3584,"성":3585,"세":3586,"셀":3587,"셔":3588,"셜":3589,"소":3590,"수":3591,"스":3592,"습":3593,"승":3594,"시":3595,"신":3596,"싱":3597,"아":3598,"알":3599,"압":3600,"야":3601,"양":3602,"어":3603,"었":3604,"에":3605,"엘":3606,"엠":3607,"영":3608,"오":3609,"왕":3610,"요":3611,"울":3612,"웅":3613,"워":3614,"월":3615,"웨":3616,"위":3617,"유":3618,"율":3619,"으":3620,"을":3621,"읍":3622,"이":3623,"인":3624,"일":3625,"자":3626,"작":3627,"적":3628,"전":3629,"정":3630,"제":3631,"조":3632,"존":3633,"종":3634,"주":3635,"지":3636,"짝":3637,"창":3638,"천":3639,"체":3640,"추":3641,"충":3642,"층":3643,"치":3644,"클":3645,"키":3646,"킨":3647,"태":3648,"터":3649,"턴":3650,"톨":3651,"퇴":3652,"트":3653,"티":3654,"퍼":3655,"폐":3656,"피":3657,"한":3658,"향":3659,"호":3660,"환":3661,"회":3662,"훈":3663,"":3664,"":3665,"":3666,"":3667,"":3668,"":3669,"":3670,"":3671,"":3672,"":3673,"":3674,"":3675,"":3676,"":3677,"":3678,"":3679,"":3680,"":3681,"":3682,"":3683,"":3684,"":3685,"":3686,"":3687,"":3688,"":3689,"":3690,"":3691,"金":3692,"ﬁ":3693,"ﬂ":3694,"ﷲ":3695,"︰":3696,"ﺍ":3697,"ﺏ":3698,"ﺤ":3699,"ﺩ":3700,"ﻁ":3701,"ﻙ":3702,"ﻫ":3703,"﻿":3704,"！":3705,"＄":3706,"（":3707,"）":3708,"＊":3709,"，":3710,"－":3711,"．":3712,"１":3713,"２":3714,"７":3715,"９":3716,"：":3717,"；":3718,"？":3719,"Ｉ":3720,"Ｐ":3721,"Ｓ":3722,"Ｖ":3723,"［":3724,"］":3725,"ｂ":3726,"ｄ":3727,"ｅ":3728,"ｈ":3729,"ｌ":3730,"ｏ":3731,"ｓ":3732,"ｔ":3733,"ｕ":3734,"､":3735,"･":3736,"ｫ":3737,"ｲ":3738,"ｻ":3739,"ｿ":3740,"ﾜ":3741,"ﾟ":3742,"￠":3743,"￡":3744,"￥":3745,"￼":3746,"�":3747,"𐌰":3748,"𐌴":3749,"𐌸":3750,"𐌼":3751,"𐌽":3752,"𐍃":3753,"𐍉":3754,"𠐄":3755,"𢥲":3756,"𧵮":3757,"𲠄":3758,"𲠤":3759,"򮬩":3760,"򮮥":3761,"򲤥":3762,"򲵮":3763,"򴩧":3764,"en":3765,"er":3766,"in":3767,"ch":3768,"th":3769,"an":3770,"es":3771,"on":3772,"un":3773,"is":3774,"at":3775,"it":3776,"ie":3777,"or":3778,"al":3779,"the":3780,"ar":3781,"st":3782,"re":3783,"der":3784,"ich":3785,"as":3786,"ion":3787,"ur":3788,"le":3789,"and":3790,"te":3791,"of":3792,"ein":3793,"ge":3794,"to":3795,"ent":3796,"de":3797,"be":3798,"au":3799,"und":3800,"om":3801,"ung":3802,"ing":3803,"die":3804,"ro":3805,"el":3806,"den":3807,"il":3808,"ig":3809,"ic":3810,"ed":3811,"ol":3812,"am":3813,"ir":3814,"us":3815,"im":3816,"ter":3817,"ver":3818,"for":3819,"ten":3820,"sch":3821,"se":3822,"ation":3823,"zu":3824,"op":3825,"he":3826,"ab":3827,"ut":3828,"ra":3829,"we":3830,"hr":3831,"ies":3832,"ist":3833,"em":3834,"ul":3835,"ct":3836,"ne":3837,"ber":3838,"gen":3839,"lich":3840,"ve":3841,"all":3842,"um":3843,"ür":3844,"no":3845,"isch":3846,"ier":3847,"icht":3848,"das":3849,"pro":3850,"ke":3851,"that":3852,"est":3853,"so":3854,"con":3855,"ach":3856,"ess":3857,"omm":3858,"von":3859,"sp":3860,"ce":3861,"auf":3862,"ad":3863,"are":3864,"wh":3865,"id":3866,"wir":3867,"ere":3868,"lo":3869,"et":3870,"In":3871,"ith":3872,"mit":3873,"la":3874,"our":3875,"ly":3876,"für":3877,"wer":3878,"kt":3879,"des":3880,"if":3881,"ort":3882,"with":3883,"eine":3884,"ind":3885,"urop":3886,"The":3887,"tr":3888,"pr":3889,"su":3890,"ha":3891,"aus":3892,"ou":3893,"ill":3894,"dem":3895,"Ver":3896,"iv":3897,"dies":3898,"ts":3899,"ho":3900,"me":3901,"ta":3902,"ck":3903,"ment":3904,"Europ":3905,"po":3906,"af":3907,"ma":3908,"ell":3909,"men":3910,"ate":3911,"gr":3912,"ex":3913,"fr":3914,"ges":3915,"qu":3916,"iss":3917,"co":3918,"da":3919,"ungen":3920,"Un":3921,"nen":3922,"ben":3923,"com":3924,"00":3925,"ischen":3926,"tel":3927,"ien":3928,"art":3929,"ze":3930,"res":3931,"this":3932,"not":3933,"ity":3934,"ers":3935,"An":3936,"ust":3937,"sich":3938,"ive":3939,"St":3940,"Sie":3941,"nicht":3942,"ant":3943,"end":3944,"Re":3945,"über":3946,"by":3947,"ap":3948,"ag":3949,"ib":3950,"ser":3951,"än":3952,"werden":3953,"ial":3954,"ah":3955,"auch":3956,"li":3957,"sen":3958,"lie":3959,"ann":3960,"mo":3961,"fa":3962,"wor":3963,"iel":3964,"dass":3965,"have":3966,"port":3967,"pe":3968,"igen":3969,"wo":3970,"igh":3971,"vor":3972,"its":3973,"Die":3974,"Be":3975,"you":3976,"will":3977,"fe":3978,"uld":3979,"was":3980,"man":3981,"ik":3982,"ern":3983,"ay":3984,"als":3985,"ac":3986,"du":3987,"tz":3988,"wie":3989,"hen":3990,"do":3991,"per":3992,"ions":3993,"which":3994,"tra":3995,"Sch":3996,"ommiss":3997,"hal":3998,"Europe":3999,"ted":4000,"ungs":4001,"Th":4002,"ste":4003,"from":4004,"up":4005,"We":4006,"ther":4007,"has":4008,"form":4009,"str":4010,"oll":4011,"out":4012,"fer":4013,"Pro":4014,"sind":4015,"age":4016,"schaf":4017,"can":4018,"ip":4019,"einer":4020,"sit":4021,"En":4022,"ident":4023,"war":4024,"imm":4025,"ommission":4026,"able":4027,"one":4028,"..":4029,"ug":4030,"inter":4031,"fen":4032,"wird":4033,"fü":4034,"bei":4035,"hat":4036,"ine":4037,"ure":4038,"je":4039,"ide":4040,"ön":4041,"uss":4042,"Er":4043,"aben":4044,"einen":4045,"Par":4046,"ang":4047,"ische":4048,"io":4049,"Ho":4050,"her":4051,"Ar":4052,"ft":4053,"iz":4054,"pl":4055,"fin":4056,"oder":4057,"urch":4058,"bes":4059,"ise":4060,"br":4061,"Au":4062,"enn":4063,"go":4064,"ire":4065,"ger":4066,"ick":4067,"bo":4068,"unter":4069,"iten":4070,"ia":4071,"200":4072,"ass":4073,"pol":4074,"zur":4075,"hren":4076,"ige":4077,"ament":4078,"ore":4079,"Her":4080,"European":4081,"sie":4082,"ations":4083,"haben":4084,"Mit":4085,"also":4086,"cl":4087,"ard":4088,"Pr":4089,"ally":4090,"Aus":4091,"Fr":4092,"part":4093,"Al":4094,"ction":4095,"comp":4096,"uns":4097,"lichen":4098,"chen":4099,"ult":4100,"dr":4101,"Ein":4102,"ice":4103,"ational":4104,"ated":4105,"ok":4106,"ät":4107,"che":4108,"kön":4109,"ank":4110,"spe":4111,"very":4112,"nach":4113,"dern":4114,"gan":4115,"od":4116,"mö":4117,"ange":4118,"reg":4119,"aten":4120,"sten":4121,"Ge":4122,"ss":4123,"cht":4124,"hl":4125,"Wir":4126,"sho":4127,"schaft":4128,"og":4129,"ans":4130,"ff":4131,"ieren":4132,"alle":4133,"gro":4134,"ob":4135,"Se":4136,"rit":4137,"wn":4138,"ht":4139,"ish":4140,"stell":4141,"ear":4142,"sh":4143,"är":4144,"vel":4145,"ue":4146,"weit":4147,"ight":4148,"work":4149,"ble":4150,"your":4151,"cess":4152,"Das":4153,"Union":4154,"iert":4155,"einem":4156,"ates":4157,"durch":4158,"ander":4159,"leg":4160,"kann":4161,"wur":4162,"yst":4163,"pt":4164,"19":4165,"ord":4166,"ub":4167,"dar":4168,"tet":4169,"hin":4170,"comm":4171,"Gr":4172,"elt":4173,"keit":4174,"ign":4175,"ün":4176,"ast":4177,"use":4178,"tim":4179,"but":4180,"national":4181,"It":4182,"cre":4183,"Vor":4184,"ember":4185,"coun":4186,"äs":4187,"ical":4188,"ystem":4189,"Ber":4190,"ame":4191,"Ich":4192,"ot":4193,"fre":4194,"ite":4195,"ak":4196,"ome":4197,"fol":4198,"können":4199,"there":4200,"ance":4201,"liche":4202,"EU":4203,"Mr":4204,"more":4205,"ary":4206,"pre":4207,"Herr":4208,"ud":4209,"ih":4210,"Commission":4211,"ör":4212,"beit":4213,"mar":4214,"Le":4215,"ple":4216,"pla":4217,"ommen":4218,"land":4219,"ain":4220,"Ab":4221,"lt":4222,"ahr":4223,"zum":4224,"would":4225,"ssen":4226,"lin":4227,"par":4228,"been":4229,"their":4230,"ese":4231,"any":4232,"ition":4233,"min":4234,"cial":4235,"heit":4236,"tre":4237,"bar":4238,"ile":4239,"dis":4240,"chte":4241,"Ent":4242,"av":4243,"ins":4244,"zen":4245,"glich":4246,"other":4247,"De":4248,"Ges":4249,"sel":4250,"Europä":4251,"uch":4252,"wä":4253,"now":4254,"This":4255,"ong":4256,"mer":4257,"ens":4258,"ute":4259,"way":4260,"chn":4261,"nur":4262,"diese":4263,"produ":4264,"Hotel":4265,"Unter":4266,"hand":4267,"ents":4268,"prov":4269,"gel":4270,"cr":4271,"ken":4272,"neh":4273,"act":4274,"polit":4275,"ian":4276,"Der":4277,"new":4278,"should":4279,"ase":4280,"reich":4281,"gt":4282,"ner":4283,"ück":4284,"Pres":4285,"vie":4286,"net":4287,"Sp":4288,"For":4289,"Kon":4290,"under":4291,"unser":4292,"ful":4293,"ll":4294,"who":4295,"ater":4296,"ev":4297,"teil":4298,"gram":4299,"cent":4300,"ution":4301,"sol":4302,"noch":4303,"äsident":4304,"ierung":4305,"stand":4306,"mü":4307,"bet":4308,"soll":4309,"Co":4310,"Ih":4311,"etz":4312,"dieser":4313,"kon":4314,"Te":4315,"bere":4316,"Es":4317,"ktion":4318,"countr":4319,"tro":4320,"ahl":4321,"ded":4322,"must":4323,"ds":4324,"20":4325,"Dies":4326,"ces":4327,"...":4328,"mehr":4329,"Kommission":4330,"day":4331,"daß":4332,"geb":4333,"ely":4334,"kl":4335,"ings":4336,"formation":4337,"off":4338,"Inter":4339,"over":4340,"ty":4341,"they":4342,"gem":4343,"ities":4344,"sta":4345,"aber":4346,"schen":4347,"ual":4348,"serv":4349,"year":4350,"fl":4351,"immer":4352,"like":4353,"time":4354,"gre":4355,"sein":4356,"only":4357,"wurde":4358,"ments":4359,"fore":4360,"cur":4361,"anz":4362,"os":4363,"sup":4364,"President":4365,"ßen":4366,"utz":4367,"Präsident":4368,"get":4369,"Ma":4370,"Auf":4371,"wick":4372,"Um":4373,"hn":4374,"gegen":4375,"ks":4376,"leich":4377,"glie":4378,"about":4379,"Mar":4380,"wenn":4381,"10":4382,"ef":4383,"nah":4384,"Reg":4385,"olle":4386,"system":4387,"pres":4388,"Ze":4389,"ack":4390,"cts":4391,"olog":4392,"kommen":4393,"alt":4394,"assen":4395,"ild":4396,"fo":4397,"gesch":4398,"fir":4399,"stat":4400,"ible":4401,"zw":4402,"bie":4403,"ced":4404,"pos":4405,"tain":4406,"nis":4407,"sehr":4408,"ious":4409,"cil":4410,"some":4411,").":4412,"velop":4413,"müssen":4414,"Fra":4415,"need":4416,"nehmen":4417,"cy":4418,"ws":4419,"ms":4420,"lament":4421,"führ":4422,"cons":4423,"bis":4424,"gu":4425,"Mitglie":4426,"erson":4427,"ative":4428,"ors":4429,"ied":4430,"vers":4431,"dire":4432,"king":4433,"det":4434,"these":4435,"liament":4436,"ität":4437,"ause":4438,"onder":4439,"ütz":4440,"sa":4441,"Parlament":4442,"ammen":4443,"wen":4444,"ld":4445,"ket":4446,"mat":4447,"such":4448,"Bes":4449,"tern":4450,"best":4451,"Member":4452,"ular":4453,"Men":4454,"import":4455,"ustr":4456,"ph":4457,"eines":4458,"ibt":4459,"lung":4460,"setz":4461,"usammen":4462,"atz":4463,"dif":4464,"stit":4465,"most":4466,"weiter":4467,"diesem":4468,"develop":4469,"iger":4470,"int":4471,"room":4472,"igkeit":4473,"dam":4474,"ople":4475,"my":4476,"well":4477,"ider":4478,"ility":4479,"igt":4480,"ures":4481,"Ne":4482,"kte":4483,"many":4484,"vo":4485,"ific":4486,"report":4487,"entr":4488,"sub":4489,"posit":4490,"ihre":4491,"ons":4492,"low":4493,"erg":4494,"Europäischen":4495,"änd":4496,"mal":4497,"halten":4498,"unden":4499,"gest":4500,"into":4501,"So":4502,"tho":4503,"iven":4504,"sche":4505,"Parliament":4506,"were":4507,"cle":4508,"viel":4509,"ateg":4510,"lä":4511,"wicht":4512,"them":4513,"oper":4514,"come":4515,"les":4516,"ctive":4517,"lic":4518,"ient":4519,"bas":4520,"geben":4521,"rel":4522,"ating":4523,"vis":4524,"people":4525,"mon":4526,"amen":4527,"uß":4528,"Or":4529,"Im":4530,"wel":4531,"ihr":4532,"what":4533,"pf":4534,"ism":4535,"hotel":4536,"Jahr":4537,"dition":4538,"zeit":4539,"just":4540,"pub":4541,"neu":4542,"ices":4543,"iden":4544,"hel":4545,"gl":4546,"arbeit":4547,"bal":4548,"Ch":4549,"),":4550,"Me":4551,"stru":4552,"As":4553,"möchte":4554,"pen":4555,"Zeit":4556,"bre":4557,"international":4558,"cause":4559,"mach":4560,"por":4561,"inv":4562,"loc":4563,"conom":4564,"isten":4565,"techn":4566,"hier":4567,"Über":4568,"than":4569,"hol":4570,"Mitglied":4571,"high":4572,"ement":4573,"States":4574,"ats":4575,"Tr":4576,"incl":4577,"eing":4578,"ail":4579,"order":4580,"ansp":4581,"led":4582,"Ger":4583,"xt":4584,"Coun":4585,"first":4586,"itte":4587,"son":4588,"dec":4589,"uropä":4590,"when":4591,"Nach":4592,"och":4593,"countries":4594,"ory":4595,"his":4596,"ert":4597,"vom":4598,"ler":4599,"gleich":4600,"ale":4601,"Frau":4602,"fä":4603,"qual":4604,"roug":4605,"stellen":4606,"Con":4607,"US":4608,"partic":4609,"ieden":4610,"oc":4611,"read":4612,"sicht":4613,"Bericht":4614,"ru":4615,"Str":4616,"ele":4617,"ster":4618,"program":4619,"Menschen":4620,"legen":4621,"Council":4622,"polic":4623,"pa":4624,"allen":4625,"wend":4626,"essen":4627,"Land":4628,"own":4629,"cont":4630,"sowie":4631,"europä":4632,"econom":4633,"poss":4634,"richt":4635,"where":4636,"gibt":4637,"bu":4638,"He":4639,"support":4640,"again":4641,"gar":4642,"zwischen":4643,"enz":4644,"etzt":4645,"gew":4646,"oft":4647,"Comm":4648,"here":4649,"änder":4650,"Fre":4651,"make":4652,"stütz":4653,"important":4654,"zwe":4655,"dieses":4656,"inn":4657,"deut":4658,"press":4659,"agre":4660,"ween":4661,"erv":4662,"cour":4663,"ence":4664,"vent":4665,"arge":4666,"tschaft":4667,"besonder":4668,"hör":4669,"halb":4670,"Pol":4671,"bed":4672,"ließ":4673,"gh":4674,"thing":4675,"between":4676,"ights":4677,"fact":4678,"take":4679,"quest":4680,"fort":4681,"istr":4682,"bin":4683,"set":4684,"main":4685,"halt":4686,"ives":4687,"propos":4688,"möglich":4689,"Entwick":4690,"issen":4691,"Zu":4692,"oh":4693,"ware":4694,"because":4695,"Mitgliedsta":4696,"ci":4697,"ural":4698,"arr":4699,"igung":4700,"world":4701,"proble":4702,"fra":4703,"ject":4704,"see":4705,"forder":4706,"Fl":4707,"Bere":4708,"ister":4709,"information":4710,"199":4711,"bst":4712,"ital":4713,"No":4714,"emp":4715,"line":4716,"ict":4717,"muss":4718,"Produ":4719,"Art":4720,"nat":4721,"two":4722,"äch":4723,"zial":4724,"organ":4725,"tem":4726,"ous":4727,"cted":4728,"ßer":4729,"Min":4730,"zie":4731,"eng":4732,"good":4733,"els":4734,"made":4735,"unsere":4736,"same":4737,"keine":4738,"Br":4739,"trag":4740,"wür":4741,"ko":4742,"wa":4743,"ionen":4744,"bl":4745,"Ex":4746,"versch":4747,"Ihre":4748,"uation":4749,"sc":4750,"aut":4751,"right":4752,"lang":4753,"finden":4754,"Fin":4755,"had":4756,"Ihnen":4757,"even":4758,"hä":4759,"every":4760,"dit":4761,"Arbeit":4762,"voll":4763,"Grund":4764,"years":4765,"Mitgliedstaaten":4766,"öff":4767,"throug":4768,"issu":4769,"ional":4770,"If":4771,"real":4772,"anderen":4773,"akt":4774,"uring":4775,"amil":4776,"jed":4777,"Europa":4778,"urn":4779,"ium":4780,"bring":4781,"resp":4782,"ys":4783,"bus":4784,"ße":4785,"num":4786,"rat":4787,"being":4788,"then":4789,"del":4790,"unkt":4791,"ting":4792,"med":4793,"ink":4794,"Mon":4795,"Zusammen":4796,"icher":4797,"those":4798,"15":4799,"cept":4800,"ischer":4801,"Kr":4802,"lag":4803,"Pl":4804,"To":4805,"jo":4806,"rest":4807,"bess":4808,"public":4809,"clear":4810,"view":4811,"sicher":4812,"less":4813,"ps":4814,"letz":4815,"Rat":4816,"Proble":4817,"ständ":4818,"weise":4819,"keiten":4820,"Sta":4821,"wever":4822,"mittel":4823,"chä":4824,"person":4825,"may":4826,"Bo":4827,"gra":4828,"schließ":4829,"prom":4830,"cer":4831,"unity":4832,"policy":4833,"Wenn":4834,"fall":4835,"att":4836,"brauch":4837,"chten":4838,"vir":4839,"äm":4840,"Ro":4841,"währ":4842,"gemein":4843,"dann":4844,"ited":4845,"isen":4846,"Vorsch":4847,"welt":4848,"los":4849,"uman":4850,"spre":4851,"market":4852,"know":4853,"ument":4854,"Haus":4855,"gener":4856,"zahl":4857,"isation":4858,"ös":4859,"effe":4860,"ven":4861,"site":4862,"find":4863,"star":4864,"There":4865,"belie":4866,"zeich":4867,"On":4868,"Bereich":4869,"nahmen":4870,"Des":4871,"last":4872,"play":4873,"weil":4874,"sure":4875,"acht":4876,"present":4877,"wieder":4878,"place":4879,"differ":4880,"lim":4881,"stehen":4882,"particular":4883,"itik":4884,"Gro":4885,"fahren":4886,"12":4887,"diesen":4888,"err":4889,"offen":4890,"damit":4891,"Gen":4892,"beste":4893,"lage":4894,"wohl":4895,"nung":4896,"after":4897,"process":4898,"vern":4899,"used":4900,"ior":4901,"Welt":4902,"wurden":4903,"innen":4904,"di":4905,"fach":4906,"30":4907,"Ja":4908,"bel":4909,"Po":4910,"ters":4911,"fun":4912,"rei":4913,"val":4914,"how":4915,"aur":4916,"ough":4917,"possible":4918,"elle":4919,"Ko":4920,"spr":4921,"iness":4922,"aum":4923,"adt":4924,"ade":4925,"conc":4926,"18":4927,"air":4928,"say":4929,"requ":4930,"Hand":4931,"cor":4932,"Wo":4933,"entlich":4934,"You":4935,"Ihr":4936,"deb":4937,"area":4938,"Diese":4939,"que":4940,"gehen":4941,"chts":4942,"ändern":4943,"trä":4944,"rag":4945,"ants":4946,"kr":4947,"stitution":4948,"reichen":4949,"aller":4950,"beg":4951,"unserer":4952,"sur":4953,"rent":4954,"trans":4955,"habe":4956,"comple":4957,"sm":4958,"far":4959,"Gem":4960,"len":4961,"trol":4962,"economic":4963,"wort":4964,"Fe":4965,"wirtschaft":4966,"einz":4967,"ace":4968,"rif":4969,"ix":4970,"Was":4971,"through":4972,"itt":4973,"sondern":4974,"Bar":4975,"wert":4976,"000":4977,"point":4978,"sim":4979,"lau":4980,"Bür":4981,"fest":4982,"angen":4983,"alth":4984,"uer":4985,"ow":4986,"seine":4987,"ga":4988,"50":4989,"prote":4990,"wirk":4991,"jedoch":4992,"put":4993,"kle":4994,"ellen":4995,"ince":4996,"Europäische":4997,"exper":4998,"var":4999,"uro":5000,"incre":5001,"tegr":5002,"old":5003,"industr":5004,"ply":5005,"human":5006,"fahr":5007,"Bet":5008,"concern":5009,"eln":5010,"great":5011,"erst":5012,"ausge":5013,"hist":5014,"führen":5015,"Information":5016,"tens":5017,"Mo":5018,"access":5019,"gestel":5020,"At":5021,"System":5022,"plic":5023,"Sicher":5024,"iti":5025,"change":5026,"ziel":5027,"lobal":5028,"contin":5029,"neue":5030,"prof":5031,"Am":5032,"hö":5033,"grund":5034,"ards":5035,"lagen":5036,"could":5037,"ker":5038,"political":5039,"transp":5040,"heute":5041,"Program":5042,"ages":5043,"ata":5044,"help":5045,"provide":5046,"want":5047,"offer":5048,"Ind":5049,"Man":5050,"lassen":5051,"number":5052,"Unternehmen":5053,"back":5054,"level":5055,"Pre":5056,"Än":5057,"fund":5058,"development":5059,"isp":5060,"Teil":5061,"cap":5062,"Res":5063,"ude":5064,"Web":5065,"appro":5066,"does":5067,"rights":5068,"lish":5069,"within":5070,"pra":5071,"ready":5072,"gung":5073,"raft":5074,"kom":5075,"ierte":5076,"satz":5077,"text":5078,"look":5079,"ßnahmen":5080,"exam":5081,"itz":5082,"avail":5083,"Änder":5084,"ohne":5085,"ganz":5086,"loy":5087,"open":5088,"ähr":5089,"bereits":5090,"sk":5091,"All":5092,"sign":5093,"ability":5094,"selbst":5095,"much":5096,"tal":5097,"Richt":5098,"ihrer":5099,"against":5100,"both":5101,"mich":5102,"ics":5103,"zug":5104,"govern":5105,"wichtig":5106,"fle":5107,"itä":5108,"country":5109,"bur":5110,"free":5111,"ree":5112,"pect":5113,"large":5114,"ath":5115,"down":5116,"therefore":5117,"Wer":5118,"icult":5119,"Wie":5120,"utions":5121,"Gemein":5122,"Entwicklung":5123,"neuen":5124,"europäischen":5125,"ests":5126,"führt":5127,"ved":5128,"sollte":5129,"kun":5130,"Leben":5131,"clo":5132,"ierten":5133,"viron":5134,"unt":5135,"Mö":5136,"ustom":5137,"group":5138,"Jahren":5139,"too":5140,"ator":5141,"ulation":5142,"Daten":5143,"ER":5144,"fur":5145,"einfach":5146,"finan":5147,"priv":5148,"still":5149,"hlen":5150,"eigen":5151,"ret":5152,"andere":5153,"denen":5154,"oftware":5155,"operation":5156,"liegt":5157,"Part":5158,"long":5159,"eld":5160,"Is":5161,"une":5162,"zwei":5163,"position":5164,"fil":5165,"Kom":5166,"11":5167,"ätz":5168,"grö":5169,"kehr":5170,"ren":5171,"gent":5172,"agement":5173,"üh":5174,"cord":5175,"different":5176,"quality":5177,"without":5178,"key":5179,"ittee":5180,"Ste":5181,"schn":5182,"social":5183,"spec":5184,"ctor":5185,"consider":5186,"Frage":5187,"meas":5188,"ask":5189,"vironment":5190,"inner":5191,"ux":5192,"seit":5193,"services":5194,"ctions":5195,"woll":5196,"immt":5197,"inst":5198,"iver":5199,"hop":5200,"lif":5201,"verschieden":5202,"sollten":5203,"sehen":5204,"hän":5205,"machen":5206,"service":5207,"bietet":5208,"Bürger":5209,"ep":5210,"uf":5211,"Chin":5212,"ti":5213,"Person":5214,"schafts":5215,"Da":5216,"Wor":5217,"nahme":5218,"komm":5219,"car":5220,"power":5221,"ways":5222,"zeug":5223,"licher":5224,"unterstütz":5225,"fast":5226,"ision":5227,"ize":5228,"cit":5229,"bil":5230,"ists":5231,"arbe":5232,"available":5233,"kes":5234,"Mittel":5235,"design":5236,"fut":5237,"wes":5238,"gend":5239,"Bed":5240,"kten":5241,"ivid":5242,"let":5243,"atur":5244,"Stand":5245,"alten":5246,"pass":5247,"inc":5248,"ime":5249,"require":5250,"ichte":5251,"ness":5252,"geht":5253,"member":5254,"rooms":5255,"Tre":5256,"met":5257,"nor":5258,"az":5259,"business":5260,"mir":5261,"tion":5262,"ised":5263,"Internet":5264,"fern":5265,"sprechen":5266,"Dem":5267,"besondere":5268,"eben":5269,"ibility":5270,"statt":5271,"ves":5272,"certain":5273,"EN":5274,"thor":5275,"bt":5276,"llen":5277,"luss":5278,"course":5279,"viele":5280,"ispiel":5281,"findet":5282,"current":5283,"16":5284,"besch":5285,"dazu":5286,"amer":5287,"custom":5288,"gut":5289,"Kommiss":5290,"ience":5291,"uten":5292,"ffic":5293,"alen":5294,"before":5295,"uck":5296,"bau":5297,"chan":5298,"enter":5299,"omen":5300,"already":5301,"Arbe":5302,"believe":5303,"Möglich":5304,"future":5305,"ienst":5306,"iß":5307,"van":5308,"stellung":5309,"arch":5310,"kur":5311,"ktur":5312,"ond":5313,"seiner":5314,"red":5315,"besser":5316,"La":5317,"strateg":5318,"special":5319,"gestellt":5320,"Med":5321,"denn":5322,"reas":5323,"Ziel":5324,"aff":5325,"ving":5326,"Tra":5327,"global":5328,"nam":5329,"But":5330,"cing":5331,"har":5332,"employ":5333,"recht":5334,"technolog":5335,"today":5336,"That":5337,"respons":5338,"]]":5339,"14":5340,"ides":5341,"könn":5342,"darauf":5343,"Com":5344,"entwick":5345,"products":5346,"case":5347,"jor":5348,"Af":5349,"jetzt":5350,"ahmen":5351,"[[":5352,"think":5353,"ismus":5354,"2009":5355,"rap":5356,"mb":5357,"ont":5358,"environment":5359,"disc":5360,"betr":5361,"redu":5362,"cond":5363,"Rahmen":5364,"char":5365,"schon":5366,"ically":5367,"data":5368,"zentr":5369,"klär":5370,"ahre":5371,"17":5372,"mor":5373,"Lage":5374,"suc":5375,"Maßnahmen":5376,"Serv":5377,"agen":5378,"cannot":5379,"Energ":5380,"dy":5381,"integr":5382,"nisse":5383,"ritt":5384,"Informationen":5385,"plan":5386,"city":5387,"curity":5388,"sor":5389,"na":5390,"Kin":5391,"bieten":5392,"öl":5393,"Finanz":5394,"amp":5395,"folg":5396,"zus":5397,"Qu":5398,"cho":5399,"falls":5400,"ica":5401,"Amer":5402,"imin":5403,"individ":5404,"13":5405,"aterial":5406,"IN":5407,"ward":5408,"follow":5409,"isk":5410,"mus":5411,"isl":5412,"Fall":5413,"saf":5414,"olution":5415,"uni":5416,"uding":5417,"offers":5418,"activ":5419,"ues":5420,"invest":5421,"ately":5422,"zusammen":5423,"question":5424,"einige":5425,"col":5426,"imple":5427,"lossen":5428,"web":5429,"anken":5430,"exp":5431,"sam":5432,"dafür":5433,"small":5434,"wissen":5435,"iving":5436,"Stadt":5437,"leist":5438,"Zimmer":5439,"fair":5440,"gesam":5441,"Bl":5442,"situation":5443,"okrat":5444,"bereit":5445,"And":5446,"famil":5447,"cell":5448,"ante":5449,"meet":5450,"Russ":5451,"Commissioner":5452,"Herrn":5453,"legal":5454,"Spe":5455,"iter":5456,"Euro":5457,"ilt":5458,"asse":5459,"energ":5460,"cas":5461,"fully":5462,"necess":5463,"Aussch":5464,"direct":5465,"Pal":5466,"law":5467,"rie":5468,"nov":5469,"liegen":5470,"enth":5471,"ca":5472,"spra":5473,"Em":5474,"gress":5475,"issue":5476,"nun":5477,"during":5478,"zurück":5479,"citiz":5480,"iff":5481,"pay":5482,"waren":5483,"äß":5484,"hof":5485,"ually":5486,"bind":5487,"financial":5488,"ihren":5489,"Nor":5490,"Ange":5491,"inen":5492,"heiten":5493,"allem":5494,"equ":5495,"bs":5496,"Jahre":5497,"setzung":5498,"said":5499,"ahn":5500,"kunft":5501,"cost":5502,"begr":5503,"modern":5504,"top":5505,"bro":5506,"Ad":5507,"side":5508,"regard":5509,"achie":5510,"problem":5511,"ship":5512,"ron":5513,"ound":5514,"debate":5515,"auto":5516,"means":5517,"including":5518,"AN":5519,"Verein":5520,"ily":5521,"meine":5522,"example":5523,"wach":5524,"aupt":5525,"Kommissar":5526,"proposal":5527,"25":5528,"major":5529,"folgen":5530,"applic":5531,"stellt":5532,"Für":5533,"Rechts":5534,"Arbeits":5535,"cken":5536,"steht":5537,"count":5538,"worden":5539,"heits":5540,"wal":5541,"nie":5542,"eas":5543,"cult":5544,"since":5545,"Best":5546,"ows":5547,"wollen":5548,"punkt":5549,"Ur":5550,"Politik":5551,"stay":5552,"ett":5553,"Eine":5554,"Su":5555,"udget":5556,"Our":5557,"illion":5558,"verfü":5559,"call":5560,"würde":5561,"fte":5562,"iele":5563,"24":5564,"However":5565,"ized":5566,"stre":5567,"action":5568,"using":5569,"abil":5570,"With":5571,"unseren":5572,"based":5573,"sagen":5574,"antwort":5575,"Lin":5576,"struct":5577,"utes":5578,"ationen":5579,"author":5580,"taken":5581,"oren":5582,"build":5583,"kün":5584,"pp":5585,"bewer":5586,"each":5587,"compet":5588,"ktionen":5589,"adop":5590,"isierung":5591,"ying":5592,"tour":5593,"dep":5594,"allow":5595,"vi":5596,"immung":5597,"legt":5598,"ES":5599,"spiel":5600,"leben":5601,"IT":5602,"Proje":5603,"Committee":5604,"bringen":5605,"Fir":5606,"colle":5607,"Kolle":5608,"AT":5609,"während":5610,"sozial":5611,"schein":5612,"Parlaments":5613,"control":5614,"stär":5615,"Länder":5616,"tes":5617,"common":5618,"amend":5619,"three":5620,"ichter":5621,"page":5622,"Ser":5623,"histor":5624,"hält":5625,"etwas":5626,"Techn":5627,"tun":5628,"ffen":5629,"EC":5630,"conta":5631,"Recht":5632,"ird":5633,"Lös":5634,"ential":5635,"trib":5636,"give":5637,"Deut":5638,"ablish":5639,"ordin":5640,"aurant":5641,"next":5642,"doch":5643,"Vorschlag":5644,"areas":5645,"ensure":5646,"dra":5647,"measures":5648,"UN":5649,"success":5650,"Und":5651,"specific":5652,"IS":5653,"rece":5654,"lungs":5655,"ersten":5656,"erhalten":5657,"lik":5658,"Geschä":5659,"ordnung":5660,"Mill":5661,"aren":5662,"company":5663,"few":5664,"Zwe":5665,"energy":5666,"schrif":5667,"cover":5668,"ining":5669,"Bild":5670,"sy":5671,"log":5672,"linie":5673,"result":5674,"ja":5675,"unde":5676,"scheid":5677,"ines":5678,"bank":5679,"agreement":5680,"gangen":5681,"Unterstütz":5682,"2010":5683,"pop":5684,"thank":5685,"arbeiten":5686,"lungen":5687,"discuss":5688,"establish":5689,"while":5690,"Durch":5691,"book":5692,"ased":5693,"insbesondere":5694,"ürlich":5695,"fts":5696,"further":5697,"necessary":5698,"Rest":5699,"setzen":5700,"Qual":5701,"citizens":5702,"earch":5703,"Ital":5704,"life":5705,"dig":5706,"schaften":5707,"China":5708,"ditions":5709,"hmen":5710,"Bei":5711,"San":5712,"pat":5713,"gang":5714,"mil":5715,"kauf":5716,"gehör":5717,"grow":5718,"Spiel":5719,"addition":5720,"atic":5721,"igin":5722,"half":5723,"cher":5724,"außer":5725,"Markt":5726,"einmal":5727,"iet":5728,"Änderungs":5729,"vention":5730,"commun":5731,"Verfü":5732,"glichen":5733,"wish":5734,"2008":5735,"ton":5736,"gesetzt":5737,"Group":5738,"ache":5739,"ling":5740,"fiel":5741,"writ":5742,"whe":5743,"Mein":5744,"umf":5745,"sing":5746,"pack":5747,"lead":5748,"security":5749,"ilfe":5750,"incip":5751,"utzen":5752,"uc":5753,"ichten":5754,"light":5755,"bot":5756,"alled":5757,"Form":5758,"letzten":5759,"beim":5760,"größ":5761,"problems":5762,"bit":5763,"bede":5764,"shall":5765,"Unterstützung":5766,"ning":5767,"verwen":5768,"opport":5769,"tragen":5770,"Namen":5771,"ules":5772,"Fol":5773,"Dar":5774,"miss":5775,"Sit":5776,"lay":5777,"Gesch":5778,"did":5779,"ane":5780,"legisl":5781,"ina":5782,"jen":5783,"zo":5784,"start":5785,"ktiv":5786,"100":5787,"Zusammenarbeit":5788,"walt":5789,"defin":5790,"pract":5791,"Bel":5792,"vote":5793,"health":5794,"budget":5795,"given":5796,"genommen":5797,"ext":5798,"Tag":5799,"umen":5800,"inform":5801,"cially":5802,"Dienst":5803,"zess":5804,"drei":5805,"agt":5806,"princip":5807,"sequ":5808,"CO":5809,"Ländern":5810,"km":5811,"esse":5812,"Mad":5813,"ged":5814,"porte":5815,"opp":5816,"Kunden":5817,"ements":5818,"tradition":5819,"bat":5820,"dress":5821,"hope":5822,"entlichen":5823,"ises":5824,"invol":5825,"ellschaft":5826,"Gu":5827,"Stra":5828,"igten":5829,"flo":5830,"Sicherheit":5831,"systems":5832,"Mal":5833,"leicht":5834,"Mus":5835,"gn":5836,"Umwelt":5837,"rele":5838,"spl":5839,"complete":5840,"Flug":5841,"wards":5842,"Ben":5843,"ding":5844,"why":5845,"sour":5846,"Organ":5847,"however":5848,"region":5849,"self":5850,"located":5851,"programm":5852,"zept":5853,"Problem":5854,"iety":5855,"markt":5856,"zü":5857,"refer":5858,"Cl":5859,"einge":5860,"besteht":5861,"water":5862,"Ob":5863,"cooperation":5864,"treten":5865,"örder":5866,"ising":5867,"ross":5868,"conne":5869,"ww":5870,"stra":5871,"Hin":5872,"anal":5873,"pur":5874,"gether":5875,"Vol":5876,"sum":5877,"deren":5878,"stim":5879,"Gar":5880,"protection":5881,"asch":5882,"führung":5883,"implement":5884,"full":5885,"licht":5886,"ierungs":5887,"ively":5888,"öt":5889,"compan":5890,"Kl":5891,"ified":5892,"uge":5893,"Bus":5894,"streng":5895,"AR":5896,"ildr":5897,"Sol":5898,"itäten":5899,"Rom":5900,"care":5901,"always":5902,"Stel":5903,"joy":5904,"Regierung":5905,"glau":5906,"needs":5907,"working":5908,"II":5909,"gaben":5910,"views":5911,"appe":5912,"lemen":5913,"They":5914,"Fragen":5915,"Kar":5916,"wär":5917,"frien":5918,"Ir":5919,"state":5920,"seinen":5921,"House":5922,"government":5923,"reach":5924,"wendung":5925,"Beit":5926,"mult":5927,"bekann":5928,"eig":5929,"United":5930,"bereich":5931,"ildren":5932,"zieh":5933,"uter":5934,"production":5935,"ader":5936,"stud":5937,"rechte":5938,"Auto":5939,"welche":5940,"better":5941,"dom":5942,"centr":5943,"interest":5944,"elf":5945,"Service":5946,"diff":5947,"häng":5948,"handelt":5949,"Energie":5950,"nal":5951,"poin":5952,"Seite":5953,"transport":5954,"wäre":5955,"Kollegen":5956,"Community":5957,"USA":5958,"kosten":5959,"ätze":5960,"non":5961,"hang":5962,"cks":5963,"break":5964,"dabei":5965,"40":5966,"ivil":5967,"visit":5968,"initi":5969,"crit":5970,"second":5971,"Besch":5972,"spol":5973,"hy":5974,"wide":5975,"Vertrag":5976,"genau":5977,"Port":5978,"ches":5979,"found":5980,"erk":5981,"consum":5982,"around":5983,"2007":5984,"Not":5985,"druck":5986,"respect":5987,"load":5988,"ialog":5989,"ash":5990,"Famil":5991,"What":5992,"ek":5993,"Chr":5994,"ury":5995,"making":5996,"iste":5997,"Fraktion":5998,"großen":5999,"blick":6000,"together":6001,"muß":6002,"him":6003,"hip":6004,"zeigt":6005,"große":6006,"oth":6007,"Gener":6008,"prü":6009,"fect":6010,"programme":6011,"Bedeut":6012,"gabe":6013,"ingungen":6014,"accept":6015,"politischen":6016,"term":6017,"dist":6018,"Kinder":6019,"rad":6020,"German":6021,"sever":6022,"Programm":6023,"rän":6024,"2000":6025,"chäft":6026,"row":6027,"lad":6028,"hoto":6029,"burg":6030,"AS":6031,"recent":6032,"date":6033,"Mrs":6034,"porteur":6035,"Entscheid":6036,"Regel":6037,"deal":6038,"terms":6039,"verb":6040,"Eben":6041,"Verfügung":6042,"''":6043,"ichterstat":6044,"schw":6045,"When":6046,"International":6047,"Air":6048,"short":6049,"trade":6050,"profess":6051,"clus":6052,"Hier":6053,"tax":6054,"Bedeutung":6055,"Ergeb":6056,"uft":6057,"carr":6058,"Tur":6059,"wirklich":6060,"ums":6061,"centre":6062,"near":6063,"iges":6064,"cal":6065,"whether":6066,"exist":6067,"become":6068,"particularly":6069,"proper":6070,"Lebens":6071,"going":6072,"proje":6073,"account":6074,"kets":6075,"These":6076,"assung":6077,"yo":6078,"management":6079,"deta":6080,"uments":6081,"local":6082,"jeder":6083,"extre":6084,"Schutz":6085,"enten":6086,"Möglichkeit":6087,"ikan":6088,"material":6089,"60":6090,"fäh":6091,"lauf":6092,"Sk":6093,"Aber":6094,"Fo":6095,"basis":6096,"ose":6097,"pers":6098,"difficult":6099,"inclu":6100,"another":6101,"Li":6102,"Staaten":6103,"cel":6104,"-,":6105,"role":6106,"bild":6107,"lack":6108,"ende":6109,"children":6110,"ention":6111,"Per":6112,"schließlich":6113,"Zug":6114,"research":6115,"town":6116,"ars":6117,"wand":6118,"personal":6119,"kommt":6120,"Fun":6121,"beach":6122,"rapporteur":6123,"Auch":6124,"mut":6125,"issues":6126,"express":6127,"guar":6128,"anc":6129,"alles":6130,"notwend":6131,"bestimm":6132,"Lie":6133,"conditions":6134,"Beispiel":6135,"ocr":6136,"träge":6137,"reason":6138,"80":6139,"iben":6140,"reco":6141,"ultur":6142,"xim":6143,"Zahl":6144,"vious":6145,"contrib":6146,"perio":6147,"typ":6148,"org":6149,"Als":6150,"Ant":6151,"halts":6152,"New":6153,"hervor":6154,"gef":6155,"ief":6156,"whole":6157,"bon":6158,"sto":6159,"näch":6160,"depend":6161,"speak":6162,"wegen":6163,"fert":6164,"ölker":6165,"kre":6166,"lichkeit":6167,"fig":6168,"davon":6169,"ners":6170,"Lo":6171,"instit":6172,"Thema":6173,"entfern":6174,"show":6175,"Kre":6176,"tag":6177,"EUR":6178,"Strateg":6179,"origin":6180,"post":6181,"facil":6182,"weisen":6183,"ieg":6184,"schied":6185,"cut":6186,"equip":6187,"sector":6188,"aty":6189,"address":6190,"Frauen":6191,"darüber":6192,"espe":6193,"suchen":6194,"gegenüber":6195,"schnell":6196,"erforder":6197,"Haupt":6198,"Wett":6199,"weg":6200,"kein":6201,"aim":6202,"sele":6203,"\",":6204,"lle":6205,"\".":6206,"Zentr":6207,"Berichterstat":6208,"Fort":6209,"daher":6210,"fon":6211,"Probleme":6212,"Gä":6213,"close":6214,"tschafts":6215,"anges":6216,"coming":6217,"schutz":6218,"Wahl":6219,"enzen":6220,"Weg":6221,"ground":6222,"Gegen":6223,"igkeiten":6224,"23":6225,"Je":6226,"decision":6227,"eigenen":6228,"cording":6229,"Industr":6230,"companies":6231,"women":6232,"auer":6233,"month":6234,"amm":6235,"word":6236,"Viel":6237,"various":6238,"Weise":6239,"Tour":6240,"gere":6241,"list":6242,"geord":6243,"commit":6244,"experience":6245,"ategor":6246,"Fahr":6247,"darf":6248,"feat":6249,"sport":6250,"käm":6251,"benef":6252,"reform":6253,"igr":6254,"called":6255,"frei":6256,"industry":6257,"sowohl":6258,"doc":6259,"hil":6260,"vour":6261,"selves":6262,"DE":6263,"guarante":6264,"ban":6265,"ino":6266,"face":6267,"Seiten":6268,"weitere":6269,"meiner":6270,"isches":6271,"IC":6272,"Artik":6273,"big":6274,"comes":6275,"Ihrer":6276,"Ende":6277,"befindet":6278,"though":6279,"ika":6280,"erreichen":6281,"Vers":6282,"ziehen":6283,"greif":6284,"third":6285,"distr":6286,"politik":6287,"she":6288,"Produkt":6289,"especially":6290,"könnte":6291,"innov":6292,"Deutsch":6293,"ehen":6294,"prior":6295,"hatte":6296,"iar":6297,"Ausschuss":6298,"oney":6299,"natürlich":6300,"Software":6301,"matter":6302,"War":6303,"racht":6304,"dessen":6305,"location":6306,"food":6307,"neten":6308,"Car":6309,"really":6310,"tt":6311,"kno":6312,"staff":6313,"head":6314,"Zukunft":6315,"wind":6316,"ped":6317,"Alle":6318,"klar":6319,"Forsch":6320,"besonders":6321,"AL":6322,"iday":6323,"iate":6324,"goti":6325,"Char":6326,"lands":6327,"name":6328,"Sy":6329,"Mehr":6330,"dings":6331,"hard":6332,"ktor":6333,"ably":6334,"user":6335,"tele":6336,"contra":6337,"effect":6338,"El":6339,"ry":6340,"Grup":6341,"private":6342,"soc":6343,"ands":6344,"hoch":6345,"unterstützen":6346,"cellent":6347,"Fest":6348,"crip":6349,"done":6350,"improv":6351,"ihnen":6352,"2006":6353,"Richtlinie":6354,"Sw":6355,"road":6356,"comfort":6357,"verschiedenen":6358,"create":6359,"ization":6360,"project":6361,"Den":6362,"lines":6363,"ON":6364,"Pe":6365,"pose":6366,"automat":6367,"mot":6368,"dou":6369,"ils":6370,"product":6371,"Minister":6372,"rä":6373,"ences":6374,"proced":6375,"run":6376,"üss":6377,"install":6378,"abhäng":6379,"Kol":6380,"turn":6381,"Comp":6382,"Situation":6383,"gegeben":6384,"vest":6385,"äd":6386,"innerhalb":6387,"zip":6388,"orn":6389,"communic":6390,"genann":6391,"negoti":6392,"enden":6393,"geschlossen":6394,"isions":6395,"Währ":6396,"job":6397,"kind":6398,"entfernt":6399,"Afr":6400,"represent":6401,"Do":6402,"Wettbewer":6403,"vielen":6404,"Dire":6405,"dort":6406,"ival":6407,"tell":6408,"ativen":6409,"def":6410,"regul":6411,"house":6412,"home":6413,"geführt":6414,"TV":6415,"scheiden":6416,"ety":6417,"class":6418,"enjoy":6419,"Rolle":6420,"langu":6421,"Germany":6422,"favour":6423,"trodu":6424,"ministr":6425,"approach":6426,"test":6427,"Go":6428,"spolitik":6429,"Grün":6430,"ived":6431,"zwar":6432,"ither":6433,"samen":6434,"instr":6435,"aid":6436,"ichtet":6437,"event":6438,"ennt":6439,"single":6440,"million":6441,"among":6442,"Geschäfts":6443,"general":6444,"amework":6445,"ivers":6446,"unge":6447,"äuß":6448,"abo":6449,"cke":6450,"internationalen":6451,"ativ":6452,"stimmung":6453,"employment":6454,"Wind":6455,"blo":6456,"Bu":6457,"something":6458,"direkt":6459,"Ta":6460,"ols":6461,"fficient":6462,"understand":6463,"itself":6464,"ours":6465,"deli":6466,"away":6467,"finanz":6468,"several":6469,"Fil":6470,"vol":6471,"resour":6472,"atten":6473,"cris":6474,"Nutz":6475,"ifiz":6476,"range":6477,"möchten":6478,"Wes":6479,"Ap":6480,"Fä":6481,"ets":6482,"Transp":6483,"resolution":6484,"software":6485,"itor":6486,"introdu":6487,"Kü":6488,"known":6489,"Verbrauch":6490,"ittle":6491,"continue":6492,"organis":6493,"oment":6494,"version":6495,"Technolog":6496,"Park":6497,"AG":6498,"folgt":6499,"Ihren":6500,"ühr":6501,"peace":6502,"often":6503,"anzu":6504,"urs":6505,"werk":6506,"mäß":6507,"dür":6508,"ago":6509,"ände":6510,"TO":6511,"ov":6512,"regional":6513,"asing":6514,"hlt":6515,"ican":6516,"lot":6517,"institution":6518,"mark":6519,"excellent":6520,"vil":6521,"advan":6522,"Wirtschaft":6523,"Wasser":6524,"AC":6525,"app":6526,"Hotels":6527,"Gre":6528,"progress":6529,"rael":6530,"taking":6531,"Berlin":6532,"sprache":6533,"World":6534,"least":6535,"My":6536,"Dr":6537,"subject":6538,"relations":6539,"table":6540,"Rück":6541,"etc":6542,"opin":6543,"days":6544,"Artikel":6545,"erste":6546,"atives":6547,"following":6548,"ones":6549,"Komm":6550,"Frank":6551,"Wirtschafts":6552,"gentlemen":6553,"verl":6554,"family":6555,"serious":6556,"Jan":6557,"Partner":6558,"olf":6559,"inde":6560,"europäische":6561,"imp":6562,"konn":6563,"nehmer":6564,"ugen":6565,"Uhr":6566,"ksam":6567,"aussch":6568,"ances":6569,"apart":6570,"crisis":6571,"21":6572,"tage":6573,"zeitig":6574,"particip":6575,"Bau":6576,"ians":6577,"hunder":6578,"individual":6579,"gricult":6580,"rules":6581,"optim":6582,"Gesund":6583,"field":6584,"directive":6585,"hinaus":6586,"price":6587,"ünst":6588,"Natur":6589,"ults":6590,"terr":6591,"Ele":6592,"once":6593,"Stud":6594,"fel":6595,"online":6596,"Gebie":6597,"Spra":6598,"Ac":6599,"affen":6600,"Berichterstatter":6601,"ifft":6602,"frage":6603,"network":6604,"iere":6605,"Dis":6606,"milit":6607,"money":6608,"forward":6609,"ferenz":6610,"dest":6611,"ared":6612,"antrag":6613,"feel":6614,"Invest":6615,"flex":6616,"gern":6617,"einzel":6618,"icle":6619,"ierungen":6620,"mention":6621,"function":6622,"schaffen":6623,"absol":6624,"welcome":6625,"Fisch":6626,"Meinung":6627,"wahr":6628,"Ter":6629,"erien":6630,"Ru":6631,"towards":6632,"imate":6633,"Kultur":6634,"strong":6635,"ließen":6636,"soci":6637,"leistungen":6638,"unehmen":6639,"Abgeord":6640,"entsprechen":6641,"Span":6642,"22":6643,"zer":6644,"little":6645,"bi":6646,"things":6647,"Gleich":6648,"ingen":6649,"vier":6650,"mann":6651,"period":6652,"weis":6653,"uses":6654,"bestehen":6655,"amo":6656,"extrem":6657,"pot":6658,"grün":6659,"ichts":6660,"hät":6661,"gesehen":6662,"Terr":6663,"Hilfe":6664,"RO":6665,"Projekt":6666,"teilung":6667,"until":6668,"institutions":6669,"zimmer":6670,"hnt":6671,"Zusammenhang":6672,"iken":6673,"za":6674,"iesen":6675,"Jul":6676,"ragen":6677,"situ":6678,"National":6679,"elect":6680,"Region":6681,"Personen":6682,"agree":6683,"iful":6684,"sty":6685,"70":6686,"Lösung":6687,"ote":6688,"Uns":6689,"läge":6690,"ification":6691,"Gäste":6692,"sweise":6693,"ideo":6694,"beiden":6695,"ference":6696,"unserem":6697,"auen":6698,"Bas":6699,"einander":6700,"technology":6701,"2005":6702,"betre":6703,"Madam":6704,"gesagt":6705,"via":6706,"keep":6707,"friend":6708,"gelegt":6709,"customers":6710,"grat":6711,"IP":6712,"raph":6713,"Son":6714,"Treaty":6715,"ritte":6716,"round":6717,"Entschließ":6718,"Sü":6719,"attra":6720,"tember":6721,"asst":6722,"zogen":6723,"reicht":6724,"isse":6725,"increase":6726,"Klim":6727,"growth":6728,"ume":6729,"macht":6730,"prepar":6731,"politische":6732,"Präsidentin":6733,"leit":6734,"ever":6735,"ave":6736,"mosp":6737,"Verantwort":6738,"standards":6739,"sw":6740,"idence":6741,"Preis":6742,"jähr":6743,"groß":6744,"opportunity":6745,"reiche":6746,"rather":6747,"Schluss":6748,"Sep":6749,"bzw":6750,"Bank":6751,"ison":6752,"Dieses":6753,"Stre":6754,"ffiz":6755,"Produkte":6756,"lear":6757,"quite":6758,"baren":6759,"anst":6760,"activities":6761,"anim":6762,"Gemeinschaft":6763,"value":6764,"idency":6765,"building":6766,"Demokrat":6767,"prä":6768,"Pat":6769,"sal":6770,"haus":6771,"solid":6772,"positive":6773,"vision":6774,"body":6775,"photo":6776,"begrü":6777,"host":6778,"indem":6779,"Can":6780,"weniger":6781,"autiful":6782,"lon":6783,"Mil":6784,"OR":6785,"Haushalts":6786,"obje":6787,"halte":6788,"edom":6789,"etwa":6790,"AP":6791,"seem":6792,"ruck":6793,"teilen":6794,"four":6795,"sat":6796,"front":6797,"partners":6798,"provided":6799,"stain":6800,"Kosten":6801,"force":6802,"ager":6803,"Zust":6804,"mean":6805,"ideal":6806,"constru":6807,"resources":6808,"daran":6809,"Entwicklungs":6810,"standard":6811,"might":6812,"öffentlichen":6813,"ently":6814,"Date":6815,"Schl":6816,"Frei":6817,"Red":6818,"prochen":6819,"ona":6820,"came":6821,"wün":6822,"hler":6823,"ght":6824,"ckt":6825,"team":6826,"cu":6827,"Sou":6828,"uellen":6829,"EL":6830,"gewähr":6831,"State":6832,"gilt":6833,"behalf":6834,"eded":6835,"erwar":6836,"forderungen":6837,"2004":6838,"shop":6839,"som":6840,"AD":6841,"Deshalb":6842,"Sal":6843,"having":6844,"persön":6845,"Bal":6846,"Members":6847,"Nov":6848,"Rates":6849,"framework":6850,"kennen":6851,"ka":6852,"erfolg":6853,"vert":6854,"ücksicht":6855,"yet":6856,"After":6857,"apan":6858,"troll":6859,"ension":6860,"Sozial":6861,"ämlich":6862,"pool":6863,"jeden":6864,"Austr":6865,"schrift":6866,"bitte":6867,"fragen":6868,"model":6869,"iding":6870,"Stru":6871,"raum":6872,"September":6873,"mind":6874,"include":6875,"hap":6876,"gute":6877,"treat":6878,"night":6879,"ibil":6880,"verständ":6881,"amental":6882,"content":6883,"Schw":6884,"nämlich":6885,"educ":6886,"signific":6887,"öffentlich":6888,"ided":6889,"gemacht":6890,"utet":6891,"kung":6892,"members":6893,"Verfahren":6894,"fang":6895,"left":6896,"entscheiden":6897,"One":6898,"ften":6899,"fähr":6900,"rechts":6901,"bindung":6902,"schl":6903,"laub":6904,"mail":6905,"station":6906,"request":6907,"Initi":6908,"super":6909,"manu":6910,"Erfahr":6911,"altung":6912,"leisten":6913,"Priv":6914,"ana":6915,"ladies":6916,"kar":6917,"sogar":6918,"Europas":6919,"Millionen":6920,"stadt":6921,"foc":6922,"Pa":6923,"border":6924,"sichtlich":6925,"stück":6926,"along":6927,"ächlich":6928,"times":6929,"legenheit":6930,"gerade":6931,"lat":6932,"Geb":6933,"solution":6934,"wahl":6935,"proposals":6936,"week":6937,"rop":6938,"Sel":6939,"Israel":6940,"amendments":6941,"ric":6942,"völker":6943,"icken":6944,"aufge":6945,"recomm":6946,"words":6947,"points":6948,"beautiful":6949,"Jahres":6950,"Zugang":6951,"mass":6952,"safety":6953,"198":6954,"Punkt":6955,"zeigen":6956,"eren":6957,"minutes":6958,"remain":6959,"ging":6960,"tober":6961,"Kap":6962,"viol":6963,"Institution":6964,"easy":6965,"appropr":6966,"Ort":6967,"check":6968,"imes":6969,"Tür":6970,"graph":6971,"2003":6972,"above":6973,"ring":6974,"beral":6975,"economy":6976,"erziel":6977,"änger":6978,"costs":6979,"mess":6980,"Jo":6981,"unterschied":6982,"staat":6983,"racy":6984,"mm":6985,"27":6986,"regel":6987,"ihn":6988,"CD":6989,"zeichnet":6990,"due":6991,"ros":6992,"Wh":6993,"thod":6994,"others":6995,"Deutschland":6996,"meisten":6997,"adopted":6998,"cop":6999,"reserv":7000,"stant":7001,"Che":7002,"mobil":7003,"ebenfalls":7004,"Hol":7005,"Geld":7006,"Design":7007,"object":7008,"Verhand":7009,"Tats":7010,"beginn":7011,"ify":7012,"bew":7013,"demokrat":7014,"brauchen":7015,"ihm":7016,"verkehr":7017,"Sa":7018,"Website":7019,"einzu":7020,"charac":7021,"Unsere":7022,"Dieser":7023,"makes":7024,"contact":7025,"Ebene":7026,"Leist":7027,"Eng":7028,"Janu":7029,"Prof":7030,"seinem":7031,"verbunden":7032,"return":7033,"challen":7034,"entire":7035,"rate":7036,"Bezug":7037,"opinion":7038,"zunehmen":7039,"don":7040,"einigen":7041,"minister":7042,"agricult":7043,"website":7044,"send":7045,"OS":7046,"lar":7047,"moder":7048,"sens":7049,"central":7050,"Engl":7051,"Qualität":7052,"unst":7053,"never":7054,"Verkehr":7055,"icial":7056,"läss":7057,"opt":7058,"Buch":7059,"arbeitet":7060,"Sub":7061,"application":7062,"heim":7063,"Aussprache":7064,"sof":7065,"nete":7066,"Rechte":7067,"legislation":7068,"üt":7069,"past":7070,"democr":7071,"Text":7072,"win":7073,"rela":7074,"unterstützt":7075,"sea":7076,"Instr":7077,"effective":7078,"sites":7079,"istic":7080,"ented":7081,"bath":7082,"projects":7083,"Restaurant":7084,"bour":7085,"aurants":7086,"heart":7087,"laden":7088,"mitt":7089,"results":7090,"prove":7091,"ledge":7092,"leis":7093,"Christ":7094,"schö":7095,"freedom":7096,"provides":7097,"stimmen":7098,"liches":7099,"iled":7100,"groups":7101,"ames":7102,"administr":7103,"darin":7104,"Nä":7105,"risk":7106,"teile":7107,"Just":7108,"Kam":7109,"responsibility":7110,"bahn":7111,"künft":7112,"attention":7113,"conf":7114,"erklär":7115,"berg":7116,"Off":7117,"policies":7118,"Nicht":7119,"Mär":7120,"concerned":7121,"fung":7122,"platz":7123,"forman":7124,"East":7125,"Abstimmung":7126,"unver":7127,"stu":7128,"derzeit":7129,"perfect":7130,"lease":7131,"isiert":7132,"Rei":7133,"2001":7134,"glaube":7135,"nationalen":7136,"Organisation":7137,"herr":7138,"komple":7139,"gebung":7140,"structure":7141,"Meer":7142,"total":7143,"ständig":7144,"simply":7145,"bekannt":7146,"möglichen":7147,"bare":7148,"Hö":7149,"termin":7150,"hens":7151,"Abkommen":7152,"dürfen":7153,"Früh":7154,"Mail":7155,"oting":7156,"infl":7157,"nichts":7158,"aged":7159,"beh":7160,"young":7161,"step":7162,"fordern":7163,"extra":7164,"gas":7165,"cir":7166,"cli":7167,"offe":7168,"ama":7169,"Jahrhunder":7170,"fish":7171,"questions":7172,"zä":7173,"importance":7174,"Beschäft":7175,"society":7176,"iers":7177,"beispiel":7178,"denken":7179,"Benutz":7180,"sse":7181,"firm":7182,"ene":7183,"Verbraucher":7184,"uth":7185,"sollen":7186,"ift":7187,"dien":7188,"context":7189,"holiday":7190,"link":7191,"Kur":7192,"ished":7193,"Pra":7194,"method":7195,"Kolleg":7196,"environmental":7197,"natural":7198,"ihrem":7199,"greater":7200,"stor":7201,"bleiben":7202,"una":7203,"Mor":7204,"freund":7205,"gestimmt":7206,"training":7207,"Wach":7208,"keinen":7209,"drück":7210,"voted":7211,"ada":7212,"ench":7213,"Dank":7214,"Groß":7215,"Room":7216,"Dok":7217,"inge":7218,"anderer":7219,"wärt":7220,"kurz":7221,"strategy":7222,"ID":7223,"lei":7224,"Gesetz":7225,"speziel":7226,"90":7227,"increasing":7228,"ders":7229,"zusätz":7230,"ächst":7231,"griff":7232,"cultural":7233,"forts":7234,"hes":7235,"wenig":7236,"onstr":7237,"betrifft":7238,"entliche":7239,"verbess":7240,"uen":7241,"unkte":7242,"Debat":7243,"zustellen":7244,"arian":7245,"breakfast":7246,"IM":7247,"music":7248,"llt":7249,"bung":7250,"mechan":7251,"leader":7252,"mitted":7253,"principle":7254,"dan":7255,"tin":7256,"spir":7257,"PC":7258,"aktiv":7259,"sei":7260,"Dam":7261,"Schwe":7262,"weiterhin":7263,"answer":7264,"assist":7265,"Strategie":7266,"istan":7267,"uell":7268,"quick":7269,"add":7270,"unächst":7271,"uz":7272,"commod":7273,"Cor":7274,"ported":7275,"utzt":7276,"passen":7277,"ref":7278,"interess":7279,"äter":7280,"affe":7281,"Sicherheits":7282,"Disk":7283,"Fortsch":7284,"looking":7285,"setzt":7286,"aud":7287,"vement":7288,"inten":7289,"prec":7290,"hnen":7291,"clean":7292,"ball":7293,"weite":7294,"geschlagen":7295,"manufact":7296,"board":7297,"required":7298,"Bil":7299,"May":7300,"demand":7301,"seits":7302,"uelle":7303,"nu":7304,"wirtschaftlichen":7305,"verfahren":7306,"responsible":7307,"Apr":7308,"Sitz":7309,"mals":7310,"Bem":7311,"changes":7312,"Ju":7313,"deutlich":7314,"trolle":7315,"struktur":7316,"Gesellschaft":7317,"span":7318,"schwer":7319,"2002":7320,"pages":7321,"capital":7322,"Sport":7323,"Windows":7324,"Schul":7325,"Änderungsan":7326,"hib":7327,"Fund":7328,"significant":7329,"Wohn":7330,"ehr":7331,"besten":7332,"ocracy":7333,"century":7334,"aden":7335,"remo":7336,"Gover":7337,"Klima":7338,"safe":7339,"useum":7340,"posed":7341,"sug":7342,"wichtige":7343,"share":7344,"gestat":7345,"ators":7346,"bedeutet":7347,"ined":7348,"try":7349,"meeting":7350,"äl":7351,"clearly":7352,"zehn":7353,"ichen":7354,"Stat":7355,"moun":7356,"Japan":7357,"terror":7358,"lange":7359,"benöt":7360,"solche":7361,"deshalb":7362,"Gl":7363,"technical":7364,"Wel":7365,"Betrie":7366,"authorities":7367,"essential":7368,"haltung":7369,"nutzen":7370,"Bezieh":7371,"verein":7372,"Von":7373,"By":7374,"continu":7375,"ites":7376,"November":7377,"moment":7378,"relax":7379,"cast":7380,"distrib":7381,"scho":7382,"boten":7383,"Op":7384,"hab":7385,"stum":7386,"gratul":7387,"grup":7388,"aufgrund":7389,"gliche":7390,"pfung":7391,"Foto":7392,"aup":7393,"sustain":7394,"General":7395,"atal":7396,"wan":7397,"fairs":7398,"teilt":7399,"Will":7400,"lab":7401,"bra":7402,"ucht":7403,"RE":7404,"ulture":7405,"Tro":7406,"space":7407,"according":7408,"gebracht":7409,"stop":7410,"achieve":7411,"würden":7412,"cla":7413,"züglich":7414,"loss":7415,"active":7416,"First":7417,"gehört":7418,"fundamental":7419,"alter":7420,"acy":7421,"crimin":7422,"internal":7423,"nature":7424,"26":7425,"äsent":7426,"Förder":7427,"Insel":7428,"Mitarbeit":7429,"Tele":7430,"Far":7431,"funktion":7432,"Menschenrechte":7433,"schre":7434,"Bevölker":7435,"live":7436,"pflicht":7437,"Industrie":7438,"Netz":7439,"Herren":7440,"500":7441,"inzip":7442,"itäts":7443,"AM":7444,"Bre":7445,"Prozess":7446,"fehl":7447,"directly":7448,"months":7449,"hörden":7450,"Demokratie":7451,"longer":7452,"Musik":7453,"facilities":7454,"Richtung":7455,"April":7456,"frist":7457,"esen":7458,"solutions":7459,"history":7460,"Außen":7461,"erous":7462,"zel":7463,"nächsten":7464,"Wert":7465,"currently":7466,"Ansicht":7467,"enough":7468,"Umsetzung":7469,"Pub":7470,"proposed":7471,"schluss":7472,"cure":7473,"corre":7474,"Sh":7475,"Fern":7476,"SE":7477,"neuer":7478,"developed":7479,"länd":7480,"Opt":7481,"subs":7482,"related":7483,"draw":7484,"restaurant":7485,"events":7486,"ables":7487,"takt":7488,"Verbesser":7489,"character":7490,"unch":7491,"auszu":7492,"civil":7493,"Struktur":7494,"yl":7495,"Ira":7496,"interests":7497,"charge":7498,"guests":7499,"Steuer":7500,"werde":7501,"needed":7502,"ought":7503,"Plan":7504,"item":7505,"Besuch":7506,"requirements":7507,"regions":7508,"fam":7509,"prevent":7510,"fight":7511,"Nähe":7512,"language":7513,"onen":7514,"formance":7515,"aging":7516,"hm":7517,"Govern":7518,"greifen":7519,"Book":7520,"normal":7521,"28":7522,"lö":7523,"parties":7524,"Anwendung":7525,"mbH":7526,"tar":7527,"weder":7528,"aper":7529,"umente":7530,"allerdings":7531,"condition":7532,"organisation":7533,"recogn":7534,"From":7535,"sition":7536,"Kunst":7537,"ano":7538,"Please":7539,"Ziele":7540,"anti":7541,"involved":7542,"volle":7543,"lex":7544,"combin":7545,"Parte":7546,"apply":7547,"themselves":7548,"enthalten":7549,"upon":7550,"Bedingungen":7551,"Verantwortung":7552,"mob":7553,"contain":7554,"gesetz":7555,"foreign":7556,"Tages":7557,"beispielsweise":7558,"üssel":7559,"fün":7560,"Ide":7561,"lied":7562,"regulation":7563,"type":7564,"iellen":7565,"hoffe":7566,"chter":7567,"iner":7568,"democracy":7569,"Vertr":7570,"Brit":7571,"competition":7572,"richtung":7573,"Team":7574,"comfortable":7575,"Dah":7576,"implementation":7577,"separ":7578,"wirkungen":7579,"card":7580,"ßt":7581,"ception":7582,"Russia":7583,"happen":7584,"Aspe":7585,"center":7586,"amt":7587,"notwendig":7588,"markets":7589,"Mot":7590,"Emp":7591,"gemeinsamen":7592,"Paris":7593,"presented":7594,"extremely":7595,"tä":7596,"äu":7597,"competit":7598,"bad":7599,"hon":7600,"Krit":7601,"Version":7602,"anten":7603,"stead":7604,"va":7605,"jeweil":7606,"cam":7607,"scheint":7608,"please":7609,"hinder":7610,"atch":7611,"eth":7612,"efforts":7613,"Selbst":7614,"park":7615,"nimmt":7616,"held":7617,"GmbH":7618,"cases":7619,"Vorschläge":7620,"sozialen":7621,"ält":7622,"Wieder":7623,"acc":7624,"Aug":7625,"etzen":7626,"caus":7627,"vielleicht":7628,"betra":7629,"Gebiet":7630,"altern":7631,"kleinen":7632,"messen":7633,"Grundlage":7634,"linien":7635,"Erweiter":7636,"Erfolg":7637,"verwendet":7638,"gemeinsam":7639,"Interesse":7640,"Du":7641,"llig":7642,"Reihe":7643,"www":7644,"farm":7645,"phone":7646,"Aktiv":7647,"friendly":7648,"Einsatz":7649,"soon":7650,"unternehmen":7651,"maxim":7652,"Kön":7653,"Trans":7654,"brit":7655,"standen":7656,"South":7657,"berücksicht":7658,"chem":7659,"kei":7660,"illa":7661,"Frieden":7662,"Geschichte":7663,"wider":7664,"democratic":7665,"clar":7666,"erfü":7667,"peten":7668,"fordert":7669,"works":7670,"Verf":7671,"hor":7672,"file":7673,"bevor":7674,"Wort":7675,"lig":7676,"thus":7677,"dell":7678,"ested":7679,"istischen":7680,"minim":7681,"Ihrem":7682,"Real":7683,"kor":7684,"ermöglich":7685,"dev":7686,"mel":7687,"France":7688,"Nord":7689,"harmon":7690,"1999":7691,"Rad":7692,"Cour":7693,"rup":7694,"recommend":7695,"sitz":7696,"appropriate":7697,"erreicht":7698,"isher":7699,"--":7700,"mand":7701,"Damen":7702,"Raum":7703,"claim":7704,"respe":7705,"Möglichkeiten":7706,"Daher":7707,"ME":7708,"either":7709,"actions":7710,"Außer":7711,"ax":7712,"More":7713,"Kir":7714,"CH":7715,"ired":7716,"previous":7717,"Star":7718,"sound":7719,"höch":7720,"Zus":7721,"ey":7722,"indic":7723,"West":7724,"atory":7725,"ony":7726,"gelten":7727,"negotiations":7728,"situated":7729,"andid":7730,"true":7731,"Institutionen":7732,"Wissen":7733,"prise":7734,"Office":7735,"final":7736,"sucht":7737,"Integr":7738,"created":7739,"35":7740,"mid":7741,"merksam":7742,"Debatte":7743,"Nie":7744,"Kle":7745,"maintain":7746,"yp":7747,"Öff":7748,"igungs":7749,"unded":7750,"gleichen":7751,"Platz":7752,"ctors":7753,"schwier":7754,"ases":7755,"neg":7756,"Unser":7757,"Erklär":7758,"29":7759,"Funktion":7760,"states":7761,"everything":7762,"entwickelt":7763,"kam":7764,"developing":7765,"Verwalt":7766,"lose":7767,"later":7768,"allgem":7769,"Entscheidung":7770,"American":7771,"Druck":7772,"seen":7773,"commer":7774,"ibr":7775,"Arch":7776,"danken":7777,"French":7778,"pict":7779,"immed":7780,"disk":7781,"Inst":7782,"vorsch":7783,"exten":7784,"befinden":7785,"hout":7786,"esten":7787,"ination":7788,"dialog":7789,"famous":7790,"clos":7791,"itens":7792,"unique":7793,"prim":7794,"arbeitung":7795,"modif":7796,"demonstr":7797,"umfassen":7798,"monitor":7799,"Ka":7800,"education":7801,"Up":7802,"erwä":7803,"additional":7804,"achen":7805,"Apart":7806,"anno":7807,"living":7808,"funds":7809,"avo":7810,"weiß":7811,"verschiedene":7812,"Cas":7813,"improve":7814,"prices":7815,"Presidency":7816,"How":7817,"links":7818,"Rechn":7819,"Blick":7820,"könnten":7821,"Hinblick":7822,"analys":7823,"parts":7824,"ruh":7825,"climate":7826,"almost":7827,"Inform":7828,"Har":7829,"Mitglieder":7830,"accommod":7831,"happ":7832,"travel":7833,"achten":7834,"Lis":7835,"unik":7836,"vorgeschlagen":7837,"Dienstleistungen":7838,"ri":7839,"spräsident":7840,"hinter":7841,"rich":7842,"designed":7843,"ature":7844,"included":7845,"ingt":7846,"vic":7847,"LE":7848,"Minuten":7849,"nehm":7850,"Hoch":7851,"weltweit":7852,"expect":7853,"45":7854,"idea":7855,"abge":7856,"gemeinsame":7857,"hung":7858,"document":7859,"bildung":7860,"respon":7861,"actually":7862,"Diskuss":7863,"Kraft":7864,"dre":7865,"euro":7866,"hold":7867,"verfügt":7868,"gesellschaft":7869,"Heraus":7870,"heiß":7871,"hinzu":7872,"pan":7873,"tats":7874,"reib":7875,"ermöglicht":7876,"Luft":7877,"Frühstück":7878,"mission":7879,"hatten":7880,"Auswirkungen":7881,"haps":7882,"knowledge":7883,"ba":7884,"Änderungsantrag":7885,"för":7886,"Regionen":7887,"rieben":7888,"encour":7889,"dependent":7890,"communication":7891,"iffen":7892,"frü":7893,"five":7894,"Doch":7895,"Vertre":7896,"receive":7897,"ürz":7898,"uren":7899,"helfen":7900,"workers":7901,"walk":7902,"intens":7903,"Abgeordneten":7904,"jenigen":7905,"chs":7906,"Bü":7907,"Innen":7908,"early":7909,"ceed":7910,"Met":7911,"ebenso":7912,"jud":7913,"Landes":7914,"ielle":7915,"associ":7916,"iting":7917,"Programme":7918,"dict":7919,"fortun":7920,"cen":7921,"initiative":7922,"schriften":7923,"gain":7924,"Tatsache":7925,"krä":7926,"bisher":7927,"cies":7928,"Proto":7929,"protect":7930,"schie":7931,"seite":7932,"erforderlich":7933,"aler":7934,"entsch":7935,"Verhandlungen":7936,"leading":7937,"erhö":7938,"fu":7939,"isieren":7940,"Familien":7941,"takes":7942,"outside":7943,"chsel":7944,"Ausdruck":7945,"sprech":7946,"fünf":7947,"Ergebnis":7948,"procedure":7949,"partner":7950,"Portug":7951,"professional":7952,"bedeuten":7953,"gab":7954,"Haf":7955,"kra":7956,"Kolleginnen":7957,"race":7958,"amerikan":7959,"spielen":7960,"zone":7961,"Lond":7962,"built":7963,"gesamten":7964,"ilar":7965,"Ha":7966,"adurch":7967,"pal":7968,"verantwort":7969,"users":7970,"itions":7971,"Einzel":7972,"Host":7973,"tack":7974,"Schritt":7975,"August":7976,"197":7977,"Binnen":7978,"bru":7979,"Dan":7980,"hend":7981,"majority":7982,"suggest":7983,"enable":7984,"Liste":7985,"exclus":7986,"Forschung":7987,"features":7988,"einzelnen":7989,"refle":7990,"darum":7991,"amount":7992,"Net":7993,"mp":7994,"original":7995,"Mob":7996,"resol":7997,"Zur":7998,"genie":7999,"Iran":8000,"später":8001,"North":8002,"Seit":8003,"itionen":8004,"denke":8005,"mag":8006,"emphas":8007,"getr":8008,"erhe":8009,"took":8010,"spricht":8011,"Zentrum":8012,"hours":8013,"zif":8014,"größer":8015,"ausgestat":8016,"lok":8017,"ffer":8018,"Gruppe":8019,"bef":8020,"cru":8021,"läs":8022,"Bahn":8023,"schön":8024,"ending":8025,"entre":8026,"auber":8027,"Online":8028,"Ris":8029,"cep":8030,"Vis":8031,"vin":8032,"doing":8033,"customer":8034,"Dialog":8035,"aster":8036,"throughout":8037,"impact":8038,"mitteln":8039,"High":8040,"weiteren":8041,"guarantee":8042,"ternal":8043,"angenommen":8044,"Ster":8045,"Antwort":8046,"ald":8047,"connection":8048,"Terror":8049,"Führ":8050,"Außerdem":8051,"änden":8052,"Zum":8053,"ländern":8054,"Änderungsanträge":8055,"ST":8056,"wunder":8057,"folge":8058,"relig":8059,"corpor":8060,"indest":8061,"präsent":8062,"across":8063,"club":8064,"media":8065,"profit":8066,"publish":8067,"London":8068,"party":8069,"cross":8070,"igration":8071,"thre":8072,"Bereichen":8073,"Werk":8074,"neben":8075,"bian":8076,"strengthen":8077,"wachsen":8078,"Gra":8079,"traditional":8080,"writing":8081,"internationale":8082,"akzept":8083,"tic":8084,"Beg":8085,"forms":8086,"game":8087,"mentioned":8088,"search":8089,"reiben":8090,"certainly":8091,"investment":8092,"kämpfung":8093,"Weiter":8094,"jedem":8095,"Staats":8096,"consequ":8097,"Handel":8098,"rates":8099,"effiz":8100,"schle":8101,"ändert":8102,"ij":8103,"ült":8104,"orf":8105,"fähigkeit":8106,"usst":8107,"sex":8108,"konnte":8109,"Bevölkerung":8110,"Univers":8111,"Fischere":8112,"hätte":8113,"dle":8114,"performance":8115,"tran":8116,"aring":8117,"richtig":8118,"Play":8119,"existing":8120,"gegenwärt":8121,"Beziehungen":8122,"although":8123,"öst":8124,"Vereinigten":8125,"colleag":8126,"gän":8127,"Mag":8128,"itten":8129,"Handels":8130,"Let":8131,"English":8132,"onom":8133,"tle":8134,"ull":8135,"formen":8136,"Aben":8137,"programmes":8138,"Turkey":8139,"parliament":8140,"gleichzeitig":8141,"leistet":8142,"complex":8143,"prakt":8144,"PE":8145,"Verbindung":8146,"gemäß":8147,"dete":8148,"heißt":8149,"Proz":8150,"anzen":8151,"heut":8152,"Verordnung":8153,"ule":8154,"300":8155,"concerns":8156,"coordin":8157,"Akt":8158,"cript":8159,"länder":8160,"iens":8161,"wichtigen":8162,"code":8163,"Government":8164,"Fuß":8165,"lux":8166,"ping":8167,"sent":8168,"enor":8169,"Centr":8170,"letzt":8171,"Interessen":8172,"fan":8173,"haft":8174,"barkeit":8175,"teid":8176,"confl":8177,"ush":8178,"ausch":8179,"aware":8180,"correct":8181,"mein":8182,"Themen":8183,"plant":8184,"image":8185,"assess":8186,"heraus":8187,"culture":8188,"zeugen":8189,"America":8190,"igte":8191,"kn":8192,"transfer":8193,"cker":8194,"bleibt":8195,"concerning":8196,"neut":8197,"fs":8198,"jede":8199,"rund":8200,"Beitrag":8201,"Sor":8202,"computer":8203,"iversit":8204,"committee":8205,"absolute":8206,"abon":8207,"Förderung":8208,"Aufgabe":8209,"community":8210,"hase":8211,"DV":8212,"ari":8213,"Krise":8214,"Haushalt":8215,"digital":8216,"military":8217,"Court":8218,"Türkei":8219,"Kontrolle":8220,"reasons":8221,"established":8222,"Verpflicht":8223,"cri":8224,"speed":8225,"bekommen":8226,"amb":8227,"handlung":8228,"iment":8229,"ären":8230,"agreements":8231,"kleine":8232,"Wettbewerbs":8233,"nothing":8234,"Standard":8235,"Kampf":8236,"joint":8237,"completely":8238,"verständlich":8239,"internet":8240,"Rel":8241,"decisions":8242,"Reform":8243,"west":8244,"transl":8245,"population":8246,"construction":8247,"unabhäng":8248,"extens":8249,"richtungen":8250,"Febru":8251,"div":8252,"includes":8253,"Stabil":8254,"PL":8255,"Barcel":8256,"archite":8257,"jahr":8258,"approv":8259,"affung":8260,"garant":8261,"krit":8262,"sag":8263,"gerichtet":8264,"practice":8265,"Dec":8266,"pleas":8267,"meinen":8268,"basic":8269,"Kor":8270,"Home":8271,"pet":8272,"box":8273,"warm":8274,"iterr":8275,"ieb":8276,"official":8277,"fallen":8278,"fal":8279,"nahe":8280,"enlarge":8281,"rachten":8282,"path":8283,"ifel":8284,"acqu":8285,"bert":8286,"31":8287,"Schlussel":8288,"alb":8289,"capac":8290,"amera":8291,"fli":8292,"style":8293,"Lux":8294,"ires":8295,"lässt":8296,"See":8297,"unseres":8298,"ester":8299,"Ausschusses":8300,"pfen":8301,"got":8302,"files":8303,"consult":8304,"equipped":8305,"guest":8306,"pon":8307,"allows":8308,"credit":8309,"kraft":8310,"oblig":8311,"anzös":8312,"handeln":8313,"bedingungen":8314,"bald":8315,"sense":8316,"note":8317,"adv":8318,"Col":8319,"vö":8320,"esh":8321,"ET":8322,"jobs":8323,"Club":8324,"click":8325,"Agen":8326,"City":8327,"Strand":8328,"trotz":8329,"Erweiterung":8330,"plann":8331,"gangenen":8332,"kulture":8333,"sieht":8334,"Since":8335,"ini":8336,"ktive":8337,"unities":8338,"jedes":8339,"Management":8340,"choice":8341,"conclus":8342,"integration":8343,"Thank":8344,"undes":8345,"unsch":8346,"relev":8347,"fail":8348,"simple":8349,"Mitarbeiter":8350,"values":8351,".,":8352,"196":8353,"objectives":8354,"prüfen":8355,"worten":8356,"ava":8357,"gesamt":8358,"wirtschaftliche":8359,"hohe":8360,"package":8361,"igent":8362,"stage":8363,"poor":8364,"Folgen":8365,"Entschließung":8366,"Enter":8367,"flä":8368,"Pass":8369,"richten":8370,"received":8371,"Behörden":8372,"double":8373,"band":8374,"guide":8375,"Nutzung":8376,"immungen":8377,"aspe":8378,"Anal":8379,"cul":8380,"satis":8381,"MS":8382,"gal":8383,"Lisbon":8384,"itness":8385,"mend":8386,"regarding":8387,"alte":8388,"ological":8389,"ills":8390,"Reise":8391,"ios":8392,"ufig":8393,"Dokument":8394,"Don":8395,"Bur":8396,"hotels":8397,"wise":8398,"antic":8399,"jour":8400,"Global":8401,"equipment":8402,"Pan":8403,"tempor":8404,"efficient":8405,"applications":8406,"spect":8407,"Ham":8408,"gefähr":8409,"OL":8410,"door":8411,"gelegen":8412,"Benutzer":8413,"move":8414,"eller":8415,"ris":8416,"Prior":8417,"purch":8418,"Volks":8419,"ersch":8420,"industrial":8421,"Frankreich":8422,"rom":8423,"airport":8424,"buch":8425,"Server":8426,"Aufen":8427,"download":8428,"ieben":8429,"atmosp":8430,"Ober":8431,"benefit":8432,"territ":8433,"agricultural":8434,"Some":8435,"popular":8436,"Lösungen":8437,"Augen":8438,"Wochen":8439,"wichtigsten":8440,"potential":8441,"sun":8442,"Aufenth":8443,"Les":8444,"Liss":8445,"aner":8446,"Ukra":8447,"Notwend":8448,"Damit":8449,"Here":8450,"instrument":8451,"ón":8452,"pite":8453,"Veranst":8454,"Wachstum":8455,"publik":8456,"gerne":8457,"broad":8458,"Fur":8459,"Personal":8460,"seas":8461,"engine":8462,"south":8463,"regular":8464,"prob":8465,"Pla":8466,"nice":8467,"treatment":8468,"hafen":8469,"Bitte":8470,"Mich":8471,"objective":8472,"rid":8473,"Informations":8474,"prozess":8475,"former":8476,"reports":8477,"Forder":8478,"ennung":8479,"Mer":8480,"respond":8481,"Stunden":8482,"series":8483,"wonder":8484,"appear":8485,"Sto":8486,"mehrere":8487,"fördern":8488,"quickly":8489,"limited":8490,"below":8491,"vertr":8492,"wobei":8493,"gy":8494,"Fach":8495,"goods":8496,"learn":8497,"ograph":8498,"wenden":8499,"hinsichtlich":8500,"Auswahl":8501,"experien":8502,"suit":8503,"icles":8504,"breit":8505,"verg":8506,"bezüglich":8507,"floor":8508,"Now":8509,"covered":8510,"creation":8511,"nachhalt":8512,"stellungen":8513,"beein":8514,"fahrt":8515,"nissen":8516,"iko":8517,"itel":8518,"örper":8519,"figur":8520,"Verbesserung":8521,"Get":8522,"counter":8523,"zahlen":8524,"Lissabon":8525,"profession":8526,"Affairs":8527,"stoff":8528,"Business":8529,"ganze":8530,"Kern":8531,"promise":8532,"ganzen":8533,"angemessen":8534,"fortunately":8535,"rail":8536,"enthält":8537,"spac":8538,"gerä":8539,"entwickeln":8540,"san":8541,"liz":8542,"Innov":8543,"Gree":8544,"mis":8545,"film":8546,"Gesundheit":8547,"ski":8548,"successful":8549,"Binnenmarkt":8550,"öhn":8551,"Mic":8552,"beteil":8553,"ermöglichen":8554,"Di":8555,"ico":8556,"huge":8557,"brigen":8558,"focus":8559,"rein":8560,"Gew":8561,"genannten":8562,"Macht":8563,"gelt":8564,"placed":8565,"geeig":8566,"Barcelona":8567,"achieved":8568,"contains":8569,"Central":8570,"plies":8571,"spar":8572,"inne":8573,"seems":8574,"Bro":8575,"garden":8576,"indeed":8577,"PS":8578,"Konferenz":8579,"ipl":8580,"June":8581,"Anfang":8582,"register":8583,"mobile":8584,"six":8585,"dynam":8586,"Material":8587,"irgend":8588,"onnen":8589,"recently":8590,"Tage":8591,"sterreich":8592,"nation":8593,"deliver":8594,"fonds":8595,"oppel":8596,"pie":8597,"erlau":8598,"Schaffung":8599,"zy":8600,"immen":8601,"ope":8602,"ends":8603,"erster":8604,"gewä":8605,"stens":8606,"Lauf":8607,"erweise":8608,"Amend":8609,"office":8610,"Social":8611,"Ferien":8612,"Krieg":8613,"steller":8614,"Angebot":8615,"dring":8616,"size":8617,"feld":8618,"Liefer":8619,"dat":8620,"news":8621,"hoben":8622,"levels":8623,"Somm":8624,"Ok":8625,"beginning":8626,"exchange":8627,"highly":8628,"haupt":8629,"schließend":8630,"scient":8631,"Finally":8632,"Miss":8633,"dialogue":8634,"Eur":8635,"furn":8636,"Roman":8637,"Ergebnisse":8638,"Nat":8639,"sterdam":8640,"Sc":8641,"added":8642,"smo":8643,"congratul":8644,"places":8645,"creen":8646,"oil":8647,"IL":8648,"Lat":8649,"Yor":8650,"Süd":8651,"Gelegenheit":8652,"Aut":8653,"iveness":8654,"Verwendung":8655,"Bad":8656,"Russland":8657,"Amsterdam":8658,"Sil":8659,"stances":8660,"FR":8661,"vorschriften":8662,"koll":8663,"gefunden":8664,"ife":8665,"asked":8666,"Super":8667,"everyone":8668,"exe":8669,"treffen":8670,"verfüg":8671,"export":8672,"kan":8673,"video":8674,"Darüber":8675,"wertungen":8676,"häre":8677,"Solid":8678,"völlig":8679,"governments":8680,"relevant":8681,"arm":8682,"Initiative":8683,"Arbeitspl":8684,"attem":8685,"wood":8686,"Cap":8687,"verbessern":8688,"SS":8689,"Oc":8690,"direction":8691,"balance":8692,"Woche":8693,"TH":8694,"server":8695,"ured":8696,"Fehler":8697,"Transport":8698,"konkre":8699,"aving":8700,"Notwendigkeit":8701,"Well":8702,"einzig":8703,"union":8704,"Linux":8705,"commercial":8706,"aufzu":8707,"Voraus":8708,"Anzahl":8709,"nern":8710,"Exper":8711,"whose":8712,"üsse":8713,"soziale":8714,"grundlegen":8715,"agreed":8716,"verwenden":8717,"increased":8718,"letter":8719,"UR":8720,"theless":8721,"Gip":8722,"eigene":8723,"Mac":8724,"fix":8725,"carried":8726,"wall":8727,"Herzen":8728,"tliche":8729,"großer":8730,"stress":8731,"Tor":8732,"dang":8733,"guten":8734,"gehören":8735,"aul":8736,"consumers":8737,"phys":8738,"IV":8739,"supply":8740,"quar":8741,"higher":8742,"klus":8743,"wohn":8744,"offenen":8745,"ially":8746,"Gewalt":8747,"shows":8748,"keyword":8749,"stic":8750,"subsid":8751,"principles":8752,"Post":8753,"mem":8754,"Hinter":8755,"erve":8756,"schließen":8757,"aschinen":8758,"Neu":8759,"pret":8760,"Eigen":8761,"isted":8762,"spezif":8763,"verstär":8764,"verfügen":8765,"Sim":8766,"Berg":8767,"condu":8768,"Zeitpunkt":8769,"Second":8770,"amendment":8771,"setting":8772,"istische":8773,"sicherheit":8774,"Cal":8775,"source":8776,"sustainable":8777,"plat":8778,"grenz":8779,"imming":8780,"similar":8781,"stag":8782,"arg":8783,"ffet":8784,"bestät":8785,"Familie":8786,"günst":8787,"ero":8788,"Further":8789,"considered":8790,"Jugend":8791,"reviews":8792,"schnitt":8793,"dro":8794,"pflich":8795,"possibility":8796,"diskut":8797,"worth":8798,"Män":8799,"wissenschaft":8800,"abor":8801,"Gemeinschafts":8802,"nä":8803,"nuclear":8804,"choose":8805,"perhaps":8806,"gesprochen":8807,"Ca":8808,"pain":8809,"veh":8810,"größten":8811,"commitment":8812,"Of":8813,"zeugt":8814,"lam":8815,"stark":8816,"Tat":8817,"maßnahmen":8818,"mod":8819,"Develop":8820,"Mai":8821,"went":8822,"status":8823,"meinem":8824,"materials":8825,"leb":8826,"Maß":8827,"Article":8828,"Golf":8829,"Juni":8830,"volution":8831,"itation":8832,"Überein":8833,"circ":8834,"Änderungen":8835,"zunächst":8836,"categor":8837,"ähn":8838,"effects":8839,"32":8840,"closed":8841,"atast":8842,"Therefore":8843,"riften":8844,"wählen":8845,"gesamte":8846,"Sum":8847,"mäßig":8848,"matters":8849,"thanks":8850,"iglich":8851,"mä":8852,"elekt":8853,"vorhand":8854,"Museum":8855,"shown":8856,"trip":8857,"ption":8858,"Auss":8859,"Hy":8860,"aspects":8861,"36":8862,"Nieder":8863,"Dom":8864,"tatsächlich":8865,"iation":8866,"stein":8867,"green":8868,"sorgen":8869,"xis":8870,"innovative":8871,"Zw":8872,"EM":8873,"orient":8874,"Regierungen":8875,"spruch":8876,"Erfahrung":8877,"scht":8878,"Wahr":8879,"promote":8880,"Debian":8881,"tool":8882,"frieden":8883,"Spain":8884,"rought":8885,"Pf":8886,"HT":8887,"gült":8888,"fält":8889,"Vertrags":8890,"ehm":8891,"Koso":8892,"prepared":8893,"Agr":8894,"capacity":8895,"Open":8896,"Produktion":8897,"iterrane":8898,"obtain":8899,"sourcen":8900,"ausschuss":8901,"schriftlich":8902,"König":8903,"sufficient":8904,"freien":8905,"liance":8906,"Neben":8907,"Ph":8908,"usion":8909,"eindeut":8910,"Beschäftigung":8911,"Einführung":8912,"Umgebung":8913,"Während":8914,"latest":8915,"behind":8916,"lower":8917,"ique":8918,"tung":8919,"details":8920,"summer":8921,"kü":8922,"mented":8923,"Ratspräsident":8924,"train":8925,"opportunities":8926,"draft":8927,"uchen":8928,"artige":8929,"Position":8930,"öffnet":8931,"Konfli":8932,"vertreten":8933,"bauen":8934,"print":8935,"Stellung":8936,"pressure":8937,"registr":8938,"akter":8939,"response":8940,"Loc":8941,"gestell":8942,"Gesundheits":8943,"Italy":8944,"Kommunik":8945,"ierenden":8946,"hne":8947,"sofort":8948,"Got":8949,"thin":8950,"Republic":8951,"ufen":8952,"Kontakt":8953,"kit":8954,"external":8955,"Computer":8956,"Sam":8957,"mbol":8958,"verstehen":8959,"contract":8960,"death":8961,"Film":8962,"providing":8963,"Anwend":8964,"determin":8965,"York":8966,"hindern":8967,"review":8968,"Cre":8969,"Dabei":8970,"reached":8971,"ored":8972,"accommodation":8973,"iplom":8974,"rang":8975,"Install":8976,"DVD":8977,"Integration":8978,"Rot":8979,"Leit":8980,"Vereinbar":8981,"äußerst":8982,"ki":8983,"atmosphere":8984,"easily":8985,"spo":8986,"1998":8987,"arity":8988,"exhib":8989,"empf":8990,"WTO":8991,"cup":8992,"ses":8993,"ühm":8994,"played":8995,"bestimmte":8996,"decided":8997,"lies":8998,"deck":8999,"uted":9000,"hohen":9001,"Africa":9002,"Bul":9003,"Market":9004,"Party":9005,"reduce":9006,"ault":9007,"Systems":9008,"stands":9009,"rema":9010,"ney":9011,"SP":9012,"concept":9013,"adap":9014,"option":9015,"Eing":9016,"criter":9017,"produced":9018,"AB":9019,"somit":9020,"beschäft":9021,"Wettbewerb":9022,"Aktivitäten":9023,"liberal":9024,"lediglich":9025,"ette":9026,"legung":9027,"Sprache":9028,"Val":9029,"block":9030,"arily":9031,"gewährleisten":9032,"Dez":9033,"Del":9034,"talk":9035,"trägt":9036,"verpflich":9037,"Höhe":9038,"cou":9039,"aust":9040,"Wein":9041,"sl":9042,"fluss":9043,"fehlen":9044,"British":9045,"bein":9046,"neigh":9047,"lock":9048,"yer":9049,"ado":9050,"istics":9051,"compre":9052,"Medien":9053,"ierter":9054,"äude":9055,"Convention":9056,"bringt":9057,"Italien":9058,"reading":9059,"secure":9060,"wünschen":9061,"erfolgreich":9062,"Drit":9063,"ees":9064,"48":9065,"ark":9066,"defen":9067,"March":9068,"submitted":9069,"standing":9070,"hören":9071,"sprechend":9072,"vollen":9073,"obwohl":9074,"Ukraine":9075,"gives":9076,"bey":9077,"virt":9078,"uit":9079,"Sup":9080,"ibilities":9081,"December":9082,"property":9083,"versuchen":9084,"Down":9085,"Kommissarin":9086,"Flughafen":9087,"Services":9088,"announ":9089,"lect":9090,"este":9091,"Oper":9092,"suffer":9093,"record":9094,"75":9095,"gets":9096,"arrange":9097,"enlargement":9098,"priority":9099,"Sicht":9100,"bestimmten":9101,"Tät":9102,"issions":9103,"conven":9104,"parte":9105,"impress":9106,"Bekämpfung":9107,"remains":9108,"Bra":9109,"ession":9110,"Komprom":9111,"Also":9112,"funding":9113,"Prä":9114,"imension":9115,"Western":9116,"Standpunkt":9117,"Kop":9118,"island":9119,"setzungen":9120,"zweite":9121,"Video":9122,"iately":9123,"einschließlich":9124,"Gruppen":9125,"ausgestattet":9126,"!!":9127,"infra":9128,"Jahrhundert":9129,"tom":9130,"Sen":9131,"Free":9132,"Spa":9133,"roat":9134,"supported":9135,"consumer":9136,"ering":9137,"las":9138,"leave":9139,"Erachten":9140,"hear":9141,"iture":9142,"icy":9143,"Dinge":9144,"'.":9145,"Privat":9146,"billion":9147,"Sommer":9148,"meines":9149,"Erachtens":9150,"else":9151,"Instrument":9152,"ffe":9153,"independent":9154,"Kosovo":9155,"vorliegen":9156,"ras":9157,"foot":9158,"maß":9159,"Auff":9160,"aufgenommen":9161,"sätz":9162,"avoid":9163,"schütz":9164,"Slo":9165,"krimin":9166,"Staat":9167,"abzu":9168,"King":9169,"purpose":9170,"restaurants":9171,"erheb":9172,"zahlreiche":9173,"Site":9174,"wesentlich":9175,"produce":9176,"zeuge":9177,"handel":9178,"assistance":9179,"Grand":9180,"movement":9181,"vorgesehen":9182,"Bestimmungen":9183,"iency":9184,"konzentr":9185,"französ":9186,"Inde":9187,"presents":9188,"rule":9189,"Booking":9190,"emer":9191,"school":9192,"Nur":9193,"creating":9194,"ara":9195,"wurf":9196,"Such":9197,"Hel":9198,"influ":9199,"transparen":9200,"engen":9201,"quare":9202,"Instit":9203,"Basis":9204,"inger":9205,"ielt":9206,"north":9207,"quiet":9208,"atastrop":9209,"Italian":9210,"acceptable":9211,"Fortschritte":9212,"erhält":9213,"perform":9214,"surround":9215,"pointed":9216,"Dezember":9217,"tät":9218,"....":9219,"Bon":9220,"gerecht":9221,"comprehens":9222,"Technologie":9223,"wertung":9224,"ghan":9225,"allein":9226,"Ren":9227,"sprün":9228,"sagte":9229,"Stad":9230,"industrie":9231,"DI":9232,"concl":9233,"ike":9234,"schätz":9235,"Gast":9236,"iterranean":9237,"möglichkeiten":9238,"tains":9239,"apartment":9240,"activity":9241,"leitet":9242,"relation":9243,"Preise":9244,"itzer":9245,"Punkte":9246,"wander":9247,"Phil":9248,"brought":9249,"Lu":9250,"ollar":9251,"keits":9252,"braucht":9253,"regulations":9254,"medium":9255,"nommen":9256,"ya":9257,"largest":9258,"außerdem":9259,"written":9260,"steps":9261,"Erklärung":9262,"base":9263,"sitzen":9264,"Bundes":9265,"January":9266,"Stelle":9267,"stelle":9268,"Last":9269,"Villa":9270,"solchen":9271,"sus":9272,"reign":9273,"einheit":9274,"Mehrheit":9275,"üst":9276,"vorher":9277,"eval":9278,"Prü":9279,"pleased":9280,"child":9281,"geln":9282,"etimes":9283,"instruments":9284,"dadurch":9285,"äst":9286,"Feder":9287,"except":9288,"frequ":9289,"zweiten":9290,"Tex":9291,"Tem":9292,"Schweiz":9293,"ilen":9294,"Wä":9295,"categories":9296,"October":9297,"Det":9298,"losen":9299,"fishing":9300,"ather":9301,"berühm":9302,"expla":9303,"oben":9304,"morgen":9305,"paid":9306,"variety":9307,"section":9308,"iffe":9309,"insgesamt":9310,"conference":9311,"sha":9312,"legenheiten":9313,"bor":9314,"Vorschriften":9315,"uner":9316,"verse":9317,"renov":9318,"mous":9319,"dlich":9320,"thous":9321,"instead":9322,"message":9323,"fisher":9324,"ständigen":9325,"Gefahr":9326,"és":9327,"discussion":9328,"utter":9329,"einzige":9330,"gebaut":9331,"repe":9332,"Test":9333,"jün":9334,"Sign":9335,"kil":9336,"Aufmerksam":9337,"38":9338,"relationship":9339,"illegal":9340,"became":9341,"anders":9342,"allowed":9343,"ology":9344,"Mediterranean":9345,"osop":9346,"ategorien":9347,"regards":9348,"measure":9349,"CE":9350,"Every":9351,"dut":9352,"study":9353,"Volk":9354,"falt":9355,"März":9356,"Analy":9357,"UK":9358,"ugs":9359,"kürz":9360,"stability":9361,"Entscheidungen":9362,"**":9363,"fresh":9364,"vergangenen":9365,"giving":9366,"distance":9367,"Bilder":9368,"Protokoll":9369,"obvious":9370,"ades":9371,"ously":9372,"Verkehrs":9373,"interesting":9374,"Cons":9375,"Anforderungen":9376,"Landwirtschaft":9377,"Öffentlich":9378,"Oktober":9379,"bezogen":9380,"rig":9381,"Mult":9382,"deten":9383,"forget":9384,"Küche":9385,"Freiheit":9386,"ries":9387,"legislative":9388,"Mart":9389,"effort":9390,"Hung":9391,"gewiesen":9392,"vorhanden":9393,"klein":9394,"arenz":9395,"Aktion":9396,"Universit":9397,"Flü":9398,"bewertungen":9399,"Metho":9400,"started":9401,"Log":9402,"ürf":9403,"Aufmerksamkeit":9404,"98":9405,"ias":9406,"abkommen":9407,"Center":9408,"Pap":9409,"ehe":9410,"iker":9411,"Agent":9412,"Today":9413,"Prinzip":9414,"Your":9415,"procedures":9416,"genießen":9417,"leistungs":9418,"Ansatz":9419,"verkauf":9420,"lösen":9421,"won":9422,"brechen":9423,"Spanish":9424,"types":9425,"rene":9426,"coast":9427,"Rights":9428,"Erzeug":9429,"resse":9430,"sonst":9431,"“,":9432,"Projekte":9433,"Juli":9434,"electron":9435,"cement":9436,"ques":9437,"rum":9438,"architect":9439,"hair":9440,"preis":9441,"Präsidenten":9442,"versity":9443,"opping":9444,"iro":9445,"erfahren":9446,"itude":9447,"Bildung":9448,"ails":9449,"advantage":9450,"hältnis":9451,"Tal":9452,"statement":9453,"shops":9454,"etary":9455,"Gal":9456,"payment":9457,"accep":9458,"eigentlich":9459,"craft":9460,"prises":9461,"keiner":9462,"compon":9463,"Berichts":9464,"hom":9465,"Gel":9466,"Städ":9467,"Grenzen":9468,"compromise":9469,"\"...":9470,"transpar":9471,"agenda":9472,"task":9473,"sole":9474,"Vo":9475,"Bio":9476,"Wider":9477,"otes":9478,"exact":9479,"34":9480,"Stär":9481,"wee":9482,"pover":9483,"stärker":9484,"damage":9485,"Winter":9486,"occur":9487,"contribution":9488,"umb":9489,"Belg":9490,"Cr":9491,"provisions":9492,"01":9493,"labour":9494,"Anfrage":9495,"drive":9496,"served":9497,"ateral":9498,"historical":9499,"Unternehmens":9500,"folgenden":9501,"village":9502,"Development":9503,"Bereiche":9504,"bü":9505,"1997":9506,"ape":9507,"Transparenz":9508,"Datei":9509,"leider":9510,"Arbeitnehmer":9511,"üb":9512,"ato":9513,"Bot":9514,"auern":9515,"Gästebewertungen":9516,"serve":9517,"anlage":9518,"enntnis":9519,"Straßen":9520,"glück":9521,"Solidar":9522,"minor":9523,"consist":9524,"dise":9525,"late":9526,"EG":9527,"violence":9528,"fficiency":9529,"July":9530,"Ged":9531,"sports":9532,"poses":9533,"gewöhn":9534,"zi":9535,"AK":9536,"perfe":9537,"Ist":9538,"wirken":9539,"konnten":9540,"erwarten":9541,"During":9542,"Nr":9543,"Diskussion":9544,"launch":9545,"dienen":9546,"Rooms":9547,"Empfehl":9548,"temporary":9549,"eingesetzt":9550,"Portugal":9551,"ples":9552,"sprach":9553,"conflict":9554,"erinn":9555,"lives":9556,"IB":9557,"decl":9558,"häufig":9559,"laufen":9560,"Tagesordnung":9561,"prefer":9562,"wine":9563,"ming":9564,"ourselves":9565,"wichtiger":9566,"mensch":9567,"dient":9568,"documents":9569,"ritts":9570,"Mann":9571,".)":9572,"criteria":9573,"Mod":9574,"nöt":9575,"legit":9576,"depart":9577,"Agrar":9578,"operating":9579,"länger":9580,"accord":9581,"wenige":9582,"Flor":9583,"Investitionen":9584,"niedr":9585,"Urlaub":9586,"Nationen":9587,"tools":9588,"decken":9589,"fine":9590,"zieht":9591,"Regeln":9592,"griffen":9593,"Untersuch":9594,"Auftrag":9595,"37":9596,"roll":9597,"Republik":9598,"integrated":9599,"reibung":9600,"IF":9601,"anced":9602,"sort":9603,"finally":9604,"distribution":9605,"Alt":9606,"nel":9607,"Java":9608,"Januar":9609,"geber":9610,"Meine":9611,"durchgeführt":9612,"benefits":9613,"Start":9614,"...\"":9615,"Bulgar":9616,"leiten":9617,"Mid":9618,"unmittel":9619,"beziehen":9620,"constit":9621,"Os":9622,"growing":9623,"listen":9624,"Many":9625,"Firma":9626,"dienst":9627,"spirit":9628,"ücke":9629,"vital":9630,"//":9631,"Centre":9632,"happy":9633,"Linie":9634,"betreffen":9635,"aktuellen":9636,"erc":9637,"forderung":9638,"Stu":9639,"ifik":9640,"größte":9641,"limit":9642,"elements":9643,"wesen":9644,"ktiven":9645,"copy":9646,"Lebensmittel":9647,"University":9648,"DA":9649,"dent":9650,"Spezial":9651,"produz":9652,"europäischer":9653,"Tradition":9654,"Schwier":9655,"benötigen":9656,"Sinne":9657,"Afghan":9658,"Mobil":9659,"stabil":9660,"alternative":9661,"ierende":9662,"ünd":9663,"offiz":9664,"heben":9665,"constant":9666,"dank":9667,"immediately":9668,"Iraq":9669,"highest":9670,"höher":9671,"ls":9672,"würdig":9673,"ays":9674,"dates":9675,"Gründen":9676,"plus":9677,"Enterprise":9678,"apartments":9679,"Saf":9680,"Veränder":9681,"helpful":9682,"forces":9683,"transparency":9684,"Although":9685,"motor":9686,"Hä":9687,"getan":9688,"ories":9689,"gehend":9690,"ihres":9691,"fire":9692,"Aufenthalt":9693,"parking":9694,"angesichts":9695,"imat":9696,"ality":9697,"goes":9698,"Ve":9699,"klass":9700,"Green":9701,"institutional":9702,"lichkeiten":9703,"DF":9704,"She":9705,"Koh":9706,"Forschungs":9707,"mountain":9708,"drücklich":9709,"nes":9710,"ham":9711,"Hins":9712,"Schn":9713,"sinn":9714,"equal":9715,"annual":9716,"Hinsicht":9717,"Econom":9718,"cription":9719,"kannst":9720,"kontroll":9721,"Rede":9722,"employees":9723,"PH":9724,"geworden":9725,"orial":9726,"useful":9727,"friends":9728,"geschaffen":9729,"ursprün":9730,"Präsidentschaft":9731,"bilden":9732,"idge":9733,"Atmosp":9734,"400":9735,"applied":9736,"99":9737,"mas":9738,"zeichnung":9739,"NG":9740,"fas":9741,"reality":9742,"Öffentlichkeit":9743,"numerous":9744,"enh":9745,"Auffassung":9746,"reli":9747,"wasser":9748,"analysis":9749,"stock":9750,"dence":9751,"eher":9752,"cert":9753,"MP":9754,"elections":9755,"wart":9756,"daily":9757,"veröffentlich":9758,"teach":9759,"150":9760,"quis":9761,"challenges":9762,"Sache":9763,"Fon":9764,"AF":9765,"ford":9766,"poverty":9767,"opol":9768,"bür":9769,"ille":9770,"processes":9771,"Bemüh":9772,"occas":9773,"persons":9774,"zusch":9775,"übrigen":9776,"lesen":9777,"Ereign":9778,"Furthermore":9779,"wid":9780,"Betrieb":9781,"Vir":9782,"voc":9783,"werte":9784,"Aufgaben":9785,"öffentliche":9786,"Cast":9787,"solidarity":9788,"sätze":9789,"historic":9790,"perman":9791,"thought":9792,"33":9793,"demokratischen":9794,"hot":9795,"Heute":9796,"operations":9797,"Obje":9798,"entsprechend":9799,"geleg":9800,"track":9801,"Beteil":9802,"mic":9803,"erneut":9804,"weak":9805,"wortern":9806,"Modell":9807,"berecht":9808,"Fäh":9809,"consequences":9810,"bathroom":9811,"brand":9812,"offering":9813,"Bürgern":9814,"saying":9815,"legation":9816,"diejenigen":9817,"paar":9818,"options":9819,"schönen":9820,"zeichnen":9821,"practical":9822,"früher":9823,"Palest":9824,"afr":9825,"restr":9826,"Human":9827,"begrüße":9828,"beyond":9829,"ologie":9830,"Vertreter":9831,"Folge":9832,"entsprechenden":9833,"vergessen":9834,"gnis":9835,"herz":9836,"Änderung":9837,"Armut":9838,"leistung":9839,"ogle":9840,"bewusst":9841,"kap":9842,"victim":9843,"fühl":9844,"lernen":9845,"expe":9846,"äre":9847,"curren":9848,"freie":9849,"Sat":9850,"wechsel":9851,"adequ":9852,"screen":9853,"itzen":9854,"wr":9855,"paign":9856,"Ost":9857,"kannt":9858,"Beginn":9859,"tritt":9860,"sely":9861,"Gericht":9862,"Ressourcen":9863,"nungen":9864,"ione":9865,"kungen":9866,"rosoft":9867,"izin":9868,"humanit":9869,"beitragen":9870,"bill":9871,"bio":9872,"buffet":9873,"Ven":9874,"ira":9875,"Sm":9876,"carry":9877,"unten":9878,"zuführen":9879,"iente":9880,"verstanden":9881,"Security":9882,"offered":9883,"scheinlich":9884,"sales":9885,"Restaurants":9886,"colleagues":9887,"Nachbar":9888,"Austria":9889,"minimum":9890,"zah":9891,"Fällen":9892,"hesion":9893,"Bemühungen":9894,"syn":9895,"sil":9896,"ye":9897,"behandelt":9898,"Wohl":9899,"komp":9900,"Archite":9901,"NAT":9902,"anden":9903,"Bay":9904,"steigen":9905,"News":9906,"Schlusselwortern":9907,"langfrist":9908,"elling":9909,"wanted":9910,"behalten":9911,"Sitzung":9912,"scientific":9913,"Monaten":9914,"modified":9915,"Even":9916,"ideas":9917,"bir":9918,"Behandlung":9919,"Public":9920,"terrorism":9921,"beschrän":9922,"published":9923,"Pet":9924,"Bedürf":9925,"iveau":9926,"gruppe":9927,"Dritt":9928,"requires":9929,"icated":9930,"Dateien":9931,"OT":9932,"unterst":9933,"tit":9934,"usch":9935,"Grö":9936,"Shop":9937,"195":9938,"Werte":9939,"verw":9940,"verhindern":9941,"verz":9942,"bedingt":9943,"zufrieden":9944,"flü":9945,"shopping":9946,"spee":9947,"):":9948,"organisations":9949,"implemented":9950,"ausgezeich":9951,"kret":9952,"waste":9953,"Stabilität":9954,"Wunsch":9955,"Microsoft":9956,"IR":9957,"Directive":9958,"street":9959,"spannen":9960,"reference":9961,"bezieh":9962,"1996":9963,"morrow":9964,"Moder":9965,"zep":9966,"machine":9967,"gemeinschaft":9968,"berücksichtigt":9969,"monitoring":9970,"zeiten":9971,"starting":9972,"Cy":9973,"formul":9974,"weeks":9975,"Tagen":9976,"erkennen":9977,"Mc":9978,"doubt":9979,"netz":9980,"hätten":9981,"efficiency":9982,"domin":9983,"{{":9984,"steuer":9985,"Gebäude":9986,"lost":9987,"meaning":9988,"partnership":9989,"Spieler":9990,"Telefon":9991,"tte":9992,"estic":9993,"tomorrow":9994,"erfolgt":9995,"dauer":9996,"congratulate":9997,"fill":9998,"beant":9999,"Koordin":10000,"Inhalt":10001,"clients":10002,"changed":10003,"maximum":10004,"crucial":10005,"Schließ":10006,"anderem":10007,"discrimin":10008,"reduction":10009,"Cam":10010,"IG":10011,"email":10012,"abe":10013,"ienz":10014,"Milliar":10015,"ost":10016,"minute":10017,"technischen":10018,"Bürgerinnen":10019,"Mess":10020,"relating":10021,"Dien":10022,"weist":10023,"ischem":10024,"endlich":10025,"images":10026,"fried":10027,"95":10028,"technologies":10029,"umfang":10030,"Natürlich":10031,"gewesen":10032,"AV":10033,"Nacht":10034,"langt":10035,"John":10036,"tex":10037,"Mand":10038,"pursu":10039,"preci":10040,"advert":10041,"Atmosphäre":10042,"Doppel":10043,"alität":10044,"restrict":10045,"sometimes":10046,"förder":10047,"spa":10048,"morning":10049,"circum":10050,"97":10051,"richtige":10052,"Airport":10053,"ellschaften":10054,"Gest":10055,"versucht":10056,"Out":10057,"chair":10058,"Ins":10059,"Amendment":10060,"Minder":10061,"format":10062,"Vergangen":10063,"games":10064,"decor":10065,"usw":10066,"Camp":10067,"aver":10068,"Altern":10069,"comprehensive":10070,"caused":10071,"touch":10072,"join":10073,"Aller":10074,"deutschen":10075,"jem":10076,"effizient":10077,"Rats":10078,"gers":10079,"Erfahrungen":10080,"cities":10081,"valid":10082,"Finanzierung":10083,"angeboten":10084,"würd":10085,"Verteid":10086,"Lang":10087,"urance":10088,"Arab":10089,"Hil":10090,"degre":10091,"bemü":10092,"select":10093,"While":10094,"erns":10095,"stehenden":10096,"Mass":10097,"critic":10098,"campaign":10099,"geschrieben":10100,"ista":10101,"Democr":10102,"plans":10103,"accordance":10104,"rapid":10105,"sechs":10106,"mi":10107,"modernen":10108,"Produktions":10109,"raf":10110,"Rechtsvorschriften":10111,"Ty":10112,"Praxis":10113,"anything":10114,"Kan":10115,"ley":10116,"Kredit":10117,"Download":10118,"verläss":10119,"',":10120,"heav":10121,"überhaupt":10122,"alone":10123,"vollständig":10124,"tourist":10125,"Spanien":10126,"target":10127,"Tier":10128,"warum":10129,"swimming":10130,"erklärt":10131,"begin":10132,"historischen":10133,"map":10134,"ständige":10135,"erfüllen":10136,"menu":10137,"fügen":10138,"verantwortlich":10139,"probably":10140,"trägen":10141,"pictures":10142,"Are":10143,"losigkeit":10144,"players":10145,"ola":10146,"legant":10147,"languages":10148,"Stock":10149,"beru":10150,"igungen":10151,"zahlreichen":10152,"interested":10153,"Mos":10154,"Terrorismus":10155,"Fel":10156,"bote":10157,"hervorragen":10158,"kitchen":10159,"säm":10160,"temper":10161,"Google":10162,"Waren":10163,"Conference":10164,"Na":10165,"Lassen":10166,"Denn":10167,"bul":10168,"fit":10169,"welches":10170,"Beruf":10171,"neues":10172,"Ther":10173,"Frankfur":10174,"jüng":10175,"began":10176,"gment":10177,"comb":10178,"daten":10179,"stattung":10180,"Sonder":10181,"era":10182,"likely":10183,"accession":10184,"Aspekte":10185,"langen":10186,"italien":10187,"farmers":10188,"extent":10189,"Firmen":10190,"gruppen":10191,"worldwide":10192,"player":10193,"release":10194,"Berat":10195,"IA":10196,"iling":10197,"96":10198,"sü":10199,"splan":10200,"ML":10201,"karte":10202,"voting":10203,"iö":10204,"}}":10205,"methods":10206,"Vergangenheit":10207,"vari":10208,"vorzu":10209,"chance":10210,"Flex":10211,"Tar":10212,"Station":10213,"scale":10214,"DS":10215,"challenge":10216,"fläche":10217,"Islam":10218,"Sterne":10219,"dung":10220,"izing":10221,"führte":10222,"Chinese":10223,"Anstreng":10224,"nungs":10225,"Garten":10226,"holen":10227,"jeweiligen":10228,"sectors":10229,"Menschenrechts":10230,"concentr":10231,"Vertrauen":10232,"ery":10233,"zumindest":10234,"Adresse":10235,"verpflichtet":10236,"processing":10237,"Opfer":10238,"zahlt":10239,"versor":10240,"44":10241,"erwartet":10242,"Viele":10243,"calls":10244,"powers":10245,"verm":10246,"Soll":10247,"occup":10248,"izes":10249,"Swiss":10250,"enze":10251,"PT":10252,"Zweitens":10253,"adopt":10254,"schützen":10255,"east":10256,"stets":10257,"befür":10258,"selection":10259,"lass":10260,"Zivil":10261,"seines":10262,"tp":10263,"mögen":10264,"ita":10265,"walking":10266,"fields":10267,"candid":10268,"justice":10269,"außerhalb":10270,"tete":10271,"pul":10272,"Voll":10273,"reisen":10274,"Parteien":10275,"businesses":10276,"Besonder":10277,"”.":10278,"Schritte":10279,"accepted":10280,"wahrscheinlich":10281,"Ire":10282,"cia":10283,"cycl":10284,"appreci":10285,"adjust":10286,"hour":10287,"fällt":10288,"beginnen":10289,"strategic":10290,"breite":10291,"despite":10292,"trächt":10293,"Code":10294,"gekommen":10295,"exerc":10296,"aint":10297,"Ord":10298,"Berichterstatterin":10299,"ids":10300,"raten":10301,"substant":10302,"expert":10303,"descri":10304,"bran":10305,"Mün":10306,"Bestel":10307,"Ireland":10308,"genu":10309,"villa":10310,"Prem":10311,"Kauf":10312,"rise":10313,"End":10314,"attle":10315,"anspr":10316,"dio":10317,"barer":10318,"Angelegenheiten":10319,"otion":10320,"persönlichen":10321,"Russian":10322,"staaten":10323,"abr":10324,"Dann":10325,"agieren":10326,"innovation":10327,"attack":10328,"Angelegenheit":10329,"Inn":10330,"39":10331,"trust":10332,"influence":10333,"visitors":10334,"aktion":10335,"verab":10336,"pun":10337,"raised":10338,"ausschließlich":10339,"sichern":10340,"Gas":10341,"separate":10342,"genug":10343,"Krank":10344,"sorg":10345,"erstör":10346,"Dazu":10347,"heutigen":10348,"Konzept":10349,"Por":10350,"lern":10351,"Vergleich":10352,"Gesamt":10353,"letzte":10354,"trying":10355,"flexible":10356,"mill":10357,"season":10358,"ended":10359,"stieg":10360,"zt":10361,"weiten":10362,"erlaubt":10363,"born":10364,"itch":10365,"investig":10366,"absolutely":10367,"love":10368,"gebie":10369,"reichend":10370,"Schwierigkeiten":10371,"Herausforderungen":10372,"eingesch":10373,"Nun":10374,"elegant":10375,"operate":10376,"worked":10377,"amerikanischen":10378,"OM":10379,"uded":10380,"Prozent":10381,"anda":10382,"%.":10383,"positions":10384,"Liberal":10385,"bessere":10386,"OF":10387,"Schla":10388,"Stellen":10389,"Entschließungs":10390,"Künst":10391,"feed":10392,"genutzt":10393,"Distr":10394,"resort":10395,"konom":10396,"Einrichtung":10397,"expected":10398,"Dre":10399,"erinnern":10400,"erkennung":10401,"Solidarität":10402,"Österreich":10403,"leaders":10404,"urgent":10405,"cret":10406,"krise":10407,"Allerdings":10408,"verurs":10409,"Kapital":10410,"Hoff":10411,"Annahme":10412,"Verwaltung":10413,"affected":10414,"demands":10415,"voraus":10416,"element":10417,"critical":10418,"Zentral":10419,"getragen":10420,"Infra":10421,"lier":10422,"geschütz":10423,"manufactur":10424,"QL":10425,"atalog":10426,"Only":10427,"namely":10428,"64":10429,"kop":10430,"ties":10431,"ION":10432,"Vier":10433,"SD":10434,"borders":10435,"bestimmt":10436,"sav":10437,"Einige":10438,"remember":10439,"opening":10440,"mix":10441,"Ba":10442,"Regierungs":10443,"Falls":10444,"sprü":10445,"TR":10446,"honour":10447,"Photo":10448,"overall":10449,"intended":10450,"Georg":10451,"hood":10452,"Secondly":10453,"erweiter":10454,"bege":10455,"Eigent":10456,"heard":10457,"privaten":10458,"tief":10459,"regime":10460,"kämpfen":10461,"stream":10462,"Moreover":10463,"Leg":10464,"ühren":10465,"Christian":10466,"natür":10467,"Gold":10468,"teuer":10469,"Fischerei":10470,"nütz":10471,"bitten":10472,"diplom":10473,"tur":10474,"fangen":10475,"ober":10476,"Ihres":10477,"Herz":10478,"ube":10479,"coll":10480,"zusetzen":10481,"negative":10482,"automatisch":10483,"laws":10484,"verme":10485,"ense":10486,"allgemeinen":10487,"sle":10488,"stimm":10489,"SM":10490,"Agre":10491,"übernehmen":10492,"ruption":10493,"yourself":10494,"representatives":10495,"zukünft":10496,"NATO":10497,"buy":10498,"altet":10499,"aby":10500,"Mex":10501,"forced":10502,"fälle":10503,"komplex":10504,"shower":10505,"Verfassung":10506,"Wissenschaft":10507,"traffic":10508,"schlag":10509,"seiten":10510,"ehemal":10511,"running":10512,"banks":10513,"Tun":10514,"ighted":10515,"prüft":10516,"uern":10517,"wrong":10518,"moderne":10519,"initiatives":10520,"Arbeitsplätze":10521,"People":10522,"ritten":10523,"reduz":10524,"lebt":10525,"white":10526,"Power":10527,"Afghanistan":10528,"55":10529,"usually":10530,"evening":10531,"Mittelme":10532,"iser":10533,"Ausgang":10534,"expressed":10535,"Zeichen":10536,"suitable":10537,"1990":10538,"quem":10539,"tos":10540,"simpl":10541,"Gerä":10542,"08":10543,"ych":10544,"Constitution":10545,"generation":10546,"dere":10547,"begrenz":10548,"graf":10549,"explo":10550,"begrüßen":10551,"Milliarden":10552,"Karte":10553,"datab":10554,"Verkauf":10555,"Schwer":10556,"beide":10557,"isely":10558,"darstellt":10559,"committed":10560,"Antrag":10561,"Organisationen":10562,"entwickel":10563,"immern":10564,"zeichen":10565,"counts":10566,"zudem":10567,"Wal":10568,"stoffe":10569,"mainly":10570,"Obwohl":10571,"tot":10572,"Trotz":10573,"scope":10574,"Termin":10575,"Its":10576,"Landwir":10577,"paper":10578,"sper":10579,"administration":10580,"Bade":10581,"vac":10582,"God":10583,"==":10584,"cro":10585,"Partei":10586,"approved":10587,"län":10588,"talking":10589,"ethn":10590,"spann":10591,"nahm":10592,"Ed":10593,"ugg":10594,"Systeme":10595,"Kal":10596,"Roma":10597,"Überwach":10598,"Sky":10599,"renew":10600,"goal":10601,"Erstens":10602,"nachten":10603,"terrace":10604,"lager":10605,"Dro":10606,"beha":10607,"Verhalten":10608,"sitting":10609,"Leute":10610,"pleasant":10611,"Gipfel":10612,"targe":10613,"Eind":10614,"Einfluss":10615,"wagen":10616,"planning":10617,"eindeutig":10618,"konstru":10619,"intell":10620,"entgegen":10621,"installation":10622,"systeme":10623,"collection":10624,"Licht":10625,"chtet":10626,"Acht":10627,"Verpflichtungen":10628,"currency":10629,"Ausschuß":10630,"erung":10631,"aters":10632,"destens":10633,"structural":10634,"LAN":10635,"deine":10636,"poll":10637,"chann":10638,"Ang":10639,"samm":10640,"mittler":10641,"sektor":10642,"confirm":10643,"Reserv":10644,"sagt":10645,"playing":10646,"bourg":10647,"elektron":10648,"black":10649,"yal":10650,"unic":10651,"aries":10652,"confidence":10653,"Falle":10654,"Agenda":10655,"Erd":10656,"Costa":10657,"Dub":10658,"lying":10659,"Bud":10660,"families":10661,"SQL":10662,"dringend":10663,"valu":10664,"Hause":10665,"Hostels":10666,"Schiff":10667,"ückt":10668,"“.":10669,"gesche":10670,"Motor":10671,"His":10672,"cohesion":10673,"brief":10674,"Elekt":10675,"ju":10676,"Wik":10677,"bedarf":10678,"hund":10679,"Immobil":10680,"improved":10681,"militär":10682,"freuen":10683,"emissions":10684,"Grie":10685,"Kriterien":10686,"kept":10687,"alley":10688,"http":10689,"gestellten":10690,"hosp":10691,"Alp":10692,"mitten":10693,"folger":10694,"sensit":10695,"Sing":10696,"zentrum":10697,"structures":10698,"het":10699,"Zustimmung":10700,"Pak":10701,"agraph":10702,"läuft":10703,"administrative":10704,"Regional":10705,"größere":10706,"students":10707,"führten":10708,"ED":10709,"Anstrengungen":10710,"Dav":10711,"feature":10712,"Stil":10713,"entschieden":10714,"kaum":10715,"reforms":10716,"benutzt":10717,"expens":10718,"ichert":10719,"delivery":10720,"whom":10721,"motion":10722,"cele":10723,"gesund":10724,"ibly":10725,"comments":10726,"Dig":10727,"Bestand":10728,"Weit":10729,"Völker":10730,"increasingly":10731,"deckt":10732,"conclusion":10733,"nationale":10734,"Waffen":10735,"avig":10736,"decide":10737,"Card":10738,"compar":10739,"attempt":10740,"scher":10741,"Anerkennung":10742,"Garant":10743,"EW":10744,"circumstances":10745,"entwicklung":10746,"beschlossen":10747,"competitive":10748,"radio":10749,"proceed":10750,"zusätzliche":10751,"eingehen":10752,"reduced":10753,"protected":10754,"Körper":10755,"Liz":10756,"Holz":10757,"transparent":10758,"Schlüssel":10759,"altungen":10760,"expl":10761,"rot":10762,"Idee":10763,"automatically":10764,"Nations":10765,"watch":10766,"umin":10767,"1995":10768,"sources":10769,"Vie":10770,"Funktionen":10771,"voice":10772,"entry":10773,"Board":10774,"entspricht":10775,"crime":10776,"Vereinbarung":10777,"abwe":10778,"unbedingt":10779,"shof":10780,"Sand":10781,"genannt":10782,"Nutzen":10783,"fellow":10784,"lio":10785,"2020":10786,"Wahlen":10787,"electronic":10788,"Ident":10789,"cutive":10790,"medic":10791,"kategorien":10792,"Dol":10793,"Lad":10794,"schul":10795,"Rand":10796,"gran":10797,"liefer":10798,"thaf":10799,"lymp":10800,"Zwischen":10801,"church":10802,"priorities":10803,"Glück":10804,"Luxem":10805,"Salz":10806,"getroffen":10807,"iler":10808,"überzeugt":10809,"auty":10810,"ING":10811,"offee":10812,"unemployment":10813,"Boden":10814,"ampag":10815,"Palestin":10816,"selbstverständlich":10817,"hle":10818,"Work":10819,"schöne":10820,"vorgelegt":10821,"powerful":10822,"client":10823,"supports":10824,"flow":10825,"”,":10826,"session":10827,"isol":10828,"contribute":10829,"65":10830,"jur":10831,"infrastructure":10832,"extensive":10833,"Spr":10834,"Sea":10835,"cred":10836,"oker":10837,"speaking":10838,"Cze":10839,"founded":10840,"init":10841,"Any":10842,"audio":10843,"astr":10844,"willing":10845,"says":10846,"Wann":10847,"participation":10848,"09":10849,"selben":10850,"ensuring":10851,"mindestens":10852,"multip":10853,"rank":10854,"47":10855,"geschä":10856,"Las":10857,"Friedens":10858,"Profess":10859,"analy":10860,"Inhalte":10861,"introduced":10862,"aktuelle":10863,"aupts":10864,"engl":10865,"Milit":10866,"lust":10867,"glauben":10868,"49":10869,"Öl":10870,"ifen":10871,"berücksichtigen":10872,"spart":10873,"functions":10874,"plants":10875,"stät":10876,"Produkten":10877,"Durchführung":10878,"understanding":10879,"winter":10880,"pendence":10881,"specifically":10882,"Besucher":10883,"Dollar":10884,"victims":10885,"Osten":10886,"Ausgaben":10887,"Sektor":10888,"gründet":10889,"encourage":10890,"unterschiedlichen":10891,"Asia":10892,"erwähnt":10893,"celebr":10894,"manner":10895,"Empf":10896,"uals":10897,"artigen":10898,"iat":10899,"angegeben":10900,"hinweisen":10901,"ivity":10902,"://":10903,"quant":10904,"Richtlinien":10905,"effectively":10906,"Qualitäts":10907,"aschine":10908,"zz":10909,"gezeigt":10910,"India":10911,"verfügbar":10912,"gerichte":10913,"spunkt":10914,"defined":10915,"tabled":10916,"vere":10917,"Frankfurt":10918,"entsprechende":10919,"symbol":10920,"Hintergrund":10921,"ifizierung":10922,"ADS":10923,"lemente":10924,"asks":10925,"Indeed":10926,"Straße":10927,"aded":10928,"stimme":10929,"Band":10930,"competen":10931,"GB":10932,"kunden":10933,"pension":10934,"danke":10935,"amber":10936,"Leistungs":10937,"ores":10938,"Abschluss":10939,"Stim":10940,"Mitteilung":10941,"marketing":10942,"dish":10943,"cting":10944,"Konflikt":10945,"Ass":10946,"leichter":10947,"asser":10948,"Anspruch":10949,"agriculture":10950,"herunter":10951,"beds":10952,"07":10953,"ikal":10954,"mehreren":10955,"getting":10956,"Sprachen":10957,"bürger":10958,"purposes":10959,"uly":10960,"Each":10961,"Infrastruktur":10962,"dead":10963,"nachdem":10964,"uchs":10965,"electric":10966,"05":10967,"Mensch":10968,"Agreement":10969,"gelöst":10970,"hochwert":10971,"spective":10972,"Währung":10973,"liefert":10974,"larger":10975,"conver":10976,"opened":10977,"Bemerk":10978,"03":10979,"DP":10980,"managed":10981,"sichten":10982,"color":10983,"resist":10984,"Vorteile":10985,"Adr":10986,"lös":10987,"stated":10988,"gehalten":10989,"habit":10990,"Olymp":10991,"slow":10992,"Technologien":10993,"russ":10994,"referred":10995,"animals":10996,"Fakt":10997,"wonderful":10998,"auth":10999,"detailed":11000,"lant":11001,"orea":11002,"Policy":11003,"binden":11004,"phil":11005,"manage":11006,"seek":11007,"Innovation":11008,"Kompromiss":11009,"atively":11010,"lob":11011,"Schaden":11012,"Irak":11013,"Abend":11014,"III":11015,"aimed":11016,"arischen":11017,"listed":11018,"Ausbildung":11019,"summit":11020,"marks":11021,"Prote":11022,"linked":11023,"ny":11024,"schreiten":11025,"satisf":11026,"ienen":11027,"prem":11028,"rural":11029,"itter":11030,"globalen":11031,"Mat":11032,"Mio":11033,"euch":11034,"wält":11035,"Czech":11036,"kenn":11037,"Pack":11038,"Reformen":11039,"Effe":11040,"mär":11041,"cin":11042,"reception":11043,"senden":11044,"guard":11045,"erreich":11046,"Homepage":11047,"gewicht":11048,"rechten":11049,"plement":11050,"sett":11051,"Lam":11052,"ai":11053,"hoffen":11054,"omet":11055,"Associ":11056,"Verwaltungs":11057,"camera":11058,"Middle":11059,"Nahr":11060,"corporate":11061,"rain":11062,"police":11063,"Griechen":11064,"technische":11065,"exactly":11066,"benutzen":11067,"ips":11068,"besonderen":11069,"Kommunikation":11070,"According":11071,"constitution":11072,"angesprochen":11073,"felt":11074,"suite":11075,"Paket":11076,"anlagen":11077,"akzeptieren":11078,"adequate":11079,"schlä":11080,"provider":11081,"ktoren":11082,"rasch":11083,"becoming":11084,"February":11085,"precisely":11086,"achtet":11087,"stechn":11088,"ongs":11089,"assessment":11090,"mitglie":11091,"landsc":11092,"atoren":11093,"gebiet":11094,"risks":11095,"Aust":11096,"otherwise":11097,"moral":11098,"Ol":11099,"öm":11100,"chron":11101,"Turk":11102,"iums":11103,"Patient":11104,"luxur":11105,"reise":11106,"Aufnahme":11107,"discussed":11108,"Standards":11109,"geeignet":11110,"angs":11111,"bestehenden":11112,"arus":11113,"Amb":11114,"selected":11115,"schem":11116,"liebe":11117,"itzerland":11118,"ibilität":11119,"Other":11120,"sicherzustellen":11121,"CS":11122,"Break":11123,"Status":11124,"gesp":11125,"gleiche":11126,"Top":11127,"folgend":11128,"eingerichtet":11129,"represents":11130,"urban":11131,"omb":11132,"debt":11133,"46":11134,"breiten":11135,"budgetary":11136,"Check":11137,"näher":11138,"App":11139,"forest":11140,"ständen":11141,"Wellness":11142,"warten":11143,"Why":11144,"lieben":11145,"Ak":11146,"hre":11147,"wants":11148,"werke":11149,"houses":11150,"Einkauf":11151,"prison":11152,"weap":11153,"Netzwerk":11154,"Then":11155,"programs":11156,"siehe":11157,"jene":11158,"developments":11159,"angeb":11160,"introduction":11161,"führer":11162,"Switzerland":11163,"discussions":11164,"wegung":11165,"sold":11166,"yn":11167,"gency":11168,"agno":11169,"expand":11170,"cook":11171,"Schließlich":11172,"Click":11173,"medical":11174,"Research":11175,"Suche":11176,"erzielt":11177,"vit":11178,"ael":11179,"alloc":11180,"idents":11181,"Zudem":11182,"Zunächst":11183,"spacious":11184,"Fle":11185,"ambit":11186,"möglicherweise":11187,"tail":11188,"inside":11189,"sand":11190,"Haltung":11191,"Anwendungen":11192,"openha":11193,"enterprises":11194,"06":11195,"metres":11196,"fanta":11197,"Ima":11198,"kommenden":11199,"notwendigen":11200,"Sur":11201,"thousands":11202,"Anpass":11203,"isine":11204,"Over":11205,"Apartments":11206,"inal":11207,"spend":11208,"Einrichtungen":11209,"Chance":11210,"ologischen":11211,"ücken":11212,"actual":11213,"erfüllt":11214,"ental":11215,"hilfe":11216,"Ern":11217,"Vorbereit":11218,"Hor":11219,"festgelegt":11220,"CO2":11221,"zuletzt":11222,"Meter":11223,"iles":11224,"Kenn":11225,"anging":11226,"convenient":11227,"connected":11228,"Wettbewerbsfähigkeit":11229,"sized":11230,"Most":11231,"Zweifel":11232,"geändert":11233,"provision":11234,"guidelines":11235,"idential":11236,"exclusive":11237,"earlier":11238,"Kenntnis":11239,"amente":11240,"buildings":11241,"präsident":11242,"finanziellen":11243,"umgesetzt":11244,"stable":11245,"Street":11246,"followed":11247,"Sem":11248,"interpret":11249,"verkehrs":11250,"regret":11251,"anderes":11252,"Rä":11253,"ni":11254,"reje":11255,"MA":11256,"wogen":11257,"picture":11258,"ISO":11259,"cers":11260,"kennt":11261,"pft":11262,"dram":11263,"tourism":11264,"haften":11265,"dens":11266,"tages":11267,"voller":11268,"closely":11269,"freiheit":11270,"definit":11271,"idet":11272,"Beitritts":11273,"scen":11274,"bereitet":11275,"hner":11276,"save":11277,"ergreifen":11278,"si":11279,"Charakter":11280,"ength":11281,"Lab":11282,"bequem":11283,"bear":11284,"camp":11285,"Unterkategorien":11286,"Cli":11287,"ureau":11288,"votes":11289,"assungs":11290,"Monate":11291,"gradu":11292,"Economic":11293,"income":11294,"proto":11295,"discover":11296,"networks":11297,"ifying":11298,"shar":11299,"discrimination":11300,"pair":11301,"iano":11302,"Schlaf":11303,"uropa":11304,"compens":11305,"supporting":11306,"pression":11307,"saw":11308,"Fonds":11309,"Name":11310,"degree":11311,"ometer":11312,"pati":11313,"immigration":11314,"facing":11315,"GN":11316,"Mel":11317,"AU":11318,"gering":11319,"äden":11320,"popul":11321,"Banken":11322,"pas":11323,"Lehr":11324,"jederzeit":11325,"britann":11326,"ints":11327,"proport":11328,"Arten":11329,"Scho":11330,"Dienste":11331,"Zweck":11332,"bell":11333,"Ban":11334,"improving":11335,"Maschinen":11336,"gemü":11337,"vermeiden":11338,"ams":11339,"isierten":11340,"gg":11341,"ideos":11342,"lap":11343,"CC":11344,"PR":11345,"merk":11346,"speech":11347,"itate":11348,"Kindern":11349,"duty":11350,"rol":11351,"Wege":11352,"Greece":11353,"comment":11354,"darunter":11355,"rahmen":11356,"Betr":11357,"hnung":11358,"telephone":11359,"affect":11360,"Vielfalt":11361,"Fen":11362,"booking":11363,"owned":11364,"considerable":11365,"animal":11366,"chines":11367,"died":11368,"hands":11369,"Prag":11370,"trav":11371,"belieb":11372,"räge":11373,"welcher":11374,"core":11375,"stände":11376,"properly":11377,"Presse":11378,"klicken":11379,"verbessert":11380,"Austral":11381,"iffer":11382,"nieder":11383,"Ul":11384,"ancen":11385,"weight":11386,"Jed":11387,"stone":11388,"entit":11389,"MB":11390,"Health":11391,"Casino":11392,"schwierig":11393,"Bush":11394,"Stimme":11395,"Büro":11396,"Komfort":11397,"purchase":11398,"verfolgen":11399,"stattfinden":11400,"icts":11401,"besitz":11402,"igkeits":11403,"combat":11404,"Frem":11405,"presence":11406,"Moment":11407,"accur":11408,"photograph":11409,"suppl":11410,"jeweils":11411,"Gott":11412,"Installation":11413,"hafte":11414,"eingeschrän":11415,"2011":11416,"Menge":11417,"Beih":11418,"sicherlich":11419,"thinking":11420,"Grundsatz":11421,"Wien":11422,"destro":11423,"gave":11424,"42":11425,"Mitte":11426,"entweder":11427,"Belarus":11428,"Tätigkeit":11429,"crete":11430,"diversity":11431,"grade":11432,"kost":11433,"typical":11434,"Heil":11435,"paragraph":11436,"gelangen":11437,"illeg":11438,"Webseite":11439,"drawn":11440,"mechanis":11441,"Som":11442,"tut":11443,"Mark":11444,"zählen":11445,"Risiko":11446,"components":11447,"Forum":11448,"istence":11449,"Februar":11450,"EP":11451,"rock":11452,"Sinn":11453,"besuchen":11454,"gewün":11455,"financing":11456,"Analyse":11457,"hing":11458,"Leistungen":11459,"meld":11460,"Script":11461,"teilweise":11462,"02":11463,"Bis":11464,"cuisine":11465,"Black":11466,"pil":11467,"compat":11468,"staatlichen":11469,"Arbeiten":11470,"Bruss":11471,"Pun":11472,"Dat":11473,"experts":11474,"contr":11475,"Großbritann":11476,"800":11477,"behör":11478,"strict":11479,"items":11480,"Forderung":11481,"coffee":11482,"phr":11483,"ergän":11484,"erzielen":11485,"pap":11486,"Poker":11487,"angezeigt":11488,"Instrumente":11489,"ordinary":11490,"dir":11491,"vertrag":11492,"sage":11493,"entstehen":11494,"Wirk":11495,"Beitritt":11496,"spielt":11497,"fisheries":11498,"coordination":11499,"Vereinten":11500,"kern":11501,"Brussels":11502,"erleben":11503,"bodies":11504,"Regelung":11505,"remind":11506,"ray":11507,"generally":11508,"Pakistan":11509,"wait":11510,"klare":11511,"Poland":11512,"erhöhen":11513,"Est":11514,"wohner":11515,"liter":11516,"chmal":11517,"criminal":11518,"Berichte":11519,"bindungen":11520,"entirely":11521,"Teile":11522,"wanderung":11523,"Eisen":11524,"mack":11525,"ünen":11526,"signal":11527,"competitiveness":11528,"Titel":11529,"arf":11530,"ausdrücklich":11531,"authority":11532,"Bereit":11533,"figuration":11534,"übernachten":11535,"refuge":11536,"Abschließend":11537,"Fi":11538,"defic":11539,"Great":11540,"bound":11541,"univers":11542,"Initiativen":11543,"average":11544,"Leistung":11545,"plätze":11546,"sin":11547,"bericht":11548,"vey":11549,"aucher":11550,"Sach":11551,"cot":11552,"funktioniert":11553,"presidency":11554,"dealing":11555,"recognis":11556,"600":11557,"USS":11558,"wären":11559,"Sho":11560,"EF":11561,"elimin":11562,"rufen":11563,"relate":11564,"Vorgehen":11565,"verur":11566,"aves":11567,"Klimawand":11568,"hall":11569,"Mir":11570,"Plen":11571,"detail":11572,"Mitgliedstaat":11573,"Origin":11574,"names":11575,"3D":11576,"difficulties":11577,"ENT":11578,"stärken":11579,"display":11580,"Desk":11581,"Main":11582,"Because":11583,"Grenz":11584,"reasonable":11585,"dule":11586,"Environment":11587,"speziell":11588,"ots":11589,"68":11590,"grand":11591,"einiger":11592,"imag":11593,"told":11594,"anger":11595,"zentral":11596,");":11597,"exter":11598,"Abgeordnete":11599,"Sehens":11600,"informed":11601,"master":11602,"Madrid":11603,"Beschl":11604,"ütze":11605,"aria":11606,"Jetzt":11607,"richtigen":11608,"komfort":11609,"flexibility":11610,"parliamentary":11611,"tainment":11612,"wollte":11613,"betonen":11614,"leitung":11615,"seven":11616,"spot":11617,"abilities":11618,"Under":11619,"appar":11620,"natur":11621,"meetings":11622,"Kil":11623,"Gran":11624,"cards":11625,"peaceful":11626,"erstellt":11627,"änge":11628,"machines":11629,"Begriff":11630,"ökonom":11631,"zig":11632,"Unabhäng":11633,"fixed":11634,"Cur":11635,"Arg":11636,"Messe":11637,"möglichst":11638,"Rezept":11639,"hängt":11640,"Krä":11641,"percent":11642,"Währungs":11643,"vehicles":11644,"Veränderungen":11645,"verring":11646,"Mechan":11647,"seh":11648,"Absatz":11649,"Wald":11650,"orge":11651,"consideration":11652,"informieren":11653,"PHP":11654,"Immobilien":11655,"kulturellen":11656,"rounded":11657,"permanent":11658,"declar":11659,"Ear":11660,"Wi":11661,"mie":11662,"ishing":11663,"Breakfast":11664,"Vien":11665,"hindert":11666,"Samm":11667,"communications":11668,"Zeiten":11669,"ads":11670,"gewinnen":11671,"Ti":11672,"district":11673,"Leider":11674,"Zeitraum":11675,"schreiben":11676,"Bran":11677,"flanzen":11678,"zuvor":11679,"Unfortunately":11680,"Num":11681,"olo":11682,"kräft":11683,"Act":11684,"EADS":11685,"Wall":11686,"ameter":11687,"orders":11688,"Anteil":11689,"Engagement":11690,"darstellen":11691,"appears":11692,"desk":11693,"Prov":11694,"multi":11695,"ünft":11696,"numbers":11697,"prüfung":11698,"lokalen":11699,"Mü":11700,"gefordert":11701,"Aufbau":11702,"signed":11703,"applies":11704,"Harmon":11705,"kul":11706,"deep":11707,"ügen":11708,"Warum":11709,"nennen":11710,"establishment":11711,"openhagen":11712,"Angaben":11713,"Note":11714,"04":11715,"Never":11716,"Bos":11717,"oten":11718,"DR":11719,"initial":11720,"becomes":11721,"kräfte":11722,"Übergang":11723,"dagegen":11724,"Kritik":11725,"qualität":11726,"Bern":11727,"Rum":11728,"estate":11729,"experienced":11730,"ida":11731,"museum":11732,"wenigen":11733,"Gebieten":11734,"folgende":11735,"geräum":11736,"Verständ":11737,"domestic":11738,"ador":11739,"äger":11740,"Santa":11741,"courses":11742,"Sonnen":11743,"Hard":11744,"owners":11745,"practices":11746,"Vielen":11747,"konkrete":11748,"Once":11749,"Ratsvor":11750,"Verhältnis":11751,"Found":11752,"schech":11753,"nom":11754,"wirks":11755,"Media":11756,"onto":11757,"durchaus":11758,"Stein":11759,"ennen":11760,"iking":11761,"zentrale":11762,"Tic":11763,"sets":11764,"zweifel":11765,"ashion":11766,"mögliche":11767,"database":11768,"middle":11769,"taste":11770,"Kirche":11771,"öffnen":11772,"wom":11773,"ania":11774,"opposition":11775,"konferenz":11776,"politics":11777,"Alex":11778,"mbly":11779,"maßen":11780,"advanced":11781,"verloren":11782,"täglich":11783,"Übereinkommen":11784,"Hauses":11785,"ela":11786,"books":11787,"Hafen":11788,"length":11789,"hum":11790,"himself":11791,"karten":11792,"Links":11793,"calling":11794,"delay":11795,"Programms":11796,"aims":11797,"elegan":11798,"etze":11799,"1994":11800,"tests":11801,"Serb":11802,"Rechnung":11803,"tür":11804,"gewährleistet":11805,"seeing":11806,"feder":11807,"gefü":11808,"tzen":11809,"Private":11810,"Herstellung":11811,"promoting":11812,"vents":11813,"propose":11814,"Support":11815,"micro":11816,"jet":11817,"Trade":11818,"strength":11819,"PDF":11820,"aspect":11821,"Saint":11822,"Prioritäten":11823,"beauf":11824,"Geist":11825,"myself":11826,"erklären":11827,"translation":11828,"erfolgen":11829,"schwe":11830,"appoint":11831,"tten":11832,"ua":11833,"glass":11834,"Worte":11835,"absolut":11836,"MO":11837,"Technik":11838,"EX":11839,"teten":11840,"geograph":11841,"veröffentlicht":11842,"splä":11843,"Herausforderung":11844,"Versuch":11845,"enormous":11846,"freue":11847,"tlichen":11848,"Bahnhof":11849,"easier":11850,"approxim":11851,"Peter":11852,"esterday":11853,"Königreich":11854,"earn":11855,"figure":11856,"finanzielle":11857,"Ke":11858,"krieg":11859,"beob":11860,"Association":11861,"Brüssel":11862,"failure":11863,"Flücht":11864,"unabhängig":11865,"Katastrop":11866,"punkte":11867,"Allgem":11868,"kunfts":11869,"Paul":11870,"iell":11871,"ancient":11872,"benötigt":11873,"ando":11874,"Jahrhunderts":11875,"spie":11876,"Regul":11877,"phase":11878,"isierte":11879,"abgeschlossen":11880,"Rein":11881,"Universität":11882,"ido":11883,"acknow":11884,"defence":11885,"Hersteller":11886,"Asyl":11887,"organiz":11888,"Achtung":11889,"ée":11890,"Festival":11891,"Freund":11892,"Stellungnahme":11893,"Klicken":11894,"models":11895,"gezogen":11896,"utin":11897,"erscheint":11898,"öder":11899,"gestalten":11900,"cm":11901,"gelungen":11902,"Colle":11903,"associated":11904,"proof":11905,"bag":11906,"arten":11907,"kund":11908,"Kingdom":11909,"seriously":11910,"Forderungen":11911,"würdigkeiten":11912,"fähig":11913,"dangerous":11914,"ius":11915,"grounds":11916,"satell":11917,"persönlich":11918,"continued":11919,"Back":11920,"vul":11921,"Digital":11922,"übertragen":11923,"Rou":11924,"vertre":11925,"anyone":11926,"gelassen":11927,"Terrasse":11928,"concrete":11929,"article":11930,"dennoch":11931,"Formen":11932,"zählt":11933,"erstellen":11934,"dé":11935,"acts":11936,"spent":11937,"Gol":11938,"Gewähr":11939,"Einhaltung":11940,"Afrika":11941,"Michael":11942,"Klein":11943,"gegenseit":11944,"icians":11945,"uba":11946,"fulfil":11947,"Schengen":11948,"Resort":11949,"Kompeten":11950,"vielfält":11951,"nächste":11952,"konzentrieren":11953,"Anges":11954,"]],":11955,"threat":11956,"Bib":11957,"gig":11958,"charged":11959,"store":11960,"difference":11961,"studies":11962,"phen":11963,"neighbour":11964,"Künstler":11965,"humanitarian":11966,"tu":11967,"Schön":11968,"brow":11969,"dur":11970,"eit":11971,"Dennoch":11972,"Einigung":11973,"politischer":11974,"Live":11975,"Kons":11976,"differences":11977,"Entschließungsantrag":11978,"starke":11979,"Sound":11980,"Irish":11981,"Anlagen":11982,"Barro":11983,"combination":11984,"Patienten":11985,"Dorf":11986,"instance":11987,"85":11988,"Element":11989,"grant":11990,"Tourismus":11991,"Control":11992,"dlichen":11993,"waiting":11994,"drin":11995,"venue":11996,"implementing":11997,"erei":11998,"Karten":11999,"Syn":12000,"television":12001,"Aspekt":12002,"ök":12003,"reservation":12004,"Defin":12005,"adoption":12006,"Entsch":12007,"ec":12008,"ibrary":12009,"architecture":12010,"ral":12011,"unterschiedliche":12012,"holt":12013,"Hamburg":12014,"Pil":12015,"gegründet":12016,"imit":12017,"kostenlos":12018,"motiv":12019,"happened":12020,"philosop":12021,"worfen":12022,"Texte":12023,"Ideen":12024,"Wand":12025,"released":12026,"derer":12027,"psych":12028,"bruch":12029,"reducing":12030,"exhibition":12031,"änglich":12032,"beaches":12033,"statements":12034,"ahead":12035,"settle":12036,"producers":12037,"Gemeinsamen":12038,"attractive":12039,"Lesung":12040,"achtung":12041,"Nachfolgend":12042,"allel":12043,"court":12044,"Guest":12045,"cars":12046,"Hall":12047,"condem":12048,"Press":12049,"diskutieren":12050,"asy":12051,"mine":12052,"balanced":12053,"Verpflichtung":12054,"positiv":12055,"impossible":12056,"attach":12057,"endgült":12058,"USB":12059,"collabor":12060,"conv":12061,"uster":12062,"43":12063,"indire":12064,"shared":12065,"reiber":12066,"carefully":12067,"geschehen":12068,"kaufen":12069,"freut":12070,"command":12071,"arrival":12072,"geleistet":12073,"umfasst":12074,"Firstly":12075,"üter":12076,"betrachtet":12077,"verlassen":12078,"African":12079,"Day":12080,"immediate":12081,"ategory":12082,"availability":12083,"edia":12084,"Sehr":12085,"bereiten":12086,"announced":12087,"fare":12088,"qualit":12089,"wirkt":12090,"bots":12091,"Fore":12092,"keeping":12093,"recognition":12094,"agencies":12095,"Studio":12096,"Ruhe":12097,"tätig":12098,"Justice":12099,"licherweise":12100,"Großbritannien":12101,"atures":12102,"leihen":12103,"described":12104,"forth":12105,"Data":12106,"üben":12107,"passed":12108,"Sof":12109,"ssystem":12110,"umwelt":12111,"Kontin":12112,"evidence":12113,"fear":12114,"iques":12115,"learning":12116,"Wür":12117,"Sehenswürdigkeiten":12118,"Kopf":12119,"factory":12120,"sale":12121,"England":12122,"leiden":12123,"truly":12124,"capable":12125,"wett":12126,"Erst":12127,"guarantees":12128,"ula":12129,"changing":12130,"krat":12131,"passt":12132,"rough":12133,"THE":12134,"mächt":12135,"governmental":12136,"trading":12137,"introduce":12138,"vernünft":12139,"Mun":12140,"excess":12141,"gelegten":12142,"jährigen":12143,"thes":12144,"Manager":12145,"Prime":12146,"genuine":12147,"Wander":12148,"delic":12149,"behaup":12150,"tenance":12151,"Sorge":12152,"älter":12153,"HO":12154,"dee":12155,"Due":12156,"Treffen":12157,"marked":12158,"Wicht":12159,"Stärkung":12160,"41":12161,"kel":12162,"Sar":12163,"stance":12164,"button":12165,"monetary":12166,"erforderlichen":12167,"themat":12168,"compla":12169,"qualifiz":12170,"zeugung":12171,"insurance":12172,"medizin":12173,"Registr":12174,"frag":12175,"Partnerschaft":12176,"Wün":12177,"Lizenz":12178,"improvement":12179,"feststellen":12180,"vereinbar":12181,"advis":12182,"Umfang":12183,"niemand":12184,"fassen":12185,"verfolgt":12186,"advance":12187,"Polize":12188,"führenden":12189,"iso":12190,"garantiert":12191,"religious":12192,"zert":12193,"regionalen":12194,"registered":12195,"mes":12196,"consumption":12197,"ernsthaf":12198,"Bor":12199,"fis":12200,"match":12201,"ehrte":12202,"genet":12203,"territory":12204,"Polen":12205,"Finn":12206,"ena":12207,"prop":12208,"preise":12209,"ipp":12210,"Barroso":12211,"Seine":12212,"Vielzahl":12213,"phrase":12214,"membership":12215,"Link":12216,"label":12217,"possibilities":12218,"harm":12219,"stil":12220,"überprüfen":12221,"aums":12222,"füll":12223,"unit":12224,"Heimat":12225,"aufmerksam":12226,"Gleichzeitig":12227,"Mik":12228,"wishes":12229,"Militär":12230,"fand":12231,"story":12232,"mode":12233,"hängen":12234,"Fire":12235,"unless":12236,"vollkommen":12237,"ausgewä":12238,"ißen":12239,"mittag":12240,"gewalt":12241,"uting":12242,"haltet":12243,"versorgung":12244,"Foundation":12245,"ugos":12246,"para":12247,"figures":12248,"definition":12249,"Tha":12250,"Europeans":12251,"Entwicklungen":12252,"relaxing":12253,"plays":12254,"Führung":12255,"grenzen":12256,"Aussicht":12257,"revolution":12258,"Beach":12259,"flug":12260,"Drogen":12261,"unacceptable":12262,"Teilnehmer":12263,"Custom":12264,"nearby":12265,"blog":12266,"suche":12267,"Turkish":12268,"excl":12269,"allowing":12270,"Überwachung":12271,"Nahrungs":12272,"route":12273,"noon":12274,"hingewiesen":12275,"Kommissions":12276,"Nutzer":12277,"korre":12278,"Jour":12279,"Nah":12280,"intel":12281,"arbeite":12282,"dated":12283,".”":12284,"skills":12285,"pure":12286,"Arbeitslosigkeit":12287,"desire":12288,"250":12289,"combined":12290,"umn":12291,"Ps":12292,"Wechsel":12293,"aming":12294,"bezeichnet":12295,"kompliz":12296,"120":12297,"Tom":12298,"jun":12299,"toler":12300,"spread":12301,"schung":12302,"miteinander":12303,"packages":12304,"Offen":12305,"continues":12306,"participate":12307,"Justiz":12308,"Ano":12309,"atta":12310,"window":12311,"komplett":12312,"fruit":12313,"issionen":12314,"Muse":12315,"Van":12316,"completed":12317,"laut":12318,"installed":12319,"Rome":12320,"meters":12321,"tasks":12322,"Versch":12323,"krank":12324,"gegenwärtig":12325,"Elemente":12326,"devices":12327,"wirksam":12328,"earth":12329,"Komple":12330,"Democrats":12331,"Architektur":12332,"einsetzen":12333,"sensitive":12334,"posite":12335,"respective":12336,"Fer":12337,"unfortunately":12338,"iegen":12339,"Verlust":12340,"tzentr":12341,"sicherung":12342,"claims":12343,"%,":12344,"raise":12345,"greatest":12346,"Diskrimin":12347,"adapt":12348,"französischen":12349,"Geschäft":12350,"river":12351,"winn":12352,"empfehlen":12353,"Swe":12354,"wealth":12355,"Very":12356,"Format":12357,"gegenwärtigen":12358,"Entwurf":12359,"bieter":12360,"Problemen":12361,"reliable":12362,"ía":12363,"Trek":12364,"Vienna":12365,"write":12366,"Zuständ":12367,"surface":12368,"Deutsche":12369,"gir":12370,"convin":12371,"schrän":12372,"strongly":12373,"Mutter":12374,"roh":12375,"beauty":12376,"führungen":12377,"Radio":12378,"Class":12379,"Dut":12380,"stums":12381,"uls":12382,"hose":12383,"profitieren":12384,"Bol":12385,"Bewertung":12386,"demokratische":12387,"tie":12388,"ura":12389,"Nether":12390,"eingeführt":12391,"knü":12392,"Pers":12393,"annt":12394,"oli":12395,"gypt":12396,"haf":12397,"Player":12398,"Cop":12399,"golf":12400,"ensions":12401,"Fa":12402,"piece":12403,"Time":12404,"weiterer":12405,"Irland":12406,"tabel":12407,"Jeder":12408,"Bedürfnisse":12409,"subje":12410,"ologische":12411,"abl":12412,"User":12413,"surrounding":12414,"technik":12415,"entitled":12416,"barr":12417,"angene":12418,"ireless":12419,"Strom":12420,"geist":12421,"Marketing":12422,"Halb":12423,"Ratsvorsitz":12424,"sides":12425,"án":12426,"appeal":12427,"enables":12428,"relativ":12429,"election":12430,"elected":12431,"nutz":12432,"iche":12433,"Speicher":12434,"cycle":12435,"einfachen":12436,"ky":12437,"meist":12438,"iertes":12439,"gutes":12440,"chnet":12441,"schir":12442,"dispos":12443,"asyl":12444,"attractions":12445,"Agentur":12446,"square":12447,"White":12448,"sofern":12449,"economies":12450,"closer":12451,"Caf":12452,"establishing":12453,"Beschreibung":12454,"Rechnungs":12455,"gap":12456,"Lake":12457,"Set":12458,"Verteidigung":12459,"tent":12460,"oring":12461,"überall":12462,"Marken":12463,"Anti":12464,"mov":12465,"holidays":12466,"ausschusses":12467,"expend":12468,"danach":12469,"observ":12470,"confir":12471,"dedicated":12472,"zerstör":12473,"asil":12474,"Geschäftsordnung":12475,"beruf":12476,"beginnt":12477,"Chancen":12478,"spezielle":12479,"Griechenland":12480,"bars":12481,"Europäer":12482,"haupts":12483,"2013":12484,"Regelungen":12485,"Anlage":12486,"Vorsitzen":12487,"betroffen":12488,"Angesichts":12489,"appointed":12490,"PPE":12491,"überein":12492,"Good":12493,"platform":12494,"memory":12495,"andidaten":12496,"vorliegenden":12497,"mak":12498,"legitim":12499,"spät":12500,"Company":12501,"usual":12502,"lah":12503,"sämtliche":12504,"exercise":12505,"lantic":12506,"Report":12507,"stood":12508,"geschützt":12509,"bestätigt":12510,"allery":12511,"Ra":12512,"Priorität":12513,"science":12514,"dimension":12515,"Federal":12516,"Tisch":12517,"Fortschritt":12518,"asylum":12519,"ala":12520,"Regulation":12521,"unterstütze":12522,"finance":12523,"Altstadt":12524,"Gerichtshof":12525,"ickt":12526,"Tab":12527,"notice":12528,"grenzüber":12529,"besitzt":12530,"Kind":12531,"linge":12532,"individuals":12533,"Budget":12534,"okraten":12535,"beteiligt":12536,"Latin":12537,"lights":12538,"Pool":12539,"ffizienz":12540,"Eastern":12541,"keinerlei":12542,"icking":12543,"zil":12544,"conditioning":12545,"offic":12546,"interface":12547,"Special":12548,"advertising":12549,"zustimmen":12550,"title":12551,"Option":12552,"gewiss":12553,"storage":12554,"großes":12555,"Kombin":12556,"Nu":12557,"offensichtlich":12558,"labor":12559,"Beihil":12560,"onic":12561,"erh":12562,"perspective":12563,"Kurz":12564,"anischen":12565,"moving":12566,"unto":12567,"railway":12568,"accessible":12569,"160":12570,"Meiner":12571,"flight":12572,"wahren":12573,"veget":12574,"atever":12575,"compared":12576,"spending":12577,"Foreign":12578,"Indien":12579,"nia":12580,"chain":12581,"umfassende":12582,"totally":12583,"Studien":12584,"magn":12585,"intervention":12586,"wortet":12587,"citizen":12588,"eur":12589,"luxury":12590,"meant":12591,"COM":12592,"quer":12593,"extended":12594,"device":12595,"Meeres":12596,"PRO":12597,"istisch":12598,"örter":12599,"stärk":12600,"ausreichend":12601,"einfache":12602,"Bill":12603,"Austrian":12604,"Another":12605,"spezial":12606,"Liber":12607,"Mitteln":12608,"SA":12609,"wers":12610,"factor":12611,"grundsätz":12612,"bett":12613,"Globalisierung":12614,"SC":12615,"Where":12616,"instru":12617,"pour":12618,"lake":12619,"Mitglieds":12620,"größeren":12621,"bene":12622,"Erhö":12623,"genannte":12624,"amin":12625,"convinced":12626,"Croat":12627,"failed":12628,"klang":12629,"Blue":12630,"pä":12631,"Worten":12632,"Beteiligung":12633,"hergestellt":12634,"aux":12635,"highlight":12636,"Quest":12637,"\")":12638,"granted":12639,"abol":12640,"ärm":12641,"mittels":12642,"ieht":12643,"organised":12644,"ague":12645,"biggest":12646,"Netherlands":12647,"ergeben":12648,"solcher":12649,"Hist":12650,"Größe":12651,"Nevertheless":12652,"existence":12653,"Monat":12654,"sequent":12655,"util":12656,"update":12657,"organization":12658,"zö":12659,"900":12660,"laid":12661,"außen":12662,"visual":12663,"mountains":12664,"eingere":12665,"Märkte":12666,"Ton":12667,"ECU":12668,"Beschäftigungs":12669,"zusätzlich":12670,"garantieren":12671,"Unterkunft":12672,"ump":12673,"verbundenen":12674,"Mindest":12675,"Maße":12676,"Stadtzentr":12677,"wettbewer":12678,"colour":12679,"nötig":12680,"raw":12681,"istik":12682,"Städte":12683,"blue":12684,"bekannten":12685,"Fitness":12686,"chst":12687,"Institute":12688,"grie":12689,"internationaler":12690,"cool":12691,"wesentlichen":12692,"controls":12693,"Corpor":12694,"lows":12695,"Third":12696,"Generation":12697,"conclusions":12698,"itage":12699,"ora":12700,"Einkommen":12701,"aca":12702,"igem":12703,"tend":12704,"starken":12705,"gä":12706,"factors":12707,"Apparte":12708,"wendet":12709,"Roll":12710,"chosen":12711,"erecht":12712,"compl":12713,"sell":12714,"Urs":12715,"expression":12716,"Greek":12717,"attform":12718,"weapons":12719,"Todes":12720,"yr":12721,"ktors":12722,"tried":12723,"reden":12724,"gebe":12725,"holung":12726,"beinhaltet":12727,"patent":12728,"advice":12729,"teen":12730,"schiede":12731,"gegangen":12732,"fiscal":12733,"unable":12734,"contrary":12735,"ilateral":12736,"maintenance":12737,"Lou":12738,"Reich":12739,"Aktionen":12740,"Blog":12741,"Front":12742,"müs":12743,"DER":12744,"artists":12745,"Erde":12746,"nar":12747,"disease":12748,"proz":12749,"theit":12750,"rec":12751,"dap":12752,"Ausland":12753,"Fotos":12754,"Experten":12755,"utt":12756,"perfectly":12757,"Datenbank":12758,"Zoll":12759,"onial":12760,"Tod":12761,".-":12762,"Palestinian":12763,"faces":12764,"promotion":12765,"Palace":12766,"diesel":12767,"expensive":12768,"pare":12769,"A5":12770,"Fü":12771,"Verletz":12772,"Journal":12773,"Niveau":12774,"fän":12775,"1992":12776,"Relig":12777,"Gründe":12778,"payments":12779,"agency":12780,"asking":12781,"sched":12782,"background":12783,"gebil":12784,"destroy":12785,"Box":12786,"Flash":12787,"limits":12788,"Kompon":12789,"Metro":12790,"Martin":12791,"commitments":12792,"Farben":12793,"Kohäs":12794,"fashion":12795,"Verbrechen":12796,"Menü":12797,"Fert":12798,"formed":12799,"klusive":12800,"Joh":12801,"onia":12802,"Erklärungen":12803,"igrants":12804,"neither":12805,"äufer":12806,"omas":12807,"ambitious":12808,"teilnehmen":12809,"Paläst":12810,"Datenschutz":12811,"beglück":12812,"verteid":12813,"deutsche":12814,"rightly":12815,"Alban":12816,"candidate":12817,"verabschie":12818,"Schrif":12819,"inspe":12820,"erb":12821,"vorschlag":12822,"verletz":12823,"hlten":12824,"theor":12825,"Grunde":12826,"Zahlen":12827,"Wiederauf":12828,"handlungen":12829,"finde":12830,"semin":12831,"auben":12832,"Express":12833,"Rezeption":12834,"Thus":12835,"oram":12836,"Reisen":12837,"category":12838,"ships":12839,"Il":12840,"meister":12841,"wünsche":12842,"vehicle":12843,"honourable":12844,"inary":12845,"idung":12846,"ae":12847,"Yet":12848,"kehren":12849,"wiesen":12850,"cheap":12851,"Fenster":12852,"vous":12853,"liothe":12854,"iant":12855,"stimul":12856,"leun":12857,"betrachten":12858,"Gegensatz":12859,"Hinweis":12860,"achieving":12861,"oral":12862,"gesundheit":12863,"amoun":12864,"stimmt":12865,"lehnt":12866,"Fac":12867,"mittelt":12868,"blood":12869,"Methode":12870,"obligations":12871,"Roh":12872,"bewegen":12873,"rechtlichen":12874,"Gesprä":12875,"Energy":12876,"sec":12877,"aktionen":12878,"TER":12879,"outcome":12880,"Flexibilität":12881,"()":12882,"Gut":12883,"früh":12884,"Mitgliedern":12885,"ungsverfahren":12886,"outstanding":12887,"Model":12888,"CP":12889,"ernst":12890,"(\"":12891,"successfully":12892,"Gebiete":12893,"Eindruck":12894,"iced":12895,"Ereignisse":12896,"balcon":12897,"nehmern":12898,"Ganz":12899,"species":12900,"künst":12901,"Zugriff":12902,"Beschluss":12903,"obviously":12904,"versions":12905,"speziellen":12906,"personen":12907,"cat":12908,"Pop":12909,"benach":12910,"Gaz":12911,"fem":12912,"Kurs":12913,"etter":12914,"estim":12915,"Beim":12916,"testing":12917,"journal":12918,"SO":12919,"Wil":12920,"contained":12921,"continuing":12922,"preserv":12923,"Win":12924,"Empfehlungen":12925,"Verständnis":12926,"LT":12927,"sensus":12928,"Beihilfen":12929,"kleiner":12930,"furnished":12931,"threaten":12932,"situations":12933,"hit":12934,"edge":12935,"constantly":12936,"ässer":12937,"sequently":12938,"Nik":12939,"zufolge":12940,"Posit":12941,"britischen":12942,"spolit":12943,"dynamic":12944,"Fax":12945,"approximately":12946,"therap":12947,"texts":12948,"rück":12949,"physical":12950,"erhöht":12951,"colleague":12952,"sn":12953,"sauber":12954,"distin":12955,"someone":12956,"Los":12957,"usche":12958,"Phase":12959,"geöffnet":12960,"NI":12961,"Rem":12962,"kete":12963,"daraus":12964,"optimal":12965,"informiert":12966,"MU":12967,"equality":12968,"Administr":12969,"contents":12970,"regeln":12971,"66":12972,"anen":12973,"Def":12974,"endum":12975,"Landschaft":12976,"evalu":12977,"occasion":12978,"surrounded":12979,"testen":12980,"Nachdem":12981,"1000":12982,"Realität":12983,"Botschaft":12984,"türk":12985,"straße":12986,"Weitere":12987,"Jose":12988,"assign":12989,"Muslim":12990,"Inseln":12991,"secon":12992,"hauptsächlich":12993,"gerufen":12994,"satellite":12995,"Sun":12996,"push":12997,"Wirkung":12998,"produktion":12999,"yesterday":13000,"Beob":13001,"guter":13002,"massive":13003,"Summit":13004,"Agency":13005,"ima":13006,"thedr":13007,"quid":13008,"Ram":13009,"gesellschaften":13010,"veranst":13011,"sky":13012,"Audio":13013,"aircraft":13014,"surv":13015,"employed":13016,"verste":13017,"Ker":13018,"manchmal":13019,"trollen":13020,"independence":13021,"Kaffe":13022,"nationaler":13023,"Spiele":13024,"Dimension":13025,"schau":13026,"goals":13027,"Plä":13028,"qualified":13029,"glad":13030,"Royal":13031,"assure":13032,"Hoffnung":13033,"ablen":13034,"Jean":13035,"arms":13036,"jemand":13037,"Fraktionen":13038,"gewisse":13039,"planned":13040,"künd":13041,"named":13042,"uts":13043,"uel":13044,"bringing":13045,"griffe":13046,"jungen":13047,"gaz":13048,"photos":13049,"argument":13050,"expenditure":13051,"binding":13052,"berühmten":13053,"Located":13054,"recommendations":13055,"allgemeine":13056,"Essen":13057,"ión":13058,"prevention":13059,"Inner":13060,"gespe":13061,"Alliance":13062,"flu":13063,"Sprach":13064,"Bi":13065,"fühlen":13066,"advantages":13067,"ktivität":13068,"breitung":13069,"kontin":13070,"dau":13071,"bridge":13072,"Zustand":13073,"iction":13074,"correspond":13075,"Distrib":13076,"VI":13077,"uk":13078,"convent":13079,"Schwar":13080,"Betriebs":13081,"präsentiert":13082,"fraud":13083,"couple":13084,"Frühstücks":13085,"ordentlich":13086,"putting":13087,"sorgfält":13088,"orien":13089,"Bildungs":13090,"Prüfung":13091,"Finan":13092,"einverstanden":13093,"ktions":13094,"Politiker":13095,"beachten":13096,"Voraussetzungen":13097,"ausgewogen":13098,"Haut":13099,"Vorteil":13100,"reve":13101,"Hauptstadt":13102,"Männer":13103,"communities":13104,"ideale":13105,"angel":13106,"Island":13107,"extend":13108,"herzlich":13109,"Rh":13110,"Pic":13111,"SV":13112,"Unabhängigkeit":13113,"Schne":13114,"Maria":13115,"submit":13116,"merely":13117,"bestel":13118,"Grundrechte":13119,"targets":13120,"Formular":13121,"browser":13122,"lägen":13123,"seeking":13124,"lieb":13125,"Syr":13126,"stations":13127,"geschieht":13128,"Risiken":13129,"Arbeitsmarkt":13130,"Lord":13131,"Vom":13132,"fuel":13133,"pleasure":13134,"haber":13135,"körper":13136,"ausführ":13137,"EB":13138,"ausländ":13139,"fassung":13140,"thers":13141,"consists":13142,"Square":13143,"soft":13144,"festgestellt":13145,"Graf":13146,"Find":13147,"ansion":13148,"contemporary":13149,"intensive":13150,"favor":13151,"kombin":13152,"stellte":13153,"Kontroll":13154,"einzigen":13155,"lastung":13156,"Lö":13157,"sobald":13158,"Those":13159,"landscape":13160,"damals":13161,"Gegenteil":13162,"persönliche":13163,"ichern":13164,"ller":13165,"jüngsten":13166,"Rich":13167,"Teilen":13168,"regelmäßig":13169,"warded":13170,"räume":13171,"intention":13172,"ategorie":13173,"participants":13174,"substantial":13175,"Jer":13176,"male":13177,"Bedarf":13178,"holders":13179,"Both":13180,"vak":13181,"unternommen":13182,"looks":13183,"disposal":13184,"schneller":13185,"smaller":13186,"kurs":13187,"registration":13188,"trend":13189,"selten":13190,"entstanden":13191,"1993":13192,"Minderheiten":13193,"Touristen":13194,"Erwart":13195,"vorgeschlagenen":13196,"WC":13197,"guaranteed":13198,"schlagen":13199,"Gesetzgebung":13200,"vereign":13201,"fein":13202,"compliance":13203,"UT":13204,"sight":13205,"mechanism":13206,"sovereign":13207,"trifft":13208,"Glas":13209,"Tim":13210,"Mittelmeer":13211,"Lager":13212,"erfordert":13213,"leads":13214,"Pay":13215,"inspir":13216,"hospital":13217,"Engine":13218,"slight":13219,"Via":13220,"Cypr":13221,"Rules":13222,"wichtigste":13223,"consistent":13224,"übernommen":13225,"Teilnahme":13226,"Ebenso":13227,"Zahlungs":13228,"dog":13229,"quir":13230,"Niederland":13231,"echte":13232,"Liberalisierung":13233,"steel":13234,"Autor":13235,"metho":13236,"Häl":13237,"hebung":13238,"Dach":13239,"Old":13240,"spaces":13241,"Mak":13242,"praktisch":13243,"Theater":13244,"determined":13245,"NL":13246,"ördert":13247,"wann":13248,"truth":13249,"fragt":13250,"Meinungs":13251,"Refer":13252,"gewünsch":13253,"resulting":13254,"Geh":13255,"denk":13256,"betroffenen":13257,"Rund":13258,"disch":13259,"assum":13260,"River":13261,"fif":13262,"Prakt":13263,"Sweden":13264,"Korea":13265,"Streit":13266,"ruhigen":13267,"drän":13268,"Gebrauch":13269,"strengthening":13270,"nachhaltige":13271,"snow":13272,"aktual":13273,"dele":13274,"Nichtr":13275,"oted":13276,"AND":13277,"Nachrichten":13278,"governance":13279,"yle":13280,"nations":13281,"richtlinie":13282,"Thanks":13283,"David":13284,"responsibilities":13285,"Verfüg":13286,"Publik":13287,"Bestandteil":13288,"exception":13289,"eye":13290,"FA":13291,"anbieten":13292,"modell":13293,"causes":13294,"manufacturing":13295,"territorial":13296,"politisch":13297,"vieler":13298,"Dutch":13299,"examples":13300,"Veranstaltungen":13301,"organisationen":13302,"Austausch":13303,"Pod":13304,"wodurch":13305,"Master":13306,"zugleich":13307,"identity":13308,"nearly":13309,"Gedanken":13310,"Alter":13311,"Chamber":13312,"Vil":13313,"Feld":13314,"uttle":13315,"erneuer":13316,"rupt":13317,"association":13318,"formal":13319,"Gefühl":13320,"Effizienz":13321,"stö":13322,"Verb":13323,"turned":13324,"info":13325,"]].":13326,"andererseits":13327,"Que":13328,"Two":13329,"alp":13330,"Show":13331,"ausreichen":13332,"conclude":13333,"Brow":13334,"recovery":13335,"Klimaanlage":13336,"brings":13337,"bedroom":13338,"Methoden":13339,"Moun":13340,"technological":13341,"eight":13342,"plate":13343,"vely":13344,"istenz":13345,"entially":13346,"conduct":13347,"ausende":13348,"geboren":13349,"Liebe":13350,"JavaScript":13351,"auchen":13352,"surpr":13353,"Key":13354,"Av":13355,"burden":13356,"Welche":13357,"Nice":13358,"beschäftigt":13359,"BM":13360,"Non":13361,"kontext":13362,"multiple":13363,"Erhöhung":13364,"asp":13365,"autom":13366,"Internationalen":13367,"authent":13368,"Akte":13369,"vorschlagen":13370,"birth":13371,"700":13372,"explain":13373,"driving":13374,"Kooperation":13375,"Tip":13376,"welchen":13377,"empt":13378,"treated":13379,"Serie":13380,"Charter":13381,"ervice":13382,"traditionellen":13383,"beeinfl":13384,"Bewegung":13385,"sieben":13386,"Pflicht":13387,"Angriff":13388,"Pflanzen":13389,"isierungs":13390,"Beif":13391,"Nichtraucher":13392,"gewählt":13393,"smoking":13394,"Ausnahme":13395,"Überprüfung":13396,"Koordinierung":13397,"Angebote":13398,"angeht":13399,"Hälfte":13400,"Zimmern":13401,"grammat":13402,"diction":13403,"incorpor":13404,"geste":13405,"fertigt":13406,"sid":13407,"Revolution":13408,"bestand":13409,"patients":13410,"Morgen":13411,"Veröffentlich":13412,"fällen":13413,"RA":13414,"mlich":13415,"capt":13416,"attacks":13417,"Ferienwohn":13418,"griech":13419,"ication":13420,"plug":13421,"Tai":13422,"flat":13423,"ente":13424,"dos":13425,"Solar":13426,"consensus":13427,"liefern":13428,"icks":13429,"besseren":13430,"southern":13431,"requested":13432,"primary":13433,"freundlich":13434,"88":13435,"Details":13436,"Hü":13437,"decades":13438,"evaluation":13439,"itze":13440,"explan":13441,"addressed":13442,"1980":13443,"liability":13444,"previously":13445,"TP":13446,"peratur":13447,"Dort":13448,"Krisen":13449,"erscheinen":13450,"Mont":13451,"strategie":13452,"representative":13453,"Mach":13454,"spezifischen":13455,"üstung":13456,"Einkaufs":13457,"Vorbereitung":13458,"Diskriminierung":13459,"consolid":13460,"Know":13461,"matic":13462,"primarily":13463,"Financial":13464,"Fischer":13465,"Tit":13466,"gone":13467,"gigen":13468,"issens":13469,"spring":13470,"zwungen":13471,"freundliche":13472,"zuverläss":13473,"jährlich":13474,"Romania":13475,"junge":13476,"imper":13477,"ão":13478,"ampagne":13479,"vulner":13480,"remove":13481,"nd":13482,"Ordnung":13483,"werten":13484,"Besitz":13485,"Suite":13486,"pi":13487,"bezieht":13488,"thereby":13489,"77":13490,"Rotary":13491,"Ku":13492,"Dublin":13493,"destru":13494,"schools":13495,"Rumän":13496,"Absicht":13497,"höchst":13498,"industries":13499,"willkommen":13500,"default":13501,"cra":13502,"matik":13503,"Lob":13504,"ml":13505,"Enjoy":13506,"m2":13507,"discussing":13508,"weiteres":13509,"diskutiert":13510,"western":13511,"kinds":13512,"ardo":13513,"GU":13514,"bac":13515,"seitens":13516,"Argent":13517,"unterschiedlich":13518,"Laufe":13519,"Tel":13520,"lots":13521,"dok":13522,"forum":13523,"boot":13524,"corner":13525,"gegebenen":13526,"schafft":13527,"Grenze":13528,"Berücksicht":13529,"wegs":13530,"flächen":13531,"tact":13532,"Anpassung":13533,"Aufgrund":13534,"fers":13535,"tenzial":13536,"gender":13537,"Export":13538,"talks":13539,"gericht":13540,"exec":13541,"enge":13542,"older":13543,"absicht":13544,"sprachen":13545,"Jes":13546,"none":13547,"globale":13548,"lebnis":13549,"München":13550,"controll":13551,"bureau":13552,"entscheid":13553,"Tool":13554,"kürzlich":13555,"begann":13556,"skin":13557,"Obama":13558,"fuhr":13559,"Merk":13560,"imal":13561,"incent":13562,"Willen":13563,"Apartment":13564,"spartner":13565,"Jun":13566,"Gästen":13567,"reagieren":13568,"läu":13569,"inens":13570,"noise":13571,"CL":13572,"genü":13573,"Satell":13574,"hie":13575,"tours":13576,"Stadtzentrum":13577,"holding":13578,"usetzen":13579,"TA":13580,"enjo":13581,"bereiche":13582,"Gebur":13583,"systemat":13584,"Dokumente":13585,"städ":13586,"Audit":13587,"bildet":13588,"ordnungs":13589,"betont":13590,"Straf":13591,"Brazil":13592,"imb":13593,"urge":13594,"Church":13595,"zeß":13596,"venture":13597,"Div":13598,"rob":13599,"positiven":13600,"feeling":13601,"agent":13602,"calcul":13603,"annes":13604,"extreme":13605,"akzeptiert":13606,"schritt":13607,"koordin":13608,"einzelne":13609,"competence":13610,"Fälle":13611,"opposite":13612,"tw":13613,"behandeln":13614,"Freizeit":13615,"boat":13616,"prepare":13617,"Fähigkeit":13618,"Patent":13619,"iam":13620,"dealt":13621,"kommun":13622,"Mas":13623,"delivered":13624,"HD":13625,"Anliegen":13626,"Provin":13627,"izon":13628,"Sonn":13629,"represented":13630,"SL":13631,"index":13632,"beraten":13633,"migration":13634,"abled":13635,"Music":13636,"ländlichen":13637,"67":13638,"Cook":13639,"Freunde":13640,"Tiere":13641,"controlled":13642,"Var":13643,"mutual":13644,"OK":13645,"iber":13646,"folio":13647,"accounts":13648,"Eltern":13649,"mittlung":13650,"respekt":13651,"stol":13652,"Sau":13653,"gearbeitet":13654,"überzeugen":13655,"Prodi":13656,"amongst":13657,"Signal":13658,"reply":13659,"sym":13660,"Ros":13661,"rote":13662,"abhängig":13663,"dritten":13664,"Kyo":13665,"domain":13666,"orte":13667,"Delegation":13668,"schwar":13669,"investments":13670,"iot":13671,"aka":13672,"Stunde":13673,"Flä":13674,"speakers":13675,"magaz":13676,"zahlung":13677,"verstärkt":13678,"betrieb":13679,"FOR":13680,"complic":13681,"unanim":13682,"Glau":13683,"ciliation":13684,"Perspe":13685,"approval":13686,"Follow":13687,"School":13688,"Reaktion":13689,"lav":13690,"liber":13691,"Zul":13692,"igern":13693,"permit":13694,"Mol":13695,"mini":13696,"nochmals":13697,"presentation":13698,"compatible":13699,"spok":13700,"prinzip":13701,"Englisch":13702,"spezifische":13703,"Wur":13704,"Despite":13705,"heavy":13706,"Gewicht":13707,"Süden":13708,"Stück":13709,"Munich":13710,"quote":13711,"nummer":13712,"isto":13713,"Gesetze":13714,"stoffen":13715,"gebunden":13716,"Untersuchung":13717,"Jahrzehn":13718,"mechanisms":13719,"shape":13720,"Kyoto":13721,"fee":13722,"Turn":13723,"diverse":13724,"belong":13725,"manufacturers":13726,"A4":13727,"begonnen":13728,"Beweis":13729,"Einklang":13730,"zurückzu":13731,"CN":13732,"unsten":13733,"repeated":13734,"akes":13735,"umgeben":13736,"Dy":13737,"runs":13738,"moved":13739,"intellect":13740,"Paper":13741,"dans":13742,"fug":13743,"waters":13744,"agiert":13745,"Fluss":13746,"schlecht":13747,"consultation":13748,"sicherstellen":13749,"uminium":13750,"iene":13751,"error":13752,"CR":13753,"Unterschiede":13754,"vielmehr":13755,"breitet":13756,"pick":13757,"Klimawandel":13758,"destination":13759,"soweit":13760,"Umständen":13761,"Original":13762,"covers":13763,"Minutes":13764,"jährige":13765,"Berücksichtigung":13766,"gestern":13767,"Wegen":13768,"Jack":13769,"Take":13770,"switch":13771,"grad":13772,"verlangen":13773,"kulturelle":13774,"delegation":13775,"beschrieben":13776,"grundlage":13777,"verlieren":13778,"leadership":13779,"Use":13780,"tech":13781,"Kombination":13782,"Before":13783,"charming":13784,"regionale":13785,"nt":13786,"illustr":13787,"ultim":13788,"andal":13789,"Strukturfonds":13790,"Eigenschaften":13791,"Life":13792,"A3":13793,"excit":13794,"Schau":13795,"basiert":13796,"transit":13797,"termine":13798,"manager":13799,"Kunde":13800,"Cent":13801,"uchten":13802,"attemp":13803,"Massen":13804,"werfen":13805,"privacy":13806,"höchste":13807,"Diskussionen":13808,"Skype":13809,"ehemaligen":13810,"attitude":13811,"recommended":13812,"zin":13813,"Übernach":13814,"Komment":13815,"ipul":13816,"Kollege":13817,"mutz":13818,"filter":13819,"Egypt":13820,"fleet":13821,"uters":13822,"rejected":13823,"allgemein":13824,"ikanischen":13825,"Gewinn":13826,"ais":13827,"stuff":13828,"Definition":13829,"endor":13830,"gross":13831,"wachen":13832,"folgerungen":13833,"seien":13834,"Action":13835,"knows":13836,"output":13837,"swe":13838,"consc":13839,"aktuell":13840,"Amerika":13841,"Premier":13842,"helping":13843,"cold":13844,"Freude":13845,"Mem":13846,"ym":13847,"ingu":13848,"trees":13849,"improvements":13850,"meldung":13851,"Ag":13852,"wing":13853,"ergriffen":13854,"derzeitigen":13855,"obligation":13856,"entspannen":13857,"obst":13858,"Handeln":13859,"requests":13860,"Schäden":13861,"Ann":13862,"iban":13863,"Kranken":13864,"orgnis":13865,"ktiver":13866,"Schule":13867,"articles":13868,"ieties":13869,"engineering":13870,"Dadurch":13871,"experiences":13872,"drugs":13873,"Aufsicht":13874,"visible":13875,"launched":13876,"vorgenommen":13877,"igerung":13878,"Mehrwert":13879,"expertise":13880,"Bedenken":13881,"Studie":13882,"ifiziert":13883,"Cha":13884,"wiederum":13885,"proportion":13886,"Hilfs":13887,"significantly":13888,"befassen":13889,"compensation":13890,"leisure":13891,"websites":13892,"Gleichgewicht":13893,"Atom":13894,"reject":13895,"ffend":13896,"igence":13897,"Update":13898,"sparte":13899,"bek":13900,"Schloss":13901,"bedrooms":13902,"finding":13903,"anerkannt":13904,"vess":13905,"iern":13906,"Gesicht":13907,"Monte":13908,"genauso":13909,"heber":13910,"konkreten":13911,"äten":13912,"geiz":13913,"appeared":13914,"caf":13915,"streets":13916,"drop":13917,"oples":13918,"Strategien":13919,"Dienstleistungs":13920,"vast":13921,"ahnen":13922,"trial":13923,"zielt":13924,"Bö":13925,"centres":13926,"Klasse":13927,"ès":13928,"Wachstums":13929,"maschinen":13930,"Erwachsen":13931,"aktive":13932,"Schwerpunkt":13933,"Norden":13934,"flüge":13935,"Browser":13936,"Einwanderung":13937,"holds":13938,"familiar":13939,"units":13940,"stellungs":13941,"Grundsätze":13942,"pfe":13943,"TE":13944,"enswert":13945,"regelmäß":13946,"zza":13947,"Et":13948,"helps":13949,"ispiele":13950,"Antworten":13951,"Technology":13952,"ст":13953,"Westen":13954,"Bör":13955,"Kn":13956,"Unterschied":13957,"iana":13958,"behörden":13959,"faced":13960,"Swed":13961,"umfassenden":13962,"Leitlinien":13963,"Geräte":13964,"Image":13965,"Hong":13966,"furniture":13967,"mur":13968,"subsidiar":13969,"Robert":13970,"ikas":13971,"Erwä":13972,"temperature":13973,"Verfügbarkeit":13974,"Kat":13975,"Pen":13976,"Vielleicht":13977,"begrün":13978,"dinner":13979,"extension":13980,"enger":13981,"expectations":13982,"Voraussetzung":13983,"arrangements":13984,"sanctions":13985,"penal":13986,"dor":13987,"keines":13988,"historische":13989,"recognise":13990,"emphasis":13991,"Zusatz":13992,"geschäft":13993,"Allgemeinen":13994,"Fein":13995,"Küste":13996,"ema":13997,"Tibet":13998,"parallel":13999,"Urlau":14000,"Airbus":14001,"album":14002,"itime":14003,"weather":14004,"plicit":14005,"applicable":14006,"hostels":14007,"Plaza":14008,"orgt":14009,"Verträge":14010,"minuten":14011,"walls":14012,"uung":14013,"wichtiges":14014,"Whe":14015,"Ware":14016,"verbind":14017,"lair":14018,"dishes":14019,"gin":14020,"quarter":14021,"arische":14022,"Exe":14023,"grenzüberschreiten":14024,"cable":14025,"1991":14026,"metro":14027,"italienischen":14028,"yes":14029,"taxes":14030,"award":14031,"father":14032,"Gesam":14033,"comply":14034,"exists":14035,"drawing":14036,"Sanktionen":14037,"menschlichen":14038,"operators":14039,"straight":14040,"emphasise":14041,"atre":14042,"bud":14043,"entlang":14044,"wirt":14045,"beziehung":14046,"secret":14047,"BC":14048,"erheblich":14049,"Fahrzeug":14050,"1989":14051,"cycling":14052,"contrast":14053,"George":14054,"substances":14055,"relatively":14056,"ameras":14057,"gence":14058,"heil":14059,"Kategorie":14060,"fantastic":14061,"Pin":14062,"itar":14063,"umer":14064,"Welcome":14065,"fighting":14066,",\"":14067,"Szen":14068,"bike":14069,"resolve":14070,"discovered":14071,"hilft":14072,"bahnhof":14073,"herrscht":14074,"Fran":14075,"objects":14076,"Tagung":14077,"unmittelbar":14078,"amerikanische":14079,"verwalt":14080,"Elect":14081,"producing":14082,"winden":14083,"lebens":14084,"Genau":14085,"entered":14086,"dining":14087,"proud":14088,"thumb":14089,"Genehm":14090,"reflect":14091,"Maßnahme":14092,"bezug":14093,"unzu":14094,"sleep":14095,"wild":14096,"individuell":14097,"tags":14098,"deiner":14099,"carbon":14100,"PA":14101,"ischung":14102,"Frien":14103,"whatever":14104,"betrieben":14105,"lige":14106,"Bedien":14107,"servers":14108,"Frü":14109,"lobby":14110,"hoher":14111,"trotzdem":14112,"latter":14113,"Schulden":14114,"suffering":14115,"Safety":14116,"Empfehlung":14117,"refugees":14118,"cha":14119,"entschlossen":14120,"Sens":14121,"hlte":14122,"reserve":14123,"handling":14124,"gespielt":14125,"Dafür":14126,"lets":14127,"Heiz":14128,"institutionellen":14129,"healthy":14130,"appreciate":14131,"disaster":14132,"Vi":14133,"pill":14134,"afford":14135,"ilst":14136,"ziemlich":14137,"discharge":14138,"ermaßen":14139,"märkte":14140,"Polizei":14141,"Word":14142,"andels":14143,"Beifall":14144,"Direkt":14145,"funktionieren":14146,"danger":14147,"abling":14148,"affairs":14149,"Max":14150,"defend":14151,"künftig":14152,"zulegen":14153,"zugänglich":14154,"Rule":14155,"Farb":14156,"anner":14157,"Fremden":14158,"Materialien":14159,"uppen":14160,"windigkeit":14161,"confirmed":14162,"Ministers":14163,"MySQL":14164,"außergewöhn":14165,"recognised":14166,"stes":14167,"whilst":14168,"Inc":14169,"Balt":14170,"parlament":14171,"Studenten":14172,"reds":14173,"aught":14174,"Zwei":14175,"dramat":14176,"condemn":14177,"buchen":14178,"gather":14179,"entertainment":14180,"tragung":14181,"Schü":14182,"creative":14183,"personally":14184,"Dauer":14185,"curs":14186,"sem":14187,"produkte":14188,"Schnitt":14189,"thet":14190,"Wahrheit":14191,"rant":14192,"Beratung":14193,"Four":14194,"Konsequ":14195,"entdecken":14196,"ticket":14197,"Vision":14198,"Director":14199,"wissenschaftlichen":14200,"erhältlich":14201,"Landwirte":14202,"eröffnet":14203,"Brenn":14204,"Garantie":14205,"Umweltschutz":14206,"ancy":14207,"Weiß":14208,"involving":14209,"spectac":14210,"naturally":14211,"helped":14212,"Berufs":14213,"höhere":14214,"mobility":14215,"Sud":14216,"happens":14217,"retain":14218,"86":14219,"exc":14220,"ändler":14221,"Normen":14222,"renewable":14223,"trop":14224,"Edu":14225,"Anfragen":14226,"neter":14227,"List":14228,"zunehmend":14229,"enty":14230,"wesentliche":14231,"Regime":14232,"Strategy":14233,"kolle":14234,"usal":14235,"peoples":14236,",”":14237,"GNU":14238,"politicians":14239,"automatic":14240,"Papier":14241,"beauftrag":14242,"discip":14243,"Cho":14244,"journey":14245,"Lim":14246,"exclusively":14247,"schule":14248,"Like":14249,"berechtigt":14250,"dich":14251,"quellen":14252,"gänz":14253,"outdoor":14254,"kommerziel":14255,"GDP":14256,"repeat":14257,"falsch":14258,"valuable":14259,"drink":14260,"ère":14261,"österreich":14262,"fertig":14263,"LO":14264,"Erinner":14265,"wareness":14266,"Badezimmer":14267,"ops":14268,"USD":14269,"volume":14270,"castle":14271,"diseases":14272,"Soc":14273,"angehör":14274,"Viertel":14275,"uh":14276,"pieces":14277,"iary":14278,"Ferner":14279,"Eisenbahn":14280,"residence":14281,"Britain":14282,"Ambiente":14283,"opposed":14284,"Brand":14285,"streben":14286,"Ski":14287,"president":14288,"firstly":14289,"72":14290,"Temperatur":14291,"Swedish":14292,"beträgt":14293,"xy":14294,"Nachfrage":14295,"zusätzlichen":14296,"ießen":14297,"Kamera":14298,"lu":14299,"safeguard":14300,"loaded":14301,"Alb":14302,"Schweden":14303,"Boot":14304,"weltweiten":14305,"esch":14306,"conserv":14307,"liegenden":14308,"gold":14309,"ario":14310,"enthus":14311,"regen":14312,"Sund":14313,"privile":14314,"traff":14315,"beseit":14316,"interessiert":14317,"Typ":14318,"profile":14319,"kurr":14320,"Franc":14321,"exceptional":14322,"Copy":14323,"führende":14324,"herrschen":14325,"grundlegenden":14326,"meat":14327,"natürlichen":14328,"äumen":14329,"solve":14330,"Ohne":14331,"Einstellung":14332,"unktions":14333,"criticism":14334,"Meet":14335,"kontakt":14336,"Puer":14337,"Ungleich":14338,"Haup":14339,"kontrolle":14340,"besitzen":14341,"schönsten":14342,"coher":14343,"ikes":14344,"metal":14345,"sicherungs":14346,"sexual":14347,"Vorsitz":14348,"direkte":14349,"obtained":14350,"legte":14351,"schließt":14352,"kurzem":14353,"CON":14354,"schwierigen":14355,"beabsicht":14356,"Ungar":14357,"leaving":14358,"Agrarpolitik":14359,"Ret":14360,"courage":14361,"zentralen":14362,"password":14363,"gefördert":14364,"staatliche":14365,"ierend":14366,"Mall":14367,"anne":14368,"combating":14369,"Erwartungen":14370,"rational":14371,"teils":14372,"antly":14373,"BR":14374,"rev":14375,"Mittelpunkt":14376,"Bibliothe":14377,"künfte":14378,"Hindern":14379,"Kandidaten":14380,"ulted":14381,"disast":14382,"drücken":14383,"chap":14384,"determine":14385,"constructive":14386,"Kann":14387,"Ausgabe":14388,"offices":14389,"eigenes":14390,"reaching":14391,"chest":14392,"Bew":14393,"füllung":14394,"classic":14395,"millions":14396,"iest":14397,"reten":14398,"eds":14399,"Plug":14400,"passengers":14401,"DC":14402,"locations":14403,"Standort":14404,"Optim":14405,"kin":14406,"largely":14407,"involvement":14408,"ér":14409,"Umgang":14410,"deposit":14411,"faction":14412,"thorough":14413,"sauna":14414,"directives":14415,"Amts":14416,"ventionen":14417,"Wirklichkeit":14418,"mother":14419,"eyes":14420,"IX":14421,"ifor":14422,"installiert":14423,"Canada":14424,"EZ":14425,"hole":14426,"interessant":14427,"Alternative":14428,"Proced":14429,"privat":14430,"niemals":14431,"mandate":14432,"protecting":14433,"Croatia":14434,"battle":14435,"udes":14436,"Veranstaltung":14437,"büro":14438,"ethnic":14439,"schnelle":14440,"parks":14441,"gelang":14442,"removed":14443,"einerseits":14444,"Bucht":14445,"acquis":14446,"Mut":14447,"Sym":14448,"obstac":14449,"Feuer":14450,"Vene":14451,"mu":14452,"serves":14453,"bildungs":14454,"impressive":14455,"Luxembourg":14456,"zweifellos":14457,"sehe":14458,"Beispiele":14459,"universal":14460,"View":14461,"zuerst":14462,"gewonnen":14463,"usern":14464,"treaty":14465,"hervorragende":14466,"entwickelten":14467,"Bauern":14468,"Kapaz":14469,"neuesten":14470,"plause":14471,"owner":14472,"weshalb":14473,"Garden":14474,"verändern":14475,"inzwischen":14476,"verändert":14477,"Japanese":14478,"ruhig":14479,"Geträn":14480,"sinnvoll":14481,"durchzuführen":14482,"präz":14483,"spanischen":14484,"amounts":14485,"Town":14486,"tap":14487,"onomie":14488,"BA":14489,"hlung":14490,"define":14491,"ausgezeichnete":14492,"anze":14493,"ville":14494,"Mur":14495,"auens":14496,"iva":14497,"stake":14498,"Entwicklungsländern":14499,"maintained":14500,"spür":14501,"strategies":14502,"gos":14503,"Mode":14504,"Aktien":14505,"UM":14506,"religiö":14507,"Anschluss":14508,"decorated":14509,"awareness":14510,"aufzunehmen":14511,"Angel":14512,"Stift":14513,"Verbesserungen":14514,"Strukturen":14515,"hoff":14516,"bele":14517,"iessen":14518,"proved":14519,"Anwendungs":14520,"56":14521,"Dusche":14522,"umping":14523,"officials":14524,"erweitert":14525,"TS":14526,"til":14527,"78":14528,"roof":14529,"Pia":14530,"einrichtungen":14531,"Anbieter":14532,"parents":14533,"Year":14534,"zir":14535,"Stahl":14536,"stron":14537,"kal":14538,"string":14539,"üg":14540,"Arme":14541,"ignor":14542,"päck":14543,"equally":14544,"Grad":14545,"newly":14546,"cancel":14547,"organizations":14548,"hi":14549,"weisung":14550,"orten":14551,"Spann":14552,"gor":14553,"achte":14554,"impression":14555,"bemüht":14556,"director":14557,"increases":14558,"Ferr":14559,"nischen":14560,"happening":14561,"chnen":14562,"lovely":14563,"hardware":14564,"verlangt":14565,"Ausstattung":14566,"nachzu":14567,"Blut":14568,"Kommunikations":14569,"Instead":14570,"terrorist":14571,"faith":14572,"lev":14573,"Befug":14574,"Ladies":14575,"ott":14576,"Plus":14577,"remote":14578,"kill":14579,"shad":14580,"charges":14581,"Hof":14582,"Marina":14583,"Washing":14584,"UNO":14585,"Küsten":14586,"issued":14587,"contributions":14588,"corded":14589,"beträcht":14590,"tedly":14591,"telefon":14592,"legungen":14593,"decis":14594,"rapporteurs":14595,"Zert":14596,"verhalten":14597,"finished":14598,"organized":14599,"depth":14600,"Bulgaria":14601,"takte":14602,"Krimin":14603,"sorgt":14604,"Earth":14605,"collective":14606,"Eis":14607,"Klar":14608,"preparation":14609,"ausgezeichneten":14610,"organisiert":14611,"tickets":14612,"Nahrungsmittel":14613,"andon":14614,"betreffenden":14615,"Cle":14616,"richtet":14617,"Prüf":14618,"Sauna":14619,"Edit":14620,"eral":14621,"Hohen":14622,"letzter":14623,"höchsten":14624,"kostet":14625,"James":14626,"contracts":14627,"gehoben":14628,"erstre":14629,"Nein":14630,"Geschle":14631,"Kroat":14632,"viet":14633,"ausgesprochen":14634,"pattern":14635,"Websites":14636,"reported":14637,"Brasil":14638,"wachstum":14639,"precise":14640,"ursprünglichen":14641,"navig":14642,"creates":14643,"erinner":14644,"seat":14645,"Rock":14646,"liberalisation":14647,"norm":14648,"requirement":14649,"Bett":14650,"restrictions":14651,"52":14652,"IE":14653,"Award":14654,"infr":14655,"inhabit":14656,"idden":14657,"Thomas":14658,"kurze":14659,"grundlegende":14660,"prohib":14661,"remaining":14662,"habt":14663,"behörde":14664,"flag":14665,"ipel":14666,"umzusetzen":14667,"accompan":14668,"Abkommens":14669,"fällig":14670,"visa":14671,"wirkung":14672,"Überzeugung":14673,"gänge":14674,"westlichen":14675,"license":14676,"Schatten":14677,"Gesetzes":14678,"ody":14679,"balcony":14680,"Executive":14681,"sah":14682,"Bir":14683,"entscheidend":14684,"catalog":14685,"pm":14686,"doesn":14687,"connections":14688,"Zusätz":14689,"KMU":14690,"avec":14691,"Sad":14692,"Armen":14693,"kette":14694,"starten":14695,"Their":14696,"debates":14697,"dienste":14698,"Steuern":14699,"abroad":14700,"angebot":14701,"characteristics":14702,"Anton":14703,"roads":14704,"Angst":14705,"berge":14706,"renovated":14707,"Wa":14708,"artist":14709,"Law":14710,"Jedes":14711,"zöger":14712,"brid":14713,"Übersetzung":14714,"Polish":14715,"plen":14716,"Ausstellung":14717,"produziert":14718,"Food":14719,"Punkten":14720,"advoc":14721,"wirklichen":14722,"detaill":14723,"volunt":14724,"Framework":14725,"resolved":14726,"Vater":14727,"musste":14728,"-/":14729,"returned":14730,"Fair":14731,"opinions":14732,"Bestellung":14733,"Nahen":14734,"witness":14735,"depends":14736,"schirm":14737,"bach":14738,"anwes":14739,"alts":14740,"operational":14741,"messages":14742,"58":14743,"ogen":14744,"ativer":14745,"deter":14746,"icon":14747,"Ausgangspunkt":14748,"cab":14749,"geboten":14750,"veran":14751,"Problems":14752,"surroundings":14753,"cutting":14754,"dritte":14755,"beizu":14756,"Harmonisierung":14757,"ismen":14758,"unicip":14759,"itag":14760,"vollständige":14761,"Client":14762,"Washington":14763,"57":14764,"Verfassungs":14765,"abgelehnt":14766,"fab":14767,"pel":14768,"twent":14769,"spekt":14770,"werb":14771,"resolutions":14772,"VER":14773,"ceeded":14774,"Budap":14775,"identify":14776,"Vice":14777,"bemer":14778,"Projekten":14779,"collect":14780,"solar":14781,"aktivieren":14782,"92":14783,"Edition":14784,"Wild":14785,"anschließen":14786,"ofin":14787,"youth":14788,"CA":14789,"eins":14790,"künftigen":14791,"Mobile":14792,"Tschech":14793,"geprä":14794,"acting":14795,"wettbewerbs":14796,"certainty":14797,"Abschnitt":14798,"Übereinstimmung":14799,"intend":14800,"eingeschränkt":14801,"HTML":14802,"splätzen":14803,"51":14804,"Rent":14805,"Baby":14806,"vergleich":14807,"Sco":14808,"Farbe":14809,"Space":14810,"recommendation":14811,"regularly":14812,"Hostelsclub":14813,"DN":14814,"hart":14815,"übernimmt":14816,"continent":14817,"bottom":14818,"inations":14819,"layer":14820,"entdeck":14821,"defe":14822,"ausgeschlossen":14823,"Friday":14824,"Congress":14825,"itäre":14826,"WLAN":14827,"scr":14828,"Hans":14829,"anstatt":14830,"verursacht":14831,"kohol":14832,"topic":14833,"ittees":14834,"Gentoo":14835,"erlauben":14836,"BSE":14837,"DO":14838,"traditions":14839,"gewinn":14840,"burger":14841,"properties":14842,"Phone":14843,"bekämpfen":14844,"verschiedener":14845,"IK":14846,"eu":14847,"lounge":14848,"gratulieren":14849,"schätzung":14850,"arma":14851,"Legal":14852,"Agricult":14853,"Gestaltung":14854,"definitely":14855,"forschung":14856,"fordere":14857,"Himm":14858,"aufen":14859,"riesigen":14860,"schef":14861,"Konsens":14862,"Festlegung":14863,"reiz":14864,"aufgefordert":14865,"günstig":14866,"reichung":14867,"fehlt":14868,"Entscheidungs":14869,"festival":14870,"Balkon":14871,"ipt":14872,"dary":14873,"understood":14874,"Camping":14875,"Indones":14876,"kommunik":14877,"dia":14878,"uier":14879,"stamm":14880,"Geheim":14881,"planet":14882,"regulatory":14883,"Planung":14884,"perfekt":14885,"Maastr":14886,"Einheit":14887,"Rumänien":14888,"lit":14889,"Fähigkeiten":14890,"involve":14891,"Behinder":14892,"reserves":14893,"Krankheiten":14894,"lautet":14895,"Balkan":14896,"Procedure":14897,"verbesser":14898,"intent":14899,"ighten":14900,"MEPs":14901,"Ratspräsidentschaft":14902,"Late":14903,"driver":14904,"joined":14905,"performed":14906,"langsam":14907,"kö":14908,"conflicts":14909,"ateful":14910,"Konto":14911,"divided":14912,"sq":14913,"amaz":14914,"ungefähr":14915,"inflation":14916,"Krie":14917,"ruct":14918,"auftreten":14919,"diagno":14920,"zne":14921,"ales":14922,"customs":14923,"komme":14924,"Glauben":14925,"ampions":14926,"Verbindungen":14927,"freiwill":14928,"Hen":14929,"stab":14930,"facilitate":14931,"Kilometer":14932,"Road":14933,"Spaz":14934,"connect":14935,"ifications":14936,"annehmen":14937,"interior":14938,"Vorschlägen":14939,"transportation":14940,"projekt":14941,"Änderungsanträgen":14942,"reveal":14943,"gol":14944,"frequently":14945,"gewissen":14946,"genehm":14947,"Ausführungen":14948,"ziplin":14949,"module":14950,"traum":14951,"focused":14952,"Ersatz":14953,"angesehen":14954,"schauen":14955,"vacation":14956,"td":14957,"Read":14958,"Ausführung":14959,"Struct":14960,"Buchung":14961,"clubs":14962,"conducted":14963,"ield":14964,"wald":14965,"vig":14966,"én":14967,"inos":14968,"Fu":14969,"cohol":14970,"Drittländern":14971,"zustand":14972,"Mitgliedschaft":14973,"erwähn":14974,"channel":14975,"suites":14976,"comed":14977,"fac":14978,"einzigartige":14979,"Equ":14980,"stars":14981,"Kabel":14982,"supposed":14983,"gefallen":14984,"2012":14985,"Verring":14986,"northern":14987,"career":14988,"Komponenten":14989,"GM":14990,"klaren":14991,"Monetary":14992,"Viet":14993,"Access":14994,"teams":14995,"heating":14996,"hundreds":14997,"hervorheben":14998,"alarm":14999,"schätzen":15000,"Anwen":15001,"Taiwan":15002,"Emissionen":15003,"Cyprus":15004,"Programmen":15005,"Philosop":15006,"kans":15007,"gele":15008,"conciliation":15009,"Partnern":15010,"Kommun":15011,"realistic":15012,"austausch":15013,"Noch":15014,"Sonne":15015,"drug":15016,"schwed":15017,"Michel":15018,"parliaments":15019,"üssen":15020,"ani":15021,"Konzer":15022,"somewhat":15023,"printing":15024,"lists":15025,"zugunsten":15026,"phenomen":15027,"dim":15028,"sac":15029,"spieler":15030,"Protection":15031,"doors":15032,"verwe":15033,"iron":15034,"aktiven":15035,"Tatsächlich":15036,"toile":15037,"Kontext":15038,"wirtschaftlicher":15039,"worse":15040,"beschränkt":15041,"Haft":15042,"CF":15043,"Liter":15044,"paläst":15045,"fing":15046,"abandon":15047,"gestaltet":15048,"nut":15049,"Urspr":15050,"Cer":15051,"ource":15052,"hostel":15053,"bart":15054,"UNG":15055,"Automobil":15056,"ministers":15057,"kurzen":15058,"Geschäfte":15059,"Hon":15060,"irs":15061,"updated":15062,"studio":15063,"notwendige":15064,"poten":15065,"displayed":15066,"settings":15067,"inser":15068,"derung":15069,"Soft":15070,"uese":15071,"islands":15072,"urg":15073,"Gegend":15074,"pg":15075,"bewält":15076,"upper":15077,"Schlafzimmer":15078,"atom":15079,"pharma":15080,"follows":15081,"personnel":15082,"depending":15083,"Page":15084,"emergency":15085,"Tenn":15086,"ror":15087,"lichem":15088,"productive":15089,"dt":15090,"radi":15091,"füllen":15092,"izer":15093,"Tarif":15094,"Schrift":15095,"zuständigen":15096,"Guide":15097,"faster":15098,"kontinuier":15099,"trages":15100,"deutsch":15101,"minority":15102,"deals":15103,"woman":15104,"palästinens":15105,"iebs":15106,"sou":15107,"Erholung":15108,"nachhaltigen":15109,"kultur":15110,"elles":15111,"firms":15112,"heat":15113,"uds":15114,"beglückwünschen":15115,"remark":15116,"noted":15117,"sichere":15118,"ograf":15119,"Entwicklungsländer":15120,"orca":15121,"54":15122,"Är":15123,"angehen":15124,"windows":15125,"correctly":15126,"ultimately":15127,"Stimmen":15128,"library":15129,"counting":15130,"Arbeitsplätzen":15131,"anspruchs":15132,"ré":15133,"verwand":15134,"Plattform":15135,"früheren":15136,"spoken":15137,"71":15138,"waffen":15139,"edition":15140,"tery":15141,"techniques":15142,"Training":15143,"Alles":15144,"bestätigen":15145,"SMEs":15146,"tennis":15147,"durchführen":15148,"finish":15149,"demanding":15150,"chemical":15151,"Zentralbank":15152,"veränder":15153,"verdient":15154,"bestimmen":15155,"Mexico":15156,"schlägt":15157,"gespeichert":15158,"Werbung":15159,"iones":15160,"PO":15161,"liste":15162,"arab":15163,"outh":15164,"echten":15165,"mist":15166,"immers":15167,"ehrgeiz":15168,"verbringen":15169,"tagen":15170,"Beste":15171,"Vermögen":15172,"Wird":15173,"Subsid":15174,"Arbeitsplatz":15175,"arded":15176,"angemessene":15177,"Ziffer":15178,"derart":15179,"visited":15180,"theoret":15181,"ivals":15182,"stylish":15183,"judicial":15184,"mostly":15185,"но":15186,"orama":15187,"bezahlen":15188,"sodass":15189,"Sony":15190,"answers":15191,"tea":15192,"welfare":15193,"kir":15194,"versamm":15195,"Betre":15196,"Tax":15197,"partment":15198,"Semin":15199,"estel":15200,"zulassen":15201,"cash":15202,"1970":15203,"serviert":15204,"uropäischen":15205,"fäl":15206,"Prinzipien":15207,"({{":15208,"Games":15209,"Naz":15210,"hill":15211,"anke":15212,"verabschiedet":15213,"Israeli":15214,"expansion":15215,"conce":15216,"BIP":15217,"lined":15218,"Vill":15219,"Author":15220,"Mission":15221,"frame":15222,"federal":15223,"interessante":15224,"verbrauch":15225,"electricity":15226,"Cit":15227,"loyment":15228,"kas":15229,"Quark":15230,"BO":15231,"iegel":15232,"Deutschen":15233,"posing":15234,"bling":15235,"bilateral":15236,"intellectual":15237,"tor":15238,"VO":15239,"ussen":15240,"prin":15241,"Holiday":15242,"accompanied":15243,"nine":15244,"würdigkeit":15245,"Slovak":15246,"endung":15247,"außerordentlich":15248,"Trag":15249,"itts":15250,"drivers":15251,"geprüft":15252,"Plenum":15253,"zeichnis":15254,"schuld":15255,"Budapest":15256,"beschleun":15257,"Drittens":15258,"Vel":15259,"behavi":15260,"heritage":15261,"aw":15262,"kter":15263,"winning":15264,"valley":15265,"replace":15266,"züge":15267,"protocol":15268,"Kompetenz":15269,"starts":15270,"burn":15271,"iera":15272,"dorf":15273,"Gemeinde":15274,"Beziehung":15275,"aufnehmen":15276,"eastern":15277,"derartige":15278,"Alli":15279,"Schuld":15280,"Plat":15281,"chinesischen":15282,"imedia":15283,"grateful":15284,"Symbol":15285,"functioning":15286,"Außenpolitik":15287,"indicated":15288,"pollution":15289,"bay":15290,"Chair":15291,"invite":15292,"decre":15293,"Europol":15294,"viertel":15295,"Regierungskonferenz":15296,"Fehl":15297,"Investitions":15298,"Vereinbarungen":15299,"channels":15300,"geräte":15301,"ermut":15302,"root":15303,"Partners":15304,"entrance":15305,"effectiveness":15306,"Verringerung":15307,"lip":15308,"stem":15309,"arrive":15310,"Ado":15311,"Führer":15312,"crew":15313,"ns":15314,"unmöglich":15315,"iale":15316,"Dou":15317,"artet":15318,"ausend":15319,"rical":15320,"Sche":15321,"statistics":15322,"Redner":15323,"Luxus":15324,"lift":15325,"treiben":15326,"flights":15327,"films":15328,"Baltic":15329,"looked":15330,"durchschnitt":15331,"Funds":15332,"Polit":15333,"Aktual":15334,"Yes":15335,"ausschuß":15336,"diver":15337,"visiting":15338,"VAT":15339,"Kohäsion":15340,"ausgezeichnet":15341,"contacts":15342,"Dal":15343,"Dor":15344,"wines":15345,"delighted":15346,"succeed":15347,"tourists":15348,"uated":15349,"verhindert":15350,"Liby":15351,"ferner":15352,"Hostel":15353,"Whether":15354,"verleihen":15355,"kreis":15356,"department":15357,"Prague":15358,"wohnen":15359,"на":15360,"Gerichte":15361,"definiert":15362,"Optionen":15363,"functional":15364,"relaxation":15365,"Haftung":15366,"ausgesetzt":15367,"Ansprü":15368,"assend":15369,"widely":15370,"Kreuz":15371,"Dynam":15372,"Zyp":15373,"Wolf":15374,"Portuguese":15375,"Faktoren":15376,"magnific":15377,"cean":15378,"placement":15379,"scheinen":15380,"Einbeziehung":15381,"Abhäng":15382,"scheidet":15383,"Beiträge":15384,"Vietnam":15385,"Webseiten":15386,"Gründung":15387,"investors":15388,"Individ":15389,"melden":15390,"Werkzeug":15391,"catch":15392,"sorge":15393,"imposed":15394,"subsidies":15395,"maschine":15396,"Franz":15397,"dun":15398,"welchem":15399,"declaration":15400,"Freiheiten":15401,"intensiv":15402,"Lag":15403,"Block":15404,"theme":15405,"izza":15406,"involves":15407,"Veröffentlichung":15408,"Ess":15409,"jetz":15410,"direkten":15411,"Baum":15412,"bol":15413,"facts":15414,"amed":15415,"Asien":15416,"stehende":15417,"Adobe":15418,"Water":15419,"actively":15420,"Newsletter":15421,"Ltd":15422,"fitness":15423,"denkt":15424,"Einstellungen":15425,"Gesellschaften":15426,"supplement":15427,"Amerikan":15428,"maintaining":15429,"trafficking":15430,"signs":15431,"patient":15432,"appearance":15433,"Fast":15434,"GE":15435,"Verbot":15436,"dark":15437,"inhabitants":15438,"coal":15439,"virtual":15440,"Persön":15441,"afternoon":15442,"kurzfrist":15443,"entsteht":15444,"promises":15445,"speaker":15446,"israel":15447,"icans":15448,"rechtliche":15449,"IDS":15450,"verehrte":15451,"Besonders":15452,"exciting":15453,"uries":15454,"Beam":15455,"Verpack":15456,"Prop":15457,"erreichbar":15458,"Schweizer":15459,"Fleisch":15460,"commission":15461,"confer":15462,"competent":15463,"kg":15464,"stored":15465,"bindet":15466,"attend":15467,"explore":15468,"Us":15469,"ports":15470,"corresponding":15471,"parad":15472,"Charta":15473,"wünsch":15474,"abgestimmt":15475,"sozi":15476,"showing":15477,"chr":15478,"passiert":15479,"wollten":15480,"gardens":15481,"pole":15482,"cosy":15483,"beeindruck":15484,"Kräfte":15485,"collaboration":15486,"sugar":15487,"corruption":15488,"begrüßt":15489,"accident":15490,"Able":15491,"Copenhagen":15492,"fla":15493,"gezwungen":15494,"Orte":15495,"careful":15496,"Subsidiar":15497,"erleich":15498,"Tech":15499,"lan":15500,"Wünsche":15501,"Verfahrens":15502,"demonstrated":15503,"alcohol":15504,"itors":15505,"ibar":15506,"Bemerkungen":15507,"ausgeführt":15508,"oured":15509,"newsp":15510,"passenger":15511,"Network":15512,"59":15513,"Moz":15514,"transition":15515,"Vize":15516,"demonstrate":15517,"Line":15518,"input":15519,"ifies":15520,"fohlen":15521,"effektiv":15522,"Distribution":15523,"Nos":15524,"isses":15525,"SAP":15526,"geäuß":15527,"autonom":15528,"geltenden":15529,"oni":15530,"akte":15531,"Milch":15532,"grenzung":15533,"Kaffee":15534,"frem":15535,"quot":15536,"voran":15537,"committees":15538,"erging":15539,"Pact":15540,"copyright":15541,"VP":15542,"kamen":15543,"53":15544,"rechen":15545,"Apple":15546,"Identität":15547,"Mobilität":15548,"erleichtern":15549,"fasst":15550,"muse":15551,"pekt":15552,"sorgfältig":15553,"licens":15554,"mung":15555,"Vorbe":15556,"Event":15557,"rohung":15558,"spannung":15559,"Indian":15560,"proven":15561,"Einwohner":15562,"Neue":15563,"münd":15564,"configuration":15565,"wiegen":15566,
[...]
