{"[PAD]":0,"[SOS]":1,"[EOS]":2,"[UNK]":3,"[MASK]":4,"!":5,"#":6,"$":7,"%":8,"&":9,"(":10,")":11,"*":12,"+":13,",":14,"-":15,".":16,"/":17,"0":18,"1":19,"2":20,"3":21,"4":22,"5":23,"6":24,"7":25,"8":26,"9":27,":":28,";":29,"=":30,"?":31,"@":32,"A":33,"B":34,"C":35,"D":36,"E":37,"F":38,"G":39,"H":40,"I":41,"J":42,"K":43,"L":44,"M":45,"N":46,"O":47,"P":48,"Q":49,"R":50,"S":51,"T":52,"U":53,"V":54,"W":55,"X":56,"Y":57,"Z":58,"\\":59,"_":60,"a":61,"b":62,"c":63,"d":64,"e":65,"f":66,"g":67,"h":68,"i":69,"j":70,"k":71,"l":72,"m":73,"n":74,"o":75,"p":76,"q":77,"r":78,"s":79,"t":80,"u":81,"v":82,"w":83,"x":84,"y":85,"z":86,"{":87,"}":88,"~":89,"£":90,"¤":91,"§":92,"©":93,"®":94,"°":95,"²":96,"¶":97,"·":98,"º":99,"¼":100,"Á":101,"Ã":102,"Ä":103,"É":104,"Ö":105,"Ü":106,"ß":107,"à":108,"á":109,"â":110,"ã":111,"ä":112,"å":113,"æ":114,"ç":115,"è":116,"é":117,"ê":118,"ë":119,"í":120,"î":121,"ï":122,"ð":123,"ñ":124,"ò":125,"ó":126,"ô":127,"ö":128,"ø":129,"ù":130,"ú":131,"ü":132,"ý":133,"ā":134,"ă":135,"ą":136,"ć":137,"Č":138,"č":139,"ę":140,"ě":141,"ğ":142,"ı":143,"ĺ":144,"ł":145,"ń":146,"ň":147,"ő":148,"ř":149,"ś":150,"ş":151,"Š":152,"š":153,"ż":154,"ž":155,"α":156,"β":157,"ε":158,"ι":159,"κ":160,"μ":161,"ν":162,"ο":163,"π":164,"ρ":165,"σ":166,"τ":167,"Г":168,"С":169,"а":170,"б":171,"в":172,"г":173,"д":174,"е":175,"ж":176,"з":177,"и":178,"й":179,"к":180,"л":181,"м":182,"н":183,"о":184,"п":185,"р":186,"с":187,"т":188,"у":189,"х":190,"ц":191,"ч":192,"ш":193,"ы":194,"ь":195,"ю":196,"я":197,"і":198,"ј":199,"ا":200,"•":201,"€":202,"™":203,"�":204,"en":205,"er":206,"in":207,"ch":208,"th":209,"an":210,"es":211,"on":212,"un":213,"is":214,"at":215,"it":216,"ie":217,"or":218,"al":219,"the":220,"re":221,"st":222,"ar":223,"der":224,"ich":225,"ion":226,"as":227,"ur":228,"le":229,"te":230,"and":231,"of":232,"ein":233,"ge":234,"ent":235,"to":236,"be":237,"de":238,"au":239,"und":240,"om":241,"ung":242,"ing":243,"die":244,"ro":245,"den":246,"el":247,"wi":248,"ig":249,"ic":250,"ed":251,"ol":252,"am":253,"us":254,"im":255,"il":256,"ter":257,"ver":258,"for":259,"ten":260,"sch":261,"ot":262,"se":263,"ation":264,"zu":265,"op":266,"ab":267,"he":268,"ut":269,"ra":270,"we":271,"ies":272,"ist":273,"hr":274,"-@":275,"@-@":276,"em":277,"ul":278,"os":279,"ct":280,"ne":281,"ber":282,"qu":283,"gen":284,"lich":285,"ve":286,"ap":287,"ür":288,"icht":289,"all":290,"um":291,"isch":292,"das":293,"ier":294,"ir":295,"pro":296,"ke":297,"that":298,"con":299,"est":300,"omm":301,"ess":302,"are":303,"ach":304,"so":305,"auf":306,"wir":307,"von":308,"ce":309,"wer":310,"sp":311,"ad":312,"id":313,"wh":314,"ll":315,"In":316,"et":317,"für":318,"mit":319,"our":320,"ly":321,"kt":322,"ere":323,"ort":324,"eine":325,"if":326,"la":327,"des":328,"urop":329,"ck":330,"quot":331,"ind":332,"with":333,"tr":334,"The":335,"su":336,"pr":337,"ow":338,"aus":339,"dies":340,"ou":341,"Ver":342,"dem":343,"Europ":344,"af":345,"me":346,"iv":347,"ment":348,"ag":349,"ell":350,"ts":351,"men":352,"ate":353,"iss":354,"ha":355,"apos":356,"ay":357,"ex":358,"Un":359,"ungen":360,"gr":361,"nen":362,"ta":363,"ben":364,"ischen":365,"fr":366,"com":367,"co":368,"this":369,"lo":370,"00":371,"ien":372,"not":373,"res":374,"ze":375,"An":376,"Sie":377,"nicht":378,"sich":379,"ust":380,"art":381,"ity":382,"ges":383,"ive":384,"ho":385,"ma":386,"ant":387,"ers":388,"St":389,"ah":390,"end":391,"über":392,"Re":393,"werden":394,"ib":395,"än":396,"ann":397,"dass":398,"auch":399,"lie":400,"li":401,"ial":402,"ser":403,"by":404,"port":405,"have":406,"wor":407,"sen":408,"fa":409,"Die":410,"igen":411,"vor":412,"will":413,"uld":414,"wo":415,"ht":416,"Be":417,"pe":418,"its":419,"ern":420,"you":421,"fe":422,"tel":423,"oll":424,"ommiss":425,"da":426,"tz":427,"ik":428,"als":429,"iel":430,"du":431,"man":432,"hen":433,"wie":434,"ions":435,"Th":436,"mo":437,"no":438,"Europe":439,"ac":440,"was":441,"Sch":442,"We":443,"hal":444,"ther":445,"tra":446,"per":447,"ungs":448,"which":449,"ted":450,"ste":451,"has":452,"ommission":453,"..":454,"up":455,"Pro":456,"sind":457,"str":458,"form":459,"ident":460,"schaf":461,"from":462,"can":463,"age":464,"out":465,"fer":466,"einer":467,"wird":468,"En":469,"ip":470,"ard":471,"fü":472,"able":473,"hat":474,"inter":475,"do":476,"imm":477,"fen":478,"aben":479,"ug":480,"bei":481,"pos":482,"uss":483,"one":484,"ön":485,"ure":486,"je":487,"Par":488,"Er":489,"einen":490,"ische":491,"fin":492,"ger":493,"Ar":494,"ine":495,"enn":496,"pl":497,"ft":498,"iz":499,"bes":500,"cl":501,"od":502,"ise":503,"Au":504,"br":505,"ite":506,"unter":507,"err":508,"ament":509,"urch":510,"pol":511,"iten":512,"oder":513,"ang":514,"haben":515,"sh":516,"European":517,"hren":518,"ige":519,"zur":520,"ide":521,"ire":522,"Mit":523,"Ho":524,"sie":525,"ore":526,"po":527,"Pr":528,"also":529,"ass":530,"Aus":531,"200":532,"uns":533,"ally":534,"her":535,"ia":536,"ations":537,"war":538,"chen":539,"lichen":540,"part":541,"kön":542,"comp":543,"ction":544,"Ein":545,"Fr":546,"Wir":547,"ational":548,"ition":549,"mö":550,"ät":551,"ult":552,"ank":553,"hl":554,"dr":555,"aten":556,"ok":557,"dern":558,"nach":559,"ated":560,"gan":561,"spe":562,"ill":563,"reg":564,"che":565,"io":566,"ange":567,"ieren":568,"sten":569,"cht":570,"schaft":571,"Ge":572,"very":573,"ans":574,"og":575,"ice":576,"ob":577,"äs":578,"go":579,"Union":580,"gro":581,"stell":582,"ble":583,"alle":584,"ff":585,"Ich":586,"Se":587,"Das":588,"är":589,"iert":590,"cess":591,"ates":592,"your":593,"kann":594,"leg":595,"work":596,"dar":597,"vel":598,"EU":599,"ue":600,"ear":601,"yst":602,"rit":603,"einem":604,"hin":605,"ish":606,"ander":607,"durch":608,"wur":609,"keit":610,"elt":611,"tet":612,"ight":613,"Gr":614,"comm":615,"Vor":616,"pt":617,"Mr":618,"ord":619,"It":620,"ember":621,"ün":622,"coun":623,"können":624,"national":625,"weit":626,"Commission":627,"Ber":628,"ystem":629,"ub":630,"cre":631,"ign":632,"bo":633,"there":634,"Herr":635,"liche":636,"tim":637,"use":638,"ical":639,"more":640,"fre":641,"hre":642,"ast":643,"but":644,"now":645,"ken":646,"igh":647,"beit":648,"ame":649,"ome":650,"ommen":651,"ance":652,"pre":653,"mar":654,"would":655,"ör":656,"Ab":657,"ary":658,"ple":659,"sho":660,"üs":661,"ud":662,"sel":663,"chte":664,"ese":665,"ain":666,"heit":667,"ahr":668,"lic":669,"Ent":670,"been":671,"ak":672,"Le":673,"19":674,"This":675,"zum":676,"Europä":677,"pla":678,"land":679,"lin":680,"cial":681,"dis":682,"diese":683,"zen":684,"wä":685,"glich":686,"tre":687,"gel":688,"their":689,"any":690,"ile":691,"min":692,"bar":693,"Ges":694,"other":695,"gt":696,"Unter":697,"should":698,"ins":699,"ute":700,"Al":701,"chn":702,"nur":703,"Pres":704,"hand":705,"De":706,"av":707,"polit":708,"uch":709,"Es":710,"neh":711,"mer":712,"ens":713,"produ":714,"cr":715,"ents":716,"Der":717,"Kon":718,"prov":719,"way":720,"unser":721,"ner":722,"par":723,"soll":724,"act":725,"ong":726,"äsident":727,"new":728,"ase":729,"reich":730,"For":731,"ution":732,"noch":733,"Hotel":734,"must":735,"ück":736,"ierung":737,"teil":738,"dieser":739,"sol":740,"Dies":741,"ahl":742,"gram":743,"Kommission":744,"geb":745,"under":746,"net":747,"etz":748,"ful":749,"vie":750,"Sp":751,"ian":752,"countr":753,"...":754,"kon":755,"stand":756,"bere":757,"bet":758,"ktion":759,"fol":760,"ev":761,"who":762,"daß":763,"ely":764,"mehr":765,"mat":766,"Te":767,"gem":768,"tro":769,"own":770,"hn":771,"Co":772,"cent":773,"ded":774,"20":775,"President":776,"formation":777,"sein":778,"schen":779,"ces":780,"müs":781,"sit":782,"sup":783,"sta":784,"fore":785,"over":786,"Inter":787,"Präsident":788,"like":789,"aber":790,"ings":791,"ks":792,"cur":793,"year":794,"off":795,"they":796,"ments":797,"ities":798,"glie":799,"ual":800,"kl":801,"sib":802,"Auf":803,"wick":804,"müssen":805,"utz":806,"gre":807,"wurde":808,"Um":809,"anz":810,"gegen":811,"ty":812,"wenn":813,"ßen":814,"only":815,"system":816,"ef":817,"immer":818,"time":819,"leich":820,"Ma":821,"about":822,"get":823,"serv":824,"day":825,"kommen":826,"fl":827,"nah":828,"Reg":829,"assen":830,"stat":831,"olle":832,"lament":833,"Fra":834,"gesch":835,"amp":836,"need":837,"Mitglie":838,"Ze":839,"cts":840,"nis":841,"nehmen":842,"velop":843,"cy":844,"bie":845,"ph":846,"alt":847,"pres":848,"ced":849,"olog":850,"zw":851,"ütz":852,"sehr":853,"liament":854,"ack":855,"ious":856,"Parlament":857,"Mar":858,"führ":859,"oc":860,"cons":861,"ms":862,"hnen":863,"some":864,"these":865,"cil":866,"tell":867,"fir":868,"ität":869,"king":870,"10":871,"Member":872,"ied":873,"tain":874,"import":875,"ild":876,"ammen":877,"ative":878,"dire":879,"bis":880,"diesem":881,"sa":882,"ld":883,"det":884,"ater":885,"ause":886,"wen":887,"Men":888,"ket":889,"ors":890,"ichtig":891,"setz":892,"onder":893,"report":894,"tern":895,"ibt":896,"weiter":897,"usammen":898,"vers":899,"erson":900,"Bes":901,"best":902,"develop":903,"dif":904,"kte":905,"stit":906,"eines":907,"ular":908,"ustr":909,"such":910,"gu":911,"&#":912,"ility":913,"ateg":914,"atz":915,"ople":916,"Parliament":917,"ihre":918,"erg":919,"int":920,"Europäischen":921,"los":922,"my":923,"ures":924,"halten":925,"dam":926,"igkeit":927,"änd":928,"ific":929,"As":930,"Mitglied":931,"unden":932,"sche":933,"most":934,"gest":935,"many":936,"geben":937,"ctive":938,"viel":939,"möchte":940,"come":941,"iven":942,"rel":943,"Im":944,"oper":945,"entr":946,"Ne":947,"mal":948,"uß":949,"cle":950,"sub":951,"people":952,"into":953,"bal":954,"tho":955,"ient":956,"neu":957,"what":958,"well":959,"them":960,"bas":961,"ihr":962,"iden":963,"inv":964,"äl":965,"ism":966,"Jahr":967,"conom":968,"wel":969,"zeit":970,"iger":971,"mon":972,"ating":973,"arbeit":974,"ds":975,"just":976,"States":977,"international":978,"igt":979,"lau":980,"Zeit":981,"ices":982,"lung":983,"Über":984,"zie":985,"vo":986,"hier":987,"uropä":988,"pub":989,"stru":990,"mach":991,"Or":992,"countries":993,"dition":994,"fo":995,"isten":996,"cause":997,"ement":998,"por":999,"Con":1000,"vis":1001,"view":1002,"Me":1003,"hel":1004,"amen":1005,"techn":1006,"pen":1007,"Ch":1008,"So":1009,"zwe":1010,"than":1011,"och":1012,"Bericht":1013,"xt":1014,"ats":1015,"Frau":1016,"stellen":1017,"pon":1018,"were":1019,"ansp":1020,"ider":1021,"read":1022,"dec":1023,"Coun":1024,"polic":1025,"europä":1026,"itte":1027,"support":1028,"hol":1029,"Menschen":1030,"stütz":1031,"order":1032,"econom":1033,"room":1034,"eing":1035,"les":1036,"ail":1037,"important":1038,"son":1039,"gleich":1040,"ert":1041,"etzt":1042,"Tr":1043,"ieden":1044,"änder":1045,"wend":1046,"led":1047,"legen":1048,"dieses":1049,"partic":1050,"program":1051,"qual":1052,"incl":1053,"agre":1054,"when":1055,"bre":1056,"emp":1057,"Str":1058,"know":1059,"allen":1060,"cont":1061,"first":1062,"gibt":1063,"essen":1064,"vom":1065,"Council":1066,"Land":1067,"tschaft":1068,"ru":1069,"again":1070,"ory":1071,"deut":1072,"ards":1073,"propos":1074,"roug":1075,"ale":1076,"halb":1077,"ages":1078,"12":1079,"zwischen":1080,"oft":1081,"sible":1082,"US":1083,"enz":1084,"ele":1085,"lä":1086,"loc":1087,"Ger":1088,"bin":1089,"Mitgliedsta":1090,"make":1091,"Nach":1092,"rei":1093,"quest":1094,"hotel":1095,"ster":1096,"press":1097,"Entwick":1098,"hör":1099,"ließ":1100,"Pol":1101,"besonder":1102,"take":1103,"vent":1104,"ween":1105,"Fin":1106,"muss":1107,"halt":1108,"Zu":1109,"arge":1110,"gar":1111,"forder":1112,"ence":1113,"proble":1114,"ware":1115,"erv":1116,"bs":1117,"issen":1118,"istr":1119,"cour":1120,"fact":1121,"möglich":1122,"ights":1123,"ives":1124,"where":1125,"between":1126,"fra":1127,"sowie":1128,"Comm":1129,"thing":1130,"eng":1131,"gew":1132,"bed":1133,"Bere":1134,"set":1135,"bu":1136,"äch":1137,"world":1138,"He":1139,"his":1140,"main":1141,"gh":1142,"because":1143,"fort":1144,"unsere":1145,"ject":1146,"keine":1147,"All":1148,"wür":1149,"oh":1150,"see":1151,"Ihre":1152,"Produ":1153,"els":1154,"information":1155,"ural":1156,"uation":1157,"inn":1158,"Mitgliedstaaten":1159,"Fl":1160,"bst":1161,"ßer":1162,"ister":1163,"zial":1164,"mp":1165,"issu":1166,"Europa":1167,"line":1168,"Ihnen":1169,"Her":1170,"akt":1171,"Min":1172,"trag":1173,"bel":1174,"ital":1175,"Arbeit":1176,"ci":1177,"same":1178,"Art":1179,"here":1180,"Grund":1181,"rat":1182,"ous":1183,"cted":1184,"versch":1185,"If":1186,"organ":1187,"spr":1188,"right":1189,"Proble":1190,"finden":1191,"jed":1192,"nat":1193,"made":1194,"zahl":1195,"two":1196,"igung":1197,"bess":1198,"Zusammen":1199,"real":1200,"voll":1201,"ähr":1202,"öff":1203,"Wenn":1204,"sicher":1205,"unkt":1206,"clear":1207,"ionen":1208,"arr":1209,"icher":1210,"ink":1211,"sicht":1212,"years":1213,"bring":1214,"lag":1215,"ße":1216,"Ex":1217,"Rat":1218,"policy":1219,"dit":1220,"ler":1221,"anderen":1222,"wever":1223,"199":1224,"respon":1225,"brauch":1226,"good":1227,"every":1228,"Vorsch":1229,"sc":1230,"ting":1231,"even":1232,"llen":1233,"high":1234,"letz":1235,"ys":1236,"then":1237,"chten":1238,"Kr":1239,"ös":1240,"ständ":1241,"Br":1242,"prom":1243,"weise":1244,"being":1245,"num":1246,"ischer":1247,"throug":1248,"ko":1249,"wa":1250,"schließ":1251,"those":1252,"chä":1253,"unity":1254,"mittel":1255,"cept":1256,"nahmen":1257,"keiten":1258,"med":1259,"fall":1260,"Pl":1261,"uring":1262,"gemein":1263,"spre":1264,"Haus":1265,"diesen":1266,"public":1267,"effe":1268,"Mon":1269,"belie":1270,"welt":1271,"Bereich":1272,"uman":1273,"itik":1274,"währ":1275,"less":1276,"ument":1277,"There":1278,"market":1279,"ional":1280,"amil":1281,"urn":1282,"dann":1283,"ium":1284,"lang":1285,"may":1286,"last":1287,"isation":1288,"find":1289,"att":1290,"Des":1291,"bus":1292,"offen":1293,"cer":1294,"vir":1295,"stehen":1296,"beste":1297,"had":1298,"acht":1299,"deb":1300,"Diese":1301,"jo":1302,"wichtig":1303,"ited":1304,"isen":1305,"fahren":1306,"beg":1307,"zeich":1308,"innen":1309,"person":1310,"vern":1311,"particular":1312,"rest":1313,"wieder":1314,"On":1315,"damit":1316,"tem":1317,"how":1318,"aut":1319,"gener":1320,"trans":1321,"weil":1322,"present":1323,"differ":1324,"requ":1325,"Bo":1326,"gra":1327,"fach":1328,"ändern":1329,"Welt":1330,"process":1331,"lim":1332,"15":1333,"lish":1334,"conc":1335,"del":1336,"wurden":1337,"gehen":1338,"nung":1339,"habe":1340,"Ihr":1341,"ict":1342,"Ja":1343,"Sta":1344,"star":1345,"sure":1346,"ior":1347,"rag":1348,"trä":1349,"play":1350,"possible":1351,"say":1352,"wort":1353,"place":1354,"Hand":1355,"entlich":1356,"lage":1357,"Gro":1358,"wohl":1359,"air":1360,"economic":1361,"unserer":1362,"fun":1363,"stitution":1364,"wirtschaft":1365,"Europäische":1366,"ält":1367,"elle":1368,"Wo":1369,"You":1370,"chts":1371,"reichen":1372,"kr":1373,"No":1374,"Bür":1375,"used":1376,"ven":1377,"ters":1378,"iness":1379,"rent":1380,"val":1381,"aller":1382,"rif":1383,"jedoch":1384,"ick":1385,"ows":1386,"einz":1387,"wirk":1388,"ree":1389,"app":1390,"cor":1391,"ade":1392,"aum":1393,"lobal":1394,"ough":1395,"concern":1396,"incre":1397,"trol":1398,"Was":1399,"Gem":1400,"far":1401,"uro":1402,"tegr":1403,"prote":1404,"To":1405,"führen":1406,"30":1407,"human":1408,"Sicher":1409,"area":1410,"iti":1411,"ausge":1412,"Gen":1413,"System":1414,"fest":1415,"comple":1416,"point":1417,"sim":1418,"di":1419,"ellen":1420,"angen":1421,"neue":1422,"ath":1423,"after":1424,"Än":1425,"put":1426,"political":1427,"industr":1428,"Information":1429,"seine":1430,"ace":1431,"sondern":1432,"Fe":1433,"change":1434,"ants":1435,"lagen":1436,"richt":1437,"ith":1438,"Program":1439,"contin":1440,"hö":1441,"heute":1442,"gestell":1443,"alth":1444,"fund":1445,"help":1446,"want":1447,"eln":1448,"erst":1449,"itt":1450,"Unternehmen":1451,"Änder":1452,"Bar":1453,"ßnahmen":1454,"therefore":1455,"plic":1456,"lassen":1457,"access":1458,"through":1459,"grund":1460,"ince":1461,"uer":1462,"text":1463,"wert":1464,"fahr":1465,"mich":1466,"sur":1467,"000":1468,"Bet":1469,"does":1470,"tens":1471,"development":1472,"ready":1473,"transp":1474,"exper":1475,"ix":1476,"aur":1477,"Wie":1478,"bereits":1479,"appro":1480,"isp":1481,"rights":1482,"Ro":1483,"kle":1484,"ker":1485,"could":1486,"adt":1487,"level":1488,"satz":1489,"sollte":1490,"Ind":1491,"At":1492,"prof":1493,"Teil":1494,"provide":1495,"dat":1496,"europäischen":1497,"ganz":1498,"Man":1499,"number":1500,"against":1501,"raft":1502,"exam":1503,"great":1504,"50":1505,"var":1506,"govern":1507,"ability":1508,"Pre":1509,"loy":1510,"sign":1511,"icult":1512,"key":1513,"itä":1514,"pra":1515,"gung":1516,"kom":1517,"Entwicklung":1518,"utions":1519,"hist":1520,"ohne":1521,"Frage":1522,"within":1523,"ierte":1524,"ihrer":1525,"sollten":1526,"finan":1527,"avail":1528,"country":1529,"back":1530,"pect":1531,"neuen":1532,"selbst":1533,"fung":1534,"fle":1535,"much":1536,"zug":1537,"look":1538,"Am":1539,"Richt":1540,"ude":1541,"old":1542,"itz":1543,"tal":1544,"führt":1545,"einfach":1546,"offer":1547,"Jahren":1548,"open":1549,"ason":1550,"kun":1551,"Gemein":1552,"Mö":1553,"operation":1554,"Mo":1555,"oftware":1556,"viron":1557,"andere":1558,"both":1559,"sm":1560,"Wer":1561,"18":1562,"large":1563,"Daten":1564,"gent":1565,"ics":1566,"cap":1567,"ga":1568,"Ko":1569,"unterstütz":1570,"still":1571,"Leben":1572,"ierten":1573,"eigen":1574,"Chin":1575,"free":1576,"meas":1577,"ätz":1578,"ved":1579,"Bürger":1580,"immt":1581,"agement":1582,"que":1583,"position":1584,"Kom":1585,"group":1586,"lick":1587,"hop":1588,"woll":1589,"hlen":1590,"ros":1591,"down":1592,"denen":1593,"ulation":1594,"ests":1595,"fur":1596,"schn":1597,"inst":1598,"Is":1599,"priv":1600,"Part":1601,"grö":1602,"zwei":1603,"vironment":1604,"fä":1605,"posit":1606,"consider":1607,"ep":1608,"ask":1609,"social":1610,"machen":1611,"ffic":1612,"ator":1613,"liegt":1614,"hän":1615,"tow":1616,"different":1617,"fut":1618,"long":1619,"unt":1620,"luss":1621,"quality":1622,"sk":1623,"cit":1624,"bur":1625,"esen":1626,"without":1627,"bil":1628,"zeug":1629,"une":1630,"Ste":1631,"seit":1632,"schafts":1633,"ret":1634,"spec":1635,"kehr":1636,"geht":1637,"Kommiss":1638,"That":1639,"ctor":1640,"Mittel":1641,"eld":1642,"fern":1643,"arbe":1644,"sprechen":1645,"bietet":1646,"Bed":1647,"inner":1648,"verschieden":1649,"ctions":1650,"licher":1651,"believe":1652,"services":1653,"Fre":1654,"ux":1655,"komm":1656,"current":1657,"kten":1658,"But":1659,"Stand":1660,"Da":1661,"ittee":1662,"alten":1663,"power":1664,"too":1665,"az":1666,"gef":1667,"nahme":1668,"ways":1669,"ren":1670,"üh":1671,"dazu":1672,"ised":1673,"ision":1674,"global":1675,"require":1676,"ime":1677,"future":1678,"inc":1679,"already":1680,"eben":1681,"statt":1682,"rap":1683,"certain":1684,"available":1685,"viele":1686,"strateg":1687,"cord":1688,"könn":1689,"Dem":1690,"Internet":1691,"ship":1692,"11":1693,"besser":1694,"kes":1695,"besondere":1696,"Person":1697,"besch":1698,"jetzt":1699,"ivid":1700,"fil":1701,"aher":1702,"pass":1703,"bt":1704,"sor":1705,"think":1706,"cannot":1707,"ichte":1708,"Wor":1709,"thor":1710,"ispiel":1711,"chan":1712,"ists":1713,"ustom":1714,"mir":1715,"Möglich":1716,"Ziel":1717,"business":1718,"ves":1719,"member":1720,"let":1721,"today":1722,"met":1723,"ollow":1724,"Arbe":1725,"darauf":1726,"ize":1727,"gestellt":1728,"course":1729,"lif":1730,"93":1731,"ER":1732,"mb":1733,"atur":1734,"findet":1735,"disc":1736,"iver":1737,"Maßnahmen":1738,"service":1739,"amer":1740,"ktur":1741,"law":1742,"91":1743,"stellung":1744,"sehen":1745,"bau":1746,"legal":1747,"ienst":1748,"2009":1749,"Finanz":1750,"before":1751,"design":1752,"ritt":1753,"uf":1754,"employ":1755,"gut":1756,"ness":1757,"betr":1758,"ahmen":1759,"omen":1760,"nor":1761,"iß":1762,"recht":1763,"entwick":1764,"Tre":1765,"cing":1766,"kur":1767,"technolog":1768,"redu":1769,"uten":1770,"environment":1771,"row":1772,"Energ":1773,"klär":1774,"Res":1775,"Rahmen":1776,"denn":1777,"products":1778,"Commissioner":1779,"question":1780,"enter":1781,"curity":1782,"uck":1783,"Informationen":1784,"ismus":1785,"isl":1786,"opt":1787,"dafür":1788,"nisse":1789,"integr":1790,"okrat":1791,"neg":1792,"ically":1793,"invest":1794,"mor":1795,"anken":1796,"pf":1797,"agen":1798,"seiner":1799,"har":1800,"imple":1801,"isk":1802,"suc":1803,"Med":1804,"ience":1805,"zus":1806,"red":1807,"schon":1808,"Russ":1809,"folg":1810,"case":1811,"ving":1812,"issue":1813,"wissen":1814,"situation":1815,"arch":1816,"imin":1817,"special":1818,"Fall":1819,"data":1820,"falls":1821,"einige":1822,"lossen":1823,"olution":1824,"debate":1825,"EN":1826,"fast":1827,"jor":1828,"ately":1829,"Po":1830,"nam":1831,"ahre":1832,"bieten":1833,"gend":1834,"energ":1835,"verb":1836,"ante":1837,"citiz":1838,"Af":1839,"zentr":1840,"Herrn":1841,"saf":1842,"Com":1843,"cond":1844,"ues":1845,"bereit":1846,"nun":1847,"car":1848,"fully":1849,"gesam":1850,"Amer":1851,"begr":1852,"enth":1853,"Kommissar":1854,"Kin":1855,"financial":1856,"zusammen":1857,"Euro":1858,"Tra":1859,"spra":1860,"öl":1861,"rooms":1862,"necess":1863,"Lage":1864,"individ":1865,"problem":1866,"conf":1867,"reason":1868,"sam":1869,"ides":1870,"alen":1871,"leist":1872,"Serv":1873,"gress":1874,"nov":1875,"proposal":1876,"And":1877,"setzung":1878,"offers":1879,"follow":1880,"custom":1881,"liegen":1882,"ont":1883,"activ":1884,"meine":1885,"achie":1886,"Bei":1887,"meet":1888,"kunft":1889,"bl":1890,"fair":1891,"wach":1892,"page":1893,"stellt":1894,"würde":1895,"Politik":1896,"Qu":1897,"zurück":1898,"wollen":1899,"However":1900,"Ad":1901,"direct":1902,"said":1903,"hof":1904,"Verein":1905,"16":1906,"char":1907,"adv":1908,"ihren":1909,"sagen":1910,"uni":1911,"udget":1912,"illion":1913,"14":1914,"plan":1915,"cost":1916,"ziel":1917,"heiten":1918,"immung":1919,"ett":1920,"miss":1921,"regard":1922,"worden":1923,"Spe":1924,"ica":1925,"Rechts":1926,"äß":1927,"ible":1928,"heits":1929,"Eine":1930,"Aussch":1931,"example":1932,"Arbeits":1933,"grow":1934,"rie":1935,"ply":1936,"top":1937,"Für":1938,"iving":1939,"pay":1940,"steht":1941,"ually":1942,"antwort":1943,"means":1944,"bewer":1945,"Pal":1946,"bsite":1947,"haf":1948,"La":1949,"unseren":1950,"auto":1951,"ilt":1952,"Jahre":1953,"iele":1954,"cas":1955,"major":1956,"abil":1957,"folgen":1958,"Länder":1959,"verfü":1960,"hil":1961,"punkt":1962,"uding":1963,"count":1964,"nie":1965,"applic":1966,"allem":1967,"Best":1968,"waren":1969,"iter":1970,"pend":1971,"IN":1972,"gl":1973,"action":1974,"call":1975,"compet":1976,"Lös":1977,"inen":1978,"na":1979,"lose":1980,"isierung":1981,"ron":1982,"taken":1983,"ktionen":1984,"ward":1985,"kün":1986,"Kolle":1987,"amend":1988,"cell":1989,"stär":1990,"Our":1991,"hig":1992,"tun":1993,"small":1994,"ationen":1995,"ichter":1996,"With":1997,"äm":1998,"famil":1999,"legt":2000,"Proje":2001,"Vorschlag":2002,"ily":2003,"Lin":2004,"13":2005,"aupt":2006,"asse":2007,"during":2008,"Nor":2009,"since":2010,"schein":2011,"Unterstütz":2012,"bringen":2013,"author":2014,"iff":2015,"ensure":2016,"using":2017,"Parlaments":2018,"struct":2019,"equ":2020,"based":2021,"China":2022,"wes":2023,"Und":2024,"measures":2025,"cken":2026,"eas":2027,"allow":2028,"mus":2029,"Ant":2030,"ffen":2031,"common":2032,"agreement":2033,"oren":2034,"thank":2035,"discuss":2036,"Zwe":2037,"defin":2038,"sozial":2039,"Recht":2040,"modern":2041,"energy":2042,"wicht":2043,"ying":2044,"Änderungs":2045,"erhalten":2046,"citizens":2047,"Zimmer":2048,"ential":2049,"gangen":2050,"Stadt":2051,"sy":2052,"scheid":2053,"vi":2054,"ordin":2055,"etwas":2056,"während":2057,"build":2058,"schrif":2059,"doch":2060,"Ur":2061,"ound":2062,"conta":2063,"setzen":2064,"trib":2065,"leben":2066,"Fir":2067,"side":2068,"lungs":2069,"ding":2070,"success":2071,"arbeiten":2072,"control":2073,"road":2074,"give":2075,"AN":2076,"including":2077,"each":2078,"ürlich":2079,"utes":2080,"colle":2081,"hm":2082,"Techn":2083,"vote":2084,"bank":2085,"inde":2086,"Mein":2087,"Ser":2088,"linie":2089,"cult":2090,"further":2091,"25":2092,"dra":2093,"gehör":2094,"areas":2095,"Web":2096,"Su":2097,"necessary":2098,"tes":2099,"ased":2100,"ized":2101,"Unterstützung":2102,"col":2103,"hmen":2104,"log":2105,"aren":2106,"2010":2107,"city":2108,"hält":2109,"Geschä":2110,"specific":2111,"Durch":2112,"agt":2113,"ordnung":2114,"AT":2115,"stre":2116,"einmal":2117,"Markt":2118,"ca":2119,"Bild":2120,"rece":2121,"result":2122,"gesetzt":2123,"hope":2124,"ahn":2125,"spiel":2126,"ablish":2127,"legisl":2128,"security":2129,"verwen":2130,"problems":2131,"Verfü":2132,"sing":2133,"aid":2134,"24":2135,"Problem":2136,"next":2137,"insbesondere":2138,"unde":2139,"mil":2140,"IT":2141,"three":2142,"ache":2143,"porte":2144,"ird":2145,"utzen":2146,"atic":2147,"schaften":2148,"Qual":2149,"cho":2150,"außer":2151,"sum":2152,"Deb":2153,"UN":2154,"budget":2155,"Zusammenarbeit":2156,"earch":2157,"wish":2158,"ared":2159,"bede":2160,"Ländern":2161,"umf":2162,"verl":2163,"ersten":2164,"vention":2165,"lik":2166,"17":2167,"few":2168,"glichen":2169,"letzten":2170,"fts":2171,"EC":2172,"IS":2173,"why":2174,"kauf":2175,"Sit":2176,"pack":2177,"addition":2178,"opport":2179,"company":2180,"establish":2181,"zess":2182,"2008":2183,"Committee":2184,"Spiel":2185,"histor":2186,"gang":2187,"größ":2188,"ines":2189,"incip":2190,"ged":2191,"ES":2192,"genommen":2193,"dig":2194,"kä":2195,"stim":2196,"ichten":2197,"ditions":2198,"ules":2199,"cover":2200,"Mad":2201,"ining":2202,"ktiv":2203,"Deut":2204,"Sicherheit":2205,"health":2206,"New":2207,"tragen":2208,"Form":2209,"cooperation":2210,"lead":2211,"pat":2212,"Dar":2213,"pop":2214,"commun":2215,"Umwelt":2216,"lungen":2217,"whe":2218,"leicht":2219,"wal":2220,"dress":2221,"walt":2222,"princip":2223,"entlichen":2224,"glau":2225,"ements":2226,"spl":2227,"Rest":2228,"implement":2229,"inform":2230,"Bel":2231,"while":2232,"besteht":2233,"pract":2234,"lt":2235,"however":2236,"hap":2237,"ja":2238,"start":2239,"Dienst":2240,"invol":2241,"esse":2242,"Regierung":2243,"ext":2244,"streng":2245,"sequ":2246,"Beit":2247,"beim":2248,"markt":2249,"aurant":2250,"Group":2251,"Kunden":2252,"Fragen":2253,"systems":2254,"drei":2255,"umen":2256,"Ob":2257,"programm":2258,"öt":2259,"zept":2260,"fiel":2261,"given":2262,"Tag":2263,"ellschaft":2264,"igten":2265,"ises":2266,"Hin":2267,"treten":2268,"ierungs":2269,"jen":2270,"life":2271,"einge":2272,"tour":2273,"wäre":2274,"Ital":2275,"ning":2276,"Ir":2277,"wär":2278,"needs":2279,"protection":2280,"lay":2281,"örder":2282,"San":2283,"cially":2284,"zü":2285,"gaben":2286,"Organ":2287,"Gesch":2288,"bit":2289,"What":2290,"uc":2291,"itäten":2292,"uge":2293,"fte":2294,"cher":2295,"complete":2296,"lemen":2297,"ified":2298,"führung":2299,"Energie":2300,"region":2301,"book":2302,"shall":2303,"igin":2304,"licht":2305,"zo":2306,"Sol":2307,"rele":2308,"Ben":2309,"Kollegen":2310,"alled":2311,"mot":2312,"refer":2313,"ising":2314,"Hil":2315,"Bedeut":2316,"clos":2317,"consum":2318,"They":2319,"wendung":2320,"handelt":2321,"don":2322,"government":2323,"ialog":2324,"diff":2325,"rechte":2326,"sibility":2327,"ively":2328,"zieh":2329,"Stra":2330,"prü":2331,"muß":2332,"Flug":2333,"anal":2334,"spol":2335,"zeigt":2336,"Seite":2337,"Gu":2338,"atte":2339,"gether":2340,"100":2341,"exp":2342,"häng":2343,"compan":2344,"porteur":2345,"always":2346,"Mal":2347,"Ap":2348,"better":2349,"ader":2350,"asch":2351,"House":2352,"genau":2353,"Bedeutung":2354,"ichterstat":2355,"care":2356,"appe":2357,"stay":2358,"iet":2359,"ätze":2360,"iety":2361,"conne":2362,"eig":2363,"nal":2364,"initi":2365,"accept":2366,"Not":2367,"step":2368,"deren":2369,"bereich":2370,"ton":2371,"Ergeb":2372,"half":2373,"did":2374,"working":2375,"hang":2376,"Lis":2377,"interest":2378,"Vol":2379,"welche":2380,"dabei":2381,"Besch":2382,"politischen":2383,"poin":2384,"Entscheid":2385,"mult":2386,"reach":2387,"load":2388,"tradition":2389,"USA":2390,"Vertrag":2391,"pur":2392,"Eng":2393,"dren":2394,"programme":2395,"self":2396,"Eben":2397,"When":2398,"United":2399,"Mrs":2400,"ivil":2401,"production":2402,"ling":2403,"2007":2404,"full":2405,"bind":2406,"gabe":2407,"Community":2408,"Aber":2409,"rapporteur":2410,"große":2411,"respect":2412,"Bus":2413,"mm":2414,"Regel":2415,"druck":2416,"crit":2417,"kosten":2418,"elf":2419,"ina":2420,"ildren":2421,"seinen":2422,"Namen":2423,"kenn":2424,"Programm":2425,"recent":2426,"wirklich":2427,"trade":2428,"These":2429,"Auto":2430,"uter":2431,"state":2432,"bon":2433,"transport":2434,"mater":2435,"rän":2436,"Mus":2437,"ingungen":2438,"chäft":2439,"dom":2440,"stra":2441,"Verfügung":2442,"124":2443,"Port":2444,"ane":2445,"assung":2446,"ategor":2447,"Mil":2448,"located":2449,"bekann":2450,"großen":2451,"EUR":2452,"cks":2453,"Fraktion":2454,"centr":2455,"water":2456,"Strateg":2457,"Service":2458,"issues":2459,"träge":2460,"km":2461,"lad":2462,"Thema":2463,"difficult":2464,"deal":2465,"Staaten":2466,"exist":2467,"ww":2468,"low":2469,"Rom":2470,"Fun":2471,"daher":2472,"Gar":2473,"wide":2474,"Kinder":2475,"notwend":2476,"particularly":2477,"term":2478,"Schutz":2479,"word":2480,"together":2481,"account":2482,"Berichterstat":2483,"uft":2484,"kets":2485,"ross":2486,"Probleme":2487,"date":2488,"dan":2489,"itor":2490,"Seiten":2491,"Hier":2492,"AR":2493,"management":2494,"making":2495,"Tur":2496,"non":2497,"wee":2498,"davon":2499,"Fol":2500,"role":2501,"mut":2502,"näch":2503,"Kar":2504,"become":2505,"opp":2506,"ches":2507,"Möglichkeit":2508,"erforder":2509,"deta":2510,"clus":2511,"hy":2512,"Beispiel":2513,"whether":2514,"uments":2515,"gelegen":2516,"proje":2517,"Auch":2518,"tax":2519,"Lebens":2520,"darüber":2521,"extre":2522,"jeder":2523,"contrib":2524,"list":2525,"ention":2526,"Zug":2527,"iben":2528,"Famil":2529,"found":2530,"second":2531,"enten":2532,"ners":2533,"Wett":2534,"ose":2535,"CO":2536,"terms":2537,"reform":2538,"Zahl":2539,"reco":2540,"halts":2541,"vious":2542,"joy":2543,"research":2544,"proper":2545,"wand":2546,"ash":2547,"ikan":2548,"going":2549,"unterstützen":2550,"Fort":2551,"sever":2552,"bestimm":2553,"stud":2554,"aty":2555,"address":2556,"könnte":2557,"basis":2558,"Wahl":2559,"sector":2560,"iate":2561,"Gener":2562,"views":2563,"AS":2564,"fon":2565,"darf":2566,"ifen":2567,"hervor":2568,"oth":2569,"short":2570,"weisen":2571,"suchen":2572,"kommt":2573,"pers":2574,"carr":2575,"schied":2576,"40":2577,"Viel":2578,"guar":2579,"rad":2580,"commit":2581,"express":2582,"ums":2583,"instit":2584,"ölker":2585,"Zukunft":2586,"meiner":2587,"ocr":2588,"International":2589,"another":2590,"Frauen":2591,"material":2592,"tschafts":2593,"around":2594,"eigenen":2595,"Mill":2596,"kein":2597,"Weg":2598,"schnell":2599,"ziehen":2600,"kre":2601,"speak":2602,"alles":2603,"lichkeit":2604,"fect":2605,"fert":2606,"gegenüber":2607,"hoto":2608,"Weise":2609,"geord":2610,"ars":2611,"aim":2612,"enzen":2613,"children":2614,"benef":2615,"Ihrer":2616,"Kre":2617,"Software":2618,"iod":2619,"aff":2620,"Per":2621,"bild":2622,"conditions":2623,"profess":2624,"decision":2625,"üt":2626,"whole":2627,"vour":2628,"2000":2629,"weitere":2630,"women":2631,"Sk":2632,"kämp":2633,"lack":2634,"entfern":2635,"klar":2636,"gese":2637,"Als":2638,"inclu":2639,"politik":2640,"dist":2641,"matter":2642,"schließlich":2643,"sowohl":2644,"Air":2645,"wier":2646,"prior":2647,"site":2648,"stimmung":2649,"writ":2650,"industry":2651,"cut":2652,"org":2653,"Vers":2654,"schutz":2655,"sele":2656,"innov":2657,"Gegen":2658,"cel":2659,"Situation":2660,"sto":2661,"companies":2662,"burg":2663,"ieg":2664,"wegen":2665,"dings":2666,"install":2667,"igr":2668,"negot":2669,"blick":2670,"Produkt":2671,"local":2672,"xim":2673,"neten":2674,"ipt":2675,"Industr":2676,"Mehr":2677,"erreichen":2678,"Alle":2679,"frei":2680,"selves":2681,"gn":2682,"natürlich":2683,"auer":2684,"Wettbewer":2685,"guarante":2686,"scheiden":2687,"II":2688,"doc":2689,"personal":2690,"comes":2691,"Richtlinie":2692,"show":2693,"racht":2694,"create":2695,"coming":2696,"done":2697,"ultur":2698,"gesehen":2699,"light":2700,"geschlossen":2701,"espe":2702,"yo":2703,"frien":2704,"weg":2705,"improv":2706,"möchten":2707,"iges":2708,"ika":2709,"vest":2710,"month":2711,"Artik":2712,"anc":2713,"him":2714,"lauf":2715,"Forsch":2716,"cris":2717,"Ende":2718,"distr":2719,"typ":2720,"DE":2721,"ktor":2722,"cal":2723,"effect":2724,"Grup":2725,"besonders":2726,"Rolle":2727,"atten":2728,"gere":2729,"Zentr":2730,"automat":2731,"centre":2732,"isches":2733,"proced":2734,"ury":2735,"ody":2736,"hä":2737,"ihnen":2738,"regul":2739,"Fo":2740,"near":2741,"various":2742,"visit":2743,"approach":2744,"ban":2745,"user":2746,"innerhalb":2747,"abhäng":2748,"face":2749,"favour":2750,"job":2751,"ences":2752,"oney":2753,"Chr":2754,"zip":2755,"Minister":2756,"äuß":2757,"spolitik":2758,"demand":2759,"gegeben":2760,"amm":2761,"ably":2762,"Haupt":2763,"million":2764,"isions":2765,"60":2766,"especially":2767,"soc":2768,"hoch":2769,"dessen":2770,"beach":2771,"ief":2772,"geführt":2773,"ety":2774,"amework":2775,"ground":2776,"Afr":2777,"Verbrauch":2778,"äd":2779,"sprache":2780,"Fahr":2781,"Währ":2782,"experience":2783,"finanz":2784,"ativen":2785,"continue":2786,"break":2787,"befindet":2788,"verschiedenen":2789,"really":2790,"cording":2791,"origin":2792,"dür":2793,"project":2794,"hard":2795,"facil":2796,"product":2797,"Terr":2798,"Den":2799,"pose":2800,"ministr":2801,"crisis":2802,"equip":2803,"resolution":2804,"Schluss":2805,"post":2806,"third":2807,"Lie":2808,"rä":2809,"German":2810,"80":2811,"private":2812,"feat":2813,"head":2814,"Je":2815,"employment":2816,"IC":2817,"vielen":2818,"Bl":2819,"imp":2820,"internationalen":2821,"europäische":2822,"samen":2823,"Sy":2824,"instr":2825,"resour":2826,"Kol":2827,"hatte":2828,"Grün":2829,"understand":2830,"fficient":2831,"lines":2832,"trodu":2833,"entfernt":2834,"läs":2835,"progress":2836,"ende":2837,"run":2838,"Wirtschaft":2839,"ots":2840,"big":2841,"Wind":2842,"rop":2843,"food":2844,"Ausschuss":2845,"negoti":2846,"ons":2847,"ifiz":2848,"tag":2849,"War":2850,"dou":2851,"dort":2852,"serious":2853,"Geschäfts":2854,"oment":2855,"Berichterstatter":2856,"ization":2857,"communic":2858,"turn":2859,"though":2860,"Comp":2861,"directive":2862,"rael":2863,"called":2864,"represent":2865,"regional":2866,"sport":2867,"antrag":2868,"test":2869,"opin":2870,"Deutsch":2871,"Ihren":2872,"Meinung":2873,"ivers":2874,"ksam":2875,"kung":2876,"Transp":2877,"gentlemen":2878,"Wirtschafts":2879,"wind":2880,"2006":2881,"lock":2882,"software":2883,"something":2884,"lands":2885,"ifft":2886,"Char":2887,"Li":2888,"institution":2889,"frage":2890,"adop":2891,"version":2892,"Partner":2893,"ils":2894,"contra":2895,"introdu":2896,"My":2897,"period":2898,"itself":2899,"Tour":2900,"asing":2901,"TO":2902,"hinaus":2903,"Technolog":2904,"Uhr":2905,"welcome":2906,"draw":2907,"Gesund":2908,"Invest":2909,"single":2910,"iday":2911,"AL":2912,"genann":2913,"mäß":2914,"ances":2915,"ativ":2916,"ugen":2917,"zwar":2918,"schaffen":2919,"tele":2920,"anzu":2921,"rules":2922,"forward":2923,"Cl":2924,"Madam":2925,"ither":2926,"Fest":2927,"organis":2928,"ühr":2929,"kind":2930,"peace":2931,"ino":2932,"agr":2933,"general":2934,"urs":2935,"Rück":2936,"erste":2937,"ichtet":2938,"Nutz":2939,"atives":2940,"ago":2941,"fang":2942,"agree":2943,"läge":2944,"gern":2945,"excell":2946,"Kl":2947,"Lösung":2948,"close":2949,"gesagt":2950,"ols":2951,"direkt":2952,"RO":2953,"keep":2954,"name":2955,"Artikel":2956,"among":2957,"ierungen":2958,"ults":2959,"Dire":2960,"hlt":2961,"town":2962,"ließen":2963,"grat":2964,"El":2965,"mark":2966,"langu":2967,"optim":2968,"pa":2969,"werk":2970,"einzel":2971,"Ta":2972,"Komm":2973,"Abgeord":2974,"begrü":2975,"mos":2976,"nehmer":2977,"hät":2978,"often":2979,"Frei":2980,"house":2981,"ände":2982,"unehmen":2983,"table":2984,"terr":2985,"ichts":2986,"affen":2987,"strong":2988,"deli":2989,"ingen":2990,"Zusammenhang":2991,"Germany":2992,"bestehen":2993,"she":2994,"imate":2995,"ov":2996,"Gebie":2997,"Hilfe":2998,"folgt":2999,"several":3000,"ferenz":3001,"cke":3002,"mention":3003,"flex":3004,"ped":3005,"home":3006,"Präsidentin":3007,"Entschließ":3008,"subject":3009,"growth":3010,"institutions":3011,"Gleich":3012,"politische":3013,"Hotels":3014,"anges":3015,"event":3016,"AG":3017,"taking":3018,"ritte":3019,"Dr":3020,"least":3021,"vol":3022,"milit":3023,"entsprechen":3024,"wahr":3025,"zeitig":3026,"Demokrat":3027,"ived":3028,"towards":3029,"Fisch":3030,"online":3031,"TV":3032,"function":3033,"weis":3034,"igkeiten":3035,"ragen":3036,"individual":3037,"range":3038,"absol":3039,"gelegt":3040,"ours":3041,"Spra":3042,"Uns":3043,"network":3044,"Projekt":3045,"money":3046,"hnt":3047,"Pe":3048,"ians":3049,"AC":3050,"konn":3051,"Treaty":3052,"Dieses":3053,"idency":3054,"aussch":3055,"cript":3056,"leistungen":3057,"ets":3058,"Jan":3059,"Gä":3060,"ittle":3061,"Deshalb":3062,"leis":3063,"once":3064,"Verantwort":3065,"Do":3066,"extrem":3067,"particip":3068,"orn":3069,"increase":3070,"positive":3071,"Region":3072,"Ac":3073,"teilung":3074,"Car":3075,"beiden":3076,"Wasser":3077,"iere":3078,"Ele":3079,"iken":3080,"ffiz":3081,"following":3082,"opportunity":3083,"reicht":3084,"ival":3085,"World":3086,"sweise":3087,"away":3088,"field":3089,"flo":3090,"ican":3091,"Dis":3092,"Entwicklungs":3093,"standards":3094,"ote":3095,"enjoy":3096,"beh":3097,"Natur":3098,"Frank":3099,"stain":3100,"erien":3101,"idar":3102,"auen":3103,"Kü":3104,"wün":3105,"racy":3106,"halte":3107,"days":3108,"hler":3109,"Go":3110,"asst":3111,"dest":3112,"Produkte":3113,"IP":3114,"Haushalts":3115,"class":3116,"einander":3117,"weniger":3118,"Wes":3119,"daran":3120,"zogen":3121,"Emp":3122,"Red":3123,"technology":3124,"unserem":3125,"excellent":3126,"entscheiden":3127,"web":3128,"bitte":3129,"comfort":3130,"prochen":3131,"Sw":3132,"teilen":3133,"oun":3134,"Gre":3135,"Gemeinschaft":3136,"Stud":3137,"Members":3138,"macht":3139,"feel":3140,"price":3141,"forderungen":3142,"ification":3143,"Zust":3144,"partners":3145,"ünst":3146,"icle":3147,"illa":3148,"Klim":3149,"things":3150,"ones":3151,"Kosten":3152,"resources":3153,"grün":3154,"betre":3155,"fäh":3156,"pot":3157,"ference":3158,"mag":3159,"Sep":3160,"tlich":3161,"hunder":3162,"Bank":3163,"obje":3164,"Berlin":3165,"Fil":3166,"Park":3167,"proposals":3168,"AP":3169,"Date":3170,"gewähr":3171,"Kultur":3172,"uellen":3173,"zer":3174,"def":3175,"amendments":3176,"uses":3177,"bi":3178,"23":3179,"Bas":3180,"idence":3181,"isse":3182,"via":3183,"troll":3184,"21":3185,"Ru":3186,"ruck":3187,"framework":3188,"abo":3189,"groß":3190,"öffentlichen":3191,"prä":3192,"mean":3193,"foc":3194,"vier":3195,"lear":3196,"Punkt":3197,"brauchen":3198,"Personen":3199,"baren":3200,"utet":3201,"leisten":3202,"erwar":3203,"force":3204,"family":3205,"edom":3206,"Schl":3207,"raph":3208,"anim":3209,"little":3210,"signific":3211,"etc":3212,"leit":3213,"Initi":3214,"Span":3215,"seem":3216,"Stell":3217,"Verfahren":3218,"eded":3219,"amental":3220,"soci":3221,"reiche":3222,"ever":3223,"Bau":3224,"tage":3225,"Europas":3226,"Millionen":3227,"Abstimmung":3228,"host":3229,"kennen":3230,"lon":3231,"Jul":3232,"enden":3233,"gemacht":3234,"tember":3235,"verständ":3236,"ächlich":3237,"Aussprache":3238,"fragen":3239,"jähr":3240,"yet":3241,"erfolg":3242,"rather":3243,"olf":3244,"content":3245,"solution":3246,"elect":3247,"economy":3248,"until":3249,"indem":3250,"apart":3251,"aufge":3252,"quite":3253,"Verhand":3254,"known":3255,"sichtlich":3256,"Stru":3257,"gilt":3258,"gute":3259,"verbunden":3260,"greifen":3261,"ume":3262,"Israel":3263,"activities":3264,"Institution":3265,"location":3266,"might":3267,"Priv":3268,"persön":3269,"Dieser":3270,"ry":3271,"jeden":3272,"ideo":3273,"legislation":3274,"ently":3275,"ladies":3276,"2005":3277,"costs":3278,"Sozial":3279,"safety":3280,"ension":3281,"Zugang":3282,"sogar":3283,"Preis":3284,"vision":3285,"Erfahr":3286,"ckt":3287,"apan":3288,"anst":3289,"value":3290,"bare":3291,"unterstützt":3292,"öffentlich":3293,"ON":3294,"One":3295,"völker":3296,"Tür":3297,"zimmer":3298,"adopted":3299,"Pa":3300,"Ebene":3301,"National":3302,"points":3303,"Can":3304,"situ":3305,"Pat":3306,"mann":3307,"attra":3308,"standard":3309,"stimmen":3310,"Sü":3311,"Geld":3312,"demokrat":3313,"altung":3314,"tt":3315,"glaube":3316,"vert":3317,"sat":3318,"lei":3319,"challen":3320,"regel":3321,"round":3322,"Tats":3323,"State":3324,"educ":3325,"border":3326,"constru":3327,"rechts":3328,"gerade":3329,"appropr":3330,"mind":3331,"som":3332,"schl":3333,"ave":3334,"democr":3335,"ucht":3336,"remain":3337,"beral":3338,"Stre":3339,"einzu":3340,"etwa":3341,"ämlich":3342,"zeigen":3343,"manu":3344,"model":3345,"Kap":3346,"ebenfalls":3347,"Geb":3348,"mail":3349,"provided":3350,"request":3351,"September":3352,"mobil":3353,"agricult":3354,"meisten":3355,"effective":3356,"mess":3357,"Website":3358,"unterschied":3359,"ided":3360,"Nov":3361,"üssel":3362,"ison":3363,"opinion":3364,"nämlich":3365,"zunehmen":3366,"viol":3367,"raum":3368,"ght":3369,"Unsere":3370,"wahl":3371,"sichtig":3372,"ify":3373,"AD":3374,"staat":3375,"building":3376,"einigen":3377,"sour":3378,"Bezug":3379,"gestimmt":3380,"ric":3381,"Instr":3382,"eren":3383,"treat":3384,"haus":3385,"derzeit":3386,"object":3387,"Son":3388,"künft":3389,"dürfen":3390,"darin":3391,"photo":3392,"Bal":3393,"sty":3394,"win":3395,"2004":3396,"ring":3397,"inge":3398,"denken":3399,"After":3400,"members":3401,"prove":3402,"team":3403,"voted":3404,"words":3405,"kar":3406,"ideal":3407,"EL":3408,"front":3409,"include":3410,"Text":3411,"four":3412,"rate":3413,"Sel":3414,"laub":3415,"22":3416,"responsibility":3417,"iding":3418,"Verbraucher":3419,"context":3420,"bzw":3421,"iful":3422,"ager":3423,"nete":3424,"Abkommen":3425,"imes":3426,"teile":3427,"risk":3428,"Jahres":3429,"arbeitet":3430,"Qualität":3431,"stant":3432,"uen":3433,"results":3434,"pages":3435,"nationalen":3436,"policies":3437,"makes":3438,"concerned":3439,"week":3440,"relation":3441,"änger":3442,"za":3443,"recomm":3444,"tober":3445,"having":3446,"body":3447,"entire":3448,"times":3449,"Sou":3450,"CD":3451,"strategy":3452,"reserv":3453,"administr":3454,"left":3455,"importance":3456,"fordern":3457,"Wach":3458,"questions":3459,"Strategie":3460,"projects":3461,"70":3462,"freedom":3463,"betrifft":3464,"thod":3465,"len":3466,"attention":3467,"verkehr":3468,"Ort":3469,"Sal":3470,"staff":3471,"Sub":3472,"nichts":3473,"contact":3474,"provides":3475,"Benutz":3476,"minister":3477,"application":3478,"verbess":3479,"deutlich":3480,"fig":3481,"Dank":3482,"erklär":3483,"shop":3484,"Rei":3485,"Fortsch":3486,"lat":3487,"Mär":3488,"Janu":3489,"Rechte":3490,"Pos":3491,"mass":3492,"icial":3493,"zeichnet":3494,"ihn":3495,"laden":3496,"send":3497,"Design":3498,"website":3499,"wiesen":3500,"Op":3501,"telle":3502,"gratul":3503,"ständig":3504,"weiterhin":3505,"möglichen":3506,"environmental":3507,"Austr":3508,"keinen":3509,"bleiben":3510,"simply":3511,"ott":3512,"istan":3513,"Leist":3514,"cop":3515,"Rates":3516,"past":3517,"wärt":3518,"geschlagen":3519,"Änderungsan":3520,"Verbind":3521,"Bem":3522,"Fä":3523,"moder":3524,"forts":3525,"Kolleg":3526,"sites":3527,"Wh":3528,"autiful":3529,"iled":3530,"Dok":3531,"ona":3532,"OS":3533,"never":3534,"Organisation":3535,"Book":3536,"lease":3537,"greater":3538,"sollen":3539,"Beschäft":3540,"mosph":3541,"answer":3542,"others":3543,"unkte":3544,"easy":3545,"Nicht":3546,"check":3547,"zustellen":3548,"groups":3549,"ocracy":3550,"aktiv":3551,"Deutschland":3552,"beginn":3553,"oting":3554,"Disk":3555,"above":3556,"society":3557,"bour":3558,"komple":3559,"itionen":3560,"sal":3561,"structure":3562,"add":3563,"super":3564,"Prof":3565,"entliche":3566,"sof":3567,"ihm":3568,"zusätz":3569,"stum":3570,"mitt":3571,"Sitz":3572,"hip":3573,"ächst":3574,"drück":3575,"Che":3576,"seinem":3577,"wan":3578,"graph":3579,"increasing":3580,"wichtige":3581,"ented":3582,"ledge":3583,"gebung":3584,"along":3585,"Sicherheits":3586,"dell":3587,"Room":3588,"isiert":3589,"erziel":3590,"total":3591,"central":3592,"ampf":3593,"OR":3594,"Mail":3595,"wenig":3596,"aged":3597,"clearly":3598,"Gesetz":3599,"principle":3600,"benöt":3601,"Ter":3602,"ported":3603,"istic":3604,"ihrem":3605,"wirtschaftlichen":3606,"ging":3607,"kurz":3608,"Ansicht":3609,"onstr":3610,"utzt":3611,"Windows":3612,"bew":3613,"East":3614,"ders":3615,"bedeutet":3616,"hes":3617,"unächst":3618,"dien":3619,"came":3620,"overn":3621,"due":3622,"uell":3623,"minutes":3624,"Verkehr":3625,"Buch":3626,"significant":3627,"link":3628,"Hö":3629,"lot":3630,"leader":3631,"essential":3632,"hoffe":3633,"stu":3634,"sustain":3635,"Demokratie":3636,"Gäste":3637,"solche":3638,"ift":3639,"infl":3640,"würden":3641,"cli":3642,"cu":3643,"authorities":3644,"äre":3645,"Pra":3646,"verfahren":3647,"return":3648,"mechan":3649,"firm":3650,"trolle":3651,"gas":3652,"changes":3653,"Restaurant":3654,"deshalb":3655,"sug":3656,"27":3657,"heim":3658,"Bezieh":3659,"quick":3660,"terror":3661,"pool":3662,"ka":3663,"llt":3664,"schö":3665,"heart":3666,"method":3667,"Nä":3668,"schwer":3669,"Stat":3670,"Just":3671,"charac":3672,"uelle":3673,"PC":3674,"beautiful":3675,"ehr":3676,"Groß":3677,"Schul":3678,"forman":3679,"zehn":3680,"verein":3681,"iers":3682,"behalf":3683,"friend":3684,"unst":3685,"Umsetzung":3686,"griff":3687,"Ira":3688,"hörden":3689,"Fund":3690,"achieve":3691,"Bil":3692,"proposed":3693,"distrib":3694,"ana":3695,"ands":3696,"besten":3697,"nutzen":3698,"struktur":3699,"Sa":3700,"werde":3701,"Schwe":3702,"share":3703,"lange":3704,"extra":3705,"young":3706,"interess":3707,"arian":3708,"stadt":3709,"responsible":3710,"inten":3711,"zä":3712,"fish":3713,"setzt":3714,"Prozess":3715,"cir":3716,"2003":3717,"bung":3718,"termin":3719,"passen":3720,"funktion":3721,"aup":3722,"fundamental":3723,"Gesellschaft":3724,"Lo":3725,"Menschenrechte":3726,"offe":3727,"moment":3728,"required":3729,"assist":3730,"anten":3731,"Off":3732,"ichen":3733,"beispiel":3734,"internal":3735,"liches":3736,"nu":3737,"customers":3738,"vement":3739,"sei":3740,"Meer":3741,"teilt":3742,"technical":3743,"manufact":3744,"First":3745,"Klima":3746,"züglich":3747,"crimin":3748,"aging":3749,"Verbesser":3750,"nächsten":3751,"gebracht":3752,"Wel":3753,"Russia":3754,"ME":3755,"mals":3756,"prec":3757,"bro":3758,"related":3759,"currently":3760,"Betrie":3761,"Hol":3762,"solutions":3763,"lar":3764,"haltung":3765,"democracy":3766,"inzip":3767,"remo":3768,"Vorschläge":3769,"Kur":3770,"Netz":3771,"meeting":3772,"sea":3773,"safe":3774,"Verantwortung":3775,"amb":3776,"aud":3777,"Trans":3778,"gehört":3779,"anderer":3780,"Japan":3781,"richtig":3782,"Bevölker":3783,"frist":3784,"posed":3785,"perfect":3786,"training":3787,"affe":3788,"ama":3789,"Mor":3790,"Steuer":3791,"station":3792,"natural":3793,"Ziele":3794,"stück":3795,"schre":3796,"Industrie":3797,"Richtung":3798,"ators":3799,"neuer":3800,"hens":3801,"longer":3802,"ID":3803,"Opt":3804,"Daher":3805,"gliche":3806,"atal":3807,"Förder":3808,"tin":3809,"wirkungen":3810,"bekannt":3811,"ished":3812,"Von":3813,"platz":3814,"Herren":3815,"Vertr":3816,"iar":3817,"grup":3818,"bahn":3819,"needed":3820,"pflicht":3821,"stor":3822,"subs":3823,"198":3824,"berg":3825,"ames":3826,"länd":3827,"anced":3828,"Govern":3829,"corre":3830,"aden":3831,"Gl":3832,"auszu":3833,"itäts":3834,"umente":3835,"efforts":3836,"uz":3837,"notwendig":3838,"Apr":3839,"By":3840,"ref":3841,"fight":3842,"Struktur":3843,"continu":3844,"cure":3845,"ri":3846,"implementation":3847,"ene":3848,"cultural":3849,"Jahrhunder":3850,"enthalten":3851,"Wert":3852,"lö":3853,"commod":3854,"interests":3855,"unver":3856,"November":3857,"capital":3858,"rela":3859,"markets":3860,"boten":3861,"aufgrund":3862,"lab":3863,"May":3864,"gefähr":3865,"try":3866,"Erweiter":3867,"regulation":3868,"prevent":3869,"enough":3870,"Version":3871,"Aspe":3872,"happen":3873,"Parte":3874,"Sh":3875,"competit":3876,"Christ":3877,"allerdings":3878,"looking":3879,"democratic":3880,"ined":3881,"unge":3882,"board":3883,"ench":3884,"Anwendung":3885,"months":3886,"span":3887,"directly":3888,"How":3889,"competition":3890,"Erfolg":3891,"Sport":3892,"ses":3893,"Bedingungen":3894,"scheint":3895,"kei":3896,"civil":3897,"hib":3898,"spir":3899,"parties":3900,"danken":3901,"requirements":3902,"takt":3903,"holiday":3904,"apply":3905,"ßt":3906,"recogn":3907,"active":3908,"Interesse":3909,"uth":3910,"äsent":3911,"gemeinsamen":3912,"involved":3913,"fehl":3914,"Debatte":3915,"aurants":3916,"Außen":3917,"Cor":3918,"SE":3919,"file":3920,"Grundlage":3921,"etzen":3922,"regions":3923,"IM":3924,"Wohn":3925,"negotiations":3926,"Ide":3927,"chter":3928,"Tro":3929,"option":3930,"schluss":3931,"Please":3932,"Ihrem":3933,"Jo":3934,"betra":3935,"Angelegen":3936,"berück":3937,"volle":3938,"night":3939,"Erklär":3940,"Fern":3941,"vielleicht":3942,"äter":3943,"iellen":3944,"dy":3945,"messen":3946,"llig":3947,"normal":3948,"schwier":3949,"Verf":3950,"More":3951,"Mitarbeit":3952,"weder":3953,"Frieden":3954,"ulture":3955,"bevor":3956,"developed":3957,"fis":3958,"Inst":3959,"500":3960,"verwendet":3961,"Funktion":3962,"ites":3963,"hinder":3964,"gemeinsam":3965,"Krit":3966,"amo":3967,"modif":3968,"live":3969,"clar":3970,"stop":3971,"organisation":3972,"linien":3973,"Institutionen":3974,"foreign":3975,"zel":3976,"vorsch":3977,"erfü":3978,"yp":3979,"fün":3980,"mbH":3981,"ibility":3982,"General":3983,"Wieder":3984,"Tele":3985,"themselves":3986,"beispielsweise":3987,"Ju":3988,"Wort":3989,"Reihe":3990,"Schlussel":3991,"events":3992,"Foto":3993,"extremely":3994,"brit":3995,"Dam":3996,"please":3997,"April":3998,"fordert":3999,"Gebiet":4000,"merksam":4001,"Einsatz":4002,"freund":4003,"mand":4004,"ables":4005,"vorgeschlagen":4006,"unternehmen":4007,"disk":4008,"aper":4009,"Möglichkeiten":4010,"Entscheidung":4011,"bath":4012,"nimmt":4013,"cast":4014,"Integr":4015,"mob":4016,"according":4017,"farm":4018,"cases":4019,"tä":4020,"nature":4021,"Aktiv":4022,"könnten":4023,"Plan":4024,"hon":4025,"Mer":4026,"Far":4027,"andid":4028,"ada":4029,"erreicht":4030,"Kenn":4031,"Besuch":4032,"fairs":4033,"Änderungsantrag":4034,"camp":4035,"relev":4036,"developing":4037,"Außer":4038,"tar":4039,"RE":4040,"sozialen":4041,"hung":4042,"lex":4043,"ought":4044,"Selbst":4045,"alter":4046,"wider":4047,"umfassen":4048,"ball":4049,"peten":4050,"dev":4051,"appropriate":4052,"herr":4053,"Presidency":4054,"sitz":4055,"rup":4056,"stead":4057,"acc":4058,"Team":4059,"Doch":4060,"dialog":4061,"2001":4062,"prep":4063,"Real":4064,"unch":4065,"formance":4066,"actions":4067,"soon":4068,"kor":4069,"contain":4070,"Damen":4071,"weiß":4072,"separ":4073,"acy":4074,"Früh":4075,"Tages":4076,"GmbH":4077,"Pub":4078,"card":4079,"respe":4080,"seits":4081,"harmon":4082,"ermöglich":4083,"presented":4084,"funds":4085,"90":4086,"jeweil":4087,"standen":4088,"eth":4089,"ape":4090,"combin":4091,"monitor":4092,"erwä":4093,"richtung":4094,"improve":4095,"Proto":4096,"gesetz":4097,"thus":4098,"gleichen":4099,"Diskuss":4100,"hinzu":4101,"maxim":4102,"Öff":4103,"history":4104,"atch":4105,"minim":4106,"gemeinsame":4107,"Auswirkungen":4108,"moun":4109,"From":4110,"euro":4111,"item":4112,"Nähe":4113,"Heraus":4114,"Schritt":4115,"hab":4116,"climate":4117,"....":4118,"altern":4119,"charge":4120,"entwickelt":4121,"gelten":4122,"bra":4123,"lig":4124,"chem":4125,"depend":4126,"fel":4127,"states":4128,"Brit":4129,"denke":4130,"lied":4131,"previous":4132,"Verhandlungen":4133,"Sc":4134,"höch":4135,"ases":4136,"Druck":4137,"fortun":4138,"type":4139,"upon":4140,"true":4141,"ested":4142,"Zus":4143,"sucht":4144,"caus":4145,"Kön":4146,"indic":4147,"demonstr":4148,"allgem":4149,"bot":4150,"Unser":4151,"Insel":4152,"reib":4153,"erforderlich":4154,"Geschichte":4155,"kleinen":4156,"amt":4157,"Musik":4158,"itens":4159,"Ergebnis":4160,"helfen":4161,"held":4162,"anti":4163,"Mitglieder":4164,"music":4165,"achten":4166,"maintain":4167,"language":4168,"scho":4169,"Wissen":4170,"encour":4171,"character":4172,"additional":4173,"relax":4174,"Host":4175,"condition":4176,"Rechn":4177,"Nie":4178,"Mot":4179,"iner":4180,"atory":4181,"recommend":4182,"una":4183,"Liste":4184,"education":4185,"final":4186,"erhö":4187,"ctors":4188,"Cour":4189,"Verwalt":4190,"sus":4191,"prices":4192,"immed":4193,"facilities":4194,"istischen":4195,"AM":4196,"Bre":4197,"France":4198,"2002":4199,"expect":4200,"laim":4201,"ielle":4202,"ax":4203,"kra":4204,"weltweit":4205,"created":4206,"Inform":4207,"avo":4208,"entsch":4209,"achen":4210,"schriften":4211,"Du":4212,"arbeitung":4213,"fünf":4214,"Antwort":4215,"Apart":4216,"tats":4217,"initiative":4218,"itions":4219,"nehm":4220,"protect":4221,"yl":4222,"guests":4223,"phone":4224,"verschiedene":4225,"pict":4226,"Programme":4227,"licken":4228,"Änderungsanträge":4229,"analys":4230,"exten":4231,"seen":4232,"Hinblick":4233,"useum":4234,"onen":4235,"Nord":4236,"century":4237,"links":4238,"Abgeordneten":4239,"Kraft":4240,"Iran":4241,"befinden":4242,"Dienstleistungen":4243,"26":4244,"för":4245,"bisher":4246,"haps":4247,"document":4248,"either":4249,"isieren":4250,"idea":4251,"ermöglicht":4252,"commer":4253,"happ":4254,"suggest":4255,"Platz":4256,"Bü":4257,"Kunst":4258,"schie":4259,"unik":4260,"Agr":4261,"vic":4262,"Regionen":4263,"gesamten":4264,"ey":4265,"verfügt":4266,"resol":4267,"Kolleginnen":4268,"comb":4269,"Binnen":4270,"intens":4271,"ibr":4272,"actually":4273,"receive":4274,"getr":4275,"Dialog":4276,"ingt":4277,"gesellschaft":4278,"ürz":4279,"procedure":4280,"jenigen":4281,"Let":4282,"hout":4283,"Luft":4284,"akzept":4285,"angenommen":4286,"mel":4287,"Ausdruck":4288,"iffen":4289,"sound":4290,"Tatsache":4291,"hold":4292,"verantwort":4293,"Aug":4294,"impact":4295,"Tod":4296,"concerns":4297,"28":4298,"ano":4299,"Kle":4300,"bedeuten":4301,"erhe":4302,"zone":4303,"Raum":4304,"krä":4305,"ändert":4306,"workers":4307,"Handels":4308,"darum":4309,"effiz":4310,"Ris":4311,"ony":4312,"ceed":4313,"Terror":4314,"seite":4315,"einzelnen":4316,"mission":4317,"Blick":4318,"South":4319,"partner":4320,"space":4321,"Vertre":4322,"spielen":4323,"ebenso":4324,"enable":4325,"cies":4326,"Rad":4327,"ländern":4328,"almost":4329,"Paris":4330,"emphas":4331,"communication":4332,"works":4333,"www":4334,"fam":4335,"ilities":4336,"Forschung":4337,"gain":4338,"bildung":4339,"PL":4340,"colleag":4341,"rates":4342,"esten":4343,"strengthen":4344,"Außerdem":4345,"refle":4346,"adurch":4347,"fu":4348,"prim":4349,"majority":4350,"hatten":4351,"gegenwärt":4352,"users":4353,"living":4354,"Landes":4355,"Office":4356,"certainly":4357,"investment":4358,"Cas":4359,"everything":4360,"heiß":4361,"profit":4362,"kämpfung":4363,"restaurant":4364,"thre":4365,"sprech":4366,"wr":4367,"Krise":4368,"frü":4369,"ping":4370,"parts":4371,"Arch":4372,"ination":4373,"ausgest":4374,"Minuten":4375,"rieben":4376,"Beziehungen":4377,"bef":4378,"va":4379,"Turkey":4380,"Bereichen":4381,"fähigkeit":4382,"leistet":4383,"tack":4384,"cru":4385,"igration":4386,"Haushalt":4387,"CH":4388,"mitteln":4389,"Führ":4390,"ired":4391,"West":4392,"jud":4393,"abge":4394,"unique":4395,"wachsen":4396,"Seit":4397,"included":4398,"Net":4399,"gab":4400,"existing":4401,"relations":4402,"Vereinigten":4403,"hätte":4404,"chs":4405,"abon":4406,"center":4407,"American":4408,"internationale":4409,"Beitrag":4410,"leading":4411,"igungs":4412,"Portug":4413,"takes":4414,"keyword":4415,"hor":4416,"Kos":4417,"hend":4418,"mentioned":4419,"usst":4420,"enor":4421,"spräsident":4422,"Gruppe":4423,"Mob":4424,"ule":4425,"knowledge":4426,"Zum":4427,"unded":4428,"weiteren":4429,"accommod":4430,"French":4431,"designed":4432,"Gelegen":4433,"folge":4434,"lok":4435,"ffer":4436,"tion":4437,"cen":4438,"hinter":4439,"Wettbewerbs":4440,"guarantee":4441,"spricht":4442,"wichtigen":4443,"Har":4444,"Aufgabe":4445,"Türkei":4446,"doing":4447,"länder":4448,"formen":4449,"ond":4450,"situated":4451,"dict":4452,"dre":4453,"uren":4454,"Zur":4455,"five":4456,"genie":4457,"Will":4458,"Bevölkerung":4459,"parliament":4460,"vö":4461,"Up":4462,"aner":4463,"ception":4464,"iting":4465,"Familien":4466,"lis":4467,"amerikan":4468,"writing":4469,"jedem":4470,"consequ":4471,"ternal":4472,"Online":4473,"coordin":4474,"Einzel":4475,"Reform":4476,"ilar":4477,"aware":4478,"chsel":4479,"Government":4480,"ature":4481,"prakt":4482,"Fischere":4483,"pal":4484,"mid":4485,"mitted":4486,"indest":4487,"bleibt":4488,"rachten":4489,"Interessen":4490,"Stabil":4491,"committee":4492,"sess":4493,"reiben":4494,"Ha":4495,"größer":4496,"Proz":4497,"programmes":4498,"änden":4499,"ira":4500,"heut":4501,"Handel":4502,"ari":4503,"Home":4504,"Lon":4505,"assess":4506,"Weiter":4507,"park":4508,"rich":4509,"Hoch":4510,"amount":4511,"associ":4512,"lle":4513,"meinen":4514,"Staats":4515,"schle":4516,"breakfast":4517,"zif":4518,"enlarge":4519,"claim":4520,"ült":4521,"search":4522,"code":4523,"Beg":4524,"Vis":4525,"Kontrolle":4526,"cep":4527,"ften":4528,"prüfen":4529,"correct":4530,"exclus":4531,"relig":4532,"features":4533,"decisions":4534,"Themen":4535,"öst":4536,"Schaf":4537,"connection":4538,"mü":4539,"across":4540,"handeln":4541,"barkeit":4542,"gangenen":4543,"agreements":4544,"media":4545,"corpor":4546,"35":4547,"mein":4548,"conflic":4549,"Verpflicht":4550,"Erweiterung":4551,"worten":4552,"reasons":4553,"Dan":4554,"verständlich":4555,"Werk":4556,"bru":4557,"throughout":4558,"neut":4559,"travel":4560,"America":4561,"professional":4562,"Ka":4563,"wirtschaftliche":4564,"vil":4565,"Play":4566,"bald":4567,"zeugen":4568,"Thank":4569,"absolute":4570,"fli":4571,"Di":4572,"attet":4573,"Lisbon":4574,"mend":4575,"sag":4576,"joint":4577,"Kampf":4578,"Akt":4579,"jobs":4580,"Behörden":4581,"club":4582,"jede":4583,"Verbindung":4584,"präsent":4585,"1999":4586,"Förderung":4587,"later":4588,"Benutzer":4589,"gän":4590,"aster":4591,"comfortable":4592,"teid":4593,"Entschließung":4594,"files":4595,"Prior":4596,"bekommen":4597,"Bu":4598,"Haf":4599,"outside":4600,"Wachstum":4601,"anzen":4602,"Agen":4603,"complex":4604,"community":4605,"Zentrum":4606,"package":4607,"ersch":4608,"LE":4609,"nothing":4610,"concerning":4611,"unabhäng":4612,"heißt":4613,"ava":4614,"North":4615,"handlung":4616,"Liss":4617,"bad":4618,"itten":4619,"quis":4620,"Sor":4621,"approv":4622,"entre":4623,"customer":4624,"values":4625,"heraus":4626,"vin":4627,"ktive":4628,"hear":4629,"gleichzeitig":4630,"Ukra":4631,"Standard":4632,"konnte":4633,"van":4634,"consult":4635,"military":4636,"--":4637,"Verordnung":4638,"Lösungen":4639,"objectives":4640,"London":4641,"famous":4642,"PE":4643,"conclus":4644,"ausch":4645,"took":4646,"integration":4647,"Server":4648,"raf":4649,"completely":4650,"sent":4651,"hase":4652,"unseres":4653,"August":4654,"fallen":4655,"publish":4656,"practice":4657,"sieht":4658,"race":4659,"original":4660,"Dokument":4661,"hours":4662,"ires":4663,"Angeb":4664,"digital":4665,"älle":4666,"ald":4667,"richten":4668,"wunder":4669,"fortunately":4670,"jahr":4671,"performance":4672,"Debian":4673,"Lissabon":4674,"ären":4675,"aler":4676,"note":4677,"early":4678,"Met":4679,"pan":4680,"ps":4681,"allows":4682,"fail":4683,"garant":4684,"kn":4685,"illegal":4686,"immungen":4687,"später":4688,"promise":4689,"nachhalt":4690,"dete":4691,"gemäß":4692,"Aben":4693,"jedes":4694,"Court":4695,"image":4696,"richtungen":4697,"Innen":4698,"population":4699,"forms":4700,"ester":4701,"rund":4702,"clean":4703,"built":4704,"Folgen":4705,"amera":4706,"Centr":4707,"fal":4708,"Global":4709,"29":4710,"kungen":4711,"hohe":4712,"official":4713,"koll":4714,"download":4715,"gerichtet":4716,"Damit":4717,"Mag":4718,"Finally":4719,"dle":4720,"wenden":4721,"Now":4722,"spezie":4723,"agricultural":4724,"lässt":4725,"iens":4726,"congratul":4727,"Barcel":4728,"äss":4729,"ST":4730,"Kern":4731,"igte":4732,"nahe":4733,"45":4734,"Since":4735,"bedingungen":4736,"essour":4737,"300":4738,"Ster":4739,"contains":4740,"objective":4741,"reports":4742,"basic":4743,"plant":4744,"party":4745,"game":4746,"Management":4747,"capac":4748,"credit":4749,"ufig":4750,"unities":4751,"regarding":4752,"Kor":4753,"neben":4754,"benefit":4755,"ush":4756,"fördern":4757,"Linux":4758,"Russland":4759,"extens":4760,"Anal":4761,"enthält":4762,"Fur":4763,"traditional":4764,"transfer":4765,"osen":4766,"sense":4767,"Verbesserung":4768,"established":4769,"cri":4770,"Innov":4771,"satis":4772,"Bitte":4773,"Rel":4774,"fs":4775,"box":4776,"efficient":4777,"krit":4778,"iment":4779,"poor":4780,"includes":4781,"prozess":4782,"Amend":4783,"Forder":4784,"below":4785,"appear":4786,"kleine":4787,"wichtigsten":4788,"sex":4789,"ris":4790,"erweise":4791,"iterr":4792,"oblig":4793,"simple":4794,"Gesundheit":4795,"potential":4796,"Binnenmarkt":4797,"Booking":4798,"categor":4799,"speed":4800,"fonds":4801,"move":4802,"angemessen":4803,"Mater":4804,"Pass":4805,"quickly":4806,"transl":4807,"huge":4808,"schön":4809,"iversit":4810,"Lux":4811,"guide":4812,"Febru":4813,"entwickeln":4814,"Fehler":4815,"Notwend":4816,"plann":4817,"aspe":4818,"verg":4819,"gesamt":4820,"lux":4821,"applications":4822,"instrument":4823,"friendly":4824,"culture":4825,"bezüglich":4826,"computer":4827,"ovo":4828,"ec":4829,"zahlen":4830,"Dec":4831,"Darüber":4832,"unsch":4833,"Augen":4834,"vertr":4835,"Ergebnisse":4836,"wise":4837,"Frankreich":4838,"got":4839,"onom":4840,"construction":4841,"Here":4842,"hinsichtlich":4843,"orf":4844,"Some":4845,"ieben":4846,"Informations":4847,"Log":4848,"broad":4849,"div":4850,"ull":4851,"stage":4852,"closed":4853,"beteil":4854,"plies":4855,"trotz":4856,"verbessern":4857,"achieved":4858,"auber":4859,"nissen":4860,"pet":4861,"schließend":4862,"anzös":4863,"iveness":4864,"igent":4865,"focus":4866,"Fuß":4867,"ermöglichen":4868,"flä":4869,"dialogue":4870,"vorschriften":4871,"DV":4872,"indeed":4873,"consumers":4874,"tic":4875,"mehrere":4876,"Nutzung":4877,"spend":4878,"Wochen":4879,"hoben":4880,"received":4881,"Macht":4882,"verwenden":4883,"san":4884,"breit":4885,"Gelegenheit":4886,"industrial":4887,"governments":4888,"seems":4889,"gerne":4890,"sett":4891,"MS":4892,"beein":4893,"Volks":4894,"Arbeitspl":4895,"lant":4896,"ming":4897,"kulture":4898,"grundlegen":4899,"ET":4900,"export":4901,"successful":4902,"loss":4903,"pite":4904,"Initiative":4905,"amendment":4906,"stellungen":4907,"choice":4908,"although":4909,"Kir":4910,"increased":4911,"alte":4912,"OL":4913,"Second":4914,"Mic":4915,"buch":4916,"Konferenz":4917,"Schaffung":4918,"Univers":4919,"See":4920,"stoff":4921,"learn":4922,"Get":4923,"gefunden":4924,"brigen":4925,"Eur":4926,"kraft":4927,"ba":4928,"kennt":4929,"theless":4930,"oss":4931,"konkre":4932,"onnen":4933,"Auswahl":4934,"Therefore":4935,"erster":4936,"erlau":4937,"server":4938,"Nat":4939,"prob":4940,"recently":4941,"sustainable":4942,"Gip":4943,"völlig":4944,"stens":4945,"Mitarbeiter":4946,"Gree":4947,"diskut":4948,"Business":4949,"spect":4950,"independ":4951,"nuclear":4952,"ieb":4953,"gewä":4954,"sun":4955,"territ":4956,"ti":4957,"geeig":4958,"ganzen":4959,"Frühstück":4960,"internet":4961,"iko":4962,"archite":4963,"verfüg":4964,"Bahn":4965,"sicherheit":4966,"schriftlich":4967,"treatment":4968,"walk":4969,"publik":4970,"nation":4971,"regular":4972,"schließen":4973,"arg":4974,"haupt":4975,"ipl":4976,"ganze":4977,"circ":4978,"Stunden":4979,"31":4980,"jour":4981,"Ober":4982,"purch":4983,"Anfang":4984,"creation":4985,"treffen":4986,"irgend":4987,"dynam":4988,"ograph":4989,"Pan":4990,"tung":4991,"experien":4992,"everyone":4993,"öhn":4994,"dring":4995,"Gewalt":4996,"Further":4997,"Woche":4998,"nern":4999,"tliche":5000,"stances":5001,"itness":5002,"agreed":5003,"Voraus":5004,"Verwendung":5005,"Veranst":5006,"zeugt":5007,"Tat":5008,"verstär":5009,"register":5010,"commitment":5011,"west":5012,"großer":5013,"Regierungen":5014,"offenen":5015,"soziale":5016,"balance":5017,"gerä":5018,"fan":5019,"Strand":5020,"cross":5021,"meinem":5022,"atast":5023,"Pla":5024,"counter":5025,"subsid":5026,"ological":5027,"Club":5028,"added":5029,"197":5030,"equipped":5031,"profession":5032,"measure":5033,"spar":5034,"direction":5035,"equipment":5036,"Maß":5037,"Install":5038,"Änderungen":5039,"liz":5040,"Anzahl":5041,"Fach":5042,"Lauf":5043,"mis":5044,"double":5045,"Reise":5046,"relevant":5047,"cker":5048,"aufzu":5049,"Barcelona":5050,"exchange":5051,"üsse":5052,"wählen":5053,"levels":5054,"limited":5055,"ini":5056,"Notwendigkeit":5057,"news":5058,"pleas":5059,"engine":5060,"Aufen":5061,"oil":5062,"rein":5063,"principles":5064,"deliver":5065,"sichtigt":5066,"esh":5067,"gal":5068,"Aufenth":5069,"guten":5070,"suit":5071,"icles":5072,"goods":5073,"eindeut":5074,"PS":5075,"Don":5076,"Bur":5077,"Central":5078,"inne":5079,"verfügen":5080,"riften":5081,"gesprochen":5082,"feld":5083,"union":5084,"Angebot":5085,"mobile":5086,"Ham":5087,"genannten":5088,"maßnahmen":5089,"sorgen":5090,"covered":5091,"scient":5092,"prise":5093,"ilität":5094,"shown":5095,"June":5096,"higher":5097,"Gebä":5098,"grenz":5099,"fix":5100,"stress":5101,"tempor":5102,"iglich":5103,"verstehen":5104,"sterdam":5105,"matters":5106,"asked":5107,"äußerst":5108,"Gew":5109,"FR":5110,"Of":5111,"Krieg":5112,"Miss":5113,"Les":5114,"pflich":5115,"Material":5116,"fahrt":5117,"itel":5118,"ills":5119,"shows":5120,"Überein":5121,"Amsterdam":5122,"rail":5123,"örper":5124,"Zeitpunkt":5125,"schnitt":5126,"eigene":5127,"eller":5128,"Exper":5129,"placed":5130,"WTO":5131,"wonder":5132,"stark":5133,"Col":5134,"categories":5135,"essourcen":5136,"solid":5137,"ski":5138,"steller":5139,"Mac":5140,"Konfli":5141,"tatsächlich":5142,"spezif":5143,"stic":5144,"highly":5145,"bestät":5146,"style":5147,"Sto":5148,"sufficient":5149,"SS":5150,"blo":5151,"former":5152,"Tage":5153,"Herzen":5154,"supply":5155,"Dat":5156,"gesamte":5157,"frieden":5158,"Social":5159,"einzig":5160,"ategorien":5161,"Komprom":5162,"six":5163,"größten":5164,"draft":5165,"ope":5166,"letter":5167,"beginning":5168,"mented":5169,"erve":5170,"wobei":5171,"Solidar":5172,"ufen":5173,"Integration":5174,"Vereinbar":5175,"Gesundheits":5176,"undes":5177,"creen":5178,"iell":5179,"response":5180,"HT":5181,"Ukraine":5182,"Süd":5183,"hindern":5184,"promote":5185,"Position":5186,"band":5187,"Gemeinschafts":5188,"Eigen":5189,"rid":5190,"reduce":5191,"Hinter":5192,"ially":5193,"bauen":5194,"Mai":5195,"status":5196,"Stellung":5197,"mod":5198,"innovative":5199,"Oc":5200,"stag":5201,"Ok":5202,"emiss":5203,"English":5204,"ption":5205,"zunächst":5206,"vorhand":5207,"tool":5208,"sterreich":5209,"Sim":5210,"effects":5211,"Post":5212,"Män":5213,"hne":5214,"carried":5215,"Einführung":5216,"perhaps":5217,"istische":5218,"artige":5219,"Beschäftigung":5220,"office":5221,"popular":5222,"Sum":5223,"review":5224,"City":5225,"sl":5226,"Neu":5227,"spruch":5228,"prepared":5229,"nä":5230,"Kommissarin":5231,"oppel":5232,"Wettbewerb":5233,"Transport":5234,"mäßig":5235,"priority":5236,"pressure":5237,"enlargement":5238,"kam":5239,"gewährleisten":5240,"scht":5241,"gehören":5242,"external":5243,"ähn":5244,"klus":5245,"Kosovo":5246,"advan":5247,"Anwend":5248,"lediglich":5249,"Inde":5250,"opportunities":5251,"gült":5252,"Open":5253,"Sil":5254,"aschinen":5255,"choose":5256,"Fortschritte":5257,"iation":5258,"Develop":5259,"wissenschaft":5260,"xis":5261,"wünschen":5262,"freien":5263,"zy":5264,"Erfahrung":5265,"mains":5266,"Liefer":5267,"lies":5268,"fält":5269,"Nieder":5270,"commercial":5271,"Wahr":5272,"Produktion":5273,"talk":5274,"Ferien":5275,"liberal":5276,"Erachten":5277,"Site":5278,"Ausschusses":5279,"aspects":5280,"hotels":5281,"Erachtens":5282,"bestimmte":5283,"funding":5284,"Roman":5285,"billion":5286,"vertreten":5287,"similar":5288,"Lat":5289,"Article":5290,"Bekämpfung":5291,"aving":5292,"setting":5293,"acceptable":5294,"Juni":5295,"door":5296,"criter":5297,"läss":5298,"Protokoll":5299,"Somm":5300,"orient":5301,"wortern":5302,"Affairs":5303,"gy":5304,"spac":5305,"versuchen":5306,"compre":5307,"Aktivitäten":5308,"supported":5309,"capacity":5310,"video":5311,"UR":5312,"Star":5313,"Well":5314,"vorliegen":5315,"worth":5316,"Auff":5317,"condu":5318,"infra":5319,"Pf":5320,"transparen":5321,"size":5322,"konzentr":5323,"thanks":5324,"ehm":5325,"ends":5326,"reached":5327,"cul":5328,"erheb":5329,"iplom":5330,"registr":5331,"south":5332,"details":5333,"IL":5334,"hören":5335,"Zw":5336,"Drit":5337,"block":5338,"Auss":5339,"Dinge":5340,"rom":5341,"floor":5342,"Vertrags":5343,"Aut":5344,"bert":5345,"volution":5346,"aufgenommen":5347,"consumer":5348,"behind":5349,"kan":5350,"Kommunik":5351,"Personal":5352,"remains":5353,"Kontakt":5354,"veh":5355,"elekt":5356,"verpflich":5357,"haft":5358,"atastrop":5359,"öffnet":5360,"Während":5361,"possibility":5362,"Stim":5363,"erfolgreich":5364,"Leit":5365,"aul":5366,"pie":5367,"obtain":5368,"Systems":5369,"imension":5370,"Africa":5371,"considered":5372,"pret":5373,"latest":5374,"beschäft":5375,"Standpunkt":5376,"green":5377,"fluss":5378,"abor":5379,"smo":5380,"secure":5381,"hohen":5382,"uchen":5383,"Schlusselwortern":5384,"rought":5385,"lower":5386,"highl":5387,"krimin":5388,"wimm":5389,"Punkte":5390,"schütz":5391,"Instrument":5392,"whose":5393,"Dabei":5394,"ios":5395,"kü":5396,"rang":5397,"Mich":5398,"Familie":5399,"traffic":5400,"phys":5401,"günst":5402,"Computer":5403,"thin":5404,"coll":5405,"ierenden":5406,"Such":5407,"usion":5408,"ghan":5409,"materials":5410,"meines":5411,"sofort":5412,"Jugend":5413,"wesentlich":5414,"maß":5415,"EM":5416,"iterrane":5417,"Sicht":5418,"pleased":5419,"bringt":5420,"series":5421,"adap":5422,"decided":5423,"trägt":5424,"ierter":5425,"bein":5426,"Tor":5427,"Down":5428,"arily":5429,"Spain":5430,"prepar":5431,"Bul":5432,"deck":5433,"print":5434,"engen":5435,"defen":5436,"zweite":5437,"morgen":5438,"garden":5439,"determin":5440,"sätz":5441,"sprechend":5442,"setzungen":5443,"mem":5444,"abzu":5445,"istics":5446,"quar":5447,"iency":5448,"solchen":5449,"furn":5450,"Sprache":5451,"Höhe":5452,"Erklärung":5453,"König":5454,"Prä":5455,"Medien":5456,"Dez":5457,"mbol":5458,"concl":5459,"Vorschriften":5460,"ffe":5461,"airport":5462,"easily":5463,"schätz":5464,"vergangenen":5465,"ij":5466,"braucht":5467,"gets":5468,"Berg":5469,"ausschuss":5470,"wohn":5471,"suffer":5472,"bestimmten":5473,"Convention":5474,"solidar":5475,"Hy":5476,"stands":5477,"gerecht":5478,"High":5479,"avoid":5480,"mous":5481,"presents":5482,"sagte":5483,"Eing":5484,"legung":5485,"Gruppen":5486,"Bud":5487,"wertung":5488,"somit":5489,"leb":5490,"Preise":5491,"ees":5492,"allein":5493,"fangen":5494,"providing":5495,"places":5496,"Sup":5497,"Aufmerksam":5498,"Nur":5499,"neigh":5500,"gives":5501,"Ansatz":5502,"itation":5503,"ico":5504,"arenz":5505,"nommen":5506,"sätze":5507,"wurf":5508,"Mehrheit":5509,"Umgebung":5510,"Staat":5511,"atmosph":5512,"sibilities":5513,"Bestimmungen":5514,"Cal":5515,"Market":5516,"agenda":5517,"Super":5518,"discussion":5519,"Golf":5520,"industrie":5521,"äst":5522,"Western":5523,"vorgesehen":5524,"pression":5525,"virt":5526,"click":5527,"Basis":5528,"Tät":5529,"stability":5530,"compromise":5531,"IV":5532,"obwohl":5533,"source":5534,"independent":5535,"Entscheidungen":5536,"Technologie":5537,"display":5538,"fehlen":5539,"Prü":5540,"December":5541,"iately":5542,"ya":5543,"Privat":5544,"assistance":5545,"handel":5546,"außerdem":5547,"osp":5548,"regulations":5549,"ries":5550,"uted":5551,"vollen":5552,"letzt":5553,"jün":5554,"Rot":5555,"Ph":5556,"map":5557,"roat":5558,"Ratspräsident":5559,"SP":5560,"zeuge":5561,"creating":5562,"Aufmerksamkeit":5563,"akter":5564,"message":5565,"concept":5566,"ork":5567,"Berichts":5568,"Gefahr":5569,"tät":5570,"emer":5571,"Tex":5572,"kannst":5573,"British":5574,"Java":5575,"erous":5576,"announ":5577,"einschließlich":5578,"accommodation":5579,"erhält":5580,"steps":5581,"rule":5582,"ruh":5583,"Italy":5584,"death":5585,"iture":5586,"einheit":5587,"shar":5588,"reading":5589,"einzige":5590,"fisher":5591,"Today":5592,"warm":5593,"Transparenz":5594,"Anforderungen":5595,"ras":5596,"ette":5597,"Services":5598,"lösen":5599,"Bad":5600,"ühungen":5601,"Meine":5602,"March":5603,"tom":5604,"abkommen":5605,"eval":5606,"produced":5607,"danger":5608,"else":5609,"arm":5610,"aust":5611,"Kop":5612,"Flughaf":5613,"Stelle":5614,"instruments":5615,"bey":5616,"ques":5617,"obvious":5618,"Landwirtschaft":5619,"Republic":5620,"ollar":5621,"vorher":5622,"Neben":5623,"Dezember":5624,"wander":5625,"ateral":5626,"Verkehrs":5627,"produce":5628,"oben":5629,"standing":5630,"leitet":5631,"otes":5632,"dadurch":5633,"Anfrage":5634,"reign":5635,"transpar":5636,"begrüße":5637,"Last":5638,"stein":5639,"legislative":5640,"Bereiche":5641,"lam":5642,"pover":5643,"movement":5644,"sprün":5645,"expla":5646,"Diskussion":5647,"Erzeug":5648,"1998":5649,"stelle":5650,"zahlreiche":5651,"Projekte":5652,"leave":5653,"influ":5654,"Dom":5655,"Sign":5656,"Italien":5657,"Analy":5658,"exhib":5659,"ously":5660,"statement":5661,"contribution":5662,"stärker":5663,"summer":5664,"modified":5665,"Investitionen":5666,"Präsidenten":5667,"beziehen":5668,"property":5669,"DVD":5670,"cup":5671,"went":5672,"Metho":5673,"repe":5674,"pointed":5675,"alb":5676,"Agent":5677,"brechen":5678,"erfahren":5679,"Det":5680,"32":5681,"französ":5682,"ausgestattet":5683,"wesen":5684,"arrange":5685,"Öffentlich":5686,"task":5687,"Spa":5688,"Cre":5689,"Free":5690,"ürf":5691,"ühm":5692,"Freiheit":5693,"üst":5694,"Prinzip":5695,"insgesamt":5696,"ständigen":5697,"wall":5698,"ilen":5699,"bezogen":5700,"Grenzen":5701,"violence":5702,"rene":5703,"wichtiger":5704,"Aktion":5705,"purpose":5706,"procedures":5707,"Agrar":5708,"kit":5709,"keits":5710,"kürz":5711,"brought":5712,"record":5713,"regards":5714,"ki":5715,"geln":5716,"bell":5717,"Stär":5718,"Sitzung":5719,"zweiten":5720,"iterranean":5721,"activity":5722,"January":5723,"pain":5724,"Rooms":5725,"fficiency":5726,"Oper":5727,"keiner":5728,"ritts":5729,"medium":5730,"reibung":5731,"ugs":5732,"gros":5733,"vorhanden":5734,"benötigen":5735,"ering":5736,"thous":5737,"Loc":5738,"Test":5739,"effort":5740,"Schweiz":5741,"falt":5742,"anders":5743,"UK":5744,"Pap":5745,"nöt":5746,"Mult":5747,"atmosphere":5748,"contract":5749,"Iraq":5750,"Also":5751,"inger":5752,"October":5753,"Bildung":5754,"Bilder":5755,"sitzen":5756,"ique":5757,"erwarten":5758,"iffe":5759,"schw":5760,"wirken":5761,"itzer":5762,"conference":5763,"foot":5764,"Regeln":5765,"Video":5766,"Every":5767,"Arbeitnehmer":5768,"März":5769,"Ist":5770,"child":5771,"transparency":5772,"getan":5773,"yer":5774,"lös":5775,"rum":5776,"Sen":5777,"verse":5778,"etimes":5779,"Hins":5780,"dut":5781,"trip":5782,"Hinsicht":5783,"Del":5784,"vital":5785,"Afghan":5786,"verkauf":5787,"distribution":5788,"Bon":5789,"path":5790,"Bestell":5791,"Sommer":5792,"utter":5793,"ike":5794,"Bra":5795,"dise":5796,"196":5797,"Your":5798,"Unternehmens":5799,"eingesetzt":5800,"uner":5801,"ffet":5802,"allowed":5803,"niedr":5804,"erinn":5805,"criteria":5806,"resse":5807,"labour":5808,"stabil":5809,"benefits":5810,"möglichkeiten":5811,"eigentlich":5812,"forderung":5813,"leistungs":5814,"relationship":5815,"legit":5816,"zweif":5817,"rig":5818,"Wein":5819,"rowser":5820,"ails":5821,"CE":5822,"fine":5823,"dienen":5824,"cou":5825,"lives":5826,"ellow":5827,"europäischer":5828,"instead":5829,"genießen":5830,"deten":5831,"Wä":5832,"etary":5833,"neues":5834,"ourselves":5835,"compon":5836,"ather":5837,"häufig":5838,"Mediterranean":5839,"parte":5840,"griffen":5841,"PH":5842,"TH":5843,"Tem":5844,"accep":5845,"fishing":5846,"minor":5847,"Museum":5848,"Hung":5849,"aktuellen":5850,"giving":5851,"ault":5852,"Veränder":5853,"ünd":5854,"unterst":5855,"Rede":5856,"verbind":5857,"ón":5858,"zieht":5859,"ams":5860,"forget":5861,"Präsidentschaft":5862,"decl":5863,"ored":5864,"auern":5865,"prises":5866,"wimming":5867,"cos":5868,"gebaut":5869,"advantage":5870,"Nationen":5871,"Party":5872,"Schwier":5873,"Sache":5874,"challenges":5875,"quare":5876,"Auffassung":5877,"Datei":5878,"Mod":5879,"interesting":5880,"base":5881,"Furthermore":5882,"uit":5883,"durchgeführt":5884,"Volk":5885,"leider":5886,"Lebensmittel":5887,"types":5888,"Bemühungen":5889,"Os":5890,"länger":5891,"King":5892,"York":5893,"provisions":5894,"Oktober":5895,"erkenn":5896,"IA":5897,"sort":5898,"exact":5899,"consist":5900,"höher":5901,"poverty":5902,"elections":5903,"Wider":5904,"occur":5905,"except":5906,"morrow":5907,"Belg":5908,"Untersuch":5909,"Armut":5910,"PD":5911,"integrated":5912,"mensch":5913,"solidarity":5914,"Koh":5915,"Portugal":5916,"largest":5917,"tools":5918,"congratulate":5919,"Many":5920,"ology":5921,"heben":5922,"Instit":5923,"train":5924,"reli":5925,"tomorrow":5926,"Stad":5927,"Gründen":5928,"Cap":5929,"Bürgern":5930,"growing":5931,"Villa":5932,"dient":5933,"surround":5934,"konnten":5935,"paid":5936,"ark":5937,"beitragen":5938,"started":5939,"Gel":5940,"Juli":5941,"Linie":5942,"betreffen":5943,"written":5944,"Heute":5945,"electron":5946,"comprehens":5947,"study":5948,"ktiven":5949,"Ged":5950,"section":5951,"documents":5952,"Empfehl":5953,"sinn":5954,"dates":5955,"scheinlich":5956,"colleagues":5957,"kontroll":5958,"Palest":5959,"damage":5960,"Development":5961,"unten":5962,"bewusst":5963,"geschaffen":5964,"Flü":5965,"constit":5966,"leiten":5967,"frequ":5968,"requires":5969,"apartment":5970,"humanit":5971,"prefer":5972,"gewöhn":5973,"Jahrhundert":5974,"institutional":5975,"geworden":5976,"Kennt":5977,"consequences":5978,"ehe":5979,"perform":5980,"film":5981,"ifik":5982,"wenige":5983,"Ren":5984,"AK":5985,"useful":5986,"geber":5987,"ife":5988,"icy":5989,"limit":5990,"liar":5991,"Bulgar":5992,"Gast":5993,"Grand":5994,"ost":5995,"serve":5996,"berühm":5997,"launch":5998,"Tagesordnung":5999,"drücklich":6000,"conven":6001,"ney":6002,"lesen":6003,"Start":6004,"operating":6005,"conflict":6006,"Öffentlichkeit":6007,"Bot":6008,"Film":6009,"school":6010,"decken":6011,"dank":6012,"poses":6013,"Bürgerinnen":6014,"Ressourcen":6015,"hältnis":6016,"Dateien":6017,"öffentliche":6018,"victim":6019,"Republik":6020,"vergessen":6021,"demokratischen":6022,"sole":6023,"größte":6024,"Aufgaben":6025,"July":6026,"curren":6027,"ielt":6028,"Schließ":6029,"mä":6030,"Center":6031,"island":6032,"Italian":6033,"listen":6034,"Januar":6035,"behandelt":6036,"dence":6037,"itude":6038,"alternative":6039,"Stabilität":6040,"erneut":6041,"wood":6042,"crucial":6043,"komp":6044,"üb":6045,"folgenden":6046,"langfrist":6047,"Rights":6048,"Natürlich":6049,"equal":6050,"Ereign":6051,"IF":6052,"reality":6053,"renov":6054,"36":6055,"Beteil":6056,"ierende":6057,"zusch":6058,"werte":6059,"IB":6060,"bü":6061,"Fon":6062,"Werte":6063,"constant":6064,"legation":6065,"Lassen":6066,"verstanden":6067,"Phil":6068,"immediately":6069,"annual":6070,"happy":6071,"tains":6072,"ihres":6073,"offiz":6074,"Städ":6075,"NAT":6076,"rosoft":6077,"Lu":6078,"payment":6079,"hesion":6080,"practical":6081,"produz":6082,"employees":6083,"dlich":6084,"Auftrag":6085,"Amendment":6086,"sonst":6087,"Forschungs":6088,"fän":6089,"ias":6090,"Milliar":6091,"kil":6092,"nice":6093,"geleg":6094,"Bro":6095,"dienst":6096,"forces":6097,"perfe":6098,"goes":6099,"Straßen":6100,"implemented":6101,"Nachbar":6102,"Mart":6103,"craft":6104,"ero":6105,"enh":6106,"zuführen":6107,"Stu":6108,"systeme":6109,"elements":6110,"1997":6111,"terrorism":6112,"variety":6113,"Hel":6114,"hätten":6115,"preis":6116,"deral":6117,"wid":6118,"won":6119,"gnis":6120,"applied":6121,"ples":6122,"entsprechenden":6123,"diejenigen":6124,"erc":6125,"48":6126,"richtige":6127,"AB":6128,"dent":6129,"Fällen":6130,"Flughafen":6131,"Hostels":6132,"sw":6133,"ienz":6134,"klein":6135,"Küche":6136,"processes":6137,"bilden":6138,"ursprün":6139,"wart":6140,"ista":6141,"Rechtsvorschriften":6142,"Zweitens":6143,"zufrieden":6144,"Sinne":6145,"Nr":6146,"Saf":6147,"verhindern":6148,"ured":6149,"north":6150,"ausgezeich":6151,"uration":6152,"waste":6153,"steigen":6154,"adequ":6155,"angesichts":6156,"analysis":6157,"Spezial":6158,"Monaten":6159,"efficiency":6160,"univers":6161,"Mid":6162,"config":6163,"opol":6164,"beant":6165,"sprach":6166,"kunden":6167,"zeichnen":6168,"Gal":6169,"berücksichtigt":6170,"unmittel":6171,"behalten":6172,"Universit":6173,"Modell":6174,"Obje":6175,"entsprechend":6176,"Security":6177,"zeichnung":6178,"veröffentlich":6179,"Schn":6180,"übrigen":6181,"drive":6182,"spee":6183,"IR":6184,"organisations":6185,"erkennen":6186,"ara":6187,"effizient":6188,"Microsoft":6189,"Even":6190,"Hä":6191,"Wohl":6192,"monitoring":6193,"warum":6194,"copy":6195,"Bedürf":6196,"würdig":6197,"Tal":6198,"cement":6199,"zep":6200,"fühl":6201,"aign":6202,"imat":6203,"freie":6204,"Finanzierung":6205,"ogle":6206,"Rats":6207,"paar":6208,"temporary":6209,"fresh":6210,"doubt":6211,"ality":6212,"discrimin":6213,"früher":6214,"fügen":6215,"Bundes":6216,"roll":6217,"Dritt":6218,"eher":6219,"nes":6220,"Vertreter":6221,"partnership":6222,"kap":6223,"beschrän":6224,"hom":6225,"afr":6226,"spirit":6227,"hair":6228,"gewesen":6229,"iveau":6230,"cription":6231,"bür":6232,"Aller":6233,"Firma":6234,"Tradition":6235,"expl":6236,"sichtigen":6237,"Beginn":6238,"Koordin":6239,"ades":6240,"zahlt":6241,"bor":6242,"Behandlung":6243,"News":6244,"ls":6245,"kategorien":6246,"bedingt":6247,"Vertrauen":6248,"erns":6249,"gewiesen":6250,"osop":6251,"Although":6252,"saying":6253,"Angelegenheit":6254,"Spanish":6255,"sektor":6256,"Enter":6257,"lernen":6258,"architect":6259,"operations":6260,"beru":6261,"berecht":6262,"lichkeiten":6263,"farmers":6264,"Centre":6265,"nachten":6266,"highest":6267,"perman":6268,"Minder":6269,"nungen":6270,"jüng":6271,"75":6272,"voting":6273,"befür":6274,"finally":6275,"herz":6276,"tempt":6277,"sports":6278,"zi":6279,"estic":6280,"expe":6281,"comprehensive":6282,"ücke":6283,"würd":6284,"depart":6285,"minimum":6286,"izin":6287,"quiet":6288,"Anstreng":6289,"options":6290,"ato":6291,"Cr":6292,"Urlaub":6293,"cert":6294,"leistung":6295,"400":6296,"Folge":6297,"During":6298,"Wann":6299,"gelt":6300,"bear":6301,"carry":6302,"splan":6303,"Terrorismus":6304,"Download":6305,"losen":6306,"coast":6307,"technologies":6308,"itzen":6309,"Winter":6310,"verz":6311,"beyond":6312,"ideas":6313,"Gericht":6314,"és":6315,"klass":6316,"iro":6317,"Inhalt":6318,"utt":6319,"scientific":6320,"Erfahrungen":6321,"Vergangen":6322,"wertungen":6323,"sales":6324,"dauer":6325,"meaning":6326,"SD":6327,"Econom":6328,"accord":6329,"accession":6330,"reduction":6331,"mic":6332,"weist":6333,"Secondly":6334,"historical":6335,"Aufenthalt":6336,"Green":6337,"challenge":6338,"Mann":6339,"deine":6340,"preci":6341,"stock":6342,"screen":6343,"Mos":6344,"anlage":6345,"restaurants":6346,"Änderung":6347,"tex":6348,"select":6349,"vollständig":6350,"begin":6351,"ado":6352,"bien":6353,"technischen":6354,"erfüllen":6355,"wards":6356,"Kredit":6357,"historic":6358,"Val":6359,"alität":6360,"track":6361,"Camp":6362,"überhaupt":6363,"served":6364,"endlich":6365,"formul":6366,"verläss":6367,"bezieh":6368,"stehenden":6369,"versucht":6370,"anden":6371,"wasser":6372,"rapid":6373,"Dien":6374,"Ost":6375,"Praxis":6376,"ellschaften":6377,"distance":6378,"Are":6379,"usch":6380,"gruppe":6381,"jem":6382,"trägen":6383,"weeks":6384,"Alt":6385,"occas":6386,"target":6387,"fire":6388,"session":6389,"late":6390,"steuer":6391,"schützen":6392,"Wil":6393,"abe":6394,"krise":6395,"village":6396,"shops":6397,"Parteien":6398,"las":6399,"Wunsch":6400,"Berichterstatterin":6401,"förder":6402,"deep":6403,"changed":6404,"wahrscheinlich":6405,"schönen":6406,"daily":6407,"GN":6408,"circum":6409,"Tagen":6410,"ML":6411,"alone":6412,"laufen":6413,"tritt":6414,"Moreover":6415,"friends":6416,"Mand":6417,"Viele":6418,"Flex":6419,"Schritte":6420,"format":6421,"iker":6422,"Altern":6423,"Menschenrechts":6424,"dep":6425,"wanted":6426,"campaign":6427,"Grö":6428,"likely":6429,"join":6430,"wechsel":6431,"kannt":6432,"Spieler":6433,"Aspekte":6434,"ständige":6435,"verantwortlich":6436,"Opfer":6437,"ays":6438,"wine":6439,"erklärt":6440,"ories":6441,"orial":6442,"eingesch":6443,"150":6444,"vorzu":6445,"fried":6446,"hervorragen":6447,"fas":6448,"opping":6449,"Public":6450,"sechs":6451,"genug":6452,"Ange":6453,"agieren":6454,"maximum":6455,"reference":6456,"numerous":6457,"Herausforderungen":6458,"umfang":6459,"ologie":6460,"AF":6461,"erfolgt":6462,"persons":6463,"clients":6464,"kret":6465,"Verteid":6466,"Flor":6467,"Vergangenheit":6468,"Ire":6469,"critic":6470,"trächt":6471,"thought":6472,"Spanien":6473,"verab":6474,"Islam":6475,"pursu":6476,"Soll":6477,"Telefon":6478,"Human":6479,"Tier":6480,"beginnen":6481,"plans":6482,"teach":6483,"begrüßen":6484,"netz":6485,"Produktions":6486,"innovation":6487,"ford":6488,"Zivil":6489,"restr":6490,"Allerdings":6491,"candid":6492,"businesses":6493,"Gest":6494,"raised":6495,"Nun":6496,"Google":6497,"Ireland":6498,"worldwide":6499,"Solidarität":6500,"Pet":6501,"01":6502,"Atmosph":6503,"email":6504,"fill":6505,"Mess":6506,"verpflichtet":6507,"Gebäude":6508,"sichern":6509,"Vir":6510,"Moder":6511,"offering":6512,"strategic":6513,"bessere":6514,"lost":6515,"33":6516,"starting":6517,"spannen":6518,"Sm":6519,"Entschließungs":6520,"daten":6521,"sectors":6522,"advert":6523,"adopt":6524,"Cy":6525,"sult":6526,"nungs":6527,"Sat":6528,"Arab":6529,"leaders":6530,"kop":6531,"MP":6532,"losigkeit":6533,"sil":6534,"motor":6535,"machine":6536,"Einige":6537,"DA":6538,"gekommen":6539,"zeiten":6540,"iö":6541,"plus":6542,"Austria":6543,"trust":6544,"Berat":6545,"nel":6546,"interested":6547,"ischem":6548,"urgent":6549,"erwartet":6550,"säm":6551,"icated":6552,"reichend":6553,"probably":6554,"iste":6555,"offered":6556,"Schwierigkeiten":6557,"powers":6558,"holen":6559,"images":6560,"staaten":6561,"anything":6562,"Adresse":6563,"Archite":6564,"Falls":6565,"Directive":6566,"apartments":6567,"modernen":6568,"regime":6569,"versor":6570,"valid":6571,"Arbeitsplätze":6572,"Unterkategorien":6573,"Conference":6574,"weiten":6575,"Chinese":6576,"jeweiligen":6577,"published":6578,"Prem":6579,"Waren":6580,"Krank":6581,"Firmen":6582,"substant":6583,"Wik":6584,"concentr":6585,"karte":6586,"relating":6587,"fällt":6588,"sorg":6589,"hilfe":6590,"rise":6591,"brand":6592,"Dann":6593,"prüft":6594,"plat":6595,"zusetzen":6596,"methods":6597,"absolutely":6598,"Vergleich":6599,"gemeinschaft":6600,"seiten":6601,"breite":6602,"Denn":6603,"aktion":6604,"calls":6605,"Distr":6606,"letzte":6607,"Hoff":6608,"Shop":6609,"became":6610,"zukünft":6611,"kämpfen":6612,"atalog":6613,"aver":6614,"ruption":6615,"nütz":6616,"stets":6617,"gruppen":6618,"Afghanistan":6619,"Karte":6620,"reviews":6621,"anderem":6622,"justice":6623,"sometimes":6624,"gers":6625,"chance":6626,"oo":6627,"bote":6628,"zumindest":6629,"Verfassung":6630,"Ins":6631,"1996":6632,"languages":6633,"mountain":6634,"vari":6635,"elling":6636,"games":6637,"honour":6638,"domin":6639,"appreci":6640,"Milliarden":6641,"schlag":6642,"wrong":6643,"sens":6644,"angeboten":6645,"stieg":6646,"emissions":6647,"OT":6648,"simpl":6649,"scale":6650,"urance":6651,"Schlüssel":6652,"NATO":6653,"Kapital":6654,"Landwir":6655,"caused":6656,"heutigen":6657,"mögen":6658,"release":6659,"adjust":6660,"verurs":6661,"Code":6662,"extent":6663,"historischen":6664,"QL":6665,"langen":6666,"automatisch":6667,"Restaurants":6668,"operate":6669,"Agenda":6670,"Roma":6671,"Ord":6672,"restrict":6673,"flexible":6674,"Verwaltung":6675,"außerhalb":6676,"Liberal":6677,"gment":6678,"Konzept":6679,"affected":6680,"Sonder":6681,"übernehmen":6682,"legant":6683,"erinnern":6684,"Annahme":6685,"verm":6686,"privaten":6687,"Only":6688,"genutzt":6689,"While":6690,"bir":6691,"syn":6692,"Atmosphäre":6693,"accepted":6694,"Swiss":6695,"uern":6696,"Prozent":6697,"Stellen":6698,"Georg":6699,"Indeed":6700,"fläche":6701,"voraus":6702,"eindeutig":6703,"erlaubt":6704,"geschütz":6705,"enze":6706,"dringend":6707,"dro":6708,"feed":6709,"raten":6710,"dung":6711,"mas":6712,"ighted":6713,"bitten":6714,"SM":6715,"Erstens":6716,"Infra":6717,"hilfen":6718,"touch":6719,"Out":6720,"verme":6721,"2020":6722,"gehend":6723,"konom":6724,"Mass":6725,"getragen":6726,"ritten":6727,"EG":6728,"sitting":6729,"geschrieben":6730,"initiatives":6731,"Homepage":6732,"investig":6733,"Regierungs":6734,"Kan":6735,"führte":6736,"player":6737,"genu":6738,"players":6739,"brid":6740,"Gesamt":6741,"eingehen":6742,"zahlreichen":6743,"38":6744,"banks":6745,"ek":6746,"element":6747,"reduz":6748,"Anstrengungen":6749,"degre":6750,"confidence":6751,"Bis":6752,"minute":6753,"targe":6754,"speziell":6755,"installation":6756,"Gipfel":6757,"AV":6758,"University":6759,"processing":6760,"Gas":6761,"bul":6762,"Ihres":6763,"influence":6764,"borders":6765,"Airport":6766,"expert":6767,"Sterne":6768,"diplom":6769,"Dazu":6770,"Überwach":6771,"slow":6772,"heard":6773,"Antrag":6774,"gesche":6775,"izes":6776,"persönlichen":6777,"Ven":6778,"Doppel":6779,"pictures":6780,"heav":6781,"sav":6782,"komplex":6783,"talking":6784,"trying":6785,"renew":6786,"erweiter":6787,"negative":6788,"danke":6789,"committed":6790,"este":6791,"Zeichen":6792,"reforms":6793,"demands":6794,"manufactur":6795,"Stock":6796,"critical":6797,"Slo":6798,"remember":6799,"stattung":6800,"chair":6801,"Sky":6802,"parking":6803,"bestimmt":6804,"Stil":6805,"Gra":6806,"Zentral":6807,"Ve":6808,"menu":6809,"Immobil":6810,"Obwohl":6811,"currency":6812,"comments":6813,"overall":6814,"Fischerei":6815,"Leg":6816,"uded":6817,"Einfluss":6818,"Besonder":6819,"welches":6820,"Betriebs":6821,"ecut":6822,"Wahlen":6823,"PT":6824,"Angelegenheiten":6825,"amerikanischen":6826,"Russian":6827,"exerc":6828,"Trotz":6829,"Voll":6830,"Constitution":6831,"fit":6832,"iling":6833,"separate":6834,"expressed":6835,"Pak":6836,"Ca":6837,"morning":6838,"stoffe":6839,"bemü":6840,"barer":6841,"fields":6842,"zudem":6843,"vorgelegt":6844,"cohesion":6845,"stimm":6846,"Verpflichtungen":6847,"datab":6848,"Organisationen":6849,"compar":6850,"sper":6851,"Bay":6852,"ausschließlich":6853,"End":6854,"priorities":6855,"deutschen":6856,"lier":6857,"spa":6858,"despite":6859,"Wissenschaft":6860,"Systeme":6861,"izing":6862,"administration":6863,"She":6864,"überzeugt":6865,"Kriterien":6866,"selection":6867,"stimme":6868,"begrenz":6869,"größere":6870,"Em":6871,"gebie":6872,"Ausschuß":6873,"Tar":6874,"flü":6875,"benutzt":6876,"zusätzliche":6877,"allgemeinen":6878,"chtet":6879,"SQL":6880,"IE":6881,"Tun":6882,"Zweif":6883,"beide":6884,"expected":6885,"bedarf":6886,"guest":6887,"ühren":6888,"konstru":6889,"uls":6890,"entschieden":6891,"transparent":6892,"improved":6893,"erkennung":6894,"pun":6895,"Schwer":6896,"lass":6897,"bran":6898,"accordance":6899,"structural":6900,"übernachten":6901,"Inn":6902,"goal":6903,"Einrichtung":6904,"Power":6905,"darstellt":6906,"Cast":6907,"NG":6908,"cycl":6909,"scope":6910,"representatives":6911,"occup":6912,"Vier":6913,"getroffen":6914,"Ther":6915,"otion":6916,"Palestin":6917,"nationale":6918,"sü":6919,"bill":6920,"sprü":6921,"intended":6922,"erstör":6923,"elegant":6924,"Kompromiss":6925,"erung":6926,"approved":6927,"Vereinbarung":6928,"läuft":6929,"lern":6930,"Zustimmung":6931,"Grie":6932,"italien":6933,"isely":6934,"ober":6935,"namely":6936,"Nutzen":6937,"decide":6938,"supports":6939,"natür":6940,"altet":6941,"respond":6942,"sych":6943,"seines":6944,"attack":6945,"militär":6946,"Verhalten":6947,"Lang":6948,"poll":6949,"Reformen":6950,"mill":6951,"forced":6952,"thaf":6953,"Acht":6954,"automatically":6955,"Ausgaben":6956,"Bestand":6957,"intell":6958,"opening":6959,"beschlossen":6960,"Kauf":6961,"reisen":6962,"rob":6963,"unemployment":6964,"Irak":6965,"lebt":6966,"competitive":6967,"aktuelle":6968,"descri":6969,"valu":6970,"Eigent":6971,"ham":6972,"Reserv":6973,"Partei":6974,"votes":6975,"Gerä":6976,"Photo":6977,"fälle":6978,"positions":6979,"kaufs":6980,"sensit":6981,"season":6982,"folger":6983,"entgegen":6984,"Bemer":6985,"icken":6986,"bourg":6987,"IG":6988,"ethn":6989,"increasingly":6990,"administrative":6991,"sagt":6992,"divers":6993,"Agre":6994,"ended":6995,"hood":6996,"shopping":6997,"buffet":6998,"Profess":6999,"cities":7000,"counts":7001,"Mittelme":7002,"east":7003,"34":7004,"Eind":7005,"LAN":7006,"zeichen":7007,"unbedingt":7008,"cred":7009,"running":7010,"globalen":7011,"Hause":7012,"gezeigt":7013,"explo":7014,"encourage":7015,"Garten":7016,"Frankfur":7017,"arus":7018,"mainly":7019,"Nacht":7020,"Gold":7021,"freuen":7022,"Öl":7023,"lück":7024,"ties":7025,"victims":7026,"temper":7027,"teuer":7028,"hoffen":7029,"herunter":7030,"moderne":7031,"conclusion":7032,"Vie":7033,"usw":7034,"Sektor":7035,"worked":7036,"erwähnt":7037,"dere":7038,"Paket":7039,"tot":7040,"Funktionen":7041,"yourself":7042,"älter":7043,"igungen":7044,"angegeben":7045,"reduced":7046,"Leute":7047,"contribute":7048,"Idee":7049,"glauben":7050,"akzeptieren":7051,"samm":7052,"ichert":7053,"län":7054,"angesprochen":7055,"gst":7056,"hour":7057,"Mc":7058,"Waffen":7059,"Ausgang":7060,"Why":7061,"effectively":7062,"Mex":7063,"ube":7064,"fähig":7065,"listed":7066,"circumstances":7067,"Dro":7068,"debt":7069,"elektron":7070,"Schließlich":7071,"Card":7072,"zt":7073,"entwickel":7074,"Friedens":7075,"sichten":7076,"Glück":7077,"berücksichtigen":7078,"tabled":7079,"proceed":7080,"crime":7081,"Mün":7082,"destens":7083,"hinweisen":7084,"planning":7085,"suitable":7086,"tit":7087,"Innovation":7088,"oten":7089,"Österreich":7090,"agraph":7091,"Dollar":7092,"laws":7093,"Vorteile":7094,"anda":7095,"führten":7096,"Mio":7097,"mix":7098,"Konflikt":7099,"ehemal":7100,"sicherzustellen":7101,"protected":7102,"Schla":7103,"entwicklung":7104,"confirm":7105,"kitchen":7106,"ergreifen":7107,"generation":7108,"Richtlinien":7109,"attle":7110,"buy":7111,"Völker":7112,"geändert":7113,"Anerkennung":7114,"ückt":7115,"began":7116,"phr":7117,"agriculture":7118,"abr":7119,"cret":7120,"sources":7121,"kaum":7122,"infrastructure":7123,"graf":7124,"37":7125,"fellow":7126,"relate":7127,"erzielt":7128,"brief":7129,"leichter":7130,"Licht":7131,"mittler":7132,"says":7133,"ione":7134,"immern":7135,"Any":7136,"gelöst":7137,"Dub":7138,"discussed":7139,"summit":7140,"decor":7141,"deckt":7142,"bathroom":7143,"quem":7144,"shof":7145,"Sam":7146,"entspricht":7147,"mär":7148,"Falle":7149,"abwe":7150,"schrift":7151,"Technologien":7152,"bege":7153,"anger":7154,"hagen":7155,"gesund":7156,"pendence":7157,"verfügbar":7158,"stable":7159,"55":7160,"ola":7161,"ensuring":7162,"Fakt":7163,"atter":7164,"ery":7165,"paper":7166,"Vo":7167,"Nahr":7168,"chann":7169,"motion":7170,"Termin":7171,"structures":7172,"Wettbewerbsfähigkeit":7173,"mi":7174,"Nations":7175,"angeb":7176,"Asia":7177,"gestellten":7178,"DP":7179,"India":7180,"selbstverständlich":7181,"itch":7182,"Fel":7183,"competen":7184,"ambit":7185,"Produkten":7186,"ifizierung":7187,"entsprechende":7188,"Ty":7189,"Lad":7190,"Künst":7191,"risks":7192,"CO2":7193,"Garant":7194,"Democr":7195,"visitors":7196,"hot":7197,"unterschiedlichen":7198,"ugg":7199,"Costa":7200,"lying":7201,"Elekt":7202,"Zwischen":7203,"Luxem":7204,"villa":7205,"ita":7206,"Its":7207,"Herz":7208,"Emiss":7209,"rasch":7210,"orea":7211,"nahm":7212,"Zunächst":7213,"willing":7214,"medic":7215,"schreiten":7216,"asks":7217,"rot":7218,"swimming":7219,"wält":7220,"Griechen":7221,"aries":7222,"ids":7223,"Mitteilung":7224,"discussions":7225,"tete":7226,"russ":7227,"umgesetzt":7228,"developments":7229,"functions":7230,"spart":7231,"Weit":7232,"powerful":7233,"SL":7234,"1990":7235,"Belarus":7236,"Beruf":7237,"defined":7238,"Osten":7239,"Chance":7240,"möglicherweise":7241,"Lab":7242,"Erd":7243,"introduced":7244,"Durchführung":7245,"Standards":7246,"Status":7247,"families":7248,"gleiche":7249,"kept":7250,"Infrastruktur":7251,"lager":7252,"quant":7253,"vere":7254,"Dig":7255,"Hintergrund":7256,"ense":7257,"tourist":7258,"lemente":7259,"detailed":7260,"aupts":7261,"Sprachen":7262,"binden":7263,"spective":7264,"Liz":7265,"ibilität":7266,"manage":7267,"marks":7268,"budgetary":7269,"benutzen":7270,"mindestens":7271,"bia":7272,"wants":7273,"icip":7274,"hund":7275,"represents":7276,"regret":7277,"moral":7278,"street":7279,"rechten":7280,"ivity":7281,"Station":7282,"seek":7283,"understanding":7284,"aded":7285,"ED":7286,"Haltung":7287,"cting":7288,"wogen":7289,"feature":7290,"participation":7291,"bestehenden":7292,"Script":7293,"selben":7294,"analy":7295,"zuletzt":7296,"senden":7297,"Banken":7298,"Beitritts":7299,"Effe":7300,"mehreren":7301,"rural":7302,"entry":7303,"Währung":7304,"Cze":7305,"plement":7306,"Por":7307,"aint":7308,"ley":7309,"kommenden":7310,"Installation":7311,"ye":7312,"button":7313,"ütze":7314,"Abschluss":7315,"isol":7316,"artigen":7317,"Work":7318,"lust":7319,"client":7320,"avig":7321,"ampag":7322,"gehalten":7323,"Netzwerk":7324,"verkehrs":7325,"Zudem":7326,"aimed":7327,"resort":7328,"klare":7329,"cers":7330,"Ident":7331,"äu":7332,"zielle":7333,"Pack":7334,"era":7335,"atoren":7336,"Veranstalt":7337,"lymp":7338,"Anspruch":7339,"warten":7340,"Qualitäts":7341,"Kal":7342,"technische":7343,"Inhalte":7344,"liefert":7345,"evening":7346,"achtet":7347,"ktoren":7348,"iat":7349,"asser":7350,"Boden":7351,"Milit":7352,"Patient":7353,"Then":7354,"spann":7355,"Kommunikation":7356,"closely":7357,"Anwendungen":7358,"assessment":7359,"Bush":7360,"alloc":7361,"schlä":7362,"flow":7363,"multip":7364,"Dre":7365,"electronic":7366,"managed":7367,"animals":7368,"liefer":7369,"siehe":7370,"dio":7371,"audio":7372,"näher":7373,"Alp":7374,"Fonds":7375,"Regional":7376,"attempt":7377,"exactly":7378,"Schaden":7379,"stät":7380,"ständen":7381,"Anpass":7382,"immen":7383,"finanziellen":7384,"adequate":7385,"schwierig":7386,"1995":7387,"love":7388,"white":7389,"tur":7390,"verbessert":7391,"Sing":7392,"angezeigt":7393,"oker":7394,"festgelegt":7395,"schul":7396,"guard":7397,"stechn":7398,"corporate":7399,"dead":7400,"speaking":7401,"hochwert":7402,"iser":7403,"Vorbereit":7404,"erfüllt":7405,"stated":7406,"plants":7407,"ureau":7408,"People":7409,"bürger":7410,"Körper":7411,"notwendigen":7412,"extensive":7413,"schem":7414,"init":7415,"uchs":7416,"tp":7417,"precisely":7418,"pension":7419,"tief":7420,"Kenntnis":7421,"black":7422,"gerichte":7423,"ISO":7424,"uly":7425,"constitution":7426,"tail":7427,"radio":7428,"satisf":7429,"breiten":7430,"99":7431,"geschä":7432,"ints":7433,"verfolgen":7434,"Abschließend":7435,"Rand":7436,"weite":7437,"marketing":7438,"chines":7439,"klicken":7440,"guidelines":7441,"discrimination":7442,"ION":7443,"uals":7444,"aming":7445,"Spr":7446,"provider":7447,"Aufnahme":7448,"Motor":7449,"amber":7450,"manner":7451,"spunkt":7452,"Middle":7453,"Klimawand":7454,"income":7455,"Cli":7456,"weak":7457,"specifically":7458,"Christian":7459,"properly":7460,"gency":7461,"terrace":7462,"08":7463,"TR":7464,"becoming":7465,"According":7466,"Besucher":7467,"erzielen":7468,"CS":7469,"Olymp":7470,"watch":7471,"usually":7472,"Agreement":7473,"Unfortunately":7474,"competitiveness":7475,"Czech":7476,"camera":7477,"britann":7478,"born":7479,"introduction":7480,"gründet":7481,"zentrum":7482,"cia":7483,"comment":7484,"John":7485,"Holz":7486,"proport":7487,"delivery":7488,"Ausbildung":7489,"astr":7490,"erstellt":7491,"09":7492,"collection":7493,"mitten":7494,"aschine":7495,"eingeschrän":7496,"symbol":7497,"Each":7498,"conver":7499,"Mensch":7500,"hle":7501,"linked":7502,"Never":7503,"freiheit":7504,"Board":7505,"enterprises":7506,"Suche":7507,"vermeiden":7508,"Betr":7509,"rahmen":7510,"Sea":7511,"Berichte":7512,"erhöhen":7513,"genannt":7514,"gering":7515,"lob":7516,"ancen":7517,"besonderen":7518,"bereitet":7519,"Bade":7520,"ales":7521,"reje":7522,"immigration":7523,"programs":7524,"liebe":7525,"freue":7526,"aters":7527,"speech":7528,"Jetzt":7529,"Abend":7530,"arischen":7531,"Greece":7532,"verring":7533,"improving":7534,"Pakistan":7535,"Leistungs":7536,"anderes":7537,"supporting":7538,"Turk":7539,"2011":7540,"sicherlich":7541,"werke":7542,"Beitritt":7543,"referred":7544,"thousands":7545,"considerable":7546,"Apartments":7547,"Vielen":7548,"purposes":7549,"geeignet":7550,"financing":7551,"64":7552,"pati":7553,"lio":7554,"assungs":7555,"Warum":7556,"expand":7557,"funktioniert":7558,"aby":7559,"selected":7560,"Risiko":7561,"itzerland":7562,"color":7563,"Lib":7564,"präsident":7565,"resist":7566,"facing":7567,"voller":7568,"atively":7569,"Sand":7570,"presidency":7571,"GB":7572,"ienen":7573,"PHP":7574,"defic":7575,"police":7576,"Arten":7577,"nachdem":7578,"itter":7579,"mitglie":7580,"betonen":7581,"MB":7582,"vac":7583,"students":7584,"phrase":7585,"Grundsatz":7586,"jur":7587,"Ern":7588,"weap":7589,"save":7590,"Vorgehen":7591,"Other":7592,"Büro":7593,"Bruss":7594,"Einrichtungen":7595,"whom":7596,"Switzerland":7597,"vit":7598,"idential":7599,"Dienste":7600,"EAD":7601,"Guest":7602,"electric":7603,"Instrumente":7604,"uropa":7605,"founded":7606,"gran":7607,"stärken":7608,"Straße":7609,"getting":7610,"Jed":7611,"führer":7612,"crete":7613,"prison":7614,"stattfinden":7615,"Presse":7616,"combat":7617,"rück":7618,"Großbritann":7619,"iance":7620,"winter":7621,"Initiativen":7622,"lieben":7623,"lebr":7624,"roy":7625,"ikal":7626,"OF":7627,"dram":7628,"räge":7629,"Abgeordnete":7630,"Aust":7631,"affect":7632,"Bos":7633,"iums":7634,"Brussels":7635,"prem":7636,"Bio":7637,"ologischen":7638,"picture":7639,"Stimme":7640,"dule":7641,"coordination":7642,"bewertungen":7643,"Forderung":7644,"Dol":7645,"Arg":7646,"belieb":7647,"Moment":7648,"Engagement":7649,"provision":7650,"Vielfalt":7651,"opened":7652,"duty":7653,"idents":7654,"pleasant":7655,"interpret":7656,"February":7657,"itate":7658,"Salz":7659,"schöne":7660,"richtigen":7661,"popul":7662,"earlier":7663,"Zweck":7664,"kern":7665,"ünft":7666,"Verwaltungs":7667,"Monate":7668,"wären":7669,"Regelung":7670,"Immobilien":7671,"jene":7672,"forest":7673,"jederzeit":7674,"Veränderungen":7675,"gelangen":7676,"Desk":7677,"luxur":7678,"stet":7679,"Wege":7680,"39":7681,"animal":7682,"44":7683,"wagen":7684,"proto":7685,"ifying":7686,"mechanis":7687,"Bi":7688,"Prote":7689,"compens":7690,"Ratsvor":7691,"submitted":7692,"omet":7693,"verur":7694,"medical":7695,"isierten":7696,"gewün":7697,"iffer":7698,"idet":7699,"otherwise":7700,"wanderung":7701,"walking":7702,"fisheries":7703,"Wellness":7704,"ING":7705,"ideos":7706,"erreich":7707,"wegung":7708,"Ak":7709,"iler":7710,"Bereit":7711,"Plen":7712,"applies":7713,"hnung":7714,"Mitgliedstaat":7715,"Las":7716,"auth":7717,"Menge":7718,"hängt":7719,"followed":7720,"Analyse":7721,"Over":7722,"Leider":7723,"thinking":7724,"expens":7725,"parliamentary":7726,"öm":7727,"felt":7728,"anging":7729,"meld":7730,"definit":7731,"07":7732,"remind":7733,"ergän":7734,"networks":7735,"Vereinten":7736,"Som":7737,"Schiff":7738,"Prioritäten":7739,"3D":7740,"anlagen":7741,"compat":7742,"experts":7743,"openhagen":7744,"arf":7745,"prüfung":7746,"Maschinen":7747,"staatlichen":7748,"fixed":7749,"üp":7750,"urban":7751,"Webseite":7752,"Frankfurt":7753,"chmal":7754,"Ban":7755,"haften":7756,"difficulties":7757,"recognis":7758,"metres":7759,"utin":7760,"auty":7761,"suppl":7762,"Kindern":7763,"konkrete":7764,"drawn":7765,"ju":7766,"His":7767,"Check":7768,"gefordert":7769,"Private":7770,"Note":7771,"actual":7772,"Währungs":7773,"celebr":7774,"entirely":7775,"ai":7776,"lement":7777,"konzentrieren":7778,"components":7779,"dagegen":7780,"Kompon":7781,"alley":7782,"Zweifel":7783,"Band":7784,"MA":7785,"nieder":7786,"Tätigkeit":7787,"gewinnen":7788,"Mechan":7789,"dealing":7790,"tte":7791,"spielt":7792,"Herausforderung":7793,"flexibility":7794,"Anteil":7795,"gewicht":7796,"paragraph":7797,"rufen":7798,"euch":7799,"ips":7800,"gebiet":7801,"Associ":7802,"Most":7803,"inal":7804,"sold":7805,"connected":7806,"Firstly":7807,"darunter":7808,"Pun":7809,"rank":7810,"wirks":7811,"Unabhäng":7812,"Sinn":7813,"dens":7814,"criminal":7815,"Casino":7816,"exclusive":7817,"bequem":7818,"refuge":7819,"49":7820,"informed":7821,"behör":7822,"stände":7823,"hindert":7824,"sized":7825,"Research":7826,"strict":7827,"shower":7828,"finanzielle":7829,"esterday":7830,"ökonom":7831,"Katastrop":7832,"core":7833,"acqu":7834,"Poland":7835,"dish":7836,"amin":7837,"Gästebewertungen":7838,"hands":7839,"zählen":7840,"rain":7841,"Dennoch":7842,"Einigung":7843,"kel":7844,"iles":7845,"Leistungen":7846,"gesp":7847,"Ed":7848,"durchaus":7849,"amente":7850,"elimin":7851,"Charakter":7852,"Brüssel":7853,"ausdrücklich":7854,"Fle":7855,"declar":7856,"Harmon":7857,"opposition":7858,"http":7859,"Beschl":7860,"bemer":7861,"Grenz":7862,"cook":7863,"presence":7864,"eingerichtet":7865,"chron":7866,"aucher":7867,"darstellen":7868,"tourism":7869,"Because":7870,"anspr":7871,"Programms":7872,"Schengen":7873,"tut":7874,"Barro":7875,"Sach":7876,"Teile":7877,"domestic":7878,"signal":7879,"seriously":7880,"beds":7881,"consideration":7882,"degree":7883,"Verständ":7884,"informieren":7885,"Dav":7886,"hafte":7887,"kaufen":7888,"Policy":7889,"Ti":7890,"playing":7891,"Meter":7892,"Übergang":7893,"entweder":7894,"gradu":7895,"welcher":7896,"helpful":7897,"exter":7898,"Forum":7899,"wollte":7900,"drop":7901,"saw":7902,"kund":7903,"suite":7904,"Texte":7905,"Schlaf":7906,"Versch":7907,"accur":7908,"05":7909,"Rum":7910,"grade":7911,"Rä":7912,"bericht":7913,"ecutive":7914,"Prag":7915,"besitz":7916,"preise":7917,"Übereinkommen":7918,"entstehen":7919,"Arbeiten":7920,"ordinary":7921,"Top":7922,"Zeitraum":7923,"Once":7924,"Krä":7925,"gewährleistet":7926,"ication":7927,"bodies":7928,"Bran":7929,"icks":7930,"Adr":7931,"landsc":7932,"einiger":7933,"Gebieten":7934,"vereinbar":7935,"purchase":7936,"humanitarian":7937,"öffnen":7938,"beha":7939,"assure":7940,"freut":7941,"Under":7942,"tie":7943,"detail":7944,"threat":7945,"äden":7946,"Ba":7947,"Economic":7948,"benötigt":7949,"estate":7950,"authority":7951,"spie":7952,"played":7953,"EADS":7954,"ameter":7955,"möglichst":7956,"aims":7957,"splä":7958,"impress":7959,"mögliche":7960,"Lehr":7961,"Worte":7962,"Königreich":7963,"igkeits":7964,"geleistet":7965,"Regul":7966,"Aspekt":7967,"MO":7968,"sand":7969,"propose":7970,"nächste":7971,"vertrag":7972,"verloren":7973,"erfolgen":7974,"verlei":7975,"enormous":7976,"beauf":7977,"Aufbau":7978,"erleben":7979,"database":7980,"lokalen":7981,"Poker":7982,"ending":7983,"diskutieren":7984,"scher":7985,"Mitte":7986,"inside":7987,"belong":7988,"sage":7989,"aspect":7990,"Leistung":7991,"kräfte":7992,"ores":7993,"wait":7994,"erstellen":7995,"wonderful":7996,"schreiben":7997,"abgeschlossen":7998,"cin":7999,"Support":8000,"cards":8001,"larger":8002,"besuchen":8003,"Sem":8004,"yn":8005,"easier":8006,"appears":8007,"195":8008,"leitung":8009,"contr":8010,"politischer":8011,"konferenz":8012,"unterstütze":8013,"PDF":8014,"kräft":8015,"sle":8016,"licherweise":8017,"jeweils":8018,"percent":8019,"meetings":8020,"Hauses":8021,"telephone":8022,"offee":8023,"average":8024,"ometer":8025,"zz":8026,"tests":8027,"items":8028,"erklären":8029,"etze":8030,"icians":8031,"EP":8032,"vernünft":8033,"Februar":8034,"95":8035,"bio":8036,"Anges":8037,"ength":8038,"Meiner":8039,"nennen":8040,"65":8041,"Zeiten":8042,"geschehen":8043,"600":8044,"God":8045,"isine":8046,"scen":8047,"Flücht":8048,"concrete":8049,"Barroso":8050,"buildings":8051,"800":8052,"schech":8053,"Komfort":8054,"bound":8055,"Entsch":8056,"Afrika":8057,"rep":8058,"App":8059,"Entschließungsantrag":8060,"owners":8061,"abilities":8062,"eit":8063,"Wirk":8064,"qualität":8065,"reise":8066,"verw":8067,"kostenlos":8068,"balanced":8069,"gezogen":8070,"Stellungnahme":8071,"ernsthaf":8072,"habit":8073,"church":8074,"delay":8075,"unacceptable":8076,"sin":8077,"überprüfen":8078,"komfort":8079,"Betrieb":8080,"Frem":8081,"Versuch":8082,"Name":8083,"ny":8084,"ünen":8085,"weight":8086,"Irish":8087,"Mun":8088,"Hersteller":8089,"Fen":8090,"pap":8091,"practices":8092,"Cur":8093,"het":8094,"peaceful":8095,"permanent":8096,"krat":8097,"gemüt":8098,"istence":8099,"signed":8100,"Sur":8101,"ental":8102,"starke":8103,"Forderungen":8104,"defence":8105,"numbers":8106,"teilweise":8107,"AU":8108,"discover":8109,"plätze":8110,"fügt":8111,"ni":8112,"sets":8113,"gelassen":8114,"Break":8115,"Hor":8116,"gegenseit":8117,"strength":8118,"veröffentlicht":8119,"vey":8120,"phil":8121,"politics":8122,"Link":8123,"Wi":8124,"beob":8125,"Asyl":8126,"Allgem":8127,"fear":8128,"houses":8129,"absolut":8130,"implementing":8131,"Due":8132,"Einhaltung":8133,"condem":8134,"reasonable":8135,"statements":8136,"entit":8137,"Angaben":8138,"photograph":8139,"Ps":8140,"betrachtet":8141,"vul":8142,"maßen":8143,"gelungen":8144,"vehicles":8145,"ök":8146,"availability":8147,"failure":8148,"Patienten":8149,"Messe":8150,"Hard":8151,"differences":8152,"happened":8153,"ügen":8154,"natur":8155,"Partnerschaft":8156,"Samm":8157,"myself":8158,"Ratsvorsitz":8159,"reducing":8160,"EF":8161,"Europeans":8162,"Rechnung":8163,"fulfil":8164,"orders":8165,"hner":8166,"carefully":8167,"Fi":8168,"Großbritannien":8169,"imag":8170,"Health":8171,"Verhältnis":8172,"acknow":8173,"Links":8174,"Eisen":8175,"erscheint":8176,"tür":8177,"geräum":8178,"Sorge":8179,"promoting":8180,"äger":8181,"liance":8182,"flanzen":8183,"reiber":8184,"Umfang":8185,"isierte":8186,"monetary":8187,"Click":8188,"Defin":8189,"fanta":8190,"owned":8191,"USB":8192,"Madrid":8193,"Black":8194,"trading":8195,"Nahrungs":8196,"punkte":8197,"advanced":8198,"gestalten":8199,"Achtung":8200,"täglich":8201,"Ul":8202,"angs":8203,"Entwicklungen":8204,"Kritik":8205,"korre":8206,"Est":8207,"ahead":8208,"unabhängig":8209,"Kil":8210,"Wald":8211,"machines":8212,"positiv":8213,"kulturellen":8214,"behaup":8215,"Ideen":8216,"experienced":8217,"producers":8218,"holt":8219,"persönlich":8220,"Tip":8221,"leiden":8222,"zeugung":8223,"calling":8224,"ente":8225,"charged":8226,"Irland":8227,"appoint":8228,"seven":8229,"Herstellung":8230,"packages":8231,"seh":8232,"becomes":8233,"Quest":8234,"Element":8235,"Wall":8236,"kul":8237,"unterschiedliche":8238,"profitieren":8239,"vertre":8240,"vents":8241,"erf":8242,"initial":8243,"tzen":8244,"names":8245,"wett":8246,"elegan":8247,"niemand":8248,"communications":8249,"06":8250,"PR":8251,"Kommissions":8252,"economies":8253,"feststellen":8254,"Arbeitslosigkeit":8255,"mbly":8256,"Verpflichtung":8257,"verlassen":8258,"establishment":8259,"verfolgt":8260,"gave":8261,"dennoch":8262,"spacious":8263,"Überwachung":8264,"Sehens":8265,"Kompeten":8266,"Num":8267,"introduce":8268,"Priorität":8269,"booking":8270,"Treffen":8271,"Komple":8272,"ads":8273,"karten":8274,"generally":8275,"endgült":8276,"Karten":8277,"hing":8278,"Wand":8279,"ishing":8280,"gegenwärtig":8281,"Technik":8282,"Press":8283,"geograph":8284,"Found":8285,"membership":8286,"consumption":8287,"demokratische":8288,"einsetzen":8289,"bruch":8290,"gg":8291,"wenigen":8292,"Stärkung":8293,"regionalen":8294,"aves":8295,"raise":8296,"umin":8297,"hingewiesen":8298,"üben":8299,"agencies":8300,"Gott":8301,"handels":8302,"Media":8303,"Führung":8304,"improvement":8305,"Mark":8306,"wirksam":8307,"Na":8308,"difference":8309,"Anlagen":8310,"Polen":8311,"dangerous":8312,"strongly":8313,"ennen":8314,"achtung":8315,"Austral":8316,"übertragen":8317,"Schw":8318,"gegenwärtigen":8319,"Prov":8320,"Tic":8321,"gelegten":8322,"Environment":8323,"neighbour":8324,"Ol":8325,"bereiten":8326,"unfortunately":8327,"ray":8328,"Diskrimin":8329,"Lesung":8330,"wirkt":8331,"Manager":8332,"Scho":8333,"umwelt":8334,"convin":8335,"Control":8336,"multi":8337,"ael":8338,"hosp":8339,"kunfts":8340,"Kingdom":8341,"03":8342,"worfen":8343,"erforderlichen":8344,"aufmerksam":8345,"roh":8346,"mack":8347,"noon":8348,"weiterer":8349,"hängen":8350,"Origin":8351,"zustimmen":8352,"Titel":8353,"Fortschritt":8354,"master":8355,"cuisine":8356,"earn":8357,"Format":8358,"47":8359,"Begriff":8360,"immediate":8361,"vollkommen":8362,"versorgung":8363,"passt":8364,"acts":8365,"kompliz":8366,"derer":8367,"schwe":8368,"verbundenen":8369,"ausgewä":8370,"Offen":8371,"conv":8372,"Street":8373,"expend":8374,"phase":8375,"Europäer":8376,"Problemen":8377,"grant":8378,"hose":8379,"Absatz":8380,"stone":8381,"told":8382,"stums":8383,"died":8384,"appar":8385,"EX":8386,"Kontin":8387,"typical":8388,"gewalt":8389,"Fire":8390,"kontext":8391,"gig":8392,"üter":8393,"impossible":8394,"convenient":8395,"imit":8396,"evidence":8397,"attach":8398,"führenden":8399,"Cam":8400,"Gran":8401,"zuvor":8402,"Trade":8403,"III":8404,"Resort":8405,"Gemeinsamen":8406,"eingeführt":8407,"dir":8408,"mine":8409,"motiv":8410,"Gleichzeitig":8411,"stil":8412,"Wien":8413,"tätig":8414,"adoption":8415,"üss":8416,"factory":8417,"wohner":8418,"2013":8419,"fiscal":8420,"Regelungen":8421,"Digital":8422,"genet":8423,"grammat":8424,"zig":8425,"rounded":8426,"suche":8427,"election":8428,"umfasst":8429,"Formen":8430,"zentrale":8431,"folgende":8432,"Zuständ":8433,"sensitive":8434,"guarantees":8435,"wortet":8436,"HO":8437,"Lam":8438,"Main":8439,"excess":8440,"frag":8441,"models":8442,"Angesichts":8443,"voice":8444,"Drogen":8445,"Et":8446,"combination":8447,"aums":8448,"tabel":8449,"geschützt":8450,"mittag":8451,"betroffen":8452,"Erklärungen":8453,"iegen":8454,"installed":8455,"jet":8456,"genuine":8457,"ehrte":8458,"überein":8459,"shared":8460,"Mat":8461,"Gewähr":8462,"Prime":8463,"DR":8464,"Rein":8465,"Nevertheless":8466,"Wür":8467,"continues":8468,"Klein":8469,"Mobil":8470,"toler":8471,"governmental":8472,"recognition":8473,"Bedürfnisse":8474,"African":8475,"dlichen":8476,"tasks":8477,"compla":8478,"vorliegenden":8479,"spent":8480,"Bewertung":8481,"wom":8482,"translation":8483,"qualifiz":8484,"Jeder":8485,"continued":8486,"district":8487,"medizin":8488,"Gent":8489,"Chancen":8490,"Geschäft":8491,"ffizienz":8492,"Agentur":8493,"garantiert":8494,"Geist":8495,"Bib":8496,"fare":8497,"Blog":8498,"schrän":8499,"wishes":8500,"aria":8501,"anyone":8502,"vielfält":8503,"associated":8504,"änge":8505,"bestell":8506,"trav":8507,"Heil":8508,"einfachen":8509,"grenzüber":8510,"Griechenland":8511,"Geschäftsordnung":8512,"Bern":8513,"miteinander":8514,"waiting":8515,"Player":8516,"Kopf":8517,"andidaten":8518,"legitim":8519,"offensichtlich":8520,"insurance":8521,"Strom":8522,"füll":8523,"Indien":8524,"zählt":8525,"keeping":8526,"background":8527,"Option":8528,"Vielzahl":8529,"mun":8530,"Polize":8531,"Terrasse":8532,"linge":8533,"iano":8534,"excl":8535,"Rezept":8536,"approxim":8537,"convinced":8538,"uba":8539,"ategory":8540,"98":8541,"truly":8542,"transition":8543,"finance":8544,"Finn":8545,"umfassende":8546,"Yet":8547,"haltet":8548,"führungen":8549,"Nutzer":8550,"changing":8551,"harm":8552,"Beschreibung":8553,"atures":8554,"Militär":8555,"reservation":8556,"organiz":8557,"instance":8558,"proof":8559,"allel":8560,"lösung":8561,"Registr":8562,"ibrary":8563,"Live":8564,"Heimat":8565,"closer":8566,"spending":8567,"Jahrhunderts":8568,"passed":8569,"figures":8570,"02":8571,"Klicken":8572,"hum":8573,"pi":8574,"attractive":8575,"Studio":8576,"collabor":8577,"Rou":8578,"stance":8579,"definition":8580,"Lizenz":8581,"beglück":8582,"eingere":8583,"Swe":8584,"Globalisierung":8585,"ashion":8586,"rock":8587,"Tourismus":8588,"Elemente":8589,"Pil":8590,"arten":8591,"satell":8592,"uster":8593,"Rechnungs":8594,"registered":8595,"grenzen":8596,"announced":8597,"ania":8598,"Verlust":8599,"Hafen":8600,"Mel":8601,"Märkte":8602,"Wün":8603,"Beif":8604,"mächt":8605,"enables":8606,"Act":8607,"Third":8608,"spo":8609,"gap":8610,"zö":8611,"participate":8612,"psych":8613,"marked":8614,"reliable":8615,"Distrib":8616,"Vien":8617,"nutz":8618,"ilateral":8619,"mak":8620,"Speicher":8621,"spezielle":8622,"length":8623,"Erst":8624,"örter":8625,"studies":8626,"spot":8627,"spread":8628,"1994":8629,"rough":8630,"stärk":8631,"Nah":8632,"üssen":8633,"Sof":8634,"ih":8635,"tran":8636,"learning":8637,"Enterprise":8638,"gewiss":8639,"conclusions":8640,"ieht":8641,"ernst":8642,"Wichtig":8643,"Mü":8644,"Cop":8645,"asil":8646,"iking":8647,"possibilities":8648,"ißen":8649,"barr":8650,"rightly":8651,"bieter":8652,"einfache":8653,"qualit":8654,"ECU":8655,"religious":8656,"04":8657,"outcome":8658,"gegründet":8659,"Einkommen":8660,"ambitious":8661,"atta":8662,"Maße":8663,"beteiligt":8664,"Jour":8665,"Van":8666,"ugos":8667,"sicherung":8668,"micro":8669,"Erhö":8670,"greatest":8671,"würdigkeiten":8672,"asyl":8673,"Association":8674,"langt":8675,"schiede":8676,"devices":8677,"ausreichend":8678,"courses":8679,"forth":8680,"Entwurf":8681,"ensions":8682,"perspective":8683,"tainment":8684,"wünsche":8685,"nötig":8686,"dimension":8687,"tenance":8688,"taste":8689,"matic":8690,"Roy":8691,"Turkish":8692,"sides":8693,"Mik":8694,"cm":8695,"Another":8696,"onto":8697,"Sonnen":8698,"jährigen":8699,"Konz":8700,"Worten":8701,"revolution":8702,"Flash":8703,"finde":8704,"factor":8705,"label":8706,"Mitteln":8707,"Atlant":8708,"rol":8709,"intervention":8710,"Gesprä":8711,"reden":8712,"dorf":8713,"keinerlei":8714,"honourable":8715,"Kohäs":8716,"mie":8717,"überall":8718,"Wechsel":8719,"Nether":8720,"Commun":8721,"glass":8722,"gebe":8723,"krank":8724,"bestätigt":8725,"CP":8726,"krieg":8727,"Where":8728,"42":8729,"endum":8730,"adapt":8731,"ologische":8732,"capable":8733,"allowing":8734,"ata":8735,"article":8736,"Stein":8737,"iertes":8738,"orge":8739,"store":8740,"Breakfast":8741,"advance":8742,"match":8743,"Mitglieds":8744,"venue":8745,"wettbewer":8746,"verabschie":8747,"asylum":8748,"Back":8749,"blog":8750,"exhibition":8751,"elected":8752,"clo":8753,"Gründe":8754,"JavaScript":8755,"Find":8756,"appeal":8757,"Marketing":8758,"erei":8759,"Syn":8760,"Palestinian":8761,"dated":8762,"Teilnehmer":8763,"citizen":8764,"update":8765,"mode":8766,"Foundation":8767,"gegangen":8768,"indire":8769,"wendet":8770,"Santa":8771,"seeing":8772,"kete":8773,"Paläst":8774,"Time":8775,"confir":8776,"Zahlen":8777,"commitments":8778,"interface":8779,"stimmt":8780,"advis":8781,"SA":8782,"Tab":8783,"haupts":8784,"Sound":8785,"NI":8786,"uting":8787,"respective":8788,"desire":8789,"angt":8790,"Alex":8791,"schir":8792,"großes":8793,"umn":8794,"desk":8795,"Gerichtshof":8796,"dispos":8797,"middle":8798,"phen":8799,"plays":8800,"solcher":8801,"cars":8802,"fand":8803,"gypt":8804,"größeren":8805,"coffee":8806,"internationaler":8807,"failed":8808,"nom":8809,"pure":8810,"Monat":8811,"Beteiligung":8812,"PPE":8813,"sale":8814,"asy":8815,"matik":8816,"wesentlichen":8817,"write":8818,"architecture":8819,"described":8820,"lehnt":8821,"Hinweis":8822,"Fore":8823,"unless":8824,"Datenbank":8825,"empfehlen":8826,"controls":8827,"Universität":8828,"grand":8829,"sämtliche":8830,"Verteidigung":8831,"books":8832,"Wiederauf":8833,"chnet":8834,"Verbrechen":8835,"Ruhe":8836,"hall":8837,"starken":8838,"istisch":8839,"Justice":8840,"Justiz":8841,"Schön":8842,"Grunde":8843,"Budget":8844,"completed":8845,"platform":8846,"komplett":8847,"ellos":8848,"Eastern":8849,"68":8850,"Gaz":8851,"Kombin":8852,"wealth":8853,"istik":8854,"Marken":8855,"Sehenswürdigkeiten":8856,"bag":8857,"scr":8858,"advertising":8859,"Beschäftigungs":8860,"vorschlag":8861,"vorschlagen":8862,"totally":8863,"erecht":8864,"diesel":8865,"Urs":8866,"sofern":8867,"relativ":8868,"Flexibilität":8869,"SC":8870,"klang":8871,"ral":8872,"ktors":8873,"Set":8874,"spät":8875,"wahren":8876,"correspon":8877,"Todes":8878,"payments":8879,"Anlage":8880,"skills":8881,"ergeben":8882,"moving":8883,"User":8884,"ller":8885,"Engl":8886,"garantieren":8887,"Dut":8888,"highlight":8889,"allery":8890,"udes":8891,"betrachten":8892,"Dorf":8893,"französischen":8894,"Saint":8895,"released":8896,"grundsätz":8897,"Custom":8898,"sensus":8899,"drin":8900,"Kontroll":8901,"Minutes":8902,"Freund":8903,"disease":8904,"Aussicht":8905,"Künstler":8906,"candidate":8907,"Experten":8908,"Größe":8909,"unit":8910,"okraten":8911,"combined":8912,"SV":8913,"compared":8914,"Geh":8915,"Architektur":8916,"obviously":8917,"schung":8918,"Niveau":8919,"Empfehlungen":8920,"exercise":8921,"250":8922,"technik":8923,"Deutsche":8924,"zufolge":8925,"benach":8926,"nachhaltige":8927,"colleague":8928,"außen":8929,"yesterday":8930,"attform":8931,"territory":8932,"sobald":8933,"chst":8934,"Verb":8935,"contrary":8936,"ärm":8937,"teilnehmen":8938,"aktionen":8939,"reception":8940,"achieving":8941,"Zugriff":8942,"erhöht":8943,"Gol":8944,"posite":8945,"Colle":8946,"MU":8947,"Mindest":8948,"command":8949,"gutes":8950,"Politiker":8951,"teten":8952,"nationaler":8953,"organised":8954,"route":8955,"Netherlands":8956,"Mir":8957,"delic":8958,"weapons":8959,"arbeite":8960,"Aktionen":8961,"änglich":8962,"danach":8963,"argument":8964,"Rob":8965,"Verständnis":8966,"ela":8967,"figur":8968,"Ereignisse":8969,"TP":8970,"stood":8971,"Great":8972,"erfordert":8973,".-":8974,"Botschaft":8975,"geist":8976,"observ":8977,"expenditure":8978,"Datenschutz":8979,"vorgeschlagenen":8980,"ausschusses":8981,"Dimension":8982,"leun":8983,"targets":8984,"holung":8985,"bewegen":8986,"limits":8987,"Beihilfen":8988,"beinhaltet":8989,"individuals":8990,"Croat":8991,"NL":8992,"Vorsitzen":8993,"memory":8994,"Kind":8995,"ausgewogen":8996,"himself":8997,"ungsverfahren":8998,"sequent":8999,"Kirche":9000,"jüngsten":9001,"Methode":9002,"lect":9003,"unternommen":9004,"cycle":9005,"Formular":9006,"atever":9007,"unable":9008,"hergestellt":9009,"älfte":9010,"stimul":9011,"Studien":9012,"faces":9013,"annt":9014,"Thus":9015,"Risiken":9016,"pil":9017,"zerstör":9018,"ena":9019,"Hoffnung":9020,"meant":9021,"spezial":9022,"factors":9023,"EW":9024,"Summit":9025,"earth":9026,"bett":9027,"biggest":9028,"extended":9029,"si":9030,"einverstanden":9031,"informiert":9032,"court":9033,"ktivität":9034,"Realität":9035,"Sar":9036,"Tisch":9037,"equality":9038,"goals":9039,"Seine":9040,"Zoll":9041,"television":9042,"besitzt":9043,"Mutter":9044,"Day":9045,"Syr":9046,"Those":9047,"rechtlichen":9048,"Gegenteil":9049,"liter":9050,"Ear":9051,"amoun":9052,"Nu":9053,"museum":9054,"inspe":9055,"winn":9056,"fruit":9057,"labor":9058,"Welche":9059,"omb":9060,"governance":9061,"Gesetzgebung":9062,"storage":9063,"flug":9064,"Tha":9065,"erb":9066,"Journal":9067,"handlungen":9068,"Mitgliedern":9069,"spolit":9070,"Data":9071,"proz":9072,"griffe":9073,"neither":9074,"window":9075,"Ebenso":9076,"britischen":9077,"Kurz":9078,"threaten":9079,"successfully":9080,"Fotos":9081,"sorgfält":9082,"verteid":9083,"tzentr":9084,"tu":9085,"Paul":9086,"White":9087,"Eindruck":9088,"kmal":9089,"trollen":9090,"igrants":9091,"winden":9092,"chain":9093,"angene":9094,"patent":9095,"Front":9096,"speziellen":9097,"verste":9098,"mittels":9099,"establishing":9100,"Ausland":9101,"beaches":9102,"beginnt":9103,"öp":9104,"usual":9105,"bene":9106,"Hamburg":9107,"Hall":9108,"asking":9109,"Alban":9110,"estim":9111,"Sho":9112,"olo":9113,"Fraktionen":9114,"geschieht":9115,"Ganz":9116,"gä":9117,"accessible":9118,"evalu":9119,"piece":9120,"hlten":9121,"zusätzlich":9122,"Pers":9123,"Report":9124,"aktual":9125,"testen":9126,"Gebiete":9127,"Relig":9128,"granted":9129,"liothe":9130,"advice":9131,"continuing":9132,"Fert":9133,"iques":9134,"ancient":9135,"notice":9136,"Beob":9137,"engl":9138,"Städte":9139,"Beach":9140,"dedicated":9141,"subje":9142,"expression":9143,"prop":9144,"antages":9145,"nehmern":9146,"vulner":9147,"Bahnhof":9148,"raw":9149,"außerord":9150,"tten":9151,"daraus":9152,"glad":9153,"testing":9154,"arrival":9155,"Administr":9156,"allgemeine":9157,"song":9158,"voc":9159,"verletz":9160,"tent":9161,"ausführ":9162,"erneuer":9163,"fraud":9164,"grounds":9165,"Minderheiten":9166,"iber":9167,"chosen":9168,"appointed":9169,"grie":9170,"Obama":9171,"browser":9172,"agency":9173,"binding":9174,"Beifall":9175,"Bor":9176,"regeln":9177,"Bedarf":9178,"schneller":9179,"surface":9180,"device":9181,"iche":9182,"lastung":9183,"recommendations":9184,"obligations":9185,"lägen":9186,"gerufen":9187,"visual":9188,"independence":9189,"Vorteil":9190,"Corpor":9191,"Know":9192,"Vil":9193,"Verfüg":9194,"festgestellt":9195,"rown":9196,"Peter":9197,"Phase":9198,"hostels":9199,"jemand":9200,"wichtigste":9201,"Meeres":9202,"gewisse":9203,"Pool":9204,"constantly":9205,"philosop":9206,"mittelt":9207,"sell":9208,"merely":9209,"Show":9210,"Box":9211,"Refer":9212,"Plä":9213,"Wander":9214,"Ke":9215,"pä":9216,"ablen":9217,"Arbeitsmarkt":9218,"Gegensatz":9219,"Unabhängigkeit":9220,"ida":9221,"bezeichnet":9222,"ump":9223,"anischen":9224,"laut":9225,"ua":9226,"tried":9227,"Slow":9228,"intelle":9229,"promotion":9230,"perfectly":9231,"entitled":9232,"Liber":9233,"Latin":9234,"sequently":9235,"abol":9236,"meters":9237,"Grundrechte":9238,"Blue":9239,"Meinungs":9240,"jun":9241,"quer":9242,"künd":9243,"genannte":9244,"edia":9245,"Muslim":9246,"ichern":9247,"sec":9248,"ula":9249,"Verletz":9250,"prevention":9251,"claims":9252,"angeht":9253,"Special":9254,"Festival":9255,"Lob":9256,"sid":9257,"Prüfung":9258,"Bestandteil":9259,"story":9260,"Liberalisierung":9261,"Überprüfung":9262,"stream":9263,"gebil":9264,"England":9265,"surrounding":9266,"Erwart":9267,"globale":9268,"theit":9269,"umb":9270,"Vienna":9271,"versions":9272,"mechanism":9273,"burden":9274,"Michael":9275,"situations":9276,"advantages":9277,"maintenance":9278,"46":9279,"Wirkung":9280,"beruf":9281,"betroffenen":9282,"massive":9283,"Effizienz":9284,"türk":9285,"nar":9286,"onia":9287,"ador":9288,"Bol":9289,"herzlich":9290,"Foreign":9291,"eur":9292,"science":9293,"manchmal":9294,"Agency":9295,"Greek":9296,"wann":9297,"anen":9298,"Finan":9299,"geöffnet":9300,"consistent":9301,"existence":9302,"Unterkunft":9303,"gesellschaften":9304,"Voraussetzungen":9305,"OM":9306,"PRO":9307,"strategie":9308,"push":9309,"kontin":9310,"zentral":9311,"breitung":9312,"thes":9313,"communities":9314,"richtlinie":9315,"Fitness":9316,"hauptsächlich":9317,"pas":9318,"instru":9319,"intensive":9320,"Einkaufs":9321,"conclude":9322,"Beim":9323,"echte":9324,"rec":9325,"Teilen":9326,"oral":9327,"klusive":9328,"Ros":9329,"iode":9330,"beachten":9331,"Caf":9332,"Fa":9333,"ässer":9334,"Fax":9335,"recovery":9336,"Nichtr":9337,"Rumän":9338,"Wal":9339,"Model":9340,"Fü":9341,"trend":9342,"sicherstellen":9343,"ée":9344,"category":9345,"disch":9346,"arms":9347,"nearby":9348,"Schrif":9349,"guter":9350,"Nachrichten":9351,"vereign":9352,"schlagen":9353,"sovereign":9354,"urge":9355,"kehren":9356,"Ton":9357,"Win":9358,"laid":9359,"ausländ":9360,"Rome":9361,"pul":9362,"gesundheit":9363,"Diskriminierung":9364,"mov":9365,"Farben":9366,"Austrian":9367,"quid":9368,"ausreichen":9369,"gespe":9370,"consensus":9371,"veget":9372,"Express":9373,"Fac":9374,"intention":9375,"Romania":9376,"reagieren":9377,"ördert":9378,"ENT":9379,"inary":9380,"tend":9381,"holidays":9382,"einzigen":9383,"mes":9384,"discussing":9385,"sched":9386,"Niederland":9387,"Kurs":9388,"substantial":9389,"Ker":9390,"zil":9391,"bringing":9392,"besseren":9393,"diskutiert":9394,"atlant":9395,"Verkauf":9396,"fragt":9397,"journal":9398,"igem":9399,"addressed":9400,"organization":9401,"Mittelmeer":9402,"cat":9403,"personen":9404,"beauty":9405,"compl":9406,"fühlen":9407,"responsibilities":9408,"160":9409,"qualified":9410,"putting":9411,"produktion":9412,"Kyo":9413,"plause":9414,"kleiner":9415,"fuel":9416,"Bildungs":9417,"erh":9418,"tos":9419,"LT":9420,"deiner":9421,"Zustand":9422,"persönliche":9423,"Nichtraucher":9424,"Erhöhung":9425,"semin":9426,"Apparte":9427,"drän":9428,"organisationen":9429,"relaxing":9430,"dynamic":9431,"texts":9432,"Generation":9433,"extend":9434,"Muse":9435,"submit":9436,"vehicle":9437,"Methoden":9438,"Weitere":9439,"Kyoto":9440,"Tom":9441,"contents":9442,"railway":9443,"aufen":9444,"Sweden":9445,"colour":9446,"Korea":9447,"wers":9448,"employed":9449,"Prakt":9450,"Beschluss":9451,"120":9452,"yr":9453,"convent":9454,"Stadtzentr":9455,"Cypr":9456,"compliance":9457,"Koordinierung":9458,"geste":9459,"Wegen":9460,"blue":9461,"strengthening":9462,"Gut":9463,"cheap":9464,"gewünsch":9465,"ausende":9466,"boot":9467,"Pflicht":9468,"deration":9469,"outstanding":9470,"bekannten":9471,"itage":9472,"territorial":9473,"Skype":9474,"Both":9475,"ickt":9476,"nia":9477,"pill":9478,"kombin":9479,"Klimawandel":9480,"ura":9481,"holders":9482,"Regulation":9483,"dele":9484,"etter":9485,"gir":9486,"vak":9487,"Haut":9488,"bezieht":9489,"inens":9490,"trifft":9491,"Gefühl":9492,"explain":9493,"angel":9494,"flu":9495,"seeking":9496,"CC":9497,"fiz":9498,"Teilnahme":9499,"ansion":9500,"contained":9501,"Engine":9502,"causes":9503,"bureau":9504,"Akte":9505,"planned":9506,"aircraft":9507,"Energy":9508,"flight":9509,"weiteres":9510,"talks":9511,"luxury":9512,"900":9513,"fertigt":9514,"registration":9515,"Sun":9516,"politisch":9517,"85":9518,"approximately":9519,"idung":9520,"golf":9521,"sichts":9522,"ktions":9523,"praktisch":9524,"Fälle":9525,"beschäftigt":9526,"kürzlich":9527,"behandeln":9528,"Prodi":9529,"nations":9530,"ala":9531,"ordnungs":9532,"Export":9533,"Männer":9534,"Reaktion":9535,"decades":9536,"guaranteed":9537,"hebung":9538,"BR":9539,"Hälfte":9540,"auben":9541,"Class":9542,"modell":9543,"betont":9544,"examples":9545,"Bedenken":9546,"index":9547,"Nik":9548,"higkeit":9549,"übernommen":9550,"Gedanken":9551,"Roh":9552,"bindung":9553,"vieler":9554,"Kooperation":9555,"Streit":9556,"Ra":9557,"jungen":9558,"someone":9559,"metho":9560,"treated":9561,"respekt":9562,"Hostelsclub":9563,"Absicht":9564,"edge":9565,"Anti":9566,"physical":9567,"attacks":9568,"án":9569,"reply":9570,"preserv":9571,"zuverläss":9572,"1992":9573,"explan":9574,"ervice":9575,"akzeptiert":9576,"evaluation":9577,"brings":9578,"oram":9579,"regelmäßig":9580,"beeinfl":9581,"koordin":9582,"orgnis":9583,"Tool":9584,"usetzen":9585,"Reisen":9586,"romant":9587,"Anliegen":9588,"Sow":9589,"ideale":9590,"stellte":9591,"ländlichen":9592,"Angriff":9593,"ky":9594,"Austausch":9595,"disposal":9596,"ml":9597,"Chamber":9598,"ruhigen":9599,"truth":9600,"square":9601,"meist":9602,"wodurch":9603,"Vorbereitung":9604,"Lake":9605,"wing":9606,"Spiele":9607,"ignor":9608,"Ausnahme":9609,"patients":9610,"positiven":9611,"attractions":9612,"anbieten":9613,"Ass":9614,"Altstadt":9615,"liefern":9616,"läu":9617,"früh":9618,"Zahlungs":9619,"mlich":9620,"Beweis":9621,"schafft":9622,"präsentiert":9623,"Fenster":9624,"Hist":9625,"ategorie":9626,"competence":9627,"destroy":9628,"Institute":9629,"isierungs":9630,"fällen":9631,"schau":9632,"veranst":9633,"Unterschiede":9634,"Inner":9635,"welchen":9636,"default":9637,"zwungen":9638,"Financial":9639,"Alliance":9640,"remove":9641,"geiz":9642,"Company":9643,"enge":9644,"1000":9645,"Nachdem":9646,"werten":9647,"Palace":9648,"Sprach":9649,"FA":9650,"leads":9651,"Vielleicht":9652,"Diskussionen":9653,"höchst":9654,"Radio":9655,"sibly":9656,"Jahrzehn":9657,"selten":9658,"Details":9659,"technological":9660,"magn":9661,"Dokumente":9662,"dé":9663,"Komment":9664,"occasion":9665,"Graf":9666,"Sehr":9667,"incent":9668,"befassen":9669,"Willen":9670,"Vom":9671,"abhängig":9672,"Veröffentlich":9673,"investments":9674,"jährlich":9675,"verlieren":9676,"Federal":9677,"conduct":9678,"satellite":9679,"kurs":9680,"Located":9681,"esty":9682,"Übernach":9683,"issens":9684,"manufacturing":9685,"consolid":9686,"erscheinen":9687,"ws":9688,"zeß":9689,"unto":9690,"Non":9691,"river":9692,"cool":9693,"Martin":9694,"istenz":9695,"sprachen":9696,"assum":9697,"Rules":9698,"surpr":9699,"räume":9700,"verstärkt":9701,"agiert":9702,"Umständen":9703,"onial":9704,"Internationalen":9705,"conditioning":9706,"stö":9707,"rupt":9708,"sieben":9709,"secon":9710,"dealt":9711,"Anpassung":9712,"hit":9713,"Pop":9714,"folio":9715,"gewählt":9716,"complic":9717,"willkommen":9718,"error":9719,"Signal":9720,"41":9721,"asp":9722,"Schwar":9723,"industries":9724,"looks":9725,"mountains":9726,"Lö":9727,"fein":9728,"exec":9729,"Sanktionen":9730,"Charter":9731,"ius":9732,"teen":9733,"fashion":9734,"unanim":9735,"determined":9736,"Bill":9737,"Roll":9738,"spaces":9739,"stoffen":9740,"sanctions":9741,"quir":9742,"ague":9743,"aca":9744,"einzelne":9745,"berühmten":9746,"bereiche":9747,"Angebote":9748,"Browser":9749,"ergriffen":9750,"gearbeitet":9751,"agent":9752,"Schulden":9753,"migration":9754,"schritt":9755,"spezifischen":9756,"Pay":9757,"photos":9758,"Apartment":9759,"distin":9760,"gender":9761,"seitens":9762,"steel":9763,"warded":9764,"List":9765,"Lager":9766,"recognise":9767,"consultation":9768,"gestern":9769,"primarily":9770,"gone":9771,"consists":9772,"Paper":9773,"Dutch":9774,"Verfügbarkeit":9775,"Gebrauch":9776,"Thanks":9777,"Tim":9778,"Gesetze":9779,"HD":9780,"Rem":9781,"entscheid":9782,"bestand":9783,"surv":9784,"43":9785,"folgerungen":9786,"pp":9787,"theor":9788,"reject":9789,"smoking":9790,"Mak":9791,"wim":9792,"damals":9793,"optimal":9794,"üstung":9795,"reve":9796,"artists":9797,"überzeugen":9798,"therap":9799,"Kollege":9800,"deutsche":9801,"mutual":9802,"Ordnung":9803,"Fähigkeit":9804,"Delegation":9805,"wichtiges":9806,"unterschiedlich":9807,"Democrats":9808,"iced":9809,"lake":9810,"ücken":9811,"Solar":9812,"leadership":9813,"agno":9814,"derzeitigen":9815,"imper":9816,"grundlage":9817,"Fer":9818,"gigen":9819,"basiert":9820,"Argent":9821,"Handeln":9822,"participants":9823,"körper":9824,"igern":9825,"Audit":9826,"prinzip":9827,"begonnen":9828,"spezifische":9829,"genü":9830,"GNU":9831,"speakers":9832,"exception":9833,"Glas":9834,"eye":9835,"nochmals":9836,"bac":9837,"concil":9838,"regionale":9839,"older":9840,"controll":9841,"Aufgrund":9842,"Fischer":9843,"Tiere":9844,"stol":9845,"slight":9846,"surrounded":9847,"diversity":9848,"ktiver":9849,"systemat":9850,"lav":9851,"Before":9852,"accounts":9853,"OK":9854,"zugleich":9855,"Morgen":9856,"spartner":9857,"Square":9858,"emphasise":9859,"wachen":9860,"künst":9861,"junge":9862,"Brazil":9863,"THE":9864,"symp":9865,"Dublin":9866,"compatible":9867,"Rezeption":9868,"Feld":9869,"fassen":9870,"multiple":9871,"meister":9872,"Maßnahme":9873,"kommun":9874,"Strategien":9875,"fug":9876,"autom":9877,"previously":9878,"ando":9879,"Bewegung":9880,"orgt":9881,"Amerika":9882,"umfassenden":9883,"carbon":9884,"A3":9885,"Schne":9886,"Antworten":9887,"Strukturfonds":9888,"formal":9889,"fuhr":9890,"Gentoo":9891,"Pflanzen":9892,"Typ":9893,"eight":9894,"forum":9895,"Einklang":9896,"ora":9897,"Revolution":9898,"manufacturers":9899,"formed":9900,"plug":9901,"delegation":9902,"oted":9903,"Veranstaltungen":9904,"favor":9905,"Perspe":9906,"soft":9907,"significantly":9908,"Landschaft":9909,"inspir":9910,"bars":9911,"ifiziert":9912,"Landwirte":9913,"smaller":9914,"auchen":9915,"ships":9916,"nearly":9917,"couple":9918,"Joh":9919,"Unterschied":9920,"vous":9921,"Fu":9922,"furnished":9923,"griech":9924,"pleasure":9925,"Sä":9926,"identity":9927,"gegebenen":9928,"Untersuchung":9929,"Two":9930,"ía":9931,"mechanisms":9932,"Alter":9933,"stations":9934,"sky":9935,"Update":9936,"Erde":9937,"wirt":9938,"Premier":9939,"improvements":9940,"Tibet":9941,"extreme":9942,"approval":9943,"entstanden":9944,"funktionieren":9945,"empt":9946,"thereby":9947,"700":9948,"Mach":9949,"traditionellen":9950,"Schwerpunkt":9951,"entially":9952,"driving":9953,"Definition":9954,"GDP":9955,"Andre":9956,"prepare":9957,"Besitz":9958,"knüp":9959,"Voraussetzung":9960,"Laufe":9961,"erheblich":9962,"species":9963,"Wachstums":9964,"Inseln":9965,"ampagne":9966,"Leitlinien":9967,"gs":9968,"dok":9969,"Grenze":9970,"disaster":9971,"Ferner":9972,"97":9973,"Grundsätze":9974,"repeated":9975,"vorgenommen":9976,"requested":9977,"Suite":9978,"resulting":9979,"Rund":9980,"calcul":9981,"proportion":9982,"Key":9983,"primary":9984,"Use":9985,"title":9986,"hi":9987,"Mehrwert":9988,"rejected":9989,"behörden":9990,"beraten":9991,"TA":9992,"fif":9993,"knows":9994,"Zimmern":9995,"endor":9996,"bildet":9997,"none":9998,"politicians":9999,"Autor":10000,"zurückzu":10001,"grenzüberschreiten":10002,"Reich":10003,"termine":10004,"TER":10005,"werfen":10006,"Einwanderung":10007,"glück":10008,"anerkannt":10009,"gebunden":10010,"Despite":10011,"breitet":10012,"ikas":10013,"representative":10014,"Bör":10015,"iente":10016,"Cook":10017,"domain":10018,"meldung":10019,"assign":10020,"Tai":10021,"aktuell":10022,"association":10023,"Kaffe":10024,"Zul":10025,"Studie":10026,"Mol":10027,"turned":10028,"abled":10029,"Stunde":10030,"märkte":10031,"genauso":10032,"sichtigung":10033,"entschlossen":10034,"igerung":10035,"zielt":10036,"aturen":10037,"abl":10038,"Krisen":10039,"incorpor":10040,"Erwachsen":10041,"haber":10042,"Erwä":10043,"itze":10044,"Kombination":10045,"drugs":10046,"ispiele":10047,"landscape":10048,"Dadurch":10049,"m2":10050,"balcon":10051,"Airbus":10052,"flächen":10053,"horiz":10054,"DI":10055,"ido":10056,"destru":10057,"BM":10058,"Dach":10059,"mittlung":10060,"falsch":10061,"ae":10062,"aktive":10063,"GU":10064,"Pin":10065,"Pod":10066,"aux":10067,"obst":10068,"geboren":10069,"konkreten":10070,"andal":10071,"wegs":10072,"Swed":10073,"fem":10074,"Enjoy":10075,"websites":10076,"beab":10077,"dritten":10078,"Hilfs":10079,"output":10080,"Regime":10081,"Gewicht":10082,"holding":10083,"presentation":10084,"schlecht":10085,"unzu":10086,"usche":10087,"fers":10088,"omas":10089,"Freude":10090,"constructive":10091,"Dy":10092,"Hal":10093,"resolve":10094,"Lou":10095,"Dienstleistungs":10096,"96":10097,"Jun":10098,"Action":10099,"Late":10100,"Anfragen":10101,"Berück":10102,"höchste":10103,"Via":10104,"fassung":10105,"sn":10106,"allgemein":10107,"vielmehr":10108,"orte":10109,"mutz":10110,"poten":10111,"helping":10112,"Sau":10113,"ima":10114,"imal":10115,"tact":10116,"Patent":10117,"Eigenschaften":10118,"controlled":10119,"attitude":10120,"Ferienwohn":10121,"expensive":10122,"subsidiar":10123,"quote":10124,"condemn":10125,"Hong":10126,"taxes":10127,"regelmäß":10128,"Master":10129,"renewable":10130,"Menü":10131,"Publik":10132,"antly":10133,"contemporary":10134,"Freunde":10135,"Allgemeinen":10136,"liber":10137,"spring":10138,"AND":10139,"Royal":10140,"servers":10141,"verlangen":10142,"Liebe":10143,"authent":10144,"beauftrag":10145,"unsten":10146,"straße":10147,"CR":10148,"substances":10149,"sight":10150,"nummer":10151,"Rh":10152,"Glau":10153,"keines":10154,"Gewinn":10155,"Genehm":10156,"expertise":10157,"künftig":10158,"dau":10159,"plate":10160,"Satell":10161,"faced":10162,"parlament":10163,"Eltern":10164,"reflect":10165,"Follow":10166,"seien":10167,"Temper":10168,"Genau":10169,"Strategy":10170,"discharge":10171,"Zusatz":10172,"Tagung":10173,"lair":10174,"wiederum":10175,"beschrieben":10176,"Normen":10177,"kinds":10178,"enger":10179,"schools":10180,"Rotary":10181,"penal":10182,"hospital":10183,"tech":10184,"USD":10185,"orien":10186,"Access":10187,"Straf":10188,"streben":10189,"dependent":10190,"wear":10191,"info":10192,"riesigen":10193,"ipul":10194,"MySQL":10195,"delivered":10196,"ikanischen":10197,"expectations":10198,"represented":10199,"launched":10200,"exists":10201,"helps":10202,"uts":10203,"zahlung":10204,"illustr":10205,"skin":10206,"Egypt":10207,"städ":10208,"opposite":10209,"permit":10210,"lieb":10211,"Stück":10212,"Konsequ":10213,"entdeck":10214,"weltweiten":10215,"begann":10216,"thers":10217,"Verträge":10218,"afford":10219,"Gesicht":10220,"Entwicklungsländern":10221,"Ladies":10222,"Ungleich":10223,"Dafür":10224,"Nachfrage":10225,"requests":10226,"liability":10227,"ieties":10228,"appreciate":10229,"Sens":10230,"imb":10231,"bud":10232,"dah":10233,"enjo":10234,"Geräte":10235,"solve":10236,"grundlegenden":10237,"offic":10238,"1993":10239,"Nice":10240,"Ram":10241,"schwar":10242,"ultim":10243,"Touristen":10244,"Atom":10245,"gericht":10246,"Flä":10247,"Jose":10248,"Kann":10249,"sehe":10250,"zunehmend":10251,"recognised":10252,"Vision":10253,"pour":10254,"schwierigen":10255,"Agrarpolitik":10256,"southern":10257,"bridge":10258,"compensation":10259,"installiert":10260,"stuff":10261,"dramat":10262,"WC":10263,"refugees":10264,"fordere":10265,"Garantie":10266,"quellen":10267,"ziemlich":10268,"switch":10269,"höhere":10270,"alp":10271,"Umweltschutz":10272,"happens":10273,"extension":10274,"zulegen":10275,"diction":10276,"snow":10277,"umgeben":10278,"util":10279,"amongst":10280,"Dort":10281,"ehemaligen":10282,"Balt":10283,"comply":10284,"Klimaanlage":10285,"View":10286,"zugänglich":10287,"privacy":10288,"feeling":10289,"aktivieren":10290,"itime":10291,"wesentliche":10292,"Good":10293,"Ohne":10294,"kulturelle":10295,"Copy":10296,"birth":10297,"holds":10298,"gratulieren":10299,"covers":10300,"Metro":10301,"suffering":10302,"warn":10303,"coher":10304,"akes":10305,"Gesam":10306,"führende":10307,"institutionellen":10308,"wachstum":10309,"isted":10310,"Maria":10311,"ventionen":10312,"bedroom":10313,"trial":10314,"zweifellos":10315,"beziehung":10316,"hilft":10317,"Papier":10318,"venture":10319,"zusätzlichen":10320,"opposed":10321,"Gebur":10322,"Fahrzeug":10323,"Verbesserungen":10324,"corner":10325,"directives":10326,"Safety":10327,"Expl":10328,"finding":10329,"password":10330,"mandate":10331,"sinnvoll":10332,"operators":10333,"arrangements":10334,"menschlichen":10335,"uchten":10336,"fighting":10337,"emphasis":10338,"vast":10339,"iso":10340,"Island":10341,"heber":10342,"beträcht":10343,"Hauptstadt":10344,"Schweden":10345,"Stadtzentrum":10346,"Tit":10347,"Westen":10348,"Audio":10349,"Berücksichtigung":10350,"Essen":10351,"Page":10352,"Tel":10353,"uters":10354,"ille":10355,"buchen":10356,"mobility":10357,"diseases":10358,"Serie":10359,"Einstellung":10360,"wettbewerbs":10361,"Kandidaten":10362,"beseit":10363,"shape":10364,"gefördert":10365,"Hindern":10366,"gence":10367,"freundliche":10368,"heavy":10369,"uung":10370,"Wahrheit":10371,"apter":10372,"blood":10373,"annes":10374,"excit":10375,"hoher":10376,"amerikanische":10377,"1980":10378,"disast":10379,"Ministers":10380,"jährige":10381,"combating":10382,"iebs":10383,"Sonn":10384,"Kamera":10385,"healthy":10386,"hie":10387,"loaded":10388,"Kranken":10389,"entscheidend":10390,"interessiert":10391,"drücken":10392,"Sud":10393,"kurzem":10394,"Swedish":10395,"stake":10396,"ameras":10397,"thedr":10398,"plicit":10399,"affairs":10400,"Vorsitz":10401,"bezug":10402,"Tatsächlich":10403,"spok":10404,"naturally":10405,"Bö":10406,"Weiß":10407,"stellungs":10408,"iern":10409,"tedly":10410,"ermaßen":10411,"weshalb":10412,"umzusetzen":10413,"experiences":10414,"Polizei":10415,"entspannen":10416,"Nahrungsmittel":10417,"Four":10418,"anner":10419,"Zwei":10420,"handling":10421,"figure":10422,"capt":10423,"Take":10424,"Turn":10425,"Freizeit":10426,"recommended":10427,"repeat":10428,"oples":10429,"Gästen":10430,"Plaza":10431,"Schnitt":10432,"Erwartungen":10433,"staatliche":10434,"Wur":10435,"hlte":10436,"Kategorie":10437,"maschinen":10438,"Instead":10439,"Rule":10440,"Jer":10441,"diverse":10442,"proud":10443,"engineering":10444,"historische":10445,"protecting":10446,"Mont":10447,"begrün":10448,"rapporteurs":10449,"valuable":10450,"manager":10451,"Like":10452,"cycling":10453,"Que":10454,"nos":10455,"lebnis":10456,"courage":10457,"KMU":10458,"Lord":10459,"obligation":10460,"Technology":10461,"erhältlich":10462,"waters":10463,"verwalt":10464,"defend":10465,"Mittelpunkt":10466,"Applause":10467,"Nein":10468,"Old":10469,"involvement":10470,"stron":10471,"Av":10472,"personally":10473,"wissenschaftlichen":10474,"intellect":10475,"außergewöhn":10476,"parallel":10477,"Plug":10478,"contrast":10479,"windigkeit":10480,"produkte":10481,"Brenn":10482,"geschäft":10483,"confirmed":10484,"Los":10485,"inflation":10486,"cra":10487,"neter":10488,"tragung":10489,"ausgezeichneten":10490,"articles":10491,"familiar":10492,"uppen":10493,"gänz":10494,"München":10495,"Optim":10496,"Materialien":10497,"ami":10498,"Massen":10499,"Theater":10500,"lebens":10501,"grundlegende":10502,"Kunde":10503,"ingu":10504,"filter":10505,"Harmonisierung":10506,"verhalten":10507,"treaty":10508,"kolle":10509,"Problems":10510,"attemp":10511,"Websites":10512,"Ku":10513,"betrieben":10514,"Boot":10515,"niemals":10516,"Original":10517,"Beispiele":10518,"auens":10519,"Munich":10520,"ahnen":10521,"Bibliothe":10522,"Umgang":10523,"kostet":10524,"Beratung":10525,"cro":10526,"involving":10527,"EZ":10528,"arische":10529,"Schule":10530,"relatively":10531,"increases":10532,"UNO":10533,"quarter":10534,"ausgezeichnete":10535,"BSE":10536,"reten":10537,"soweit":10538,"Emissionen":10539,"grad":10540,"Moun":10541,"individuell":10542,"thorough":10543,"Mut":10544,"eröffnet":10545,"ischung":10546,"kontakt":10547,"betrieb":10548,"präz":10549,"Befug":10550,"zöger":10551,"AID":10552,"minuten":10553,"iction":10554,"happening":10555,"abgelehnt":10556,"Soc":10557,"obstac":10558,"ändler":10559,"automatic":10560,"Hü":10561,"Champ":10562,"sicherungs":10563,"charming":10564,"Britain":10565,"determine":10566,"runs":10567,"Dauer":10568,"Klar":10569,"Süden":10570,"künfte":10571,"fertig":10572,"ulted":10573,"aufzunehmen":10574,"Kapaz":10575,"criticism":10576,"verändert":10577,"durchzuführen":10578,"Fein":10579,"Life":10580,"abling":10581,"kurr":10582,"officials":10583,"rare":10584,"straight":10585,"safeguard":10586,"Englisch":10587,"Kä":10588,"Prüf":10589,"millions":10590,"reserve":10591,"drawing":10592,"destination":10593,"unmittelbar":10594,"Bedien":10595,"Nahen":10596,"Sad":10597,"units":10598,"nischen":10599,"producing":10600,"Überzeugung":10601,"Heiz":10602,"Steuern":10603,"MEPs":10604,"Bucht":10605,"mur":10606,"Drittens":10607,"intend":10608,"Ag":10609,"Word":10610,"trotzdem":10611,"äten":10612,"ateful":10613,"fee":10614,"itäre":10615,"Abschnitt":10616,"equally":10617,"Welcome":10618,"regen":10619,"verändern":10620,"marquis":10621,"legungen":10622,"Jean":10623,"Rumänien":10624,"marg":10625,"schnelle":10626,"hervorragende":10627,"Div":10628,"opinions":10629,"profile":10630,"nachzu":10631,"wareness":10632,"ausgesprochen":10633,"kontrolle":10634,"debates":10635,"resolved":10636,"ierend":10637,"Ausgabe":10638,"consc":10639,"iene":10640,"Schäden":10641,"privile":10642,"entered":10643,"amounts":10644,"River":10645,"spür":10646,"detaill":10647,"resolutions":10648,"Standort":10649,"sparte":10650,"catalog":10651,"Ann":10652,"retain":10653,"Provin":10654,"certainty":10655,"Punkten":10656,"whatever":10657,"Very":10658,"Frü":10659,"decis":10660,"uel":10661,"reds":10662,"moved":10663,"bek":10664,"magaz":10665,"ofin":10666,"ipp":10667,"unktions":10668,"rational":10669,"2012":10670,"Mitgliedschaft":10671,"flüge":10672,"eingeschränkt":10673,"bekämpfen":10674,"acquis":10675,"Alternative":10676,"lip":10677,"centres":10678,"Fluss":10679,"Whe":10680,"Framework":10681,"direkte":10682,"largely":10683,"umping":10684,"igence":10685,"Brasil":10686,"Amts":10687,"depends":10688,"BIP":10689,"Distribution":10690,"Kn":10691,"hardware":10692,"Spann":10693,"komme":10694,"Szen":10695,"David":10696,"gewonnen":10697,"hoff":10698,"western":10699,"Redner":10700,"reaching":10701,"flat":10702,"peoples":10703,"strategies":10704,"zentralen":10705,"interessant":10706,"verlangt":10707,"ais":10708,"starten":10709,"Gesetzes":10710,"religiö":10711,"Question":10712,"Mas":10713,"creates":10714,"objects":10715,"TE":10716,".....":10717,"beglückwünschen":10718,"sauber":10719,"Studenten":10720,"terrorist":10721,"liberalisation":10722,"bemüht":10723,"besitzen":10724,"Urlau":10725,"Croatia":10726,"schließt":10727,"büro":10728,"orten":10729,"Entwicklungsländer":10730,"string":10731,"creative":10732,"Luxembourg":10733,"fällig":10734,"Änderungsanträgen":10735,"Mem":10736,"define":10737,"volume":10738,"zuerst":10739,"president":10740,"Frühstücks":10741,"SO":10742,"neuesten":10743,"takte":10744,"Anwendungs":10745,"conserv":10746,"regulatory":10747,"ehrgeiz":10748,"IX":10749,"rote":10750,"PA":10751,"zin":10752,"rev":10753,"Krimin":10754,"anschließen":10755,"applicable":10756,"entwickelten":10757,"behörde":10758,"Angst":10759,"lautet":10760,"Viertel":10761,"Haup":10762,"stes":10763,"ipel":10764,"Ausführungen":10765,"gehoben":10766,"Direkt":10767,"FOR":10768,"Zert":10769,"Projekten":10770,"Abkommens":10771,"CL":10772,"inzwischen":10773,"discovered":10774,"enthus":10775,"Strukturen":10776,"natürlichen":10777,"annehmen":10778,"contributions":10779,"exclusively":10780,"Berufs":10781,"Wirklichkeit":10782,"Kroat":10783,"HTML":10784,"exceptional":10785,"Ungar":10786,"Hohen":10787,"reichung":10788,"künftigen":10789,"passengers":10790,"Vi":10791,"faction":10792,"Krankheiten":10793,"restrictions":10794,"esch":10795,"Anbieter":10796,"Bulgaria":10797,"angehör":10798,"Fremden":10799,"beträgt":10800,"exc":10801,"volunt":10802,"entdecken":10803,"lets":10804,"münd":10805,"einrichtungen":10806,"aufgefordert":10807,"ursprünglichen":10808,"Erinner":10809,"named":10810,"removed":10811,"gi":10812,"Verfassungs":10813,"splätzen":10814,"paläst":10815,"SMEs":10816,"chnen":10817,"anze":10818,"restric":10819,"derartige":10820,"vollständige":10821,"liegenden":10822,"päck":10823,"WLAN":10824,"Cent":10825,"Grad":10826,"ffend":10827,"Meet":10828,"Eisenbahn":10829,"iary":10830,"beizu":10831,"proved":10832,"schätzung":10833,"plen":10834,"advoc":10835,"Farb":10836,"Ware":10837,"Norden":10838,"oli":10839,"secret":10840,"meat":10841,"ario":10842,"Client":10843,"Aktien":10844,"remote":10845,"ossen":10846,"ermut":10847,"impression":10848,"achte":10849,"Küste":10850,"Jedes":10851,"üg":10852,"sorgt":10853,"topic":10854,"yes":10855,"icon":10856,"fehlt":10857,"dritte":10858,"Vorschlägen":10859,"berechtigt":10860,"ethnic":10861,"zulassen":10862,"wirtschaftlicher":10863,"palästinens":10864,"grateful":10865,"betreffenden":10866,"österreich":10867,"deter":10868,"eigenes":10869,"Rich":10870,"denk":10871,"veran":10872,"discip":10873,"liste":10874,"Cho":10875,"awareness":10876,"ießen":10877,"schwed":10878,"aside":10879,"Armen":10880,"legally":10881,"weisung":10882,"heil":10883,"helped":10884,"nachhaltigen":10885,"Anschluss":10886,"wirklichen":10887,"Ratspräsidentschaft":10888,"requirement":10889,"italienischen":10890,"EB":10891,"Putin":10892,"andererseits":10893,"module":10894,"realistic":10895,"involve":10896,"precise":10897,"shad":10898,"ole":10899,"ittees":10900,"erweitert":10901,"lobby":10902,"boat":10903,"facilitate":10904,"Inc":10905,"gather":10906,"verabschiedet":10907,"Arme":10908,"ismen":10909,"aka":10910,"Partnern":10911,"thet":10912,"angehen":10913,"äumen":10914,"eds":10915,"Zusätz":10916,"temperature":10917,"Stahl":10918,"Empfehlung":10919,"verursacht":10920,"mini":10921,"erlauben":10922,"universal":10923,"würdigkeit":10924,"para":10925,"Bauern":10926,"erwähn":10927,"richtet":10928,"award":10929,"sers":10930,"Wird":10931,"zeichnis":10932,"Jack":10933,"uier":10934,"unent":10935,"Their":10936,"Got":10937,"TS":10938,"serves":10939,"dor":10940,"gold":10941,"reiz":10942,"legte":10943,"cable":10944,"Geschle":10945,"Kohäsion":10946,"teils":10947,"reserves":10948,"schlägt":10949,"Schatten":10950,"1989":10951,"CF":10952,"Veranstaltung":10953,"obtained":10954,"higkeiten":10955,"ativer":10956,"worse":10957,"tours":10958,"derart":10959,"correctly":10960,"anstatt":10961,"entlang":10962,"Verring":10963,"letzter":10964,"privat":10965,"bilateral":10966,"westlichen":10967,"latter":10968,"verdient":10969,"preparation":10970,"conciliation":10971,"leisure":10972,"vig":10973,"identify":10974,"1991":10975,"hervorheben":10976,"operational":10977,"zne":10978,"deals":10979,"ilst":10980,"parliaments":10981,"telefon":10982,"höchsten":10983,"Ausführung":10984,"ruhig":10985,"continent":10986,"connections":10987,"hart":10988,"gewinn":10989,"Music":10990,"furniture":10991,"Bew":10992,"bedrooms":10993,"cha":10994,"andon":10995,"bewält":10996,"Konto":10997,"curs":10998,"vess":10999,"Balkan":11000,"minority":11001,"Il":11002,"Puer":11003,"anke":11004,"trop":11005,"schätzen":11006,"Komponenten":11007,"visa":11008,"Ski":11009,"tlichen":11010,"reported":11011,"Plus":11012,"Bug":11013,"whilst":11014,"Pen":11015,"speaker":11016,"kurze":11017,"Zentralbank":11018,"Planung":11019,"schef":11020,"trees":11021,"Übereinstimmung":11022,"oring":11023,"welfare":11024,"auftreten":11025,"Entscheidungs":11026,"schirm":11027,"ops":11028,"locations":11029,"Drittländern":11030,"pick":11031,"LO":11032,"kette":11033,"Edit":11034,"erinner":11035,"ungefähr":11036,"ighten":11037,"flege":11038,"prohib":11039,"Maastr":11040,"ancy":11041,"School":11042,"ahme":11043,"messages":11044,"aps":11045,"Behinder":11046,"angebot":11047,"langsam":11048,"ticket":11049,"außerordentlich":11050,"Ret":11051,"ym":11052,"Rent":11053,"fänger":11054,"bele":11055,"conflicts":11056,"freiwill":11057,"Executive":11058,"COM":11059,"schauen":11060,"genehm":11061,"viet":11062,"Mode":11063,"collective":11064,"kans":11065,"ão":11066,"Proced":11067,"erstre":11068,"Elect":11069,"Ferr":11070,"Außenpolitik":11071,"geprüft":11072,"UM":11073,"wild":11074,"ograf":11075,"offices":11076,"Geträn":11077,"Indones":11078,"noise":11079,"stab":11080,"Frien":11081,"ruct":11082,"Programmen":11083,"Ambien":11084,"organizations":11085,"klaren":11086,"Arbeitsplätzen":11087,"chinesischen":11088,"Tschech":11089,"firms":11090,"Bemerkungen":11091,"wirkung":11092,"produziert":11093,"arma":11094,"rac":11095,"Konsens":11096,"tags":11097,"Fähigkeiten":11098,"answers":11099,"verbesser":11100,"Verbindungen":11101,"Kommunikations":11102,"geäuß":11103,"subsidies":11104,"investors":11105,"Director":11106,"Infl":11107,"habt":11108,"lev":11109,"faster":11110,"Optionen":11111,"angemessene":11112,"abroad":11113,"issued":11114,"aught":11115,"eyes":11116,"kontinuier":11117,"cam":11118,"geboten":11119,"Church":11120,"Arbeitsplatz":11121,"themat":11122,"cancel":11123,"cutting":11124,"focused":11125,"onomie":11126,"Gespräche":11127,"cold":11128,"swe":11129,"angesehen":11130,"sichere":11131,"dich":11132,"Polish":11133,"Subsid":11134,"schönsten":11135,"Vereinbarungen":11136,"effectiveness":11137,"Ambiente":11138,"kas":11139,"parents":11140,"Gestaltung":11141,"organisiert":11142,"dienste":11143,"Kontext":11144,"Automobil":11145,"statistics":11146,"depth":11147,"Prinzipien":11148,"dishes":11149,"durchführen":11150,"maintained":11151,"füllung":11152,"bestätigen":11153,"Stimmen":11154,"Einstellungen":11155,"ussen":11156,"charges":11157,"ceeded":11158,"übernimmt":11159,"usern":11160,"Stift":11161,"gewissen":11162,"metal":11163,"notwendige":11164,"Noch":11165,"Gleichgewicht":11166,"Kabel":11167,"sexual":11168,"ource":11169,"Übersetzung":11170,"Yes":11171,"delighted":11172,"wirtschaftlich":11173,"Amerikan":11174,"itag":11175,"onymous":11176,"impressive":11177,"Bir":11178,"bestimmen":11179,"Vorschlags":11180,"waffen":11181,"zza":11182,"verringern":11183,"battle":11184,"faith":11185,"Phone":11186,"derung":11187,"vergleich":11188,"streets":11189,"begrüßt":11190,"zeptabel":11191,"Farbe":11192,"contracts":11193,"spectac":11194,"kohol":11195,"bildungs":11196,"rohung":11197,"remaining":11198,"pieces":11199,"Kommun":11200,"iot":11201,"navig":11202,"assend":11203,"regularly":11204,"SAP":11205,"abgestimmt":11206,"warr":11207,"Cyprus":11208,"witness":11209,"ema":11210,"akzeptabel":11211,"spanischen":11212,"oud":11213,"Ziffer":11214,"Anwen":11215,"Einheit":11216,"bedau":11217,"Investitions":11218,"Asien":11219,"Struct":11220,"Israeli":11221,"Mall":11222,"flag":11223,"promises":11224,"verwe":11225,"updated":11226,"Schuld":11227,"aktiven":11228,"passiert":11229,"effektiv":11230,"Ima":11231,"echten":11232,"jetz":11233,"füllen":11234,"Lim":11235,"ziplin":11236,"Slovak":11237,"Edu":11238,"kill":11239,"sah":11240,"ilfe":11241,"vely":11242,"ifications":11243,"austausch":11244,"Plenum":11245,"nd":11246,"Perhaps":11247,"ministers":11248,"früheren":11249,"root":11250,"isto":11251,"Bestellung":11252,"Trag":11253,"Aktual":11254,"settings":11255,"displayed":11256,"Monte":11257,"Blut":11258,"hinzufügen":11259,"weather":11260,"productive":11261,"Plattform":11262,"Canada":11263,"beschleun":11264,"IK":11265,"Sund":11266,"George":11267,"corruption":11268,"gespielt":11269,"Verringerung":11270,"intent":11271,"sorge":11272,"veränder":11273,"aufnehmen":11274,"Verbot":11275,"Küsten":11276,"Vene":11277,"leichtern":11278,"journey":11279,"DC":11280,"Food":11281,"lists":11282,"DER":11283,"onsor":11284,"Garden":11285,"Japanese":11286,"Regierungskonferenz":11287,"DN":11288,"Abhäng":11289,"entertainment":11290,"Copenhagen":11291,"spekt":11292,"Agricult":11293,"customs":11294,"beschränkt":11295,"eins":11296,"hlung":11297,"usal":11298,"Ausstellung":11299,"erging":11300,"kommunik":11301,"classic":11302,"Baltic":11303,"arab":11304,"israel":11305,"zuständigen":11306,"Erholung":11307,"connect":11308,"dinner":11309,"Anmer":11310,"werb":11311,"lined":11312,"succeed":11313,"rechen":11314,"pharma":11315,"Sorgen":11316,"Washing":11317,"Werbung":11318,"understood":11319,"erleichtern":11320,"arded":11321,"vorlegen":11322,"schuld":11323,"ogen":11324,"definiert":11325,"pattern":11326,"Friday":11327,"sorgfältig":11328,"Ado":11329,"doesn":11330,"icans":11331,"demanding":11332,"functioning":11333,"channel":11334,"verbrauch":11335,"schwä":11336,"zustand":11337,"Halb":11338,"inser":11339,"Europol":11340,"tickets":11341,"Faktoren":11342,"license":11343,"66":11344,"lu":11345,"outdoor":11346,"Fran":11347,"Deswegen":11348,"perfekt":11349,"noted":11350,"accompan":11351,"counting":11352,"unmöglich":11353,"B5":11354,"melden":11355,"configuration":11356,"finished":11357,"emergency":11358,"bemühen":11359,"Vice":11360,"bezahlen":11361,"contacts":11362,"BO":11363,"disp":11364,"foll":11365,"scheinen":11366,"zugunsten":11367,"gänge":11368,"Glauben":11369,"pollution":11370,"Kat":11371,"remark":11372,"verhindert":11373,"Partners":11374,"wünsch":11375,"bike":11376,"Sauna":11377,"Mobile":11378,"treiben":11379,"Ausgangspunkt":11380,"ugosla":11381,"Taiwan":11382,"dining":11383,"voran":11384,"Newsletter":11385,"protocol":11386,"dans":11387,"katastrop":11388,"Beiträge":11389,"careful":11390,"Werkzeug":11391,"anspruchs":11392,"Dynam":11393,"residence":11394,"characteristics":11395,"mung":11396,"Vermögen":11397,"freundlich":11398,"definitely":11399,"somewhat":11400,"collect":11401,"Buchung":11402,"igsten":11403,"Clear":11404,"kurzen":11405,"phenomen":11406,"gespeichert":11407,"ausgeschlossen":11408,"solar":11409,"ani":11410,"ausgesetzt":11411,"hole":11412,"uttle":11413,"Nos":11414,"leaving":11415,"iest":11416,"einzigartige":11417,"newly":11418,"Jes":11419,"Besorgnis":11420,"Max":11421,"justified":11422,"Charta":11423,"Pia":11424,"Var":11425,"Betre":11426,"Fair":11427,"Subsidiar":11428,"declaration":11429,"Guide":11430,"expansion":11431,"Badezimmer":11432,"verleihen":11433,"Adobe":11434,"Eis":11435,"getrenn":11436,"radi":11437,"Schü":11438,"Krie":11439,"actively":11440,"forschung":11441,"BC":11442,"electricity":11443,"trafficking":11444,"behavi":11445,"rechtliche":11446,"divided":11447,"Year":11448,"Beam":11449,"einig":11450,"corded":11451,"verschiedener":11452,"Führer":11453,"ausgeführt":11454,"bart":11455,"judicial":11456,"supposed":11457,"layer":11458,"Amendments":11459,"idden":11460,"gallery":11461,"geprä":11462,"enthalt":11463,"Baby":11464,"Urspr":11465,"intensiv":11466,"sodass":11467,"zir":11468,"Symbol":11469,"Verfahrens":11470,"LateRooms":11471,"installieren":11472,"library":11473,"eral":11474,"Washington":11475,"gol":11476,"alts":11477,"artet":11478,"prosper":11479,"Ersatz":11480,"Alles":11481,"acting":11482,"serviert":11483,"ferner":11484,"iron":11485,"Gesellschaften":11486,"credibility":11487,"kurzfrist":11488,"Kompetenz":11489,"committees":11490,"Polit":11491,"Pact":11492,"cab":11493,"kal":11494,"itar":11495,"replace":11496,"welchem":11497,"hundreds":11498,"imposed":11499,"ikes":11500,"caf":11501,"cohol":11502,"Brand":11503,"conducted":11504,"Edition":11505,"anne":11506,"Festlegung":11507,"demonstrated":11508,"ongoing":11509,"iessen":11510,"Mobilität":11511,"visible":11512,"Tarif":11513,"stehende":11514,"tagen":11515,"pekt":11516,"uropäischen":11517,"thand":11518,"comed":11519,"Beziehung":11520,"Procedure":11521,"gezwungen":11522,"projekt":11523,"ст":11524,"gor":11525,"bottom":11526,"Read":11527,"parks":11528,"Marktes":11529,"drug":11530,"zusammenarbeiten":11531,"roads":11532,"Equ":11533,"Zyp":11534,"inhabit":11535,"trages":11536,"Schlafzimmer":11537,"enty":11538,"ultimately":11539,"SK":11540,"nut":11541,"director":11542,"appeared":11543,"Är":11544,"Congress":11545,"pic":11546,"youth":11547,"interessante":11548,"PO":11549,"tackle":11550,"abandon":11551,"musste":11552,"frequently":11553,"Funds":11554,"BA":11555,"fab":11556,"Ausstattung":11557,"recommendation":11558,"grenzung":11559,"facts":11560,"Einbeziehung":11561,"bahnhof":11562,"WF":11563,"transatlant":11564,"schule":11565,"Schau":11566,"bilater":11567,"stem":11568,"Thirdly":11569,"mista":11570,"Gefahren":11571,"geltenden":11572,"VAT":11573,"Marina":11574,"CON":11575,"entscheidende":11576,"Holiday":11577,"denkt":11578,"wohnen":11579,"demonstrate":11580,"Hamas":11581,"angegebenen":11582,"Block":11583,"walls":11584,"renovated":11585,"Cer":11586,"Milch":11587,"printing":11588,"Jac":11589,"durchschnitt":11590,"äußern":11591,"AKP":11592,"GM":11593,"Geheim":11594,"Argument":11595,"Veröffentlichung":11596,"gefügt":11597,"Alb":11598,"höheren":11599,"fantastic":11600,"Beste":11601,"Ungarn":11602,"CA":11603,"minorities":11604,"sozi":11605,"Zielen":11606,"heutige":11607,"coal":11608,"restruct":11609,"input":11610,"seat":11611,"wollten":11612,"ox":11613,"uh":11614,"Author":11615,"Defiz":11616,"drink":11617,"emerging":11618,"Energien":11619,"indicated":11620,"traum":11621,"invite":11622,"Wild":11623,"Vorbe":11624,"iana":11625,"sq":11626,"driver":11627,"Jede":11628,"akte":11629,"decorated":11630,"86":11631,"boost":11632,"firstly":11633,"properties":11634,"Mangel":11635,"teams":11636,"stoß":11637,"nahezu":11638,"Klasse":11639,"Gaza":11640,"fac":11641,"Feuer":11642,"Cha":11643,"Mexico":11644,"Able":11645,"Description":11646,"Webseiten":11647,"Pakete":11648,"castle":11649,"sätzen":11650,"gefallen":11651,"Balkon":11652,"Neue":11653,"fohlen":11654,"einfacher":11655,"involves":11656,"respected":11657,"surroundings":11658,"ifies":11659,"wiegen":11660,"Camping":11661,"traditions":11662,"solange":11663,"uese":11664,"frame":11665,"56":11666,"Kräfte":11667,"Training":11668,"Krankheit":11669,"supplement":11670,"virtual":11671,"Dass":11672,"reiter":11673,"verwand":11674,"oub":11675,"Tech":11676,"organized":11677,"chemical":11678,"Fast":11679,"twent":11680,"conce":11681,"owner":11682,"Asse":11683,"DS":11684,"decre":11685,"verehrte":11686,"ield":11687,"aussprechen":11688,"aggress":11689,"sleep":11690,"kter":11691,"Führungs":11692,"Verpack":11693,"scheidet":11694,"ès":11695,"Legal":11696,"bestehende":11697,"endorse":11698,"drivers":11699,"loyment":11700,"Haft":11701,"reveal":11702,"Poten":11703,"Riv":11704,"Wa":11705,"Geschäfte":11706,"finish":11707,"Chinas":11708,"ports":11709,"sauna":11710,"kos":11711,"schäd":11712,"Sollte":11713,"Maastricht":11714,"Games":11715,"teilungen":11716,"Pic":11717,"itra":11718,"roof":11719,"doors":11720,"Ausmaß":11721,"stamm":11722,"nunmehr":11723,"wesend":11724,"züge":11725,"Opposition":11726,"verf":11727,"mother":11728,"flexib":11729,"Dusche":11730,"Politiken":11731,"kreis":11732,"Selbstverständlich":11733,"zard":11734,"Konsult":11735,"gestaltet":11736,"amerika":11737,"Hof":11738,"endung":11739,"77":11740,"Nap":11741,"stronger":11742,"schicken":11743,"posing":11744,"geräte":11745,"idge":11746,"kens":11747,"Gerät":11748,"starts":11749,"globalisation":11750,"Wohlstand":11751,"lays":11752,"ausgegeben":11753,"russischen":11754,"dur":11755,"Fehl":11756,"vorhandenen":11757,"Mrd":11758,"Hardware":11759,"eu":11760,"iegel":11761,"crimes":11762,"documentation":11763,"52":11764,"überras":11765,"afternoon":11766,"sensible":11767,"beeindruck":11768,"concluded":11769,"GE":11770,"Bemerkung":11771,"GR":11772,"maintaining":11773,"Modul":11774,"Monetary":11775,"competent":11776,"erhebliche":11777,"berge":11778,"lounge":11779,"Untersuchungen":11780,"dos":11781,"sugar":11782,"usehen":11783,"joined":11784,"apest":11785,"Thurs":11786,"Vorhaben":11787,"patient":11788,"unfair":11789,"verurteilt":11790,"Legisl":11791,"einheitlichen":11792,"Mur":11793,"Insbesondere":11794,"suites":11795,"Gerichte":11796,"Versionen":11797,"kg":11798,"Kapitel":11799,"prozesses":11800,"kin":11801,"overcome":11802,"tatsäch":11803,"ère":11804,"direkten":11805,"Whether":11806,"nine":11807,"td":11808,"cash":11809,"Canon":11810,"ausend":11811,"proven":11812,"Spaz":11813,"dürfte":11814,"fing":11815,"Einschrän":11816,"Respekt":11817,"reduzieren":11818,"gyp":11819,"Donner":11820,"corresponding":11821,"spoken":11822,"Umfeld":11823,"ausschuß":11824,"Einw":11825,"depending":11826,"rapidly":11827,"bekämpfung":11828,"stored":11829,"collaboration":11830,"Viet":11831,"proposes":11832,"beschäftigen":11833,"northern":11834,"Town":11835,"obli":11836,"eingereicht":11837,"stylish":11838,"accompanied":11839,"dim":11840,"shap":11841,"constitutional":11842,"follows":11843,"atre":11844,"dary":11845,"ifor":11846,"itts":11847,"elles":11848,"Gegend":11849,"assets":11850,"ausgestatte":11851,"verstärken":11852,"inations":11853,"wellen":11854,"zneimit":11855,"Videos":11856,"bedauer":11857,"verkaufen":11858,"Identität":11859,"behaviour":11860,"Himm":11861,"verbringen":11862,"assume":11863,"Kongress":11864,"Filter":11865,"Mission":11866,"Erzeugnisse":11867,"Glaub":11868,"Reduz":11869,"updates":11870,"versamm":11871,"Nachricht":11872,"lasting":11873,"Gründung":11874,"Kilometer":11875,"zneimittel":11876,"Chair":11877,"Hans":11878,"channels":11879,"subsidiarity":11880,"gewährt":11881,"imedia":11882,"Portuguese":11883,"heating":11884,"strategischen":11885,"Fleisch":11886,"heritage":11887,"Robert":11888,"Individ":11889,"Detail":11890,"intellectual":11891,"verd":11892,"zonen":11893,"akten":11894,"scheme":11895,"exciting":11896,"Sektoren":11897,"generated":11898,"entscheidender":11899,"britische":11900,"entwurf":11901,"Medik":11902,"digit":11903,"glaub":11904,"......":11905,"Sollten":11906,"Image":11907,"kür":11908,"Schlussfolgerungen":11909,"schweren":11910,"lässlich":11911,"bach":11912,"lit":11913,"gehe":11914,"Kontrollen":11915,"Besonders":11916,"Job":11917,"norm":11918,"individuelle":11919,"Award":11920,"Tsch":11921,"agers":11922,"Bedrohung":11923,"Schweizer":11924,"systemen":11925,"vulnerable":11926,"determination":11927,"burger":11928,"Formul":11929,"spakt":11930,"distributed":11931,"beziehungen":11932,"DO":11933,"wiederholen":11934,"transportation":11935,"Network":11936,"gross":11937,"copyright":11938,"88":11939,"orca":11940,"showing":11941,"Prague":11942,"explicit":11943,"widely":11944,"schaffung":11945,"immigrants":11946,"drückt":11947,"programms":11948,"celer":11949,"UT":11950,"sac":11951,"inos":11952,"käu":11953,"Persön":11954,"Tabak":11955,"cow":11956,"father":11957,"Übersetz":11958,"Wünsche":11959,"Given":11960,"Soviet":11961,"ounge":11962,"entsteht":11963,"Niger":11964,"techniques":11965,"accident":11966,"eastern":11967,"looked":11968,"balcony":11969,"vorstellen":11970,"cuts":11971,"antworten":11972,"Orte":11973,"bindet":11974,"fäll":11975,"verantwortungs":11976,"erfolgreiche":11977,"alcohol":11978,"unverzüglich":11979,"Spar":11980,"returned":11981,"Cle":11982,"upper":11983,"ameters":11984,"Konzer":11985,"ziele":11986,"legitimate":11987,"satisfied":11988,"Who":11989,"geteilt":11990,"Balkans":11991,"Email":11992,"Vize":11993,"Festpl":11994,"prin":11995,"Ansprü":11996,"possibly":11997,"beruht":11998,"heat":11999,"izer":12000,"Gepäck":12001,"Wart":12002,"til":12003,"atom":12004,"lokale":12005,"desired":12006,"Sonne":12007,"ausgezeichnet":12008,"präsentieren":12009,"deficit":12010,"konkret":12011,"theoret":12012,"erinnert":12013,"exceed":12014,"ACP":12015,"Luxus":12016,"ergänzen":12017,"oni":12018,"jegliche":12019,"kultur":12020,"banking":12021,"settlement":12022,"Baum":12023,"artist":12024,"Rechtsstaat":12025,"Freiheiten":12026,"Semin":12027,"Rechnungshof":12028,"protest":12029,"Interess":12030,"visited":12031,"letztlich":12032,"encouraging":12033,"Michel":12034,"Women":12035,"zed":12036,"Philosop":12037,"grunde":12038,"interven":12039,"defe":12040,"Resolution":12041,"technologie":12042,"identified":12043,"schieden":12044,"Verbreitung":12045,"brut":12046,"maritime":12047,"taxation":12048,"beteiligen":12049,"catch":12050,"exklus":12051,"transactions":12052,"Road":12053,"functional":12054,"viertel":12055,"oriented":12056,"greif":12057,"metro":12058,"izza":12059,"vised":12060,"Zwecke":12061,"motive":12062,"ibel":12063,"faßt":12064,"vorbereitet":12065,"Oder":12066,"Single":12067,"Protection":12068,"Structural":12069,"Gemeinde":12070,"sharing":12071,"mostly":12072,"desto":12073,"Sche":12074,"signs":12075,"Investment":12076,"Genehmigung":12077,"Lounge":12078,"uated":12079,"Versamm":12080,"isses":12081,"interpre":12082,"offene":12083,"Katastrophe":12084,"foundation":12085,"ville":12086,"Event":12087,"verbinden":12088,"plenary":12089,"ziellen":12090,"Subsidiarität":12091,"Thursday":12092,"NIC":12093,"übt":12094,"eva":12095,"Systemen":12096,"eignet":12097,"Belgium":12098,"winning":12099,"Übernachtung":12100,"herrscht":12101,"smooth":12102,"maschine":12103,"itors":12104,"wald":12105,"resistance":12106,"federal":12107,"Marke":12108,"kamen":12109,"infr":12110,"plications":12111,"passenger":12112,"Professional":12113,"orama":12114,"Stor":12115,"autonom":12116,"Without":12117,"VP":12118,"enswert":12119,"Vietnam":12120,"stolz":12121,"bol":12122,"outh":12123,"worr":12124,"exports":12125,"widmet":12126,"confer":12127,"belangt":12128,"examine":12129,"dex":12130,"werks":12131,"sparen":12132,"Erkennt":12133,"horizon":12134,"ré":12135,"beigetragen":12136,"partly":12137,"chnitten":12138,"samer":12139,"bekräft":12140,"Sony":12141,"übrigens":12142,"department":12143,"anwesend":12144,"gerät":12145,"Lobby":12146,"weile":12147,"Amt":12148,"Übergangs":12149,"Vorstellung":12150,"individuellen":12151,"Belast":12152,"attend":12153,"performed":12154,"Nachhalt":12155,"Vill":12156,"sicheren":12157,"directory":12158,"Fundamental":12159,"Sudan":12160,"prene":12161,"ergie":12162,"proposing":12163,"bereitgestellt":12164,"occasions":12165,"Gang":12166,"Betrag":12167,"Kreuz":12168,"uds":12169,"dream":12170,"woman":12171,"Franc":12172,"Glaubwürdigkeit":12173,"burn":12174,"shares":12175,"ersetzt":12176,"angewand":12177,"placement":12178,"Haftung":12179,"Bereitstellung":12180,"Mitarbeitern":12181,"Pot":12182,"oured":12183,"personnel":12184,"fertigen":12185,"educational":12186,"deposit":12187,"relaxation":12188,"einbezogen":12189,"läßt":12190,"stars":12191,"inclusion":12192,"zugang":12193,"belling":12194,"begrenzt":12195,"jung":12196,"rul":12197,"Verlauf":12198,"solches":12199,"Rechtsgrundlage":12200,"jenen":12201,"Auge":12202,"losses":12203,"Schrift":12204,"Look":12205,"ilater":12206,"housing":12207,"72":12208,"VER":12209,"batter":12210,"legale":12211,"containing":12212,"grundsätzlich":12213,"decisive":12214,"dign":12215,"suppliers":12216,"absen":12217,"Consum":12218,"complicated":12219,"Vater":12220,"manufacturer":12221,"Ernähr":12222,"Malta":12223,"Northern":12224,"organisieren":12225,"Hon":12226,"Ill":12227,"rical":12228,"Ansichten":12229,"empfohlen":12230,"Law":12231,"Hungary":12232,"interpretation":12233,"Potenzial":12234,"commission":12235,"tobac":12236,"informationen":12237,"Passwort":12238,"preparing":12239,"Donnerstag":12240,"zellen":12241,"portal":12242,"holm":12243,"Preisen":12244,"eingehalten":12245,"Klaus":12246,"behandlung":12247,"regarded":12248,"rub":12249,"vorrang":12250,"geladen":12251,"inhabitants":12252,"Ltd":12253,"interior":12254,"auseinander":12255,"Anstieg":12256,"Thomas":12257,"Gi":12258,"Einer":12259,"flights":12260,"splans":12261,"nationally":12262,"Vel":12263,"gige":12264,"ión":12265,"rüstung":12266,"impose":12267,"Darum":12268,"Dal":12269,"visory":12270,"erfolgreichen":12271,"Haushaltsplan":12272,"Letz":12273,"Moz":12274,"distingu":12275,"Wohnung":12276,"verkauft":12277,"component":12278,"Beschlüsse":12279,"Naz":12280,"traditionelle":12281,"clubs":12282,"betreiben":12283,"Budapest":12284,"herzustellen":12285,"konfront":12286,"Within":12287,"avec":12288,"urg":12289,"offiziellen":12290,"behoben":12291,"schne":12292,"providers":12293,"anbelangt":12294,"adults":12295,"fleet":12296,"elsewhere":12297,"edition":12298,"schluß":12299,"certific":12300,"ror":12301,"wines":12302,"Erstellung":12303,"schefs":12304,"Apple":12305,"ächt":12306,"zugrunde":12307,"schreck":12308,"Cit":12309,"erlebt":12310,"windows":12311,"51":12312,"arrive":12313,"Bang":12314,"58":12315,"theme":12316,"Konstru":12317,"ansprechen":12318,"angebracht":12319,"präch":12320,"fernen":12321,"Versand":12322,"cosy":12323,"Konsequenzen":12324,"milk":12325,"voluntary":12326,"überprüft":12327,"licens":12328,"Männern":12329,"cot":12330,"newsp":12331,"unbe":12332,"saving":12333,"deleg":12334,"häuser":12335,"vermitteln":12336,"phones":12337,"gestattet":12338,"Betracht":12339,"Water":12340,"enhance":12341,"spannung":12342,"magnific":12343,"XP":12344,"festival":12345,"ancing":12346,"ensures":12347,"erreichbar":12348,"Tenn":12349,"Burg":12350,"ji":12351,"Bett":12352,"beantworten":12353,"bright":12354,"Mini":12355,"Urheber":12356,"declared":12357,"tobacco":12358,"neun":12359,"Content":12360,"makers":12361,"amaz":12362,"iesen":12363,"exit":12364,"Beschrän":12365,"Exchange":12366,"Sicherung":12367,"Freitag":12368,"investieren":12369,"Schluß":12370,"immers":12371,"Freunden":12372,"Autobahn":12373,"bonus":12374,"Source":12375,"Verhandlungs":12376,"album":12377,"thir":12378,"strafe":12379,"Bulgarien":12380,"üne":12381,"explore":12382,"vacation":12383,"Güter":12384,"biz":12385,"strugg":12386,"Stras":12387,"Eurozone":12388,"studio":12389,"Ler":12390,"Straß":12391,"crib":12392,"Zivilgesellschaft":12393,"iera":12394,"istern":12395,"chnung":12396,"beschreibung":12397,"uche":12398,"Hungarian":12399,"kernel":12400,"einst":12401,"ähnlich":12402,"dt":12403,"dark":12404,"cepts":12405,"verboten":12406,"Deutschen":12407,"EZB":12408,"Spazier":12409,"57":12410,"thr":12411,"Verzöger":12412,"Willkommen":12413,"AIDS":12414,"Line":12415,"partment":12416,"Prop":12417,"beliebt":12418,"Korruption":12419,"HU":12420,"professionals":12421,"Hat":12422,"universit":12423,"Verbraucherschutz":12424,"Sant":12425,"Gegenstand":12426,"Earth":12427,"islands":12428,"imports":12429,"Ministerpräsident":12430,"französische":12431,"Satz":12432,"Based":12433,"Sind":12434,"bislang":12435,"bedeutend":12436,"repair":12437,"specially":12438,"insist":12439,"Werbe":12440,"1970":12441,"Dou":12442,"Sl":12443,"replaced":12444,"abuse":12445,"Arzneimittel":12446,"Secret":12447,"referendum":12448,"sending":12449,"RA":12450,"inklusive":12451,"secur":12452,"einerseits":12453,"boast":12454,"Kollegin":12455,"Point":12456,"Extre":12457,"finanziert":12458,"FI":12459,"verän":12460,"versichern":12461,"zutage":12462,"cean":12463,"ROM":12464,"Prozesse":12465,"savings":12466,"revision":12467,"Zahlung":12468,"54":12469,"Wolf":12470,"pm":12471,"iebe":12472,"Puerto":12473,"facility":12474,"broadcast":12475,"Kaffee":12476,"allzu":12477,"Schwä":12478,"Schulen":12479,"generate":12480,"großem":12481,"Wähler":12482,"ieller":12483,"wave":12484,"bestimmter":12485,"Fußball":12486,"destruction":12487,"valley":12488,"internen":12489,"Entlastung":12490,"Wählen":12491,"räumen":12492,"Brasilien":12493,"Reduzierung":12494,"chest":12495,"stammen":12496,"Alpen":12497,"Überlegungen":12498,"Dor":12499,"afft":12500,"wiederholt":12501,"addresses":12502,"kö":12503,"packaging":12504,"großzü":12505,"elektronischen":12506,"menschliche":12507,"Following":12508,"Lay":12509,"benutz":12510,"covering":12511,"wissenschaftliche":12512,"Kroatien":12513,"werken":12514,"handle":12515,"fähr":12516,"raising":12517,"Tax":12518,"lessons":12519,"Rock":12520,"spectacular":12521,"ärkt":12522,"Ang":12523,"Head":12524,"zentren":12525,"awarded":12526,"kehrt":12527,"career":12528,"Fün":12529,"iations":12530,"Kontakte":12531,"zielen":12532,"fitness":12533,"Strasbourg":12534,"Zone":12535,"bewähr":12536,"wahlen":12537,"arguments":12538,"aer":12539,"audit":12540,"Gros":12541,"kapital":12542,"dun":12543,"infe":12544,"beur":12545,"Ägyp":12546,"exe":12547,"ennung":12548,"consent":12549,"ibar":12550,"Commer":12551,"sozialer":12552,"prime":12553,"Made":12554,"tested":12555,"Übrigen":12556,"commerce":12557,"Fig":12558,"führungs":12559,"tourists":12560,"insp":12561,"ausgerichtet":12562,"greatly":12563,"beobachten":12564,"uries":12565,"verwaltung":12566,"merk":12567,"cooperate":12568,"parad":12569,"prosperity":12570,"frem":12571,"bereichen":12572,"adopting":12573,"ursprünglich":12574,"niveau":12575,"ausschau":12576,"excessive":12577,"Assembly":12578,"erzeugt":12579,"emot":12580,"visiting":12581,"Liter":12582,"dee":12583,"Vorder":12584,"uminium":12585,"dokument":12586,"igert":12587,"Positionen":12588,"rt":12589,"sou":12590,"Consult":12591,"Pas":12592,"Gerecht":12593,"Wire":12594,"considering":12595,"ührt":12596,"ferenzen":12597,"Treib":12598,"harmonisation":12599,"Wikitra":12600,"chr":12601,"verwende":12602,"solely":12603,"Zusätzlich":12604,"CAP":12605,"recorded":12606,"iland":12607,"resource":12608,"ifizieren":12609,"Poly":12610,"adding":12611,"thousand":12612,"genügend":12613,"endet":12614,"Anlass":12615,"bling":12616,"stoßen":12617,"enabled":12618,"abstimmen":12619,"Quellen":12620,"division":12621,"Wissens":12622,"Schle":12623,"Präsent":12624,"integriert":12625,"vorzulegen":12626,"rising":12627,"tennis":12628,"ARE":12629,"extraordinary":12630,"Atlantic":12631,"supplies":12632,"sop":12633,"deutsch":12634,"suggestions":12635,"asen":12636,"hinweg":12637,"vieles":12638,"promised":12639,"sheet":12640,"Ten":12641,"Stoffe":12642,"Franz":12643,"lift":12644,"zell":12645,"inational":12646,"Schloss":12647,"beding":12648,"gardens":12649,"entwickelte":12650,"united":12651,"vorgeschlagene":12652,"Trotzdem":12653,"Modelle":12654,"Praktiken":12655,"gekenn":12656,"portfolio":12657,"senz":12658,"substance":12659,"Fis":12660,"hundert":12661,"zukünftigen":12662,"Wikitravel":12663,"hill":12664,"Wirtschaftswachstum":12665,"Alexander":12666,"67":12667,"army":12668,"topics":12669,"Wetter":12670,"beln":12671,"lösungen":12672,"acknowledge":12673,"labelling":12674,"ivals":12675,"difficulty":12676,"nevertheless":12677,"uble":12678,"geleitet":12679,"applying":12680,"pursue":12681,"aking":12682,"einzusetzen":12683,"Tools":12684,"Indian":12685,"schlechter":12686,"Spaß":12687,"Zür":12688,"kir":12689,"Notes":12690,"absence":12691,"Dra":12692,"lichten":12693,"lief":12694,"Einwohner":12695,"Fernseh":12696,"effizienz":12697,"Städten":12698,"slightly":12699,"Toch":12700,"lor":12701,"Staates":12702,"jener":12703,"künftige":12704,"herunterladen":12705,"shadow":12706,"53":12707,"zuständig":12708,"Widerspruch":12709,"Spitzen":12710,"weilen":12711,"tor":12712,"politically":12713,"empf":12714,"hundred":12715,"irs":12716,"brochen":12717,"allocated":12718,"spoke":12719,"pac":12720,"erzeug":12721,"verhält":12722,"Monday":12723,"zert":12724,"dog":12725,"LA":12726,"verfügbaren":12727,"gebieten":12728,"verteidigen":12729,"lehr":12730,"accurate":12731,"demokraten":12732,"gested":12733,"wäl":12734,"Flugzeug":12735,"satisfaction":12736,"verteilt":12737,"Werke":12738,"Call":12739,"én":12740,"folgung":12741,"Finanzierungs":12742,"Treat":12743,"Vari":12744,"reservations":12745,"fängt":12746,"ersetzen":12747,"elector":12748,"Quark":12749,"iring":12750,"Abfall":12751,"luxurious":12752,"japan":12753,"probleme":12754,"unterstreichen":12755,"Nummer":12756,"Az":12757,"lings":12758,"orer":12759,"Vereinfach":12760,"lovely":12761,"Still":12762,"comparison":12763,"Zucker":12764,"islam":12765,"appearance":12766,"fi":12767,"produkt":12768,"hostel":12769,"VIS":12770,"toile":12771,"ordnungen":12772,"behinder":12773,"Ref":12774,"geraten":12775,"institutionelle":12776,"Salzburg":12777,"gebildet":12778,"Provinz":12779,"oubtedly":12780,"Hen":12781,"Americans":12782,"eingerichte":12783,"Beweg":12784,"weisungen":12785,"Does":12786,"bedeutende":12787,"neighb":12788,"gänger":12789,"unning":12790,"Fron":12791,"betten":12792,"ivalent":12793,"Prozesses":12794,"vary":12795,"izüg":12796,"Gerade":12797,"specified":12798,"quarters":12799,"Budgets":12800,"fla":12801,"andern":12802,"reicher":12803,"Textil":12804,"cation":12805,"appointment":12806,"konfrontiert":12807,"Hu":12808,"laufenden":12809,"supplier":12810,"unentgel":12811,"deserv":12812,"voranzu":12813,"beeinträcht":12814,"Latein":12815,"gebiete":12816,"farming":12817,"langfristige":12818,"amed":12819,"Orient":12820,"aktiviert":12821,"lib":12822,"rats":12823,"forests":12824,"sem":12825,"courts":12826,"Energies":12827,"Alger":12828,"spreche":12829,"necessarily":12830,"umfassend":12831,"hervorgehoben":12832,"geführten":12833,"bergen":12834,"Prom":12835,"Meister":12836,"carrying":12837,"prechen":12838,"Meines":12839,"welcomed":12840,"ECB":12841,"Sein":12842,"iale":12843,"Bars":12844,"erwähnen":12845,"angepasst":12846,"begriffen":12847,"negotiating":12848,"NGOs":12849,"flows":12850,"Zy":12851,"Dokumenten":12852,"A5":12853,"Aqu":12854,"diss":12855,"elbe":12856,"kontaktieren":12857,"Satur":12858,"Angel":12859,"react":12860,"Sym":12861,"Gleichstellung":12862,"robust":12863,"Diplom":12864,"notes":12865,"unterzeichnet":12866,"empfangen":12867,"gedacht":12868,"ähnliche":12869,"reduziert":12870,"wirksame":12871,"Gerechtigkeit":12872,"reb":12873,"Allian":12874,"behaupten":12875,"Ken":12876,"lan":12877,"concepts":12878,"stick":12879,"Kulturen":12880,"Weiteren":12881,"Gewährleistung":12882,"BMW":12883,"GA":12884,"Pfe":12885,"cribe":12886,"Lok":12887,"itals":12888,"reaction":12889,"cession":12890,"Quality":12891,"towns":12892,"duties":12893,"Eth":12894,"zauber":12895,"vorange":12896,"Unternehmer":12897,"planet":12898,"Zusch":12899,"mu":12900,"vict":12901,"ysteme":12902,"beendet":12903,"complement":12904,"dankbar":12905,"Modernis":12906,"Vista":12907,"speichern":12908,"ér":12909,"Vizepräsident":12910,"Tochter":12911,"Millenn":12912,"Cup":12913,"routes":12914,"ipol":12915,"Serbia":12916,"Lieferung":12917,"URL":12918,"euros":12919,"diver":12920,"zukünftige":12921,"Emissions":12922,"jac":12923,"ipher":12924,"Anwender":12925,"iPhone":12926,"remarks":12927,"modules":12928,"analyse":12929,"bay":12930,"listings":12931,"Hot":12932,"läuter":12933,"Aktionsplan":12934,"Eigentum":12935,"ati":12936,"gehende":12937,"wechseln":12938,"Doc":12939,"tables":12940,"tene":12941,"wege":12942,"disabled":12943,"illegalen":12944,"abilität":12945,"kapaz":12946,"sad":12947,"Schon":12948,"Gefän":12949,"Organe":12950,"Objekt":12951,"forthcoming":12952,"PM":12953,"Nachbarn":12954,"crop":12955,"verdienen":12956,"ultane":12957,"significance":12958,"freedoms":12959,"icing":12960,"weitgehend":12961,"Metall":12962,"MP3":12963,"Cir":12964,"itim":12965,"tere":12966,"bekannte":12967,"stocks":12968,"Agriculture":12969,"religion":12970,"kett":12971,"entrance":12972,"Lag":12973,"Smo":12974,"mn":12975,"nien":12976,"uers":12977,"Geschmack":12978,"aub":12979,"trovers":12980,"representation":12981,"Dikt":12982,"FS":12983,"videos":12984,"gründen":12985,"entreprene":12986,"wirtschaften":12987,"78":12988,"absor":12989,"Belgien":12990,"fax":12991,"shipping":12992,"FC":12993,"muse":12994,"geschafft":12995,"sustainability":12996,"einzigartigen":12997,"Branche":12998,"Sunday":12999,"constitute":13000,"militärische":13001,"fly":13002,"gess":13003,"Anwesen":13004,"Zuständigkeit":13005,"Börse":13006,"ées":13007,"CHF":13008,"Fan":13009,"unterscheiden":13010,"Freizüg":13011,"manche":13012,"Besides":13013,"grav":13014,"societies":13015,"mittleren":13016,"gebeten":13017,"fans":13018,"ulpt":13019,"Chi":13020,"programming":13021,"vorliegende":13022,"Professor":13023,"attempts":13024,"Hunder":13025,"Parad":13026,"Import":13027,"Montag":13028,"Travel":13029,"weekend":13030,"Verhaltens":13031,"escap":13032,"rolle":13033,"demic":13034,"ghter":13035,"afrika":13036,"militärischen":13037,"blau":13038,"Finland":13039,"Spir":13040,"monopol":13041,"istry":13042,"konzentriert":13043,"gemeinschaftlichen":13044,"welcomes":13045,"strategische":13046,"lehnen":13047,"letztendlich":13048,"magnificent":13049,"multilateral":13050,"Wäl":13051,"ee":13052,"forcement":13053,"plenty":13054,"но":13055,"hingegen":13056,"render":13057,"dry":13058,"pread":13059,"doub":13060,"knapp":13061,"Katastrophen":13062,"Pläne":13063,"everyday":13064,"Kriegs":13065,"absur":13066,"irischen":13067,"overview":13068,"arbeitungs":13069,"optimale":13070,"Omb":13071,"garten":13072,"fleisch":13073,"firmly":13074,"Migr":13075,"förderung":13076,"Rap":13077,"gained":13078,"barriers":13079,"erfreut":13080,"invent":13081,"paying":13082,"einzigart":13083,"Perspektive":13084,"onien":13085,"surely":13086,"productivity":13087,"sha":13088,"mitteilen":13089,"prest":13090,"Stutt":13091,"invited":13092,"Suiten":13093,"receiving":13094,"Sloven":13095,"passion":13096,"supervision":13097,"gam":13098,"herum":13099,"Konzep":13100,"ACH":13101,"suggested":13102,"unabhängigen":13103,"realise":13104,"verbindet":13105,"poly":13106,"reserved":13107,"VI":13108,"abend":13109,"udsman":13110,"zweit":13111,"description":13112,"herrschen":13113,"Full":13114,"äume":13115,"Corporate":13116,"PSE":13117,"urteilung":13118,"tea":13119,"filled":13120,"Ebenen":13121,"figuration":13122,"Bonus":13123,"aution":13124,"spieler":13125,"praktische":13126,"Rab":13127,"iva":13128,"unentgeltlich":13129,"Having":13130,"VO":13131,"script":13132,"yon":13133,"centuries":13134,"bisherigen":13135,"Befür":13136,"gestellte":13137,"belle":13138,"judge":13139,"59":13140,"iga":13141,"grenze":13142,"günstig":13143,"Auditors":13144,"Friend":13145,"Stability":13146,"Umsatz":13147,"Situationen":13148,"spf":13149,"eingegangen":13150,"Fal":13151,"permitted":13152,"hierbei":13153,"kleines":13154,"Binnenmarktes":13155,"Mi":13156,"uk":13157,"tradem":13158,"obliged":13159,"wies":13160,"arbeits":13161,"vas":13162,"vorbei":13163,"cancer":13164,"Project":13165,"democrat":13166,"fourth":13167,"на":13168,"acceler":13169,"ernsthaft":13170,"Laut":13171,"fron":13172,"blind":13173,"Armee":13174,"tree":13175,"mussten":13176,"drinks":13177,"Ablehnung":13178,"Leiden":13179,"Herbst":13180,"flood":13181,"evident":13182,"Asian":13183,"ußt":13184,"Frist":13185,"fox":13186,"intelligent":13187,"liquid":13188,"Märkten":13189,"Widerstand":13190,"ventions":13191,"subjects":13192,"nights":13193,"uous":13194,"ôtel":13195,"prece":13196,"wunderschönen":13197,"Zypern":13198,"dliche":13199,"tan":13200,"sters":13201,"hast":13202,"Finanzkrise":13203,"Vorlage":13204,"yside":13205,"preventing":13206,"Runde":13207,"ulf":13208,"Bord":13209,"Bege":13210,"Guests":13211,"projekte":13212,"Freizügigkeit":13213,"ught":13214,"sprinzip":13215,"Demonstr":13216,"Tennis":13217,"bann":13218,"ares":13219,"surve":13220,"fähigen":13221,"Through":13222,"massage":13223,"reibt":13224,"max":13225,"directed":13226,"Oste":13227,"coordinated":13228,"icals":13229,"narrow":13230,"Nic":13231,"melt":13232,"intern":13233,"realer":13234,"rental":13235,"refers":13236,"Cub":13237,"university":13238,"leaves":13239,"klärung":13240,"korrekt":13241,"TEN":13242,"zit":13243,"Search":13244,"hilfre":13245,"erfordern":13246,"Grünen":13247,"organic":13248,"Gehminuten":13249,"Place":13250,"instructions":13251,"wiegend":13252,"contextual":13253,"estimated":13254,"Befugnisse":13255,"jetzigen":13256,"Ball":13257,"shot":13258,"humanitäre":13259,"athol":13260,"anch":13261,"Verarbeitung":13262,"liehen":13263,"hydr":13264,"introducing":13265,"restricted":13266,"Steuerung":13267,"unabhängige":13268,"Veränderung":13269,"beschränken":13270,"attrib":13271,"gefragt":13272,"bern":13273,"steigt":13274,"UNG":13275,"Should":13276,"Äuß":13277,"anische":13278,"Aufsichts":13279,"gewähren":13280,"kurrenz":13281,"ixel":13282,"enterprise":13283,"Sammlung":13284,"aling":13285,"merz":13286,"Attra":13287,"Fahrzeuge":13288,"undoubtedly":13289,"Leon":13290,"contributed":13291,"beauftragten":13292,"armen":13293,"embar":13294,"hearing":13295,"junkt":13296,"enabling":13297,"bestimmungen":13298,"Ehe":13299,"äum":13300,"überw":13301,"USS":13302,"Betreiber":13303,"Cookies":13304,"Statt":13305,"nachdrücklich":13306,"Playa":13307,"spiegelt":13308,"RI":13309,"colours":13310,"Tätigkeiten":13311,"encounter":13312,"Vorausschau":13313,"sought":13314,"Abschaffung":13315,"relative":13316,"uden":13317,"wrote":13318,"ín":13319,"etten":13320,"Commissioners":13321,"Verletzung":13322,"Pie":13323,"anhalten":13324,"arbit":13325,"Erfüllung":13326,"vollständigen":13327,"Rückkehr":13328,"Schüler":13329,"opolit":13330,"Islamic":13331,"lap":13332,"summar":13333,"bestellen":13334,"budgets":13335,"häfen":13336,"Jung":13337,"geschichte":13338,"bedded":13339,"films":13340,"investigation":13341,"multinational":13342,"unvergess":13343,"indicate":13344,"gart":13345,"explained":13346,"disasters":13347,"zivil":13348,"Addition":13349,"umsetzen":13350,"Erlebnis":13351,"Transfer":13352,"wil":13353,"ergibt":13354,"continuous":13355,"Geschen":13356,"Regierungschefs":13357,"Kas":13358,"auschen":13359,"breach":13360,"diplomat":13361,"begeg":13362,"Pac":13363,"Soft":13364,"TM":13365,"Lernen":13366,"Funktions":13367,"Berichten":13368,"Socialist":13369,"Beteiligten":13370,"Len":13371,"Song":13372,"Wed":13373,"abzusch":13374,"Regen":13375,"Parameter":13376,"Georgia":13377,"errors":13378,"reflected":13379,"alerie":13380,"gner":13381,"eless":13382,"besorgt":13383,"timet":13384,"Catal":13385,"weitern":13386,"Common":13387,"cells":13388,"eventually":13389,"lieber":13390,"festzulegen":13391,"retail":13392,"öffnung":13393,"vertrau":13394,"Facilities":13395,"covery":13396,"Schiffe":13397,"Frie":13398,"kilomet":13399,"proceedings":13400,"NO":13401,"Finde":13402,"Existenz":13403,"functionality":13404,"Ticket":13405,"Wär":13406,"irre":13407,"grös":13408,"vorgesehenen":13409,"einheitliche":13410,"anwend":13411,"Family":13412,"reflects":13413,"Wiederaufbau":13414,"Next":13415,"ibe":13416,"Spekt":13417,"hervorragenden":13418,"imagine":13419,"acknowled":13420,"obstacles":13421,"zwingen":13422,"seg":13423,"Kno":13424,"Rio":13425,"generations":13426,"hardly":13427,"uggage":13428,"erhoben":13429,"Ratschlag":13430,"everybody":13431,"specialist":13432,"gebühren":13433,"kontrollieren":13434,"departure":13435,"confirmation":13436,"gelesen":13437,"Train":13438,"korrig":13439,"erhöh":13440,"Dres":13441,"Entfern":13442,"Gerichts":13443,"uniform":13444,"uum":13445,"werben":13446,"upp":13447,"Flüchtlinge":13448,"A4":13449,"Minute":13450,"gesetzten":13451,"trends":13452,"Verg":13453,"Gemeinsame":13454,"dictator":13455,"Faktor":13456,"dei":13457,"concentrate":13458,"saved":13459,"inevit":13460,"Among":13461,"inj":13462,"renowned":13463,"fehler":13464,"enhanced":13465,"Mikro":13466,"zweck":13467,"Light":13468,"leiter":13469,"considerably":13470,"täus":13471,"homes":13472,"Stockholm":13473,"parameters":13474,"killed":13475,"Kontinent":13476,"Golden":13477,"argu":13478,"Bru":13479,"Drei":13480,"langfristig":13481,"bedanken":13482,"periods":13483,"Agenturen":13484,"approve":13485,"dert":13486,"aschen":13487,"unterliegen":13488,"Konflikte":13489,"Zahlungen":13490,"Dolom":13491,"Komplex":13492,"Moroc":13493,"Kanada":13494,"beings":13495,"Situated":13496,"Wirtschaftspolitik":13497,"Gelder":13498,"externen":13499,"geäußert":13500,"trieben":13501,"übersch":13502,"Secretary":13503,"rd":13504,"scene":13505,"brachte":13506,"methoden":13507,"dignity":13508,"unforget":13509,"Monitor":13510,"gefasst":13511,"missing":13512,"philosophy":13513,"anzeigen":13514,"zuges":13515,"Defen":13516,"believes":13517,"Abhängigkeit":13518,"deswegen":13519,"wice":13520,"Register":13521,"Satelliten":13522,"Kab":13523,"severe":13524,"ström":13525,"Merkmal":13526,"Sob":13527,"ardo":13528,"suffered":13529,"football":13530,"Vict":13531,"ito":13532,"gelingt":13533,"Direct":13534,"wachsenden":13535,"Ursachen":13536,"mist":13537,"experiment":13538,"Medizin":13539,"einzuführen":13540,"bedro":13541,"violations":13542,"Saison":13543,"täglichen":13544,"Sachen":13545,"countryside":13546,"Hostel":13547,"nützlich":13548,"Game":13549,"theory":13550,"armed":13551,"murder":13552,"Andere":13553,"machte":13554,"Reservierung":13555,"reffen":13556,"wirel":13557,"usive":13558,"HR":13559,"simultane":13560,"Katalog":13561,"nt":13562,"steuern":13563,"umfangreiche":13564,"trig":13565,"mens":13566,"operative":13567,"Bevölkerungs":13568,"gate":13569,"Ankunft":13570,"turning":13571,"panoram":13572,"Korre":13573,"mitglieder":13574,"Navig":13575,"Tausende":13576,"mern":13577,"heißen":13578,"Kriminalität":13579,"wireless":13580,"Hom":13581,"erkannt":13582,"anschließend":13583,"enthaltenen":13584,"Fernsehen":13585,"Vide":13586,"Verteilung":13587,"miles":13588,"Protocol":13589,"Lith":13590,"besonderer":13591,"strengthened":13592,"Space":13593,"Entwickler":13594,"angenehm":13595,"vereinbart":13596,"meaningfully":13597,"penalty":13598,"Kong":13599,"Applik":13600,"gast":13601,"achter":13602,"erry":13603,"fördert":13604,"exploitation":13605,"Administration":13606,"Meeting":13607,"etabl":13608,"placing":13609,"Implement":13610,"exclusion":13611,"GP":13612,"Nam":13613,"geplant":13614,"Gespräch":13615,"zurückzuführen":13616,"Fahrt":13617,"recognized":13618,"inenser":13619,"froh":13620,"könnt":13621,"Anton":13622,"Saddam":13623,"publication":13624,"cking":13625,"portug":13626,"Palästinenser":13627,"irl":13628,"ESS":13629,"Vort":13630,"ни":13631,"überaus":13632,"Geneva":13633,"Würde":13634,"BE":13635,"SW":13636,"gemä":13637,"transmission":13638,"Haben":13639,"tox":13640,"Ev":13641,"worst":13642,"Energieeffizienz":13643,"Doha":13644,"erhielt":13645,"leite":13646,"istiken":13647,"Genießen":13648,"jahres":13649,"otte":13650,"clause":13651,"Zeitung":13652,"Maschine":13653,"chat":13654,"designs":13655,"panel":13656,"Eingang":13657,"hoffentlich":13658,"Volkes":13659,"äufer":13660,"rechnen":13661,"banken":13662,"gestärkt":13663,"Vereinfachung":13664,"dic":13665,"Amb":13666,"Investoren":13667,"niederländ":13668,"NT":13669,"geld":13670,"deliber":13671,"betreffend":13672,"ambition":13673,"LED":13674,"fugen":13675,"ötz":13676,"bekommt":13677,"legten":13678,"radical":13679,"Bereitschaft":13680,"350":13681,"Verzeichnis":13682,"ello":13683,"Rechtsstaatlichkeit":13684,"checks":13685,"decade":13686,"Geschwindigkeit":13687,"Luxemburg":13688,"kontextuell":13689,"bsp":13690,"belief":13691,"normalen":13692,"spartei":13693,"XI":13694,"selling":13695,"Grundlagen":13696,"Parkplatz":13697,"produzieren":13698,"hers":13699,"zugelassen":13700,"herstellung":13701,"Allianz":13702,"compact":13703,"contextually":13704,"fishermen":13705,"indirect":13706,"gewe":13707,"Quad":13708,"Wirtschaftskrise":13709,"grammatically":13710,"Kam":13711,"Rechten":13712,"mmern":13713,"consulting":13714,"hur":13715,"kampf":13716,"inmitten":13717,"stages":13718,"Ausflüge":13719,"Urlaubs":13720,"Ombudsman":13721,"ova":13722,"adapted":13723,"zusammenzu":13724,"aufgezahlt":13725,"normalerweise":13726,"gegenwärtige":13727,"grammatisch":13728,"lots":13729,"Kommissionspräsident":13730,"Kopenhagen":13731,"adds":13732,"Immer":13733,"Listings":13734,"sections":13735,"Gewerk":13736,"worthy":13737,"sounds":13738,"hochwertige":13739,"bewältigen":13740,"Berichterstatters":13741,"Desktop":13742,"restructuring":13743,"nör":13744,"sau":13745,"bewahr":13746,"gehenden":13747,"Schlusselwort":13748,"Schlusselphrase":13749,"ökonomischen":13750,"Valen":13751,"schläge":13752,"ausgaben":13753,"restore":13754,"Wandel":13755,"hem":13756,"Print":13757,"vorschläge":13758,"LIN":13759,"wea":13760,"unterbrochen":13761,"Verfasser":13762,"Stärke":13763,"movements":13764,"gewünschten":13765,"prospe":13766,"combine":13767,"spolitischen":13768,"Hig":13769,"mouth":13770,"angewendet":13771,"Thailand":13772,"Halt":13773,"cz":13774,"apers":13775,"natürliche":13776,"geprägt":13777,"Bit":13778,"PP":13779,"Level":13780,"characters":13781,"Valley":13782,"anhand":13783,"thetic":13784,"Versor":13785,"130":13786,"92":13787,"Bewer":13788,"Empfang":13789,"Bestät":13790,"Internationale":13791,"iversary":13792,"tank":13793,"endar":13794,"Process":13795,"gestr":13796,"vine":13797,"Ergänz":13798,"existiert":13799,"ASE":13800,"entdeckst":13801,"Iron":13802,"doppel":13803,"itarian":13804,"ruf":13805,"Debatten":13806,"Registrierung":13807,"sovereignty":13808,"KDE":13809,"quet":13810,"hohem":13811,"Castle":13812,"kontextuellen":13813,"alarm":13814,"ESCO":13815,"Basel":13816,"blic":13817,"lah":13818,"artistic":13819,"eseit":13820,"excluded":13821,"internationally":13822,"Hohe":13823,"computers":13824,"festgelegten":13825,"Vent":13826,"verhandlungen":13827,"dargestellt":13828,"blocks":13829,"Straßburg":13830,"XML":13831,"Stiftung":13832,"angest":13833,"Charles":13834,"defiz":13835,"reput":13836,"vorbe":13837,"Tunes":13838,"sichtbar":13839,"Diam":13840,"urgently":13841,"conventional":13842,"Amerikaner":13843,"Pension":13844,"lichem":13845,"geringer":13846,"twenty":13847,"Ruf":13848,"senken":13849,"Lastly":13850,"Bibliothek":13851,"museums":13852,"managing":13853,"schnellen":13854,"Quelle":13855,"kture":13856,"oppelt":13857,"aga":13858,"cles":13859,"untersucht":13860,"ierender":13861,"Pfer":13862,"gelö":13863,"Generationen":13864,"oter":13865,"hinzufugen":13866,"afrikanischen":13867,"Komplett":13868,"missions":13869,"showed":13870,"horse":13871,"enorme":13872,"niedriger":13873,"eingestellt":13874,"Plat":13875,"regardless":13876,"dienstleistungen":13877,"Stamm":13878,"prag":13879,"erweitern":13880,"diesbezüglich":13881,"driven":13882,"Consequently":13883,"mistake":13884,"linken":13885,"engage":13886,"warrant":13887,"aufgebaut":13888,"vornehmen":13889,"undertaken":13890,"sichergestellt":13891,"delicious":13892,"Erinnerung":13893,"toug":13894,"fes":13895,"ride":13896,"EST":13897,"deeply":13898,"erstmals":13899,"tö":13900,"distort":13901,"Domain":13902,"xy":13903,"träglich":13904,"gelegenen":13905,"günstige":13906,"Kreditkarte":13907,"Petitions":13908,"FL":13909,"verweisen":13910,"politisches":13911,"villages":13912,"Mountain":13913,"Heizung":13914,"igend":13915,"berichten":13916,"arrived":13917,"anticip":13918,"geblieben":13919,"targeted":13920,"unforgettable":13921,"män":13922,"zun":13923,"Großteil":13924,"threats":13925,"Lehrer":13926,"Tests":13927,"uchte":13928,"arise":13929,"Beide":13930,"acted":13931,"discre":13932,"Reserve":13933,"enjoyed":13934,"Leitung":13935,"Jahrzehnten":13936,"Zürich":13937,"effiziente":13938,"mith":13939,"kommer":13940,"Nachbarschaft":13941,"mitglied":13942,"aufs":13943,"Schreiben":13944,"hierfür":13945,"Chem":13946,"Geburt":13947,"Beseit":13948,"gift":13949,"clin":13950,"collected":13951,"Lit":13952,"Phän":13953,"Vertrages":13954,"manif":13955,"verschl":13956,"Plane":13957,"acceptance":13958,"taxpay":13959,"Mallorca":13960,"agon":13961,"Arbeitgeber":13962,"Teams":13963,"Schwarz":13964,"Miß":13965,"outique":13966,"Abendessen":13967,"pressed":13968,"Öffnung":13969,"cleaning":13970,"Kohäsionspolitik":13971,"WE":13972,"Instruments":13973,"Vertrieb":13974,"honest":13975,"Häuser":13976,"Venice":13977,"bug":13978,"erzeugen":13979,"sud":13980,"steam":13981,"Stuttgart":13982,"Shar":13983,"lamente":13984,"tip":13985,"oration":13986,"ranging":13987,"Langu":13988,"bewe":13989,"Bearbeitung":13990,"sufficiently":13991,"110":13992,"James":13993,"istischer":13994,"Zugangs":13995,"municip":13996,"fähige":13997,"ku":13998,"lige":13999,"freely":14000,"stärkere":14001,"Dän":14002,"Luf":14003,"NE":14004,"reconstruction":14005,"icking":14006,"ädchen":14007,"IMF":14008,"Hels":14009,"TU":14010,"atis":14011,"boards":14012,"geeignete":14013,"Institut":14014,"inent":14015,"column":14016,"Reihen":14017,"highlighted":14018,"künstler":14019,"Offic":14020,"raid":14021,"idy":14022,"bedür":14023,"wärts":14024,"Schönheit":14025,"NET":14026,"brow":14027,"dating":14028,"lia":14029,"mittlungs":14030,"learned":14031,"perfekte":14032,"Tu":14033,"nord":14034,"Islands":14035,"Dritten":14036,"plied":14037,"briefly":14038,"vessels":14039,"zeige":14040,"Betten":14041,"classes":14042,"Barr":14043,"edited":14044,"endors":14045,"anno":14046,"geschätz":14047,"paint":14048,"HIV":14049,"reader":14050,"offizielle":14051,"Labour":14052,"bezogenen":14053,"pillar":14054,"destroyed":14055,"Alkohol":14056,"mehrfach":14057,"technisch":14058,"Traum":14059,"Kernel":14060,"kündigt":14061,"Niederlanden":14062,"vice":14063,"untersuchen":14064,"joining":14065,"komplette":14066,"Saturday":14067,"bing":14068,"relates":14069,"Fahrer":14070,"mutzung":14071,"äne":14072,"adi":14073,"indo":14074,"Performance":14075,"quiry":14076,"stör":14077,"bevölker":14078,"Anderer":14079,"Chile":14080,"Archiv":14081,"pin":14082,"plastic":14083,"konvention":14084,"wheel":14085,"kämpft":14086,"roots":14087,"haushalt":14088,"Dir":14089,"eventuell":14090,"Ce":14091,"ärten":14092,"ystems":14093,"prompt":14094,"tries":14095,"Parkplätze":14096,"Small":14097,"SU":14098,"dauern":14099,"fro":14100,"festen":14101,"ätzen":14102,"chester":14103,"pense":14104,"stattfindet":14105,"Darstellung":14106,"layout":14107,"BI":14108,"fees":14109,"lunch":14110,"Mandat":14111,"appell":14112,"Porto":14113,"Versorgung":14114,"mt":14115,"emb":14116,"Alters":14117,"filling":14118,"Währungsunion":14119,"lived":14120,"Parlamente":14121,"Berliner":14122,"freundlichen":14123,"quisite":14124,"trips":14125,"Truppen":14126,"Account":14127,"reliability":14128,"universities":14129,"prospects":14130,"ianischen":14131,"Welthand":14132,"Somit":14133,"Customer":14134,"pu":14135,"überwinden":14136,"supplied":14137,"Spielen":14138,"UNESCO":14139,"qualitativ":14140,"bellen":14141,"letters":14142,"wonach":14143,"portugies":14144,"cue":14145,"Anonymous":14146,"beenden":14147,"arbitr":14148,"iences":14149,"Safe":14150,"komfortable":14151,"formats":14152,"Smart":14153,"Holl":14154,"Would":14155,"Module":14156,"burgh":14157,"Portal":14158,"elektr":14159,"Wesentlichen":14160,"Fisher":14161,"Beseitigung":14162,"pools":14163,"sophist":14164,"Jos":14165,"Kürz":14166,"Lic":14167,"bedeut":14168,"bezahlt":14169,"editor":14170,"demograph":14171,"integrierten":14172,"Culture":14173,"Migration":14174,"ikt":14175,"überlassen":14176,"verschle":14177,"Christmas":14178,"Explorer":14179,"Bildschirm":14180,"infringe":14181,"beun":14182,"weich":14183,"wellness":14184,"zahlungen":14185,"inkel":14186,"derzeitige":14187,"Mängel":14188,"kratie":14189,"None":14190,"Leiter":14191,"Education":14192,"Tonnen":14193,"Zins":14194,"php":14195,"heading":14196,"Big":14197,"enem":14198,"spiele":14199,"Schlag":14200,"intends":14201,"Ideal":14202,"lers":14203,"Linien":14204,"han":14205,"verschär":14206,"cs":14207,"remained":14208,"zukommen":14209,"steigern":14210,"Index":14211,"GO":14212,"wage":14213,"tenden":14214,"decline":14215,"coherent":14216,"GAP":14217,"isations":14218,"highlights":14219,"Multi":14220,"71":14221,"Renten":14222,"türkischen":14223,
[...]
