#version: 0.2
e n</w>
e r
i n
t h
c h
e n
e r</w>
a n
u n
t i
th e</w>
r e
s t
d i
o n</w>
a r
o n
l i
o r
e i
e s</w>
a l
r o
c h</w>
s i
i n</w>
e l
e s
d er</w>
i s
an d</w>
a u
o f</w>
a t
w i
e in
t o</w>
un d</w>
di e</w>
e d</w>
i s</w>
o m
a s</w>
in g</w>
r a
o u
d en</w>
r i
s ch
b e
a t</w>
d e
g e
a n</w>
a ti
a s
o r</w>
un g</w>
i t
u r
o t
a l</w>
g en</w>
t en</w>
p o
o l
a b
t e</w>
a m
v er
u s
@ -
@- @</w>
l e
t er
en t</w>
q u
en t
l e</w>
i t</w>
d er
v e</w>
p ro
e h
i e</w>
a c
f ü
g e</w>
e c
T h
l y</w>
s p
d e</w>
v i
e t
e m
i ch
z u</w>
th at</w>
ch en</w>
h i
h r
n o
f or</w>
om m
f f
v on</w>
ati on</w>
l o
po s
ti on</w>
qu ot
t h</w>
s u
quot ;</w>
& quot;</w>
c on
c e</w>
n e
is t</w>
i l
w er
f or
fü r</w>
ar e</w>
z u
t e
s e</w>
ein e</w>
ro p
a r</w>
o p
m a
u rop
d es</w>
h a
g en
c i
t s</w>
u l
b e</w>
g i
S t
m it</w>
au f</w>
s t</w>
b er
ei n</w>
V er
ei t</w>
wi th</w>
a pos
& apos
d as</w>
b er</w>
e m</w>
Th e</w>
ch e</w>
E urop
e l</w>
i m
el l
a d
ati on
ich t</w>
e x
u t
s er
di es
l a
U n
un gen</w>
ou r</w>
d u
I n
d a
r u
s o</w>
t er</w>
ti on
si on</w>
f i
c k
t a
c o
de m</w>
li ch</w>
p or
a h
c om
th is</w>
s h
i m</w>
an d
w h
n en</w>
l l</w>
a g
w or
e d
a f
A n
l d</w>
S ie</w>
u m</w>
as s</w>
m o
z i
wi r
o u</w>
s en</w>
w ei
n icht</w>
al l</w>
ä n
u m
b y</w>
no t</w>
t u
R e
a p
wer den</w>
w e</w>
s e
r an
in d</w>
un g
g h
at e</w>
s o
er e</w>
w e
ha ve</w>
d ass</w>
t ra
k e</w>
p ar
al s</w>
si ch</w>
w hi
g es
m ent</w>
D ie</w>
p er
b i
y ou</w>
ti m
a li
re s
is chen</w>
wi r</w>
b u
w as</w>
ou ld</w>
&apos ;
wi ll</w>
a ch
m en</w>
al l
au ch</w>
ro m</w>
whi ch</w>
S ch
omm is
in g
i ch</w>
d en
i r
t y</w>
au s
e t</w>
ung s
f rom</w>
a ch</w>
e b
P ro
er s</w>
2 0
P ar
e st
h ab
t z
l u
s ind</w>
m e
ent s</w>
ch t</w>
th er</w>
E n
e g
t s
ein er</w>
r ä
w en
wir d</w>
l ei
b es
ü ber</w>
h al
A u
wi e</w>
ein en</w>
f in
p l
h as</w>
t o
ur e</w>
&apos; s</w>
sch af
ö n
ou t</w>
a hr
on e</w>
es s</w>
i c
ter n
u r</w>
g li
s a
ab le</w>
h o
po li
b ei
au s</w>
st en</w>
for m
d s</w>
ü r
& #
g an
d o
g ra
A r
ommis sion</w>
s ol
c an</w>
I n</w>
v er</w>
D i
e an</w>
st ell
B er
o der</w>
er t</w>
ou r
ge b
i r</w>
o o
et z
v or
be i</w>
E r
re c
h at</w>
com p
u s</w>
an n</w>
a m</w>
eh r</w>
s ti
H er
g u
hab en</w>
a k
w el
d ent</w>
al so</w>
B e
i g
an y</w>
Europ ean</w>
ä r
al ly</w>
m e</w>
20 0
en d</w>
d ur
t ri
e u
us t</w>
un d
A us
t ed</w>
er en</w>
i on</w>
s el
er n</w>
&apos ;</w>
in e</w>
sch en</w>
an t</w>
li e
at ed</w>
g r
it y</w>
m en
ti c
au f
k ön
si e</w>
o h
m ö
e p
l en</w>
w a
t en
e y</w>
&# 9
si dent</w>
or e</w>
g t</w>
g el
it s</w>
es e</w>
e k
tion s</w>
es s
ar k
zu r</w>
g ro
ot el</w>
m in
M it
li chen</w>
gh t</w>
der n</w>
st a
du c
por t</w>
p e
t r
d ar
ein em</w>
g er
Un ion</w>
E in
A l
D as</w>
co un
at es</w>
w ur
ation s</w>
y st
w ar
o ff
f t</w>
un ser
ti ve</w>
si on
i li
ü n
y our</w>
re s</w>
o m</w>
ver y</w>
a ge</w>
P re
f re
A b
e v
t ung</w>
er ung</w>
at en</w>
n i
m er</w>
I ch</w>
es t</w>
is che</w>
d ing</w>
be t
kön nen</w>
c k</w>
1 9
k en</w>
c es</w>
p re
bu t</w>
s en
W e</w>
k eit</w>
m ore</w>
an ce</w>
u p</w>
V or
f ol
ar y</w>
. .
in c
F ra
as t</w>
ge h
an der
st r
S p
o b
z ei
ch ti
p res
b r
am ent</w>
ch te</w>
k ing</w>
ou s</w>
ti es</w>
f er
p ri
c omm
ei r</w>
w ould</w>
an n
li che</w>
in ter
li ch
0 0</w>
g er</w>
ö r
i hr
th eir</w>
s on
m it
g h</w>
fü hr
c y</w>
l an
t ing</w>
p p
ar i
En t
te t</w>
M a
n ach</w>
h er
k omm
be en</w>
s sen</w>
v el
am p
eh en</w>
Europ ä
g re
u b
t ei
zu m</w>
un s</w>
st e</w>
em ber</w>
ch n
a v
Th is</w>
st ri
h in
n e</w>
dies e</w>
I t</w>
t re
W ir</w>
w n</w>
m an</w>
dur ch</w>
ü ber
ec t</w>
E U</w>
n ur</w>
o ther</w>
G es
f ac
p r
e ar
as e</w>
v or</w>
di s
i el
por t
a d</w>
K on
g o
M r</w>
b le</w>
i h
con t
G e
sh ould</w>
ne u
k ann</w>
k l
k t</w>
am e</w>
v ol
z w
st ru
a re
d o</w>
D er</w>
en ce</w>
l in
f en</w>
un ter
or d
t el
b le
m ü
b t</w>
t w
.. .</w>
ei ten</w>
si ch
G r
schaf t</w>
i e
or i
dies er</w>
h e</w>
en s
ac c
P rä
b en</w>
no ch</w>
as s
k on
C ommission</w>
f u
en s</w>
si g
s om
s ec
i st
w ä
E s</w>
tim e</w>
m ust</w>
or t</w>
m on
er i
us s</w>
m u
is e</w>
da ß</w>
ation al</w>
m p
ü ck
sch e</w>
da y</w>
t ä
h eit</w>
C o
K ommission</w>
k s</w>
m ark
al e</w>
th ey</w>
m an
ge m
th ere</w>
l ä
v es</w>
l t</w>
ne w</w>
n ah
ci al</w>
s yst
no w</w>
ar d</w>
sp ec
li ke</w>
m s</w>
en d
g ung</w>
on ly</w>
wur de</w>
st at
l ung</w>
el t</w>
i c</w>
ol o
ing s</w>
ges ch
e ff
H otel</w>
Pre sident</w>
ut z
Her r</w>
ab er</w>
an t
P o
wi ck
b en
in n
c re
f o
F or
t ran
ab out</w>
al en</w>
pro duc
l and</w>
t n
wor k</w>
poli ti
f e
wen n</w>
s ein</w>
qu i
fi r
gra m
h e
ri t
I h
y s</w>
b o
m ents</w>
eh men</w>
im mer</w>
m i
s ehr</w>
eh r
on g</w>
c ri
mü ssen</w>
in tern
w s</w>
ü tz
le g
de t</w>
al le</w>
Mit gli
wa y</w>
el y</w>
ein es</w>
Au f
u t</w>
1 ;</w>
&#9 1;</w>
3 ;</w>
&#9 3;</w>
Par l
ac e</w>
ub li
th ese</w>
tim m
en ti
ra l</w>
an s</w>
em p
Z u
d ed</w>
er n
v en</w>
d ung</w>
J ahr
wh o</w>
au se</w>
b a
con c
n o</w>
f ahr
th o
ch an
m ehr</w>
w ar</w>
t ro
us am
en den</w>
D e
r e</w>
for e</w>
po si
ber ei
re d</w>
m er
wi th
on der
S o
p le
i f</w>
or s</w>
dies em</w>
su p
re gi
de vel
j e
a ff
re g
ne t</w>
ati ve</w>
op le</w>
ser vi
mo st</w>
wei ter
M en
di es</w>
I hr
t ur
Re gi
th er
U m
is ch
m any</w>
oo d</w>
pro vi
re ich
f ra
re l
komm en</w>
h and
s etz
i d</w>
Europä ischen</w>
in form
em ent</w>
v en
C h
li ament</w>
sti tu
im port
h ei
r on
ß en</w>
wer e</w>
B es
vi e
Europ e</w>
f e</w>
sch i
st eh
un der
re sp
h er</w>
com e</w>
us e</w>
Par liament</w>
w is
in to</w>
pro c
d es
d r
pe ople</w>
el le</w>
su ch</w>
g es</w>
on om
lo c
M o
sol l
at ing</w>
p h
op er
g lei
ar bei
l as
ro u
m y</w>
wel l</w>
b is</w>
d a</w>
C on
wh at</w>
ation en</w>
ä l
l au
v ed</w>
si ble</w>
e urop
su b
p ubli
Un ter
devel op
i l</w>
re ch
mö chte</w>
h el
1 0</w>
en en</w>
in i
fu l</w>
p a
H o
G er
di ff
li c
st än
ti gen</w>
c ent
In ter
St ates</w>
vi el
v ing</w>
u p
un ter</w>
z en</w>
tri es</w>
hal ten</w>
l ar
a st
it e</w>
spec i
Co un
d am
th an</w>
re port</w>
usam men
c c
m at
st ütz
M ember</w>
inc lu
wi chti
M e
en n
il li
be c
coun tries</w>
stell en</w>
t es</w>
ti g</w>
s er</w>
L i
v om</w>
c le
bi li
Prä sident</w>
un k
h is</w>
wh en</w>
or y</w>
Mitgli ed
europ ä
ag a
ne ed</w>
tion en</w>
en de</w>
gi bt</w>
an k</w>
s ch</w>
g lich</w>
g keit</w>
po in
w oh
ci l</w>
a il
re i
un i
Ü ber
ihr e</w>
ell en</w>
fir st</w>
som e</w>
l at
b re
B ei
b ar
l es</w>
f ri
Coun cil</w>
pro pos
so wie</w>
ec onom
geb en</w>
z e</w>
1 2
si s</w>
di rec
el s</w>
un den</w>
in u
C omm
ge t</w>
s k
eb en</w>
O r
tic al</w>
etz t</w>
w er</w>
dies es</w>
c ol
sch lie
h otel</w>
ma ke</w>
am en</w>
th em</w>
we en</w>
ag re
sp e
gh ts</w>
ap p
t or</w>
de ut
zw ischen</w>
bes onder
stell t</w>
sh o
for m</w>
at eg
in s</w>
o ch</w>
m ent
import ant</w>
bet ween</w>
th ing</w>
ab ili
el l</w>
ver n
f ul
n is
h ere</w>
Q u
ein g</w>
ac k
st ar
b eit</w>
ac k</w>
ali ty</w>
ta ke</w>
syst em</w>
hal b</w>
st and
o s</w>
o ver</w>
ra ti
r ü
Ent wick
ex c
hi er</w>
olo g
o k
bec ause</w>
Mitglied sta
n at
l er</w>
per i
tä t</w>
du k
ch ten</w>
eg t</w>
c ul
j o
for der
ex p
pro ble
wh ere</w>
b in
P er
t schaf
ot e</w>
Ar bei
s ame</w>
y p
en er
y e
gli ch
i de
b ar</w>
te chn
19 9
m uss</w>
Ber icht</w>
st s</w>
t ure</w>
fin an
m is
fi c
w al
en g
st e
i es</w>
ear s</w>
en n</w>
H au
s es</w>
unser e</w>
ge gen</w>
w ür
sion s</w>
i el</w>
Parl ament</w>
k eine</w>
ma de</w>
z ah
wi e
j ust</w>
J ah
c u
re as
inform ation</w>
ä ch
ß e</w>
Ber ei
y ing</w>
in di
on s</w>
or gan
st er</w>
tw o</w>
l ine</w>
F in
i en</w>
Ih nen</w>
x t</w>
E x
si den
h en</w>
t lich</w>
or der</w>
s hi
ha d</w>
S er
M on
r en
s m
ö ff
y ears</w>
n ec
Mitgliedsta aten</w>
th rou
l l
c an
z eu
s at
fin den</w>
stru c
r is
sup port</w>
eu te</w>
ander en</w>
Ges ch
si ve</w>
K o
p f
i ge</w>
schi ed
me di
I f</w>
it ä
L än
In form
ri ght</w>
wor ld</w>
is su
k o
ti v
F re
j ec
tho se</w>
f a
n um
aus ge
wir k
M ar
resp on
l än
ä tz
re ad
ul ar</w>
Europ a</w>
er te</w>
steh t</w>
s c
lo w</w>
f ten</w>
le tz
ta in</w>
schlie ß
Pro ble
wä hr
wei se</w>
Z usammen
si te</w>
n ung</w>
we ver</w>
tion al</w>
tr y</w>
b eing</w>
k eiten</w>
et s</w>
tra g</w>
W ir
un ity</w>
be g
b ot
ä u
r au
pro gram
W enn</w>
er k
ti ge</w>
poli cy</w>
d ann</w>
en e</w>
ap pro
an ge
Vor sch
par tic
c al</w>
W ei
con si
sch ei
ev en</w>
g a
om s</w>
u n</w>
il l
p la
an g</w>
c ar
B et
m al</w>
f f</w>
c lo
ent ly</w>
f all
g s</w>
n ach
i ce</w>
at er</w>
em s</w>
nah men</w>
dies en</w>
ä f
ge ment</w>
ma y</w>
I m</w>
dam it</w>
T e
in v
g ab
diff er
pl ace</w>
le v
ri e
par t</w>
ß er
B u
N ach
te e</w>
st ehen</w>
lo b
de ci
d at
se e</w>
wur den</w>
si tu
ye ar</w>
de mo
gem ein
e fore</w>
G ro
vie w</w>
s ur
u res</w>
Fra u</w>
c er
c our
k e
c ur
us ed</w>
h um
u ri
g ood</w>
w ing</w>
ro om</w>
pos sible</w>
la ge</w>
s ed</w>
res s</w>
T ei
th en</w>
j ed
St a
R o
st ra
N e
om p
pro t
lo o
Di ese</w>
te l</w>
K ol
Pro duk
are a</w>
ter s</w>
ä h
Z eit</w>
st au
as ed</w>
un kt</w>
st and</w>
B ür
Po li
ou gh</w>
j ect</w>
u tion</w>
o wn</w>
ch ar
publi c</w>
w är
st an
t ungen</w>
Her r
ho w</w>
W e
p en
ac t</w>
unser er</w>
woh l</w>
g ar
ar ly</w>
s ei
be lie
sig n
h ol
ta in
qu es
comp le
S ich
f ur
ä hr
G em
Ihr e</w>
bes ch
hab e</w>
Un tern
R ich
ff en</w>
gen er
re su
el n</w>
mark et</w>
us in
gen en</w>
son dern</w>
li ck</w>
a u</w>
er ten</w>
b il
amp ;</w>
& amp;</w>
j ek
al le
throu gh</w>
sp iel
de l</w>
s eine</w>
Y ou</w>
M in
T a
le gen</w>
af ter</w>
jed och</w>
ou se</w>
S u
d ra
i a</w>
Europä ische</w>
ti c</w>
c or
t ly</w>
in ce</w>
al u
h ar
f am
bi e
in du
st er
t lichen</w>
in k</w>
ci p
2 0</w>
A k
S yst
den en</w>
p er</w>
N o
bi et
be d
poli tical</w>
F ü
sel f</w>
f as
w n
M ark
g ent
neu e</w>
qu e</w>
et y</w>
p ra
econom ic</w>
et t
f l
A s</w>
h eute</w>
0 00</w>
st o
in gen</w>
Men schen</w>
h ö
12 4
F ran
un der</w>
s or
i gen</w>
ag es</w>
p s</w>
Ä n
e f
br au
ge gen
a ir
ic al</w>
si de</w>
in s
Th ere</w>
stau ran
ommis sion
c ould</w>
develop ment</w>
B il
stän di
ti k
124 ;</w>
&# 124;</w>
fahr en</w>
k un
ri ghts</w>
5 0</w>
with in</w>
R ei
tran s
ri ch
w ant</w>
ö s
in st</w>
W or
read y</w>
de b
en z</w>
st u
sel b
Jah r</w>
tran sp
el d</w>
on en</w>
europä ischen</w>
ter n</w>
Än der
bes ser
mit tel
sch n
F or</w>
n t</w>
ou s
berei ts</w>
geh en</w>
av ail
D at
Pro gram
f un
per son
L ei
hi st
Gr und
we i</w>
bu il
pr in
s on</w>
ß nahmen</w>
B o
ec tion</w>
Sich er
ö l
geh t</w>
unter stütz
aga inst</w>
ch er</w>
bot h</w>
omm en</w>
se t</w>
es en</w>
th re
w ol
s h</w>
las sen</w>
m ich</w>
U S
abili ty</w>
mu ch</w>
coun try</w>
f ind</w>
t t
le c
ther efore</w>
ihr er</w>
poin t</w>
bili ty</w>
oh ne</w>
go vern
c ap
Gem ein
intern ational</w>
em ber
for t
neu en</w>
v ari
soll te</w>
t lin
en th
b ur
ad t</w>
i er
en z
führ t</w>
vi ron
s s</w>
Jahr en</w>
ge w
M ö
d an
b el
t liche</w>
hi gh</w>
be k
t om
do es</w>
servi ce</w>
S e
ander e</w>
Z ei
g o</w>
R at</w>
g ri
S it
la g</w>
politi k</w>
li egt</w>
h än
R i
f il
L u
P ri
ol d</w>
l a</w>
fre e</w>
öff ent
cont inu
so ci
gr ö
ti eren</w>
l and
T ra
with out</w>
qu ality</w>
it tee</w>
dur ch
3 0</w>
T o
ation alen</w>
Bes ch
gan z</w>
cle ar</w>
z wei</w>
me as
ma chen</w>
Entwick lung</w>
in stitu
it ed</w>
d re
ne ed
ar ds</w>
Fra ge</w>
servi ces</w>
om e</w>
Fin an
Re ch
reich en</w>
num ber</w>
l ast</w>
gre at</w>
B ar
biet et</w>
wir tschaf
st re
soll ten</w>
der s</w>
St r
oper ation</w>
be wer
Ber ich
n er</w>
all en</w>
C hin
lich er</w>
p i
al o
usin ess</w>
posi tion</w>
f est
de m
sti ll</w>
ver schied
ant wor
wa ys</w>
ou t
in nen</w>
L o
l ong</w>
d ru
f tw
so cial</w>
fac t</w>
avail able</w>
sa y</w>
ftw are</w>
n is</w>
n te</w>
ti g
re qui
f ut
c ed</w>
i z
lei st
differ ent</w>
ro oms</w>
at t
s ehen</w>
chan ge</w>
ru pp
e ti
k now</w>
besonder e</w>
z us
at te</w>
t ors</w>
D ur
M i
c ity</w>
A d
z ur
k es</w>
f t
M it</w>
ent sp
l ess</w>
cur r
fin det</w>
st al
n ot
sat z</w>
l ungen</w>
pres ent
führ en</w>
shi p</w>
g lob
as si
k re
est s</w>
z wei
di tion</w>
ul ation</w>
tu ral</w>
stell ung</w>
cu st
viel e</w>
su m
ck en</w>
am ent
conc ern
f ast</w>
la gen</w>
A m
on d</w>
vi du
y n
d y</w>
h ä
cour se</w>
li m
N or
en viron
g y</w>
it al</w>
T er
wei l</w>
al ready</w>
z ent
emp lo
si cht</w>
E in</w>
em ents</w>
belie ve</w>
be fore</w>
fut ure</w>
bie ten</w>
Mö glich
f es
hi gh
olo gi
ad v
al t</w>
n ehmen</w>
B ed
sich er
In tern
pri v
W elt</w>
ein f
ali si
Untern ehmen</w>
en st
da zu</w>
to o</w>
k no
M an
D a
Di es
r y</w>
fi ed</w>
au th
den n</w>
ep t</w>
D es
m ar
l ungs
wä h
b ri
ut es</w>
ge f
to day</w>
K in
ur o</w>
m ei
T re
in te
k ur
produc ts</w>
ent wick
l ed</w>
i ci
B a
w o</w>
j etzt</w>
c ase</w>
Th em
wie der</w>
kl är
cont ro
z eit</w>
C ommission
t al
f er</w>
Th at</w>
R ah
D em
h op
at s
ma in</w>
nis se</w>
ti ert</w>
uri ty</w>
ra p
lev el</w>
s einer</w>
l er
200 9</w>
nah me</w>
amp le</w>
som e
zi eh
ti z
T ran
dat a</w>
b al
h in</w>
En er
s ing</w>
gan g</w>
th ink</w>
proc ess</w>
D is
e ver
R us
can not</w>
ali tät</w>
p rä
su cc
s am
dar auf</w>
L age</w>
s af
Inform ationen</w>
eff ec
v alu
sig n</w>
I s
grö ß
Berei ch</w>
H in
so zi
k an
ar beit</w>
gen ommen</w>
vi ce</w>
co m</w>
t yp
ge stellt</w>
ful ly</w>
tra c
W eb
Ma ßnahmen</w>
se ar
no v
p ut</w>
H and
is m</w>
a gement</w>
indi vidu
isch er</w>
ein ige</w>
är k
t schaft</w>
sch en
c ra
t rä
is ch</w>
hum an</w>
tr au
sa gen</w>
sch on</w>
off ers</w>
en te</w>
selb st</w>
p ur
eb en
p ec
da für</w>
fall s</w>
at ely</w>
ember s</w>
ma cht</w>
ommis s
ges am
at e
a b</w>
wen di
n ational</w>
in ten
im pro
w in
S a
itä t</w>
Commission er</w>
ti k</w>
i g</w>
Herr n</w>
situ ation</w>
St ra
1 5</w>
im ple
1 8
o b</w>
t ru
d el
ma j
el ec
m ir</w>
b oo
B ut</w>
Me di
dur ing</w>
Aus sch
glei ch
bes t</w>
K ommiss
ol l
sp ra
St and
tra gen</w>
min ist
o ver
mö gli
si c</w>
ch il
c all
V i
S o</w>
ih r</w>
in ing</w>
mö glich</w>
a de</w>
n or
l ü
finan cial</w>
ihr en</w>
z el
am ents</w>
bu d
n ing</w>
sm all</w>
alle m</w>
ab li
vel y</w>
Jahr e</w>
sa id</w>
b in</w>
cust om
P al
ver si
g ed</w>
di g
ver k
vi el</w>
k a</w>
b ro
hei ts
s s
or en</w>
Ar beit</w>
is h</w>
issu e</w>
deb ate</w>
zei ch
me ans</w>
ah l</w>
inclu ding</w>
y ment</w>
k ed</w>
gen d</w>
m eine</w>
G u
propos al</w>
app lic
ex ample</w>
ex peri
t sp
m ul
war d</w>
e very</w>
A ll</w>
ques tion</w>
con di
dis c
si mp
b it
U S</w>
gen den</w>
fi c</w>
ti vi
s ince</w>
t sch
kun ft</w>
wor den</w>
te xt</w>
Arbei ts
is l
S ei
lu g
a z
R es
im m
g ing</w>
ti n</w>
th ough</w>
res ol
o l</w>
c l
k tion</w>
vi si
E ine</w>
Di es</w>
ver fü
b usiness</w>
gu t</w>
wol len</w>
nec ess
n et
Ho wever</w>
ar t
i er</w>
O ur</w>
m a</w>
W i
wür de</w>
unser en</w>
hel p</w>
ep t
b ased</w>
leg al</w>
i ly</w>
Ver ein
F ir
or ity</w>
L and</w>
ar t</w>
1 0
b ack</w>
e ach</w>
ta ken</w>
ten s</w>
Per son
W el
ti schen</w>
v ot
L and
v e
c um
de u
ü h
H ot
ad op
ac tion</w>
acc ess</w>
ili t
de fin
1 2</w>
e k</w>
o d</w>
lich keit</w>
c a</w>
N at
es sen</w>
J u
bes timm
st en
al th</w>
m or
u al</w>
ge t
partic ular</w>
ann t</w>
al y
ci tiz
Comm ittee</w>
z un
off er</w>
Fü r</w>
us e
illi on</w>
Hau sh
f äl
in st
proble m</w>
en ces</w>
gra tion</w>
ä hi
b an
k ün
par tn
ar an
br ingen</w>
olog y</w>
f le
Pro jek
tu r</w>
g ar</w>
ini ti
währ end</w>
et was</w>
Rech ts
Z immer</w>
thre e</w>
L ös
Inter net</w>
setz ung</w>
x i
De ut
lar ge</w>
k om
s timm
comm on</w>
sear ch</w>
re qu
gi ve</w>
. com</w>
meas ures</w>
ne xt</w>
are as</w>
f eh
U r
do ch</w>
ac coun
al er</w>
A ut
ever y
re m</w>
str y</w>
ä m
pres ent</w>
organ is
n un</w>
der ung</w>
Län der</w>
aff en</w>
war en</w>
di re
Un d</w>
B eh
tion s
G re
fe w</w>
ation s
spe zi
ener gy</w>
ut z</w>
M r
stauran t</w>
it h</w>
S te
W ie</w>
agre ement</w>
Unter stütz
de li
f ar</w>
ch es</w>
ig er</w>
est abli
C ent
whi le</w>
d ings</w>
ins besondere</w>
in de
M u
ß t</w>
sp re
loc ated</w>
necess ary</w>
O n</w>
Ar t</w>
provi de</w>
t ungs
rec ei
ci es</w>
citiz ens</w>
er fol
s ure</w>
geh ör
z ü
20 10</w>
Chin a</w>
a k</w>
sch ri
om en</w>
ord nung</w>
por ts</w>
K om
g s
B est
fo re
ver wen
w ach
al ten</w>
p unkt</w>
er halten</w>
lo s</w>
d ungen</w>
us ing</w>
fol lo
e gen
ens ure</w>
s eit</w>
M ad
be gr
L a
li fe</w>
ar o
P or
u e</w>
ür lich</w>
ges etzt</w>
comp any</w>
sch ein
Änder ungs
Um wel
as k</w>
n ten</w>
Ver fü
p as
hi l
aga in</w>
all er</w>
s y
B el
s se</w>
op p
syst ems</w>
d ri
f und
d ate</w>
am end
et ing</w>
Rah men</w>
k ey</w>
Parl aments</w>
tra di
e qui
H il
wh e
hal f</w>
enti al</w>
St u
v öl
sec urity</w>
w es
200 8</w>
v o
m ä
inc reas
er sten</w>
proble ms</w>
w o
at s</w>
w an
k er</w>
pro m
ul arly</w>
vol l
d ge</w>
Men schen
Unterstütz ung</w>
m et
fur ther</w>
sh all</w>
j u
sch er</w>
si bility</w>
po p
op port
un de</w>
au tom
ol e</w>
W in
n ess</w>
h eiten</w>
b lei
arbei ten</w>
tro l
N amen</w>
Zusammen arbeit</w>
ass ung</w>
T ur
pra c
comp an
mo der
d u</w>
f te</w>
se qu
v ote</w>
Hau p
de st
Tei l</w>
comp eti
er ungs
Gro up</w>
gi ven</w>
si a</w>
ag t</w>
Län dern</w>
par ti
c ou
B r
politi schen</w>
lei ch
re al</w>
Rich tlin
si chti
ti ce</w>
Ver k
bei m</w>
V ol
i eren</w>
h ear
Vorsch lag</w>
in vol
utz en</w>
ul es</w>
z o
setz en</w>
D ar
den ti
A mer
ob jec
i zi
y er</w>
S k
wh y</w>
consi der
war ds</w>
ho wever</w>
ec ted</w>
li ght</w>
F all</w>
L e
al lo
sol l</w>
si tz
j a</w>
L eb
Amer ic
I N
zu g</w>
G el
la w</w>
be steht</w>
co operation</w>
F ol
r o</w>
t z</w>
ec k</w>
ti l</w>
ra tion</w>
sta y</w>
d i</w>
en ten</w>
gro up</w>
O p
ge ther</w>
gr und</w>
is h
1 .
Un i
con su
T o</w>
di d</w>
G en
do wn</w>
en nen</w>
O n
ven tion</w>
Bür ger</w>
lo ssen</w>
f an
le a
B en
führ ung</w>
1 1</w>
tu n</w>
is m
K ar
sa m</w>
der en</w>
our s</w>
h au
leg isl
W ith</w>
ous ly</w>
al ways</w>
wis sen</w>
gab e</w>
ri chti
Z iel</w>
Pro z
St adt</w>
Syst em</w>
par t
ch o
need s</w>
w w
Or gan
ha pp
wor king</w>
einf ach</w>
Th ey</w>
vie ws</w>
ful l</w>
cul tural</w>
in t</w>
der t</w>
An wen
s einen</w>
ap pe
pl an
mat eri
W ar
Gesch äf
str ateg
g lau
Fra gen</w>
Un ited</w>
O b
st ate</w>
G i
l us
dre i</w>
wichti g</w>
Be i</w>
imple ment
hop e</w>
L an
e p</w>
produc tion</w>
im p
f ung</w>
e i</w>
Prä siden
m m
ein mal</w>
F am
m ehr
pl ac
dr en</w>
wel che</w>
t on</w>
A t</w>
ver b
A f
as es</w>
Par tn
E uro</w>
sp iel</w>
ter stat
et er</w>
in a</w>
&apos; t</w>
ma in
Proble m</w>
k m</w>
st ance</w>
gen de</w>
fun c
G eb
schaf ten</w>
R u
d ly</w>
Sei te</w>
wär e</w>
H ouse</w>
Kol legen</w>
bet ter</w>
ess es</w>
i ert</w>
da ys</w>
Comm unity</w>
letz ten</w>
por te
tei l</w>
li n</w>
r a</w>
da bei</w>
E U
ett bewer
re co
An d</w>
Ent schei
indu stri
B i
or ts</w>
b au
fer ence</w>
M illi
T ex
be tri
tim es</w>
se ver
E R
US A</w>
Wir tschaf
tre ten</w>
th em
op en</w>
ä mp
gab en</w>
aro und</w>
prot ection</w>
y ed</w>
0 0
ge führt</w>
r än
en ing</w>
In stitu
ei g
pl at
es se</w>
Re cht</w>
re chte</w>
o th
D aten</w>
200 7</w>
l ing</w>
ent fer
de c
W hat</w>
p ack
po wer</w>
ad d
li g
ma king</w>
fes sion
K ri
Fra ktion</w>
W er
W oh
to gether</w>
M ein
th ir
gro ßen</w>
s ing
zei gt</w>
Be deut
F o
gro ße</w>
r ise</w>
Z iel
ing ungen</w>
m es</w>
program me</w>
per f
V iel
en jo
K re
sp ar
in es</w>
Sp iel
ment al</w>
E u
ü ck</w>
komm t</w>
R ol
o cc
curr ent</w>
str eng
i ma
Haush al
di c
g än
pr ü
w are</w>
resu l
C O
hän gi
un ic
ur y</w>
speci al</w>
in e
W as</w>
our ces</w>
s ha
th e
or ig
ter ms</w>
Verfü gung</w>
h and</w>
E r</w>
for t</w>
z ed</w>
Au f</w>
sp ek
Er geb
ein zi
Sicher heit</w>
wei ter</w>
de ta
Bedeut ung</w>
tra de</w>
o gra
regi on
inn er
st ed</w>
O ff
B eg
z ep
ex tre
Sit u
tei l
Ih r</w>
whe ther</w>
E ben
200 0</w>
con nec
Mr s</w>
ou th</w>
ic ul
be come</w>
ab o
partic ularly</w>
go ing</w>
stri c
t t</w>
cent re</w>
en zen</w>
Th ese</w>
I ra
G ener
zur ück
D o
ori ties</w>
Möglich keit</w>
ru m</w>
ti gt</w>
disc us
1 00</w>
h an
w ed</w>
diff icul
man agement</w>
l ab
h r</w>
an other</w>
ba sis</w>
S ec
cer tain</w>
chil dren</w>
au ßer
at ten
s si
we b
comm it
a ir</w>
W hen</w>
ut er</w>
v is
stru k
schließ lich</w>
Berich terstat
N ach</w>
ex pres
ser v
ig n</w>
rap porte
at h</w>
th s</w>
ff e</w>
k ri
ran ge</w>
W o
su pp
Au ch</w>
in f
mu ß</w>
loo k</w>
hand elt</w>
f ähi
not wendi
c o</w>
Te chn
resu lt</w>
loc ation</w>
con tri
n äch
be l</w>
glei ch</w>
F rau
sec ond</w>
gro ß
ar ch
Ener gi
bur g</w>
condi tions</w>
ei genen</w>
F ahr
af f</w>
rü h
Sta aten</w>
Finan z
p age</w>
F lug
at or</w>
eh m
x im
r in
T i
G o
er mögli
regi on</w>
issu es</w>
d lich</w>
f lo
Al s</w>
al es</w>
ti sche</w>
ell schaft</w>
A ber</w>
P lat
all es</w>
Regi erung</w>
2 5</w>
Them a</w>
w ater</w>
all er
L is
1 7
s tim
t an
Mit tel
er forder
ie der
f av
G ra
k ra
Ger man</w>
Z ent
G ä
Kommiss ar</w>
da von</w>
w ahr
R om
z er
gre i
du ce</w>
dar über</w>
mö glich
tur n</w>
Proble me</w>
b or
Ser vice</w>
lo s
er ing</w>
i ti
es pec
C ar
In du
w eit</w>
t ot
we gen</w>
da her</w>
ge ord
contro l</w>
ich te</w>
1 6
com ing</w>
An t
n on</w>
compan ies</w>
ro le</w>
w omen</w>
ff t</w>
deci sion</w>
g ern</w>
clo se</w>
g ress</w>
ent schei
A T
u te</w>
Wei se</w>
Fam ili
so li
k ein</w>
c el
vari ous</w>
F unk
K unden</w>
espec i
4 0</w>
gu aran
experi ence</w>
be au
ser i
establi sh
ro ss</w>
wi de</w>
so wohl</w>
fi zi
indu stry</w>
wh ole</w>
sel ves</w>
de f
Haup t
ex ist
sa ge</w>
di o</w>
A c
b lick</w>
weiter e</w>
Di enst
Ar tik
ord in
Poli tik</w>
com es</w>
be findet</w>
2 4</w>
he alth</w>
ism us</w>
sec tor</w>
p t</w>
su chen</w>
A R
wei sen</w>
h ör
wor k
d ou
especi ally</w>
kön nte</w>
f li
K un
r or
mo dern</w>
Ihr er</w>
in nov
Wirtschaf ts
call ed</w>
en ter
at y</w>
a si
er reichen</w>
re ally</w>
g l
ir e</w>
B ri
s amen</w>
h atte</w>
m einer</w>
an zu
mat ter</w>
ei gen
h ang</w>
besonder s</w>
entsp rech
f ar
Min ist
zi ehen</w>
ta li
y o
P ra
lie gen</w>
ch en
wor d</w>
hist or
d one</w>
En de</w>
loc al</w>
pf lich
st ä
de sign
n ame</w>
ge l</w>
accoun t</w>
ell er</w>
L in
ti ves</w>
dar f</w>
wis h</w>
A t
speci fic</w>
ver sch
exc ell
wirk lich</w>
ti gung</w>
G ar
ing t</w>
C omp
resp ect</w>
l uss</w>
G rupp
J un
priv ate</w>
In v
le ben</w>
Bei spiel</w>
ih nen</w>
bud get</w>
l en
Richtlin ie</w>
Zu kunft</w>
inv est
m ati
mer k
H e
rit te</w>
vi l
verschied enen</w>
nat ürlich</w>
d on</w>
sp i
un ser</w>
are d</w>
do cum
ne go
ne ten</w>
ak tu
unterstütz en</w>
thir d</w>
vi sion</w>
ation ale</w>
200 6</w>
re f
c li
pro fession
govern ment</w>
ch ni
A N
i si
cre ate</w>
inner halb</w>
gel egt</w>
re li
ab hängi
nego ti
K li
re search</w>
W ähr
ab ly</w>
fac e</w>
b lo
A fri
ni fic
ö h
W ettbewer
t te</w>
B al
fe at
lan gu
entfer nt</w>
viel en</w>
f y</w>
gegen über</w>
st aff</w>
zah l
n am
In di
w a</w>
le ase</w>
m b
spre chen</w>
inc re
F ri
finan zi
B an
m il
Gr ün
qu ali
R ück
For sch
fü l
us er</w>
Ger many</w>
Rol le</w>
her vor
s ön
gr und
zw ar</w>
ac i
gu e</w>
star t</w>
e di
so ftware</w>
in stru
des sen</w>
o t</w>
N utz
K ul
re duc
e der</w>
l s</w>
1 3</w>
ß en
sing le</w>
k rati
Leb ens
We g</w>
intern ationalen</w>
maj or</w>
I m
em e</w>
r ate</w>
emplo yment</w>
en cy</w>
some thing</w>
ter m</w>
Frau en</w>
m illion</w>
S eiten</w>
pro ject</w>
f ör
fic ation</w>
19 8
o ff</w>
an ti
P h
and s</w>
it self</w>
in tro
at ten</w>
ver s
li st</w>
autom ati
sever al</w>
ra cht</w>
re m
d ungs
B au
mö chten</w>
a way</w>
ori es</w>
b s
ali s
Indu stri
rapporte ur</w>
ei cht</w>
resol ution</w>
ges t</w>
ger ich
fo und</w>
glob al</w>
un tern
bre ak
2 .
continu e</w>
f el
on n
dru ck</w>
F u
a in</w>
or ding</w>
n ich
reg ard</w>
spra che</w>
är e</w>
ad ing</w>
Geschäf ts
d ort</w>
Ihr en</w>
il s</w>
Ta g</w>
ol s</w>
mä ß
E N</w>
vi a</w>
d ür
gent le
europä ische</w>
S i
u tions</w>
J an
adv an
su ff
wn lo
H ei
ta king</w>
er a</w>
gen d
ati ven</w>
1 5
stimm ung</w>
jec ts</w>
w th</w>
an s
reg ul
politi sche</w>
p ot
me work</w>
dire kt</w>
pr o</w>
le ast</w>
I tali
ge währ
N eu
ck s</w>
gener al</w>
ver sion</w>
f ron
. .</w>
Dem ok
to wn</w>
on ds</w>
si schen</w>
di sp
follo wing</w>
EU R</w>
Hot els</w>
le t</w>
gentle men</w>
oo l</w>
Ne w</w>
o ften</w>
ati ves</w>
Re gel
bi et</w>
to p</w>
transp ort</w>
fam ily</w>
T V</w>
S el
an y
E mp
ah n
t ation</w>
excell ent</w>
K omm
as y</w>
es sion</w>
h under
f all</w>
z usammen
ur ch</w>
er ste</w>
il t</w>
n ei
ein zu
b ut
W est
Artik el</w>
cri sis</w>
c ing</w>
parti cip
N ot
l on
s ci
H e</w>
an der</w>
F il
bre it
land s</w>
ben ef
f ood</w>
r ules</w>
H ar
op tim
direc tive</w>
cul ture</w>
ein zel
fi eld</w>
Sp ra
o d
wor ks</w>
Ges und
er st</w>
b is
E C
person al</w>
li tt
auf ge
dr ück
on ce</w>
itä ten</w>
en der</w>
i ev
sub ject</w>
re present
me tho
So ftware</w>
t a</w>
lan g</w>
Ch ar
ti gkeit</w>
is ed</w>
in ed</w>
c ally</w>
Program m</w>
sich tlich</w>
H ier</w>
conc lu
ti v</w>
den ce</w>
N o</w>
Al le</w>
pri ce</w>
mon ey</w>
L ie
tr on
environ ment</w>
Ver brau
per form
on line</w>
ac tivi
bu tion</w>
f unk
w le
ta ge</w>
ab sol
k ul
ver s</w>
on es</w>
E N
wel come</w>
Mein ung</w>
er ungen</w>
schaf ts
to wards</w>
t our
con struc
N i
el s
U m</w>
m el
tu al</w>
b l
wie der
w ri
reco g
li gen</w>
m ilit
Ab geord
Deut sch
li g</w>
1 4</w>
litt le</w>
P ol
comm unic
z a</w>
a th
K ur
No v
th ings</w>
rit ten</w>
Sp an
lich es</w>
E S
T ag
Wor ld</w>
fra ge</w>
E le
sp r
tic s</w>
hi m</w>
um s</w>
Situ ation</w>
p hi
o un
aus sch
un til</w>
for ward</w>
produc t</w>
Ste u
in o</w>
institu tions</w>
ges agt</w>
es ti
ex ten
1 8</w>
U hr</w>
lo t</w>
auf en</w>
st ing</w>
g sten</w>
Zusammen hang</w>
as ser
stat t</w>
I S
ach t</w>
R au
ach iev
tu res</w>
eff ici
be deu
e ch
bei den</w>
kno wn</w>
unser em</w>
a gen
U N
Lös ung</w>
F isch
ta ins</w>
Mad am</w>
ma ch
at er
man u
lä ge</w>
S ü
li es</w>
I C
e ver</w>
te x
agre e</w>
Entwick lungs
sp ä
200 5</w>
an aly
Un ser
h ome</w>
Tre aty</w>
individu al</w>
custom ers</w>
pla y</w>
I I</w>
Ent schließ
tei lung</w>
Regi on</w>
t ten</w>
P i
Z wei
Is ra
ag o</w>
d om
ver besser
c rati
incre ase</w>
j en
de sign</w>
an geb
th ank</w>
Hil fe</w>
gro wth</w>
B .</w>
Präsiden tin</w>
pre v
le ar
mo sp
Ver antwor
stand ards</w>
opport unity</w>
do ws</w>
ra ther</w>
h ouse</w>
u li
sch ie
ba u</w>
Dies es</w>
sh ort</w>
col lec
P la
lä u
Organ is
Dienst leist
F e
E R</w>
up s</w>
re cht</w>
um fas
rit t</w>
pl es</w>
Eu ro
siden cy</w>
activi ties</w>
a id</w>
So zi
valu e</w>
Mit tel</w>
buil ding</w>
posi tive</w>
M ehr
c all</w>
an im
qu ite</w>
sion en</w>
begr ü
te te</w>
C or
6 0</w>
bar en</w>
Demok rati
wen iger</w>
Produk te</w>
d ent
prin cip
lan g
orig in
Str ateg
mo d
re icht</w>
Sch ul
provi ded</w>
er war
vol l</w>
b ed</w>
v ement</w>
sig nific
er zi
ein ge
res ources</w>
b zw
e qu
je der</w>
w ün
s ätz
or d</w>
St ru
bzw .</w>
öffent lichen</w>
p ic
In iti
S ol
o se</w>
z immer</w>
tei len</w>
M at
D ec
L eben</w>
wor t</w>
ch er
1 6</w>
pro gra
en ds</w>
ann ten</w>
dar an</w>
ge wi
H aus</w>
i denti
appro ach</w>
A ir
g ilt</w>
er h
1 4
be half</w>
inter est</w>
S ept
peri od</w>
h t</w>
St ate</w>
Des halb</w>
per sön
st ärk
M embers</w>
gu te</w>
t ar
ho li
on a</w>
ad s</w>
ges ehen</w>
R ates</w>
e duc
fi le</w>
f ang</w>
äm lich</w>
y et</w>
ha ving</w>
K ü
200 4</w>
m om
bit te</w>
I T</w>
tu ally</w>
inclu de</w>
fra gen</w>
techn ology</w>
in ion</w>
B oo
gesch lossen</w>
zei tig</w>
ck t</w>
n ämlich</w>
A S
K l
forder ungen</w>
Er fahr
pro per
in dem</w>
fo c
An gel
Sept ember</w>
sch affen</w>
D eb
vi c
fac ili
lu b</w>
all en
vi ol
sol ution</w>
ar ti
st y
requi re
Sch utz</w>
rei b
ah r</w>
berei ch</w>
völ k
la dies</w>
so gar</w>
po ol</w>
A n</w>
du e</w>
gr ün
zei chn
ar s</w>
m embers</w>
P ak
ück sichti
Europ as</w>
ge macht</w>
mi ght</w>
el eg
beau ti
poin ts</w>
form s</w>
C an
an trag</w>
Intern ational</w>
lei sten</w>
fle xi
propos als</w>
G ol
ate gi
ex per
Gr und</w>
le ft</w>
con fi
rec omm
G leich
amend ments</w>
gu i
Z w
am ong</w>
ell eicht</w>
O ne</w>
R a
hin aus</w>
b ank</w>
Milli onen</w>
aus zu
bin dung</w>
zah l</w>
et wa</w>
saf ety</w>
fort able</w>
wor ds</w>
fra mework</w>
crati c</w>
ant rä
al low</w>
cont ent</w>
min utes</w>
effec tive</w>
ri cht</w>
appro pri
alisi erung</w>
p at
Haushal ts
Kin der</w>
Sch i
z ö
abo ve</w>
Af ter</w>
F rüh
tion ed</w>
for ce</w>
Ge gen
äch lich</w>
econom y</w>
egen heit</w>
p ass
co sts</w>
transp ar
ap art
z ung</w>
200 3</w>
re gel
e asy</w>
n u
er klär
Sicher heits
st off
t em
Ber lin</w>
M or
c op
di en
re ali
D ok
Bes u
ih n</w>
cra cy</w>
ge st
si tes</w>
ständi g</w>
oth ers</w>
Dat en
adop ted</w>
eh t</w>
e li
gro und</w>
K ap
Th er
beg inn
1 3
us ses</w>
eben falls</w>
C hi
Ver hand
ein igen</w>
ag ri
sho w</w>
zei gen</w>
u ral</w>
ih m</w>
char ac
unter schied
Unser e</w>
usam men</w>
Dies er</w>
Deutsch land</w>
c lim
olog ie</w>
mit tel</w>
pro gress</w>
Jan u
reas on</w>
Lei st
exc lu
wes ent
Eben e</w>
s einem</w>
ma kes</w>
An geb
Web site</w>
F ar
Dur ch
demo krati
Person en</w>
op inion</w>
de al</w>
enjo y</w>
en ed</w>
fund ament
to ber</w>
P unkt</w>
1 .</w>
ges timm
web site</w>
pos e</w>
li ve</w>
pro z
bo dy</w>
ü l
re la
applic ation</w>
ig n
p rec
S ek
Aus sprache</w>
W is
For m</w>
du zi
In stru
st ation</w>
an a</w>
legisl ation</w>
e th
sup por
A L
unterstütz t</w>
st ens</w>
as sen</w>
Uni versi
ou ght</w>
St re
fav our</w>
arbei tet</w>
hal t</w>
Zei t
am oun
bu s</w>
ne te</w>
comple te</w>
tei le</w>
pro jects</w>
brau chen</w>
st ei
h y
fre ed
pl an</w>
zeich net</w>
sich er</w>
difficul t</w>
M al
resul ts</w>
S al
N ä
ro ad</w>
er weise</w>
Pri v
mo un
provi des</w>
k ind</w>
Mu si
j e</w>
dar in</w>
ti ven</w>
gro ups</w>
un ver
respon sibility</w>
ä um
stauran ts</w>
C ol
kün f
Qu alität</w>
etz en</w>
mul ti
k o</w>
atten tion</w>
J o
poli cies</w>
D E</w>
concern ed</w>
ah l
A C
v al</w>
Er fol
cont act</w>
K ra
eh men
D ru
ger ade</w>
T at
En gli
eh mer</w>
po wer
tra v
reg ar
glau be</w>
S pe
z eh
n ationalen</w>
W h
ri ch</w>
em b
0 .
W il
cre di
nat ure</w>
air s</w>
200 1</w>
ad dition</w>
se a</w>
hal te</w>
h on
m ing</w>
in n</w>
ran k
Re chte</w>
simp ly</w>
ge geben</w>
s el</w>
beauti ful</w>
le t
F l
B ro
S y
Re staurant</w>
pr is
all gem
pro chen</w>
dür fen</w>
v a</w>
b are</w>
Gemein schaft</w>
ro w</w>
kom ple
Ben utz
di stri
d d
h u
Jahr hunder
proc e
geb ung</w>
ques tions</w>
S ub
sh e</w>
Wei ter
H a
import ance</w>
Besch äf
am eri
s weise</w>
gr at
F i
soci ety</w>
H al
Z us
cer tain
ad minist
cou ra
ci r
end ly</w>
intro duc
D a</w>
ot s</w>
K an
b on</w>
succ ess
sp ru
sol len</w>
der zeit</w>
J ap
je den</w>
nich ts</w>
li ber
ide al</w>
y ers</w>
lä s
bei spiel
C as
gen au</w>
o k</w>
ih rem</w>
gre ater</w>
Ab stimmung</w>
Sch lus
hel p
ch s</w>
ch t
k einen</w>
Verein ig
vot ed</w>
tra ining</w>
mit t
zus ätz
alo g</w>
ter min
fre und
direc tly</w>
co ver
W ach
T el
mei sten</w>
ni ght</w>
k ar
strateg y</w>
t or
un a</w>
mark t</w>
si ert</w>
environ mental</w>
Wir tschaft</w>
ed ure</w>
p tion</w>
gehör t</w>
an stal
Wel t
wir tschaft</w>
gestimm t</w>
ad di
L a</w>
betri fft</w>
j us
me chan
on g
z usammen</w>
f ern</w>
inter est
R O
c al
l ö
ste p</w>
princip le</w>
Or t</w>
z äh
se i</w>
kl ar</w>
al ong</w>
weiter hin</w>
Gro ß
äch st</w>
Dok um
ta k
C om
wle dge</w>
nat ural</w>
pro mis
utz t</w>
imm t</w>
For tsch
manu fac
loo king</w>
tn is</w>
Be zug</w>
unk te</w>
hear t</w>
ologi cal</w>
requi red</w>
K amp
am m
y a</w>
wirtschaf tlichen</w>
tri tt</w>
sa che</w>
respon sible</w>
ho ch
ver stän
t in
c s</w>
k ämp
chan ges</w>
on i
r .</w>
n ed</w>
a vi
ne l</w>
T ür
Bür ger
her r
Änderungs anträ
c at
su g
extre m
uni ties</w>
200 2</w>
zu stellen</w>
B em
St ad
Di rec
cent ury</w>
M inu
tra g
ko sten
D en
Ges ellschaft</w>
et c</w>
Go vern
setz t</w>
bedeu tet</w>
stand ing</w>
b s</w>
me eting</w>
19 7
wichti ge</w>
cle arly</w>
fü r
Be zieh
re st</w>
ben ö
Kol leg
sol che</w>
re fer
ie ve</w>
des halb</w>
trol le</w>
Z i
sch wi
c are</w>
auth orities</w>
our ce</w>
fam ili
p ages</w>
e asi
un ds</w>
Win dows</w>
fü h
am bi
z es</w>
break fast</w>
ass er</w>
n utzen</w>
ot en</w>
a il</w>
an c
techn ical</w>
F ör
k enn
auf grund</w>
struc ture</w>
pp ed</w>
Nov ember</w>
Zu gang</w>
bes ser</w>
s wi
su sta
rec ent</w>
be sten</w>
k us
Ko sten</w>
8 0</w>
po l
ci vi
f our</w>
use um</w>
is ti
g ie</w>
pos ed</w>
con f
tei lt</w>
o c
B re
st adt</w>
o wn
inst all
ach ieve</w>
wür den</w>
mit ted</w>
c ar</w>
bet re
F est
us es</w>
add ress</w>
ch allen
deut lich</w>
da m</w>
geb racht</w>
an ts</w>
A pri
schn ell</w>
der ungen</w>
S or
per son</w>
sen den</w>
Ges etz
sta at
H ol
tic le</w>
ac tive</w>
con trac
re ly</w>
B ra
ma il</w>
ess ential</w>
I de
fe el</w>
Menschen rechte</w>
pro duk
gem ä
Be völk
stan den</w>
op s</w>
d ents</w>
g ran
F eh
d au
D ank</w>
erfol gre
ad a</w>
ris k</w>
mo ve</w>
o p</w>
hal tung</w>
Strateg ie</w>
seri ous</w>
V on</w>
cri min
h ot
E i
1 7</w>
A p
d ro
mon ths</w>
E l
lon ger</w>
Ver besser
ein ander</w>
sol utions</w>
S ti
Rich tung</w>
wer t</w>
bek annt</w>
et te</w>
stand ard</w>
Mark t</w>
hist ory</w>
näch sten</w>
facili ties</w>
br ing</w>
zü glich</w>
di st
k ol
p ast</w>
R at
am es</w>
ur en</w>
propos ed</w>
re ach
en ough</w>
Sozi al
te ten</w>
Stru k
sp ace</w>
ach ten</w>
ei ther</w>
ver ein
car ri
an o</w>
a de
lin es</w>
develop ed</w>
In n
F ern
Um setzung</w>
rel ated</w>
curr ently</w>
Apri l</w>
ne ar</w>
ev ents</w>
g t
intern al</w>
H an
An sicht</w>
bi g</w>
D u
vor gesch
h en
inter ests</w>
trä ge</w>
oo ds</w>
Wach st
men te</w>
need ed</w>
at trac
l an</w>
gu ests</w>
co st</w>
require ments</w>
li mit
regi ons</w>
hä lt</w>
ti vely</w>
sch ö
re staurant</w>
st är
f is
visi t</w>
ant ly</w>
spe ak
Nä he</w>
direc t</w>
sp ort</w>
langu age</w>
Mit arbei
tiv ity</w>
Au s</w>
er neu
ic s</w>
vi ces</w>
Ver trag</w>
ing ly</w>
d lichen</w>
par ties</w>
f ris
p an
sei ts</w>
Ver fahren</w>
Fre ih
aller dings</w>
man ag
we der</w>
mb H</w>
zent r
sch t</w>
pres s</w>
pe ace</w>
P lease</w>
D rit
invol ved</w>
com bin
k omp
organ iz
P f
Ziel e</w>
them selves</w>
lan ge</w>
hum an
yo ung</w>
aff ung</w>
Bed ingungen</w>
P e
Herr en</w>
20 0</w>
F rom</w>
beispiel sweise</w>
reg ulation</w>
fü n
I T
ro und
rau m</w>
be tra
si tion</w>
K omp
ri st
Anwen dung</w>
wer de</w>
ho ffe</w>
s ab
a y</w>
D an
demo cracy</w>
Verantwor tung</w>
Sel b
li ed</w>
se par
cent ral</w>
competi tion</w>
ges prochen</w>
wirk ungen</w>
implement ation</w>
ne ver</w>
c ateg
tr a</w>
grei fen</w>
blei ben</w>
el li
se en</w>
Kli ma
Au ßen
Rus sia</w>
vi ous</w>
w and
up on</w>
Umwel t
gemein samen</w>
extrem ely</w>
mark ets</w>
rich tung</w>
com fortable</w>
b ra
an ks</w>
T ro
freed om</w>
In te
notwendi g</w>
s et
ab les</w>
V ide
je wei
st et</w>
schein t</w>
sch ön
te am</w>
D ah
Er weiter
eff orts</w>
Ver sion</w>
ple ase</w>
k u
D am
gen u
sozi alen</w>
A spek
Demokrati e</w>
o w</w>
tot al</w>
Vorsch läge</w>
c aus
c ases</w>
ati s
mon it
G mbH</w>
ev ent</w>
net work</w>
v o</w>
ari an</w>
O R
be w
all s</w>
vi elleicht</w>
kl einen</w>
ig ung</w>
Grund lage</w>
ber u
str ong</w>
Ge biet</w>
yn am
Ver wal
A m</w>
Inter esse</w>
L A
c la
Rei he</w>
verwen det</w>
er le
ser ve</w>
t ory</w>
lo se</w>
A s
ber ücksichti
de mon
mo di
ar ri
demo cratic</w>
Gesch ichte</w>
K ön
inn en
ke ep</w>
fri endly</w>
Tei l
C hr
ru n</w>
c y
Z ah
M an</w>
re lev
ehr s
Ar ch
Ih rem</w>
f ail
ta g</w>
dan ken</w>
Dur ch</w>
off en
h äl
bi le</w>
ari a</w>
vor sch
plat z</w>
pre p
gt ;</w>
& gt;</w>
zo gen</w>
er ed</w>
har mon
ma xim
sp or
appropri ate</w>
Fran ce</w>
ren ch</w>
r ates</w>
ber g</w>
ak zep
w .
199 9</w>
er reicht</w>
Möglich keiten</w>
Dah er</w>
C our
region al</w>
Arbei tsp
st ly</w>
a gi
ac tions</w>
materi al</w>
at ory</w>
P ubli
K enn
c a
T ri
l ack</w>
fer enz</w>
A G</w>
wnlo ad</w>
Mo d
mu sic</w>
negoti ations</w>
or ing</w>
situ ated</w>
A D
5 00</w>
ge ts</w>
t able</w>
k tionen</w>
1 9</w>
h ard</w>
pa y</w>
stat t
tru e</w>
c am
cent er</w>
glei chen</w>
Deb atte</w>
ver fol
in en</w>
su cht</w>
schn it
si dent
Institu tionen</w>
ges etz
Ö ff
consi der</w>
inde pen
hel d</w>
A ff
hö ch
ah n</w>
tain ed</w>
Er klär
D amen</w>
tu rel
reich e</w>
g rupp
J e
k s
St ell
R E
every thing</w>
develop ing</w>
al tern
isch es</w>
cre ated</w>
N etz
vi de
3 .
re spec
forder t</w>
typ e</w>
requ est</w>
de pen
zeu g
sp rä
t i</w>
W ieder
fundament al</w>
fore ign</w>
alo gue</w>
be ach</w>
ist an</w>
Al l
ear ly</w>
K ir
m al
fort un
o ft</w>
ch e
L on
wis sen
at ors</w>
vi er</w>
bo ard</w>
uni que</w>
ri chten</w>
s eh
M et
lu s</w>
S h
th us</w>
ww w.
d ar</w>
educ ation</w>
wen ig</w>
fo und
ün sti
acc ording</w>
Ho ch
sh are</w>
con ven
N ich
st ates</w>
S an
des cri
steh enden</w>
rei ben</w>
fun ds</w>
ch ed</w>
verschied ene</w>
ber eit</w>
F rench</w>
Ab sch
Re chn
entwick elt</w>
impro ve</w>
funk tion
Pre sidency</w>
ic ro
si an</w>
n immt</w>
b li
pri ces</w>
Hin blick</w>
er fül
kön nten</w>
ac comm
au t</w>
r ing
al most</w>
P a
Off ice</w>
col le
tw eit</w>
ap er</w>
clim ate</w>
min im
tre at
cor rec
re form</w>
mis sion</w>
Americ an</w>
par ts</w>
Inv esti
eff ect</w>
ver antwor
re ma
me et</w>
p ment</w>
Dienstleist ungen</w>
lo g
dr in
2 1</w>
lä tz
uni k
fam ous</w>
im medi
design ed</w>
kon kre
gh out</w>
t ou
succ ess</w>
addi tional</w>
T O</w>
spiel en</w>
li ving</w>
a im
er seits</w>
arbei tung</w>
inclu ded</w>
be finden</w>
li k
s po
S an</w>
Berichterstat ter</w>
Fisch er
h eu
t est</w>
an te</w>
gemein same</w>
pr ise</w>
bi r
P lan
ne g
Dis kus
ac tually</w>
so on</w>
c ard</w>
mittel n</w>
lat er</w>
gli chen</w>
Minu ten</w>
Früh st
gel ei
verfü gt</w>
av o
Par k</w>
hi er
ex t
Di en
Beh ör
B ank</w>
ide a</w>
ermögli cht</w>
Her aus
h of</w>
untern ehmen</w>
er st
Aus wirkungen</w>
i erung</w>
Isra el</w>
Au ßer
l d
P at
ha ps</w>
Ab kommen</w>
ats ächlich</w>
re ich</w>
in ation</w>
T our
d on
Pre is</w>
eff izi
an z</w>
ru hi
ex am
b ark
ke y
Par is</w>
Regi onen</w>
schri f
en coura
fall en</w>
sk i</w>
Li ber
Ver tre
h atten</w>
C D</w>
ish ing</w>
under stand</w>
wi ll
we ek
W al
D och</w>
com b
ell ing</w>
gen ie
F er
ta x</w>
lin ks</w>
work ers</w>
än dern</w>
le ad</w>
ent er</w>
fi ve</w>
e e</w>
sch ul
as soci
men tioned</w>
recei ve</w>
co ver</w>
jen igen</w>
K at
sich ts</w>
än de</w>
Au stri
ver fahren</w>
Fü hr
wel t
c amp
ab led</w>
B ot
acc ept</w>
Tat sache</w>
p e</w>
z ation</w>
hel fen</w>
Program me</w>
M is
Por tu
it ali
ur ing</w>
initi ative</w>
Verhand lungen</w>
wer k</w>
erforder lich</w>
stat tet</w>
p u
Wir k
Z u</w>
ta kes</w>
fa ir</w>
äu ßer
cap ital</w>
ac y</w>
le ading</w>
out side</w>
Mitgli eder</w>
susta in
ch eck</w>
comm er
an ten</w>
te m</w>
F äl
proc edure</w>
ob s</w>
wel tweit</w>
Ein zel
M as
z .
b ack
ge stal
Kolleg innen</w>
Ge f
y si
f al
er hö
ameri kan
I P</w>
e ch</w>
f ran
re it
bil dung</w>
gesam ten</w>
inte gr
bi an</w>
H af
ä d
ra ce</w>
ad urch</w>
g n
buil t</w>
kno wledge</w>
g le</w>
ter ror
m ed</w>
in ge</w>
c are
I M
ph ot
us ers</w>
K or
boo k</w>
H ö
ei gent
si erung</w>
we ek</w>
sm us</w>
eben so</w>
k ti
Finan zi
maj ority</w>
schlie ßen</w>
Li ste</w>
einzel nen</w>
tn is
F rei
feat ures</w>
dar um</w>
be zieh
amoun t</w>
B ar</w>
a den</w>
ser ved</w>
progra m</w>
g um
W asser
P rin
u ally</w>
den ke</w>
sur round
communic ation</w>
ck ing</w>
ste ad</w>
B it
P an
re ach</w>
h ours</w>
to ok</w>
er wäh
Grupp e</w>
Ver tra
emp ha
re k
do ing</w>
For m
z one</w>
ei en</w>
Zent rum</w>
D ev
str ategi
ta x
, 000</w>
di gen</w>
tur en</w>
fil es</w>
throu ghout</w>
su per
it ing</w>
s atis
län dern</w>
c ell
Bes timm
fron t</w>
weiter en</w>
Woh n
St at
ep tion</w>
B innen
guaran tee</w>
Sch ritt</w>
el ess</w>
custom er</w>
an gem
ver ur
B ur
Außer dem</w>
fre i
h or
Entschei dung</w>
E S</w>
Änderungsanträ ge</w>
Ho w</w>
Abgeord neten</w>
connec tion</w>
tel y</w>
B us
Ma il</w>
m et</w>
se k
par ty</w>
Th e
par k</w>
ex tern
2 2</w>
U N</w>
ga b</w>
Berei chen</w>
7 0</w>
ec k
ac ross</w>
a ware</w>
fin al</w>
Ver wen
Ver f
reli gi
Ergeb nis</w>
ad d</w>
s em
con text</w>
intern ationale</w>
wri ting</w>
medi a</w>
stan ces</w>
indi c
certain ly</w>
n ation
Rus s
we b</w>
P u
sti c</w>
S T
invest ment</w>
rel ations</w>
je dem</w>
con sequ
ri g
w ahl</w>
z z
t le</w>
zun ehmen</w>
e chti
än dert</w>
vor zu
I S</w>
tradi tional</w>
Änderungs antrag</w>
g res
signific ant</w>
sta ge</w>
f lä
d est</w>
F ot
kon nte</w>
sam keit</w>
lu x
hä tte</w>
is en</w>
exist ing</w>
fähi gkeit</w>
w under
gegen wär
N et
Bezieh ungen</w>
do or</w>
Ak tiv
b an</w>
Vereinig ten</w>
colle ag
al though</w>
z er</w>
perform ance</w>
ali tä
B y</w>
Ant wort</w>
le b
läs st</w>
O c
F ur
Plat z</w>
co de</w>
r us
d or
z en
We b</w>
program mes</w>
B lick</w>
origin al</w>
ch oo
gleich zeitig</w>
Tur key</w>
g te</w>
st eu
s ent</w>
n a</w>
m ut
ill a</w>
Ur lau
for men</w>
K op
Bevölk erung</w>
hei ßt</w>
ati c</w>
g ame</w>
wei ß</w>
perf ect</w>
Tag es
men d
concern s</w>
wi l
co ordin
A cc
k or
con sum
m y
gemein sam</w>
Engli sh</w>
Ver ordnung</w>
gen e</w>
o v
wichti gen</w>
Aus druck</w>
J oh
program m</w>
wal k</w>
so ft</w>
den ken</w>
am a</w>
eb ru
th ern</w>
y l
m ember</w>
sh ed</w>
mom ent</w>
ck e</w>
m as
S at
ander er</w>
en ding</w>
li gh
Govern ment</w>
w at
richti g</w>
ple as
st a</w>
ke i</w>
Ri si
M y</w>
acc ept
Erfol g</w>
s ag
qui ck
lan gen</w>
Americ a</w>
In st
ne w
speci ali
bark eit</w>
Sch wi
2 7</w>
blei bt</w>
concern ing</w>
st elle</w>
äh ri
profession al</w>
consu l
Pro to
lo k
s end</w>
je de</w>
app ly</w>
A gen
comm ittee</w>
2 3
pop ulation</w>
en or
re ad</w>
9 0</w>
schri ften</w>
accomm od
Ver pflich
K rise</w>
För derung</w>
z. B.</w>
vol le</w>
sei te</w>
milit ary</w>
si tz</w>
comm unity</w>
nis sen</w>
n it
H am
er inn
si ze</w>
c ru
Ver bindung</w>
Tür kei</w>
reas ons</w>
li cht</w>
G eh
establish ed</w>
län der</w>
vel s</w>
agre ements</w>
Auf gabe</w>
conf lic
le gi
mo tion</w>
Kon z
imp act</w>
kl eine</w>
ref lec
vi r
M ot
comple tely</w>
be kommen</w>
arch it
em er
ati v</w>
no thing</w>
deci sions</w>
l te</w>
G eld</w>
rich tungen</w>
e y
Sta ats
F ebru
s mo
b ein
alis ation</w>
un abhängi
inclu des</w>
m ot
be h
Bar cel
erk enn
for dern</w>
c le</w>
Minist er</w>
Cour t</w>
St abili
f s
S outh</w>
inte gri
P C</w>
recomm end
Au g
prac tice</w>
a di
chni k</w>
su ch
partn er</w>
ba sic</w>
On line</w>
mo bili
m als</w>
Un ser</w>
li eren</w>
ä lt</w>
stell ungen</w>
Schlus sel
Projek t</w>
be deut
ür z
Kon trolle</w>
S eit</w>
Lon don</w>
entschei den
m einen</w>
verb unden</w>
stric t</w>
an ischen</w>
ul ate</w>
er lau
unser es</w>
Aussch usses</w>
si sche</w>
Z um</w>
ra ch
Spe zi
sty le</w>
equi pped</w>
gerich tet</w>
E ff
M al</w>
am s</w>
m es
C H
Ein satz</w>
O ber
con stitu
allo ws</w>
bed ingungen</w>
j ähri
Forsch ung</w>
ter ran
st ar</w>
ba th
A part
c as
proc ess
sen se</w>
gehör en</w>
inter net</w>
enth alten</w>
j obs</w>
en lar
Jah res</w>
dd le</w>
Partn er
sident schaft</w>
mo del</w>
in tel
s sel
gan gen</w>
ver bin
u es</w>
Inform ation</w>
2 3</w>
gan genen</w>
pl ann
ab zu
re main</w>
ar d
k er
Fri ed
Nat ur
tim men</w>
it able</w>
S ince</w>
äu fi
pre ci
h om
De sign</w>
fi gu
holi day</w>
5 .
En g
cho ice</w>
G lob
si di
si eht</w>
con fir
ba si
ati sti
sch es</w>
valu es</w>
objec tives</w>
exp en
construc tion</w>
partn ers</w>
rech ts
ob lig
Steu er
Sch la
wirtschaf tliche</w>
gef ähr
R ec
Lu x
di o
sto p</w>
recei ved</w>
inte gration</w>
e gen</w>
func tion</w>
we st
de si
tre ffen</w>
Au ff
we ch
si bili
Erweiter ung</w>
equi pment</w>
gemä ß</w>
Wis sen
Entschließ ung</w>
Partn er</w>
ent ed</w>
ne u</w>
ep s</w>
regar ding</w>
inf lu
sch le
b it</w>
ei ch
ent ation</w>
g ten</w>
devel op</w>
V en
r un
re si
pack age</w>
verstän dlich</w>
ann te</w>
Nutz ung</w>
Lis bon</w>
hin zu
ge eig
w ise</w>
e uro</w>
um e</w>
prü fen</w>
ha f
K a
simp le</w>
Behör den</w>
guaran te
pro f
n s</w>
un ge</w>
in k
Aug ust</w>
M ul
Mark t
inv es
applic ations</w>
19 6
e te</w>
pur ch
de p
Ge or
s ett
M il
ver hin
b ad</w>
Aussch uss</w>
je des</w>
ec e</w>
g ol
disp la
O N</w>
K am
f rü
rän k
er c
el ten</w>
bes u
L et</w>
manufac tur
Bei trag</w>
p al
Lös ungen</w>
agri cultural</w>
per at
enti re</w>
wichti gsten</w>
dem and</w>
A pp
ter rit
ver ti
tion ing</w>
Jap an</w>
ra ble</w>
fi ght</w>
ima ge</w>
U kra
Dam it</w>
Not wendi
m us
hau p
S lo
p ite</w>
ger ne</w>
stim men</w>
a im</w>
ach es</w>
benef it</w>
Ver anstal
spi ri
saf e</w>
x ed</w>
Sch wei
en er</w>
treat ment</w>
ni ce</w>
Ho st
Bit te</w>
s ou
as h
Lis sab
sch utz
objec tive</w>
at mosp
E L
D V
t ol
k ing
re turn</w>
le h
ser ies</w>
Auf enth
comp uter</w>
gen au
conc ern</w>
ei ts
mehr ere</w>
re ports</w>
E ast</w>
quick ly</w>
wo bei</w>
li ance</w>
st or
sig keit</w>
res se</w>
limit ed</w>
el en</w>
hin sichtlich</w>
fl ü
bel ow</w>
Ge wal
g oods</w>
gesam t</w>
So li
über zeu
Tex t</w>
recog ni
Ma y</w>
our c
nach hal
sor gen</w>
Wettbewer bs
F eri
Bu ch
trans l
H ere</w>
foc us</w>
f est</w>
4 5</w>
C A
R ot
Aff airs</w>
k it
la den</w>
gan ze</w>
s cre
zur ück</w>
gan zen</w>
g ei
prom ise</w>
är en</w>
fortun ately</w>
dou ble</w>
m ind</w>
enth ält</w>
sci enti
bal d</w>
Ges am
Verbesser ung</w>
li er</w>
bet ei
be züglich</w>
ti sh</w>
S en
f ru
e .
r und</w>
success ful</w>
C re
tradi tion
ven ess</w>
In nov
ne ben</w>
ag er</w>
v eh
ri ften</w>
Mat eri
kul turel
ges p
eigen e</w>
hand eln</w>
ermögli chen</w>
gen annten</w>
d aten</w>
ic k</w>
er sch
jo b</w>
W hi
li eb
schwi eri
achiev ed</w>
con tains</w>
su l
gu est</w>
syst em
B ul
ü hr
A ra
sicher heit</w>
se ems</w>
4 .
ac ity</w>
inde ed</w>
Ein k
fol low</w>
V or</w>
auf zu
r ing</w>
an gen
hot els</w>
Ira n</w>
m m</w>
ent al</w>
pot ential</w>
Barcel ona</w>
Jun e</w>
St unden</w>
ci ples</w>
K oh
rec ently</w>
ch em
T ä
Man agement</w>
N ational</w>
be ein
Sch affung</w>
fre i</w>
Arbei tn
lo ss</w>
T im
me an</w>
C ap
sen de</w>
an no
re p
A mend
S on
un e</w>
wei s</w>
prev ent</w>
t oren</w>
O k
Verbrau cher</w>
con grat
d ates</w>
zah len</w>
C a
S omm
Selb st
high ly</w>
le vels</w>
beginn ing</w>
schließ end</w>
we g</w>
Fin ally</w>
rie g</w>
B ü
W ort</w>
F lü
M ich
it es</w>
di alogue</w>
t licher</w>
Re g
F ach
el ek
ad ded</w>
ü b
Ergeb nisse</w>
Cent ral</w>
organis ation</w>
present ed</w>
cle an</w>
ver pflich
Ser ver</w>
ge k
Y or
in i</w>
K rank
d ynam
Gel egenheit</w>
plac es</w>
Am ster
ständi gen</w>
l ück
vor schriften</w>
Verwen dung</w>
ri eb
M E
off ice</w>
Geb äu
vi ously</w>
every one</w>
tra ff
l y
erh eb
J us
inn er</w>
Russ land</w>
si t
ür f
völ lig</w>
Angeb ot</w>
govern ments</w>
Initi ative</w>
ig keiten</w>
ori en</w>
hu ge</w>
h äre</w>
att emp
clo sed</w>
ur s</w>
för dern</w>
Wo che</w>
Lan des</w>
b order</w>
si mil
bal ance</w>
V al
Notwendi gkeit</w>
sozi ale</w>
C ity</w>
S in
3 00</w>
ek t</w>
wh ose</w>
ti ger</w>
di gung</w>
po st
p le</w>
sion s
flo or</w>
f s</w>
Inform ations
grund le
agre ed</w>
e vi
verbesser n</w>
increas ed</w>
Verk ehrs
ans wer</w>
I r
relev ant</w>
L inu
pec ts</w>
s ex
S am
ac ks</w>
carri ed</w>
j our
organ isi
groß er</w>
as ked</w>
op h
gu ten</w>
consum ers</w>
g as</w>
ent lich</w>
En ter
cover ed</w>
sho ws</w>
en able</w>
Lissab on</w>
bu te</w>
high er</w>
ar in</w>
suff ici
Te am</w>
key word</w>
i d
Pri or
prin ciples</w>
Mitarbei ter</w>
entwick eln</w>
k ann
Bil d</w>
n ote</w>
äh n
direc tion</w>
V o
em is
Kul tur</w>
kre ich</w>
O S</w>
be stä
I D
ó n</w>
N ieder
Inter essen</w>
f lu
verwen den</w>
T age</w>
serv ation</w>
el op
Dar über</w>
amend ment</w>
n er
gr enz
te i</w>
Them en</w>
human it
ell a</w>
set ting</w>
Gener al</w>
sustain able</w>
h äufi
H um
verfü gen</w>
zei t
ser ver</w>
consider ed</w>
M än
re views</w>
pos sibility</w>
fil m</w>
spä ter</w>
me an
dis ku
fi k
f onds</w>
g ül
Famili e</w>
per haps</w>
choo se</w>
S c
t op
comple x</w>
nu clear</w>
an ge</w>
commit ment</w>
Zeit punkt</w>
trav el</w>
Gi pf
spezi f
un ion</w>
li ge</w>
b our
materi als</w>
f eld</w>
Gesund heits
be stehen</w>
con duc
m einem</w>
S ome</w>
Gemein schafts
Ar ticle</w>
g al</w>
vide o</w>
Über ein
ast rop
3 5</w>
Intern et
ir gend
geh end</w>
ma g
u ß</w>
ma ßnahmen</w>
fün f</w>
Be wer
sch utz</w>
Änder ungen</w>
ch ing</w>
zun ächst</w>
3 0
fol ge</w>
di enen</w>
ger e
effec ts</w>
Arbeitsp lätz
Ther efore</w>
stell er</w>
I tal
oo m</w>
Energi e
veh ic
acc ep
Fran kreich</w>
b all</w>
mat ters</w>
Untern ehmen
Per son</w>
verfü g
W ahr
sho wn</w>
Organis ation</w>
M P
as pects</w>
Fir st</w>
x is</w>
F a
th anks</w>
m ann</w>
Dev elop
B l
wäh len</w>
Ma i</w>
pl ant</w>
Vol ks
Gesund heit</w>
innov ative</w>
te sten</w>
ung sp
di ent</w>
W erk
Regi erungen</w>
g ers</w>
an genommen</w>
1 ,
ver se</w>
ri eben</w>
prom ote</w>
ü bri
stat us</w>
ger ung</w>
mi gration</w>
jo int</w>
di glich</w>
W ert</w>
O N
n ie</w>
Ko so
rou ght</w>
t atsächlich</w>
Hand els
gel eg
fre ien</w>
Sp ain</w>
form er</w>
No w</w>
Jun i</w>
c ame</w>
S um
ex change</w>
plac ed</w>
ck et</w>
ter ien</w>
c las
E C</w>
ogra ph
s al
Erfahr ung</w>
ein deu
Kon fli
R A
Beh and
lat est</w>
spe ak</w>
O f</w>
al ing</w>
beh ind</w>
schrif tlich</w>
sam m
cre ation</w>
Rat sprä
De bian</w>
de ten</w>
Me tho
ex hi
deta ils</w>
opport unities</w>
pre vious</w>
s yn
U p
sch ätz
cap acity</w>
gef unden</w>
di schen</w>
Linu x</w>
ann er</w>
ologi es</w>
so und</w>
Aus wahl</w>
Ein führung</w>
proce du
Her zen</w>
pres sure</w>
de termin
Komm unik
intern ation
increas ing</w>
ra li
is on</w>
Um gebung</w>
ti veness</w>
Umwel t</w>
Ital y</w>
gar an
Mitgli ed</w>
Lu ft
comp et
bu ff
Ver trau
M useum</w>
eff ek
d liche</w>
spru ch</w>
An aly
ter in</w>
Hot el
et ary</w>
pri m
pop ular</w>
bau en</w>
dra w</w>
Währ end</w>
provi ding</w>
prep ared</w>
Aut om
o il</w>
F le
An fang</w>
ver stehen</w>
Da bei</w>
acc ord
reach ed</w>
ter ia</w>
Fran k
respon se</w>
Ei gen
und es
öff net</w>
Verein bar
par li
accommod ation</w>
Gä ste
en zi
easi ly</w>
wen den</w>
en a</w>
sta g</w>
äußer st</w>
u en</w>
sho p</w>
tic ally</w>
exp lo
i an</w>
atmosp here</w>
199 8</w>
s cri
mar k</w>
tain ing</w>
industri al</w>
Öff ent
bestimm te</w>
an ia</w>
commer cial</w>
ges sen</w>
H aus
k rä
ari ly</w>
W asser</w>
wi der
T H
Soli dar
bis her</w>
Kamp f</w>
re duce</w>
schaf tlichen</w>
extern al</w>
er ous</w>
Afri ca</w>
Me er</w>
publi k</w>
ber s</w>
W TO</w>
ho hen</w>
il ed</w>
M är
gesam te</w>
Syst ems</w>
D et
produc ed</w>
re pe
S wi
ad ap
som it</w>
b ür
s lo
Ter ror
i tion</w>
besch äf
le diglich</w>
G est
ori c</w>
cl ass</w>
T it
Proz ess</w>
opp el
char ge</w>
star k</w>
Aktiv itäten</w>
ent de
Spra che</w>
zus etzen</w>
gewähr leisten</w>
Industri e</w>
i k</w>
wer s</w>
ti al</w>
M icro
th y</w>
sum mer</w>
An zahl</w>
in fra
D I
Amster dam</w>
ph ysi
verk ehr</w>
supp ly</w>
lin k</w>
br ingt</w>
nei gh
comp re
Bri tish</w>
S A
H inter
sub mitted</w>
B lo
mäß ig</w>
S tern
2 5
ass ess
ein hei
Be kämp
Con vention</w>
wün schen</w>
H om
di e
s la
Inte gration</w>
Zent r
Gä ste</w>
ob wohl</w>
ic ally</w>
civi l</w>
gi ves</w>
deci ded</w>
h ung</w>
effici ent</w>
Ukra ine</w>
qu es</w>
Dec ember</w>
ver suchen</w>
Kommiss arin</w>
üh m
ar ing</w>
Rau m</w>
be sitz
er y</w>
anno un
proper ty</w>
hervor ra
bew us
au m</w>
H and</w>
prot ect</w>
pri ority</w>
enlar gement</w>
W ahl</w>
bestimm ten</w>
E ing
ich t
emplo ye
c ro
dire k
read ing</w>
is ing</w>
op e</w>
ro und</w>
es si
rema ins</w>
pro b
ah len</w>
Bekämp fung</w>
fund ing</w>
er enden</w>
G ot
inter ess
ci a</w>
H y
De z
Al so</w>
ich ten</w>
sätz e</w>
ourc en</w>
ant i</w>
ber t</w>
c ause</w>
ti li
R ess
ein schließlich</w>
f än
ap poin
selb st
Produk tion</w>
mu si
ru s</w>
king .com</w>
ish ed</w>
Ser vices</w>
2 6</w>
charac ter
suppor ted</w>
is land</w>
erk ennen</w>
lea ve</w>
J av
en heit</w>
setz ungen</w>
rach tens</w>
spe ed</w>
E rachtens</w>
Nat ur</w>
m eines</w>
D inge</w>
sibili ties</w>
ther more</w>
indepen dent</w>
B usiness</w>
zwei te</w>
C am
on nen</w>
ver l
m bo
fran zö
gew öh
S onn
ali st</w>
kri min
zeh n</w>
bet ro
im mer
Yor k</w>
Par ty</w>
Res er
Koso vo</w>
2 8</w>
Z ahl</w>
eh e</w>
.. ..</w>
M y
zahl reiche</w>
Ch rist
li ert</w>
In sel</w>
consu mer</w>
instru ment</w>
in t
pro duce</w>
b illion</w>
assi stance</w>
re staurants</w>
D om
P ap
terran ean</w>
mo vement</w>
Tran spar
St o
Bestimm ungen</w>
L es
pres ents</w>
n ö
demon str
pl om
compre hen
pre par
zi p</w>
im pres
C u
l ös
de te</w>
Fortsch ritte</w>
accept able</w>
ro r</w>
L E
pur pose</w>
Vor aus
ge wis
f r
zeu ge</w>
er weiter
West ern</w>
ge m</w>
add res
D or
sch ütz
ne y</w>
w ander
qu are</w>
sag te</w>
er ster</w>
ari es</w>
re a</w>
spr ün
l ing
v an</w>
möglich keiten</w>
ten den</w>
cre ating</w>
simil ar</w>
egen heiten</w>
let ter</w>
mo bile</w>
ati v
Tran s
kon zent
ges ell
Kre di
con v
ru le</w>
C ro
ac tivity</w>
O per
Sp iel</w>
k li
Pre ise</w>
b rought</w>
Jahrhunder t</w>
Dez ember</w>
ex ec
G ed
rel ation</w>
la un
p ul
i cial</w>
s ource</w>
äu ß
op tion</w>
Mar ch</w>
m em
Po sition</w>
regul ations</w>
our selves</w>
lar gest</w>
ill ed</w>
le gung</w>
minist er</w>
w ritten</w>
syst eme</w>
außer dem</w>
re in
apart ment</w>
Erklär ung</w>
ho ben</w>
Funk tion</w>
ic es</w>
ro s</w>
st eps</w>
a h</w>
fre qu
soli dar
Janu ary</w>
ausge stattet</w>
S E</w>
on dly</w>
sol chen</w>
L auf
m ein</w>
St elle</w>
em and</w>
tig ungs
Di alog</w>
P rü
lei cht</w>
los sen
sch au
prä sen
st ung</w>
wur f</w>
d adurch</w>
Ger ä
instru ments</w>
gen heit</w>
gen der</w>
si x</w>
ple ased</w>
G ei
Wachst um</w>
m ine</w>
shi ps</w>
categ ories</w>
ac ts</w>
is es</w>
zwei ten</w>
versi ty</w>
ber ühm
exp la
ho he</w>
Mehr heit</w>
ins gesamt</w>
h es</w>
f ishing</w>
Oc tober</w>
vari ety</w>
Re public</w>
Nor th</w>
wi d
Ener gie</w>
inter pre
air port</w>
credi t</w>
P unkte</w>
rel ation
si des</w>
S ite</w>
il om
l ten</w>
größ ten</w>
con ference</w>
pa id</w>
A gr
Han del</w>
in stead</w>
ges ellschaft</w>
au t
C ha
vol len</w>
mes sage</w>
. 00</w>
ha fen</w>
re stric
gri ff</w>
m ers</w>
Auf merk
sen si
lei der</w>
R el
discus sion</w>
j ün
ev ent
inten si
eh er</w>
einzi ge</w>
auf genommen</w>
Vorsch riften</w>
th ous
ss el</w>
bec ame</w>
B as
stell ten</w>
fri ed
p ati
ot ing</w>
Medi terranean</w>
s th
fis her
el e</w>
g ünsti
an ni
wer k
reg ards</w>
Gewal t</w>
re over</w>
por ary</w>
st ability</w>
pos t</w>
ar ran
Str and</w>
stu dy</w>
B undes
ex tra</w>
sec tion</w>
H i
star ted</w>
ateg orien</w>
Entschei dungen</w>
Am eri
ar en</w>
ver gangenen</w>
it em</w>
F ak
di stance</w>
gi ving</w>
ck er</w>
C lub</w>
Itali an</w>
f la
ni ed
An forderungen</w>
Inst all
N ur</w>
Fe der
gel an
K ün
Mär z</w>
distri bution</w>
s au
s a</w>
alis m</w>
St .</w>
ag ing</w>
g a</w>
c ast
Kü che</w>
ep h
docum ent</w>
legisl ative</w>
Pro du
ob en</w>
fol gt</w>
Bal k
sel s</w>
medi um</w>
interest ing</w>
T or
opp ing</w>
bewer tungen</w>
a i
S we
ord ini
Bu d
einzi gar
por ate</w>
allo wed</w>
L ehr
Aufmerk samkeit</w>
H ung
sign ed</w>
Stad t
partn er
p ass</w>
Boo king.com</w>
ill s</w>
Ma sch
y ond</w>
To day</w>
m ess
procedu res</w>
Bil d
h aus</w>
conc ept</w>
c lick</w>
tel l</w>
genie ßen</w>
M S</w>
conven i
Span ish</w>
c ross</w>
In de
Freih eit</w>
stra tion</w>
ärk te</w>
st ers</w>
reib ung</w>
ch tung</w>
au lt</w>
sh ops</w>
Gef ahr</w>
stat ement</w>
hol d</w>
geb aut</w>
u le</w>
archit ec
comp on
rela x
b ase</w>
sch ool</w>
P res
ab ge
ter t</w>
Ri ghts</w>
konzent ri
ä st
mm ing</w>
St äd
Musi k</w>
pa yment</w>
3 2</w>
com promise</w>
Projek te</w>
elec tri
S im
P S</w>
ologi en</w>
sh or
Stand punkt</w>
V illa</w>
dam age</w>
a i</w>
S ho
contri bution</w>
Cent er</w>
letz t</w>
to ol</w>
lie genden</w>
ev alu
Beschäf tigung</w>
tei en</w>
t al</w>
Gr enzen</w>
wei s
M us
le ge</w>
lä ssi
et z</w>
histor ical</w>
agen da</w>
provi sions</w>
stär ken</w>
G al
Al ler
schie den</w>
ver ty</w>
r at
B on
M acht</w>
pur su
k ein
Berei che</w>
Emp feh
G oo
I L
über sch
we g
Gäste bewertungen</w>
vil lage</w>
in en
ab ri
199 7</w>
Develop ment</w>
L ab
fas sen</w>
l auf
Kun st
do m</w>
viol ence</w>
Land wirtschaft</w>
Ju ly</w>
eigent lich</w>
di men
di se
bili tät</w>
pos es</w>
Pro f
k in
D el
oll ar</w>
eff ort</w>
S up
Rah men
buil d</w>
ul i</w>
T ab
Ex per
Dur ing</w>
neu er</w>
kon nten</w>
Wi der
elec tron
be vor</w>
qui et</w>
lich keiten</w>
el te</w>
sp orts</w>
en ced</w>
w ine</w>
W est</w>
kon trol
do w</w>
Kin der
Fischer ei
tri t
Portu gal</w>
U R
Bel gi
gewöh n
d .</w>
sel n</w>
n or</w>
ko sten</w>
as p
ein gesetzt</w>
lab our</w>
g ste</w>
&apos; ll</w>
t ask</w>
O pf
bo x</w>
Ber u
en gen</w>
docum ents</w>
ren e
v in
cri teria</w>
Wettbewer b</w>
An frage</w>
s us
wür di
S il
stand s</w>
dri ve</w>
oper ating</w>
Re form</w>
ra di
lie ß
Investi tionen</w>
Af gh
tiv al</w>
B ad</w>
wen ige</w>
V is
europä ischer</w>
f alt</w>
expres s</w>
l o</w>
Agr ar
l ate</w>
Regel n</w>
fahr t</w>
jus ti
is tischen</w>
con st
N ation
Unter such
2 9</w>
N ationen</w>
Fol gen</w>
integr ated</w>
ch i
Kra ft</w>
lie f
Ok tober</w>
ut ting</w>
fin ally</w>
do wnload</w>
men sch
P H
dra ft</w>
E m
t ac
Bil dung</w>
qu ar
b y
benef its</w>
Benutz er</w>
Par k
b and</w>
l am
un mittel
E re
durch geführt</w>
typ es</w>
equ al</w>
E ig
M eine</w>
w onder
Janu ar</w>
ra t</w>
el ements</w>
Diskus sion</w>
aktu ellen</w>
Fir ma</w>
Chr isti
St ar</w>
st able</w>
B or
dig ital</w>
M A
to ols</w>
größ te</w>
Lin ie</w>
er o
M any</w>
con om
sch wer
Frühst ück</w>
Universi ty</w>
Tel ef
happ y</w>
on t</w>
T u
con ver
c on</w>
cra ft</w>
p ho
requ ire</w>
Forsch ungs
Sin ne</w>
k eits
O st
kur z</w>
as se</w>
benö tigen</w>
er ter</w>
go t</w>
Transpar enz</w>
E v
Cent re</w>
B ahn
wichti ger</w>
altern ative</w>
speci fic
gro wing</w>
e g</w>
high est</w>
E is
immedi ately</w>
Ne w
be ziehen</w>
Berich ts</w>
Ver än
mu t</w>
2 4
Grün den</w>
Al though</w>
transpar ency</w>
for ces</w>
chan ged</w>
Präsiden ten</w>
Feri en
un sch</w>
l as</w>
ein fa
0 1</w>
Z un
h ed</w>
Z ur</w>
apart ments</w>
Ter ra
b ahn
in stal
b usin
T r
ange sichts</w>
Schwi er
K ern
go es</w>
Hö he</w>
Enter prise</w>
D u</w>
gh t
ast ern</w>
hör en</w>
Priv at
fol genden</w>
get an</w>
ve au</w>
aus drück
all ein</w>
19 5
or row</w>
ver öffent
n ungen</w>
ma sch
t au
E conom
erwar ten</w>
Y our</w>
P as
ti sch</w>
su b</w>
fin e</w>
off icial</w>
employe es</w>
S af
kann st</w>
Stu di
m in</w>
wi esen</w>
ur sprün
par king</w>
ig h</w>
ti tu
- -
ih res</w>
gel ten</w>
Person al</w>
Prä sidentschaft</w>
At mosp
m ous</w>
fri ends</w>
de ath</w>
app lied</w>
Bed ürf
Ver tei
Lo c
elec tions</w>
re ality</w>
Bem üh
Feh ler</w>
tra in</w>
Bul g
kl assi
Auff assung</w>
num erous</w>
hin ter</w>
as tic</w>
gel ö
sub stan
er e
transp or
analy sis</w>
ge wäh
so fort</w>
ann ual</w>
k at
avo id</w>
challen ges</w>
c r
Sa che</w>
ständi ge</w>
advan tage</w>
Öffent lichkeit</w>
lö sen</w>
se ek
po verty</w>
institu tion
c ent</w>
b ru
ätz e</w>
da ily</w>
c lu
proc esses</w>
ec ting</w>
it en</w>
Se e</w>
stän de</w>
Kap it
Fur thermore</w>
per man
trau m</w>
Ere ig
ger ä
person s</w>
dis crimin
tal k</w>
ho st
Flug hafen</w>
fa ir
7 5</w>
Bet ei
C op
solidar ity</w>
off izi
be hör
wieder hol
erfolgre ich
r aten</w>
ag ed</w>
alisi ert</w>
W ahl
demokrati schen</w>
sat z
re view</w>
V öl
E L</w>
H eute</w>
ur g
gi c</w>
K ör
gen s</w>
occ a
help ful</w>
wor tern</w>
erneu t</w>
al te</w>
aus reich
S P
ein gesch
consequ ences</w>
tim ate</w>
P au
H oh
sa ying</w>
Kom promis
si l
off ering</w>
die jenigen</w>
zeichn ung</w>
v ali
C al
fas st</w>
j ähr
le gt</w>
est er</w>
Pal est
begrü ße</w>
berei t
schö nen</w>
öffent liche</w>
S ou
Tages ordnung</w>
ell es</w>
hist oric</w>
3 1</w>
F es
k am
be yond</w>
v al
ber echti
ear ch</w>
bath room</w>
DV D</w>
Bil der</w>
vi er
L eg
ß er</w>
conflic t</w>
N r.</w>
ade qu
ge worden</w>
a der</w>
C i
hau pt</w>
ec ken</w>
entsprech enden</w>
st ark
se as
Kön ig
K ommission
mor gen</w>
Änder ung</w>
nah e</w>
he ad</w>
ther wise</w>
bie te</w>
kur z
effici ency</w>
timm ung</w>
gra phi
C amp
li ves</w>
Dat ei</w>
F lu
cur ren
sel y</w>
H igh</w>
sc ap
h ou
gre at
R en
wir ken</w>
Arch it
Urlau b</w>
ra tive</w>
colleag ues</w>
bei tragen</w>
ld wide</w>
off ered</w>
s ent
zeu g</w>
Fäl len</w>
p lus</w>
minim um</w>
Lie fer
g yp
Bet rieb
J uli</w>
ge tro
Bemüh ungen</w>
buff et</w>
T ou
Austri a</w>
k ehr
n ehm
op tions</w>
R O</w>
bi a</w>
wer te</w>
car ry</w>
D o</w>
c e
W ell
re t
empha si
Schlussel wortern</w>
lang fris
Re staurants</w>
ig ran
il legal</w>
Mon aten</w>
modi fied</w>
wan ted</w>
ler nen</w>
b ran
Dru ck</w>
star ting</w>
be handelt</w>
en se</w>
e f</w>
prac tical</w>
publi shed</w>
ide as</w>
An satz</w>
an lage</w>
requi res</w>
k i
R oom</w>
establi sh</w>
ch tet</w>
wahr schein
Ju gend
P hi
ut ely</w>
terror ism</w>
bet rä
Ba sis</w>
re mo
bed ingt</w>
Poli tik
bek ämp
Bür gern</w>
verhin dern</w>
wer t
po or</w>
bal an
ver standen</w>
ph one</w>
St ar
einf ach
implement ed</w>
use ful</w>
industri e</w>
Direc tive</w>
H el
Re publik</w>
pla yer</w>
di vi
Gr ö
b ly</w>
sh opping</w>
trans fer</w>
re ference</w>
organis ations</w>
ch s
h .</w>
berücksichti gt</w>
si eren</w>
zü gi
exp ect</w>
W a
Micro soft</w>
zeu gen</w>
week s</w>
Ta gen</w>
Dat eien</w>
199 6</w>
monit oring</w>
entsprech end</w>
hä tten</w>
An sch
mach ine</w>
Itali en</w>
zi p
tur ned</w>
i or</w>
An ge
suffici ent</w>
Behand lung</w>
pro jek
tom orrow</w>
be halten</w>
erfol gt</w>
th ought</w>
congrat ulate</w>
ver gessen</w>
d nis</w>
cir cum
pa ar</w>
wä l
cru cial</w>
ali en</w>
ander em</w>
lo sen</w>
sek tor</w>
maxim um</w>
I mp
cli ents</w>
K u
Milli ar
Sp ei
s ales</w>
lab or
gen ce</w>
rel ating</w>
N AT
Bürger innen</w>
lear n</w>
off en</w>
komm ens</w>
M ün
z t</w>
l le</w>
sec ure</w>
re le
c ut</w>
wei st</w>
reduc tion</w>
min ute</w>
B rü
M c
sor g
Sch lü
w ser</w>
mark s</w>
9 8</w>
n ungs
T at</w>
Ma ß
ne ws</w>
zu führen</w>
some times</w>
ver treten</w>
l esen</w>
6 .
Atmosp häre</w>
s ü
techn ischen</w>
ver sucht</w>
Sch ließ
mor ning</w>
Nach bar
fi el
Ver gan
olog ischen</w>
Amend ment</w>
ar a</w>
Un ter</w>
cla im
si en</w>
richti ge</w>
moun tain</w>
ep age</w>
comprehen sive</w>
lau b
ander s</w>
tre i
caus ed</w>
ac e
So ci
gli che</w>
get ary</w>
D r.</w>
Stand ard</w>
nat ür
sich ern</w>
s ation</w>
deut schen</w>
ser ves</w>
mon th</w>
M ag
Techn ologie</w>
rech ts</w>
S port
camp a
Menschen rechts
em ail</w>
L e</w>
G et
stre et</w>
a p</w>
Ver häl
D en</w>
vot ing</w>
dru ck
eh em
chil d</w>
fol gen</w>
de gre
reas on
I N</w>
be mü
E ven</w>
ther ap
P D
Whi le</w>
or ie</w>
pro fi
M au
g ames</w>
ver th
moder nen</w>
gem ents</w>
Me er
f ts
ff enen</w>
accord ance</w>
Ber at
ho ch</w>
S icht</w>
st ör
th in
verth eless</w>
ver wal
Nat ürlich</w>
ex ac
un er
Rechts vorschriften</w>
struk tur</w>
any thing</w>
Kon ferenz</w>
di sa
F R</w>
fü gen</w>
trä gt</w>
fre ih
über haupt</w>
wa ste</w>
institu tional</w>
Sch utz
F ähi
war um</w>
N icht</w>
br ing
b a</w>
histor ischen</w>
al one</w>
Span ien</w>
nor m
pro duzi
B lu
beg in</w>
sor gung</w>
pl ans</w>
prob ably</w>
lo wer</w>
can di
r ück
f it
erklär t</w>
pla yers</w>
Proto kol
Al tern
k ro
z in
s ession</w>
M om
on y
av ing</w>
zahl reichen</w>
le y</w>
techn ologies</w>
P en
verantwor tlich</w>
st es</w>
interest ed</w>
Kul tur
e chn
langu ages</w>
F el
Beg inn</w>
I s</w>
metho d</w>
ten en</w>
ep ing</w>
L assen</w>
bi tion</w>
s äm
den s</w>
cer ti
Grupp en</w>
Drit t
bre chen</w>
betre ff
wel ches</w>
Finanzi erung</w>
Frank fur
ci ties</w>
Afgh an
Aufenth alt</w>
Ress ourcen</w>
Wo chen</w>
conc ent
Pre is
M and
lik ely</w>
F ron
acc ession</w>
Aspek te</w>
i ed</w>
far mers</w>
du le</w>
Con ference</w>
M ac
D ol
Air port</w>
ext ent</w>
P l
scienti fic</w>
or g
wor ked</w>
K al
re lease</w>
sc ale</w>
ima ges</w>
wor ldwide</w>
Al t
tnis se</w>
gew esen</w>
be ste</w>
S wis
trit ts
ed s</w>
P P
F rie
voll ständig</w>
P ot
A gent
erfül len</w>
S onder
angem ess
um en</w>
su s</w>
metho ds</w>
men tion</w>
ch ance</w>
Vergan genheit</w>
Qu alitä
führ te</w>
zei ten</w>
häufi g</w>
gar den</w>
men u</w>
An der
n ü
swi mming</w>
l auf</w>
D ro
zu min
challen ge</w>
gre en</w>
gesch affen</w>
gri ffen</w>
s un
C li
streng th
Sec urity</w>
Syst em
erfolgre ich</w>
ad verti
In halt</w>
end lich</w>
F ac
neu es</w>
stell te</w>
jewei ligen</w>
sec tors</w>
Chin ese</w>
I F
Erfahr ungen</w>
zumin dest</w>
f ish</w>
coun t</w>
M ess
Publi c</w>
Comp uter</w>
proz ess</w>
M ei
ch ter</w>
ot h</w>
b ung</w>
process ing</w>
occ up
appe ar</w>
Goo gle</w>
é s</w>
Ad resse</w>
verpflich tet</w>
w ell
bed au
Best ell
k ers</w>
D oppel
er ende</w>
F und</w>
power s</w>
gewi esen</w>
zi g</w>
c in
Zwei tens</w>
Beg ri
ti ges</w>
st ets</w>
grupp e</w>
be für
Zentr al
w ood</w>
s an
re land</w>
ck ets</w>
L it
un ten</w>
gesch i
zah lt</w>
Viel e</w>
pas sen
fiel ds</w>
außer halb</w>
D re
lo st</w>
jus tice</w>
emp feh
busin esses</w>
Fre e</w>
k am</w>
Woh l
Min der
Kon tak
er o</w>
W erte</w>
Bes onder
sel ection</w>
ei l</w>
wal king</w>
ver age</w>
erwar tet</w>
Stern e</w>
en ze</w>
gen utzt</w>
ap preci
Sch ritte</w>
li a</w>
accep ted</w>
g keiten</w>
flä che</w>
schütz en</w>
des pite</w>
ar gum
st ab
strategi c</w>
inc or
ver trau
di gt</w>
est er
Berichterstat terin</w>
e der
com fort</w>
ex erc
te chni
f ying</w>
Gr and</w>
k ennen</w>
Ber g
ter en</w>
k i</w>
Th ank</w>
ail s</w>
Ö ster
W ol
ut y</w>
fl uss</w>
l ess
b es</w>
I reland</w>
G eg
s eines</w>
f res
W ein
No t</w>
Arbeitn ehmer</w>
ra ised</w>
brau cht</w>
b lu
ach tet</w>
Vertrau en</w>
leist et</w>
Or d
Angel egenheiten</w>
persön lichen</w>
ori enti
sp rech
Rus sian</w>
N ord
Ro oms</w>
Angel egenheit</w>
Ba de
ver ab
st atisti
an g
sp rü
schaf t
influ ence</w>
yp e</w>
ament ary</w>
separ ate</w>
Struk tur
visi tors</w>
innov ation</w>
bar er</w>
genu g</w>
wahrschein lich</w>
heu tigen</w>
E l</w>
a war
tr ying</w>
contrac t</w>
letz te</w>
h eben</w>
Da zu</w>
In fra
w r
absol utely</w>
ta kt</w>
her aus
dou bt</w>
Ges prä
Gebäu de</w>
Schwier igkeiten</w>
imple ment</w>
Heraus forderungen</w>
lo sigkeit</w>
flexi ble</w>
inves tig
s le
ou rable</w>
ausge zeich
sc ope</w>
erlau bt</w>
oper ate</w>
co he
a zi
amerikan ischen</w>
Vertre ter</w>
Pra xis</w>
is ation</w>
m and
besser e</w>
E T
Entschließ ungs
aus schließlich</w>
Kün st
bi o
geh ö
tro tz</w>
Spiel er</w>
jo in</w>
ak tivi
Vide o</w>
A T</w>
Par teien</w>
Pre mi
Aller dings</w>
lea ders</w>
bo t</w>
bil den</w>
ad o</w>
U K</w>
y our
A le
rän kt</w>
dem ands</w>
erkenn ung</w>
se chs</w>
gesch ütz
St ation</w>
nam ely</w>
elek tron
Ein richtung</w>
Sch wer
Gesam t
K las
pris es</w>
lo ve</w>
cri pt</w>
Bet rie
u tive</w>
o de</w>
Regi on
bor ders</w>
On ly</w>
I D</w>
aff ected</w>
di sche</w>
s inn
Ein ige</w>
Hin sicht</w>
ru ption</w>
ma p</w>
Regi erungs
N eben</w>
r i</w>
ger ungen</w>
op ening</w>
n ern</w>
Eig ent
zeich nen</w>
inten ded</w>
cri tical</w>
bi g
get ting</w>
Sec ondly</w>
stu di
D enn</w>
Con stitu
call s</w>
ar k</w>
D ra
w inn
priv aten</w>
Mo reover</w>
Fol ge</w>
hear d</w>
erinn ern</w>
b rie
h our</w>
fan gen</w>
over all</w>
nied ri
W unsch</w>
regi me</w>
ri d</w>
wei ten</w>
k lu
M O
aff t</w>
sel ben</w>
k rise</w>
F alls</w>
sta aten</w>
di plom
Sta at</w>
bit ten</w>
D im
H T
Sp ec
stoff e</w>
A gre
ig keit</w>
Instru ment</w>
in si
war m</w>
neg ative</w>
Ih res</w>
ic a</w>
adop t</w>
vorgesch la
Opf er</w>
sa ys</w>
allgem einen</w>
itali en
S Q
4 8</w>
V il
Solidar ität</w>
eb ung</w>
mp tion</w>
kl ein
represent atives</w>
h tt
zu künf
Su per
Nach fol
k ap
your self</w>
and a</w>
An nahme</w>
H off
2 6
for ced</w>
ge kommen</w>
P ati
über nehmen</w>
Auf gaben</w>
D ann</w>
relation ship</w>
S tim
ter e</w>
f oo
R ed</w>
moder ne</w>
sch ung</w>
ehem ali
gehö ri
ban ks</w>
W er</w>
k t
l aufen</w>
r en</w>
run ning</w>
l ass</w>
Frie den</w>
ec ts</w>
NAT O</w>
C z
A K
initi atives</w>
Arbeitsplätz e</w>
g st</w>
M er
re duzi
S om
Kun den
K rieg</w>
M ex
traff ic</w>
streng ungen</w>
us ually</w>
sch o
Mittel me
st ress</w>
li en</w>
entschei den</w>
expres sed</w>
begr enz
su itable</w>
v ent
sch wer</w>
dat ab
Produk t
Pe ople</w>
Afghan istan</w>
st ore</w>
ev ening</w>
j ahr</w>
V oll
pra kti
tar get</w>
prü ft</w>
ru p
is tic</w>
aus ch</w>
S O
bor n</w>
bewus st</w>
ob il
at or
bei de</w>
H ä
d t</w>
ün f
exp ected</w>
dar stellt</w>
M L</w>
Con t
commit ted</w>
Organis ationen</w>
ung s</w>
G N
gener ation</w>
M ore</w>
zu dem</w>
ra il
ge biet</w>
kon om
main ly</w>
hil fen</w>
begrü ßen</w>
Ob wohl</w>
fre ie</w>
pro per</w>
f ant
com par
automati sch</w>
S yn
administ ration</w>
än der
d ated</w>
a .</w>
I ts</w>
on s
appro ved</w>
l ern</w>
tal king</w>
main tain</w>
en ha
us s
D A
h a</w>
Syst eme</w>
forder ung</w>
auf s
Er stens</w>
Verf assung</w>
H u
9 9</w>
f el</w>
end ed</w>
L eute</w>
ver mei
ab kommen</w>
Ob jek
fan gre
plann ing</w>
il leg
N u
z ing</w>
nach ten</w>
E M
et ings</w>
t y
ter race</w>
install ation</w>
Verpflich tungen</w>
c .</w>
min i
S eh
bu ch</w>
dest ens</w>
v ital</w>
d eine</w>
Er n
s agt</w>
Sü d
vorgesch lagen</w>
n ä
7 .
S ing
R ats
publi c
li gung</w>
gel egen</w>
Ar mut</w>
nor mal</w>
aci ous</w>
curren cy</w>
Über wach
ein ger
confi dence</w>
k ürz
tour ist</w>
famili es</w>
Agen da</w>
ch ec
T sch
zeu gung</w>
F alle</w>
Ele k
w in</w>
v ements</w>
th in</w>
cohe sion</w>
5 0
en des</w>
impro ved</w>
kar te</w>
S S</w>
eindeu tig</w>
b ul
fre uen</w>
del ines</w>
fäl le</w>
Rom a</w>
au di
stän den</w>
Re ak
ori al</w>
S ant
prac tic
collec tion</w>
los oph
D e</w>
struc tures</w>
contro ll
milit är
Milliar den</w>
sp ann
Im mobili
correc t</w>
4 00</w>
S ign
führ ten</w>
ly mp
Co sta</w>
administ rative</w>
Kri terien</w>
vol ution</w>
Sit zung</w>
größ ere</w>
9 7</w>
u ten</w>
Zus timmung</w>
G rie
Inv est
go al</w>
An strengungen</w>
stärk er</w>
ti ous</w>
li c</w>
k aum</w>
re forms</w>
Co de</w>
S .</w>
N un</w>
t our</w>
sp er
&apos; re</w>
st ein</w>
k ü
ben utzt</w>
steh ende</w>
struc tural</w>
scre en</w>
pho to</w>
Par tei</w>
stu dents</w>
dan ke</w>
feat ure</w>
Char ak
Kar te</w>
ci ans</w>
s i</w>
olog ische</w>
deli very</w>
comm ents</w>
wh ite</w>
H ause</w>
increas ingly</w>
r ats</w>
exc ep
er gän
eng ine
conclu sion</w>
T y
wh om</w>
f ei
sti eg</w>
n ationale</w>
deci de</w>
tim s</w>
a g</w>
b on
1 50</w>
a y
competi tive</w>
u re
pp ing</w>
w est</w>
circum stances</w>
B ec
n ehmer</w>
sa chen</w>
Proz ent</w>
um s
G ast
ä den</w>
An erkennung</w>
zusätz liche</w>
sp richt</w>
reduc ed</w>
prot ected</w>
ali sten</w>
Kl ein
cri tic
schaf tliche</w>
um fangre
3 3</w>
Produ kt</w>
automati cally</w>
verein bar
Protokol l</w>
ück e</w>
t ations</w>
Ide e</w>
gen annt</w>
g g
T em
entsp richt</w>
b um</w>
N ations</w>
Fu ß
un bedingt</w>
ll a</w>
re agi
cri me</w>
9 5</w>
an ische</w>
An ti
Al p
Vereinbar ung</w>
Er d
199 5</w>
Funk tionen</w>
titu de</w>
te ach
la ws</w>
W ahlen</w>
Verwal tung</w>
electron ic</w>
Binnen markt</w>
Terror ismus</w>
M ach
lich ung</w>
cel eb
alle y</w>
el se</w>
Ira q</w>
20 20</w>
mit ten</w>
gi e
re siden
defin ed</w>
beg an</w>
pri orities</w>
ver tre
er reich
Archit ek
de cor
sh e
beg innen</w>
so fern</w>
überzeu gt</w>
N ah
un employment</w>
pa y
Palest ini
es tic</w>
tro ll
selbst verständlich</w>
schön e</w>
power ful</w>
z lich</w>
sup ports</w>
I st</w>
pla yed</w>
glei che</w>
exten sive</w>
form at</w>
contri bute</w>
vor gelegt</w>
infra structure</w>
an ci
found ed</w>
R ed
s ources</w>
eri es</w>
speak ing</w>
tem perat
co ff
er land</w>
particip ation</w>
ens uring</w>
En ga
is ely</w>
Gipf el</w>
min destens</w>
ic o</w>
ge tragen</w>
wor th</w>
Stell ung
P L</w>
al t
zi ert</w>
introduc ed</w>
y al</w>
ing er</w>
o ber
por ted</w>
I denti
ck ed</w>
H or
ha ft</w>
emis sions</w>
Vol k</w>
but ed</w>
ch ern</w>
Aussch uß</w>
del eg
plan ts</w>
per spec
h und
under standing</w>
posi tions</w>
v ac
tz dem</w>
he ad
be ha
O R</w>
le ment</w>
an ken</w>
In halte</w>
vic tims</w>
specific ally</w>
ex ist</w>
ent y</w>
func tions</w>
deli ver
unterschied lichen</w>
Swis s</w>
l ad
k ategorien</w>
erwäh nt</w>
ther e
encoura ge</w>
effec tively</w>
re gre
ri es</w>
erle i</w>
htt p</w>
s outh</w>
be qu
S E
A sia</w>
pleas ant</w>
glau ben</w>
Best and
SQ L</w>
rec ord</w>
gen cy</w>
ass ungs
Produk ten</w>
finan cing</w>
t abled</w>
ge zeigt</w>
gere cht</w>
S oll
schnit t</w>
W äh
L am
Durch führung</w>
Fl or
j eg
tra ck</w>
p ing</w>
fel low</w>
fizi erung</w>
Inde ed</w>
st ated</w>
O sten</w>
Frankfur t</w>
9 6</w>
as su
f rüh
Stra ße</w>
Indi a</w>
Haush alt</w>
J ust</w>
berücksichti gen</w>
b ü
Somm er</w>
b ab
vor her
aktu elle</w>
As soci
2 8
tel eph
W ann</w>
agri culture</w>
der zei
m anner</w>
fur nis
M el
Mit teilung</w>
mehr eren</w>
ge grün
acc es
erk annt</w>
Produk tions
sy mbo
pur poses</w>
wesent lich</w>
lief ert</w>
Kredi t
on y</w>
si vely</w>
p aper</w>
nach dem</w>
an k
sich ten</w>
he al
drin gend</w>
hin weisen</w>
hoch wer
eg u
stat tung</w>
V ari
N utzen</w>
Agre ement</w>
hil fe</w>
as ks</w>
entsprech ende</w>
S M
Bem erk
ent ry</w>
Joh n</w>
op ened</w>
lar ger</w>
manag ed</w>
Kun st</w>
Fil m</w>
par ag
E ach</w>
lat er
Vor teile</w>
li gt</w>
E G</w>
at o</w>
x es</w>
refer red</w>
deta iled</w>
Sek tor</w>
gan gs
anim als</w>
part ment</w>
pe ace
Stabili tät</w>
rech ten</w>
wonder ful</w>
Medi en</w>
G aran
W ar</w>
Besu ch</w>
Kri eg
I ma
So cial</w>
3 4</w>
li sted</w>
aim ed</w>
las h</w>
sit ting</w>
Techn ologien</w>
verfüg bar</w>
ga in</w>
disc uss</w>
O lymp
Gre en</w>
lin ked</w>
Christi an</w>
glob alen</w>
de dic
Fo re
mark eting</w>
spiel e</w>
reg ular</w>
n y</w>
Re formen</w>
de ter
cont in
bil ater
ar tige</w>
si t</w>
mit gli
entwick lung</w>
ac ci
er fahren</w>
rit anni
en ster</w>
ho ffen</w>
partner ship</w>
ru ral</w>
c tion</w>
st ent</w>
eu ch</w>
imm ern</w>
kli cken</w>
ati vely</w>
pas sen</w>
Hom epage</w>
exac tly</w>
Poli cy</w>
li mit</w>
N ahr
ar ge</w>
am b
transpar ent</w>
besonder en</w>
Bo ard</w>
wr ong</w>
cam era</w>
o o</w>
tra dition</w>
Jah res
r ent</w>
Sp a</w>
Au gen</w>
poli ce</w>
zent rum</w>
adequ ate</w>
w on</w>
be coming</w>
be ds</w>
Febru ary</w>
assess ment</w>
P lan</w>
ris ks</w>
Qualitä ts
Ü ber</w>
o therwise</w>
bestimm t</w>
Se a</w>
Rei se
prec isely</w>
land scap
un t
w ent</w>
discus sed</w>
Br us
e ten</w>
S I
su ite</w>
e b</w>
re jec
be stehenden</w>
akzep tieren</w>
sicher zustellen</w>
st ro
komm enden</w>
rech t
3 6</w>
0 s</w>
re presents</w>
ra h
ti e</w>
lux uri
si zed</w>
bud getary</w>
o vi
ei st
satis fac
zei chen</w>
umfangre ich
D ollar</w>
Swi tz
B ran
pr e</w>
sidi ar
cli ent</w>
techn ische</w>
T ier
wan ts</w>
cle an
Verbrau cher
di g</w>
sel ected</w>
we ap
met res</w>
meas ure</w>
progra ms</w>
Pro c
ch mal</w>
ak tiv</w>
si ehe</w>
sh of</w>
ben utzen</w>
ar ischen</w>
develop ments</w>
Di g
getro ffen</w>
introduc tion</w>
Währ ungs
j ene</w>
discus sions</w>
ar m
v el</w>
Z immer
F r
ho sp
wer ke</w>
unk ten</w>
Wh y</w>
Th en</w>
2 ,
Z y
Ver sch
ver lei
Schließ lich</w>
wa gen</w>
erzi elt</w>
ch ter
Li z
M ol
Au stra
vot es</w>
Verwal tungs
Zu dem</w>
Zun ächst</w>
Kon takt</w>
Su che</w>
ti ef
möglich erweise</w>
gelö st</w>
dom in
ta ges</w>
C at
i al</w>
fres h</w>
it ation</w>
al ter</w>
Hum an</w>
Anwen dungen</w>
v an
läu ft</w>
Hal tung</w>
enter prises</w>
thous ands</w>
Ph ot
notwendi gen</w>
mögli chen</w>
medi cal</w>
in side</w>
att le</w>
ein ig
B est</w>
er ti
st one</w>
Op en</w>
E st
is tics</w>
füh l</w>
Ch ance</w>
kit chen</w>
is ine</w>
Ein richtungen</w>
re fu
respon d</w>
fac ilit
T au
ch ron
S un
9 .
oper ations</w>
hr en</w>
hou ses</w>
bu y</w>
avi g
du m</w>
zu letzt</w>
finanzi ellen</w>
p sy
t led</w>
Minist er
ge ändert</w>
geb enen</w>
d ware</w>
Tur k
E mis
ster ed</w>
Fle xi
L ag
we gung</w>
di enst
Wettbewerbs fähigkeit</w>
erfül lt</w>
gui delines</w>
en gli
am en
tu red</w>
war ten</w>
pla ying</w>
lie fer
exclu sive</w>
ear lier</w>
Zei chen</w>
Nation al
Ch anc
re present</w>
Bel ar
sur ance</w>
su r</w>
buil dings</w>
M ini
follo wed</w>
fest gelegt</w>
Mi ddle</w>
pro por
verb un
um gesetzt</w>
L at
bro ad</w>
Vertra gs</w>
Apart ments</w>
y e</w>
V ier
ander es</w>
p assi
n ütz
win ter</w>
wei te</w>
P r
en g</w>
s li
ge wal
geleg ten</w>
CO 2</w>
ehr te</w>
ho od</w>
stim me</w>
sch reiben</w>
f ast
sp end</w>
clo sely</w>
be darf</w>
conv inc
Ver b
connec ted</w>
Stand ards</w>
sp acious</w>
breit en</w>
S he</w>
Gel d
Switz erland</w>
V ir
wei t
Unter kategorien</w>
ge ber</w>
enn a</w>
ge mü
er greifen</w>
discrimin ation</w>
am ing</w>
o .</w>
Aus bildung</w>
gra du
Bre ak
Econom ic</w>
Mon ate</w>
in come</w>
P T</w>
An spruch</w>
St and</w>
suppor ting</w>
T est
Au to</w>
net works</w>
comp ens
berei tet</w>
grupp en</w>
degre e</w>
eg el
G od</w>
M ut
F la
streng then</w>
di a</w>
eleg ant</w>
te sts</w>
c ement</w>
fac ing</w>
M eter</w>
m ischen</w>
seas on</w>
au er</w>
ges und
pop ul
sci ence</w>
Vor berei
sho wer</w>
im migration</w>
Betrieb s
sto ck</w>
n ess
3 7</w>
impro ving</w>
ro man
b ritanni
f and</w>
qu anti
K ing
il l</w>
Bar ro
be zo
S em
p h</w>
vol ler</w>
ma ß
Cz ech</w>
st ausch</w>
sel ect</w>
p ath</w>
grei f
vermei den</w>
än den</w>
wor ten</w>
fu n</w>
ein gerichtet</w>
tour ism</w>
Kin dern</w>
rem ember</w>
kra ft
A ir</w>
Viel falt</w>
ber ich
N ame</w>
sa ve</w>
ob ach
Famili en</w>
ch ine
su m</w>
consider able</w>
teleph one</w>
e vision</w>
au ßer</w>
i k
is tische</w>
d uty</w>
and ing</w>
je derzeit</w>
ac es</w>
happ en</w>
w and</w>
Mo der
a .
dig it
Res earch</w>
p .
Gre ece</w>
ori z
en det</w>
wel cher</w>
rich tet</w>
sich t
own ed</w>
ad ju
ö st
e dern</w>
Sp it
man i
e ad</w>
de ck
ex pl
spe ech</w>
Fo und
At lan
he ar</w>
Geor gi
purch ase</w>
H is</w>
dar unter</w>
geeig net</w>
Stim me</w>
freih eit</w>
at ur</w>
0 er</w>
Konz ept</w>
Schwei z</w>
lu ß</w>
Sk i
I V</w>
provi sion</w>
Ira k</w>
- -</w>
p ap
jewei ls</w>
ho t</w>
C le
dest ro
P ic
sicher lich</w>
verfol gen</w>
u tili
dra wn</w>
spiri t</w>
De sign
2 .</w>
ent weder</w>
pri or</w>
pres ence</w>
Fre m
gra de</w>
thin king</w>
di versity</w>
Innov ation</w>
w indi
ga ve</w>
C he
I II</w>
i ze</w>
de bt</w>
b illi
m as</w>
Ein fluss</w>
Tä tigkeit</w>
Gol f</w>
20 11</w>
e den</w>
Kenn tnis</w>
gu li
in ts</w>
Mo st</w>
z y
hi m
z .</w>
car ds</w>
ent schieden</w>
d é
Tran sport</w>
mechan is
gew ün
Web seite</w>
un be
typ ical</w>
compon ents</w>
bo dies</w>
ru fen</w>
O T
A B
We ge</w>
Men ge</w>
sch lä
rap h</w>
ha ften</w>
6 4</w>
en k
S ci
O rig
Leist ungen</w>
teil weise</w>
staat lichen</w>
rec eption</w>
E ver
n ation</w>
politi scher</w>
cu isine</w>
sch lagen</w>
Famili en
Mit te</w>
K rä
gelan gen</w>
exper ts</w>
Spra chen</w>
anim al</w>
In s
I A</w>
a des</w>
Sal z
w all</w>
proper ly</w>
AD S</w>
I R
Groß britanni
Febru ar</w>
Do wnload</w>
Ak tion
sa w</w>
bre ak</w>
charac ter</w>
au ff
an spru
Pro duc
wol lte</w>
En viron
P ass
bro ad
dis h</w>
c ore</w>
Stre et</w>
Europ e
it ems</w>
re fer</w>
el ement</w>
Instru mente</w>
erzi elen</w>
ar i</w>
besu chen</w>
ordin ary</w>
Grie chen
spiel t</w>
Absch luss</w>
tain ment</w>
For derung</w>
s and
ange zeigt</w>
Ban k
fisher ies</w>
be t</w>
de t
al d</w>
Sit z
B ru
fäl lt</w>
coordin ation</w>
Arbei ten</w>
tä ts
ul l</w>
Verein ten</w>
6 5</w>
zus timmen</w>
sti schen</w>
Seh ens
ph ra
Brus sels</w>
verbesser t</w>
li sten</w>
gener ally</w>
Gr enz
kl are</w>
tig keiten</w>
dra mati
enti rely</w>
Sch we
Install ation</w>
ati schen</w>
li an</w>
Gar ten</w>
m ie
zwei fel
Mod ell</w>
competi tiveness</w>
Berich te</w>
s eiten</w>
l eng
m .</w>
auth ority</w>
vor gesehen</w>
über nachten</w>
Ab schließend</w>
kon ferenz</w>
ag no
a el</w>
erhö hen</w>
All gem
pl ätze</w>
er leben</w>
tlin ie</w>
dor f</w>
coff ee</w>
do wn
S ach
4 9</w>
ju d
Schla f
Pol and</w>
Initi ativen</w>
tr ust</w>
a verage</w>
pre sidency</w>
br and</w>
recog nis
funktion iert</w>
ausdrück lich</w>
übersch reit
de aling</w>
ati n</w>
For um</w>
3 9</w>
uli eren</w>
sug gest</w>
end or
8 .
wär en</w>
ti erung</w>
Beschäf tigungs
Lebens mittel
ac tual</w>
Regel ung</w>
zäh len</w>
ti s</w>
auf merk
P len
sti t
rel ate</w>
af ter
ogra phi
eli min
sto red</w>
zep tion</w>
u de</w>
Vor sitz
U l
difficul ties</w>
x e</w>
displa y</w>
Mitgliedsta at</w>
b ahn</w>
Bec ause</w>
j et
cre te</w>
sum mit</w>
reason able</w>
differ ence</w>
wür dig
IS O</w>
F it
Tran spor
en han
Mo un
Abgeord nete</w>
inform ed</w>
f ach</w>
richti gen</w>
w .</w>
parli amentary</w>
leist ung</w>
han den</w>
Ver bin
flexi bility</w>
N E
Re fer
al tung</w>
d ol
bet onen</w>
ali sts</w>
Sch ön
Inn en
oo k</w>
nat ur
ell s</w>
ti se</w>
spezi ell</w>
J etzt</w>
ing ton</w>
abili ties</w>
me etings</w>
se em</w>
hab it
li ter
d in
con dition</w>
be lieb
mach ines</w>
Un abhängi
besch lossen</w>
N um
Dien ste</w>
i erten</w>
ver ring
lich erweise</w>
C lick</w>
el ing</w>
lich em</w>
ge halten</w>
moder n
fi xed</w>
Verän derungen</w>
Me chan
2 7
I B
vehic les</w>
pp er</w>
consider ation</w>
ri gh
A sy
Str ategi
inform ieren</w>
orig in</w>
möglich st</w>
w om
il ing</w>
hand s</w>
ess or</w>
er stellt</w>
N G
coun ter
S hi
tol er
am e
Leist ungs
cont em
f low</w>
Besu cher</w>
di strict</w>
Tei le</w>
p es</w>
ist s</w>
Un fortunately</w>
Po st
G ran
poli tics</w>
Lei der</w>
ö konom
E ADS</w>
Z eiten</w>
he av
ap par
ju di
Gre at</w>
tri eb
fir e</w>
appe ars</w>
form ed</w>
S port</w>
ari o</w>
w on
prin t</w>
clas si
ali smus</w>
Enga gement</w>
0 9</w>
off ici
Währ ung</w>
num bers</w>
lok alen</w>
ge fordert</w>
3 8</w>
comp ati
peace ful</w>
app lies</w>
t ür
sch w
War um</w>
Lo g
ha fte</w>
en falls</w>
F onds</w>
Ein wander
0 8</w>
v ul
t old</w>
fl ation</w>
perman ent</w>
Ver gleich</w>
kulturel len</w>
b ing</w>
iz ed</w>
establish ment</w>
ember ship</w>
we ak
Stat us</w>
4 2</w>
An gaben</w>
P rop
S cript</w>
gen ü
R ou
Aus gaben</w>
be comes</w>
Dim en
s anc
f a</w>
Har mon
simp li
d ank</w>
es tim
tlin ien</w>
tä glich</w>
et c.</w>
enha gen</w>
comb at</w>
re ise</w>
con tr
experi enced</w>
wen igen</w>
Ge bieten</w>
H ier
gan g
ed ing</w>
Zei traum</w>
pra k
ar di
Viel en</w>
konkre te</w>
practic es</w>
fo li
Rats vor
S au
res ort</w>
On ce</w>
p un
h ne</w>
da gegen</w>
em o
durch aus</w>
succ e
Kom fort</w>
est ate</w>
Mad rid</w>
K er
5 5</w>
vor handen</w>
sth af
ni eder
Orig in
ad ul
G ri
er leich
pic ture</w>
re d
prü fung</w>
wa it</w>
attemp t</w>
a dem
P C
Break fast</w>
us w.</w>
Kir che</w>
st abili
St ärk
cour ses</w>
S til</w>
advan ced</w>
emb ly</w>
mögli che</w>
dom estic</w>
Haus es</w>
zentr ale</w>
lig ten</w>
D P</w>
him self</w>
auf t</w>
gew innen</w>
ass es</w>
T our</w>
LA N</w>
in struc
Öster reich</w>
angeb oten</w>
vers al</w>
dan ger
aim s</w>
fer red</w>
wei ght</w>
gewähr leistet</w>
vo ice</w>
S ur
O ut
Sant a</w>
ü nen</w>
ma ßen</w>
prom oting</w>
199 4</w>
datab ase</w>
führ er</w>
u fen</w>
propos e</w>
Po si
Bei tritt</w>
lei tung</w>
Acc ording</w>
c lub</w>
tz ent
Program ms</w>
t end</w>
my self</w>
asp ect</w>
for get</w>
at ta
transl ation</w>
Wis sen</w>
Sa int</w>
sich ts
dar stellen</w>
D S
Heraus forderung</w>
Wor te</w>
sat elli
ungs -</w>
I G
tä tig</w>
fre ue</w>
f und</w>
3 D</w>
erklär en</w>
appro xim
jo y</w>
Di stri
easi er</w>
veröffent licht</w>
F und
o re
in ci
ester day</w>
fi z
Ap part
ne ar
erfol gen</w>
Th ir
fail ure</w>
Kat astrop
Associ ation</w>
f rau
Cas ino</w>
br auch</w>
as ing</w>
f ro
de ep
str onom
tri p</w>
pen sion</w>
ack no
ent stehen</w>
He alth</w>
Zw eck</w>
A L</w>
def ence</w>
finanzi elle</w>
anci ent</w>
Jahrhunder ts</w>
medi c
ris h</w>
am eter</w>
An trag</w>
fol gende</w>
leist ungen</w>
R um
mi ddle</w>
Stellung nahme</w>
Kli cken</w>
Analy se</w>
mod els</w>
est en</w>
A chtung</w>
f ly</w>
sug ge
D eleg
er scheint</w>
da cht</w>
h ous
unabhängi g</w>
C ast
ec ke</w>
associ ated</w>
Parl ament
O li
seri ously</w>
ac qu
Her stellung</w>
nor th</w>
P s</w>
Kom ple
For derungen</w>
lie be</w>
fi g
Ch am
tion ally</w>
se eing</w>
continu ed</w>
würdig keiten</w>
ima g
gesch rieben</w>
benö tigt</w>
N a
be auf
etz ung</w>
ek te</w>
y s
Tra de</w>
4 4</w>
u .
m useum</w>
th i
auth or
Re de</w>
Komp et
öff nen</w>
em als</w>
M un
pa in
et ten</w>
any one</w>
den noch</w>
M ilit
Terra sse</w>
ta g
zäh lt</w>
ph ase</w>
at z
deta il</w>
alisi eren</w>
Auf nahme</w>
sp ent</w>
ill ing</w>
d .
ein iger</w>
Ein haltung</w>
er stellen</w>
viel fäl
bl ack</w>
gegen sei
gro unds</w>
Zwei fel</w>
Mi o.</w>
0 7</w>
spra ch
King dom</w>
j ur
Di rek
Bei tritts
t ter</w>
konzentri eren</w>
führ enden</w>
wel t</w>
n om
lea der</w>
Zi vil
näch ste</w>
do wnlo
zu ver
su n</w>
Ter min
W es
thre at</w>
stu dies</w>
rie si
rela x</w>
ber n</w>
star ke</w>
Den noch</w>
ber icht</w>
A M
s ets</w>
ut ed</w>
differ ences</w>
J a</w>
nam es</w>
Priv ate</w>
sk i
verur s
co s
exp ec
arch i
ar ticle</w>
Ein igung</w>
wach sen
ff s</w>
combin ation</w>
é e</w>
Belar us</w>
jour n
W ich
Musi k
Konfli k
inst ance</w>
wa iting</w>
implement ing</w>
Universi tät</w>
E li
Dru ck
De fin
qu alität</w>
rene w
architec ture</w>
adop tion</w>
woh ner</w>
Afri ka</w>
cal cul
unterschied liche</w>
saf egu
humanit arian</w>
Land wir
crimin al</w>
A G
happ ened</w>
fü gt</w>
sich erung</w>
re servation</w>
lie ßen</w>
stär kt</w>
kun fts
ni a</w>
ali zation</w>
Komp on
G as
stat ements</w>
rele ased</w>
kl ar
I rish</w>
ein gehen</w>
L ast</w>
reduc ing</w>
ven ue</w>
ad ed</w>
PH P</w>
0 ,
op position</w>
con crete</w>
at ure</w>
Gemein samen</w>
attrac tive</w>
absol ut</w>
produc ers</w>
Les ung</w>
t on
ah ead</w>
Nachfol gend</w>
be aches</w>
Fern seh
be glei
M ann</w>
hän gt</w>
f are</w>
gestal ten</w>
er tes</w>
Pak et</w>
Fried ens
fri eden</w>
gelei tet</w>
con dem
confi gu
Ges ell
ri ver</w>
balan ced</w>
im possible</w>
end gül
disku tieren</w>
Bus h</w>
col labor
Sto ck
isi erung</w>
tel evision</w>
ter ra
sha red</w>
hal ten
care fully</w>
rä ume</w>
gelei stet</w>
bek ann
fre ut</w>
br ary</w>
exhi bition</w>
umfas st</w>
Re li
Fir stly</w>
Ch eck</w>
vo c
samm lung</w>
chan ging</w>
immedi ate</w>
dec lar
announ ced</w>
betra chtet</w>
le ben
gesch ehen</w>
S .
i erte</w>
ent sch
antwor ten</w>
S ehr</w>
region alen</w>
n ar
avail ability</w>
arri val</w>
ok ed</w>
wir kt</w>
recogni tion</w>
lear ning</w>
boo king</w>
car s</w>
beha vi
agen cies</w>
Ab end</w>
or g</w>
un ge
schwieri g</w>
Ar gum
lei ten</w>
her unter
Großbritanni en</w>
Re gel</w>
P ro</w>
fizi ert</w>
ac tiv
Jus tice</w>
f ers</w>
char ged</w>
6 00</w>
gegrün det</w>
in form</w>
be haup
descri bed</w>
aussch uss</w>
call ing</w>
Funk tion
g ert</w>
bi en</w>
evi dence</w>
quali t
der ed</w>
Tex te</w>
fe der
Sch engen</w>
Au gen
Pro t
Sehens würdigkeiten</w>
gewi cht</w>
F eu
Kommunik ation</w>
be gan
Afri can</w>
guarante es</w>
cl ari
tru ly</w>
mon etary</w>
k aufen</w>
da d</w>
V ie
po l</w>
col or</w>
Prior itäten</w>
Hinter grund</w>
Eng land</w>
vern ünf
Am bi
intro duce</w>
elec ted</w>
an lagen</w>
8 00</w>
St ellen</w>
g la
ar f</w>
C E
tra ding</w>
ern sthaf
jähri gen</w>
genu ine</w>
l es
danger ous</w>
Dokum ent</w>
or ders</w>
s ale</w>
ed ed</w>
eg elt</w>
Stärk ung</w>
s letter</w>
le ts</w>
ca .</w>
Lin ks</w>
est ed</w>
fu g
e c</w>
Fu ß</w>
s n
Jahr zeh
el a</w>
W ün
our n
lös ung</w>
impro vement</w>
Sor ge</w>
y right</w>
sch lag</w>
fest stellen</w>
comp li
Aspek t</w>
verfol gt</w>
al a</w>
H ome</w>
Mich ael</w>
pic tures</w>
fin ance</w>
b at
regi stered</w>
perf ec
no ti
me ters</w>
tiv ität</w>
adv ance</w>
i .
C ul
b us
Her steller</w>
cor respon
consu mption</w>
W ander
Gener al
H ü
s .
men ten</w>
h inter
pass ed</w>
stei gen</w>
PD F</w>
territ ory</w>
t un
P O
co l</w>
Nach t</w>
Rechn ung</w>
fli cht</w>
Pri me</w>
Pak istan</w>
bil d</w>
fi l</w>
Viel zahl</w>
ab gel
Frühst ück
Pol en</w>
pas st</w>
tu ri
pos sibilities</w>
ar tic
4 1</w>
übri gen</w>
n utz
govern mental</w>
an ces</w>
Gleich zeitig</w>
For men</w>
garan tiert</w>
li e</w>
al ty</w>
wis hes</w>
schi ed</w>
Gu est</w>
but ton</w>
US B</w>
We ch
Cu st
ausge wäh
Ges etz</w>
Fes tival</w>
un less</w>
e ß</w>
cour t</w>
pre is</w>
k a
S eine</w>
s ort</w>
Ar ten</w>
Found ation</w>
recomm end</w>
u red</w>
phra se</w>
Ham burg</w>
D ue</w>
Europe ans</w>
Entwick lungen</w>
über prüfen</w>
ent ran
An n
hal tet</w>
trä gen</w>
L O
su che</w>
un acceptable</w>
relax ing</w>
persön lich</w>
Kra ft
K i
inten ance</w>
ger ech
fo ot
Tit el</w>
ob tain</w>
ra ise</w>
hin gewiesen</w>
sk ills</w>
Dem oc
iz ation</w>
go sla
F inn
str ong
Turk ish</w>
ö k
religi ous</w>
krä fte</w>
figu res</w>
near by</w>
li ghts</w>
f elt</w>
R h
Mom ent</w>
Arbeits losigkeit</w>
se ek</w>
Barro so</w>
no on</w>
defin ition</w>
Partner schaft</w>
M use
E very</w>
Kon fer
mit einander</w>
particip ate</w>
continu es</w>
sensi tive</w>
D on
be zeichnet</w>
D er
fir m</w>
ci ous</w>
desi re</w>
install ed</w>
er er</w>
C ur
T un
t aus
comple ted</w>
combin ed</w>
A no
m embership</w>
gegenwär tig</w>
t asks</w>
Sp i
isch en
cy cle</w>
respec tive</w>
Democ rats</w>
4 3</w>
un fortunately</w>
fi gh
de ep</w>
S ha
il lu
great est</w>
franzö sischen</w>
Dis krimin
an nen</w>
sto ff</w>
Ger icht
Ele mente</w>
bre ite</w>
rei bt</w>
di t</w>
de vices</w>
Got t</w>
p ed</w>
k ept</w>
Richtlin ien</w>
gegenwär tigen</w>
reli able</w>
posi te</w>
foo t</w>
Proble men</w>
p unkte</w>
pack ages</w>
in surance</w>
ausge wo
allo wing</w>
en ess</w>
Pf lan
un to</w>
an gesprochen</w>
S inn</w>
Eis en
sur face</w>
strong ly</w>
it a</w>
Deut sche</w>
führ ungen</w>
ver lassen</w>
En d
ar ten</w>
äst inen
Da vi
th or
n d</w>
da p
Ver stän
g utes</w>
í a</w>
profi tieren</w>
demokrati sche</w>
Ver y</w>
e en</w>
be hin
Tra dition</w>
1 st</w>
s co
be wahr
Sch au
be hand
w esen</w>
empfeh len</w>
Bedürf nisse</w>
Vi enna</w>
zer stör
sex u
Man ager</w>
G an
verk ehr
weiter er</w>
bar s</w>
W ill
lo ad</w>
R ad
enti tled</w>
campa ign</w>
Her z
H ist
surround ing</w>
ex port</w>
el ection</w>
Betrie b</w>
Ko ordini
Überwach ung</w>
posi tiv</w>
o di
c m</w>
wri te</w>
ein geführt</w>
absol ute</w>
en su
Ide en</w>
con tra
p us
co ast</w>
zu frieden</w>
en ables</w>
s quare</w>
vor aus
Leist ung</w>
4 7</w>
er hält</w>
Ir land</w>
ges eh
W ür
Pla yer</w>
Kri tik</w>
rän ken</w>
loo d</w>
Nahr ungs
ro l</w>
ut t
pi ece</w>
eh mer
establish ing</w>
clo ser</w>
wh ere
Bewer tung</w>
la p
econom ies</w>
Ne ther
B ou
tr enn
kan ischen</w>
c er</w>
Zu ständi
con tain</w>
beau ty</w>
ac king</w>
k op
u si
sign al</w>
In nen</w>
Besch reibung</w>
refu ge
dis pos
an e</w>
Con tro
claim s</w>
be ar</w>
man age</w>
aussch usses</w>
T en
K lim
dan ach</w>
institu tion</w>
attrac tions</w>
as yl
aufmerk sam</w>
Ent wurf</w>
pp e</w>
dedic ated</w>
erforder lichen</w>
H ab
beginn t</w>
J ac
win dow</w>
ver tei
mark ed</w>
PP E</w>
10 .
Regel ungen</w>
Mul ti
plat form</w>
Ange sichts</w>
sh es</w>
ing u
ein setzen</w>
Geschäfts ordnung</w>
le m</w>
k ilom
appoin ted</w>
des er
Brü ssel</w>
über all</w>
St or
vor liegenden</w>
Verpflich tung</w>
Sonn en
fe ar</w>
säm tliche</w>
gui de</w>
st ood</w>
exerc ise</w>
gro ß</w>
20 13</w>
C af
M es
holi days</w>
h aus
E hr
Te chnik</w>
Griechen land</w>
R oh
geschütz t</w>
al ter
Verhäl tnis</w>
unterstütz e</w>
um b
ad o
initi al</w>
asyl um</w>
Prior ität</w>
Verk ehr</w>
Reg ulation</w>
199 0</w>
besitz t</w>
B ab
P eter</w>
zu g
bestä tigt</w>
Kommission s
pl ying</w>
kein erlei</w>
T R
individu als</w>
ch urch</w>
us ual</w>
n ennen</w>
Comp any</w>
C ub
w ind</w>
betei ligt</w>
mä chti
ein ander
rou te</w>
gra ph
ast s</w>
groß es</w>
adverti sing</w>
haup ts
condi tioning</w>
Stu dio</w>
A P</w>
no w
ak t</w>
ren ov
0 5</w>
perspec tive</w>
per c
enor mous</w>
re kt</w>
inter face</w>
sub si
expen di
g .</w>
or am
zi gen</w>
pro to
stor age</w>
aller y</w>
n ischen</w>
B M
par a</w>
comp ared</w>
on to</w>
ge zogen</w>
acces sible</w>
komple tt</w>
comm ent</w>
Dat a</w>
sp ending</w>
umfas sende</w>
biet er</w>
mo ving</w>
ate ver</w>
mem ory</w>
ve get
or ds</w>
Feder al</w>
tot ally</w>
ärk ten</w>
pri vi
Medi a</w>
ei m
Ch amp
Agent ur</w>
ti tle</w>
tra k
ver häl
exten ded</w>
ma g</w>
TH E</w>
at a</w>
Indi en</w>
st ory</w>
P il
g ä
b ath</w>
Prin zip</w>
einfa che</w>
M einer</w>
spezi elle</w>
ho st</w>
US S</w>
Hi gh
B us</w>
ausreich end</w>
Ano ther</w>
son st</w>
ha m</w>
de vice</w>
comp la
Ab satz</w>
lux ury</w>
mittel s</w>
Austri an</w>
urg ent</w>
Mittel n</w>
grund sätz
E astern</w>
rail way</w>
G ü
D ep
boo ks</w>
C an</w>
größ eren</w>
sh ing</w>
cor porate</w>
bru ch</w>
Er hö
gen annte</w>
er es</w>
U .
Fortsch ritt</w>
convinc ed</w>
Z ü
Kan di
Contro l</w>
fail ed</w>
Glob alisierung</w>
con tex
Mis s
r ying</w>
hi elt</w>
stra ße</w>
gran ted</w>
A ss
Wor ten</w>
organis ed</w>
J eder</w>
pe ti
fas hi
b as
wa re
f light</w>
A V
K ris
coun ter</w>
J ourn
big gest</w>
Su ch</w>
zu gän
Nether lands</w>
Bo s
Ne vertheless</w>
lä ss
exist ence</w>
Grö ße</w>
pre ise</w>
lu g</w>
str on
Fore ign</w>
t ch</w>
Betei ligung</w>
i le</w>
ver eig
sug ges
inst all</w>
St art</w>
L im
and o</w>
S C
Stra ßen
La ke</w>
k n
ta bel</w>
M ärkte</w>
S and
4 6</w>
w oo
Stad tzent
ac qui
mitt l
sor gt</w>
vor hand
organiz ation</w>
zah lung</w>
garan tieren</w>
ens wert</w>
verbun denen</w>
Ma ße</w>
ment ary</w>
In n</w>
her gestellt</w>
ag ue</w>
bek annten</w>
K ab
dien st</w>
re isen</w>
fil l</w>
eng ine</w>
grö ßer
a gen</w>
Institu te</w>
Industri e
la id</w>
wesent lichen</w>
internation aler</w>
contro ls</w>
conclu sions</w>
r ated</w>
parag raph</w>
dis cover</w>
m ass</w>
c au
län ger</w>
ber eiten</w>
L atin</w>
se g
rel ess</w>
fac tors</w>
mü s
Cro ati
Rei se</w>
en ken</w>
mö gen</w>
cho sen</w>
tru m</w>
den k
ff er</w>
Sch ri
offen sichtlich</w>
al em</w>
statt finden</w>
tri ed</w>
weap ons</w>
it age</w>
sc en
kosten los</w>
e ar</w>
bli oth
über tragen</w>
Pau l</w>
Gre ek</w>
z y</w>
bein haltet</w>
Er zeug
sy mp
re chen</w>
lü sse</w>
ad vice</w>
Bahn hof</w>
An teil</w>
un able</w>
contr ary</w>
Gener ation</w>
att ack</w>
Ge wi
S D
Op tion</w>
gen des</w>
Constitu tion</w>
ma li
ma intenance</w>
schie de</w>
ris es</w>
un ch</w>
on ia</w>
rä ger</w>
arti sts</w>
Tre ffen</w>
fis cal</w>
is s
dise ase</w>
nö tig</w>
Ak tionen</w>
geb il
T al
up date</w>
tig ten</w>
Alt stadt</w>
t ori
en ni
perfec tly</w>
medi zin
S ar
Palestini an</w>
ü ben</w>
sel l</w>
8 5</w>
Sup port</w>
la ke</w>
Ver letz
con ci
stark en</w>
pro motion</w>
k um
Unternehmen s
fl us
and ed</w>
Reli gi
w ettbewer
sol cher</w>
m illi
L ou
to m</w>
nit ure</w>
Grün de</w>
Ban ken</w>
on ed</w>
sch la
Fot os</w>
Er de</w>
E ar
p il
e z</w>
kra ft</w>
beg lück
moun tains</w>
K ro
lim its</w>
T I
Unter kunft</w>
ri a</w>
R ob
Pal ace</w>
te sting</w>
Koh ä
w ak
pay ments</w>
commit ments</w>
Kon tin
Erklär ungen</w>
Entschließungs antrag</w>
expen sive</w>
back ground</w>
agen cy</w>
F i</w>
wä ch
igran ts</w>
ut ch</w>
199 2</w>
zusätz lich</w>
nei ther</w>
lä gen</w>
f it</w>
Res p
J er
verab schie
fac es</w>
as king</w>
er ie</w>
f assung</w>
righ tly</w>
entsp rechen</w>
candi date</w>
ver letz
rem ind</w>
ac compan
wen det</w>
f em
tou ch</w>
sch ir
la h</w>
de cken</w>
Um fang</w>
Kom bin
d den</w>
expres sion</w>
deut sche</w>
Gu i
vali d</w>
Res ort</w>
K aff
tä ten</w>
ges chn
zu vor</w>
kon struk
ec kt</w>
cla im</w>
Pati enten</w>
0 6</w>
est e</w>
T emp
g barkeit</w>
ex tra
te dly</w>
leist ungs
wün sche</w>
ambi tious</w>
sch ä
fin de</w>
hon ourable</w>
regi ster</w>
man gel
A P
vehic le</w>
ar m</w>
E ri
ver breit
f i</w>
So ft
categ ory</w>
achiev ing</w>
Kompromis s</w>
C ard</w>
do c
oblig ations</w>
le k
Metho de</w>
quali fizi
furnis hed</w>
f ts</w>
Ni veau</w>
Begri ff</w>
Er hol
k oh
R äum
Mon at</w>
out come</w>
C D
ol der</w>
success fully</w>
se ven</w>
neigh bour
mul ti</w>
Ge biete</w>
rech tlichen</w>
Europä er</w>
A N</w>
mittel t</w>
sti sche</w>
ent ing</w>
Ereig nisse</w>
Mark et</w>
Flexi bilität</w>
Ein druck</w>
Th us</w>
ob viously</w>
Mitgli edern</w>
r t</w>
spezi ellen</w>
ra d</w>
politi sch</w>
betra chten</w>
speci es</w>
Mot or
st ö
d an</w>
Ale x
re is
ben ach
Gegen satz</w>
ro m
inter vention</w>
mi d</w>
verl oren</w>
w asser
ran gi
con tained</w>
t an</w>
posi t</w>
ä ft</w>
om as</w>
monit or</w>
fähi g</w>
conveni ent</w>
H on
mot or
continu ing</w>
alle l</w>
Empfeh lungen</w>
sen sus</w>
m 2</w>
Netz werk</w>
N ote</w>
0 2</w>
ev ol
Ba y</w>
iel t</w>
const antly</w>
w an</w>
tion ary</w>
sequ ently</w>
B ahn</w>
Al ban
zu folge</w>
Ar e</w>
re t</w>
li t</w>
j ah
rei ber</w>
bri tischen</w>
Y et</w>
Auf bau</w>
Ener gy</w>
über n
a ther</w>
A g
inter ven
ab geschlossen</w>
approxim ately</w>
be st
kün st
ge gangen</w>
colleag ue</w>
aus führ
ro ll
some one</w>
k as</w>
G az
S S
Sch war
eri a</w>
Haushal tsp
. de</w>
Tim e</w>
ti er
vir tu
g ungen</w>
fi f
dar aus</w>
e quality</w>
Bil dungs
or a</w>
un it</w>
ex klu
E F
A tom
de fic
tür k
IN G</w>
ath ed
surround ed</w>
st ations</w>
gl ass</w>
S amm
Is lam
inform iert</w>
Re siden
Binnen mark
Nach dem</w>
Verstän dnis</w>
Ph ase</w>
Be ach</w>
äl fte</w>
16 0</w>
exper im
cont ents</w>
St ein
sequ ent</w>
Weiter e</w>
th ers</w>
g rie
produk tion</w>
Re zeption</w>
Bot schaft</w>
A S</w>
physi cal</w>
isch em</w>
cap able</w>
satelli te</w>
d ance</w>
Aus sicht</w>
Grund satz</w>
situ ations</w>
ra y</w>
y esterday</w>
G B</w>
In seln</w>
struk turi
dist inc
K r
Ba si
mas sive</w>
erh äl
R ome</w>
R et
zieh t</w>
out standing</w>
EC U</w>
p el
gesell schaften</w>
deli ver</w>
M ak
Agen cy</w>
re den</w>
Nutz er</w>
Re alität</w>
Bei hilfen</w>
air craft</w>
ö der
ke eping</w>
emplo yed</w>
Wirk ung</w>
Mar tin</w>
sich ert</w>
indepen dence</w>
B li
wach st
man chmal</w>
K no
sur vi
nation aler</w>
über ra
Jav a
wirtschaf ts
ob ject</w>
dynam ic</w>
c ast</w>
g uter</w>
Meer es
dimen sion</w>
Fra ktionen</w>
sk y</w>
quali fied</w>
plann ed</w>
f illed</w>
Wieder auf
wi der</w>
t inu
ord nungs
lan gt</w>
ge öffnet</w>
ti ver</w>
haupts ächlich</w>
go als</w>
&apos; ve</w>
Schlü ssel
di sch
1 1.
th eit</w>
bring ing</w>
0 3</w>
nam ed</w>
ein erseits</w>
A 5</w>
s we
si ed
expendi ture</w>
Spra ch
m ly</w>
gi cal</w>
Loc ated</w>
An lagen</w>
Bei m</w>
recommend ations</w>
multi later
berühm ten</w>
angen eh
tn er</w>
L au
sorg fäl
fac tor</w>
allgem eine</w>
ti en</w>
str ö
poin ted</w>
fic ations</w>
li sh</w>
rel ativ</w>
Jap an
form ation</w>
a j
v it
unter schei
res s
advan tages</w>
pre vention</w>
j ungen</w>
gi r
Gr unde</w>
C O</w>
du s</w>
be zogen</w>
W at
m ün
Al liance</w>
re ck
regi stri
präsen tiert</w>
ed ge</w>
aus län
Environ ment</w>
ag ne</w>
Arch i
p utting</w>
Ver mitt
phot os</w>
bin ding</w>
Hoff nung</w>
ent eil</w>
ar ms</w>
ir s</w>
Voraus setzungen</w>
ri sten</w>
s in
ein verstanden</w>
Risi ko</w>
G U
Dimen sion</w>
er ung
bar ri
ge stellten</w>
erhö ht</w>
ide ale</w>
B is</w>
Win ter</w>
Er war
tar gets</w>
mer ely</w>
außer ord
li eben</w>
bal con
seek ing</w>
füh len</w>
lau t</w>
Risi ken</w>
geschi eht</w>
per s</w>
p ak
exp an
be achten</w>
Plat t
v ous</w>
psy ch
ehr t</w>
sp a</w>
s m</w>
mei st</w>
Ratsprä sident</w>
Hin weis</w>
Ch em
consi sts</w>
comm unities</w>
Eff izi
Sum mit</w>
Comp u
mean ing</w>
fest gestellt</w>
contem porary</w>
do s</w>
ob vious</w>
Fir men</w>
p assung</w>
einzi gen</w>
dr än
Umwel tsch
ra dio</w>
äu fer</w>
E G
lo g</w>
so bald</w>
P eti
E lec
tä u
phot ograph
Th ose</w>
dam als</w>
ühr en</w>
J es
persön liche</w>
jün gsten</w>
Li ve</w>
Ge währ
f ein
landscap e</w>
han del</w>
er as</w>
f ach
por ting</w>
particip ants</w>
loo ks</w>
Ro yal</w>
ex is
S quare</w>
wor fen</w>
siden ten</w>
sm aller</w>
acc ess
Tre k</w>
dispos al</w>
re ve
dig ungs
er in</w>
vorgeschla genen</w>
nah m</w>
bet t</w>
E D
beru f
ent gegen
Vertra gs
Prü fung</w>
sta ke</w>
guarante ed</w>
bri dge</w>
wan del</w>
regel mäßig</w>
inten sive</w>
comp liance</w>
O ther</w>
substan tial</w>
To des
Be obach
so vereig
mechan ism</w>
br e</w>
tri fft</w>
ver z
Bu ch</w>
199 3</w>
regi stration</w>
mo de</w>
V om</w>
le ads</w>
Zah lungs
sub scri
erforder t</w>
Tei len</w>
Stra f
der ship</w>
ali sed</w>
der i
gen er</w>
k la
L ast
Arbei t
x en</w>
wichti gste</w>
a ys</w>
consi stent</w>
R ules</w>
Haupt stadt</w>
ext end</w>
Is land</w>
C y
struc tion</w>
ateg orie</w>
hö h
tra gs</w>
er r
Nieder lan
r ul
or al</w>
betro ffen</w>
gel assen</w>
f ak
Geg enteil</w>
ger ing
bro wser</w>
Frühstück s
gewün sch
ga z
dic t
resul ting</w>
en dum</w>
V it
ur s
et t</w>
betro ffenen</w>
Far ben</w>
legi tim
Ein sch
Dien st</w>
sp unkt</w>
R ein
Eink aufs
rap id</w>
G ent
fore st</w>
gol f</w>
Bot h</w>
r é
M aria</w>
strength ening</w>
nachhal tige</w>
regel n</w>
Bed arf</w>
Sch nit
Ko rea</w>
ev a</w>
P ool</w>
u .</w>
Städ te</w>
Nich trau
sen s
zip ien</w>
respon sibilities</w>
pre mi
in ary</w>
en -</w>
govern ance</w>
determin ed</w>
M ü
caus es</w>
alitä ten</w>
Land schaft</w>
n ations</w>
manufactur ing</w>
ränk ungen</w>
W inter
wo durch</w>
T ari
M erk
ini ert</w>
Veranstal tungen</w>
organis ationen</w>
zu gleich</w>
ne arly</w>
m ari
Mitglied s
zun ehmen
ogra f
Ta i
pleas ure</w>
exam ples</w>
3 ,
t rop
identi ty</w>
ö se</w>
st am
Vor teil</w>
associ ation</w>
o s
e chte</w>
blo ck</w>
Gol f
be wegen</w>
Bestand teil</w>
prakti sch</w>
ver sions</w>
Swe den</w>
ander erseits</w>
ser n</w>
cop y</w>
conclu de</w>
Mus li
An y</w>
spre ad</w>
reco very</w>
br ings</w>
An dre
Ru he</w>
Materi al</w>
Liber alisierung</w>
Charak ter</w>
fu el</w>
intel li
Gesetz gebung</w>
Sc ot
p et
ch mals</w>
f abri
Klima anlage</w>
gel y</w>
an bieten</w>
Glob al</w>
ö sen</w>
Java Script</w>
sol e</w>
Wel che</w>
Au th
Wor k
Ak tu
n on
2 50</w>
e .</w>
Intern ationalen</w>
Erhö hung</w>
gel aden</w>
beschäf tigt</w>
m ale</w>
fra gt</w>
ur ban</w>
multi ple</w>
beg ri
P R
E s
win den</w>
wel chen</w>
Struk tur</w>
dri ving</w>
dau er
Unternehmen s</w>
D A</w>
ti le</w>
s es
tradition ellen</w>
19 .</w>
vorsch lagen</w>
tre ated</w>
Politik er</w>
Führ ung</w>
en ger</w>
N ice</w>
vi lla</w>
ro b
Ser ie</w>
L ink</w>
Da y</w>
voll kommen</w>
smo king</w>
L icht</w>
Kon troll
Ferien woh
tra gs
incor por
C ri
gan gs</w>
I l
m ar</w>
Zah len</w>
gewäh lt</w>
no tice</w>
expla in</w>
spezif ischen</w>
sp aces</w>
bu re
Sch w
Reser vi
a is</w>
lie gende</w>
her zlich</w>
Angeb ote</w>
dou b
V ic
an geht</w>
H älfte</w>
Unabhängi gkeit</w>
Ver öffent
Eben so</w>
pati ents</w>
freund liche</w>
tem porary</w>
ta il</w>
in d
Über prüfung</w>
di um</w>
att acks</w>
ser ving</w>
ver w
Infra struktur</w>
Form at</w>
Far b
Aus land</w>
y es</w>
ex plan
läu fi
R am
qu ick</w>
gram mati
con sensus</w>
Hol z
prim ary</w>
evalu ation</w>
besser en</w>
addres sed</w>
t emp
dec ades</w>
Th anks</w>
D utch</w>
w ann</w>
requ ested</w>
pre viously</w>
li ability</w>
f ting</w>
ger ufen</w>
fäl len</w>
Koordini erung</w>
Det ails</w>
st ol
ol a</w>
represent ative</w>
Män ner</w>
m o</w>
F ut
con soli
schn eller</w>
prim arily</w>
Aut o
event u
Po ker</w>
Lie be</w>
strateg ie</w>
grie ch
ari um</w>
sch we
Ö l
e ase</w>
c el</w>
ann e</w>
v ent</w>
Publi k
wä s
j unge</w>
Rom ania</w>
Diskrimin ierung</w>
vi g
gen e
U ser</w>
Rum än
mis s
B ir
ör per
tt able</w>
vul ner
ta ste</w>
k ehr</w>
in spec
there by</w>
ati sche</w>
em an
bezieh t</w>
ad or</w>
Z immern</w>
T an
ste el</w>
jähr lich</w>
Min dest
Finan cial</w>
del ay</w>
frü her</w>
re move</w>
scho ols</w>
F lash</w>
T wo</w>
ã o</w>
n den</w>
kon tex
enter ed</w>
bed room</w>
disku tiert</w>
par l
u d</w>
discus sing</w>
grenz überschreit
2 9
v ie</w>
weiter es</w>
kin ds</w>
sprü che</w>
si mul
Metho den</w>
ra il</w>
Be wegung</w>
tel ef
em a</w>
av es</w>
sei tens</w>
Telef on</w>
gef ör
fahr ens</w>
M ari
König reich</w>
resp ek
fer tigt</w>
Lauf e</w>
pp en</w>
K lar
industri es</w>
E M</w>
Pro vin
can cell
optim al</w>
stoff en</w>
Ex press</w>
gesch lossen
wn s</w>
War en</w>
ri gi
auth or</w>
F T
E D</w>
fru it</w>
, 00</w>
Auf grund</w>
tal ks</w>
de h
wer ten</w>
p our</w>
la gs</w>
re vol
leh nen</w>
glob ale</w>
extre me</w>
conduc t</w>
O M
Hand el
C ho
sam er</w>
B la
schö n</w>
Tro tz</w>
kürz lich</w>
began n</w>
Ob ama</w>
J ean</w>
Aktion sp
lie fern</w>
Rom an</w>
zurück zu
um ini
Ber ücksichti
Au di
au dio</w>
Teil nehmer</w>
um welt
oh n
bu tions</w>
de ckt</w>
sk in</w>
Fi re
g al
Gr enze</w>
An passung</w>
Gä sten</w>
fer ences</w>
Sat elli
berei che</w>
el i</w>
reagi eren</w>
Dem o
Bra zi
trei ben</w>
la w
enti ally</w>
Fran c
Qu es
hol en</w>
Geb ur
ul tim
Sho p</w>
A U
Stadtzent rum</w>
stimm t</w>
g one</w>
V ia</w>
St atisti
rich tlinie</w>
posi tiven</w>
leng th</w>
enn ung</w>
M ehr</w>
bet ont</w>
fe eling</w>
5 1</w>
ten de</w>
on i</w>
serv ations</w>
prof it</w>
we gs</w>
ti que</w>
stra i
deliver ed</w>
Dokum ente</w>
gesp eich
einzel ne</w>
akzep tiert</w>
Fäl le</w>
compet ence</w>
Wh ite</w>
Rot ary</w>
ab len</w>
op posite</w>
rec ord
p en</w>
ein s</w>
de alt</w>
bür ger
K ilom
un zu
gh ted</w>
bil det</w>
En joy</w>
Su ite</w>
Schi ff
vi sible</w>
Wil len</w>
te ste</w>
represent ed</w>
prep are</w>
Fähi gkeit</w>
li ation</w>
ho l</w>
schau en</w>
län dlichen</w>
k ali
zi eren</w>
sou thern</w>
au sh
hab er</w>
controll ed</w>
0. 000</w>
oh n</w>
accoun ts</w>
spezif ische</w>
am ong
Sch n
Kör per</w>
F as
techn ological</w>
def ault</w>
län e</w>
Ti ere</w>
Fre unde</w>
we alth</w>
m ung</w>
among st</w>
Vorberei tung</w>
Pro di</w>
stra h
stell ungs
Schlus s
ung er</w>
for um</w>
Ord nung</w>
b om
W ien</w>
ge arbeitet</w>
g as
ur ge</w>
W C</w>
Ma il
will ing</w>
Spiel e</w>
invest ments</w>
li ste</w>
f en
d ritten</w>
Sch u
no ise</w>
speak ers</w>
kontex tu
P L
r ö
abhängi g</w>
F lä
un anim
comp lic
bequ em</w>
St unde</w>
ge g
L ev
A qu
h oriz
Per spek
tion ality</w>
appro val</w>
Deleg ation</w>
tur ning</w>
sch war
er geben</w>
K yo
region ale</w>
au x</w>
y le</w>
no chmals</w>
ma gaz
wa chen</w>
ey e</w>
compati ble</w>
ren ovi
H öh
ü r</w>
stä d
art a</w>
Des pite</w>
pa ir</w>
aff ect</w>
W ur
Ge fühl</w>
present ation</w>
in spi
ro krati
j ahr
h ebung</w>
Gei st</w>
quot e</w>
Qu ali
Gesetz e</w>
mechanis ms</w>
Rau m
zi em
Teil nahme</w>
Eink lang</w>
0 4</w>
exc e
Mun ich</w>
übern ommen</w>
intel lec
di verse</w>
a c</w>
manufactur ers</w>
k ung</w>
Ver such</w>
m ur
Ar gent
mo ved</w>
E gyp
ni c</w>
S ter
stat ten</w>
ex t</w>
am ente</w>
O pen
An liegen</w>
r uns</w>
in er</w>
B at
sp eich
komp et
consul tation</w>
G old</w>
exc ept</w>
dest ination</w>
sicher stellen</w>
tur ing</w>
gewis se</w>
sha pe</w>
n un
l ots</w>
high light</w>
Unter schiede</w>
viel mehr</w>
so weit</w>
Reak tion</w>
or ca</w>
Grund rechte</w>
un sten</w>
ph en
mut ual</w>
L ord</w>
z ell
Um ständen</w>
Jav a</w>
pr en
Min utes</w>
B is
Zu stand</w>
Sü den</w>
sa v
jähri ge</w>
ent lichen</w>
Berücksichti gung</w>
ari en</w>
gest ern</w>
peri o
cl ing</w>
grund lage</w>
lei den</w>
N O
Ever y
en ge</w>
O ri
co vers</w>
Kyo to</w>
K M
Re guli
ver lieren</w>
bo at</w>
G laub
streng th</w>
ver anstal
lea dership</w>
8 6</w>
deleg ation</w>
To d</w>
ser s</w>
ra tions</w>
for d</w>
ir y</w>
er ei</w>
di r</w>
si sch</w>
ba siert</w>
gres sive</w>
Davi d</w>
ehemali gen</w>
ac ting</w>
Eigen schaften</w>
Diskus sionen</w>
at titude</w>
Über nach
Architek tur</w>
C lu
Br enn
w ater
derzei tigen</w>
recommend ed</w>
hän gen</w>
We gen</w>
K unde</w>
ver langen</w>
ra n</w>
ec es</w>
Kol lege</w>
ell o</w>
Be fore</w>
wech sel
graphi c</w>
k top</w>
Kombin ation</w>
Jo se
pres sion</w>
rejec ted</w>
be u
O L
5 2</w>
sol d</w>
AN D</w>
fol gerungen</w>
Bed ro
rep ly</w>
höch ste</w>
er ror</w>
inter es
An lage</w>
ein richtungen</w>
mit tag</w>
h ing</w>
beein flus
ver stärkt</w>
lat ter</w>
kno ws</w>
T est</w>
west ern</w>
inf o</w>
1 000</w>
t ment</w>
help ing</w>
es sive</w>
Fre ude</w>
B ack
exper tise</w>
begr ün
W aff
Su ch
uri es</w>
Klima wandel</w>
12 0</w>
impro vements</w>
Boo k</w>
foli o</w>
oblig ation</w>
komp li
Defin ition</w>
signific antly</w>
ad ly</w>
ver i
f es</w>
Sch äden</w>
servi ert</w>
don e
tre es</w>
loc ations</w>
requ ests</w>
D adurch</w>
Po st</w>
M ein</w>
phi losoph
i um</w>
experi ences</w>
emp f
Ameri ka</w>
L eu
re place</w>
laun ched</w>
l st</w>
dru gs</w>
ben e
wieder um</w>
artic les</w>
st reichen</w>
G ali
Bed enken</w>
engine ering</w>
sei en</w>
l i</w>
heav y</w>
Stu die</w>
ubli n</w>
tz ei
F ind</w>
compens ation</w>
m icro
Aut ob
web sites</w>
char ming</w>
untern ommen</w>
be fassen</w>
k einer</w>
Nichtrau cher
cri ption</w>
ran k</w>
an erkannt</w>
mel dung</w>
Sch ule</w>
konkre ten</w>
fin ding</w>
son sti
regel mäß
g ü
c en
H än
bed rooms</w>
appe ared</w>
Sch ü
Projek t
stre ets</w>
priv acy</w>
conc ep
Strategi en</w>
em ed</w>
zi elt</w>
tex ts</w>
G ep
Tem perat
Komm ent
sen s</w>
Ri ver</w>
dis covered</w>
ro te</w>
m i</w>
ur a</w>
flü ge</w>
op les</w>
k en
ak tive</w>
la y</w>
7 00</w>
ei ght</w>
Grund sätze</w>
si eben</w>
un its</w>
R ent
Überein kommen</w>
zw an
r auch</w>
spo t</w>
occ ur
n ise</w>
cent res</w>
depen dent</w>
Untersuch ung</w>
A v
ma ster</w>
hel ps</w>
ell ed</w>
Sp ek
P ress</w>
è s</w>
vor an
a x
Er wachsen
B ör
Ant worten</w>
ab sichti
Ex ec
T ie
umfas senden</w>
F enster</w>
appe al</w>
Vi elleicht</w>
B au</w>
regre t</w>
F ein
Apart ment</w>
Wirtschafts -</w>
Aus gang
Techn ology</w>
Daten bank</w>
si bly</w>
betre ffen</w>
Be sitz
T aus
lich ten</w>
fle et</w>
wer fen</w>
behör den</w>
fac ed</w>
ef s</w>
dien ste</w>
blu e</w>
Voraus setzung</w>
Ta ke</w>
sanc tions</w>
histor ische</w>
exten sion</w>
expec tations</w>
20 .</w>
sol ve</w>
be handeln</w>
Verfü gbarkeit</w>
Hil fs
recog nise</w>
empha sis</w>
civi li
Leb ens</w>
ne ut
sch luss</w>
Cham ber</w>
T ru
vil le</w>
fur niture</w>
Allgem einen</w>
Lei tlinien</w>
el em
dra wing</w>
c af
Fo to</w>
spra chen</w>
ci pl
Klas se</w>
gel ungen</w>
Ver träge</w>
7 2</w>
wichti ges</w>
tr e</w>
w alls</w>
fi cial</w>
bel on
aut onom
al p
Kü ste</w>
Kar ten</w>
0 3
um n</w>
peri or</w>
Sit z</w>
Pla za</w>
tru th</w>
ti ken</w>
temperat ure</w>
s qu
P aper</w>
gesp ielt</w>
applic able</w>
Ro bert</w>
di shes</w>
Effizi enz</w>
Wo chen
West en</w>
Bi o
Völ ker</w>
che ap</w>
bei zu
fig ure</w>
d inner</w>
C er
be ob
arran gements</w>
tra gung</w>
genau so</w>
kar ten</w>
exist s</w>
comp ly</w>
Fischer ei</w>
vorsch lag</w>
ens es</w>
her aus</w>
n i</w>
j emand</w>
eng agi
erneu er
emphasi se</w>
inten tion</w>
bezieh ung</w>
San ktionen</w>
Air bus</w>
mensch lichen</w>
mom ent
ti z</w>
Op tim
A gri
oper ators</w>
m t</w>
W an
G lück
Form ular</w>
199 1</w>
Regi stri
Rech ts</w>
const ant</w>
rel atively</w>
al bum</w>
af ri
G a
sub stances</w>
di ty</w>
li sten
198 9</w>
ff er
A 4</w>
с т
figh ting</w>
b our</w>
resol ve</w>
hil ft</w>
fi ci
Sch ool</w>
tax es</w>
n de</w>
ehm end</w>
O b</w>
Milit är
R em
z o</w>
breit ung</w>
amerikan ische</w>
produc ing</w>
objec ts</w>
ö ster
Auf trag</w>
pro of</w>
z in</w>
Wer k</w>
z ar
ob st
kl einer</w>
V e
D ublin</w>
Zu griff</w>
är m
italien ischen</w>
komm erzi
is er</w>
m l</w>
Tra di
wat ch</w>
par allel</w>
fant astic</w>
Gen ehm
ser vers</w>
d einer</w>
ati es</w>
S A</w>
To p</w>
W he
I C</w>
hand ling</w>
ed ly</w>
e ties</w>
wh atever</w>
K ind</w>
tro tzdem</w>
ou l
suff ering</w>
O m
Asy l
refuge es</w>
Ver brechen</w>
fri end</w>
O ld</w>
K ategorie</w>
For t
itä ts
ch ann
U se</w>
ver sorgung</w>
Er kenn
ho her</w>
d ining</w>
Mein ungs
Wel come</w>
Ver halten</w>
ar ance</w>
institution ellen</w>
A .</w>
ch em</w>
appreci ate</w>
K auf
ruhi gen</w>
kulturel le</w>
Empfeh lung</w>
heal thy</w>
col d</w>
disa ster</w>
Sk ype</w>
ziem lich</w>
t ours</w>
h t
c ot
bur den</w>
Phi li
schi cken</w>
pl en
ak es</w>
c les</w>
di d
N L</w>
schließ t</w>
mo bility</w>
S hop
frau d</w>
2 1.</w>
aff airs</w>
zuver lässi
au ber
u. a.</w>
zeu gt</w>
ger äum
c ab
d ans</w>
Saf ety</w>
reflec t</w>
künf tig</w>
Stand ard
isch ung</w>
Spec ial</w>
ure ment</w>
confir med</w>
vis u
produk te</w>
ni emand</w>
außer gewöhn
Minist ers</w>
whi lst</w>
recognis ed</w>
Klim a</w>
C oo
comm and</w>
acc ur
6 8</w>
u ung</w>
Pro fession
ut tle</w>
Kon sequ
j un
form ul
Di alo
spr ing</w>
person ally</w>
My SQL</w>
Bei fall</w>
Materi alien</w>
L ob
ra d
pro file</w>
Ged anken</w>
wissen schaftlichen</w>
mon o
hol ding</w>
sem in
ein geb
enter tainment</w>
will kommen</w>
schn ell
ko ordini
at re</w>
spec tac
natur ally</w>
re serve</w>
invol ving</w>
Ru le</w>
help ed</w>
e ast</w>
re ds</w>
it ely</w>
happ ens</w>
dan ger</w>
P ack
i x</w>
hö here</w>
erhäl tlich</w>
entde cken</w>
renew able</w>
wat ers</w>
tu t</w>
ch ain</w>
Wahr heit</w>
Maß nahme</w>
ach tung</w>
schri ft</w>
Landwir te</w>
Char ter</w>
herr scht</w>
e. g.</w>
zun ehmend</w>
wesent liche</w>
sch lim
ra pi
fa ther</w>
E ssen</w>
Ab sicht</w>
assi st</w>
Ab end
s and</w>
bu chen</w>
ück en</w>
Strateg y</w>
politi cians</w>
ent lang</w>
Nor den</w>
pe oples</w>
dro p</w>
ch tlin
windi gkeit</w>
exclu sively</w>
S ie
E B
Bi blioth
ter s
bure au
L etz
re st
ersch einen</w>
Li eb
Ak te
sch wei
Rom an
An fragen</w>
Y u
schätz en</w>
beauf trag
W here</w>
d ler</w>
valu able</w>
vor geseh
te es</w>
er öffnet</w>
cre ative</w>
F A
Dienstleist ungs
k amp
pre is
f tung</w>
Mün chen</w>
trä chti
m ärkte</w>
vol ume</w>
lei sch</w>
Hin der
m ol
hei m</w>
et h</w>
L os</w>
F on
ä ck
steu er
fl at</w>
feh l
dise ases</w>
den den</w>
enth usi
ar ische</w>
F ei
enth al
op posed</w>
fir stly</w>
out door</w>
manag er</w>
beg onnen</w>
residen ce</w>
cast le</w>
bi ke</w>
Ambi ente</w>
beträ gt</w>
Vol k
zusätz lichen</w>
Swe dish</w>
Fern er</w>
en ab
P A</w>
bes ei
Cust om
bil dungs
Tag ung</w>
Ac tion</w>
we ather</w>
eigen es</w>
Sch aden</w>
7 1</w>
De f
welt weiten</w>
is ol
G DP</w>
angem essen</w>
K ing</w>
Pu er
Bri tain</w>
fi es</w>
fa il</w>
ali zed</w>
a side</w>
Beru fs
M ill
natür lichen</w>
B and</w>
Geor ge</w>
lar s</w>
di ge</w>
be zug</w>
W ash
Nich t
y m
st ant</w>
nä her</w>
lei sure</w>
interes siert</w>
i res</w>
do kum
char ges</w>
Engli sch</w>
emb our
D ort</w>
z e
qu is</w>
sur v
nah me
grundle genden</w>
pre sident</w>
masch inen</w>
d rei
cou ple</w>
sp ür
Region al
Mi kro
it i</w>
V an</w>
mar g
ver an
critic ism</w>
Vide o
traff i
sa una</w>
ma y
automati c</w>
US D</w>
ini ons</w>
T S</w>
ot te</w>
Sp ann
Tour ismus</w>
schön sten</w>
r ori
der ing</w>
co her
D onn
kün fte</w>
Un gleich
host els</w>
eh nt</w>
w us
gen i
ob tained</w>
kurz em</w>
ek en</w>
pi eces</w>
excep tional</w>
W affen</w>
Exper ten</w>
schwieri gen</w>
führ ende</w>
ern st</w>
jour ney</w>
ma ß</w>
gr enzen</w>
GN U</w>
staat liche</w>
or gt</w>
li ers</w>
ge geb
D ER</w>
zentr alen</w>
b ol
geför dert</w>
ti cket</w>
comb ating</w>
Re al</w>
Erwar tungen</w>
Mark eting</w>
Lux embour
O hne</w>
Ber lin
pro p
ini en</w>
deter mine</w>
G ood</w>
dis cipl
St off
ch ap
An griff</w>
sex ual</w>
milli ons</w>
thre at
rü stung</w>
leb ens
construc tive</w>
Entschei dungs
verk ehrs
le aving</w>
off ices</w>
Schwe den</w>
reach ing</w>
kom b
Mittel punkt</w>
ori um</w>
wle d
lar gely</w>
invol vement</w>
ver än
passen gers</w>
Kapit al
besitz en</w>
per form</w>
woh l
parl ament
Ge win
5 4</w>
out put</w>
direc tives</w>
b ag
ah nen</w>
stre am</w>
pass word</w>
es n</w>
Sch ad
Agrar politik</w>
Ein stellung</w>
ung ser
Nor men</w>
I V
f ing</w>
Berat ung</w>
es day</w>
.. ...</w>
ra sch</w>
Wirk lichkeit</w>
Un gar
Be dien
me at</w>
Stra s
6 6</w>
tig te</w>
ni emals</w>
instal liert</w>
prot ecting</w>
equ ally</w>
S t</w>
CO M</w>
ri ed</w>
Altern ative</w>
Mu sic</w>
Er leb
fe e</w>
B ol
berechti gt</w>
Bade zimmer</w>
obst ac
nach zu
Li fe</w>
zi r
remo ved</w>
communic ations</w>
A 3
zweifel los</w>
dec la
col our</w>
Croati a</w>
impres sive</w>
be stand</w>
Can ada</w>
th ro
h it</w>
f ted</w>
tre aty</w>
zu erst</w>
hervorra gende</w>
entwick elten</w>
Bei spiele</w>
teil nehmen</w>
t ari
neu esten</w>
wes halb</w>
bed ro
allgem ein</w>
pl ause</w>
mand ate</w>
Verk auf</w>
L E</w>
unmittel bar</w>
in zwischen</w>
a ß</w>
Japan ese</w>
Kap az
Bet ra
ver ändert</w>
freund lich</w>
Vertei digungs
w asser</w>
de par
and els
amoun ts</w>
. 000</w>
sat lan
par ks</w>
ey es</w>
c able</w>
sp anischen</w>
la m</w>
f ass
ausgezeich nete</w>
IC H
Inter ess
awar eness</w>
Entwicklungs ländern</w>
ti erten</w>
di ed</w>
zw ungen</w>
main tained</w>
blo g</w>
or er</w>
off enen</w>
ent standen</w>
an i</w>
Verbesser ungen</w>
pro ve</w>
t ab
repe at</w>
T om
Struk turen</w>
Prü f
offici als</w>
kämp fen</w>
hosp it
erweiter t</w>
strategi es</w>
rupp en</w>
le ch
Kohä sions
C N
decor ated</w>
par ents</w>
n ect</w>
at oren</w>
al ed</w>
O ver</w>
disch arge</w>
defin e</w>
as h</w>
Frem den
organiz ations</w>
N on</w>
Host el
increas es</w>
Phot o
mel den</w>
f our
bedeu ten</w>
comp u
happ ening</w>
fin ished</w>
do ors</w>
Nach frage</w>
In stead</w>
Ab stimm
kon trolle</w>
ch ers</w>
ver langt</w>
ti ckets</w>
n a
k el</w>
own er</w>
An d
Be fug
r ating</w>
Par ti
sto ßen</w>
pol lu
issu ed</w>
m än
lo vely</w>
contri butions</w>
Vi sion</w>
Bu cht</w>
omm enen</w>
k al
dies el
La dies</w>
rapporte urs</w>
r on</w>
mon um
dr ink</w>
Kri min
d ation</w>
Bo den</w>
new ly</w>
leg ungen</w>
bemü ht</w>
Dor f</w>
organiz ed</w>
bahn hof</w>
W are</w>
prepar ation</w>
ausgezeich neten</w>
B lack</w>
Ratsvor sitz</w>
occa sion</w>
betreff enden</w>
gesch äf
auf zunehmen</w>
Bulg aria</w>
Bra si
tre at</w>
gel n</w>
fül lung</w>
collec tive</w>
Luxembour g</w>
m ac
Regi me</w>
Masch inen</w>
ko stet</w>
k ir
Kre u
kon tak
organisi ert</w>
Al li
h all</w>
Unter schied</w>
sat zes</w>
de ad
Z erti
at trak
O F</w>
kri ti
weis ung</w>
ursprün glichen</w>
einfa chen</w>
P op
tur ns</w>
tri eben</w>
Wal d
S z
Ma c</w>
ä r</w>
re in</w>
liber alisation</w>
m us</w>
contrac ts</w>
P flicht</w>
Kam era</w>
Du sche</w>
Aus stattung</w>
rä f
prom ot
el er
require ment</w>
Künst ler</w>
restric tions</w>
höch sten</w>
pro hi
F un
grundle gende</w>
Stell ung</w>
Mar ina</w>
rema ining</w>
erheb lich</w>
E di
schn elle</w>
h ü
M ens
kur ze</w>
behör de</w>
hab t</w>
ch est
Web sites</w>
S eg
Flü chtlin
Anwen dungs
u a</w>
laun ch</w>
west lichen</w>
sch ule</w>
ir ing</w>
eu er</w>
pro ved</w>
T rau
i. e.</w>
H it
il er</w>
A b</w>
Über zeugung</w>
Telef on
C E</w>
n avig
en de
Zus ätz
ent re
A ward</w>
do esn</w>
adv oc
an wes
Ab kommens</w>
brie f</w>
zugän glich</w>
star ten</w>
ris ing</w>
connec tions</w>
Ra dio</w>
G et</w>
deb ates</w>
Haf en</w>
Kon trol
character istics</w>
Th omas</w>
In tel
produzi ert</w>
balcon y</w>
Hal b
b ou
Bo x</w>
def end</w>
ab road</w>
T O
Bet re
te en</w>
sicher ungs
W et
I mm
ven tionen</w>
Poli sh</w>
a stri
R and
Mon t
B C</w>
Bes org
P unkten</w>
deta illi
zu legen</w>
renov ated</w>
Exec utive</w>
An bieter</w>
resol ved</w>
F is
. org</w>
pos ing</w>
cre ates</w>
ass ure</w>
g ere</w>
Fron t</w>
wi tn
re turned</w>
Am ts
op inions</w>
b lood</w>
har dware</w>
In f
D em</w>
mus ste</w>
depen ds</w>
Struktur fonds</w>
Nah en</w>
on ic</w>
o v</w>
Th rou
divi ded</w>
Th eir</w>
umfas sen
Regi erung
entscheiden d</w>
comm un
betri eb
5 6</w>
ro ads</w>
mess ages</w>
Mittelme er
Proble ms</w>
uni cip
ti e
Bestell ung</w>
kehr en</w>
N ein</w>
vis a</w>
ll s</w>
co ast
abgel ehnt</w>
resol utions</w>
Ausgang spunkt</w>
lat z</w>
clas sic</w>
Bu dap
wirk lichen</w>
sch afft</w>
Verf assungs
entde ck
and elt</w>
Z oll
Ko operation</w>
surround ings</w>
own ers</w>
identi fy</w>
ge prä
9 2</w>
Ven e
gei sti
UN O</w>
wirk ung</w>
Gesch m
nah e
d ritte</w>
Harmon isierung</w>
th an
ri sts</w>
K ann</w>
sc lub</w>
aktivi eren</w>
adv ent
c utting</w>
Projek ten</w>
künf tigen</w>
prec ise</w>
Mas sen
Geb rauch</w>
vor genommen</w>
sus p
sti l
certain ty</w>
dat en
J ames</w>
um zusetzen</w>
fal sch</w>
di agno
den ten</w>
Re volution</w>
Überein stimmung</w>
d ating</w>
cover ing</w>
D es</w>
gl ück
bis her
Gerä te</w>
über nimmt</w>
rit t
ko st
befür wor
recommend ation</w>
le u
ar tigen</w>
wettbewer bs
sign s</w>
reg ularly</w>
lü ck</w>
H all</w>
ni ghts</w>
Un der</w>
ho ff
an statt</w>
fac ts</w>
Mens ch</w>
ati k</w>
y o</w>
s z
D ri
5 3</w>
dar y</w>
a ward</w>
P et
proper ties</w>
Ar z
ste chn
mean ing
grat ulieren</w>
verurs acht</w>
sp on
m essen</w>
lic ense</w>
defin itely</w>
erlau ben</w>
Hostel sclub</w>
H imm
Beh in
riesi gen</w>
eth nic</w>
tim edi
T isch</w>
Fest legung</w>
ro ck</w>
min uten</w>
aufge fordert</w>
reich ung</w>
ab and
Net z</w>
P RO
te chnik</w>
ot ten</w>
min i</w>
durch zuführen</w>
under stood</w>
ber ge</w>
Je des</w>
In done
1 1.</w>
verschied ener</w>
k y</w>
contin ent</w>
ci ti
komm e</w>
k ern</w>
L as</w>
regul atory</w>
ate ful</w>
T ar
er b
Kro ati
wirk sam</w>
seh e</w>
Ma astri
KM U</w>
ten e</w>
m ist
Po wer</w>
rah men</w>
invol ve</w>
N I</w>
Fil m
E ur
ter ung</w>
oper ational</w>
kon tinu
tr y
k ö
S par
to b
lau tet</w>
f an</w>
Slo v
Rumän ien</w>
Krank heiten</w>
El tern</w>
Ab schnitt</w>
tri eb</w>
ti erte</w>
p fen</w>
Wech sel
mark t
kein es
Proc edure</w>
Gent oo</w>
zi ele</w>
p um
masch ine</w>
fes tival</w>
ME Ps</w>
5 9</w>
si ght</w>
perform ed</w>
jo ined</w>
Ratsprä sidentschaft</w>
v ast</w>
3 .</w>
äh r</w>
voll ständige</w>
ob li
er griffen</w>
conflic ts</w>
M esse</w>
mas sage</w>
stit utes</w>
met al</w>
h am
gh ter</w>
U. S.</w>
Lu ft</w>
vis ual</w>
int end</w>
abo li
war ran
ob jek
ink lu
Sch ei
s ligh
am az
Fähi gkeiten</w>
ü sse</w>
sub mit</w>
se at</w>
dri ver</w>
frei wil
cust oms</w>
Ima ge</w>
facilit ate</w>
bekämp fen</w>
Verbin dungen</w>
Steu ern</w>
öster reich
in ations</w>
ah me</w>
re serves</w>
la stung</w>
R an
ver stärk
Änderungsanträ gen</w>
Vorsch lägen</w>
Sa una</w>
sti sch</w>
v es
Po wer
frequ ently</w>
car bon</w>
Aus führungen</w>
vol unt
system en</w>
gi o</w>
europ a</w>
av ec</w>
Al ter</w>
A ssi
un eingesch
top ic</w>
gla d</w>
foc used</w>
Sp azi
transpor tation</w>
impres sion</w>
W LAN</w>
ange l</w>
Vie w</w>
Stru c
Institu tion</w>
ben e</w>
M obil
C yp
Somm er
Far be</w>
conduc ted</w>
exp lic
K üh
viel er</w>
extre m</w>
wachst um</w>
st opp
gran t</w>
forder e</w>
Ph one</w>
Be weis</w>
C C</w>
der er</w>
Ele ment</w>
aci ón</w>
S how</w>
li ft</w>
for schung</w>
ha ir</w>
V ice</w>
reali stic</w>
e chten</w>
confir m</w>
al co
Dritt ländern</w>
Aus nahme</w>
St ei
pro ud</w>
num mer</w>
An gst</w>
st res
ut ing</w>
gef ähr</w>
Ver ring
om et
ot echn
lan s</w>
Mon etary</w>
Mitglied schaft</w>
è re</w>
on ing</w>
kti ken</w>
kl aren</w>
Au stausch</w>
st ück</w>
Veranstal tung</w>
person nel</w>
hund reds</w>
Konfer enz
Gest altung</w>
Stra ß
p m</w>
care er</w>
än g
is o
ann ehmen</w>
inter ior</w>
g mati
Emis sionen</w>
in habit
Führ ungs
ci an</w>
be absichti
Cyp rus</w>
ver trag</w>
phen om
Stra ßen</w>
sich ere</w>
re min
Por t
parli aments</w>
Ad ri
some what</w>
Verhand lungs
Bro wser</w>
B SE</w>
sk a</w>
Nor di
Aus stellung</w>
zug unsten</w>
Partn ern</w>
vi l</w>
su ites</w>
Wash ington</w>
Con su
he ating</w>
g old</w>
er ör
w u
k rieg</w>
hervor heben</w>
famili ar</w>
Wil l</w>
20 12</w>
Y o
ak tiven</w>
uni versal</w>
prin ting</w>
pla ys</w>
g age</w>
T atsächlich</w>
Program men</w>
Ear th</w>
ony mous</w>
wor se</w>
s ac
um geben</w>
bour g</w>
ann es</w>
ß te</w>
Ho li
Ch urch</w>
gi gen</w>
Über setzung</w>
wirtschaf tlicher</w>
pro v
kur zen</w>
ex ter
aus geschlossen</w>
Portu gu
Kon kur
notwendi ge</w>
funktion ieren</w>
z ei</w>
displa yed</w>
Ur spr
up dated</w>
L t
Re form
Aus führung</w>
0 4
M ur
star s</w>
o st
Sec ond</w>
st amm
follo ws</w>
depen ding</w>
6 7</w>
sinn voll</w>
de als</w>
produc tive</w>
Ge gend</w>
he ber
effec tiveness</w>
zu ständigen</w>
schlä gt</w>
pal ästinen
mot or</w>
la y
emer gency</w>
Vi et
Jus tiz</w>
tan e
lo wing</w>
ge ographi
bot tom</w>
sett ings</w>
kontinu ier
D ek
Nach richten</w>
Kommunik ations
Fra mework</w>
min ority</w>
i en
hö her</w>
nachhal tigen</w>
ma chte</w>
fast er</w>
struk turen</w>
mo dule</w>
be wäl
the ore
chem ical</w>
not ed</w>
acc u
ung st
beglück wünschen</w>
stu dio</w>
is lands</w>
clu bs</w>
Entwicklungs länder</w>
S V</w>
Re port</w>
W illi
D ou
ver bot
ter y</w>
bu ch
ultim ately</w>
be we
star ts</w>
prot ec
umini um</w>
la ges</w>
Arbeitsplätz en</w>
lo unge</w>
HT ML</w>
proble mati
sch em</w>
früh eren</w>
bau t</w>
K e
techni ques</w>
W ein</w>
SM Es</w>
ehr gei
boo t</w>
besch ränkt</w>
Kilom eter</w>
Sta at
li brary</w>
gro w</w>
2. 0</w>
dem anding</w>
Wissen schaft</w>
T enn
wach sen</w>
far m</w>
Ne ws</w>
wom an</w>
durch führen</w>
Sem in
Ä r
ver wand
P ort</w>
bo und</w>
angemess ene</w>
w inner</w>
ch a
Mex ico</w>
Lan g
mo stly</w>
fra g
Sat ur
Ent fer
Buch ung</w>
ans wers</w>
Wir d</w>
visi ted</w>
so dass</w>
W i</w>
5 8</w>
Schlaf zimmer</w>
wel fare</w>
ver bringen</w>
echti gkeit</w>
L as
H en
s u</w>
gespeich ert</w>
Sp ace</w>
li qui
judi cial</w>
Prot ection</w>
be an
be zahlen</w>
me ant</w>
er fahr
O M</w>
Isra eli</w>
m utz
Wer bung</w>
bestä tigen</w>
Immobili en
wol lten</w>
interess ante</w>
eig net</w>
minist ers</w>
electri city</w>
zu lassen</w>
Win d
E dition</w>
g an</w>
mini str
Geschäf te</w>
verabschie det</w>
lo yment</w>
gi ble</w>
ru b
St är
Kop f</w>
Konfli kt</w>
P lus</w>
Gleich gewicht</w>
lie ß</w>
ear th</w>
accompan ied</w>
T ol
Deut schen</w>
win dows</w>
li sts</w>
S P</w>
E d
E Z
W ell</w>
Um gang</w>
th il
pro mp
d. h.</w>
A l</w>
ben utz
Son y</w>
Up date</w>
M eg
zü ge</w>
dra w
er mu
dri vers</w>
besch le
Plen um</w>
Drit tens</w>
nor thern</w>
host el</w>
fe ed</w>
Garan tie</w>
öffent lich</w>
Son ne</w>
te a</w>
k raten</w>
ar ab
in o
vac ation</w>
pollu tion</w>
mul tin
Kompon enten</w>
provi der</w>
her itage</w>
chine sischen</w>
R om</w>
8 8</w>
Schwer punkt</w>
A do
v alley</w>
indic ated</w>
ban ken</w>
Prin zipien</w>
Host els</w>
ra c
func tioning</w>
ein gerich
cor ner</w>
Ac t</w>
de cre
bur ger</w>
intellec tual</w>
imp lic
ge prüft</w>
fil ms</w>
ent wurf</w>
Ma ß</w>
Vereinbar ungen</w>
Regierungs konferenz</w>
An rei
m ation</w>
l ler</w>
gr ateful</w>
Verring erung</w>
fashi on</w>
reich s</w>
pl ate</w>
e x</w>
te ams</w>
Budap est</w>
Über setz
fül len</w>
ber ech
Ma y
Bezieh ung</w>
te sted</w>
der artige</w>
O s</w>
satis fied</w>
k rank
belie bi
anspru chs
Coo k
conci liation</w>
B IP</w>
defin iert</w>
Zi ffer</w>
re ported</w>
lo oked</w>
I P
terror ist</w>
statisti cs</w>
sau ber
geh ende</w>
pre fer</w>
T yp
ten nis</w>
gehöri gen</w>
Al les</w>
einzigar tige</w>
chann els</w>
t ats
mo ther</w>
m ir
aus gesprochen</w>
visi ting</w>
re di
mi d
Be am
vor her</w>
Plan ung</w>
in ser
fli ghts</w>
verhin dert</w>
läss lich</w>
deli ghted</w>
Whe ther</w>
si ven</w>
Geh eim
rä umen</w>
n etz
D ynam
spo ken</w>
entran ce</w>
Mo bile</w>
win es</w>
wid ely</w>
arri ve</w>
Zy per
F unds</w>
verlei hen</w>
ich ts
cont acts</w>
So vi
aus gesetzt</w>
A D</w>
tou rists</w>
relax ation</w>
er läu
Ger ichte</w>
Portugu ese</w>
Ein beziehung</w>
Ak tion</w>
supp le
lus s
Cli ent</w>
Bei träge</w>
inv ite</w>
Außen politik</w>
rem ote</w>
Ab hängi
to s</w>
Tsch ech
Mor gen</w>
Dro gen
invest ors</w>
im posed</w>
R und
Euro pol</w>
Aus gabe</w>
Fak toren</w>
Platt form</w>
p ft</w>
des k</w>
Indi vidu
Hei mat
Br and
wel chem</w>
subsi dies</w>
he at</w>
arti st</w>
Sign al</w>
Sch luss</w>
Pra gue</w>
L ö
acc o</w>
ten dlich</w>
direk ten</w>
declar ation</w>
Ko sten
Freih eiten</w>
5 7</w>
ver gleich
per cent</w>
invol ves</w>
er ce</w>
e astern</w>
aussch uß</w>
decla red</w>
b all
B O
si m
k tion
blo ck
Transpor t
Ara b</w>
Res ol
Op tionen</w>
rei fen</w>
Vertei digung</w>
Z wei</w>
Pi az
ac tively</w>
main taining</w>
Erhol ung</w>
traffi cking</w>
Gesell schaften</w>
pre dic
di ch</w>
F ood</w>
Ameri kan
Schnit t
Kon sul
them e</w>
kurz fris
ent steht</w>
auf nehmen</w>
Per sön
promis es</w>
inhabit ants</w>
ig t</w>
fer ner</w>
be vorzu
appe arance</w>
Fre it
B rie
ver ehrte</w>
ri c</w>
form al</w>
ran g</w>
es ch
after noon</w>
Haf tung</w>
Besonder s</w>
re main
rech tliche</w>
Minder heiten</w>
pris on
expl ore</w>
Well ness</w>
Krank en
i ties</w>
N ic
un möglich</w>
mat ch</w>
Ver bot</w>
exper t</w>
äum en</w>
tats äch
go s</w>
Y es</w>
Brazi l</w>
is ra
sho wing</w>
geb oren</w>
c i</w>
Fri day</w>
Ado be</w>
si erte</w>
passi ert</w>
ou red</w>
exc iting</w>
d less</w>
compet ent</w>
7 7</w>
f ot
wün sch
feh lt</w>
an er</w>
Zus atz
Ch arta</w>
über wach
gar dens</w>
ck er
zi ge</w>
plan et</w>
le bt</w>
begrü ßt</w>
an wen
Hand eln</w>
F ru
Cop enhagen</w>
Ad minist
func tional</w>
Wün sche</w>
V iz
ID S</w>
me e</w>
steh e</w>
enzi al</w>
demonstr ated</w>
St ück</w>
sam es</w>
cor ruption</w>
speak er</w>
new sp
ausge stat
Bemerk ungen</w>
ni er</w>
mer ken</w>
kat astrop
Bal tic</w>
A sh
passen ger</w>
mal erweise</w>
demonstr ate</w>
mag nific
fra me</w>
di n</w>
da fri
collabor ation</w>
care ful</w>
fit ness</w>
ap art</w>
ör ung</w>
p or</w>
chan nel</w>
Ein stellungen</w>
winn ing</w>
gel tenden</w>
cos y</w>
re ject</w>
commit tees</w>
lo h
ge biete</w>
ü t
ret ary</w>
12 .
ver ändern</w>
t wi
18 .</w>
durch schnit
ausge führt</w>
mo tiv
lie f</w>
Veröffent lichung</w>
gri ffe</w>
L y
E V
gestal tet</w>
st un
resi stance</w>
co ok
Blo g</w>
Sub sidiar
un gefähr</w>
schle cht</w>
bilater al</w>
Ma j
pre t
T ER
Gesprä che</w>
Des wegen</w>
p g</w>
quar ter</w>
lich sten</w>
fre m
configu ration</w>
uni versi
k amen</w>
erleich tern</w>
för dert</w>
fizi eren</w>
hinzu fügen</w>
höh eren</w>
contra st</w>
avo i
E W
A h
sol ange</w>
l ust</w>
ge trenn
isra eli
cop yright</w>
sett lement</w>
Neu e</w>
Je de</w>
tran sition</w>
s ung</w>
erreich bar</w>
wei le</w>
l ying</w>
har m
R ub
dist ingu
M B</w>
Hung ary</w>
Be au
würdi gkeit</w>
m use
Poli tiken</w>
sk o
en h
ass ungen</w>
lin ie</w>
Ma in</w>
s q
Net work</w>
facili ty</w>
dr au
New sletter</w>
st ag
Hei m
de partment</w>
sta at</w>
yst em</w>
si erten</w>
is tic
pro spec
occ ur</w>
j o</w>
Wer ke</w>
Maastri cht</w>
ra w</w>
f lug
Mark tes</w>
Con gress</w>
sätz en</w>
Er inn
Mo bilität</w>
justi fied</w>
con tradi
F ischer</w>
Aufenth al
conclu ded</w>
ati ver</w>
Grün dung</w>
8 9</w>
jeg liche</w>
desi red</w>
Host el</w>
coun try
Web seiten</w>
B ut
Ver pack
An merk
ell ers</w>
G au
Amend ments</w>
dep th</w>
nahe zu</w>
Tel ek
erinn ert</w>
Kur z
fa vor
docum entation</w>
regar ded</w>
Stu denten</w>
vor legen</w>
ro ot</w>
Investi tions
Identi tät</w>
ta gen</w>
pos sibly</w>
bemü hen</w>
ent es</w>
con taining</w>
a x</w>
Kon figu
steu er</w>
sorgfäl tig</w>
on going</w>
er end</w>
f ur</w>
dru g</w>
tor al</w>
t ack
sch einen</w>
ori ented</w>
m assi
cas h</w>
überzeu gen</w>
6 2</w>
re e</w>
t stellung</w>
educ ational</w>
Vorsch lags</w>
Bet ru
präsen tieren</w>
den e</w>
pla y
g allery</w>
be stehende</w>
N och</w>
liber al</w>
ab or
Sor gen</w>
Per haps</w>
wh ol
sup er</w>
geh ens
et ed</w>
on ien</w>
cri mes</w>
W omen</w>
Gericht shof</w>
tro ub
er schi
O s
heu tige</w>
ge fügt</w>
G ames</w>
übri gens</w>
to wns</w>
pl enty</w>
ge zwungen</w>
Belgi um</w>
verring ern</w>
record ed</w>
bes timmen</w>
ameri ka</w>
Tra g
Sovi et</w>
Fir men
found ation</w>
b ungen</w>
re placed</w>
Ziel en</w>
re plac
uli ert</w>
awar ded</w>
star tet</w>
gew inn
Fac ili
B R
betri eben</w>
Wei ß
Tai wan</w>
on al</w>
För der
Ques tion</w>
A C</w>
ges u
eb t</w>
P act</w>
gener ated</w>
der te</w>
bezieh ungen</w>
or ama</w>
h et</w>
fir ms</w>
Untersuch ungen</w>
soli d</w>
off ic
determin ation</w>
Dig ital</w>
be ten</w>
E X
Ad di
A sien</w>
min orities</w>
ch air
to i
schwi er
occa sions</w>
ge teilt</w>
dan k
respec ted</w>
Ex pl
D on</w>
la sting</w>
expan sion</w>
adv is
zeichn is</w>
satisfac tion</w>
mi x</w>
kü mm
Char les</w>
sty lish</w>
r d</w>
vis ory</w>
sta un
einhei tlichen</w>
Vor gehen</w>
M ed
sh aring</w>
perf ekt</w>
Fund ament
8 2</w>
vis ed</w>
mor ali
Des cription</w>
O r</w>
Zw ecke</w>
S et</w>
Wissen schaft
t es
proz esses</w>
g y
M A</w>
T own</w>
Balk on</w>
letz tlich</w>
er ischen</w>
J e</w>
p ar</w>
imm igrants</w>
auth ori
pro du
hi p</w>
rus sischen</w>
l ac
mor al</w>
A M</w>
assu me</w>
ass ets</w>
Wi th
Stock hol
tack le</w>
en for
E duc
interpre tation</w>
Um feld</w>
Re de
Nor thern</w>
ro utes</w>
mitt ler
é es</w>
Soll ten</w>
Pu tin</w>
rapi dly</w>
horiz on
Eng ine
un ent
ex it</w>
akzep tabel</w>
verur teilt</w>
Z one</w>
Tra ining</w>
verschied en
em en</w>
constitu tional</w>
st em</w>
organisi eren</w>
ame ters</w>
ab sen
program ms</w>
Bar s</w>
legi timate</w>
M all
Einwander ung</w>
h ungen</w>
ev al</w>
Ver trieb
CO N
de struction</w>
ber aten</w>
Pro vi
Arbeits markt</w>
tar ge
för derung</w>
ähr t</w>
ist a</w>
vie wed</w>
Di ffer
äuß ert</w>
L ad
po t</w>
over come</w>
Ver breitung</w>
ab gestimmt</w>
Zentral bank</w>
R est</w>
9 3</w>
ti l
k on</w>
Pre isen</w>
lok ale</w>
adop ting</w>
auff or
Rechn ung
Feder ation</w>
Mal ta</w>
C hil
Daten schutz
manufactur er</w>
gewähr t</w>
Chanc en</w>
zus ehen</w>
d y
th ly</w>
certi fic
U C
Ap plause</w>
t at</w>
direk te</w>
di ver
Mis sion</w>
Ins besondere</w>
B y
sub sidiar
Ver sionen</w>
spann ung</w>
on e
individu elle</w>
Soll te</w>
spectac ular</w>
Kon sens</w>
w rote</w>
lä ßt</w>
high ligh
emer ging</w>
au en</w>
v a
mari time</w>
v ar
su gar</w>
wer tung</w>
di vision</w>
argum ent</w>
zu gang</w>
v is</w>
sch eme</w>
pu ts</w>
ein ig</w>
ei ra</w>
j enen</w>
woh nen</w>
ter ing</w>
re cip
k g</w>
citi zen</w>
subsidiar ity</w>
grundsätz lich</w>
gn ü
es cap
cent uries</w>
sen ding</w>
dau er</w>
c us</w>
bekämp fung</w>
hi ll</w>
electri c</w>
Krä fte</w>
trans actions</w>
f erung</w>
äuß ern</w>
tran satlan
profession als</w>
par tly</w>
glob alisation</w>
ge o
bek annte</w>
pro sp
oll s</w>
Kon zep
Hoh en</w>
Ansch luss</w>
i on
er setzt</w>
M erc
week end</w>
correspon ding</w>
beg eist
Selbst verständlich</w>
Le gi
Kapit el</w>
Gi ven</w>
AK P</w>
ver dient</w>
du l</w>
bel an
V el
The ater</w>
F al
t ent
6 9</w>
7 8</w>
geh enden</w>
cir cul
Zw ischen
speci ally</w>
gerä te</w>
we ar</w>
ro ll</w>
verk aufen</w>
instal lieren</w>
Studi en</w>
arri ved</w>
Besorg nis</w>
A R</w>
prec ed
correc tly</w>
as sum
üh r</w>
f ans</w>
enjo yed</w>
ackno wled
sha res</w>
individu ellen</w>
gemein schaft</w>
beträ ch
ac ted</w>
6 3</w>
credi bility</w>
7 3</w>
verk auft</w>
ti ere</w>
Sing le</w>
S ein</w>
behand lung</w>
War en
stron ger</w>
Pal äst
t ö
ü bt</w>
strai ght</w>
pic tu
mil es</w>
m ein
y outh</w>
s .com</w>
r ental</w>
o g
nun mehr</w>
inklu sive</w>
V AT</w>
Puer to</w>
La w</w>
Can on</w>
Te chni
5 .</w>
dom ain</w>
Mitarbei tern</w>
vorhand enen</w>
vor stellen</w>
minist eri
inform ationen</w>
bri tische</w>
M em
Erzeug nisse</w>
E T</w>
De fiz
gra f
entscheiden de</w>
Gaz a</w>
fün f
d opp
C las
constitu tion</w>
lo ck</w>
gh ly</w>
beru ht</w>
sion al</w>
b attle</w>
quar ters</w>
inter essi
in flation</w>
ch amp
ant es</w>
Kur s</w>
sch ed
pf lan
j ap
erfolgreich e</w>
ver halten</w>
ter ed</w>
s low</w>
ck y</w>
Wi thin</w>
Vor stellung</w>
Ex p
zent ral</w>
ier ungs
er maßen</w>
end ung</w>
ben den</w>
bek räf
ar ding</w>
Krank heit</w>
tax ation</w>
mil k</w>
cour ts</w>
beschäf tigen</w>
Fol lowing</w>
D R</w>
strateg ischen</w>
prä z
consider ing</w>
Atlan tic</w>
li schen</w>
glau b
supp liers</w>
Struc tural</w>
ver hand
sa ving</w>
person en
jen er</w>
enst adt</w>
auf s</w>
adul ts</w>
Fre unden</w>
sub sidi
J ed
gän ge</w>
N os</w>
spra ch</w>
hous ing</w>
en em
ber ühr
P age</w>
O der</w>
addres ses</w>
P lätz
sel be</w>
drin ks</w>
Be weg
sich eren</w>
li z
gen eri
ear n</w>
distri buted</w>
Br un
Des k</w>
Cap tain</w>
Gewi cht</w>
G lei
sc ene</w>
congrat ul
wa ff
los ses</w>
dür fte</w>
behavi our</w>
Salz burg</w>
größ er</w>
zei ge</w>
se where</w>
ex por
Ma ster</w>
begrenz t</w>
eth eless</w>
angeb ot</w>
ver st
Hung arian</w>
ec omm
Selb st</w>
pat ent</w>
leh nung</w>
l ers</w>
Bemerk ung</w>
Städ ten</w>
Re duzi
Den k
it al
entwick elte</w>
Men sch
Kontrol len</w>
Besch luss</w>
val ent</w>
provi ders</w>
be merk
Th urs
Sch lu
oh len</w>
genü gend</w>
I ON</w>
sec ret</w>
eg al</w>
compon ent</w>
mar quis</w>
la bel</w>
ra k
sligh tly</w>
am i</w>
li st
br ut
bestimm ter</w>
G las
magnific ent</w>
Lo unge</w>
extra ordinary</w>
L ist
Her b
D ü
Au ge</w>
P y
K as
Fa x</w>
schn ei
n ische</w>
fil ter</w>
Sun day</w>
rech tzei
direc ted</w>
An im
ver änder
inclu sion</w>
Po int</w>
reduzi eren</w>
identi fied</w>
h i</w>
erheb liche</w>
beein druck
encoura ging</w>
Y ear</w>
stan z</w>
form ing</w>
aus sprechen</w>
.. ....</w>
C ra
&apos; m</w>
hin aus
o tive</w>
ex emp
ti scher</w>
ruhi g</w>
ange wand
An la
up dates</w>
fu sion</w>
außerord entlich</w>
Ex ist
ô tel</w>
ge bieten</w>
Woh nung</w>
R ap
inde x</w>
g ate</w>
unver züglich</w>
et es</w>
antwor tet</w>
Qu ad
den kt</w>
be währ
T on
K auf</w>
9 1</w>
drück en</w>
p unk
hol ders</w>
Gol d
ie ßen</w>
Sek toren</w>
prepar ing</w>
net er</w>
zusammen arbeiten</w>
Vide os</w>
Mo z
sub stance</w>
sen sible</w>
s k</w>
Schul en</w>
B ö
vor bereitet</w>
einfach er</w>
ange gebenen</w>
Ex change</w>
Berei tstellung</w>
fa ßt</w>
exc eption</w>
e be</w>
E ch
propos es</w>
en kt</w>
Nach richt</w>
Autom obil
7 6</w>
li t
cu ts</w>
Wer t
V alley</w>
Pol y
Arz nei
herr sch
Vor sitz</w>
Pro v
Dol om
wiederhol en</w>
wer ken</w>
gerä t</w>
d ella</w>
ar my</w>
System en</w>
Ser vic
AR E</w>
ta gs</w>
t ables</w>
plen ary</w>
groß zügi
With out</w>
Kontak t
x el</w>
ol o</w>
hund red</w>
fän ger</w>
V ater</w>
S m
neigh b
Gra n</w>
Dem on
we ge</w>
verbin den</w>
stre ben</w>
m ern</w>
auth enti
adju st
Tou risten</w>
C S</w>
f on
Ham as</w>
E A</w>
t liches</w>
betreff end</w>
ali for
Män nern</w>
effek tiv</w>
G lau
Er wä
pol y
D ach
gew onnen</w>
S D</w>
Balk ans</w>
7 4</w>
gra tions
ges s
einger eicht</w>
fäl lig</w>
arti stic</w>
a qu
did n</w>
Energi ever
deci sive</w>
ni en</w>
Ex tre
bel ast
T ak
Fit ness
gar ten</w>
wissen schaftliche</w>
E P</w>
Ber n
zi el</w>
Poli zei</w>
L ate
uni versity</w>
D res
Ass embly</w>
ni veau</w>
franzö sische</w>
Schluss folgerungen</w>
dis k</w>
b ach</w>
offizi ellen</w>
ap p</w>
Lux em
un for
Mar ke</w>
mod ell</w>
Lie ferung</w>
Ern ähr
lig ent</w>
D al
de x</w>
Ungar n</w>
Stand or
fahr er</w>
ver stärken</w>
gesund heit</w>
ensu res</w>
ck s
Medi en
D ub
er hielt</w>
Pat ri
B lan
A mon
exam ine</w>
every day</w>
therap y</w>
erfolgreich en</w>
Thir dly</w>
mi et
Nor d</w>
9 4</w>
15 .</w>
tre e</w>
de posit</w>
the ory</w>
represent ation</w>
ra cy</w>
gu n</w>
event ually</w>
Ein w
p. m.</w>
stan de</w>
co s</w>
S ig
Bel ast
4 .</w>
Ein heit</w>
BM W</w>
concep ts</w>
Komm un
thous and</w>
Er stellung</w>
port al</w>
viel es</w>
system ati
C 5</w>
ch am
car rying</w>
or i</w>
elektron ischen</w>
Kon text</w>
stra fe</w>
sch u
S timm
zu fried
li ked</w>
in ess</w>
du ties</w>
us ern</w>
erle bt</w>
pot enzi
Gra d</w>
ru f</w>
fass end</w>
enh ance</w>
E I
Vier tel</w>
Sp aß</w>
F ast</w>
utt gar
her zustellen</w>
besch rieben</w>
ber at
M ann
Genehm igung</w>
zügi gkeit</w>
k lim
drück t</w>
bon us</w>
ban king</w>
Bud get</w>
geschn it
ed ings</w>
6 1</w>
ten tion</w>
j i
unic ations</w>
absen ce</w>
er stre
ban k
verantwor tungs
sub jects</w>
Ko oper
s elling</w>
appoin tment</w>
T E</w>
Rechts grundlage</w>
K it
vir tual</w>
sch efs</w>
C it
um in
spo ke</w>
speci fied</w>
Leg al</w>
geb rau
bei getragen</w>
K now</w>
8 1</w>
tradition elle</w>
Zusätz lich</w>
Ü bri
pack aging</w>
ade my</w>
top ics</w>
angeb racht</w>
ri de</w>
defic it</w>
Soft ware
C up</w>
at tri
Ant i</w>
Li ke</w>
Ch an
wa ve</w>
sol ely</w>
ab use</w>
tradi tions</w>
shi pping</w>
groß em</w>
el sewhere</w>
su rely</w>
re struc
ge stattet</w>
fore sts</w>
Vor der
L ok
K en
propos ing</w>
Gar den</w>
läs sigkeit</w>
Sta ates</w>
V ER
N eben
Eisen bahn
Z eu
Th ail
C o</w>
Direc tor</w>
Bild schir
ma kers</w>
ehm ern</w>
St uttgar
C ir
Nach hal
Bedro hung</w>
ut ation</w>
fer tigen</w>
zu gr
re chn
descri ption</w>
accur ate</w>
Chin as</w>
thil fe</w>
gener ate</w>
re vi
h em</w>
ap plying</w>
vulner able</w>
N am
supp lies</w>
ren owned</w>
gen ehm
Ko ordin
gesch ichte</w>
Thurs day</w>
A IDS</w>
Cont ent</w>
ne vertheless</w>
belan gt</w>
finanzi ert</w>
con nect</w>
betei ligen</w>
Z ul
con sent</w>
00 1</w>
ge kenn
volunt ary</w>
Viz ep
r as</w>
pro ven</w>
im pose</w>
anwes end</w>
för der
ed y</w>
Distri bution</w>
exc essive</w>
Besch lüsse</w>
suff er</w>
less ons</w>
kl eines</w>
K ür
not es</w>
luxuri ous</w>
Pak ete</w>
g lo
Fer r
tri al</w>
n am</w>
Kon to</w>
ab e</w>
wunder schönen</w>
ver mitteln</w>
hä user</w>
bis lang</w>
führ ungs
Is lam</w>
zu tage</w>
ge fallen</w>
den de</w>
col ours</w>
la yer</w>
stol z</w>
revol u
philosoph y</w>
complic ated</w>
Sich erung</w>
Num mer</w>
se x</w>
muse ums</w>
for th
enth alt</w>
zi pi
tob acco</w>
proce ed</w>
country side</w>
Mon it
D auer</w>
10 0
ähn lich</w>
mensch liche</w>
ali ties</w>
privi leg
en es</w>
en cia</w>
G ast</w>
sugges tions</w>
W äl
Katastrop he</w>
Ein wohner</w>
nach drück
won der</w>
vide os</w>
sch e
men ade</w>
fu er</w>
P fer
Ä gyp
V I
G ö
Ha ar
Bulg arien</w>
vil lages</w>
sa h</w>
N ig
AC P</w>
vor rangi
fin ish</w>
einzigar tigen</w>
athed ral</w>
Posi tionen</w>
po ll
T rop
R ati
integri ert</w>
Kroati en</w>
w ski</w>
ex ports</w>
einge halten</w>
depar ture</w>
Slo ven
M angel</w>
Bud gets</w>
n ör
ga ined</w>
bed ing
S imp
е н
An sichten</w>
berei chen</w>
Vizep rä
unver gess
hand le</w>
entscheiden der</w>
sol ches</w>
Deut sch</w>
wei len</w>
dr ing
Wohl stand</w>
Be sides</w>
in su
Gewähr leistung</w>
hei m
geb oten</w>
direc tory</w>
er zeugt</w>
Konsequ enzen</w>
great ly</w>
Qu ality</w>
Über legungen</w>
wech sel</w>
tr end</w>
komm un
in os</w>
gef äl
ange geben</w>
Provin z</w>
zi vi
S T</w>
H O
Gegen stand</w>
zi elen</w>
inv est</w>
ge wissen</w>
en abled</w>
Agri culture</w>
kri eg
li erung</w>
ign ori
S ad
R ü
ch st
ag ra
Minister prä
verkehr s</w>
tri ps</w>
sozi aler</w>
p p</w>
w ahlen</w>
p ure</w>
Land es
ehr ten</w>
To ols</w>
supp lier</w>
ski ing</w>
kon fron
p ac
mi x
ling s
az z</w>
an belangt</w>
Prof essor</w>
str o</w>
hervor ge
verbin det</w>
ra ising</w>
pa ying</w>
her vor</w>
ge führten</w>
T ool</w>
ex trac
c ei
zu ständig</w>
Men ü</w>
sti ll
P ul
N ext</w>
Betra g</w>
lau b</w>
coun ts</w>
Schlü ssel</w>
S timmen</w>
C R
Kul turen</w>
ven tion
st y</w>
demo kraten</w>
H O</w>
son g</w>
bereit gestellt</w>
au to
ab sor
Lebens mittel</w>
Verletz ung</w>
H aving</w>
R ö
Per form
perio ds</w>
bedau er
Fam ily</w>
recei ving</w>
pan oram
inv ited</w>
clean ing</w>
ver mie
kon z
Mod elle</w>
F eld</w>
Dar um</w>
Stras bourg</w>
Proz esse</w>
Cast le</w>
wiederhol t</w>
kilom et
dis abled</w>
Au dio</w>
v on
fer n
r ün
gesetz ten</w>
Schi ff</w>
Mon day</w>
Holi day</w>
mittl eren</w>
klär ung</w>
Zivil gesellschaft</w>
Blu e</w>
pursu e</w>
compar ison</w>
Gu ests</w>
B 5</w>
inter nen</w>
difficul ty</w>
Kolleg in</w>
vor ange
re servations</w>
1 1
vor anzu
sugge sted</w>
lin ed</w>
far ming</w>
Vor haben</w>
zz i</w>
lus ses</w>
ein bezogen</w>
ur teilung</w>
Stoff e</w>
tei lungen</w>
t ar</w>
shor t
Schwi mm
Er füllung</w>
si ty</w>
z onen</w>
religi on</w>
mis sing</w>
bab we</w>
L es</w>
Eigent um</w>
u pper</w>
gr ös
e at</w>
attemp ts</w>
Egyp t</w>
tran si
ma chten</w>
e o</w>
beob achten</w>
Völ ker
tä r</w>
letz tendlich</w>
en cing</w>
con sci
be antworten</w>
sav ings</w>
al ties</w>
Is lands</w>
E p
App le</w>
gebil det</w>
Park platz</w>
Gerä t</w>
17 .</w>
Pas sa
po ols</w>
O l
zi el
mag ne
in put</w>
Ver zö
ter ri
ber gen</w>
W o</w>
be kommt</w>
sho t</w>
no tic
b un
k ette</w>
im port</w>
d ul
Brasi lien</w>
j pg</w>
d as
X P</w>
ord nungen</w>
b o</w>
tern al</w>
l ou
arbei ts
Ein kommen</w>
pati ent</w>
Glaub würdigkeit</w>
wen ig
tra ge
bedeut ende</w>
Reduzi erung</w>
por ation</w>
in mitten</w>
Schi ffe</w>
Kir k</w>
ursprün glich</w>
lauf enden</w>
individu ell</w>
air e</w>
stre bt</w>
mus sten</w>
ism us
im por
dic tion</w>
she et</w>
enab ling</w>
constitu te</w>
argum ents</w>
U p</w>
T reib
S mo
Pra ktiken</w>
Gr ünen</w>
in y</w>
C F
sh ar
re sear
ed back</w>
Kontak te</w>
Gui de</w>
pri me</w>
h l</w>
LA F</w>
ausge zeichnet</w>
Pl ace</w>
an gesehen</w>
Z ur
B ased</w>
wirtschaf tlich</w>
four th</w>
dre am</w>
über prüft</w>
weit gehend</w>
un ited</w>
flo ws</w>
Sp eich
V ul
Al ger
necess arily</w>
i Phone</w>
ge dacht</w>
am in</w>
continu ous</w>
sper ity</w>
per mitted</w>
entsp annen</w>
Su iten</w>
J ack
Ger icht</w>
ge ttable</w>
effizi ent</w>
destro yed</w>
O K</w>
s ought</w>
inves tieren</w>
col lap
p lu
g eren</w>
confir mation</w>
aus gerichtet</w>
S pre
An lass</w>
poli tically</w>
S L
ränk ung</w>
promis ed</w>
bot s</w>
s man</w>
Sch ne
Ter rit
Belgi en</w>
te u
so unds</w>
ge pf
erst mals</w>
symbo l</w>
signific ance</w>
ein ma
cent rali
Bo den
ähn liche</w>
proble me</w>
man che</w>
lü ssel
G anz</w>
Wäh len</w>
satisfac tory</w>
pl atte</w>
ou b
G ut
tw enty</w>
ali stischen</w>
Geschm ack</w>
Pla ya</w>
G lück</w>
wel com
Ent lastung</w>
Con sul
m unicip
fän gt</w>
Situ ated</w>
P SE</w>
Konkur ren
wel coming</w>
public ation</w>
a e
W eg
Ver lust</w>
G ir
st sein</w>
beein trächti
vers ary</w>
deli cious</w>
al located</w>
Tran sa
fer tig</w>
Wer be
E mail</w>
Kon zer
Ge fahren</w>
rec y
spar tner</w>
hom es</w>
at ures</w>
ref ers</w>
le aves</w>
Auf sichts
mo vie</w>
ge plan
bet reiben</w>
k illed</w>
dis cre
r are</w>
schätz ung</w>
gemein schaftlichen</w>
tä glichen</w>
st eig
j i</w>
geh ol
auf treten</w>
Vor aussch
port folio</w>
isl am
Mr d.</w>
n ity</w>
bet ten</w>
wi reless</w>
Gef äng
co operate</w>
vertei digen</w>
them ati
U T
optim ale</w>
obli ged</w>
lob by</w>
freed oms</w>
W F</w>
über greif
s inc
gel ingt</w>
weis ungen</w>
Kor ruption</w>
Ver arbeitung</w>
zentr en</w>
refer endum</w>
A th
stand s
res ource</w>
sp here</w>
pro sperity</w>
musi cal</w>
Geh minuten</w>
g gle</w>
4 ,
reduzi ert</w>
kom fort
program ming</w>
oper ative</w>
dep end</w>
N az
si dents</w>
cro s
Tä tigkeiten</w>
Krieg s
gesch afft</w>
steu ern</w>
künf tige</w>
Ger ade</w>
zukünf tigen</w>
li ved</w>
entre pren
sec tions</w>
ck en
reit er
lang sam</w>
instruc tions</w>
rel ative</w>
hier bei</w>
ein zusetzen</w>
Ba y
Ger echtigkeit</w>
over view</w>
Stockhol m</w>
unfor gettable</w>
Person al
kompli zi
harmon isation</w>
SA P</w>
ES CO</w>
D N
ver teilt</w>
timedi a</w>
Sec retary</w>
leg ally</w>
la g
illeg alen</w>
a po
F rü
soci eties</w>
entsch lossen</w>
Über gangs
son gs</w>
re vision</w>
im ports</w>
dau ert</w>
Fin land</w>
charac ters</w>
H under
ac tors</w>
Proz esses</w>
ver län
exc ur
Berlin er</w>
ub a</w>
verfüg baren</w>
spar tei</w>
m ic
Tro tzdem</w>
Da für</w>
schi eben</w>
g keits
Mill enni
ach ing</w>
Finanzi erungs
welcom ed</w>
erkenn t</w>
er setzen</w>
wi ld</w>
st ern</w>
projek te</w>
Ti p</w>
Kör per
Fahr zeuge</w>
Ber g</w>
ver sichern</w>
soli di
fe es</w>
ausge geben</w>
ak s</w>
Best ä
ma x</w>
z ept
organ ic</w>
speciali st</w>
P eri
du mp
be geg
Well ness
Throu gh</w>
succe ed</w>
arbei tungs
Situ ationen</w>
w ahl
ful fil</w>
des wegen</w>
St rom
conc er
Region al</w>
Off en
K la
e ur</w>
z enten</w>
vorgeseh enen</w>
sup posed</w>
Energi en</w>
iz za</w>
Organ e</w>
kor rek
e -</w>
Wh o</w>
Er gän
enter prise</w>
Ven ice</w>
S ul
unter streichen</w>
be vor
militär ischen</w>
ar med</w>
16 .</w>
р а
vorzu legen</w>
off ene</w>
all zu</w>
Perspek tive</w>
grün den</w>
8 7</w>
l unch</w>
M ut</w>
staat lichkeit</w>
recogni zed</w>
Freit ag</w>
Lan gu
Americ ans</w>
unterschei den</w>
institution elle</w>
fa x</w>
Res ul
Gemein de</w>
Educ ation</w>
wel comes</w>
behaup ten</w>
ari ties</w>
introduc ing</w>
be endet</w>
ar gu
v ar</w>
negoti ating</w>
cell s</w>
6 .</w>
proce edings</w>
lat t</w>
O ver
super vision</w>
suff ered</w>
leg te</w>
hy dro
cr yp
wei ch
direc tor</w>
Program m
L A</w>
kontak tieren</w>
Sy mbo
Facili ties</w>
S CH
4 0
remain ed</w>
mi en</w>
á n</w>
foot ball</w>
stei gt</w>
fü ll
H ans</w>
unabhängi gen</w>
konzentri ert</w>
func tionality</w>
speich ern</w>
n one</w>
interess ant</w>
en on</w>
S I</w>
spre che</w>
boo k
Euro zone</w>
N G</w>
Austra lia</w>
Aus flüge</w>
prev enting</w>
mitgli eder</w>
Soci alist</w>
L U
Audi tors</w>
expla ined</w>
S eri
Donn er
n ut
lug in</w>
G ang</w>
origin ally</w>
mit teilen</w>
contri buted</w>
ba res</w>
UN ESCO</w>
Sa chen</w>
EZ B</w>
d ness</w>
Samm lung</w>
ange passt</w>
Premi er
ong side</w>
Ver einfach
P on
P in
Gen ießen</w>
W är
l li
ga ther
e genen</w>
So und</w>
well ness</w>
voll ständigen</w>
ti an</w>
re ih
Zei tung</w>
Di kt
A F
kl ein</w>
g ut
Lat ein
V .</w>
Sch loss</w>
reich er</w>
eu ros</w>
Ri o</w>
langfris tige</w>
Am t</w>
z ed
wirk same</w>
ther mal</w>
emp fangen</w>
pro xim
cl asses</w>
Thail and</w>
S ä
Pro ject</w>
konfron tiert</w>
every body</w>
Zu ver
wa ffen</w>
und oub
mod ules</w>
forth coming</w>
größer es</w>
feder al</w>
begri ffen</w>
ar ity</w>
Elek tro
Al bum</w>
bra chte</w>
Weiter en</w>
Bet ten</w>
ges ti
fähi gen</w>
fem ale</w>
design s</w>
bew u
Bevölk erungs
we ak</w>
unter zeichnet</w>
t ons</w>
Bran che</w>
por tu
op hi
militär ische</w>
har dly</w>
ch air</w>
bein gs</w>
b ann
Liz enz</w>
Compu ter
par ameters</w>
spar en</w>
lie ber</w>
lab elling</w>
hospit ality</w>
ar ise</w>
Alli anz</w>
tim et
b i</w>
as en</w>
NG Os</w>
Her z</w>
Cor porate</w>
Ab lehnung</w>
sch em
co ol
chec ks</w>
belie f</w>
Ro ad</w>
R unde</w>
Institu t</w>
Bu il
wie gend</w>
vier tel</w>
ti er</w>
estim ated</w>
effizi enz</w>
Stand ort</w>
Piaz za</w>
Schwei zer</w>
ment ally</w>
indic ate</w>
ab stimmen</w>
Zuständi gkeit</w>
St ability</w>
A sian</w>
ph arm
eu ro
bisher igen</w>
sho fs</w>
Sy mp
ä fen</w>
mo vements</w>
MP 3</w>
M aga
restric ted</w>
char ak
aktivi ert</w>
Get rän
F öder
ri eren</w>
ch ester</w>
Zu g</w>
Satur day</w>
stim ul
st ages</w>
per si
Wider spruch</w>
S mar
K y
where as</w>
trans mission</w>
blo cks</w>
amen ities</w>
Er wer
T A</w>
Übernach tung</w>
P fle
Har dware</w>
safegu ard</w>
ass ur
be stellen</w>
fan den</w>
Mark en</w>
Frühstücks buffet</w>
sto cks</w>
fu hr</w>
et a</w>
Mr .</w>
fir mly</w>
dienst leistungen</w>
Kommission sprä
sicht bar</w>
ern t</w>
S ource</w>
H D</w>
Cul ture</w>
verwal tung</w>
en ever</w>
vorgeschla gene</w>
kön nt</w>
Kris en
öff nung</w>
ran ging</w>
explo itation</w>
Islam ic</w>
ein sch
reali se</w>
Ti bet</w>
strateg ische</w>
gr enze</w>
r ale</w>
acc eler
produc tivity</w>
err ors</w>
dr y</w>
unter liegen</w>
tr ends</w>
sustain ability</w>
Stuttgar t</w>
Will kommen</w>
Sti ftung</w>
Ä u
ru ms</w>
Ser bia</w>
S ohn</w>
8 3</w>
unzu reich
har t</w>
compu ters</w>
barri ers</w>
alisi erten</w>
ab sch
Wirtschafts wachstum</w>
Ar mee</w>
Absch affung</w>
gehens weise</w>
dar k</w>
zu zu
hear ing</w>
Vol kes</w>
P läne</w>
Kön ig</w>
er zeug
pic k</w>
personen bezo
enhan ced</w>
be ur
Mall orca</w>
tain er</w>
p ä
Ver halten
Aut onom
j unk
gra m</w>
fa ith</w>
Tour ism</w>
Kan ada</w>
Donner stag</w>
D ritten</w>
ves sels</w>
ange kün
r ung</w>
fre u
er gibt</w>
ap ers</w>
Verän derung</w>
Stre it
RO M</w>
L ic
ker nel</w>
gro sse</w>
flä chen</w>
bir th</w>
an gen</w>
8 0
ro t
ans wer
V ista</w>
Schri ft
s .</w>
an o
Eben en</w>
Custom er</w>
An kunft</w>
em m
am t</w>
Bür o</w>
s now</w>
ill ar</w>
Abend essen</w>
unabhängi ge</w>
T or</w>
Frei zügigkeit</w>
sa ved</w>
collec ted</w>
an schließend</w>
the tic</w>
hy th
Vor lage</w>
Gen eva</w>
Alex ander</w>
herunter laden</w>
bed ded</w>
rä u
simul tane
si n</w>
ess ed</w>
sho wed</w>
gi es</w>
fri edi
angeb ot
a res</w>
Red ner</w>
N av
Gesch le
S ier
H us
sever e</w>
par liament</w>
an schließen</w>
S U
8 4</w>
so genannten</w>
geprä gt</w>
f ährt</w>
fair ly</w>
Viet nam</w>
Lei tung</w>
prak tische</w>
obstac les</w>
i ens</w>
e dition</w>
an hand</w>
S ind</w>
wahr en</w>
or ation</w>
let ters</w>
Sh ould</w>
natür liche</w>
comb ine</w>
tra vel
res que</w>
hochwer tige</w>
Sch on</w>
Christ mas</w>
ssi g</w>
fik ation</w>
defin i
R ab
Mittelme er</w>
re marks</w>
zukünf tige</w>
su it</w>
M ah
i o</w>
de ad</w>
besch reibung</w>
investig ation</w>
et abli
adap t</w>
Nachbar n</w>
oph istic
künst ler
jur is
bo ards</w>
amaz ing</w>
Moder ni
bür ger</w>
abili tät</w>
B e</w>
är ten</w>
te ch</w>
imag ine</w>
exclu sion</w>
eb ook</w>
T ages</w>
7 .</w>
fi x</w>
enthal tenen</w>
Mut ter
gewähr en</w>
effizi ente</w>
ag ent
Rei sen</w>
ver dienen</w>
met er</w>
р о
no ver</w>
g ischen</w>
Gesch äft</w>
EN T</w>
An stieg</w>
regar dless</w>
umfangreich e</w>
p it
ed a</w>
be völk
accept ance</w>
Regierung schefs</w>
M ärkten</w>
tiv als</w>
Boo t</w>
Aktionsp lan</w>
wor thy</w>
in ev
endor se</w>
bud gets</w>
Balk an</w>
can cer</w>
adap ted</w>
Ur heber
T ot
I l</w>
ul s
fas cin
ger ing</w>
á s</w>
roman tic</w>
P las
ie gel</w>
besonder er</w>
Resp ekt</w>
re mark
n ine</w>
s ach
at o
Bu dd
19 th</w>
coordin ated</w>
ar bit
sched ul
Rich ard</w>
ätz en</w>
d al</w>
contri but
Wachst ums
Lu f
der e</w>
Mut ter</w>
Jose ph</w>
wal d</w>
grei ft</w>
ben en</w>
Volks gesundheit</w>
Ger ichts
Consu mer</w>
sau ber</w>
reflec ted</w>
is men</w>
hin gegen</w>
ge beten</w>
be hoben</w>
G or
scri pt</w>
ling u
flu g</w>
ab sur
Haushaltsp lan</w>
Erinn erung</w>
C P</w>
im men
I M</w>
Pla y
Binnenmark tes</w>
Hand els</w>
vereinbar t</w>
tra cks</w>
hervorge hoben</w>
Masch ine</w>
sel ten</w>
internation ally</w>
Intern ationale</w>
universi ties</w>
ungs verfahren</w>
deli ber
anzu zeigen</w>
pen alty</w>
p her
Gleich stellung</w>
E qu
Dat ei
D C</w>
dig nity</w>
Qu ellen</w>
Do es</w>
Phi losoph
P ur
Befug nisse</w>
Zi vi
über ein
h te</w>
disa sters</w>
de i</w>
d ges</w>
am ed</w>
Wei h
Cook ies</w>
Bör se</w>
E P
re action</w>
ori a</w>
hil fre
c lin
Mar k</w>
m outh</w>
vi es</w>
trav elling</w>
dar gestellt</w>
Sci ence</w>
D än
A ri
vor liegende</w>
Voraussch au</w>
zo g</w>
Si ed
Commission ers</w>
samm eln</w>
ro ots</w>
hervorra genden</w>
ß ten</w>
Ac ademy</w>
stri chen</w>
dank bar</w>
w ör
verbot en</w>
met ro</w>
ga p</w>
dri ven</w>
a sion</w>
ti ll</w>
langfris tig</w>
th u
s entation</w>
prä sent
consider ably</w>
c ell</w>
jet zigen</w>
Nach t
M eines</w>
vor ge
bur gh</w>
z eln</w>
tem por
incre di
freund lichen</w>
Flüchtlin ge</w>
sovereig n
län dischen</w>
D O
viol ations</w>
proto col</w>
metho den</w>
ger aten</w>
arbei tete</w>
consul ting</w>
Lit er
9 00</w>
d rop
Indi an</w>
Or te</w>
t less</w>
conven tional</w>
B üh
vor bei</w>
N avig
manag ing</w>
lei dung</w>
coura ge</w>
Cat al
v enti
supp lied</w>
gener ations</w>
si ghts</w>
T rin
Fre und
App lik
m its</w>
gen s
Wochen ende</w>
Ju gend</w>
F ull</w>
Ander e</w>
pret ty</w>
lös ungen</w>
elek tr
Rück kehr</w>
Ra di
Feh ler
Berich ten</w>
B 4</w>
undoub tedly</w>
ernsthaf t</w>
kontrol lieren</w>
cl ause</w>
bestimm ungen</w>
belie ves</w>
Ent spannung</w>
at z</w>
CH F</w>
Be für
norm alen</w>
distri but
Steu erung</w>
L ine</w>
m ass
fest zulegen</w>
au stausch</w>
Er zeu
EC B</w>
est a</w>
T al</w>
Georgi a</w>
7 9</w>
sorg ungs
cul tures</w>
Passa gi
se es</w>
f illing</w>
Betei ligten</w>
ti ef</w>
er freut</w>
anti cip
For mu
wor st</w>
Plan eten</w>
Ö l</w>
prin ted</w>
gewünsch ten</w>
Hei zung</w>
wer ben</w>
sh ore</w>
entde ckt</w>
V an
politi sches</w>
lin ien</w>
her stellung</w>
s ophistic
ho hem</w>
exclu ded</w>
einhei tliche</w>
Aut or
or dered</w>
kre is</w>
k an</w>
f eu
Ma x</w>
re stored</w>
erwäh nen</w>
Me eting</w>
comp act</w>
Oper a</w>
Ge werk
ste ten</w>
exter nen</w>
Yu gosla
jo ining</w>
W ed
schn ellen</w>
ar do</w>
Krimin alität</w>
Führ er</w>
ul f</w>
ste am</w>
sp ei
di alog</w>
gui ded</w>
fac tory</w>
wach senden</w>
acci dent</w>
wirtschaf ten</w>
magaz ine</w>
ir re
nor malerweise</w>
equi valent</w>
Abhängi gkeit</w>
er nen</w>
Z e
under ground</w>
feh l</w>
al tet</w>
S ob
Re chten</w>
Administ ration</w>
Reservi erung</w>
äum t</w>
trans ferred</w>
hei ßen</w>
beauftrag ten</w>
D oh
Aus maß</w>
8 .</w>
r h
produzi eren</w>
nachdrück lich</w>
Er st</w>
process ed</w>
mis sions</w>
ali tion</w>
Loc ation</w>
H ong</w>
sub sequent</w>
av i</w>
analy se</w>
Te ams</w>
13 .</w>
Pass wort</w>
ta il
Schön heit</w>
o f
fahr t
Staats an
tac kl
schwer en</w>
rech nen</w>
i ko</w>
ge plant</w>
b rech
Sy ri
So l</w>
Slo wak
reflec ts</w>
gra d</w>
Vertra ges</w>
Kon g</w>
ti m</w>
stru ktion</w>
inf rin
aus ger
Zah lungen</w>
Ver teilung</w>
B ag
12 .</w>
5 ,
spi egelt</w>
Gra fi
satis fy</w>
ass embly</w>
Konflik te</w>
Gesch windigkeit</w>
Fran zö
k el
ex zell
al li
F an
fre ely</w>
Cas a</w>
ra vel</w>
pro min
ra tion
at i</w>
Spezi al
k örper
hoff entlich</w>
ex o
b utes</w>
Rech t
ut zutage</w>
k üh
besch ränken</w>
bed anken</w>
st on</w>
W all
Qu elle</w>
P ho
ökonom ischen</w>
pl astic</w>
in ated</w>
geh ei
C ot
sovereign ty</w>
si erungs
fest gelegten</w>
ent gegen</w>
sha dow</w>
gesch ätz
concent rate</w>
a ke</w>
Om bud
Indu stry</w>
Fahr t</w>
Dar stellung</w>
krä f
klassi schen</w>
Su dan</w>
Met ro
Ma xim
exis tiert</w>
b len</w>
zugr unde</w>
auf gebaut</w>
Se ver
Gemein same</w>
10 .</w>
tiv itäten</w>
kor rigi
kon figu
hei t
ag a</w>
Ther ap
Eing ang</w>
198 0</w>
Som e
Agent uren</w>
si scher</w>
reli ability</w>
ge fragt</w>
Sto ck</w>
Ro ck</w>
Hau t</w>
Di am
Bl ut
über aus</w>
zusammen zu
Wor t
pan el</w>
Dre h
se u
Wi k
geleg te</w>
eh ol
any where</w>
N ero</w>
wes enheit</w>
qu iry</w>
lear ned</w>
appro ve</w>
Pap ier</w>
aff ord
B our
über ein</w>
unter sucht</w>
ste te</w>
K öl
Be wus
h ast</w>
Muse en</w>
zi a</w>
Eu ch</w>
Arbeitsp latz</w>
komple tte</w>
unent gel
einge gangen</w>
bs p</w>
Fr ist</w>
under taken</w>
k ür
Ur sachen</w>
Minu te</w>
m ann
Not es</w>
fisher men</w>
P ack</w>
As sozi
eg o
won ach</w>
v i</w>
re served</w>
portu gie
humanit äre</w>
co ol</w>
au l
P hän
Op position</w>
D ritte</w>
sen z</w>
un ruhi
re construction</w>
li s</w>
ass ess</w>
stu dent</w>
Taus ende</w>
lic ate</w>
Amon g</w>
unterschied lich</w>
n ers</w>
dam ages</w>
Re z
Fern sehen</w>
B A</w>
restruc turing</w>
lo gical</w>
D ör
sich tsp
Zü rich</w>
hal ts
gestal tung</w>
flo ors</w>
strength ened</w>
s -</w>
me al</w>
leich ter</w>
Symbo l</w>
P resse</w>
Kor rek
Kredit karte</w>
inv o
Mi ß
M ili
B ord</w>
stamm t</w>
dis krimin
Inform ation
Ge fan
k tions
j ac
gro ssen</w>
an erk
Par ameter</w>
re store</w>
Imp le
letz ter</w>
gi a</w>
Wür de</w>
Kü sten
sig ni
k ei
Mot or</w>
Haupt bahnhof</w>
Er forder
zurück zuführen</w>
se kre
m ack
ar ising</w>
2 nd</w>
hol ds</w>
Spiel en</w>
vi c</w>
perf ekte</w>
is lat
ber ichten</w>
be zahlt</w>
form ats</w>
M ir</w>
F OR
swi tch</w>
dec ade</w>
Flor enz</w>
Öff nung</w>
ad ding</w>
Pres se
Fri endly</w>
Finanz krise</w>
um setzen</w>
teil s</w>
for th</w>
einzu führen</w>
Kaff ee</w>
h o</w>
Z ut
C el
um zu
targe ted</w>
Rechts staatlichkeit</w>
Luxem burg</w>
Leg isl
jud g
di ert</w>
Hoch schul
Gem ü
н о
beglei tet</w>
over looking</w>
ener gie</w>
Groß teil</w>
á n
um fassend</w>
pl ates</w>
geeig nete</w>
ast er</w>
t les</w>
sto ß</w>
pictu resque</w>
eg eln</w>
exec utive</w>
ali a</w>
Cha ir
Aus einander
Bei de</w>
är kt</w>
Gol den</w>
Den mark</w>
r ut
kor rekt</w>
M äd
is co</w>
every where</w>
an z
T el</w>
Fak tor</w>
ri si
kom fortable</w>
Registri erung</w>
Lei p
Hand lungs
-- --
ver n</w>
Wi kit
CA P</w>
G M
rä um
wa ge</w>
geb äu
enter ing</w>
bes orgt</w>
b right</w>
treat ments</w>
statt findet</w>
proz esse</w>
produc es</w>
per cent
Umweltsch utz</w>
S C</w>
vorsch läge</w>
stra sse</w>
rec re
B om
norm ally</w>
hier für</w>
ackno wledge</w>
E X</w>
n bsp</w>
Doh a</w>
Be arbeitung</w>
к о
verhand lungen</w>
un fair</w>
erweiter n</w>
C .</w>
türk ischen</w>
shi ft</w>
ange wendet</w>
K ategorien</w>
H at</w>
Ab ent
14 .</w>
v re</w>
oper ates</w>
Ent sch
Comm un
present ing</w>
p ts</w>
Proto col</w>
w as
uni or</w>
ul en</w>
he ading</w>
mis s</w>
hi king</w>
Pro te
neighbour ing</w>
fin ed</w>
Anwen der</w>
bro w
brie fly</w>
b les</w>
atta ched</w>
S har
th ou
pf ung</w>
ti en
st ran
intel ligent</w>
dr yer</w>
cas ino</w>
A li
us alem</w>
p illar</w>
haf tet</w>
end ar</w>
Küh l
t ü
h ec
ap s</w>
G PS</w>
lic a</w>
deep ly</w>
Ev ents</w>
sto res</w>
ent täu
St aff</w>
Gener ationen</w>
Bes ei
ürz t</w>
bel ong</w>
I ran
prov ince</w>
lä dt</w>
im peri
illu str
fest en</w>
Ver lauf</w>
sol ar</w>
Man u
Col lege</w>
tax i</w>
panoram ic</w>
cam p</w>
Nahrungs mittel
Dokum enten</w>
vor nehmen</w>
mitt lung</w>
anni versary</w>
sec onds</w>
ob o
frü hen</w>
er fordern</w>
K ern</w>
mittler weile</w>
Biblioth ek</w>
ra id</w>
ous ness</w>
mi le</w>
individu ally</w>
fo x</w>
Z er
nar row</w>
B in
us age</w>
tra t</w>
ri ft</w>
k einem</w>
C ou
Bestimm ung</w>
sle ep</w>
pro ch
er re
Qu ar
griech ischen</w>
gesetz lichen</w>
Le on
Soci ety</w>
Program mi
ec ological</w>
teach ing</w>
list ings</w>
g ungs
War craft</w>
Spec i
Inn enstadt</w>
Er haltung</w>
su perior</w>
lo y
Kon zent
Autob ahn</w>
Verk ehr
Kompet enz</w>
B ed</w>
gegenwär tige</w>
I K
G am
w ash
son sten</w>
prof its</w>
ge äußert</w>
fu els</w>
collec t</w>
Wikit ravel</w>
fe et</w>
et o
demo cra
pus h</w>
Ver lu
Lou is</w>
C P
9 .</w>
A ma
pro pri
in j
cat ch</w>
Stre cke</w>
Berei tschaft</w>
Vereinfach ung</w>
Spei sen</w>
le hr
ar re
Som it</w>
Belgi an</w>
gro wn</w>
würdi g</w>
t é</w>
ge wer
Stär ke</w>
G E</w>
zerstör t</w>
dist or
ri te</w>
qualit ativ</w>
gest ärkt</w>
empf ohlen</w>
ben de</w>
au dio
Telek omm
ph ones</w>
n ail</w>
Herb st</w>
poli s</w>
in er
graphi cs</w>
fas z
Zah lung</w>
Str and
ende av
Straß burg</w>
A vi
re al
eng ines</w>
Spazi er
Niederlan den</w>
H IV</w>
sicher gestellt</w>
o live</w>
manufac ture</w>
eng aged</w>
Mehr wert
em ark</w>
sel ber</w>
rep utation</w>
high lights</w>
Hab en</w>
Fre und</w>
sec on
bath rooms</w>
S W
Resol ution</w>
P sy
Deb atten</w>
nütz lich</w>
gel esen</w>
it ar
offizi elle</w>
ni k</w>
mei ster</w>
campa ign
appropri ations</w>
Gel der</w>
W ould</w>
Di plom
post p
Liz enz
sch ritt
n ative</w>
Park plätze</w>
Kontin ent</w>
Ferienwoh nung</w>
oper ated</w>
iss ance</w>
ein gestellt</w>
angemess enen</w>
Zyper n</w>
o ft
cre w</w>
Jahrzeh nten</w>
D R
ten eg
mutz ung</w>
Währungs union</w>
P aci
C ab
zi ger</w>
m ere</w>
a ders</w>
Berichterstat ters</w>
Über blick</w>
t ories</w>
mar ine</w>
vari ed</w>
r y
pharm ac
lab or</w>
Kop enhagen</w>
gan z
be hält</w>
Sier ra</w>
í n</w>
fav ou
Min im
Instru ments</w>
H els
Con sequently</w>
zeichn ungen</w>
fund ed</w>
Residen ce</w>
Po d</w>
Con c
vor aus</w>
ri ding</w>
digit alen</w>
S ah
ä le</w>
fähi ge</w>
Comm on</w>
z a
twi ce</w>
stru ggle</w>
mit h</w>
ment ed</w>
lo ser</w>
dafri ka</w>
T ok
F luss</w>
will ing
re ti
dec line</w>
Telekomm unik
T ests</w>
S äu
herr lichen</w>
genau e</w>
inte gra
Wirtschafts krise</w>
Mon tag</w>
rec ording</w>
le m
verwen de</w>
ei gh
sh uttle</w>
propor tion</w>
ad ds</w>
suffici ently</w>
fant as
em pl
thre ats</w>
r ally</w>
integri erten</w>
her auszu
conc ert</w>
über winden</w>
sch reit
lan ger</w>
fro h</w>
Wes entlichen</w>
D s</w>
mo tions</w>
Hoh e</w>
he ads</w>
rechtzei tig</w>
hor se</w>
Sup er</w>
H z</w>
stim mi
Ver mö
D ass</w>
to ward</w>
rel ates</w>
hon our</w>
eh me</w>
Hels ink
refer ring</w>
fa chen</w>
condi tioned</w>
T ür</w>
Perform ance</w>
Besei tigung</w>
wi des
uni form</w>
ch ie
beg ins</w>
Parl amente</w>
Mi et
inten ds</w>
li able</w>
kontrol liert</w>
ergän zt</w>
co des</w>
G A</w>
h n
ess entially</w>
con vic
Län ge</w>
Chil dren</w>
lin ken</w>
effici ently</w>
ver weisen</w>
ver wei
stun ning</w>
in ing
bil d
D rei
c lar
Z ahl
S li
stu ff</w>
re volution</w>
me ets</w>
em bar
cul p
T onnen</w>
Origin al</w>
bewäl tigen</w>
Gali le
mit zu
c as</w>
L ern
po le</w>
ld n</w>
Waff en
Do wnlo
Fot o
unmittel barer</w>
be enden</w>
phenom enon</w>
konkre t</w>
enor me</w>
tre ff
sen ken</w>
gi k</w>
Z erst
Q U
Masch inen
z te</w>
y ard</w>
territ orial</w>
C lin
ak ia</w>
Sch wan
Auf trags
Det ail</w>
de fiz
alco hol</w>
pr ised</w>
ir ischen</w>
inspi red</w>
pra gmati
Col lec
Ander erseits</w>
produc er</w>
adi se</w>
Augen blick</w>
zwei tens</w>
gar age</w>
eigen er</w>
Kamp agne</w>
CD s</w>
zu kommen</w>
war ning</w>
gleich ermaßen</w>
bedeut enden</w>
Mechan ismen</w>
geographi cal</w>
olog isch</w>
Fis her
Expl orer</w>
D ingen</w>
prospec ts</w>
S ens
rec ords</w>
aff ir
P har
lic ation</w>
T us
G o</w>
län dliche</w>
kilomet res</w>
ess el</w>
enn t</w>
am p</w>
In ten
Benutz er
urg ently</w>
ung laub
p as</w>
all eng
acqui red</w>
T P</w>
Lab our</w>
A rea</w>
stärk ere</w>
rech tlich</w>
combin es</w>
Helsink i</w>
ba y</w>
Person en
Kon gres
scienti sts</w>
pres sing</w>
kur s</w>
Sad dam</w>
lei sch
al i</w>
ag ents</w>
Ombud sman</w>
kl asse</w>
Re present
Aut os</w>
exec ution</w>
con fron
Ci vil</w>
be er</w>
Tex t
verk nü
bin den</w>
Spit zen
Mes se
In fo
Dialo gs</w>
Benutz ung</w>
syn chron
ini eren</w>
heal th
are st</w>
Si em
Mex iko</w>
Sm all</w>
typ ischen</w>
lic ens
Beg rün
stam men</w>
pre siden
hol e</w>
C ar</w>
medic ine</w>
aus gaben</w>
anzu bieten</w>
Projek ts</w>
vi era</w>
ol dest</w>
mi stake</w>
ell i</w>
cul tiv
X ML</w>
Appart ements</w>
U L
se ats</w>
neg ativen</w>
incorpor ated</w>
hal tungs
Invest oren</w>
G R
up gra
bo ats</w>
Sa ison</w>
Profession al</w>
Bl ack
A .
sur prise</w>
cust om</w>
confi denti
besu cht</w>
Religi on</w>
M E</w>
Ha ve</w>
tra gt</w>
ro of</w>
occur red</w>
an gel
Jugend lichen</w>
D au
t um</w>
Proz ess
6 0
wirk lichung</w>
sh el
il ater
auffor dern</w>
Todes strafe</w>
Por to</w>
Funk tions
unter bro
pass ing</w>
oper ator</w>
ha z
er ship</w>
caus ing</w>
Medi kam
Ber ge</w>
stric tly</w>
derzei tige</w>
Hol z</w>
ro lle</w>
hi dden</w>
Bas el</w>
gesch o
U sing</w>
construc ted</w>
T op
unter suchen</w>
sor ge</w>
ru pt</w>
Zusammen halt</w>
Pat ent
Pen sion</w>
Last ly</w>
Jer usalem</w>
len ken</w>
highligh ted</w>
conveni ence</w>
war t</w>
resul ted</w>
gül tig</w>
consequ ence</w>
Ober fläche</w>
succe eded</w>
stri k
p ace</w>
lossen heit</w>
ch i</w>
Wachst um
Su ites</w>
Sicherheits politik</w>
fav ourable</w>
Poli zei
Amerikan er</w>
sp it
Ur teil</w>
g on</w>
coher ent</w>
Reser ve</w>
g am
d ollar</w>
Vor be
Ver sorgung</w>
Mon teneg
Imp ul
C ru
An y
3 50</w>
candi dates</w>
am ti
m ouse</w>
hal ts</w>
gra ben</w>
consi ders</w>
30 .</w>
urop ä
in her
Kap ital</w>
bewahr en</w>
Wan del</w>
Spi ri
Ven edi
land s
R enn
N ok
ver fahrens</w>
speciali sts</w>
min er
den jenigen</w>
me als</w>
ur laub</w>
sophistic ated</w>
gh äfen</w>
diplom atic</w>
Sk i</w>
Jes us</w>
er richtet</w>
Qu i
Bo ot
up grade</w>
so il</w>
integr ate</w>
ch rist
betri eb</w>
Te ch</w>
Kandi daten</w>
Bedürf nissen</w>
x i</w>
man ual</w>
er wor
Vertre tern</w>
Umwelt fragen</w>
Bu ff
es c
aff ects</w>
Air lines</w>
lich keits
hy po
Sch reiben</w>
tax pa
c at</w>
S eries</w>
Aus wei
sh aush
erst klassi
bi tions</w>
sha re
pre ad</w>
er zeugen</w>
eng age</w>
St amm
min ing</w>
ge fasst</w>
air ports</w>
a o</w>
vir tually</w>
effek tive</w>
Co operation</w>
sub jec
re form
au ßen</w>
Pf ei
Ni kon</w>
M ass
M .</w>
chec ked</w>
ac compli
quali ties</w>
ol l</w>
kontrol li
er staun
aus el</w>
ann a</w>
sitz en</w>
or ous</w>
entscheiden den</w>
Sonn tag</w>
Fot ogra
in ely</w>
angen ehmen</w>
V IS</w>
gekenn zeichnet</w>
K äufer</w>
vor gestellt</w>
associ ations</w>
J ung
projek t</w>
enti ves</w>
Hä user</w>
gradu ally</w>
versch är
re pair</w>
o red</w>
ha i</w>
chti gen</w>
Saf e</w>
An hör
unentgel tlich</w>
hier zu</w>
an zeigen</w>
Fur ther</w>
E sp
Dü ssel
Dan ish</w>
Ägyp ten</w>
swi t
prison ers</w>
ph a</w>
Acc ess</w>
s ement</w>
radi k
avi ation</w>
20 th</w>
serv ative</w>
pris on</w>
ni ght
O ut</w>
Jo int</w>
Glau ben</w>
re porting</w>
Ver sammlung</w>
tro ck
bein halten</w>
Be achtung</w>
steig ern</w>
gro ss</w>
gen o
cho ices</w>
ch alleng
Ter ms</w>
A y
sti ck</w>
Siem ens</w>
angeneh m</w>
L eh
De partment</w>
spiel er</w>
ex act</w>
Ti cket</w>
zw ingen</w>
war tet</w>
verletz ungen</w>
tro ops</w>
tnis sen</w>
so und
ga stronom
fre e
Flä che</w>
g otten</w>
Th ree</w>
Hinder nisse</w>
n ic
maß geb
environ mentally</w>
Ty p</w>
Sen kung</w>
Ma ke</w>
G AP</w>
über lassen</w>
uls ory</w>
teach ers</w>
d lichkeit</w>
y ards</w>
schaf tlich</w>
re venue</w>
prak tischen</w>
Pot enzial</w>
Li thu
wides pread</w>
müs ste</w>
encoura ged</w>
gr ünen</w>
gel egen
Pflan zen</w>
P ier
st ories</w>
sch mer
aktu ell</w>
S w
res sen</w>
op en
her z
gen z</w>
g oo
Ge winn
Berei ts</w>
explan ation</w>
er hol
Mo sco
Über tragung</w>
ver letzt</w>
the atre</w>
gewi d
cap it
be fasst</w>
ach ed</w>
Oli ven
verw öh
sol di
e ur
at orium</w>
Parlament s
Hin weise</w>
pre chen</w>
particip ating</w>
l len</w>
de fe
bi eren</w>
Chi le</w>
198 8</w>
program men</w>
wech seln</w>
f at</w>
b lau
E din
Constitu tional</w>
isti sch</w>
eventu ell</w>
Un der
ke ys</w>
col ors</w>
Ex cell
ö tz
reich hal
kn app</w>
in hal
Dres den</w>
A part</w>
produk ten</w>
Ver wirklichung</w>
Invest ment</w>
Hö chst
ün d
seek s</w>
W ör
Sou verän
sp ite</w>
kümm ern</w>
g no
Por tal</w>
K ey
Flor ence</w>
pri ze</w>
ei ll
Vo y
Mechan ismus</w>
r l
acci dents</w>
L esen</w>
äl teren</w>
bro ken</w>
Sob ald</w>
S Y
Erleb nis</w>
An sprüche</w>
re aler</w>
Ergeb nissen</w>
sur prised</w>
spezi alisiert</w>
lässi g</w>
be aring</w>
al ongside</w>
Re par
D S</w>
A z
la im
ek ten</w>
N er
Ber echn
pro sec
pres ti
clo ck</w>
Met ro</w>
B ig</w>
net z</w>
komp ati
Tre aties</w>
P un
Mon o
Bu g
An meldung</w>
Tau ch
Mand at</w>
K DE</w>
ä ften</w>
ra dio
erklär te</w>
ad os</w>
Mich el</w>
B and
zieh ung</w>
ra in</w>
ing er
hi lls</w>
ei ved</w>
A ch
insi st</w>
Auth ority</w>
wesent licher</w>
ver sammlung</w>
str and</w>
ob served</w>
geschi ckt</w>
europä isches</w>
com position</w>
K lu
di al</w>
Nachhal tigkeit</w>
th umb
in folge</w>
achiev ement</w>
t ut
geh andelt</w>
dies bezüglich</w>
Gemein schaften</w>
for ts
Prä senz</w>
Nok ia</w>
K lo
p end
ou ts</w>
e a</w>
clari fy</w>
berech net</w>
Finn land</w>
Dat um</w>
B ak
substan ti
ausgewäh lt</w>
AL E</w>
ö l</w>
un ab
sp len
gelan gt</w>
bring ung</w>
att end</w>
fest zustellen</w>
Paci fic</w>
eb o
Mit entschei
territ ori
regel ung</w>
i ds</w>
P M</w>
Kon ver
ut most</w>
co ck
angewand t</w>
z auber
f loo
all ing</w>
ta i
ste chnik</w>
conver gence</w>
o ve</w>
en burg</w>
ak te</w>
ab end</w>
Ver gnü
Par a
Mar t
Aus bildungs
woo den</w>
wech s
pre serve</w>
gewäh lten</w>
Tra vel</w>
Mo dule</w>
ei te</w>
Wider stand</w>
18 0</w>
w ahr</w>
IM F</w>
us w</w>
so eben</w>
emp ty</w>
con vention</w>
Veranstal tungs
B av
vari able</w>
finanzi eren</w>
and t</w>
el and</w>
cr yst
to x
regul ated</w>
jed enfalls</w>
N or</w>
Engine ering</w>
sta yed</w>
renovi ert</w>
s son</w>
d rit
b are
Wirk samkeit</w>
Staats -</w>
per mission</w>
ge führte</w>
contradi c
Besu chen</w>
müs sten</w>
illeg ale</w>
ear ning</w>
boo ked</w>
Räum e</w>
Reguli erung</w>
hom o
str ing</w>
I X</w>
he sit
druck s
Kohäsions politik</w>
Feh l
Entfer nung</w>
Energie effizienz</w>
Ak tions
quot as</w>
g or
speciali zed</w>
pu rely</w>
pl as
P E</w>
Journ alisten</w>
stitu tion</w>
Drit tel</w>
Al lah</w>
vic tory</w>
tour n
sp häre</w>
gir ls</w>
gefähr det</w>
con ferences</w>
mäß ige</w>
harm ful</w>
deck ung</w>
Wohn zimmer</w>
Er richtung</w>
min or</w>
S n
sec ondly</w>
langfris tigen</w>
eh lt</w>
Bur ma</w>
palästinen sischen</w>
op ens</w>
grenz ung</w>
Ver trag
gre en
cap abilities</w>
G T
recogni ze</w>
ad ays</w>
Moderni sierung</w>
Gep äck
wi fe</w>
Spezi alitäten</w>
G ay</w>
F lo
6 ,
tri g
li ger</w>
comp ulsory</w>
R SS</w>
Ar ena</w>
wirk liche</w>
in door</w>
ger egelt</w>
an zunehmen</w>
Cub a</w>
Ac count</w>
ses sions</w>
proble m
1 10</w>
zer ti
Z im
pi lot</w>
j an</w>
as i</w>
Got tes</w>
humanit ären</w>
disp ute</w>
S earch</w>
Mach t
Leip zig</w>
Betre uung</w>
ges etz</w>
Wei l</w>
Vermitt lungs
Le ague</w>
T ruppen</w>
Oper ation</w>
clo sure</w>
Ver fol
willing ness</w>
r is</w>
j k</w>
Str ände</w>
L ü
günsti ge</w>
der ten</w>
Vor stellungen</w>
Außen -</w>
Übri gen</w>
spä t</w>
nut ri
di versi
S L</w>
Innov ationen</w>
ICH T</w>
Entwick ler</w>
g ori
Chair man</w>
tr o</w>
evi dent</w>
I .</w>
u x</w>
th ri
F abri
ster ben</w>
repe at
moder ni
är er</w>
geb lieben</w>
Dokum entation</w>
schedul ed</w>
it ly</w>
boo st</w>
Z ins
K le
E E
italien ische</w>
charak ter
Wirtschafts politik</w>
Verbraucher schutz</w>
ra chten</w>
classi cal</w>
F ig
stä tigkeit</w>
bo und
radi cal</w>
navig ation</w>
ergän zen</w>
e de</w>
t ant</w>
oft mals</w>
communic ate</w>
as signed</w>
U R</w>
Lev el</w>
Betrie be</w>
Fire fox</w>
Auf trag
ver ank
Bü cher</w>
. net</w>
v .</w>
gar anti
An nehm
neu n</w>
lo ading</w>
air lines</w>
Mark en
And alu
0 2
dist ur
contex tual</w>
qu i</w>
percent age</w>
br y
beeinflus sen</w>
An hän
tel ecomm
schwieri ge</w>
li ess
Smo king</w>
setz te</w>
Philosoph ie</w>
fest legen</w>
dis count</w>
Er satz
wh er
may be</w>
läufi g</w>
N on
Aus arbeitung</w>
profession elle</w>
ment ation</w>
initi ally</w>
fu gen</w>
Kar l</w>
gegeb en
an sehen</w>
a issance</w>
Ein en</w>
tik er</w>
s ä
R oll
ö ch
woh n
stat ing</w>
fi a</w>
ar men</w>
Sam stag</w>
ung alo
develop ers</w>
en cies</w>
Produc t</w>
Fundament al</w>
exten ding</w>
Trans fer</w>
C A</w>
1. 5</w>
ht ml</w>
geschlossen en</w>
chair man</w>
Immobili en</w>
Er st
sur pris
is ode</w>
ent liche</w>
ativ ity</w>
Wohn ungen</w>
Ver zeichnis</w>
Premier minister</w>
Di agno
ge liefert</w>
Sat z</w>
D ring
organ ise</w>
cast ing</w>
dump ing</w>
Ri viera</w>
sch were</w>
relation ships</w>
län gst</w>
ig a</w>
bewer ten</w>
Qu ark</w>
sek tors</w>
govern ing</w>
Qu art
Kl ing
Musli m</w>
ven ues</w>
medi eval</w>
cal m</w>
ar ray</w>
amend ed</w>
Mil ch
Je wish</w>
slo w
hop es</w>
funk tion</w>
berühm te</w>
advent ure</w>
Tradi tionen</w>
mer kt</w>
concent ration</w>
char m</w>
Hum an
Ar men
k as
e. g</w>
ari ans</w>
Flu ghäfen</w>
accoun ting</w>
Vi si
schaf tlicher</w>
enfor cement</w>
de a
Sie g</w>
Proto k
Himm el</w>
üb ung</w>
ein stimmi
Weiter entwicklung</w>
Urlau bs
Fil me</w>
well en
smo oth</w>
app elli
Willi am</w>
Mon te</w>
Edin burgh</w>
uri ties</w>
m ische</w>
in tu
Co ck
Caf é</w>
AC H</w>
ich tet</w>
edi ted</w>
ann ehm
Wil d
Bil dern</w>
lay out</w>
Be k
ut ung</w>
pl ötz
is en
au ern</w>
F I</w>
ru m
der ly</w>
audi ence</w>
Gipf el
mi xed</w>
Prä sident
Jed och</w>
kenn t</w>
h ur
Nig eria</w>
ig es</w>
N izza</w>
Doppel zimmer</w>
H U</w>
ul timate</w>
m ary</w>
expen se</w>
an sprechen</w>
Fin de</w>
Bü rokrati
por tra
gi g</w>
L T</w>
belie ved</w>
Sch o
S un</w>
ing redi
Val encia</w>
Spit ze</w>
Grund lagen</w>
se emed</w>
i Pod</w>
hin weg</w>
b ak
Schü ler</w>
schem es</w>
per mit</w>
fo rec
Wiederauf bau</w>
L icht
L CD</w>
Arbeitn ehmern</w>
Re ad</w>
hin zu</w>
ge ograph
Mo sk
implic ations</w>
techni que</w>
afri kanischen</w>
W it
sch reck
po o
d unk
Auf zug</w>
repe ated</w>
pain ting</w>
jun ction</w>
el ev
aufzu bauen</w>
ti ment</w>
sto ck
pro gres
offen bar</w>
ac adem
Mäd chen</w>
K h
qu et</w>
hervorra gend</w>
entfer nen</w>
b lan
Elek tron
Wed n
studi ed</w>
ri k</w>
Rat schlag</w>
viol ation</w>
kon zipi
ber ger</w>
appro aches</w>
wer ks</w>
unter breit
shor tly</w>
o x
negoti ation</w>
Uni ons
Tab ak
Kon junk
super b</w>
s me
ver steht</w>
ret ari
in ischen</w>
enn ess</w>
en vis
multilater al</w>
aus üben</w>
ständi gkeit</w>
ri d
po ker</w>
il le</w>
exp and</w>
be steh
Sek tors</w>
er teilt</w>
c rises</w>
Emp ire</w>
hei ght</w>
dig ungen</w>
Proble mati
tern s</w>
re tain</w>
mehr fach</w>
gä ste</w>
Ver sicherungs
therap eu
K m</w>
Her stell
Fahr er</w>
Emp loyment</w>
Des ktop</w>
car te</w>
alisi erte</w>
moment an</w>
hal t
bus y</w>
Zu ge</w>
V IP</w>
B A
vor liegen</w>
e ches</w>
Sim il
Auf lösung</w>
vor zunehmen</w>
vol les</w>
sta ying</w>
cli cking</w>
T ieren</w>
Ev ent</w>
E tik
le ute</w>
inc entives</w>
enjo ys</w>
P ir
T amp
trans fers</w>
por te</w>
ic als</w>
h ase</w>
bran che</w>
O x
ten der</w>
j um
elimin ate</w>
and in
Ro s
Objek te</w>
L or
ve z</w>
lie b</w>
en ne</w>
25 .</w>
12 .00</w>
gesell schaftlichen</w>
gen eti
W erten</w>
Ten den
k lear
ingredi ents</w>
1 30</w>
pos s
an en</w>
Vorsitz enden</w>
Vic tori
Ser bien</w>
Argum ente</w>
ir on</w>
descri be</w>
ci ón</w>
b ited</w>
Y O
symp ath
mani p
ein gebracht</w>
eg o</w>
G as</w>
cir cu
pro jec
Nordi c</w>
än e</w>
in ter</w>
comple tion</w>
Gesetz es
chap ter</w>
Sam sung</w>
ri ere</w>
b ought</w>
welt weite</w>
m ärkten</w>
an cy</w>
CE O</w>
y iel
se y</w>
moder nis
at t</w>
Ste ph
198 6</w>
regi erung</w>
Fisher ies</w>
Dän emark</w>
nich t
f in</w>
ehemali ge</w>
transl ated</w>
ent stand</w>
Chi c
vor gelegten</w>
rati fication</w>
kan ische</w>
con stitutes</w>
occ o</w>
g ast
di tions</w>
R it
l or
b uses</w>
b la
Unter künfte</w>
Bla ir</w>
Aus sage</w>
st ur
kosten lose</w>
ier ungen</w>
Plen ar
Aus bau</w>
where by</w>
jo in
W all</w>
Or ten</w>
gori th
Z war</w>
occup ation</w>
medic ines</w>
ex posed</w>
ein sei
berich terstat
So w
M ir
unic ation</w>
campaign s</w>
ar er</w>
ab sta
R in
Intern al</w>
Appart ement</w>
tor ate</w>
remark able</w>
di ving</w>
Wer den</w>
In c</w>
win d
w ed
un ilater
an wenden</w>
Wa sch
wäch st</w>
verwen deten</w>
geb ühr
bu g</w>
bab y</w>
meaning fully</w>
lief erung</w>
sü dlichen</w>
S han
P AR
O LAF</w>
Bur g</w>
neighb ours</w>
Sub ject</w>
Pal ma</w>
poo rest</w>
X I</w>
Stra h
Fre e
verhäl tnis</w>
arran ged</w>
ap i
N ICHT</w>
Eff ekt</w>
B illi
sprech end</w>
sou l</w>
geni essen</w>
betra cht</w>
addres sing</w>
Volk spartei</w>
H ein
Dan ach</w>
design er</w>
ch airs</w>
Wissenschaft ler</w>
Mo dul</w>
Min i</w>
Akte ure</w>
ti les</w>
si v</w>
maxim al</w>
W ind</w>
S cre
Camp ing
struk turel
si v
electri cal</w>
Im peri
I WF</w>
S ab
Ak tien
rah men
Slov akia</w>
Sch atten
d ying</w>
aus ser
Prof .</w>
Mosco w</w>
Fre qu
stä tten</w>
ig no
benach tei
J on
fik ationen</w>
exam ination</w>
besei tigen</w>
Lu d
List ings</w>
Annehm lichkeiten</w>
zah lungen</w>
ta gs
qu ellen</w>
in al</w>
frequ ency</w>
UR L</w>
be zü
Kat alog</w>
Galile o</w>
Best re
Schi cks
own ership</w>
ein geleitet</w>
nec essi
bed ürf
L en
res sion</w>
fül lt</w>
Nutz ungs
Leb an
An betracht</w>
he avi
gesch äft</w>
gek ehrt</w>
5 00
ä ter</w>
verring ert</w>
ver bindung</w>
shi p
gemein sames</w>
S K</w>
R eh
Niederlan de</w>
Inter governmental</w>
enti ert</w>
b aus</w>
ut en
sign ing</w>
kontextu ellen</w>
feh len</w>
fal se</w>
UN G</w>
Tim es</w>
H ek
F our
so ever</w>
refer ences</w>
mäß igen</w>
d licher</w>
Con ver
wi g</w>
L ernen</w>
zer o</w>
und ry</w>
land wirtschaftlichen</w>
entdeck st</w>
at ur
as sen
Internet zugang</w>
Exist enz</w>
Be zeichnung</w>
n utzt</w>
gere chte</w>
man chen</w>
fahr ens
du al</w>
Proz eß</w>
F assung</w>
F C</w>
Ehr e</w>
new sletter</w>
aci o</w>
über wachen</w>
un t</w>
lo go</w>
gegeben enfalls</w>
end sten</w>
Re vision</w>
Be sitz</w>
sor ry</w>
ar ts</w>
Den ken</w>
Bestä tigung</w>
Auswei tung</w>
gleich heit</w>
gesu cht</w>
C lau
é n
mom ents</w>
enjo ying</w>
Sch wä
intern e</w>
en to</w>
digit ale</w>
V I</w>
Um strukturi
Gesch en
Ger man
Ab fall
ur gency</w>
eu x</w>
cancell ation</w>
Legi tim
Kooper ations
se as</w>
be cken</w>
auf bauen</w>
Sy mb
Män gel</w>
J ord
ver stehe</w>
mo bil
Schul den</w>
G O</w>
C lass</w>
le tte</w>
grammati cally</w>
certi fied</w>
um gehen</w>
dat eien</w>
contex tually</w>
Vorder grund</w>
legitim acy</w>
S ection</w>
Demok raten</w>
hinzu fugen</w>
gewid met</w>
ref used</w>
pa ths</w>
manag ers</w>
Zw ischen</w>
W and
Ein er</w>
grammati sch</w>
Souverän ität</w>
Mar co</w>
7 ,
stan zen</w>
näch ster</w>
kontextu ell</w>
er hoben</w>
enti eren</w>
desi rable</w>
finan ced</w>
bo asts</w>
Lt d</w>
Flug haf
Br ut
woh nern</w>
ten den
reagi ert</w>
ne o
keines wegs</w>
be antwortet</w>
an ke</w>
V al</w>
u ph
si x
defin ieren</w>
plan en</w>
ember au
K ie
H of</w>
tra ined</w>
ine a</w>
Venedi g</w>
Spei cher
O t
Kon vent</w>
Fil ter</w>
än der</w>
sozi al
pre ferred</w>
Wedn esday</w>
Über gang</w>
mo reover</w>
found ations</w>
aff ili
Schlussel wort</w>
Schlussel phrase</w>
F ans</w>
tsch ech
s ein
residen tial</w>
per su
is tik</w>
aufge zahlt</w>
An onymous</w>
mitgli ed</w>
lei ter</w>
Gemein schaft
GU E</w>
wa i
escap e</w>
Sol daten</w>
Krieg es</w>
K ä
An pass
seg ment</w>
opp on
gi ft</w>
fo ssi
be arbeiten</w>
ruhi ge</w>
St ri
m elt</w>
Pa y
vent ure</w>
sa al</w>
proz eß</w>
j ing</w>
gab en
be unruhi
ac o</w>
Ver ab
Erwachsen e</w>
D amp
chine sische</w>
Gre en
Gi bt</w>
profession ellen</w>
lo aded</w>
l ings</w>
hinzu gefügt</w>
h ence</w>
Cop yright</w>
üb lichen</w>
zu gs
parlament arischen</w>
li chte</w>
gi ous</w>
e des</w>
deser ves</w>
To gether</w>
O EC
qu est</w>
p o</w>
heraus ra
fe wer</w>
N ation</w>
ha ir
fol der</w>
sol ved</w>
hochwer tigen</w>
secon dary</w>
arbit r
Lei t
ök ologischen</w>
pre fer
P hil
timet able</w>
t .
regi onen</w>
p lug</w>
N ehmen</w>
Mini stry</w>
Klas si
tn ess</w>
si zes</w>
glich keit</w>
consider ations</w>
coast al</w>
Werk zeug</w>
N et</w>
instru mente</w>
fascin ating</w>
at ers</w>
J an</w>
IN E</w>
öst lichen</w>
sta in
her stellen</w>
hel l</w>
Rechn er</w>
C ô
B I
journ alists</w>
er a
Ru f</w>
zeich nete</w>
parti al</w>
is se</w>
gen es</w>
ch ts
all o</w>
Spazier gang</w>
Comm erce</w>
Col om
ob serve</w>
So wohl</w>
Le ft</w>
C alifor
einig t</w>
betri ebe</w>
u xe</w>
in adequate</w>
ver su
Ph ysi
198 7</w>
n ings</w>
e able</w>
Pra g</w>
Kaff e
For ts
Düssel dorf</w>
3 1.</w>
thre sh
günsti gen</w>
gewöhn lich</w>
besonder es</w>
U M
Publik um</w>
Premi um</w>
th um
dest o</w>
str en
europ a
Universi täten</w>
St ur
Ma in
wür digen</w>
ver li
guarante eing</w>
fre ier</w>
ri x</w>
innov ativen</w>
tex tile</w>
cro w
Stabili täts
G B
Ex peri
C r
ver öffentlichen</w>
erst es</w>
Ab lauf</w>
trav ellers</w>
deb ating</w>
Rei ch
Kre ativ
Ant oni
t ative</w>
splen did</w>
genu inely</w>
co decision</w>
c it
T ren
J .</w>
Aspek ten</w>
hi elten</w>
bir d</w>
L om
princip al</w>
archit ek
with draw</w>
mut lich</w>
listen ing</w>
fin dung</w>
e ters</w>
verbreit et</w>
repeat edly</w>
dramati c</w>
dep lo
comm it</w>
an gehen</w>
Geb ühren</w>
Ab teilung</w>
t dem</w>
es o</w>
betei ligten</w>
Vereinig te</w>
Ge wäs
sichti g</w>
character istic</w>
Ex port</w>
Chi ef</w>
te x</w>
s é</w>
eleg ante</w>
be gun</w>
zw öl
Hist ory</w>
Gre ens</w>
G P</w>
u zzi</w>
depen dence</w>
an gle</w>
OEC D</w>
Er reichung</w>
Aut or</w>
ge sichert</w>
expres s
fi re
erk unden</w>
d s
O S
mittel alter
Sach ver
vol lem</w>
berich tet</w>
Sek unden</w>
stra tions</w>
bewu ßt</w>
Deutsch lands</w>
än ge</w>
thumb nail</w>
ho p</w>
Y outh</w>
198 5</w>
thor ough</w>
sub sequently</w>
lo gic</w>
gu es</w>
Wäh ler</w>
Wel th
vi rus</w>
gener ell</w>
P atten</w>
voc ational</w>
ad es
a w
IB M</w>
Erfol ge</w>
Entsch lossenheit</w>
En d</w>
E th
un necessary</w>
olog ischer</w>
av a</w>
Kompet enzen</w>
Gen au
wel le</w>
intensi v</w>
du p
represent ing</w>
re v
hot el
fore most</w>
In genie
rie b</w>
k es
as set</w>
re ment</w>
höch st</w>
compar able</w>
Mor occo</w>
L ohn
Ein satz
under lying</w>
su ited</w>
men tierung</w>
la st
bevölk erung</w>
Verk aufs
lo ses</w>
ge statten</w>
feat uring</w>
econom ically</w>
cop e</w>
bl ind</w>
aus gehen</w>
Monteneg ro</w>
Mo dern</w>
Kon su
umfas sen</w>
ro ut
read s</w>
hunder t</w>
gegen über
Rati fizierung</w>
R un
Kön nen</w>
Geg ner</w>
Ein es</w>
möglich keit</w>
exis tieren</w>
d oppel
at emberau
Pan oram
Fo ot
Br ücke</w>
Ar ts</w>
krä ften</w>
k u</w>
ag o
K au
Europ a
exp enses</w>
bü rokrati
Mo dus</w>
Grupp en
lö schen</w>
lo sing</w>
cook ies</w>
ser ie</w>
op ho
offizi ell</w>
exp anded</w>
Techn ologi
Sol ana</w>
Ex ternal</w>
strö m</w>
n ehme</w>
in spiri
gerech t
cont am
Elec tron
erle b
adul t</w>
Per f
Lux us</w>
I R</w>
un zäh
spe eches</w>
exam ined</w>
Ins gesamt</w>
E valu
elektron ische</w>
Slowak ei</w>
S ports</w>
24 .</w>
19 45</w>
tä tigen</w>
schrif tliche</w>
s ample</w>
m äh
erh eben</w>
comp ete</w>
att ack
zu fügen</w>
purch ased</w>
grenzüberschreit enden</w>
at om
Anmerk ungen</w>
toler ance</w>
sch läge</w>
her e
günsti g</w>
gi ge</w>
genau er</w>
enor men</w>
Ratsvor sitz
K lin
п о
t ung
respec ts</w>
ent ary</w>
b eln</w>
Al ps</w>
zi pl
tsp rin
sac ri
r ent
import antly</w>
größ ter</w>
Kop f
Gen au</w>
Be kann
kon sequent</w>
Zei tsch
Argum ent</w>
pro fes
pak et</w>
aut umn</w>
Verbrau chern</w>
Stell en
Aus rüstung</w>
inv esti
inform al</w>
d än
f at
effizi enter</w>
Sch alt
K el
He ads</w>
Energi equ
li sche</w>
Komment are</w>
miet ung</w>
inten tions</w>
fre sh
bran ch</w>
an ger
Franc isco</w>
Bet ro
slo pes</w>
re au</w>
Te am
Sch il
Cor poration</w>
wick lung</w>
ou tlin
n es</w>
condem n</w>
con stra
EN T
Aus blick</w>
stri ke</w>
schwe dischen</w>
inn ere</w>
G ame</w>
v ary</w>
in ery</w>
fortun ate</w>
Sever al</w>
For d</w>
A tt
ñ a</w>
vertrau t</w>
li vely</w>
do g</w>
big ger</w>
siden tin</w>
destro y</w>
Fl ori
wid th</w>
w el</w>
co very</w>
Garan tien</w>
v acc
techn isch</w>
Vor rang</w>
zwei ter</w>
terri ble</w>
sm art</w>
hilfre ich</w>
eill ance</w>
Rechn ungs
wid men</w>
motor way</w>
gefähr lich</w>
Schul z</w>
Ru ß
Nichtraucher zimmer</w>
da li
Vil lage</w>
Se ele</w>
L oo
Heim at</w>
H ör
Er schein
Durch setzung</w>
Kon vention</w>
Kommissionsprä sident</w>
u um</w>
sugge sts</w>
W ater</w>
St au
Lehr er</w>
D av
hö her
eth ical</w>
W en
R y
Latein amerika</w>
E del
Behör de</w>
stärk sten</w>
po sts</w>
Eigent ü
verur teilen</w>
op tional</w>
gr and</w>
des ktop</w>
del ete</w>
co o
Zwei ten</w>
schwer wie
pap ers</w>
Mar ok
sen der</w>
op enness</w>
F ür
Ba den</w>
reib ungen</w>
gemü tliche</w>
Ash ton</w>
wär tige</w>
medi terran
inst antly</w>
ge ous</w>
Vis a</w>
Design er</w>
pen sions</w>
join tly</w>
Pflan zen
Clu bs</w>
C l
zu geben</w>
ter a</w>
er wiesen</w>
angeb ote</w>
Stor age</w>
Sich t
th otel</w>
auslän dischen</w>
ver tra
Re al
Bos nia</w>
integri erte</w>
fri end
com posed</w>
Vene zu
Qu ell
P ast
E n</w>
tig keits
th es</w>
olog ne</w>
aus wählen</w>
Or der</w>
Haushal ts</w>
compla ints</w>
bewe gt</w>
bei behalten</w>
be wegung</w>
ba g</w>
am ending</w>
Hä fen</w>
dies bezü
spec trum</w>
excur sions</w>
er w
de voted</w>
ann i</w>
accu racy</w>
W .</w>
R ennen</w>
La den</w>
con i</w>
k unden</w>
ho hes</w>
haf ter</w>
ge fühl</w>
anzu wenden</w>
er werben</w>
ent h</w>
t onn
S por
tri bute</w>
frü h</w>
fif th</w>
b its</w>
kosten losen</w>
den d</w>
Ti ckets</w>
Pro gram</w>
Origin al
Li brary</w>
Be vor</w>
Aus be
tw in</w>
mechan ical</w>
fahr zeuge</w>
er ische</w>
d den
certi fication</w>
Klar heit</w>
F leisch</w>
x y</w>
tra ktionen</w>
En ts
Ber gen</w>
Min er
а н
stan des</w>
juris diction</w>
bedro ht</w>
al leg
Dre i</w>
altern atives</w>
Mi gration</w>
Ar ti
wh at
publi sh</w>
klein ere</w>
ener y</w>
commer ce</w>
arran gement</w>
Intel li
Her kunfts
vie wing</w>
sp anische</w>
komm ens
auth ors</w>
anträ ge</w>
Re gen
Langu age</w>
G lo
re z</w>
f ter</w>
ci o</w>
access ories</w>
Up dates</w>
Ha iti</w>
resi dents</w>
I deal</w>
tra gic</w>
ministr ator</w>
B ER
dest inations</w>
au p
G on
Frau en
ch at</w>
cal endar</w>
Bestell ungen</w>
whe el</w>
W ä
er stens</w>
ali se</w>
C in
Aus richtung</w>
AL DE</w>
20 15</w>
st ently</w>
sp ots</w>
simultane ously</w>
er teilen</w>
Komple tt
wei chen</w>
ver mittelt</w>
ga u</w>
Un s</w>
L eben
um es</w>
part ments</w>
manufac tured</w>
gehöri ge</w>
ex isti
an ten
sun ny</w>
sp ot
Pal ette</w>
Forts etzung</w>
n esses</w>
e ure</w>
be ach
W eine</w>
ver tritt</w>
ra cle</w>
ge treten</w>
appar ent</w>
accord ingly</w>
In flation</w>
k le
consi sten
Ter rori
EI B</w>
politi ken</w>
clar ity</w>
Ereig nis</w>
surv ey</w>
Men ü
inn eren</w>
gesti egen</w>
comm odi
ac tor</w>
spor t
ri ert</w>
Statisti ken</w>
Mal ay
Chanc en
Ak tivi
Äu ßer
zei gte</w>
sti l</w>
inspec tion</w>
H alle</w>
Gemein den</w>
ide ally</w>
beabsichti gt</w>
al uminium</w>
Sk ri
rec ru
for gotten</w>
chem ische</w>
Ur sache</w>
tic a</w>
posi tion
meas urement</w>
her bei
fl uss
f ell</w>
L ager</w>
р е
zus agen</w>
pos ure</w>
ori entation</w>
modi fy</w>
k et</w>
a wa
Mas sage</w>
H P</w>
Austra lien</w>
Aus sagen</w>
arab ischen</w>
all ed</w>
Wahr ung</w>
troub le</w>
ge ehrte</w>
Zu rich</w>
Mit tw
Inde x</w>
ü stet</w>
ari b
K G</w>
re publik</w>
g on
Bet reiber</w>
unterschied licher</w>
trans action</w>
Plätz e</w>
Kenn tnisse</w>
pre served</w>
authori zed</w>
Ko re
zah ler</w>
S ark
trage dy</w>
pa in</w>
er arbeitet</w>
Werk zeuge</w>
NE T</w>
Gro wth</w>
Ferienwoh nungen</w>
Blo ck
ä der</w>
sol ch</w>
l assung</w>
collap se</w>
answer ed</w>
k ungen</w>
cei ling</w>
Problemati k</w>
lo se
fal sche</w>
be fin
W ett
St an
Netz e</w>
LE D</w>
Bet t</w>
B S</w>
um gehend</w>
Liefer anten</w>
For ce</w>
tre as
re vised</w>
Sou thern</w>
Fre ed
Fest platte</w>
Fel der</w>
C H</w>
ähn lichen</w>
per pet
Cô te</w>
&apos; d</w>
so fa</w>
fall ing</w>
bre ath
Protok olls</w>
F li
öffent licher</w>
lan gem</w>
be weisen</w>
Do cum
trans fer
si st
nis ses</w>
geb nisse</w>
dru ckt</w>
Liber alen</w>
se bene</w>
is a</w>
af raid</w>
Palestini ans</w>
D .</w>
statt gefunden</w>
sel ec
schutz es</w>
sc and
promot ed</w>
fin ds</w>
e urs</w>
con s</w>
Kenn zeichnung</w>
Govern ance</w>
termin al</w>
gew ach
Z wan
Schicks al</w>
finanzi erung</w>
Wich tigkeit</w>
Mensch heit</w>
sa ke</w>
s culp
her ausge
anzu passen</w>
afford able</w>
Ver län
L ot
J ag
In halten</w>
H ände</w>
ver la
lo ans</w>
in sul
bu l</w>
ah e</w>
SD L</w>
C ross</w>
what soever</w>
ster ing</w>
re ci
funktion ier
express ly</w>
Entwicklungs hilfe</w>
C lar
Bet rach
pharmac eu
Vermö gens
Nach druck</w>
K eine</w>
197 0</w>
überra scht</w>
st at</w>
reib ungs
en .
viol ent</w>
remo val</w>
ish ment</w>
gebäu de</w>
zz o</w>
gel egenen</w>
flexi bel</w>
continu ously</w>
behaup tet</w>
a gem
Ge sicht</w>
l ation</w>
di eren</w>
bewer tet</w>
assur ance</w>
aff ecting</w>
Gar ten
rec all</w>
oni al</w>
Ver heu
Gesetz geb
Califor nia</w>
hon est</w>
gen ös
ev o</w>
con version</w>
basi cally</w>
Christ op
trau m
komb iniert</w>
geschnit ten</w>
en cryp
aktu alisiert</w>
Mil an</w>
For mul
F ang
ES S</w>
sp annen</w>
no body</w>
li est</w>
befür worten</w>
a sis</w>
Finn ish</w>
F R
zu stande</w>
to wer</w>
bli cken</w>
E .
pel ine</w>
harmon isi
fa ire</w>
euro zone</w>
enthusi as
chest ra</w>
aff ord</w>
Rei cht
Mo de</w>
m on</w>
arbei teten</w>
Wi reless</w>
Köl n</w>
op pose</w>
elec toral</w>
bi c</w>
at on</w>
Ira q
9 001</w>
inclu sive</w>
L ap
with draw
mi ß
as er</w>
T ali
St rom</w>
Auf hebung</w>
ausgestat tete</w>
Rein igung</w>
person en</w>
k new</w>
de v
Vor gehensweise</w>
publi shing</w>
le i</w>
klär t</w>
Volks wirtschaften</w>
dead line</w>
Sü do
Sch reib
S et
Par li
Mac ed
Ad d</w>
t one</w>
ger ingen</w>
b and
Thir d</w>
Sch ö
K ein</w>
Coun try</w>
klär en</w>
install ations</w>
de cl
Com ple
vor liegt</w>
stopp ed</w>
hol der</w>
Def ence</w>
sa d</w>
i ran
Ju gosla
umfangreich en</w>
ju dge</w>
Ziel setzungen</w>
Verheu gen</w>
Olymp ic</w>
In kraft
Bewus stsein</w>
ven tive</w>
pro gressive</w>
ess ing</w>
doub ts</w>
T M</w>
Sei ten
c ommission
b ac
atten ded</w>
Zuver lässigkeit</w>
S av
Hand y</w>
Dynam ik</w>
ständi ger</w>
stres sed</w>
Wün schen</w>
S ac
respek tieren</w>
kur se</w>
e ve</w>
T NG</w>
St ahl
Dro gen</w>
fer tigung</w>
bu ying</w>
Partner ship</w>
Bet racht</w>
Bau ern
architec tural</w>
Weiter hin</w>
Einzel heiten</w>
woh nt</w>
monum ents</w>
gi pf
cen ters</w>
Kür ze</w>
transi tional</w>
ograf ie</w>
ek tion</w>
Zeit plan</w>
Po ker
Ori enti
G oth
typ isch</w>
li v
komple xe</w>
health care</w>
g are
foc uses</w>
ch ur
all a</w>
Chancen gleichheit</w>
präz ise</w>
komple xen</w>
erheb lichen</w>
di en</w>
cho se</w>
C ologne</w>
res cu
plan e</w>
ens hip</w>
endgül tige</w>
Trag ö
Sau di</w>
O therwise</w>
M ischung</w>
Lebensmittel sicherheit</w>
uneingesch ränkt</w>
sa iling</w>
bu cht</w>
Wahr schein
trop ical</w>
le gen
gemü tlichen</w>
Vor red
d ing
belon gs</w>
Stei gerung</w>
Im mer</w>
Flü cht
region aler</w>
p ack</w>
liter ature</w>
br ands</w>
Tamp ere</w>
Ent schä
Cont act</w>
C 4</w>
integri ty</w>
I A
Besch ränkungen</w>
Altern ativen</w>
österreich ischen</w>
v ine
rela xed</w>
clo sing</w>
W ord
Inte gri
Di esen</w>
leben den</w>
ec ks</w>
dimen sions</w>
der selben</w>
b onds</w>
3 00
visi ts</w>
sichti gen</w>
quanti ty</w>
UN D</w>
M ar</w>
Dan iel</w>
sch wan
re lief</w>
lei hen</w>
ing ent</w>
confi g
terra sse</w>
ol i</w>
gi eren</w>
del ays</w>
aus wirken</w>
Russ lands</w>
Buch stab
ref use</w>
begeg nen</w>
Zu cker
Bri dge</w>
wach sende</w>
uni vers
jähr lichen</w>
g ingen</w>
Er krank
vi able</w>
rl pool</w>
rene wed</w>
der art</w>
ab ul
Ge bir
be ef</w>
Ver sand
So und
La y
verur sachen</w>
telef on
peti tion</w>
mo vies</w>
id yl
fest yle</w>
ar tik
angekün digt</w>
Off ic
Fit ness</w>
18 th</w>
w unden</w>
sovereig n</w>
ri fft</w>
nied rig
k it</w>
gran ting</w>
G il
B rau
mark ing</w>
kön ne</w>
es en
ar te</w>
Schul den
Represent ative</w>
Pri ze</w>
vor sieht</w>
erwäh nten</w>
ar rest</w>
Tie f
Li by
Er arbeitung</w>
1 40</w>
ten sion</w>
tel n</w>
tatsäch lichen</w>
T uni
Sy ria</w>
wir ft</w>
ob servation</w>
erforder liche</w>
Zimmer beschreibung</w>
Off enheit</w>
I stan
re servi
medizin ische</w>
M s</w>
form ular</w>
bro ader</w>
ar range</w>
Über nahme</w>
ru fe</w>
St rei
offici ally</w>
decl are</w>
ab gesehen</w>
Ver fahrens</w>
Fahr zeug</w>
wi en</w>
ri tz
plat ten</w>
ne x</w>
mit ting</w>
g in</w>
ab stra
P um
Her kunft</w>
F isch</w>
F OR</w>
Autom ati
soldi ers</w>
occup ied</w>
drän gt</w>
angen ommenen</w>
spür en</w>
es a</w>
conver t</w>
General sekre
Er öffnung</w>
zi o</w>
re y</w>
2 2.</w>
st ops</w>
ma il
kol lek
gem essen</w>
fel der</w>
erleich tert</w>
adem ie</w>
Frei zeit
so genannte</w>
geeig neten</w>
Georgi en</w>
Föder ation</w>
forts etzen</w>
te stens</w>
kü ste</w>
is sen</w>
eleg anten</w>
Ex port
ver e</w>
t -</w>
prosp ect</w>
privileg ed</w>
foc using</w>
f ungen</w>
Al ters
H änden</w>
po sted</w>
getrenn t</w>
Par t</w>
Il lu
tr in
te stelle</w>
ge startet</w>
exhi bitions</w>
dam ali
Welt krieg</w>
Emp fang</w>
stand ardi
organ ize</w>
form uliert</w>
einig es</w>
du ration</w>
distinc tion</w>
ar z
agem ent
ag nen</w>
Ge sichtsp
Bau m
Aus nahmen</w>
y l</w>
ta kul
neighbour hood</w>
musi kali
mm ing
ar gue</w>
Ver fahrens
Fremden verkehr</w>
wunder schöne</w>
ver wiesen</w>
fur b
deut liche</w>
Ker nel</w>
sign als</w>
adv ise</w>
Wettbewer bs</w>
Nach mittag</w>
Gu te</w>
Bu reau</w>
Г ј
so for
sche dule</w>
kur zer</w>
e fully</w>
Rech en
A pa
nö tigen</w>
da vor</w>
cat alogue</w>
H OT
no s</w>
Bet rifft</w>
über mitteln</w>
th row</w>
el low</w>
de z</w>
Gewin n</w>
Ad van
preci sion</w>
er arbeiten</w>
autom otive</w>
Zerst örung</w>
ko rea</w>
deser ve</w>
beg ünsti
I bi
Auff or
zentr aler</w>
thor ou
re alisiert</w>
ot a</w>
her um</w>
frei ght</w>
cam eras</w>
Ab bau</w>
Sch wellen
S us
Fisch ler</w>
fasz ini
S ex
Ar c
ter rori
sch ür
P ed
I ON
ub s</w>
territ ories</w>
resear chers</w>
public ations</w>
niedri gen</w>
vertrau en</w>
Ma ils</w>
wh enever</w>
op eri
identi fication</w>
be zeichnen</w>
Rich ter</w>
Bau ern</w>
verbin dungen</w>
surv eillance</w>
er vice</w>
Inn er
z immern</w>
newsp aper</w>
edi tor</w>
Ver ordnungen</w>
NG L</w>
Minder heit</w>
E asy</w>
3 rd</w>
mo tivi
Sü dafrika</w>
G las</w>
Bon n</w>
sp lit</w>
pat ri
pas sion</w>
begrün det</w>
Land wirtschafts
ssi er</w>
in sp
fair en</w>
an erkennen</w>
ambi gu
U K
P ER
Haf en
eman den</w>
certific ate</w>
achiev ements</w>
M illion</w>
Voy ager</w>
Bei jing</w>
23 .</w>
techn ischer</w>
sta b</w>
ac t
2. 5</w>
zu gestimmt</w>
verz ichten</w>
gerich t
geb ühren</w>
Kreu z
CA D</w>
Bos nien</w>
ra tional</w>
presti gious</w>
ic ars</w>
M S
Dou ble</w>
é r
sch wä
hi re</w>
emp fängt</w>
angeneh me</w>
Ru ral</w>
Objek t</w>
the ater</w>
p a</w>
le ger</w>
Bon us</w>
Über sicht</w>
ver arbeitet</w>
tra ins</w>
moder ner</w>
unterbro chen</w>
interess anten</w>
funk tionen</w>
f lich</w>
Sol utions</w>
E t
pres sed</w>
min es</w>
c rop
Wik icars</w>
Ver sprechen</w>
prepar ations</w>
oblig ator
mis sed</w>
i sten</w>
explic itly</w>
du stri
V inc
Slo wen
popul ations</w>
ge habt</w>
cancell ed</w>
B ah
sens or</w>
preci ous</w>
ed o</w>
L ich
unk no
koh är
kap az
frequ ent</w>
Schn ell
Sch le
3 60</w>
spiel te</w>
post al</w>
mechanis men</w>
li on</w>
Ministerprä sident</w>
pro menade</w>
k et
Koh len
Dokum ent
inter active</w>
fu hren</w>
erstre ckt</w>
credi ble</w>
concer ts</w>
Steu er</w>
so s</w>
gen te</w>
pat tern</w>
mis es</w>
bene ficial</w>
az zo</w>
Wieder herstellung</w>
н а
taus end</w>
To wer</w>
T aten</w>
1, 5</w>
gen ous</w>
geb illi
behavi or</w>
Kar l
ursprün gliche</w>
prin zip</w>
li min
indi cat
Zerti fik
Privat sphäre</w>
K OM</w>
H our</w>
zi one</w>
under take</w>
consul tan
V eg
mach inery</w>
kö mm
hör t</w>
gu il
ü ssen</w>
tsp rech
necessi ty</w>
gemein samer</w>
fl ying</w>
0 5
reve aled</w>
religi ösen</w>
ot er</w>
eindeu tige</w>
Tari fa</w>
In tel</w>
Hän dler</w>
un usual</w>
tu s</w>
tel s</w>
d res
Gro ßen</w>
plan ung</w>
on er</w>
ion ship</w>
ci ally</w>
verab schieden</w>
o date</w>
herr schen</w>
Der zeit</w>
öh ne</w>
z i</w>
verein t</w>
ränk te</w>
dri ves</w>
ign ore</w>
geh e</w>
fac to</w>
ev en
r and
hy gi
enz a</w>
arbei ter</w>
ali t
adjust ment</w>
Pre sidents</w>
Li b
wel s</w>
mei ster
deb ated</w>
S ER
Isra eli
Bürokrati e</w>
neut ral</w>
land schaft</w>
sand y</w>
pp s</w>
Formu lierung</w>
Aus grenzung</w>
reflec tion</w>
premi um</w>
per sec
mark tes</w>
zw eck
ver mutlich</w>
proxim ity</w>
ens er</w>
diesel ben</w>
auf geführt</w>
Risi ko
Every thing</w>
Er halt</w>
un te
genie ßt</w>
deter i
archi ve</w>
absur d</w>
Rau ms</w>
s w
red und
n ur
kri terien</w>
fi ehlt</w>
eigent liche</w>
com o</w>
rele ases</w>
ne m</w>
einger ei
cy cles</w>
beruf lichen</w>
an ges
Rei ch</w>
Lo gik</w>
par ameter</w>
jeg licher</w>
co al</w>
auf nahme</w>
stütz t</w>
schen ken</w>
er öffnen</w>
er weisen</w>
el det</w>
Unter drück
Um stände</w>
The orie</w>
Kur z</w>
zu gelassen</w>
v als</w>
green house</w>
emplo yers</w>
W W
zur zeit</w>
rul ing</w>
rati fied</w>
kri tischen</w>
ehr en</w>
diesel be</w>
al ar
Industri al</w>
Ausbe utung</w>
197 9</w>
zeich neten</w>
um so</w>
lei chte</w>
komfort ablen</w>
Sel ect</w>
.. ..
tau chen</w>
medizin ischen</w>
fit ted</w>
be stände</w>
M ül
In clu
toi let</w>
ot t
gel ernt</w>
susp ended</w>
civi lian</w>
an passen</w>
Re gar
typ ically</w>
thi op
prev ented</w>
pl ätzen</w>
fe edback</w>
Eff ek
ti s
mechan ismus</w>
gesch mack
d äm
Mittw och</w>
wand els</w>
wahr e</w>
ger inger</w>
S ri</w>
ver arbeitung</w>
unkno wn</w>
institu te</w>
drän gen</w>
cer em
Stra sse</w>
Pe ters
Ka bel</w>
klim ati
Re f</w>
G ut</w>
S MS</w>
Millenni um</w>
vermie den</w>
gewünsch te</w>
Exper im
un dern</w>
th alten</w>
promis ing</w>
metho de</w>
D um
ökonom ische</w>
st ak
gegensei tigen</w>
berühr t</w>
äum e</w>
re fle
op t</w>
V O
Begrün dung</w>
w öch
sicher er</w>
Schlu ß
[...]
