{"[PAD]":0,"[SOS]":1,"[EOS]":2,"[UNK]":3,"[MASK]":4,"!":5,"#":6,"$":7,"%":8,"&":9,"(":10,")":11,"*":12,"+":13,",":14,"-":15,".":16,"/":17,"0":18,"1":19,"2":20,"3":21,"4":22,"5":23,"6":24,"7":25,"8":26,"9":27,":":28,";":29,"=":30,"?":31,"@":32,"A":33,"B":34,"C":35,"D":36,"E":37,"F":38,"G":39,"H":40,"I":41,"J":42,"K":43,"L":44,"M":45,"N":46,"O":47,"P":48,"Q":49,"R":50,"S":51,"T":52,"U":53,"V":54,"W":55,"X":56,"Y":57,"Z":58,"\\":59,"^":60,"_":61,"a":62,"b":63,"c":64,"d":65,"e":66,"f":67,"g":68,"h":69,"i":70,"j":71,"k":72,"l":73,"m":74,"n":75,"o":76,"p":77,"q":78,"r":79,"s":80,"t":81,"u":82,"v":83,"w":84,"x":85,"y":86,"z":87,"{":88,"}":89,"~":90,"¡":91,"¢":92,"£":93,"¤":94,"¥":95,"¦":96,"§":97,"¨":98,"©":99,"ª":100,"¬":101,"®":102,"¯":103,"°":104,"±":105,"²":106,"³":107,"µ":108,"¶":109,"·":110,"¸":111,"¹":112,"º":113,"¼":114,"½":115,"¾":116,"¿":117,"Æ":118,"Ð":119,"×":120,"Ø":121,"Þ":122,"ß":123,"æ":124,"ð":125,"÷":126,"ø":127,"þ":128,"Đ":129,"đ":130,"Ħ":131,"ħ":132,"ı":133,"ĸ":134,"Ŀ":135,"Ł":136,"ł":137,"ŋ":138,"Œ":139,"œ":140,"ſ":141,"Ɔ":142,"ƒ":143,"Ȼ":144,"ɐ":145,"ɑ":146,"ɒ":147,"ɔ":148,"ə":149,"ɚ":150,"ɛ":151,"ɜ":152,"ɨ":153,"ɪ":154,"ɫ":155,"ɴ":156,"ɵ":157,"ɹ":158,"ɾ":159,"ʀ":160,"ʃ":161,"ʊ":162,"ʌ":163,"ʐ":164,"ʒ":165,"ʔ":166,"ʚ":167,"ʤ":168,"ʦ":169,"ʲ":170,"ʺ":171,"ʻ":172,"ʼ":173,"ʾ":174,"ʿ":175,"ˆ":176,"ˇ":177,"ˈ":178,"ˌ":179,"ː":180,"˘":181,"˙":182,"˚":183,"˛":184,"˜":185,"˝":186,"ˡ":187,"΄":188,"Α":189,"Β":190,"Γ":191,"Δ":192,"Ε":193,"Ζ":194,"Η":195,"Θ":196,"Ι":197,"Κ":198,"Λ":199,"Μ":200,"Ν":201,"Ο":202,"Π":203,"Ρ":204,"Σ":205,"Τ":206,"Υ":207,"Φ":208,"Χ":209,"Ω":210,"α":211,"β":212,"γ":213,"δ":214,"ε":215,"ζ":216,"η":217,"θ":218,"ι":219,"κ":220,"λ":221,"μ":222,"ν":223,"ξ":224,"ο":225,"π":226,"ρ":227,"ς":228,"σ":229,"τ":230,"υ":231,"φ":232,"χ":233,"ψ":234,"ω":235,"Ђ":236,"Є":237,"Ѕ":238,"І":239,"Ј":240,"Љ":241,"Њ":242,"Ћ":243,"Џ":244,"А":245,"Б":246,"В":247,"Г":248,"Д":249,"Е":250,"Ж":251,"З":252,"И":253,"К":254,"Л":255,"М":256,"Н":257,"О":258,"П":259,"Р":260,"С":261,"Т":262,"У":263,"Ф":264,"Х":265,"Ц":266,"Ч":267,"Ш":268,"Щ":269,"Ъ":270,"Ы":271,"Ь":272,"Э":273,"Ю":274,"Я":275,"а":276,"б":277,"в":278,"г":279,"д":280,"е":281,"ж":282,"з":283,"и":284,"к":285,"л":286,"м":287,"н":288,"о":289,"п":290,"р":291,"с":292,"т":293,"у":294,"ф":295,"х":296,"ц":297,"ч":298,"ш":299,"щ":300,"ъ":301,"ы":302,"ь":303,"э":304,"ю":305,"я":306,"ђ":307,"є":308,"ѕ":309,"і":310,"ј":311,"љ":312,"њ":313,"ћ":314,"џ":315,"Ѳ":316,"ѳ":317,"Ґ":318,"ґ":319,"ғ":320,"ҙ":321,"қ":322,"Ҡ":323,"ҡ":324,"ң":325,"ү":326,"ұ":327,"һ":328,"ә":329,"ө":330,"א":331,"ב":332,"ג":333,"ד":334,"ה":335,"ו":336,"ז":337,"ח":338,"ט":339,"י":340,"כ":341,"ל":342,"ם":343,"מ":344,"ן":345,"נ":346,"ס":347,"ע":348,"פ":349,"ץ":350,"צ":351,"ק":352,"ר":353,"ש":354,"ת":355,"،":356,"؛":357,"ء":358,"ا":359,"ب":360,"ة":361,"ت":362,"ث":363,"ج":364,"ح":365,"خ":366,"د":367,"ذ":368,"ر":369,"ز":370,"س":371,"ش":372,"ص":373,"ض":374,"ط":375,"ظ":376,"ع":377,"غ":378,"ـ":379,"ف":380,"ق":381,"ك":382,"ل":383,"م":384,"ن":385,"ه":386,"و":387,"ى":388,"ي":389,"ټ":390,"پ":391,"ځ":392,"چ":393,"ک":394,"گ":395,"ہ":396,"ۆ":397,"ی":398,"ې":399,"۞":400,"۰":401,"۱":402,"۲":403,"۳":404,"۴":405,"۵":406,"۶":407,"۷":408,"۸":409,"۹":410,"ߖ":411,"ߧ":412,"अ":413,"आ":414,"ई":415,"क":416,"ग":417,"च":418,"छ":419,"ज":420,"ञ":421,"ट":422,"ण":423,"त":424,"थ":425,"द":426,"ध":427,"न":428,"प":429,"ब":430,"भ":431,"म":432,"य":433,"र":434,"ल":435,"व":436,"श":437,"स":438,"ह":439,"ॐ":440,"०":441,"१":442,"५":443,"९":444,"গ":445,"চ":446,"ট":447,"ন":448,"প":449,"ম":450,"র":451,"க":452,"ங":453,"ச":454,"ட":455,"த":456,"ன":457,"ப":458,"ம":459,"ய":460,"ர":461,"வ":462,"ஷ":463,"ಐ":464,"ಯ":465,"ರ":466,"ವ":467,"ಶ":468,"ക":469,"ദ":470,"പ":471,"ല":472,"വ":473,"ഷ":474,"න":475,"ම":476,"ර":477,"ව":478,"හ":479,"ก":480,"ข":481,"ค":482,"ฆ":483,"ง":484,"จ":485,"ฉ":486,"ช":487,"ญ":488,"ฎ":489,"ฑ":490,"ณ":491,"ด":492,"ต":493,"ถ":494,"ท":495,"ธ":496,"น":497,"บ":498,"ป":499,"ผ":500,"ฝ":501,"พ":502,"ฟ":503,"ภ":504,"ม":505,"ย":506,"ร":507,"ฤ":508,"ล":509,"ว":510,"ศ":511,"ษ":512,"ส":513,"ห":514,"อ":515,"ฮ":516,"ะ":517,"า":518,"ำ":519,"฿":520,"เ":521,"แ":522,"โ":523,"ใ":524,"ไ":525,"๑":526,"ຄ":527,"ງ":528,"ຈ":529,"ດ":530,"ຖ":531,"ນ":532,"ບ":533,"ມ":534,"ລ":535,"ວ":536,"າ":537,"ຽ":538,"་":539,"ད":540,"བ":541,"ა":542,"ბ":543,"გ":544,"დ":545,"ე":546,"ვ":547,"თ":548,"ი":549,"კ":550,"ლ":551,"მ":552,"ნ":553,"ო":554,"პ":555,"რ":556,"ს":557,"ტ":558,"უ":559,"ქ":560,"ღ":561,"შ":562,"ც":563,"ხ":564,"ჯ":565,"ᄀ":566,"ᄁ":567,"ᄂ":568,"ᄃ":569,"ᄅ":570,"ᄆ":571,"ᄇ":572,"ᄉ":573,"ᄋ":574,"ᄌ":575,"ᄍ":576,"ᄎ":577,"ᄏ":578,"ᄐ":579,"ᄑ":580,"ᄒ":581,"ᅡ":582,"ᅢ":583,"ᅣ":584,"ᅥ":585,"ᅦ":586,"ᅧ":587,"ᅨ":588,"ᅩ":589,"ᅪ":590,"ᅬ":591,"ᅮ":592,"ᅯ":593,"ᅰ":594,"ᅱ":595,"ᅲ":596,"ᅳ":597,"ᅵ":598,"ᆨ":599,"ᆫ":600,"ᆯ":601,"ᆷ":602,"ᆸ":603,"ᆻ":604,"ᆼ":605,"ᆾ":606,"ህ":607,"ሓ":608,"ሕ":609,"መ":610,"ም":611,"ረ":612,"ራ":613,"ር":614,"ሰ":615,"ስ":616,"ሻ":617,"ሽ":618,"ቀ":619,"ቐ":620,"በ":621,"ባ":622,"ተ":623,"ት":624,"ቶ":625,"ነ":626,"ን":627,"አ":628,"ኣ":629,"ኤ":630,"እ":631,"ኦ":632,"ካ":633,"ክ":634,"ዋ":635,"ው":636,"ዓ":637,"ዕ":638,"የ":639,"ይ":640,"ደ":641,"ዲ":642,"ገ":643,"ጋ":644,"ጨ":645,"ጽ":646,"ፅ":647,"ፈ":648,"ፍ":649,"፣":650,"ᐃ":651,"ᑦ":652,"ᒃ":653,"ᓄ":654,"‐":655,"‑":656,"‒":657,"―":658,"‖":659,"‛":660,"‟":661,"†":662,"‡":663,"•":664,"‰":665,"′":666,"″":667,"‶":668,"‹":669,"›":670,"※":671,"‼":672,"‽":673,"⁄":674,"ⁿ":675,"₂":676,"₠":677,"₤":678,"₩":679,"₪":680,"€":681,"₴":682,"₵":683,"℃":684,"ℓ":685,"№":686,"™":687,"℮":688,"⅔":689,"⅛":690,"⅞":691,"Ⅱ":692,"←":693,"↑":694,"→":695,"↓":696,"↔":697,"⇒":698,"⇗":699,"⇢":700,"∀":701,"∈":702,"−":703,"√":704,"∞":705,"∫":706,"∴":707,"∶":708,"∼":709,"≈":710,"≤":711,"≥":712,"≪":713,"≫":714,"⋅":715,"⌃":716,"⌘":717,"①":718,"②":719,"③":720,"─":721,"│":722,"╚":723,"╞":724,"╩":725,"█":726,"░":727,"■":728,"□":729,"▪":730,"▲":731,"△":732,"▸":733,"►":734,"▼":735,"◆":736,"◇":737,"◈":738,"◊":739,"○":740,"◎":741,"●":742,"◙":743,"◦":744,"★":745,"☆":746,"☎":747,"☏":748,"☑":749,"☺":750,"☻":751,"☼":752,"♀":753,"♂":754,"♠":755,"♣":756,"♥":757,"♦":758,"♪":759,"♫":760,"✿":761,"➔":762,"➚":763,"➟":764,"➲":765,"Ⰶ":766,"ⲉ":767,"ⲟ":768,"Ⲡ":769,"ⲣ":770,"ⲩ":771,"、":772,"。":773,"々":774,"《":775,"》":776,"「":777,"」":778,"『":779,"』":780,"【":781,"】":782,"〔":783,"〕":784,"〜":785,"あ":786,"ぃ":787,"い":788,"う":789,"え":790,"お":791,"か":792,"き":793,"く":794,"け":795,"こ":796,"さ":797,"し":798,"す":799,"せ":800,"そ":801,"た":802,"ち":803,"っ":804,"つ":805,"て":806,"と":807,"な":808,"に":809,"ね":810,"の":811,"は":812,"ひ":813,"ふ":814,"へ":815,"ま":816,"み":817,"む":818,"め":819,"も":820,"や":821,"ょ":822,"よ":823,"ら":824,"り":825,"る":826,"れ":827,"ろ":828,"わ":829,"ゐ":830,"ゑ":831,"を":832,"ん":833,"゛":834,"ア":835,"ィ":836,"イ":837,"ゥ":838,"ウ":839,"ェ":840,"エ":841,"オ":842,"カ":843,"キ":844,"ク":845,"ケ":846,"コ":847,"サ":848,"シ":849,"ス":850,"セ":851,"ソ":852,"タ":853,"チ":854,"ッ":855,"ツ":856,"テ":857,"ト":858,"ナ":859,"ニ":860,"ネ":861,"ハ":862,"ヒ":863,"フ":864,"ヘ":865,"ホ":866,"マ":867,"ミ":868,"ム":869,"メ":870,"モ":871,"ャ":872,"ュ":873,"ユ":874,"ョ":875,"ヨ":876,"ラ":877,"リ":878,"ル":879,"レ":880,"ワ":881,"ン":882,"・":883,"ー":884,"ㄤ":885,"ㅣ":886,"㎡":887,"䟩":888,"一":889,"七":890,"万":891,"三":892,"上":893,"下":894,"不":895,"与":896,"丘":897,"东":898,"两":899,"丨":900,"个":901,"中":902,"丸":903,"丹":904,"为":905,"主":906,"丽":907,"举":908,"久":909,"义":910,"之":911,"乌":912,"乎":913,"乐":914,"乗":915,"乙":916,"九":917,"习":918,"书":919,"了":920,"事":921,"二":922,"于":923,"云":924,"互":925,"五":926,"井":927,"些":928,"亜":929,"交":930,"产":931,"京":932,"人":933,"亿":934,"什":935,"仁":936,"今":937,"从":938,"付":939,"仙":940,"代":941,"以":942,"仮":943,"仲":944,"价":945,"伊":946,"伎":947,"会":948,"伝":949,"伟":950,"传":951,"伯":952,"伴":953,"伸":954,"但":955,"位":956,"住":957,"佐":958,"佑":959,"体":960,"何":961,"余":962,"作":963,"你":964,"佰":965,"侍":966,"依":967,"便":968,"俊":969,"信":970,"修":971,"倉":972,"倍":973,"倒":974,"假":975,"做":976,"健":977,"備":978,"储":979,"儀":980,"儉":981,"元":982,"光":983,"克":984,"免":985,"入":986,"全":987,"八":988,"公":989,"六":990,"共":991,"关":992,"兵":993,"其":994,"具":995,"内":996,"冊":997,"写":998,"农":999,"决":1000,"况":1001,"冷":1002,"净":1003,"凄":1004,"准":1005,"几":1006,"出":1007,"分":1008,"切":1009,"列":1010,"刘":1011,"则":1012,"刚":1013,"別":1014,"刨":1015,"利":1016,"别":1017,"到":1018,"制":1019,"前":1020,"剑":1021,"剣":1022,"剥":1023,"副":1024,"劇":1025,"力":1026,"功":1027,"加":1028,"务":1029,"动":1030,"助":1031,"势":1032,"動":1033,"勝":1034,"勢":1035,"勧":1036,"勿":1037,"包":1038,"化":1039,"北":1040,"匡":1041,"匹":1042,"区":1043,"医":1044,"匿":1045,"十":1046,"千":1047,"华":1048,"协":1049,"卓":1050,"单":1051,"卖":1052,"南":1053,"博":1054,"卡":1055,"卦":1056,"危":1057,"却":1058,"厂":1059,"原":1060,"去":1061,"县":1062,"参":1063,"及":1064,"友":1065,"反":1066,"发":1067,"取":1068,"受":1069,"变":1070,"口":1071,"古":1072,"只":1073,"叫":1074,"可":1075,"台":1076,"史":1077,"号":1078,"司":1079,"吃":1080,"合":1081,"吉":1082,"吊":1083,"名":1084,"后":1085,"向":1086,"吗":1087,"君":1088,"否":1089,"吧":1090,"听":1091,"吴":1092,"吸":1093,"吹":1094,"呀":1095,"呂":1096,"呆":1097,"告":1098,"呑":1099,"周":1100,"味":1101,"呼":1102,"和":1103,"咬":1104,"哈":1105,"哲":1106,"唐":1107,"售":1108,"唸":1109,"商":1110,"問":1111,"啤":1112,"啦":1113,"喜":1114,"嘉":1115,"嘛":1116,"嘟":1117,"器":1118,"四":1119,"回":1120,"団":1121,"囧":1122,"园":1123,"固":1124,"国":1125,"图":1126,"圆":1127,"國":1128,"圍":1129,"圓":1130,"土":1131,"在":1132,"地":1133,"圳":1134,"场":1135,"坊":1136,"坐":1137,"型":1138,"垣":1139,"城":1140,"堂":1141,"報":1142,"場":1143,"塔":1144,"塗":1145,"塾":1146,"墟":1147,"壊":1148,"士":1149,"壮":1150,"売":1151,"壳":1152,"处":1153,"备":1154,"変":1155,"夕":1156,"外":1157,"多":1158,"大":1159,"天":1160,"太":1161,"夫":1162,"央":1163,"头":1164,"夷":1165,"夹":1166,"奇":1167,"奈":1168,"奉":1169,"套":1170,"奚":1171,"女":1172,"奶":1173,"好":1174,"如":1175,"妖":1176,"妻":1177,"始":1178,"娃":1179,"娥":1180,"娱":1181,"婁":1182,"媛":1183,"子":1184,"字":1185,"存":1186,"季":1187,"学":1188,"孴":1189,"學":1190,"宁":1191,"安":1192,"宗":1193,"官":1194,"定":1195,"宜":1196,"宝":1197,"实":1198,"実":1199,"客":1200,"宣":1201,"宫":1202,"宮":1203,"家":1204,"容":1205,"宿":1206,"寄":1207,"密":1208,"寤":1209,"寧":1210,"寨":1211,"寶":1212,"寸":1213,"对":1214,"寺":1215,"寿":1216,"専":1217,"将":1218,"小":1219,"少":1220,"尘":1221,"就":1222,"尾":1223,"尿":1224,"局":1225,"居":1226,"屈":1227,"届":1228,"屋":1229,"屏":1230,"属":1231,"山":1232,"岐":1233,"岗":1234,"岡":1235,"岩":1236,"岭":1237,"岷":1238,"島":1239,"崎":1240,"崔":1241,"崩":1242,"嵥":1243,"嶺":1244,"川":1245,"州":1246,"巧":1247,"己":1248,"巴":1249,"巻":1250,"市":1251,"布":1252,"师":1253,"希":1254,"帝":1255,"帥":1256,"常":1257,"幌":1258,"干":1259,"平":1260,"年":1261,"幸":1262,"幹":1263,"幾":1264,"广":1265,"庁":1266,"広":1267,"庄":1268,"庆":1269,"应":1270,"底":1271,"店":1272,"庚":1273,"府":1274,"度":1275,"庫":1276,"廣":1277,"建":1278,"开":1279,"弁":1280,"弄":1281,"式":1282,"弔":1283,"引":1284,"张":1285,"弦":1286,"張":1287,"强":1288,"当":1289,"形":1290,"彩":1291,"彭":1292,"彰":1293,"役":1294,"彻":1295,"征":1296,"很":1297,"律":1298,"後":1299,"徒":1300,"得":1301,"復":1302,"微":1303,"徳":1304,"德":1305,"徹":1306,"心":1307,"必":1308,"忆":1309,"忍":1310,"志":1311,"応":1312,"快":1313,"念":1314,"怒":1315,"思":1316,"怡":1317,"急":1318,"性":1319,"怪":1320,"恵":1321,"悠":1322,"您":1323,"悩":1324,"悪":1325,"情":1326,"惠":1327,"惧":1328,"惯":1329,"想":1330,"意":1331,"愛":1332,"態":1333,"慢":1334,"慣":1335,"慶":1336,"憶":1337,"憾":1338,"成":1339,"戒":1340,"戴":1341,"戶":1342,"户":1343,"戸":1344,"所":1345,"手":1346,"才":1347,"打":1348,"找":1349,"承":1350,"技":1351,"投":1352,"折":1353,"抜":1354,"护":1355,"报":1356,"押":1357,"担":1358,"拉":1359,"拓":1360,"拟":1361,"括":1362,"拳":1363,"拼":1364,"拿":1365,"持":1366,"挂":1367,"指":1368,"挡":1369,"振":1370,"损":1371,"据":1372,"捷":1373,"掉":1374,"排":1375,"掛":1376,"探":1377,"接":1378,"控":1379,"掻":1380,"揂":1381,"揃":1382,"提":1383,"握":1384,"援":1385,"搅":1386,"損":1387,"摂":1388,"摇":1389,"摩":1390,"撫":1391,"撮":1392,"操":1393,"支":1394,"收":1395,"攻":1396,"放":1397,"故":1398,"敏":1399,"救":1400,"教":1401,"散":1402,"数":1403,"整":1404,"文":1405,"斗":1406,"料":1407,"新":1408,"方":1409,"施":1410,"旅":1411,"族":1412,"无":1413,"日":1414,"时":1415,"昇":1416,"明":1417,"易":1418,"星":1419,"春":1420,"昭":1421,"是":1422,"显":1423,"晏":1424,"晨":1425,"普":1426,"景":1427,"智":1428,"暂":1429,"暫":1430,"暴":1431,"曝":1432,"更":1433,"書":1434,"最":1435,"月":1436,"有":1437,"朝":1438,"木":1439,"本":1440,"札":1441,"朱":1442,"机":1443,"李":1444,"杏":1445,"材":1446,"村":1447,"条":1448,"来":1449,"杨":1450,"東":1451,"松":1452,"板":1453,"林":1454,"果":1455,"架":1456,"查":1457,"柱":1458,"柴":1459,"树":1460,"校":1461,"株":1462,"栽":1463,"桂":1464,"桶":1465,"梁":1466,"梅":1467,"检":1468,"森":1469,"椅":1470,"植":1471,"検":1472,"業":1473,"極":1474,"楼":1475,"楽":1476,"樓":1477,"標":1478,"横":1479,"樹":1480,"機":1481,"檀":1482,"次":1483,"欢":1484,"款":1485,"歌":1486,"止":1487,"正":1488,"此":1489,"步":1490,"武":1491,"歩":1492,"死":1493,"殊":1494,"殷":1495,"殻":1496,"殿":1497,"毁":1498,"毓":1499,"比":1500,"毛":1501,"氏":1502,"民":1503,"气":1504,"気":1505,"氣":1506,"水":1507,"求":1508,"汇":1509,"汉":1510,"汕":1511,"江":1512,"汤":1513,"汴":1514,"決":1515,"沙":1516,"没":1517,"沢":1518,"沪":1519,"沱":1520,"油":1521,"治":1522,"況":1523,"泉":1524,"泊":1525,"法":1526,"波":1527,"泥":1528,"注":1529,"泰":1530,"泽":1531,"洋":1532,"洛":1533,"洞":1534,"活":1535,"派":1536,"流":1537,"测":1538,"济":1539,"浙":1540,"浜":1541,"浦":1542,"浴":1543,"海":1544,"涂":1545,"深":1546,"混":1547,"清":1548,"済":1549,"渋":1550,"渝":1551,"温":1552,"港":1553,"湖":1554,"湯":1555,"湾":1556,"満":1557,"溝":1558,"溢":1559,"溪":1560,"滞":1561,"滬":1562,"漢":1563,"潢":1564,"潮":1565,"澤":1566,"濟":1567,"灣":1568,"火":1569,"灰":1570,"灾":1571,"点":1572,"為":1573,"烏":1574,"烦":1575,"热":1576,"無":1577,"然":1578,"焼":1579,"煙":1580,"照":1581,"煩":1582,"煮":1583,"熟":1584,"熨":1585,"熱":1586,"燗":1587,"爆":1588,"爪":1589,"爱":1590,"父":1591,"片":1592,"版":1593,"牌":1594,"牙":1595,"物":1596,"特":1597,"状":1598,"独":1599,"献":1600,"率":1601,"玉":1602,"王":1603,"珈":1604,"珍":1605,"珠":1606,"班":1607,"球":1608,"理":1609,"琢":1610,"琲":1611,"璐":1612,"瓶":1613,"甜":1614,"生":1615,"用":1616,"田":1617,"甲":1618,"申":1619,"电":1620,"町":1621,"留":1622,"畢":1623,"略":1624,"畿":1625,"疑":1626,"疗":1627,"疫":1628,"病":1629,"痛":1630,"痴":1631,"癌":1632,"発":1633,"登":1634,"白":1635,"百":1636,"的":1637,"皇":1638,"皮":1639,"盆":1640,"益":1641,"盗":1642,"盛":1643,"目":1644,"直":1645,"相":1646,"省":1647,"看":1648,"県":1649,"真":1650,"眩":1651,"眼":1652,"着":1653,"睦":1654,"知":1655,"石":1656,"码":1657,"砂":1658,"确":1659,"確":1660,"磨":1661,"示":1662,"礼":1663,"社":1664,"祖":1665,"神":1666,"票":1667,"祭":1668,"祸":1669,"祿":1670,"禁":1671,"禅":1672,"福":1673,"禪":1674,"禹":1675,"秀":1676,"秉":1677,"秋":1678,"种":1679,"科":1680,"租":1681,"积":1682,"称":1683,"移":1684,"程":1685,"稲":1686,"稼":1687,"空":1688,"立":1689,"站":1690,"竞":1691,"章":1692,"端":1693,"競":1694,"竹":1695,"第":1696,"答":1697,"签":1698,"简":1699,"箍":1700,"箕":1701,"管":1702,"箱":1703,"節":1704,"米":1705,"粤":1706,"粵":1707,"精":1708,"糖":1709,"系":1710,"紂":1711,"紅":1712,"紋":1713,"納":1714,"純":1715,"紙":1716,"索":1717,"紧":1718,"細":1719,"終":1720,"経":1721,"結":1722,"絞":1723,"続":1724,"網":1725,"綺":1726,"線":1727,"繁":1728,"约":1729,"级":1730,"纸":1731,"纹":1732,"纽":1733,"线":1734,"细":1735,"经":1736,"绞":1737,"网":1738,"罗":1739,"罪":1740,"置":1741,"署":1742,"羅":1743,"美":1744,"群":1745,"義":1746,"羲":1747,"羽":1748,"翁":1749,"習":1750,"翻":1751,"耀":1752,"老":1753,"考":1754,"者":1755,"而":1756,"耐":1757,"耳":1758,"联":1759,"聖":1760,"聞":1761,"育":1762,"背":1763,"胜":1764,"胞":1765,"胡":1766,"能":1767,"脑":1768,"脖":1769,"脱":1770,"腹":1771,"膚":1772,"臂":1773,"臈":1774,"臓":1775,"臘":1776,"臧":1777,"臨":1778,"自":1779,"至":1780,"致":1781,"臺":1782,"舁":1783,"舅":1784,"舍":1785,"舐":1786,"舖":1787,"舞":1788,"舣":1789,"舩":1790,"航":1791,"舫":1792,"般":1793,"良":1794,"色":1795,"艳":1796,"节":1797,"芝":1798,"芦":1799,"花":1800,"苏":1801,"苑":1802,"若":1803,"英":1804,"茜":1805,"茨":1806,"茶":1807,"草":1808,"荣":1809,"莲":1810,"菜":1811,"華":1812,"菱":1813,"葉":1814,"董":1815,"蒋":1816,"蒸":1817,"蔓":1818,"蔚":1819,"藤":1820,"蘇":1821,"虑":1822,"蛋":1823,"螨":1824,"螳":1825,"血":1826,"行":1827,"術":1828,"街":1829,"表":1830,"裂":1831,"装":1832,"裕":1833,"西":1834,"要":1835,"見":1836,"覧":1837,"親":1838,"见":1839,"视":1840,"角":1841,"解":1842,"言":1843,"訃":1844,"訓":1845,"記":1846,"設":1847,"許":1848,"試":1849,"詰":1850,"話":1851,"詳":1852,"語":1853,"說":1854,"読":1855,"調":1856,"請":1857,"諸":1858,"謑":1859,"證":1860,"讃":1861,"计":1862,"讣":1863,"议":1864,"讯":1865,"许":1866,"设":1867,"证":1868,"识":1869,"试":1870,"诘":1871,"话":1872,"该":1873,"详":1874,"语":1875,"请":1876,"调":1877,"谢":1878,"谷":1879,"豆":1880,"貌":1881,"財":1882,"貢":1883,"販":1884,"貮":1885,"貰":1886,"賀":1887,"賢":1888,"贊":1889,"贡":1890,"货":1891,"质":1892,"贱":1893,"贳":1894,"贷":1895,"赌":1896,"赛":1897,"赤":1898,"赵":1899,"赶":1900,"起":1901,"超":1902,"越":1903,"足":1904,"跆":1905,"跨":1906,"路":1907,"踌":1908,"蹟":1909,"躇":1910,"躊":1911,"躍":1912,"身":1913,"車":1914,"軍":1915,"較":1916,"載":1917,"輪":1918,"车":1919,"转":1920,"载":1921,"较":1922,"辛":1923,"辞":1924,"辱":1925,"込":1926,"过":1927,"迎":1928,"近":1929,"返":1930,"这":1931,"进":1932,"连":1933,"迷":1934,"送":1935,"适":1936,"逃":1937,"选":1938,"途":1939,"通":1940,"速":1941,"連":1942,"逸":1943,"遇":1944,"過":1945,"道":1946,"達":1947,"遗":1948,"遝":1949,"適":1950,"遪":1951,"遭":1952,"遲":1953,"遷":1954,"遽":1955,"邑":1956,"那":1957,"郎":1958,"郑":1959,"郝":1960,"部":1961,"郷":1962,"都":1963,"鄂":1964,"酉":1965,"配":1966,"酎":1967,"酒":1968,"采":1969,"釉":1970,"里":1971,"重":1972,"野":1973,"量":1974,"金":1975,"釣":1976,"鉋":1977,"銀":1978,"銭":1979,"鋍":1980,"鋑":1981,"鋒":1982,"鋓":1983,"鋖":1984,"鋘":1985,"鋜":1986,"鋝":1987,"鋟":1988,"録":1989,"鍋":1990,"鎚":1991,"鏡":1992,"鐵":1993,"针":1994,"钓":1995,"钟":1996,"钢":1997,"钦":1998,"钧":1999,"钱":2000,"铁":2001,"银":2002,"锈":2003,"锋":2004,"锦":2005,"键":2006,"镜":2007,"長":2008,"长":2009,"門":2010,"開":2011,"間":2012,"関":2013,"閣":2014,"閥":2015,"閩":2016,"關":2017,"门":2018,"问":2019,"间":2020,"闻":2021,"闽":2022,"阜":2023,"阪":2024,"防":2025,"阳":2026,"阿":2027,"陀":2028,"际":2029,"降":2030,"院":2031,"除":2032,"陳":2033,"陵":2034,"陶":2035,"陽":2036,"隆":2037,"隊":2038,"难":2039,"雄":2040,"集":2041,"雙":2042,"雛":2043,"雲":2044,"電":2045,"露":2046,"青":2047,"静":2048,"非":2049,"面":2050,"革":2051,"靳":2052,"音":2053,"頂":2054,"項":2055,"順":2056,"須":2057,"頑":2058,"頭":2059,"題":2060,"顗":2061,"顯":2062,"页":2063,"顶":2064,"预":2065,"颐":2066,"题":2067,"颜":2068,"風":2069,"风":2070,"飛":2071,"飞":2072,"食":2073,"飲":2074,"飼":2075,"館":2076,"饮":2077,"馆":2078,"香":2079,"馬":2080,"駄":2081,"駅":2082,"験":2083,"騙":2084,"騜":2085,"验":2086,"骨":2087,"髄":2088,"體":2089,"高":2090,"鬼":2091,"魔":2092,"鰀":2093,"鰃":2094,"鰄":2095,"鰈":2096,"鰊":2097,"鰎":2098,"鱲":2099,"鱼":2100,"鲁":2101,"鲞":2102,"鳩":2103,"鴻":2104,"鵜":2105,"鷹":2106,"鸭":2107,"鹈":2108,"鹿":2109,"麗":2110,"黄":2111,"黒":2112,"黚":2113,"黡":2114,"黨":2115,"黮":2116,"黵":2117,"黷":2118,"龍":2119,"龙":2120,"ﬁ":2121,"ﬂ":2122,"ﷲ":2123,"︰":2124,"！":2125,"＄":2126,"（":2127,"）":2128,"＊":2129,"，":2130,"－":2131,"．":2132,"：":2133,"；":2134,"？":2135,"［":2136,"］":2137,"ｔ":2138,"､":2139,"･":2140,"ｫ":2141,"ｲ":2142,"ｻ":2143,"ｿ":2144,"ﾜ":2145,"ﾟ":2146,"￠":2147,"￥":2148,"𐌰":2149,"𐌴":2150,"𐌸":2151,"𐌼":2152,"𐌽":2153,"𐍃":2154,"𐍉":2155,"𠐄":2156,"𢥲":2157,"𧵮":2158,"en":2159,"er":2160,"in":2161,"ch":2162,"an":2163,"th":2164,"on":2165,"es":2166,"un":2167,"is":2168,"at":2169,"it":2170,"ie":2171,"or":2172,"al":2173,"ar":2174,"the":2175,"ur":2176,"st":2177,"der":2178,"ich":2179,"as":2180,"re":2181,"ion":2182,"le":2183,"and":2184,"te":2185,"of":2186,"ein":2187,"ge":2188,"au":2189,"ent":2190,"to":2191,"be":2192,"und":2193,"ro":2194,"de":2195,"ung":2196,"ing":2197,"die":2198,"om":2199,"el":2200,"den":2201,"wi":2202,"ig":2203,"ed":2204,"us":2205,"am":2206,"ol":2207,"ic":2208,"im":2209,"il":2210,"ter":2211,"for":2212,"ver":2213,"ut":2214,"ot":2215,"sch":2216,"ra":2217,"se":2218,"ten":2219,"zu":2220,"op":2221,"ation":2222,"he":2223,"ab":2224,"we":2225,"ies":2226,"os":2227,"ist":2228,"ul":2229,"hr":2230,"-@":2231,"@-@":2232,"em":2233,"ct":2234,"ber":2235,"ne":2236,"qu":2237,"gen":2238,"lich":2239,"ve":2240,"all":2241,"ap":2242,"icht":2243,"pro":2244,"isch":2245,"das":2246,"um":2247,"ier":2248,"ir":2249,"ach":2250,"ke":2251,"that":2252,"con":2253,"est":2254,"auf":2255,"omm":2256,"are":2257,"ess":2258,"so":2259,"wir":2260,"von":2261,"ad":2262,"ce":2263,"wer":2264,"sp":2265,"fur":2266,"id":2267,"wh":2268,"et":2269,"In":2270,"mit":2271,"la":2272,"our":2273,"ort":2274,"ere":2275,"kt":2276,"ly":2277,"eine":2278,"if":2279,"urop":2280,"des":2281,"ll":2282,"ck":2283,"quot":2284,"ind":2285,"with":2286,"af":2287,"The":2288,"mo":2289,"aus":2290,"ow":2291,"dies":2292,"iss":2293,"res":2294,"Ver":2295,"me":2296,"Europ":2297,"ou":2298,"ag":2299,"St":2300,"iv":2301,"ment":2302,"ah":2303,"ell":2304,"men":2305,"ate":2306,"ma":2307,"ant":2308,"ha":2309,"ru":2310,"apos":2311,"dem":2312,"ex":2313,"Un":2314,"ungen":2315,"An":2316,"su":2317,"art":2318,"ben":2319,"ischen":2320,"nen":2321,"com":2322,"lo":2323,"ho":2324,"co":2325,"not":2326,"da":2327,"this":2328,"00":2329,"ien":2330,"ze":2331,"tr":2332,"Sie":2333,"nicht":2334,"sich":2335,"ts":2336,"ust":2337,"ity":2338,"ive":2339,"ges":2340,"ahr":2341,"ers":2342,"end":2343,"Re":2344,"uber":2345,"gr":2346,"uss":2347,"werden":2348,"ta":2349,"ib":2350,"ann":2351,"auch":2352,"dass":2353,"lie":2354,"li":2355,"ass":2356,"ial":2357,"by":2358,"port":2359,"pr":2360,"wor":2361,"have":2362,"wo":2363,"Die":2364,"igen":2365,"vor":2366,"will":2367,"uld":2368,"ac":2369,"ht":2370,"Be":2371,"pe":2372,"oll":2373,"its":2374,"ern":2375,"uns":2376,"you":2377,"fe":2378,"tel":2379,"hal":2380,"ommiss":2381,"tra":2382,"kon":2383,"als":2384,"ik":2385,"iel":2386,"man":2387,"du":2388,"hat":2389,"hen":2390,"rom":2391,"wie":2392,"ay":2393,"ions":2394,"ang":2395,"Europe":2396,"no":2397,"Sch":2398,"We":2399,"was":2400,"ungs":2401,"ther":2402,"per":2403,"ug":2404,"which":2405,"ander":2406,"has":2407,"ted":2408,"age":2409,"ommission":2410,"..":2411,"Pro":2412,"ste":2413,"sind":2414,"form":2415,"ident":2416,"schaf":2417,"from":2418,"can":2419,"out":2420,"einer":2421,"ure":2422,"wird":2423,"Th":2424,"war":2425,"En":2426,"fer":2427,"ip":2428,"do":2429,"one":2430,"able":2431,"inter":2432,"imm":2433,"zen":2434,"bei":2435,"pos":2436,"aben":2437,"fen":2438,"je":2439,"Par":2440,"Er":2441,"einen":2442,"ische":2443,"ine":2444,"up":2445,"fin":2446,"enn":2447,"pl":2448,"Ho":2449,"Au":2450,"ite":2451,"bes":2452,"Ar":2453,"ise":2454,"cl":2455,"og":2456,"wur":2457,"unter":2458,"err":2459,"oder":2460,"ament":2461,"act":2462,"ast":2463,"urch":2464,"aten":2465,"pol":2466,"iten":2467,"od":2468,"haben":2469,"European":2470,"sh":2471,"gro":2472,"ige":2473,"zur":2474,"ide":2475,"ire":2476,"Mit":2477,"ore":2478,"sie":2479,"nach":2480,"part":2481,"also":2482,"po":2483,"ank":2484,"200":2485,"Aus":2486,"ia":2487,"ult":2488,"ally":2489,"br":2490,"ard":2491,"ations":2492,"gan":2493,"Europa":2494,"lichen":2495,"comp":2496,"her":2497,"ger":2498,"Ein":2499,"Wir":2500,"ational":2501,"fu":2502,"ition":2503,"ange":2504,"ser":2505,"Pr":2506,"ft":2507,"chen":2508,"io":2509,"ated":2510,"spe":2511,"reg":2512,"ue":2513,"ill":2514,"alle":2515,"ieren":2516,"str":2517,"stand":2518,"iz":2519,"ans":2520,"schaft":2521,"Ge":2522,"very":2523,"ice":2524,"ens":2525,"ob":2526,"ok":2527,"che":2528,"go":2529,"ble":2530,"Union":2531,"rit":2532,"cht":2533,"Se":2534,"Ich":2535,"stell":2536,"pt":2537,"Das":2538,"utz":2539,"ates":2540,"iert":2541,"cess":2542,"muss":2543,"dar":2544,"your":2545,"kann":2546,"leg":2547,"work":2548,"EU":2549,"vel":2550,"yst":2551,"ear":2552,"einem":2553,"Fr":2554,"hin":2555,"ish":2556,"ction":2557,"ahl":2558,"elt":2559,"off":2560,"durch":2561,"ub":2562,"keit":2563,"ord":2564,"tet":2565,"ight":2566,"comm":2567,"Vor":2568,"igh":2569,"Mr":2570,"sten":2571,"ember":2572,"It":2573,"konnen":2574,"coun":2575,"national":2576,"weit":2577,"Commission":2578,"Ber":2579,"ystem":2580,"cre":2581,"ign":2582,"amp":2583,"there":2584,"Herr":2585,"liche":2586,"use":2587,"mar":2588,"ud":2589,"tim":2590,"land":2591,"ical":2592,"more":2593,"but":2594,"fre":2595,"set":2596,"now":2597,"hre":2598,"ame":2599,"av":2600,"beit":2601,"Ab":2602,"pre":2603,"ance":2604,"ome":2605,"would":2606,"ary":2607,"ak":2608,"fuhr":2609,"sho":2610,"ins":2611,"bo":2612,"ese":2613,"Ent":2614,"heit":2615,"lic":2616,"been":2617,"fr":2618,"ommen":2619,"Le":2620,"chte":2621,"19":2622,"ful":2623,"This":2624,"zum":2625,"ken":2626,"pla":2627,"ain":2628,"Kon":2629,"ef":2630,"hl":2631,"cial":2632,"dis":2633,"diese":2634,"lin":2635,"bar":2636,"For":2637,"bet":2638,"dern":2639,"min":2640,"any":2641,"ile":2642,"their":2643,"wurde":2644,"Al":2645,"Ges":2646,"other":2647,"hand":2648,"Unter":2649,"should":2650,"ute":2651,"nur":2652,"Gr":2653,"chn":2654,"dr":2655,"Pres":2656,"polit":2657,"Es":2658,"neh":2659,"ents":2660,"produ":2661,"alt":2662,"Der":2663,"prov":2664,"De":2665,"mer":2666,"net":2667,"ater":2668,"way":2669,"unser":2670,"sel":2671,"ase":2672,"soll":2673,"gel":2674,"Hotel":2675,"geb":2676,"asident":2677,"new":2678,"noch":2679,"ution":2680,"Sp":2681,"ong":2682,"must":2683,"under":2684,"itat":2685,"ierung":2686,"teil":2687,"dieser":2688,"sol":2689,"ely":2690,"Dies":2691,"reich":2692,"ner":2693,"gram":2694,"Kommission":2695,"etz":2696,"par":2697,"Jahr":2698,"vie":2699,"countr":2700,"...":2701,"ian":2702,"uch":2703,"atz":2704,"bere":2705,"ktion":2706,"fol":2707,"ev":2708,"Auf":2709,"cr":2710,"mehr":2711,"Co":2712,"who":2713,"tre":2714,"daß":2715,"Te":2716,"own":2717,"tro":2718,"ple":2719,"cent":2720,"lar":2721,"20":2722,"President":2723,"uck":2724,"fahr":2725,"schen":2726,"Mar":2727,"groß":2728,"formation":2729,"cur":2730,"sein":2731,"sta":2732,"ihr":2733,"day":2734,"ds":2735,"over":2736,"sup":2737,"fore":2738,"Inter":2739,"ities":2740,"Prasident":2741,"like":2742,"nah":2743,"aber":2744,"erson":2745,"ings":2746,"atur":2747,"gt":2748,"ks":2749,"year":2750,"anz":2751,"stat":2752,"they":2753,"ces":2754,"glie":2755,"wick":2756,"ual":2757,"ments":2758,"mussen":2759,"gre":2760,"Um":2761,"gegen":2762,"wenn":2763,"only":2764,"system":2765,"immer":2766,"Ma":2767,"time":2768,"vers":2769,"leich":2770,"about":2771,"los":2772,"gem":2773,"serv":2774,"ack":2775,"olle":2776,"Reg":2777,"assen":2778,"get":2779,"fl":2780,"sib":2781,"lament":2782,"Fra":2783,"gesch":2784,"ty":2785,"cons":2786,"need":2787,"nis":2788,"Mitglie":2789,"ded":2790,"Ze":2791,"sen":2792,"pres":2793,"nehmen":2794,"velop":2795,"bie":2796,"cy":2797,"ph":2798,"olog":2799,"zw":2800,"sehr":2801,"liament":2802,"ious":2803,"Parlament":2804,"cts":2805,"ms":2806,"let":2807,"some":2808,"these":2809,"unden":2810,"fir":2811,"hn":2812,"tell":2813,"10":2814,"king":2815,"Member":2816,"ammen":2817,"ced":2818,"tain":2819,"kommen":2820,"import":2821,"fa":2822,"ied":2823,"sit":2824,"halt":2825,"ause":2826,"dire":2827,"hnen":2828,"bis":2829,"ild":2830,"fo":2831,"diesem":2832,"sa":2833,"Men":2834,"ket":2835,"ors":2836,"wen":2837,"mat":2838,"ular":2839,"ative":2840,"ld":2841,"ichtig":2842,"onder":2843,"report":2844,"ibt":2845,"weiter":2846,"usammen":2847,"tern":2848,"ware":2849,"ility":2850,"Bes":2851,"best":2852,"develop":2853,"dif":2854,"stit":2855,"eines":2856,"mog":2857,"such":2858,"&#":2859,"ateg":2860,"kte":2861,"ople":2862,"Parliament":2863,"gew":2864,"ihre":2865,"int":2866,"vo":2867,"Europaischen":2868,"ustr":2869,"my":2870,"halten":2871,"ließ":2872,"As":2873,"dam":2874,"igkeit":2875,"ific":2876,"acht":2877,"most":2878,"gest":2879,"det":2880,"many":2881,"geben":2882,"fall":2883,"mochte":2884,"rel":2885,"ctive":2886,"viel":2887,"iven":2888,"come":2889,"lau":2890,"mal":2891,"ose":2892,"Im":2893,"sche":2894,"oper":2895,"erg":2896,"uropa":2897,"Ne":2898,"sub":2899,"cle":2900,"deut":2901,"gu":2902,"people":2903,"into":2904,"bal":2905,"iti":2906,"ient":2907,"what":2908,"stru":2909,"well":2910,"schla":2911,"them":2912,"bas":2913,"lung":2914,"neu":2915,"Mitglied":2916,"iden":2917,"entr":2918,"ement":2919,"ism":2920,"conom":2921,"ert":2922,"ff":2923,"zeit":2924,"So":2925,"wel":2926,"arbeit":2927,"just":2928,"mon":2929,"States":2930,"international":2931,"igt":2932,"inv":2933,"star":2934,"ating":2935,"zie":2936,"Zeit":2937,"ices":2938,"Uber":2939,"forder":2940,"och":2941,"unc":2942,"pub":2943,"hier":2944,"Or":2945,"por":2946,"iger":2947,"amen":2948,"lang":2949,"countries":2950,"dition":2951,"isten":2952,"Ch":2953,"cause":2954,"Me":2955,"vis":2956,"view":2957,"Con":2958,"pen":2959,"techn":2960,"hel":2961,"zwe":2962,"than":2963,"ats":2964,"xt":2965,"Bericht":2966,"rei":2967,"europa":2968,"Frau":2969,"stellen":2970,"dec":2971,"pon":2972,"were":2973,"ansp":2974,"ider":2975,"read":2976,"order":2977,"polic":2978,"hol":2979,"les":2980,"econom":2981,"support":2982,"Menschen":2983,"room":2984,"eing":2985,"ail":2986,"important":2987,"gleich":2988,"etzt":2989,"ale":2990,"ieden":2991,"son":2992,"zahl":2993,"Grund":2994,"led":2995,"fact":2996,"wend":2997,"legen":2998,"beg":2999,"dieses":3000,"agre":3001,"partic":3002,"qual":3003,"program":3004,"ures":3005,"incl":3006,"when":3007,"cont":3008,"know":3009,"first":3010,"emp":3011,"itte":3012,"bre":3013,"gibt":3014,"Land":3015,"Counc":3016,"essen":3017,"vom":3018,"Council":3019,"tschaft":3020,"Ihr":3021,"ory":3022,"again":3023,"loc":3024,"ele":3025,"US":3026,"oft":3027,"ages":3028,"roug":3029,"halb":3030,"propos":3031,"12":3032,"zwischen":3033,"bu":3034,"Ger":3035,"voll":3036,"hotel":3037,"Mitgliedsta":3038,"make":3039,"person":3040,"quest":3041,"press":3042,"bin":3043,"Entwick":3044,"eng":3045,"Pol":3046,"besonder":3047,"ruck":3048,"achen":3049,"ous":3050,"vent":3051,"schließ":3052,"gar":3053,"take":3054,"ween":3055,"ence":3056,"bs":3057,"enz":3058,"Fin":3059,"proble":3060,"erv":3061,"issen":3062,"cour":3063,"possib":3064,"Bur":3065,"moglich":3066,"ights":3067,"ives":3068,"wurden":3069,"where":3070,"rat":3071,"between":3072,"sowie":3073,"Fl":3074,"Comm":3075,"thing":3076,"zug":3077,"high":3078,"fra":3079,"Bere":3080,"fort":3081,"hor":3082,"Zu":3083,"pra":3084,"ster":3085,"bed":3086,"trag":3087,"Nach":3088,"He":3089,"Tr":3090,"main":3091,"his":3092,"ßen":3093,"because":3094,"gh":3095,"unsere":3096,"ject":3097,"allen":3098,"setz":3099,"keine":3100,"ink":3101,"world":3102,"grund":3103,"see":3104,"els":3105,"kun":3106,"Ihre":3107,"Produ":3108,"information":3109,"uation":3110,"Mitgliedstaaten":3111,"uß":3112,"inn":3113,"ister":3114,"Her":3115,"Ihnen":3116,"All":3117,"line":3118,"akt":3119,"istr":3120,"fun":3121,"Min":3122,"ital":3123,"fug":3124,"same":3125,"Art":3126,"Arbeit":3127,"wahr":3128,"cted":3129,"bel":3130,"If":3131,"organ":3132,"right":3133,"bst":3134,"Proble":3135,"finden":3136,"oh":3137,"jed":3138,"made":3139,"here":3140,"utzen":3141,"richt":3142,"uman":3143,"versch":3144,"two":3145,"igung":3146,"bess":3147,"real":3148,"clear":3149,"sicher":3150,"Zusammen":3151,"Pl":3152,"Wenn":3153,"car":3154,"unkt":3155,"ci":3156,"brauch":3157,"aum":3158,"ionen":3159,"sicht":3160,"years":3161,"bring":3162,"Rat":3163,"icher":3164,"Ex":3165,"Lander":3166,"ßer":3167,"zial":3168,"policy":3169,"Haus":3170,"tem":3171,"anderen":3172,"wever":3173,"ultur":3174,"dit":3175,"ler":3176,"199":3177,"respon":3178,"good":3179,"Gro":3180,"every":3181,"ys":3182,"ko":3183,"conc":3184,"even":3185,"then":3186,"ues":3187,"weise":3188,"num":3189,"being":3190,"throug":3191,"ischer":3192,"Hand":3193,"hang":3194,"letz":3195,"Mon":3196,"those":3197,"erk":3198,"oc":3199,"unity":3200,"chten":3201,"mittel":3202,"med":3203,"cept":3204,"nahmen":3205,"angen":3206,"keiten":3207,"ting":3208,"konn":3209,"welt":3210,"public":3211,"gemein":3212,"spre":3213,"effe":3214,"chaf":3215,"dur":3216,"diesen":3217,"belie":3218,"last":3219,"To":3220,"Bereich":3221,"itik":3222,"lim":3223,"sc":3224,"rest":3225,"ument":3226,"There":3227,"less":3228,"ional":3229,"market":3230,"amil":3231,"lichkeit":3232,"dann":3233,"att":3234,"ium":3235,"Des":3236,"may":3237,"elle":3238,"find":3239,"isation":3240,"offen":3241,"Bo":3242,"bus":3243,"jo":3244,"stehen":3245,"vir":3246,"had":3247,"beste":3248,"deb":3249,"Diese":3250,"gra":3251,"bur":3252,"wichtig":3253,"isen":3254,"ited":3255,"rie":3256,"zeich":3257,"Ander":3258,"innen":3259,"ellen":3260,"aut":3261,"particular":3262,"On":3263,"wieder":3264,"vern":3265,"damit":3266,"how":3267,"adt":3268,"del":3269,"trans":3270,"differ":3271,"gener":3272,"weil":3273,"present":3274,"wa":3275,"nung":3276,"requ":3277,"Welt":3278,"process":3279,"15":3280,"lish":3281,"gehen":3282,"habe":3283,"want":3284,"wort":3285,"ict":3286,"schon":3287,"ior":3288,"luss":3289,"play":3290,"possible":3291,"place":3292,"say":3293,"air":3294,"economic":3295,"wohl":3296,"unserer":3297,"stitution":3298,"wirtschaft":3299,"Europaische":3300,"satz":3301,"chts":3302,"unterst":3303,"Wo":3304,"Maß":3305,"einz":3306,"lage":3307,"You":3308,"demo":3309,"ganz":3310,"ven":3311,"used":3312,"ick":3313,"rent":3314,"rag":3315,"rif":3316,"cer":3317,"iness":3318,"ters":3319,"far":3320,"val":3321,"fuhren":3322,"maß":3323,"aller":3324,"nam":3325,"jedoch":3326,"ows":3327,"ade":3328,"No":3329,"Bar":3330,"ree":3331,"wirk":3332,"Str":3333,"raft":3334,"app":3335,"reichen":3336,"komm":3337,"lobal":3338,"ough":3339,"kunft":3340,"fund":3341,"concern":3342,"sur":3343,"incre":3344,"trol":3345,"Gem":3346,"fach":3347,"cor":3348,"ath":3349,"fic":3350,"prote":3351,"tegr":3352,"fahren":3353,"30":3354,"area":3355,"human":3356,"Gen":3357,"Sicher":3358,"System":3359,"uro":3360,"fest":3361,"point":3362,"Vorschla":3363,"sim":3364,"eln":3365,"neue":3366,"di":3367,"after":3368,"ace":3369,"kur":3370,"put":3371,"political":3372,"Information":3373,"Ko":3374,"ahn":3375,"Sta":3376,"industr":3377,"seine":3378,"tur":3379,"lassen":3380,"Fe":3381,"gut":3382,"Br":3383,"sondern":3384,"change":3385,"ith":3386,"bau":3387,"Program":3388,"contin":3389,"heute":3390,"alth":3391,"gestell":3392,"help":3393,"licher":3394,"natur":3395,"Unternehmen":3396,"therefore":3397,"plic":3398,"tens":3399,"access":3400,"through":3401,"ince":3402,"wert":3403,"aur":3404,"text":3405,"mich":3406,"ards":3407,"000":3408,"Bet":3409,"does":3410,"development":3411,"ready":3412,"exper":3413,"ix":3414,"transp":3415,"Wie":3416,"utzung":3417,"bereits":3418,"appro":3419,"rights":3420,"isp":3421,"Mo":3422,"could":3423,"ausge":3424,"level":3425,"At":3426,"sollte":3427,"comple":3428,"Ind":3429,"vol":3430,"ker":3431,"itt":3432,"ga":3433,"prof":3434,"Teil":3435,"provide":3436,"dat":3437,"europaischen":3438,"kle":3439,"Man":3440,"ohne":3441,"var":3442,"number":3443,"against":3444,"offent":3445,"great":3446,"Am":3447,"50":3448,"Pre":3449,"govern":3450,"char":3451,"ability":3452,"loy":3453,"key":3454,"Ro":3455,"sign":3456,"uer":3457,"kom":3458,"utions":3459,"Entwicklung":3460,"hist":3461,"back":3462,"Frage":3463,"kehr":3464,"old":3465,"within":3466,"ierte":3467,"ihrer":3468,"sollten":3469,"full":3470,"finan":3471,"avail":3472,"country":3473,"neuen":3474,"pect":3475,"Tur":3476,"fle":3477,"much":3478,"look":3479,"Richt":3480,"klar":3481,"fuhrt":3482,"fung":3483,"offer":3484,"une":3485,"tal":3486,"Jahren":3487,"Sit":3488,"open":3489,"Fur":3490,"operation":3491,"ason":3492,"außer":3493,"Gemein":3494,"andere":3495,"rup":3496,"viron":3497,"prom":3498,"both":3499,"sm":3500,"18":3501,"gent":3502,"selbst":3503,"large":3504,"Daten":3505,"ics":3506,"ants":3507,"cap":3508,"que":3509,"still":3510,"Leben":3511,"oftware":3512,"ierten":3513,"Burger":3514,"lick":3515,"Chin":3516,"free":3517,"ved":3518,"meas":3519,"eigen":3520,"immt":3521,"agement":3522,"group":3523,"position":3524,"Kom":3525,"hop":3526,"woll":3527,"Part":3528,"ren":3529,"eld":3530,"down":3531,"denen":3532,"lass":3533,"ulation":3534,"az":3535,"sam":3536,"unt":3537,"ask":3538,"Is":3539,"inst":3540,"schn":3541,"fut":3542,"sk":3543,"ests":3544,"zwei":3545,"ep":3546,"utzt":3547,"posit":3548,"vironment":3549,"priv":3550,"consider":3551,"social":3552,"Person":3553,"machen":3554,"isk":3555,"liegt":3556,"different":3557,"bil":3558,"long":3559,"anken":3560,"quality":3561,"esen":3562,"without":3563,"zeug":3564,"ache":3565,"seit":3566,"schafts":3567,"spec":3568,"Ste":3569,"That":3570,"geht":3571,"Kommiss":3572,"ctor":3573,"Stand":3574,"Mittel":3575,"Wor":3576,"alten":3577,"arbe":3578,"sprechen":3579,"bietet":3580,"Bed":3581,"erst":3582,"inner":3583,"verschieden":3584,"ctions":3585,"believe":3586,"services":3587,"pf":3588,"But":3589,"ktur":3590,"current":3591,"lagen":3592,"Kr":3593,"folg":3594,"ittee":3595,"oren":3596,"nahme":3597,"druck":3598,"power":3599,"Da":3600,"ux":3601,"too":3602,"ways":3603,"schrif":3604,"ision":3605,"dazu":3606,"ised":3607,"ime":3608,"global":3609,"besch":3610,"require":3611,"Mog":3612,"ros":3613,"einfach":3614,"future":3615,"inc":3616,"already":3617,"eben":3618,"rap":3619,"statt":3620,"zentr":3621,"available":3622,"viele":3623,"aher":3624,"strateg":3625,"Internet":3626,"cord":3627,"Dem":3628,"fil":3629,"ship":3630,"har":3631,"11":3632,"besser":3633,"fast":3634,"inclu":3635,"kten":3636,"pass":3637,"iß":3638,"besondere":3639,"jetzt":3640,"ivid":3641,"fac":3642,"fern":3643,"think":3644,"ritt":3645,"cannot":3646,"thor":3647,"org":3648,"ichte":3649,"kes":3650,"ispiel":3651,"alen":3652,"ists":3653,"ves":3654,"met":3655,"ustom":3656,"Ziel":3657,"chan":3658,"business":3659,"member":3660,"Arbe":3661,"ivers":3662,"today":3663,"lif":3664,"Fre":3665,"ollow":3666,"mir":3667,"ize":3668,"darauf":3669,"ron":3670,"gestellt":3671,"course":3672,"ER":3673,"93":3674,"findet":3675,"verb":3676,"achst":3677,"mb":3678,"Maßnahmen":3679,"law":3680,"91":3681,"service":3682,"disc":3683,"hm":3684,"sehen":3685,"stellung":3686,"waren":3687,"2009":3688,"ienst":3689,"nor":3690,"Tra":3691,"before":3692,"design":3693,"Finanz":3694,"Tre":3695,"employ":3696,"ness":3697,"agen":3698,"ahmen":3699,"Res":3700,"zus":3701,"redu":3702,"entwick":3703,"technolog":3704,"row":3705,"environment":3706,"Energ":3707,"nisse":3708,"lauf":3709,"Russ":3710,"Rahmen":3711,"denn":3712,"products":3713,"itizen":3714,"Commissioner":3715,"question":3716,"ungsant":3717,"enter":3718,"curity":3719,"Informationen":3720,"ismus":3721,"recht":3722,"opt":3723,"ible":3724,"certain":3725,"Med":3726,"ample":3727,"dafur":3728,"arch":3729,"integr":3730,"bt":3731,"neg":3732,"ically":3733,"invest":3734,"seiner":3735,"imple":3736,"Su":3737,"suc":3738,"mus":3739,"ience":3740,"las":3741,"lossen":3742,"case":3743,"ving":3744,"Fall":3745,"ahre":3746,"issue":3747,"omen":3748,"wissen":3749,"Los":3750,"special":3751,"responsib":3752,"imin":3753,"ugen":3754,"amer":3755,"situation":3756,"data":3757,"jor":3758,"turn":3759,"einige":3760,"lat":3761,"falls":3762,"EN":3763,"debate":3764,"plan":3765,"mor":3766,"energ":3767,"spra":3768,"bieten":3769,"Stadt":3770,"betr":3771,"citizen":3772,"enth":3773,"Af":3774,"haf":3775,"ately":3776,"Herrn":3777,"spr":3778,"saf":3779,"cond":3780,"Com":3781,"Amer":3782,"hof":3783,"nun":3784,"fully":3785,"And":3786,"gesam":3787,"conf":3788,"zusammen":3789,"Kommissar":3790,"financial":3791,"Kin":3792,"necess":3793,"rooms":3794,"Lage":3795,"individ":3796,"Euro":3797,"legal":3798,"folgen":3799,"bereit":3800,"problem":3801,"gang":3802,"hoch":3803,"reason":3804,"konnte":3805,"ides":3806,"ric":3807,"ante":3808,"leist":3809,"Serv":3810,"gress":3811,"proposal":3812,"setzung":3813,"offers":3814,"follow":3815,"custom":3816,"meine":3817,"activ":3818,"nov":3819,"achie":3820,"Bei":3821,"aren":3822,"meet":3823,"liegen":3824,"ont":3825,"ward":3826,"fair":3827,"page":3828,"stellt":3829,"Politik":3830,"walt":3831,"zuruck":3832,"wollen":3833,"However":3834,"ziel":3835,"aterial":3836,"direct":3837,"Verein":3838,"said":3839,"ged":3840,"16":3841,"Ad":3842,"resol":3843,"ihren":3844,"Qu":3845,"ett":3846,"udget":3847,"illion":3848,"14":3849,"cost":3850,"top":3851,"heiten":3852,"aupt":3853,"Arbeits":3854,"heits":3855,"regard":3856,"Spe":3857,"unst":3858,"miss":3859,"worden":3860,"sagen":3861,"Rechts":3862,"Was":3863,"ilit":3864,"ahe":3865,"Eine":3866,"example":3867,"grow":3868,"ply":3869,"red":3870,"ica":3871,"Pal":3872,"iving":3873,"pay":3874,"steht":3875,"ually":3876,"antwort":3877,"means":3878,"bewer":3879,"bsite":3880,"Vol":3881,"Aussch":3882,"uc":3883,"unseren":3884,"auto":3885,"hatte":3886,"immung":3887,"ilt":3888,"ator":3889,"Jahre":3890,"punkt":3891,"major":3892,"raf":3893,"ry":3894,"Po":3895,"lose":3896,"hil":3897,"count":3898,"uding":3899,"nie":3900,"fang":3901,"applic":3902,"allem":3903,"Best":3904,"pend":3905,"iter":3906,"IN":3907,"compet":3908,"amend":3909,"call":3910,"iele":3911,"pack":3912,"ling":3913,"Wer":3914,"licht":3915,"action":3916,"kauf":3917,"equ":3918,"isierung":3919,"gangen":3920,"taken":3921,"ktionen":3922,"cas":3923,"Kolle":3924,"cell":3925,"Our":3926,"La":3927,"small":3928,"ichter":3929,"With":3930,"famil":3931,"legt":3932,"Unterst":3933,"ily":3934,"ationen":3935,"schein":3936,"Proje":3937,"Vorschlag":3938,"tun":3939,"13":3940,"tag":3941,"Lin":3942,"during":3943,"since":3944,"bringen":3945,"author":3946,"fass":3947,"using":3948,"Parlaments":3949,"struct":3950,"Nor":3951,"based":3952,"isl":3953,"iff":3954,"inen":3955,"China":3956,"wes":3957,"Und":3958,"measures":3959,"eas":3960,"allow":3961,"ound":3962,"common":3963,"agreement":3964,"discuss":3965,"thank":3966,"Zwe":3967,"Recht":3968,"sozial":3969,"Ant":3970,"modern":3971,"energy":3972,"wicht":3973,"erhalten":3974,"cing":3975,"citizens":3976,"Zimmer":3977,"ential":3978,"ffen":3979,"AN":3980,"llen":3981,"scheid":3982,"lungs":3983,"inde":3984,"wahrend":3985,"ane":3986,"etwas":3987,"ordin":3988,"cken":3989,"Off":3990,"doch":3991,"setzen":3992,"ca":3993,"abil":3994,"conta":3995,"sy":3996,"utes":3997,"Wahr":3998,"trib":3999,"leben":4000,"Fir":4001,"side":4002,"ding":4003,"success":4004,"start":4005,"road":4006,"give":4007,"control":4008,"arbeiten":4009,"including":4010,"stre":4011,"adv":4012,"each":4013,"colle":4014,"Mad":4015,"Techn":4016,"vote":4017,"Ser":4018,"vi":4019,"Mein":4020,"linie":4021,"bank":4022,"ature":4023,"ensure":4024,"kre":4025,"further":4026,"25":4027,"Web":4028,"areas":4029,"ran":4030,"necessary":4031,"build":4032,"ized":4033,"wal":4034,"ased":4035,"Unterstutzung":4036,"log":4037,"col":4038,"2010":4039,"city":4040,"Eng":4041,"hmen":4042,"specific":4043,"Geschaf":4044,"AT":4045,"Durch":4046,"Wahl":4047,"Gu":4048,"lad":4049,"andern":4050,"ordnung":4051,"result":4052,"einmal":4053,"rece":4054,"Markt":4055,"ende":4056,"gesetzt":4057,"sat":4058,"hope":4059,"tragen":4060,"tour":4061,"spiel":4062,"ablish":4063,"aid":4064,"security":4065,"verwen":4066,"Anderungsant":4067,"problems":4068,"jahr":4069,"24":4070,"Problem":4071,"found":4072,"Bild":4073,"ning":4074,"UN":4075,"next":4076,"insbesondere":4077,"Ur":4078,"atic":4079,"IT":4080,"porte":4081,"ruh":4082,"ird":4083,"Verfug":4084,"sing":4085,"schaften":4086,"three":4087,"Qual":4088,"agt":4089,"budget":4090,"sum":4091,"wish":4092,"Zusammenarbeit":4093,"earch":4094,"Landern":4095,"tes":4096,"vention":4097,"lik":4098,"17":4099,"few":4100,"letzten":4101,"IS":4102,"EC":4103,"Deb":4104,"ragen":4105,"ements":4106,"why":4107,"addition":4108,"opport":4109,"company":4110,"establish":4111,"histor":4112,"zess":4113,"wahl":4114,"2008":4115,"Committee":4116,"ines":4117,"Spiel":4118,"lay":4119,"itaten":4120,"ES":4121,"itz":4122,"incip":4123,"genommen":4124,"stim":4125,"ichten":4126,"Umwelt":4127,"ditions":4128,"ules":4129,"muß":4130,"lungen":4131,"cover":4132,"Sicherheit":4133,"ining":4134,"ktiv":4135,"pat":4136,"Deut":4137,"health":4138,"commun":4139,"Form":4140,"New":4141,"Dar":4142,"igten":4143,"fehl":4144,"cooperation":4145,"lead":4146,"glau":4147,"pop":4148,"weg":4149,"pur":4150,"Schluss":4151,"whe":4152,"leicht":4153,"ons":4154,"Natur":4155,"dra":4156,"dress":4157,"princip":4158,"einge":4159,"arr":4160,"Rest":4161,"enden":4162,"Bel":4163,"ader":4164,"implement":4165,"pract":4166,"inform":4167,"while":4168,"besteht":4169,"Ob":4170,"Tag":4171,"however":4172,"hap":4173,"cho":4174,"Dienst":4175,"invol":4176,"Regierung":4177,"Sol":4178,"streng":4179,"wn":4180,"aurant":4181,"wach":4182,"Beit":4183,"ultural":4184,"beim":4185,"pru":4186,"markt":4187,"Kunden":4188,"Group":4189,"Fragen":4190,"fiel":4191,"igkeiten":4192,"drei":4193,"sequ":4194,"ersten":4195,"iver":4196,"light":4197,"ja":4198,"ext":4199,"systems":4200,"programm":4201,"unde":4202,"ises":4203,"zept":4204,"esse":4205,"given":4206,"Not":4207,"defin":4208,"ellschaft":4209,"Hin":4210,"kamp":4211,"jen":4212,"ierungs":4213,"Ital":4214,"life":4215,"asser":4216,"Mal":4217,"fordern":4218,"Gesch":4219,"Fun":4220,"needs":4221,"cially":4222,"protection":4223,"zo":4224,"gaben":4225,"Em":4226,"ße":4227,"bit":4228,"What":4229,"region":4230,"Organ":4231,"complete":4232,"uge":4233,"fuhrung":4234,"asse":4235,"Energie":4236,"lemen":4237,"Ben":4238,"igin":4239,"ified":4240,"book":4241,"shall":4242,"rele":4243,"geh":4244,"legisl":4245,"asch":4246,"refer":4247,"Kollegen":4248,"alled":4249,"gabe":4250,"große":4251,"Bedeut":4252,"ising":4253,"clos":4254,"Hil":4255,"consum":4256,"They":4257,"wendung":4258,"handelt":4259,"wards":4260,"ialog":4261,"government":4262,"bot":4263,"iet":4264,"verstand":4265,"wand":4266,"zieh":4267,"ively":4268,"rechte":4269,"anal":4270,"compan":4271,"Flug":4272,"spol":4273,"zeigt":4274,"Seite":4275,"gether":4276,"100":4277,"sto":4278,"porteur":4279,"always":4280,"kurz":4281,"half":4282,"bl":4283,"exp":4284,"better":4285,"House":4286,"Bedeutung":4287,"genau":4288,"Ap":4289,"ichterstat":4290,"appe":4291,"don":4292,"nal":4293,"Gar":4294,"stay":4295,"step":4296,"iety":4297,"conne":4298,"initi":4299,"Rom":4300,"uni":4301,"accept":4302,"wart":4303,"stra":4304,"Kar":4305,"bereich":4306,"eig":4307,"iste":4308,"care":4309,"Ergeb":4310,"Li":4311,"did":4312,"working":4313,"uten":4314,"kr":4315,"interest":4316,"Vertrag":4317,"welche":4318,"tru":4319,"dabei":4320,"Vers":4321,"politischen":4322,"poin":4323,"mult":4324,"Entscheid":4325,"reach":4326,"load":4327,"tradition":4328,"joy":4329,"mot":4330,"USA":4331,"dren":4332,"programme":4333,"Eben":4334,"When":4335,"self":4336,"United":4337,"Mrs":4338,"ivil":4339,"production":4340,"2007":4341,"großen":4342,"ina":4343,"Community":4344,"bind":4345,"Aber":4346,"rapporteur":4347,"Gegen":4348,"elf":4349,"respect":4350,"Regel":4351,"avour":4352,"ches":4353,"Programm":4354,"ildren":4355,"seinen":4356,"kosten":4357,"crit":4358,"Namen":4359,"mut":4360,"recent":4361,"deren":4362,"Port":4363,"trade":4364,"Forder":4365,"Auto":4366,"These":4367,"wirklich":4368,"Bus":4369,"state":4370,"chaft":4371,"transport":4372,"Verfugung":4373,"ingungen":4374,"ilities":4375,"Mus":4376,"sor":4377,"dom":4378,"ategor":4379,"124":4380,"low":4381,"located":4382,"bekann":4383,"EUR":4384,"Fraktion":4385,"ficult":4386,"fah":4387,"Strateg":4388,"water":4389,"bon":4390,"Service":4391,"fas":4392,"treten":4393,"deal":4394,"issues":4395,"Thema":4396,"difficult":4397,"Besch":4398,"term":4399,"kl":4400,"Staaten":4401,"ww":4402,"exist":4403,"AR":4404,"beru":4405,"Schutz":4406,"wide":4407,"Kinder":4408,"notwend":4409,"daher":4410,"particularly":4411,"Zahl":4412,"word":4413,"together":4414,"account":4415,"Berichterstat":4416,"kets":4417,"fordert":4418,"ross":4419,"Probleme":4420,"itor":4421,"management":4422,"Seiten":4423,"role":4424,"Hier":4425,"making":4426,"opp":4427,"ton":4428,"War":4429,"centr":4430,"Fol":4431,"wee":4432,"davon":4433,"Moglichkeit":4434,"deta":4435,"date":4436,"list":4437,"become":4438,"clus":4439,"Beispiel":4440,"whether":4441,"uments":4442,"gelegen":4443,"hy":4444,"non":4445,"proje":4446,"Auch":4447,"extre":4448,"daruber":4449,"lock":4450,"Lebens":4451,"uring":4452,"tax":4453,"jeder":4454,"contrib":4455,"Famil":4456,"Zug":4457,"ention":4458,"Wett":4459,"okrat":4460,"second":4461,"enten":4462,"reco":4463,"CO":4464,"km":4465,"terms":4466,"reform":4467,"vious":4468,"research":4469,"unterstutzen":4470,"lack":4471,"AS":4472,"proper":4473,"ners":4474,"Gener":4475,"fon":4476,"ikan":4477,"going":4478,"iges":4479,"aty":4480,"Fort":4481,"sever":4482,"halts":4483,"bestimm":4484,"stud":4485,"rad":4486,"address":4487,"iate":4488,"basis":4489,"sector":4490,"views":4491,"Lu":4492,"darf":4493,"tar":4494,"burg":4495,"oth":4496,"hervor":4497,"Zukunft":4498,"short":4499,"weisen":4500,"suchen":4501,"guar":4502,"eren":4503,"Viel":4504,"40":4505,"kommt":4506,"commit":4507,"alles":4508,"express":4509,"instit":4510,"meiner":4511,"International":4512,"another":4513,"Kre":4514,"cal":4515,"Frauen":4516,"tschafts":4517,"around":4518,"eigenen":4519,"Mill":4520,"Weg":4521,"ying":4522,"benef":4523,"ziehen":4524,"schied":4525,"schnell":4526,"speak":4527,"kein":4528,"Haupt":4529,"fect":4530,"ums":4531,"gegenuber":4532,"hoto":4533,"fert":4534,"Weise":4535,"geord":4536,"Sk":4537,"aim":4538,"Fahr":4539,"children":4540,"Kol":4541,"Per":4542,"dist":4543,"Ihrer":4544,"iod":4545,"decision":4546,"conditions":4547,"profess":4548,"pot":4549,"Kur":4550,"whole":4551,"atte":4552,"macht":4553,"greif":4554,"bild":4555,"San":4556,"2000":4557,"weitere":4558,"women":4559,"unge":4560,"entfern":4561,"schutz":4562,"entlich":4563,"gese":4564,"politik":4565,"frei":4566,"matter":4567,"schließlich":4568,"Als":4569,"Air":4570,"sowohl":4571,"verfug":4572,"prior":4573,"ars":4574,"material":4575,"wier":4576,"writ":4577,"ural":4578,"industry":4579,"uter":4580,"ritte":4581,"sele":4582,"abhang":4583,"anc":4584,"amm":4585,"cut":4586,"innov":4587,"auer":4588,"Situation":4589,"wegen":4590,"site":4591,"companies":4592,"Qualitat":4593,"Produkt":4594,"dings":4595,"blick":4596,"negot":4597,"local":4598,"Software":4599,"xim":4600,"install":4601,"neten":4602,"Industr":4603,"racht":4604,"favour":4605,"atten":4606,"ipt":4607,"erreichen":4608,"Alle":4609,"Mehr":4610,"naturlich":4611,"aff":4612,"selves":4613,"gn":4614,"cel":4615,"Wettbewer":4616,"ban":4617,"guarante":4618,"II":4619,"scheiden":4620,"mochten":4621,"personal":4622,"fassen":4623,"doc":4624,"show":4625,"comes":4626,"Richtlinie":4627,"create":4628,"typ":4629,"coming":4630,"done":4631,"gesehen":4632,"stimmung":4633,"espe":4634,"geschlossen":4635,"him":4636,"enzen":4637,"frien":4638,"ika":4639,"Frei":4640,"yo":4641,"improv":4642,"rage":4643,"vest":4644,"spl":4645,"month":4646,"Artik":4647,"Forsch":4648,"cris":4649,"Ende":4650,"DE":4651,"ktor":4652,"effect":4653,"ulture":4654,"Stra":4655,"lichkeiten":4656,"besonders":4657,"Rolle":4658,"automat":4659,"round":4660,"centre":4661,"Zentr":4662,"proced":4663,"isches":4664,"ody":4665,"ihnen":4666,"Ausschuss":4667,"ming":4668,"near":4669,"Grup":4670,"ences":4671,"various":4672,"job":4673,"approach":4674,"innerhalb":4675,"visit":4676,"face":4677,"mach":4678,"Pra":4679,"soc":4680,"oney":4681,"ury":4682,"distr":4683,"zip":4684,"Minister":4685,"ground":4686,"Fo":4687,"gewahr":4688,"spolitik":4689,"gegeben":4690,"demand":4691,"Lie":4692,"million":4693,"isions":4694,"schriften":4695,"sprache":4696,"ety":4697,"60":4698,"especially":4699,"wun":4700,"fru":4701,"dessen":4702,"beach":4703,"gefuhrt":4704,"pose":4705,"amework":4706,"experience":4707,"Afr":4708,"Verbrauch":4709,"haus":4710,"ably":4711,"equip":4712,"finanz":4713,"continue":4714,"break":4715,"befindet":4716,"konnten":4717,"verschiedenen":4718,"really":4719,"cording":4720,"origin":4721,"hard":4722,"project":4723,"product":4724,"Den":4725,"Terr":4726,"post":4727,"crisis":4728,"resolution":4729,"third":4730,"German":4731,"private":4732,"80":4733,"ffic":4734,"Ru":4735,"IC":4736,"betra":4737,"employment":4738,"vielen":4739,"regul":4740,"internationalen":4741,"europaische":4742,"rop":4743,"samen":4744,"Sy":4745,"resour":4746,"instr":4747,"understand":4748,"lines":4749,"trodu":4750,"entfernt":4751,"imp":4752,"ils":4753,"ption":4754,"Uhr":4755,"progress":4756,"Wirtschaft":4757,"Wind":4758,"food":4759,"negoti":4760,"ifiz":4761,"run":4762,"lands":4763,"dort":4764,"dou":4765,"tele":4766,"Geschafts":4767,"ennt":4768,"serious":4769,"Berichterstatter":4770,"ruch":4771,"ization":4772,"communic":4773,"though":4774,"rael":4775,"adop":4776,"directive":4777,"represent":4778,"ente":4779,"igr":4780,"called":4781,"regional":4782,"oment":4783,"sport":4784,"cra":4785,"na":4786,"test":4787,"Disk":4788,"sens":4789,"opin":4790,"Deutsch":4791,"Meinung":4792,"Ihren":4793,"Chr":4794,"ksam":4795,"Je":4796,"big":4797,"version":4798,"Transp":4799,"gentlemen":4800,"Wirtschafts":4801,"ucht":4802,"wind":4803,"2006":4804,"something":4805,"iere":4806,"software":4807,"contra":4808,"institution":4809,"ances":4810,"frage":4811,"Partner":4812,"Ruck":4813,"introdu":4814,"Tour":4815,"period":4816,"My":4817,"TO":4818,"itself":4819,"enjoy":4820,"AL":4821,"asing":4822,"hinaus":4823,"gere":4824,"Comp":4825,"ino":4826,"Technolog":4827,"welcome":4828,"Gesund":4829,"Invest":4830,"single":4831,"iday":4832,"genann":4833,"zwar":4834,"schaffen":4835,"rules":4836,"forward":4837,"pa":4838,"Madam":4839,"Fest":4840,"ither":4841,"kind":4842,"iben":4843,"Schlussel":4844,"peace":4845,"organis":4846,"general":4847,"cher":4848,"gesagt":4849,"reicht":4850,"ifft":4851,"ago":4852,"ichtet":4853,"Losung":4854,"atives":4855,"ols":4856,"agree":4857,"excell":4858,"ove":4859,"close":4860,"RO":4861,"direkt":4862,"keep":4863,"tz":4864,"among":4865,"Artikel":4866,"name":4867,"El":4868,"ring":4869,"ierungen":4870,"ults":4871,"erste":4872,"Dire":4873,"ov":4874,"erforder":4875,"mark":4876,"grat":4877,"uhr":4878,"werk":4879,"town":4880,"begru":4881,"wohn":4882,"raph":4883,"optim":4884,"olf":4885,"langu":4886,"table":4887,"einzel":4888,"Komm":4889,"hatten":4890,"Abgeord":4891,"nehmer":4892,"often":4893,"house":4894,"unehmen":4895,"ichts":4896,"aden":4897,"strong":4898,"mos":4899,"deli":4900,"fugen":4901,"Zusammenhang":4902,"ude":4903,"Germany":4904,"imate":4905,"bestehen":4906,"Go":4907,"she":4908,"terr":4909,"Gebie":4910,"lot":4911,"ped":4912,"flo":4913,"Hilfe":4914,"folgt":4915,"several":4916,"ferenz":4917,"AG":4918,"mention":4919,"flex":4920,"home":4921,"growth":4922,"Entschließ":4923,"Prasidentin":4924,"meth":4925,"Hotels":4926,"subject":4927,"event":4928,"institutions":4929,"Gleich":4930,"politische":4931,"ief":4932,"least":4933,"taking":4934,"range":4935,"milit":4936,"aul":4937,"zeitig":4938,"Demokrat":4939,"ived":4940,"towards":4941,"Fisch":4942,"TV":4943,"dig":4944,"online":4945,"function":4946,"cks":4947,"individual":4948,"absol":4949,"gelegt":4950,"ians":4951,"entsprechen":4952,"Spra":4953,"AC":4954,"Uns":4955,"network":4956,"Projekt":4957,"money":4958,"weis":4959,"fassung":4960,"Treaty":4961,"amo":4962,"Dieses":4963,"idency":4964,"ours":4965,"Pe":4966,"lon":4967,"ets":4968,"leistungen":4969,"cript":4970,"mann":4971,"once":4972,"bi":4973,"ittle":4974,"Deshalb":4975,"Jan":4976,"Verantwort":4977,"extrem":4978,"particip":4979,"illa":4980,"Region":4981,"increase":4982,"Bas":4983,"positive":4984,"ativen":4985,"raum":4986,"Car":4987,"teilung":4988,"Ele":4989,"Ac":4990,"beiden":4991,"Tat":4992,"Do":4993,"Bau":4994,"following":4995,"iken":4996,"effic":4997,"opportunity":4998,"ival":4999,"Entwicklungs":5000,"Zust":5001,"field":5002,"away":5003,"aufge":5004,"standards":5005,"dest":5006,"erien":5007,"idar":5008,"Frank":5009,"days":5010,"halte":5011,"einander":5012,"gs":5013,"forderungen":5014,"IP":5015,"ones":5016,"Produkte":5017,"Ta":5018,"World":5019,"weniger":5020,"Wes":5021,"class":5022,"Gre":5023,"zogen":5024,"horen":5025,"daran":5026,"Kunst":5027,"Sw":5028,"Red":5029,"technology":5030,"ican":5031,"unserem":5032,"schrift":5033,"stain":5034,"excellent":5035,"entscheiden":5036,"web":5037,"bitte":5038,"comfort":5039,"prochen":5040,"Kultur":5041,"Gemeinschaft":5042,"Stud":5043,"Mil":5044,"Haushalts":5045,"Members":5046,"feel":5047,"sweise":5048,"teilen":5049,"price":5050,"ification":5051,"erwar":5052,"partners":5053,"ference":5054,"icle":5055,"Bl":5056,"prepar":5057,"mag":5058,"luck":5059,"Klim":5060,"things":5061,"anzu":5062,"resources":5063,"alter":5064,"Bank":5065,"trau":5066,"Kor":5067,"Sep":5068,"hunder":5069,"Buch":5070,"Lo":5071,"obje":5072,"admin":5073,"Park":5074,"AP":5075,"Punkt":5076,"proposals":5077,"Fil":5078,"Date":5079,"utzer":5080,"baren":5081,"mean":5082,"anges":5083,"ared":5084,"via":5085,"amendments":5086,"kor":5087,"23":5088,"idence":5089,"uellen":5090,"21":5091,"framework":5092,"troll":5093,"offentlichen":5094,"brauchen":5095,"Kosten":5096,"vier":5097,"tt":5098,"achlich":5099,"lear":5100,"utet":5101,"leisten":5102,"force":5103,"family":5104,"edom":5105,"Zugang":5106,"little":5107,"signific":5108,"Span":5109,"etc":5110,"Personen":5111,"anim":5112,"verkehr":5113,"Initi":5114,"leit":5115,"affen":5116,"seem":5117,"Schul":5118,"eded":5119,"reiche":5120,"Jul":5121,"uses":5122,"Ga":5123,"amental":5124,"beh":5125,"krat":5126,"falt":5127,"Europas":5128,"elect":5129,"Millionen":5130,"kennen":5131,"gemacht":5132,"erfolg":5133,"Berlin":5134,"fragen":5135,"tember":5136,"Aussprache":5137,"yet":5138,"rather":5139,"Stru":5140,"content":5141,"cratic":5142,"soci":5143,"solution":5144,"gute":5145,"ash":5146,"economy":5147,"Univers":5148,"isse":5149,"apart":5150,"until":5151,"indem":5152,"verbunden":5153,"quite":5154,"Verhand":5155,"known":5156,"sichtlich":5157,"gilt":5158,"Stell":5159,"foc":5160,"Bezug":5161,"Israel":5162,"ON":5163,"activities":5164,"Institution":5165,"location":5166,"might":5167,"Priv":5168,"aussch":5169,"Dieser":5170,"Pat":5171,"ene":5172,"jeden":5173,"legislation":5174,"ension":5175,"mass":5176,"ently":5177,"uh":5178,"ladies":5179,"2005":5180,"costs":5181,"vision":5182,"Sozial":5183,"laub":5184,"safety":5185,"Can":5186,"sogar":5187,"ideo":5188,"Erfahr":5189,"rate":5190,"Abstimmung":5191,"zimmer":5192,"apan":5193,"unterstutzt":5194,"Star":5195,"value":5196,"liches":5197,"One":5198,"Stre":5199,"adopted":5200,"volker":5201,"Ebene":5202,"National":5203,"points":5204,"Sa":5205,"standard":5206,"attra":5207,"Preis":5208,"Char":5209,"stimmen":5210,"anst":5211,"Geld":5212,"glaube":5213,"lei":5214,"host":5215,"educ":5216,"ager":5217,"regel":5218,"Tats":5219,"State":5220,"constru":5221,"anger":5222,"border":5223,"struktur":5224,"ison":5225,"gerade":5226,"großer":5227,"appropr":5228,"mind":5229,"rechts":5230,"som":5231,"dan":5232,"mobil":5233,"remain":5234,"beral":5235,"model":5236,"vert":5237,"etwa":5238,"Kap":5239,"agric":5240,"manu":5241,"zeigen":5242,"ebenfalls":5243,"mail":5244,"provided":5245,"request":5246,"AD":5247,"September":5248,"schluss":5249,"mess":5250,"meisten":5251,"effective":5252,"zustellen":5253,"opinion":5254,"Website":5255,"ided":5256,"fallen":5257,"namlich":5258,"altung":5259,"zunehmen":5260,"viol":5261,"za":5262,"ght":5263,"sichtig":5264,"Nov":5265,"Unsere":5266,"sour":5267,"unterschied":5268,"ify":5269,"staat":5270,"building":5271,"einigen":5272,"gestimmt":5273,"verl":5274,"Instr":5275,"sty":5276,"ideal":5277,"deutet":5278,"object":5279,"Son":5280,"Bal":5281,"rank":5282,"durfen":5283,"photo":5284,"Forderung":5285,"derzeit":5286,"treat":5287,"darin":5288,"ingen":5289,"Wasser":5290,"stadt":5291,"situ":5292,"kar":5293,"icial":5294,"2004":5295,"Kamp":5296,"ande":5297,"After":5298,"members":5299,"prove":5300,"four":5301,"team":5302,"voted":5303,"words":5304,"EL":5305,"ented":5306,"front":5307,"imes":5308,"Sel":5309,"include":5310,"ever":5311,"22":5312,"responsibility":5313,"cracy":5314,"iding":5315,"win":5316,"demokrat":5317,"context":5318,"stant":5319,"bzw":5320,"iful":5321,"standig":5322,"nete":5323,"past":5324,"laden":5325,"risk":5326,"tober":5327,"teile":5328,"Jahres":5329,"verein":5330,"reserv":5331,"arbeitet":5332,"zehn":5333,"ehr":5334,"results":5335,"pages":5336,"denken":5337,"nationalen":5338,"policies":5339,"week":5340,"makes":5341,"aged":5342,"concerned":5343,"relation":5344,"Ort":5345,"recomm":5346,"having":5347,"body":5348,"entire":5349,"times":5350,"Verbraucher":5351,"CD":5352,"ckt":5353,"strategy":5354,"Sou":5355,"Pa":5356,"left":5357,"importance":5358,"orn":5359,"questions":5360,"Strategie":5361,"user":5362,"projects":5363,"70":5364,"freedom":5365,"betrifft":5366,"atures":5367,"lange":5368,"ativ":5369,"attention":5370,"staff":5371,"Sub":5372,"contact":5373,"nichts":5374,"Sal":5375,"provides":5376,"leis":5377,"Rei":5378,"Text":5379,"application":5380,"verbess":5381,"Dank":5382,"head":5383,"heart":5384,"send":5385,"shop":5386,"Fortsch":5387,"Pos":5388,"Rechte":5389,"Janu":5390,"zeichnet":5391,"ihn":5392,"Design":5393,"website":5394,"wiesen":5395,"fig":5396,"telle":5397,"gratul":5398,"weiterhin":5399,"moglichen":5400,"len":5401,"environmental":5402,"uen":5403,"Austr":5404,"ios":5405,"keinen":5406,"OS":5407,"ave":5408,"ana":5409,"bleiben":5410,"simply":5411,"Leist":5412,"istan":5413,"cop":5414,"def":5415,"amb":5416,"Rates":5417,"moder":5418,"Bem":5419,"geschlagen":5420,"Verbind":5421,"forts":5422,"Kolleg":5423,"Wh":5424,"sites":5425,"autiful":5426,"zusatz":5427,"iled":5428,"Dok":5429,"griff":5430,"stu":5431,"zahlen":5432,"never":5433,"kraft":5434,"stark":5435,"Book":5436,"Organisation":5437,"lease":5438,"greater":5439,"sollen":5440,"urs":5441,"Beschaft":5442,"mosph":5443,"answer":5444,"challen":5445,"others":5446,"gern":5447,"unkte":5448,"easy":5449,"Nicht":5450,"check":5451,"bezug":5452,"mitt":5453,"groups":5454,"aktiv":5455,"Außer":5456,"Deutschland":5457,"Ku":5458,"add":5459,"beginn":5460,"ona":5461,"oting":5462,"above":5463,"super":5464,"society":5465,"bour":5466,"istic":5467,"bare":5468,"komple":5469,"itionen":5470,"OR":5471,"Prof":5472,"hip":5473,"ihm":5474,"sof":5475,"Sitz":5476,"Che":5477,"seinem":5478,"inge":5479,"increasing":5480,"wichtige":5481,"hes":5482,"Ter":5483,"along":5484,"gebung":5485,"Room":5486,"deutlich":5487,"isiert":5488,"nutzen":5489,"ledge":5490,"losen":5491,"Sicherheits":5492,"erziel":5493,"total":5494,"sal":5495,"central":5496,"stor":5497,"Mail":5498,"wenig":5499,"clearly":5500,"Gesetz":5501,"principle":5502,"reiben":5503,"benot":5504,"overn":5505,"ported":5506,"ihrem":5507,"Groß":5508,"Gaste":5509,"wirtschaftlichen":5510,"Ansicht":5511,"hlen":5512,"Windows":5513,"East":5514,"mechan":5515,"bedeutet":5516,"unachst":5517,"link":5518,"gemeinsam":5519,"came":5520,"Verkehr":5521,"ausch":5522,"minutes":5523,"ichen":5524,"cu":5525,"due":5526,"significant":5527,"leader":5528,"bekannt":5529,"Demokratie":5530,"essential":5531,"hoffe":5532,"erho":5533,"solche":5534,"onstr":5535,"gebot":5536,"authorities":5537,"Restaurant":5538,"sustain":5539,"return":5540,"infl":5541,"trolle":5542,"cli":5543,"Bil":5544,"sug":5545,"changes":5546,"stuck":5547,"deshalb":5548,"betre":5549,"grif":5550,"27":5551,"zer":5552,"Bezieh":5553,"iar":5554,"quick":5555,"terror":5556,"pool":5557,"heim":5558,"Stat":5559,"method":5560,"Just":5561,"charac":5562,"schwer":5563,"uelle":5564,"minister":5565,"uell":5566,"PC":5567,"beautiful":5568,"passen":5569,"nu":5570,"forman":5571,"iers":5572,"behalf":5573,"Fund":5574,"friend":5575,"horden":5576,"Ira":5577,"Umsetzung":5578,"achieve":5579,"proposed":5580,"besten":5581,"interess":5582,"werde":5583,"iting":5584,"Wachst":5585,"Schwe":5586,"distrib":5587,"share":5588,"young":5589,"dien":5590,"extra":5591,"itive":5592,"ri":5593,"draw":5594,"Hol":5595,"responsible":5596,"fish":5597,"Klima":5598,"cir":5599,"setzt":5600,"Prozess":5601,"prec":5602,"2003":5603,"funktion":5604,"fundamental":5605,"Gesellschaft":5606,"Menschenrechte":5607,"arian":5608,"termin":5609,"offe":5610,"moment":5611,"ira":5612,"amt":5613,"required":5614,"assist":5615,"gend":5616,"beispiel":5617,"internal":5618,"customers":5619,"cke":5620,"bro":5621,"vement":5622,"teilt":5623,"Meer":5624,"technical":5625,"manufact":5626,"Mor":5627,"First":5628,"crimin":5629,"aging":5630,"Verbesser":5631,"mals":5632,"nachsten":5633,"inten":5634,"gebracht":5635,"ME":5636,"Russia":5637,"sei":5638,"related":5639,"currently":5640,"Betrie":5641,"affe":5642,"solutions":5643,"unsch":5644,"ands":5645,"Vorschlage":5646,"haltung":5647,"inzip":5648,"democracy":5649,"Industrie":5650,"meeting":5651,"sea":5652,"Verantwortung":5653,"Trans":5654,"safe":5655,"Netz":5656,"gehort":5657,"Dr":5658,"Japan":5659,"Wel":5660,"richtig":5661,"Bevolker":5662,"posed":5663,"frist":5664,"perfect":5665,"anderer":5666,"firm":5667,"greifen":5668,"atal":5669,"remo":5670,"training":5671,"Verfahren":5672,"station":5673,"tin":5674,"bedeut":5675,"natural":5676,"Ziele":5677,"schre":5678,"Richtung":5679,"Druck":5680,"neuer":5681,"Steuer":5682,"ID":5683,"longer":5684,"hens":5685,"Ir":5686,"Daher":5687,"einzu":5688,"heb":5689,"gas":5690,"platz":5691,"wirkungen":5692,"ished":5693,"Von":5694,"Herren":5695,"Op":5696,"bahn":5697,"needed":5698,"bew":5699,"pflicht":5700,"fte":5701,"Cor":5702,"198":5703,"subs":5704,"corre":5705,"Govern":5706,"ames":5707,"anced":5708,"ka":5709,"Struktur":5710,"umente":5711,"efforts":5712,"aud":5713,"notwendig":5714,"By":5715,"fight":5716,"lab":5717,"Bre":5718,"continu":5719,"verg":5720,"lost":5721,"span":5722,"implementation":5723,"Wert":5724,"enthalten":5725,"cultural":5726,"Jahrhunder":5727,"tho":5728,"commod":5729,"interests":5730,"Dam":5731,"November":5732,"fs":5733,"capital":5734,"ites":5735,"markets":5736,"structure":5737,"aufgrund":5738,"May":5739,"Version":5740,"regulation":5741,"Erweiter":5742,"prevent":5743,"enough":5744,"Aspe":5745,"happen":5746,"ada":5747,"Parte":5748,"Apr":5749,"ined":5750,"Christ":5751,"hib":5752,"Zur":5753,"allerdings":5754,"asent":5755,"looking":5756,"Mann":5757,"ama":5758,"ench":5759,"months":5760,"Anwendung":5761,"board":5762,"rela":5763,"aft":5764,"directly":5765,"How":5766,"competition":5767,"Sport":5768,"weiß":5769,"Erfolg":5770,"kei":5771,"Far":5772,"Bedingungen":5773,"scheint":5774,"civil":5775,"parties":5776,"danken":5777,"requirements":5778,"holiday":5779,"apply":5780,"spir":5781,"takt":5782,"active":5783,"recogn":5784,"Hoch":5785,"Jo":5786,"Interesse":5787,"gemeinsamen":5788,"involved":5789,"ging":5790,"Debatte":5791,"IM":5792,"SE":5793,"Nahe":5794,"file":5795,"regions":5796,"Grundlage":5797,"Außen":5798,"Wohn":5799,"etzen":5800,"aurants":5801,"Sh":5802,"Ide":5803,"ott":5804,"try":5805,"negotiations":5806,"Tro":5807,"ßt":5808,"Plan":5809,"option":5810,"Dis":5811,"hinder":5812,"Please":5813,"sure":5814,"Ihrem":5815,"pts":5816,"graph":5817,"Angelegen":5818,"beruck":5819,"volle":5820,"night":5821,"Fern":5822,"vielleicht":5823,"Sud":5824,"iellen":5825,"messen":5826,"fis":5827,"normal":5828,"ibility":5829,"dy":5830,"schwier":5831,"More":5832,"fel":5833,"Erklar":5834,"weder":5835,"Mitarbeit":5836,"Frieden":5837,"live":5838,"Tele":5839,"bevor":5840,"Inst":5841,"stop":5842,"500":5843,"verwendet":5844,"kung":5845,"enthalt":5846,"freund":5847,"General":5848,"Funktion":5849,"organisation":5850,"Krit":5851,"cast":5852,"modif":5853,"clar":5854,"bru":5855,"Wort":5856,"developed":5857,"Institutionen":5858,"linien":5859,"wider":5860,"foreign":5861,"yp":5862,"mbH":5863,"administr":5864,"Wieder":5865,"uren":5866,"Cl":5867,"themselves":5868,"beispielsweise":5869,"democratic":5870,"Reihe":5871,"zel":5872,"Foto":5873,"events":5874,"Du":5875,"fiz":5876,"extremely":5877,"brit":5878,"please":5879,"April":5880,"Gebiet":5881,"merksam":5882,"Einsatz":5883,"Dan":5884,"hon":5885,"aper":5886,"nimmt":5887,"vorgeschlagen":5888,"unternehmen":5889,"Moglichkeiten":5890,"Fehl":5891,"mob":5892,"ables":5893,"gef":5894,"Entscheidung":5895,"bath":5896,"unch":5897,"abilitat":5898,"mand":5899,"auszu":5900,"Integr":5901,"dev":5902,"fluss":5903,"Bu":5904,"according":5905,"acc":5906,"ielle":5907,"Har":5908,"cases":5909,"itions":5910,"Aktiv":5911,"sucht":5912,"bra":5913,"lag":5914,"camp":5915,"andid":5916,"dell":5917,"erreicht":5918,"Besuch":5919,"fairs":5920,"Anderungsantrag":5921,"ball":5922,"developing":5923,"relev":5924,"peten":5925,"sozialen":5926,"lex":5927,"ought":5928,"umfassen":5929,"RE":5930,"acy":5931,"erfull":5932,"appropriate":5933,"Presidency":5934,"Raum":5935,"stead":5936,"disk":5937,"Doch":5938,"2001":5939,"dialog":5940,"Team":5941,"eth":5942,"formance":5943,"actions":5944,"soon":5945,"plat":5946,"contain":5947,"separ":5948,"Fruh":5949,"ses":5950,"nature":5951,"Pub":5952,"Damen":5953,"gets":5954,"ape":5955,"ermoglich":5956,"jud":5957,"schl":5958,"Tages":5959,"GmbH":5960,"sitz":5961,"lig":5962,"respe":5963,"atch":5964,"seits":5965,"harmon":5966,"richtung":5967,"presented":5968,"funds":5969,"90":5970,"jeweil":5971,"ugend":5972,"Sc":5973,"erlau":5974,"combin":5975,"berg":5976,"From":5977,"monitor":5978,"maxim":5979,"improve":5980,"Proto":5981,"gesetz":5982,"gleichen":5983,"Diskuss":5984,"minim":5985,"Nord":5986,"ift":5987,"Abkommen":5988,"thus":5989,"hab":5990,"history":5991,"ators":5992,"gemeinsame":5993,"ders":5994,"Auswirkungen":5995,"card":5996,"moun":5997,"ax":5998,"euro":5999,"item":6000,"hinzu":6001,"erw":6002,"kultur":6003,"Heraus":6004,"achten":6005,"Schritt":6006,"altern":6007,"climate":6008,"....":6009,"mp":6010,"yl":6011,"entwickelt":6012,"depend":6013,"una":6014,"gelten":6015,"ases":6016,"Krie":6017,"advant":6018,"anten":6019,"states":6020,"hung":6021,"Brit":6022,"denke":6023,"lied":6024,"previous":6025,"Verhandlungen":6026,"chem":6027,"herr":6028,"type":6029,"vorschla":6030,"upon":6031,"fortun":6032,"verantwort":6033,"Zus":6034,"lander":6035,"caus":6036,"indic":6037,"Selbst":6038,"Emp":6039,"allgem":6040,"ested":6041,"mel":6042,"Unser":6043,"Insel":6044,"vic":6045,"wan":6046,"reib":6047,"erforderlich":6048,"Geschichte":6049,"kleinen":6050,"konkre":6051,"verfahren":6052,"Musik":6053,"itens":6054,"Lis":6055,"Ergebnis":6056,"ganzen":6057,"ull":6058,"helfen":6059,"held":6060,"cru":6061,"music":6062,"true":6063,"Mitglieder":6064,"maintain":6065,"language":6066,"Wissen":6067,"wim":6068,"encour":6069,"Mot":6070,"character":6071,"scho":6072,"additional":6073,"demonstr":6074,"relax":6075,"grup":6076,"iner":6077,"Host":6078,"carr":6079,"trie":6080,"condition":6081,"ffer":6082,"starken":6083,"Rechn":6084,"Real":6085,"ret":6086,"atory":6087,"education":6088,"recommend":6089,"AM":6090,"Liste":6091,"immed":6092,"ctors":6093,"final":6094,"exam":6095,"Cour":6096,"schie":6097,"Verwalt":6098,"Luft":6099,"prices":6100,"facilities":6101,"istischen":6102,"andert":6103,"avo":6104,"heiß":6105,"France":6106,"2002":6107,"expect":6108,"laim":6109,"onen":6110,"Apart":6111,"Fuhr":6112,"weltweit":6113,"funf":6114,"created":6115,"igungs":6116,"Antwort":6117,"nehm":6118,"tats":6119,"initiative":6120,"Wal":6121,"Inform":6122,"intens":6123,"Kraft":6124,"protect":6125,"phone":6126,"arbeitung":6127,"wurd":6128,"guests":6129,"verschiedene":6130,"Platz":6131,"pict":6132,"Programme":6133,"Anderungsantrage":6134,"analys":6135,"licken":6136,"exten":6137,"seen":6138,"useum":6139,"Hinblick":6140,"century":6141,"links":6142,"Gast":6143,"anti":6144,"Nie":6145,"Iran":6146,"Arch":6147,"Abgeordneten":6148,"offentlich":6149,"sound":6150,"befinden":6151,"Dienstleistungen":6152,"26":6153,"bisher":6154,"haps":6155,"kra":6156,"ermoglicht":6157,"document":6158,"either":6159,"esten":6160,"isieren":6161,"Agr":6162,"wahlen":6163,"verfugt":6164,"idea":6165,"Ausdruck":6166,"abge":6167,"happ":6168,"commer":6169,"suggest":6170,"ritten":6171,"unik":6172,"gemaß":6173,"gesamten":6174,"Regionen":6175,"ey":6176,"gewahl":6177,"Kolleginnen":6178,"comb":6179,"Binnen":6180,"fasst":6181,"actually":6182,"Dialog":6183,"procedure":6184,"effiz":6185,"receive":6186,"gesellschaft":6187,"jenigen":6188,"entsch":6189,"akzept":6190,"Let":6191,"hout":6192,"uz":6193,"angenommen":6194,"lasst":6195,"chter":6196,"ano":6197,"Tatsache":6198,"zone":6199,"hold":6200,"Kle":6201,"va":6202,"ots":6203,"Aug":6204,"impact":6205,"concerns":6206,"28":6207,"Rad":6208,"fal":6209,"Blick":6210,"workers":6211,"hohe":6212,"darum":6213,"Ris":6214,"ceed":6215,"einzelnen":6216,"landern":6217,"South":6218,"seite":6219,"partner":6220,"uth":6221,"Vertre":6222,"space":6223,"spielen":6224,"fam":6225,"enable":6226,"ebenso":6227,"mission":6228,"Beg":6229,"Paris":6230,"cies":6231,"almost":6232,"emphas":6233,"communication":6234,"ony":6235,"works":6236,"www":6237,"rates":6238,"Terror":6239,"colleag":6240,"bildung":6241,"gegenwart":6242,"PL":6243,"chs":6244,"Handels":6245,"refle":6246,"strengthen":6247,"Außerdem":6248,"thre":6249,"Haushalt":6250,"Cas":6251,"adurch":6252,"majority":6253,"living":6254,"users":6255,"Landes":6256,"Office":6257,"Kos":6258,"investment":6259,"certainly":6260,"everything":6261,"rieben":6262,"kampfung":6263,"prim":6264,"restaurant":6265,"sprech":6266,"Krise":6267,"wr":6268,"unique":6269,"ausgest":6270,"ination":6271,"parts":6272,"enor":6273,"ibr":6274,"Minuten":6275,"Beziehungen":6276,"Turkey":6277,"zahlt":6278,"Bereichen":6279,"fahigkeit":6280,"profit":6281,"leistet":6282,"tack":6283,"igration":6284,"Mob":6285,"mitteln":6286,"ired":6287,"wachsen":6288,"West":6289,"usst":6290,"Net":6291,"Seit":6292,"included":6293,"existing":6294,"arm":6295,"CH":6296,"relations":6297,"Vereinigten":6298,"American":6299,"center":6300,"Beitrag":6301,"internationale":6302,"abon":6303,"leading":6304,"Portug":6305,"takes":6306,"keyword":6307,"Ol":6308,"cen":6309,"Zum":6310,"mentioned":6311,"Gruppe":6312,"sprasident":6313,"promo":6314,"knowledge":6315,"anzen":6316,"weiteren":6317,"accommod":6318,"French":6319,"designed":6320,"Gelegen":6321,"folge":6322,"schw":6323,"Angebot":6324,"ping":6325,"buch":6326,"Turkei":6327,"hinter":6328,"guarantee":6329,"Wettbewerbs":6330,"spricht":6331,"wichtigen":6332,"Aufgabe":6333,"doing":6334,"formen":6335,"lok":6336,"situated":6337,"dre":6338,"genie":6339,"Handel":6340,"dict":6341,"igte":6342,"five":6343,"Bevolkerung":6344,"Will":6345,"Up":6346,"parliament":6347,"ured":6348,"fahrt":6349,"ilitat":6350,"amerikan":6351,"Werk":6352,"gab":6353,"ception":6354,"Eur":6355,"consequ":6356,"rich":6357,"Familien":6358,"Lon":6359,"writing":6360,"Forschung":6361,"jedem":6362,"ternal":6363,"Online":6364,"coordin":6365,"Einzel":6366,"ilar":6367,"Reform":6368,"ingt":6369,"Schaf":6370,"aware":6371,"pal":6372,"chsel":6373,"Government":6374,"oss":6375,"prakt":6376,"rau":6377,"surround":6378,"Fischere":6379,"indest":6380,"mid":6381,"mitted":6382,"rachten":6383,"bleibt":6384,"Interessen":6385,"committee":6386,"nahe":6387,"Proz":6388,"programmes":6389,"sess":6390,"Home":6391,"assess":6392,"Weiter":6393,"zif":6394,"amount":6395,"meinen":6396,"Staats":6397,"schle":6398,"gefahr":6399,"associ":6400,"breakfast":6401,"Play":6402,"enlarge":6403,"search":6404,"claim":6405,"Kontrolle":6406,"aler":6407,"letzt":6408,"kund":6409,"prufen":6410,"code":6411,"sec":6412,"correct":6413,"clean":6414,"relig":6415,"exclus":6416,"decisions":6417,"grenz":6418,"features":6419,"Themen":6420,"connection":6421,"Vis":6422,"handeln":6423,"across":6424,"barkeit":6425,"pan":6426,"gangenen":6427,"hoher":6428,"media":6429,"standen":6430,"America":6431,"agreements":6432,"block":6433,"corpor":6434,"35":6435,"conflic":6436,"Verpflicht":6437,"Erweiterung":6438,"mein":6439,"worten":6440,"reasons":6441,"jung":6442,"bald":6443,"throughout":6444,"verstandlich":6445,"neut":6446,"travel":6447,"anzos":6448,"Ha":6449,"professional":6450,"Erst":6451,"sag":6452,"wirtschaftliche":6453,"later":6454,"zeugen":6455,"Thank":6456,"absolute":6457,"fli":6458,"ps":6459,"attet":6460,"Kampf":6461,"Lisbon":6462,"joint":6463,"Behorden":6464,"prasent":6465,"Akt":6466,"jobs":6467,"club":6468,"Verbindung":6469,"aster":6470,"jede":6471,"1999":6472,"ET":6473,"comfortable":6474,"teid":6475,"Entschließung":6476,"dru":6477,"Prior":6478,"files":6479,"bekommen":6480,"outside":6481,"park":6482,"Sor":6483,"Agen":6484,"complex":6485,"Met":6486,"community":6487,"Zentrum":6488,"package":6489,"unabhang":6490,"nothing":6491,"concerning":6492,"heißt":6493,"ava":6494,"North":6495,"Hohe":6496,"Ok":6497,"Liss":6498,"entre":6499,"vil":6500,"quis":6501,"handlung":6502,"Benutzer":6503,"approv":6504,"customer":6505,"values":6506,"heraus":6507,"Wachstum":6508,"unver":6509,"Hal":6510,"Losungen":6511,"ktive":6512,"rund":6513,"gleichzeitig":6514,"Ukra":6515,"vin":6516,"See":6517,"military":6518,"--":6519,"bad":6520,"consult":6521,"Verordnung":6522,"anden":6523,"Standard":6524,"objectives":6525,"famous":6526,"Amen":6527,"conclus":6528,"took":6529,"Server":6530,"integration":6531,"completely":6532,"note":6533,"Di":6534,"hase":6535,"getr":6536,"race":6537,"Anfang":6538,"unseres":6539,"Mun":6540,"plant":6541,"August":6542,"publish":6543,"practice":6544,"sieht":6545,"ba":6546,"Dokument":6547,"ond":6548,"ires":6549,"hours":6550,"wunder":6551,"ush":6552,"digital":6553,"farm":6554,"richten":6555,"fortunately":6556,"original":6557,"performance":6558,"Debian":6559,"Lissabon":6560,"tat":6561,"early":6562,"mm":6563,"koll":6564,"fail":6565,"nissen":6566,"allows":6567,"immungen":6568,"Mag":6569,"garant":6570,"promise":6571,"nachhalt":6572,"richtungen":6573,"Aben":6574,"ec":6575,"jedes":6576,"Court":6577,"Innen":6578,"image":6579,"population":6580,"forms":6581,"ester":6582,"forderung":6583,"ule":6584,"built":6585,"Folgen":6586,"amera":6587,"Centr":6588,"Global":6589,"eller":6590,"29":6591,"official":6592,"Damit":6593,"London":6594,"Stad":6595,"download":6596,"dle":6597,"Finally":6598,"Now":6599,"wenden":6600,"spezie":6601,"agricultural":6602,"van":6603,"anno":6604,"iens":6605,"sent":6606,"congratul":6607,"Ph":6608,"Barcel":6609,"credit":6610,"Kern":6611,"fonds":6612,"45":6613,"gain":6614,"Since":6615,"basic":6616,"OL":6617,"bedingungen":6618,"essour":6619,"Ster":6620,"usse":6621,"Bruss":6622,"300":6623,"hauf":6624,"contains":6625,"objective":6626,"reports":6627,"Fuß":6628,"party":6629,"capac":6630,"Management":6631,"unities":6632,"game":6633,"lant":6634,"regarding":6635,"iterr":6636,"alte":6637,"regular":6638,"Of":6639,"orf":6640,"benefit":6641,"neben":6642,"Linux":6643,"Russland":6644,"Anal":6645,"aring":6646,"extens":6647,"transfer":6648,"traditional":6649,"iment":6650,"Verbesserung":6651,"established":6652,"ost":6653,"satis":6654,"Innov":6655,"kn":6656,"cri":6657,"Bitte":6658,"Rel":6659,"ST":6660,"box":6661,"categor":6662,"efficient":6663,"hafen":6664,"poor":6665,"includes":6666,"prozess":6667,"onnen":6668,"Amend":6669,"huge":6670,"below":6671,"kleine":6672,"wichtigsten":6673,"Macht":6674,"gros":6675,"Pass":6676,"Dec":6677,"PE":6678,"oblig":6679,"simple":6680,"move":6681,"potential":6682,"Binnenmarkt":6683,"Booking":6684,"ersch":6685,"speed":6686,"sense":6687,"rust":6688,"angemessen":6689,"quickly":6690,"div":6691,"gerichtet":6692,"griffen":6693,"Lux":6694,"loss":6695,"Gesundheit":6696,"ris":6697,"got":6698,"Febru":6699,"lux":6700,"entwickeln":6701,"Notwend":6702,"aspe":6703,"plann":6704,"gesamt":6705,"applications":6706,"popular":6707,"instrument":6708,"friendly":6709,"guide":6710,"computer":6711,"sex":6712,"splat":6713,"Daruber":6714,"High":6715,"Log":6716,"Augen":6717,"dring":6718,"Ergebnisse":6719,"feld":6720,"wise":6721,"Frankreich":6722,"ovo":6723,"construction":6724,"Here":6725,"krit":6726,"aner":6727,"hinsichtlich":6728,"Some":6729,"broad":6730,"pet":6731,"warm":6732,"stage":6733,"closed":6734,"bezuglich":6735,"sprung":6736,"beteil":6737,"Fehler":6738,"Informations":6739,"plies":6740,"verbessern":6741,"Bund":6742,"achieved":6743,"ref":6744,"trage":6745,"auber":6746,"schließend":6747,"iveness":6748,"Ka":6749,"focus":6750,"culture":6751,"ermoglichen":6752,"dialogue":6753,"vorschriften":6754,"spater":6755,"igent":6756,"DV":6757,"indeed":6758,"fficient":6759,"consumers":6760,"mehrere":6761,"Nutzung":6762,"gl":6763,"trotz":6764,"Wochen":6765,"spend":6766,"received":6767,"verwenden":6768,"Lauf":6769,"breit":6770,"industrial":6771,"governments":6772,"Gelegenheit":6773,"prob":6774,"seems":6775,"LE":6776,"sett":6777,"gerne":6778,"angebot":6779,"beein":6780,"MS":6781,"schließen":6782,"Volks":6783,"Nur":6784,"grundlegen":6785,"humanit":6786,"export":6787,"san":6788,"ennung":6789,"successful":6790,"pite":6791,"sicherheit":6792,"Initiative":6793,"amendment":6794,"stellungen":6795,"choice":6796,"although":6797,"Last":6798,"Kir":6799,"arenz":6800,"increased":6801,"Second":6802,"Mic":6803,"Konferenz":6804,"Schaffung":6805,"spruch":6806,"mu":6807,"Auss":6808,"learn":6809,"brigen":6810,"Fach":6811,"theless":6812,"Schl":6813,"univers":6814,"Fruhstuck":6815,"Therefore":6816,"hig":6817,"vollig":6818,"recently":6819,"sustainable":6820,"independ":6821,"Gip":6822,"wesent":6823,"Gree":6824,"Get":6825,"anderung":6826,"Auswahl":6827,"diskut":6828,"Business":6829,"spect":6830,"nuclear":6831,"Mitarbeiter":6832,"territ":6833,"geeig":6834,"internet":6835,"Bahn":6836,"archite":6837,"erc":6838,"osen":6839,"gefunden":6840,"creation":6841,"haupt":6842,"walk":6843,"nation":6844,"ganze":6845,"publik":6846,"arg":6847,"circ":6848,"Falle":6849,"iko":6850,"Stunden":6851,"server":6852,"treatment":6853,"31":6854,"jour":6855,"purch":6856,"spar":6857,"Ober":6858,"leb":6859,"heut":6860,"irgend":6861,"Arbeitsplat":6862,"experien":6863,"schriftlich":6864,"transl":6865,"ope":6866,"Further":6867,"ipl":6868,"Sto":6869,"Gewalt":6870,"everyone":6871,"Woche":6872,"dynam":6873,"stances":6874,"itness":6875,"agreed":6876,"Voraus":6877,"Verwendung":6878,"Veranst":6879,"Neu":6880,"Ham":6881,"register":6882,"zeugt":6883,"commitment":6884,"west":6885,"atast":6886,"rid":6887,"Regierungen":6888,"offenen":6889,"soziale":6890,"balance":6891,"gelt":6892,"cross":6893,"meinem":6894,"subsid":6895,"counter":6896,"ological":6897,"Club":6898,"added":6899,"197":6900,"equipped":6901,"profession":6902,"equipment":6903,"direction":6904,"Anderungen":6905,"Pan":6906,"utter":6907,"Strand":6908,"Install":6909,"Don":6910,"Anzahl":6911,"double":6912,"ti":6913,"Reise":6914,"erweise":6915,"mis":6916,"UR":6917,"relevant":6918,"Barcelona":6919,"exchange":6920,"levels":6921,"limited":6922,"engine":6923,"Notwendigkeit":6924,"gal":6925,"stoff":6926,"liz":6927,"guten":6928,"news":6929,"Aufen":6930,"oil":6931,"Vertrau":6932,"principles":6933,"iation":6934,"deliver":6935,"sichtigt":6936,"tic":6937,"Aufenth":6938,"ini":6939,"inne":6940,"verfugen":6941,"union":6942,"suit":6943,"PS":6944,"carry":6945,"icles":6946,"pleas":6947,"goods":6948,"eindeut":6949,"Opt":6950,"Central":6951,"mobile":6952,"gesprochen":6953,"genannten":6954,"covered":6955,"prise":6956,"scient":6957,"urf":6958,"haft":6959,"sorgen":6960,"shown":6961,"June":6962,"Pla":6963,"erklar":6964,"essourcen":6965,"letter":6966,"higher":6967,"Les":6968,"stress":6969,"tempor":6970,"Gefahr":6971,"iglich":6972,"verstehen":6973,"sterdam":6974,"außerst":6975,"matters":6976,"asked":6977,"FR":6978,"Miss":6979,"Material":6980,"appear":6981,"itel":6982,"rein":6983,"starker":6984,"ills":6985,"shows":6986,"qualitat":6987,"Amsterdam":6988,"isted":6989,"Uberein":6990,"langer":6991,"rail":6992,"Zeitpunkt":6993,"kam":6994,"erve":6995,"heben":6996,"hren":6997,"Exper":6998,"schnitt":6999,"Sum":7000,"Col":7001,"eigene":7002,"placed":7003,"WTO":7004,"pflich":7005,"categories":7006,"wonder":7007,"Mac":7008,"solid":7009,"fix":7010,"steller":7011,"Konfli":7012,"tatsachlich":7013,"spezif":7014,"highly":7015,"style":7016,"sufficient":7017,"deck":7018,"former":7019,"Tage":7020,"Herzen":7021,"supply":7022,"Dat":7023,"gesamte":7024,"Gesundheits":7025,"frieden":7026,"Social":7027,"Rot":7028,"einzig":7029,"großten":7030,"ategorien":7031,"six":7032,"mented":7033,"draft":7034,"Solidar":7035,"beginning":7036,"bestat":7037,"wobei":7038,"Gew":7039,"Vereinbar":7040,"HT":7041,"Komprom":7042,"Integration":7043,"response":7044,"creen":7045,"Ukraine":7046,"promote":7047,"Gebau":7048,"Position":7049,"Eigen":7050,"Gemeinschafts":7051,"maßnahmen":7052,"Post":7053,"Stabilitat":7054,"reduce":7055,"emiss":7056,"Sim":7057,"hindern":7058,"Hinter":7059,"stag":7060,"bauen":7061,"Mai":7062,"betrie":7063,"status":7064,"Stellung":7065,"maßig":7066,"innovative":7067,"ially":7068,"fangen":7069,"wortern":7070,"Flughafen":7071,"English":7072,"aufzu":7073,"mod":7074,"zunachst":7075,"vorhand":7076,"ume":7077,"tool":7078,"erheb":7079,"sterreich":7080,"effects":7081,"zy":7082,"uste":7083,"carried":7084,"artige":7085,"Einfuhrung":7086,"Oc":7087,"hohen":7088,"perhaps":7089,"istische":7090,"erwahn":7091,"office":7092,"Beschaftigung":7093,"review":7094,"ski":7095,"Kop":7096,"oppel":7097,"City":7098,"iell":7099,"Wettbewerb":7100,"prepared":7101,"Kommissarin":7102,"quar":7103,"priority":7104,"Transport":7105,"pie":7106,"enlargement":7107,"Sil":7108,"SS":7109,"gewahrleisten":7110,"Kosovo":7111,"Roman":7112,"Anwend":7113,"wunschen":7114,"gehoren":7115,"external":7116,"Develop":7117,"gult":7118,"lediglich":7119,"opportunities":7120,"Inde":7121,"band":7122,"sun":7123,"Open":7124,"freien":7125,"aschinen":7126,"ograph":7127,"choose":7128,"Fortschritte":7129,"wissenschaft":7130,"xis":7131,"mains":7132,"ends":7133,"Liefer":7134,"Erfahrung":7135,"lies":7136,"zentrum":7137,"Nieder":7138,"commercial":7139,"pressure":7140,"talk":7141,"Ferien":7142,"lower":7143,"liberal":7144,"Erachten":7145,"Site":7146,"Ausschusses":7147,"aspects":7148,"video":7149,"door":7150,"Erachtens":7151,"bestimmte":7152,"Lat":7153,"funding":7154,"Produktion":7155,"criter":7156,"hotels":7157,"billion":7158,"vertreten":7159,"similar":7160,"Article":7161,"Bekampfung":7162,"aving":7163,"setting":7164,"acceptable":7165,"Juni":7166,"Somm":7167,"Protokoll":7168,"worth":7169,"Affairs":7170,"rang":7171,"spac":7172,"compre":7173,"Aktivitaten":7174,"attem":7175,"versuchen":7176,"supported":7177,"capacity":7178,"vorliegen":7179,"Personal":7180,"Well":7181,"IL":7182,"details":7183,"condu":7184,"konzentr":7185,"volution":7186,"size":7187,"transparen":7188,"Leit":7189,"veh":7190,"iplom":7191,"ehm":7192,"thanks":7193,"reached":7194,"south":7195,"orient":7196,"offnet":7197,"iterrane":7198,"Zw":7199,"Dinge":7200,"floor":7201,"Schaden":7202,"Aut":7203,"aufgenommen":7204,"consumer":7205,"behind":7206,"Wahrend":7207,"Kommunik":7208,"elekt":7209,"remains":7210,"Kontakt":7211,"verpflich":7212,"registr":7213,"atastrop":7214,"abor":7215,"treffen":7216,"ari":7217,"possibility":7218,"Stim":7219,"Schlusselwortern":7220,"erfolgreich":7221,"Vertrags":7222,"Volk":7223,"Wahlen":7224,"beschaft":7225,"obtain":7226,"usion":7227,"imension":7228,"Africa":7229,"Systems":7230,"considered":7231,"pret":7232,"latest":7233,"gunst":7234,"Standpunkt":7235,"kan":7236,"rought":7237,"ote":7238,"smo":7239,"Ara":7240,"ausschuss":7241,"Punkte":7242,"green":7243,"Tex":7244,"Instrument":7245,"whose":7246,"Dabei":7247,"Mich":7248,"Familie":7249,"Bul":7250,"traffic":7251,"phys":7252,"thin":7253,"mem":7254,"mil":7255,"ierenden":7256,"cul":7257,"wurf":7258,"Such":7259,"pas":7260,"ghan":7261,"meines":7262,"coll":7263,"Computer":7264,"sofort":7265,"garden":7266,"Jugend":7267,"EM":7268,"materials":7269,"ries":7270,"Sicht":7271,"pleased":7272,"bringt":7273,"adap":7274,"Tor":7275,"bein":7276,"ico":7277,"furn":7278,"series":7279,"lam":7280,"Down":7281,"arily":7282,"ierter":7283,"Konig":7284,"defen":7285,"Spain":7286,"print":7287,"setzungen":7288,"Kauf":7289,"determin":7290,"zweite":7291,"sprechend":7292,"kommens":7293,"istics":7294,"Sprache":7295,"iency":7296,"solchen":7297,"decided":7298,"rene":7299,"Erklarung":7300,"erster":7301,"handel":7302,"morgen":7303,"Medien":7304,"schlag":7305,"hervorragen":7306,"concl":7307,"Dez":7308,"mbol":7309,"ij":7310,"satze":7311,"Vorschriften":7312,"airport":7313,"pted":7314,"easily":7315,"Pf":7316,"vergangenen":7317,"braucht":7318,"gerecht":7319,"gefordert":7320,"suffer":7321,"bestimmten":7322,"Convention":7323,"solidar":7324,"infra":7325,"presents":7326,"avoid":7327,"fuhl":7328,"Stu":7329,"nutz":7330,"sagte":7331,"Eing":7332,"Cal":7333,"legung":7334,"Hy":7335,"Gruppen":7336,"Wohl":7337,"somit":7338,"Preise":7339,"places":7340,"Berg":7341,"providing":7342,"allein":7343,"Super":7344,"Golf":7345,"ya":7346,"wertung":7347,"ques":7348,"Aufmerksam":7349,"neigh":7350,"gives":7351,"Ansatz":7352,"Grunde":7353,"employe":7354,"nommen":7355,"Mehrheit":7356,"engen":7357,"Umgebung":7358,"Staat":7359,"Offent":7360,"Sup":7361,"atmosph":7362,"Bestimmungen":7363,"ffe":7364,"Market":7365,"stands":7366,"agenda":7367,"discussion":7368,"mous":7369,"virt":7370,"Pru":7371,"verkauf":7372,"Technologie":7373,"Gra":7374,"Western":7375,"vorgesehen":7376,"pression":7377,"keits":7378,"click":7379,"abzu":7380,"stability":7381,"standigen":7382,"IV":7383,"compromise":7384,"independent":7385,"obwohl":7386,"source":7387,"Entscheidungen":7388,"display":7389,"Os":7390,"December":7391,"iately":7392,"erhalt":7393,"Oper":7394,"industrie":7395,"Bud":7396,"Privat":7397,"assistance":7398,"außerdem":7399,"regulations":7400,"vollen":7401,"uner":7402,"osp":7403,"Basis":7404,"zog":7405,"map":7406,"roat":7407,"SP":7408,"ork":7409,"Ratsprasident":7410,"zeuge":7411,"acce":7412,"creating":7413,"limit":7414,"aust":7415,"anderungen":7416,"Aufmerksamkeit":7417,"ored":7418,"akter":7419,"message":7420,"concept":7421,"Berichts":7422,"otes":7423,"emer":7424,"ette":7425,"kannst":7426,"British":7427,"Java":7428,"erous":7429,"Cre":7430,"rule":7431,"iture":7432,"einschließlich":7433,"auen":7434,"hnt":7435,"accommodation":7436,"steps":7437,"Italy":7438,"einheit":7439,"death":7440,"reading":7441,"einzige":7442,"fisher":7443,"Republic":7444,"Anforderungen":7445,"Transparenz":7446,"Today":7447,"Services":7448,"burger":7449,"eval":7450,"ique":7451,"oben":7452,"Bra":7453,"Meine":7454,"uhungen":7455,"uted":7456,"danger":7457,"produced":7458,"else":7459,"Stelle":7460,"bey":7461,"instruments":7462,"obvious":7463,"Landwirtschaft":7464,"ollar":7465,"Verkehrs":7466,"vorher":7467,"Neben":7468,"Dezember":7469,"ateral":7470,"Zustand":7471,"tom":7472,"standing":7473,"laufen":7474,"Bad":7475,"produce":7476,"path":7477,"leitet":7478,"resse":7479,"dadurch":7480,"Anfrage":7481,"reign":7482,"transpar":7483,"March":7484,"begruße":7485,"legislative":7486,"Agrar":7487,"Bereiche":7488,"pover":7489,"illegal":7490,"movement":7491,"expla":7492,"oten":7493,"Erzeug":7494,"Diskussion":7495,"thous":7496,"1998":7497,"zahlreiche":7498,"Projekte":7499,"influ":7500,"leave":7501,"gewohn":7502,"franzos":7503,"Spa":7504,"Dom":7505,"Italien":7506,"Sign":7507,"exhib":7508,"ously":7509,"statement":7510,"contribution":7511,"ras":7512,"summer":7513,"modified":7514,"Prasidenten":7515,"Investitionen":7516,"beziehen":7517,"Metho":7518,"property":7519,"DVD":7520,"tritt":7521,"repe":7522,"yse":7523,"pointed":7524,"kit":7525,"Agent":7526,"ilen":7527,"Det":7528,"brechen":7529,"bor":7530,"cup":7531,"32":7532,"ausgestattet":7533,"went":7534,"wesen":7535,"task":7536,"arrange":7537,"Free":7538,"uchen":7539,"Prinzip":7540,"Freiheit":7541,"insgesamt":7542,"ark":7543,"Mediterrane":7544,"Verkauf":7545,"arischen":7546,"bezogen":7547,"wall":7548,"Grenzen":7549,"violence":7550,"wichtiger":7551,"procedures":7552,"Aktion":7553,"purpose":7554,"Bon":7555,"Marz":7556,"brought":7557,"ering":7558,"record":7559,"ki":7560,"ritts":7561,"regards":7562,"atmosphere":7563,"Pap":7564,"dete":7565,"rafte":7566,"zweiten":7567,"Sitzung":7568,"activity":7569,"January":7570,"Rooms":7571,"rol":7572,"keiner":7573,"medium":7574,"benotigen":7575,"Test":7576,"reibung":7577,"vorhanden":7578,"Wur":7579,"charge":7580,"erfahren":7581,"effort":7582,"gy":7583,"Schweiz":7584,"UK":7585,"Ist":7586,"Mult":7587,"yer":7588,"Ost":7589,"beitragen":7590,"leistungs":7591,"Also":7592,"Iraq":7593,"conference":7594,"contract":7595,"October":7596,"rig":7597,"Bilder":7598,"erwarten":7599,"sitzen":7600,"aint":7601,"stelle":7602,"Bildung":7603,"Regeln":7604,"sus":7605,"genug":7606,"foot":7607,"erkl":7608,"Every":7609,"Arbeitnehmer":7610,"Unternehmens":7611,"transparency":7612,"getan":7613,"anders":7614,"Wein":7615,"Sen":7616,"verse":7617,"itzer":7618,"dut":7619,"etimes":7620,"Hins":7621,"trip":7622,"child":7623,"Hinsicht":7624,"wirken":7625,"vital":7626,"bir":7627,"ike":7628,"Afghan":7629,"moglichkeiten":7630,"Bestell":7631,"inger":7632,"labour":7633,"stande":7634,"stein":7635,"196":7636,"Schließ":7637,"distribution":7638,"Your":7639,"eingesetzt":7640,"allowed":7641,"niedr":7642,"erinn":7643,"criteria":7644,"Fon":7645,"dent":7646,"CE":7647,"legit":7648,"benefits":7649,"IA":7650,"relationship":7651,"zweif":7652,"ails":7653,"enntnis":7654,"Forschungs":7655,"dienen":7656,"Del":7657,"europaischer":7658,"ellow":7659,"instead":7660,"ffet":7661,"Loc":7662,"haufig":7663,"compon":7664,"genießen":7665,"Sommer":7666,"etary":7667,"neues":7668,"eigentlich":7669,"ourselves":7670,"Mediterranean":7671,"Tem":7672,"bert":7673,"lives":7674,"Solidaritat":7675,"PH":7676,"decl":7677,"Video":7678,"Museum":7679,"Hung":7680,"fishing":7681,"resh":7682,"minor":7683,"TH":7684,"Schw":7685,"aktuellen":7686,"verbind":7687,"giving":7688,"ather":7689,"Rede":7690,"ault":7691,"dise":7692,"zieht":7693,"ausdruck":7694,"ams":7695,"forget":7696,"Prasidentschaft":7697,"paid":7698,"prises":7699,"Mod":7700,"gebaut":7701,"wimming":7702,"Mart":7703,"advantage":7704,"Nationen":7705,"Party":7706,"Datei":7707,"occur":7708,"Schwier":7709,"base":7710,"oo":7711,"Sache":7712,"Lebensmittel":7713,"challenges":7714,"Auffassung":7715,"hoben":7716,"durchgefuhrt":7717,"leider":7718,"interesting":7719,"Villa":7720,"auern":7721,"Furthermore":7722,"sort":7723,"Bemuhungen":7724,"Start":7725,"types":7726,"King":7727,"York":7728,"provisions":7729,"Oktober":7730,"splan":7731,"sinn":7732,"exact":7733,"consist":7734,"poverty":7735,"elections":7736,"Wider":7737,"electron":7738,"except":7739,"ias":7740,"Belg":7741,"morrow":7742,"Untersuch":7743,"Armut":7744,"parte":7745,"PD":7746,"integrated":7747,"mensch":7748,"Empfehl":7749,"solidarity":7750,"Portugal":7751,"largest":7752,"weak":7753,"dienst":7754,"tools":7755,"congratulate":7756,"Cap":7757,"orgung":7758,"film":7759,"Many":7760,"ology":7761,"Instit":7762,"train":7763,"Grunden":7764,"tomorrow":7765,"zusetzen":7766,"ara":7767,"Fallen":7768,"zut":7769,"Burgern":7770,"Bor":7771,"hne":7772,"decken":7773,"geln":7774,"scht":7775,"reli":7776,"growing":7777,"stie":7778,"Gel":7779,"dient":7780,"started":7781,"Linie":7782,"betreffen":7783,"written":7784,"comprehens":7785,"Heute":7786,"rowser":7787,"ktiven":7788,"study":7789,"Ged":7790,"unten":7791,"section":7792,"sl":7793,"documents":7794,"bung":7795,"frequ":7796,"dates":7797,"kontroll":7798,"colleagues":7799,"Palest":7800,"damage":7801,"island":7802,"Development":7803,"geworden":7804,"prefer":7805,"Juli":7806,"bewusst":7807,"geschaffen":7808,"leiten":7809,"constit":7810,"perform":7811,"requires":7812,"bien":7813,"apartment":7814,"Jahrhundert":7815,"consequences":7816,"institutional":7817,"ehe":7818,"Ressourcen":7819,"liar":7820,"afen":7821,"menu":7822,"Bro":7823,"samt":7824,"AK":7825,"ero":7826,"ifik":7827,"wenige":7828,"useful":7829,"beruhm":7830,"icy":7831,"Bulgar":7832,"Bot":7833,"poses":7834,"sw":7835,"geber":7836,"scheinlich":7837,"vergessen":7838,"launch":7839,"Tagesordnung":7840,"conven":7841,"lesen":7842,"utt":7843,"operating":7844,"conflict":7845,"ney":7846,"Offentlichkeit":7847,"Film":7848,"school":7849,"Fah":7850,"dank":7851,"Cast":7852,"Burgerinnen":7853,"haltnis":7854,"offentliche":7855,"Dateien":7856,"victim":7857,"sole":7858,"großte":7859,"Republik":7860,"listen":7861,"renov":7862,"Aufgaben":7863,"July":7864,"curren":7865,"ielt":7866,"serve":7867,"Center":7868,"Italian":7869,"beant":7870,"quare":7871,"Hel":7872,"gehend":7873,"hear":7874,"afe":7875,"dence":7876,"behandelt":7877,"cou":7878,"Januar":7879,"alternative":7880,"erneut":7881,"wood":7882,"crucial":7883,"itude":7884,"folgenden":7885,"langfrist":7886,"komp":7887,"Rights":7888,"Beru":7889,"Ereign":7890,"Tal":7891,"reality":7892,"equal":7893,"IF":7894,"Beteil":7895,"36":7896,"ierende":7897,"Gal":7898,"Ja":7899,"Werte":7900,"werte":7901,"legation":7902,"IB":7903,"verstanden":7904,"Garten":7905,"aup":7906,"constant":7907,"Lassen":7908,"Phil":7909,"immediately":7910,"annual":7911,"happy":7912,"ihres":7913,"hesion":7914,"offiz":7915,"NAT":7916,"tains":7917,"rosoft":7918,"payment":7919,"practical":7920,"produz":7921,"Kuche":7922,"employees":7923,"Auftrag":7924,"ples":7925,"sonst":7926,"elements":7927,"Amendment":7928,"geleg":7929,"enh":7930,"Milliar":7931,"perfe":7932,"forces":7933,"nice":7934,"goes":7935,"Nachbar":7936,"implemented":7937,"kil":7938,"zufuhren":7939,"craft":7940,"gg":7941,"erung":7942,"Zentral":7943,"1997":7944,"terrorism":7945,"variety":7946,"gren":7947,"Straßen":7948,"systeme":7949,"ursprung":7950,"AB":7951,"wid":7952,"applied":7953,"won":7954,"diejenigen":7955,"opol":7956,"preis":7957,"kannt":7958,"merk":7959,"48":7960,"roll":7961,"richtige":7962,"Hostels":7963,"Wahrung":7964,"ienz":7965,"Naturlich":7966,"processes":7967,"bilden":7968,"entsprechenden":7969,"Rechtsvorschriften":7970,"Zweitens":7971,"zufrieden":7972,"Sinne":7973,"ato":7974,"Nr":7975,"verhindern":7976,"north":7977,"ausgezeich":7978,"waste":7979,"steigen":7980,"adequ":7981,"Spezial":7982,"angesichts":7983,"analysis":7984,"demokratischen":7985,"Monaten":7986,"efficiency":7987,"Mid":7988,"config":7989,"sprach":7990,"angel":7991,"IR":7992,"effizient":7993,"zeichnen":7994,"alitat":7995,"berucksichtigt":7996,"behalten":7997,"unmittel":7998,"Ange":7999,"Obje":8000,"Security":8001,"stock":8002,"Modell":8003,"ubrigen":8004,"zeichnung":8005,"drive":8006,"spee":8007,"erkennen":8008,"mas":8009,"Bedurf":8010,"organisations":8011,"Even":8012,"klein":8013,"Microsoft":8014,"freie":8015,"monitoring":8016,"Schn":8017,"eher":8018,"warum":8019,"ado":8020,"copy":8021,"ogle":8022,"aign":8023,"Aller":8024,"paar":8025,"verantwortlich":8026,"Finanzierung":8027,"Rats":8028,"temporary":8029,"fruher":8030,"Dritt":8031,"doubt":8032,"discrimin":8033,"Bundes":8034,"schonen":8035,"itten":8036,"ality":8037,"Vertreter":8038,"partnership":8039,"spirit":8040,"hair":8041,"cret":8042,"track":8043,"standige":8044,"hom":8045,"gewesen":8046,"Firma":8047,"cription":8048,"Tradition":8049,"iveau":8050,"sichtigen":8051,"Beginn":8052,"Koordin":8053,"expl":8054,"Val":8055,"grundet":8056,"blo":8057,"News":8058,"Wunsch":8059,"operations":8060,"erns":8061,"nes":8062,"Vertrauen":8063,"osop":8064,"nachten":8065,"bedingt":8066,"schutzen":8067,"gewiesen":8068,"depart":8069,"Although":8070,"Angelegenheit":8071,"kategorien":8072,"Spanish":8073,"saying":8074,"Enter":8075,"lernen":8076,"architect":8077,"sektor":8078,"berecht":8079,"langt":8080,"Behandlung":8081,"zugang":8082,"sports":8083,"farmers":8084,"Centre":8085,"kap":8086,"highest":8087,"perman":8088,"Minder":8089,"nungen":8090,"ife":8091,"Sat":8092,"unen":8093,"75":8094,"voting":8095,"finally":8096,"zlich":8097,"befur":8098,"expe":8099,"comprehensive":8100,"quiet":8101,"estic":8102,"During":8103,"minimum":8104,"kop":8105,"izin":8106,"honour":8107,"Mos":8108,"Anstreng":8109,"options":8110,"Urlaub":8111,"secure":8112,"400":8113,"Kl":8114,"cert":8115,"Wann":8116,"itzen":8117,"Terrorismus":8118,"Download":8119,"divers":8120,"coast":8121,"reduction":8122,"igungen":8123,"technologies":8124,"meaning":8125,"Winter":8126,"Gericht":8127,"beyond":8128,"ideas":8129,"umfang":8130,"Inhalt":8131,"klass":8132,"dro":8133,"scientific":8134,"Erfahrungen":8135,"sales":8136,"Econom":8137,"ita":8138,"Vergangen":8139,"wertungen":8140,"Mer":8141,"Sant":8142,"dauer":8143,"rum":8144,"SD":8145,"accession":8146,"weist":8147,"Secondly":8148,"preci":8149,"historical":8150,"Aufenthalt":8151,"accord":8152,"challenge":8153,"deine":8154,"zi":8155,"Anderung":8156,"anlage":8157,"Green":8158,"restaurants":8159,"fine":8160,"screen":8161,"vollstandig":8162,"select":8163,"begin":8164,"rapid":8165,"technischen":8166,"zusch":8167,"Camp":8168,"losigkeit":8169,"historic":8170,"Are":8171,"utze":8172,"format":8173,"abe":8174,"verlass":8175,"Kredit":8176,"nern":8177,"tex":8178,"uberhaupt":8179,"ai":8180,"served":8181,"endlich":8182,"leistung":8183,"formul":8184,"erklart":8185,"late":8186,"stehenden":8187,"bezieh":8188,"Dien":8189,"versucht":8190,"ellschaften":8191,"distance":8192,"Praxis":8193,"mic":8194,"bewahr":8195,"weeks":8196,"Wil":8197,"jem":8198,"Krieg":8199,"target":8200,"occas":8201,"session":8202,"steuer":8203,"shops":8204,"village":8205,"Parteien":8206,"Berichterstatterin":8207,"deep":8208,"erfullen":8209,"changed":8210,"daily":8211,"vari":8212,"GN":8213,"Soll":8214,"Tagen":8215,"circum":8216,"ML":8217,"wahrscheinlich":8218,"Demo":8219,"Moreover":8220,"friends":8221,"Viele":8222,"Flex":8223,"Mand":8224,"Schritte":8225,"alone":8226,"Altern":8227,"Folge":8228,"Ang":8229,"ließen":8230,"abkommen":8231,"reference":8232,"rankt":8233,"wanted":8234,"campaign":8235,"AF":8236,"Public":8237,"likely":8238,"iker":8239,"join":8240,"wechsel":8241,"Menschenrechts":8242,"rise":8243,"orial":8244,"Aspekte":8245,"Opfer":8246,"wine":8247,"ories":8248,"Alt":8249,"Spieler":8250,"150":8251,"ades":8252,"opping":8253,"ays":8254,"competit":8255,"fried":8256,"sechs":8257,"agieren":8258,"maximum":8259,"ologie":8260,"numerous":8261,"Herausforderungen":8262,"Ren":8263,"erfolgt":8264,"eingesch":8265,"persons":8266,"clients":8267,"Verteid":8268,"Flor":8269,"critic":8270,"Vergangenheit":8271,"Ire":8272,"Produktions":8273,"Feder":8274,"Gesamt":8275,"Pet":8276,"Telefon":8277,"Islam":8278,"Spanien":8279,"thought":8280,"verab":8281,"pursu":8282,"dep":8283,"ahrungs":8284,"Tier":8285,"Human":8286,"beginnen":8287,"zukunft":8288,"plans":8289,"begrußen":8290,"teach":8291,"ford":8292,"innovation":8293,"langen":8294,"Zivil":8295,"restr":8296,"Allerdings":8297,"candid":8298,"businesses":8299,"Gest":8300,"Google":8301,"Ireland":8302,"Gebaude":8303,"worldwide":8304,"Drit":8305,"Atmosph":8306,"01":8307,"stimm":8308,"Waren":8309,"email":8310,"ista":8311,"daten":8312,"flache":8313,"frag":8314,"elling":8315,"fill":8316,"Nun":8317,"verpflichtet":8318,"sichern":8319,"Mess":8320,"Vir":8321,"Moder":8322,"auß":8323,"raised":8324,"offering":8325,"strategic":8326,"bessere":8327,"sult":8328,"33":8329,"MP":8330,"starting":8331,"spannen":8332,"cos":8333,"sectors":8334,"Cy":8335,"advert":8336,"adopt":8337,"nungs":8338,"leaders":8339,"DA":8340,"motor":8341,"Vo":8342,"plus":8343,"nel":8344,"wesentlich":8345,"machine":8346,"Einige":8347,"gekommen":8348,"zeiten":8349,"Gespra":8350,"Austria":8351,"ruption":8352,"regime":8353,"Berat":8354,"interested":8355,"urgent":8356,"ischem":8357,"erwartet":8358,"sil":8359,"icated":8360,"probably":8361,"valid":8362,"offered":8363,"Schwierigkeiten":8364,"kost":8365,"powers":8366,"krise":8367,"holen":8368,"images":8369,"Krank":8370,"staaten":8371,"anything":8372,"Adresse":8373,"arge":8374,"Firmen":8375,"Archite":8376,"Conference":8377,"Falls":8378,"Directive":8379,"apartments":8380,"modernen":8381,"Arbeitsplatze":8382,"Unterkategorien":8383,"End":8384,"figur":8385,"weiten":8386,"fallt":8387,"Chinese":8388,"genutzt":8389,"published":8390,"jeweiligen":8391,"Sm":8392,"voc":8393,"verstar":8394,"Prem":8395,"substant":8396,"bote":8397,"Zusatz":8398,"Wik":8399,"entsprechend":8400,"atalog":8401,"relating":8402,"exc":8403,"sud":8404,"pruft":8405,"gemeinschaft":8406,"stabil":8407,"Dann":8408,"aver":8409,"methods":8410,"absolutely":8411,"Vergleich":8412,"breite":8413,"seiten":8414,"Denn":8415,"calls":8416,"hilfe":8417,"brand":8418,"karte":8419,"Shop":8420,"became":8421,"letzte":8422,"legant":8423,"Distr":8424,"OT":8425,"aktion":8426,"mogen":8427,"stets":8428,"Afghanistan":8429,"iling":8430,"Karte":8431,"Einw":8432,"fire":8433,"reviews":8434,"anderem":8435,"Einfluss":8436,"justice":8437,"sometimes":8438,"chance":8439,"zumindest":8440,"Verfassung":8441,"1996":8442,"languages":8443,"domin":8444,"mountain":8445,"Ins":8446,"vertrag":8447,"appreci":8448,"games":8449,"iat":8450,"onom":8451,"emissions":8452,"kampfen":8453,"vorzu":8454,"Milliarden":8455,"wrong":8456,"Kapital":8457,"konom":8458,"concentr":8459,"fehlen":8460,"simpl":8461,"Code":8462,"NATO":8463,"offnung":8464,"Landwir":8465,"release":8466,"heutigen":8467,"verm":8468,"caused":8469,"adjust":8470,"verurs":8471,"operate":8472,"historischen":8473,"extent":8474,"QL":8475,"automatisch":8476,"Atmosphare":8477,"Roma":8478,"Agenda":8479,"restrict":8480,"flexible":8481,"bia":8482,"außerhalb":8483,"Liberal":8484,"ubernehmen":8485,"Sonder":8486,"Konzept":8487,"affected":8488,"Schon":8489,"erinnern":8490,"Annahme":8491,"privaten":8492,"Restaurants":8493,"Only":8494,"While":8495,"accepted":8496,"decor":8497,"element":8498,"voraus":8499,"Stellen":8500,"Stock":8501,"Ord":8502,"Prozent":8503,"Indeed":8504,"Georg":8505,"syn":8506,"eindeutig":8507,"erlaubt":8508,"Verwaltung":8509,"dringend":8510,"feed":8511,"ighted":8512,"Tar":8513,"bitten":8514,"SM":8515,"Erstens":8516,"Voll":8517,"urance":8518,"scale":8519,"touch":8520,"Out":8521,"Grand":8522,"2020":8523,"hilfen":8524,"fuge":8525,"EG":8526,"getragen":8527,"fuhrte":8528,"geschrieben":8529,"sitting":8530,"initiatives":8531,"Homepage":8532,"Regierungs":8533,"investig":8534,"Nacht":8535,"Mass":8536,"brid":8537,"genu":8538,"wasser":8539,"zahlreichen":8540,"players":8541,"eingehen":8542,"38":8543,"uern":8544,"reduz":8545,"Lang":8546,"tragt":8547,"Bestand":8548,"player":8549,"Infra":8550,"Anstrengungen":8551,"degre":8552,"confidence":8553,"Bis":8554,"minute":8555,"falle":8556,"erkennung":8557,"banks":8558,"gesund":8559,"speziell":8560,"AV":8561,"announ":8562,"Gipfel":8563,"zep":8564,"University":8565,"Swiss":8566,"bul":8567,"processing":8568,"Ihres":8569,"Kan":8570,"influence":8571,"installation":8572,"borders":8573,"erweiter":8574,"Airport":8575,"expert":8576,"personlichen":8577,"Sterne":8578,"este":8579,"Dazu":8580,"diplom":8581,"slow":8582,"heard":8583,"izes":8584,"Antrag":8585,"gesche":8586,"fant":8587,"pictures":8588,"Doppel":8589,"heav":8590,"talking":8591,"trying":8592,"negative":8593,"renew":8594,"benutzt":8595,"otion":8596,"Gas":8597,"committed":8598,"danke":8599,"Zeichen":8600,"Fischerei":8601,"komplex":8602,"reforms":8603,"Slo":8604,"tage":8605,"ibilitat":8606,"demands":8607,"manufactur":8608,"remember":8609,"stattung":8610,"chair":8611,"Stil":8612,"parking":8613,"bestimmt":8614,"Beweg":8615,"Immobil":8616,"trust":8617,"wachung":8618,"uls":8619,"Obwohl":8620,"Ve":8621,"currency":8622,"comments":8623,"overall":8624,"fit":8625,"Sky":8626,"ecut":8627,"umm":8628,"Acht":8629,"Besonder":8630,"selection":8631,"welches":8632,"amerikanischen":8633,"Angelegenheiten":8634,"PT":8635,"exerc":8636,"lager":8637,"Russian":8638,"lasse":8639,"ED":8640,"Trotz":8641,"critical":8642,"Constitution":8643,"separate":8644,"expressed":8645,"Pak":8646,"Ven":8647,"verme":8648,"Leg":8649,"Betriebs":8650,"morning":8651,"barer":8652,"klus":8653,"fields":8654,"cohesion":8655,"verkehrs":8656,"zudem":8657,"vorgelegt":8658,"buffet":8659,"bemu":8660,"datab":8661,"gruppe":8662,"Verpflichtungen":8663,"Systeme":8664,"Organisationen":8665,"sper":8666,"tert":8667,"ausschließlich":8668,"priorities":8669,"Wissenschaft":8670,"deutschen":8671,"despite":8672,"Bay":8673,"uberzeugt":8674,"lier":8675,"izing":8676,"Grie":8677,"administration":8678,"Kriterien":8679,"Ti":8680,"elegant":8681,"großere":8682,"begrenz":8683,"stimme":8684,"zusatzliche":8685,"ek":8686,"Ausschuß":8687,"Tun":8688,"allgemeinen":8689,"SQL":8690,"angeboten":8691,"She":8692,"konstru":8693,"gebie":8694,"Zweif":8695,"rasch":8696,"bedarf":8697,"beide":8698,"guest":8699,"expected":8700,"ns":8701,"entschieden":8702,"transparent":8703,"Cr":8704,"improved":8705,"Ther":8706,"Schwer":8707,"accordance":8708,"bran":8709,"ubernachten":8710,"goal":8711,"Hafen":8712,"Power":8713,"Einrichtung":8714,"darstellt":8715,"uded":8716,"cycl":8717,"Haft":8718,"structural":8719,"stoffe":8720,"representatives":8721,"Milit":8722,"Nutzen":8723,"Vier":8724,"scope":8725,"cia":8726,"getroffen":8727,"occup":8728,"ober":8729,"Palestin":8730,"itation":8731,"nationale":8732,"bill":8733,"intended":8734,"sych":8735,"decide":8736,"Kompromiss":8737,"approved":8738,"Heim":8739,"Vereinbarung":8740,"italien":8741,"wagen":8742,"isely":8743,"respond":8744,"namely":8745,"Zustimmung":8746,"supports":8747,"chtet":8748,"seines":8749,"attack":8750,"Verhalten":8751,"poll":8752,"Reformen":8753,"Boden":8754,"Entschließungsant":8755,"forced":8756,"altet":8757,"afr":8758,"automatically":8759,"mill":8760,"intell":8761,"Ausgaben":8762,"opening":8763,"ery":8764,"beschlossen":8765,"Partei":8766,"Eigent":8767,"NG":8768,"unemployment":8769,"Irak":8770,"lebt":8771,"krie":8772,"atzen":8773,"tot":8774,"competitive":8775,"aktuelle":8776,"bell":8777,"valu":8778,"IG":8779,"descri":8780,"Reserv":8781,"LAN":8782,"Photo":8783,"votes":8784,"wachst":8785,"positions":8786,"season":8787,"folger":8788,"entgegen":8789,"sagt":8790,"bourg":8791,"Mex":8792,"ethn":8793,"Agre":8794,"increasingly":8795,"administrative":8796,"Gluck":8797,"ended":8798,"Bemerk":8799,"hood":8800,"shopping":8801,"grunde":8802,"Profess":8803,"Arz":8804,"cities":8805,"Mittelme":8806,"east":8807,"counts":8808,"34":8809,"cred":8810,"Eind":8811,"Hor":8812,"Volker":8813,"Hause":8814,"zeichen":8815,"unbedingt":8816,"running":8817,"teuer":8818,"globalen":8819,"explo":8820,"gezeigt":8821,"temper":8822,"Grundsatz":8823,"encourage":8824,"ham":8825,"Frankfur":8826,"kunden":8827,"irl":8828,"mainly":8829,"tabled":8830,"Dro":8831,"Gold":8832,"freuen":8833,"victims":8834,"Kal":8835,"Bru":8836,"conclusion":8837,"hoffen":8838,"Paket":8839,"Vie":8840,"herunter":8841,"erwahnt":8842,"moderne":8843,"usw":8844,"Sektor":8845,"worked":8846,"samm":8847,"Funktionen":8848,"yourself":8849,"ahnen":8850,"angegeben":8851,"reduced":8852,"Leute":8853,"contribute":8854,"Turk":8855,"Idee":8856,"shof":8857,"glauben":8858,"Friedens":8859,"akzeptieren":8860,"starke":8861,"ichert":8862,"hour":8863,"angesprochen":8864,"Schla":8865,"bat":8866,"Waffen":8867,"Ausgang":8868,"Why":8869,"effectively":8870,"Mc":8871,"listed":8872,"circumstances":8873,"Ag":8874,"reisen":8875,"sichten":8876,"elektron":8877,"debt":8878,"Schließlich":8879,"entwickel":8880,"berucksichtigen":8881,"Osterreich":8882,"arus":8883,"proceed":8884,"crime":8885,"destens":8886,"hinweisen":8887,"planning":8888,"suitable":8889,"Innovation":8890,"villa":8891,"Card":8892,"Dollar":8893,"agraph":8894,"fuhrten":8895,"generation":8896,"laws":8897,"benutzen":8898,"Vorteile":8899,"arische":8900,"netz":8901,"sav":8902,"rot":8903,"mix":8904,"schul":8905,"Konflikt":8906,"buy":8907,"ehemal":8908,"sicherzustellen":8909,"protected":8910,"Mio":8911,"deten":8912,"kitchen":8913,"Richtlinien":8914,"geandert":8915,"attle":8916,"anda":8917,"began":8918,"phr":8919,"IE":8920,"entwicklung":8921,"Anerkennung":8922,"veran":8923,"brief":8924,"agriculture":8925,"sources":8926,"kaum":8927,"infrastructure":8928,"Fel":8929,"Kurz":8930,"37":8931,"fellow":8932,"relate":8933,"erzielt":8934,"tit":8935,"ione":8936,"Licht":8937,"mittler":8938,"says":8939,"Any":8940,"immern":8941,"pun":8942,"verfugbar":8943,"discussed":8944,"quem":8945,"summit":8946,"Dub":8947,"deckt":8948,"bathroom":8949,"entspricht":8950,"abwe":8951,"Technologien":8952,"zuge":8953,"ambit":8954,"hagen":8955,"cement":8956,"pendence":8957,"stable":8958,"55":8959,"competen":8960,"ensuring":8961,"Fakt":8962,"compar":8963,"paper":8964,"chann":8965,"manner":8966,"Wettbewerbsfahigkeit":8967,"Asia":8968,"structures":8969,"Nations":8970,"gestellten":8971,"selbstverstandlich":8972,"India":8973,"Lad":8974,"hot":8975,"gewahlt":8976,"Produkten":8977,"pers":8978,"ifizierung":8979,"itch":8980,"ube":8981,"risks":8982,"CO2":8983,"Garant":8984,"gruppen":8985,"Abschluss":8986,"visitors":8987,"russ":8988,"schatz":8989,"unterschiedlichen":8990,"Costa":8991,"lying":8992,"nahm":8993,"Elekt":8994,"gers":8995,"Zwischen":8996,"Pot":8997,"Luxem":8998,"medic":8999,"Infrastruktur":9000,"Its":9001,"ense":9002,"orea":9003,"Emiss":9004,"Durchfuhrung":9005,"Zunachst":9006,"willing":9007,"schreiten":9008,"asks":9009,"Griechen":9010,"aries":9011,"spart":9012,"SL":9013,"swimming":9014,"Mitteilung":9015,"discussions":9016,"DP":9017,"umgesetzt":9018,"developments":9019,"seek":9020,"entsprechende":9021,"ley":9022,"Termin":9023,"functions":9024,"ids":9025,"Weit":9026,"Pack":9027,"Hintergrund":9028,"Banken":9029,"Las":9030,"Lab":9031,"hund":9032,"powerful":9033,"1990":9034,"moglicherweise":9035,"Chance":9036,"quant":9037,"isol":9038,"introduced":9039,"Osten":9040,"families":9041,"gleiche":9042,"kept":9043,"Verfass":9044,"Status":9045,"Standards":9046,"Dig":9047,"tourist":9048,"detailed":9049,"ergreifen":9050,"aupts":9051,"Sprachen":9052,"manage":9053,"plement":9054,"ye":9055,"binden":9056,"spective":9057,"stieg":9058,"Erd":9059,"icip":9060,"marks":9061,"vere":9062,"vielfalt":9063,"budgetary":9064,"reiber":9065,"mindestens":9066,"wants":9067,"Ty":9068,"represents":9069,"moral":9070,"zenz":9071,"street":9072,"Station":9073,"measure":9074,"aded":9075,"achtet":9076,"understanding":9077,"wogen":9078,"prem":9079,"Flucht":9080,"Haltung":9081,"rechten":9082,"participation":9083,"ties":9084,"cting":9085,"freiheit":9086,"bestehenden":9087,"Netzwerk":9088,"Script":9089,"bege":9090,"zuletzt":9091,"Effe":9092,"Mangel":9093,"feature":9094,"Beitritts":9095,"selben":9096,"mehreren":9097,"Belarus":9098,"artigen":9099,"entry":9100,"rural":9101,"Cze":9102,"spa":9103,"resort":9104,"lemente":9105,"era":9106,"kommenden":9107,"kunst":9108,"Installation":9109,"Work":9110,"motion":9111,"Sam":9112,"avig":9113,"gehalten":9114,"Zudem":9115,"spru":9116,"Veranstalt":9117,"Ident":9118,"aimed":9119,"warten":9120,"ivity":9121,"lymp":9122,"Einkauf":9123,"verz":9124,"arf":9125,"Por":9126,"technische":9127,"Inhalte":9128,"liefert":9129,"spann":9130,"evening":9131,"ktoren":9132,"Anspruch":9133,"Kommunikation":9134,"Patient":9135,"Fru":9136,"Then":9137,"multip":9138,"ifen":9139,"closely":9140,"Anwendungen":9141,"assessment":9142,"Bush":9143,"electronic":9144,"Nah":9145,"alloc":9146,"kunf":9147,"flow":9148,"defined":9149,"fresh":9150,"Dre":9151,"licherweise":9152,"icken":9153,"Fonds":9154,"managed":9155,"Regional":9156,"client":9157,"animals":9158,"black":9159,"siehe":9160,"liefer":9161,"igkeits":9162,"Palast":9163,"immen":9164,"lern":9165,"attempt":9166,"audio":9167,"Holz":9168,"Pok":9169,"Wirk":9170,"exactly":9171,"Anpass":9172,"ION":9173,"Alp":9174,"finanziellen":9175,"love":9176,"adequate":9177,"pain":9178,"vac":9179,"1995":9180,"schwierig":9181,"white":9182,"maßen":9183,"verbessert":9184,"Sing":9185,"angezeigt":9186,"lauft":9187,"fuhrer":9188,"festgelegt":9189,"erfullt":9190,"dio":9191,"ureau":9192,"corporate":9193,"speaking":9194,"fahrens":9195,"hochwert":9196,"ares":9197,"stated":9198,"Vorbereit":9199,"CS":9200,"stechn":9201,"plants":9202,"dead":9203,"amber":9204,"People":9205,"notwendigen":9206,"extensive":9207,"schem":9208,"abr":9209,"Rau":9210,"Korper":9211,"tp":9212,"pension":9213,"precisely":9214,"Kenntnis":9215,"uly":9216,"satisf":9217,"constitution":9218,"ISO":9219,"gerichte":9220,"breiten":9221,"Leistungs":9222,"ranken":9223,"ienen":9224,"99":9225,"verfolgen":9226,"schad":9227,"guard":9228,"Abschließend":9229,"Motor":9230,"ints":9231,"weite":9232,"marketing":9233,"Vielfalt":9234,"chines":9235,"Verstand":9236,"voice":9237,"guidelines":9238,"lob":9239,"klicken":9240,"uals":9241,"discrimination":9242,"aming":9243,"provider":9244,"tail":9245,"Aufnahme":9246,"spunkt":9247,"ola":9248,"iser":9249,"Middle":9250,"Klimawand":9251,"income":9252,"specifically":9253,"Cli":9254,"kenn":9255,"properly":9256,"Bade":9257,"gency":9258,"hnung":9259,"Bos":9260,"terrace":9261,"08":9262,"becoming":9263,"According":9264,"tung":9265,"erzielen":9266,"radio":9267,"Olymp":9268,"camera":9269,"Christian":9270,"watch":9271,"usually":9272,"Agreement":9273,"Unfortunately":9274,"competitiveness":9275,"Czech":9276,"britann":9277,"introduction":9278,"init":9279,"cker":9280,"John":9281,"grenzen":9282,"proport":9283,"comment":9284,"Bio":9285,"delivery":9286,"born":9287,"Ausbildung":9288,"erstellt":9289,"09":9290,"ufen":9291,"collection":9292,"mitten":9293,"angeb":9294,"aschine":9295,"Each":9296,"eit":9297,"Mensch":9298,"linked":9299,"icks":9300,"Never":9301,"confirm":9302,"Suche":9303,"Board":9304,"enterprises":9305,"erhohen":9306,"vermeiden":9307,"rahmen":9308,"Berichte":9309,"Sea":9310,"aters":9311,"genannt":9312,"gering":9313,"symbol":9314,"ancen":9315,"ny":9316,"besonderen":9317,"cers":9318,"lio":9319,"reje":9320,"immigration":9321,"programs":9322,"TR":9323,"verring":9324,"liebe":9325,"freue":9326,"bereitet":9327,"speech":9328,"Jetzt":9329,"Greece":9330,"improving":9331,"resist":9332,"Pakistan":9333,"considerable":9334,"cele":9335,"ikal":9336,"anderes":9337,"supporting":9338,"2011":9339,"sicherlich":9340,"Beitritt":9341,"werke":9342,"referred":9343,"thousands":9344,"Apartments":9345,"Brussels":9346,"jeg":9347,"Vielen":9348,"purposes":9349,"geeignet":9350,"financing":9351,"OF":9352,"Kenn":9353,"graf":9354,"64":9355,"pati":9356,"Abend":9357,"Jed":9358,"Warum":9359,"funktioniert":9360,"selected":9361,"expand":9362,"itzerland":9363,"prasident":9364,"facing":9365,"voller":9366,"electric":9367,"defic":9368,"orgfalt":9369,"presidency":9370,"Besucher":9371,"GB":9372,"PHP":9373,"police":9374,"jur":9375,"Arten":9376,"nachdem":9377,"mitglie":9378,"betonen":9379,"students":9380,"MB":9381,"phrase":9382,"Ak":9383,"color":9384,"Klar":9385,"iance":9386,"weap":9387,"crete":9388,"save":9389,"Vorgehen":9390,"Other":9391,"aby":9392,"conver":9393,"Einrichtungen":9394,"Switzerland":9395,"whom":9396,"regret":9397,"idential":9398,"Dienste":9399,"EAD":9400,"unft":9401,"Guest":9402,"Lib":9403,"gran":9404,"Instrumente":9405,"metres":9406,"founded":9407,"klare":9408,"Straße":9409,"getting":9410,"Große":9411,"roy":9412,"usten":9413,"ffiz":9414,"prison":9415,"stattfinden":9416,"combat":9417,"Presse":9418,"schone":9419,"Großbritann":9420,"winter":9421,"Initiativen":9422,"lieben":9423,"Abgeordnete":9424,"dram":9425,"iums":9426,"illeg":9427,"affect":9428,"Sand":9429,"bear":9430,"Arg":9431,"vit":9432,"Risiko":9433,"bruch":9434,"Verwaltungs":9435,"fugt":9436,"dule":9437,"Dol":9438,"lu":9439,"ologischen":9440,"omet":9441,"conce":9442,"Stimme":9443,"Ba":9444,"Versch":9445,"coordination":9446,"bewertungen":9447,"Top":9448,"belieb":9449,"pleasant":9450,"Ban":9451,"Moment":9452,"angs":9453,"provision":9454,"Engagement":9455,"animal":9456,"opened":9457,"duty":9458,"gment":9459,"idents":9460,"ideos":9461,"February":9462,"interpret":9463,"richtigen":9464,"rufen":9465,"earlier":9466,"gnis":9467,"konferenz":9468,"anlagen":9469,"Zweck":9470,"Veranderungen":9471,"Monate":9472,"Immobilien":9473,"Regelung":9474,"jene":9475,"forest":9476,"jederzeit":9477,"gelangen":9478,"Desk":9479,"luxur":9480,"Prote":9481,"guter":9482,"Wege":9483,"mechanis":9484,"39":9485,"reten":9486,"44":9487,"Aust":9488,"kennt":9489,"proto":9490,"spot":9491,"ifying":9492,"medical":9493,"Ratsvor":9494,"isierten":9495,"reichend":9496,"gewunsch":9497,"submitted":9498,"verur":9499,"betracht":9500,"idet":9501,"compens":9502,"otherwise":9503,"walking":9504,"fisheries":9505,"Wellness":9506,"ING":9507,"erreich":9508,"iler":9509,"Note":9510,"schreiben":9511,"iffer":9512,"meld":9513,"Bereit":9514,"Plen":9515,"applies":9516,"Mitgliedstaat":9517,"Prag":9518,"Over":9519,"auth":9520,"Menge":9521,"MA":9522,"followed":9523,"lement":9524,"ku":9525,"Analyse":9526,"aucher":9527,"Leider":9528,"thinking":9529,"cook":9530,"expens":9531,"parliamentary":9532,"anging":9533,"07":9534,"remind":9535,"felt":9536,"Som":9537,"Schiff":9538,"networks":9539,"Prioritaten":9540,"Vereinten":9541,"delay":9542,"3D":9543,"compat":9544,"experts":9545,"openhagen":9546,"Maschinen":9547,"staatlichen":9548,"fixed":9549,"iles":9550,"chmal":9551,"urban":9552,"zuber":9553,"Webseite":9554,"Frankfurt":9555,"ernsth":9556,"bum":9557,"haften":9558,"prufung":9559,"His":9560,"roh":9561,"difficulties":9562,"recognis":9563,"auty":9564,"utin":9565,"hinzufugen":9566,"celebr":9567,"atively":9568,"drawn":9569,"konkrete":9570,"Kindern":9571,"Check":9572,"Fle":9573,"telephone":9574,"Private":9575,"erleich":9576,"Wahrungs":9577,"nieder":9578,"actual":9579,"flu":9580,"Casino":9581,"Salz":9582,"fachen":9583,"entirely":9584,"konzentrieren":9585,"components":9586,"Tatigkeit":9587,"inal":9588,"dagegen":9589,"Kompon":9590,"Found":9591,"alley":9592,"hafte":9593,"Zweifel":9594,"gebiet":9595,"ental":9596,"gewinnen":9597,"Mechan":9598,"spielt":9599,"dealing":9600,"ips":9601,"Herausforderung":9602,"flexibility":9603,"Sau":9604,"tte":9605,"Anteil":9606,"paragraph":9607,"Most":9608,"euch":9609,"gewicht":9610,"suppl":9611,"sold":9612,"Bi":9613,"connected":9614,"fand":9615,"Firstly":9616,"Unabhang":9617,"darunter":9618,"wirks":9619,"Sinn":9620,"nachste":9621,"criminal":9622,"Pun":9623,"bequem":9624,"Sach":9625,"exclusive":9626,"bestand":9627,"refuge":9628,"49":9629,"informed":9630,"hindert":9631,"sized":9632,"flug":9633,"strict":9634,"Research":9635,"rain":9636,"exter":9637,"shower":9638,"dish":9639,"finanzielle":9640,"esterday":9641,"Spr":9642,"Associ":9643,"Katastrop":9644,"core":9645,"dens":9646,"Poland":9647,"amin":9648,"acqu":9649,"hands":9650,"Gastebewertungen":9651,"Strom":9652,"Dennoch":9653,"Einigung":9654,"Leistungen":9655,"Ed":9656,"amente":9657,"declar":9658,"elimin":9659,"durchaus":9660,"Charakter":9661,"ausdrucklich":9662,"Harmon":9663,"opposition":9664,"http":9665,"eingerichtet":9666,"Ern":9667,"chron":9668,"presence":9669,"Schlaf":9670,"Dav":9671,"darstellen":9672,"tourism":9673,"Because":9674,"Programms":9675,"tut":9676,"Schengen":9677,"Lehr":9678,"domestic":9679,"Forum":9680,"signal":9681,"Barro":9682,"beds":9683,"Teile":9684,"Bran":9685,"consideration":9686,"seriously":9687,"degree":9688,"MO":9689,"Sem":9690,"informieren":9691,"Saf":9692,"Policy":9693,"playing":9694,"Meter":9695,"Ubergang":9696,"entweder":9697,"gradu":9698,"welcher":9699,"helpful":9700,"Inn":9701,"drop":9702,"wollte":9703,"bene":9704,"suite":9705,"grade":9706,"ecutive":9707,"rimin":9708,"accur":9709,"Texte":9710,"schlagen":9711,"Forderungen":9712,"05":9713,"arten":9714,"umb":9715,"vereinbar":9716,"entlichen":9717,"bericht":9718,"besitz":9719,"preise":9720,"Brussel":9721,"detail":9722,"gewahrleistet":9723,"propose":9724,"entstehen":9725,"Arbeiten":9726,"Universitat":9727,"ordinary":9728,"Zeitraum":9729,"Once":9730,"bound":9731,"bodies":9732,"horde":9733,"einiger":9734,"offnen":9735,"landsc":9736,"Gebieten":9737,"Adr":9738,"Nahrungs":9739,"purchase":9740,"beha":9741,"atoren":9742,"ication":9743,"humanitarian":9744,"freut":9745,"Under":9746,"threat":9747,"spie":9748,"offentlicht":9749,"Economic":9750,"benotigt":9751,"ending":9752,"sage":9753,"estate":9754,"ameter":9755,"authority":9756,"played":9757,"Poker":9758,"moglichst":9759,"verloren":9760,"EADS":9761,"cin":9762,"ned":9763,"mogliche":9764,"aims":9765,"Worte":9766,"impress":9767,"erfolgen":9768,"saw":9769,"Konigreich":9770,"Komfort":9771,"geleistet":9772,"vernunft":9773,"Qualitats":9774,"Band":9775,"Aspekt":9776,"sand":9777,"Ul":9778,"tie":9779,"verlei":9780,"Regul":9781,"AU":9782,"Aufbau":9783,"enormous":9784,"zig":9785,"beauf":9786,"erleben":9787,"database":9788,"lokalen":9789,"Mitte":9790,"gesp":9791,"diskutieren":9792,"Nutz":9793,"inside":9794,"belong":9795,"aspect":9796,"wait":9797,"erstellen":9798,"wonderful":9799,"abgeschlossen":9800,"atze":9801,"Support":9802,"cards":9803,"besuchen":9804,"larger":9805,"ni":9806,"easier":9807,"appears":9808,"195":9809,"tests":9810,"politischer":9811,"unterstutze":9812,"PDF":9813,"pap":9814,"God":9815,"jeweils":9816,"percent":9817,"meetings":9818,"Hauses":9819,"offee":9820,"Betrieb":9821,"average":9822,"erklaren":9823,"gemut":9824,"leitung":9825,"items":9826,"vorschlagen":9827,"icians":9828,"EP":9829,"concrete":9830,"etze":9831,"Februar":9832,"95":9833,"Fen":9834,"sin":9835,"scen":9836,"Anges":9837,"ength":9838,"Meiner":9839,"nennen":9840,"65":9841,"Zeiten":9842,"geschehen":9843,"600":9844,"isine":9845,"Barroso":9846,"buildings":9847,"800":9848,"schech":9849,"Afrika":9850,"reise":9851,"het":9852,"mund":9853,"Entschließungsantrag":9854,"owners":9855,"abilities":9856,"kostenlos":9857,"okonom":9858,"balanced":9859,"Stellungnahme":9860,"Link":9861,"church":9862,"platze":9863,"uberprufen":9864,"unacceptable":9865,"ores":9866,"taglich":9867,"tete":9868,"Frem":9869,"Versuch":9870,"Name":9871,"vertrau":9872,"kul":9873,"veroffentlicht":9874,"weight":9875,"spat":9876,"Irish":9877,"yn":9878,"Jose":9879,"practices":9880,"komfort":9881,"peaceful":9882,"picture":9883,"permanent":9884,"App":9885,"zerst":9886,"istence":9887,"signed":9888,"Hersteller":9889,"defence":9890,"numbers":9891,"Markte":9892,"teilweise":9893,"discover":9894,"mi":9895,"ummer":9896,"gelassen":9897,"Break":9898,"Gott":9899,"zielle":9900,"hle":9901,"rep":9902,"bedeuten":9903,"gegenseit":9904,"Jahrzehn":9905,"strength":9906,"politics":9907,"gezogen":9908,"fahig":9909,"Ps":9910,"Allgem":9911,"musste":9912,"Asyl":9913,"phil":9914,"absolut":9915,"implementing":9916,"beob":9917,"Einhaltung":9918,"condem":9919,"reasonable":9920,"Cur":9921,"houses":9922,"statements":9923,"orders":9924,"Due":9925,"usch":9926,"elegan":9927,"Achtung":9928,"vey":9929,"Angaben":9930,"ald":9931,"photograph":9932,"Leistung":9933,"sets":9934,"vul":9935,"gelungen":9936,"betrachtet":9937,"vehicles":9938,"differences":9939,"availability":9940,"failure":9941,"Fi":9942,"hing":9943,"Tic":9944,"usive":9945,"Prioritat":9946,"Wi":9947,"entit":9948,"Atlant":9949,"Messe":9950,"happened":9951,"geraum":9952,"Partnerschaft":9953,"EF":9954,"Samm":9955,"confir":9956,"myself":9957,"lav":9958,"Ratsvorsitz":9959,"punkte":9960,"uster":9961,"reducing":9962,"Europeans":9963,"fulfil":9964,"carefully":9965,"Hard":9966,"Mat":9967,"kulturellen":9968,"Großbritannien":9969,"Black":9970,"Hu":9971,"Verhaltnis":9972,"flanzen":9973,"Health":9974,"acknow":9975,"Links":9976,"iro":9977,"Eisen":9978,"krafte":9979,"erscheint":9980,"imag":9981,"Sorge":9982,"Sur":9983,"promoting":9984,"liance":9985,"Mark":9986,"isierte":9987,"Umfang":9988,"Rechnung":9989,"Defin":9990,"monetary":9991,"Click":9992,"owned":9993,"USB":9994,"ela":9995,"Madrid":9996,"fantast":9997,"trading":9998,"Patienten":9999,"appar":10000,"ahead":10001,"losung":10002,"ktivitat":10003,"names":10004,"advanced":10005,"gestalten":10006,"Entwicklungen":10007,"Kritik":10008,"unabhangig":10009,"hner":10010,"Empf":10011,"sle":10012,"personlich":10013,"positiv":10014,"machines":10015,"Tip":10016,"behaup":10017,"Ideen":10018,"contr":10019,"Schrif":10020,"experienced":10021,"hangen":10022,"producers":10023,"klaren":10024,"holt":10025,"charged":10026,"Irland":10027,"falsch":10028,"leiden":10029,"seh":10030,"crats":10031,"zeugung":10032,"calling":10033,"appoint":10034,"Geh":10035,"Quest":10036,"packages":10037,"Gewahr":10038,"Element":10039,"becomes":10040,"Wald":10041,"Herstellung":10042,"profitieren":10043,"unterschiedliche":10044,"vertre":10045,"satisfact":10046,"gast":10047,"initial":10048,"Wall":10049,"vents":10050,"Arab":10051,"wett":10052,"niemand":10053,"communications":10054,"Kommissions":10055,"06":10056,"seven":10057,"fear":10058,"ometer":10059,"economies":10060,"geograph":10061,"PR":10062,"feststellen":10063,"Arbeitslosigkeit":10064,"mbly":10065,"establishment":10066,"verfolgt":10067,"gave":10068,"dennoch":10069,"spacious":10070,"Mutter":10071,"verlassen":10072,"Sehens":10073,"Kompeten":10074,"Uberwachung":10075,"introduce":10076,"booking":10077,"Treffen":10078,"Komple":10079,"Back":10080,"Karten":10081,"generally":10082,"endgult":10083,"Wand":10084,"ishing":10085,"gegenwartig":10086,"aves":10087,"Technik":10088,"allel":10089,"Cam":10090,"Ausfuhr":10091,"Press":10092,"membership":10093,"consumption":10094,"einsetzen":10095,"difference":10096,"Starkung":10097,"umin":10098,"wenigen":10099,"Flexibilitat":10100,"hingewiesen":10101,"mun":10102,"agencies":10103,"regionalen":10104,"Media":10105,"improvement":10106,"schwe":10107,"Scho":10108,"wirksam":10109,"Kil":10110,"mack":10111,"Anlagen":10112,"Polen":10113,"dangerous":10114,"kaufen":10115,"strongly":10116,"ubertragen":10117,"achtung":10118,"Austral":10119,"gegenwartigen":10120,"uan":10121,"stic":10122,"aria":10123,"neighbour":10124,"gelegten":10125,"Fuhrung":10126,"geschutzt":10127,"Environment":10128,"Admin":10129,"multi":10130,"unfortunately":10131,"Diskrimin":10132,"Lesung":10133,"umwelt":10134,"wirkt":10135,"hosp":10136,"master":10137,"Manager":10138,"convin":10139,"ads":10140,"Control":10141,"worfen":10142,"button":10143,"karten":10144,"immediate":10145,"Kingdom":10146,"03":10147,"erforderlichen":10148,"aufmerksam":10149,"mak":10150,"noon":10151,"Prov":10152,"raise":10153,"weiterer":10154,"kunfts":10155,"Origin":10156,"Fortschritt":10157,"zustimmen":10158,"Titel":10159,"bereiten":10160,"cuisine":10161,"47":10162,"zentral":10163,"Format":10164,"Begriff":10165,"versorgung":10166,"vollkommen":10167,"korre":10168,"stone":10169,"passt":10170,"acts":10171,"kompliz":10172,"verbundenen":10173,"Offen":10174,"Street":10175,"phase":10176,"expend":10177,"ennen":10178,"Europaer":10179,"Absatz":10180,"Problemen":10181,"EX":10182,"hose":10183,"grant":10184,"Gren":10185,"election":10186,"Verl":10187,"mine":10188,"died":10189,"HO":10190,"told":10191,"Kontin":10192,"Freund":10193,"gewalt":10194,"fuhrenden":10195,"kontext":10196,"typical":10197,"evidence":10198,"Fire":10199,"convenient":10200,"impossible":10201,"micro":10202,"zuvor":10203,"Gran":10204,"ju":10205,"arta":10206,"itter":10207,"eingefuhrt":10208,"III":10209,"facilit":10210,"Trade":10211,"Resort":10212,"Gemeinsamen":10213,"dir":10214,"zentrale":10215,"imit":10216,"Stor":10217,"tatig":10218,"Wien":10219,"motiv":10220,"Gleichzeitig":10221,"wohner":10222,"adoption":10223,"genet":10224,"ray":10225,"mittag":10226,"2013":10227,"Fu":10228,"Regelungen":10229,"fiscal":10230,"conv":10231,"ehrte":10232,"grammat":10233,"Lam":10234,"rock":10235,"suche":10236,"umfasst":10237,"attach":10238,"Digital":10239,"umen":10240,"Formen":10241,"folgende":10242,"guarantees":10243,"wortet":10244,"excess":10245,"Drogen":10246,"models":10247,"Angesichts":10248,"combination":10249,"Erklarungen":10250,"olution":10251,"betroffen":10252,"Est":10253,"installed":10254,"colour":10255,"genuine":10256,"jet":10257,"anen":10258,"rec":10259,"tabel":10260,"Prime":10261,"shared":10262,"Bedurfnisse":10263,"Rein":10264,"toler":10265,"Grenz":10266,"Nevertheless":10267,"Main":10268,"Fluss":10269,"Plane":10270,"continues":10271,"ata":10272,"governmental":10273,"Klein":10274,"definition":10275,"Kopf":10276,"recognition":10277,"reservation":10278,"African":10279,"tasks":10280,"compla":10281,"vorliegenden":10282,"spent":10283,"wom":10284,"translation":10285,"qualifiz":10286,"cars":10287,"Jeder":10288,"continued":10289,"stil":10290,"Et":10291,"district":10292,"Bewertung":10293,"medizin":10294,"Gent":10295,"Chancen":10296,"Agentur":10297,"DR":10298,"fare":10299,"garantiert":10300,"Bib":10301,"ften":10302,"schau":10303,"Geist":10304,"Blog":10305,"oden":10306,"Heil":10307,"wishes":10308,"anyone":10309,"naher":10310,"legitim":10311,"associated":10312,"bestell":10313,"ißen":10314,"senden":10315,"Dor":10316,"Griechenland":10317,"grenzuber":10318,"Geschaftsordnung":10319,"miteinander":10320,"iano":10321,"waiting":10322,"Player":10323,"demokratische":10324,"andidaten":10325,"Bern":10326,"offensichtlich":10327,"insurance":10328,"grundsatz":10329,"Indien":10330,"Option":10331,"keeping":10332,"background":10333,"Vielzahl":10334,"Polize":10335,"Terrasse":10336,"linge":10337,"Rezept":10338,"Beschluss":10339,"excl":10340,"approxim":10341,"convinced":10342,"ategory":10343,"handels":10344,"98":10345,"truly":10346,"finance":10347,"transition":10348,"haltet":10349,"harm":10350,"umfassende":10351,"Yet":10352,"changing":10353,"orgt":10354,"Beschreibung":10355,"tran":10356,"instance":10357,"organiz":10358,"proof":10359,"ibrary":10360,"Live":10361,"closer":10362,"spending":10363,"Jahrhunderts":10364,"Rechnungs":10365,"Heimat":10366,"Registr":10367,"passed":10368,"figures":10369,"02":10370,"attractive":10371,"ael":10372,"ih":10373,"Studio":10374,"stance":10375,"rug":10376,"begluck":10377,"collabor":10378,"satell":10379,"Def":10380,"eingere":10381,"Swe":10382,"Globalisierung":10383,"Klicken":10384,"Mel":10385,"inens":10386,"Tourismus":10387,"Elemente":10388,"Nutzer":10389,"registered":10390,"feder":10391,"announced":10392,"psych":10393,"ffizienz":10394,"trav":10395,"Beif":10396,"ktions":10397,"Hohen":10398,"sensitive":10399,"enables":10400,"scher":10401,"Beschl":10402,"Pil":10403,"Act":10404,"Third":10405,"hochst":10406,"participate":10407,"Vien":10408,"marked":10409,"reliable":10410,"Distrib":10411,"ilateral":10412,"wohnen":10413,"gegrundet":10414,"Speicher":10415,"blog":10416,"Sehenswurd":10417,"raten":10418,"spezielle":10419,"Lizenz":10420,"length":10421,"Geschaft":10422,"studies":10423,"sale":10424,"spread":10425,"1994":10426,"rough":10427,"griffe":10428,"ena":10429,"Wun":10430,"sicherung":10431,"asil":10432,"Sof":10433,"Mitglieds":10434,"learning":10435,"conclusions":10436,"Enterprise":10437,"gap":10438,"gewiss":10439,"ieht":10440,"Wichtig":10441,"Cop":10442,"uba":10443,"rightly":10444,"Bahnhof":10445,"spo":10446,"iking":10447,"fan":10448,"ernst":10449,"Sound":10450,"possibilities":10451,"bieter":10452,"Jour":10453,"lisch":10454,"gebuhr":10455,"einfache":10456,"barr":10457,"ECU":10458,"religious":10459,"04":10460,"ugos":10461,"outcome":10462,"knup":10463,"ambitious":10464,"Maße":10465,"beteiligt":10466,"ump":10467,"greatest":10468,"wunsche":10469,"schiede":10470,"asyl":10471,"notig":10472,"Association":10473,"devices":10474,"atta":10475,"ausreichend":10476,"matic":10477,"courses":10478,"Gerichtshof":10479,"forth":10480,"ensions":10481,"Entwurf":10482,"Verpflichtung":10483,"perspective":10484,"tainment":10485,"jahrigen":10486,"dimension":10487,"revolution":10488,"Zahlen":10489,"tenance":10490,"Konz":10491,"Roy":10492,"Turkish":10493,"sides":10494,"latter":10495,"Another":10496,"taste":10497,"Sonnen":10498,"label":10499,"Mitteln":10500,"Worten":10501,"Mik":10502,"cm":10503,"Flash":10504,"adapt":10505,"finde":10506,"erei":10507,"Kohas":10508,"secur":10509,"intervention":10510,"schrank":10511,"keinerlei":10512,"honourable":10513,"mode":10514,"hangt":10515,"uberall":10516,"Wechsel":10517,"Finn":10518,"Nether":10519,"elected":10520,"Commun":10521,"bestatigt":10522,"CP":10523,"Where":10524,"store":10525,"42":10526,"mie":10527,"endum":10528,"ologische":10529,"capable":10530,"allowing":10531,"article":10532,"phen":10533,"iertes":10534,"Breakfast":10535,"Stein":10536,"advance":10537,"Dorf":10538,"match":10539,"wettbewer":10540,"venue":10541,"verabschie":10542,"NI":10543,"asylum":10544,"orge":10545,"rupt":10546,"exhibition":10547,"SA":10548,"JavaScript":10549,"Find":10550,"onto":10551,"appeal":10552,"Marketing":10553,"cult":10554,"Tab":10555,"gebe":10556,"tief":10557,"reception":10558,"Palestinian":10559,"Zoll":10560,"dated":10561,"Teilnehmer":10562,"desire":10563,"update":10564,"Syn":10565,"Foundation":10566,"hum":10567,"indire":10568,"wendet":10569,"Vertrie":10570,"seeing":10571,"ellos":10572,"Time":10573,"kete":10574,"uberein":10575,"nom":10576,"mes":10577,"commitments":10578,"interface":10579,"stimmt":10580,"haupts":10581,"advis":10582,"Alex":10583,"respective":10584,"Eindruck":10585,"Sar":10586,"uting":10587,"schir":10588,"großes":10589,"bag":10590,"issu":10591,"Santa":10592,"middle":10593,"plays":10594,"solcher":10595,"television":10596,"dispos":10597,"Rand":10598,"großeren":10599,"coffee":10600,"hall":10601,"glass":10602,"internationaler":10603,"failed":10604,"Fore":10605,"PPE":10606,"Monat":10607,"wesentlichen":10608,"write":10609,"described":10610,"lehnt":10611,"Van":10612,"unless":10613,"matik":10614,"Datenbank":10615,"architecture":10616,"tend":10617,"mussten":10618,"controls":10619,"samtliche":10620,"Hinweis":10621,"Beteiligung":10622,"Budget":10623,"asy":10624,"Sehenswurdigkeiten":10625,"books":10626,"Verteidigung":10627,"ensus":10628,"Ruhe":10629,"Wiederauf":10630,"lah":10631,"chnet":10632,"Verbrechen":10633,"erecht":10634,"Todes":10635,"Niederland":10636,"istisch":10637,"Justice":10638,"Justiz":10639,"empfehlen":10640,"completed":10641,"komplett":10642,"platform":10643,"Eastern":10644,"Gaz":10645,"68":10646,"Kombin":10647,"wealth":10648,"Beschaftigungs":10649,"SC":10650,"geschaf":10651,"Urs":10652,"ertain":10653,"advertising":10654,"totally":10655,"diesel":10656,"Set":10657,"delic":10658,"sofern":10659,"relativ":10660,"ktors":10661,"istik":10662,"ergeben":10663,"Anlage":10664,"Straf":10665,"payments":10666,"Erho":10667,"Marken":10668,"reden":10669,"correspon":10670,"klang":10671,"uben":10672,"skills":10673,"Realitat":10674,"moving":10675,"garantieren":10676,"Dut":10677,"highlight":10678,"franzosischen":10679,"betrachten":10680,"aca":10681,"Saint":10682,"released":10683,"Colle":10684,"highl":10685,"allery":10686,"Custom":10687,"Minutes":10688,"disease":10689,"Aussicht":10690,"candidate":10691,"Experten":10692,"ral":10693,"Kontroll":10694,"desk":10695,"uberw":10696,"combined":10697,"Ausland":10698,"Architektur":10699,"Liber":10700,"Zahlungs":10701,"compared":10702,"SV":10703,"obviously":10704,"ogen":10705,"MU":10706,"drin":10707,"Kunstler":10708,"Empfehlungen":10709,"exercise":10710,"250":10711,"gegangen":10712,"benach":10713,"gutes":10714,"Deutsche":10715,"außen":10716,"zufolge":10717,"nachhaltige":10718,"colleague":10719,"attform":10720,"yesterday":10721,"technik":10722,"Mobil":10723,"territory":10724,"sobald":10725,"bewegen":10726,"Niveau":10727,"contrary":10728,"teilnehmen":10729,"habit":10730,"erhoht":10731,"achieving":10732,"Zugriff":10733,"Ruman":10734,"posite":10735,"Mindest":10736,"nationaler":10737,"organised":10738,"route":10739,"Politiker":10740,"Netherlands":10741,"weapons":10742,"arbeite":10743,"Aktionen":10744,"aktionen":10745,"wunsch":10746,"ky":10747,"ausfuhr":10748,"danach":10749,"argument":10750,"popul":10751,"Rob":10752,"Verstandnis":10753,"Ereignisse":10754,"erfordert":10755,"Datenschutz":10756,"stood":10757,".-":10758,"Great":10759,"Botschaft":10760,"Dimension":10761,"geist":10762,"observ":10763,"expenditure":10764,"leun":10765,"vorgeschlagenen":10766,"ausschusses":10767,"TP":10768,"targets":10769,"Muse":10770,"holung":10771,"limits":10772,"Beihilfen":10773,"beinhaltet":10774,"Methode":10775,"alty":10776,"individuals":10777,"Formular":10778,"Croat":10779,"atever":10780,"Vorsitzen":10781,"memory":10782,"Kind":10783,"ausgewogen":10784,"himself":10785,"Gol":10786,"jungsten":10787,"sequent":10788,"Kirche":10789,"NL":10790,"unternommen":10791,"piece":10792,"unable":10793,"stimul":10794,"hergestellt":10795,"iode":10796,"cycle":10797,"Studien":10798,"liothe":10799,"Nu":10800,"annt":10801,"Thus":10802,"faces":10803,"kern":10804,"Risiken":10805,"Hoffnung":10806,"burden":10807,"meant":10808,"spezial":10809,"EW":10810,"Summit":10811,"earth":10812,"bett":10813,"biggest":10814,"extended":10815,"einverstanden":10816,"Herz":10817,"informiert":10818,"court":10819,"Tisch":10820,"equality":10821,"unit":10822,"goals":10823,"Seine":10824,"fers":10825,"besitzt":10826,"song":10827,"Day":10828,"Syr":10829,"Those":10830,"stur":10831,"factors":10832,"Gegenteil":10833,"sorgfalt":10834,"hrt":10835,"liter":10836,"Ear":10837,"amoun":10838,"rechtlichen":10839,"inspe":10840,"Data":10841,"winn":10842,"Welche":10843,"gestar":10844,"governance":10845,"fruit":10846,"storage":10847,"labor":10848,"turk":10849,"Gesetzgebung":10850,"Tha":10851,"Journal":10852,"Front":10853,"handlungen":10854,"proz":10855,"spolit":10856,"Mitgliedern":10857,"window":10858,"nord":10859,"neither":10860,"Ebenso":10861,"britischen":10862,"Paul":10863,"threaten":10864,"successfully":10865,"museum":10866,"verteid":10867,"gage":10868,"iques":10869,"Fotos":10870,"clo":10871,"ille":10872,"White":10873,"oring":10874,"zahlung":10875,"igrants":10876,"winden":10877,"patent":10878,"Ganz":10879,"Glas":10880,"trollen":10881,"speziellen":10882,"Sho":10883,"Alban":10884,"verste":10885,"mittels":10886,"establishing":10887,"Got":10888,"beaches":10889,"beginnt":10890,"Hall":10891,"usual":10892,"Hamburg":10893,"asking":10894,"estim":10895,"command":10896,"Fraktionen":10897,"Stadte":10898,"geschieht":10899,"zusatzlich":10900,"accessible":10901,"glad":10902,"evalu":10903,"aktual":10904,"ida":10905,"angene":10906,"Report":10907,"eur":10908,"achte":10909,"pil":10910,"Gebiete":10911,"Andre":10912,"Relig":10913,"granted":10914,"advice":10915,"continuing":10916,"ancient":10917,"notice":10918,"nar":10919,"Beob":10920,"dedicated":10921,"expression":10922,"Halb":10923,"nehmern":10924,"vulner":10925,"subje":10926,"prop":10927,"außerord":10928,"daraus":10929,"testing":10930,"allgemeine":10931,"meters":10932,"arrival":10933,"Peter":10934,"erneuer":10935,"grie":10936,"fraud":10937,"grounds":10938,"Minderheiten":10939,"chosen":10940,"iche":10941,"appointed":10942,"Bedarf":10943,"Obama":10944,"agency":10945,"binding":10946,"Beifall":10947,"lect":10948,"schneller":10949,"Eigentum":10950,"abol":10951,"itar":10952,"surface":10953,"regeln":10954,"device":10955,"tten":10956,"recommendations":10957,"obligations":10958,"Ke":10959,"Ra":10960,"gerufen":10961,"visual":10962,"independence":10963,"Show":10964,"Gegensatz":10965,"erh":10966,"ichern":10967,"Vorteil":10968,"Corpor":10969,"Know":10970,"Ros":10971,"Refer":10972,"lastung":10973,"Bol":10974,"Ton":10975,"Fert":10976,"laut":10977,"festgestellt":10978,"Meeres":10979,"Phase":10980,"islat":10981,"Pool":10982,"hostels":10983,"jemand":10984,"wichtigste":10985,"edia":10986,"gewisse":10987,"constantly":10988,"philosop":10989,"Lob":10990,"merely":10991,"Box":10992,"sell":10993,"Arbeitsmarkt":10994,"browser":10995,"Militar":10996,"bezeichnet":10997,"Maria":10998,"tried":10999,"mittelt":11000,"pare":11001,"promotion":11002,"Special":11003,"Slow":11004,"intelle":11005,"ablen":11006,"perfectly":11007,"entitled":11008,"Latin":11009,"sequently":11010,"tent":11011,"edge":11012,"Tom":11013,"Blue":11014,"prevention":11015,"Grundrechte":11016,"schung":11017,"Meinungs":11018,"genannte":11019,"jun":11020,"Muslim":11021,"claims":11022,"angeht":11023,"onia":11024,"unz":11025,"Festival":11026,"Bestandteil":11027,"story":11028,"uung":11029,"istrat":11030,"quer":11031,"versions":11032,"Uberprufung":11033,"Liberalisierung":11034,"Erwart":11035,"gebil":11036,"stream":11037,"England":11038,"surrounding":11039,"globale":11040,"Vienna":11041,"Verletz":11042,"agne":11043,"echte":11044,"theit":11045,"mechanism":11046,"situations":11047,"geoffnet":11048,"advantages":11049,"maintenance":11050,"46":11051,"Effizienz":11052,"arms":11053,"sid":11054,"Wirkung":11055,"ala":11056,"betroffenen":11057,"massive":11058,"pul":11059,"herzlich":11060,"Foreign":11061,"science":11062,"erb":11063,"lichem":11064,"Agency":11065,"manchmal":11066,"Prufung":11067,"Greek":11068,"OM":11069,"hauptsachlich":11070,"wann":11071,"kontin":11072,"Unterkunft":11073,"consistent":11074,"existence":11075,"PRO":11076,"thes":11077,"gesellschaften":11078,"Voraussetzungen":11079,"push":11080,"breitung":11081,"Finan":11082,"communities":11083,"Fitness":11084,"ausland":11085,"instru":11086,"fuel":11087,"intensive":11088,"veget":11089,"Martin":11090,"oral":11091,"mov":11092,"conclude":11093,"Beim":11094,"eind":11095,"ador":11096,"Beach":11097,"Teilen":11098,"strategie":11099,"Farben":11100,"tos":11101,"schuld":11102,"semin":11103,"Fax":11104,"Model":11105,"beachten":11106,"recovery":11107,"Romania":11108,"Nichtr":11109,"Ware":11110,"trend":11111,"sicherstellen":11112,"diag":11113,"Einkaufs":11114,"category":11115,"laid":11116,"Kyo":11117,"ius":11118,"nearby":11119,"denk":11120,"factor":11121,"Nachrichten":11122,"inkl":11123,"vereign":11124,"atlant":11125,"sovereign":11126,"Mir":11127,"Rome":11128,"gesundheit":11129,"Fac":11130,"Diskriminierung":11131,"ula":11132,"Austrian":11133,"ausreichen":11134,"gespe":11135,"quid":11136,"consensus":11137,"intention":11138,"Express":11139,"ENT":11140,"reagieren":11141,"definit":11142,"scr":11143,"inary":11144,"holidays":11145,"einzigen":11146,"discussing":11147,"Michael":11148,"urge":11149,"fragt":11150,"substantial":11151,"romant":11152,"bringing":11153,"besseren":11154,"diskutiert":11155,"Bildungs":11156,"journal":11157,"addressed":11158,"Unabhangigkeit":11159,"organization":11160,"personen":11161,"beauty":11162,"sched":11163,"responsibilities":11164,"160":11165,"qualified":11166,"putting":11167,"ervice":11168,"Haut":11169,"plause":11170,"produktion":11171,"optimal":11172,"Erhohung":11173,"deiner":11174,"personliche":11175,"Kyoto":11176,"Gut":11177,"Generation":11178,"Nichtraucher":11179,"organisationen":11180,"relaxing":11181,"dynamic":11182,"Apparte":11183,"extend":11184,"texts":11185,"Methoden":11186,"submit":11187,"vehicle":11188,"Weitere":11189,"enzial":11190,"contents":11191,"railway":11192,"Sweden":11193,"Korea":11194,"ausende":11195,"employed":11196,"Prakt":11197,"120":11198,"splatz":11199,"convent":11200,"etter":11201,"compliance":11202,"Koordinierung":11203,"Cypr":11204,"Wegen":11205,"blue":11206,"exklus":11207,"strengthening":11208,"Pflicht":11209,"zil":11210,"cheap":11211,"boot":11212,"cat":11213,"itage":11214,"outstanding":11215,"bekannten":11216,"Both":11217,"territorial":11218,"Skype":11219,"fuhlen":11220,"ua":11221,"Ca":11222,"ernen":11223,"Champ":11224,"Klimawandel":11225,"pill":11226,"richtlinie":11227,"Regulation":11228,"familiar":11229,"dun":11230,"Gefuhl":11231,"oram":11232,"kombin":11233,"bezieht":11234,"holders":11235,"cha":11236,"explain":11237,"CC":11238,"jungen":11239,"seeking":11240,"kurzen":11241,"Gedanken":11242,"Alter":11243,"prag":11244,"drucken":11245,"causes":11246,"Teilnahme":11247,"ansion":11248,"contained":11249,"nia":11250,"Engine":11251,"bureau":11252,"therap":11253,"Akte":11254,"FA":11255,"ml":11256,"planned":11257,"LT":11258,"aircraft":11259,"Energy":11260,"flight":11261,"weiteres":11262,"luxury":11263,"900":11264,"disch":11265,"golf":11266,"fertigt":11267,"User":11268,"assung":11269,"talks":11270,"registration":11271,"politisch":11272,"85":11273,"Stuck":11274,"approximately":11275,"beschaftigt":11276,"markte":11277,"flachen":11278,"modell":11279,"igem":11280,"kurzlich":11281,"plug":11282,"Chamber":11283,"praktisch":11284,"ideale":11285,"Absicht":11286,"behandeln":11287,"Prodi":11288,"kurs":11289,"nations":11290,"index":11291,"Reaktion":11292,"decades":11293,"Export":11294,"guaranteed":11295,"Halfte":11296,"Merk":11297,"idung":11298,"examples":11299,"eg":11300,"betont":11301,"yr":11302,"ubernommen":11303,"geraten":11304,"Altstadt":11305,"BR":11306,"Manner":11307,"Schwar":11308,"Bedenken":11309,"ordnungs":11310,"preserv":11311,"Streit":11312,"ws":11313,"vieler":11314,"Kooperation":11315,"hebung":11316,"bindung":11317,"reve":11318,"someone":11319,"vak":11320,"zuverlass":11321,"orte":11322,"respekt":11323,"Class":11324,"Hostelsclub":11325,"iliation":11326,"sichts":11327,"kleiner":11328,"physical":11329,"evaluation":11330,"attacks":11331,"reply":11332,"fash":11333,"hend":11334,"1992":11335,"Tool":11336,"gehor":11337,"explan":11338,"Anti":11339,"akzeptiert":11340,"Sprach":11341,"compl":11342,"brings":11343,"regelmaßig":11344,"bio":11345,"orgnis":11346,"koordin":11347,"landlichen":11348,"Anliegen":11349,"Reisen":11350,"Austausch":11351,"Sow":11352,"stellte":11353,"Angriff":11354,"treated":11355,"oli":11356,"disposal":11357,"kel":11358,"ruhigen":11359,"Vorbereitung":11360,"meist":11361,"geste":11362,"wodurch":11363,"Ass":11364,"Radio":11365,"Lake":11366,"Spiele":11367,"configur":11368,"Graf":11369,"Ausnahme":11370,"patients":11371,"positiven":11372,"attractions":11373,"anbieten":11374,"isierungs":11375,"prasentiert":11376,"competence":11377,"schafft":11378,"liefern":11379,"wers":11380,"Gebrauch":11381,"testen":11382,"Fenster":11383,"ategorie":11384,"omb":11385,"sprachen":11386,"destroy":11387,"Institute":11388,"veranst":11389,"Inner":11390,"Unterschiede":11391,"unto":11392,"welchen":11393,"krimin":11394,"zwungen":11395,"raume":11396,"Financial":11397,"Alliance":11398,"remove":11399,"Hist":11400,"Roll":11401,"Company":11402,"default":11403,"Pras":11404,"1000":11405,"werten":11406,"Nachdem":11407,"Palace":11408,"pi":11409,"leads":11410,"fruh":11411,"enge":11412,"Vielleicht":11413,"Diskussionen":11414,"Details":11415,"Sun":11416,"selten":11417,"technological":11418,"Dokumente":11419,"geiz":11420,"Ubernach":11421,"Komment":11422,"occasion":11423,"Rem":11424,"Zurich":11425,"incent":11426,"Sehr":11427,"sky":11428,"abhangig":11429,"Willen":11430,"befassen":11431,"Typ":11432,"Vom":11433,"auchen":11434,"investments":11435,"Federal":11436,"beruf":11437,"verlieren":11438,"conduct":11439,"Lager":11440,"OK":11441,"esty":11442,"Located":11443,"satellite":11444,"manufacturing":11445,"erscheinen":11446,"magn":11447,"consolid":11448,"zeß":11449,"cool":11450,"Mittelmeer":11451,"jahrlich":11452,"istenz":11453,"surpr":11454,"verstarkt":11455,"assum":11456,"Umstanden":11457,"Rules":11458,"onial":11459,"agiert":11460,"truth":11461,"Internationalen":11462,"Verb":11463,"conditioning":11464,"exec":11465,"sieben":11466,"dealt":11467,"secon":11468,"Mol":11469,"issens":11470,"folio":11471,"Pop":11472,"Anpassung":11473,"fashion":11474,"gender":11475,"ultim":11476,"complic":11477,"error":11478,"Signal":11479,"agent":11480,"aturen":11481,"unbe":11482,"Mak":11483,"beruhmten":11484,"willkommen":11485,"industries":11486,"looks":11487,"mountains":11488,"Sanktionen":11489,"Charter":11490,"41":11491,"unanim":11492,"determined":11493,"Bill":11494,"spaces":11495,"ague":11496,"sanctions":11497,"nack":11498,"ungsverfahren":11499,"Beweis":11500,"einzelne":11501,"photos":11502,"ickt":11503,"schritt":11504,"trieben":11505,"Angebote":11506,"Roh":11507,"ergriffen":11508,"bereiche":11509,"Schulden":11510,"Non":11511,"migration":11512,"spezifischen":11513,"Pay":11514,"Apartment":11515,"gearbeitet":11516,"behalt":11517,"Wachstums":11518,"strom":11519,"seitens":11520,"steel":11521,"Verfugbarkeit":11522,"bac":11523,"warded":11524,"distin":11525,"anischen":11526,"Via":11527,"Enjoy":11528,"recognise":11529,"List":11530,"theor":11531,"entscheid":11532,"consultation":11533,"gestern":11534,"primarily":11535,"gone":11536,"consists":11537,"gebau":11538,"Dutch":11539,"Paper":11540,"Thanks":11541,"river":11542,"Tim":11543,"Delegation":11544,"Gesetze":11545,"anspruch":11546,"43":11547,"HD":11548,"imper":11549,"Erw":11550,"folgerungen":11551,"square":11552,"reject":11553,"surv":11554,"Morgen":11555,"hi":11556,"uberzeugen":11557,"damals":11558,"artists":11559,"Kollege":11560,"grundlage":11561,"Solar":11562,"deutsche":11563,"mutual":11564,"Ordnung":11565,"meister":11566,"smoking":11567,"Fahigkeit":11568,"iced":11569,"raw":11570,"wichtiges":11571,"Democrats":11572,"lake":11573,"leadership":11574,"derzeitigen":11575,"quir":11576,"Tod":11577,"ruf":11578,"krank":11579,"basiert":11580,"older":11581,"uts":11582,"Argent":11583,"eye":11584,"formal":11585,"Handeln":11586,"statten":11587,"participants":11588,"iegen":11589,"begonnen":11590,"nos":11591,"prinzip":11592,"GNU":11593,"Veroffentlich":11594,"Audit":11595,"spezifische":11596,"ando":11597,"Menu":11598,"speakers":11599,"exception":11600,"nochmals":11601,"korper":11602,"dele":11603,"Win":11604,"Aufgrund":11605,"leichter":11606,"Tiere":11607,"regionale":11608,"Fischer":11609,"slight":11610,"controll":11611,"surrounded":11612,"diversity":11613,"hit":11614,"ktiver":11615,"Revolution":11616,"Before":11617,"accounts":11618,"systemat":11619,"zugleich":11620,"spartner":11621,"emphasise":11622,"Square":11623,"defe":11624,"THE":11625,"junge":11626,"stoffen":11627,"Brazil":11628,"furnished":11629,"compatible":11630,"multiple":11631,"Rezeption":11632,"A3":11633,"Maßnahme":11634,"Strategien":11635,"previously":11636,"Feld":11637,"Laufe":11638,"Pflanzen":11639,"werb":11640,"Amerika":11641,"umfassenden":11642,"TER":11643,"Schne":11644,"ucke":11645,"Antworten":11646,"Strukturfonds":11647,"soft":11648,"Einklang":11649,"Dienstleistungs":11650,"Gentoo":11651,"eight":11652,"forum":11653,"Schrift":11654,"pour":11655,"ronom":11656,"stol":11657,"delegation":11658,"kommun":11659,"manufacturers":11660,"Bewegung":11661,"formed":11662,"AND":11663,"teen":11664,"wirt":11665,"Veranstaltungen":11666,"favor":11667,"Perspe":11668,"Landschaft":11669,"gewahrt":11670,"significantly":11671,"Mul":11672,"bars":11673,"ifiziert":11674,"Landwirte":11675,"smaller":11676,"nearly":11677,"Two":11678,"vous":11679,"Fer":11680,"griech":11681,"pleasure":11682,"ode":11683,"identity":11684,"gegebenen":11685,"extreme":11686,"mechanisms":11687,"stations":11688,"ziem":11689,"autom":11690,"Update":11691,"Var":11692,"Erde":11693,"prepare":11694,"Premier":11695,"inspir":11696,"rob":11697,"ships":11698,"Tibet":11699,"improvements":11700,"couple":11701,"entstanden":11702,"approval":11703,"Ubereinkommen":11704,"funktionieren":11705,"empt":11706,"thereby":11707,"700":11708,"traditionellen":11709,"Schwerpunkt":11710,"driving":11711,"gluck":11712,"endor":11713,"Definition":11714,"Weiß":11715,"GDP":11716,"Rund":11717,"fem":11718,"entially":11719,"liber":11720,"schlage":11721,"Voraussetzung":11722,"Que":11723,"Grundsatze":11724,"Besitz":11725,"species":11726,"Leitlinien":11727,"Glau":11728,"disaster":11729,"Cook":11730,"Grenze":11731,"97":11732,"Suite":11733,"Inseln":11734,"repeated":11735,"Use":11736,"vorgenommen":11737,"requested":11738,"unsten":11739,"resulting":11740,"calcul":11741,"proportion":11742,"title":11743,"Key":11744,"primary":11745,"Joh":11746,"Mut":11747,"schwar":11748,"Mehrwert":11749,"rejected":11750,"fif":11751,"iente":11752,"turned":11753,"beraten":11754,"knows":11755,"Zimmern":11756,"termine":11757,"Unterschied":11758,"anner":11759,"bildet":11760,"Autor":11761,"none":11762,"politicians":11763,"gebunden":11764,"grenzuberschreiten":11765,"Zul":11766,"Reich":11767,"ikas":11768,"meldung":11769,"werfen":11770,"Einwanderung":11771,"GU":11772,"ura":11773,"anerkannt":11774,"male":11775,"representative":11776,"Despite":11777,"Tai":11778,"breitet":11779,"obst":11780,"assign":11781,"Umweltschutz":11782,"aktuell":11783,"association":11784,"Kaffe":11785,"Metro":11786,"Studie":11787,"ido":11788,"Stunde":11789,"vorschlag":11790,"TA":11791,"entschlossen":11792,"anze":11793,"behorden":11794,"genauso":11795,"sichtigung":11796,"Dublin":11797,"igern":11798,"presentation":11799,"zielt":11800,"itze":11801,"Schif":11802,"subsidiar":11803,"dah":11804,"balcon":11805,"haber":11806,"incorpor":11807,"igerung":11808,"Dach":11809,"Kombination":11810,"CR":11811,"ispiele":11812,"destru":11813,"drugs":11814,"landscape":11815,"Dadurch":11816,"Lou":11817,"m2":11818,"ora":11819,"Erwachsen":11820,"Regime":11821,"Untersuchung":11822,"DI":11823,"abl":11824,"Krisen":11825,"horiz":11826,"BM":11827,"Airbus":11828,"bek":11829,"andal":11830,"Ferner":11831,"Verbot":11832,"aktive":11833,"hochste":11834,"geboren":11835,"Mach":11836,"wegs":11837,"konkreten":11838,"Swed":11839,"hie":11840,"websites":11841,"dritten":11842,"spring":11843,"imal":11844,"output":11845,"Gewicht":11846,"holding":11847,"schlecht":11848,"Bug":11849,"gypt":11850,"Freude":11851,"Late":11852,"tact":11853,"constructive":11854,"Jun":11855,"Beruck":11856,"resolve":11857,"Hong":11858,"96":11859,"Browser":11860,"Anfragen":11861,"Pod":11862,"Dy":11863,"allgemein":11864,"vielmehr":11865,"Action":11866,"palast":11867,"helping":11868,"stad":11869,"Kurs":11870,"zulegen":11871,"Patent":11872,"Eigenschaften":11873,"controlled":11874,"attitude":11875,"Liebe":11876,"Ferienwohn":11877,"expensive":11878,"quote":11879,"regelmaß":11880,"tracht":11881,"renewable":11882,"hart":11883,"taxes":11884,"Atom":11885,"Publik":11886,"antly":11887,"tech":11888,"contemporary":11889,"Freunde":11890,"Allgemeinen":11891,"verlangen":11892,"aux":11893,"authent":11894,"Master":11895,"beauftrag":11896,"beweg":11897,"servers":11898,"umn":11899,"substances":11900,"sight":11901,"enger":11902,"dau":11903,"nummer":11904,"keines":11905,"orten":11906,"Gewinn":11907,"View":11908,"abled":11909,"Genehm":11910,"expertise":11911,"Glaub":11912,"Satell":11913,"parlament":11914,"Genau":11915,"Eltern":11916,"reflect":11917,"Follow":11918,"seien":11919,"faced":11920,"Temper":11921,"plate":11922,"Strategy":11923,"alp":11924,"wiederum":11925,"beschrieben":11926,"Normen":11927,"akes":11928,"kinds":11929,"earn":11930,"Tagung":11931,"schools":11932,"Rotary":11933,"hospital":11934,"lair":11935,"orien":11936,"USD":11937,"Access":11938,"streben":11939,"Vertrage":11940,"dependent":11941,"carbon":11942,"info":11943,"stro":11944,"clim":11945,"iaz":11946,"riesigen":11947,"MySQL":11948,"ipul":11949,"delivered":11950,"expectations":11951,"represented":11952,"launched":11953,"parallel":11954,"mittlung":11955,"tausch":11956,"entdeck":11957,"exists":11958,"helps":11959,"omas":11960,"unterschiedlich":11961,"ikanischen":11962,"permit":11963,"illustr":11964,"skin":11965,"Egypt":11966,"opposite":11967,"Dafur":11968,"Royal":11969,"stab":11970,"Konsequ":11971,"begann":11972,"weltweiten":11973,"afford":11974,"Rh":11975,"fordere":11976,"Dus":11977,"Ungleich":11978,"Entwicklungslandern":11979,"Ladies":11980,"rown":11981,"requests":11982,"liability":11983,"Gesicht":11984,"Nachfrage":11985,"ieties":11986,"appreciate":11987,"Vision":11988,"Hilfs":11989,"uchten":11990,"Nice":11991,"Sens":11992,"bud":11993,"grundlegenden":11994,"dok":11995,"solve":11996,"1993":11997,"grand":11998,"offic":11999,"Touristen":12000,"lieb":12001,"Lim":12002,"zunehmend":12003,"kulturelle":12004,"recognised":12005,"gericht":12006,"Kann":12007,"sehe":12008,"bridge":12009,"Gebu":12010,"Mont":12011,"straße":12012,"schwierigen":12013,"Agrarpolitik":12014,"extension":12015,"southern":12016,"dramat":12017,"compensation":12018,"iose":12019,"installiert":12020,"Hof":12021,"WC":12022,"Garantie":12023,"refugees":12024,"entliche":12025,"hohere":12026,"quellen":12027,"switch":12028,"ziemlich":12029,"stuff":12030,"happens":12031,"diction":12032,"Dort":12033,"thers":12034,"umgeben":12035,"lip":12036,"snow":12037,"trifft":12038,"amongst":12039,"mobility":12040,"si":12041,"ehemaligen":12042,"Balt":12043,"comply":12044,"heber":12045,"Klimaanlage":12046,"Tel":12047,"privacy":12048,"kunftig":12049,"feeling":12050,"aktivieren":12051,"Good":12052,"wesentliche":12053,"Jer":12054,"ole":12055,"Ohne":12056,"itime":12057,"Gebur":12058,"Copy":12059,"raften":12060,"birth":12061,"coher":12062,"holds":12063,"Island":12064,"gratulieren":12065,"gelost":12066,"covers":12067,"Gerate":12068,"fuhrende":12069,"suffering":12070,"zt":12071,"stes":12072,"thedr":12073,"mac":12074,"institutionellen":12075,"ventionen":12076,"bedroom":12077,"trial":12078,"zusatzlichen":12079,"zweifellos":12080,"lebens":12081,"Fahrzeug":12082,"beziehung":12083,"hilft":12084,"Papier":12085,"vast":12086,"buchen":12087,"opposed":12088,"Verbesserungen":12089,"corner":12090,"directives":12091,"Safety":12092,"Expl":12093,"finding":12094,"password":12095,"mandate":12096,"sinnvoll":12097,"stellungs":12098,"operators":12099,"fighting":12100,"menschlichen":12101,"venture":12102,"emphasis":12103,"arrangements":12104,"enswert":12105,"Tit":12106,"Hauptstadt":12107,"Berucksichtigung":12108,"Stadtzentrum":12109,"Rou":12110,"asp":12111,"Serie":12112,"Schweden":12113,"Gasten":12114,"uters":12115,"Polizei":12116,"Page":12117,"diseases":12118,"Einstellung":12119,"flat":12120,"Westen":12121,"rustung":12122,"Essen":12123,"Kandidaten":12124,"beseit":12125,"shape":12126,"jahrige":12127,"Hindern":12128,"freundliche":12129,"wettbewerbs":12130,"gence":12131,"apter":12132,"amerikanische":12133,"heavy":12134,"Wahrheit":12135,"blood":12136,"annes":12137,"Optim":12138,"Sonn":12139,"1980":12140,"disast":12141,"ameras":12142,"Ministers":12143,"combating":12144,"Kranken":12145,"Ann":12146,"healthy":12147,"langsam":12148,"elles":12149,"loaded":12150,"entscheidend":12151,"interessiert":12152,"angt":12153,"kurzem":12154,"Swedish":12155,"stake":12156,"Kamera":12157,"affairs":12158,"Vorsitz":12159,"spok":12160,"Tatsachlich":12161,"maschinen":12162,"Plug":12163,"tedly":12164,"naturally":12165,"experiences":12166,"Audio":12167,"ermaßen":12168,"weshalb":12169,"gewahlten":12170,"umzusetzen":12171,"Zwei":12172,"Nahrungsmittel":12173,"entspannen":12174,"Four":12175,"Take":12176,"Plaza":12177,"handling":12178,"Bibliothe":12179,"Schnitt":12180,"recommended":12181,"repeat":12182,"oples":12183,"Erwartungen":12184,"figure":12185,"iern":12186,"staatliche":12187,"reserve":12188,"Freizeit":12189,"Kategorie":12190,"engineering":12191,"wachstum":12192,"Instead":12193,"Rule":12194,"diverse":12195,"proud":12196,"plicit":12197,"Vil":12198,"historische":12199,"protecting":12200,"rapporteurs":12201,"valuable":12202,"Lord":12203,"Pruf":12204,"chain":12205,"einrichtungen":12206,"Like":12207,"cycling":12208,"ingu":12209,"lebnis":12210,"courage":12211,"Boot":12212,"KMU":12213,"RA":12214,"obligation":12215,"util":12216,"kurr":12217,"Technology":12218,"defend":12219,"unmittelbar":12220,"waters":12221,"manager":12222,"sauber":12223,"erhaltlich":12224,"Massen":12225,"verwalt":12226,"Mittelpunkt":12227,"Konsens":12228,"azitat":12229,"Applause":12230,"Nein":12231,"windigkeit":12232,"Nahen":12233,"involvement":12234,"Av":12235,"mur":12236,"außergewohn":12237,"schlagt":12238,"personally":12239,"wissenschaftlichen":12240,"intellect":12241,"iene":12242,"produkte":12243,"confirmed":12244,"Old":12245,"assure":12246,"nament":12247,"Problems":12248,"contrast":12249,"Brenn":12250,"inflation":12251,"udes":12252,"neter":12253,"Munchen":12254,"ausgezeichneten":12255,"articles":12256,"tragung":12257,"gi":12258,"kunfte":12259,"Materialien":12260,"rote":12261,"amerika":12262,"Kunde":12263,"verhalten":12264,"Theater":12265,"ignor":12266,"grundlegende":12267,"treaty":12268,"Harmonisierung":12269,"discharge":12270,"ema":12271,"durfte":12272,"Websites":12273,"Munich":12274,"erheblich":12275,"nt":12276,"schließt":12277,"Umgang":12278,"niemals":12279,"Beispiele":12280,"eroffnet":12281,"kontrolle":12282,"Grun":12283,"praz":12284,"Il":12285,"ami":12286,"filter":12287,"kostet":12288,"Schule":12289,"verletz":12290,"involving":12291,"automatic":12292,"fee":12293,"UNO":12294,"crat":12295,"relatively":12296,"increases":12297,"ausgezeichnete":12298,"Original":12299,"BSE":12300,"EZ":12301,"soweit":12302,"rub":12303,"Suden":12304,"betrieb":12305,"quarter":12306,"Emissionen":12307,"obstac":12308,"kontakt":12309,"Moun":12310,"individuell":12311,"thorough":12312,"determine":12313,"ischung":12314,"Befug":12315,"iction":12316,"happening":12317,"abgelehnt":12318,"minuten":12319,"bug":12320,"stron":12321,"charming":12322,"runs":12323,"durchzufuhren":12324,"verandert":12325,"fertig":12326,"ulted":12327,"aufzunehmen":12328,"criticism":12329,"Beratung":12330,"sicherungs":12331,"Life":12332,"officials":12333,"abling":12334,"Englisch":12335,"straight":12336,"safeguard":12337,"Britain":12338,"zuruckzu":12339,"millions":12340,"destination":12341,"drawing":12342,"Verfahrens":12343,"Bedien":12344,"units":12345,"Rumanien":12346,"Bucht":12347,"Sad":12348,"producing":12349,"Uberzeugung":12350,"Steuern":12351,"MEPs":12352,"Word":12353,"Drittens":12354,"intend":12355,"trotzdem":12356,"Div":12357,"ateful":12358,"Abschnitt":12359,"verandern":12360,"fluge":12361,"decis":12362,"equally":12363,"Welcome":12364,"marquis":12365,"Jean":12366,"kolle":12367,"schnelle":12368,"privile":12369,"marg":12370,"profile":12371,"hervorragende":12372,"Anschluss":12373,"beab":12374,"opinions":12375,"wareness":12376,"ausgesprochen":12377,"catalog":12378,"ierend":12379,"consc":12380,"debates":12381,"resolved":12382,"Ausgabe":12383,"interessant":12384,"detaill":12385,"lautet":12386,"ofin":12387,"entered":12388,"amounts":12389,"Dauer":12390,"resolutions":12391,"geschaft":12392,"Standort":12393,"sparte":12394,"Mas":12395,"retain":12396,"Provin":12397,"Brasil":12398,"Punkten":12399,"ardo":12400,"whatever":12401,"Very":12402,"moved":12403,"nachzu":12404,"legungen":12405,"reffen":12406,"ipp":12407,"grad":12408,"reds":12409,"mist":12410,"rational":12411,"2012":12412,"magaz":12413,"eingeschrankt":12414,"acquis":12415,"Mitgliedschaft":12416,"David":12417,"bekampfen":12418,"igsten":12419,"Alternative":12420,"Mem":12421,"PA":12422,"centres":12423,"Whe":12424,"Framework":12425,"fullung":12426,"direkte":12427,"largely":12428,"zentralen":12429,"banken":12430,"igence":12431,"depends":12432,"BIP":12433,"string":12434,"Distribution":12435,"Gesetzes":12436,"River":12437,"eror":12438,"Spann":12439,"komme":12440,"Szen":12441,"swe":12442,"icon":12443,"gewonnen":12444,"western":12445,"Redner":12446,"Ju":12447,"pp":12448,"reaching":12449,"hardware":12450,"Angst":12451,"strategies":12452,"Hon":12453,"liste":12454,"peoples":12455,"president":12456,"starten":12457,"Fruhstucks":12458,"bemuht":12459,"verlangt":12460,"Question":12461,"creates":12462,"Abkommens":12463,"objects":12464,"liberalisation":12465,"Luxembourg":12466,"begluckwunschen":12467,"Koh":12468,"umping":12469,".....":12470,"creative":12471,"terrorist":12472,"besitzen":12473,"Croatia":12474,"zuglich":12475,"Urlau":12476,"Anwendungs":12477,"mini":12478,"Entwicklungslander":12479,"Mobilitat":12480,"Anderungsantragen":12481,"FOR":12482,"secret":12483,"zuerst":12484,"Stahl":12485,"volume":12486,"kehren":12487,"Studenten":12488,"bing":12489,"takte":12490,"neuesten":12491,"define":12492,"IX":12493,"heil":12494,"ziele":12495,"regulatory":12496,"ais":12497,"ehrgeiz":12498,"strugg":12499,"Ausmaß":12500,"Krimin":12501,"ipel":12502,"naturlichen":12503,"applicable":12504,"entwickelten":12505,"Ausfuhrungen":12506,"zuganglich":12507,"Viertel":12508,"girl":12509,"gehoben":12510,"Block":12511,"behorde":12512,"Direkt":12513,"rev":12514,"enthus":12515,"Zert":12516,"Projekten":12517,"inzwischen":12518,"CL":12519,"conserv":12520,"discovered":12521,"Strukturen":12522,"contributions":12523,"dans":12524,"exclusively":12525,"Kroat":12526,"annehmen":12527,"iosen":12528,"HTML":12529,"exceptional":12530,"Ungar":12531,"aka":12532,"analy":12533,"betragt":12534,"Wirklichkeit":12535,"ruppen":12536,"passengers":12537,"Anbieter":12538,"reichung":12539,"Krankheiten":12540,"restrictions":12541,"Lange":12542,"Bulgaria":12543,"isto":12544,"Fremden":12545,"Berufs":12546,"kunftigen":12547,"yes":12548,"Farb":12549,"entdecken":12550,"volunt":12551,"Cent":12552,"ursprunglichen":12553,"Kuste":12554,"druckt":12555,"Zins":12556,"arts":12557,"named":12558,"aufgefordert":12559,"Erinner":12560,"vollstandige":12561,"removed":12562,"gold":12563,"plen":12564,"restric":12565,"SMEs":12566,"chnen":12567,"Grad":12568,"dor":12569,"einfachen":12570,"Eisenbahn":12571,"isher":12572,"engl":12573,"schatzung":12574,"WLAN":12575,"derartige":12576,"schatzen":12577,"Arme":12578,"Vorschlagen":12579,"Verfassungs":12580,"traum":12581,"Meet":12582,"iary":12583,"proved":12584,"ffend":12585,"ae":12586,"Norden":12587,"meat":12588,"UT":12589,"Aktien":12590,"complet":12591,"remote":12592,"Client":12593,"impression":12594,"gange":12595,"EB":12596,"Jack":12597,"ermut":12598,"topic":12599,"Jedes":12600,"auben":12601,"Cho":12602,"Heiz":12603,"zulassen":12604,"Amts":12605,"fehlt":12606,"berechtigt":12607,"ethnic":12608,"wirtschaftlicher":12609,"palastinens":12610,"grateful":12611,"sorgt":12612,"betreffenden":12613,"cable":12614,"Rich":12615,"eigenes":12616,"aga":12617,"Coun":12618,"discip":12619,"awareness":12620,"precise":12621,"schwed":12622,"aside":12623,"rac":12624,"Armen":12625,"weisung":12626,"dritte":12627,"ym":12628,"helped":12629,"nachhaltigen":12630,"Inc":12631,"wirklichen":12632,"Ratsprasidentschaft":12633,"requirement":12634,"italienischen":12635,"Putin":12636,"realistic":12637,"andererseits":12638,"Großen":12639,"universal":12640,"Yes":12641,"osterreich":12642,"advoc":12643,"lobby":12644,"involve":12645,"shad":12646,"ittees":12647,"erweitert":12648,"boat":12649,"facilitate":12650,"teils":12651,"gather":12652,"verabschiedet":12653,"Vi":12654,"teten":12655,"thet":12656,"Partnern":12657,"wing":12658,"lets":12659,"inos":12660,"uier":12661,"esch":12662,"angehen":12663,"eds":12664,"Bauern":12665,"Empfehlung":12666,"verursacht":12667,"unent":12668,"ismen":12669,"module":12670,"erlauben":12671,"temperature":12672,"fi":12673,"Wird":12674,"reserves":12675,"nd":12676,"Their":12677,"kans":12678,"ergeb":12679,"wild":12680,"utzten":12681,"zeichnis":12682,"lots":12683,"SO":12684,"legte":12685,"serves":12686,"Geschle":12687,"Kohasion":12688,"kurze":12689,"dich":12690,"richtet":12691,"vig":12692,"trop":12693,"CF":12694,"award":12695,"laßt":12696,"1989":12697,"Schatten":12698,"Plus":12699,"hochsten":12700,"obtained":12701,"preparation":12702,"worse":12703,"privat":12704,"tours":12705,"itag":12706,"Verring":12707,"Soc":12708,"correctly":12709,"nischen":12710,"pick":12711,"anstatt":12712,"derart":12713,"entlang":12714,"letzter":12715,"bilateral":12716,"Veranstaltung":12717,"westlichen":12718,"Identitat":12719,"Ski":12720,"verdient":12721,"conciliation":12722,"bestimmen":12723,"Ausfuhrung":12724,"Balkan":12725,"ario":12726,"fallig":12727,"identify":12728,"1991":12729,"Music":12730,"hervorheben":12731,"Pin":12732,"deals":12733,"curs":12734,"operational":12735,"ilst":12736,"parliaments":12737,"pieces":12738,"kas":12739,"connections":12740,"andon":12741,"gewinn":12742,"visa":12743,"continent":12744,"schirm":12745,"bedrooms":12746,"flege":12747,"Entscheidungs":12748,"Konto":12749,"erinner":12750,"minority":12751,"Puer":12752,"schef":12753,"vess":12754,"Komponenten":12755,"LO":12756,"ops":12757,"reported":12758,"ahme":12759,"trees":12760,"sah":12761,"bewalt":12762,"whilst":12763,"furniture":12764,"speaker":12765,"Hans":12766,"Zentralbank":12767,"ruct":12768,"ungefahr":12769,"Ubereinstimmung":12770,"welfare":12771,"auftreten":12772,"Planung":12773,"locations":12774,"Elect":12775,"Us":12776,"acher":12777,"glaub":12778,"Drittlandern":12779,"schauen":12780,"Maast":12781,"kette":12782,"Ret":12783,"ighten":12784,"School":12785,"Edit":12786,"prohib":12787,"Executive":12788,"messages":12789,"Behinder":12790,"Mode":12791,"uft":12792,"ticket":12793,"conflicts":12794,"freiwill":12795,"Karl":12796,"genehm":12797,"collective":12798,"Agric":12799,"Proced":12800,"phar":12801,"Fal":12802,"gepruft":12803,"viet":12804,"Außenpolitik":12805,"anke":12806,"worry":12807,"auschen":12808,"offices":12809,"Indones":12810,"UM":12811,"stoß":12812,"schonsten":12813,"telefon":12814,"Frien":12815,"Ambien":12816,"Arbeitsplatzen":12817,"organizations":12818,"cam":12819,"zin":12820,"noise":12821,"Abhang":12822,"metal":12823,"lev":12824,"chinesischen":12825,"Tschech":12826,"firms":12827,"Gros":12828,"Programmen":12829,"Bemerkungen":12830,"grunden":12831,"wirkung":12832,"Fahigkeiten":12833,"produziert":12834,"Konfigur":12835,"kommunik":12836,"answers":12837,"waffen":12838,"aps":12839,"Ima":12840,"themat":12841,"Verbindungen":12842,"verbesser":12843,"Gesam":12844,"Arbeitsplatz":12845,"Anhang":12846,"subsidies":12847,"investors":12848,"COM":12849,"Director":12850,"iot":12851,"anne":12852,"Infl":12853,"eyes":12854,"faster":12855,"angemessene":12856,"Optionen":12857,"abroad":12858,"Kommunikations":12859,"Gesprache":12860,"issued":12861,"kontinuier":12862,"Mur":12863,"aught":12864,"Church":12865,"cancel":12866,"Ubersetzung":12867,"focused":12868,"sichere":12869,"cutting":12870,"cold":12871,"angesehen":12872,"symp":12873,"Polish":12874,"Canada":12875,"Subsid":12876,"Vereinbarungen":12877,"effectiveness":12878,"betrieben":12879,"Ambiente":12880,"parents":12881,"Automobil":12882,"Gestaltung":12883,"organisiert":12884,"Farbe":12885,"durchfuhren":12886,"Kontext":12887,"statistics":12888,"depth":12889,"Prinzipien":12890,"dishes":12891,"Rent":12892,"maintained":12893,"charges":12894,"bestatigen":12895,"Stimmen":12896,"IK":12897,"Wass":12898,"ati":12899,"Einstellungen":12900,"ubernimmt":12901,"ceeded":12902,"residence":12903,"Sour":12904,"gewissen":12905,"notwendige":12906,"Noch":12907,"Stift":12908,"Kabel":12909,"bildungs":12910,"Blut":12911,"gross":12912,"delighted":12913,"Amerikan":12914,"Vater":12915,"anspru":12916,"onymous":12917,"sexual":12918,"impressive":12919,"Gleichgewicht":12920,"dienste":12921,"verringern":12922,"ancy":12923,"battle":12924,"Phone":12925,"spectac":12926,"vergleich":12927,"streets":12928,"begrußt":12929,"zeptabel":12930,"Bir":12931,"faith":12932,"contracts":12933,"Investitions":12934,"navig":12935,"kohol":12936,"para":12937,"Vorschlags":12938,"echten":12939,"rohung":12940,"remaining":12941,"Eis":12942,"Fast":12943,"SAP":12944,"ancing":12945,"ilfe":12946,"abgestimmt":12947,"regularly":12948,"Cyprus":12949,"witness":12950,"akzeptabel":12951,"spanischen":12952,"Einheit":12953,"wender":12954,"Ziffer":12955,"Mall":12956,"Asien":12957,"Struct":12958,"Israeli":12959,"promises":12960,"krieg":12961,"verwe":12962,"updated":12963,"Edu":12964,"Schuld":12965,"aktiven":12966,"Monte":12967,"passiert":12968,"stoßen":12969,"Ferr":12970,"Benutz":12971,"jetz":12972,"infr":12973,"effektiv":12974,"ziplin":12975,"austausch":12976,"Slovak":12977,"Sund":12978,"lige":12979,"acion":12980,"fruheren":12981,"Plenum":12982,"BO":12983,"Perhaps":12984,"wurdigkeit":12985,"root":12986,"kill":12987,"verbrauch":12988,"vely":12989,"ifications":12990,"Aktual":12991,"settings":12992,"displayed":12993,"Bestellung":12994,"arab":12995,"weather":12996,"hlt":12997,"productive":12998,"Plattform":12999,"liegenden":13000,"beschleun":13001,"kreis":13002,"ummern":13003,"George":13004,"corruption":13005,"Garden":13006,"gespielt":13007,"Verringerung":13008,"intent":13009,"aufnehmen":13010,"Americ":13011,"Vene":13012,"lists":13013,"journey":13014,"DC":13015,"Food":13016,"Balkon":13017,"Japanese":13018,"Regierungskonferenz":13019,"plot":13020,"entertainment":13021,"satzen":13022,"israel":13023,"Copenhagen":13024,"spekt":13025,"usal":13026,"beschrankt":13027,"customs":13028,"measur":13029,"erging":13030,"classic":13031,"Baltic":13032,"akte":13033,"zustandigen":13034,"dinner":13035,"steuropa":13036,"Kn":13037,"Erholung":13038,"succeed":13039,"PO":13040,"lined":13041,"Werbung":13042,"Sorgen":13043,"endet":13044,"ießen":13045,"erleichtern":13046,"sorgfaltig":13047,"olo":13048,"Mu":13049,"understood":13050,"vorlegen":13051,"DN":13052,"Pen":13053,"pattern":13054,"Friday":13055,"Ado":13056,"radi":13057,"kretar":13058,"functioning":13059,"channel":13060,"connect":13061,"demog":13062,"Ausstellung":13063,"thand":13064,"iest":13065,"Europol":13066,"Faktoren":13067,"TE":13068,"license":13069,"66":13070,"unmoglich":13071,"eins":13072,"outdoor":13073,"Deswegen":13074,"tickets":13075,"perfekt":13076,"accompan":13077,"noted":13078,"counting":13079,"zir":13080,"fullen":13081,"melden":13082,"B5":13083,"configuration":13084,"Jes":13085,"Vice":13086,"foll":13087,"Schau":13088,"finished":13089,"emergency":13090,"bemuhen":13091,"Glauben":13092,"bezahlen":13093,"zugunsten":13094,"contacts":13095,"Beitrage":13096,"ministers":13097,"rechen":13098,"scheinen":13099,"disp":13100,"Feuer":13101,"Belast":13102,"Nos":13103,"remark":13104,"verhindert":13105,"Partners":13106,"lingen":13107,"definiert":13108,"bike":13109,"pollution":13110,"Taiwan":13111,"Sauna":13112,"Mobile":13113,"Ausgangspunkt":13114,"ugosla":13115,"dining":13116,"Newsletter":13117,"protocol":13118,"schieden":13119,"demanding":13120,"Dynam":13121,"eu":13122,"Werkzeug":13123,"anspruchs":13124,"inser":13125,"Vermogen":13126,"characteristics":13127,"careful":13128,"Buchung":13129,"bahnhof":13130,"phenomen":13131,"bart":13132,"Fran":13133,"somewhat":13134,"Clear":13135,"regen":13136,"gespeichert":13137,"ausgeschlossen":13138,"collect":13139,"ausgesetzt":13140,"solar":13141,"Diag":13142,"hole":13143,"declaration":13144,"ania":13145,"doesn":13146,"leaving":13147,"einzigartige":13148,"newly":13149,"uttle":13150,"Max":13151,"Besorgnis":13152,"hut":13153,"eral":13154,"erseits":13155,"justified":13156,"Charta":13157,"Washing":13158,"Subsidiar":13159,"Fair":13160,"Guide":13161,"Mexico":13162,"ausgefuhrt":13163,"wald":13164,"expansion":13165,"Badezimmer":13166,"verleihen":13167,"Adobe":13168,"BC":13169,"voran":13170,"actively":13171,"layer":13172,"leisure":13173,"ikes":13174,"electricity":13175,"BA":13176,"trafficking":13177,"behavi":13178,"Fuhrer":13179,"divided":13180,"Year":13181,"rechtliche":13182,"geboten":13183,"Soft":13184,"einig":13185,"Ersatz":13186,"corded":13187,"verschiedener":13188,"Ni":13189,"forschung":13190,"judicial":13191,"klim":13192,"Amendments":13193,"idden":13194,"Na":13195,"supposed":13196,"fab":13197,"intensiv":13198,"sodass":13199,"fassend":13200,"Symbol":13201,"LateRooms":13202,"Baby":13203,"gallery":13204,"prosper":13205,"installieren":13206,"library":13207,"Milch":13208,"acting":13209,"Alles":13210,"iron":13211,"ani":13212,"sorge":13213,"gol":13214,"alts":13215,"serviert":13216,"Polit":13217,"Gesellschaften":13218,"credibility":13219,"schule":13220,"kurzfrist":13221,"committees":13222,"Pact":13223,"SK":13224,"replace":13225,"iessen":13226,"welchem":13227,"hundreds":13228,"kal":13229,"imposed":13230,"coal":13231,"cohol":13232,"conducted":13233,"Edition":13234,"Beam":13235,"Festlegung":13236,"demonstrated":13237,"Brie":13238,"Equ":13239,"ongoing":13240,"pekt":13241,"atre":13242,"visible":13243,"ferner":13244,"Tarif":13245,"Aqu":13246,"stehende":13247,"katastrop":13248,"comed":13249,"azz":13250,"Beziehung":13251,"verw":13252,"trages":13253,"Procedure":13254,"stamm":13255,"gezwungen":13256,"ст":13257,"projekt":13258,"bottom":13259,"cab":13260,"Read":13261,"Marktes":13262,"Gepack":13263,"zusammenarbeiten":13264,"roads":13265,"Zyp":13266,"inhabit":13267,"Schlafzimmer":13268,"interessante":13269,"ultimately":13270,"Baum":13271,"kamen":13272,"director":13273,"appeared":13274,"Congress":13275,"IDS":13276,"youth":13277,"tackle":13278,"außert":13279,"abandon":13280,"frequently":13281,"ito":13282,"Ausstattung":13283,"Funds":13284,"supplement":13285,"recommendation":13286,"grenzung":13287,"Kusten":13288,"WF":13289,"tu":13290,"enty":13291,"Einbeziehung":13292,"VAT":13293,"parks":13294,"ucker":13295,"transatlant":13296,"stem":13297,"Thirdly":13298,"Marina":13299,"bilater":13300,"pic":13301,"td":13302,"deter":13303,"Brand":13304,"geltenden":13305,"CON":13306,"entscheidende":13307,"Holiday":13308,"Hamas":13309,"denkt":13310,"Kompetenz":13311,"DER":13312,"ox":13313,"demonstrate":13314,"angegebenen":13315,"walls":13316,"renovated":13317,"Washington":13318,"nost":13319,"printing":13320,"außern":13321,"pragt":13322,"hoheren":13323,"fantastic":13324,"Geheim":13325,"AKP":13326,"Argument":13327,"Veroffentlichung":13328,"CA":13329,"Gl":13330,"verhalt":13331,"facts":13332,"Jac":13333,"durchschnitt":13334,"GM":13335,"Beste":13336,"minorities":13337,"invite":13338,"Zielen":13339,"heutige":13340,"restruct":13341,"Luc":13342,"input":13343,"seat":13344,"wollten":13345,"orer":13346,"Defiz":13347,"drink":13348,"sq":13349,"iana":13350,"emerging":13351,"Energien":13352,"indicated":13353,"Krafte":13354,"verkaufen":13355,"Author":13356,"machte":13357,"driver":13358,"hauser":13359,"Jede":13360,"gor":13361,"oub":13362,"Buro":13363,"teams":13364,"Fuhrungs":13365,"Gaza":13366,"außerordentlich":13367,"86":13368,"ifies":13369,"iva":13370,"boost":13371,"firstly":13372,"properties":13373,"decorated":13374,"Cha":13375,"nahezu":13376,"Klasse":13377,"Able":13378,"uel":13379,"Anlass":13380,"Description":13381,"Webseiten":13382,"Pakete":13383,"castle":13384,"drug":13385,"Neue":13386,"einfacher":13387,"involves":13388,"respected":13389,"surroundings":13390,"Camping":13391,"traditions":13392,"solange":13393,"nier":13394,"Franzos":13395,"frame":13396,"56":13397,"Training":13398,"uese":13399,"gerate":13400,"uncertain":13401,"Canon":13402,"virtual":13403,"verwand":13404,"Dass":13405,"reiter":13406,"aggress":13407,"Tech":13408,"organized":13409,"chemical":13410,"twent":13411,"Nap":13412,"owner":13413,"sac":13414,"Asse":13415,"Maastricht":13416,"decre":13417,"verlang":13418,"verehrte":13419,"aussprechen":13420,"sleep":13421,"ield":13422,"Subsidiaritat":13423,"Wild":13424,"aufen":13425,"Verpack":13426,"scheidet":13427,"DS":13428,"Legal":13429,"bestehende":13430,"endorse":13431,"itra":13432,"drivers":13433,"loyment":13434,"reveal":13435,"bach":13436,"Toch":13437,"finish":13438,"Jung":13439,"endung":13440,"Chinas":13441,"Sollte":13442,"Games":13443,"teilungen":13444,"mother":13445,"doors":13446,"roof":13447,"sauna":13448,"akten":13449,"nunmehr":13450,"wesend":13451,"domain":13452,"Opposition":13453,"joined":13454,"flexib":13455,"bemer":13456,"Politiken":13457,"Dusche":13458,"Fa":13459,"wiegen":13460,"asts":13461,"Konsult":13462,"gestaltet":13463,"aug":13464,"77":13465,"competent":13466,"stronger":13467,"schicken":13468,"posing":13469,"sugar":13470,"russischen":13471,"globalisation":13472,"Wohlstand":13473,"dos":13474,"lays":13475,"ausgegeben":13476,"zulass":13477,"uberras":13478,"vorhandenen":13479,"Burg":13480,"zz":13481,"Mrd":13482,"starts":13483,"crimes":13484,"52":13485,"afternoon":13486,"documentation":13487,"einzus":13488,"Betre":13489,"concluded":13490,"Modul":13491,"ports":13492,"Bemerkung":13493,"Gi":13494,"maintaining":13495,"Gefahren":13496,"Monetary":13497,"erhebliche":13498,"GE":13499,"lounge":13500,"Untersuchungen":13501,"apest":13502,"usehen":13503,"Selbstverstandlich":13504,"Thurs":13505,"Vorhaben":13506,"unfair":13507,"proposes":13508,"patient":13509,"verurteilt":13510,"Pic":13511,"einheitlichen":13512,"suites":13513,"sensible":13514,"Insbesondere":13515,"Administr":13516,"babwe":13517,"Gerichte":13518,"Versionen":13519,"sozi":13520,"agers":13521,"trovers":13522,"Leon":13523,"Kapitel":13524,"tatsach":13525,"prozesses":13526,"overcome":13527,"Cafe":13528,"kg":13529,"rant":13530,"Geschafte":13531,"pharma":13532,"Viet":13533,"direkten":13534,"Whether":13535,"aumen":13536,"ausend":13537,"beschaftigen":13538,"nine":13539,"itals":13540,"proven":13541,"Respekt":13542,"cash":13543,"reduzieren":13544,"Donner":13545,"Image":13546,"Spaz":13547,"corresponding":13548,"spoken":13549,"Umfeld":13550,"ausschuß":13551,"rankungen":13552,"Wa":13553,"metro":13554,"depending":13555,"rapidly":13556,"Verlust":13557,"bekampfung":13558,"Einkommen":13559,"stored":13560,"collaboration":13561,"anbe":13562,"northern":13563,"Town":13564,"Videos":13565,"Einschrank":13566,"eingereicht":13567,"igend":13568,"shap":13569,"entscheidender":13570,"stylish":13571,"accompanied":13572,"constitutional":13573,"follows":13574,"dary":13575,"verstarken":13576,"assets":13577,"ausgestatte":13578,"neimit":13579,"Grundung":13580,"Gegend":13581,"dim":13582,"inations":13583,"Amt":13584,"bedauer":13585,"Full":13586,"Robert":13587,"autonom":13588,"Hardware":13589,"behaviour":13590,"cow":13591,"entwurf":13592,"Himm":13593,"verbringen":13594,"assume":13595,"Kongress":13596,"Guter":13597,"imedia":13598,"tery":13599,"freundlich":13600,"Erzeugnisse":13601,"bund":13602,"Mission":13603,"bol":13604,"Reduz":13605,"neimittel":13606,"updates":13607,"versamm":13608,"wellen":13609,"Nachricht":13610,"lasting":13611,"Kilometer":13612,"Chair":13613,"channels":13614,"subsidiarity":13615,"Anspru":13616,"hort":13617,"heritage":13618,"Portuguese":13619,"heating":13620,"Individ":13621,"strategischen":13622,"Fleisch":13623,"Detail":13624,"intellectual":13625,"arded":13626,"derung":13627,"Bew":13628,"exciting":13629,"Sektoren":13630,"generated":13631,"britische":13632,"Cle":13633,"Medik":13634,"......":13635,"Sollten":13636,"Krankheit":13637,"scheme":13638,"TS":13639,"Schlussfolgerungen":13640,"schweren":13641,"Rechnungshof":13642,"Wunsche":13643,"Kontrollen":13644,"Besonders":13645,"Job":13646,"gehe":13647,"norm":13648,"Filter":13649,"individuelle":13650,"digit":13651,"Award":13652,"DO":13653,"vulnerable":13654,"Bedrohung":13655,"determination":13656,"orca":13657,"celer":13658,"spakt":13659,"distributed":13660,"lit":13661,"explicit":13662,"wiederholen":13663,"transportation":13664,"Network":13665,"copyright":13666,"88":13667,"dlich":13668,"tags":13669,"showing":13670,"ahrung":13671,"Prague":13672,"widely":13673,"Schweizer":13674,"beziehungen":13675,"schaffung":13676,"immigrants":13677,"programms":13678,"Tabak":13679,"Soviet":13680,"Formul":13681,"Given":13682,"ragt":13683,"Ubersetz":13684,"Niger":13685,"atom":13686,"entsteht":13687,"istry":13688,"inar":13689,"techniques":13690,"eastern":13691,"ello":13692,"looked":13693,"cuts":13694,"accident":13695,"balcony":13696,"vorstellen":13697,"Orte":13698,"zed":13699,"antworten":13700,"bindet":13701,"verantwortungs":13702,"Satur":13703,"upper":13704,"systemen":13705,"father":13706,"erfolgreiche":13707,"satisfied":13708,"alcohol":13709,"gele":13710,"returned":13711,"iegel":13712,"Dra":13713,"legitimate":13714,"Who":13715,"itts":13716,"Balkans":13717,"Email":13718,"Vize":13719,"urg":13720,"prin":13721,"Werbe":13722,"possibly":13723,"beruht":13724,"Festpl":13725,"heat":13726,"ameters":13727,"Sonne":13728,"prasentieren":13729,"Ubergangs":13730,"Wart":13731,"kin":13732,"erganzen":13733,"Haushaltsplan":13734,"lokale":13735,"deficit":13736,"desired":13737,"ausgezeichnet":13738,"artist":13739,"theoret":13740,"erinnert":13741,"TU":13742,"exceed":13743,"brut":13744,"Konzer":13745,"ACP":13746,"tor":13747,"jegliche":13748,"Gerat":13749,"banking":13750,"settlement":13751,"uckt":13752,"Rechtsstaat":13753,"Freiheiten":13754,"eless":13755,"Interess":13756,"visited":13757,"Michel":13758,"protest":13759,"interpre":13760,"interven":13761,"encouraging":13762,"Women":13763,"Philosop":13764,"uche":13765,"letztlich":13766,"resistance":13767,"Vel":13768,"verfolg":13769,"rucken":13770,"Resolution":13771,"technologie":13772,"arrive":13773,"Verhandlungs":13774,"identified":13775,"izza":13776,"Verbreitung":13777,"maritime":13778,"taxation":13779,"beteiligen":13780,"Tochter":13781,"catch":13782,"transactions":13783,"Road":13784,"oriented":13785,"vised":13786,"functional":13787,"viertel":13788,"confer":13789,"maschine":13790,"Zwecke":13791,"Luxus":13792,"erganz":13793,"isses":13794,"motive":13795,"faßt":13796,"rows":13797,"vorbereitet":13798,"erstre":13799,"kraten":13800,"Single":13801,"Protection":13802,"Structural":13803,"sharing":13804,"Gang":13805,"deposit":13806,"desto":13807,"mostly":13808,"unverzuglich":13809,"signs":13810,"offene":13811,"Investment":13812,"Ubernachtung":13813,"Oder":13814,"Lounge":13815,"uated":13816,"Versamm":13817,"Gemeinde":13818,"Katastrophe":13819,"foundation":13820,"Genehmigung":13821,"Event":13822,"verbinden":13823,"plenary":13824,"dorf":13825,"ziellen":13826,"Thursday":13827,"itors":13828,"Marke":13829,"Systemen":13830,"Belgium":13831,"winning":13832,"smooth":13833,"federal":13834,"Dal":13835,"doub":13836,"NIC":13837,"plications":13838,"factory":13839,"passenger":13840,"Professional":13841,"behandlung":13842,"oud":13843,"Verlauf":13844,"Without":13845,"splans":13846,"VP":13847,"schwach":13848,"ossen":13849,"attend":13850,"stolz":13851,"Vietnam":13852,"zellen":13853,"bekraft":13854,"widmet":13855,"zonen":13856,"examine":13857,"exports":13858,"sparen":13859,"beigetragen":13860,"partly":13861,"chnitten":13862,"ville":13863,"ubrigens":13864,"orama":13865,"werks":13866,"eva":13867,"Sony":13868,"department":13869,"horizon":13870,"niveau":13871,"anwesend":13872,"weile":13873,"Schwim":13874,"Sudan":13875,"Lobby":13876,"Schloss":13877,"Vorstellung":13878,"eignet":13879,"ergie":13880,"zugigkeit":13881,"individuellen":13882,"sicheren":13883,"performed":13884,"nut":13885,"Nachhalt":13886,"Kreuz":13887,"directory":13888,"Fundamental":13889,"prene":13890,"proposing":13891,"bereitgestellt":13892,"occasions":13893,"Haftung":13894,"Betrag":13895,"zentren":13896,"dream":13897,"woman":13898,"Glaubwurdigkeit":13899,"til":13900,"shares":13901,"angewand":13902,"Franc":13903,"ersetzt":13904,"placement":13905,"Bereitstellung":13906,"Vill":13907,"edition":13908,"Mitarbeitern":13909,"album":13910,"einbezogen":13911,"personnel":13912,"fertigen":13913,"educational":13914,"Auge":13915,"relaxation":13916,"stars":13917,"inclusion":13918,"Look":13919,"begrenzt":13920,"solches":13921,"Rechtsgrundlage":13922,"jenen":13923,"losses":13924,"dere":13925,"verd":13926,"dahin":13927,"decisive":13928,"72":13929,"ilater":13930,"housing":13931,"containing":13932,"VER":13933,"rul":13934,"Erwag":13935,"legislat":13936,"suppliers":13937,"dign":13938,"Consum":13939,"complicated":13940,"manufacturer":13941,"absen":13942,"grundsatzlich":13943,"Northern":13944,"rical":13945,"organisieren":13946,"interpretation":13947,"empfo":13948,"Ansichten":13949,"portal":13950,"Hungary":13951,"Klaus":13952,"Potenzial":13953,"commission":13954,"tobac":13955,"informationen":13956,"preparing":13957,"Passwort":13958,"Donnerstag":13959,"vorrang":13960,"Preisen":13961,"eingehalten":13962,"regarded":13963,"Kong":13964,"Malta":13965,"belling":13966,"ibel":13967,"geladen":13968,"Sche":13969,"inhabitants":13970,"interior":13971,"Moz":13972,"Ltd":13973,"auseinander":13974,"Beschlusse":13975,"oni":13976,"nachdruck":13977,"impose":13978,"Thomas":13979,"flights":13980,"nationally":13981,"uble":13982,"izer":13983,"Darum":13984,"erfolgreichen":13985,"froh":13986,"rats":13987,"visory":13988,"Letz":13989,"Mini":13990,"Wohnung":13991,"verkauft":13992,"component":13993,"Stockhol":13994,"traditionelle":13995,"avec":13996,"clubs":13997,"Budapest":13998,"dex":13999,"betreiben":14000,"theme":14001,"cean":14002,"konfront":14003,"herzustellen":14004,"Within":14005,"distingu":14006,"schluß":14007,"offiziellen":14008,"Bang":14009,"cot":14010,"schne":14011,"bonus":14012,"Straß":14013,"magnific":14014,"Kund":14015,"Betracht":14016,"providers":14017,"rt":14018,"ror":14019,"utzte":14020,"fleet":14021,"elsewhere":14022,"anbelangt":14023,"Piaz":14024,"behoben":14025,"adults":14026,"Wander":14027,"wines":14028,"spur":14029,"uds":14030,"Apple":14031,"certific":14032,"ales":14033,"Erstellung":14034,"schefs":14035,"Naz":14036,"zielen":14037,"definitely":14038,"ova":14039,"schreck":14040,"Zucker":14041,"erlebt":14042,"51":14043,"berge":14044,"iera":14045,"Line":14046,"Konstru":14047,"windows":14048,"58":14049,"ansprechen":14050,"empf":14051,"administrat":14052,"angebracht":14053,"Az":14054,"uberpruft":14055,"fernen":14056,"cosy":14057,"Konsequenzen":14058,"Versand":14059,"licens":14060,"Mannern":14061,"voluntary":14062,"newsp":14063,"deleg":14064,"Sicherung":14065,"spannung":14066,"saving":14067,"unktions":14068,"lift":14069,"Law":14070,"herrscht":14071,"vermitteln":14072,"phones":14073,"gestattet":14074,"Water":14075,"enhance":14076,"herz":14077,"makers":14078,"XP":14079,"festival":14080,"amaz":14081,"ensures":14082,"erreichbar":14083,"exit":14084,"bright":14085,"Schluß":14086,"stammen":14087,"Bett":14088,"beantworten":14089,"shar":14090,"Urheber":14091,"declared":14092,"tobacco":14093,"Content":14094,"Pas":14095,"dark":14096,"Tenn":14097,"Exchange":14098,"Stras":14099,"Freitag":14100,"investieren":14101,"Freunden":14102,"strafe":14103,"Autobahn":14104,"milk":14105,"immers":14106,"Source":14107,"Bulgarien":14108,"explore":14109,"vacation":14110,"biz":14111,"plane":14112,"Eurozone":14113,"studio":14114,"Verzog":14115,"pac":14116,"crib":14117,"Verbraucherschutz":14118,"Zivilgesellschaft":14119,"istern":14120,"beschreibung":14121,"Widerspruch":14122,"Analy":14123,"Hungarian":14124,"kernel":14125,"HU":14126,"GR":14127,"ausschau":14128,"Hat":14129,"VO":14130,"iesen":14131,"Deutschen":14132,"EZB":14133,"Spazier":14134,"57":14135,"Ker":14136,"partment":14137,"boden":14138,"chnung":14139,"beliebt":14140,"AIDS":14141,"Gegenstand":14142,"effizienz":14143,"professionals":14144,"Prop":14145,"Wolf":14146,"Korruption":14147,"Earth":14148,"Sind":14149,"islands":14150,"prime":14151,"imports":14152,"Ministerprasident":14153,"franzosische":14154,"Satz":14155,"anschließen":14156,"fes":14157,"ativer":14158,"Secret":14159,"maler":14160,"Based":14161,"bislang":14162,"bedeutend":14163,"specially":14164,"Extre":14165,"ROM":14166,"abuse":14167,"1970":14168,"ziell":14169,"Arzneimittel":14170,"FI":14171,"replaced":14172,"insist":14173,"referendum":14174,"sending":14175,"revision":14176,"einst":14177,"einerseits":14178,"Kollegin":14179,"inklusive":14180,"iations":14181,"erzeug":14182,"achter":14183,"Point":14184,"finanziert":14185,"Kommun":14186,"raumen":14187,"versichern":14188,"repair":14189,"Dou":14190,"Prozesse":14191,"Aktionsplan":14192,"savings":14193,"Ungarn":14194,"54":14195,"chest":14196,"Ill":14197,"allzu":14198,"Alpen":14199,"Puerto":14200,"generate":14201,"facility":14202,"Schulen":14203,"broadcast":14204,"Kaffee":14205,"großem":14206,"Fußball":14207,"ieller":14208,"dee":14209,"garten":14210,"wave":14211,"bestimmter":14212,"destruction":14213,"Kas":14214,"pm":14215,"valley":14216,"ograf":14217,"igert":14218,"emot":14219,"Wahler":14220,"Brasilien":14221,"Reduzierung":14222,"ibar":14223,"Laden":14224,"internen":14225,"großzug":14226,"Uberlegungen":14227,"Rock":14228,"wiederholt":14229,"laufenden":14230,"addresses":14231,"Angel":14232,"gerat":14233,"packaging":14234,"elektronischen":14235,"menschliche":14236,"Following":14237,"handle":14238,"covering":14239,"wissenschaftliche":14240,"Kroatien":14241,"sees":14242,"werken":14243,"Entlastung":14244,"unentgelt":14245,"Tax":14246,"lessons":14247,"Ten":14248,"inj":14249,"wirtschaftlich":14250,"spectacular":14251,"Zuge":14252,"insp":14253,"Wurde":14254,"awarded":14255,"kehrt":14256,"career":14257,"Zone":14258,"iland":14259,"Kontakte":14260,"Head":14261,"fitness":14262,"Strasbourg":14263,"Pad":14264,"arguments":14265,"beur":14266,"kapital":14267,"wear":14268,"Agyp":14269,"tested":14270,"infe":14271,"consent":14272,"audit":14273,"cking":14274,"sozialer":14275,"Ubrigen":14276,"zert":14277,"exe":14278,"Made":14279,"Quar":14280,"Commer":14281,"commerce":14282,"Fig":14283,"tourists":14284,"ernsthaf":14285,"erfreut":14286,"ausgerichtet":14287,"greatly":14288,"beobachten":14289,"verwaltung":14290,"LA":14291,"sou":14292,"cooperate":14293,"prosperity":14294,"aer":14295,"uries":14296,"raising":14297,"Vorder":14298,"frem":14299,"bereichen":14300,"ARE":14301,"adopting":14302,"excessive":14303,"Assembly":14304,"erzeugt":14305,"visiting":14306,"Liter":14307,"aking":14308,"uminium":14309,"parad":14310,"Positionen":14311,"ubt":14312,"Consult":14313,"Gerecht":14314,"Wire":14315,"idge":14316,"considering":14317,"Rio":14318,"ferenzen":14319,"Treib":14320,"hundert":14321,"division":14322,"harmonisation":14323,"Wikitra":14324,"genugend":14325,"Prasent":14326,"verwende":14327,"solely":14328,"Zusatzlich":14329,"dokument":14330,"CAP":14331,"recorded":14332,"resource":14333,"ifizieren":14334,"itim":14335,"thousand":14336,"Sym":14337,"sheet":14338,"enabled":14339,"abstimmen":14340,"bern":14341,"Schle":14342,"integriert":14343,"vorzulegen":14344,"Hen":14345,"rising":14346,"Quellen":14347,"extraordinary":14348,"Atlantic":14349,"tennis":14350,"supplies":14351,"deutsch":14352,"beding":14353,"ysteme":14354,"suggestions":14355,"gardens":14356,"Stoffe":14357,"asten":14358,"hinweg":14359,"vieles":14360,"Poly":14361,"promised":14362,"Beruf":14363,"zukunftigen":14364,"laß":14365,"Abfall":14366,"muse":14367,"inational":14368,"Stadten":14369,"entwickelte":14370,"united":14371,"ivals":14372,"portfolio":14373,"vorgeschlagene":14374,"Trotzdem":14375,"Modelle":14376,"Praktiken":14377,"gekenn":14378,"substance":14379,"fangt":14380,"hill":14381,"Wikitravel":14382,"Wissens":14383,"probleme":14384,"Wirtschaftswachstum":14385,"Alexander":14386,"67":14387,"army":14388,"topics":14389,"beln":14390,"acknowledge":14391,"Wetter":14392,"lichten":14393,"labelling":14394,"Spitzen":14395,"difficulty":14396,"nevertheless":14397,"thir":14398,"applying":14399,"pursue":14400,"uchte":14401,"Spaß":14402,"einzusetzen":14403,"Tools":14404,"Indian":14405,"brochen":14406,"schlechter":14407,"Notes":14408,"absence":14409,"lief":14410,"Einwohner":14411,"reservations":14412,"slightly":14413,"dog":14414,"Staates":14415,"herunterladen":14416,"reb":14417,"jener":14418,"shadow":14419,"53":14420,"bay":14421,"zustandig":14422,"wil":14423,"Mikro":14424,"weilen":14425,"politically":14426,"hundred":14427,"mant":14428,"Flugzeug":14429,"allocated":14430,"spoke":14431,"Monday":14432,"Kriegs":14433,"schaden":14434,"Fernseh":14435,"fing":14436,"Alger":14437,"verfugbaren":14438,"gebieten":14439,"verteidigen":14440,"accurate":14441,"satisfaction":14442,"gested":14443,"reiz":14444,"verteilt":14445,"ipher":14446,"Werke":14447,"Call":14448,"Treat":14449,"jac":14450,"elector":14451,"japan":14452,"zell":14453,"ersetzen":14454,"elbe":14455,"demokraten":14456,"Quark":14457,"luxurious":14458,"islam":14459,"Nummer":14460,"unterstreichen":14461,"verboten":14462,"Shar":14463,"Zy":14464,"Still":14465,"lovely":14466,"reicher":14467,"gedacht":14468,"comparison":14469,"irs":14470,"appearance":14471,"VIS":14472,"sop":14473,"Vereinfach":14474,"hostel":14475,"toile":14476,"ordnungen":14477,"vary":14478,"behinder":14479,"Energies":14480,"institutionelle":14481,"Salzburg":14482,"gebildet":14483,"Provinz":14484,"oubtedly":14485,"fly":14486,"Americans":14487,"eingerichte":14488,"weisungen":14489,"Does":14490,"bedeutende":14491,"unning":14492,"betten":14493,"USS":14494,"ivalent":14495,"Prozesses":14496,"Lay":14497,"produkt":14498,"Gerade":14499,"specified":14500,"Finanzierungs":14501,"quarters":14502,"neighb":14503,"featur":14504,"nose":14505,"supplier":14506,"appointment":14507,"konfrontiert":14508,"beeintracht":14509,"Budgets":14510,"Ful":14511,"lor":14512,"amed":14513,"deserv":14514,"ahnliche":14515,"Bucher":14516,"Latein":14517,"gebiete":14518,"farming":14519,"langfristige":14520,"wurdig":14521,"Orient":14522,"aktiviert":14523,"forests":14524,"obli":14525,"courts":14526,"Opera":14527,"GA":14528,"umfassend":14529,"spreche":14530,"necessarily":14531,"hervorgehoben":14532,"diss":14533,"bergen":14534,"Meister":14535,"complement":14536,"carrying":14537,"Bat":14538,"prechen":14539,"Meines":14540,"welcomed":14541,"Bars":14542,"ECB":14543,"videos":14544,"empfangen":14545,"Kreis":14546,"Sein":14547,"Fron":14548,"erwahnen":14549,"stick":14550,"begriffen":14551,"angepasst":14552,"negotiating":14553,"NGOs":14554,"fels":14555,"flows":14556,"markten":14557,"kontaktieren":14558,"A5":14559,"gefuhrten":14560,"iale":14561,"orgungs":14562,"Dokumenten":14563,"Ram":14564,"blau":14565,"react":14566,"Ken":14567,"tons":14568,"realise":14569,"Textil":14570,"Pie":14571,"notes":14572,"Diplom":14573,"zauber":14574,"unterzeichnet":14575,"Gleichstellung":14576,"reduziert":14577,"wirksame":14578,"cation":14579,"kir":14580,"Allian":14581,"behaupten":14582,"Gerechtigkeit":14583,"concepts":14584,"Kulturen":14585,"Weiteren":14586,"Gewahrleistung":14587,"BMW":14588,"Lok":14589,"reaction":14590,"cribe":14591,"Pfe":14592,"planet":14593,"cession":14594,"Unternehmer":14595,"Quality":14596,"towns":14597,"duties":14598,"Eth":14599,"Mi":14600,"vorange":14601,"kunftige":14602,"Geschmack":14603,"Zusch":14604,"URL":14605,"vict":14606,"beendet":14607,"ganger":14608,"dankbar":14609,"Modernis":14610,"Vista":14611,"speichern":14612,"Cup":14613,"gefallen":14614,"routes":14615,"iring":14616,"Denk":14617,"Vizeprasident":14618,"Millenn":14619,"wege":14620,"Anwender":14621,"zukunftige":14622,"etten":14623,"Serbia":14624,"champ":14625,"ipol":14626,"lasslich":14627,"euros":14628,"Lieferung":14629,"Emissions":14630,"unktur":14631,"analyse":14632,"Hot":14633,"iPhone":14634,"remarks":14635,"modules":14636,"listings":14637,"tere":14638,"Gegenwart":14639,"gehende":14640,"Doc":14641,"Defen":14642,"wechseln":14643,"empfohlen":14644,"sad":14645,"iga":14646,"disabled":14647,"illegalen":14648,"ifor":14649,"Gefang":14650,"Metall":14651,"erfordern":14652,"ultane":14653,"Organe":14654,"Objekt":14655,"forthcoming":14656,"PM":14657,"noten":14658,"ahnlich":14659,"Nachbarn":14660,"religion":14661,"Cir":14662,"verdienen":14663,"arbeitungs":14664,"spons":14665,"prece":14666,"significance":14667,"freedoms":14668,"Riv":14669,"crop":14670,"weitgehend":14671,"MP3":14672,"representation":14673,"icing":14674,"ulpt":14675,"Umsatz":14676,"kett":14677,"bekannte":14678,"Phan":14679,"Agriculture":14680,"Baron":14681,"stocks":14682,"Rap":14683,"pure":14684,"entrance":14685,"rolle":14686,"erkennt":14687,"render":14688,"uers":14689,"Dikt":14690,"vas":14691,"entreprene":14692,"unzure":14693,"wirtschaften":14694,"78":14695,"nien":14696,"absor":14697,"Belgien":14698,"geschafft":14699,"Vide":14700,"losungen":14701,"shipping":14702,"FC":14703,"Rab":14704,"herum":14705,"militarische":14706,"sustainability":14707,"Borse":14708,"gebeten":14709,"einzigartigen":14710,"Branche":14711,"Sunday":14712,"demic":14713,"Zustandigkeit":14714,"constitute":14715,"Anwesen":14716,"Anstieg":14717,"fans":14718,"Ablauf":14719,"CHF":14720,"unterscheiden":14721,"ACH":14722,"manche":14723,"Besides":14724,"societies":14725,"mittleren":14726,"tables":14727,"tene":14728,"azitaten":14729,"programming":14730,"attempts":14731,"vorliegende":14732,"Professor":14733,"FS":14734,"Hunder":14735,"escap":14736,"Parad":14737,"Montag":14738,"Travel":14739,"weekend":14740,"Import":14741,"monopol":14742,"militarischen":14743,"Ath":14744,"ghter":14745,"Schlusselwort":14746,"afrika":14747,"Finland":14748,"gemeinschaftlichen":14749,"konzentriert":14750,"forcement":14751,"welcomes":14752,"strategische":14753,"lehnen":14754,"geleitet":14755,"grav":14756,"magnificent":14757,"ausser":14758,"letztendlich":14759,"multilateral":14760,"plenty":14761,"Verhaltens":14762,"hingegen":14763,"Lag":14764,"irischen":14765,"pread":14766,"Katastrophen":14767,"everyday":14768,"onien":14769,"absur":14770,"overview":14771,"zahlungen":14772,"optimale":14773,"aw":14774,"gart":14775,"firmly":14776,"fleisch":14777,"Kriminalitat":14778,"vorbei":14779,"legally":14780,"unabhangigen":14781,"gained":14782,"barriers":14783,"Laut":14784,"Omb":14785,"prest":14786,"paying":14787,"einzigart":14788,"Perspektive":14789,"surely":14790,"productivity":14791,"kenntnisse":14792,"lings":14793,"Stutt":14794,"invited":14795,"Suiten":14796,"receiving":14797,"Sloven":14798,"VI":14799,"mitteilen":14800,"invent":14801,"supervision":14802,"ordnungsgemaß":14803,"ried":14804,"passion":14805,"suggested":14806,"Armee":14807,"haz":14808,"verbindet":14809,"Spir":14810,"reserved":14811,"zweit":14812,"belle":14813,"Widerstand":14814,"udsman":14815,"dry":14816,"herrschen":14817,"description":14818,"ußt":14819,"capt":14820,"gunstig":14821,"Corporate":14822,"melt":14823,"uhen":14824,"yon":14825,"fax":14826,"grenze":14827,"ursprunglich":14828,"PSE":14829,"geteilt":14830,"filled":14831,"Anton":14832,"praktische":14833,"urteilung":14834,"hast":14835,"aution":14836,"Ebenen":14837,"poly":14838,"wunderschonen":14839,"Having":14840,"cancer":14841,"centuries":14842,"konnt":14843,"democrat":14844,"bisherigen":14845,"spf":14846,"Befur":14847,"gestellte":14848,"judge":14849,"Friend":14850,"59":14851,"tea":14852,"wies":14853,"ima":14854,"brachte":14855,"Auditors":14856,"Stability":14857,"angehor":14858,"Situationen":14859,"Smo":14860,"Markten":14861,"eingegangen":14862,"acceler":14863,"permitted":14864,"hierbei":14865,"kleines":14866,"vergess":14867,"murder":14868,"unentgeltlich":14869,"ranke":14870,"Binnenmarktes":14871,"zweck":14872,"arbeits":14873,"obliged":14874,"Merc":14875,"wahren":14876,"kilomet":14877,"tradem":14878,"abend":14879,"evident":14880,"Chem":14881,"Project":14882,"spieler":14883,"fourth":14884,"на":14885,"ernsthaft":14886,"liquid":14887,"blind":14888,
[...]
