， 21332614
的 13289022
。 12382365
、 4786949
年 4509237
在 3944144
（ 3213067
） 3208600
是 3021389
. 2190708
和 2170512
月 2140836
了 1817104
人 1781181
於 1681660
為 1550831
日 1387675
有 1383729
中 1261340
为 1251059
》 1222109
《 1222093
· 1214147
大@@ 1132565
- 1107943
一@@ 1090376
他 1032762
被 1017955
上 999224
： 936914
「 929291
」 929151
與 864819
也 847985
“ 840666
” 838685
由 791610
後 787374
而 780094
以 771986
中@@ 714417
及 704209
到 684909
等 684543
1 679926
于 676513
不@@ 593995
" 585596
位 572808
斯 571717
地 571129
； 570130
2 555389
州 551078
至 538625
与 538585
) 533521
名 529999
但 528202
( 528140
會 521468
者 510534
3 509492
西@@ 508489
長 501909
, 493702
三@@ 493621
下 490926
子 484540
南@@ 472982
來 472456
新@@ 469581
其 468365
部 463984
大 458489
后 458121
一个 457395
都 452416
斯@@ 447962
尔 442123
市 438676
4 437764
用 433910
時 429215
出 427552
站 424440
高@@ 416987
人@@ 414430
對 412353
省 412012
多@@ 409280
之@@ 408887
性 406950
德 405987
5 401001
或 398228
之 391269
公@@ 391216
德@@ 384888
道 382662
克 380094
克@@ 379706
家 377691
特@@ 377287
北@@ 376185
不 374354
地@@ 372682
山 371518
任 368986
6 368692
法 366642
10 366337
阿@@ 365190
安@@ 362540
特 360773
區 359423
区 357166
里 355698
拉@@ 353461
海@@ 352864
日@@ 352116
所 348775
可以 346299
并 346165
7 345053
力 344587
8 344345
前 343829
並@@ 343257
上@@ 340589
金@@ 339929
成 337835
主@@ 330077
小@@ 327650
分@@ 327563
生 325676
出@@ 324378
时 323549
中国 323156
12 322881
加@@ 321727
日本 319845
行 319121
有@@ 319046
十@@ 318684
使用 318488
第 318372
天@@ 318101
文@@ 315823
向 315000
化 314687
9 314326
会 311908
米 311864
科@@ 311152
利 308282
拉 306718
巴@@ 306158
布@@ 304530
新 303749
爾@@ 302743
作 302444
國@@ 302180
尔@@ 301224
全@@ 301086
山@@ 300165
政府 299106
县 297484
入 296935
以@@ 296882
香港 296786
将 295450
面 292726
对 292363
就 292329
; 292152
公司 291250
曾 289841
自@@ 289691
多 288778
線 286999
包括 286563
以及 286017
年@@ 283235
水@@ 283154
法@@ 282947
她 282824
四@@ 282511
其中 280286
度 279804
式 279659
本@@ 278667
11 278163
一個 277711
個 276917
长 274915
路 273400
其@@ 272574
人口 269018
/ 266543
二@@ 264339
期 263886
軍 263479
科 263329
型 262168
西 261944
: 260833
次 259676
王@@ 259028
生@@ 258751
主要 257345
卡@@ 257067
下@@ 256213
國 254995
东@@ 254536
尼@@ 254002
分 253904
格@@ 253556
士 250629
原@@ 250603
量 250381
東@@ 250120
局 249751
馬 248533
行@@ 247402
縣 246622
此 244899
利@@ 244747
定 242849
相@@ 242073
同@@ 240728
軍@@ 240311
重@@ 239742
城 239191
军 239092
成@@ 238062
马@@ 237677
內 234148
平@@ 233925
該 233888
爾 233370
李@@ 233040
事 232657
外@@ 232190
一 231758
可@@ 231247
又 230955
夫 230820
將 230483
可 228908
名@@ 228631
稱 228550
教@@ 226587
个 222954
起 222612
場 222324
車 221303
亞@@ 221238
河 220873
首@@ 220344
国 219013
兩@@ 218757
使 215819
号 215532
国@@ 214744
這@@ 214731
文 214223
古@@ 213953
前@@ 213392
其他 213059
五@@ 212835
元 211304
该 211221
亦 210589
通@@ 210379
世界 209669
美@@ 209429
合@@ 208986
林@@ 207933
南 207821
約 207650
民@@ 207122
平方公里 206456
它 206437
發@@ 206037
海 205745
明 205596
已 205198
本 205046
得 204447
来 204344
因 204299
美國 204240
臺 203658
學@@ 203581
手 203331
體 203085
因此 203060
要 202963
明@@ 202688
正@@ 202482
外 202113
此@@ 201901
政@@ 201429
保@@ 200772
位于 200581
器 200109
哈@@ 199908
基@@ 198506
最 198061
從 198033
能 197835
合 196813
台 195891
里@@ 195513
方 195352
神@@ 195217
武@@ 195033
院 194297
制 194094
自 193659
体 193078
色 191413
安 190354
两@@ 190245
大学 189900
普@@ 189880
太@@ 189766
伊@@ 189600
理 189351
清@@ 189273
所@@ 188851
球 188808
格 188795
村 188760
地区 188103
比@@ 187875
发@@ 187752
物 187352
則 186856
天 186841
當@@ 186753
交@@ 186622
事@@ 186545
號 186481
隊 186334
更 186329
波@@ 186071
並 185173
王 184120
派 184119
水 183665
總@@ 183323
製 182688
线 182681
開@@ 182417
後@@ 182085
達 182045
从 181334
自己 181161
学 180604
代 180526
属 180371
改@@ 179698
林 179673
各@@ 179060
% 178105
將@@ 178018
集 177944
级 177781
會@@ 177613
工@@ 176804
比 176771
時@@ 176141
小 175934
吉@@ 175258
美国 175190
石@@ 174921
周@@ 174440
中心 174434
回@@ 174415
屬 174377
即 174292
代表 174138
高 173122
成立 172520
研究 172519
可能 171911
政治 171718
尼 171458
20 171275
工作 170207
率 170169
電@@ 169076
之一 168935
罗@@ 168770
理@@ 168619
接@@ 168227
星 167880
賽 167848
内 167837
最@@ 167393
白@@ 166735
開始 166654
开@@ 165880
& 165842
市镇 165769
說 165726
東 165338
场 164585
戰@@ 164516
镇 164101
學 162955
音 162894
座 162432
长@@ 162352
立@@ 162284
流@@ 161832
族 161651
段 161257
定@@ 161002
表示 160566
女@@ 160441
手@@ 159905
由@@ 159174
常@@ 158549
反@@ 158521
府 158377
任@@ 157820
队 157596
機 157086
不同 156026
間 155683
威@@ 155529
百@@ 155417
去 155221
片 155173
無@@ 154912
总@@ 154727
洛@@ 154594
打@@ 154202
内@@ 153837
處 153773
官 153042
數 153021
家@@ 152449
推@@ 152225
部分 152093
收@@ 152063
电@@ 151915
室 151615
八@@ 150857
光@@ 150016
系 149929
著 149797
方@@ 149796
市@@ 149720
福@@ 149475
商@@ 149039
女 148991
金 148659
作@@ 148415
沙@@ 148378
提@@ 148338
原 147733
— 147219
語 146942
代@@ 146939
路@@ 146888
經@@ 146485
口 146290
維@@ 146087
第一@@ 146011
指 145294
法国 144827
_ 144637
機@@ 144127
维@@ 143544
塔@@ 143413
界 143307
為@@ 143113
点 143036
點 142612
副 142528
作品 142329
塞@@ 142302
子@@ 142240
形 142107
年代 142030
亞 141479
起@@ 141204
称 141138
学@@ 140850
则 140666
卡 140489
开始 140381
意@@ 140245
因@@ 140112
公里 139994
氏 139901
信@@ 139864
这 139792
六@@ 139568
15 139549
雷@@ 139539
立 139211
民 139033
机 138857
把 138695
羅 138683
光 138622
字 138570
中國 138492
进行 138153
台灣 138141
瓦@@ 137673
亚@@ 137557
30 137491
青@@ 137485
江@@ 137414
正式 137322
指@@ 137186
国家 137096
一些 137070
而@@ 137011
对@@ 136743
如 136532
米@@ 136158
工 136043
英@@ 135949
內@@ 134882
意 134840
该@@ 134586
兵 133920
曲 133896
直@@ 133774
受 133554
种 133365
勒 133269
提供 132616
城@@ 132591
成为 132500
同 131915
案 131574
進行 131285
行政 131123
建@@ 131055
约 130981
羅@@ 130934
所有 130622
和@@ 130450
好 130165
他們 130086
才 129886
華@@ 129698
元@@ 129632
城市 129539
入@@ 129081
地區 128915
師 128803
道@@ 128321
戰 128248
基 128183
級 128063
无@@ 128036
數@@ 127584
像 127550
管 127550
达 127388
5@@ 127246
選@@ 126761
泰@@ 126730
成為 126228
北 126016
伯@@ 125885
语 125796
轉@@ 125518
動 125242
員 124987
黑@@ 124841
花@@ 124763
师 124657
文化 124588
心 124449
國家 124389
我 124263
第一 124112
军@@ 123845
大學 123805
九@@ 123738
动 123631
受@@ 123568
蘭@@ 123509
用@@ 123406
2010 123123
世@@ 122867
台@@ 122491
影@@ 122335
主 122023
目 122020
發 121851
列 121627
演@@ 121305
字@@ 120763
4@@ 120508
说 120191
防@@ 119942
放@@ 119814
还 119584
16 119546
宣@@ 119522
车 119391
获得 119373
万@@ 119267
6@@ 119119
均 118713
18 118703
兰 118676
战@@ 118273
埃@@ 117936
今 117921
車@@ 117919
以下 117779
較 117730
生活 117318
老@@ 117152
得@@ 116961
取 116833
21 116640
黨 116587
平 116552
非 116108
因為 116038
formula 115923
火@@ 115768
修@@ 115736
正 115636
建 115580
人物 115550
門 115396
七@@ 115322
后@@ 115264
品 115245
造 115067
引@@ 114788
加 114636
面積 114526
河@@ 114392
没有 114376
馬@@ 114314
動@@ 114173
部@@ 114133
他们 114114
列@@ 114030
7@@ 114016
那@@ 113578
事件 113573
校 113263
死 113207
考@@ 113186
認為 113093
塔 112915
實@@ 112750
客@@ 112609
登@@ 112510
運@@ 112373
史@@ 112230
區@@ 111967
19 111809
萬@@ 111756
华@@ 111470
在@@ 111328
蘭 111324
门 111200
14 111195
進 111106
對@@ 111021
電影 110795
集@@ 110792
頭 110776
通过 110693
流 110551
目前 110438
石 110387
類 110384
島 110339
历史 110212
便 110195
程 110172
例 110124
業 110051
傳@@ 109955
着 109925
永@@ 109820
希@@ 109745
置 109669
通 109626
宗 109591
性@@ 109407
當時 109139
真@@ 109073
奥@@ 108852
堂 108774
动@@ 108505
經 108394
江 108344
13 108270
奧@@ 108066
2019 107995
除 107931
布 107914
士@@ 107911
机@@ 107791
重 107744
先@@ 107722
数@@ 107716
但是 107700
帝 107621
角 107613
员 107558
往 107437
權 107389
心@@ 107339
2011 107308
版 107194
愛@@ 107124
空@@ 107120
物@@ 107104
这@@ 107052
森 106836
共 106660
校@@ 106504
管理 106463
足球 106461
数 106445
2009 106377
姆 106218
处 105882
堡 105858
弗@@ 105657
17 105383
陳 105356
现@@ 105248
8@@ 105209
党 105072
2016 105036
連@@ 104988
面@@ 104881
托@@ 104815
義@@ 104771
传@@ 104566
博@@ 104153
再 103809
田@@ 103747
形@@ 103722
认为 103564
9@@ 103481
加入 103440
關@@ 103267
過 103230
同年 103176
木@@ 103171
M@@ 103133
共@@ 102883
更@@ 102782
設 102646
官@@ 102587
街 102556
歷史 102554
令 102537
關 102412
書 102389
2018 102330
該@@ 102326
讓 102177
重要 102169
未 101967
方面 101928
政 101732
25 101723
半@@ 101681
学院 101665
情 101165
第二@@ 101126
2012 101113
当@@ 101030
郡 100939
表@@ 100540
港 100422
田 100288
下辖 100153
社 100148
排@@ 100114
萨@@ 100021
2013 99839
達@@ 99829
時間 99817
书 99808
迪@@ 99703
源 99610
知 99337
身@@ 99272
需要 99258
圣@@ 99229
3@@ 99169
支持 99098
2017 99062
增@@ 99061
团 98901
委员会 98746
2014 98741
治 98619
教育 98591
見 98448
情@@ 98367
乡 98281
種 98210
花 98208
建立 98125
生平 98106
2015 98087
群 98074
时@@ 98040
只 97894
世 97651
委 97491
深@@ 97474
張@@ 97202
艾@@ 97114
参@@ 97107
地方 96892
{ 96855
苏@@ 96745
信 96726
美 96647
獲得 96636
汉@@ 96520
獎 96459
战 96366
兰@@ 95913
广@@ 95869
每@@ 95757
莱@@ 95749
先 95632
密@@ 95544
現@@ 95496
回 95480
铁路 95424
要求 95407
zh 95080
史 95038
完成 94960
T@@ 94725
作为 94636
化@@ 94378
千@@ 94236
转@@ 94178
2008 94021
体@@ 93987
同時 93943
黃 93847
仍 93834
如@@ 93605
納@@ 93517
星@@ 93482
} 93363
由于 93198
車站 93150
專@@ 93018
黄@@ 93017
2020 93004
曼 92995
恩 92980
单位 92970
少@@ 92943
教 92916
24 92879
劇 92867
夫@@ 92785
依@@ 92780
選 92741
應 92660
例如 92443
制@@ 92387
治@@ 92352
承@@ 91983
抗@@ 91948
勒@@ 91944
視 91914
籍 91886
纳 91797
失@@ 91500
州@@ 91488
停@@ 91216
] 91095
奇 91081
及@@ 91058
整@@ 91026
工程 90996
播 90971
[ 90956
寺 90915
成功 90811
梅@@ 90799
領@@ 90715
帶 90647
方式 90634
開 90468
參@@ 90394
得到 90226
展@@ 90223
受到 90097
甲@@ 90056
署 90034
進@@ 89987
灣 89916
精@@ 89858
第二 89821
很 89771
权 89695
鲁@@ 89631
川 89580
中央 89416
知@@ 89416
进@@ 89329
张@@ 89159
上海 89095
支@@ 88995
發展 88876
分布 88857
歲 88794
湖 88774
一般 88664
纳@@ 88492
廣@@ 88469
風@@ 88391
业 88369
超@@ 88333
第@@ 88326
身 88303
参加 88199
公 87994
航@@ 87880
B@@ 87761
人民 87760
次@@ 87750
復 87693
初@@ 87688
索@@ 87651
22 87524
打 87450
被@@ 87375
聖@@ 86998
展 86950
每 86950
通常 86942
存在 86918
系统 86845
发 86793
间 86791
月@@ 86783
居 86773
亚 86689
A 86684
單@@ 86674
前往 86653
龍 86649
富@@ 86502
體@@ 86366
射 86230
且 86162
达@@ 86123
助 86089
球@@ 86046
館 86005
神 85999
至@@ 85979
件 85955
东 85946
车@@ 85842
给 85803
一種 85598
首 85587
蘇@@ 85488
號@@ 85469
之后 85456
層 85276
为@@ 85261
投@@ 85206
莫@@ 85085
巴 85066
值 84982
發現 84974
会@@ 84962
商 84955
系統 84943
2001 84939
北部 84782
三 84667
朝 84430
章 84376
人口密度 84282
架 84190
圖 84177
湖@@ 84111
報 84076
做 83838
2007 83776
口@@ 83770
氣@@ 83714
另 83710
季 83660
質 83595
想 83250
查@@ 83242
常 83238
－ 83233
落 83113
赛 83017
23 82874
攻@@ 82796
就是 82767
觀@@ 82766
土@@ 82744
非@@ 82739
然而 82671
同时 82638
提出 82486
届 82462
男@@ 82423
D@@ 82396
嘉@@ 82339
射@@ 82255
属于 82186
空 82166
瓦 82165
越 82068
一名 82022
象 81979
龍@@ 81966
过 81880
力@@ 81810
冠 81797
灣@@ 81642
形成 81614
沒有 81578
配@@ 81550
经@@ 81525
樂@@ 81509
耶@@ 81421
另外 81384
書@@ 81291
岛 81263
團 81239
歌 81052
类 81028
兵@@ 80961
帕@@ 80813
組 80796
近 80791
國際 80705
項 80698
牌 80687
担任 80624
節 80591
編@@ 80584
張 80482
所以 80463
哥@@ 80376
聯@@ 80257
最大 80237
2006 80214
端 80167
升@@ 79977
宗@@ 79884
世纪 79867
具有 79867
G@@ 79767
票 79720
波 79626
步 79623
店 79616
组织 79405
邊 79395
班 79340
摩@@ 79299
封@@ 79282
28 79159
党@@ 79088
感@@ 78902
皮@@ 78720
底 78717
主席 78677
佈 78552
警@@ 78416
宣布 78302
北京 78297
南部 78174
延@@ 78168
只有 78082
胡@@ 78078
最高 78067
近@@ 78051
佛@@ 78050
守 78027
境 77949
报 77933
預@@ 77918
一种 77871
歌曲 77809
贝@@ 77779
薩@@ 77740
省@@ 77697
漢@@ 77691
P@@ 77620
擊 77565
罗 77544
英國 77463
比賽 77384
唐@@ 77323
擔任 77319
過@@ 77258
頓 77168
屆 77095
司@@ 77055
学校 77014
编@@ 77001
故事 76904
萬 76839
根據 76809
系列 76687
初 76668
甲 76650
向@@ 76645
马 76623
当 76541
单@@ 76520
施@@ 76519
来@@ 76499
合作 76470
关@@ 76461
遊戲 76341
京@@ 76175
員@@ 76159
论 75959
音@@ 75924
一位 75921
接受 75911
料 75812
園 75782
2021 75780
学名 75665
述 75557
此外 75440
反 75399
解@@ 75378
出現 75251
係 75158
船 75146
首次 75105
等@@ 74847
组 74735
gt 74689
食 74673
附近 74654
龙@@ 74615
卻 74609
= 74587
言 74577
这些 74481
杜@@ 74375
朱@@ 74306
話 74156
变@@ 74134
夏@@ 74128
景@@ 74106
港@@ 74086
小行星 74027
专@@ 73946
給 73878
头 73874
消@@ 73737
2000 73661
實 73657
造成 73655
26 73624
红@@ 73587
然 73569
角色 73435
游戏 73378
雷 73287
印度 73234
发展 73063
察@@ 72954
因为 72937
27 72919
即@@ 72797
经 72790
友 72788
未@@ 72784
影響 72783
一直 72768
发现 72757
2005 72620
0 72472
游@@ 72389
岸 72368
這些 72317
交 72298
恩@@ 72277
社@@ 72261
現 72256
專輯 72248
款 72228
衛@@ 72149
寫 72147
追@@ 72056
自由 72021
德国 71996
一座 71931
轄 71879
管@@ 71864
K@@ 71801
女性 71781
院@@ 71688
印@@ 71622
S@@ 71556
時期 71422
角@@ 71410
C@@ 71402
曾@@ 71387
义 71365
劇@@ 71341
取得 71318
000 71305
层 71256
增加 71254
丹@@ 71170
修 71120
进 71109
面积 70988
曼@@ 70943
劉@@ 70910
时间 70793
設計 70683
強@@ 70621
实@@ 70615
魚 70615
这个 70520
托 70478
选@@ 70478
論 70462
略 70384
观@@ 70177
中华人民共和国 70136
lt 70094
陈@@ 70038
低 69992
刘@@ 69922
二十@@ 69910
国际 69887
這個 69880
活動 69865
带 69840
沒 69810
社會 69806
果 69763
的@@ 69721
傳 69693
命名 69675
之間 69534
任何 69439
如果 69393
微@@ 69378
統@@ 69365
当时 69255
曲@@ 69234
旅@@ 69201
干@@ 69178
移@@ 69169
强@@ 69070
房 69050
歌@@ 69046
司 69041
期间 68951
素 68951
英 68936
康@@ 68857
相 68849
左@@ 68844
學校 68809
创@@ 68802
取@@ 68760
好@@ 68760
共有 68725
殺 68589
雙@@ 68580
31 68557
少 68499
之前 68436
海拔高度 68317
還@@ 68221
魯@@ 68157
居@@ 68119
阳 68116
沿@@ 68108
索 68099
沃@@ 68078
當 68042
应 68031
低@@ 67983
复@@ 67969
L@@ 67874
乌@@ 67864
街道 67845
蒙@@ 67822
除了 67705
裝@@ 67611
朝@@ 67604
并@@ 67579
土 67557
則@@ 67543
不是 67506
剧 67470
典 67391
萊@@ 67366
各 67340
产@@ 67327
控制 67298
瑞@@ 67294
气@@ 67280
2@@ 67279
中国@@ 67244
29 67170
根据 67168
设计 67165
隨@@ 67117
務@@ 67036
接 67018
解 66986
一次 66982
病@@ 66962
查 66960
岁 66908
根 66901
俄@@ 66888
雅@@ 66854
第三@@ 66760
蒂@@ 66675
时期 66645
春@@ 66512
华 66485
B 66474
發行 66450
奇@@ 66416
桥 66416
图@@ 66385
足@@ 66378
交通 66345
霍@@ 66270
義 66232
創@@ 66176
赫@@ 66145
车站 66048
存 66019
皆 66003
书@@ 65918
活@@ 65905
建筑 65780
故@@ 65774
斯特 65764
看@@ 65746
H@@ 65672
版本 65403
' 65375
短@@ 65315
电影 65290
害 65257
們 65209
资@@ 65191
节 65109
C 65049
問題 64987
野@@ 64967
命 64922
納 64880
主义 64847
貝@@ 64836
英国 64806
無 64751
见 64724
F@@ 64618
木 64584
節目 64476
N@@ 64408
職 64336
落@@ 64320
平均 64316
局@@ 64279
清 64233
氣 64207
大量 64203
二 64158
期@@ 64151
計 64032
具 64001
紅@@ 63988
植物 63929
登 63807
目@@ 63779
战争 63740
母 63735
資@@ 63697
板 63683
督 63651
條 63639
鄉 63615
教授 63596
出版 63586
酸 63527
革命 63457
變@@ 63222
装@@ 63180
顿 63056
地理 63001
求 62987
娜 62984
縣@@ 62972
走 62951
批 62924
副@@ 62885
發生 62865
哥 62798
送 62765
古 62758
运@@ 62758
菲@@ 62749
都@@ 62704
庄 62703
舉行 62687
一起 62594
非常 62487
應@@ 62420
卫@@ 62397
獲 62392
联@@ 62356
病 62338
100 62271
比赛 62220
宋@@ 62212
志 62160
組@@ 62155
服 62117
馆 62097
A@@ 62079
直接 62048
別 62042
裡 62030
備 62015
之间 61906
飛@@ 61897
诺@@ 61808
2004 61696
強 61591
組織 61579
位置 61494
全国 61448
裝 61407
美元 61380
问题 61373
你 61367
判 61359
結@@ 61327
影响 61317
死@@ 61247
主任 61234
项 61232
島@@ 61224
0.@@ 61197
推出 61174
作為 61120
期間 61119
业@@ 61094
爱@@ 61076
已经 61031
有限公司 61027
越@@ 60991
0@@ 60957
方法 60872
詞 60852
中央@@ 60850
業@@ 60711
什@@ 60647
降@@ 60556
峰 60493
賽@@ 60475
介@@ 60442
門@@ 60441
10@@ 60407
草@@ 60403
佩@@ 60283
望 60266
十 60257
血@@ 60225
客 60161
重新 60153
法院 60146
思@@ 60122
電 60093
让 60092
甚至 60066
該國 60060
鐵@@ 60060
電視 60049
著名 60048
他@@ 59963
玉@@ 59923
奖 59900
楼 59858
職@@ 59855
运 59807
医@@ 59685
草 59651
食@@ 59625
已@@ 59575
那 59549
质 59479
進入 59349
职 59331
雖然 59304
速 59295
视@@ 59270
连@@ 59238
志@@ 59153
| 59053
迪 58976
包含 58913
女子 58907
止 58897
告@@ 58886
白 58878
15@@ 58836
经济 58835
育 58820
造@@ 58802
聚@@ 58799
戶 58756
出现 58741
能@@ 58597
图 58545
O@@ 58533
发生 58486
航空 58484
宁@@ 58478
假@@ 58457
最佳 58447
色@@ 58414
四 58388
利用 58381
丁 58357
E@@ 58351
西班牙 58282
條@@ 58221
告 58210
形式 58171
50 58161
播出 58156
称为 58142
廳 58053
E 58015
藏 57952
人民@@ 57941
獲@@ 57921
两个 57889
照 57864
守@@ 57528
阳@@ 57502
探@@ 57489
张 57481
第三 57461
巡@@ 57450
过@@ 57424
班@@ 57420
成員 57339
松@@ 57334
福 57195
进入 57195
包@@ 57185
華 57168
表 57122
学家 57067
谷 57043
網@@ 57039
風 57034
直到 56889
伊 56856
核@@ 56816
倫@@ 56769
三年 56673
丁@@ 56595
列表 56565
興@@ 56534
選舉 56506
郎 56490
份 56470
祖@@ 56455
智@@ 56445
季@@ 56419
模@@ 56392
留@@ 56384
S 56352
變 56271
址 56242
徒 56225
學院 56208
放 56188
言@@ 56162
場@@ 56152
突@@ 56107
演 56090
普 56054
of 56032
行政区划 56009
第十@@ 56008
一年 56003
击 55955
完全 55948
住 55939
领@@ 55927
並且 55843
頭@@ 55723
西部 55721
最終 55671
感 55655
共同 55642
R@@ 55639
彈 55515
據 55486
活动 55477
出生 55356
火 55341
不能 55324
議 55310
风@@ 55215
男子 55167
密 55138
总面积 55129
盛@@ 55110
察 55090
技术 55060
剧@@ 54993
切@@ 54987
众 54981
抵@@ 54974
美國@@ 54907
容 54887
諾@@ 54878
五 54876
分別 54865
设 54863
參加 54787
一部分 54774
音樂 54723
再次 54722
勢 54720
欧@@ 54651
演出 54643
皇@@ 54638
位@@ 54630
计划 54571
何@@ 54537
丹 54517
选 54506
家族 54497
認@@ 54417
2003 54381
后来 54381
就@@ 54344
總 54340
藏@@ 54311
但@@ 54299
證@@ 54261
末 54232
足 54138
亡 54113
乐@@ 54078
致@@ 54051
家庭 54042
個@@ 54040
收 54023
這 54009
民主 53993
橋 53946
權@@ 53915
單 53900
跟 53880
烈 53873
14@@ 53870
T 53846
決定 53820
政策 53794
使@@ 53744
油 53721
附@@ 53718
话 53710
朗@@ 53692
師@@ 53691
種@@ 53688
不過 53682
祖 53664
大陆 53653
居民 53623
領 53623
陸 53620
月台 53562
希望 53559
40 53554
处@@ 53553
园 53491
能力 53487
产 53478
共和 53378
藝@@ 53362
生涯 53325
逃@@ 53325
費 53312
朗 53303
双@@ 53301
歐@@ 53283
互@@ 53277
荷@@ 53262
万 53261
带@@ 53252
意大利 53159
洪@@ 53152
父 53140
许多 53078
尚@@ 52995
船@@ 52979
老 52978
塞 52941
陸@@ 52864
农@@ 52820
徐@@ 52812
巴士 52768
廠 52725
赛@@ 52715
鐵 52689
聲@@ 52651
早期 52527
而且 52494
喜@@ 52482
服務 52462
条 52434
通過 52345
评@@ 52330
半 52327
右@@ 52317
產@@ 52265
勝@@ 52191
景 52160
隊@@ 52150
预@@ 52143
學生 52114
調 52105
極@@ 52103
村@@ 52088
洋@@ 52084
功能 52078
著@@ 52050
持 52037
写 52032
諾 52016
當地 51953
技@@ 51869
世紀 51775
词 51772
激@@ 51701
失 51685
典@@ 51666
冰@@ 51660
語@@ 51648
眾 51632
是@@ 51593
沙 51548
伦@@ 51538
人士 51502
最终 51485
寶@@ 51471
兴@@ 51461
牛@@ 51336
術 51331
兩個 51274
威 51271
厂 51262
作用 51249
看 51132
親@@ 51102
易@@ 51065
委員會 51030
容@@ 51020
離 50988
龙 50984
優@@ 50980
安全 50978
以上 50977
平方千米 50949
歐洲 50924
秀 50882
識 50877
供@@ 50869
圖@@ 50861
列车 50821
W@@ 50793
2002 50765
门@@ 50711
周 50706
律 50694
大部分 50673
戰爭 50646
想@@ 50608
經濟 50606
仅 50567
侧 50549
殿 50416
辦 50408
克斯 50388
唱 50343
混@@ 50299
调@@ 50288
根@@ 50272
边 50221
早@@ 50198
the 50165
敗 50159
组@@ 50149
農@@ 50112
升 50097
若 50089
產 50026
穆@@ 50025
法律 50019
運動 49982
油@@ 49976
隆@@ 49920
民族 49878
醫@@ 49861
議@@ 49725
标@@ 49723
獎@@ 49716
擊@@ 49706
V@@ 49595
D 49583
判@@ 49566
或@@ 49566
稱@@ 49537
森@@ 49432
方向 49362
会议 49340
幾@@ 49316
隆 49292
調@@ 49271
許多 49227
今@@ 49185
使得 49180
中華民國 49172
模式 49159
艦 49132
已經 49119
最後@@ 49076
厅 49064
撤@@ 49064
官方 49035
域 49007
环@@ 48988
G 48959
聲 48944
吳@@ 48933
記 48918
保 48893
气 48879
良 48876
… 48763
八 48749
溫@@ 48747
熱@@ 48731
站@@ 48710
影 48601
邦 48598
决定 48583
聯盟 48580
計劃 48542
声@@ 48519
甘@@ 48425
毛@@ 48372
区@@ 48354
秘@@ 48343
二年 48335
约@@ 48334
关系 48331
母@@ 48329
+ 48298
特別 48246
最初 48204
实 48170
去世 48130
称@@ 48126
原因 48118
中共 48109
研究@@ 48014
指出 48010
加拿大 48009
营 47928
运动 47900
務 47899
政治@@ 47874
拍 47816
师@@ 47815
請 47787
据 47771
聯 47747
差@@ 47706
梁@@ 47681
族@@ 47640
篇 47638
装 47621
X 47611
鎮 47610
翻@@ 47607
終@@ 47590
结@@ 47580
離@@ 47540
危@@ 47522
標@@ 47522
生物 47494
魔@@ 47483
售 47476
边@@ 47475
完@@ 47444
野 47428
s 47379
13@@ 47378
遊@@ 47369
除@@ 47369
热@@ 47319
利亚 47309
救@@ 47286
仍然 47247
支 47233
很多 47226
男 47192
樓 47181
側 47171
旗 47154
群@@ 47148
描述 47146
導@@ 47103
团@@ 47090
委员 47083
监@@ 47062
球隊 47022
香@@ 47018
進士 46982
刊 46978
尾 46952
画 46942
繼@@ 46923
学生 46858
道路 46856
示@@ 46840
載 46828
死亡 46821
槍 46785
种@@ 46715
聯賽 46664
宮 46662
底@@ 46660
改 46658
相關 46630
相同 46626
赤@@ 46551
試 46548
总人口 46504
費@@ 46473
環@@ 46458
待 46436
情况 46382
年度 46363
負責管 46349
几@@ 46308
全 46259
占 46236
畫@@ 46154
溪 46106
暴@@ 46085
奧 46069
晚@@ 46015
注@@ 46002
目的 45997
戈@@ 45981
組成 45978
余@@ 45973
兒 45957
路線 45937
舰 45928
洲 45910
片@@ 45881
樂 45873
態 45863
酒 45833
兼 45787
尼亚 45776
唯一 45733
要@@ 45731
强 45710
昌 45674
報@@ 45653
歌手 45643
武 45635
社会 45618
始@@ 45611
M 45575
极@@ 45548
存@@ 45537
J@@ 45535
偏@@ 45503
权@@ 45499
護@@ 45481
率@@ 45479
監@@ 45470
擁有 45387
評@@ 45362
全球 45345
计 45345
巨@@ 45339
遺@@ 45318
防 45314
杨@@ 45296
注 45244
O 45237
温@@ 45220
1990 45187
结构 45055
茨 45022
应@@ 45008
黎@@ 44970
七 44967
狀 44941
認 44914
讀 44900
久 44896
序 44853
魚@@ 44831
圍 44785
阿尔@@ 44770
雲@@ 44726
临@@ 44699
刻 44681
占@@ 44658
若@@ 44654
資料 44617
机构 44607
錄 44573
銀@@ 44542
全部 44536
驗 44514
诺 44440
德國 44436
臣 44430
麥@@ 44427
觀 44390
坑 44388
辛@@ 44363
再@@ 44339
充@@ 44334
第一次 44330
恐@@ 44324
男性 44324
營@@ 44319
無法 44215
川@@ 44209
分别 44195
宁 44176
坦@@ 44170
封 44151
併 44140
务@@ 44118
省份 44067
結果 44056
来自 44023
12@@ 44013
这种 43969
效@@ 43944
州市 43930
從@@ 43928
令@@ 43926
陽@@ 43924
成员 43910
公路 43908
四年 43873
榜 43833
招@@ 43798
协@@ 43795
運 43704
法國 43643
大型 43588
总统 43587
盃 43558
K 43545
范@@ 43511
杀 43476
办 43450
组成 43450
领 43425
九 43419
委@@ 43342
最后 43341
吉 43320
松 43320
呼@@ 43208
獨立 43192
裔 43176
破@@ 43160
必@@ 43140
設有 43099
黨@@ 43043
具@@ 43035
深 43025
結束 42958
及其 42925
00 42915
职@@ 42914
项目 42883
备 42873
檢@@ 42861
飾 42832
簡@@ 42813
情況 42801
烏@@ 42793
人员 42792
什 42731
每年 42689
传 42682
制度 42671
移 42654
楊@@ 42626
總統 42617
艇 42519
露 42512
一部 42496
币 42479
故 42466
座@@ 42450
F 42441
仁@@ 42440
洛 42423
留 42413
建築 42397
象@@ 42382
營 42377
續 42364
私@@ 42338
不久 42333
背@@ 42330
或者 42305
卢@@ 42280
1999 42262
姆@@ 42220
屋 42183
变 42167
! 42156
靠 42149
演唱 42145
卷 42119
开 42113
町 42054
康 42051
超過 42050
積@@ 42043
結 42030
培@@ 42009
拜@@ 42002
离 41996
夏季 41973
快 41927
1998 41911
帶@@ 41902
P 41901
春 41876
圈 41821
產生 41807
飞@@ 41806
冠@@ 41781
簽@@ 41776
瑪@@ 41761
富 41746
尾@@ 41729
用于 41659
R 41637
線@@ 41635
县@@ 41629
桑@@ 41616
列車 41600
库@@ 41592
获 41575
度@@ 41552
時代 41549
名字 41524
采用 41479
铁@@ 41441
部队 41407
競@@ 41389
參 41330
导致 41320
測 41296
姓 41268
建设 41237
明朝 41230
質@@ 41172
U@@ 41170
功@@ 41159
设@@ 41150
翼 41149
为了 41144
秀@@ 41117
散 41069
生于 41054
检@@ 40992
繼續 40963
优@@ 40957
单 40904
戴@@ 40901
拥有 40888
抗 40866
視@@ 40856
免@@ 40855
当地 40815
60 40770
毕业 40736
200 40730
遭到 40672
财@@ 40625
a 40610
报@@ 40610
許 40609
哲@@ 40593
崇@@ 40592
轉 40581
教堂 40568
透過 40565
境内 40498
善 40490
建造 40453
並在 40442
独立 40436
議員 40429
背景 40427
采@@ 40406
〉 40389
導 40382
并且 40378
送@@ 40372
幕 40370
〈 40348
乘@@ 40332
罪 40318
紀@@ 40316
L 40306
示 40294
费@@ 40269
麗@@ 40243
速度 40232
集团 40218
世界@@ 40206
財@@ 40206
坐@@ 40187
录 40117
土地 40092
玩家 40086
1980 40062
導致 40054
西北 40018
房@@ 39980
视 39974
佔 39964
歷@@ 39953
皮 39948
吴@@ 39942
休@@ 39904
公園 39896
僅 39893
證 39893
联赛 39887
集團 39852
扩@@ 39839
之後@@ 39836
算 39808
獨@@ 39786
末@@ 39781
欧洲 39777
产生 39771
伯 39741
接壤 39705
佛 39703
疑 39701
书记 39700
枚 39683
奏 39673
状 39660
俄罗斯 39655
默@@ 39576
吸@@ 39556
宗教 39516
公尺 39500
六 39496
青年 39496
征@@ 39439
I@@ 39433
肯@@ 39358
汉 39333
太 39332
往@@ 39316
自然 39315
地球 39299
益 39235
500 39228
退 39224
回到 39212
引起 39205
蒂 39199
较 39197
友@@ 39191
套 39191
勝 39187
限 39185
股 39172
举行 39170
規@@ 39161
音乐 39144
步@@ 39125
别 39123
从@@ 39073
机场 39060
1997 39028
學家 39028
最早 39019
清朝 39017
傳統 38996
設@@ 38979
街@@ 38972
调 38944
研@@ 38895
承 38874
葉@@ 38837
雪@@ 38835
们 38832
地位 38811
採用 38730
阿 38702
苏联 38700
輪 38697
庫 38689
三十@@ 38676
單位 38654
奥 38641
熱帶 38637
穿@@ 38574
基本 38558
五年 38542
越南 38510
韓@@ 38509
国家@@ 38481
旧 38427
作家 38424
主角 38399
差 38390
身份 38372
品@@ 38361
律@@ 38344
需 38321
夜 38314
材 38298
服@@ 38284
維 38271
乐 38236
滿 38171
语言 38164
順@@ 38162
I 38148
經過 38143
个@@ 38124
陶@@ 38096
影片 38051
美洲 38040
元年 38034
风 38029
斯坦 38016
证 38012
攻 38010
音樂@@ 37986
類@@ 37967
效 37924
真 37913
舉 37871
僅@@ 37848
简@@ 37796
论@@ 37779
郭@@ 37770
主教 37741
菌 37736
遭@@ 37701
畢業 37699
舞@@ 37690
营@@ 37685
遗@@ 37672
乙@@ 37670
制作 37668
纪@@ 37666
惠@@ 37649
取代 37637
测@@ 37624
機場 37603
多次 37588
中部 37567
雄 37547
导@@ 37542
來@@ 37516
转 37497
股@@ 37487
陵 37478
佐@@ 37466
旋 37466
派@@ 37454
險 37449
头@@ 37448
劳@@ 37446
京 37445
禮 37434
出身 37398
標 37394
– 37387
贵@@ 37378
亲@@ 37359
服务 37333
不少 37329
乘 37324
算@@ 37318
语@@ 37279
兴 37271
眼@@ 37267
婚 37262
云@@ 37243
！ 37243
主持 37236
有人 37226
處@@ 37225
任命 37206
地面 37200
满@@ 37191
天主教 37168
导 37168
复 37118
球队 37102
发行 37079
傷 37062
拿@@ 37037
切 37022
艘 37021
池 36969
武器 36954
加上 36932
難 36895
短 36888
只@@ 36885
1.@@ 36877
军队 36874
费 36874
還 36867
症 36854
改革 36797
退@@ 36796
勞@@ 36789
遠@@ 36768
终@@ 36763
席 36743
反应 36741
住@@ 36669
予 36640
技術 36614
网 36607
試@@ 36585
护@@ 36567
测 36555
出任 36548
仁 36528
参与 36523
豐@@ 36520
鐵路 36517
遠 36489
息 36482
西南 36458
行動 36453
部长 36431
分析 36382
80 36368
亞洲 36363
立法 36356
The 36346
炮 36345
換 36328
內容 36319
只是 36286
电 36267
全国@@ 36245
击@@ 36198
邊@@ 36198
犯 36197
論@@ 36176
週@@ 36173
秦@@ 36164
曹@@ 36153
便@@ 36125
皇帝 36124
势 36118
動畫 36108
這種 36107
毫米 36096
衛 36090
基地 36035
1996 35998
奖@@ 35990
帝国 35967
晚 35946
原本 35944
各地 35938
採@@ 35926
地下 35922
i 35908
还有 35899
关于 35854
屬@@ 35854
沈@@ 35842
負責 35835
泉 35800
鄭@@ 35798
助@@ 35785
至今 35741
说@@ 35737
表演 35723
节目 35713
2.@@ 35707
考 35703
之外 35658
卫 35623
韓國 35607
线@@ 35578
议 35576
點@@ 35570
骨 35564
杰@@ 35559
义@@ 35549
團@@ 35539
网@@ 35532
易 35506
平台 35500
妹 35490
一定 35471
35 35425
过程 35397
壓 35378
试 35364
结束 35336
节@@ 35336
生产 35327
盟 35298
父親 35296
科技 35288
興 35278
晋@@ 35233
徑 35228
5.@@ 35205
左右 35180
早 35173
英文 35163
繁@@ 35149
租@@ 35141
日至 35127
念 35090
运动员 35074
孔@@ 35072
說@@ 35057
70 35052
发布 35047
侵@@ 35042
签@@ 35016
病毒 35008
居住 34994
场@@ 34990
泰 34968
靈@@ 34942
作者 34917
刑 34905
唱片 34903
付 34853
顺@@ 34819
舍 34796
節@@ 34777
很@@ 34772
新加坡 34772
申@@ 34772
單曲 34761
行政@@ 34755
舊 34748
岩 34746
货@@ 34739
宫 34735
同意 34733
問 34731
大多 34729
擴@@ 34727
藍@@ 34725
到@@ 34718
证@@ 34700
圣 34672
計@@ 34651
辦@@ 34647
48 34603
继@@ 34583
喬@@ 34575
杯 34569
限制 34561
李 34554
？ 34542
概念 34537
1994 34535
日起 34521
凱@@ 34503
45 34483
却 34478
孟@@ 34474
盧@@ 34460
一家 34459
分子 34455
统@@ 34445
救 34434
輕@@ 34419
中学 34417
公共 34415
南京 34415
召@@ 34394
记 34371
確@@ 34345
伦 34339
N 34333
拉斯 34322
必須 34317
宣 34305
有些 34300
降 34290
3.@@ 34279
範圍 34262
骨@@ 34253
梅 34242
柯@@ 34205
團體 34196
韦@@ 34187
划@@ 34181
科学 34178
系@@ 34178
麻@@ 34160
演員 34147
魏@@ 34134
Y@@ 34116
戲@@ 34086
倫 34080
破 34078
太平洋 34075
远@@ 34029
網 34002
经过 34001
维 34001
90 33999
余 33995
距 33973
随后 33965
城区 33958
请 33955
極 33937
人口普查 33936
控 33936
執@@ 33928
斷 33926
票@@ 33923
亿@@ 33916
奉@@ 33901
聖 33866
澳門 33859
題 33852
量@@ 33839
1992 33817
驻 33817
独@@ 33812
警察 33795
兄弟 33783
1995 33781
希 33724
滿@@ 33714
航 33709
協@@ 33703
酒@@ 33700
冲@@ 33683
乡镇级 33670
br 33662
蒙古 33643
继续 33640
我们 33623
玛@@ 33623
记@@ 33622
初期 33590
识 33587
纽@@ 33575
孙@@ 33573
态 33571
排名 33571
陆@@ 33563
候@@ 33556
部份 33520
黑 33510
融@@ 33492
挑@@ 33478
中國@@ 33477
4.@@ 33473
雨@@ 33466
快@@ 33450
蔡@@ 33431
学习 33377
畫 33350
变化 33305
镇@@ 33304
号线 33303
征 33300
轮 33295
中華 33254
负责 33248
攝 33241
竹@@ 33241
元素 33229
動物 33200
傑@@ 33192
烏克蘭 33191
複 33188
开发 33185
1@@ 33181
走@@ 33154
呈 33151
舉@@ 33145
捷@@ 33131
媒體 33129
構@@ 33128
途@@ 33111
功 33108
in 33095
拜 33081
會議 33079
术 33062
联合@@ 33061
忠@@ 33055
硬@@ 33047
X@@ 33040
百 33040
6.@@ 33018
找 33002
這是 33001
紀錄 32997
主義@@ 32985
刑@@ 32966
壓@@ 32921
曾任 32919
二世 32916
离@@ 32899
相关 32898
虽然 32874
直 32864
叶 32862
叶@@ 32845
藝術 32806
宝@@ 32796
赵@@ 32791
乔@@ 32781
32 32780
第二次 32780
力量 32768
机车 32730
毛 32728
秋@@ 32724
1993 32707
夜@@ 32678
廟 32665
計畫 32665
办@@ 32634
始 32630
急 32591
巴西 32577
補@@ 32535
y 32529
U 32504
研究所 32492
试@@ 32470
动物 32468
適@@ 32467
审@@ 32457
n 32455
伍 32453
观 32442
联盟 32438
公布 32431
蒙 32424
逐@@ 32418
对于 32397
綫 32384
认@@ 32352
區域 32349
海拔 32349
1991 32347
岩@@ 32343
享@@ 32333
超 32333
败 32313
洋 32302
歸@@ 32295
孫@@ 32279
審@@ 32277
人員 32274
随@@ 32264
幼@@ 32259
弱 32245
術@@ 32242
席@@ 32239
流域 32234
記@@ 32225
巴黎 32218
务 32211
它们 32199
顯示 32185
连 32153
规@@ 32149
炮@@ 32148
洞 32146
異 32144
督@@ 32117
現時 32100
叫 32099
促@@ 32098
民主@@ 32097
麦@@ 32093
有關 32080
兹 32063
透@@ 32040
王朝 32037
超过 32014
慶@@ 32012
信息 31982
護 31971
授 31966
昆@@ 31926
或是 31890
首都 31832
第四@@ 31821
求@@ 31814
所属 31808
鼓@@ 31779
海军 31772
达到 31746
做@@ 31740
流行 31722
琴 31698
奈@@ 31686
浙江 31679
获@@ 31676
部隊 31667
照@@ 31657
提 31617
陽 31607
尼亞 31588
联 31573
廢@@ 31568
核 31556
亮 31540
北京@@ 31537
公园 31523
文物保护 31491
結構 31490
努@@ 31480
1950 31438
售@@ 31437
题 31436
一世 31421
六年 31421
連 31418
医院 31407
銷@@ 31396
滑@@ 31394
澳@@ 31372
庆@@ 31363
弹 31363
昂 31361
爭 31358
标 31348
仙@@ 31347
方案 31313
萨 31311
民国 31302
炸@@ 31301
续 31267
遇 31256
創作 31248
碼 31227
围@@ 31226
餘@@ 31222
是否 31218
游 31201
雨 31191
開發 31183
么 31174
新聞 31163
妻子 31150
決賽 31131
配 31131
捕 31130
始建 31129
标准 31129
約@@ 31120
保持 31108
郑@@ 31097
環境 31092
散@@ 31088
父亲 31066
宮@@ 31059
冠军 30956
V 30936
命@@ 30930
返回 30911
貨@@ 30883
昌@@ 30880
区域 30878
现 30864
榮@@ 30860
市場 30850
柴@@ 30832
紀 30832
零@@ 30812
芬@@ 30807
許@@ 30801
汗 30796
童 30786
联邦 30763
決@@ 30757
如下 30744
写@@ 30716
别@@ 30702
果@@ 30668
調查 30642
亂 30635
裁@@ 30620
领导 30599
國際@@ 30592
機構 30588
1949 30572
廷 30572
第四 30550
扎@@ 30545
牧@@ 30537
级@@ 30529
夏 30490
程度 30489
画@@ 30488
燃@@ 30482
暗@@ 30481
供 30471
归@@ 30459
and 30431
洲@@ 30426
源@@ 30417
棲息 30411
過程 30410
衣 30385
搭@@ 30376
隔@@ 30368
坡 30366
候 30357
彈@@ 30334
陣 30328
幣 30323
決 30316
批准 30311
少年 30300
跨@@ 30272
授@@ 30257
国民@@ 30244
凯@@ 30242
传统 30232
十年 30226
启@@ 30219
冷@@ 30216
换 30214
相當 30214
振@@ 30206
幅 30197
术@@ 30196
博士 30190
爲 30176
援 30169
1988 30151
統 30146
十分 30139
代表@@ 30121
紫@@ 30119
公分 30116
俱乐部 30107
鎮@@ 30100
給@@ 30097
漫@@ 30090
爵 30071
银@@ 30071
1970 30068
内容 30056
库 30055
克里@@ 30050
300 30034
君 30030
我們 30017
兼@@ 30015
帝@@ 30013
企@@ 29999
重建 29985
计@@ 29982
执@@ 29957
队@@ 29956
博 29949
細@@ 29945
协会 29939
名稱 29904
外交@@ 29881
下午 29840
据@@ 29839
禮@@ 29806
北市 29788
杀@@ 29784
覺 29770
企业 29763
界@@ 29759
境@@ 29755
眾@@ 29729
批@@ 29727
舉辦 29722
罪@@ 29720
諸@@ 29720
成績 29719
當中 29710
人類 29691
竞@@ 29687
藝 29673
莱 29668
按 29657
共和国 29655
雅 29651
程序 29644
旋@@ 29643
沃 29629
急@@ 29625
選擇 29617
庄@@ 29616
声 29610
毒@@ 29588
确@@ 29588
器@@ 29581
另@@ 29570
水域 29566
缺@@ 29562
文化@@ 29559
改為 29557
范围 29553
丽@@ 29546
蓋 29527
斗@@ 29508
不再 29504
鄉@@ 29501
报告 29465
数据 29464
银行 29464
協會 29451
因而 29446
决@@ 29441
』 29437
職業 29435
異@@ 29431
『 29427
知道 29411
豪@@ 29410
接近 29407
设立 29396
社区 29392
潮 29362
距離 29360
皇家 29354
軟@@ 29347
菜 29339
历@@ 29333
親 29322
1989 29315
柱 29290
小时 29279
7.@@ 29272
这一 29269
更名 29265
谢@@ 29247
理论 29246
困@@ 29242
宜@@ 29228
时代 29219
大臣 29191
us 29180
压 29176
圓@@ 29169
掌@@ 29166
磁@@ 29161
正在 29151
還有 29151
估@@ 29150
與@@ 29149
改为 29132
H 29123
径 29110
较@@ 29110
上映 29109
講@@ 29108
似@@ 29104
无 29102
远 29101
聯合 29095
表現 29095
媒体 29088
瑟@@ 29086
墓 29077
众@@ 29071
莉 29062
四川 29057
柏@@ 29040
保护 29022
旧@@ 29010
某@@ 28993
確 28977
議會 28977
建筑@@ 28965
攝@@ 28961
主演 28960
户 28941
難@@ 28923
革 28916
1945 28903
截至 28897
君@@ 28886
溪@@ 28877
韋@@ 28871
难 28862
而是 28859
支援 28850
设有 28850
提名 28848
现在 28808
譯 28798
辽@@ 28780
齐@@ 28767
資 28765
盖 28761
奉 28734
专业 28715
標準 28681
別@@ 28670
控@@ 28670
邦@@ 28657
工业 28653
著作 28646
青 28643
牙@@ 28641
非洲 28603
血 28602
樹@@ 28594
收入 28587
16@@ 28583
限@@ 28582
结果 28580
替 28573
中文 28557
包 28554
炎 28518
取消 28492
型@@ 28490
特别 28472
徵@@ 28470
编 28444
尚 28430
程@@ 28426
积@@ 28419
井 28408
未能 28398
尤@@ 28386
董@@ 28370
奪@@ 28364
坦 28356
临 28347
耳@@ 28323
投 28320
桃@@ 28299
丽 28296
彭@@ 28291
荣@@ 28289
迷@@ 28285
on 28277
保留 28267
累@@ 28251
泽@@ 28245
莉@@ 28239
交流 28226
交通@@ 28218
良@@ 28214
攻擊 28195
竹 28175
直至 28168
赫 28153
佛教 28146
诸@@ 28097
綠@@ 28092
艺术 28085
架@@ 28080
1960 28062
尊@@ 28049
旗下 28047
晉@@ 28036
藥@@ 28014
善@@ 28002
警方 27989
養 27987
岛@@ 27982
祭@@ 27976
眼 27950
不會 27949
x 27947
虎 27945
碑 27942
播@@ 27925
肉 27910
2022 27900
停止 27896
薩 27882
材料 27868
其它 27867
澤@@ 27840
看到 27833
韩国 27831
葬 27829
自治区 27815
逝世 27792
千 27789
压@@ 27759
思想 27759
绝@@ 27749
迎 27745
雪 27740
新增 27736
块 27735
高中 27729
購 27698
倍 27697
于@@ 27683
一樣 27678
雄@@ 27676
赛季 27673
父@@ 27657
尋@@ 27626
快速 27614
活 27612
赴 27605
訴 27585
謝@@ 27585
又名 27574
可達 27573
建成 27564
线路 27559
橫@@ 27558
西省 27541
電子 27537
隔 27532
忠 27499
斯特@@ 27491
策@@ 27487
诗@@ 27484
億 27470
麗 27470
星期@@ 27469
祖父 27468
特殊 27464
任务 27459
趣 27454
額 27446
覆@@ 27445
紅 27428
刺@@ 27424
博物馆 27412
牛 27393
拉克 27368
将@@ 27367
和平 27342
宋 27332
絲 27327
网络 27322
秒 27298
威廉 27291
引 27286
西方 27280
思 27277
东北 27271
投票 27262
总 27253
省级 27241
发表 27240
埃 27236
鎮區 27223
海岸 27219
輸@@ 27181
賽事 27173
氏@@ 27171
漢 27164
再度 27161
葛@@ 27156
能夠 27154
軍隊 27145
丰@@ 27143
遂 27124
兩 27108
隨著 27094
主題 27089
詩@@ 27082
訂 27074
湾 27069
只能 27066
符@@ 27053
陕@@ 27043
侍@@ 27040
效力 27034
20@@ 27026
邀@@ 27023
年间 27020
验 27018
物种 27016
孩子 27009
载 27008
村落 26998
无法 26993
沉@@ 26988
联合 26988
行动 26981
围 26978
物理 26978
工作@@ 26965
芬 26951
陆 26949
如此 26941
归 26933
尚未 26911
1985 26908
帝國 26893
人民政府 26884
俄羅斯 26864
公民 26862
天津 26860
迁@@ 26842
Z@@ 26829
固@@ 26823
33 26803
改名 26791
梁 26791
舊@@ 26788
排 26784
乱 26783
歷 26769
哈 26765
協助 26756
染@@ 26746
致 26722
映 26713
朋友 26708
設立 26699
尤其 26698
慈@@ 26693
  26675
小時 26667
測@@ 26659
国际@@ 26650
庙 26646
36 26638
福建 26634
輯 26629
孩 26626
曆 26626
假 26599
程式 26595
中學 26594
文件 26594
盤 26577
环 26569
公主 26551
～ 26549
童@@ 26541
騎@@ 26529
禁@@ 26522
早年 26508
命令 26507
公開 26504
以前 26485
1984 26466
先生 26457
文章 26457
孝@@ 26455
当选 26450
干 26446
播放 26419
卿 26410
寧@@ 26401
名称 26397
茲 26357
構 26345
項目 26332
胜 26327
灰@@ 26318
簡稱 26312
擊敗 26310
伤 26309
亦@@ 26305
多年 26298
現在 26297
味 26283
返 26264
模型 26259
普通 26257
愛 26213
隧道 26213
擔 26207
地震 26199
庫@@ 26199
持@@ 26197
美国@@ 26196
渡@@ 26189
大樓 26184
1986 26179
液 26178
佳@@ 26170
关 26158
像@@ 26138
爭@@ 26134
傷@@ 26116
环境 26115
一度 26104
安排 26100
賓 26078
憲@@ 26077
军事 26075
乃@@ 26065
38 26061
34 26059
大利 26034
樣 26023
慕@@ 26008
頂 26006
集中 26001
速@@ 25988
规模 25978
士兵 25976
提高 25968
皇 25947
兩人 25931
驻@@ 25914
额 25913
參與 25910
广场 25907
台北 25903
瑞 25893
选举 25890
谷@@ 25879
妮 25856
搜@@ 25854
献 25851
8.@@ 25849
槍@@ 25840
南方 25836
發表 25833
以外 25831
铁 25829
七年 25827
宇@@ 25811
裁 25806
失去 25797
争@@ 25782
葉 25782
耶 25757
小说 25745
震@@ 25736
堅@@ 25716
坊 25709
持續 25699
否@@ 25690
大道 25690
1987 25689
珠@@ 25689
漫畫 25680
阻@@ 25677
这是 25673
莎@@ 25666
移民 25664
全國 25660
拿 25656
细@@ 25650
满 25644
m 25642
此后 25638
至少 25623
警 25614
录@@ 25609
市民 25601
醫院 25590
生產 25584
伯特 25580
保護 25579
選區 25546
俗 25539
引擎 25535
不明 25514
灵@@ 25513
潮@@ 25512
掉 25505
河南 25497
有关 25489
间@@ 25483
以来 25475
幕@@ 25464
粉@@ 25457
介 25454
植@@ 25449
懷@@ 25441
工程@@ 25431
語言 25428
三个 25422
津@@ 25420
潘@@ 25413
械 25397
字母 25388
遷 25382
殺@@ 25375
异@@ 25374
顯@@ 25370
股份 25349
药@@ 25346
拍@@ 25345
t 25336
均@@ 25328
规定 25328
銀行 25327
球員 25324
价@@ 25316
借@@ 25297
樂團 25289
群島 25285
軍事 25266
类似 25262
表面 25262
盟@@ 25255
時候 25243
实现 25242
年間 25229
酒店 25222
o 25210
麼 25193
严@@ 25192
避免 25188
基础 25183
这样 25175
乡@@ 25174
犹@@ 25174
輕 25169
隻 25161
以來 25154
靈 25147
塘 25139
某些 25139
之下 25137
八年 25136
断 25135
险 25129
陣@@ 25123
国王 25120
中国共产党 25083
浦@@ 25083
随着 25054
伐@@ 25048
投入 25037
教區 25015
彼@@ 25010
衡 24997
啟@@ 24989
海域 24967
整 24964
牠 24960
練 24960
遊 24954
高度 24933
版@@ 24928
礼 24921
舞 24917
有效 24884
各種 24874
序@@ 24870
1982 24853
含@@ 24850
p 24849
設施 24845
處理 24837
操@@ 24834
前身 24825
阿拉@@ 24817
基金 24812
本地 24811
一同 24807
役 24805
毁 24795
将军 24794
玻@@ 24794
随 24784
行为 24779
執行 24773
温 24768
駐 24759
健康 24754
環 24751
替@@ 24742
得以 24738
显@@ 24711
时候 24707
基督教 24699
消息 24699
现代 24689
儀@@ 24682
柳@@ 24677
46 24668
讲@@ 24644
委会 24631
创作 24629
补@@ 24622
尼斯 24617
云 24596
遭 24596
嚴@@ 24594
餘 24593
75 24583
屋@@ 24583
弟 24581
d 24567
核心 24563
选择 24562
貴@@ 24553
瑞典 24551
42 24537
運動員 24532
适@@ 24530
盛 24528
訪 24526
三個 24522
藤@@ 24517
极 24513
经济@@ 24512
编码 24505
東部 24497
禁止 24494
儿 24484
叛@@ 24474
同一 24462
隸屬 24451
运行 24440
儿@@ 24428
十二 24426
晨 24425
不过 24403
瑞士 24395
广州 24392
壁 24390
句 24388
鱼 24388
出口 24384
河流 24384
民國 24374
免 24371
J 24367
徽 24365
迴 24360
曾經 24334
彩 24326
右 24312
逐漸 24299
合并 24276
分为 24263
轄@@ 24255
恢复 24253
澳洲 24253
资 24252
恒@@ 24248
1983 24241
反对 24219
購@@ 24194
積 24189
凌@@ 24167
特色 24166
历 24162
羽毛球 24145
嚴重 24126
议会 24120
概@@ 24113
珠 24112
一系列 24105
渡 24087
64 24083
与@@ 24080
之中 24076
委員 24070
年底 24070
作出 24063
氧@@ 24062
文字 24051
墓@@ 24039
鏡 24037
英語 24027
莫 24024
榮 24006
井@@ 23998
c 23986
尽管 23982
茨@@ 23981
乘客 23971
斯基 23957
侯@@ 23943
找到 23943
空間 23941
大区 23931
安德@@ 23922
香 23921
旗@@ 23905
难@@ 23882
罗马 23864
迫@@ 23862
综@@ 23857
译 23848
唐 23831
闻@@ 23822
个人 23794
溫 23790
55 23789
似 23782
一条 23774
必须 23771
學習 23766
本身 23755
39 23737
乎 23736
策 23727
9.@@ 23722
平方米 23713
距离 23713
护 23707
01 23690
演员 23678
訊@@ 23675
宜 23653
秋 23653
属下 23650
指定 23624
hans 23615
怀@@ 23611
37 23609
何 23597
英尺 23588
战役 23585
知名 23575
一段 23573
趙 23558
水平 23543
于是 23540
宇 23539
錄@@ 23532
东部 23489
數據 23476
侯 23467
一颗 23466
先后 23462
歸 23455
1979 23452
de 23446
专辑 23446
讀@@ 23436
以色列 23423
彩@@ 23421
提升 23410
楚@@ 23405
綜@@ 23403
精神 23397
容易 23392
劃 23382
济@@ 23380
约翰 23370
调查 23360
产品 23351
市场 23346
鲁 23334
执行 23310
能够 23304
电视@@ 23298
衣@@ 23298
　 23296
勇@@ 23291
范 23289
涅@@ 23283
截@@ 23279
記者 23271
儿子 23270
跑 23270
圆@@ 23238
訊 23233
價 23229
塊 23227
羽@@ 23213
體長 23207
夫人 23196
停 23192
桂@@ 23191
緣 23178
九年 23175
地铁 23146
空间 23144
厄@@ 23140
坚@@ 23140
刺 23125
部门 23125
雕@@ 23116
露@@ 23116
条@@ 23115
倒@@ 23111
國立 23099
翰@@ 23099
基礎 23092
庭 23092
报道 23084
爱 23075
城鎮 23069
决赛 23056
400 23021
樹 23018
穿 23010
运营 23010
廣播 23003
傑 23001
齊@@ 22991
大使 22976
我@@ 22975
特定 22961
學者 22959
略@@ 22959
理論 22958
砲 22950
读 22928
问 22920
点@@ 22916
雲 22916
自由@@ 22915
入侵 22872
电视 22869
生命 22863
陰@@ 22853
信仰 22852
產品 22850
迅速 22848
人口数量 22844
邨 22826
援@@ 22820
议员 22813
岡@@ 22808
社会@@ 22803
议@@ 22798
应用 22797
喀@@ 22791
幸@@ 22787
禁 22785
跳@@ 22781
頒@@ 22774
念@@ 22764
配合 22756
1978 22750
轻@@ 22749
實際 22744
濟@@ 22731
印 22717
大西洋 22715
相似 22715
離開 22711
紐@@ 22703
爵@@ 22698
導演 22692
邮政编码 22691
皇后 22684
藥 22680
涅 22674
雜誌 22672
琳 22652
聞@@ 22649
印度@@ 22637
珍@@ 22632
祥 22628
報告 22627
顶 22600
还是 22592
素@@ 22589
棄 22586
慶 22585
刻@@ 22582
按@@ 22582
運動會 22567
餐@@ 22554
目標 22542
注意 22537
选区 22530
刀 22528
骑@@ 22524
徽@@ 22512
剂 22510
仲@@ 22508
扎 22507
构@@ 22507
台湾 22504
埃及 22500
津 22478
森林 22477
给@@ 22474
等等 22465
航空@@ 22459
部落 22447
寬 22446
圍@@ 22445
商業 22435
e@@ 22429
定义 22426
袁@@ 22406
轨道 22405
古代 22400
倒 22399
主義 22395
负@@ 22392
同樣 22389
迎@@ 22387
44 22382
h 22379
微 22370
輸 22370
感到 22369
按照 22366
绿@@ 22344
應用 22333
读@@ 22333
減@@ 22331
价 22297
is 22295
连接 22280
健@@ 22278
旅客 22275
旅 22274
父母 22270
獻 22266
人们 22261
肉@@ 22257
生长 22256
黃@@ 22244
65 22241
礼@@ 22233
品牌 22232
韩@@ 22230
交易 22212
紧@@ 22209
热 22207
儘 22203
风格 22201
編號 22200
負@@ 22180
兹@@ 22158
準 22152
鐵道 22148
顯 22138
充 22135
電視劇 22135
孔 22124
酸@@ 22122
设置 22121
譽 22120
41 22119
举办 22100
第五 22099
e 22090
讷 22085
途 22080
迷 22060
遇@@ 22059
颱 22057
符 22048
帮助 22037
價@@ 22035
病例 22035
肯 22029
人类 22024
貢@@ 22018
超級 22018
树 22006
撒@@ 21997
才能 21990
类型 21983
表明 21982
b 21970
毒 21963
虎@@ 21963
潜@@ 21955
袖 21947
聯合@@ 21946
桥@@ 21941
宽 21933
很大 21926
52 21911
丘@@ 21908
瑟 21901
如何 21895
1981 21889
買 21884
英雄 21879
敦@@ 21878
電視台 21873
顧@@ 21860
巨大 21852
晚上 21842
amp 21834
tw 21834
普遍 21831
經營 21828
旁 21821
母親 21821
妃 21820
一样 21815
兒子 21814
° 21812
见@@ 21809
本站 21800
亭 21795
仍@@ 21775
英國@@ 21775
h@@ 21763
各种 21760
創 21753
錢 21746
佳 21738
W 21735
輪@@ 21734
記載 21728
吕@@ 21727
白色 21724
入口 21720
状@@ 21719
準@@ 21717
质@@ 21710
寫@@ 21707
朝鲜 21705
授予 21702
紀念 21687
养 21686
离开 21686
意思 21678
浮@@ 21656
案件 21650
玩@@ 21646
首府 21646
輔@@ 21640
改變 21633
訓練 21605
大學@@ 21604
设备 21601
谋@@ 21593
閣 21588
举@@ 21564
疾病 21562
开放 21558
拓@@ 21555
北方 21549
賓@@ 21541
an 21529
％ 21517
南省 21512
工具 21509
高速公路 21506
事故 21501
严重 21496
简称 21494
董事 21490
電腦 21485
飛 21485
婚@@ 21483
浪@@ 21468
树@@ 21467
都市 21467
寄@@ 21465
晶@@ 21465
鱼@@ 21455
改造 21454
東京 21449
飞机 21435
菲 21434
结 21431
辑 21425
章@@ 21397
建議 21372
处理 21369
毀 21366
新闻 21365
捐@@ 21363
旺@@ 21359
尖@@ 21357
舒@@ 21357
效果 21356
旦 21352
损@@ 21343
暫@@ 21339
階段 21339
出席 21317
逐渐 21312
确 21310
疫情 21291
糖 21286
北省 21284
尉 21277
因素 21275
太阳 21275
许@@ 21272
階@@ 21269
責@@ 21255
准@@ 21250
51 21249
甸 21241
HD 21230
衰@@ 21229
全面 21226
宿@@ 21213
规划 21204
函数 21203
賣 21193
小型 21181
海外 21181
廣 21180
行為 21176
仅@@ 21168
症@@ 21164
药 21154
文物 21150
唱@@ 21146
工人 21143
废@@ 21132
監 21126
hk 21125
物種 21124
規模 21117
久@@ 21112
司令 21111
齒 21111
绕 21101
吃 21099
京都 21089
决 21084
罕@@ 21081
陷 21075
魯 21058
阿爾@@ 21052
é 21048
卓@@ 21031
妻 21031
缺乏 21030
反應 21026
刊@@ 21023
也@@ 21013
乾@@ 21010
崔@@ 20996
47 20986
麥 20982
销@@ 20975
建制 20971
陷@@ 20971
絡 20967
這樣 20967
端@@ 20962
飛機 20926
本土 20924
记载 20919
台灣@@ 20912
未來 20904
细胞 20900
溶@@ 20897
害@@ 20888
坎@@ 20882
億@@ 20878
法案 20878
機會 20847
企業 20845
摩 20840
泉@@ 20836
不足 20831
仪@@ 20827
大區 20826
描@@ 20824
责@@ 20822
科學 20813
弹@@ 20806
很快 20796
更加 20796
57 20794
管理@@ 20779
脱@@ 20775
插@@ 20770
規定 20769
於@@ 20767
隶@@ 20753
识@@ 20749
显示 20744
马来西亚 20744
維持 20734
其後@@ 20729
整个 20718
涉@@ 20705
被迫 20703
魏 20697
伐 20684
逊 20671
西亞 20668
夺@@ 20662
建築@@ 20649
提到 20649
43 20647
折@@ 20642
依 20639
咸@@ 20638
家人 20627
第五@@ 20623
诉 20620
戈 20617
誤 20610
完整 20598
默 20593
收錄 20579
絕@@ 20573
k 20572
伴 20570
它們 20568
为主 20563
冷 20562
聽 20561
分鐘 20542
00@@ 20535
換@@ 20531
姐 20525
玉 20519
枪 20510
指挥 20504
壇 20500
需求 20495
高速 20482
爆发 20472
御@@ 20462
西亚 20459
／ 20442
願 20436
领导@@ 20436
值@@ 20431
埔@@ 20421
遗址 20416
领域 20416
涉及 20413
能量 20411
植 20410
惡@@ 20400
1946 20386
贡@@ 20373
Windows 20371
稱為 20365
損@@ 20364
襲 20343
鄰 20330
而成 20323
鹿@@ 20318
鲜@@ 20304
玄@@ 20296
戰役 20292
人工 20272
段@@ 20270
音乐@@ 20270
梯 20262
戏@@ 20261
中华@@ 20254
杰 20248
延伸 20239
遜 20238
園@@ 20218
滨@@ 20216
自治 20215
住宅 20189
换@@ 20182
分類 20181
樓@@ 20180
宇宙 20172
改善 20170
慢 20165
芝@@ 20156
大戰 20153
寧 20144
西藏 20143
昭@@ 20128
一切 20109
泳 20080
齐 20080
r 20072
条件 20071
工業 20070
賞 20067
统治 20063
逢 20058
1958 20051
臨@@ 20047
62 20045
然后 20038
味@@ 20036
厚 20031
江西 20025
四十@@ 20021
尔德 20020
蓝@@ 20019
風格 20016
1948 20010
借 20010
帕 20006
佔@@ 20000
58 19992
53 19980
仔 19963
宝 19958
墙 19957
國會 19956
讨@@ 19945
券 19944
箱 19943
葡萄牙 19932
太子 19922
齡 19921
倫敦 19914
战斗 19914
少女 19913
鼠 19896
含 19885
准 19883
历史@@ 19883
措施 19880
歡@@ 19876
勤 19874
屏@@ 19873
問@@ 19872
退出 19868
学者 19866
宾 19860
週 19859
迹 19857
柏林 19848
左 19840
操作 19840
爭議 19834
阵@@ 19822
腹@@ 19807
浪 19793
頂@@ 19780
卑@@ 19774
整個 19770
浦 19760
天文 19759
治療 19740
獄 19738
劇情 19736
85 19727
类@@ 19727
幹@@ 19725
阮@@ 19721
染 19712
網路 19712
修改 19698
职业 19695
捕@@ 19694
留下 19693
广东 19689
驱@@ 19689
博物 19683
敵@@ 19682
惠 19671
敬@@ 19664
突 19660
降低 19655
幻@@ 19649
56 19647
大約 19642
频道 19633
而言 19632
军区 19629
揭@@ 19629
泊 19627
原名 19626
燕@@ 19622
ing 19620
撤销 19611
緯 19606
鳳@@ 19588
爆@@ 19578
吸引 19574
用户 19567
照片 19562
明治 19559
組合 19559
请@@ 19556
另一@@ 19554
一帶 19524
大小 19523
卢瓦@@ 19507
螺@@ 19506
正常 19492
样 19490
一支 19483
加盟 19483
Y 19482
敏@@ 19468
国务院 19466
1920 19465
過去 19465
g 19464
國民 19462
棒 19457
大约 19449
逐 19443
坦克 19435
保存 19419
約翰 19418
舍@@ 19413
时区 19408
协议 19402
一條 19400
er 19398
争 19380
星等 19378
堂@@ 19371
人次 19367
俗@@ 19367
横@@ 19367
一天 19362
凡 19362
笑 19362
翌@@ 19362
行星 19361
變化 19359
投资 19358
伊斯 19356
湖南 19352
裡@@ 19351
連續 19349
艺@@ 19346
表现 19346
1940 19331
54 19331
楚 19329
菲律@@ 19329
興建 19323
鳥 19318
敏 19315
答 19315
寨 19309
t@@ 19294
批評 19292
铜@@ 19288
西北部 19282
尔斯 19253
不可 19242
評 19242
鬼 19240
真正 19239
维尔 19235
第一个 19234
蛇 19230
舞台 19229
患者 19220
夏令时 19219
云南 19201
案@@ 19200
购@@ 19197
即使 19191
饰 19185
1976 19178
朝鮮 19169
魚綱 19166
國民黨 19165
莎 19155
冬@@ 19152
目标 19149
INSEE 19139
电视台 19129
蟲 19123
设施 19119
展示 19112
比例 19112
49 19103
相信 19102
十二@@ 19099
汽车 19098
亞州 19091
上午 19087
嘉 19086
車輛 19078
出演 19076
之子 19067
1975 19066
那些 19064
板@@ 19049
制造 19046
基因 19040
墨西哥 19038
西南部 19034
迈@@ 19031
宫@@ 19027
譯@@ 19026
輻鰭 19026
顏@@ 19026
形象 19020
土耳其 19012
弘@@ 19009
赞@@ 19000
嶼 18996
食物 18992
山东 18986
76 18984
事務 18977
加利福@@ 18969
英格@@ 18969
最高@@ 18966
确诊 18964
國家@@ 18949
儀 18945
填@@ 18941
呈@@ 18940
滅 18927
阿拉伯 18926
首先 18926
稳@@ 18906
潛@@ 18904
鄰@@ 18897
後來 18892
冬季 18885
稿 18884
合成 18878
任務 18874
緊@@ 18872
奪 18870
1972 18867
狀況 18866
丘 18865
河畔 18865
s@@ 18864
蘇 18862
汇@@ 18857
戰鬥 18849
y@@ 18840
体育@@ 18838
* 18833
連接 18820
匈牙利 18809
感染 18800
输@@ 18800
Q@@ 18793
官员 18793
盾 18789
寺@@ 18774
臨 18771
屯@@ 18760
剩@@ 18737
銷 18733
1930 18730
两 18729
幾乎 18718
修建 18703
息@@ 18678
计算@@ 18668
88 18660
陵@@ 18652
顾@@ 18643
遷@@ 18635
設置 18634
訪@@ 18632
澳大利亚 18629
一步 18624
多个 18622
公共@@ 18621
灌@@ 18620
球季 18620
to 18618
負 18618
契@@ 18615
習 18604
智 18603
1956 18599
茶 18590
66 18580
報導 18576
600 18568
顶@@ 18564
私人 18560
終 18547
床 18543
今日 18536
陳@@ 18531
狀態 18520
72 18518
恢 18516
残@@ 18516
伊斯@@ 18512
中国人民解放军 18506
内部 18505
阶段 18501
乳@@ 18498
投降 18494
撞@@ 18490
國王 18488
習@@ 18487
減少 18486
一所 18483
兼任 18470
中山 18462
疑@@ 18455
小說 18450
得知 18449
隨後@@ 18447
63 18445
墨@@ 18432
固 18429
固定 18409
配音 18408
每个 18404
票房 18398
比如 18392
焦@@ 18387
紹 18382
二人 18366
資訊 18364
阴@@ 18349
认 18347
呼 18345
61 18343
1937 18341
伊朗 18341
坐 18338
府@@ 18337
宿 18331
貌 18331
相比 18328
牌@@ 18327
球會 18325
艺 18321
亨利 18319
艺术@@ 18308
母亲 18306
函@@ 18304
大多数 18302
經歷 18301
记录 18295
词@@ 18294
冊 18290
大陸 18289
詞@@ 18288
次年 18287
成本 18280
钢@@ 18280
锡@@ 18276
用作 18264
金牌 18255
频 18254
红 18250
廊 18246
埔 18242
註 18234
自治@@ 18231
橋@@ 18226
大致 18220
JR 18202
员@@ 18192
原始 18186
IS@@ 18185
重点 18181
扮演 18178
顆 18177
东南 18172
符合 18154
秘密 18152
中國大陸 18148
例子 18146
弃 18142
芳 18136
异 18132
中共@@ 18129
1947 18128
解放 18124
絕 18121
乾隆 18119
錦@@ 18112
路口 18104
上述 18103
1000 18076
衍@@ 18073
污@@ 18060
列入 18056
了解 18052
庆 18049
用途 18049
北京市 18048
釋 18047
延 18045
豪 18032
自然@@ 18030
1941 18023
黑色 18021
年初 18014
网站 18014
通道 18006
番 17993
800 17990
齊 17984
擔@@ 17982
方言 17982
淘@@ 17973
誉 17969
祀 17967
户@@ 17963
液@@ 17962
需@@ 17961
拒絕 17955
細胞 17953
舰队 17953
南北 17950
歐 17948
虛@@ 17948
抽@@ 17943
琴@@ 17929
澳 17925
一份 17923
教育@@ 17922
67 17912
違@@ 17910
突然 17900
莫斯科 17899
熱 17896
深度 17895
湯@@ 17895
幫助 17894
蒙古@@ 17893
廣場 17880
操 17880
下降 17877
广 17868
駐@@ 17863
狄@@ 17860
避@@ 17859
虫 17854
重大 17850
茲@@ 17849
人大@@ 17848
益@@ 17848
續@@ 17845
国会 17842
捷 17840
殘@@ 17839
伏@@ 17835
麦 17833
59 17831
苏 17829
仔@@ 17823
波兰 17817
伍@@ 17812
棋 17810
凤@@ 17808
他人 17803
总理 17801
英格蘭 17796
路易@@ 17791
冰 17790
陨@@ 17789
分為 17786
粒@@ 17786
屠@@ 17784
爆發 17783
基本@@ 17776
甚@@ 17773
斗 17765
高雄@@ 17763
茶@@ 17758
1952 17756
杂志 17754
曾经 17744
戴 17737
談@@ 17734
有所 17731
法官 17731
肺@@ 17729
支流 17727
革@@ 17720
技 17718
廷@@ 17717
斯蒂@@ 17716
86 17709
衝@@ 17709
进攻 17707
蘇聯 17705
奥林匹克运动会 17696
山西 17680
1968 17673
喜 17670
苦 17664
熊@@ 17662
頻道 17660
大會 17656
日期 17653
里斯 17651
新疆 17646
制定 17639
1973 17637
淡水 17634
脫@@ 17631
68 17617
退休 17616
缩@@ 17608
卒 17599
寸 17596
裂 17591
自行 17588
TV 17587
摄@@ 17586
奴 17581
特征 17578
敌@@ 17574
辖 17572
确定 17567
壘 17564
俄 17563
烈@@ 17562
電視@@ 17551
脂 17546
蛋白 17546
歧@@ 17535
建設 17523
办事处 17515
鰭 17501
分钟 17498
猶@@ 17488
呂@@ 17480
望@@ 17478
火箭 17478
d@@ 17476
占领 17471
條件 17470
源自 17462
琉@@ 17461
汽車 17459
準備 17458
代表大会 17455
大会 17453
娛樂 17450
教會 17449
敵 17445
代码 17438
化石 17436
化合物 17435
苗 17435
三世 17433
丙@@ 17431
矿@@ 17425
82 17422
77 17418
几乎 17417
輝 17417
網站 17405
遵@@ 17401
孤@@ 17395
桑 17395
这里 17393
赢得 17391
響 17373
鋼@@ 17370
奴@@ 17369
旁@@ 17364
还@@ 17364
轮@@ 17356
文学 17353
状态 17352
统一 17351
雜@@ 17337
73 17336
成員@@ 17332
藩 17332
際 17332
不斷 17327
數量 17314
印尼 17297
电子 17293
混合 17292
寻@@ 17291
膜 17291
觉 17288
香港@@ 17286
分配 17282
阁 17278
籃@@ 17271
孙 17270
付@@ 17264
1977 17261
公元 17257
貿易 17256
阵 17253
每個 17248
聯邦 17236
還是 17232
95 17225
纪念 17213
准备 17199
苑 17199
c@@ 17197
外交 17191
城堡 17188
最近 17187
u 17179
課程 17160
養@@ 17150
勃@@ 17148
醫療 17135
解散 17131
廉@@ 17127
作战 17126
中華@@ 17123
引入 17119
腳 17118
业务 17117
盘 17105
攻击 17104
海洋 17103
属@@ 17098
建于 17098
答@@ 17098
驅@@ 17088
25@@ 17086
氧化@@ 17081
宏@@ 17073
维奇 17071
英语 17068
獸 17065
基于 17058
的關 17055
岭 17049
變成 17044
冒@@ 17041
机关 17032
精 17027
家中 17025
幻 17018
體育@@ 17018
辖@@ 17006
辰 17006
此次 16984
隱@@ 16982
觸 16976
05 16962
1955 16962
里克 16961
广泛 16960
佐 16950
弟@@ 16948
30@@ 16944
以后 16944
1964 16940
實施 16934
拆@@ 16933
立即 16928
粉 16927
亮@@ 16922
熟 16916
政协 16915
起来 16901
74 16898
1974 16890
上海市 16889
塑@@ 16888
资源 16885
持续 16880
1966 16875
71 16874
盖@@ 16866
高等@@ 16863
退役 16849
依然 16845
利亞 16845
人們 16842
1938 16841
叙@@ 16828
嶺 16823
見@@ 16823
一致 16820
x@@ 16817
發出 16815
女兒 16807
去@@ 16806
據@@ 16805
显 16801
已有 16797
育@@ 16796
夢 16794
年前 16784
导演 16777
商业 16776
葡萄@@ 16776
做出 16775
平原 16765
不到 16764
允许 16763
藉@@ 16757
須 16753
奥斯@@ 16750
駕@@ 16747
怒 16744
結婚 16740
举 16739
粗@@ 16738
半島 16734
逮捕 16728
统计 16725
81 16722
殖民地 16718
飾演 16714
旬 16700
日本@@ 16698
發售 16695
太人 16690
一個@@ 16687
伴@@ 16679
脈 16679
经常 16669
金融 16666
加州 16660
請@@ 16659
150 16656
数量 16656
78 16652
御 16642
习@@ 16641
同样 16627
浩@@ 16611
步兵 16606
觀眾 16605
疫 16602
努力 16600
此時 16591
士学位 16585
食品 16573
尼亚@@ 16571
拍摄 16561
估 16556
伤@@ 16547
側@@ 16544
相对 16544
誌 16542
劑 16539
际 16538
服務@@ 16537
反對 16528
备@@ 16519
练 16519
疫@@ 16516
循@@ 16511
弗 16505
农业 16500
99 16495
一場 16495
风暴 16493
廣告 16490
業務 16486
山大 16477
今天 16476
選手 16475
姓@@ 16473
邀 16470
劃@@ 16468
深圳 16463
然@@ 16462
評價 16459
詩 16456
1939 16454
轻 16451
动机 16443
民眾 16443
奧林匹@@ 16440
尊 16439
针@@ 16437
迁 16435
使用@@ 16427
紐約 16423
邓@@ 16422
册 16419
閉 16419
02 16417
1954 16416
听@@ 16413
銅@@ 16413
缘 16410
舰@@ 16410
1944 16406
偶@@ 16399
亚洲 16398
郵@@ 16386
不会 16384
平面 16384
管辖 16383
鳥@@ 16377
心理 16361
範@@ 16358
公爵 16354
坪 16353
酶 16349
協 16342
铁路@@ 16342
崎@@ 16331
群岛 16330
派遣 16328
比较 16326
施 16321
软件 16314
將會 16310
淮@@ 16306
颁@@ 16300
1971 16297
绍 16287
08 16283
天皇 16281
建议 16281
垂@@ 16278
陆军 16272
钱@@ 16268
下令 16265
枝 16259
拒绝 16246
城镇 16242
响@@ 16241
纪念@@ 16240
袭 16240
朝廷 16234
拔 16231
犯罪 16231
資格 16231
殖@@ 16230
享 16226
較@@ 16224
創立 16216
允@@ 16214
房屋 16213
常見 16204
调整 16203
球場 16192
多個 16182
本人 16172
钱 16169
洗@@ 16165
現場 16164
责 16164
办公室 16159
击败 16158
鋒 16157
列出 16155
內部 16153
谈@@ 16150
贏得 16149
自身 16148
山脈 16146
水库 16144
王國 16144
往往 16138
第六@@ 16138
文學 16134
揚 16131
巡 16129
从而 16127
挪威 16120
德语 16114
迫 16110
阶@@ 16103
輛 16102
79 16100
雙 16079
領域 16072
斤 16068
1965 16067
走向 16066
刺史 16063
蓋@@ 16060
泽 16059
簡介 16056
莊@@ 16054
号@@ 16052
证明 16049
習性 16048
更新 16046
記錄 16042
軌道 16042
自動 16034
沒@@ 16033
身體 16030
共和@@ 16018
瓜@@ 16010
剛@@ 16009
設備 16001
茂@@ 16000
访 15998
评价 15998
宪法 15997
69 15989
近年 15988
經常 15987
專業 15981
邻 15977
針@@ 15976
上海@@ 15975
庭@@ 15971
召开 15969
冠軍@@ 15965
奈 15961
劍 15960
社區 15951
蕭@@ 15944
魂 15938
脉 15932
瓜 15928
1969 15926
管理局 15925
89 15920
扶@@ 15916
某 15911
87 15909
間@@ 15906
北美 15900
名為 15889
84 15888
闭 15880
洛杉@@ 15879
碼@@ 15878
柔@@ 15875
原子 15874
牙语 15873
級@@ 15872
事業 15871
胜@@ 15871
虑 15864
国内 15862
障@@ 15858
訓 15837
跡 15837
責 15835
际@@ 15834
解釋 15833
1959 15830
07 15828
俊@@ 15827
团体 15827
狱 15827
l 15823
由此 15822
仙 15819
昂@@ 15815
98 15814
生成 15812
阻止 15811
诗 15806
助理 15803
经历 15799
九龍 15795
日军 15782
代理 15781
壽@@ 15768
類似 15762
太陽 15759
荒@@ 15759
敬 15748
丈夫 15743
廣泛 15731
p@@ 15693
宾@@ 15690
標為 15689
胞@@ 15674
─ 15671
營運 15666
太空 15665
um 15656
驗@@ 15656
恶@@ 15655
登上 15653
健 15647
出版社 15644
起源 15643
同盟 15641
订 15639
汪@@ 15635
規劃 15635
光緒 15632
1942 15629
名为 15627
電台 15622
91 15621
93 15613
到达 15612
96 15610
啟 15606
利益 15600
籌@@ 15599
鮮@@ 15598
練@@ 15596
小學 15593
許多@@ 15589
物理@@ 15578
鄧@@ 15573
译@@ 15572
省委 15564
國民@@ 15562
服役 15561
升格 15546
1957 15544
串 15543
犯@@ 15543
委书记 15540
浙江省 15540
例@@ 15526
1953 15521
兒童 15513
偉@@ 15509
現代 15501
暗 15500
破壞 15496
剛 15495
改制 15494
题@@ 15492
錫@@ 15491
1936 15486
參賽 15482
卜@@ 15480
第六 15478
热带 15468
斯克 15467
蒸@@ 15462
痛 15461
理事 15460
媒 15459
牵@@ 15459
糖@@ 15459
图书馆 15458
高級 15458
跨 15456
军事@@ 15453
养@@ 15451
勇 15451
中期 15448
扬 15439
敌 15439
價值 15437
a@@ 15436
謂 15428
1967 15424
苗@@ 15415
al 15409
翠@@ 15408
比利@@ 15405
翁 15405
购 15404
进一步 15404
域@@ 15403
双 15399
r@@ 15394
叫@@ 15388
昭和 15388
頻@@ 15379
买 15368
歇@@ 15367
生物@@ 15366
弟弟 15358
辞@@ 15356
92 15350
襲@@ 15348
ant 15344
83 15342
改变 15339
轨@@ 15338
II 15333
託 15333
逝 15330
批评 15324
艦@@ 15321
邮@@ 15318
派出 15307
給予 15306
化学 15302
縮 15302
德里 15297
背 15297
討論 15290
湘@@ 15288
君主 15284
样@@ 15265
唐朝 15260
賽季 15260
未知 15258
室@@ 15256
n@@ 15254
站台 15236
科学院 15235
上市 15230
魔 15229
彼得 15222
譜 15219
拆除 15216
頁 15213
主力 15212
賴@@ 15212
事情 15209
贸易 15208
唯@@ 15207
繪@@ 15205
星系 15203
以南 15201
24@@ 15198
絲@@ 15198
伦敦 15197
湖北 15179
孫 15177
怪 15174
編 15167
醇 15165
羽 15164
市政府 15163
王子 15163
敦 15158
棒球 15157
天津@@ 15153
实施 15149
破坏 15147
江苏 15145
积 15139
王国 15138
改編 15129
討@@ 15125
海道 15122
中共中央 15111
打算 15095
1962 15093
i@@ 15093
山峰 15092
伊利 15085
凝@@ 15077
戰鬥@@ 15077
1943 15069
濟 15059
码 15055
奏@@ 15052
駛 15052
薛@@ 15048
灵 15038
拉丁@@ 15036
偵@@ 15032
94 15031
申請 15028
计算 15028
吨 15009
擬 15001
欧 15000
跟@@ 14999
校长 14997
违@@ 14996
万人 14995
藤 14995
患 14993
灭 14992
來源 14990
03 14989
姚@@ 14986
辆 14986
疆@@ 14985
希臘 14978
指揮 14975
順 14972
聞 14971
争议 14966
1961 14963
1951 14962
斯洛@@ 14957
原住民 14955
狗 14954
汝@@ 14945
从事 14940
统 14932
以北 14930
爾斯 14930
餐 14923
岳@@ 14922
课@@ 14922
則是 14919
綱 14916
待@@ 14913
體系 14913
熟@@ 14910
1963 14909
煤@@ 14902
化学@@ 14900
车辆 14898
作戰 14895
靠近 14893
卫星 14884
謀 14882
寮 14874
江苏@@ 14873
议院 14872
姐@@ 14869
有限 14864
外部 14861
减少 14857
吐@@ 14857
广东省 14850
人數 14844
成都 14843
06 14842
火山 14837
公开 14836
公元前 14834
鄉試 14828
殖 14827
希腊 14821
CD 14817
沿海 14815
原有 14814
疏@@ 14807
f 14803
遇到 14803
1935 14802
談 14801
胜利 14796
下来 14794
貴 14794
脑 14790
广播@@ 14787
特性 14785
錦標賽 14784
此时 14783
設計@@ 14781
暂@@ 14779
午 14776
联系 14776
涉 14772
罗马@@ 14762
羅馬 14762
式@@ 14760
艦隊 14758
開放 14755
山东省 14751
减@@ 14748
讚 14744
層@@ 14742
議院 14742
資源 14741
正面 14721
运输 14719
含有 14717
伏 14714
实际 14709
詹姆斯 14707
试图 14706
历任 14697
飲@@ 14696
园@@ 14680
婚姻 14680
現代@@ 14675
慧 14674
各自 14671
粹 14669
栽培 14663
計算 14661
概要 14660
郎@@ 14659
贊@@ 14652
胎 14645
靜@@ 14643
突破 14642
创建 14633
徒@@ 14630
市长 14628
厘米 14627
協議 14625
组建 14615
杂@@ 14612
池@@ 14606
統治 14604
分裂 14600
匯@@ 14599
收到 14598
源于 14598
丝 14591
市区 14589
產業 14589
司令部 14586
險@@ 14585
’ 14583
五月 14583
穆斯林 14582
09 14575
夢@@ 14574
长期 14565
四川省 14564
绪 14560
飞 14559
地名 14553
南非 14545
任教 14543
飓风 14542
辅@@ 14541
學位 14540
本線 14537
首播 14529
釋@@ 14526
首席 14525
隋@@ 14515
态@@ 14503
參考 14497
硫@@ 14493
雙方 14486
羊@@ 14483
暴力 14478
淡@@ 14472
爆炸 14471
轴 14463
乃 14457
月球 14453
空军 14453
成绩 14449
得名 14444
比亚 14441
主持人 14439
汽@@ 14433
彰@@ 14430
大廈 14429
滅@@ 14427
嘉靖 14415
波斯 14413
置@@ 14413
全長 14404
欢@@ 14394
担@@ 14392
進攻 14386
頓@@ 14386
断@@ 14377
紙 14372
領導 14371
璃 14370
SA@@ 14366
一款 14366
虚@@ 14363
主張 14360
憑 14360
測試 14360
筹@@ 14356
接替 14355
NBA 14354
・ 14352
西班@@ 14351
軌 14347
錯@@ 14343
婦 14333
指挥@@ 14330
解決 14318
耳 14315
奥地利 14314
裏 14310
频@@ 14310
障 14309
持有 14308
忙 14295
敘@@ 14293
电子@@ 14293
戶@@ 14290
毫@@ 14288
部門 14288
模 14283
卡尔 14275
不断 14273
滑 14272
髮 14269
革命@@ 14256
意外 14250
雷斯 14232
欲 14229
撞 14228
萧@@ 14214
屬於@@ 14213
两人 14212
洞@@ 14211
共產@@ 14210
棋@@ 14209
俱樂部 14208
恰@@ 14207
互 14203
啟用 14198
風暴 14197
獻@@ 14194
隐@@ 14194
蓮@@ 14193
小组 14192
反映 14190
康熙 14189
教育部 14177
傾@@ 14169
训 14169
沿 14160
篮@@ 14160
十三 14154
肖@@ 14153
农村 14151
傅@@ 14145
兄@@ 14144
牙 14142
× 14135
市中心 14135
怕 14135
又称 14133
阿根廷 14131
所在@@ 14130
质量 14129
首相 14128
商人 14124
銜 14115
电影@@ 14112
厚@@ 14109
賀@@ 14104
97 14102
抑@@ 14100
解决 14095
萊 14094
半岛 14090
济 14081
理解 14078
空中 14075
拘@@ 14073
同名 14072
AR@@ 14070
解释 14070
况 14063
投資 14059
误 14058
然後@@ 14052
女儿 14049
衝突 14049
良好 14047
番@@ 14044
裕 14044
意志 14042
十六 14038
斯拉夫 14032
圖書館 14025
控制@@ 14022
河北 14022
04 14021
御史 14018
戀@@ 14018
双方 14017
發動 14012
承认 14011
申 14009
图示 14006
纵@@ 14004
粵@@ 13999
凡@@ 13997
割 13996
曰 13992
锦@@ 13992
吧 13991
恆星 13987
運作 13982
移動 13978
沖 13975
豆 13975
愛爾@@ 13969
杭州 13968
戲 13967
资格 13966
所在 13963
700 13961
天堂 13953
克兰 13948
廣東 13945
性能 13942
榜@@ 13942
圓 13940
咖@@ 13937
喜歡 13933
构成 13932
文明 13929
撰@@ 13917
民間 13917
缺 13917
讯 13916
锦标赛 13910
出售 13908
没 13907
错@@ 13907
AS@@ 13906
实验 13905
耀@@ 13905
共产党 13903
評論 13901
气候 13900
~ 13898
指示 13897
河道 13895
衔 13893
b@@ 13888
探 13886
霸@@ 13885
保障 13884
團隊 13883
般@@ 13880
互相 13871
視為 13871
僧@@ 13868
碳 13858
输入 13847
只要 13846
荷蘭 13844
高等 13844
职务 13841
本作 13838
训练 13838
实行 13829
奥运会 13827
学会 13823
熙 13821
日治 13820
特徵 13818
指控 13816
k@@ 13814
叔@@ 13812
偶像 13810
繼 13810
握 13805
福建@@ 13805
常委 13795
氣象 13791
袭击 13785
几个 13784
態@@ 13780
实验@@ 13778
針 13778
卡拉 13776
牆 13774
翻 13774
载@@ 13766
斑@@ 13765
分类 13753
勢力 13752
在位 13742
荷 13742
消失 13740
永 13739
完工 13735
方便 13735
甫 13730
揮@@ 13722
物质 13722
社会主义 13721
荣 13718
利斯 13717
明星 13715
未有 13712
泛@@ 13712
為止 13710
服务@@ 13705
獨 13693
尺@@ 13688
每天 13688
兩種 13687
醒 13679
莊 13675
总部 13671
纸 13669
接收 13666
民族@@ 13663
詹@@ 13651
追 13649
胸@@ 13645
释@@ 13644
工业@@ 13642
维亚 13639
静@@ 13633
執導 13624
套@@ 13623
吾@@ 13619
支持@@ 13619
此站 13618
拼@@ 13616
重庆 13615
分支 13614
娘 13610
应该 13608
娃 13600
英里 13600
肥@@ 13584
o@@ 13579
警告 13578
南極洲 13574
旅游 13569
押 13568
漁@@ 13562
農 13562
幽@@ 13560
弦 13560
幸 13557
考慮 13555
税 13550
结合 13549
勵 13548
檔 13547
聽@@ 13543
添@@ 13541
法庭 13534
最多 13533
夷 13524
条约 13523
狀@@ 13522
郊 13522
留在 13519
妇@@ 13509
珍 13508
球员 13504
殿@@ 13503
泥@@ 13501
泥 13496
強烈 13493
恩省 13492
創辦 13491
燈 13491
召 13490
世界大战 13489
楼@@ 13489
蒋@@ 13489
防止 13489
鍵 13488
紋 13487
峡 13474
尽@@ 13472
穩定 13467
儒@@ 13465
续@@ 13452
宽@@ 13447
科学@@ 13440
碟 13438
访问 13438
1933 13430
仿 13429
掘 13428
臨時 13424
治疗 13415
120 13413
巧 13413
专家 13409
確定 13407
上升 13406
拿下 13400
氯@@ 13400
汰 13400
苦@@ 13392
堪@@ 13391
汇 13390
1928 13386
小学 13382
天文台 13380
每日 13378
願@@ 13375
刚 13371
地點 13367
怪@@ 13360
筆@@ 13345
港口 13344
颜@@ 13334
辭@@ 13333
司法 13331
現象 13323
催@@ 13322
巴赫 13319
熊 13319
河南省 13318
1% 13316
用来 13315
ia 13312
戒 13312
教会 13309
开发@@ 13300
el 13299
地利 13290
毛泽东 13290
轟@@ 13287
所屬 13284
顧 13284
敢 13277
細 13276
ar 13270
獵@@ 13268
腳@@ 13265
寶 13252
26@@ 13249
共产@@ 13232
事务 13225
辛 13216
镜 13210
织@@ 13195
身分 13183
予@@ 13171
cn 13170
硕@@ 13170
盡 13165
悲@@ 13163
驚@@ 13157
艾 13139
份@@ 13136
蛋 13135
規 13118
蛋@@ 13116
坛 13115
摧@@ 13099
玛 13091
羊 13091
1931 13082
50@@ 13073
賢 13073
俘 13066
忽@@ 13056
贾@@ 13047
1932 13045
龄 13008
codice 13001
1927 12994
祝 12976
愿 12968
愿@@ 12966
许 12957
郡@@ 12957
寿@@ 12949
鼻@@ 12944
嫌 12937
潭 12937
純@@ 12931
逆@@ 12926
補 12921
繞 12916
搬@@ 12909
绍@@ 12907
蛛 12897
惡 12896
蹈 12896
返@@ 12895
賴 12891
儲@@ 12888
研 12886
壁@@ 12885
澤 12885
规 12882
麻 12855
掌 12847
蔣@@ 12836
邁@@ 12834
Z 12822
偷@@ 12821
顺 12818
汀 12801
麟 12800
鬥@@ 12797
振 12784
柱@@ 12767
硬 12752
缅@@ 12747
矛@@ 12734
讲 12728
料@@ 12721
脅 12721
晉 12720
Ch@@ 12719
or 12712
殼 12703
謝 12699
畢@@ 12689
针 12689
跑@@ 12684
既 12681
解放@@ 12649
腐@@ 12646
完 12628
10.@@ 12622
隶 12618
晶 12614
盐@@ 12614
es 12612
盐 12612
拟 12611
繪 12611
层@@ 12607
赖@@ 12600
1934 12599
增 12580
折 12577
颗 12566
键 12560
40@@ 12559
档 12553
貝 12553
杂 12545
IN@@ 12538
窗@@ 12518
贝 12512
俊 12501
狂@@ 12495
縮@@ 12494
誕@@ 12482
困 12472
芒 12468
蝶 12465
中国人民@@ 12449
祝@@ 12439
祠 12435
駛@@ 12429
礦@@ 12425
at 12424
储@@ 12424
筆 12419
纪 12418
27@@ 12415
濱 12400
亡@@ 12391
BS 12382
賈@@ 12382
g@@ 12376
23@@ 12356
势@@ 12352
丰 12344
祥@@ 12341
茵 12338
慢@@ 12328
冯@@ 12322
謀@@ 12317
亨@@ 12307
邑 12303
範 12299
豆@@ 12292
欣@@ 12291
撰 12290
媒@@ 12262
拳@@ 12258
廖@@ 12251
枪@@ 12245
谢 12245
峰@@ 12242
翔 12236
堆 12233
沟 12231
蹟 12229
Q 12227
丸 12227
夕 12226
l@@ 12221
鐘 12200
继 12199
阪 12197
仪 12170
兄 12170
礙 12169
锡 12169
妹@@ 12167
al@@ 12162
1929 12160
沉 12157
‘ 12155
雀 12149
am 12141
炸 12139
烟@@ 12139
悉 12133
锋 12132
鍾 12127
憶 12124
贈 12120
袋 12118
兒@@ 12106
痛@@ 12098
灭@@ 12097
店@@ 12094
80@@ 12081
奎@@ 12079
宅 12068
千米 12065
雌@@ 12061
束 12060
缓@@ 12060
衡@@ 12060
姜@@ 12055
ー 12039
旨 12038
夠 12029
祿 12022
麵 12007
秘 12002
慧@@ 12001
蹤 11996
零 11996
覺@@ 11981
祭 11967
螺 11950
聘 11932
28@@ 11927
宛 11918
杜 11905
刷 11900
en 11885
斑 11885
赞 11879
1918 11869
噴@@ 11867
鲍@@ 11866
雍@@ 11863
欢 11858
戒@@ 11848
1912 11846
惟@@ 11846
剑 11837
緬@@ 11831
彌@@ 11820
贵 11810
汤@@ 11808
AT 11785
寬@@ 11785
洪 11784
滩 11781
委員@@ 11779
屈@@ 11769
for 11760
劍@@ 11755
OS 11754
逃 11748
避 11738
拖@@ 11733
擾 11723
耐@@ 11723
暨 11706
岸@@ 11699
邵@@ 11695
の 11680
m@@ 11677
矿 11658
扬@@ 11655
寒@@ 11650
剪@@ 11645
坑@@ 11645
響@@ 11639
濃@@ 11627
課 11623
猛@@ 11607
敗@@ 11604
腔 11601
聚 11589
巫@@ 11578
f@@ 11575
腓@@ 11571
漫 11564
肌@@ 11552
... 11541
构 11536
鬼@@ 11536
碧@@ 11535
z 11528
崎 11516
患@@ 11515
朴@@ 11515
鹿 11515
激 11509
栖@@ 11505
姊@@ 11502
句@@ 11499
驾@@ 11499
et 11496
披@@ 11496
盆@@ 11473
災 11471
辭 11464
討 11453
戀 11448
峽 11446
勤@@ 11443
刚@@ 11441
补 11439
脫 11434
v@@ 11421
壮@@ 11409
晋 11407
蟹 11403
壤 11401
→ 11397
枢@@ 11392
豐 11385
监 11384
珊@@ 11378
薄@@ 11376
郊@@ 11375
泊@@ 11370
粒 11368
翼@@ 11359
擅@@ 11356
斷@@ 11352
菌@@ 11352
滨 11344
瑪 11340
覽 11337
朱 11327
忍@@ 11326
斜@@ 11323
兆@@ 11315
銀 11307
了@@ 11304
创 11302
灾 11294
额@@ 11289
黄 11286
姬 11279
AT@@ 11274
in@@ 11272
旺 11271
搖@@ 11260
AC@@ 11259
況 11250
燕 11250
胺 11246
1919 11245
獅@@ 11241
鸟 11240
氨@@ 11232
呎 11225
既@@ 11223
谓 11220
猪@@ 11218
陀 11218
怖 11217
項@@ 11205
1924 11199
as 11199
覽@@ 11196
械@@ 11195
.@@ 11191
谱 11187
杭@@ 11176
佩 11169
划 11154
密度 11151
卷@@ 11141
掩@@ 11123
碩@@ 11122
磯 11117
17@@ 11116
鐘@@ 11113
钟@@ 11107
覆 11106
礁 11101
搬 11097
冬 11094
賣@@ 11077
悬@@ 11075
撒 11072
触 11069
必 11059
頻 11042
AM@@ 11033
id 11028
笼@@ 11026
赖 11025
丑 11024
献@@ 11023
繫 11010
on@@ 11005
襄@@ 11002
坝 11001
災@@ 10998
凱 10996
輻@@ 10969
觉@@ 10968
芳@@ 10943
霸 10936
昇 10918
菩@@ 10918
晓@@ 10913
v 10911
龐@@ 10904
鹽 10888
雖@@ 10879
倾@@ 10869
盡@@ 10865
罰 10865
1925 10864
涵@@ 10858
陪@@ 10847
旨@@ 10839
叔 10828
玩 10821
秦 10817
檔@@ 10815
隸 10814
胁 10809
稀@@ 10805
備@@ 10801
1917 10793
喪@@ 10791
錯 10786
1926 10777
镜@@ 10777
毕@@ 10772
漸 10772
癌 10770
罩 10756
Google 10755
1914 10747
嘗@@ 10746
鎖 10746
倉 10742
誤@@ 10741
DVD 10738
耀 10738
尖 10733
km 10731
屯 10730
碳@@ 10725
宪@@ 10722
12.@@ 10720
毗@@ 10700
着@@ 10694
跳 10691
詳@@ 10688
胡 10669
負責@@ 10651
轨 10650
優 10647
29@@ 10646
冀@@ 10640
鏡@@ 10638
偶 10636
软@@ 10628
稅 10625
燒 10614
矩@@ 10611
勋@@ 10608
貓 10601
運動@@ 10595
ch@@ 10578
柏 10570
耗@@ 10570
励 10559
斐@@ 10559
噶@@ 10556
租 10556
抓@@ 10548
茅@@ 10534
an@@ 10532
匹 10531
菊@@ 10529
訴@@ 10518
鄂@@ 10500
绘@@ 10497
览 10494
喇@@ 10492
際@@ 10492
疆 10491
农 10490
樣@@ 10488
褐@@ 10486
蒲@@ 10482
菜@@ 10477
休 10476
亨 10472
附 10470
1922 10468
載@@ 10458
牧 10456
罗斯 10435
崖 10432
叉 10428
訂@@ 10421
毅 10409
裂@@ 10395
者@@ 10391
el@@ 10382
俠 10376
績 10368
縱@@ 10363
卖 10360
隨 10353
織@@ 10349
壽 10341
拳 10341
ac@@ 10329
審 10327
狼 10327
幫@@ 10322
馮@@ 10312
豹 10298
伸@@ 10292
基督@@ 10282
轰@@ 10280
肃@@ 10263
司令@@ 10254
250 10253
瘤 10252
柄 10240
塘@@ 10237
话@@ 10232
谋 10224
烷 10223
逼@@ 10220
岡 10213
1.5 10207
犬 10199
訓@@ 10198
邱@@ 10196
匹@@ 10194
壞 10193
紹@@ 10193
燒@@ 10192
漸@@ 10188
漠 10187
窗 10180
巧@@ 10170
懸@@ 10155
穴 10152
谈 10149
碰@@ 10148
帅 10142
娱@@ 10131
巷 10117
胶@@ 10117
肃 10116
屏 10113
稍@@ 10105
藉 10101
迦@@ 10100
貼 10092
鷹 10092
叛 10089
笔@@ 10068
館@@ 10066
ar@@ 10065
堡@@ 10063
磨@@ 10061
幼 10056
奠@@ 10042
阻 10042
塑 10031
夺 10029
吻 10027
码@@ 10023
岳 10019
泡 10019
饰@@ 10009
妙 9999
彻@@ 9998
柬@@ 9991
吏@@ 9990
爆 9987
葡@@ 9985
梵@@ 9976
識@@ 9968
j@@ 9967
芭@@ 9963
1921 9962
喷@@ 9958
仿@@ 9957
银 9956
MV 9948
脊@@ 9944
$ 9937
Al@@ 9936
浙@@ 9931
珊 9928
幫 9927
验@@ 9922
险@@ 9920
耕@@ 9916
鼓 9915
w 9905
棘 9905
CO@@ 9893
映@@ 9893
ic@@ 9887
剑@@ 9877
AN@@ 9875
挖@@ 9873
买@@ 9869
貨 9863
Ar@@ 9862
en@@ 9858
悠@@ 9839
震 9819
砂@@ 9817
吞@@ 9811
韓 9811
101 9808
it 9806
圭 9799
梦@@ 9793
IC@@ 9777
盜 9772
杨 9764
濱@@ 9759
雇@@ 9759
遣@@ 9753
60@@ 9749
稻@@ 9745
揚@@ 9736
亥@@ 9726
11.@@ 9722
ン 9722
纹 9721
賢@@ 9720
斜 9715
緊 9712
Re@@ 9706
3000 9700
奔@@ 9699
韦 9695
刀@@ 9687
邻@@ 9680
鯉 9680
1913 9678
1911 9677
囊 9676
蕨 9668
偉 9666
络@@ 9666
婆 9663
祈@@ 9662
織 9660
1923 9659
臘@@ 9645
聘@@ 9640
淑@@ 9639
婦@@ 9637
洗 9635
篇@@ 9626
暴 9610
AP@@ 9606
崩@@ 9598
彰 9594
尹@@ 9588
徵 9584
℃ 9576
碎@@ 9574
ensis 9573
橡@@ 9565
踏@@ 9565
臂 9559
綱@@ 9558
貫 9546
勞 9542
腦@@ 9541
損 9537
碎 9536
藍 9530
課@@ 9530
疏 9523
la 9519
妇 9514
靜 9508
澎@@ 9503
ST@@ 9499
泳@@ 9493
嚴 9492
恨 9492
蔡 9491
α 9488
贡 9487
卢 9486
劫 9481
娶 9479
鸟@@ 9472
削@@ 9469
税@@ 9465
講 9462
販@@ 9462
倉@@ 9458
绝 9454
署@@ 9450
件@@ 9448
南極@@ 9448
耗 9448
棕@@ 9444
雕 9441
彥 9439
劳 9436
桃 9433
沟@@ 9432
鮑@@ 9424
窄 9419
1900 9414
韋 9414
ed 9411
琪 9405
秩@@ 9401
疾@@ 9399
习 9398
厥 9395
惜 9394
拔@@ 9389
35@@ 9388
勃 9386
薦 9375
罕 9361
適 9357
扭@@ 9353
努 9352
燈@@ 9351
担 9346
损 9346
氢@@ 9335
氧 9331
筒 9329
腦 9326
销 9326
埋@@ 9323
mm 9322
槽 9318
11@@ 9317
藻 9316
診@@ 9315
午@@ 9313
買@@ 9306
笔 9301
賞@@ 9289
誠@@ 9285
哪@@ 9281
as@@ 9280
遍@@ 9275
卵@@ 9274
赤 9270
辨@@ 9269
鬥 9269
宏 9265
纯@@ 9264
冕 9248
廠@@ 9242
乳 9237
橄@@ 9236
亩 9234
腿 9234
賜 9234
铸@@ 9227
錦 9220
没@@ 9214
灾@@ 9209
腊@@ 9209
額@@ 9208
減 9199
曉@@ 9193
le 9190
怎@@ 9189
厝 9187
ol@@ 9185
妮@@ 9177
才@@ 9163
串@@ 9162
亿 9162
ation 9159
歉 9152
饮@@ 9143
u@@ 9142
雜 9140
坡@@ 9136
哲 9130
DNA 9128
禄 9127
伟@@ 9125
丝@@ 9120
# 9110
階 9107
湿@@ 9094
戊@@ 9091
軸@@ 9091
问@@ 9088
婆@@ 9087
仇@@ 9079
细 9077
箭 9067
帥 9063
藩@@ 9063
链@@ 9063
or@@ 9060
薇 9060
UN@@ 9059
评 9059
顿@@ 9051
蓮 9048
暖 9047
溯 9041
閱@@ 9040
冲 9036
灰 9024
軟 9018
宰@@ 9011
Co@@ 9010
900 9009
溝@@ 9007
杆 9005
侧@@ 9004
些 9001
练@@ 8998
阪@@ 8997
竣@@ 8993
办公@@ 8992
览@@ 8990
诚 8990
粮@@ 8977
听 8975
‧ 8959
1909 8954
纽 8953
蓬@@ 8953
ER@@ 8952
媽@@ 8950
陈 8950
疗 8948
110 8939
190@@ 8939
苯@@ 8939
合物 8938
欣 8938
否 8937
独 8923
尿@@ 8921
巢 8914
題@@ 8911
终 8910
舟 8910
仇 8902
嗣 8901
拱@@ 8889
囚@@ 8884
梯@@ 8879
忆 8875
緩@@ 8875
Sh@@ 8864
th@@ 8861
吹@@ 8861
町@@ 8858
缩 8846
愈 8845
丧@@ 8840
株 8838
玲 8837
屍@@ 8836
勳@@ 8835
蔣 8830
腾@@ 8824
脂@@ 8818
錢@@ 8812
姆斯 8806
虹 8806
奶@@ 8802
寓 8801
葬@@ 8776
觸@@ 8776
采 8755
凯 8749
恭@@ 8747
厦 8745
磷@@ 8740
ate 8736
蛇@@ 8735
私 8717
庇@@ 8716
In@@ 8709
讷@@ 8702
贫@@ 8702
扁 8696
煙@@ 8678
亲 8676
廟@@ 8676
w@@ 8675
恆@@ 8670
烧@@ 8666
軌@@ 8663
琳@@ 8656
辯@@ 8652
己@@ 8651
解放军 8650
闻 8648
狂 8647
平方@@ 8645
NH@@ 8639
1916 8633
诞@@ 8632
逻@@ 8629
天文@@ 8628
辩@@ 8624
癌@@ 8623
膠 8623
够 8622
辟 8620
订@@ 8619
推 8618
灘 8616
夷@@ 8615
涌 8613
繁 8613
貧@@ 8613
循 8610
擁@@ 8607
履@@ 8604
她@@ 8601
棟 8600
屿 8599
HR 8598
斥 8598
飯 8598
吾 8591
出版@@ 8588
甜@@ 8580
貞@@ 8579
医 8574
樞@@ 8574
壳 8570
圳@@ 8569
圈@@ 8567
碑@@ 8566
2.5 8564
岗@@ 8564
芝 8554
豫@@ 8545
嘴 8539
遮@@ 8539
啡 8524
消 8520
中华人民@@ 8519
罷@@ 8519
齿 8513
芒@@ 8512
1910 8511
锁 8506
靖@@ 8504
鰭@@ 8504
找@@ 8502
畔 8492
误@@ 8492
棉@@ 8489
0.0 8486
堤 8485
眠 8479
滋@@ 8473
1915 8467
ph@@ 8467
页 8459
沼@@ 8457
撫 8445
般 8442
脱 8440
陀@@ 8418
肇@@ 8411
AK@@ 8409
踪 8407
荐 8406
蘋@@ 8406
赠 8405
铺 8405
13.@@ 8403
罚 8401
遣 8400
吃@@ 8394
鯉@@ 8391
ot@@ 8390
倡@@ 8389
紙@@ 8388
祐 8383
償 8381
贺@@ 8378
CA@@ 8375
90@@ 8374
弱@@ 8374
桌@@ 8372
椅 8371
頗 8371
鹽@@ 8371
澄@@ 8366
斯科 8354
挂 8350
灯 8344
戌 8340
專 8338
70@@ 8333
多数 8328
滕@@ 8316
а 8310
朵 8303
姑@@ 8300
汗@@ 8295
茂 8294
寿 8292
昭 8289
裕@@ 8280
搭 8278
项@@ 8272
浓@@ 8271
逾 8271
卸@@ 8270
坂@@ 8265
魁@@ 8258
湾@@ 8254
脚@@ 8251
距@@ 8249
框@@ 8248
龜 8243
筑 8237
审 8236
遲 8235
悉@@ 8232
楊 8229
An@@ 8228
閉@@ 8218
嫁@@ 8215
肝@@ 8210
紐 8209
蝶@@ 8202
ad@@ 8193
漂@@ 8193
憶@@ 8190
铜 8186
炭 8179
侦@@ 8174
仑 8168
墨 8163
話@@ 8157
轴@@ 8156
烯 8147
肥 8142
扣@@ 8138
緒 8136
輔 8129
ine 8128
z@@ 8116
騎 8111
它@@ 8110
碍 8107
詢 8106
僧 8105
盘@@ 8104
誠 8104
抢@@ 8076
孕 8072
兽 8068
吸 8065
摔@@ 8059
懷 8058
鈴@@ 8047
熔@@ 8041
er@@ 8035
析@@ 8033
你@@ 8026
材@@ 8016
馆@@ 8014
霞 8010
擬@@ 8008
Th@@ 8007
掛 8007
释 8007
鐸 8006
惊@@ 8002
靠@@ 8002
1901 7997
株@@ 7997
5000 7995
睛 7992
绘 7992
TV@@ 7986
乾 7986
幹 7986
鼎@@ 7981
赶@@ 7978
man 7972
割@@ 7971
os 7970
乙 7966
拟@@ 7966
PC 7964
冈@@ 7964
醫 7960
貫@@ 7957
禦 7949
错 7947
启 7944
桂 7941
14.@@ 7930
珀 7928
UTC 7921
酮 7921
孝 7916
紛 7916
汽 7912
蕃 7912
AC 7902
徙 7900
训@@ 7893
哺@@ 7892
1905 7884
慎 7883
瓶 7883
贤 7879
璋 7875
乌 7874
恋 7870
躍@@ 7867
扰 7864
鴻@@ 7864
誉@@ 7863
純 7859
180 7843
渔@@ 7843
趕@@ 7843
缸 7841
厦@@ 7837
霖 7837
潔 7835
RA@@ 7831
负 7830
猜@@ 7826
伙@@ 7824
翁@@ 7822
TE@@ 7819
勳 7811
斌 7811
涵 7811
脊 7806
閃@@ 7806
丞 7800
坎 7800
课 7790
盧 7788
忌 7784
攜@@ 7774
欺@@ 7774
匈@@ 7768
猫 7767
嫩 7765
驶 7764
讨 7761
弄 7760
陶 7752
am@@ 7748
栗 7747
YouTube 7746
庞@@ 7744
蝠 7742
伽 7728
鬆 7724
3D 7718
嗣@@ 7718
仕 7714
130 7713
仰@@ 7708
太平@@ 7705
揮 7704
頒 7704
． 7702
跃 7701
析 7700
ie 7699
匯 7693
吊@@ 7693
紛@@ 7693
箭@@ 7692
酯 7692
抱@@ 7691
详@@ 7691
33@@ 7687
庵 7682
敲@@ 7678
屆@@ 7677
伽@@ 7676
裸@@ 7675
弥@@ 7672
凭@@ 7671
霍 7671
钟 7669
尝@@ 7668
誓 7662
John 7654
ch 7654
促 7653
昔@@ 7653
潘 7646
稅@@ 7644
劫@@ 7640
止@@ 7634
透 7633
庚@@ 7632
軸 7630
伟 7628
竟 7625
阅@@ 7621
纸@@ 7615
麓 7615
柳 7612
牲 7609
抚@@ 7606
吏 7604
熙@@ 7603
肢 7602
鱸 7600
捲 7594
com 7592
鑑 7589
is@@ 7582
慈 7578
募 7574
俘@@ 7569
协 7557
危 7553
37@@ 7552
傅 7552
札@@ 7551
á 7550
雖 7545
翰 7540
om@@ 7539
圆 7534
纲 7532
润 7531
160 7525
把@@ 7525
岗 7505
闭@@ 7500
殷@@ 7499
摇@@ 7497
い 7491
穆 7487
娅 7484
氟@@ 7481
磨 7480
培 7473
刘 7472
珀@@ 7472
江省 7471
疗@@ 7465
冈 7463
雞 7463
攀@@ 7462
裴@@ 7462
34@@ 7459
嘴@@ 7458
己 7455
链 7450
盤@@ 7442
TO@@ 7437
棲@@ 7437
赏 7437
廢 7436
又@@ 7434
1903 7430
ad 7425
娛@@ 7415
臟 7405
糕 7404
叉@@ 7401
纯 7400
脑@@ 7399
抵 7398
央@@ 7397
稍 7397
哀@@ 7396
RE@@ 7395
怖@@ 7395
塌 7379
穌 7379
灯@@ 7373
厂@@ 7371
暫 7371
忍 7368
赴@@ 7367
奶 7363
臣@@ 7361
Con@@ 7360
茄 7359
抱 7357
辐@@ 7356
桓@@ 7355
狹@@ 7346
IM@@ 7345
尤 7345
瑜 7341
1500 7339
靖 7334
須@@ 7334
廉 7332
36@@ 7330
椎 7325
蜂 7324
狼@@ 7320
睡@@ 7319
薄 7312
1908 7306
寒 7305
莲@@ 7303
崙 7299
噸 7295
PlayStation 7287
os@@ 7282
夸@@ 7278
闽@@ 7278
触@@ 7274
辱 7264
SO@@ 7262
鼠@@ 7259
侍 7256
储 7255
秉@@ 7246
浩 7245
緩 7244
抚 7243
腺@@ 7243
奔 7241
舱 7237
刷@@ 7236
尺 7231
抄@@ 7231
帽 7228
о 7227
140 7224
烧 7221
漳@@ 7208
嫁 7200
遞 7200
忘@@ 7199
蝙@@ 7196
葵@@ 7195
ES@@ 7194
ana 7193
佑 7190
甘 7188
style 7186
衝 7183
脚 7182
Category 7181
拥@@ 7175
滾 7173
詢@@ 7171
姿@@ 7170
舌@@ 7169
矩 7168
Or@@ 7163
煌 7161
蜜@@ 7156
憲 7154
牽@@ 7153
床@@ 7143
猎@@ 7140
遼@@ 7127
Mar@@ 7126
勘@@ 7126
仓@@ 7123
殊@@ 7117
诉@@ 7117
庸 7115
酷 7115
静 7115
黛@@ 7106
閩@@ 7103
颶@@ 7101
陝@@ 7100
獵 7093
俄羅@@ 7092
厢 7090
蕾@@ 7084
鼎 7081
un@@ 7077
邪 7074
盈@@ 7072
禎 7071
譚@@ 7068
泡@@ 7067
僚 7059
浸@@ 7059
粹@@ 7057
媽 7053
运动会 7053
1906 7051
荒 7049
逆 7049
NGC 7047
顾 7047
1907 7046
BD 7041
累 7041
align 7040
SE@@ 7039
丛 7039
泛 7039
滕 7037
沪 7034
棚 7033
廂 7030
at@@ 7029
賀 7024
赐 7021
杉@@ 7018
綠 7006
弘 7001
硝@@ 6998
键@@ 6994
妖@@ 6992
款@@ 6991
鉴@@ 6990
lo@@ 6988
阶 6982
软 6979
扇 6977
鯰@@ 6973
堆@@ 6971
炎@@ 6971
罢@@ 6968
矶 6967
賊 6965
CH@@ 6961
尽 6961
劣 6955
匠 6952
梦 6946
III 6945
by 6945
矮@@ 6928
迟 6927
樑 6917
幢 6915
貓@@ 6910
1904 6909
垃@@ 6904
坤 6902
欄 6902
蕾 6901
鸡@@ 6895
re@@ 6888
宴 6887
翅@@ 6887
16.@@ 6884
colspan 6883
渠 6880
霧 6878
厄 6870
廿@@ 6868
鋼 6868
逸@@ 6867
駁 6851
冯 6847
辉 6847
滾@@ 6839
15.@@ 6835
幅@@ 6825
携@@ 6823
蟲@@ 6818
废 6816
琼@@ 6816
劾 6815
焚@@ 6815
oc@@ 6811
ul@@ 6803
艙 6801
LO@@ 6798
榴@@ 6794
荆@@ 6792
慣 6791
薪@@ 6781
蛙 6778
蜀 6776
採 6774
钦@@ 6770
RO@@ 6767
籤 6767
錫 6766
PS@@ 6762
毀@@ 6755
臀@@ 6753
括 6750
歧 6745
侶 6739
Car@@ 6729
棠 6724
櫻@@ 6723
邪@@ 6723
100@@ 6718
拯@@ 6715
銘 6704
ers 6697
淺@@ 6697
壬@@ 6691
漏@@ 6685
妻@@ 6684
酷@@ 6682
\ 6675
翡@@ 6675
融 6668
FC 6660
尸@@ 6655
涛 6649
贯@@ 6648
访@@ 6646
IC 6644
贸@@ 6643
彗@@ 6637
鞍@@ 6632
募@@ 6629
绥@@ 6628
趨@@ 6625
帆@@ 6623
疾 6623
肩@@ 6618
行政区@@ 6618
纤@@ 6617
潭@@ 6614
膨@@ 6611
喬 6608
牟@@ 6608
卵 6603
苯 6600
45@@ 6598
埠 6597
炳@@ 6595
MS 6594
爐 6593
概 6592
椒 6590
擋 6580
ve 6579
輛@@ 6579
st@@ 6573
Le@@ 6572
爺 6571
診 6569
貢 6569
one 6567
Tr@@ 6565
邸 6565
it@@ 6560
嫌@@ 6558
减 6557
AL@@ 6556
究 6555
闊 6551
? 6546
奎 6546
腹 6541
吴 6538
諮 6537
烏 6531
截 6526
躍 6519
Linux 6516
38@@ 6515
籲 6515
AD@@ 6510
劉 6510
庶 6507
17.@@ 6506
兆 6506
坏 6505
拆 6504
虹@@ 6504
伙 6503
執 6502
涂@@ 6501
询 6498
ap@@ 6496
搶 6492
39@@ 6490
啤@@ 6479
暂 6476
允 6475
color 6470
签 6469
徐 6457
es@@ 6455
ag@@ 6451
瓷 6448
閘@@ 6446
柯 6444
嘛 6443
吹 6441
骑 6440
ter 6437
瞄@@ 6437
凸@@ 6433
慘@@ 6433
礦 6433
360 6427
鄭 6424
鸿@@ 6418
韩 6417
誰 6416
魁 6414
扫@@ 6413
椎@@ 6413
恒 6409
函 6400
禪@@ 6400
鹰 6398
胞 6392
姬@@ 6390
拒 6374
贴 6361
淺 6354
蓄@@ 6353
background 6351
BC 6344
须 6343
档@@ 6342
SP@@ 6340
匣 6339
De@@ 6335
卜 6335
β 6332
栋 6322
鳳 6322
货 6321
鎖@@ 6321
蜂@@ 6314
軒 6309
擺@@ 6307
− 6306
愈@@ 6305
禧 6305
賭@@ 6303
乒@@ 6302
ata 6301
燃 6300
勋 6299
ic 6298
j 6287
燥 6287
擁 6286
汶@@ 6286
ent 6283
105 6280
徹@@ 6273
唇 6272
贯 6272
邏@@ 6272
и 6270
仓 6268
掠 6268
煤 6266
彬 6265
盜@@ 6264
夾@@ 6259
MO@@ 6258
皆@@ 6258
彙 6256
径@@ 6256
卖@@ 6254
钢 6253
帖 6251
豬 6249
id@@ 6248
son 6247
渠@@ 6243
Be@@ 6237
堅 6233
逼 6233
儒 6232
焦 6232
勾@@ 6230
昏@@ 6230
枝@@ 6226
350 6219
欲@@ 6217
淡 6206
贞@@ 6206
糧@@ 6205
輝@@ 6200
濕@@ 6196
芙@@ 6192
撤 6190
伪@@ 6184
宅@@ 6179
掛@@ 6179
坂 6178
tr@@ 6176
寓@@ 6175
潤 6175
黏@@ 6174
插 6165
頃 6157
束@@ 6156
ina 6153
齒@@ 6152
玫@@ 6149
Ex@@ 6144
center 6136
AN 6135
纷 6135
垣 6134
戏 6130
怡 6129
煙 6129
狭@@ 6129
浮 6125
适 6124
粤@@ 6123
掠@@ 6122
趋@@ 6118
梨 6116
吳 6112
趁@@ 6104
ur@@ 6103
蜜 6103
惑 6098
顷 6097
腺 6091
仕@@ 6089
et@@ 6088
1898 6081
徹 6080
縱 6079
惟 6076
磅 6074
纖@@ 6073
恶 6071
欠@@ 6070
响 6067
焰 6067
氢 6066
躲@@ 6065
RNA 6059
倡 6059
懼 6059
咒 6053
帆 6052
鎊 6047
迄@@ 6045
穗 6041
匪 6040
盒 6036
胎@@ 6035
犬@@ 6032
勁 6031
壯@@ 6030
阔 6015
粘@@ 6013
ec@@ 6010
荃@@ 6006
1902 5998
递@@ 5996
忘 5995
瓣 5981
ton 5979
啦 5979
DS 5975
墙@@ 5975
毁@@ 5975
豫 5974
da 5972
握@@ 5970
跋 5968
鞋 5966
築 5965
NE@@ 5964
BO@@ 5960
隙 5957
欽@@ 5956
挂@@ 5955
寇 5951
緣@@ 5946
豬@@ 5944
MP@@ 5937
诊@@ 5934
债@@ 5931
辅 5927
浅@@ 5926
卓 5924
妥@@ 5924
惨@@ 5922
18.@@ 5917
US@@ 5915
爪@@ 5914
ay 5912
洁 5905
em@@ 5903
ai 5901
舌 5894
text 5891
梨@@ 5890
li@@ 5879
標賽 5878
孕@@ 5877
昆 5877
彎@@ 5876
赵 5873
丞@@ 5853
200@@ 5851
弓@@ 5851
曝@@ 5851
扁@@ 5849
1895 5848
歡 5848
鶴@@ 5846
75@@ 5844
St@@ 5839
崇 5839
桐@@ 5837
墨西@@ 5836
败@@ 5828
赋@@ 5825
螢@@ 5824
22@@ 5818
汁 5818
契 5807
í 5806
递 5805
玄 5804
65@@ 5800
咀 5800
AM 5799
措 5798
墟 5796
喻 5793
爬@@ 5792
sh@@ 5784
驶@@ 5782
18@@ 5781
詳 5781
飯@@ 5781
艮@@ 5776
薪 5772
酋@@ 5772
殉@@ 5771
瀑@@ 5771
鳴@@ 5768
扣 5764
葛 5762
跌 5754
纷@@ 5753
隸@@ 5752
腰 5751
be 5749
偽@@ 5749
瑰 5746
Br@@ 5743
兔 5743
峡@@ 5742
逸 5742
慰 5738
賦@@ 5737
鋪 5735
偏 5733
劝@@ 5727
甚 5727
仲 5724
瓊@@ 5723
im@@ 5722
ü 5718
臉@@ 5718
怨 5717
厅@@ 5716
ma 5710
押@@ 5710
坚 5708
夕@@ 5706
盲@@ 5705
鯨 5698
偿 5694
马来@@ 5694
鸡 5694
骸 5691
膠@@ 5690
DC 5686
鱗@@ 5681
帳@@ 5678
癸@@ 5676
One 5670
侠 5669
禾 5668
咨@@ 5664
し 5663
MI@@ 5661
Love 5658
塗@@ 5657
鏈 5657
竟@@ 5654
夥@@ 5635
捉 5632
SH@@ 5631
盗@@ 5631
凹@@ 5630
拓 5630
雞@@ 5628
慮 5626
怀 5623
墅 5614
曹 5612
ス 5609
籍@@ 5609
Qu@@ 5607
le@@ 5605
イ 5605
岭@@ 5604
学位 5601
橙@@ 5600
19.@@ 5599
盗 5599
国务@@ 5593
恭 5591
桶 5586
倍@@ 5583
繩@@ 5581
苹@@ 5581
il@@ 5580
貞 5580
債@@ 5578
RI@@ 5576
驅 5576
ā 5570
墩 5569
3.5 5568
糾@@ 5564
鴨 5564
4000 5561
Cor@@ 5561
乔 5555
拋@@ 5555
稣 5548
吁 5547
删@@ 5545
输 5543
娘@@ 5540
Par@@ 5539
end 5539
窟 5539
BBC 5531
呢 5531
貪@@ 5531
ed@@ 5529
勸 5527
嬰@@ 5526
黎 5524
韻@@ 5523
TH@@ 5522
ON@@ 5519
卯 5519
彦@@ 5517
der 5516
冥@@ 5513
郭 5509
笑@@ 5508
龜@@ 5505
疊 5501
钠 5498
預 5493
47@@ 5491
雀@@ 5491
娥 5490
胶 5490
漏 5488
卸 5486
are 5485
挺 5485
蓝 5484
ん 5481
Facebook 5479
砂 5477
吋 5475
World 5474
狩@@ 5469
104 5466
尹 5459
欖@@ 5458
齋 5457
PS 5453
寵@@ 5448
堪 5444
ro@@ 5443
е 5440
鯰 5440
48@@ 5435
肅 5434
un 5430
贤@@ 5430
恆 5425
-- 5420
誘@@ 5420
偷 5409
摘@@ 5408
桐 5408
108 5406
Sp@@ 5401
淨@@ 5398
【 5396
】 5396
纵 5396
Com@@ 5394
闪@@ 5393
高速@@ 5391
55@@ 5385
帽@@ 5379
潔@@ 5376
菊 5376
氮 5373
慰@@ 5370
穩 5369
挥 5368
Microsoft 5366
幾 5365
掃@@ 5365
稻 5365
ó 5364
册@@ 5362
舖 5357
170 5351
弓 5344
券@@ 5342
遍 5342
凰 5340
旱 5340
102 5336
鳴 5336
獅 5328
ab@@ 5324
塚 5323
with 5322
棘@@ 5321
蜘@@ 5321
н 5318
※ 5318
1896 5315
衍 5314
俞@@ 5311
晨@@ 5309
棄@@ 5309
妙@@ 5308
1890 5307
岐@@ 5304
糊 5303
-@@ 5300
詔@@ 5299
梭 5297
ti@@ 5294
溯@@ 5292
贾 5292
爪 5289
荔@@ 5289
AG@@ 5288
栏 5287
喊 5286
牡@@ 5285
踢 5284
蓬 5280
诏 5280
46@@ 5279
蔽 5278
伺@@ 5275
Di@@ 5274
瑚 5271
荊@@ 5268
餅 5266
氯 5265
罹@@ 5265
乓@@ 5259
筑@@ 5259
札 5256
怡@@ 5255
憤@@ 5252
绕@@ 5251
125 5249
仗 5249
淨 5244
墳 5241
韶@@ 5239
Se@@ 5236
撥@@ 5231
103 5228
绩 5228
膚 5227
鼻 5221
section 5220
圾 5219
ica 5216
斬 5216
晴@@ 5214
宪 5212
摆@@ 5211
纺@@ 5211
瀨@@ 5203
寅 5197
Col@@ 5195
董 5194
New 5193
op@@ 5191
鄂 5191
1897 5181
钦 5180
鴻 5179
杏@@ 5176
斋 5173
贏 5172
VA 5170
纠@@ 5168
訟 5168
丈 5166
埋 5166
虐@@ 5166
た 5165
杉 5165
LE@@ 5164
搞 5160
se 5158
DE@@ 5153
飲 5153
宰 5151
120@@ 5145
AR 5144
櫃 5144
橫 5143
20.@@ 5138
AB@@ 5138
萄 5138
鑑@@ 5134
Bo@@ 5132
Live 5130
魅@@ 5130
诸 5128
穀 5127
桿 5121
蓉 5121
GB 5117
ah 5117
ae 5116
寡@@ 5111
騷@@ 5110
柔 5105
斐 5098
ity 5096
纂 5096
齿@@ 5093
猎 5089
圭@@ 5082
CC@@ 5079
49@@ 5078
冶@@ 5077
猪 5076
財 5076
ル 5073
侨 5070
溝 5068
106 5066
甸@@ 5057
猛 5056
Mo@@ 5055
蝦 5055
di@@ 5050
遙@@ 5050
净@@ 5045
彭 5044
辞 5044
撫@@ 5043
貿@@ 5036
刪@@ 5035
紫 5034
翅 5034
迦 5031
弦@@ 5026
AI@@ 5025
崛@@ 5019
う 5018
噪@@ 5018
裹 5014
炉 5013
賠@@ 5013
垒 5011
畢 5011
萍 5011
ta 5008
壩 5008
ang 5001
ni@@ 4998
帮 4995
庶@@ 4995
贈@@ 4995
療@@ 4994
睡 4992
葵 4992
蜀@@ 4992
109 4989
祇 4985
剩 4981
猴 4981
Music 4980
滚@@ 4980
繳@@ 4980
ak 4978
蔬@@ 4977
彪 4975
拉夫 4973
剥@@ 4972
Cl@@ 4969
悟 4965
俱@@ 4964
蜥 4962
懲@@ 4960
BA 4956
泄@@ 4954
欽 4950
矢@@ 4950
綁 4935
You 4934
辨 4934
1200 4933
宦@@ 4933
慣@@ 4930
紋@@ 4930
瓶@@ 4926
峻 4925
棒@@ 4923
喝@@ 4921
础@@ 4921
铺@@ 4921
且@@ 4920
恐 4919
蜥@@ 4915
荡 4913
44@@ 4910
湯 4909
蘿@@ 4902
鮮 4900
閱 4899
1899 4897
湘 4897
嵌 4896
凉@@ 4894
谭@@ 4893
夹@@ 4891
淮 4890
NO@@ 4887
age 4886
te 4882
郁@@ 4881
僑 4879
Cr@@ 4876
奸 4876
鉴 4873
耿@@ 4871
茎 4870
浏@@ 4869
俯@@ 4868
莲 4868
q 4866
+@@ 4864
107 4863
恰 4863
ty 4862
乞@@ 4861
彝@@ 4861
旭@@ 4861
淆 4858
磁 4853
0.5 4851
Android 4850
亂@@ 4850
参 4845
棉 4845
SS 4843
Ge@@ 4842
砖@@ 4842
窮 4840
狙@@ 4839
渐@@ 4838
坞 4834
UA 4833
2.0 4832
矮 4832
廈@@ 4829
EN@@ 4828
酬 4828
ID 4826
辉@@ 4819
韻 4817
虞@@ 4816
IP 4812
穩@@ 4811
塢 4809
IP@@ 4801
倪@@ 4801
纬 4801
VI@@ 4796
簡 4795
筋 4793
汕@@ 4791
崩 4786
脏 4785
鬚 4783
CD@@ 4782
1.2 4781
烟 4777
惯@@ 4773
SM 4772
ME@@ 4771
Ne@@ 4771
豚 4770
禅@@ 4769
鱷 4769
銅 4763
芽 4759
络 4758
р 4757
虏 4757
晰 4755
FI@@ 4754
狮@@ 4754
眉 4754
烯@@ 4745
ol 4744
添 4744
RT 4742
戚 4740
と 4738
详 4737
侄@@ 4736
冒 4733
鹏 4733
则@@ 4730
招 4730
築@@ 4730
Ro@@ 4728
婉@@ 4728
1889 4727
阜@@ 4726
烹@@ 4725
暖@@ 4723
宴@@ 4722
巢@@ 4719
醉 4715
些@@ 4713
掃 4711
榆@@ 4710
祯 4710
po@@ 4708
蝕 4706
禦@@ 4702
僱@@ 4694
氫 4694
鹤@@ 4694
菱 4690
驚 4689
璃@@ 4688
silver 4687
SS@@ 4686
悼@@ 4686
to@@ 4684
喉@@ 4681
School 4679
挽@@ 4679
ラ 4676
Bar@@ 4675
IG@@ 4671
ö 4670
怒@@ 4667
疊@@ 4666
骼 4666
贏@@ 4664
顛@@ 4662
騙 4662
擲 4660
24.@@ 4655
SA 4654
• 4653
23.@@ 4645
Str@@ 4641
聰@@ 4636
銘@@ 4636
舟@@ 4632
践 4630
杖 4624
鑽@@ 4624
co@@ 4623
Lo@@ 4622
涌@@ 4622
肆 4622
严 4616
搶@@ 4614
眉@@ 4614
PE@@ 4613
殖民@@ 4611
饭@@ 4608
115 4605
na 4600
腰@@ 4598
潰 4597
囊@@ 4596
狗@@ 4596
か 4595
繩 4595
顆@@ 4591
奮@@ 4589
蔓@@ 4589
擦@@ 4588
頸 4583
旦@@ 4580
騰 4579
馮 4576
ley 4573
ong 4573
淳 4573
碗 4573
浴@@ 4571
恋@@ 4568
描 4566
禾@@ 4566
鑼@@ 4566
ER 4564
64@@ 4562
MA 4562
擦 4562
笛 4559
od@@ 4557
21.@@ 4556
娜@@ 4555
瞬@@ 4555
El@@ 4554
68@@ 4553
孚 4551
暢@@ 4550
廚@@ 4548
穎 4548
舶 4547
拨@@ 4542
爛 4542
450 4541
戎 4536
渤@@ 4536
弧@@ 4535
Am@@ 4533
Pr@@ 4532
猴@@ 4532
CP 4531
盾@@ 4531
111 4530
no@@ 4530
漆 4528
莖 4528
蝴@@ 4526
彦 4525
搞@@ 4523
EP 4521
纹@@ 4519
嵌@@ 4516
爸 4512
痕 4512
砖 4512
硫 4511
箱@@ 4511
卧@@ 4510
嗎 4509
崗@@ 4508
Ac@@ 4505
CR@@ 4499
钻@@ 4497
説 4493
哭 4492
辣@@ 4492
瓷@@ 4489
氛 4488
杆@@ 4487
简 4485
郝@@ 4483
遞@@ 4480
跌@@ 4478
姑 4474
啡@@ 4472
67@@ 4470
污 4470
狐@@ 4470
酰@@ 4470
43@@ 4469
丛@@ 4468
庙@@ 4467
墜@@ 4465
咸 4464
Mon@@ 4463
IS 4456
毅@@ 4455
氟 4455
檢 4453
诱@@ 4452
瑙@@ 4450
淋@@ 4447
辑@@ 4445
楠 4444
哇 4442
int 4440
疲@@ 4440
慕 4438
蚀 4434
輯@@ 4434
抓 4432
禍 4432
99@@ 4428
姊 4426
220 4425
腐 4425
賈 4422
喙 4421
に 4420
1860 4417
CS@@ 4409
22.@@ 4405
cm 4405
赣@@ 4397
孢@@ 4394
叠 4393
譴@@ 4393
ri@@ 4390
1880 4389
ra 4388
IO@@ 4386
Per@@ 4386
谁 4385
涼@@ 4382
鵬 4382
Me@@ 4380
潛 4380
沪@@ 4378
湿 4378
妾 4374
愉@@ 4374
陇@@ 4369
祁@@ 4367
​ 4366
ir@@ 4361
GP@@ 4360
汤 4360
渐 4358
1600 4357
渦@@ 4351
IT@@ 4349
謙 4346
凶@@ 4345
He@@ 4344
AV 4342
な 4342
邢@@ 4342
凤 4341
陰 4341
誓@@ 4340
骚@@ 4340
凌 4335
鱂 4333
西洋 4331
Mc@@ 4330
畜@@ 4330
敖@@ 4327
誼 4326
ak@@ 4325
樊@@ 4322
趾 4322
峽@@ 4320
240 4318
役@@ 4317
25.@@ 4313
1800 4312
挝 4312
傍@@ 4310
雁@@ 4309
嫡@@ 4307
La 4306
de@@ 4306
135 4304
1894 4304
繞@@ 4300
赔@@ 4299
聊@@ 4298
112 4297
og@@ 4297
Li@@ 4296
胃@@ 4296
奋@@ 4295
踐 4295
Me 4290
′ 4289
煽@@ 4288
ト 4286
谴@@ 4284
谱@@ 4283
1871 4280
58@@ 4279
る 4278
蟻 4275
ance 4274
赠@@ 4274
1870 4272
醛 4272
缀 4269
脈@@ 4261
4.5 4255
铭 4255
Vi@@ 4254
辽 4253
唇@@ 4251
弼 4251
叢@@ 4249
悅 4245
渭@@ 4245
绿 4245
甄@@ 4243
56@@ 4242
凰@@ 4242
哩 4242
輩 4239
Xbox 4238
au 4237
仆@@ 4237
樟@@ 4236
拱 4233
罵 4233
En@@ 4230
ard 4228
栗@@ 4227
David 4223
re 4223
预 4223
邯@@ 4222
碱@@ 4218
衙@@ 4218
贊 4217
Sch@@ 4213
瘋@@ 4213
峙 4212
杯@@ 4212
赏@@ 4208
漿 4207
丟@@ 4203
织 4203
脹 4201
抽 4198
57@@ 4197
紮 4194
虽 4192
贞 4188
Mac@@ 4186
飼@@ 4185
疼@@ 4183
泌 4178
茵@@ 4176
削 4171
憂@@ 4169
AL 4167
诏@@ 4165
勢@@ 4164
讼 4163
牺@@ 4162
迅 4161
PO@@ 4157
贪@@ 4156
124@@ 4155
胸 4155
畜 4151
115@@ 4149
萌@@ 4148
128 4147
兔@@ 4146
匿@@ 4145
婿 4145
è 4144
颇@@ 4144
畏 4143
婷 4142
剿 4141
挺@@ 4141
棍@@ 4140
International 4137
University 4136
巩@@ 4135
巫 4134
颇 4133
In 4131
袍 4131
蘆@@ 4130
阅 4128
ell 4123
98@@ 4121
衷 4119
輿@@ 4119
饶@@ 4115
肿@@ 4112
闆 4111
壯 4107
抛@@ 4106
26.@@ 4105
di 4105
扳@@ 4105
您 4103
薯 4102
罰@@ 4101
碱 4099
遂@@ 4096
寇@@ 4095
95@@ 4093
尋 4092
赐@@ 4090
CC 4086
ang@@ 4086
遥@@ 4086
朔@@ 4081
屍 4080
溃 4079
却@@ 4076
藻@@ 4075
虜 4074
剝@@ 4072
琦 4071
撐 4070
检 4069
om 4065
si@@ 4063
润@@ 4062
ale 4060
粮 4060
27.@@ 4058
鍵@@ 4058
atus 4056
究@@ 4056
DO@@ 4051
朋@@ 4048
с 4047
ing@@ 4043
駿 4043
狐 4041
6000 4039
懂 4039
胤 4035
人口@@ 4034
ps 4029
ode 4028
ts 4027
1885 4026
拾 4026
稚 4024
犧@@ 4023
騰@@ 4022
疇 4020
闖@@ 4020
衞 4019
矣 4018
磡 4018
Gr@@ 4016
幣@@ 4015
銳 4015
酉 4014
笠 4012
TC 4011
竭 4011
斥@@ 4010
捐 4008
谊 4007
鮋 4007
帜 4005
88@@ 4002
廓 3998
肖 3996
卑 3995
頸@@ 3995
qu@@ 3993
貸@@ 3992
簿 3991
CA 3989
127 3988
201 3987
Ph@@ 3987
肌 3985
阜 3985
轟 3981
暑@@ 3980
乱@@ 3976
栏@@ 3976
ary 3975
28.@@ 3974
隱 3974
惯 3973
潤@@ 3973
85@@ 3972
埼 3972
畿 3972
撲 3970
粟@@ 3970
芦@@ 3969
讯@@ 3967
聂@@ 3964
宛@@ 3961
Ver@@ 3959
IV@@ 3957
缘@@ 3954
喀 3953
禄@@ 3952
per@@ 3951
抄 3950
Ste@@ 3949
奥林匹@@ 3949
旱@@ 3948
挖 3946
翠 3944
喚 3943
孟 3942
愤@@ 3942
坪@@ 3940
账@@ 3940
擾@@ 3938
拒@@ 3937
IA 3935
78@@ 3934
ea 3934
膀 3934
腸 3932
横 3930
謠 3930
大战 3924
阎@@ 3921
堵 3920
Ma@@ 3917
320 3916
臭@@ 3914
碧 3912
蕉 3910
弯@@ 3909
Mac 3908
誕 3908
氫@@ 3906
鯛 3905
汶 3904
鞭@@ 3904
暹@@ 3903
澄 3903
韵@@ 3903
Team 3902
阴 3902
ite 3899
280 3898
釜@@ 3897
膽 3892
ly 3891
蛤@@ 3891
ya 3890
芙 3890
郁 3890
饼 3890
q@@ 3888
垂 3888
柴 3888
230 3887
ey 3887
薇@@ 3887
ys 3885
爽 3885
122 3883
湛@@ 3881
ne 3879
籌 3879
勸@@ 3870
颠 3870
113 3869
抬@@ 3869
牆@@ 3868
蛾 3864
66@@ 3861
1.6 3858
簧 3858
詠 3856
醉@@ 3855
ce 3854
ク 3854
舆@@ 3854
ref 3853
屈 3852
ler 3851
ア 3851
Saint 3847
慾 3847
_@@ 3842
幟 3842
罚@@ 3841
59@@ 3840
li 3839
鸣 3839
濤 3835
AX 3833
淵 3833
桿@@ 3831
啊 3829
〜 3828
梓@@ 3828
190 3827
Ad@@ 3824
塾 3823
缓 3823
do 3821
贺 3820
瞭@@ 3818
橘@@ 3817
爬 3814
ä 3812
绵@@ 3809
痕@@ 3807
孜@@ 3805
1.8 3803
乏 3803
煮 3803
慎@@ 3802
堵@@ 3801
宙@@ 3801
毓@@ 3796
芯@@ 3796
7.5 3795
り 3795
桓 3795
述@@ 3795
喝 3793
宵 3789
釣@@ 3788
ara 3787
晴 3787
旭 3785
脉@@ 3784
吞 3783
贼 3783
賦 3782
Twitter 3781
侨@@ 3778
贸 3776
ka 3774
憂 3774
謙@@ 3772
僵@@ 3770
晓 3768
т 3767
リ 3767
沛 3767
鸣@@ 3767
ens 3765
肤 3765
砌 3764
娃@@ 3760
匙 3758
趙@@ 3757
遜@@ 3757
av@@ 3756
榄@@ 3754
雯 3754
123 3750
1892 3749
臥@@ 3749
廁@@ 3748
77@@ 3741
蓄 3741
IV 3739
001 3738
淳@@ 3738
贷@@ 3738
迈 3738
鵝@@ 3736
氰@@ 3735
TP 3734
閩 3734
惩@@ 3732
濫@@ 3732
肩 3732
兇@@ 3730
胚@@ 3730
孩@@ 3729
牢@@ 3728
29.@@ 3726
CE@@ 3725
My 3724
1893 3723
AS 3722
沈 3721
混 3719
121 3718
迭@@ 3718
阀 3718
AA 3717
ach@@ 3717
姿 3717
AP 3715
se@@ 3714
框 3714
舒 3714
斩@@ 3712
諸 3712
CI@@ 3711
懿 3711
締@@ 3709
臉 3709
泗@@ 3707
铭@@ 3707
帮@@ 3706
滇@@ 3701
蒼@@ 3701
SU@@ 3700
賜@@ 3699
氮@@ 3696
溉 3696
悟@@ 3695
は 3694
腾 3694
210 3693
Inter@@ 3693
殊 3691
PA 3688
that 3686
扮 3686
贫 3686
闢 3686
諭 3685
114 3684
淚 3684
捍@@ 3683
琛 3681
胆@@ 3680
Type 3679
118@@ 3677
TA 3677
饥@@ 3676
119@@ 3675
届@@ 3674
廈 3674
煉 3674
69@@ 3673
遲@@ 3673
擠 3672
膜@@ 3671
icon 3670
岑@@ 3670
匈牙@@ 3669
1884 3668
褒@@ 3668
Pro 3665
瀏@@ 3665
us@@ 3664
mo@@ 3663
悔 3663
邁 3663
con@@ 3662
犁 3661
潟 3660
all 3659
陞 3659
瑙 3658
1887 3657
ella 3656
侣 3655
1886 3654
Te@@ 3653
ay@@ 3653
赋 3651
MC 3649
蕊 3649
哉 3648
鳞@@ 3648
54@@ 3646
For@@ 3646
啓 3642
愚@@ 3641
th 3640
爸@@ 3640
113@@ 3638
iOS 3636
镑 3631
ob@@ 3630
渊 3630
錶 3630
刃 3629
崗 3628
堯 3626
渴@@ 3626
阔@@ 3626
William 3625
硅@@ 3624
巾 3623
吐 3622
駕 3622
118 3621
稜 3620
53@@ 3618
祠@@ 3617
堤@@ 3616
廳@@ 3616
毕 3615
趕 3610
Game 3609
ot 3609
堀@@ 3607
赦 3607
醒@@ 3607
par@@ 3606
1888 3605
was 3605
拖 3603
ig@@ 3598
奢@@ 3598
页@@ 3598
橢@@ 3596
碘 3592
殼@@ 3588
禪 3588
傘 3587
TS 3586
UB 3586
淵@@ 3586
聰 3586
沧@@ 3583
纲@@ 3580
117 3578
James 3577
ans 3577
吕 3576
腸@@ 3576
750 3574
Pro@@ 3572
睹 3572
As@@ 3571
伪 3571
譜@@ 3571
憾 3568
盈 3565
挪@@ 3564
醜@@ 3564
od 3561
浅 3560
蛛@@ 3560
Group 3559
苍@@ 3559
涡@@ 3558
冊@@ 3557
Er@@ 3554
滴 3554
1861 3549
谐 3548
債 3547
缴@@ 3547
肅@@ 3543
棍 3542
ED@@ 3541
from 3539
狄 3538
茅 3538
饭 3537
5.5 3536
緯@@ 3536
弊 3535
塵 3533
倭@@ 3532
枯@@ 3531
GA 3530
勉@@ 3530
嘲@@ 3530
eg@@ 3529
Un@@ 3528
л 3527
癒 3527
穷 3527
1876 3525
116 3524
2500 3524
墾 3524
um@@ 3522
忧 3522
淹@@ 3519
韵 3519
You@@ 3516
肺 3515
if 3513
朴 3510
114@@ 3509
Open@@ 3509
ter@@ 3509
檐 3509
閣@@ 3509
胆 3508
129 3507
哨 3507
違 3507
坠@@ 3506
茱@@ 3505
梧@@ 3494
瑚@@ 3494
肢@@ 3494
亭@@ 3492
des 3490
禹 3490
鑽 3490
锋@@ 3490
閒 3490
盆 3489
髓 3489
辆@@ 3486
捨 3485
詮@@ 3485
擒 3482
閒@@ 3482
124 3480
抨@@ 3479
劣@@ 3476
锐 3476
奕 3475
Fr@@ 3474
в 3474
ISO 3473
116@@ 3468
畏@@ 3468
踢@@ 3466
魂@@ 3464
IE@@ 3463
im 3456
祂 3456
ile 3455
紡@@ 3454
胀 3452
79@@ 3451
铎 3451
抒@@ 3450
霹@@ 3450
诚@@ 3449
1.3 3448
淀@@ 3447
祕 3447
A1 3446
iPhone 3439
陪 3439
ber@@ 3437
阐@@ 3436
126 3434
1891 3434
衫 3433
ver@@ 3430
馨 3430
綽@@ 3428
霞@@ 3428
PC@@ 3427
ut@@ 3426
犀@@ 3426
к 3424
让@@ 3422
擢 3420
301 3416
庐@@ 3415
憑@@ 3414
ATP 3412
76@@ 3411
漲 3410
獸@@ 3410
寂 3409
跃@@ 3408
歼@@ 3407
蒿 3406
博物@@ 3403
勁@@ 3401
ner 3399
儲 3396
ex@@ 3395
坝@@ 3394
瑾 3393
ne@@ 3392
嚇 3392
崑 3392
鄒@@ 3392
Sw@@ 3391
叠@@ 3391
襪 3390
閘 3389
〔 3387
钾 3386
〕 3384
剌 3383
260 3382
肪 3381
丑@@ 3380
諜 3380
酿@@ 3380
稽 3378
绑@@ 3378
頌 3378
1850 3374
妓@@ 3372
棱@@ 3372
1.1 3371
蹄@@ 3371
駒 3370
撕@@ 3369
填 3368
117@@ 3366
緻 3365
捉@@ 3363
My@@ 3360
Robert 3358
est 3358
IT 3357
禧@@ 3357
烤 3354
鑄@@ 3354
弄@@ 3353
DE 3352
浙 3351
浆 3350
鰍 3350
滤@@ 3348
1883 3346
璧 3341
醬 3341
Paul 3340
era 3340
掀@@ 3339
腫@@ 3339
菇 3339
ou@@ 3338
1862 3336
蜒 3336
PG 3335
卦 3333
縫 3333
st 3330
盔 3330
贬@@ 3325
CO 3323
岱 3323
郑 3323
IBM 3322
Dis@@ 3319
閥 3319
荃 3317
淪@@ 3316
询@@ 3315
漆@@ 3314
1868 3309
鈞 3308
Min@@ 3304
ッ 3304
莞 3303
bi@@ 3301
籃 3301
鱸@@ 3300
Java 3299
雾 3299
慌 3298
鸚@@ 3296
74@@ 3293
擇@@ 3293
檀@@ 3292
桌 3289
欠 3289
歇 3289
艰@@ 3289
净 3283
菱@@ 3283
ST 3281
扑 3281
崔 3280
蜿@@ 3280
DA 3279
膏 3279
Go@@ 3278
窑 3278
US 3277
孚@@ 3276
狮 3276
Apple 3275
有限@@ 3275
矢 3275
驳 3275
ま 3269
μ 3268
絡@@ 3268
pl@@ 3267
炼 3267
羟@@ 3267
貿 3267
滲@@ 3265
aw@@ 3264
SI@@ 3261
颜 3260
饱@@ 3260
舜@@ 3259
弃@@ 3258
闸 3258
Michael 3257
Super 3257
滚 3257
@ 3256
1867 3255
凉 3255
牲@@ 3252
寄 3251
嘎@@ 3250
砍@@ 3250
さ 3249
喉 3249
磷 3249
婴@@ 3248
帳 3248
赦@@ 3245
耕 3243
闲 3243
优 3241
浴 3241
瑛 3238
ep@@ 3236
侏@@ 3236
撑 3234
委员@@ 3229
悦 3229
凍 3226
凭 3226
渝 3223
ur 3220
茹 3218
霆 3218
550 3217
bo@@ 3217
缪@@ 3217
罐 3217
BM@@ 3216
² 3216
惧 3214
椭@@ 3212
ess 3208
普查 3208
湧@@ 3208
貼@@ 3208
1848 3207
趁 3207
RS 3206
SM@@ 3206
330 3205
1873 3204
淹 3204
猿 3202
1878 3201
专 3201
膛 3199
襄 3199
il 3198
ا 3196
篡@@ 3196
MS@@ 3194
溶 3194
禹@@ 3194
鞋@@ 3194
が 3193
DJ 3190
て 3190
僑@@ 3189
鞏@@ 3189
145 3188
朔 3188
涼 3187
汪 3186
浸 3184
擺 3181
諡 3181
笼 3180
National 3179
1864 3177
1879 3177
悼 3177
1.4 3175
四川@@ 3175
EX@@ 3173
牢 3172
翔@@ 3172
锁@@ 3172
ous 3170
GDP 3169
eb@@ 3169
钩 3169
1877 3167
缝 3167
莽 3167
き 3164
ator 3162
苔 3161
穷@@ 3160
羞@@ 3160
袋@@ 3160
96@@ 3159
療 3158
剖@@ 3154
甜 3154
ME 3152
鴉@@ 3152
彎 3150
窩 3148
狸 3147
迅@@ 3145
蕩 3144
CPU 3143
丢@@ 3142
屡@@ 3142
畅@@ 3142
F1 3141
虞 3141
岐 3139
6.5 3138
able 3135
8000 3134
Ap@@ 3133
皖@@ 3133
禽 3133
芜@@ 3131
颗@@ 3130
择@@ 3129
綴 3129
泵 3127
ov@@ 3126
土耳@@ 3124
雇 3124
匡@@ 3119
Hz 3117
MP 3117
Man@@ 3117
掉@@ 3117
琅 3116
芯 3115
蔚@@ 3115
庚 3112
land 3109
溢@@ 3109
1875 3106
NT@@ 3101
ure 3100
650 3098
釐 3098
1865 3097
Hol@@ 3096
涨 3095
籠 3095
1882 3093
杭 3093
City 3092
Mor@@ 3092
io 3092
em 3091
肠 3090
32@@ 3087
晤@@ 3087
剪 3086
畴 3086
酵 3084
1881 3079
挡 3079
茜 3078
ung 3076
鹃 3074
磚@@ 3073
ng 3072
糧 3072
隕@@ 3071
AD 3070
綿@@ 3070
霧@@ 3070
ML 3068
鬧 3068
冤@@ 3067
傲 3066
鸿 3065
滴@@ 3064
胰@@ 3063
鰓 3062
谥@@ 3059
酵@@ 3059
堊@@ 3058
窦@@ 3058
虐 3058
ell@@ 3056
net 3055
樸 3053
邹@@ 3052
Go 3049
蝠@@ 3049
礁@@ 3046
onlyinclude 3045
岁@@ 3045
戚@@ 3045
175 3043
Su@@ 3043
梓 3043
岑 3042
墮@@ 3041
麾@@ 3041
2.2 3040
孵@@ 3040
猶 3040
糟@@ 3040
运会 3038
迟@@ 3038
喻@@ 3037
GO@@ 3035
邱 3035
汾@@ 3034
IX 3033
呂 3033
曉 3032
棵 3029
濕 3028
鹤 3028
name 3026
姜 3026
鍊 3026
Unic@@ 3025
宠@@ 3025
菸 3025
俾@@ 3023
鰕 3023
ok 3022
逗@@ 3021
Fe@@ 3020
Pi@@ 3020
挫@@ 3019
敷 3019
钧 3019
鹅 3016
MTV 3014
扇@@ 3013
贴@@ 3013
顱 3013
155 3010
埗 3006
辈 3006
黜 3006
趨 3005
奸@@ 3001
莓 3001
87@@ 3000
蚌@@ 2999
鑒 2999
蔭@@ 2998
1874 2997
ue 2997
Entertainment 2996
彻 2995
So@@ 2994
ge 2993
63@@ 2992
LC 2992
ik@@ 2991
裙 2990
豁@@ 2989
焊@@ 2988
頜 2988
30.@@ 2987
CS 2987
Sol@@ 2986
ir 2986
炼@@ 2986
ci@@ 2984
119 2981
企 2981
1840 2979
1863 2978
苻 2978
詐 2978
諧 2978
飾@@ 2975
岬 2974
ら 2973
虫@@ 2973
We@@ 2972
380 2971
蕨@@ 2971
攔@@ 2970
篤 2968
叙 2966
7000 2964
烃 2963
シ 2962
脆@@ 2962
蕭 2962
Netflix 2961
喪 2961
偽 2959
谦 2959
阱 2959
do@@ 2958
壟@@ 2958
IN 2956
1872 2954
袁 2954
ect 2953
斬@@ 2952
AV@@ 2950
CT 2950
System 2948
hi@@ 2948
me 2947
86@@ 2946
箕 2946
HK 2944
陡@@ 2944
LED 2943
霜 2941
270 2939
end@@ 2937
艱@@ 2935
鸭@@ 2935
屢@@ 2933
昏 2933
腎@@ 2933
厭@@ 2932
HO@@ 2930
澀 2928
貶@@ 2927
紧 2925
羌 2924
骗 2923
19@@ 2920
ab 2920
聶@@ 2919
酚 2917
芹 2915
EST 2914
鸦@@ 2914
哀 2913
br@@ 2912
sa 2911
帛 2911
巳 2909
鹰@@ 2907
祿@@ 2906
CE 2904
哭@@ 2904
ini 2902
厲 2902
碘@@ 2902
UR@@ 2901
鰻 2900
mar@@ 2899
扶 2899
鶴 2898
屑 2891
It 2889
Cre@@ 2887
汀@@ 2887
讽@@ 2887
if@@ 2886
89@@ 2885
稽@@ 2885
楠@@ 2884
沦@@ 2883
铝 2883
炒@@ 2882
SD@@ 2879
St 2879
咬@@ 2878
闸@@ 2878
娟 2876
SN@@ 2875
孜 2875
鋒@@ 2874
152 2873
盪 2873
遺 2872
盲 2870
嵩 2869
椰@@ 2869
Metacritic 2867
篷 2867
All 2866
姦 2866
禱 2866
FO@@ 2865
George 2865
梳@@ 2865
闡@@ 2865
饒 2865
頌@@ 2864
濒 2863
萼 2862
ker 2861
俠@@ 2860
壹 2856
begin 2855
く 2854
Do@@ 2852
轩 2852
禅 2850
簽 2849
茹@@ 2849
棣 2847
衔@@ 2847
39.@@ 2846
UT@@ 2846
媛 2846
槟@@ 2845
琼 2845
駿@@ 2844
齋@@ 2844
玲@@ 2843
2.4 2842
HT@@ 2841
ent@@ 2841
亥 2840
加拿@@ 2840
稣@@ 2839
EM@@ 2838
醚 2836
鬱 2835
鹹 2835
137 2834
AI 2833
NA 2832
idae 2830
夥 2830
酪 2830
孤 2829
幌 2828
绥 2828
跤 2828
Ber@@ 2826
ho@@ 2824
浚 2823
kg 2821
Win@@ 2820
兽@@ 2820
湛 2818
RT@@ 2817
钓@@ 2817
皋 2816
陛@@ 2816
妨@@ 2815
缮 2815
165 2814
les 2814
袭@@ 2814
鱷@@ 2814
fo@@ 2813
を 2813
賺 2813
傀@@ 2812
ino 2811
幡 2810
84@@ 2808
舅@@ 2807
淫 2806
az@@ 2805
pi@@ 2805
趣@@ 2805
LE 2803
濾@@ 2803
括@@ 2802
Club 2801
坏@@ 2801
Office 2800
尉@@ 2799
帖@@ 2799
Po@@ 2797
曙@@ 2796
Cy@@ 2793
忆@@ 2793
ack 2792
厌@@ 2792
跋@@ 2792
鵝 2791
COVID 2790
淑 2790
滙 2790
衰 2789
锅@@ 2788
ti 2787
猩@@ 2787
怨@@ 2786
盎@@ 2785
漠@@ 2784
釀@@ 2783
per 2781
龟 2781
131 2779
鲜 2779
侵 2778
窮@@ 2778
葫@@ 2777
1869 2776
巨 2775
粗 2775
辯 2775
徑@@ 2774
97@@ 2773
NT 2771
妖 2771
傘@@ 2770
傲@@ 2770
尸 2770
甫@@ 2770
驱 2770
To@@ 2768
ick 2768
磚 2767
Time 2766
圳 2765
奕@@ 2765
1866 2762
GO 2762
Val@@ 2762
瑶@@ 2762
Mark 2761
麒@@ 2759
カ 2756
羌@@ 2756
width 2755
剿@@ 2754
1300 2753
鯨@@ 2753
戟 2752
侮@@ 2751
こ 2750
渗@@ 2750
龚@@ 2750
閻@@ 2748
ff@@ 2747
塵@@ 2747
丧 2746
寻 2746
尧 2746
瘟@@ 2746
蠻 2746
溴@@ 2745
壶 2744
膽@@ 2744
炬 2743
ion 2741
辣 2740
γ 2739
EL@@ 2738
闵@@ 2738
掘@@ 2737
NET 2735
恕 2735
剌@@ 2733
On 2732
丙 2732
峨@@ 2732
妈 2730
紳 2730
鈴 2730
僕 2729
贿@@ 2729
頜@@ 2728
ati@@ 2727
弧 2726
737 2725
崁 2724
SC 2723
财 2723
Cal@@ 2722
沫 2722
Mel@@ 2720
ax 2720
晃 2719
錐@@ 2719
Center 2718
Co 2718
琵@@ 2718
鎌 2718
132 2717
itch 2716
疯@@ 2716
205 2714
Show 2714
赌@@ 2713
冕@@ 2712
拦@@ 2712
奮 2710
碩 2710
汞 2709
烏克@@ 2709
諷@@ 2708
譬@@ 2708
BE 2706
卻@@ 2706
渊@@ 2706
洽 2704
隐 2704
肾@@ 2703
ON 2702
逢@@ 2702
沁@@ 2700
み 2699
峇 2699
鷹@@ 2699
莆@@ 2696
ath@@ 2695
瑜@@ 2694
溴 2693
阮 2692
38.@@ 2691
Pe@@ 2691
den 2690
Park 2689
濒@@ 2689
酋 2689
Hu@@ 2686
桨 2685
1.7 2683
Har@@ 2683
袖@@ 2683
138 2682
144 2682
Bi@@ 2682
姚 2681
懋@@ 2679
萱 2679
Game@@ 2678
1400 2677
Games 2677
Star 2677
ics 2677
勿 2677
隅 2677
GT@@ 2675
BL@@ 2672
勉 2671
タ 2670
汐 2668
33.@@ 2666
歼 2666
te@@ 2665
梭@@ 2665
苷 2665
敷@@ 2660
耆 2658
ABC 2656
敢@@ 2655
肝 2650
蟾 2649
妥 2648
巖 2648
挥@@ 2648
API 2647
ano 2647
Bur@@ 2645
Charles 2644
ical 2643
〇 2642
201@@ 2641
瀕@@ 2639
贩@@ 2639
栓 2638
飽 2638
驟 2635
Thomas 2634
啶 2634
睿 2634
糙 2631
颂 2631
ロ 2628
咬 2628
嵩@@ 2628
詔 2628
舷 2627
2.3 2626
so@@ 2625
Ab@@ 2624
and@@ 2623
za 2622
哪 2620
藓 2620
ist 2619
pm 2618
彤 2617
堰 2616
沂@@ 2616
驳@@ 2616
No@@ 2613
136 2612
154 2612
匿 2612
壮 2612
滥@@ 2612
聪@@ 2611
be@@ 2608
鋸@@ 2607
瓊 2606
兀@@ 2605
熹 2605
膝@@ 2605
腕 2603
橘 2602
Lin@@ 2601
跆@@ 2601
餓 2596
硅 2593
剖 2591
沸@@ 2591
鯊 2591
鴨@@ 2591
僕@@ 2590
ma@@ 2589
泣 2589
阁@@ 2588
gi@@ 2587
戮 2583
措@@ 2583
撲@@ 2579
棲 2579
垄@@ 2577
185 2575
淫@@ 2574
168 2573
ala 2572
饮 2572
狸@@ 2571
婭 2570
惹 2570
1.0 2568
炭@@ 2567
烷@@ 2567
Sal@@ 2566
ani 2566
仰 2566
141 2565
砍 2565
あ 2564
ence 2563
埠@@ 2563
苣 2563
妍 2562
加利@@ 2561
蔚 2561
str@@ 2560
梗 2560
眷@@ 2559
匾 2558
臟@@ 2558
Gen@@ 2556
傣@@ 2556
肋@@ 2556
壞@@ 2555
谍 2555
151 2553
Gu@@ 2553
荀@@ 2553
楷 2552
麟@@ 2552
黔@@ 2552
墳@@ 2551
ジ 2550
吗 2549
樱@@ 2549
滇 2549
烂 2548
1830 2545
嶽 2545
蛤 2545
霄 2545
糊@@ 2544
32.@@ 2543
溜@@ 2543
販 2543
iP@@ 2542
pe@@ 2542
伸 2541
擇 2541
Ag@@ 2540
で 2540
竺 2540
156 2539
co 2538
倚@@ 2538
ons 2537
硒 2537
舅 2537
烤@@ 2535
畿@@ 2535
2.8 2534
祸 2534
Street 2533
罐@@ 2533
讓@@ 2533
琪@@ 2532
竊 2532
133 2531
惊 2531
Peter 2530
沛@@ 2530
倆 2529
潜 2529
IF@@ 2527
DF 2526
唯 2526
no 2525
埕 2524
Media 2523
矛 2523
蚤 2522
謎 2521
0.3 2520
158 2520
High 2520
oph@@ 2520
扰@@ 2520
舵 2519
College 2518
棕 2518
1853 2516
吊 2516
鶯 2516
戎@@ 2514
榕 2513
Life 2511
誅 2511
魨 2511
吡@@ 2510
颈@@ 2510
Web 2509
Wii 2508
illa 2508
沼 2507
Red 2506
駁@@ 2506
枕@@ 2505
酰 2504
瘦@@ 2503
ah@@ 2502
虔@@ 2502
颖 2502
0.1 2501
氛@@ 2501
139 2497
1700 2497
1858 2497
vo@@ 2497
慨 2495
须@@ 2495
π 2494
osa 2492
af@@ 2491
猩 2491
pr@@ 2490
悲 2490
eh@@ 2489
摺 2489
霉@@ 2489
骆@@ 2489
148 2488
謹 2488
擢@@ 2486
竖@@ 2486
ke 2484
ora 2482
峯 2482
文物@@ 2481
晏@@ 2481
time 2480
vi@@ 2480
炳 2480
翟@@ 2480
FM 2479
au@@ 2479
塗 2479
擴 2479
36.@@ 2478
巷@@ 2477
焉 2477
睦 2477
House 2475
ade 2475
鑫 2475
Her@@ 2473
ari@@ 2473
FA 2472
咪 2471
寂@@ 2471
懿@@ 2471
肠@@ 2470
褲 2470
ap 2469
ha 2468
笛@@ 2467
1100 2466
窑@@ 2465
1859 2464
雛@@ 2464
2.1 2462
脸 2461
鑲@@ 2461
罷 2459
恪 2458
抹 2458
EC@@ 2457
ena 2457
ド 2456
撥 2456
Sc@@ 2455
币@@ 2455
镶@@ 2455
お 2454
マ 2453
134 2452
Man 2452
49.@@ 2451
煩 2451
胃 2451
211 2449
Big 2449
谦@@ 2449
RC 2448
軒@@ 2448
諷 2446
倖@@ 2444
逻 2443
厨@@ 2441
齡@@ 2441
Por@@ 2439
鈉 2439
0.2 2438
sp@@ 2437
殷 2436
侖 2435
203 2433
钥 2433
mo 2432
ise 2431
妓 2430
遼 2429
鯛@@ 2429
陌@@ 2427
1854 2426
誦 2424
1857 2423
恢@@ 2422
れ 2420
尿 2418
詠@@ 2417
EN 2416
Red@@ 2413
闲@@ 2412
CL@@ 2411
曦 2411
櫃@@ 2410
瑩 2410
202 2409
King 2409
No 2409
娄@@ 2409
ca 2408
拼 2408
爷 2408
PP@@ 2407
yr@@ 2407
AG 2405
棺@@ 2405
毯 2405
VO@@ 2403
ant@@ 2403
腥 2403
ome 2402
鵡 2402
gr@@ 2401
屢 2401
皓 2400
羚 2400
衆 2399
OR@@ 2398
滯 2398
鞘 2398
虛 2395
ber 2394
倖 2394
炒 2394
暨@@ 2393
泾@@ 2393
INE 2392
虽@@ 2392
莞@@ 2391
諡@@ 2391
Trans@@ 2390
吻@@ 2390
梗@@ 2389
煮@@ 2389
Richard 2388
yl@@ 2388
Gam@@ 2387
黔 2387
Mer@@ 2386
□ 2386
噬 2386
窝 2385
蛮 2385
辰@@ 2385
166 2384
NASA 2384
Intel 2383
SAR@@ 2383
矽@@ 2380
祷 2380
IL@@ 2379
Pol@@ 2378
賄@@ 2378
34.@@ 2376
伞@@ 2376
OH 2375
長@@ 2375
PL@@ 2374
毘 2374
铝@@ 2373
94@@ 2372
渣@@ 2372
铃@@ 2372
Mag@@ 2371
凍@@ 2371
樺 2371
丕 2370
誼@@ 2370
1856 2369
抹@@ 2369
曜 2369
tra 2368
债 2368
涂 2367
绳 2367
Limited 2366
盒@@ 2366
レ 2365
out 2364
SD 2363
卤@@ 2363
NBC 2362
ick@@ 2362
睿@@ 2361
饶 2361
腿@@ 2360
谣 2360
躲 2359
俱 2357
ks 2356
渲@@ 2356
Fl@@ 2355
San 2355
ings 2355
卉 2355
340 2353
du 2353
磺@@ 2353
沐@@ 2351
顎 2350
ev@@ 2349
忽 2349
殘 2349
笨@@ 2349
ov 2348
央 2348
嫩@@ 2348
訥 2347
纜 2346
块@@ 2345
ill 2344
kh@@ 2344
匪@@ 2344
稿@@ 2344
鉤 2344
225 2343
披 2343
153 2342
祺@@ 2342
疹 2341
钙 2341
146 2340
λ 2340
綏@@ 2340
鱗 2340
ated 2339
崖@@ 2339
SK@@ 2338
ki 2338
叱@@ 2338
淚@@ 2338
yn@@ 2337
元前 2337
摸 2337
諒 2336
鹅@@ 2336
pp@@ 2335
毆 2334
铸 2334
235 2333
256 2333
310 2333
禺 2333
饲@@ 2333
証 2332
aria 2331
鏈@@ 2331
3.2 2330
Bre@@ 2330
143 2328
DR@@ 2328
氦 2328
鄧 2328
ao 2327
AE@@ 2326
Company 2326
EF@@ 2325
帐@@ 2325
晖 2323
皈@@ 2323
1851 2322
Bel@@ 2322
ung@@ 2322
焚 2321
穹@@ 2321
鍋 2321
隼 2321
Project 2320
攬 2320
8.5 2319
Ser@@ 2319
釘 2319
del 2318
禽@@ 2318
虚 2318
鄞@@ 2318
骤 2318
Studio 2317
tri@@ 2317
纬@@ 2317
AK 2316
ru@@ 2316
2.6 2313
3.0 2313
car@@ 2313
way 2313
靼 2313
Ho@@ 2312
ory 2312
BL 2311
○ 2311
147 2310
UC@@ 2310
ta@@ 2309
籠@@ 2309
妄@@ 2308
湄@@ 2308
肚 2308
銳@@ 2308
LA 2307
裸 2307
Hy@@ 2306
XX 2306
ari 2306
ww@@ 2306
162 2305
org 2305
si 2304
bit 2303
执 2303
苔@@ 2302
0.8 2301
ち 2301
嬪 2301
畝 2301
虾 2299
皖 2298
萝@@ 2297
脏@@ 2296
row 2294
214 2293
儡 2293
颈 2293
Es@@ 2292
溺@@ 2291
return 2290
CBS 2289
辜 2288
缆 2287
腊 2287
坤@@ 2284
祚 2283
鈾 2283
軼@@ 2282
O2 2281
000@@ 2280
崙@@ 2280
Mk 2279
憩 2279
胖 2279
Tri@@ 2278
乍@@ 2278
氨 2278
35.@@ 2277
China 2277
Op@@ 2277
bu@@ 2277
ium 2277
藔 2277
忒 2276
毙 2276
穗@@ 2276
臻 2276
篮 2275
踏 2275
劝 2274
濁 2274
蛙@@ 2274
傭@@ 2272
敕@@ 2272
0.4 2271
稠@@ 2271
key 2270
辩 2270
ο 2269
American 2268
ok@@ 2268
坍@@ 2268
GNU 2266
ense 2266
its 2266
ç 2266
拷@@ 2266
庾@@ 2263
enti@@ 2262
肛@@ 2262
Air 2261
犁@@ 2261
壺 2259
21@@ 2257
ow@@ 2256
142 2255
tion 2255
諫 2255
su@@ 2254
鸦 2254
緝 2252
48.@@ 2251
195 2250
tic 2250
斧 2249
欄@@ 2249
豎@@ 2249
Mat@@ 2248
謹@@ 2248
駱@@ 2247
HC 2246
type 2246
沮@@ 2246
AB 2245
臘 2245
諧@@ 2245
趟 2245
暉 2244
滬@@ 2244
猫@@ 2241
37.@@ 2237
溃@@ 2237
汴@@ 2236
Im@@ 2235
揆 2235
磊 2235
忌@@ 2233
雍 2233
丸@@ 2231
ore 2230
匀 2230
洩@@ 2230
als 2229
硼@@ 2229
Day 2228
勘 2228
苓 2226
們@@ 2225
啸 2225
窝@@ 2225
筹 2225
蜴 2225
± 2222
窃 2221
鍋@@ 2221
锦 2221
501 2217
SE 2217
Sur@@ 2217
tu@@ 2217
霜@@ 2215
0.6 2214
208 2214
夠@@ 2214
淤@@ 2214
1855 2213
Cas@@ 2213
ML@@ 2213
蒲 2213
mi 2212
哨@@ 2212
閃 2212
嗜@@ 2211
繹 2211
舜 2211
Kar@@ 2210
Tur@@ 2210
敛 2210
囚 2209
筒@@ 2209
耦@@ 2209
谕 2209
濾 2208
CN@@ 2207
斃 2207
昊 2207
绪@@ 2207
菁@@ 2207
楓 2205
蔷@@ 2205
龄@@ 2205
姻@@ 2204
溥@@ 2204
珂 2204
Mal@@ 2203
ight 2203
寨@@ 2203
隍 2203
攤@@ 2202
湊 2202
锌 2202
ism 2201
204 2199
MB 2199
ins 2199
alis 2198
â 2198
偿@@ 2198
抑 2198
漕@@ 2198
ED 2196
RA 2195
my@@ 2195
茜@@ 2195
饒@@ 2195
淄@@ 2194
伞 2193
珪 2193
逊@@ 2193
850 2192
http 2192
iTunes 2192
ong@@ 2192
缔@@ 2192
鱈 2192
Al 2190
咒@@ 2190
1847 2189
冻@@ 2187
淞@@ 2186
狱@@ 2184
Inc 2183
206 2181
肆@@ 2181
剂@@ 2180
1841 2178
401 2176
肽 2176
ene 2175
ment 2175
毋@@ 2175
207 2173
懂@@ 2173
榕@@ 2170
汰@@ 2169
RAM 2166
顏 2166
ist@@ 2165
奋 2165
ba@@ 2163
von 2162
弊@@ 2161
乞 2160
167 2158
157 2157
Boy 2157
DOS 2157
ú 2156
淀 2156
192 2155
も 2154
尧@@ 2154
槳 2153
Girls 2152
捧 2152
峭 2151
繡 2151
銜@@ 2151
149 2150
420 2150
Bas@@ 2150
Vol@@ 2150
ich@@ 2150
Road 2149
蔗 2149
郸 2149
ations 2147
洁@@ 2146
Medi@@ 2145
4.2 2144
ac 2144
1852 2143
龔@@ 2142
tor 2141
冀 2141
馳 2141
愚 2140
厘 2139
鋁 2139
173 2138
绳@@ 2138
嘎 2137
沫@@ 2137
铅@@ 2137
鴉 2137
侃 2136
new 2135
樞 2135
tube 2134
厉 2134
鳞 2133
尘 2132
纏 2132
ai@@ 2131
坊@@ 2131
浑@@ 2131
163 2130
Ltd 2130
NS@@ 2130
圃 2130
肚@@ 2130
Can@@ 2129
鹼 2129
祺 2128
新加@@ 2127
莒@@ 2126
匾@@ 2125
靶@@ 2125
扮@@ 2124
濬 2124
CP@@ 2123
2.7 2121
class 2121
唤 2121
壹@@ 2121
搖 2121
椅@@ 2120
潰@@ 2120
邓 2120
厲@@ 2119
稳 2119
膝 2119
臧@@ 2119
370 2118
low 2118
繆@@ 2116
oo 2115
扯 2115
琰 2115
747 2114
Force 2114
谥 2113
龟@@ 2112
ee 2111
オ 2111
誇@@ 2110
諱 2110
ib@@ 2109
謠@@ 2109
艷@@ 2108
绵 2107
1849 2106
匈 2105
綿 2105
敕 2104
诞 2103
3.3 2102
NS 2102
锐@@ 2102
忧@@ 2101
dr@@ 2100
铅 2100
拾@@ 2099
筛@@ 2099
LGBT 2098
廊@@ 2097
腎 2095
妝@@ 2094
闯@@ 2093
鲸 2092
gen@@ 2091
溥 2091
笙 2091
SI 2090
柜 2090
鳩 2090
劑@@ 2089
EC 2088
妈@@ 2088
澳大@@ 2086
脸@@ 2086
à 2085
琶 2085
铀 2085
not 2084
フ 2084
嶺@@ 2084
锂 2084
161 2083
183 2082
郵 2082
1.9 2081
2023 2081
Astr@@ 2081
sch@@ 2081
1815 2079
ire 2079
Gi@@ 2078
廂@@ 2078
眷 2078
蠟@@ 2078
pa 2077
1846 2076
σ 2076
Si@@ 2075
沁 2075
芽@@ 2075
188 2074
Ti@@ 2073
ff 2073
厭 2073
蕴@@ 2073
瀛 2072
猜 2072
171 2071
209 2071
圻 2070
颠@@ 2070
檻 2069
ket 2068
腔@@ 2068
ann@@ 2067
赶 2067
221 2066
摘 2066
泌@@ 2066
Wor@@ 2065
鸭 2065
184 2064
TR@@ 2064
A2 2063
у 2063
兜@@ 2063
蚊@@ 2063
谊@@ 2063
鼬 2063
ET 2062
USB 2062
勛 2061
Hall 2060
戍@@ 2060
泸@@ 2060
汲@@ 2059
匡 2057
潼@@ 2057
鞭 2057
挑 2056
ε 2054
叡 2054
嘆 2054
д 2053
Script 2052
ten@@ 2051
der@@ 2050
鹼@@ 2050
iz@@ 2049
绒 2049
儂 2048
159 2046
闊@@ 2045
絮 2044
穎@@ 2043
ρ 2042
CT@@ 2041
ل 2041
← 2041
裘@@ 2041
暢 2040
1820 2039
垦 2038
庇 2038
悔@@ 2038
侠@@ 2037
衢@@ 2037
赣 2037
扑@@ 2036
烘@@ 2036
畸@@ 2036
輩@@ 2036
Ri@@ 2034
佑@@ 2033
励@@ 2033
紳@@ 2033
鉛 2033
肋 2032
萎@@ 2032
222 2031
ES 2031
帥@@ 2031
悚@@ 2031
蘿 2030
1845 2029
瞿@@ 2029
Server 2028
164 2027
沂 2027
鯊@@ 2027
178 2026
290 2026
chem 2026
惹@@ 2026
215 2025
厉@@ 2025
霰@@ 2025
176 2024
飢@@ 2024
ach 2023
me@@ 2023
1844 2022
Net@@ 2022
TE 2021
悖@@ 2021
South 2019
昧 2019
Bor@@ 2018
Galaxy 2018
MHz 2018
ex 2017
稷 2016
晤 2014
迹@@ 2013
夹 2012
靴 2011
182 2010
逾@@ 2009
Instagram 2008
Association 2007
Records 2007
ake 2007
ys@@ 2007
运动@@ 2007
XP 2006
for@@ 2006
騙@@ 2006
恤 2005
É 2004
Des@@ 2003
栽@@ 2003
172 2002
ν 2002
辜@@ 2002
飘@@ 2002
绎 2001
Dr@@ 2000
181 1999
SQL 1999
乏@@ 1998
93.@@ 1997
mi@@ 1997
鈣 1997
鑿 1997
齣 1997
Ni@@ 1995
吟 1995
MO 1993
CEO 1992
劲 1992
邑@@ 1992
Pal@@ 1991
berg 1991
ura 1991
譚 1991
苷@@ 1990
頑@@ 1990
man@@ 1989
靡 1989
196 1988
ette 1988
菁 1987
Bu@@ 1986
擱@@ 1986
燦@@ 1986
搏@@ 1985
芮@@ 1984
遙 1984
Store 1983
up@@ 1983
す 1983
Mi@@ 1982
姪 1982
岔 1982
惱 1982
簧@@ 1982
馈 1982
cr@@ 1981
茉@@ 1981
480 1979
bl@@ 1979
吟@@ 1978
0.7 1977
況@@ 1977
遵 1977
锥@@ 1977
212 1976
Ros@@ 1976
枫@@ 1976
驰 1976
189 1973
ass@@ 1973
field 1973
‰ 1972
賃 1972
敘 1971
Play 1970
煉@@ 1970
磐@@ 1970
AF@@ 1969
虧@@ 1969
300@@ 1968
ates 1968
IGN 1967
ike 1967
棺 1967
馳@@ 1967
濠 1966
萧 1966
遴@@ 1966
10000 1965
ei 1965
甦 1964
碉@@ 1962
you 1961
庸@@ 1961
45.@@ 1960
North 1960
殲@@ 1960
238 1959
颖@@ 1958
ek 1957
ico 1957
嘻@@ 1957
撃 1957
骂 1957
鬍 1957
鲤@@ 1957
Sa@@ 1956
聪 1956
︰ 1956
濮@@ 1955
Best 1954
Le 1954
楷@@ 1954
濁@@ 1954
瑤 1954
1812 1953
Fire@@ 1953
uc@@ 1953
暱 1953
産 1953
じ 1952
咽@@ 1952
陋 1952
this 1951
薰 1951
噸@@ 1950
3.1 1948
Black 1947
Mr 1946
Tor@@ 1946
櫻 1946
朽 1945
蒋 1945
99.@@ 1944
App 1944
1843 1942
Na@@ 1942
坟@@ 1942
mon@@ 1941
Max 1940
line 1939
Sho@@ 1938
ville 1938
傾 1938
毫 1938
Fre@@ 1937
ford 1936
Sony 1934
FS 1933
Sim@@ 1933
WWE 1932
ting 1932
几 1932
Gar@@ 1931
lan@@ 1931
侬 1931
礙@@ 1931
纜@@ 1931
臭 1931
鈕 1930
KO@@ 1929
濃 1929
绣 1929
lu@@ 1928
糯@@ 1928
1814 1926
Pre@@ 1926
he@@ 1926
223 1925
MVP 1924
佣 1924
ain 1923
僱 1923
浜 1923
PN 1922
HP 1921
Pan@@ 1921
Reg@@ 1921
1842 1920
und 1920
Lu@@ 1919
渥@@ 1919
谨@@ 1919
DI 1918
楔@@ 1918
潞@@ 1918
铃 1918
Lee 1917
ada 1917
憤 1917
脆 1917
酬@@ 1917
187 1916
CH 1916
ry 1915
蒸 1915
薹 1915
eng@@ 1914
煥 1914
鑲 1914
Jo@@ 1913
棱 1913
Del@@ 1912
ili@@ 1912
Fi 1911
DD 1910
凸 1910
紗@@ 1909
驾 1909
47.@@ 1908
dy 1908
萌 1908
雁 1908
Ul@@ 1907
177 1906
芷@@ 1906
Direc@@ 1905
DI@@ 1904
ROM 1904
Don 1903
SL@@ 1903
枣@@ 1903
ã 1902
绒@@ 1902
CM@@ 1899
DP 1899
our 1899
ra@@ 1898
ô 1898
佣@@ 1898
197 1896
430 1896
la@@ 1896
キ 1896
羧@@ 1896
410 1895
Kong 1895
ish 1895
覓 1895
174 1894
灌 1894
ran@@ 1893
瞻@@ 1893
Envir@@ 1892
UE 1892
que 1892
弈 1892
汕 1892
To 1891
217 1890
ain@@ 1890
400@@ 1889
Char@@ 1889
Henry 1889
Jean 1889
com@@ 1888
vs 1888
嬰 1888
SP 1887
Tel@@ 1887
ens@@ 1886
佬 1885
ola 1884
Internet 1883
隘 1883
猷 1882
228 1881
DB 1881
墊 1881
斡@@ 1881
羲 1881
遏@@ 1881
烦 1880
裳 1880
鳍 1880
尘@@ 1879
aj@@ 1877
搁@@ 1877
皂 1877
305 1876
ge@@ 1876
ita 1875
っ 1875
夭@@ 1875
膺 1875
駝 1875
哆 1874
朋 1874
閔@@ 1874
169 1873
CG 1872
ja 1872
滋 1872
HTML 1871
凹 1871
詛@@ 1870
扔 1869
橙 1868
浑 1868
跡@@ 1868
胺@@ 1867
ase 1866
岔@@ 1866
爺@@ 1866
BSD 1865
磺 1865
诊 1865
well 1863
晟 1863
檀 1863
磐 1863
绰@@ 1863
ula 1862
奚@@ 1862
oma 1861
栖 1861
粵 1860
苑@@ 1860
逵 1860
驕@@ 1860
dia 1858
畅 1858
缅 1858
貸 1858
滄@@ 1857
苟@@ 1856
つ 1855
詹 1855
蜡@@ 1854
HBO 1853
United 1853
eri 1853
und@@ 1853
up 1853
倦 1853
茄@@ 1853
193 1852
м 1852
ミ 1850
燮 1850
ace@@ 1849
ISBN 1848
卧 1848
BB 1847
ology 1847
tic@@ 1847
偕 1845
冻 1845
Up 1844
芸 1844
911 1842
Girl 1842
ii 1842
挫 1842
Pl@@ 1841
锅 1841
挤 1840
兑@@ 1839
We 1838
钊 1838
樵 1837
Unix 1836
46.@@ 1835
Bl@@ 1835
歲@@ 1835
贿 1835
Kr@@ 1834
寅@@ 1834
Web@@ 1833
冶 1833
滞@@ 1833
煞@@ 1833
Joseph 1832
滤 1832
璽 1832
瀋 1831
肪@@ 1831
213 1830
δ 1830
蹄 1830
汐@@ 1829
Martin 1828
264 1825
pe 1825
兇 1825
渣 1825
耐 1825
コ 1824
τ 1823
吨@@ 1823
Cam@@ 1821
ative 1821
play 1821
叢 1821
稚@@ 1821
镍 1820
甥 1819
萃 1819
侗@@ 1818
mac@@ 1817
濂 1817
竿 1816
躺 1816
218 1815
昨@@ 1815
179 1814
壕 1814
ack@@ 1813
蒐@@ 1813
凶 1812
靂 1812
ash@@ 1811
sur 1811
呆 1811
鬱@@ 1810
鰻@@ 1808
gu@@ 1807
勐@@ 1807
壢 1807
PR@@ 1806
绑 1805
谟 1805
謨 1804
hu@@ 1802
寰 1802
鲨@@ 1800
dis@@ 1799
洙 1799
菅@@ 1799
潑 1798
瞻 1798
顽@@ 1798
佚 1797
谐@@ 1797
Wo@@ 1796
oth@@ 1796
噪 1796
帐 1796
Bal@@ 1795
潍@@ 1795
ek@@ 1794
堇 1794
槃 1793
猿@@ 1793
饋 1793
篩@@ 1792
鋁@@ 1792
Grand 1791
IUCN 1791
all@@ 1791
Fo@@ 1789
Hello 1789
La@@ 1789
ice 1789
懸 1788
Hong 1787
橇 1787
1789 1786
1832 1786
At@@ 1786
tor@@ 1786
斋@@ 1786
216 1785
ath 1785
☆ 1785
冗@@ 1785
夔 1785
窩@@ 1784
UL@@ 1783
撈 1783
ko 1782
go@@ 1781
冉@@ 1781
嫻 1781
amb@@ 1779
303 1778
186 1777
^ 1777
ane 1777
柑@@ 1777
兖@@ 1776
澜 1776
芋 1776
River 1773
芥@@ 1773
餉 1773
砸 1772
澈 1771
蠕@@ 1771
ock 1770
刮@@ 1768
鲨 1768
睦@@ 1767
Video 1766
Wal@@ 1766
孛 1766
枫 1766
薛 1766
Hel@@ 1765
劲@@ 1765
爐@@ 1765
搏 1764
臂@@ 1764
敞@@ 1763
琮 1763
濫 1762
贷 1762
262 1761
ama 1761
緬 1761
LS 1759
my 1759
沽 1758
cor@@ 1757
僖@@ 1757
妃@@ 1757
1835 1756
嘯 1756
汙@@ 1756
蔭 1756
鞑@@ 1756
ning 1754
op 1754
咤 1754
羰@@ 1754
蒜 1754
DS@@ 1753
Star@@ 1752
ave 1752
ger 1752
泄 1752
祉 1751
飄@@ 1751
1839 1750
Japan 1750
Mir@@ 1750
廖 1750
魄 1749
吵 1745
炫@@ 1745
芮 1745
IR@@ 1744
艏 1744
苞 1744
凝 1743
Is@@ 1742
ents 1742
埤 1742
缝@@ 1742
咎 1741
緝@@ 1741
荫 1741
Chi@@ 1740
Rem@@ 1740
娛 1740
朕 1740
骗@@ 1740
Ki@@ 1739
錐 1737
191 1735
so 1735
Du@@ 1734
斛 1734
俸 1733
Dr 1732
Radio 1732
嚇@@ 1732
笃@@ 1732
365 1731
Gal@@ 1731
餅@@ 1731
1801 1729
BR 1729
醋 1729
Rad@@ 1727
ye 1727
1821 1726
ET@@ 1726
Res@@ 1726
ki@@ 1726
й 1726
265 1725
堰@@ 1725
198 1724
1795 1720
穴@@ 1720
1838 1719
塌@@ 1719
寵 1719
渝@@ 1719
226 1717
PM 1717
PT@@ 1717
ς 1717
厝@@ 1717
綁@@ 1717
諮@@ 1717
3500 1716
Hal@@ 1716
褚@@ 1716
瞞 1715
穫 1715
铵 1715
Sy@@ 1714
誘 1714
Jum@@ 1713
唑 1712
孀 1712
篠 1712
罢 1712
鳚 1712
610 1711
舱@@ 1711
ym@@ 1710
GM 1709
テ 1709
勻 1708
嫉@@ 1708
ida 1707
堕@@ 1707
1806 1706
GT 1706
anti@@ 1706
勾 1705
熵 1705
鰈 1705
1793 1704
拨 1704
500@@ 1703
枢 1703
255 1702
唔 1702
ナ 1701
Mak@@ 1700
灶 1700
锥 1700
驼 1700
232 1699
Power 1699
int@@ 1699
Smith 1698
纏@@ 1698
腫 1698
Mas@@ 1696
ro 1696
淇 1696
薑 1696
1836 1695
233 1695
ft 1695
This 1694
UI 1694
lar@@ 1694
凿 1694
Fin@@ 1693
婴 1693
捞 1693
虔 1691
撼 1690
va 1689
1792 1688
ish@@ 1688
谏 1688
km2 1687
沌 1687
澱 1687
酗@@ 1687
闽 1687
31.@@ 1686
Super@@ 1686
乂 1686
紗 1686
侄 1685
诬@@ 1685
嫔 1684
竭@@ 1684
PL 1683
Tw@@ 1683
king 1683
ī 1683
叹 1683
炯@@ 1683
199 1682
戛@@ 1682
焕 1682
Blue 1681
蘚 1681
刁@@ 1679
涯 1679
4.0 1678
AO@@ 1678
ess@@ 1678
竇@@ 1678
ill@@ 1677
ou 1677
忙@@ 1676
鈔 1676
News 1675
yc@@ 1674
樁 1674
墾@@ 1673
暮@@ 1673
194 1672
249 1672
謬@@ 1672
ウ 1671
鈍 1671
妳 1670
MD 1669
や 1669
暑 1669
薨 1669
port 1667
癮 1667
稀 1667
豔 1667
ブ 1666
檳@@ 1666
鑰@@ 1666
950 1665
Be 1665
Wil@@ 1665
ut 1665
渾@@ 1665
昕 1664
Ger@@ 1663
瑶 1663
蹈@@ 1663
219 1662
筠 1661
貶 1661
ι 1660
帧 1660
col@@ 1659
宸 1659
酱 1659
镁 1659
left 1658
tis 1658
縛 1658
Tom 1657
ali@@ 1657
煩@@ 1657
ATA 1656
巔@@ 1656
妝 1655
幌@@ 1655
擠@@ 1655
轎@@ 1655
Network 1654
VC 1654
傭 1654
携 1654
炀@@ 1654
甬@@ 1654
粟 1654
wood 1653
1837 1651
275 1651
牽 1651
Young 1650
van 1650
斩 1650
糞 1650
躁 1650
League 1649
Sun@@ 1649
樸@@ 1649
汝 1649
擒@@ 1648
篤@@ 1648
尬 1647
Nor@@ 1646
ash 1646
俩 1646
殭 1646
Art 1645
face 1645
倭 1645
荧@@ 1645
9000 1644
棚@@ 1644
Ke@@ 1643
喚@@ 1643
摸@@ 1643
Cur@@ 1642
ñ 1642
だ 1642
愁 1642
釀 1642
遮 1641
« 1640
瀉 1640
炔 1640
Jav@@ 1639
谣@@ 1638
Book 1637
Rec@@ 1637
West 1637
朵@@ 1637
饑 1637
ser@@ 1636
ve@@ 1636
眶 1636
粤 1636
耍 1636
裙@@ 1635
Vir@@ 1634
楨 1634
day 1633
掙@@ 1633
殆@@ 1633
砌@@ 1633
脾@@ 1633
307 1631
440 1631
Power@@ 1631
Pyth@@ 1631
sa@@ 1631
倾 1631
溧@@ 1631
訝 1631
贖@@ 1631
醣 1631
231 1630
悄@@ 1630
螈 1630
229 1629
Ang@@ 1629
HS 1628
anus 1628
ken 1628
淋 1628
綜 1628
224 1627
MI 1627
span 1627
轍 1627
State 1625
サ 1625
槟 1625
1831 1624
Ga@@ 1623
泪 1623
嘗 1622
姻 1621
牒 1621
琥@@ 1621
繳 1621
雉 1621
Island 1620
Now 1620
Plus 1620
勿@@ 1620
圾@@ 1620
Cos@@ 1619
誣@@ 1619
308 1618
fr@@ 1618
洼@@ 1618
昱 1617
書館 1617
谨 1617
氹 1616
秃@@ 1616
葆@@ 1615
蟬 1615
褒 1615
AF 1614
right 1614
ero 1613
251 1612
CI 1611
he 1611
渚 1611
绞@@ 1611
1824 1610
640 1610
阡@@ 1610
輾@@ 1609
now 1608
Luc@@ 1607
Mobile 1606
1825 1605
吓 1605
Sir 1604
go 1604
耆@@ 1604
Online 1603
邏 1603
CF@@ 1602
兌@@ 1602
綸 1602
靳@@ 1602
306 1601
妊@@ 1601
Top 1600
仆 1599
扫 1599
粥 1599
驿@@ 1599
SV@@ 1598
蜗@@ 1598
﹐ 1597
mann 1596
tes 1596
胖@@ 1596
Em@@ 1595
arg@@ 1595
淇@@ 1595
鉛@@ 1595
II@@ 1594
UR 1594
嶋 1594
蠅 1594
彼 1593
恥 1593
锯@@ 1593
駭@@ 1593
UN 1592
渥 1592
Core 1591
tu 1591
颂@@ 1591
LD 1590
nm 1590
诛@@ 1590
掷 1589
婺@@ 1586
盔@@ 1586
ost@@ 1585
壳@@ 1585
戍 1583
榔 1583
欖 1583
鍾@@ 1583
锻@@ 1583
302 1582
MT@@ 1580
挤@@ 1580
瞰 1580
羚@@ 1579
Cl 1578
ast@@ 1578
瑋 1578
520 1577
拌 1577
DF@@ 1576
謊@@ 1576
Institute 1575
sen 1575
els 1574
EA 1572
毗 1572
蘆 1572
蚁 1572
﹑ 1572
1833 1571
CV 1571
ni 1571
ors 1571
檸@@ 1571
SR 1570
ters 1570
咪@@ 1570
敖 1570
闹@@ 1570
ky 1569
CN 1568
sin@@ 1568
ω 1567
1790 1566
洽@@ 1566
瑄 1566
Home 1565
SF@@ 1565
arr@@ 1565
ム 1565
檬@@ 1565
ona 1564
韶 1564
390 1563
560 1563
溢 1563
eon 1562
膳 1562
242 1561
脖@@ 1561
245 1560
Production 1560
FF 1559
聊 1559
豹@@ 1559
CV@@ 1558
set 1558
譽@@ 1558
谭 1557
楓@@ 1556
鲸@@ 1556
FF@@ 1555
Mus@@ 1555
Ed@@ 1554
325 1553
Ha@@ 1553
唸 1553
燦 1553
鋪@@ 1553
Bro@@ 1552
DM 1552
峪@@ 1552
tive 1551
Asia 1550
垮@@ 1550
1804 1549
1810 1549
エ 1549
泼@@ 1549
Bank 1548
プ 1548
肤@@ 1548
骏 1548
Society 1547
ith 1547
ube 1547
叻 1546
est@@ 1545
栈 1545
227 1544
惜@@ 1544
廬@@ 1543
讳 1543
110@@ 1542
盼 1542
荡@@ 1542
驛 1542
乎@@ 1540
杏 1540
285 1539
Vista 1539
硼 1539
雳 1539
膳@@ 1538
饿 1538
碟@@ 1537
SL 1536
亏@@ 1536
芸@@ 1536
媚 1535
460 1534
Jack 1534
ba 1534
cu@@ 1534
攸@@ 1534
慷@@ 1533
轿@@ 1533
Tre@@ 1531
aur@@ 1531
och@@ 1531
畑@@ 1531
du@@ 1530
仑@@ 1529
庞 1529
汾 1529
庐 1528
摇 1528
鋰 1528
龕 1528
萃@@ 1527
蟾@@ 1527
DR 1526
Dream 1526
IEEE 1526
寡 1526
残 1526
窯 1526
隋 1526
摆 1525
垣@@ 1524
縫@@ 1524
which 1523
伎 1522
桩 1522
煥@@ 1522
砷 1522
诈@@ 1522
ira 1521
239 1520
悍 1520
赎@@ 1520
羈@@ 1519
瀛@@ 1517
陂 1517
Ir@@ 1516
謎@@ 1516
254 1515
eo 1515
爽@@ 1515
ə 1514
蛮@@ 1514
飽@@ 1514
Sel@@ 1512
拐@@ 1512
偕@@ 1511
1799 1510
チ 1509
昵@@ 1509
诵 1509
Hor@@ 1508
Ly@@ 1507
Research 1505
冢 1505
ace 1504
tus 1504
撾 1504
璜 1504
ere 1503
妒 1503
Cer@@ 1502
Rock 1502
惕 1502
鉅 1502
311 1501
Eng@@ 1501
ua 1501
琦@@ 1501
踪@@ 1501
Prot@@ 1500
嬌 1500
醇@@ 1500
1644 1499
刹@@ 1499
簇 1499
can 1497
mer@@ 1497
་ 1497
韌@@ 1497
lin 1496
暱@@ 1496
獄@@ 1496
篆@@ 1496
韃@@ 1496
https 1495
殴@@ 1495
318 1494
Good 1494
Junior 1494
よ 1494
1809 1493
BT 1493
more 1493
聆@@ 1493
234 1492
aus@@ 1492
グ 1492
弯 1491
ty@@ 1490
鮨 1490
赂 1489
垫 1488
筋@@ 1488
ard@@ 1487
ema 1487
厘@@ 1487
柵@@ 1487
Open 1486
ng@@ 1486
衷@@ 1486
遥 1486
1776 1485
Tour 1485
佥@@ 1485
呀 1485
舵@@ 1485
pH 1484
ver 1484
栅@@ 1484
fe@@ 1483
Sports 1482
ast 1482
over 1482
雌 1482
Kh@@ 1481
Ty@@ 1481
1834 1480
绅 1480
530 1479
osaurus 1479
涪@@ 1479
瀾 1478
mol 1477
ニ 1477
丕@@ 1477
252 1476
of@@ 1476
ster 1476
1822 1475
540 1475
Award 1475
Magazine 1475
閏 1475
304 1474
Billboard 1474
CM 1474
First 1474
Ca@@ 1473
oh@@ 1473
uk@@ 1473
轶@@ 1472
580 1471
Church 1471
Comic 1470
241 1469
New@@ 1469
White 1469
蟬@@ 1469
H2O 1468
630 1467
傻@@ 1467
襪@@ 1467
1.0@@ 1466
攤 1466
1813 1465
470 1465
嫡 1465
淞 1465
踩 1464
C1 1463
LG@@ 1463
SW@@ 1463
ns 1463
Ado@@ 1462
GS 1462
chi@@ 1462
GE 1461
inter@@ 1461
皿 1461
Night 1460
» 1460
岱@@ 1460
386 1459
苛@@ 1459
EM 1458
iki 1458
慘 1458
歪@@ 1458
け 1457
苞@@ 1457
Wi@@ 1455
廁 1455
槐 1455
1828 1454
286 1454
デ 1454
ャ 1454
we 1453
訟@@ 1453
辟@@ 1453
Service 1452
lin@@ 1452
蕙 1452
蠢 1452
Kir@@ 1451
嵐 1451
葡 1451
鷲 1451
aceae 1450
梧 1450
鹦@@ 1450
1826 1449
War@@ 1449
ez@@ 1449
蘊@@ 1449
詭@@ 1449
Do 1448
掣 1448
暇 1448
葱 1448
鉉 1448
Mary 1447
埤@@ 1447
246 1446
攏 1446
Channel 1445
Sar@@ 1445
CNN 1444
scope 1444
瀚 1444
褶@@ 1444
Louis 1443
ets 1443
絨 1443
坳 1442
窃@@ 1442
逝@@ 1441
Green 1440
贛@@ 1440
720 1439
晃@@ 1439
湳 1439
璟 1439
For 1438
PE 1438
ato 1438
翎 1438
跪 1438
骄@@ 1438
min@@ 1437
ori@@ 1437
氓 1437
酮@@ 1437
ement 1436
俸@@ 1436
剃@@ 1436
荫@@ 1436
肿 1435
1819 1434
IB@@ 1434
Your 1434
芜 1434
钮 1433
麴 1433
Av@@ 1432
懋 1432
芦 1432
ness 1431
we@@ 1431
岷@@ 1430
澜@@ 1430
玺 1430
璞 1430
邺 1430
隴@@ 1430
Vo@@ 1429
鉀 1429
East 1428
兜 1428
匝@@ 1428
遗 1428
263 1427
iv@@ 1427
バ 1427
奄@@ 1427
榆 1427
瘦 1427
Data 1426
ache 1426
冤 1426
擂@@ 1426
晏 1426
1807 1425
兗@@ 1425
嗜 1425
鄱@@ 1425
鷗 1425
擄 1424
枕 1424
滞 1424
1805 1423
620 1423
PP 1423
Sub@@ 1423
Ⅱ 1423
丫@@ 1423
艳 1423
莹 1423
诠@@ 1423
243 1422
323 1422
All@@ 1422
sc@@ 1422
1794 1421
Visual 1421
楞 1421
吼 1419
宠 1419
Fi@@ 1418
倩 1418
Maria 1417
Ran@@ 1417
ian 1417
滩@@ 1417
稟 1417
Moz@@ 1416
钉 1416
De 1415
Point 1415
Ta@@ 1415
僚@@ 1415
桢 1415
謊 1415
Act 1414
Arts 1414
Dec@@ 1414
Line 1414
UP 1414
貧 1414
Is 1413
ud@@ 1412
Corporation 1411
Sun 1411
哇@@ 1411
Lam@@ 1410
eli@@ 1410
public 1410
吠@@ 1410
噬@@ 1410
玟 1410
Science 1409
eme 1409
竊@@ 1409
贖 1409
償@@ 1408
绸@@ 1408
1808 1407
椒@@ 1407
Pas@@ 1406
VII 1406
曳 1406
1791 1404
DA@@ 1404
ts@@ 1404
挾@@ 1404
闹 1404
ze@@ 1403
я 1403
煞 1403
邮 1403
icus 1402
lis 1402
灼@@ 1402
秒@@ 1402
翊@@ 1402
靶 1402
tro@@ 1401
銓 1400
1829 1399
star 1399
蛺@@ 1399
蝸@@ 1399
衬@@ 1399
谓@@ 1399
253 1398
use 1397
媛@@ 1397
忻@@ 1397
撓 1397
VI 1396
璇 1396
瘋 1396
EP@@ 1395
拇@@ 1395
昔 1394
312 1393
680 1393
the@@ 1393
General 1392
have 1392
ling 1392
š 1392
1796 1391
Az@@ 1391
│ 1391
倩@@ 1391
愧 1391
擅 1391
椿 1391
266 1390
锈@@ 1390
Hi@@ 1389
eta 1389
昼@@ 1389
蔥 1389
訶@@ 1388
钞 1388
孢 1387
Cat@@ 1386
sion 1386
AU 1385
妲 1385
飪 1385
Edward 1384
Ko@@ 1384
oa 1384
斂 1384
斧@@ 1384
査 1384
螂 1384
down 1383
毓 1383
俭 1382
315 1381
COM 1381
僻 1381
喊@@ 1381
悅@@ 1381
楞@@ 1381
洩 1381
矯@@ 1381
詐@@ 1381
1823 1380
236 1380
κ 1380
赢 1380
鼩 1380
El 1379
une 1379
ュ 1379
271 1378
Station 1378
睞 1378
肇 1378
150@@ 1377
Sin@@ 1377
黛 1377
叭 1376
姨@@ 1375
迭 1375
1818 1374
GPS 1374
aya 1374
湧 1374
芥 1374
244 1373
ler@@ 1373
self 1373
迺@@ 1373
雏@@ 1373
DT@@ 1372
RI 1372
ame 1372
况@@ 1372
叮@@ 1372
妆 1372
襯@@ 1372
鳅 1372
281 1371
282 1371
敞 1371
ny 1370
癱@@ 1370
Battle 1369
MG 1369
ney 1369
鄺@@ 1369
饷 1369
257 1368
PI 1368
г 1368
绣@@ 1368
鸞 1368
1775 1367
248 1367
1803 1366
Mad@@ 1366
匆@@ 1366
焘 1366
res@@ 1365
弥 1365
Chinese 1364
儉 1364
喃 1364
MW 1363
ィ 1363
禍@@ 1363
诈 1363
攀 1362
趋 1362
237 1361
CL 1361
彥@@ 1361
洮@@ 1361
1802 1360
338 1360
Ba@@ 1360
form 1360
厢@@ 1360
昶 1359
纂@@ 1359
鏢 1359
GP 1358
龛 1358
1816 1357
aph@@ 1357
oni 1357
佟@@ 1356
涿@@ 1356
321 1355
Ben@@ 1355
臼@@ 1355
麒 1355
Pres@@ 1354
ez 1354
iss@@ 1354
ms 1354
灑 1354
熄@@ 1354
鵰 1353
247 1352
鑄 1352
Party 1351
sub@@ 1351
パ 1351
硕 1351
272 1350
Hill 1350
Play@@ 1350
Sam@@ 1350
mg 1350
ن 1350
碁 1350
table 1349
ax@@ 1348
歙@@ 1348
Cu@@ 1347
ally 1347
ê 1347
伶 1347
煎 1347
蝽 1347
319 1346
嘱 1346
墜 1346
樟 1346
廚 1345
颍@@ 1345
彌 1344
艋 1344
268 1343
旌@@ 1343
沅@@ 1343
960 1342
瘓 1342
UF@@ 1341
蕃@@ 1341
1798 1340
oides 1340
虧 1340
僉 1339
檗 1339
261 1338
ius 1338
ر 1338
舺 1338
黴@@ 1338
284 1337
崧 1337
碰 1337
胥 1337
Note 1336
蓼 1336
As 1335
Nav@@ 1335
elle 1335
ima 1335
ハ 1335
杠 1335
ass 1334
卿@@ 1334
堯@@ 1334
脅@@ 1334
葺 1334
ota 1333
え 1333
寝 1333
秩 1333
FL@@ 1332
骁@@ 1332
撿 1331
歴 1331
bar@@ 1330
Shi@@ 1329
Tom@@ 1329
纱@@ 1329
骷@@ 1329
295 1328
Han@@ 1327
eus 1327
沾@@ 1327
わ 1326
誡 1326
鎂 1326
po 1325
締 1325
鹏@@ 1325
let 1324
ops 1324
咐 1324
囑 1324
鏽 1324
Meg@@ 1323
Sil@@ 1323
ted 1323
賂 1322
long@@ 1321
web 1321
峨 1321
蝦@@ 1321
Mike 1320
桅@@ 1320
殯@@ 1320
Royal 1319
绩@@ 1319
缠@@ 1319
has 1318
頰 1318
1568 1317
Free@@ 1317
辱@@ 1317
--@@ 1316
don 1316
light 1316
С 1316
CF 1315
LP 1315
WTA 1315
ars 1315
por@@ 1315
屎 1315
黯@@ 1315
Little 1314
扼@@ 1314
潟@@ 1314
蓟@@ 1314
1817 1313
eng 1313
煎@@ 1313
660 1312
IL 1312
var 1312
伶@@ 1312
僉@@ 1312
剔@@ 1312
510 1311
999 1311
ß 1311
钻 1311
1780 1310
274 1310
螨 1310
258 1309
Digital 1309
adi@@ 1309
were 1309
赁 1309
yp@@ 1308
Dem@@ 1307
倘@@ 1307
oto 1306
以色@@ 1306
膚@@ 1306
艳@@ 1306
288 1305
Far@@ 1305
η 1305
Alexander 1304
first 1304
琉 1304
薯@@ 1304
Awards 1303
pre@@ 1303
● 1303
檎 1303
诰 1303
Scott 1302
Tar@@ 1302
匠@@ 1302
沥@@ 1301
籽 1301
践@@ 1301
辗@@ 1301
269 1300
276 1300
Ter@@ 1300
cast 1300
ly@@ 1300
283 1299
垦@@ 1299
壤@@ 1299
钩@@ 1299
驸@@ 1299
trans@@ 1298
Daniel 1297
San@@ 1297
bus 1297
inn@@ 1297
捆@@ 1297
滁@@ 1297
沽@@ 1295
笈 1295
AW@@ 1294
Mu@@ 1294
逍@@ 1294
醮 1294
鬧@@ 1294
1750 1291
SB 1291
缚 1291
1650 1290
313 1290
ides 1290
瀝@@ 1290
缴 1290
Of 1289
凋@@ 1289
world 1288
錘 1288
髒 1288
Vel@@ 1287
fl@@ 1287
墘 1287
櫛@@ 1287
唤@@ 1285
謬 1285
ha@@ 1284
Mot@@ 1283
ug@@ 1283
瑤@@ 1283
Cap@@ 1282
Ever@@ 1282
驰@@ 1282
die 1281
ガ 1281
垫@@ 1281
Great 1280
urus 1280
莘@@ 1280
Mil@@ 1278
199@@ 1277
宵@@ 1277
醯 1277
钴 1277
潢 1276
艙@@ 1276
貌@@ 1275
ich 1274
咏@@ 1274
遁 1274
1645 1273
act 1273
son@@ 1273
Phone 1272
ds 1272
锤 1272
1622 1271
cl@@ 1271
ey@@ 1268
窒@@ 1268
窖 1268
1788 1267
掖 1267
CW 1266
Sky@@ 1266
ales 1266
inc@@ 1266
兀 1266
徘@@ 1266
梵 1266
榄 1266
緒@@ 1266
腕@@ 1266
333 1265
EV@@ 1265
Met@@ 1264
Tub@@ 1264
刪 1264
fer@@ 1263
con 1262
2030 1261
375 1261
WA 1261
Wh@@ 1261
war@@ 1261
堺 1261
晦 1261
槐@@ 1261
皂@@ 1261
ke@@ 1260
ひ 1260
洼 1260
Ban@@ 1259
uch@@ 1259
湊@@ 1259
舷@@ 1259
ese 1258
ten 1258
孺 1258
259 1257
277 1257
309 1257
綾@@ 1257
蚕@@ 1257
ce@@ 1256
メ 1256
拂@@ 1256
隧@@ 1256
1640 1255
憎@@ 1254
1787 1253
Technology 1253
焕@@ 1253
苳 1253
莺 1253
Master 1252
ji 1252
п 1252
287 1251
ダ 1251
佗 1251
Ru@@ 1249
SN 1249
opsis 1249
咳@@ 1249
騷 1249
奘 1248
滯@@ 1248
胥@@ 1248
BAS@@ 1247
Ig@@ 1247
Jr 1247
攜 1247
蘑@@ 1247
lia 1246
孺@@ 1246
ali 1245
570 1244
his 1244
婢 1244
Drive 1243
彬@@ 1243
柩 1243
賭 1243
鹃@@ 1243
佃@@ 1242
肘 1241
膀@@ 1241
har@@ 1240
ili 1240
姨 1240
阙 1240
atum 1239
ix 1239
side 1239
Saf@@ 1238
pro@@ 1238
砸@@ 1238
Works 1237
彝 1237
魮 1237
Frank 1236
RE 1236
Software 1236
侈 1236
勵@@ 1236
拙 1236
279 1235
Hot 1235
The@@ 1235
cher 1234
IU@@ 1233
Mol@@ 1233
function 1233
歳 1233
涧 1233
誥 1233
Brown 1232
off 1232
ole 1232
釉 1232
鬣@@ 1232
鹘 1232
cal@@ 1231
烽@@ 1230
皓@@ 1230
裴 1230
瘫@@ 1229
296 1228
Union 1228
los@@ 1228
鞍 1228
餵 1228
1783 1227
art 1227
坟 1227
湍@@ 1227
180@@ 1226
Taiwan 1226
anensis 1226
螯 1226
″ 1225
妆@@ 1225
Lake 1224
yn 1224
嚮 1224
曬 1224
穆斯@@ 1224
Sor@@ 1223
Global 1222
War 1222
悦@@ 1222
腭 1222
fac@@ 1221
谎@@ 1221
wa 1220
刹 1220
摄 1220
蝇 1220
PR 1219
core 1219
抬 1219
歉@@ 1219
hi 1218
栃 1218
膛@@ 1218
荼 1218
A4 1217
Tim@@ 1217
煜 1217
睾@@ 1217
闰 1217
1827 1216
299 1216
tur@@ 1216
沱@@ 1216
蠻@@ 1215
Eur@@ 1214
PD 1214
can@@ 1214
system 1214
栓@@ 1214
徊 1213
灶@@ 1213
贬 1213
130@@ 1212
滦@@ 1212
Ple@@ 1211
old 1211
ord@@ 1211
堃 1211
弼@@ 1211
簷 1211
账 1211
anc@@ 1210
mat@@ 1210
蔔 1210
324 1209
Chris 1209
ela 1209
inus 1209
θ 1209
筱@@ 1209
谜 1209
Pat@@ 1208
amp@@ 1208
焰@@ 1208
He 1207
Mic@@ 1207
289 1206
Model 1206
嗓@@ 1206
骚 1206
298 1205
Bay 1205
忱 1205
桅 1205
绸 1205
謗 1205
冼@@ 1204
娩 1204
癖 1204
喇 1203
鑰 1203
335 1202
Cup 1202
512 1201
檯 1201
蔗@@ 1201
331 1200
Ku@@ 1200
Tro@@ 1200
Joe 1199
Ur@@ 1199
York 1199
ila 1199
ي 1199
丈@@ 1199
槌 1199
Journal 1198
Series 1198
璐 1198
繕 1198
ble 1197
甯 1197
痪 1197
278 1196
CR 1196
MR 1196
Sand@@ 1196
igh@@ 1196
崴 1196
挠 1196
疣 1196
Santa 1195
Sn@@ 1195
Special 1195
cul@@ 1195
Dor@@ 1194
ind@@ 1194
odon 1194
瀧@@ 1194
Pen@@ 1193
Sm@@ 1193
alus 1193
抢 1193
273 1191
Explorer 1191
凳 1191
赢@@ 1191
馴@@ 1191
1592 1190
ë 1189
267 1188
sti@@ 1188
ō 1188
婁@@ 1188
趾@@ 1188
م 1187
膏@@ 1187
鲷 1187
筲@@ 1186
Ol@@ 1185
ビ 1185
钝 1185
闖 1185
Andrew 1184
tics 1184
め 1184
琅@@ 1184
顛 1184
驯@@ 1184
ь 1183
佘@@ 1183
惇 1183
ep 1182
hy@@ 1182
lo 1182
郴@@ 1182
蔽@@ 1181
蟹@@ 1181
霉 1181
1811 1180
Out@@ 1180
Square 1180
atr@@ 1180
sur@@ 1180
纶 1180
蜱 1180
Lady 1179
廓@@ 1179
轎 1179
鈔@@ 1179
H2@@ 1178
but 1178
攔 1178
笃 1178
臼 1178
韬 1178
屠 1177
炉@@ 1177
EG 1176
Gre@@ 1176
pu@@ 1176
tia 1176
垮 1176
釜 1176
櫚@@ 1175
糸 1175
镶 1174
Free 1173
ett 1173
住民 1173
燭 1173
衮 1173
寞 1172
揽 1172
杞 1172
inae 1171
inger 1171
Express 1169
Lis@@ 1169
MT 1169
SK 1169
胄 1169
讽 1169
Mess@@ 1168
Pri@@ 1167
Rap@@ 1167
铉 1167
bre@@ 1166
髻 1166
978 1165
Air@@ 1165
eri@@ 1165
僭 1165
忒@@ 1165
Les 1164
aris 1164
pot 1164
賄 1164
踝 1164
An 1163
喆 1163
嬉@@ 1163
磋@@ 1163
ding 1162
φ 1162
薰@@ 1162
鸠 1162
Space 1161
Town 1161
樽 1161
莪 1161
Ci@@ 1160
tan@@ 1160
粲 1160
艇@@ 1160
Press 1159
ray 1159
鞠@@ 1158
鵬@@ 1158
291 1157
292 1157
Kin@@ 1157
ati 1157
沾 1157
405 1156
Christian 1156
羣 1156
鈎 1156
钛 1156
293 1155
Museum 1155
Syn@@ 1155
ular 1155
yg@@ 1155
198@@ 1154
Lov@@ 1154
1580 1153
NP 1153
捏@@ 1153
犀 1153
膦 1153
杞@@ 1152
柠@@ 1152
綢 1152
Mi 1151
mer 1151
賺@@ 1151
郸@@ 1151
鎚 1151
饪 1151
― 1149
ょ 1149
纱 1149
铬 1149
che 1148
瘾 1148
瑰@@ 1147
Rob@@ 1146
Shar@@ 1146
榴 1146
314 1145
Bill 1145
win 1145
咏 1145
NCAA 1144
窄@@ 1144
驹 1144
Code 1143
Obj@@ 1143
泵@@ 1143
綺@@ 1143
250@@ 1142
322 1142
Bul@@ 1142
Don@@ 1142
FIFA 1142
Micro@@ 1142
What 1142
pin@@ 1142
ろ 1141
殲 1141
泼 1141
艉 1141
鋅 1141
钥@@ 1141
1583 1140
1797 1140
404 1140
del@@ 1140
kin 1140
吒 1140
嗅@@ 1140
痴@@ 1140
羁@@ 1140
謁 1140
鈦 1140
1550 1139
1777 1139
Council 1139
Mur@@ 1139
aw 1139
cha 1139
m3 1139
oni@@ 1139
tin 1138
竄 1138
Dol@@ 1137
祸@@ 1137
345 1136
DV@@ 1136
珉 1136
耻 1136
肄@@ 1136
＋ 1136
鎧@@ 1135
tical 1134
缔 1134
圩 1133
妤 1133
鱇 1133
1598 1132
Rel@@ 1132
卅@@ 1132
糟 1132
ison 1131
么@@ 1131
驿 1131
back 1130
糕@@ 1130
tom@@ 1129
闕 1129
鴿 1129
Os@@ 1128
ats 1128
Dev@@ 1127
case 1127
莽@@ 1127
1571 1126
Perf@@ 1126
bo 1126
ku@@ 1126
蔑 1126
釉@@ 1126
禱@@ 1125
跪@@ 1125
闇 1125
1570 1124
Heart 1124
SU 1124
荥@@ 1124
294 1123
疵 1123
鮭 1123
her@@ 1122
浊 1122
艷 1122
316 1121
490 1120
icul@@ 1120
1648 1119
Gl@@ 1119
OT@@ 1119
aga 1119
data 1119
two 1119
弩 1119
耿 1119
麽 1119
ik 1118
蟒 1118
787 1117
FDA 1117
SR@@ 1117
very 1117
翹 1117
ef@@ 1116
稠 1116
絞@@ 1116
鮟 1116
non 1115
捧@@ 1115
氾 1115
渦 1115
翊 1115
逮@@ 1115
317 1114
峻@@ 1114
London 1113
ip@@ 1113
愷 1113
1621 1112
Mem@@ 1112
row@@ 1112
SF 1111
ans@@ 1111
宕 1111
挡@@ 1111
HIV 1110
Mul@@ 1110
ating 1110
pop 1110
奬 1110
聆 1110
Net 1109
匣@@ 1109
ito 1108
б 1108
馏 1108
Summer 1107
esis 1107
oy@@ 1107
嫂 1107
尝 1107
柚@@ 1107
邵 1107
SH 1106
倪 1106
兮 1106
334 1105
Ash@@ 1105
Flash 1105
羞 1105
逕 1105
rom@@ 1104
噴 1104
诱 1104
ello 1103
琨 1103
蝎@@ 1103
1625 1102
DL 1102
ri 1102
FBI 1101
锰 1101
拢 1100
1778 1099
760 1099
app@@ 1099
廬 1099
矚@@ 1099
Run@@ 1098
ul 1098
⋯ 1098
履 1098
sk@@ 1097
佤@@ 1097
呤 1097
夾 1097
扭 1097
畠 1097
裤 1097
誹@@ 1097
America 1096
Not@@ 1096
1770 1095
Centre 1095
Plat@@ 1095
UM@@ 1095
厕@@ 1095
拐 1095
檬 1095
Fal@@ 1094
Mah@@ 1094
剎@@ 1094
＂ 1094
Spe@@ 1093
edi@@ 1092
pos@@ 1092
唾@@ 1092
诫 1092
谅 1092
ズ 1091
碇 1091
荆 1091
贩 1091
驟@@ 1091
Black@@ 1090
Festival 1090
塚@@ 1090
腈 1090
GI 1089
Steve 1089
asi@@ 1089
摔 1089
撇@@ 1089
穹 1089
膩 1089
anth@@ 1088
楣 1088
镀@@ 1088
顱@@ 1088
297 1087
AE 1087
Chr@@ 1087
ы 1087
峪 1087
缉@@ 1087
蕉@@ 1087
1st 1086
Conn@@ 1086
Eric 1086
Soc@@ 1086
XT 1086
Two 1085
灘@@ 1085
脇 1085
鷺 1084
sh 1083
檐@@ 1083
泪@@ 1083
臥 1083
麼@@ 1083
吵@@ 1082
茛@@ 1082
蘊 1082
璘 1081
EMI 1080
Lev@@ 1080
丐 1080
颅@@ 1080
Aut@@ 1079
don@@ 1079
ington 1079
ule 1079
槭 1079
425 1078
幽 1078
曜@@ 1078
蕈 1078
鋸 1078
閑 1078
Tan@@ 1077
恺 1077
鐮@@ 1077
钓 1077
Nov@@ 1076
蔑@@ 1076
Bir@@ 1075
媳@@ 1075
FL 1074
緋@@ 1074
婉 1073
醬@@ 1073
Pap@@ 1072
Studios 1072
蚜 1072
髓@@ 1072
Central 1071
汛 1071
鮭@@ 1071
355 1070
HD@@ 1070
RN@@ 1070
less 1070
佬@@ 1070
IF 1069
Management 1069
³ 1069
谜@@ 1069
Acc@@ 1068
Cin@@ 1068
Ram@@ 1068
ech 1068
瀕 1068
競 1068
厌 1067
暈 1067
Cel@@ 1066
our@@ 1066
ч 1066
DL@@ 1065
ø 1065
贻@@ 1065
GC 1064
Place 1064
ser 1064
モ 1064
揭 1064
褲@@ 1064
Dance 1063
SG 1063
Systems 1063
А 1063
瑕@@ 1063
竺@@ 1063
诽@@ 1063
Bon@@ 1062
狡@@ 1062
涨@@ 1061
玖 1061
褐 1061
迥@@ 1061
Ra@@ 1060
cur@@ 1060
巒 1060
愤 1060
暮 1060
漱@@ 1060
猝@@ 1060
1628 1059
Key 1059
Pierre 1059
滥 1059
瞳@@ 1059
荊 1059
镰@@ 1059
Gro@@ 1058
loc@@ 1058
ē 1058
帅@@ 1058
搜 1058
赚@@ 1058
USS 1057
晷 1057
STS 1056
sol@@ 1056
宦 1056
蔓 1056
sy@@ 1055
凑 1055
喘 1055
櫸 1055
Box 1054
Design 1054
sen@@ 1054
峭@@ 1054
邂@@ 1054
鹉 1054
1785 1053
梢 1053
藜 1053
1630 1052
焉@@ 1052
绛 1052
Sky 1051
yan@@ 1051
dium 1049
res 1049
蔻 1049
1784 1048
Arch@@ 1048
cin@@ 1048
刮 1048
昊@@ 1048
］ 1048
HA 1047
ader 1047
扔@@ 1047
祷@@ 1047
酱@@ 1047
ven@@ 1046
肾 1046
逅 1046
颁 1046
az 1045
扈@@ 1045
鞅 1045
鹛 1044
354 1043
BP 1043
Kan@@ 1043
哩@@ 1043
胱 1043
＝ 1043
懲 1042
邕 1042
Kal@@ 1041
bar 1041
咕@@ 1041
咽 1041
Poly@@ 1040
aster 1040
惰@@ 1040
［ 1040
Blo@@ 1039
Football 1039
Men@@ 1039
П 1039
婪 1039
碲 1039
鈕@@ 1039
麝@@ 1039
elli 1038
潼 1038
Ben 1037
Dre@@ 1037
Yah@@ 1037
other 1037
sel@@ 1037
ū 1037
办事@@ 1037
踞 1037
銃 1037
鳃 1037
Tal@@ 1036
豌@@ 1035
頤 1035
叟 1034
碾@@ 1034
輿 1034
1631 1033
1661 1033
356 1033
get 1033
ther@@ 1033
ture 1033
嘧@@ 1033
Mont@@ 1032
Om@@ 1032
و 1032
AO 1031
1636 1030
Bos@@ 1030
ici@@ 1030
onia 1030
Kit@@ 1029
壠 1029
笋 1029
羹 1029
萍@@ 1029
1521 1028
罄 1028
su 1027
Δ 1027
1601 1026
UK@@ 1026
stein 1026
unc@@ 1026
ze 1026
せ 1026
曇 1026
Bob 1025
Je@@ 1025
懈 1025
纤 1025
蓉@@ 1025
Si 1024
Van 1024
ume 1024
NC 1023
蝗@@ 1023
1565 1022
1616 1022
PO 1022
active 1022
溜 1022
煦 1022
贮@@ 1022
夸 1021
柿@@ 1021
蜆 1021
谤 1021
貪 1020
Pop 1019
巅@@ 1019
泾 1019
bian 1018
瘤@@ 1018
韧@@ 1018
Out 1017
gl@@ 1017
into 1017
戳 1017
炫 1017
炯 1017
疟@@ 1017
瞒 1017
诅@@ 1017
鼐 1017
1603 1016
Edge 1016
Song 1016
ond@@ 1016
yond 1016
錨 1016
Bat@@ 1015
勖 1015
卦@@ 1015
挣@@ 1015
毛泽@@ 1015
1786 1014
395 1014
Su 1014
gen 1014
tions 1014
斡 1014
渾 1014
脷 1013
菸@@ 1013
隍@@ 1013
chin@@ 1012
had 1012
xi@@ 1012
睐 1012
Che@@ 1011
GN@@ 1011
瓚 1011
絃 1011
蚓 1011
诃 1011
1620 1010
Bit@@ 1010
She@@ 1010
kW 1010
嗽 1010
蚌 1010
Light 1009
Marie 1009
Sof@@ 1009
form@@ 1009
mor@@ 1009
tra@@ 1008
弁 1008
枣 1008
諦 1008
遐@@ 1008
District 1007
ele 1007
衢 1007
鄴 1007
鎬 1007
BR@@ 1006
缉 1006
襟 1006
К 1005
噁 1005
樊 1005
cus 1004
ko@@ 1004
ski 1004
Ak@@ 1003
晝@@ 1003
桁@@ 1003
Uni@@ 1002
mu@@ 1002
sky 1002
悠 1002
谿 1002
鲤 1002
1643 1001
pol@@ 1001
椿@@ 1001
氙 1001
醋@@ 1001
钞@@ 1001
Sam 1000
拮@@ 1000
耽@@ 1000
蚜@@ 1000
1772 999
CON@@ 999
mail 999
垒@@ 999
轩@@ 999
192@@ 998
County 998
ely 998
ga 998
rec@@ 998
嘌@@ 998
弛 998
抖@@ 998
WT@@ 997
壢@@ 997
聿@@ 997
陕 997
WH@@ 996
lat@@ 996
will 996
賑@@ 996
軀@@ 996
Ker@@ 995
dit 995
滘 995
code 994
Loc@@ 993
ins@@ 993
top 993
苛 993
Bus@@ 992
Dar@@ 992
Ham@@ 992
Pa@@ 992
宙 992
嵐@@ 992
掏@@ 992
矗@@ 992
蠶@@ 992
貳 992
1760 991
BW@@ 991
ail@@ 991
nan@@ 991
瞳 991
蜓 991
1577 990
cat@@ 990
des@@ 990
vol@@ 990
寸@@ 990
蚂@@ 990
ies 989
val@@ 989
Prim@@ 988
Rom@@ 988
抉@@ 988
TT@@ 987
菠@@ 987
锑 987
髏 987
Ray 986
č 986
Dream@@ 985
Johnson 985
ebook 985
螞@@ 985
1624 984
Sav@@ 984
ality 984
cc 984
1763 983
恥@@ 983
祗 983
Il@@ 982
LM 982
Public 982
Tak@@ 982
enc@@ 982
her 982
訥@@ 982
1781 981
Law 981
fer 981
绅@@ 981
鍛@@ 981
鏞 981
art@@ 980
Disney 979
oi 979
ub@@ 979
杵 979
衙 979
鎳 979
鮑 979
鹵@@ 979
343 978
Bet@@ 978
Class 978
幂 978
桔@@ 978
蒴@@ 978
Stephen 977
图书@@ 977
窘@@ 977
訣 977
閔 977
UE@@ 976
ost 976
谏@@ 976
opter@@ 975
1610 974
1619 974
195@@ 974
336 974
BMW 974
Block 974
舆 974
1642 973
Pop@@ 973
ny@@ 973
爛@@ 973
yl 972
媳 972
谍@@ 972
霑 972
326 971
亳@@ 971
塊@@ 971
釁 971
Alpha 970
British 970
air 969
red 969
挨@@ 969
籲@@ 969
胱@@ 969
鱨 969
Coun@@ 968
ゆ 968
嚼 968
岚 968
浓 968
Children 966
Foundation 966
yi 966
巾@@ 966
泻 966
燧 966
棧 965
餚 965
Fri@@ 964
len@@ 964
their 964
娠 964
浆@@ 964
鑫@@ 964
Fil@@ 963
Pa 963
number 963
ICA@@ 962
May@@ 962
Story 962
璧@@ 962
ust 961
倚 961
悍@@ 961
憐 961
Cle@@ 960
怜 960
悶 960
Last 959
alm@@ 959
reg@@ 959
where 959
彷 959
Arthur 958
Sig@@ 958
try 958
1615 957
337 957
Ali@@ 957
Player 957
Post@@ 957
sal@@ 957
澡 957
鑣 957
馥 957
Rub@@ 956
ika 956
while 956
慌@@ 956
昇@@ 956
Film 955
aka 955
size 955
壘@@ 955
旷@@ 955
獾 955
酐 955
鱲 955
Williams 954
ual 954
弔 954
灸 954
眠@@ 954
1618 953
ier 953
薔@@ 953
Final 952
cer@@ 952
struc@@ 952
惑@@ 951
掩 951
敲 951
洵 951
狠@@ 951
邮政@@ 951
HF 950
cape 950
箔 950
雾@@ 950
＆ 950
DT 949
Tu@@ 949
air@@ 949
den@@ 949
Fire 948
UM 948
aurus 948
bun@@ 948
枋@@ 948
碌 948
1590 947
406 947
Roc@@ 947
acc@@ 947
tro 947
俞 947
疚 947
龐 947
332 946
Academy 946
UC 946
ova 946
咀@@ 946
捆 946
幔 945
铂 945
鳄 945
1.5@@ 944
tar@@ 944
帘 944
貂@@ 944
迂@@ 944
酿 944
隘@@ 944
folia 943
una 943
Techn@@ 942
tem@@ 942
з 942
岚@@ 942
Jones 941
Tai@@ 941
ado 941
兑 941
ck 940
篆 940
馀 940
sim@@ 939
М 939
壩@@ 939
彧 939
Mini 938
pan@@ 938
圩@@ 938
昀 938
柑 938
瓯 938
诛 938
char@@ 937
炱 937
礫@@ 937
繹@@ 937
肴 937
1730 936
Cro@@ 936
ae@@ 936
cre@@ 936
纖 936
Name 935
Pin@@ 935
body 935
В 935
1627 934
1774 934
Band 934
Show@@ 934
侷 934
bal@@ 933
鸽 933
1604 932
Queen 932
also 932
酥 932
Cop@@ 931
Ju@@ 931
ful 931
咲@@ 931
娑 931
巽@@ 931
1585 930
Fam@@ 930
Moon 930
Up@@ 930
WHO 930
ŋ 930
祚@@ 930
驼@@ 930
415 929
atic 929
ern@@ 929
俟 929
渔 929
Wat@@ 928
栢 928
爷@@ 928
粱 928
菴 928
鑾 928
闍 928
Jac@@ 927
犹 927
窦 927
Pur@@ 926
ines 926
剃 926
璉 926
筏 926
SO 925
group 925
1683 924
ie@@ 924
弋@@ 924
綾 924
虢 924
褶 924
Earth 923
ID@@ 923
Pix@@ 923
ı 923
1609 922
Hotel 922
PI@@ 922
偃@@ 922
冥 922
淦 922
狩 922
瘧@@ 922
葱@@ 922
鴞 922
ros@@ 920
惧@@ 920
袜 920
1782 919
194@@ 919
叩@@ 919
恨@@ 919
戦 919
Edition 918
like 918
tica 918
｢ 918
Control 917
Lab@@ 917
care 917
etta 917
弩@@ 917
賤@@ 917
1634 916
Bridge 916
pel@@ 916
棟@@ 916
１ 916
Let 915
浇@@ 915
睢@@ 915
祐@@ 915
諺@@ 915
Lord 914
Nic@@ 914
main 914
zi@@ 914
咎@@ 914
熏@@ 914
腱 914
蕙@@ 914
VV@@ 912
box 912
ど 912
寰@@ 912
汞@@ 912
PT 911
pha 911
粪@@ 911
1559 910
196@@ 910
EL 910
bul@@ 910
out@@ 910
呆@@ 910
扳 910
碍@@ 910
Mos@@ 909
ham 909
lock 909
Jim 908
On@@ 908
ste@@ 908
歆 908
珩 908
脩 908
铯 908
飆@@ 908
鰨 908
hr@@ 907
瀨 907
踩@@ 907
Beau@@ 906
Elec@@ 906
ani@@ 906
cap@@ 906
ille 906
value 906
yo@@ 906
闵 906
骠@@ 906
Avenue 905
God 905
chi 905
ger@@ 905
phy@@ 905
歪 905
泮@@ 905
1723 904
EF 904
list 904
紓 904
綬 904
绢 904
鶯@@ 904
AH 903
App@@ 903
GR@@ 903
So 903
嘔@@ 903
林匹@@ 903
柜@@ 903
1660 902
California 902
栾@@ 902
箏 902
193@@ 901
Oc@@ 901
sson 901
筍 901
醍@@ 901
釣 901
Rho@@ 900
att@@ 900
懶 900
Lar@@ 899
睽 899
酯@@ 899
靴@@ 899
驴 899
lig@@ 898
vel@@ 898
厥@@ 898
lam@@ 897
oth 897
pal@@ 897
枋 897
砾@@ 897
秧@@ 897
蚊 897
袞 897
Pic@@ 896
Sen@@ 896
men 896
抖 896
蜈@@ 896
鵑 896
傢 895
摊@@ 895
轰 895
Dragon 894
xx 894
墅@@ 894
胁@@ 894
芋@@ 894
轭 894
1680 893
Taylor 893
amm@@ 893
ams 893
sw@@ 893
霄@@ 893
Business 892
Pu@@ 892
micro@@ 892
寢 892
槿@@ 892
軀 892
isa 891
low@@ 891
帚 891
轅 891
1595 890
1779 890
History 890
Hon@@ 890
vir@@ 890
棵@@ 890
蜍 890
嶄@@ 889
珈 889
纥 889
185@@ 888
Fe 888
dic@@ 888
憬 888
蜻@@ 888
遶 888
1556 887
Walter 887
ody 887
Д 887
喵 887
囉 887
骰@@ 887
Zo@@ 886
ania 886
oid 886
only 886
ب 886
俚@@ 886
嬌@@ 886
槓@@ 886
舫 886
醐 886
隈 886
Tol@@ 885
idi@@ 885
under@@ 885
廍 885
慄 885
旻 885
螃@@ 885
May 884
Mid@@ 884
匕@@ 884
荚 884
醴@@ 884
諏 883
鱈@@ 883
BT@@ 882
Baby 882
Simon 882
iy@@ 882
381 881
KO 881
ault 881
辍@@ 881
1662 880
States 880
USA 880
bert 880
iro 880
ux 880
赈@@ 880
頁@@ 880
erry 879
not@@ 879
剋 879
叹@@ 879
噩@@ 879
烴 879
耻@@ 879
Plan@@ 878
Vita 878
log@@ 878
狠 878
讞 878
谔 878
鄙@@ 878
1755 877
cas@@ 877
悌 877
蚣 877
fi@@ 876
head 876
zi 876
恂 876
晒 876
讶 876
186@@ 875
Hem@@ 875
Mod@@ 875
劭 875
卅 875
滔 875
腻 875
菏@@ 875
Sk@@ 874
esa 874
懇@@ 874
榨@@ 874
焯 874
甄 874
钚 874
NFL 873
lie 873
媲@@ 873
浚@@ 873
蝉@@ 873
賊@@ 873
鰂 873
Talk 872
桦@@ 872
澍 872
鸥 872
1612 871
CB 871
ush 871
via 871
攸 871
钡 871
1517 870
Back 870
gre@@ 870
綺 870
貂 870
dings 869
ev 869
iko 869
噶 869
爹 869
螳@@ 869
이 869
Sem@@ 868
ple@@ 868
ゅ 868
ェ 868
佯@@ 868
儁 868
眺@@ 868
辈@@ 868
Ath@@ 867
Get@@ 867
寢@@ 867
煒 867
Fer@@ 866
Jackson 866
PD@@ 866
奠 866
芎 866
酉@@ 866
Operation 865
oper@@ 865
£ 865
嘻 865
弋 865
彿 865
螢 865
郢 865
1547 864
Anim@@ 864
Est@@ 864
Like 864
List 864
frame 864
house 864
晕 864
瀚@@ 864
矫@@ 864
賤 864
Can 863
Li 863
Ma 863
Times 863
ami 863
ave@@ 863
桔 863
漁 863
瀧 863
驊 863
Alex 862
Long 862
SV 862
怠@@ 862
昴 862
靼@@ 862
bin@@ 861
凿@@ 861
瑭 861
貯@@ 861
187@@ 860
then 860
1250 859
Voc@@ 859
嬅 859
磅@@ 859
蛹 859
Adv@@ 858
ection 858
襟@@ 858
镖 858
Arc@@ 857
Land 857
UK 857
igo 857
釗 857
Metro 856
Stre@@ 856
than 856
they 856
宥 856
洒 856
BB@@ 855
Ev@@ 855
Way 855
arch@@ 855
uli@@ 855
ć 855
仄 855
侈@@ 855
墊@@ 855
栅 855
1637 854
1701 854
ady 854
aft 854
else 854
ho 854
ノ 854
歹@@ 854
氐 854
熬 854
瓮@@ 854
顫@@ 854
OR 853
Who 853
pen@@ 853
喧@@ 853
1773 852
Kon@@ 852
works 852
Chap@@ 851
Kids 851
Kn@@ 851
Link 851
itz 851
point 851
put 851
寝@@ 851
鮃 851
English 850
Happy 850
mel@@ 850
ョ 850
1607 849
Old 849
Sec@@ 849
With 849
ois 849
嫖@@ 849
漳 849
Development 848
ł 848
颐 848
Alan 847
Albert 847
Beta 847
Cour@@ 847
uri 847
uy@@ 847
隕 847
After 846
tel@@ 846
溺 846
焙 846
茫 846
Cloud 845
Stu@@ 845
dis 845
mal@@ 845
そ 845
庠 845
烦@@ 845
鸾 845
Bus 844
Wilson 844
eter 844
osh 844
謚 844
Karl 843
Phot@@ 843
tig@@ 843
絨@@ 843
覃@@ 843
詣 843
諜@@ 843
轼 843
Ari@@ 842
bi 842
bur@@ 842
ren@@ 842
ツ 842
卞@@ 842
诡@@ 842
黍 842
1569 841
1765 841
｣ 841
European 840
Sup@@ 840
aux 840
model 840
沧 840
179@@ 839
451 839
And@@ 839
Voice 839
cho 839
ide 839
窟@@ 839
锤@@ 839
Liv@@ 838
ster@@ 838
thi@@ 838
Audi@@ 837
Sum@@ 837
acy 837
aro 837
iti@@ 837
姦@@ 837
葦 837
1771 836
map 836
堇@@ 836
痴 836
胚 836
雯@@ 836
2.0@@ 835
cli@@ 835
ert 835
蛟 835
Fol@@ 834
Tony 834
ail 834
kar@@ 834
ome@@ 834
small 834
sus 834
尷@@ 834
畲@@ 834
Mari@@ 833
West@@ 833
action 833
oz@@ 833
峒 833
榷 833
涸 833
log 832
巍 832
戸 832
诵@@ 832
輟@@ 832
197@@ 831
Bol@@ 831
Kur@@ 831
ado@@ 831
掸@@ 831
攘@@ 831
濑@@ 831
颅 831
鮠 831
Carl 830
KS 830
妄 830
欺 830
罂@@ 830
躋@@ 830
鴿@@ 830
鹭 830
WC 829
誦@@ 829
谅@@ 829
1535 828
1740 828
Rock@@ 828
Tam@@ 828
act@@ 828
哔@@ 828
婁 828
屁@@ 828
Hay@@ 827
Mes@@ 827
asa 827
sive 827
ワ 827
亘 827
烛 827
184@@ 826
Francis 826
ability 826
mag@@ 826
夭 826
幺 826
蚀@@ 826
酪@@ 826
锺 826
Kim 825
any 825
tw@@ 825
俑 825
塹 825
簾 825
KA 824
Trav@@ 824
躬 824
EE 823
ci 823
1762 822
bs 822
gar@@ 822
wan@@ 822
★ 822
ゃ 822
囪 822
柿 822
稼@@ 822
莪@@ 822
1649 821
ier@@ 821
sey 821
乖@@ 821
菈 821
錘@@ 821
Sunday 820
olo@@ 820
敍 820
飄 820
1560 819
Hom@@ 819
Samuel 819
ship 819
ye@@ 819
æ 819
娶@@ 819
瓘 819
骏@@ 819
len 818
漯@@ 818
秤 818
簇@@ 818
蠍@@ 818
Lor@@ 817
eck 817
Å 817
腋@@ 817
Brian 816
皱@@ 816
镐 816
Laur@@ 815
amework 815
ear@@ 815
hol@@ 815
婷@@ 815
盂 815
People 814
bor@@ 814
min 814
town 814
υ 814
菀 814
賬@@ 814
鲍 814
1720 813
1736 813
1748 813
Next 813
Ther@@ 813
蒐 813
Bab@@ 812
End 812
RD 812
娣 812
翟 812
map@@ 811
ther 811
咲 811
擎@@ 811
镍@@ 811
1629 810
Ep@@ 810
Touch 810
Т 810
扈 810
沔@@ 810
竇 810
蟻@@ 810
Kevin 809
蟠@@ 809
1769 808
Fle@@ 808
Good@@ 808
Yo@@ 808
奥林匹克@@ 808
悬 808
赎 808
188@@ 807
ham@@ 807
尻@@ 807
ever 806
orum 806
worth 806
縻 806
赓 806
Cir@@ 805
Just 805
Year 805
Р 805
堀 805
奚 805
恪@@ 805
猖@@ 805
Patrick 804
Real 804
ate@@ 804
巽 804
掾 804
漾 804
邕@@ 804
Will 803
aki 803
enn@@ 803
喃@@ 803
懶@@ 803
榻 803
189@@ 802
2nd 802
estr@@ 802
啄@@ 802
壕@@ 802
歎 802
瑁 802
1757 801
Gor@@ 801
Land@@ 801
Library 801
蓓@@ 801
谬 801
dec@@ 800
mas@@ 800
nes 800
ote 800
usa 800
杓 800
毎 800
泗 800
盼@@ 800
砷@@ 800
邃 800
Ki 799
Vic@@ 799
ants 799
墮 799
1651 798
煌@@ 798
fil@@ 797
啉 797
蛟@@ 797
鮫 797
1450 796
Eu@@ 796
Leg@@ 796
hp 796
1724 795
Sab@@ 795
eth 795
劈 795
甾@@ 795
Cha@@ 794
ɛ 794
夯@@ 794
甩@@ 794
遽 794
Clar@@ 793
ective 793
vi 793
≤ 793
柘@@ 793
das 792
坛@@ 792
釧 792
摊 791
芭 791
NR@@ 790
include 790
恬 790
愉 790
懺@@ 790
湃 790
Hot@@ 789
Pot@@ 789
dor@@ 789
呕@@ 789
帷@@ 789
躯@@ 789
侏 788
勐 788
Ha 787
Lisa 787
渴 787
1756 786
ca@@ 786
摒@@ 786
燭@@ 786
Adam 785
iller 785
yd@@ 785
癡 785
闪 785
Bad 784
That 784
佚@@ 784
憧@@ 784
焊 784
籬 784
褫@@ 784
1689 783
戌@@ 783
浣@@ 783
鳌 783
En 782
Magic 782
anthus 782
ech@@ 782
fol@@ 782
垢 782
崭@@ 782
music 781
ological 781
嶠 781
Kor@@ 780
mus@@ 780
pedia 780
ton@@ 780
仗@@ 780
Fac@@ 779
Rose 779
Zero 779
ery 779
轿 779
陂@@ 779
Au@@ 778
bel@@ 778
紊@@ 778
鮡 778
1688 777
Opera 777
Valley 777
ature 777
栎 777
璿 777
1623 776
惶@@ 776
Proc@@ 775
Ruby 775
pic 775
呋@@ 775
牟 775
禿 775
虱 775
Over@@ 774
fin@@ 774
pur@@ 774
ulu 774
灿@@ 774
缠 774
萩@@ 774
钵 774
1727 773
tional 773
嫦@@ 773
寥@@ 773
琊 773
迥 773
1745 772
癲@@ 772
Family 771
ago 771
til@@ 771
ves 771
岌@@ 771
拥 771
涡 771
翘 771
鍛 771
1670 770
1758 770
Lon@@ 770
Market 770
Rot@@ 770
Tit@@ 770
og 770
缕 770
Nokia 769
Pacific 769
Pseud@@ 769
Rev@@ 769
apo@@ 769
罔@@ 769
虾@@ 769
貽@@ 769
1764 768
1768 768
Miss 768
Services 768
oll@@ 768
ward 768
杲 768
泓 768
瀬 768
煬@@ 768
鏗 768
Education 767
Jason 767
讼@@ 767
闰@@ 767
1635 766
Ryan 766
WW@@ 766
ency 766
丢 766
剎 766
祀@@ 766
苟 766
铲@@ 766
鳄@@ 766
Dro@@ 765
Tim 765
cell 765
uk 765
岖 765
择 765
萝 765
鄚 765
霾 765
Comp@@ 764
Div@@ 764
Fu@@ 764
Wol@@ 764
佼@@ 764
鈺 764
Pay@@ 763
Under 763
ide@@ 763
print@@ 763
唆 763
恼 763
暹 763
蕪 763
.. 762
Cros@@ 762
gs 762
悚 762
珥 762
ava 761
rot@@ 761
tho@@ 761
yo 761
ㄧ 761
嵊@@ 761
洄@@ 761
狹 761
鯙 761
Golden 760
mil@@ 760
帑 760
漪 760
稔 760
蛭 760
1667 759
Cyc@@ 759
囱 759
榭 759
祈 759
鳖 759
UB@@ 758
瑠@@ 758
鐸@@ 758
Gil@@ 757
Vis@@ 757
ih@@ 757
愍 757
馨@@ 757
Dan 756
Harry 756
pei 756
兌 756
燊 756
颚 756
BM 755
拂 755
痊 755
絹 755
剷 754
摹 754
秉 754
筝 754
1526 753
lum 753
摯@@ 753
ational 752
搅@@ 752
涩 752
硤 752
礫 752
鉑 752
1626 751
1735 751
1759 751
ilis 751
nam@@ 751
title 751
瑗 751
禿@@ 751
谒 751
Collection 750
Deb@@ 750
Dom@@ 750
Lim@@ 750
tis@@ 750
栩@@ 750
汁@@ 750
綵 750
肱@@ 750
軾 750
颌@@ 750
Are 749
endron 749
px 749
浊@@ 749
漲@@ 749
穢 749
芹@@ 749
1597 748
Hil@@ 748
Stadium 748
Tower 748
aun@@ 748
plex 748
sil@@ 748
吩@@ 748
绶 748
蒜@@ 748
鉅@@ 748
Amazon 747
ein 747
ば 747
孽 747
嵇@@ 747
耘 747
酥@@ 747
MIT 746
Na 746
ご 746
乩 746
拘 746
曠@@ 746
琬 746
瑕 746
镉 746
Angel 745
Soul 745
hal@@ 745
ʰ 745
疽 745
Camp@@ 744
anna 744
ws 744
勅 744
瑋@@ 744
聾 744
1606 743
Stage 743
Victor 743
Whit@@ 743
tual 743
砾 743
綏 743
羯 743
臚 743
Gh@@ 742
砦 742
羨@@ 742
込 742
霓@@ 742
Social 741
pres@@ 741
print 741
懦@@ 741
栈@@ 741
渎 741
蝰 741
酌 741
釘@@ 741
1767 740
But@@ 740
Port 740
Reb@@ 740
oro 740
zo@@ 740
蚕 740
蛾@@ 740
邈 740
镓 740
髦 740
pes 739
闾 739
鸽@@ 739
Alice 738
Pad@@ 738
Rh@@ 738
ids 738
long 738
under 738
戡@@ 738
楹 738
瀆 738
灼 738
荨@@ 738
餡@@ 738
Prince 737
wal@@ 737
桦 737
1752 736
Din@@ 736
Ka@@ 736
ols 736
ow 736
word 736
裘 736
贛 736
韜 736
Sound 735
ald 735
ial 735
嚨 735
擱 735
梟 735
矶@@ 735
粘 735
缪 735
钒 735
Nar@@ 734
巍@@ 734
梳 734
鐮 734
钯 734
颐@@ 734
Die 733
Main 733
Premi@@ 733
Vil@@ 733
ず 733
苇 733
Capital 732
Dic@@ 732
Samsung 732
View 732
illy 732
ister 732
ll 732
ush@@ 732
傻 732
喘@@ 732
跻@@ 732
1572 731
Mand@@ 731
Not 731
Pel@@ 731
lev@@ 731
nh@@ 731
rey 731
tex 731
Ⅰ 731
涟@@ 731
畹@@ 731
BI 730
def 730
繇 730
茴@@ 730
釐@@ 730
Ing@@ 729
績@@ 729
钙@@ 729
Bo 728
Jan@@ 728
Ret@@ 728
V8 728
max 728
钨 728
1633 727
Dam@@ 727
Friedrich 727
H.@@ 727
NH 727
los 727
檜 727
祁 727
Beg@@ 726
Dakota 726
ew@@ 726
life 726
lower 726
ones 726
د 726
س 726
澹 726
bas@@ 725
蕴 725
顗 725
Am 724
Dark 724
Take 724
eman 724
晞 724
Bar 723
pi 723
喂@@ 723
齦 723
Aer@@ 722
Pil@@ 722
dan 722
icum 722
戟@@ 722
賠 722
餌 722
Level 721
Van@@ 721
app 721
oke 721
ori 721
pa@@ 721
ζ 721
尻 721
炙@@ 721
荠 721
钉@@ 721
鹊 721
1555 720
1659 720
掺@@ 720
隧 720
Bri@@ 719
Cli@@ 719
Cross 719
Department 719
ais 719
char 719
met@@ 719
orus 719
セ 719
儸 719
捻 719
湟@@ 719
疼 719
鍍 719
Gold@@ 718
Information 718
Py@@ 718
ites 718
蘋 718
颌 718
uv@@ 717
啮@@ 717
嘯@@ 717
骥 717
Max@@ 716
PN@@ 716
sis 716
暈@@ 716
様 716
燁 716
1540 715
Jane 715
Ken 715
uma 715
µ 715
亢 715
薊@@ 715
1632 714
And 714
Fair@@ 714
eph@@ 714
kr@@ 714
恃 714
捣@@ 714
滸@@ 714
璨 714
鈺@@ 714
1733 713
Bou@@ 713
Zone 713
nig@@ 713
俐 713
癸 713
Hen@@ 712
eti@@ 712
ine@@ 712
ui 712
俭@@ 712
Kiss 711
mod@@ 711
thr@@ 711
using 711
瘡 711
祜@@ 711
鷺@@ 711
1652 710
Davis 710
Mis@@ 710
Sport 710
ink 710
壬 710
沭@@ 710
漿@@ 710
燮@@ 710
瞄 710
诲 710
鱧 710
1664 709
Bud@@ 709
ʁ 709
嬪@@ 709
晟@@ 709
獺 709
羲@@ 709
颊 709
France 708
Map@@ 708
ots 708
sor@@ 708
哮@@ 708
垩@@ 708
涇@@ 708
1728 707
Pul@@ 707
琐 707
迂 707
邢 707
锚 707
驍@@ 707
By@@ 706
Ky@@ 706
Oh 706
PF 706
Women 706
ime 706
view 706
犍 706
肽@@ 706
1684 705
Anthony 705
Base 705
Gir@@ 705
Juan 705
Unit 705
ign@@ 705
ties 705
恳@@ 705
陇 705
opo@@ 704
匐 704
妒@@ 704
痘 704
絶 704
羔@@ 704
豎 704
鄙 704
釷 704
钼 704
镛 704
Elizabeth 703
Human 703
been 703
isi@@ 703
love 703
嚕 703
缆@@ 703
Bio@@ 702
Lewis 702
hin@@ 702
osus 702
忏@@ 702
痺 702
衅 702
1654 701
1725 701
Committee 701
Health 701
ante 701
eria 701
偃 701
娄 701
屡 701
蒯@@ 701
蜡 701
閏@@ 701
鰲 701
Ren@@ 700
aff@@ 700
vers 700
綦@@ 700
萸 700
饿@@ 700
Cryp@@ 699
Prix 699
Sym@@ 699
sing 699
val 699
恺@@ 699
撐@@ 699
1655 698
1713 698
Computer 698
Fran@@ 698
Pon@@ 698
Spir@@ 698
kins 698
live 698
ories 698
Б 698
淅@@ 698
漬 698
Ay@@ 697
Jay 697
Tech@@ 697
wh@@ 697
旻@@ 697
罩@@ 697
Dun@@ 696
Hyper@@ 696
Mik@@ 696
Nu@@ 696
iri 696
isti@@ 696
栽 696
糙@@ 696
胭@@ 696
Theatre 695
Ze@@ 695
ror 695
匍@@ 695
悄 695
柵 695
汙 695
淖@@ 695
辻@@ 695
1350 694
Kat@@ 694
Tran@@ 694
augh@@ 694
х 694
胪 694
茗 694
space 693
婕 693
恙 693
瘟 693
1721 692
Anna 692
Arti@@ 692
Christopher 692
Den@@ 692
Division 692
shell 692
嘅 692
媚@@ 692
烂@@ 692
迄 692
钰 692
鳍@@ 692
Bom@@ 691
ute 691
yer 691
槛 691
浒@@ 691
熾@@ 691
ARC 690
Standard 690
ett@@ 690
rent 690
汛@@ 690
痰 690
竿@@ 690
茫@@ 690
鈸 690
Board 689
Vit@@ 689
ket@@ 689
men@@ 689
壺@@ 689
渭 689
珅 689
璠 689
盏 689
砵 689
铋 689
麓@@ 689
HMS 688
Philip 688
je 688
峠 688
漩 688
玫 688
Da@@ 687
Jo 687
NY 687
score 687
婕@@ 687
恤@@ 687
沅 687
荀 687
1707 686
1761 686
Blu@@ 686
Imag@@ 686
ami@@ 686
侗 686
铊 686
锗 686
1638 685
Mount 685
Sea 685
parent 685
wan 685
1754 684
Boy@@ 684
Raw 684
aci@@ 684
trix 684
咄@@ 684
尴@@ 684
峴 684
溉@@ 684
滬 684
澗 684
Wood@@ 683
istr@@ 683
ox@@ 683
vo 683
冉 683
潇@@ 683
窪@@ 683
Kam@@ 682
aa 682
hat@@ 682
瓣@@ 682
輻 682
铨 682
靺 682
han 681
orn 681
苴 681
Miller 680
after 680
html 680
乍 680
1766 679
cop@@ 679
next 679
ron 679
Ⅲ 679
嗪 679
嵯@@ 679
掖@@ 679
acle 678
eth@@ 678
kin@@ 678
熹@@ 678
瑣@@ 678
Meth@@ 677
Stone 677
ask@@ 677
tim@@ 677
water 677
wer@@ 677
榈 677
瀾@@ 677
盞 677
鐳 677
陲 677
Roger 676
by@@ 676
tom 676
used 676
俺 676
Band@@ 675
Chem@@ 675
Gaga 675
aus 675
book 675
fa@@ 675
ネ 675
揣@@ 675
榈@@ 675
郢@@ 675
頗@@ 675
1751 674
1753 674
Dur@@ 674
Wa@@ 674
ogo 674
uf@@ 674
灑@@ 674
缸@@ 674
駒@@ 674
NY@@ 673
Part 673
alan 673
ji@@ 673
娼 673
闫@@ 673
鞨 673
鱺 673
How 672
Pascal 672
栋@@ 672
皺 672
祜 672
酌@@ 672
鈣@@ 672
Paris 671
anum 671
偈 671
眺 671
窪 671
笹@@ 671
荻@@ 671
萤@@ 671
Donald 670
Hans 670
Haw@@ 670
Maj@@ 670
Pit@@ 670
err@@ 670
ild 670
jo 670
pul@@ 670
彪@@ 670
1729 669
Da 669
ibn 669
tier 669
勺 669
臧 669
荔 669
鰺 669
1690 668
EB@@ 668
Gun@@ 668
bis 668
height 668
mis@@ 668
澧@@ 668
Dou@@ 667
Off@@ 667
Over 667
alb@@ 667
ond 667
tel 667
wo@@ 667
颓@@ 667
駙@@ 667
Dynam@@ 666
Lind@@ 666
Tas@@ 666
test 666
Н 666
啞@@ 666
槽@@ 666
酶@@ 666
itor 665
je@@ 665
ont@@ 665
vin 665
俏@@ 665
啼@@ 665
炽@@ 665
珞@@ 665
盱@@ 665
阇 665
馭 665
1520 664
CIA 664
From 664
Matt 664
Rab@@ 664
Tech 664
arch 664
bri@@ 664
lon 664
state 664
偵 664
嘲 664
墻 664
慨@@ 664
栱 664
烙@@ 664
鍍@@ 664
Garden 663
炬@@ 663
蘚@@ 663
1658 662
Allen 662
Coc@@ 662
eh 662
entr@@ 662
幀 662
皱 662
钧@@ 662
Bug@@ 661
Key@@ 661
Log@@ 661
SQ@@ 661
af 661
ather 661
enger 661
qui@@ 661
ulus 661
ump@@ 661
zo 661
嵴 661
榘 661
炙 661
鑼 661
1492 660
Aur@@ 660
Ka 660
RCA 660
uck 660
亟@@ 660
沐 660
瘠 660
绰 660
荖 660
菓 660
蝗 660
BK 659
Enterprise 659
SB@@ 659
玠 659
骤@@ 659
1530 658
Bad@@ 658
Rus@@ 658
poly@@ 658
亢@@ 658
昱@@ 658
灿 658
Jan 657
onn@@ 657
ony 657
ort 657
tre 657
炜 657
cho@@ 656
emb@@ 656
hop 656
iga 656
rit@@ 656
怜@@ 656
珏 656
羥@@ 656
鸫 656
1453 655
1525 655
Common 655
Re 655
hor@@ 655
onder@@ 655
tory 655
壇@@ 655
専 655
揀 655
癇 655
瞩@@ 655
蟒@@ 655
Days 654
Kab@@ 654
vet 654
Fox 653
Ry@@ 653
垩 653
奭 653
焜 653
1685 652
Big@@ 652
Hand@@ 652
anda 652
cos@@ 652
lip 652
醃 652
Antonio 651
Gold 651
Hit 651
any@@ 651
fal@@ 651
嬴@@ 651
盪@@ 651
饼@@ 651
Chan 650
Fantasy 650
Nam@@ 650
Tree 650
eu@@ 650
熒@@ 650
Francisco 649
Kath@@ 649
Rue 649
Sher@@ 649
pat@@ 649
string 649
佥 649
樱 649
魷@@ 649
service 648
who 648
塭 648
恿 648
苻@@ 648
鲈 648
Howard 647
most 647
tion@@ 647
ァ 647
冪 647
瀘@@ 647
猾 647
琶@@ 647
薈@@ 647
洮 646
茸 646
饵 646
1732 645
hip 645
Г 645
і 645
ほ 645
筷@@ 645
蟑@@ 645
Med@@ 644
Pier@@ 644
Tem@@ 644
Ω 644
襯 644
1641 643
mit@@ 643
ying 643
囤@@ 643
怯 643
柝@@ 643
檜@@ 643
禺@@ 643
窺@@ 643
笨 643
蝨 643
Jer@@ 642
Mega 642
珲@@ 642
蒼 642
豈@@ 642
鸮 642
Anne 641
UV 641
Ven@@ 641
emp@@ 641
leg@@ 641
吓@@ 641
滔@@ 641
澎 641
蹦@@ 641
Carlos 640
ag 640
ider 640
ker@@ 640
tz 640
Σ 640
Victoria 639
Zi@@ 639
ann 639
thumb 639
澂 639
邾 639
1742 638
Bell 638
Dal@@ 638
Dy@@ 638
Sing@@ 638
Wel@@ 638
撑@@ 638
柬 638
矾 638
诣 638
辕 638
锚@@ 638
1731 637
Spec@@ 637
game 637
has@@ 637
庵@@ 637
惨 637
棻 637
瓏 637
窯@@ 637
覲 637
逞 637
陝 637
２ 637
1605 636
Court 636
Dan@@ 636
Dig@@ 636
Get 636
姥@@ 636
甬 636
矚 636
荪 636
Bot@@ 635
Castle 635
Fun@@ 635
Style 635
ays 635
ects 635
И 635
弒 635
恬@@ 635
攪@@ 635
浬 635
Money 634
base 634
order 634
ふ 634
娱 634
Alfred 633
Fro@@ 633
ml 633
own 633
zer 633
า 633
禰 633
臀 633
Arm@@ 632
Call 632
Multi@@ 632
Radi@@ 632
awa 632
sum@@ 632
墩@@ 632
搗@@ 632
聾@@ 632
頡@@ 632
Son@@ 631
Ton@@ 631
tha 631
wer 631
黏 631
å 630
慑 630
殡@@ 630
肼 630
譏@@ 630
邛@@ 630
醌 630
鏟 630
濛 629
酚@@ 629
魟 629
Ali 628
呵@@ 628
扒 628
獗 628
蠡@@ 628
軔 628
Tu 627
lan 627
uz@@ 627
version 627
ц 627
匀@@ 627
匮@@ 627
荻 627
1710 626
Dave 626
equ@@ 626
杠@@ 626
赔 626
鯤 626
las 625
咆@@ 625
嶄 625
1666 624
Boys 624
Hum@@ 624
Los 624
Program 624
bin 624
over@@ 624
tle 624
吡 624
1718 623
Ann@@ 623
XX@@ 623
adi 623
ope 623
泓@@ 623
裨@@ 623
驥 623
1726 622
Building 622
Phys@@ 622
Var@@ 622
aja 622
alism 622
ect@@ 622
yst@@ 622
ボ 622
俳@@ 622
娇 622
怕@@ 622
筵 622
葆 622
1737 621
Action 621
Future 621
Mill@@ 621
Plaza 621
Wan@@ 621
榛 621
蒨 621
邠 621
鵜@@ 621
1722 620
aba 620
elec@@ 620
mp@@ 620
湮@@ 620
甕 620
蠟 620
醛@@ 620
馱 620
1611 619
Ass@@ 619
Gol@@ 619
Ho 619
∞ 619
幂@@ 619
抛 619
盎 619
鸢@@ 619
1739 618
Autom@@ 618
Bern@@ 618
Blu 618
eum 618
ی 618
ケ 618
佰@@ 618
珮@@ 618
艮 618
蚵 618
訖 618
誨 618
躬@@ 618
Double 617
Gary 617
Thi@@ 617
cs 617
poem 617
umia 617
噻@@ 617
晰@@ 617
1747 616
î 616
О 616
丶 616
刈 616
坵 616
庑 616
珣 616
珮 616
虏@@ 616
裤@@ 616
訶 616
BN 615
ein@@ 615
ust@@ 615
卤 615
睇 615
莅@@ 615
鉞 615
驒 615
1653 614
1697 614
uni@@ 614
wiki 614
僖 614
癢 614
苍 614
蛸 614
袒 614
Corn@@ 613
Post 613
Security 613
age@@ 613
ages 613
anga 613
free 613
night 613
part 613
won 613
敎 613
鄯@@ 613
驛@@ 613
魴 613
Concer@@ 612
ards 612
eno 612
ston 612
unds 612
寛 612
憐@@ 612
鵲 612
1519 611
Down 611
Kol@@ 611
ND 611
Source 611
anger 611
ί 611
ा 611
撮@@ 611
笏 611
銨 611
Pod@@ 610
Tor 610
槓 610
猕@@ 610
莅 610
蛺 610
閹@@ 610
HL 609
Pass 609
Walker 609
itude 609
jpg 609
sk 609
拦 609
晦@@ 609
猥@@ 609
鄢@@ 609
1741 608
Secret 608
alia 608
cal 608
缽 608
蕲@@ 608
錮 608
Engineering 607
Under@@ 607
mart 607
oli@@ 607
् 607
岂@@ 607
愫 607
玳@@ 607
绛@@ 607
谕@@ 607
1536 606
BO 606
Jud@@ 606
Pun@@ 606
Ye@@ 606
flora 606
姥 606
懒@@ 606
1665 605
If 605
粿 605
Sign@@ 604
Vision 604
Western 604
楫 604
熾 604
稼 604
郝 604
鎧 604
馥@@ 604
Doc@@ 603
Prime 603
een 603
瀰 603
1714 602
Anderson 602
CAR 602
Dra@@ 602
place 602
zen 602
羡@@ 602
eld 601
nd@@ 601
see 601
start 601
儉@@ 601
卍 601
屹@@ 601
撻 601
枉@@ 601
榨 601
縊 601
Sl@@ 600
come 600
sin 600
ă 600
1744 599
Bag@@ 599
Fel@@ 599
Nintendo 599
ains 599
bili@@ 599
media 599
verse 599
yu 599
憫 599
1709 598
Language 598
Men 598
Order 598
VIII 598
ender 598
gi 598
some 598
聋@@ 598
邳@@ 598
郧@@ 598
鵑@@ 598
Kelly 597
Pass@@ 597
Pictures 597
Vog@@ 597
ry@@ 597
star@@ 597
洱@@ 597
浔@@ 597
灝 597
砚@@ 597
Clark 596
chen 596
date 596
dem@@ 596
oe 596
ogr@@ 596
捏 596
楯 596
銮 596
Johann 595
grac@@ 595
idi 595
link 595
yth@@ 595
梶@@ 595
爍 595
贱 595
闷 595
Championship 594
Nick 594
Pau@@ 594
Poc@@ 594
amer 594
蝕@@ 594
镕@@ 594
1672 593
1715 593
Bay@@ 593
Hard@@ 593
Head 593
Lac@@ 593
double 593
ights 593
壑 593
蝓 593
豈 593
驃 593
﹕ 593
Bra@@ 592
Jacques 592
Sail@@ 592
Yu@@ 592
anti 592
bury 592
ods 592
ont 592
亏 592
晁@@ 592
闐 592
鴕@@ 592
Invest@@ 591
chrom@@ 591
ebr@@ 591
hom@@ 591
sec@@ 591
xy 591
yan 591
† 591
├ 591
匆 591
撮 591
櫟 591
紜 591
虢@@ 591
郃 591
Centr@@ 590
Nova 590
japon@@ 590
otr@@ 590
桧 590
檳 590
漩@@ 590
緹 590
颤@@ 590
Airport 589
Cot@@ 589
about 589
atan 589
cy@@ 589
inf@@ 589
onic 589
oria 589
ع 589
怛 589
瑀 589
瓢@@ 589
絳 589
蝇@@ 589
1669 588
Field 588
Lit@@ 588
Writ@@ 588
bach 588
ef 588
egr@@ 588
ш 588
噹 588
枚@@ 588
艘@@ 588
褪@@ 588
遁@@ 588
tin@@ 587
哗@@ 587
犍@@ 587
莘 587
蟎 587
錳 587
1699 586
Cit@@ 586
Hi 586
` 586
ピ 586
悖 586
歿 586
綬@@ 586
蛞@@ 586
豚@@ 586
鯽 586
based 585
lem@@ 585
ple 585
tan 585
潁@@ 585
藐@@ 585
邇 585
锯 585
Eg@@ 584
Mach@@ 584
Stand 584
Stor@@ 584
umi 584
劈@@ 584
厨 584
洱 584
豊 584
贼@@ 584
Andy 583
Jeff 583
aha 583
vis 583
哮 583
錠 583
Ken@@ 582
azzo 582
rel@@ 582
stati@@ 582
県 582
賁 582
Alex@@ 581
Stars 581
True 581
ange 581
ɔ 581
ね 581
涝 581
齧 581
1675 580
Ross 580
Tru@@ 580
aca 580
imb@@ 580
ś 580
愍@@ 580
秽 580
鵙 580
黒 580
Bau@@ 579
Johnny 579
ò 579
剽@@ 579
藓@@ 579
陋@@ 579
Scre@@ 578
elia 578
esta 578
high 578
kl@@ 578
sig@@ 578
ت 578
啄 578
嫣 578
蹲 578
阆@@ 578
Arg@@ 577
Classic 577
­ 577
燬 577
Sir@@ 576
fu@@ 576
urs 576
む 576
燾 576
瑯@@ 576
篙 576
鹫 576
Advanced 575
Clo@@ 575
Five 575
song 575
傈@@ 575
孖 575
瓯@@ 575
鯖 575
Lang@@ 574
Mom@@ 574
Nat@@ 574
Rol@@ 574
Sak@@ 574
XIII 574
film 574
mit 574
osp@@ 574
true 574
uta 574
would 574
婢@@ 574
爨 574
龈 574
1749 573
High@@ 573
Long@@ 573
Matthew 573
Three 573
gh@@ 573
枯 573
氚 573
AZ 572
Bruce 572
Utr@@ 572
mes 572
ð 572
晒@@ 572
筠@@ 572
1734 571
Bil@@ 571
RN 571
Sau@@ 571
ega 571
station 571
唁 571
槎 571
瓒 571
痒 571
繆 571
諺 571
Ni 570
lang 570
ments 570
pro 570
儼@@ 570
旬@@ 570
煊 570
癫@@ 570
秃 570
覓@@ 570
Cand@@ 569
Gordon 569
Wild 569
ete 569
ety 569
倻 569
Kot@@ 568
Ob@@ 568
Review 568
burg 568
district 568
ector 568
ements 568
mot@@ 568
omo 568
拯 568
煇 568
軫 568
麋@@ 568
Benjamin 567
Maz@@ 567
Nak@@ 567
Pter@@ 567
odi@@ 567
there 567
ぶ 567
彊 567
辙 567
1738 566
Phil@@ 566
din@@ 566
oon 566
stone 566
凑@@ 566
睪 566
蝉 566
赚 566
魅 566
鸳@@ 566
August 565
Mountain 565
Wit@@ 565
board 565
匱@@ 565
妞 565
暐 565
矽 565
Jar@@ 564
Mail 564
Republic 564
ges 564
m2 564
ulata 564
ร 564
卞 564
坠 564
殴 564
烨 564
聶 564
Creek 563
bit@@ 563
ses 563
trol@@ 563
沸 563
瘍 563
Delta 562
Eli@@ 562
Hir@@ 562
Hospital 562
Kom@@ 562
Tab@@ 562
agon 562
ph 562
俶 562
朽@@ 562
萎 562
萼@@ 562
1746 561
More 561
Nik@@ 561
ku 561
three 561
骧 561
鲀 561
龢 561
Run 560
Tap@@ 560
count 560
oceph@@ 560
syn@@ 560
tree 560
蝌@@ 560
Fort 559
Ful@@ 559
Lanc@@ 559
Transport 559
example 559
prot@@ 559
窺 559
薦@@ 559
邳 559
鴦 559
1687 558
Jonathan 558
Produc@@ 558
gic 558
han@@ 558
ner@@ 558
tal@@ 558
愧@@ 558
緞 558
Ann 557
Car 557
Kel@@ 557
boy 557
child 557
dh@@ 557
news 557
乖 557
咳 557
惰 557
阯 557
Has@@ 556
Only 556
Triple 556
idea 556
癬 556
睽@@ 556
箴@@ 556
Alliance 555
Hap@@ 555
Rod@@ 555
agr@@ 555
bes 555
jo@@ 555
拙@@ 555
覬@@ 555
諒@@ 555
锭 555
Commission 554
kw@@ 554
哑@@ 554
怠 554
违 554
閭 554
顒 554
驤 554
Formation 553
Kw@@ 553
bat@@ 553
net@@ 553
pp 553
墀 553
揉@@ 553
蜚@@ 553
袍@@ 553
鉢 553
＞ 553
Git@@ 552
Kingdom 552
Temple 552
aker 552
ental 552
ision 552
י 552
ソ 552
檄@@ 552
淄 552
谎 552
韬@@ 552
1712 551
Metal 551
law 551
urn@@ 551
傣 551
蠍 551
錡 551
Chart 550
phyl@@ 550
rain 550
she 550
▲ 550
ゲ 550
疱@@ 550
蝨@@ 550
餡 550
1717 549
Arena 549
Cat 549
Hur@@ 549
Our 549
Seven 549
SmackDown 549
dow 549
ough 549
涕 549
潑@@ 549
輒 549
鉗 549
閨@@ 549
1656 548
Ax@@ 548
archi@@ 548
bol@@ 548
second 548
嬴 548
氪 548
籽@@ 548
胤@@ 548
蹇 548
韭@@ 548
Bla@@ 547
Stop 547
Wright 547
inal 547
uth 547
ゴ 547
嗆 547
磊@@ 547
箴 547
纺 547
1702 546
Gas@@ 546
Lib@@ 546
Lou@@ 546
Mission 546
Solo 546
Storm 546
eli 546
tre@@ 546
your 546
ポ 546
奢 546
渺@@ 546
蓁 546
蚯@@ 546
觐 546
阈@@ 546
隗@@ 546
韌 546
鳌@@ 546
Mam@@ 545
Wilhelm 545
eller 545
娇@@ 545
弭 545
怯@@ 545
晝 545
曇@@ 545
曖@@ 545
杖@@ 545
1703 544
ei@@ 544
iz 544
plic@@ 544
uh@@ 544
ザ 544
儋@@ 544
晕@@ 544
疮 544
蓓 544
蕊@@ 544
觅@@ 544
軋 544
铰@@ 544
Side 543
flo@@ 543
nia 543
棗@@ 543
氈 543
Champion 542
Les@@ 542
Modern 542
Pep@@ 542
Second 542
ais@@ 542
ean 542
ista 542
occ@@ 542
okie 542
燼 542
玮 542
锷 542
Canada 541
Mun@@ 541
wor@@ 541
挚@@ 541
挨 541
歩 541
澧 541
瞎@@ 541
靚@@ 541
Math@@ 540
Som@@ 540
Sul@@ 540
win@@ 540
唆@@ 540
濠@@ 540
粽@@ 540
藕 540
蹂@@ 540
fa 539
rol@@ 539
through 539
thus 539
掣@@ 539
琢@@ 539
锟 539
God@@ 538
Top@@ 538
fri@@ 538
work 538
斟@@ 538
橐 538
洺 538
涓 538
箍 538
羯@@ 538
醜 538
雒@@ 538
1668 537
Infin@@ 537
Medical 537
eil@@ 537
fly 537
mic@@ 537
僞 537
嚐 537
烁 537
餾 537
Douglas 536
enberg 536
ks@@ 536
san@@ 536
ˋ 536
妨 536
搗 536
樽@@ 536
炽 536
糠 536
蚪 536
鄔@@ 536
Hav@@ 535
Jimmy 535
She 535
Sug@@ 535
WM 535
Watch 535
When 535
land@@ 535
滎@@ 535
竖 535
郯@@ 535
Eth@@ 534
Sou@@ 534
nu@@ 534
ologies 534
絆 534
莿 534
阎 534
霏 534
鱔 534
Productions 533
Sac@@ 533
enz@@ 533
people 533
peri@@ 533
曷 533
煲 533
琏 533
脲 533
鮪 533
1596 532
Green@@ 532
Mich@@ 532
Moore 532
Ober@@ 532
Pav@@ 532
Singapore 532
ext@@ 532
咁 532
徭@@ 532
蠔@@ 532
Eas@@ 531
Kas@@ 531
Po 531
琢 531
膾 531
鑾@@ 531
Khan 530
acid 530
when 530
∈ 530
ぐ 530
喷 530
1711 529
Oper@@ 529
VP 529
ering 529
imi 529
vari@@ 529
wing 529
劭@@ 529
蠣 529
鞘@@ 529
颢 529
駝@@ 529
Army 528
Cul@@ 528
Emer@@ 528
bers 528
enia 528
ities 528
lex 528
玥 528
瑩@@ 528
謫 528
赭@@ 528
Bak@@ 527
Forever 527
Sph@@ 527
aqu@@ 527
nor@@ 527
秤@@ 527
郓@@ 527
1719 526
Der@@ 526
Ny@@ 526
Zen@@ 526
ands 526
eni 526
index 526
啸@@ 526
汨@@ 526
溟 526
舶@@ 526
袜@@ 526
铍 526
雹 526
頹@@ 526
Ale@@ 525
Mind 525
Movie 525
latitu@@ 525
plus 525
top@@ 525
ά 525
勗 525
殆 525
谛 525
阀@@ 525
Florida 524
Frederick 524
Ian 524
Ng@@ 524
Soci@@ 524
Sus@@ 524
each 524
former 524
oli 524
ret@@ 524
崂@@ 524
犢 524
Dat@@ 523
Indi@@ 523
Kap@@ 523
Que@@ 523
Rap 523
Steph@@ 523
Work@@ 523
amin@@ 523
bro@@ 523
onal 523
暠 523
耒@@ 523
詰 523
铮 523
頤@@ 523
1676 522
Associ@@ 522
Beat 522
CO2 522
Chen 522
Christmas 522
Energy 522
Ori@@ 522
Sa 522
Seg@@ 522
Spring 522
aea 522
esti@@ 522
var@@ 522
≥ 522
宕@@ 522
糜@@ 522
ame@@ 521
iss 521
qu 521
rem@@ 521
uti@@ 521
volution 521
０ 521
Asian 520
bot 520
mont 520
rop@@ 520
勰 520
嘆@@ 520
爰 520
瞬 520
竞 520
褻 520
鈷 520
Beach 519
Index 519
Pet@@ 519
asi 519
otus 519
碗@@ 519
稹 519
繭 519
讫 519
跖@@ 519
躁@@ 519
逗 519
Never 518
Russell 518
Silver 518
fre@@ 518
level 518
radi@@ 518
へ 518
燉 518
痹 518
粪 518
蒿@@ 518
诃@@ 518
Some@@ 517
chu 517
dez 517
ution 517
淩 517
絢@@ 517
縉 517
録 517
陡 517
Brit@@ 516
March 516
Rand@@ 516
ches 516
etti 516
mini 516
疃 516
铬@@ 516
鬃@@ 516
Cav@@ 515
Factory 515
KG 515
ces 515
press 515
喱 515
朐 515
洒@@ 515
灝@@ 515
蛻@@ 515
鶘 515
麝 515
UFC 514
Yel@@ 514
aer@@ 514
duc@@ 514
edia 514
power 514
潢@@ 514
砜 514
1204 513
Lost 513
Set 513
Terr@@ 513
acker 513
eau 513
gro@@ 513
off@@ 513
囂 513
塱 513
隅@@ 513
靡@@ 513
骅 513
----@@ 512
1705 512
Lap@@ 512
Water 512
ando 512
ous@@ 512
孃 512
帘@@ 512
瀑 512
疹@@ 512
靛 512
鳗 512
1743 511
Again 511
Ca 511
Fir@@ 511
nom@@ 511
tern@@ 511
χ 511
獼@@ 511
鈹 511
1704 510
home 510
厩 510
揉 510
暄 510
碓 510
芩 510
蚺 510
誇 510
赌 510
辎@@ 510
閤 510
Deep 509
Ring 509
Sarah 509
Say 509
sions 509
ベ 509
娼@@ 509
枉 509
竣 509
afe 508
opus 508
wi@@ 508
晩 508
沢 508
眩@@ 508
虜@@ 508
輋 508
Rhy@@ 507
city 507
kan@@ 507
series 507
soft 507
甩 507
簪 507
谟@@ 507
Mit@@ 506
Pink 506
Scr@@ 506
album 506
ark@@ 506
plat@@ 506
sch 506
® 506
徳 506
昉 506
樵@@ 506
氡 506
沮 506
溼@@ 506
痫 506
Eff@@ 505
andra 505
berry 505
heim 505
may 505
shi@@ 505
such 505
△ 505
愁@@ 505
捞@@ 505
橈 505
潦@@ 505
濮 505
筊 505
钠@@ 505
que@@ 504
ギ 504
们@@ 504
儡@@ 504
柚 504
聳@@ 504
菖@@ 504
龚 504
Let@@ 503
proc@@ 503
咯 503
恍@@ 503
氘 503
猬 503
胀@@ 503
钛@@ 503
della 502
him 502
school 502
朮 502
樺@@ 502
痊@@ 502
耸@@ 502
At 501
Beautiful 501
Billy 501
Machine 501
Oliver 501
ait 501
chil@@ 501
format 501
蝮@@ 501
覦 501
鲱 501
Europe 500
Vent@@ 500
ecr@@ 500
rap@@ 500
show 500
Á 500
蟆 500
軛 500
骸@@ 500
Cab@@ 499
Lep@@ 499
Steven 499
bat 499
file 499
凪 499
莢 499
锈 499
闢@@ 499
1515 498
Bow@@ 498
Brand@@ 498
Giovanni 498
Publ@@ 498
band 498
def@@ 498
ester 498
fo 498
uss@@ 498
vic@@ 498
び 498
嶷 498
甌 498
砥@@ 498
篩 498
羽毛@@ 498
隣 498
1678 497
There 497
Universal 497
aire 497
aul@@ 497
ily 497
imal 497
super@@ 497
year 497
½ 497
妍@@ 497
鱉 497
cel@@ 496
channel 496
ό 496
ヤ 496
恼@@ 496
憚 496
捩@@ 496
疤@@ 496
竑 496
鰓@@ 496
1716 495
Commun@@ 495
Cru@@ 495
Sweet 495
ango 495
anne 495
away 495
ido 495
mut@@ 495
result 495
ˊ 495
伉@@ 495
冑 495
擋@@ 495
汜 495
玷@@ 495
窜 495
腌@@ 495
鳐 495
Liber@@ 494
amo@@ 494
din 494
major 494
圜 494
撼@@ 494
滷 494
漂 494
阗 494
鴛@@ 494
Spar@@ 493
Studies 493
Ten@@ 493
azy 493
bird 493
talk 493
ه 493
淖 493
甥@@ 493
苇@@ 493
Michel 492
Mode 492
Scar@@ 492
Um@@ 492
eps 492
multi@@ 492
rie 492
ぎ 492
坻@@ 492
寥 492
巩 492
疤 492
萘 492
觐@@ 492
Bun@@ 491
Class@@ 491
Ele@@ 491
Flo@@ 491
Friends 491
Tokyo 491
other@@ 491
pon 491
屁 491
瞎 491
紇 491
諫@@ 491
賬 491
钕 491
钝@@ 491
Daily 490
Ec@@ 490
Thompson 490
family 490
sole 490
umb@@ 490
旷 490
訛 490
訢 490
譙 490
醞@@ 490
Real@@ 489
cle@@ 489
illi@@ 489
pur 489
wn 489
櫥 489
燙 489
窥@@ 489
Bru@@ 488
Orange 488
wa@@ 488
war 488
廨 488
皋@@ 488
簾@@ 488
荐@@ 488
銫 488
Aqu@@ 487
Grace 487
Justin 487
Law@@ 487
ju@@ 487
pic@@ 487
trop@@ 487
揄 487
琇 487
筵@@ 487
飙@@ 487
鳶 487
car 486
eck@@ 486
get@@ 486
length 486
mb@@ 486
olog@@ 486
sea 486
usion 486
疲 486
谚@@ 486
谬@@ 486
赟 486
Conference 485
England 485
Gran@@ 485
Hab@@ 485
Hyp@@ 485
Number 485
say 485
tal 485
咕 485
嗚 485
挽 485
畑 485
祟 485
耙 485
蚶 485
褚 485
贅 485
Dav@@ 484
Dead 484
Rain 484
XI 484
ose 484
ostr@@ 484
zone 484
ペ 484
俏 484
傕 484
攣 484
朦@@ 484
珲 484
瑯 484
缙@@ 484
Single 483
object 483
page 483
set@@ 483
棧@@ 483
韧 483
鰨@@ 483
Area 482
Jam@@ 482
Lag@@ 482
Mar 482
Mathemati@@ 482
Plan 482
igh 482
ott 482
pas@@ 482
र 482
諭@@ 482
Alabama 481
Fas@@ 481
bol 481
oy 481
棗 481
炅 481
璀@@ 481
鶇 481
＊ 481
Nature 480
Roman 480
ades 480
auer 480
aye 480
da@@ 480
fish 480
豺@@ 480
鼱 480
Guy 479
Lawrence 479
abr@@ 479
agn@@ 479
control 479
culus 479
na@@ 479
pos 479
pus 479
ull 479
ž 479
挟@@ 479
檄 479
笠@@ 479
覃 479
Cou@@ 478
Luis 478
Nag@@ 478
Television 478
cy 478
enne 478
pil@@ 478
ports 478
ו 478
扛 478
蜢 478
鎢 478
钋 478
鯔 478
鶲 478
｜ 478
Lat@@ 477
Low 477
Luci@@ 477
Lun@@ 477
Monster 477
Riv@@ 477
Stand@@ 477
Vari@@ 477
Vincent 477
alt@@ 477
iti 477
thing 477
仡@@ 477
玘 477
痢@@ 477
蠢@@ 477
鈞@@ 477
Anti@@ 476
Brothers 476
See 476
Sid@@ 476
mus 476
round 476
tors 476
ş 476
悯 476
鮎@@ 476
1686 475
Cent@@ 475
Washington 475
ben@@ 475
vin@@ 475
俨 475
晗 475
炊@@ 475
窿 475
鄜 475
镠 475
镭 475
Joy 474
gio 474
勣 474
孪@@ 474
Chin@@ 473
Jordan 473
Lan@@ 473
Lem@@ 473
Num@@ 473
edo 473
ento 473
templ@@ 473
́ 473
Ford 472
cat 472
eas@@ 472
load 472
lu 472
sum 472
睫@@ 472
锆 472
闾@@ 472
Death 471
Version 471
ded 471
osis 471
Л 471
箐 471
蔴 471
3rd 470
Day@@ 470
Memorial 470
Tin@@ 470
Urban 470
Work 470
dre@@ 470
hydro@@ 470
lers 470
阙@@ 470
Ah@@ 469
Call@@ 469
Chrom@@ 469
Gra@@ 469
Int@@ 469
Revolution 469
Songs 469
break 469
cle 469
eless 469
good 469
mon 469
铟 469
锣@@ 469
Face 468
Ji@@ 468
Se 468
esp@@ 468
eva 468
method 468
minor 468
ulation 468
ury 468
↔ 468
镧 468
1708 467
arius 467
itt 467
nic@@ 467
rich@@ 467
ヒ 467
啞 467
钵@@ 467
Hunter 466
Mb@@ 466
Od@@ 466
Peace 466
between 466
hab@@ 466
ogen@@ 466
丟 466
锶 466
Graham 465
Hat@@ 465
cio 465
gon 465
neo 465
囑@@ 465
寔 465
揖 465
芪 465
銹@@ 465
Album 464
Hope 464
Phil 464
Ras@@ 464
Robinson 464
comp@@ 464
fied 464
illus 464
mos@@ 464
咱@@ 464
拚 464
泫 464
鉻@@ 464
＜ 464
Charlie 463
Franz 463
ball 463
ord 463
ư 463
喂 463
滄 463
発 463
舂 463
钗 463
闺@@ 463
Community 462
Jacob 462
Jet 462
Ric@@ 462
Thr@@ 462
ign 462
mph 462
polis 462
叱 462
塬 462
摻@@ 462
熏 462
聳 462
蛄 462
谘@@ 462
遏 462
騫 462
Apo@@ 461
Att@@ 461
Kil@@ 461
Moh@@ 461
Right 461
eb 461
site 461
ˈ 461
弈@@ 461
惩 461
橡 461
淦@@ 461
灏 461
畈 461
篷@@ 461
藨 461
钺 461
雉@@ 461
Patr@@ 460
Yan@@ 460
agu@@ 460
ump 460
ures 460
ː 460
愔 460
漓@@ 460
釵 460
锌@@ 460
Def@@ 459
Lav@@ 459
Sto@@ 459
four 459
macro@@ 459
ment@@ 459
吶@@ 459
岬@@ 459
戊 459
葦@@ 459
飆 459
Extr@@ 458
Ice 458
Petr@@ 458
cel 458
plication 458
儷 458
悶@@ 458
摹@@ 458
綝 458
驢 458
鷲@@ 458
Cham@@ 457
Ed 457
Fres@@ 457
Swe@@ 457
Water@@ 457
call 457
kings 457
them 457
unk@@ 457
喔 457
礎 457
肱 457
脛@@ 457
芷 457
荳 457
贲 457
镌@@ 457
Age 456
French 456
Full 456
Harris 456
Mut@@ 456
Norman 456
Southern 456
chr@@ 456
dei 456
zy@@ 456
傍 456
棣@@ 456
殮 456
涤@@ 456
簋 456
袂 456
躯 456
铠@@ 456
３ 456
Change 455
Generation 455
Margaret 455
Ner@@ 455
lac@@ 455
lip@@ 455
哌@@ 455
埴 455
嬤 455
廸 455
摯 455
汎 455
煒@@ 455
铿 455
Cad@@ 454
MiG 454
abe 454
sem@@ 454
spec@@ 454
慤 454
扒@@ 454
毙@@ 454
濺 454
蝟 454
銬 454
Original 453
Roy 453
iner 453
ony@@ 453
峦 453
祆 453
綑 453
膊 453
菇@@ 453
菰 453
alist 452
mm@@ 452
冢@@ 452
剔 452
嘩@@ 452
笞 452
蔥@@ 452
阉@@ 452
By 451
Four 451
flu@@ 451
ges@@ 451
ons@@ 451
ས 451
惶 451
瑣 451
蓟 451
钳@@ 451
铀@@ 451
Lak@@ 450
enter 450
esia 450
sym@@ 450
Đ 450
绶@@ 450
Thor@@ 449
lard 449
look 449
Ö 449
ù 449
扯@@ 449
曰@@ 449
榛@@ 449
皎 449
蜑 449
酝@@ 449
骡@@ 449
Campbell 448
Equ@@ 448
FK 448
Here 448
Partn@@ 448
Phyl@@ 448
Vas@@ 448
aj 448
astr@@ 448
icle 448
idge 448
les@@ 448
team 448
榎 448
珙 448
繽@@ 448
衬 448
袱 448
Ach@@ 447
IA@@ 447
Room 447
Vor@@ 447
beta 447
big 447
hen@@ 447
longi@@ 447
sit@@ 447
uld 447
惋@@ 447
揶@@ 447
芾 447
钍 447
GmbH 446
Joh@@ 446
asp@@ 446
ceph@@ 446
ize 446
戾 446
挟 446
礪 446
鞠 446
Exchange 445
Fron@@ 445
Hus@@ 445
Shir@@ 445
mode 445
拽 445
曄 445
渍 445
薙 445
譁 445
鏢@@ 445
飭 445
How@@ 444
Pir@@ 444
Tik@@ 444
aly@@ 444
û 444
ж 444
刃@@ 444
嘢 444
涞@@ 444
瀟@@ 444
痙@@ 444
藁@@ 444
驭 444
Bang 443
Vie@@ 443
Wing 443
aud 443
dus 443
ease 443
park 443
tt@@ 443
吒@@ 443
毯@@ 443
獠@@ 443
粽 443
胛@@ 443
裟 443
顔 443
鲑 443
鹟 443
鹬 443
Crystal 442
Leon 442
Mars 442
Orig@@ 442
Trich@@ 442
Trust 442
aud@@ 442
esi 442
river 442
ult 442
徠 442
腮@@ 442
袤 442
Dean 441
Gate 441
Government 441
Hip@@ 441
Mob@@ 441
Morning 441
Off 441
Princess 441
Te 441
Test 441
Way@@ 441
Youth 441
esh@@ 441
gia 441
gun 441
phus 441
臍 441
薈 441
蚩@@ 441
诋@@ 441
郤 441
霆@@ 441
Books 440
Cus@@ 440
Fon@@ 440
Heinrich 440
Hop@@ 440
Major 440
Sciences 440
Tac@@ 440
They 440
Vice 440
isi 440
istic 440
kel 440
mond 440
ska 440
tii 440
吼@@ 440
堑 440
曳@@ 440
缨 440
蟀 440
Bran@@ 439
Cher@@ 439
cis 439
oft 439
rt 439
ware 439
铈 439
리 439
﹔ 439
Korea 438
Xi@@ 438
Yam@@ 438
aks 438
ames 438
being 438
hel@@ 438
lot 438
ls 438
sian 438
vit@@ 438
ything 438
岙 438
枇@@ 438
楸 438
涤 438
翘@@ 438
辄 438
錕 438
钏 438
鸯 438
Australia 437
Hit@@ 437
Mg@@ 437
chan 437
lib@@ 437
ross 437
tran@@ 437
У 437
夙@@ 437
挹@@ 437
淘 437
萘@@ 437
锺@@ 437
馗 437
KK 436
Legacy 436
Leo 436
Morgan 436
Page 436
Police 436
aver 436
flow 436
lit@@ 436
ock@@ 436
open 436
ski@@ 436
uni 436
坻 436
増 436
擄@@ 436
皺@@ 436
绮 436
鳟 436
Inst@@ 435
Jon 435
Kenneth 435
Scor@@ 435
appy 435
chu@@ 435
plan@@ 435
ric@@ 435
sam@@ 435
両 435
冏 435
宸@@ 435
屑@@ 435
嵙 435
謇 435
钮@@ 435
阡 435
Mart 434
Planet 434
Sax@@ 434
Wonder 434
hynch@@ 434
language 434
made 434
ocy@@ 434
oud 434
ox 434
zy 434
吲@@ 434
哦 434
庠@@ 434
惣 434
氰 434
牯@@ 434
蓀 434
覲@@ 434
Ast@@ 433
Il 433
Maur@@ 433
Report 433
arm@@ 433
dri@@ 433
lar 433
mol@@ 433
phone 433
tiv@@ 433
ˇ 433
佺 433
沱 433
篝@@ 433
蝸 433
Come 432
NAS@@ 432
Ster@@ 432
hr 432
ka@@ 432
ples 432
ysis 432
瓮 432
蹲@@ 432
錒 432
雒 432
Amaz@@ 431
Ball 431
Ball@@ 431
Hero 431
Pent@@ 431
Trade 431
gan@@ 431
ij@@ 431
kat@@ 431
single 431
tron 431
佃 431
佢 431
浒 431
燎@@ 431
緋 431
诀 431
钾@@ 431
Carolina 430
Environ@@ 430
Grande 430
Rio 430
aku 430
avi@@ 430
dol@@ 430
ec 430
make 430
orient@@ 430
冇 430
祯@@ 430
靳 430
骞 430
＃ 430
Enter@@ 429
Fed@@ 429
Federation 429
Fred 429
Guide 429
Sad@@ 429
Sali@@ 429
Wang 429
ï 429
忿@@ 429
桶@@ 429
溼 429
紘 429
蔵 429
鹊@@ 429
Baker 428
Child 428
Sex@@ 428
Via 428
ban@@ 428
ocarp@@ 428
theory 428
咩 428
坨 428
滌 428
舯 428
貘 428
鞮 428
鼬@@ 428
Abu 427
Country 427
Culture 427
Larry 427
North@@ 427
Pyr@@ 427
ads 427
change 427
enth@@ 427
fe 427
tou@@ 427
ʔ 427
垠 427
惱@@ 427
暘 427
硝 427
诩 427
Lic@@ 426
Tex@@ 426
gal@@ 426
弑 426
掷@@ 426
攪 426
杷 426
蠶 426
鄲 426
Lane 425
Otto 425
doc@@ 425
edr@@ 425
gn@@ 425
known 425
¹ 425
淪 425
Command 424
Empire 424
Fab@@ 424
Lion 424
Promotion 424
ingen 424
nik 424
odon@@ 424
oll 424
olo 424
thor@@ 424
unt 424
凄@@ 424
咖 424
磯@@ 424
缎 424
陟 424
Hip 423
Marc 423
Ron 423
Squ@@ 423
bon 423
inga 423
urn 423
挾 423
盯@@ 423
缢 423
肘@@ 423
葶 423
铲 423
颉@@ 423
Bry@@ 422
Con 422
Domin@@ 422
Mr@@ 422
Wall 422
gie 422
lim@@ 422
喹@@ 422
拗 422
挚 422
梆@@ 422
樫 422
禛 422
筛 422
膿@@ 422
鉻 422
Dennis 421
Eye 421
Hed@@ 421
Nas@@ 421
Rainbow 421
Tes@@ 421
Whe@@ 421
chen@@ 421
ree 421
ń 421
哄@@ 421
哚 421
磘 421
Earl 420
Got@@ 420
Henri 420
Nan@@ 420
Pedro 420
Spr@@ 420
Tommy 420
agon@@ 420
beat 420
but@@ 420
dig@@ 420
gener@@ 420
horn 420
ias 420
image 420
itz@@ 420
trum 420
侮 420
坯 420
斌@@ 420
槻@@ 420
烛@@ 420
鞏 420
骇@@ 420
鳉 420
Auto 419
Four@@ 419
Know 419
annon 419
ater 419
dos 419
eing 419
nh 419
pora 419
pot@@ 419
㎡ 419
冼 419
岂 419
忻 419
羿 419
鏖@@ 419
鮈 419
Di 418
Diamond 418
Glo@@ 418
Railway 418
Walk 418
Wr@@ 418
che@@ 418
gol@@ 418
inst@@ 418
mun@@ 418
opp@@ 418
put@@ 418
sed 418
垭 418
嶇 418
幡@@ 418
忤@@ 418
暉@@ 418
殉 418
璐@@ 418
脩@@ 418
苕 418
蛎 418
褂 418
訇 418
谯@@ 418
贪 418
蹼 418
April 417
Danny 417
Jol@@ 417
KV@@ 417
Oxy@@ 417
asse 417
dale 417
obi@@ 417
嗨 417
玑 417
郗@@ 417
鉚@@ 417
５ 417
Northern 416
Stewart 416
asc@@ 416
eer 416
ente 416
ough@@ 416
rez 416
stream 416
岘 416
淌 416
熔 416
眙 416
蜷@@ 416
逛 416
钌 416
顫 416
Bell@@ 415
Card@@ 415
June 415
Prize 415
Rid@@ 415
Sci@@ 415
kal@@ 415
osaur@@ 415
wil@@ 415
刎 415
勲 415
繙 415
茛 415
蜗 415
袈@@ 415
铼 415
閎 415
鳕 415
Geor@@ 414
Haz@@ 414
Jerry 414
Mn@@ 414
Professional 414
ders 414
eder@@ 414
pon@@ 414
process 414
実 414
苋@@ 414
鉄 414
Cass@@ 413
anz@@ 413
imo 413
ram@@ 413
rid 413
儼 413
垛 413
睢 413
絆@@ 413
綻 413
羨 413
郜@@ 413
鈍@@ 413
饬 413
Bobby 412
Neu@@ 412
Raj@@ 412
Ralph 412
cep@@ 412
kers 412
lim 412
pers 412
sm@@ 412
嘱@@ 412
恣@@ 412
昙 412
淼 412
穰 412
贓 412
鳢 412
Ernst 411
Rou@@ 411
Snow 411
aine 411
bank 411
now@@ 411
prin@@ 411
ticus 411
ý 411
น 411
挛 411
罌@@ 411
锰@@ 411
饅@@ 411
Forest 410
Las@@ 410
Lif@@ 410
Ten 410
ig 410
ital 410
lands 410
por 410
vis@@ 410
ホ 410
唸@@ 410
瓌 410
餾@@ 410
Wes@@ 409
aten 409
olor 409
unction 409
ì 409
曠 409
猗 409
釗@@ 409
鯡 409
About 408
Gem@@ 408
omys 408
sul@@ 408
亵@@ 408
凜@@ 408
勻@@ 408
曙 408
樾 408
澡@@ 408
牍 408
翹@@ 408
蒾 408
顼 408
鯓 408
Jam 407
Psych@@ 407
Theory 407
oug@@ 407
墉 407
憨@@ 407
汴 407
澆@@ 407
琚 407
璩 407
蜕@@ 407
鍬 407
铢 407
髅 407
Agency 406
Christ@@ 406
Hamilton 406
Make 406
Nin@@ 406
Non 406
Ward 406
eto 406
wen@@ 406
懈@@ 406
樋@@ 406
繃 406
综 406
羈 406
躄 406
Berry 405
Cho@@ 405
Kle@@ 405
Living 405
ayan 405
final 405
fs 405
species 405
zu 405
捻@@ 405
晔 405
烽 405
詡 405
鈽 405
Amp@@ 404
Duke 404
Fur@@ 404
Gom@@ 404
Hollywood 404
Intel@@ 404
ban 404
lus 404
oh 404
rier 404
ways 404
げ 404
姫 404
獴 404
謐 404
鯧 404
Buc@@ 403
Emp@@ 403
Esp@@ 403
Freedom 403
India 403
Nicholas 403
Palm 403
aco 403
ading 403
dom@@ 403
zz@@ 403
ξ 403
ة 403
ق 403
孰@@ 403
岀 403
憊 403
浔 403
詮 403
鶻 403
Camp 402
Front 402
Nelson 402
Seb@@ 402
ching 402
ilia 402
ind 402
俳 402
恵 402
椽 402
硐 402
绯@@ 402
脛 402
鉤@@ 402
锂@@ 402
Angel@@ 401
Barry 401
Hudson 401
Imp@@ 401
Rat@@ 401
Rog@@ 401
Tour@@ 401
hard 401
ini@@ 401
vil@@ 401
喫 401
忤 401
CAF 400
Manga 400
Middle 400
abl@@ 400
area 400
bil@@ 400
iger 400
mad@@ 400
pper 400
uo 400
vor@@ 400
巻 400
淤 400
Clem@@ 399
Concep@@ 399
Ot@@ 399
Track 399
Where 399
aves 399
eron 399
ven 399
ving 399
嚣 399
琐@@ 399
蟋@@ 399
诟@@ 399
颍 399
Asp@@ 398
Kl@@ 398
Shu@@ 398
etus 398
mark 398
  398
卒@@ 398
歹 398
絞 398
Flu@@ 397
Gabriel 397
Ted 397
aug@@ 397
aut@@ 397
ck@@ 397
force 397
fort 397
istry 397
nt 397
潞 397
疯 397
痉@@ 397
鵡@@ 397
４ 397
Anti 396
Hun@@ 396
Keith 396
Rail 396
Rud@@ 396
gy 396
position 396
ψ 396
坷 396
恽@@ 396
惺@@ 396
扉 396
揽@@ 396
瞪@@ 396
腥@@ 396
莒 396
钇 396
骯 396
Blood 395
Circle 395
Dir@@ 395
Univers@@ 395
Winter 395
arc@@ 395
aro@@ 395
bic@@ 395
ken@@ 395
lep@@ 395
mar 395
meth@@ 395
sing@@ 395
攒 395
邬@@ 395
郅 395
鲫 395
Bernard 394
Det@@ 394
Heter@@ 394
Nation 394
Pseudo@@ 394
Viol@@ 394
asure 394
ink@@ 394
tionary 394
ui@@ 394
啾 394
懼@@ 394
擘 394
砚 394
豉 394
鼯@@ 394
Ghost 393
Heaven 393
NHL 393
Neo 393
Staff 393
aman 393
ation@@ 393
irus 393
tar 393
udi@@ 393
xy@@ 393
焗 393
遹 393
Bac@@ 392
Bin@@ 392
Electric 392
Fantas@@ 392
Integr@@ 392
Knight 392
Strateg@@ 392
Us 392
enny 392
ores 392
ret 392
sion@@ 392
僥 392
僳@@ 392
宓 392
掳@@ 392
溅@@ 392
迺 392
鷸 392
鹭@@ 392
Gaz@@ 391
Magn@@ 391
NATO 391
Stanley 391
ern 391
osh@@ 391
珑 391
睑 391
臆@@ 391
赉@@ 391
鮄 391
Crown 390
Econom@@ 390
Val 390
ists 390
tek 390
yx 390
ح 390
椁 390
殯 390
籬@@ 390
Ce@@ 389
Et@@ 389
Foc@@ 389
Rib@@ 389
Sound@@ 389
aeus 389
ape 389
bie 389
糞@@ 389
脾 389
蜃@@ 389
謔 389
鎳@@ 389
閲 389
髯 389
Craig 388
Dist@@ 388
dom 388
lab@@ 388
昼 388
泮 388
莆 388
阿根@@ 388
隷 388
鬬 388
鶚 388
Cathedral 387
Chi 387
Lex@@ 387
Rosa 387
Wind 387
sia 387
ylo@@ 387
仄@@ 387
烬 387
辊 387
飢 387
Doctor 386
Premier 386
Roy@@ 386
Sed@@ 386
dex 386
fire 386
ru 386
solo 386
儕 386
拭 386
枷@@ 386
楹@@ 386
汲 386
翩@@ 386
赃@@ 386
邽 386
Communications 385
Gray 385
Marcus 385
Mark@@ 385
Tir@@ 385
Village 385
arts 385
chia 385
shop 385
wick 385
yon 385
侃@@ 385
嵋 385
彤@@ 385
徕 385
掀 385
摧 385
涧@@ 385
纓 385
蔘 385
轧@@ 385
郫@@ 385
Nep@@ 384
Ou@@ 384
Produ@@ 384
Train 384
WWF 384
bac@@ 384
hand@@ 384
ift 384
nus 384
ords 384
room 384
teau 384
嘶@@ 384
曦@@ 384
溱 384
漣@@ 384
眩 384
耸 384
鋤@@ 384
Food 383
Lig@@ 383
Set@@ 383
Sle@@ 383
Syl@@ 383
Tiger 383
Wood 383
eff@@ 383
eling 383
erg@@ 383
巿 383
槿 383
疙@@ 383
穂 383
钳 383
Chir@@ 382
Gallery 382
Grap@@ 382
Lau@@ 382
Ra 382
Terry 382
主持@@ 382
伕 382
喋@@ 382
懇 382
浣 382
舔 382
苜@@ 382
菟 382
褻@@ 382
蹊@@ 382
abase 381
before 381
eira 381
nch@@ 381
vers@@ 381
囓@@ 381
洹 381
讹@@ 381
Af@@ 380
Gener@@ 380
Gregory 380
Hop 380
atis 380
ische 380
spir@@ 380
侶@@ 380
劵 380
嘿 380
懾 380
罡 380
趴 380
Films 379
Georges 379
Kaz@@ 379
Leon@@ 379
Neil 379
ric 379
sy 379
tam@@ 379
奘@@ 379
汊 379
睫 379
竈 379
아 379
Broad@@ 378
Colorado 378
Natural 378
Too 378
aming 378
amo 378
ils 378
rue 378
尕@@ 378
崽 378
瘩 378
荼@@ 378
螂@@ 378
訛@@ 378
讥@@ 378
閡 378
靚 378
Anime 377
Brach@@ 377
Fund 377
mal 377
rix 377
wi 377
ㄚ 377
俐@@ 377
咯@@ 377
嶂 377
幪 377
甑 377
绮@@ 377
蝮 377
詬@@ 377
酆 377
銣 377
駅 377
Clu@@ 376
EU 376
Flight 376
Justice 376
Raymond 376
Wid@@ 376
cole 376
ential 376
ground 376
icky 376
omy@@ 376
toon 376
what 376
Γ 376
砀@@ 376
胫@@ 376
腓 376
誅@@ 376
逮 376
雋 376
馒@@ 376
鬃 376
Alt@@ 375
Dum@@ 375
Lo 375
Mass@@ 375
Ocean 375
Prom@@ 375
elly 375
elo 375
illo 375
odes 375
oidea 375
ras@@ 375
僊 375
煜@@ 375
翎@@ 375
蠡 375
郷 375
Bour@@ 374
Dog 374
Her 374
Iv@@ 374
alg@@ 374
brach@@ 374
bridge 374
court 374
dow@@ 374
esc@@ 374
etes 374
ization 374
sho@@ 374
tric 374
囍 374
熬@@ 374
燊@@ 374
疍 374
簿@@ 374
蹠 374
Carter 373
Gon@@ 373
It@@ 373
Pra@@ 373
Robin 373
ancing 373
asia 373
ayer 373
eper 373
gel@@ 373
催 373
僻@@ 373
弢 373
汹@@ 373
滌@@ 373
秆 373
茁@@ 373
Australian 372
Federal 372
Grant 372
Griff@@ 372
Ok@@ 372
fic@@ 372
gam@@ 372
icial 372
kan 372
凜 372
棂 372
珉@@ 372
蚁@@ 372
Discovery 371
Lucas 371
kel@@ 371
otis 371
sn@@ 371
thre@@ 371
wel@@ 371
ㄨ 371
糰 371
羟 371
苫 371
赉 371
錚 371
铷 371
Chil@@ 370
Docum@@ 370
Economic 370
Hills 370
Kun@@ 370
Parad@@ 370
ences 370
front 370
macul@@ 370
oko 370
卯@@ 370
昙@@ 370
昶@@ 370
桀 370
碚 370
茸@@ 370
蒞@@ 370
裹@@ 370
謂@@ 370
輓 370
Universe 369
antha 369
card 369
ht@@ 369
ident 369
rell 369
Š 369
壶@@ 369
慫@@ 369
欒@@ 369
珞 369
痞@@ 369
蘸 369
辕@@ 369
闯 369
Ba 368
Bird 368
Drama 368
Helen 368
Wolf 368
angle 368
private 368
兗 368
姒 368
帛@@ 368
挝@@ 368
棨 368
虱@@ 368
詼@@ 368
頷 368
Bishop 367
Herbert 367
Islands 367
Jas@@ 367
aq 367
new@@ 367
rett 367
① 367
佶 367
绎@@ 367
Basil@@ 366
Light@@ 366
Was@@ 366
ario 366
bes@@ 366
hum@@ 366
ith@@ 366
傉 366
廪 366
禀 366
苾 366
蛉 366
Amy 365
Century 365
Kak@@ 365
Laura 365
Mart@@ 365
fi 365
lem 365
let@@ 365
oshi 365
歙 365
穢@@ 365
筐 365
鈈 365
Gly@@ 364
Mix@@ 364
Stein@@ 364
inum 364
kov 364
last 364
pard 364
project 364
uru 364
廩 364
懊@@ 364
楽 364
礽 364
鍺 364
Angeles 363
Cast@@ 363
Sat@@ 363
borough 363
eros 363
ices 363
mid 363
versary 363
咭 363
擷@@ 363
楂 363
殓 363
涝@@ 363
牴 363
蚋 363
趴@@ 363
Austin 362
Comput@@ 362
Fut@@ 362
Manager 362
Telec@@ 362
aru 362
cell@@ 362
cro@@ 362
ej@@ 362
tri 362
哋 362
拚@@ 362
氖 362
洸 362
牵 362
狭 362
璣 362
痣 362
誰@@ 362
辇 362
Chan@@ 361
Tan 361
ashi 361
born 361
bra 361
etz@@ 361
even 361
Α 361
亶 361
伝 361
岷 361
獐@@ 361
蠑@@ 361
Der 360
Evans 360
Fernando 360
Laborat@@ 360
Tai 360
Xen@@ 360
alization 360
ilus 360
lier 360
post 360
trac@@ 360
埭 360
泚 360
碣 360
萁 360
蓿 360
馅@@ 360
Barr@@ 359
Beh@@ 359
Brun@@ 359
Francesco 359
L4 359
Today 359
XII 359
Yang 359
fic 359
medi@@ 359
綢@@ 359
葩 359
靛@@ 359
Aman@@ 358
Oli@@ 358
Pan 358
Rogers 358
Together 358
acea 358
ffer 358
ography 358
pre 358
揪@@ 358
湄 358
諤 358
Down@@ 357
End@@ 357
Manuel 357
Performance 357
ander@@ 357
eu 357
inia 357
ocar@@ 357
tas@@ 357
xi 357
َ 357
咫@@ 357
嫔@@ 357
孿@@ 357
惮 357
祎 357
蕪@@ 357
謨@@ 357
贰 357
钤 357
Buil@@ 356
Sainte 356
Woman 356
ador 356
ensen 356
kon@@ 356
program 356
夏令@@ 356
娠@@ 356
瞭 356
瞿 356
罹 356
闓 356
闔 356
鹳 356
Captain 355
Exper@@ 355
Ferr@@ 355
Leonard 355
Marine 355
Mario 355
Sean 355
ank 355
both 355
ends 355
gate 355
ingu@@ 355
run 355
thm 355
吝@@ 355
昺 355
犒@@ 355
糜 355
腑 355
詆@@ 355
踵@@ 355
鱒 355
Adams 354
Body 354
Emb@@ 354
Financial 354
Kim@@ 354
Nich@@ 354
Pach@@ 354
President 354
Rep@@ 354
Spirit 354
Wend@@ 354
ebe 354
enta 354
ight@@ 354
soc@@ 354
Č 354
ش 354
倬 354
傚 354
愨 354
誣 354
Baz@@ 353
Brow@@ 353
Chu 353
Rick 353
Will@@ 353
aut 353
ended 353
enni@@ 353
lad@@ 353
mes@@ 353
nis 353
oker 353
properties 353
侂 353
岫@@ 353
愕 353
燻 353
砺 353
觴 353
譙@@ 353
跗@@ 353
酈@@ 353
Cla@@ 352
Dru@@ 352
Eus@@ 352
King@@ 352
Miss@@ 352
Neg@@ 352
Other 352
kar 352
mental 352
onne 352
player 352
umin@@ 352
敝 352
桉@@ 352
缇 352
觅 352
Bog@@ 351
Kno@@ 351
Ludwig 351
Mang@@ 351
Parker 351
Shel@@ 351
Warren 351
aint 351
bal 351
chester 351
fun@@ 351
ising 351
real 351
rot 351
sl@@ 351
¥ 351
Ü 351
丐@@ 351
滏@@ 351
犰@@ 351
缙 351
菝@@ 351
葜 351
藪 351
鄒 351
铌 351
镰 351
饥 351
Chang 350
Coll@@ 350
Columbia 350
Japanese 350
Stat@@ 350
asis 350
assi@@ 350
block 350
dat@@ 350
sar 350
ths 350
ย 350
枸@@ 350
鉍 350
Ａ 350
Flor@@ 349
Miguel 349
Muhammad 349
dii 349
las@@ 349
username 349
垛@@ 349
峤 349
疡 349
箇 349
萜 349
蝾@@ 349
鎘 349
驷 349
Chief 348
Maurice 348
Shadow 348
Ut@@ 348
Ya 348
coun@@ 348
丫 348
洶@@ 348
硯 348
逍 348
邯 348
Dim@@ 347
Jack@@ 347
ifolia 347
jan 347
relative 347
sts 347
Φ 347
拋 347
殤 347
滲 347
焓 347
粑 347
纘 347
觎 347
Jur@@ 346
Pand@@ 346
Pho@@ 346
Rachel 346
Ses@@ 346
agar 346
ason 346
hur@@ 346
these 346
ɕ 346
噱@@ 346
嬤@@ 346
枱 346
贱@@ 346
Bes@@ 345
Dow@@ 345
Ear@@ 345
Eyes 345
Grav@@ 345
Hugh 345
Mitchell 345
Yu 345
bus@@ 345
melan@@ 345
osum 345
san 345
έ 345
嚙 345
淒@@ 345
淬@@ 345
盯 345
邰@@ 345
0.000 344
Fem@@ 344
Gri@@ 344
Palace 344
Six@@ 344
Tat@@ 344
det@@ 344
hu 344
neg@@ 344
otype 344
sar@@ 344
za@@ 344
柄@@ 344
熄 344
狳 344
罔 344
蕎@@ 344
讹 344
赃 344
鲵 344
鳗@@ 344
Chicago 343
Jessica 343
Lyn@@ 343
Og@@ 343
crip@@ 343
eral 343
igu@@ 343
kies 343
van@@ 343
vic 343
video 343
坌 343
娥@@ 343
毌 343
禀@@ 343
肮@@ 343
郦@@ 343
锢 343
馴 343
黟@@ 343
Catherine 342
Chron@@ 342
Had@@ 342
Harold 342
Malaysia 342
Oxford 342
Professor 342
Resp@@ 342
Tou@@ 342
Ville 342
agan 342
apa 342
bis@@ 342
cript 342
dorf 342
formis 342
isch@@ 342
kir@@ 342
prop@@ 342
virus 342
ה 342
嚥 342
憩@@ 342
晖@@ 342
栒 342
櫚 342
濡 342
璁 342
绾 342
蹴@@ 342
釧@@ 342
鉀@@ 342
Gau@@ 341
Indian 341
Kind@@ 341
Pom@@ 341
agus 341
etic 341
tain@@ 341
tie 341
vid@@ 341
② 341
嘩 341
淝 341
舘 341
螯@@ 341
鲱@@ 341
Airlines 340
Bed@@ 340
Berg@@ 340
Dawn 340
Dog@@ 340
Elli@@ 340
Harmon@@ 340
Lotus 340
Marshall 340
Person@@ 340
UCI 340
against 340
aster@@ 340
bet@@ 340
kes 340
tz@@ 340
岫 340
燧@@ 340
犛@@ 340
甕@@ 340
绫 340
霈 340
鸠@@ 340
Ernest 339
Gn@@ 339
Josh 339
Karen 339
Oscar 339
ander 339
eti 339
here 339
ked 339
ole@@ 339
tax@@ 339
timestamp 339
wak@@ 339
white 339
侑 339
囧 339
泣@@ 339
濘 339
瘴@@ 339
胳@@ 339
麿 339
Bec@@ 338
Cum@@ 338
Greatest 338
Greg 338
Raf@@ 338
Susan 338
Virgin 338
amus 338
ening 338
etto 338
isch 338
lion 338
onal@@ 338
ě 338
ユ 338
ヴ 338
尕 338
扩 338
痲 338
磋 338
綽 338
茧 338
锄@@ 338
髹 338
Barbara 337
Carlo 337
His 337
Julia 337
Murray 337
Season 337
Wag@@ 337
aber 337
att 337
eger 337
eler 337
ogle 337
ornis 337
ours 337
protein 337
ḥ 337
戳@@ 337
扛@@ 337
睜@@ 337
翦 337
膑 337
芍@@ 337
蹶@@ 337
지 337
Aaron 336
Racing 336
aggreg@@ 336
contributor 336
during 336
dy@@ 336
fen@@ 336
heter@@ 336
ledge 336
omi 336
user 336
Λ 336
簫 336
觊@@ 336
锣 336
陉 336
頷@@ 336
馅 336
Batt@@ 335
Sub 335
Theater 335
Villa 335
Wir@@ 335
berger 335
eca 335
emon 335
ran 335
ring 335
เ 335
皙 335
翳 335
顷@@ 335
騏 335
鳶@@ 335
鼴@@ 335
Animation 334
Cooper 334
Six 334
esh 334
xa 334
Π 334
ม 334
皝 334
躉 334
轸 334
Hard 333
Lamb@@ 333
Main@@ 333
Nem@@ 333
Pat 333
Sap@@ 333
Willi@@ 333
alis@@ 333
ble@@ 333
effect 333
feld 333
iva 333
press@@ 333
ques 333
rock 333
疝 333
皎@@ 333
脓@@ 333
Georg 332
Laz@@ 332
Len@@ 332
Motor@@ 332
arian 332
mic 332
py@@ 332
stri@@ 332
ざ 332
渚@@ 332
稗 332
贓@@ 332
鏘 332
鑛 332
闕@@ 332
驪@@ 332
鹑 332
Dod@@ 331
Rich@@ 331
Sha@@ 331
Shanghai 331
Silver@@ 331
abri@@ 331
comment 331
mir@@ 331
oso 331
ṭ 331
䲗 331
紂 331
苄 331
讣@@ 331
鄢 331
銥 331
钜 331
関@@ 331
阖 331
鲶@@ 331
Comics 330
Count 330
Dick 330
Flying 330
Hin@@ 330
Louisiana 330
Mann@@ 330
Marco 330
Ox@@ 330
Plas@@ 330
Short 330
Week 330
bot@@ 330
elling 330
led 330
凈 330
啲 330
嗝 330
搐 330
旃@@ 330
炘 330
祛@@ 330
辮 330
邙@@ 330
鎔@@ 330
闷@@ 330
龔 330
Case 329
Cinema 329
Rich 329
Turner 329
ging 329
later 329
lio 329
qua 329
sons 329
wald 329
wat@@ 329
yu@@ 329
ʃ 329
対 329
尙 329
牂 329
腋 329
菅 329
讒@@ 329
閥@@ 329
鲈@@ 329
---- 328
Innov@@ 328
Kum@@ 328
chus 328
lich@@ 328
pri@@ 328
ר 328
嗇 328
愷@@ 328
氦@@ 328
漣 328
碌@@ 328
稷@@ 328
竅 328
褓 328
銖 328
铑 328
镳 328
Eddie 327
Fine 327
Forum 327
Shin@@ 327
Stuart 327
amine 327
ember 327
ht 327
rin 327
tima 327
嚏 327
寐 327
慟 327
玖@@ 327
禕 327
邝@@ 327
驴@@ 327
鲑@@ 327
鶉 327
Coast 326
Hob@@ 326
Rah@@ 326
Row@@ 326
Sr@@ 326
Wu 326
burn 326
iana 326
mu 326
phyllum 326
ris@@ 326
ج 326
侥@@ 326
媧 326
惫 326
摺@@ 326
燥@@ 326
璞@@ 326
顥 326
Claude 325
Cook 325
Gur@@ 325
Jour@@ 325
Philippe 325
anta 325
avi 325
fur@@ 325
illon 325
late 325
ད 325
佾 325
倣 325
吶 325
獭 325
銼 325
AFC 324
Charlotte 324
Most 324
ells 324
esi@@ 324
fy 324
gin 324
iden 324
omb@@ 324
tos 324
ʻ 324
ก 324
อ 324
呐@@ 324
尪 324
楝 324
蜊 324
輅 324
飘 324
鵟 324
Abdul 323
ICC 323
Rin@@ 323
Son 323
ares 323
ata@@ 323
ause 323
best 323
ina@@ 323
many 323
onica 323
tery 323
慮@@ 323
翱@@ 323
闋 323
鱿@@ 323
Bah@@ 322
Bh@@ 322
Cec@@ 322
Democ@@ 322
Electronic 322
Eri@@ 322
Jeremy 322
Pos@@ 322
Private 322
Psy@@ 322
Record 322
Ta 322
ael 322
ited 322
kit 322
met 322
ms@@ 322
mul@@ 322
play@@ 322
same 322
thy 322
unit 322
咗 322
塩 322
挠@@ 322
槲@@ 322
溅 322
玮@@ 322
疋 322
繡@@ 322
轅@@ 322
鎗 322
頴 322
黻 322
Cri@@ 321
Develop@@ 321
Ivan 321
Speed 321
bab@@ 321
design 321
isia 321
ud 321
venture 321
đ 321
ف 321
亵 321
吠 321
泻@@ 321
糯 321
餃@@ 321
駄 321
Another 320
Bis@@ 320
Collins 320
Ja@@ 320
Lloyd 320
Nord@@ 320
Senior 320
Ultimate 320
arum 320
dam@@ 320
days 320
far@@ 320
meg@@ 320
owski 320
々 320
仞 320
嚎@@ 320
沔 320
眨@@ 320
秧 320
銑 320
Del 319
Fall 319
Tok@@ 319
Vin@@ 319
error 319
issa 319
othing 319
som@@ 319
べ 319
哑 319
攫@@ 319
沣 319
玹 319
钨@@ 319
闿 319
骊@@ 319
黴 319
Alg@@ 318
dem 318
eton 318
rup@@ 318
tot@@ 318
years 318
僮 318
徇@@ 318
荟@@ 318
遐 318
鎓 318
镨 318
閂 318
다 318
Anth@@ 317
Aud@@ 317
Text 317
fication 317
lic@@ 317
local 317
lock@@ 317
national 317
otic 317
rap 317
watch 317
嫂@@ 317
巳@@ 317
徳@@ 317
桀@@ 317
殃@@ 317
涛@@ 317
涩@@ 317
濡@@ 317
狨 317
笺 317
鍔 317
鍰 317
Canadian 316
Eastern 316
Fair 316
Swift 316
Tow@@ 316
box@@ 316
fon@@ 316
indic@@ 316
ix@@ 316
ling@@ 316
ono 316
pap@@ 316
疸 316
菘 316
衹 316
讧 316
﹚ 316
Adi@@ 315
Barn@@ 315
Dame 315
Ide@@ 315
Kos@@ 315
Peter@@ 315
WI 315
event@@ 315
ication 315
omer@@ 315
osper@@ 315
oun 315
wen 315
劏 315
稗@@ 315
虬@@ 315
驕 315
Bahn 314
Chung 314
German 314
Gul@@ 314
Pear@@ 314
Scienti@@ 314
Training 314
Wall@@ 314
aliz@@ 314
avo 314
dra@@ 314
ider@@ 314
ition 314
mani 314
par 314
tent 314
write 314
ya@@ 314
ṣ 314
嗅 314
拏 314
琺@@ 314
瓢 314
餵@@ 314
Africa 313
Ble@@ 313
Born 313
Du 313
E9@@ 313
Kate 313
Lec@@ 313
Louise 313
Morris 313
Nancy 313
Roberts 313
Scot@@ 313
UEFA 313
agram 313
alogue 313
atom@@ 313
iles 313
itation 313
phi 313
phon@@ 313
tain 313
vor 313
侦 313
俾 313
沓 313
糠@@ 313
豸 313
闼 313
隽 313
Adrian 312
Bath@@ 312
Choice 312
Dark@@ 312
Defense 312
Sant 312
Sant@@ 312
Wy@@ 312
atory 312
dea 312
ning@@ 312
pin 312
呦 312
団 312
孽@@ 312
宥@@ 312
峙@@ 312
櫓 312
毡 312
炤 312
盂@@ 312
箋 312
聂 312
踴@@ 312
鎰 312
Heli@@ 311
Mind@@ 311
NXT 311
Rum@@ 311
arium 311
eur@@ 311
just 311
kom@@ 311
math 311
orn@@ 311
tum 311
wang 311
◎ 311
榊@@ 311
磾 311
蠹 311
蹬 311
锴 311
魘 311
鱟 311
Artem@@ 310
Bang@@ 310
Chand@@ 310
Civ@@ 310
Gab@@ 310
Ground 310
Rein@@ 310
Route 310
aise 310
antum 310
aven 310
ben 310
col 310
coordin@@ 310
itis 310
kh 310
mas 310
ros 310
signed 310
som 310
uno 310
埸 310
璫 310
癣 310
睬 310
箬 310
諳 310
驮 310
麂 310
Alo@@ 309
Bureau 309
Devil 309
Mother 309
eland 309
ems 309
iting 309
master 309
oga 309
range 309
read 309
vector 309
ั 309
⁵ 309
拌@@ 309
殁 309
稃 309
縷 309
葭 309
谒@@ 309
飚 309
Bonn@@ 308
Colin 308
Dest@@ 308
Gall@@ 308
Holy 308
Jazz 308
Label 308
Nur@@ 308
ager 308
ancer 308
bon@@ 308
osph@@ 308
source 308
tag 308
web@@ 308
ɑ 308
া 308
哄 308
惕@@ 308
盥@@ 308
笋@@ 308
粧 308
紡 308
絮@@ 308
蠵 308
賡 308
銮@@ 308
霓 308
Aus@@ 307
Box@@ 307
Fighter 307
Ind@@ 307
Industrial 307
Mw@@ 307
NAT@@ 307
Silva 307
Spo@@ 307
Syst@@ 307
Vul@@ 307
XV 307
alli 307
ending 307
gan 307
ky@@ 307
original 307
sort 307
≠ 307
壅@@ 307
蟠 307
迩 307
Clin@@ 306
Cyr@@ 306
Part@@ 306
Publishing 306
Small 306
Suz@@ 306
aver@@ 306
eni@@ 306
found 306
翱 306
铕 306
雛 306
頑 306
馈@@ 306
骈 306
Andrea 305
Boulevard 305
Cohen 305
Gig@@ 305
Johannes 305
Organization 305
R.@@ 305
Tul@@ 305
agen 305
host 305
iness 305
mart@@ 305
onym@@ 305
ง 305
伎@@ 305
嘟 305
廡 305
涎 305
湜 305
瓩 305
碛 305
紺 305
薊 305
贽 305
鈮 305
隙@@ 305
鱚 305
６ 305
Alto 304
Dani@@ 304
Gard@@ 304
Gib@@ 304
Gilbert 304
Julius 304
Tum@@ 304
XIV 304
apping 304
escens 304
ieve 304
kill 304
lose 304
mission 304
systems 304
庾 304
彷@@ 304
旼 304
橿 304
緱@@ 304
脣 304
莓@@ 304
閬 304
사 304
Gos@@ 303
Nations 303
Polic@@ 303
Price 303
aton 303
ators 303
dres@@ 303
ien 303
ophyl@@ 303
stage 303
Э 303
் 303
姍@@ 303
滂 303
濰@@ 303
铣 303
阚@@ 303
鲹 303
C.@@ 302
Claire 302
Kid@@ 302
Kul@@ 302
Medicine 302
awn 302
consol@@ 302
dol 302
line@@ 302
rh@@ 302
tak@@ 302
tari 302
tium 302
tural 302
xe 302
ṃ 302
啰 302
奐 302
殇 302
牘 302
瑷 302
瘀@@ 302
笆 302
篪 302
鏐 302
驢@@ 302
Aviation 301
Boh@@ 301
Daw@@ 301
Test@@ 301
Tyler 301
amba 301
cial 301
sun@@ 301
啜 301
栉@@ 301
翀 301
脐@@ 301
軻 301
鉗@@ 301
黼 301
Arnold 300
Gibson 300
Sz@@ 300
Til@@ 300
ats@@ 300
eur 300
flav@@ 300
hion 300
phot@@ 300
rig@@ 300
wall 300
乓 300
寛@@ 300
弑@@ 300
棠@@ 300
钰@@ 300
Baron 299
Brad@@ 299
Cun@@ 299
Gene 299
Independent 299
John@@ 299
Kai 299
Luke 299
Oliv@@ 299
Smo@@ 299
Sti@@ 299
Virginia 299
atur@@ 299
parti@@ 299
rate 299
ύ 299
ṇ 299
ぼ 299
叭@@ 299
巯@@ 299
捡 299
漓 299
耍@@ 299
鏟@@ 299
驃@@ 299
Arn@@ 298
Au 298
Eagle 298
Edwin 298
Hut@@ 298
Prof@@ 298
Ray@@ 298
Raz@@ 298
Sydney 298
aries 298
bias 298
cia 298
ique 298
million 298
oku 298
pass 298
production 298
short 298
uli 298
ğ 298
喰 298
搪@@ 298
瀞 298
灞 298
荞@@ 298
谯 298
贲@@ 298
逖 298
鱀 298
Back@@ 297
Ga 297
Mov@@ 297
Nig@@ 297
Pac@@ 297
Rhin@@ 297
Ya@@ 297
aan 297
alls 297
azi@@ 297
ego 297
ener 297
hiz@@ 297
plo@@ 297
ved 297
З 297
矯 297
辮@@ 297
Bi 296
Fig@@ 296
Nine 296
Russian 296
Say@@ 296
Tell 296
aur 296
ead 296
fasci@@ 296
kn@@ 296
lati@@ 296
uro 296
vie@@ 296
ك 296
न 296
‖ 296
嵬 296
涇 296
箫 296
糅@@ 296
虻 296
軛@@ 296
颤 296
﹙ 296
Abr@@ 295
Atlantic 295
Christ 295
Iron 295
Koh@@ 295
NCA@@ 295
Ronald 295
Tag 295
abad 295
bir@@ 295
dev@@ 295
eville 295
fare 295
lag 295
mak@@ 295
teri@@ 295
徙@@ 295
捅 295
斃@@ 295
漕 295
瑱 295
荽 295
贮 295
钪 295
Amar@@ 294
Buz@@ 294
Ella 294
Fru@@ 294
Kay 294
Lam 294
Legend 294
Liberty 294
Rights 294
anie 294
formes 294
ills 294
ime@@ 294
བ 294
≈ 294
搓 294
躪 294
雎 294
駭 294
가 294
Architecture 293
Brand 293
Butter@@ 293
Felix 293
Hermann 293
Ireland 293
Jun@@ 293
Lepto@@ 293
Lyc@@ 293
Monte 293
Tax@@ 293
ague 293
iki@@ 293
ingham 293
nat@@ 293
qi 293
ि 293
伺 293
佰 293
囂@@ 293
宍 293
覧 293
贍 293
鏗@@ 293
Anton 292
Blues 292
Bruno 292
Fos@@ 292
Gay 292
Hart@@ 292
Jen@@ 292
Roth@@ 292
Venus 292
folium 292
ion@@ 292
ris 292
squ@@ 292
匝 292
嗚@@ 292
噌 292
撣@@ 292
獠 292
鎏@@ 292
Cultural 291
Hart 291
Hydro@@ 291
Jenn@@ 291
Klein 291
Milli@@ 291
Prin@@ 291
bee 291
bius 291
cord 291
dal@@ 291
fir@@ 291
ful@@ 291
geome@@ 291
org@@ 291
tec@@ 291
א 291
ز 291
™ 291
咙 291
址@@ 291
姉 291
姍 291
枷 291
跛@@ 291
韜@@ 291
饗 291
Authority 290
Bung@@ 290
Cov@@ 290
Fan@@ 290
Form@@ 290
Gel@@ 290
Mong@@ 290
Termin@@ 290
ances 290
cit@@ 290
conn@@ 290
idos 290
ld@@ 290
lies 290
phen@@ 290
spe@@ 290
ternal 290
wich 290
㹴 290
爻 290
牦@@ 290
狒 290
総 290
袒@@ 290
讖@@ 290
鄄@@ 290
鉭 290
鬨 290
대 290
After@@ 289
Berlin 289
Diego 289
Dyn@@ 289
Ex 289
Horiz@@ 289
Hugo 289
Industries 289
November 289
Penn@@ 289
ophy@@ 289
plan 289
pseud@@ 289
€ 289
壆 289
徴 289
怎 289
渎@@ 289
艱 289
衅@@ 289
铐 289
Cant@@ 288
Emma 288
Fall@@ 288
Hou@@ 288
Know@@ 288
Nathan 288
Owen 288
dro@@ 288
due 288
factor 288
integ@@ 288
itas 288
obr@@ 288
rio 288
six 288
sten 288
♭ 288
嘏 288
孰 288
滦 288
燄 288
绊@@ 288
訌 288
踵 288
邗@@ 288
郾@@ 288
饱 288
Brid@@ 287
Master@@ 287
Mau@@ 287
acul@@ 287
ference 287
him@@ 287
hir@@ 287
iner@@ 287
kii 287
quin@@ 287
sert 287
Ф 287
म 287
倔@@ 287
卬 287
噓 287
惘 287
珂@@ 287
邹 287
Cemetery 286
Eugene 286
Jab@@ 286
Joshua 286
Rush 286
Texas 286
aza 286
ellus 286
hem@@ 286
ishi 286
lor@@ 286
mine 286
stadt 286
teen 286
ules 286
ή 286
俨@@ 286
濯 286
谪 286
骶@@ 286
Archit@@ 285
Carp@@ 285
Cath@@ 285
Local 285
Nom@@ 285
Orchestra 285
Peak 285
Peg@@ 285
bu 285
eda 285
itter 285
onium 285
take 285
tidae 285
俱樂@@ 285
吩 285
敛@@ 285
曬@@ 285
聿 285
芈 285
駢@@ 285
髂@@ 285
鹗 285
Aster@@ 284
Contin@@ 284
Dag@@ 284
Emily 284
Gy@@ 284
Perry 284
Trans 284
Vivi@@ 284
Watson 284
aller 284
alli@@ 284
inn 284
uki 284
ɪ 284
呐 284
呷 284
嫻@@ 284
徨 284
泠 284
烙 284
蓣 284
蝰@@ 284
骼@@ 284
Avi@@ 283
Movement 283
Trinity 283
Wild@@ 283
Yar@@ 283
anh 283
bia 283
club 283
佇@@ 283
嚟 283
鍀 283
鳕@@ 283
김 283
Canal 282
Challenge 282
Grey 282
KP 282
Lucy 282
Motor 282
Myster@@ 282
Sag@@ 282
Satur@@ 282
Sierra 282
Wer@@ 282
far 282
gin@@ 282
nar@@ 282
nati@@ 282
othy 282
э 282
ิ 282
垵 282
毬 282
瘁 282
磬 282
簕 282
苄@@ 282
衊 282
隴 282
隽@@ 282
Assembly 281
Fav@@ 281
Fellow 281
Highway 281
Rob 281
dev 281
enh@@ 281
enton 281
entry 281
eux 281
hyper@@ 281
lus@@ 281
mati@@ 281
mos 281
para 281
pher@@ 281
without 281
ォ 281
撇 281
昪 281
砧@@ 281
祏 281
鉸 281
鎵 281
頊 281
Cambridge 280
Caroline 280
Corps 280
Jeffrey 280
Jennifer 280
Kennedy 280
Team@@ 280
Trig@@ 280
Zh@@ 280
ahn 280
enf@@ 280
illing 280
nd 280
server 280
緞@@ 280
肟 280
葯 280
霁@@ 280
Gru@@ 279
PhD 279
dae 279
elds 279
following 279
hat 279
hon@@ 279
ל 279
ོ 279
乡镇@@ 279
呵 279
嘛@@ 279
堉 279
柞@@ 279
珽 279
苎@@ 279
鉬 279
锇 279
Civil 278
Fischer 278
Him@@ 278
January 278
Match 278
Pek@@ 278
Sex 278
Zep@@ 278
abi 278
atin 278
elles 278
emati@@ 278
mir 278
pet@@ 278
racy 278
sii 278
spin@@ 278
stell@@ 278
train 278
tun@@ 278
効 278
嘈@@ 278
拴@@ 278
琯 278
眞 278
笙@@ 278
脯@@ 278
辺 278
Franklin 277
Isaac 277
Kay@@ 277
Phillips 277
Piz@@ 277
Singh 277
Wayne 277
atu 277
chem@@ 277
coc@@ 277
ige 277
magazine 277
match 277
nu 277
ps@@ 277
rid@@ 277
she@@ 277
vil 277
west 277
yon@@ 277
ི 277
啦@@ 277
噠 277
玆 277
秣 277
蔺@@ 277
衫@@ 277
閻 277
鹳@@ 277
나 277
Carl@@ 276
Harvey 276
Municipal 276
Nucle@@ 276
Oh@@ 276
Ski@@ 276
Total 276
atri@@ 276
complex 276
emia 276
kor@@ 276
leton 276
olep@@ 276
Ø 276
圮 276
嬛 276
嬸 276
崮 276
澶 276
薏@@ 276
蘅 276
銦 276
鰾 276
Convention 275
Donn@@ 275
Hid@@ 275
Jesus 275
Santo 275
Warner 275
aen@@ 275
bos@@ 275
dir 275
ga@@ 275
hir 275
iny 275
num@@ 275
rel 275
sel 275
tail 275
uba 275
娲 275
浇 275
滉 275
莹@@ 275
阑@@ 275
驷@@ 275
Buk@@ 274
Carol 274
Giuseppe 274
Got 274
Kamp@@ 274
List@@ 274
Lot@@ 274
Medal 274
Protection 274
Some 274
Sv@@ 274
Wars 274
again 274
iler 274
nav@@ 274
prom@@ 274
roc@@ 274
sz@@ 274
times 274
ues 274
Β 274
勺@@ 274
啥 274
慚@@ 274
戡 274
晾@@ 274
癥 274
詒 274
鋇 274
鋯 274
镀 274
靓@@ 274
頫 274
鳟@@ 274
Aff@@ 273
Andre@@ 273
Buch@@ 273
Regional 273
Stefan 273
Technical 273
Vid@@ 273
adia 273
alt 273
ano@@ 273
bium 273
dog 273
enes 273
eter@@ 273
eting 273
grap@@ 273
ར 273
叮 273
怂@@ 273
揪 273
暧@@ 273
縛@@ 273
罵@@ 273
谌 273
軼 273
Anton@@ 272
Away 272
Grim@@ 272
Las 272
Liter@@ 272
P.@@ 272
Pok@@ 272
Sens@@ 272
alo 272
bad 272
could 272
eka 272
hood 272
冪@@ 272
哆@@ 272
溲 272
訃@@ 272
霖@@ 272
鯡@@ 272
﹣ 272
Elena 271
Far 271
Fred@@ 271
Hali@@ 271
Harrison 271
Natur@@ 271
Philosoph@@ 271
Race 271
Sep@@ 271
Wide 271
ator@@ 271
depend@@ 271
dt 271
ected 271
information 271
nay 271
ordin@@ 271
pression 271
shot 271
ularis 271
uses 271
whe@@ 271
ག 271
ㄇ 271
劻 271
孳@@ 271
岙@@ 271
巅 271
淸 271
炁 271
烫 271
狛 271
眞@@ 271
秭@@ 271
荚@@ 271
螭 271
鄣 271
铵@@ 271
镂@@ 271
Chang@@ 270
December 270
Fern@@ 270
Fisher 270
Gill 270
Joint 270
Jose 270
Lil@@ 270
Round 270
Santos 270
Sultan 270
Wind@@ 270
ebo@@ 270
har 270
olan 270
syndrome 270
俁@@ 270
槙 270
瓠 270
磕@@ 270
窰 270
耽 270
胝 270
臬 270
訕 270
鉈 270
鋂 270
Cran@@ 269
DDR 269
Foster 269
Military 269
Non@@ 269
Phoenix 269
Roh@@ 269
Sit@@ 269
Voy@@ 269
ichi 269
ino@@ 269
isp@@ 269
mand@@ 269
哼@@ 269
垌 269
忿 269
篱 269
谧 269
輜@@ 269
郗 269
镧@@ 269
Alli@@ 268
Chuck 268
Gonz@@ 268
adu@@ 268
espace 268
uan 268
uck@@ 268
usi@@ 268
埒 268
廝@@ 268
恃@@ 268
枞@@ 268
泷@@ 268
焱 268
纭 268
胯@@ 268
趺 268
阕 268
鯒 268
黝@@ 268
Cha 267
Christi@@ 267
Congress 267
Instrum@@ 267
Nam 267
Pete 267
Roberto 267
Sieg@@ 267
aging 267
buc@@ 267
dule 267
pay@@ 267
road 267
tit@@ 267
tric@@ 267
utions 267
乜 267
埂 267
弒@@ 267
杵@@ 267
柊 267
玻 267
羥 267
舢@@ 267
苌 267
襖 267
鍶 267
African 266
Bass 266
Boul@@ 266
Brig@@ 266
Foreign 266
Rac@@ 266
Toy@@ 266
Without 266
ample 266
cos 266
endi@@ 266
oir 266
pter@@ 266
utt@@ 266
wind 266
嚈 266
囿 266
懒 266
舛 266
鈿 266
鵜 266
鵠 266
Archi@@ 265
Jin 265
Maxim@@ 265
Nacional 265
Notes 265
Pam@@ 265
S.@@ 265
Secretary 265
Ted@@ 265
acks 265
aking 265
aze 265
hic 265
lain 265
ron@@ 265
season 265
soni 265
tico 265
tol@@ 265
ゼ 265
东省 265
椋 265
稙 265
芃 265
蓆 265
谁@@ 265
邸@@ 265
陟@@ 265
鰧 265
鸛 265
Andr@@ 264
Bill@@ 264
Campus 264
Chal@@ 264
Hunt 264
Julian 264
Jung@@ 264
Pant@@ 264
Revol@@ 264
Serge@@ 264
Slo@@ 264
Thir@@ 264
dar@@ 264
ecca 264
gar 264
including 264
kus 264
memory 264
mix@@ 264
olus 264
onom@@ 264
person 264
sal 264
trich@@ 264
zen@@ 264
त 264
搔@@ 264
榧 264
氬 264
涿 264
脐 264
腩 264
諱@@ 264
辫@@ 264
Dick@@ 263
Kid 263
Nap@@ 263
Sah@@ 263
South@@ 263
Spencer 263
cri@@ 263
current 263
isten 263
ju 263
mel 263
move 263
oc 263
open@@ 263
punc@@ 263
quar@@ 263
urt 263
vus 263
唧@@ 263
垅 263
榖 263
狒@@ 263
蘄@@ 263
韭 263
颛@@ 263
髑 263
鬟 263
Crim@@ 262
Das 262
Elem@@ 262
Eva 262
Hits 262
Lut@@ 262
Sophie 262
Sport@@ 262
Wed@@ 262
av 262
eki 262
gig@@ 262
nan 262
one@@ 262
ply 262
吗@@ 262
榉 262
筏@@ 262
羧 262
鄠 262
鲆 262
﹝ 262
﹞ 262
Citi@@ 261
Cruz 261
Joan 261
Nick@@ 261
Viv@@ 261
adr@@ 261
agi@@ 261
angu@@ 261
elt 261
fus@@ 261
large 261
orr@@ 261
step 261
tius 261
yr 261
ю 261
♪ 261
倦@@ 261
孑@@ 261
岘@@ 261
擧 261
栻 261
槺 261
螅 261
蠱 261
躺@@ 261
逛@@ 261
鋆 261
鲉 261
183@@ 260
Aj@@ 260
Cole 260
Nev@@ 260
Nob@@ 260
Rak@@ 260
Sour@@ 260
Spor@@ 260
Ukrainian 260
Well@@ 260
bei 260
groups 260
inda 260
kov@@ 260
message 260
ophora 260
quer@@ 260
rou@@ 260
tax 260
ult@@ 260
曝 260
沆 260
滹@@ 260
羔 260
蘑 260
豳 260
钽 260
驩 260
鱥 260
정 260
Blan@@ 259
E.@@ 259
Hell 259
Leslie 259
Meyer 259
Or 259
Start 259
Trou@@ 259
Vill@@ 259
Wiz@@ 259
called 259
cir@@ 259
ip 259
jav@@ 259
speci@@ 259
store 259
tronics 259
vul@@ 259
昧@@ 259
滂@@ 259
皰@@ 259
础 259
翩 259
耜 259
蚤@@ 259
輦 259
７ 259
Cob@@ 258
Director 258
FIBA 258
Kurt 258
Night@@ 258
Quer@@ 258
Stan@@ 258
These 258
Valent@@ 258
dle 258
elius 258
limited 258
obs 258
ocer@@ 258
ogoro 258
since 258
tern 258
tras@@ 258
vio 258
啃@@ 258
娴 258
弇 258
拈@@ 258
旃 258
枭 258
烹 258
绚@@ 258
胍 258
貽 258
鋤 258
饺@@ 258
G.@@ 257
Industry 257
Newton 257
Sonic 257
alar@@ 257
domain 257
endr@@ 257
estruc@@ 257
ffe 257
girl 257
ized 257
online 257
pent@@ 257
uca 257
ส 257
悝 257
揹 257
椴@@ 257
瑛@@ 257
釔 257
鯷 257
Administration 256
Audi 256
Cape 256
Chlor@@ 256
Dj@@ 256
Minister 256
Nad@@ 256
bits 256
dur@@ 256
ligh@@ 256
stock 256
凛@@ 256
叩 256
巂 256
柒@@ 256
湫 256
矜 256
绫@@ 256
谌@@ 256
鲃 256
스 256
Alb@@ 255
Ey@@ 255
Fast 255
Fund@@ 255
Quar@@ 255
Zer@@ 255
aling 255
brain 255
cam@@ 255
cont@@ 255
cross 255
dav@@ 255
dier 255
different 255
ehouse 255
green 255
idal 255
ilk 255
rati@@ 255
sir 255
ymn@@ 255
∶ 255
瘿 255
粕 255
羡 255
郤@@ 255
鞣@@ 255
Adri@@ 254
Io@@ 254
Ruth 254
ement@@ 254
ench@@ 254
full 254
ovich 254
͡ 254
剝 254
庯 254
廆 254
朧 254
澆 254
炊 254
痞 254
舎 254
虑@@ 254
蠊 254
鏵 254
기 254
Ｂ 254
Fitz@@ 253
July 253
Nes@@ 253
alum 253
anch@@ 253
cover 253
emi 253
kinson 253
mid@@ 253
nez 253
released 253
stars 253
sv@@ 253
thias 253
wn@@ 253
ř 253
ى 253
仝@@ 253
卹 253
咱 253
懦 253
気 253
璈 253
綉 253
芫@@ 253
藹 253
頼 253
颙 253
鳎 253
하 253
Gav@@ 252
Hydr@@ 252
Inf@@ 252
Jay@@ 252
Mechan@@ 252
Nim@@ 252
Ris@@ 252
UNESCO 252
Ve@@ 252
Vol 252
Years 252
ged 252
hav@@ 252
said 252
structure 252
vier 252
was@@ 252
咨 252
嫚 252
幗 252
诙@@ 252
Andreas 251
Hell@@ 251
Mason 251
Phy@@ 251
Suc@@ 251
Tag@@ 251
ancy 251
eds 251
evo 251
lost 251
ocol@@ 251
ride 251
shire 251
story 251
ེ 251
兢@@ 251
擂 251
榭@@ 251
橱@@ 251
湣 251
猞@@ 251
砧 251
粱@@ 251
蒽@@ 251
螫 251
赘 251
踊@@ 251
Betty 250
Chor@@ 250
Euph@@ 250
Fit@@ 250
Franc@@ 250
Michelle 250
Nicolas 250
Olympic 250
Supreme 250
Tun@@ 250
aia 250
door 250
enter@@ 250
ept@@ 250
lea 250
lob@@ 250
rhy@@ 250
rif@@ 250
sle@@ 250
tab@@ 250
tures 250
wave 250
yak@@ 250
ว 250
憎 250
杼 250
濶 250
詧 250
９ 250
Faith 249
Mai 249
Rif@@ 249
Wells 249
axis 249
did 249
enz 249
ires 249
lec@@ 249
nit@@ 249
omor@@ 249
onas 249
part@@ 249
qui 249
sten@@ 249
tex@@ 249
œ 249
劄 249
塽 249
惚 249
扼 249
攬@@ 249
猁 249
瘀 249
苈 249
貯 249
輟 249
驤@@ 249
AIDS 248
Championships 248
Guard 248
McCar@@ 248
Min 248
Range 248
Sullivan 248
anced 248
black 248
cryp@@ 248
friend 248
ft@@ 248
imp@@ 248
kol@@ 248
ping 248
õ 248
ש 248
└ 248
悸 248
殃 248
殻 248
渤 248
蛆 248
雫 248
鹵 248
｡ 248
Agu@@ 247
Chic@@ 247
Denis 247
Guil@@ 247
Krist@@ 247
Lil 247
Sas@@ 247
Todd 247
Ud@@ 247
andi@@ 247
disease 247
drive 247
ilo 247
iscus 247
mem@@ 247
orph@@ 247
scale 247
stat@@ 247
umo 247
unter 247
yro@@ 247
क 247
唄 247
峄 247
昕@@ 247
槤 247
猗@@ 247
琬@@ 247
罽 247
脯 247
蕤 247
蝎 247
衎 247
Dendro@@ 246
Identi@@ 246
Kad@@ 246
fel@@ 246
heart 246
inning 246
nen 246
ril 246
sley 246
variable 246
ա 246
垓 246
塾@@ 246
娴@@ 246
濑 246
窈@@ 246
轧 246
鋦 246
頡 246
鲂 246
Bradley 245
Epi@@ 245
Joel 245
Reed 245
Wales 245
acher 245
ados 245
anny 245
atha 245
cells 245
icola 245
ingo 245
lav 245
ongo 245
optera 245
tera 245
÷ 245
呻@@ 245
嚎 245
坭 245
廄 245
懺 245
砹 245
篱@@ 245
謾 245
逹 245
郛 245
鄖@@ 245
醃@@ 245
骰 245
Bub@@ 244
Dep@@ 244
Ferdinand 244
Julie 244
Mack@@ 244
Mati@@ 244
Metropolitan 244
Still 244
alla 244
cut 244
essor 244
isha 244
odo@@ 244
ogen 244
③ 244
䓬 244
枹 244
榫 244
潯 244
珙@@ 244
瑊 244
睁@@ 244
赡@@ 244
铆@@ 244
馏@@ 244
Bret@@ 243
Duncan 243
Mountains 243
Music@@ 243
Ped@@ 243
Porter 243
Rice 243
cent 243
emann 243
haus 243
modi@@ 243
oscop@@ 243
patr@@ 243
release 243
social 243
sub 243
trav@@ 243
unk 243
ф 243
劊@@ 243
婧 243
恕@@ 243
珈@@ 243
篁 243
逋 243
Angels 242
Antoine 242
Austr@@ 242
Formula 242
Friday 242
Miles 242
Pow@@ 242
Sega 242
blue 242
einer 242
lay@@ 242
lines 242
liv@@ 242
nucle@@ 242
onian 242
pping 242
stay 242
zh@@ 242
ạ 242
俑@@ 242
変 242
妞@@ 242
擎 242
栉 242
槻 242
祔 242
铳 242
隗 242
饉 242
7th 241
Fa@@ 241
Fen@@ 241
Fried@@ 241
Gros@@ 241
Jake 241
Neur@@ 241
Normal 241
Rail@@ 241
Wak@@ 241
achi 241
acking 241
around 241
ayi 241
cot@@ 241
ers@@ 241
general 241
human 241
know 241
lett 241
third 241
tified 241
unge 241
yle 241
zip 241
仝 241
崆@@ 241
潯@@ 241
煨 241
苹 241
藺@@ 241
鏑 241
镕 241
라 241
한 241
Aph@@ 240
Asi@@ 240
Jagu@@ 240
Lad@@ 240
September 240
Steel 240
azi 240
eline 240
history 240
key@@ 240
nier 240
onna 240
serv@@ 240
tem 240
ơ 240
מ 240
屐 240
嵋@@ 240
恽 240
憍 240
旼@@ 240
簸 240
聋 240
荏@@ 240
蛊 240
酢 240
鋐 240
鎔 240
铱 240
의 240
Ant@@ 239
Aub@@ 239
Ced@@ 239
Commer@@ 239
Gerald 239
Glass 239
Jesse 239
Martin@@ 239
Sara 239
abilis 239
ables 239
alan@@ 239
building 239
dot 239
engine 239
erine 239
fle@@ 239
how 239
med@@ 239
never 239
phosph@@ 239
plas@@ 239
ờ 239
删 239
嗡 239
抜 239
晸 239
柃 239
爹@@ 239
継 239
緲 239
踐@@ 239
躏 239
阂 239
雩 239
鬘 239
어 239
Evangel@@ 238
Falls 238
Hag@@ 238
Hod@@ 238
Lob@@ 238
dell 238
eco 238
hold 238
led@@ 238
ned 238
nos 238
oss 238
studio 238
teo 238
unda 238
§ 238
Ⅳ 238
ヨ 238
佞 238
佤 238
捶 238
豨 238
８ 238
Chel@@ 237
Eve 237
Executive 237
Fili@@ 237
Hill@@ 237
Hog@@ 237
Mall@@ 237
Observat@@ 237
Sol 237
anos 237
ardi 237
icz 237
kur@@ 237
nas@@ 237
onds 237
ouv@@ 237
oux 237
rac@@ 237
tour 237
ucci 237
zon@@ 237
嶝 237
摑 237
泯 237
涯@@ 237
珺 237
砥 237
耦 237
肛 237
艰 237
謗@@ 237
顴@@ 237
鳝 237
鷗@@ 237
동 237
Affairs 236
Cau@@ 236
Differ@@ 236
Han 236
Kara 236
Kent 236
Lincoln 236
Pag@@ 236
Phan@@ 236
Student 236
Vinc@@ 236
Wallace 236
allo@@ 236
anner 236
ante@@ 236
eci@@ 236
election 236
emat@@ 236
fall 236
hai 236
may@@ 236
phase 236
prim@@ 236
script 236
sta 236
still 236
tac@@ 236
uel@@ 236
uer@@ 236
vat@@ 236
vision 236
丼 236
亳 236
嘟@@ 236
嶼@@ 236
廕 236
瀅 236
瀘 236
瘡@@ 236
稈 236
筍@@ 236
錸 236
鑿@@ 236
铪 236
陌 236
鹀 236
Ada 235
Atom@@ 235
Elite 235
Fat@@ 235
Geoff@@ 235
Head@@ 235
Mercedes 235
Montana 235
Myr@@ 235
Pharm@@ 235
Rig@@ 235
Stra@@ 235
aar 235
analysis 235
chan@@ 235
reference 235
嗡@@ 235
屌 235
殤@@ 235
煚 235
睺 235
胧 235
鄴@@ 235
骈@@ 235
鰲@@ 235
鷄 235
鼴 235
4th 234
Ahmad 234
Beat@@ 234
Belle 234
Bennett 234
Cow@@ 234
Deutsche 234
Dut@@ 234
Flam@@ 234
Hall@@ 234
Hand 234
Isab@@ 234
Joy@@ 234
Kre@@ 234
Kyle 234
Sang@@ 234
alie 234
chum 234
electoral 234
ished 234
lav@@ 234
layer 234
lut@@ 234
mur@@ 234
stop 234
tag@@ 234
vies 234
weight 234
ъ 234
づ 234
崐 234
旸 234
濞 234
緘@@ 234
绯 234
缗 234
胂 234
钐 234
･ 234
Benn@@ 233
Bod@@ 233
Calli@@ 233
Cam 233
Dus@@ 233
Gang@@ 233
Hend@@ 233
Sek@@ 233
Sri 233
auto 233
contr@@ 233
event 233
lik@@ 233
ming 233
nea 233
platz 233
ʂ 233
Κ 233
ệ 233
拗@@ 233
溆@@ 233
萜@@ 233
諲 233
谗@@ 233
貉 233
颉 233
骊 233
魄@@ 233
Alberto 232
Boston 232
Clarke 232
Form 232
Harper 232
Princip@@ 232
Schw@@ 232
Shaw 232
Third 232
because 232
gium 232
grandi@@ 232
hard@@ 232
iday 232
isco 232
iser 232
leg 232
opping 232
party 232
rail 232
sie 232
track 232
within 232
̃ 232
哼 232
垸 232
筮 232
粥@@ 232
苋 232
谑 232
隰@@ 232
飼 232
Byr@@ 231
Gan@@ 231
Rain@@ 231
Schmidt 231
Vladimir 231
acet@@ 231
adies 231
enda 231
lied 231
portation 231
ren 231
tif@@ 231
噜 231
嵗 231
嵘 231
戢 231
扦@@ 231
浐 231
紂@@ 231
蹺 231
铂@@ 231
镁@@ 231
餃 231
Chase 230
Did@@ 230
Inn@@ 230
October 230
Plant 230
Werner 230
aces 230
entin 230
fast 230
gle 230
imus 230
ley@@ 230
search 230
swe@@ 230
tru@@ 230
vet@@ 230
ת 230
犛 230
癖@@ 230
賁@@ 230
钫 230
锝 230
5th 229
Angela 229
Atlas 229
Kob@@ 229
Roll 229
abor@@ 229
ender@@ 229
eze 229
games 229
icks 229
member 229
onde 229
ool 229
sign@@ 229
̍ 229
刽@@ 229
厮@@ 229
喹 229
嗩@@ 229
妣 229
妲@@ 229
渑@@ 229
烃@@ 229
硏 229
碶 229
窘 229
贇 229
郿 229
주 229
Ahmed 228
Buff@@ 228
Garr@@ 228
Irish 228
Jamie 228
Liu 228
Mercury 228
Tales 228
alle 228
bourg 228
cros@@ 228
eine 228
eleg@@ 228
future 228
mouth 228
ped@@ 228
rat 228
sep@@ 228
tari@@ 228
掐@@ 228
臍@@ 228
蠔 228
踊 228
雋@@ 228
Advis@@ 227
Encyclo@@ 227
Hughes 227
Masters 227
Saw@@ 227
Stud@@ 227
Ts@@ 227
atis@@ 227
enko 227
iter 227
lich 227
operation 227
tos@@ 227
ב 227
⟩ 227
乗 227
俎 227
壙 227
炕 227
猥 227
萱@@ 227
魣 227
龑 227
Activ@@ 226
Ai 226
Alber@@ 226
Ce 226
Chapelle 226
Sib@@ 226
another 226
centr@@ 226
construc@@ 226
ees 226
eg 226
eras 226
evol@@ 226
ister@@ 226
parentid 226
pec@@ 226
pert 226
ucture 226
侑@@ 226
劾@@ 226
墬 226
姫@@ 226
恫@@ 226
桉 226
绊 226
翥 226
腭@@ 226
轲 226
鐲 226
镝 226
성 226
Arab@@ 225
Bass@@ 225
Bob@@ 225
Capit@@ 225
Dad@@ 225
Ellen 225
Hau@@ 225
Human@@ 225
Inv@@ 225
Jose@@ 225
Linda 225
Nina 225
Notre 225
elis 225
ob 225
pack@@ 225
phin 225
plen@@ 225
reaction 225
rich 225
standing 225
ulum 225
until 225
¬ 225
⟨ 225
ㄆ 225
卽 225
吧@@ 225
圉 225
揍 225
楔 225
淯 225
炖 225
瑠 225
裱 225
襁@@ 225
銹 225
Es 224
Hak@@ 224
Josef 224
Juli@@ 224
Jus@@ 224
Kaw@@ 224
Pall@@ 224
Upper 224
actylus 224
atra 224
igi@@ 224
istics 224
lington 224
orium 224
ram 224
rest 224
thy@@ 224
佞@@ 224
哏 224
啼 224
噗 224
揖@@ 224
沩@@ 224
涣@@ 224
濊 224
闳 224
鯧@@ 224
Aeg@@ 223
Blin@@ 223
Dw@@ 223
Id@@ 223
Navy 223
Naz@@ 223
Rav@@ 223
edge 223
jet 223
mis 223
nam 223
pool 223
tea 223
week 223
ylon 223
凛 223
奂 223
広 223
禩 223
诰@@ 223
镖@@ 223
靄@@ 223
鯪 223
鯻 223
鱵 223
鲟 223
Annie 222
Baseball 222
Contr@@ 222
Diana 222
Gad@@ 222
Hack@@ 222
Imperial 222
Isle 222
Janet 222
Ket@@ 222
Ridge 222
Schools 222
Tang 222
Tsu@@ 222
ao@@ 222
blog 222
colum@@ 222
fier 222
gy@@ 222
iter@@ 222
nov@@ 222
oking 222
param@@ 222
shu@@ 222
thu@@ 222
union 222
刨@@ 222
惺 222
斤@@ 222
縝@@ 222
胰 222
蓖@@ 222
閾@@ 222
鞦 222
Ab 221
Freder@@ 221
Laurent 221
Pablo 221
Pak@@ 221
Personal 221
Phase 221
Programm@@ 221
Shah@@ 221
article 221
atio 221
bran@@ 221
church 221
cip@@ 221
direct 221
edi 221
evi 221
flor@@ 221
oul 221
term 221
  221
圪@@ 221
妫 221
峋 221
嶙@@ 221
恳 221
楮 221
琥 221
箝@@ 221
萇 221
蛀@@ 221
蠱@@ 221
鎂@@ 221
陨 221
韆 221
饌 221
鮗 221
Bible 220
Erik 220
Kus@@ 220
Reich@@ 220
anes 220
angi 220
aun 220
back@@ 220
iel 220
ification 220
initi@@ 220
lag@@ 220
management 220
played 220
sequence 220
sha 220
speed 220
tienne 220
俱乐@@ 220
冴@@ 220
唁@@ 220
媾@@ 220
搓@@ 220
灞@@ 220
碴 220
磧 220
颞@@ 220
鸚 220
鹈@@ 220
Calvin 219
Catholic 219
Champ@@ 219
Early 219
Gior@@ 219
Hul@@ 219
Param@@ 219
Scotland 219
ails 219
amar@@ 219
aps 219
austr@@ 219
cut@@ 219
dn 219
erra 219
icon@@ 219
inger@@ 219
ishing 219
kam@@ 219
recep@@ 219
uke 219
walk 219
yne 219
≡ 219
嗶 219
嗶@@ 219
畀 219
瞼 219
銚 219
鍇 219
闌@@ 219
202@@ 218
Allan 218
Atl@@ 218
Before 218
Clif@@ 218
East@@ 218
Mou@@ 218
Murphy 218
Roland 218
Rolling 218
Stic@@ 218
Survey 218
development 218
geb@@ 218
global 218
lah 218
otro@@ 218
path 218
phi@@ 218
stor@@ 218
today 218
uj@@ 218
ё 218
佟 218
圏 218
炆 218
瞪 218
蓑@@ 218
薮 218
迤 218
鎭 218
镯 218
鰩 218
鸵@@ 218
鹧@@ 218
Art@@ 217
Bon 217
Hey@@ 217
Lip@@ 217
Poli@@ 217
Scho@@ 217
Wis@@ 217
country 217
cus@@ 217
gran@@ 217
little 217
network 217
product 217
Е 217
■ 217
♯ 217
仟 217
憨 217
攘 217
毂 217
汧 217
箍@@ 217
絀 217
翦@@ 217
舾@@ 217
褔 217
邛 217
邬 217
鈀 217
鈐 217
鏜 217
雑 217
鳔 217
A.@@ 216
Ans@@ 216
Brad 216
Bryan 216
Chev@@ 216
E9E9E9 216
[...]
