ya 426627
. 411444
na 311134
wa 308344
, 300899
katika 123455
kwa 115363
ni 107699
&quot; 96989
) 84269
( 84121
la 84045
za 69995
ku@@ 44842
cha 42935
mwaka 42311
kama 41404
yake 38623
@-@ 38001
kuwa 35378
nchini 28672
: 27603
M@@ 26438
m@@ 25192
au 23805
kutoka 21150
kwenye 20178
ali@@ 19541
pia 19283
lugha 19223
u@@ 19197
zaidi 18897
vya 18893
ak@@ 18758
i 18568
watu 18559
U@@ 17449
&#91; 17132
&#93; 17076
hu@@ 16915
wake 16833
mji 16781
ki@@ 16708
kati 16548
alikuwa 16459
; 16275
Mto 15849
Ki@@ 15820
K@@ 15764
o 15378
ani 15270
ia 15152
am@@ 14713
wali@@ 14530
w@@ 14514
kwanza 14316
mwa 14293
a 14248
Kwa 14030
nchi 14010
hii 13969
Tanzania 13766
ana 13762
u 13666
pamoja 13396
hadi 13194
wakazi 13178
N@@ 13142
miaka 13049
ili@@ 13014
Mwaka 12965
ik@@ 12794
in@@ 12731
an@@ 12696
ut@@ 12618
jina 12617
aji 12590
&apos; 12525
Afrika 12463
wakati 12446
ili 12335
juu 12149
Kenya 11966
j@@ 11951
ilikuwa 11856
lakini 11675
huko 11581
kata 11426
moja 11361
tarehe 11339
ini 11279
a@@ 11193
ika 11173
un@@ 11093
mto 10867
mara 10720
hiyo 10626
ndani 10479
mnamo 10478
kazi 10329
ambayo 10189
uli@@ 10125
Bahari 10082
k@@ 10042
isha 10022
idadi 9886
um@@ 9775
im@@ 9676
iko 9654
aa 9610
T@@ 9597
eneo 9585
y@@ 9515
al@@ 9472
Mkoa 9448
uk@@ 9421
Katika 9361
h@@ 9337
Kati 9254
W@@ 9209
sana 9174
oni 9154
Maji 9138
sehemu 9133
hatimaye 9088
nyingi 8881
wak@@ 8860
yao 8832
us@@ 8793
p@@ 8758
baada 8749
ma@@ 8662
mkoa 8659
kwamba 8654
as@@ 8546
we 8543
ar@@ 8535
kubwa 8497
B@@ 8433
ina 8405
it@@ 8401
S@@ 8393
chini 8371
z@@ 8339
ab@@ 8309
kundi 8300
at@@ 8276
ano 8264
Marekani 8227
ambao 8190
Wilaya 8178
n@@ 8136
sh@@ 8067
I@@ 8046
ali 8042
tu 7970
huo 7960
unapatikana 7831
om@@ 7794
hasa 7786
hivyo 7721
o@@ 7687
Kusini 7650
A@@ 7647
aka 7581
ang@@ 7518
ari 7470
b@@ 7468
af@@ 7454
ua 7445
mkuu 7439
H@@ 7395
v@@ 7366
ishwa 7249
ah@@ 7245
aw@@ 7232
kum@@ 7177
ot@@ 7154
kus@@ 7126
yanaishia 7054
t@@ 7024
kut@@ 7000
kawaida 6939
sensa 6939
sababu 6933
Ali@@ 6915
il@@ 6905
mbalimbali 6815
D@@ 6811
Baada 6763
wan@@ 6726
zi 6722
- 6713
ad@@ 6648
ara 6637
ka 6625
iwa 6607
ag@@ 6604
yenye 6565
is@@ 6560
Uganda 6512
ama 6487
wasemaji 6433
i@@ 6431
ek@@ 6376
huu 6365
mak@@ 6320
namba 6319
ok@@ 6316
P@@ 6292
Mashariki 6273
kaskazini 6267
iki 6265
ap@@ 6241
aj@@ 6225
asi 6215
awa 6195
eni 6162
mw@@ 6156
wengi 6147
1 6145
wilaya 6143
timu 6126
G@@ 6115
kila 6111
J@@ 6109
ch@@ 6087
ur@@ 6079
2 6057
kaunti 6057
L@@ 6056
ai 6044
on@@ 6020
anga 5961
vi@@ 5948
KK 5912
vile 5910
maji 5894
alizaliwa 5892
wat@@ 5781
ung@@ 5778
os@@ 5723
si 5710
bahari 5696
mi@@ 5676
ambaye 5645
Kufuatana 5616
ny@@ 5608
amu 5556
wapatao 5551
lake 5550
uainishaji 5537
Wakati 5526
kabla 5512
Mungu 5485
iliyofanyika 5445
2012 5434
Mnamo 5410
up@@ 5408
siku 5393
magharibi 5362
yote 5360
Kik@@ 5359
/ 5329
Kanisa 5327
aina 5322
oa 5321
itwa 5292
ish@@ 5289
Kristo 5285
kuna 5251
inayozungumzwa 5244
upande 5227
Ni 5211
karne 5191
mbili 5168
ambapo 5163
Uingereza 5161
O@@ 5153
kusini 5150
hali 5131
njia 5065
akiwa 5060
muziki 5058
imehesabiwa 5057
ishi 5054
zake 5048
ing@@ 5041
ul@@ 5038
f@@ 5037
R@@ 5011
dhidi 5008
Naili 4992
of@@ 4972
tena 4952
ajili 4923
karibu 4908
or@@ 4881
ha@@ 4870
wenye 4868
inahusu 4858
tofauti 4850
taifa 4842
Papa 4831
muda 4824
jimbo 4815
Kis@@ 4808
isi 4794
ig@@ 4789
mat@@ 4789
filamu 4760
3 4754
endelea 4744
e@@ 4737
sasa 4723
mtu 4702
ita 4701
ach@@ 4692
Makala 4691
nyingine 4679
kup@@ 4664
oma 4664
Kim@@ 4663
ati 4663
wa@@ 4662
hata 4625
an 4607
s@@ 4601
E@@ 4598
az@@ 4596
el@@ 4590
ima 4586
kim@@ 4583
e 4581
em@@ 4574
aki 4573
tangu 4559
wote 4549
wao 4548
– 4544
uni 4538
mmoja 4535
idi 4534
unga 4532
op@@ 4525
Ch@@ 4518
serikali 4501
et@@ 4492
amb@@ 4477
kadhaa 4469
pili 4455
mashariki 4453
hili 4451
kuf@@ 4447
kutokana 4442
iri 4433
humo 4426
d@@ 4423
hivi 4419
nafasi 4404
Kaskazini 4380
wengine 4337
ala 4336
kuliko 4334
ikiwa 4323
azi 4315
Z@@ 4310
amba 4309
hilo 4299
tatu 4255
Tangu 4248
Kongo 4246
maisha 4227
anda 4220
&amp; 4214
asili 4213
Mw@@ 4208
en@@ 4201
&#124; 4186
uf@@ 4178
Chuo 4173
pa 4172
id@@ 4169
Ma@@ 4157
eli 4156
anza 4141
Mak@@ 4140
and@@ 4128
mab@@ 4117
Mji 4103
eza 4098
de 4091
ir@@ 4081
kuhusu 4076
ub@@ 4075
F@@ 4072
ema 4024
ol@@ 4014
weza 4011
ikia 4004
iliyo@@ 4002
chake 4001
wana@@ 3995
baadaye 3991
duniani 3988
ziwa 3985
leo 3984
kuj@@ 3983
uma 3976
ona 3974
4 3973
fu 3961
Sikukuu 3956
fu@@ 3955
mujibu 3952
Kit@@ 3931
maeneo 3928
5 3912
olojia 3911
da 3910
es@@ 3895
ati@@ 3894
g@@ 3888
mas@@ 3869
ata 3856
ug@@ 3856
Ulaya 3849
l@@ 3846
Ny@@ 3839
io 3839
uri 3831
mkubwa 3830
ina@@ 3826
6@@ 3812
5@@ 3805
muhimu 3801
Wa@@ 3794
Kiingereza 3790
Ufaransa 3784
eti 3779
kit@@ 3774
“ 3773
in 3768
Al@@ 3756
ea 3754
nje 3754
shule 3743
Pia 3741
mchezaji 3740
Kib@@ 3719
4@@ 3715
ash@@ 3713
una@@ 3710
uh@@ 3697
walikuwa 3696
maarufu 3687
bila 3679
V@@ 3677
kuu 3677
po@@ 3677
Hindi 3675
kufanya 3673
zin@@ 3671
al 3670
lin@@ 3668
kale 3663
20 3661
ao 3654
inga 3636
Wak@@ 3625
Ujerumani 3615
mjini 3611
Eneo 3593
Sh@@ 3593
li@@ 3592
watoto 3589
yaani 3586
Magharibi 3584
zote 3584
of 3578
familia 3575
mt@@ 3556
pekee 3554
kupitia 3550
okea 3548
Y@@ 3545
ta 3545
” 3544
kur@@ 3543
us 3530
imani 3527
m 3522
una 3520
er@@ 3514
olewa 3512
umia 3511
An@@ 3489
ongo 3476
10 3474
uz@@ 3469
maj@@ 3465
wal@@ 3464
wam@@ 3462
onekana 3459
wanawake 3448
zamani 3436
% 3427
kabisa 3424
abu 3421
kin@@ 3420
The 3417
ile 3413
vita 3413
ki 3402
ko 3401
kik@@ 3389
julikana 3378
Januari 3369
y 3354
on 3353
zili@@ 3348
bunge 3346
yo 3345
Mei 3337
klabu 3336
alit@@ 3331
isho 3322
7@@ 3321
kutumia 3321
adi 3320
wimbo 3312
habari 3307
iti 3304
ji 3297
Wakristo 3275
mwisho 3263
oka 3256
Kin@@ 3250
inay@@ 3242
elimu 3239
ji@@ 3237
usi 3234
19 3231
huwa 3231
6 3229
C@@ 3228
di 3221
bora 3220
ume 3220
maana 3205
mtakatifu 3204
s 3204
ba 3200
Oktoba 3198
was@@ 3197
Japani 3195
awali 3190
anya 3180
ha 3177
zo 3172
Italia 3161
alik@@ 3155
aja 3138
aliye@@ 3138
umu 3137
mita 3131
map@@ 3129
mpya 3129
kipindi 3128
es 3117
mad@@ 3116
mengine 3115
Kikuu 3112
albamu 3102
Julai 3091
hizi 3091
Roma 3090
BK 3089
po 3081
Juni 3080
og@@ 3077
hi 3073
yan@@ 3071
aliwa 3068
12 3066
ambazo 3062
Kil@@ 3057
Mas@@ 3045
kupata 3040
binadamu 3035
7 3034
iti@@ 3033
kuanzia 3030
Mar@@ 3026
mpira 3021
Novemba 3015
Burundi 3012
au@@ 3009
waishio 3006
uch@@ 3000
ungu 2997
15 2980
any@@ 2977
jamii 2975
mito 2967
umri 2962
lili@@ 2960
kub@@ 2946
Machi 2944
hayo 2942
uka 2942
biashara 2937
kul@@ 2935
kuz@@ 2932
milioni 2932
Desemba 2927
oto 2927
hi@@ 2920
Agosti 2918
Wan@@ 2911
Septemba 2910
2000 2905
mar@@ 2900
Maisha 2892
iriki 2892
aba 2883
asa 2881
enga 2881
fuata 2880
vin@@ 2879
x 2879
Aprili 2876
huadhimishwa 2875
km 2874
mfano 2868
aliy@@ 2865
Historia 2864
ud@@ 2857
New 2854
In@@ 2847
8@@ 2841
ezi 2840
mah@@ 2834
apo@@ 2831
takriban 2826
dunia 2825
usawa 2818
iliy@@ 2810
2014 2802
am 2801
oko 2798
alipo@@ 2793
mit@@ 2793
mp@@ 2793
tu@@ 2783
miguu 2781
ame@@ 2778
kifo 2770
uru 2767
eta 2763
d 2761
nguvu 2761
kimataifa 2759
Nigeria 2758
kiasi 2751
nyimbo 2747
Kuna 2746
mb@@ 2742
2007 2741
eka 2739
ep@@ 2738
18 2735
hut@@ 2727
3@@ 2724
aki@@ 2721
makuu 2721
if@@ 2720
msingi 2719
alim@@ 2716
Mat@@ 2711
9 2700
ip@@ 2698
Wat@@ 2693
Februari 2689
Yesu 2689
imu 2689
aya 2687
endo 2687
ng@@ 2685
ay@@ 2682
dini 2682
matumizi 2679
r@@ 2670
Bar@@ 2669
Tuzo 2667
bi@@ 2667
iz@@ 2664
vy@@ 2663
ifu 2662
ja 2659
Was@@ 2655
11 2651
umiwa 2646
kisiwa 2637
mrefu 2637
Dunia 2636
amezaliwa 2627
michezo 2624
ira 2620
16 2619
oh@@ 2616
ari@@ 2606
we@@ 2606
8 2599
ti@@ 2598
uzi 2594
di@@ 2593
Hata 2589
ar 2588
Jamhuri 2587
9@@ 2582
mwenye 2581
ong@@ 2580
hapo 2578
zao 2575
ilit@@ 2574
umika 2574
man@@ 2573
h 2570
onyesha 2568
th@@ 2565
13 2561
aha 2556
mengi 2555
historia 2554
zwa 2537
ulikuwa 2526
yali@@ 2525
hizo 2522
17 2516
kampuni 2513
enda 2508
Katoliki 2507
Kir@@ 2507
Idadi 2501
bo@@ 2495
unda 2495
30 2492
2008 2489
askofu 2489
od@@ 2486
the 2486
2009 2483
ada 2482
engo 2477
mechi 2470
uv@@ 2469
fulani 2466
ambalo 2463
kis@@ 2463
hak@@ 2457
mpaka 2454
uwezo 2454
Ku@@ 2451
14 2445
ich@@ 2445
alicheza 2436
mtoto 2434
ule 2430
baadhi 2429
rasmi 2427
utawala 2426
eo 2418
wana 2418
imba 2417
mu@@ 2416
mfumo 2414
okana 2413
do 2411
2006 2410
ewa 2408
Misri 2405
esha 2404
umbo 2404
ino 2399
kwenda 2397
sheria 2396
inaweza 2393
iki@@ 2386
kuch@@ 2384
ambo 2383
ibu 2369
mag@@ 2368
angaza 2366
2011 2362
ti 2359
udi 2357
mis@@ 2356
kuv@@ 2355
Lakini 2351
Jina 2347
isi@@ 2343
lia 2343
mwandishi 2341
haki 2330
ana@@ 2328
kiwango 2325
zi@@ 2325
umba 2323
inat@@ 2322
’ 2320
nne 2317
zinaz@@ 2317
iga 2316
bu 2309
damu 2307
A 2304
ow@@ 2300
aga 2297
ito 2296
mwingine 2294
ob@@ 2293
ungwa 2292
Kazi 2276
tuzo 2275
ath@@ 2273
jumla 2273
2015 2270
k 2262
mwili 2262
bu@@ 2259
.@@ 2258
bali 2255
amini 2251
shirika 2243
mwan@@ 2242
Marejeo 2240
eh@@ 2240
ho@@ 2238
inayo@@ 2238
rangi 2231
wi 2228
mg@@ 2224
ugonjwa 2223
and 2222
ziliz@@ 2220
anay@@ 2216
kun@@ 2212
kip@@ 2211
ma 2207
yeye 2202
chama 2201
end@@ 2199
Ziwa 2183
21 2182
25 2180
Am@@ 2177
ri@@ 2177
Kar@@ 2176
wap@@ 2174
kucheza 2172
aka@@ 2171
ila 2168
kutoa 2167
ing 2166
ko@@ 2166
Vi@@ 2163
apatikana 2163
ndege 2158
av@@ 2156
si@@ 2154
fanya 2153
msh@@ 2153
neno 2151
amia 2148
ush@@ 2147
asilimia 2139
ayo 2135
Umoja 2128
be 2123
I 2121
uliwa 2119
ambako 2117
ndio 2117
atia 2111
indi 2110
egemea 2108
sita 2106
mahali 2104
ib@@ 2101
kumi 2100
24 2095
har@@ 2093
kw@@ 2084
wala 2083
ye 2083
chuo 2077
ov@@ 2077
nyota 2075
hapa 2074
anywa 2061
eb@@ 2060
Tanganyika 2058
mfalme 2057
Mkuu 2050
aweza 2050
uli 2050
halafu 2048
uhuru 2048
oro 2047
Uturuki 2046
ingia 2046
mch@@ 2045
Mwan@@ 2044
apa 2042
uwanja 2040
wanyama 2037
Amerika 2031
bado 2026
ezwa 2026
kil@@ 2024
osa 2021
binafsi 2019
et 2019
mambo 2016
mwezi 2012
2005 2007
ae 2003
ej@@ 2000
II 1996
ef@@ 1995
ou@@ 1994
mdogo 1993
ale 1992
jeshi 1989
alis@@ 1982
ai@@ 1978
ingawa 1974
ez@@ 1973
vit@@ 1970
mbali 1969
ote 1968
ie 1963
ah 1961
ham@@ 1959
Wam@@ 1958
asilia 1958
katikati 1958
aliz@@ 1955
uchaguzi 1954
walit@@ 1952
hal@@ 1949
apo 1948
izi 1946
Jimbo 1943
mama 1937
lik@@ 1934
mazingira 1934
imo 1933
kikuu 1932
chakula 1931
joto 1931
adi@@ 1930
Wakatoliki 1928
ndogo 1925
um 1924
Uwanja 1918
du@@ 1916
hus@@ 1916
Rais 1915
22 1914
ang 1914
Atlantiki 1909
2002 1898
ra 1898
² 1898
mwenyewe 1895
afu 1894
2010 1890
yak@@ 1890
walio@@ 1889
hao 1888
kijiji 1883
kwake 1881
mz@@ 1881
sawa 1877
zile 1875
Guinea 1874
Hii 1873
dawa 1872
huelekea 1872
undi 1862
Kig@@ 1861
ba@@ 1861
Alikuwa 1854
Baadaye 1854
nyumbani 1850
uko 1849
ele 1847
pot@@ 1843
ih@@ 1842
alif@@ 1841
anzishwa 1838
kuw@@ 1836
Man@@ 1835
Yeye 1832
irika 1832
jinsi 1831
makubwa 1824
esh@@ 1822
umbu@@ 1821
Mia 1818
namna 1818
waf@@ 1816
Tarafa 1811
Kiarabu 1809
ania 1808
= 1805
huru 1803
23 1799
Th@@ 1798
10@@ 1796
Mara 1794
el 1794
ishaji 1794
er 1791
ime@@ 1791
g 1790
mik@@ 1789
Maj@@ 1788
Waorthodoksi 1787
Kifaransa 1786
kuji@@ 1786
wah@@ 1786
enzi 1784
visiwa 1783
Ng@@ 1779
ezaji 1778
Wah@@ 1777
wanaoishi 1777
rais 1775
Kama 1774
imb@@ 1774
Ukristo 1772
Ghana 1771
Mu@@ 1770
tun@@ 1767
ilia 1764
ela 1763
27 1760
Kih@@ 1755
pwani 1755
lilikuwa 1754
Mah@@ 1753
aribu 1752
aza 1751
upo 1751
kam@@ 1750
kisiasa 1749
te@@ 1748
hatari 1747
hai 1744
Vita 1742
Watu 1741
urefu 1741
baba 1738
Wal@@ 1736
28 1733
ura 1730
yo@@ 1730
2016 1726
undwa 1726
matokeo 1724
Yohane 1723
alianza 1720
anaheshimiwa 1716
kush@@ 1716
Mal@@ 1714
huduma 1714
kuk@@ 1714
kulingana 1714
tano 1713
amua 1712
kia 1712
ate 1709
Mpya 1706
wale 1703
wenyewe 1703
kidogo 1702
War@@ 1701
Waf@@ 1699
ango 1698
Kid@@ 1696
eng@@ 1695
Mi@@ 1693
ne 1693
saba 1688
ta@@ 1687
mal@@ 1685
und@@ 1683
2018 1681
Orodha 1681
kitabu 1680
Tarehe 1677
izo 1677
wani 1676
kab@@ 1674
is 1673
kanda 1673
jo 1672
ungua 1670
B 1668
eg@@ 1667
Paulo 1666
atwa 1666
isa 1665
14@@ 1661
ekwa 1660
ato 1659
nyumba 1659
vyo@@ 1658
at 1657
spishi 1657
uj@@ 1657
waz@@ 1655
mlima 1654
huku 1652
watakatifu 1652
has@@ 1650
Jamii 1648
hewa 1648
or 1647
iy@@ 1640
Urusi 1639
picha 1637
vitabu 1637
Dar 1636
ine 1636
26 1634
maneno 1634
haya 1633
kuto@@ 1632
li 1632
Di@@ 1629
uu 1629
be@@ 1627
29 1626
Ab@@ 1625
mwigizaji 1625
miji 1624
Kuu 1622
Dola 1620
kuh@@ 1620
pande 1620
utamaduni 1617
wawili 1617
wezi 1612
ain@@ 1611
Kip@@ 1609
2017 1608
Hispania 1607
amo 1607
uawa 1606
Mt@@ 1604
12@@ 1603
vijana 1603
awala 1598
Kilatini 1597
2013 1596
ulu 1593
mojawapo 1592
aidia 1587
milima 1585
pewa 1584
azo 1583
bao 1581
é 1581
eri 1579
Ar@@ 1578
korongo 1576
en 1570
zim@@ 1570
inda 1569
Australia 1568
ane 1567
2020 1563
elek@@ 1562
makao 1561
gt 1558
itaji 1558
yanay@@ 1558
Kiswahili 1555
shughuli 1554
15@@ 1553
kom@@ 1552
anyika 1551
masomo 1550
haz@@ 1546
hicho 1546
jit@@ 1545
pu@@ 1545
lilil@@ 1544
avu 1543
ev@@ 1541
Wab@@ 1540
hiki 1540
2019 1539
as 1539
postikodi 1539
vili@@ 1539
Ru@@ 1537
Kif@@ 1536
andikwa 1536
ogo 1536
sauti 1535
moyo 1534
majina 1533
aanisha 1532
ajwa 1532
msimu 1531
oz@@ 1531
100 1530
iku@@ 1530
jiji 1529
lt 1529
ulio@@ 1529
Biblia 1527
se@@ 1527
oti 1526
Mab@@ 1525
mbele 1525
! 1524
hatua 1523
ike 1522
atu 1521
wen@@ 1521
ombe 1519
t 1519
ida 1518
afya 1516
Kal@@ 1514
kilomita 1512
Hivyo 1510
amani 1510
Asia 1509
kar@@ 1509
ond@@ 1508
sa 1508
tisha 1507
ndiyo 1506
opatikana 1506
ambacho 1505
Ethiopia 1504
Bonde 1497
kujit@@ 1497
imbo 1496
2003 1495
York 1489
2001 1488
alish@@ 1487
hab@@ 1487
Shule 1486
alifariki 1484
uta 1484
John 1482
Kam@@ 1482
kili@@ 1482
kij@@ 1479
linalopatikana 1479
mwimbaji 1479
vu 1479
Mad@@ 1478
vyake 1478
kilich@@ 1476
thi 1476
ee 1475
zinazo@@ 1475
yaliy@@ 1474
jum@@ 1472
ongoza 1471
pi@@ 1465
bar@@ 1463
uo 1463
are 1462
mich@@ 1459
mabadiliko 1458
1990 1457
amizi 1457
Mor@@ 1456
Salaam 1456
13@@ 1453
angwa 1453
kote 1453
2004 1450
kisha 1450
kan@@ 1449
uba 1448
Ak@@ 1447
kon@@ 1446
ardhi 1445
dia 1443
umwa 1438
Uhindi 1434
ingo 1429
31 1428
usika 1428
to 1427
yako 1426
iliyot@@ 1424
acha 1423
utafiti 1421
ezo 1420
ij@@ 1420
mwanachama 1419
Mo@@ 1418
mfululizo 1418
0,000 1417
maendeleo 1417
Mag@@ 1415
sa@@ 1415
Kibantu 1414
kituo 1414
mwanamke 1411
linal@@ 1410
China 1409
bi 1408
anzisha 1407
kitaifa 1404
tam@@ 1403
zilizo@@ 1403
ge@@ 1402
kufikia 1397
Zanzibar 1395
.. 1392
su@@ 1391
wach@@ 1390
kisasa 1389
ingi 1388
iliwa 1387
soka 1387
awi 1386
kud@@ 1386
uy@@ 1384
man 1381
elewa 1379
omba 1377
n.k. 1376
walio 1375
eshwa 1372
du 1371
inayot@@ 1370
majimbo 1370
posta 1370
naye 1368
pata 1368
vizuri 1368
El@@ 1366
alipata 1366
chang@@ 1365
halisi 1364
esi 1363
jeni 1363
haraka 1360
ora 1359
afan@@ 1358
Waislamu 1357
Kigiriki 1355
C 1354
kifupi 1352
kuli@@ 1351
haw@@ 1350
te 1350
Kiy@@ 1349
Ufa 1349
ong 1348
ed@@ 1347
Alit@@ 1345
Wali@@ 1342
umb@@ 1340
andishi 1337
b 1336
kiongozi 1335
walik@@ 1333
kikubwa 1332
Chama 1330
emb@@ 1330
era 1330
ota 1325
ono 1324
rekodi 1323
uso 1323
to@@ 1320
ola 1318
waj@@ 1317
akili 1315
alifanya 1315
miwili 1314
matatizo 1313
pen@@ 1313
vik@@ 1311
Kale 1304
ind@@ 1303
mta@@ 1302
upendo 1301
fur@@ 1300
Kich@@ 1298
Maria 1298
Kirumi 1297
aria 1294
tabia 1293
hakuna 1291
sanaa 1289
angazwa 1288
embe 1288
mwanzo 1288
Makao 1285
mil@@ 1283
vyo 1283
Nairobi 1282
uchumi 1281
ga 1278
kamili 1277
kuishi 1275
Mlima 1274
Lugha 1273
ech@@ 1271
mashindano 1271
mau@@ 1271
siasa 1271
kali 1267
ro@@ 1267
chu@@ 1266
matibabu 1266
mwen@@ 1265
wenzake 1261
Mataifa 1260
fedha 1259
gi@@ 1256
kusababisha 1255
umeme 1255
l 1254
msanii 1253
ajiri 1252
unao@@ 1250
Hu@@ 1249
alia 1246
kina 1246
Tak@@ 1244
kuingia 1244
ni@@ 1243
ahi 1242
omo 1242
ndiye 1241
ole 1241
ababisha 1239
indwa 1239
nyuma 1239
st@@ 1239
Kiaustronesia 1238
azama 1238
huitwa 1238
tak@@ 1236
unganisha 1236
Wimbo 1235
wiki 1235
ume@@ 1234
wasi@@ 1234
kweli 1232
oli 1230
mwanasiasa 1229
akuwa 1227
vifaa 1226
uku@@ 1223
sifa 1222
eno 1221
osi 1221
usu 1221
ist@@ 1220
avyo@@ 1219
bara 1219
vil@@ 1218
orodha 1217
Turkana 1216
kike 1215
wanafunzi 1215
undo 1213
As@@ 1212
angalia 1211
kabila 1211
och@@ 1210
do@@ 1207
ongozwa 1206
pe@@ 1206
ye@@ 1206
Kimataifa 1205
kilimo 1205
oj@@ 1205
mani 1204
hiwa 1203
mshindi 1203
seli 1203
ishia 1202
je 1201
pel@@ 1201
kijamii 1200
kiz@@ 1200
hay@@ 1199
ak 1197
ke 1197
ou 1196
ena 1195
dalili 1194
Un@@ 1193
1999 1191
akawa 1190
z 1189
ukubwa 1188
wag@@ 1188
kushinda 1186
kani 1182
opo 1182
Kikristo 1181
Wag@@ 1181
dh@@ 1179
mkono 1177
kinach@@ 1176
wame@@ 1176
40 1174
n 1174
tarakimu 1174
ekani 1173
Kombe 1172
mchezo 1171
Bwana 1170
le 1169
hifadhi 1168
lenye 1168
maalumu 1168
Kiafrika 1167
Mp@@ 1167
Shirika 1166
ulit@@ 1164
ori 1162
le@@ 1160
yas@@ 1160
Lu@@ 1159
bendi 1159
husika 1159
Indonesia 1156
inayofuata 1156
Ame@@ 1155
amp 1155
azim@@ 1155
mafuta 1154
jua 1153
mingi 1151
alijiunga 1150
awe 1149
evu 1149
umma 1149
de@@ 1148
lazima 1148
ulia 1147
wali 1147
Hapo 1146
hitimu 1146
elea 1145
uti 1144
ukua 1139
iria 1138
faa 1137
zenye 1136
Kas@@ 1135
hat@@ 1135
asha 1134
kumbukumbu 1133
etu 1132
hibiti 1132
Q@@ 1130
ene 1130
uhusiano 1130
utu 1130
unguka 1128
kura 1127
azam@@ 1126
anat@@ 1125
ikali 1125
kuzuia 1124
Mit@@ 1122
walioishi 1122
osh@@ 1121
ajulikana 1119
Ili@@ 1118
igizaji 1118
1991 1117
auti 1117
maf@@ 1117
Siku 1116
angi 1116
ndugu 1116
Kijerumani 1114
mapema 1114
tasa 1113
vijiji 1113
wafiadini 1113
war@@ 1113
afanya 1112
ge 1112
kat@@ 1111
mamlaka 1111
yaliyo@@ 1111
Albamu 1110
maziwa 1110
Ad@@ 1109
mbinu 1109
nusu 1109
badala 1108
aji@@ 1107
kulikuwa 1107
watumwa 1107
hawak@@ 1106
heshima 1105
engwa 1104
Map@@ 1103
vitu 1103
50 1101
ke@@ 1101
2@@ 1100
angu 1099
miezi 1099
tr@@ 1099
re@@ 1098
zil@@ 1098
kikundi 1097
r 1097
tar 1097
yoyote 1096
por@@ 1094
hadithi 1093
unaweza 1093
tayari 1092
engenezwa 1091
Mer@@ 1089
ikwa 1089
shahada 1089
fa 1088
kufa 1087
pokea 1087
bidhaa 1086
jam@@ 1086
miongoni 1086
Sudan 1085
Har@@ 1084
ad 1083
emba 1083
uhusu 1083
kitu 1082
kutangulia 1081
Kab@@ 1080
un 1080
1995 1077
ilo 1077
-------- 1076
unat@@ 1076
vingine 1076
adilisha 1075
andika 1075
inayoandikwa 1075
Baba 1074
Kan@@ 1074
one 1072
ac@@ 1071
mafanikio 1070
moto 1069
Ingawa 1068
hawa 1068
pas@@ 1068
irikiana 1067
lil@@ 1066
kid@@ 1065
ru@@ 1065
1994 1064
barabara 1064
safari 1064
par@@ 1063
Jum@@ 1062
alama 1061
zinaweza 1060
yam@@ 1059
huyo 1058
nane 1058
wanaweza 1057
Sehemu 1056
? 1055
3,@@ 1054
amp@@ 1054
hau@@ 1053
tisa 1053
Mb@@ 1052
kuanzisha 1052
anacheza 1051
wanaume 1051
Ivoire 1050
karibuni 1050
yat@@ 1050
aguliwa 1049
Hasa 1048
wahi 1047
Kisiwa 1046
Miaka 1046
aliyekuwa 1046
ake 1045
Bo@@ 1044
ra@@ 1042
mawili 1041
ui 1041
1993 1040
mimea 1040
nia 1040
Al 1039
wasanii 1037
ingwa 1036
mkataba 1036
bur@@ 1035
makabila 1034
1997 1033
koloni 1032
os 1032
c 1031
kichwa 1031
Wayahudi 1029
vip@@ 1028
Waziri 1027
msaada 1026
kez@@ 1024
unguza 1023
Aliwahi 1022
elekea 1021
kuzaliwa 1021
mach@@ 1021
Baadhi 1020
ako 1019
ei 1019
kimo 1019
mashuhuri 1019
1998 1017
liwa 1017
wash@@ 1017
Elimu 1014
Nchi 1013
ri 1011
ere 1010
uw@@ 1009
pan@@ 1008
maalum 1007
Bur@@ 1006
uzwa 1006
wazi 1006
Mtakatifu 1004
zilikuwa 1004
Kiniger 1003
onga 1003
wadogo 1003
Israeli 1002
haku@@ 1002
ic@@ 1002
w 1002
enea 1001
kutengeneza 1001
ulimwengu 1001
alishinda 1000
cheo 1000
London 999
programu 998
Sab@@ 997
lo@@ 996
usisha 996
linalo@@ 995
Kidemokrasia 994
maz@@ 994
yalikuwa 992
1996 991
eleza 991
ilim@@ 991
0@@ 990
Cote 990
1980 989
kijeshi 989
1970 988
vingi 988
1@@ 987
Maz@@ 987
Pamoja 987
kutokea 987
iny@@ 986
safu 985
Papua 983
eshi 983
lina 983
chukua 982
kiwa 982
ahidi 981
ishe 981
ozi 981
p 980
video 980
wako 980
san@@ 979
viongozi 978
1992 977
Nak@@ 977
chache 976
chap@@ 976
Tana 975
sal@@ 975
sha 975
ambu@@ 974
kuanza 974
mpango 974
usiku 972
kuunda 971
fi@@ 970
men@@ 970
Nyanza 969
fun@@ 969
ton 969
ng 968
nyama 968
City 966
Kat@@ 966
imekuwa 966
okeza 966
200 965
dola 964
ishinda 964
jambo 964
jirani 964
uti@@ 964
zina@@ 963
igo 962
mwanamuziki 962
uki 962
asi@@ 961
enti 961
adamu 960
kuelekea 960
ago 959
imet@@ 959
United 957
naf@@ 956
televisheni 956
ten@@ 956
virusi 956
anzo 954
athari 954
afiki 953
miz@@ 953
Uislamu 952
Leo 951
kuchukua 950
nj@@ 950
lit@@ 949
masuala 949
waka@@ 949
fika 948
icha 948
ingine 948
kanuni 948
kujenga 946
California 945
Sal@@ 945
igiza 945
kanisa 945
makazi 945
pale 945
hara 943
sala 943
ers 942
kupunguza 942
mwanzilishi 942
Kabla 941
ay 941
usha 940
Korea 939
he@@ 939
kujiunga 939
mfiadini 938
Re@@ 937
ambavyo 937
oloni 937
ambia 936
angani 936
akatifu 935
ukiwa 935
Waarabu 934
ezea 934
hur@@ 934
Brazil 933
Nobel 933
waki@@ 933
etea 932
ispania 932
ms@@ 932
paa 932
kua 931
baridi 930
hul@@ 930
kubali 930
wakilisha 930
4,@@ 929
Muziki 929
andaa 928
aswa 928
• 928
tan@@ 926
asema 925
isionari 925
mapokeo 925
uliopo 925
umo 925
thibi@@ 924
jia 922
kwani 921
mfupi 921
amin@@ 920
bo 920
afiri 919
magonjwa 919
ubali 919
ega 918
jijini 917
Hapa 915
amuzi 915
chati 913
mataifa 913
gu@@ 911
kushika 911
mtandao 911
tishwa 911
eke 910
dhuluma 909
kurudi 908
meli 907
ilianzishwa 906
lengo 906
viwango 906
ilishi 905
kadiri 905
vilevile 905
ngozi 904
oga 904
umi 903
nao 902
ondoa 902
Injili 901
mikoa 901
Ligi 900
eja 899
vyombo 899
ulioko 898
kuendelea 897
wenda 897
Si@@ 896
indo 896
kilikuwa 896
kusoma 896
mtindo 896
Taifa 895
ami@@ 894
endesha 894
far@@ 894
afuta 893
Arusha 892
Mil@@ 892
anajulikana 892
kuti@@ 892
mawasiliano 892
chi 891
mf@@ 891
ongo@@ 891
simu 891
alij@@ 890
fariki 890
wezesha 890
Bunge 889
afu@@ 889
la@@ 889
adhi 888
adiriwa 888
roho 888
athiri 887
wanat@@ 887
mbio 886
mraba 886
wanao@@ 886
airi 885
elezea 885
hutumika 885
ley 885
tish@@ 885
zinazot@@ 885
Nd@@ 884
apata 884
mbaya 884
ungana 884
zina 884
Kuanzia 883
aliza 883
mon@@ 883
q@@ 883
Tanga 882
Vigawo 882
hum@@ 881
maambukizi 881
makundi 881
0 880
Tib@@ 880
anaweza 880
1,@@ 879
1988 879
iw@@ 879
jumuisha 879
matukio 879
mvua 879
ur 879
abati 878
kando 878
1960 877
c@@ 877
saa 877
son 877
Mus@@ 876
kuongeza 876
adha 875
adilika 875
kh@@ 875
Ali 874
emia 874
umbali 874
weka 874
yon@@ 874
Mon@@ 873
avy@@ 873
imi 873
kuona 873
mali 873
iriwa 872
Vijijini 871
basi 871
ngazi 870
akama 869
Vietnam 868
Kanada 867
chanzo 867
mbunge 867
muundo 867
Kum@@ 866
R 866
amil@@ 866
ibada 866
kutaja 866
uku 866
ambi 865
waziri 865
x@@ 864
Be@@ 863
Msimbo 863
Yo@@ 863
f 863
indano 862
usi@@ 862
agua 861
onjwa 861
vyote 861
wadudu 861
Is@@ 860
Wad@@ 860
mwanzoni 860
ol 860
uny@@ 860
Car@@ 859
pende@@ 859
it 858
undisha 858
mk@@ 857
mwalimu 857
wananchi 857
ndoa 856
penda 855
Af@@ 854
yanayo@@ 854
Bu@@ 853
beba 853
yale 853
uongozi 851
aye 850
taasisi 850
Kitabu 849
Kutokana 849
dogo 849
miti 849
Ut@@ 848
X@@ 848
alisema 848
ant@@ 848
gh@@ 848
sekondari 848
padri 845
wakiwa 845
Mjini 844
anisha 844
uza 843
kufika 842
linat@@ 841
ongezeka 841
sin@@ 841
Sheria 840
Chi@@ 839
T 839
kompyuta 839
me@@ 839
yetu 839
askari 838
Morogoro 837
kutumika 837
ed 836
ingatia 836
kumu@@ 836
waliot@@ 836
ph@@ 835
Hali 834
Tr@@ 834
,000 833
Ag@@ 833
abiashara 833
sar@@ 833
70 832
ifunza 832
kuwepo 832
Gu@@ 831
kufu@@ 831
zingine 831
Hal@@ 830
hambu@@ 830
lililo@@ 830
kusaidia 828
inap@@ 827
kas@@ 827
ungo 827
Serikali 826
akam@@ 826
endeleza 826
ok 826
wastani 826
atikana 825
heri 825
iza 825
dhahabu 824
singi 824
Wap@@ 823
ambuliwa 823
mmojawapo 823
U 822
taarifa 822
udi@@ 822
Pr@@ 821
St@@ 821
Wanawake 821
samaki 821
tiki 821
En@@ 820
ulizi 820
80 819
atibu 819
bea 819
500 818
Kwanza 818
Rwanda 818
gen@@ 817
idae 817
imbia 817
maonyesho 817
yi 817
1989 816
ache 816
olo 816
ugu 816
‘ 816
ababishwa 815
Ka@@ 814
Mik@@ 814
Sim@@ 814
lililo 814
ungaji 814
mam@@ 813
engele 812
ilik@@ 812
ipo 811
mash@@ 811
1987 810
juhudi 810
tas@@ 810
ujenzi 810
fupi 809
taka 809
umiaji 809
Waingereza 808
ekeb@@ 808
90 807
Botswana 807
Filamu 807
Uholanzi 807
gazeti 807
ufalme 807
iv@@ 806
ofanya 806
silaha 806
wingi 806
madar@@ 804
mtunzi 804
barani 803
ligi 803
ungum@@ 803
Kari@@ 802
adili 802
id 802
Na 800
ahudi 800
auri 800
kasi 799
mchang@@ 799
Mash@@ 797
hutumia 797
kiuchumi 797
utaratibu 797
kuandika 796
ongeza 796
eshaji 795
hari@@ 795
ubongo 795
Sam@@ 794
sayansi 794
umaarufu 794
ayar@@ 792
ome 792
ushindi 791
atom@@ 790
biwa 790
Pol@@ 789
baina 789
III 787
Le@@ 787
endel@@ 787
maadili 787
nd@@ 787
India 786
engen@@ 786
ilitolewa 786
se 786
ilianza 785
kuwa@@ 785
Akiwa 784
Tar@@ 784
Dodoma 783
upe 783
6,@@ 782
Kiz@@ 782
asia 782
tarafa 782
Zimbabwe 781
engine 781
ikawa 781
kad@@ 781
yal@@ 781
zis@@ 781
wenyeji 780
7,@@ 779
mke 779
ongea 779
O 778
babu 778
5,@@ 777
Ush@@ 777
Wakazi 777
ahamika 777
anz@@ 777
kupiga 777
mafundisho 777
maumivu 777
pengine 777
2021 775
Kiislamu 775
Paris 775
hai@@ 775
Mur@@ 774
Ta@@ 774
ambua 774
iliopo 774
ir 774
mabao 774
omu 774
iliyokuwa 773
mafunzo 773
pombe 773
Fransisko 772
mwishoni 772
Angola 771
eshimiwa 771
iliano 771
nzuri 771
so@@ 771
upya 771
La 770
imbaji 770
isipokuwa 770
hek@@ 769
maandishi 769
vid@@ 769
Alizaliwa 768
Sahara 768
fung@@ 768
iliyo 768
mwendo 768
thel@@ 768
uchunguzi 768
akit@@ 767
kiume 766
sk@@ 766
60 765
aliandika 765
zinat@@ 765
ber@@ 764
jukumu 764
pesa 764
Mtume 763
isti 763
kuonekana 763
kuwas@@ 763
mchanganyiko 763
ando 762
iba 762
elezo 761
kig@@ 761
madhehebu 761
Kila 759
West 759
alihamia 759
afsiri 758
aini 758
awishi 758
ende@@ 758
olea 757
ikira 756
kuja 756
Kor@@ 755
raia 755
umoja 755
zee 755
tamaduni 754
B.K. 753
lao 753
mkutano 753
Ang@@ 752
sim@@ 752
wataalamu 752
anzi 750
mashirika 750
ame 749
avyo 749
bakteria 749
barua 749
mno 749
wazazi 749
Bal@@ 748
ingi@@ 748
teknolojia 748
Kol@@ 747
harakati 747
weusi 747
binti 746
kudumu 746
yanaweza 746
Kamerun 745
efu 745
iliana 744
kesi 744
Michael 743
toleo 743
Hakuna 742
akana 742
faida 742
walipo@@ 742
9,@@ 741
lime@@ 740
wanachama 740
inj@@ 739
land 739
ambuzi 738
umishi 738
fut@@ 737
wakilishi 737
zaa 737
alii 735
changia 735
ukoloni 735
Yerusalemu 734
kwao 734
wafuasi 734
Sanaa 733
afisa 733
gari 733
reli 733
ula 733
Asili 732
Par@@ 732
waliokuwa 732
Tam@@ 731
ivu 731
Mbeya 730
ichezea 729
mimba 729
ufa 728
Upande 727
Ureno 727
Il@@ 726
Vit@@ 726
ilisha 726
lina@@ 726
wakubwa 726
Uch@@ 725
ofisi 725
umbe 725
uwezekano 725
kari 724
ekea 723
huf@@ 723
mradi 723
wanda 723
kushiriki 722
upinzani 722
Mis@@ 721
Spishi 721
alir@@ 721
daraja 721
vipindi 721
Olimpiki 720
Uchina 720
kif@@ 720
kui@@ 720
unaot@@ 720
utia 720
Mach@@ 719
hali@@ 719
vol@@ 719
wafany@@ 719
hutokea 718
kamp@@ 718
kufuata 718
kupig@@ 718
° 718
andi 717
eng 717
kaisari 717
kir@@ 717
Ugiriki 716
awany@@ 716
imbi 716
madogo 716
Cape 715
James 715
akat@@ 715
dhambi 715
hutumiwa 715
alitoa 714
br 714
Wajerumani 713
for 713
kuweka 713
alianzisha 712
alil@@ 712
ambaz@@ 712
ifanya 712
ovu 712
riwaya 712
Mwen@@ 711
andi@@ 711
macho 711
wimu 710
Wasifu 709
eva 709
ju@@ 709
kumaliza 709
msim@@ 709
ony@@ 709
hud@@ 708
monasteri 708
De@@ 707
Aina 706
Visiwa 706
wagonjwa 706
yenyewe 706
Tab@@ 705
ais 705
kikosi 705
Algeria 704
Maf@@ 704
Neno 704
Roho 704
amilifu 704
ey 704
kihistoria 704
kutolewa 704
viwanda 704
ch 703
ehe 703
hot@@ 703
jengwa 703
ambul@@ 702
ikisha 702
umbi 702
Nyumba 701
So@@ 701
X 701
iro 701
jer@@ 701
kem@@ 701
uki@@ 701
her@@ 700
ufu@@ 700
Kampuni 699
bandari 699
studio 699
re 698
sik@@ 698
Gr@@ 697
kilicho@@ 697
ondoka 697
tawala 697
32 696
Aleksandria 696
Ser@@ 695
fan@@ 695
kuonyesha 695
ujumla 695
umbusho 695
yana@@ 695
Agano 694
ishara 694
vim@@ 694
Kitaifa 693
choch@@ 693
duliwa 693
oy@@ 693
tim@@ 693
uru@@ 693
Ji@@ 692
Sek@@ 692
him@@ 691
pos@@ 691
redio 691
anaye@@ 690
bizi 690
vilivy@@ 690
Kur@@ 689
Mchezaji 689
Nor@@ 689
Waafrika 689
mauaji 689
onde 689
amekuwa 688
kah@@ 688
onyeshwa 688
soko 688
1982 687
Africa 687
Kr@@ 687
kutafuta 687
Kigoma 686
Muungano 686
ambaa 686
anzania 686
ika@@ 686
Mkristo 685
alipokuwa 685
jenasi 685
walimu 685
yen@@ 685
adilishwa 684
anam@@ 684
andam@@ 684
irikisha 683
unza 683
2,@@ 682
anishwa 682
ataa 682
kinga 682
vinavy@@ 682
1981 681
Baraza 681
Shirikisho 681
N 680
1986 679
oo 679
tab@@ 679
tia 679
unganishwa 679
35 678
abaki 678
ukweli 678
African 677
Alich@@ 677
Cor@@ 677
E 677
kusim@@ 677
Ig@@ 676
D 675
elfu 675
idh@@ 675
uzito 675
aulu 674
ot 674
mapinduzi 673
8,@@ 672
Petro 672
huz@@ 672
alichaguliwa 671
ami 671
lilit@@ 671
makala 671
Mtwara 670
ado 670
amet@@ 670
ka@@ 670
mif@@ 670
wav@@ 670
Far@@ 669
Somalia 669
tukio 669
Milima 668
afi 668
amri 668
no 668
FC 667
alipokea 667
alo 667
dio 667
Su@@ 666
chan@@ 666
majaribio 666
zilizot@@ 666
Ubelgiji 665
ushwa 665
Kut@@ 664
Ni@@ 664
Ufalme 664
ende 664
hop 664
mtayarishaji 664
Dar@@ 663
embo 663
iliyopita 663
Nam@@ 662
VVU 662
br@@ 662
engi 662
hip 662
kiungo 662
Galana 661
L 661
kug@@ 661
abii 660
Sa@@ 659
ab 659
had@@ 659
1985 658
Mfalme 658
polisi 658
1984 657
keza 657
ombea 657
El 656
FIFA 656
Pius 656
V 656
anikiwa 656
katiba 656
kich@@ 656
ofu 656
win@@ 656
zilit@@ 656
Nj@@ 655
kr@@ 655
kupokea 655
ukumu 655
Hat@@ 654
mitatu 654
mj@@ 654
nakala 654
Austria 652
Br@@ 652
waliouawa 652
William 651
mawe 651
uzazi 651
pak@@ 650
azamo 649
em 649
hup@@ 649
taratibu 649
tem@@ 649
wanaheshimiwa 649
S 648
imep@@ 648
wezekana 648
Habari 647
Kilimanjaro 647
mayai 647
vikundi 647
Hadi 646
Vy@@ 646
herufi 646
orodh@@ 646
wanajeshi 646
emekana 645
ilich@@ 645
min@@ 645
zu 645
Alis@@ 644
asim@@ 644
mbegu 644
Mama 643
hudhuria 643
ilipo@@ 643
son@@ 643
unua 643
sherehe 642
George 641
Mch@@ 641
oria 641
Athi 640
Her@@ 640
afanana 640
ung 640
kula 639
row 639
usiano 639
kinyume 638
mo@@ 638
Or@@ 637
300 636
Kaisari 636
Msumbiji 636
Wany@@ 636
athiriwa 636
usimamizi 636
wachache 636
Paul 635
sura 635
Ko@@ 634
walim@@ 634
wazo 634
Ur@@ 633
kutana 633
ndi@@ 633
ram@@ 633
wafanyakazi 633
weze 633
Me@@ 632
afiti 632
bal@@ 632
ikiwemo 632
jumu@@ 632
Co@@ 631
iliyopo 631
inas@@ 631
baharini 630
kukam@@ 630
utana 630
Joseph 629
Unguja 629
domo 629
imi@@ 629
ingana 629
mawazo 629
pin@@ 629
Jua 628
juli@@ 628
mv@@ 628
yeji 628
Jeshi 627
King@@ 627
fau@@ 627
vituo 627
egem@@ 626
gesi 626
34 625
Utafiti 625
anti 625
ekel@@ 625
Alianza 624
ondo 624
ue 624
Per@@ 623
eji 623
kupel@@ 623
sit@@ 623
tamth@@ 623
tiba 623
Kaunti 622
chombo 622
uham@@ 622
watatu 622
wili 622
Chini 621
ard 621
tari 621
TV 620
Zambia 620
kiny@@ 620
lich@@ 620
tawi 620
Iko 619
ask@@ 619
ass@@ 619
mirefu 619
toka 619
usa 619
é@@ 619
* 618
16@@ 618
Malcolm 618
Waj@@ 618
alisha 618
ejulikana 618
kisayansi 618
usiana 618
400 617
Taasisi 617
Uchaguzi 617
atiwa 617
ec@@ 617
kijijini 617
mwanam@@ 617
anisa 616
inak@@ 616
kutosha 616
sayari 616
ze 616
iyo 615
wakim@@ 615
Mos@@ 614
aalamu 614
ahamu 614
elew@@ 614
gun@@ 614
huri 614
kutu@@ 614
siri 614
udia 614
Lo@@ 613
nyan@@ 613
kuongezeka 612
K.K. 611
Sabaki 611
ofautiana 611
huyu 610
odi 610
vikuu 610
waji 610
mashairi 609
majira 608
neema 608
pig@@ 608
angia 607
bia 607
ilini 607
jo@@ 607
matunda 607
National 606
adhimisha 606
aum@@ 606
embelea 606
fah@@ 606
kutambua 606
unge 606
Uswidi 605
anyiko 605
run@@ 605
unja 604
Bab@@ 603
M 603
afuata 603
ekodi 603
ishirini 603
mifumo 602
nadharia 602
ubwa 602
CCM 601
il 601
ografia 601
ombo 601
wachezaji 601
Nar@@ 600
emo 600
hesabiwa 600
misitu 600
shida 600
Wach@@ 599
afa 599
engeneza 599
ujuzi 599
Mf@@ 598
kuten@@ 598
chaguliwa 597
mwana 597
nguo 597
iliki 596
jiunga 596
mi 596
viungo 596
5,000 595
Az@@ 595
Hatimaye 595
Saint 595
ilikadiriwa 595
mir@@ 595
ilis@@ 594
nzima 594
Ber@@ 593
egawany@@ 593
hospitali 593
kuleta 593
mikubwa 593
mwanaharakati 593
uia 593
ekeleza 592
33 591
Maw@@ 591
Us@@ 591
kidini 591
kuenea 591
mkon@@ 591
nini 591
alfabeti 590
huj@@ 590
ukuliwa 590
fuat@@ 589
inah@@ 589
kukat@@ 589
kupatikana 589
East 588
He@@ 588
P 588
fa@@ 588
haj@@ 588
mapigano 588
walianza 588
wanah@@ 588
1964 587
Jiografia 587
mbu@@ 587
milki 587
vig@@ 587
wanam@@ 587
Bora 586
Robert 586
ew@@ 586
isim@@ 586
k.@@ 586
kaka 586
majani 586
walish@@ 586
ANU 585
Awards 585
aku 585
alu 585
rahisi 585
Mand@@ 584
adala 584
akani 584
aliwahi 584
nayo 584
angazaji 583
apishwa 583
chem@@ 583
handisi 583
kusema 583
uzalishaji 583
Bas@@ 582
Kh@@ 582
Na@@ 582
imek@@ 582
ishoni 582
kiroho 582
mikono 582
-@@ 581
Matumizi 581
ya@@ 581
zik@@ 581
Se@@ 580
UKIMWI 580
amiaji 580
araj@@ 580
nyeupe 580
pat@@ 580
Charles 579
endi 579
kuhamia 579
nishati 579
vifo 579
waw@@ 579
39 578
G 578
Up@@ 578
andao 578
bun@@ 578
fer@@ 578
les 578
Kituo 577
Tu@@ 577
by 577
pokuwa 577
ulimwenguni 577
ushirikiano 577
vyama 577
zime@@ 577
ajabu 576
shu@@ 576
som@@ 576
wele 576
afir@@ 575
anap@@ 575
gharama 575
kundinyota 575
kupot@@ 574
saf@@ 574
1950 572
Benki 572
alme 572
ly 572
peke 572
Ro@@ 571
South 571
Uajemi 571
Ug@@ 571
ez 570
kiko 570
Kati@@ 569
Kiny@@ 569
abara 569
alisoma 569
dar@@ 569
der 569
dua 569
elekeo 569
mingine 569
pend@@ 569
San 568
baya 568
dakika 568
kilometa 568
kuliwa 568
madini 568
urah@@ 568
Kon@@ 567
Nile 567
adil@@ 567
bus@@ 567
chuma 567
ic 567
ngoma 567
uliot@@ 567
David 566
andiko 566
lu@@ 566
pi 566
Uz@@ 565
falme 565
mipango 565
abila 564
jip@@ 564
mpangilio 564
ongozi 564
viwili 564
+ 563
Ina@@ 563
Tabora 563
don@@ 563
Ge@@ 562
anii 562
hukum@@ 562
omb@@ 562
umuhimu 562
utano 562
zaji 562
International 561
Rom@@ 561
diwa 561
elementi 561
hariri 561
tum@@ 561
ure 561
Kagera 560
milele 560
ndefu 560
ofanana 560
ohusiana 560
45 559
akazi 559
ekundu 559
eto 559
ingira 559
kutoweka 559
unzi 559
Jumuiya 558
Mari@@ 558
ambukizwa 558
chenye 558
kimoja 558
mkurugenzi 558
single 558
usalama 558
K 557
Ri@@ 557
esho 557
hughu@@ 557
kop@@ 557
mia 557
sahihi 557
ungumza 557
49 556
Kisha 556
Ram@@ 556
a.@@ 556
masi 556
om 556
ulinzi 556
yanaelekea 556
yangu 556
yewe 556
# 555
Li@@ 555
aliweza 555
anak@@ 555
ashi 555
hin@@ 555
unguko 555
emu 554
iitwayo 554
kufuatana 554
mahitaji 554
upe@@ 554
Njia 553
Viungo 553
adh@@ 553
aku@@ 553
atizo 553
isitiza 553
lote 553
maskini 553
omea 553
raf@@ 553
bul@@ 552
ifuata 552
ku 552
medali 552
okia 552
Records 551
ahada 551
aribia 551
arifa 551
eso 551
ukoo 551
ukw@@ 551
10,000 550
Waz@@ 550
aliendelea 550
alipewa 550
izwa 550
Kl@@ 549
fasihi 549
hinda 549
ik 549
vyuo 549
Kwenye 548
benki 548
itajika 548
jadi 548
majengo 548
mzuri 548
viumbe 548
wekwa 548
Bi@@ 547
Lindi 547
Sar@@ 547
Te@@ 547
len@@ 547
nyekundu 547
tatizo 547
Senegal 546
aliyet@@ 546
Mpaka 545
North 545
Pas@@ 545
ushahidi 545
Guthrie 544
Sayansi 544
Ub@@ 544
ter@@ 544
wanamuziki 544
inzani 543
uke 543
wepo 543
Kus@@ 542
aliteuliwa 542
hamia 542
he 542
isiwa 542
mwanas@@ 542
sab@@ 542
Bus@@ 541
ire 541
thamani 541
vipimo 541
1979 540
Kamp@@ 540
ey@@ 540
falsafa 540
ore 540
Manchester 539
Mc@@ 539
aus@@ 539
jar@@ 539
kile 539
mwanafunzi 539
ongezeko 539
yanayot@@ 539
36 538
isiyo 538
kuny@@ 538
Ken@@ 537
Kihindi 537
Maendeleo 537
Uli@@ 537
aribio 537
ford 537
wanas@@ 537
wez@@ 537
ziko 537
Mwezi 536
Sp@@ 536
akis@@ 536
huweza 536
kuimba 536
ran@@ 536
1977 535
42 535
itumia 535
j 535
onge@@ 535
Muh@@ 534
Peter 534
age 534
icho 534
Mwanza 533
Ndugu 533
Ne@@ 533
kitovu 533
mig@@ 533
1978 532
Huko 532
Jackson 532
abab@@ 532
haf@@ 532
kijana 532
obo 532
School 531
atani 531
imto 531
1983 530
akif@@ 530
jana 530
kupita 530
scope 530
tor@@ 530
udisha 530
yap@@ 530
Biashara 529
Kw@@ 529
Mfano 529
Um@@ 529
bei 529
kisheria 529
Kap@@ 528
Kimar@@ 528
Med@@ 528
Tor@@ 528
ikuwa 528
pe 528
Er@@ 527
Mif@@ 527
Mtaguso 527
kara 527
kuacha 527
onia 527
aluma 526
kitamaduni 526
zu@@ 526
1975 525
Alim@@ 525
Ho@@ 525
Mapinduzi 525
aliyo@@ 525
euliwa 525
imara 525
inaf@@ 525
kumw@@ 525
mashamba 525
oweka 525
paswa 525
wab@@ 525
Con@@ 524
Tun@@ 524
World 524
im 524
omi 524
uvi 524
Jersey 523
Kom@@ 523
We@@ 523
adui 523
ary 523
hudumu 523
kinacho@@ 523
wi@@ 523
Kiebrania 522
Pili 522
akati 522
fainali 522
go 522
indana 522
kadi 522
akifunga 521
avi 521
igi 521
kukaa 521
kuongoza 521
risasi 521
47 520
Hifadhi 520
Mkoani 520
Pwani 520
irik@@ 520
nasaba 520
ose@@ 520
Kutoka 519
maelezo 519
shinikizo 519
yaliyot@@ 519
Ham@@ 518
Muhammad 518
Wazungu 518
tar@@ 518
ujumbe 518
undua 518
Bin@@ 517
Michezo 517
ambana 516
ekuwa 516
mapafu 516
waandishi 516
... 515
nus@@ 515
Gregori 514
ho 514
mtaalamu 514
v 514
ze@@ 514
akim@@ 513
ampuni 513
bin 513
ger@@ 513
hisia 513
osha 513
udumu 513
ungumzwa 513
usafiri 513
Bak@@ 512
Kundi 512
baini 512
daktari 512
embamba 512
kufuatia 512
mchakato 512
salama 512
unifu 512
1969 511
IV 511
Kuf@@ 511
ajumuisha 511
fund@@ 511
jangwani 511
magari 511
mazao 511
italia 510
Min@@ 509
kea 509
kulia 509
ndipo 509
nyakati 509
ozaliwa 509
ushi 509
yana 509
1976 508
Ruvuma 508
inajulikana 508
mbing@@ 508
yalit@@ 508
Music 507
ani@@ 507
cho@@ 507
epata 507
idizi 507
ilipata 507
oaji 507
wanak@@ 507
Basi 506
ubali@@ 506
1963 505
F 505
Mali 505
maoni 505
mipaka 505
sera 505
wanap@@ 505
48 504
Gal@@ 504
Mombasa 504
Sin@@ 504
takribani 504
ikilia 503
mazoezi 503
wenzao 503
yakula 503
Argentina 502
bifu 502
hom@@ 502
kisiwani 502
kuuza 502
oidi 502
tir@@ 502
vidogo 502
vis@@ 502
Alipata 501
Kirusi 501
hesabu 501
ilish@@ 501
kuwaf@@ 501
minne 501
unguzi 501
Pi@@ 500
his@@ 500
kana 500
taw@@ 500
uwe@@ 500
wowote 500
Sous 499
kujitawala 499
mapenzi 499
matam@@ 499
puko 499
refu 499
gani 498
kukuza 498
kuta 498
lab@@ 498
mfany@@ 498
mstari 498
sak@@ 498
Can@@ 497
Utawala 497
aal@@ 497
amiwa 497
ation 497
barafu 497
hupatikana 497
kavu 497
préfecture 497
upasuaji 497
wer@@ 497
ac 496
anti@@ 496
eki 496
1972 495
75 495
bil@@ 495
ro 495
38 494
Bel@@ 494
dada 494
kibiashara 494
ser@@ 494
sw@@ 494
ukuaji 494
37 493
hutoa 492
ikit@@ 492
ilhali 492
mwenyekiti 492
ubaguzi 492
ulianza 492
binu 491
hufanya 491
idia 491
ifuatazo 491
kukua 491
protestanti 491
suala 491
usta@@ 491
Nyam@@ 490
Tof@@ 490
Za@@ 490
awa@@ 490
lio 490
wanaot@@ 490
Askofu 489
Bah@@ 489
Ky@@ 489
Qu@@ 489
Wikipedia 489
kubor@@ 489
kifu@@ 488
osababisha 488
000 487
Dal@@ 487
Uf@@ 487
anaf@@ 487
ero 487
inayoitwa 487
mashine 487
mwanga 487
tani 487
ungufu 487
ut 487
1961 486
1974 486
Po@@ 486
Town 486
Uchumi 486
oi 486
visi@@ 486
kalenda 485
mzima 485
ulianzishwa 485
uwa 485
Juu 484
Uswisi 484
biri 484
esabiwa 484
kuondoka 484
kushindwa 484
ost@@ 484
Kivuka 483
You 483
ambuliaji 483
jinsia 483
46 482
Iringa 482
euzi 482
fik@@ 482
gea 482
ingiza 482
injini 482
kto 482
limet@@ 482
matatu 482
muungano 482
onda 482
uma@@ 482
41 481
Kulingana 481
Singida 481
Vilevile 481
yeyote 481
zia 481
0.@@ 480
Ndege 480
bah@@ 480
ent@@ 480
omunisti 480
upana 480
Kiv@@ 479
Nyerere 479
alichunguza 479
alikua 479
hula 479
ne@@ 479
Ime@@ 478
aia 478
asidi 478
ban 478
endera 478
huenda 478
oba 478
tis@@ 478
tovuti 478
Ath@@ 477
Malawi 477
Pakistan 477
haifu 477
hani 477
mwanaf@@ 477
taa 477
ve 477
vir@@ 477
11,@@ 476
1973 476
52 476
Kioseaniki 476
Ndiyo 476
anaj@@ 476
uga 476
wahili 476
600 475
alimtangaza 475
ambuli@@ 475
andisi 475
ava 475
baki 475
chumvi 475
keno 475
mav@@ 475
mti 475
sum@@ 475
wasichana 475
20@@ 474
hawa@@ 474
idai 474
ilifu 474
likana 474
mkali 474
uano 474
1967 473
Sul@@ 473
hibi@@ 473
imarisha 473
polepole 473
Buk@@ 472
Ilikuwa 472
adri 472
afikia 472
ent 472
est@@ 472
hif@@ 472
iliz@@ 472
ista 472
protini 472
Mau@@ 471
aminika 471
atano 471
bili@@ 471
mli@@ 471
sumu 471
44 470
Str@@ 470
data 470
pl@@ 470
udongo 470
urithi 470
Ha@@ 469
Urefu 469
ii 469
okovu 469
utendaji 469
adhimishwa 468
alitumia 468
oc@@ 468
Id@@ 467
marufuku 467
sen@@ 467
ulima 467
Com@@ 466
Mir@@ 466
Nik@@ 466
Washington 466
anguka 466
ikuja 466
jumbe 466
walij@@ 466
Em@@ 465
Gar@@ 465
mali@@ 465
Kak@@ 464
Tol@@ 464
dest@@ 464
husababisha 464
oraji 464
dhana 463
ek 463
unap@@ 463
yeti 463
Col@@ 462
lim@@ 461
lo 461
isheni 460
shi 460
yanat@@ 460
1965 459
Bag@@ 459
ahili 459
div@@ 459
safi 459
uniani 459
Ol@@ 458
ard@@ 458
emi 458
kand@@ 458
Anatolia 457
Sch@@ 457
eko 457
gol@@ 457
sio 457
85 456
Mr@@ 456
Mt 456
lango 456
Mambo 455
fia 455
hati 455
onge 455
West@@ 454
des@@ 454
kutano 454
Ti@@ 453
inam@@ 453
kati@@ 453
sek@@ 453
so 453
ayansi 452
Sak@@ 451
ous 451
55 450
Vol@@ 450
anchi 450
nad@@ 450
Ina 449
ilif@@ 449
iliyop@@ 449
metali 449
Ger@@ 448
Mati@@ 447
yr@@ 447
1971 446
jini 446
pitia 446
Billboard 445
apu 444
ubu 444
CC@@ 443
800 442
Muk@@ 442
ibu@@ 442
opa 442
pr@@ 442
ugo 442
uyu 442
kk 441
nye@@ 441
sel@@ 441
Wav@@ 440
ezaliwa 440
filipino 439
1962 438
61 438
Richard 438
eti@@ 438
tel@@ 438
yu 438
alip@@ 437
baad@@ 437
git@@ 437
53 436
H 436
Kata 436
Mam@@ 436
indi@@ 436
irikisho 436
ofanyika 436
wanaj@@ 436
Vik@@ 435
angal@@ 435
angulia 435
sugu 435
River 434
Wiz@@ 434
zoni 434
alich@@ 433
vich@@ 433
Ok@@ 432
University 432
esa 432
fin@@ 432
kaz@@ 432
oke 432
pembe 432
1945 431
54 431
Bre@@ 431
lol@@ 431
Sir@@ 430
lika 430
ubini 430
67 429
Tunisia 429
che 429
uji 429
Black 428
ein@@ 428
rej@@ 428
43 427
Bay 427
Denmark 427
ilip@@ 427
88 426
Es@@ 426
Wash@@ 426
ames@@ 426
pap@@ 426
udu 426
Gi@@ 425
Mg@@ 425
kal@@ 425
kuanz@@ 425
Anti@@ 424
Familia 424
Kish@@ 424
San@@ 423
anah@@ 423
arini 423
king@@ 423
79 422
At@@ 422
ange@@ 422
ihi 422
ufu 422
von 422
58 421
AN@@ 421
Thomas 421
atak@@ 421
daima 421
der@@ 421
lis@@ 421
opoli 421
1,000 420
Ash@@ 420
Hiv@@ 420
ese 420
Lin@@ 419
Poland 419
odi@@ 419
oksi@@ 419
99 418
oyo 418
masha@@ 417
ogoro 417
oho 417
1966 416
Massachusetts 416
Mz@@ 416
Pasif@@ 416
ikan@@ 416
msa@@ 416
mu 416
10,@@ 415
Cas@@ 415
Fr@@ 415
adiliko 415
aro 415
les@@ 415
Dh@@ 414
Fal@@ 414
kurugenzi 414
the@@ 414
Martin 413
Park 413
Pos@@ 413
per@@ 413
1968 412
64 412
Bor@@ 412
Bug@@ 412
bek@@ 412
09 411
Cal@@ 411
Mug@@ 411
atana 411
lu 411
owe 411
66 410
Kup@@ 410
Ver@@ 410
amar@@ 410
angaz@@ 410
kari@@ 410
wanja 410
Cr@@ 409
UEFA 409
jap@@ 409
65 408
Bon@@ 408
Hud@@ 408
Men@@ 408
iter@@ 408
safa 408
57 407
Lagos 407
ant 407
Ba@@ 406
qu@@ 406
Many@@ 405
ingereza 405
ion@@ 405
profes@@ 405
tw@@ 405
95 404
98 404
La@@ 404
Maur@@ 404
ete 404
gr@@ 404
himu 404
meno 404
To@@ 403
aik@@ 403
ail@@ 403
ans 403
ongoz@@ 403
07 402
Bil@@ 402
Uk@@ 402
ikukuu 402
uth@@ 402
62 401
Yak@@ 401
magaz@@ 401
rio 401
ulio 401
uto 401
Ben@@ 400
Mel@@ 400
ian 400
kupan@@ 400
0,@@ 399
73 399
Bun@@ 399
kel@@ 399
Git@@ 398
bezi 398
kio 398
51 397
Fl@@ 397
Hadi@@ 397
Im@@ 397
Shu@@ 397
avana 397
berg 397
lem@@ 397
… 397
Du@@ 396
Song@@ 396
Tekn@@ 396
aliye 396
ica 396
ongoni 396
35@@ 395
Dis@@ 395
Go@@ 395
Wais@@ 395
kule 395
oth@@ 395
wango 395
May@@ 394
aguzi 394
ajemi 394
enge 394
ope 394
ter 394
Ir@@ 393
Kem@@ 393
esia 393
fi 393
tend@@ 393
uasi 393
weng@@ 393
72 392
Hak@@ 392
anach@@ 392
malaria 392
na@@ 392
ty 392
dis@@ 391
ens@@ 391
63 390
91 390
onyesho 390
sig@@ 390
74 389
96 389
dr@@ 389
enia 389
hisi 389
rasi 389
Way@@ 388
eba 388
eon@@ 388
lah@@ 388
ler 388
sini 388
ell 387
takatifu 387
wei 387
Uh@@ 386
ais@@ 386
ombi 386
zo@@ 386
2,000 385
56 385
97 385
Love 385
Pro@@ 385
kuku@@ 385
kuku 384
sam@@ 384
sinema 384
wad@@ 384
Berlin 383
Sel@@ 383
me 383
yek@@ 383
eri@@ 382
ville 382
Asi@@ 381
ras@@ 381
3.@@ 380
Konstantin@@ 380
Mn@@ 380
aro@@ 380
edi 380
ord@@ 380
ori@@ 380
ust@@ 380
uzam@@ 380
Anah@@ 379
Ke@@ 379
ci@@ 379
ith 379
$ 378
69 378
chi@@ 378
1000 377
Jo@@ 377
Ngu@@ 377
Plat@@ 377
esab@@ 377
1.@@ 376
abi 376
amoto 376
Namibia 375
Saf@@ 375
akia 375
84 374
93 374
King 374
UN@@ 374
Una 374
astronom@@ 374
kor@@ 374
mid@@ 374
mos@@ 374
sp@@ 374
trop@@ 374
uen@@ 374
oda 373
1958 372
Dam@@ 372
hav@@ 372
tal@@ 372
uiya 372
1959 371
Hung@@ 371
Ker@@ 371
Party 371
Sult@@ 371
ambu 371
ande 371
ast@@ 371
mea 371
yan 371
700 370
Coast 370
Ireland 370
Sum@@ 370
08 369
DJ 369
Johannesburg 369
Mul@@ 369
met@@ 369
82 368
ick 368
upa 368
vi 368
Eritrea 367
Mig@@ 367
Viktoria 367
anzia 367
zam@@ 367
zit@@ 367
59 366
Mac@@ 366
Madrid 366
Tan@@ 366
bas@@ 366
76 365
Val@@ 365
ens 365
molek@@ 365
ner 365
1930 364
71 364
Pal@@ 364
iri@@ 364
mila 364
sil@@ 364
wand@@ 364
4.@@ 363
Jean 363
air@@ 363
ikuu 363
68 362
Kay@@ 362
mot@@ 362
Central 361
ait@@ 361
ory 361
Ana 360
Uj@@ 360
XX@@ 360
tah@@ 360
ver@@ 360
8,000 359
Fas@@ 359
Malaysia 359
ikua 359
itu 359
liko 359
Chad 358
Mohamed 358
anea 358
ban@@ 358
ite 358
lima 358
ubu@@ 358
unia 358
Los 357
Mart@@ 357
Sw@@ 357
Uy@@ 357
vij@@ 357
yar@@ 357
Henry 356
Os@@ 356
kunde 356
oku@@ 356
sad@@ 356
83 355
Hot@@ 355
Wil@@ 355
ondo@@ 355
77 354
ikam@@ 354
karat@@ 354
Arsenal 353
Musa 353
ambi@@ 353
IC@@ 352
Of@@ 352
adiri 352
waya 352
Benedi@@ 351
Julius 351
des 351
inyota 351
30@@ 350
87 350
94 350
kol@@ 350
Nat@@ 349
kish@@ 349
tikodi 349
uno 349
1957 348
Louis 348
No@@ 348
bin@@ 348
dizi 348
doa 348
Pre@@ 347
etwa 347
fr@@ 347
q 347
Don@@ 346
endaji 346
insia 346
89 345
dem@@ 345
mada 345
nur@@ 345
pol@@ 345
wany@@ 345
04 344
arabu 344
oug@@ 344
undu 344
Fel@@ 343
Hil@@ 343
Nyan@@ 343
VI 343
dig@@ 343
koani 343
tut@@ 343
03 342
1940 342
ahi@@ 342
akini 342
ganda 342
igh@@ 342
sir@@ 342
Jer@@ 341
anas@@ 341
indu@@ 341
Mich@@ 340
Ros@@ 340
Sol@@ 340
lam@@ 340
5.@@ 339
Anat@@ 339
Sen@@ 339
92 338
atur@@ 338
del 338
Me 337
hana 337
ifu@@ 337
viz@@ 337
Syria 336
amba@@ 336
inae 336
12,@@ 335
Ju@@ 335
Man 335
Mol@@ 335
XIII 335
ann@@ 335
cho 335
ella 335
okeo 335
pop 335
tra 335
visa 335
1948 334
78 334
ardin@@ 334
dy 334
ifuat@@ 334
05 333
1956 333
3,000 333
Sau@@ 333
akula 333
bak@@ 333
let@@ 333
Benin 332
My@@ 332
dom@@ 332
taba 332
1954 331
Palestina 331
arab@@ 331
edi@@ 331
02 330
33@@ 330
Han@@ 330
Mes@@ 330
XII 330
kutambu@@ 330
ā@@ 330
Tur@@ 329
kataba 329
lang@@ 329
1949 328
Bad@@ 328
MA 328
Pe@@ 328
Rut@@ 328
Tri@@ 328
UB 328
Wen@@ 328
abar@@ 328
den 328
isia 328
ufi 328
Mary 327
ess 327
ifa 327
sich@@ 327
situ 327
va 327
81 326
Cl@@ 326
For@@ 326
die 326
ity 326
ov 326
pa@@ 326
ven@@ 326
01 325
Nas@@ 325
akar@@ 325
ist 325
tamb@@ 325
2.@@ 324
Ay@@ 324
Kun@@ 324
ans@@ 324
ria 324
Pan@@ 323
ain 323
atoliki 323
for@@ 323
ise 323
je@@ 323
wo@@ 323
C. 322
F.C. 322
Hassan 322
Mexico 322
P. 322
Pen@@ 322
Video 322
kt@@ 322
23@@ 321
86 321
Lam@@ 321
inde 321
Award 320
Dau@@ 320
Od@@ 320
Sher@@ 320
sem@@ 320
Hus@@ 319
dan@@ 319
tin@@ 319
wir@@ 319
1920 318
J. 318
Jazz 318
Real 318
achia 318
kodi 318
1947 317
Georgia 317
My 317
Tim@@ 317
aransa 317
ener@@ 317
jwa 317
mini 317
oe 317
oza 317
pal@@ 317
tarak@@ 317
6.@@ 316
Kad@@ 316
ates 316
tumb@@ 316
Daniel 315
Iran 315
ade 315
kumbu@@ 315
St. 314
tof@@ 314
Afghanistan 313
Bul@@ 313
Edward 313
Hospit@@ 313
Mut@@ 313
bir@@ 313
vur@@ 313
hua 312
uel@@ 312
150 311
1918 311
Angeles 311
Brown 311
Char@@ 311
Pulitzer 311
aur@@ 311
dhar@@ 311
ensi 311
sm 311
Reg@@ 310
all 310
den@@ 310
haria 310
1955 309
Waw@@ 309
aten@@ 309
iss@@ 309
lad@@ 309
nah@@ 309
okrasia 309
100,000 308
Jub@@ 308
Shab@@ 308
pp@@ 308
20,000 307
dii 307
imp@@ 307
jen@@ 307
oliki 307
viv@@ 307
B. 306
Bou@@ 306
DNA 306
Nad@@ 306
Wang@@ 306
ap 306
iadini 306
wil@@ 306
— 306
1952 305
Sheikh 305
W 305
amer@@ 305
go@@ 305
ini@@ 305
uaji 305
Academy 304
Math@@ 304
wel@@ 304
06 303
Elizabeth 303
Fi@@ 303
Hor@@ 303
a. 303
anum 303
ca 303
m. 303
Albert 302
One 302
Smith 301
atika 301
FA 300
State 300
bel@@ 300
uk 300
25@@ 299
Ac@@ 299
New@@ 299
Victoria 299
ario 299
az 299
leb@@ 299
no@@ 299
pole 299
County 298
Do@@ 298
cheza 298
co@@ 298
ilio 298
Ms@@ 297
amt@@ 297
co 297
han@@ 297
ings 297
kong@@ 297
sah@@ 297
Barcelona 296
De 296
Ly@@ 296
Ten@@ 296
ine@@ 296
uda 296
13,@@ 295
Lee 295
Vir@@ 295
bele 295
mand@@ 295
It 294
J 294
Zealand 294
atir@@ 294
elli 294
emp@@ 294
Mun@@ 293
Ngo@@ 293
Vil@@ 293
fiz@@ 293
ungano 293
1900 292
900 292
Bro@@ 292
Samb@@ 292
Sk@@ 292
burg 292
dea 292
ess@@ 292
ill@@ 292
inus 292
pu 292
Rus@@ 291
Ste@@ 291
our 291
tro@@ 291
zuia 291
Nab@@ 290
field 290
yekiti 290
za@@ 290
Gen@@ 289
ange 289
boa 289
life 289
mo 289
1946 288
CD 288
Dak@@ 288
Hot 288
wo 288
Acc@@ 287
Brit@@ 287
Niger 287
Times 287
ach 287
nz@@ 287
1953 286
Domin@@ 286
Texas 286
hir@@ 286
Uta@@ 285
petrol@@ 285
Kag@@ 284
Ras@@ 284
bol@@ 284
elle 284
ichi 284
orthodoksi 284
tri@@ 284
Sand@@ 283
Wana@@ 283
gia 283
Foundation 282
Sy@@ 282
anus 282
ler@@ 282
nim@@ 282
45@@ 281
Khan 281
Lim@@ 281
Pad@@ 281
hio 281
mm@@ 281
Ex@@ 280
anana 280
ice 280
7.@@ 279
8.@@ 279
S.@@ 279
ikil@@ 279
ubi 279
Ya 278
ce 278
ologi@@ 278
sisko 278
umu@@ 278
Biz@@ 277
Serbia 277
Sil@@ 277
Van 277
itia 277
Av@@ 276
Fiz@@ 276
Y 276
edonia 276
ell@@ 276
kuy@@ 276
mer@@ 276
nak@@ 276
Aj@@ 275
idi@@ 275
nik@@ 275
Kah@@ 274
Ph@@ 274
Ud@@ 274
tambu@@ 273
ul 273
1939 272
Ah@@ 272
Chelsea 272
Gh@@ 272
ate@@ 272
ebe 272
irani 272
9.@@ 271
August@@ 271
Bom@@ 271
Som@@ 271
ido 271
sia 271
th 271
anta 270
ff@@ 270
izaji 270
uziki 270
14,@@ 269
Che@@ 269
per 269
250 268
AC@@ 268
Ed@@ 268
Hay@@ 268
Libya 268
Mexiko 268
Tom@@ 268
elo 268
manu@@ 268
mist@@ 268
1888 267
AS@@ 267
E. 267
O.@@ 267
bay@@ 267
Andrea 266
IX 266
Pat@@ 266
Said 266
UNESCO 266
Union 266
Cha 265
Nepal 265
_ 265
ence 265
ish 265
izo@@ 265
sen 265
1886 264
All 264
Bol@@ 264
alimu 264
opot@@ 264
Des@@ 263
abe 263
geni 263
hoja 263
mam 263
opo@@ 263
Eli@@ 262
Florida 262
The@@ 262
akos 262
aume 262
bl@@ 262
pand@@ 262
Bi 261
Liberia 261
Sur@@ 261
Togo 261
aje 261
dur@@ 261
AR@@ 260
Jam@@ 260
duk@@ 260
van 260
Fre@@ 259
Rh@@ 259
pun@@ 259
uzo 259
15,@@ 258
Dj@@ 258
Yos@@ 258
bab@@ 258
enz@@ 258
gar@@ 258
ker 258
oshi 258
11@@ 257
Abd@@ 257
Bung@@ 257
Sun@@ 257
amo@@ 257
vo 257
yn@@ 257
Ant@@ 256
Cel@@ 256
Dem@@ 256
Don 256
Dor@@ 256
FM 256
Hut@@ 256
Mot@@ 256
aru 256
jerumani 256
ova 256
them@@ 256
Dur@@ 255
Laz@@ 255
M. 255
Sala 255
Son@@ 255
Zam@@ 255
afsi 255
aska 255
ekana 255
hui 255
Bl@@ 254
Hab@@ 254
Society 254
elektr@@ 254
mm 254
mwanah@@ 254
op 254
yn 254
Abu 253
Armenia 253
Band@@ 253
Fu@@ 253
Ish@@ 253
Nag@@ 253
Ra@@ 253
ele@@ 253
ille 253
liv@@ 253
waka 253
American 252
ken@@ 252
1951 251
Chicago 251
Meks@@ 251
SA@@ 251
Say@@ 251
ance 251
Alexander 250
Kuz@@ 250
ber 250
bon@@ 250
gam@@ 250
mip@@ 250
mweng@@ 250
ult@@ 250
Kro@@ 249
alam@@ 249
bio 249
eli@@ 249
League 248
Sam 248
Tro@@ 248
but@@ 248
ts 248
zaliwa 248
Aw@@ 247
Group 247
antu 247
hel@@ 247
hesh@@ 247
iya 247
ker@@ 247
ling@@ 247
orod@@ 247
sult@@ 247
00@@ 246
Dan@@ 246
Hol@@ 246
Jones 246
pon@@ 246
1941 245
IS@@ 245
Lyon 245
Sok@@ 245
akato 245
inn@@ 245
Da@@ 244
Democratic 244
Rob@@ 244
Z 244
arakati 244
asiasa 244
ayarishaji 244
ham 244
1500 243
1914 243
Gabon 243
Lug@@ 243
Shak@@ 243
afunzi 243
eze 243
kutengen@@ 243
que 243
1936 242
College 242
Grammy 242
Madag@@ 242
ghuli 242
ius 242
ukur@@ 242
wau@@ 242
yol@@ 242
1917 241
27@@ 241
Bis@@ 241
Kim 241
Le 241
achama 241
bor@@ 241
imar@@ 241
ongez@@ 241
17@@ 240
1944 240
Fili@@ 240
High 240
Pl@@ 240
Progr@@ 240
ney 240
1933 239
26@@ 239
Dr@@ 239
Iv@@ 239
Kamb@@ 239
Pok@@ 239
Star 239
Ul@@ 239
anja 239
ean 239
ello 239
ette 239
Grand 238
Leb@@ 238
Ter@@ 238
Williams 238
eme 238
jin@@ 238
ons 238
ve@@ 238
24@@ 237
avia 237
ibn 237
imin@@ 237
open@@ 237
Island 236
evi 236
pino 236
Radio 235
aham@@ 235
beg@@ 235
ins 235
thai 235
une 235
.com 234
A. 234
Abr@@ 234
Bay@@ 234
Por@@ 234
agi 234
ensis 234
est 234
mati@@ 234
pop@@ 234
ts@@ 234
Aki@@ 233
Braz@@ 233
Vienna 233
3000 232
CO@@ 232
Chan@@ 232
House 232
Jack 232
Juli@@ 232
Moscow 232
asisi 232
mala@@ 232
nin@@ 232
zana 232
AD@@ 231
AM@@ 231
Association 231
Hip 231
Rho@@ 231
eria 231
jah@@ 231
jus@@ 231
lat@@ 231
prot@@ 231
unu 231
£ 231
Chile 230
Go 230
biot@@ 230
ico 230
oni@@ 230
tian 230
Afr@@ 229
Carey 229
Hum@@ 229
bes@@ 229
con@@ 229
rati@@ 229
Jar@@ 228
abo 228
all@@ 228
ambuk@@ 228
olia 228
ulo 228
Cer@@ 227
Hill 227
Ib@@ 227
Michigan 227
dir@@ 227
département 227
hap@@ 227
Bos@@ 226
Ndi@@ 226
Uri@@ 226
aman@@ 226
bert 226
esis 226
16,@@ 225
Burkina 225
Hi@@ 225
Hon@@ 225
Johnson 225
Van@@ 225
aid@@ 225
ger 225
ile@@ 225
lan@@ 225
lara 225
mann 225
sta@@ 225
6,000 224
Ahmed 224
Club 224
Patri@@ 224
RC 224
aso 224
igu@@ 224
inzi 224
ju 224
ks 224
uchi 224
Milano 223
Pau@@ 223
Shar@@ 223
St 223
Women 223
avi@@ 223
baji 223
fil@@ 223
lar@@ 223
wood 223
Pon@@ 222
umbani 222
ES@@ 221
Hitler 221
Jay 221
Kaz@@ 221
Les@@ 221
Rub@@ 221
allah 221
ige 221
isti@@ 221
uni@@ 221
Cher@@ 220
achi 220
ack 220
hor@@ 220
nam@@ 220
sk 220
« 220
4,000 219
Del@@ 219
Marmara 219
On@@ 219
assa 219
auti@@ 219
enti@@ 219
ime 219
islamu 219
unzo 219
» 219
Ban@@ 218
Cam@@ 218
Gav@@ 218
Has@@ 218
Moy@@ 218
Star@@ 218
bom@@ 218
haa 218
00 217
Google 217
Inter@@ 217
Satur@@ 217
Sierra 217
Young 217
fe 217
gel@@ 217
nit@@ 217
1934 216
Ap@@ 216
CD@@ 216
Fati@@ 216
Gor@@ 216
Hip@@ 216
Sav@@ 216
Tal@@ 216
ae@@ 216
arr@@ 216
ase 216
ash 216
poli@@ 216
ute 216
1922 215
1925 215
1929 215
BBC 215
LA 215
Queen 215
Santa 215
Wales 215
White 215
anne 215
dha 215
iso 215
tath@@ 215
1942 214
DC 214
Leone 214
Media 214
Q 214
Stars 214
ata@@ 214
umi@@ 214
5000 213
Company 213
Sah@@ 213
XI 213
XVI 213
alb@@ 213
lav@@ 213
1885 212
Dubai 212
Kou@@ 212
anj@@ 212
tro 212
ussia 212
1943 211
Canada 211
Dom@@ 211
Francis 211
Hir@@ 211
Met@@ 211
own 211
sul@@ 211
Had@@ 210
Sik@@ 210
Ukraine 210
Vati@@ 210
Wor@@ 210
tad@@ 210
1926 209
F.@@ 209
Fo@@ 209
aceae 209
rap 209
Band 208
Japan 208
Khali@@ 208
Long@@ 208
Si 208
onya 208
reg@@ 208
wakil@@ 208
180 207
1890 207
Myanmar 207
News 207
Oblast 207
Patrick 207
dari 207
ight 207
pum@@ 207
vua 207
17,@@ 206
Miz@@ 206
Ob@@ 206
Og@@ 206
fig@@ 206
Fil@@ 205
Lus@@ 205
amino 205
atio 205
kl@@ 205
laka 205
ren@@ 205
CH@@ 204
Profes@@ 204
yab@@ 204
Fed@@ 203
Port 203
bos@@ 203
tic 203
tis 203
toba 203
tom@@ 203
uria 203
י@@ 203
120 202
Ben 202
Rose 202
Trans@@ 202
del@@ 202
diye 202
ropa 202
1,0@@ 201
116 201
30,000 201
AC 201
hid 201
ie@@ 201
pita 201
39@@ 200
65@@ 200
Cham@@ 200
Faso 200
Miss 200
Nov@@ 200
Scott 200
aire 200
gom@@ 200
ikat@@ 200
ison 200
shi@@ 200
AP@@ 199
But@@ 199
Ing@@ 199
MTV 199
Marie 199
Sha@@ 199
Sir 199
Taylor 199
afr@@ 199
area 199
ax@@ 199
ego 199
huria 199
sta 199
á@@ 199
124@@ 198
18,@@ 198
1910 198
1937 198
Bib@@ 198
Chris 198
Green@@ 198
Hek@@ 198
Mohammed 198
ege 198
gez@@ 198
radi@@ 198
usia 198
Cap@@ 197
Christian 197
Dr. 197
Kais@@ 197
Kul@@ 197
bad@@ 197
ento 197
huy@@ 197
mith@@ 197
mun@@ 197
utar@@ 197
1938 196
Jose@@ 196
Kel@@ 196
Lit@@ 196
Rab@@ 196
Simon 196
Verde 196
Zi@@ 196
elektron@@ 196
hes@@ 196
inayoz@@ 196
nying@@ 196
pro@@ 196
well 196
102 195
1905 195
Anthony 195
Rek@@ 195
armen@@ 195
han 195
lava 195
mata 195
mes@@ 195
yesi 195
Haw@@ 194
She@@ 194
YouTube 194
adr@@ 194
alishaji 194
hem@@ 194
ry 194
sanii 194
ui@@ 194
und 194
vent@@ 194
Big 193
Fer@@ 193
Life 193
Mark 193
Theod@@ 193
VIII 193
Wit@@ 193
ambukizi 193
ern@@ 193
hidro@@ 193
usu@@ 193
wan 193
67@@ 192
Best 192
Ez@@ 192
Kong 192
Om@@ 192
abor@@ 192
enn@@ 192
fal@@ 192
ith@@ 192
ster@@ 192
200@@ 191
Cu@@ 191
D. 191
Dun@@ 191
Kie@@ 191
Royal 191
Shi@@ 191
airo 191
fon@@ 191
sav@@ 191
ï@@ 191
1919 190
36@@ 190
AB@@ 190
Category 190
Thi@@ 190
alimt@@ 190
car@@ 190
ington 190
1923 189
7,000 189
British 189
Bub@@ 189
In 189
Northern 189
People 189
Rad@@ 189
rek@@ 189
str@@ 189
uro 189
val@@ 189
ys 189
120@@ 188
1931 188
2022 188
Columbia 188
Congress 188
Den@@ 188
God@@ 188
Nis@@ 188
Ven@@ 188
eth@@ 188
tha 188
wemo 188
wing@@ 188
Antak@@ 187
Cy@@ 187
Hen@@ 187
Illinois 187
Yugoslavia 187
dhah@@ 187
hun@@ 187
1912 186
Boy@@ 186
Hur@@ 186
I. 186
Israel 186
Lut@@ 186
ace 186
apos@@ 186
eh 186
itu@@ 186
res@@ 186
ruh@@ 186
ys@@ 186
1927 185
Entertainment 185
Lab@@ 185
Raj@@ 185
Sc@@ 185
UK 185
aut@@ 185
emek@@ 185
mus@@ 185
000,000 184
50,000 184
Fin@@ 184
anc@@ 184
col@@ 184
ion 184
iva 184
nom@@ 184
oph@@ 184
row@@ 184
tek@@ 184
use 184
with 184
yl@@ 184
Ever@@ 183
Laur@@ 183
Luc@@ 183
Luther 183
Telev@@ 183
Tw@@ 183
Vis@@ 183
adam@@ 183
api 183
apor@@ 183
esh 183
ich 183
304 182
Ari@@ 182
Carl 182
Hong 182
Jac@@ 182
Je@@ 182
Win@@ 182
alm@@ 182
illa 182
ogr@@ 182
ome@@ 182
sur@@ 182
28@@ 181
Istanbul 181
Pierre 181
fet@@ 181
iana 181
kap@@ 181
{ 181
Arthur 180
Euro 180
Know@@ 180
Luk@@ 180
hospit@@ 180
lig@@ 180
sabit 180
vin 180
zw@@ 180
Gaz@@ 179
Hel@@ 179
Isa@@ 179
Jama@@ 179
Nelson 179
Ou@@ 179
Rem@@ 179
Sing@@ 179
Ty@@ 179
ante 179
atr@@ 179
bot@@ 179
ds 179
its 179
span 179
umizi 179
AK@@ 178
IM@@ 178
Moh@@ 178
Rock 178
Run@@ 178
UM 178
VII 178
edia 178
ep 178
gal@@ 178
lip@@ 178
Air 177
Bir@@ 177
Bot@@ 177
Ep@@ 177
Hop 177
Kong@@ 177
Sydney 177
US@@ 177
endeleo 177
ism 177
su 177
tang@@ 177
Cre@@ 176
Fe@@ 176
Francisco 176
May 176
int@@ 176
olog@@ 176
rom@@ 176
sea 176
1928 175
303 175
Kilom@@ 175
Liverpool 175
Mog@@ 175
Pot@@ 175
Rio 175
Southern 175
bury 175
day@@ 175
induzi 175
sent@@ 175
sol@@ 175
st 175
1889 174
Eu@@ 174
Fran@@ 174
Frank 174
Hom@@ 174
Joe 174
Lis@@ 174
S. 174
Single 174
Sou@@ 174
e.@@ 174
gan@@ 174
hy@@ 174
ilimia 174
inger 174
ize 174
DM 173
Fir@@ 173
Western 173
dis 173
dor@@ 173
plasti@@ 173
ref 173
rut@@ 173
} 173
ć 173
Anna 172
Eng@@ 172
Gir@@ 172
Yam@@ 172
ales 172
els 172
o.@@ 172
vul@@ 172
Beth@@ 171
Carlos 171
Cross 171
Fat@@ 171
Gre@@ 171
Iraq 171
Omar 171
Ptolem@@ 171
Tig@@ 171
Vid@@ 171
anik@@ 171
eman 171
estr@@ 171
faransa 171
jan@@ 171
mer 171
mir 171
í@@ 171
‎ 171
119 170
Adam 170
Aeg@@ 170
Pel@@ 170
beri 170
bon 170
lilik@@ 170
low 170
rey 170
ski 170
15,000 169
1903 169
1916 169
Diamond 169
Lat@@ 169
Munich 169
Oc@@ 169
issa 169
oud 169
A.@@ 168
AL@@ 168
Fab@@ 168
Ford 168
Karl 168
apar@@ 168
ator 168
mek@@ 168
tol@@ 168
23,@@ 167
Aleks@@ 167
Teresa 167
Virginia 167
ag 167
bs 167
ech 167
ige@@ 167
sho@@ 167
toria 167
via 167
1.5 166
Est@@ 166
RI@@ 166
Stef@@ 166
Tony 166
Viv@@ 166
Wilson 166
Yer@@ 166
adudu 166
bani 166
ben@@ 166
dens@@ 166
gre@@ 166
Bangladesh 165
Ev@@ 165
Golden 165
IN@@ 165
It@@ 165
Limited 165
NBC 165
Osman@@ 165
Res@@ 165
Sever@@ 165
Tokyo 165
anal@@ 165
anthro@@ 165
ics 165
iku 165
kot@@ 165
shar@@ 165
α 165
1935 164
Bes@@ 164
CA@@ 164
Cur@@ 164
Ful@@ 164
Harvard 164
Mim@@ 164
SC 164
Samuel 164
Sem@@ 164
Yemen 164
afrika 164
anna 164
rock 164
ther@@ 164
tik@@ 164
ukio 164
19,@@ 163
1932 163
Bat@@ 163
Kau@@ 163
OS 163
Pep@@ 163
Rip@@ 163
lie 163
mem@@ 163
ns 163
tan 163
1908 162
1913 162
20,@@ 162
Cairo 162
Him@@ 162
Jin@@ 162
Kri@@ 162
R. 162
Zu@@ 162
ci 162
tur@@ 162
tus@@ 162
uvu 162
yem@@ 162
ym@@ 162
1896 161
1906 161
Ach@@ 161
Delta 161
Lak@@ 161
Mong@@ 161
Studio 161
Super 161
W. 161
ampa 161
any 161
arg@@ 161
bai 161
irikiano 161
neo 161
sey 161
ther 161
til@@ 161
tou@@ 161
wor@@ 161
市 161
40@@ 160
Aur@@ 160
Bulgaria 160
Der@@ 160
Ek@@ 160
Lor@@ 160
Queensland 160
kumbu 160
oper@@ 160
tin 160
tus 160
€ 160
AT@@ 159
Bad 159
SA 159
Sor@@ 159
Tem@@ 159
Walter 159
adhim@@ 159
atifu 159
chor@@ 159
liz@@ 159
papa 159
stone 159
tor 159
way 159
2.5 158
29@@ 158
Black@@ 158
Hy@@ 158
bud@@ 158
eau 158
ier@@ 158
ky 158
lands 158
lor@@ 158
od 158
oli@@ 158
plat@@ 158
sat@@ 158
sur 158
1870 157
Andrew 157
Baad@@ 157
Bill 157
Gat@@ 157
Mum@@ 157
Nin@@ 157
No 157
Pak@@ 157
ador 157
alaya 157
andin@@ 157
ff 157
gu 157
non 157
obi 157
oja 157
sy@@ 157
tes 157
Camp@@ 156
Chang@@ 156
Green 156
Hall 156
Sho@@ 156
Vo@@ 156
ark@@ 156
aw 156
inc@@ 156
ps 156
350 155
Bern@@ 155
Boston 155
Carolina 155
Pu@@ 155
Sig@@ 155
WWE 155
aden 155
als 155
aster@@ 155
dik@@ 155
ins@@ 155
jazz 155
lis 155
manga 155
160 154
1860 154
200,000 154
AS 154
Benjamin 154
Center 154
Geneva 154
Gog@@ 154
IA 154
Nu@@ 154
TA 154
Tre@@ 154
ath 154
etti 154
hir 154
mili@@ 154
pati@@ 154
,@@ 153
1902 153
Alfa 153
Fa@@ 153
Ibrahim 153
Prot@@ 153
Shin@@ 153
Sud@@ 153
Time 153
abr@@ 153
atra 153
fo 153
hr@@ 153
kung 153
tika 153
zen@@ 153
zuri 153
Antonio 152
Galil@@ 152
Kiaus@@ 152
Red 152
Shir@@ 152
Siberia 152
Vincent 152
aun@@ 152
insi 152
mez@@ 152
thi@@ 152
1907 151
59@@ 151
AI@@ 151
DP 151
Gro@@ 151
Oxford 151
Pin@@ 151
RE@@ 151
Show 151
Tas@@ 151
bra 151
mark 151
oth 151
oya 151
1924 150
Astronom@@ 150
Chem@@ 150
Christopher 150
Day@@ 150
EP 150
Neg@@ 150
Prince 150
Rail@@ 150
Wel@@ 150
Yas@@ 150
ave 150
gi 150
unya 150
Day 149
Gas@@ 149
Laos 149
Liga 149
Nah@@ 149
Napoli 149
Old 149
Otto 149
Peru 149
Prim@@ 149
Sep@@ 149
Steve 149
Tom 149
ations 149
ide@@ 149
ies 149
istan 149
oon 149
ster 149
1800 148
18@@ 148
Bud@@ 148
Disney 148
Lag@@ 148
Lok@@ 148
Mass@@ 148
Pent@@ 148
Pom@@ 148
Umb@@ 148
Up 148
adies 148
amm@@ 148
bar 148
delta 148
ex@@ 148
izi@@ 148
yc@@ 148
1625 147
Bang@@ 147
Bayer 147
Dani@@ 147
Hamburg 147
M.@@ 147
Tos@@ 147
angilio 147
awaida 147
lak@@ 147
ony 147
was 147
ו@@ 147
109 146
40,000 146
Bob 146
K. 146
Pres@@ 146
Sad@@ 146
Wik@@ 146
aff@@ 146
din 146
fre@@ 146
kok@@ 146
odia 146
www.@@ 146
yer@@ 146
1836 145
Frederick 145
Kand@@ 145
Max@@ 145
Patr@@ 145
Rah@@ 145
atu@@ 145
che@@ 145
ekw@@ 145
ett 145
hit@@ 145
oki 145
ology 145
140 144
1911 144
25,@@ 144
Abdul@@ 144
Kind@@ 144
Pennsylvania 144
Rec@@ 144
Seg@@ 144
Vin@@ 144
adia 144
aunti 144
eda 144
glut@@ 144
iz 144
kaya 144
lin 144
nor@@ 144
101 143
1880 143
1921 143
America 143
Ca@@ 143
Fun@@ 143
José 143
Khar@@ 143
MC 143
Pap@@ 143
Tours 143
US 143
alie 143
pro 143
uc@@ 143
ving@@ 143
Bid@@ 142
C.@@ 142
EC@@ 142
Jordan 142
Kub@@ 142
Mang@@ 142
Tel@@ 142
ated 142
http 142
ors 142
tari@@ 142
ˈ@@ 142
​ 142
110 141
AA 141
Kath@@ 141
Mr. 141
Orchestra 141
age@@ 141
da@@ 141
gae 141
hu 141
ill 141
jaw@@ 141
oso 141
piano 141
unde 141
37@@ 140
Boy 140
Dav@@ 140
Fon@@ 140
Gol@@ 140
Jab@@ 140
Jen@@ 140
Mike 140
Nach@@ 140
Norway 140
Ontario 140
Scotland 140
São 140
able 140
ehebu 140
fus@@ 140
gl@@ 140
hil@@ 140
ick@@ 140
ling 140
sou@@ 140
war 140
1,4@@ 139
1884 139
1887 139
1904 139
Lincoln 139
Ma 139
Mid@@ 139
Not@@ 139
Nus@@ 139
Press 139
RA 139
Sun 139
abi@@ 139
cu@@ 139
eter 139
jal@@ 139
moy@@ 139
Beach 138
DA 138
Dami@@ 138
Institute 138
Nim@@ 138
Oy@@ 138
PA 138
Peters 138
Sali@@ 138
Tut@@ 138
Zab@@ 138
buni 138
from 138
km2 138
wich 138
119@@ 137
1899 137
All@@ 137
Blue 137
Dol@@ 137
G. 137
Lev@@ 137
Tek@@ 137
key 137
otor@@ 137
sburg 137
sein 137
170 136
Abit@@ 136
Chap@@ 136
Great 136
North@@ 136
Petr@@ 136
Sultan 136
Tav@@ 136
Wol@@ 136
Yus@@ 136
ejeo 136
ets 136
kaf@@ 136
lif@@ 136
meth@@ 136
obe 136
ode 136
olo@@ 136
pom@@ 136
ø@@ 136
11.@@ 135
1891 135
53@@ 135
Ele@@ 135
Kang@@ 135
Mont@@ 135
Peace 135
Sweden 135
Territory 135
cl@@ 135
ft 135
ide 135
imeh@@ 135
land@@ 135
1898 134
Arch@@ 134
Gaza 134
Gold 134
Haf@@ 134
Pir@@ 134
Road 134
Trans 134
agu@@ 134
att@@ 134
beta 134
ks@@ 134
pik 134
57@@ 133
Frankfurt 133
Gam@@ 133
Ibn 133
Jr 133
Lum@@ 133
Margaret 133
Neb@@ 133
Ze@@ 133
`@@ 133
my@@ 133
our@@ 133
vo@@ 133
yok@@ 133
ão 133
Fort 132
Gau@@ 132
Kaw@@ 132
Romania 132
acho 132
kran@@ 132
media 132
nh@@ 132
out 132
sions 132
solo 132
ten 132
thiop@@ 132
ump@@ 132
ô@@ 132
1,6@@ 131
ARC 131
Ago@@ 131
Alek@@ 131
Anne 131
BA 131
Beng@@ 131
CL@@ 131
Hes@@ 131
Kot@@ 131
Lang@@ 131
Mob@@ 131
Op@@ 131
Rug@@ 131
Sag@@ 131
bera 131
kuru 131
oué 131
sok@@ 131
ա@@ 131
1791 130
1839 130
1915 130
22,@@ 130
Andes 130
Barn@@ 130
Hid@@ 130
Lah@@ 130
Roger 130
SM 130
Sm@@ 130
Toyota 130
aud@@ 130
burn 130
hug@@ 130
ly@@ 130
mang 130
1897 129
1901 129
Alex 129
Boh@@ 129
Brian 129
Fur@@ 129
Is 129
Russia 129
Solomon 129
Ton@@ 129
XIV 129
amerika 129
nav@@ 129
ock 129
ō@@ 129
Ann@@ 128
CE@@ 128
Film 128
His@@ 128
Lom@@ 128
Orange 128
Tit@@ 128
ajika 128
aman 128
ck 128
dan 128
ebu 128
elem@@ 128
fululizo 128
ole@@ 128
pil@@ 128
sch@@ 128
ste@@ 128
xi 128
án 128
47@@ 127
500,000 127
Baden 127
CS@@ 127
Davis 127
Kos@@ 127
Pic@@ 127
WA 127
Wilhelm 127
Ya@@ 127
aam 127
aland 127
cr@@ 127
enza 127
fes@@ 127
mor@@ 127
rak@@ 127
uala 127
ugenzi 127
ver 127
10.@@ 126
1866 126
Cambridge 126
Emmanuel 126
France 126
Gabriel 126
Hesse 126
Krist@@ 126
Movement 126
Obama 126
Panama 126
Reb@@ 126
Street 126
chen@@ 126
com@@ 126
elia 126
idem@@ 126
orum 126
ous@@ 126
ty@@ 126
win 126
Anton@@ 125
Ard@@ 125
Arts 125
BC 125
Free 125
Gl@@ 125
Steven 125
banda 125
bie 125
eck 125
heim 125
jan 125
kes 125
pag@@ 125
sand@@ 125
118@@ 124
130 124
27,@@ 124
Bank 124
Hollywood 124
Lil@@ 124
Nur@@ 124
Post 124
Ruv@@ 124
Sis@@ 124
anze 124
asin 124
ement 124
emokrasia 124
ful@@ 124
kos@@ 124
laz@@ 124
mashu@@ 124
ment 124
opera 124
tata 124
ube 124
uri@@ 124
én@@ 124
1892 123
75@@ 123
Beijing 123
Cop@@ 123
Dou@@ 123
Earth 123
England 123
Grace 123
Guy@@ 123
Howard 123
Kaf@@ 123
Liber@@ 123
Lil 123
Naz@@ 123
Sat@@ 123
Venezuela 123
alla 123
ao@@ 123
ax 123
ays 123
enzo 123
eth 123
fel@@ 123
gul@@ 123
ichana 123
isiti@@ 123
my 123
nan 123
num@@ 123
ont@@ 123
thro@@ 123
Ç@@ 123
á 123
201@@ 122
24,@@ 122
Be 122
Blo@@ 122
Centre 122
Development 122
Ga@@ 122
Len@@ 122
PE@@ 122
Pam@@ 122
Qatar 122
Ross 122
bomba 122
chin@@ 122
doba 122
dol@@ 122
ehem@@ 122
etta 122
ga@@ 122
hala 122
ical 122
imia 122
keti 122
ons@@ 122
over 122
ters 122
„ 122
103 121
105 121
1895 121
Alfred 121
Ci@@ 121
Daw@@ 121
Dũng 121
Ellen 121
Iceland 121
Isaac 121
Juventus 121
Nap@@ 121
Num@@ 121
On 121
Taiwan 121
Tamb@@ 121
UK@@ 121
We 121
isini 121
lah 121
otop@@ 121
sti@@ 121
urg 121
4000 120
Ambro@@ 120
Aqu@@ 120
Bosnia 120
Brothers 120
Cat@@ 120
Fox 120
Gold@@ 120
Kash@@ 120
Key@@ 120
L. 120
Live 120
Lạc 120
Main 120
Napoleon 120
Ran@@ 120
Tag@@ 120
Vig@@ 120
XV 120
Zin@@ 120
adan 120
ars 120
dei 120
enger 120
eski 120
eu 120
fo@@ 120
king 120
occo 120
rav@@ 120
rei 120
él@@ 120
34@@ 119
Corn@@ 119
Daily 119
Die 119
Din@@ 119
FO@@ 119
H. 119
Haiti 119
Kok@@ 119
Lem@@ 119
Leon@@ 119
Now 119
WHO 119
akh 119
bis@@ 119
ebi 119
erina 119
erry 119
giji 119
ikal@@ 119
106 118
115@@ 118
360 118
Ahmad 118
Anast@@ 118
Canterbury 118
Emer@@ 118
Foreign 118
Global 118
Haz@@ 118
Kuh@@ 118
Lombar@@ 118
Pri@@ 118
Red@@ 118
Rod@@ 118
Sicilia 118
Sus@@ 118
ally 118
art@@ 118
din@@ 118
ebo@@ 118
ents 118
fas@@ 118
fur 118
inum 118
ishati 118
jili 118
klin@@ 118
pri@@ 118
tete 118
1200 117
1861 117
1871 117
60@@ 117
Allen 117
Apo@@ 117
Bav@@ 117
Da 117
Gil@@ 117
Lake 117
Lub@@ 117
Spe@@ 117
Stanley 117
Water@@ 117
ayan 117
ayi 117
eland 117
ja@@ 117
kin 117
ny 117
tion 117
ward 117
É@@ 117
ó@@ 117
š@@ 117
1,8@@ 116
Bau@@ 116
Bonif@@ 116
CNN 116
Div@@ 116
Hav@@ 116
Hem@@ 116
Hills 116
Hun@@ 116
Kelly 116
Lati@@ 116
Nan@@ 116
Raf@@ 116
SS 116
SS@@ 116
Uni@@ 116
alar@@ 116
ald 116
atan@@ 116
dugu 116
grav@@ 116
igano 116
meng@@ 116
not@@ 116
sun@@ 116
1,9@@ 115
1893 115
26,@@ 115
Allah 115
Alliance 115
Cle@@ 115
Deb@@ 115
Dog@@ 115
Usw@@ 115
Var@@ 115
Wand@@ 115
Whit@@ 115
ams 115
art 115
ble 115
eim@@ 115
enberg 115
gen 115
itz 115
kamera 115
mojaw@@ 115
pyuta 115
ros@@ 115
25,000 114
450 114
Bam@@ 114
Bundesliga 114
Diego 114
Harris 114
Living@@ 114
Long 114
Max 114
Santos 114
Tim 114
Tus@@ 114
Villa 114
aan 114
atus 114
dam@@ 114
lev@@ 114
more 114
town 114
1894 113
80@@ 113
Alpha 113
Atlanta 113
Benn@@ 113
Claire 113
Eric 113
Jan@@ 113
Ltd 113
Luis 113
Ohio 113
Orleans 113
Pan 113
Tok@@ 113
aq 113
band@@ 113
eci@@ 113
ef 113
end 113
gio 113
hep@@ 113
illy 113
semin@@ 113
ton@@ 113
ː 113
1840 112
43@@ 112
Ale@@ 112
Ankara 112
Bayern 112
Cup 112
F. 112
Girls 112
Gun@@ 112
Kazakhstan 112
Microsoft 112
Pav@@ 112
RI 112
Serie 112
Stephen 112
Sto@@ 112
Theatre 112
aph@@ 112
him 112
ness 112
rain 112
tic@@ 112
yor@@ 112
107 111
21,@@ 111
Adolf 111
Anderson 111
Arabia 111
CB 111
ER@@ 111
Faus@@ 111
Gand@@ 111
Gem@@ 111
Hand@@ 111
Lar@@ 111
Ot@@ 111
Sas@@ 111
Tob@@ 111
Tou@@ 111
aca 111
bee 111
esti 111
got@@ 111
ias 111
mazo@@ 111
ose 111
pet@@ 111
shire 111
sius 111
Baby 110
Dennis 110
Dev@@ 110
Front 110
Hans 110
Harry 110
Lou@@ 110
Marcus 110
Ré@@ 110
Shah 110
Silva 110
Soul 110
Trier 110
Youth 110
ainishaji 110
bez@@ 110
idge 110
into 110
may@@ 110
omin@@ 110
ow 110
soni 110
ting 110
ָ@@ 110
Art 109
Ass@@ 109
Cec@@ 109
Cro@@ 109
Dest@@ 109
Donald 109
Fri@@ 109
Good@@ 109
Konstant@@ 109
Mom@@ 109
NA 109
Pa@@ 109
RT 109
Rap 109
Seoul 109
Sit@@ 109
Sloven@@ 109
^ 109
ass 109
cia 109
eira 109
fe@@ 109
ines 109
md@@ 109
out@@ 109
wara 109
50@@ 108
AF 108
Barbara 108
By@@ 108
Camer@@ 108
Denis 108
Dub@@ 108
Gur@@ 108
Houston 108
Lac@@ 108
Lawrence 108
Mali@@ 108
Milan 108
Queens 108
Shel@@ 108
Song 108
Sug@@ 108
Valley 108
Victor 108
Wallace 108
alum 108
cy 108
edo 108
kg 108
mom@@ 108
owa 108
poin@@ 108
yang@@ 108
ī@@ 108
1,7@@ 107
2,0@@ 107
34,@@ 107
AR 107
Bell@@ 107
Bé@@ 107
Country 107
Jak@@ 107
Leg@@ 107
ML@@ 107
MS@@ 107
Minnesota 107
Mississippi 107
Nation 107
Nev@@ 107
Ren@@ 107
Sarah 107
Second@@ 107
Sev@@ 107
Timor 107
Uruguay 107
aus 107
ente 107
esta 107
ien 107
illo 107
ken 107
lywood 107
muh@@ 107
nach@@ 107
ometr@@ 107
onal@@ 107
port 107
ric@@ 107
spek@@ 107
taki 107
ABC 106
Abdul 106
Afric@@ 106
Aks@@ 106
Amsterdam 106
Can 106
Juan 106
Lewis 106
Ray 106
Sid@@ 106
TE@@ 106
Ther@@ 106
Trav@@ 106
anger 106
asso 106
bet@@ 106
day 106
eus 106
ingen 106
lov@@ 106
men 106
mtaal@@ 106
ones 106
oster@@ 106
ser 106
undisho 106
up 106
1881 105
Abdullah 105
Beau@@ 105
District 105
Girl 105
IP@@ 105
SE@@ 105
Sports 105
agr@@ 105
bay 105
cor@@ 105
ein 105
elius 105
graf@@ 105
nch@@ 105
off 105
teri 105
tivo 105
12.@@ 104
Banda 104
Bra@@ 104
Brooklyn 104
Cass@@ 104
Chin@@ 104
Kennedy 104
Lup@@ 104
Mod@@ 104
Oscar 104
Rum@@ 104
UU 104
Ung@@ 104
blog@@ 104
enne 104
etab@@ 104
gon 104
hudi 104
kitab@@ 104
lar 104
line 104
nu@@ 104
para 104
rem@@ 104
sh 104
wang 104
290 103
38@@ 103
AF@@ 103
Bernard 103
Bit@@ 103
Brun@@ 103
COVID 103
Corps 103
Felix 103
Jacob 103
Je 103
Meth@@ 103
Nature 103
Porto 103
RO@@ 103
Sow@@ 103
Township 103
Wo@@ 103
alay@@ 103
aran@@ 103
asio 103
atie 103
audio 103
baj@@ 103
cher 103
ei@@ 103
eu@@ 103
iller 103
pul@@ 103
rah@@ 103
riz@@ 103
1,3@@ 102
114@@ 102
3,0@@ 102
Amaz@@ 102
Buch@@ 102
Camb@@ 102
Colorado 102
Copa 102
Emmy 102
Equ@@ 102
Ind@@ 102
Let@@ 102
Little 102
NBA 102
Network 102
Phil@@ 102
Syl@@ 102
T. 102
XVII 102
Yo 102
Zak@@ 102
Zel@@ 102
aifa 102
bat@@ 102
beb@@ 102
esi@@ 102
her 102
hol@@ 102
inz@@ 102
ix 102
log@@ 102
nas@@ 102
pedia 102
108 101
1830 101
1850 101
320 101
Adri@@ 101
Alaska 101
Alb@@ 101
Bolivia 101
Boys 101
Brooks 101
Council 101
Game 101
Helen 101
Maryland 101
PC@@ 101
Pop 101
Rak@@ 101
Tang@@ 101
ahu 101
andra 101
aux 101
bou@@ 101
department 101
eff@@ 101
eter@@ 101
if 101
kh 101
pur@@ 101
thumb 101
trans@@ 101
ud 101
1600 100
1700 100
1909 100
28,@@ 100
Bet@@ 100
Bush 100
Business 100
Cav@@ 100
Chil@@ 100
Church 100
Corporation 100
Dad@@ 100
Forbes 100
Haj@@ 100
Iz@@ 100
Kamer@@ 100
Leopold 100
Yu@@ 100
dal@@ 100
ers@@ 100
ges 100
giz@@ 100
ien@@ 100
inge 100
oy 100
teria 100
ux 100
zur@@ 100
1869 99
36,@@ 99
Aires 99
Ann 99
Azerbaijan 99
Bec@@ 99
Bell 99
Chal@@ 99
Fol@@ 99
Ian 99
Lady 99
Lov@@ 99
Mario 99
Oliver 99
Pil@@ 99
Seb@@ 99
Thailand 99
Tottenham 99
Wes@@ 99
Yan@@ 99
agara 99
alg@@ 99
dop@@ 99
etto 99
mes 99
mond 99
oun 99
va@@ 99
ä@@ 99
æ@@ 99
1,5@@ 98
270 98
Abo@@ 98
Adi@@ 98
Albania 98
Athens 98
Buenos 98
CA 98
CP 98
Cabo 98
Cent@@ 98
Emir@@ 98
FDA 98
Gel@@ 98
Henri 98
Heroes 98
Lebanon 98
Ludwig 98
Nav@@ 98
RD 98
Tennessee 98
Tik@@ 98
Valencia 98
Wall 98
een 98
feri 98
hist@@ 98
iche 98
ikh 98
itt 98
lan 98
lob@@ 98
mr@@ 98
ran 98
senti@@ 98
tri 98
ê@@ 98
13.@@ 97
550 97
Ax@@ 97
Beta 97
Chim@@ 97
Gordon 97
Just@@ 97
Kn@@ 97
Lav@@ 97
Rom 97
Ruh@@ 97
USA 97
Vel@@ 97
Windows 97
Württemberg 97
assi 97
besi 97
ensa 97
ides 97
ister@@ 97
leh@@ 97
leri 97
risto 97
vers 97
â@@ 97
1882 96
Ball@@ 96
Basil@@ 96
Bruce 96
Bruno 96
Cole 96
Dec@@ 96
Gary 96
Hawaii 96
Jol@@ 96
Joyce 96
Kob@@ 96
Liv@@ 96
Lucas 96
MS 96
Movie 96
Philip 96
Tah@@ 96
bal 96
ester@@ 96
lea 96
mate 96
othe@@ 96
ray 96
tig@@ 96
var@@ 96
37,@@ 95
Clinton 95
Douglas 95
Eg@@ 95
Gab@@ 95
Irak 95
Joh@@ 95
Jonathan 95
Meg@@ 95
PS@@ 95
Poly@@ 95
Puerto 95
Rico 95
Standard 95
Web@@ 95
Wood@@ 95
auf@@ 95
bro@@ 95
erg@@ 95
galak@@ 95
kins 95
lei 95
lem 95
mari 95
sky 95
tera 95
usim@@ 95
à 95
ç@@ 95
ə@@ 95
Angel@@ 94
ET 94
Facebook 94
Family 94
Indi@@ 94
Johannes 94
Junior 94
Mem@@ 94
Nig@@ 94
PhD 94
Tanz@@ 94
Tet@@ 94
That 94
Tum@@ 94
Yor@@ 94
air 94
bron@@ 94
cio 94
fol@@ 94
house 94
igh 94
inia 94
lat 94
name 94
ret@@ 94
sing@@ 94
1883 93
63@@ 93
Aman@@ 93
Dah@@ 93
Emb@@ 93
Hai 93
Ligue 93
Magdalena 93
Medi@@ 93
Nathan 93
Saudi 93
Ses@@ 93
Singles 93
Super@@ 93
Toronto 93
Viz@@ 93
Wall@@ 93
Wayne 93
Yah@@ 93
alis 93
ank@@ 93
arm@@ 93
atha 93
ator@@ 93
chester 93
emaji 93
frey 93
ikizo 93
ning@@ 93
rec@@ 93
rik 93
ted 93
tii 93
ves 93
ū@@ 93
β 93
104 92
305 92
70@@ 92
Aristot@@ 92
Bac@@ 92
Bologna 92
Claude 92
Cot@@ 92
European 92
For 92
Friedrich 92
Jane 92
Mih@@ 92
RA@@ 92
Studios 92
Warner 92
Wi@@ 92
Zo@@ 92
ats 92
ier 92
iji 92
odo@@ 92
pora 92
stein 92
sti 92
sy 92
tay@@ 92
ē@@ 92
ł@@ 92
100@@ 91
112 91
750 91
Amar@@ 91
Angela 91
B.@@ 91
Back 91
Clar@@ 91
Franklin 91
Ice 91
Jennifer 91
Kevin 91
Loc@@ 91
Quebec 91
Rouge 91
Sara 91
Top 91
Zan@@ 91
ait 91
arufu 91
bekistan 91
engel@@ 91
hadi@@ 91
leng@@ 91
pep@@ 91
pir@@ 91
poli 91
sid@@ 91
side 91
union 91
usan 91
vio 91
116@@ 90
2,9@@ 90
Chik@@ 90
Emilia 90
Festival 90
Geor@@ 90
Kali@@ 90
Khal@@ 90
Lon@@ 90
MO 90
Marvel 90
Mr 90
ST@@ 90
Southampton 90
UC@@ 90
Valent@@ 90
ansi 90
gee 90
hand@@ 90
ingham 90
jpg 90
nun@@ 90
ë@@ 90
1865 89
210 89
AD 89
Bri@@ 89
CM@@ 89
Cuba 89
God 89
IP 89
Kenneth 89
Martin@@ 89
Nick@@ 89
Raymond 89
Ruf@@ 89
Tul@@ 89
amis 89
chim@@ 89
dad 89
ense 89
ev 89
ium 89
jed@@ 89
nes 89
o. 89
rid@@ 89
yp@@ 89
ş@@ 89
117@@ 88
240 88
6000 88
650 88
Agu@@ 88
Akh@@ 88
Angel 88
Arab 88
Cab@@ 88
Charlotte 88
Dir@@ 88
E.@@ 88
Gis@@ 88
Gul@@ 88
Jimmy 88
Joshua 88
Las 88
Lib@@ 88
Luxemb@@ 88
Mek@@ 88
Newton 88
Paraguay 88
Shim@@ 88
Ted@@ 88
XIX 88
dhul@@ 88
fos@@ 88
kan 88
luk@@ 88
mej@@ 88
mit 88
tag@@ 88
125 87
1857 87
Alexandria 87
Bog@@ 87
Channel 87
Cru@@ 87
Din 87
Europa 87
Fac@@ 87
Gang@@ 87
Good 87
Les 87
Marshall 87
Maurice 87
Mic@@ 87
Migu@@ 87
Opera 87
Rap@@ 87
Rhy@@ 87
Salvador 87
Santiago 87
agan 87
ail 87
dos 87
egr@@ 87
other@@ 87
ovina 87
ron@@ 87
sub@@ 87
worth 87
ος 87
ב@@ 87
1838 86
1867 86
Aber@@ 86
Alan 86
Dre@@ 86
Kho@@ 86
Kosovo 86
Kud@@ 86
Leon 86
Master 86
Montenegro 86
Mount 86
Ori@@ 86
Republican 86
To 86
Vladimir 86
ack@@ 86
asu 86
augh@@ 86
char@@ 86
erre 86
ester 86
fab@@ 86
ici@@ 86
inflam@@ 86
iny 86
jug@@ 86
neur@@ 86
optera 86
pah@@ 86
sei 86
sis 86
star@@ 86
1.2 85
113 85
260 85
325 85
380 85
Alvar@@ 85
Apple 85
Aut@@ 85
Bernardo 85
Bih@@ 85
Gabri@@ 85
Grim@@ 85
Hos@@ 85
I.@@ 85
IA@@ 85
Jan 85
Khmer 85
Law 85
Missouri 85
Muz@@ 85
Ne 85
Ry@@ 85
Sib@@ 85
Unit 85
XVIII 85
anim@@ 85
atao 85
err@@ 85
ex 85
has 85
illi@@ 85
itus 85
lies 85
old 85
omp@@ 85
ots 85
ott 85
pokeo 85
teri@@ 85
uan 85
yl 85
1,500 84
1815 84
1856 84
220 84
230 84
280 84
313 84
Adams 84
Alice 84
Alt@@ 84
Andr@@ 84
BS 84
Beg@@ 84
DD 84
DF 84
Eliz@@ 84
Football 84
Fres@@ 84
Giovanni 84
Hag@@ 84
Ho 84
Irene 84
Miami 84
Mill@@ 84
Rock@@ 84
SI 84
Scre@@ 84
Yi 84
adini 84
ete@@ 84
harama 84
hindi 84
ign@@ 84
kar 84
long@@ 84
med@@ 84
path@@ 84
pres@@ 84
sc@@ 84
vel@@ 84
wait 84
yoy@@ 84
1864 83
Bismarck 83
Bob@@ 83
Bour@@ 83
DVD 83
Element@@ 83
Ernest 83
Eus@@ 83
Ferdinand 83
Florence 83
Grant 83
Gö@@ 83
Jacques 83
Johann 83
Miller 83
Moses 83
Power 83
Sevilla 83
Slovakia 83
Tour@@ 83
Vic@@ 83
Walt 83
Will 83
` 83
abo@@ 83
aci@@ 83
af 83
amen@@ 83
astr@@ 83
aul@@ 83
austr@@ 83
dee 83
dish 83
don 83
ede 83
form@@ 83
hid@@ 83
latitu@@ 83
law@@ 83
net 83
reh@@ 83
ru 83
stadt 83
were 83
ר@@ 83
1863 82
310 82
330 82
Air@@ 82
Arizona 82
Community 82
Dublin 82
Heinrich 82
Indiana 82
Jud@@ 82
Kost@@ 82
Leeds 82
Lop@@ 82
MP@@ 82
Oli@@ 82
Rid@@ 82
Ryan 82
Susan 82
Thel@@ 82
Trinidad 82
Yoh@@ 82
You@@ 82
Zen@@ 82
anth@@ 82
arra 82
atta 82
eb 82
gy 82
hariki 82
hon@@ 82
i.@@ 82
lam 82
mel@@ 82
ple@@ 82
ː@@ 82
א@@ 82
115 81
1300 81
DO@@ 81
Dro@@ 81
Finland 81
Force 81
Herzeg@@ 81
Land@@ 81
Magaz@@ 81
Matt 81
Nic@@ 81
PN@@ 81
Pop@@ 81
Roc@@ 81
Sony 81
Taliban 81
Television 81
alo@@ 81
aug@@ 81
deb@@ 81
fen@@ 81
fran@@ 81
fuatana 81
geg@@ 81
gus@@ 81
nar@@ 81
ores 81
quel@@ 81
sar 81
tul@@ 81
wer 81
å@@ 81
ía 81
ú@@ 81
ā 81
135 80
1862 80
Alberto 80
Aston 80
Baltimore 80
CN@@ 80
Costa 80
Dance 80
Do 80
EC 80
Gom@@ 80
Hali@@ 80
Hope 80
IL@@ 80
Julia 80
Kle@@ 80
Law@@ 80
Ler@@ 80
Nations 80
Petersburg 80
RNA 80
Sri 80
Ster@@ 80
Stone 80
alifor@@ 80
app@@ 80
ast 80
cer@@ 80
ebr@@ 80
ellan 80
eller 80
ert 80
gn@@ 80
har 80
hou 80
née 80
osoma 80
pha 80
ston 80
time 80
trol@@ 80
unk@@ 80
ī 80
́ 80
ְ@@ 80
211 79
340 79
Abd 79
Bremen 79
Caesar 79
DE@@ 79
Dul@@ 79
Education 79
Ere@@ 79
FI@@ 79
Fem@@ 79
Franco 79
Hau@@ 79
Home 79
Hotel 79
Kre@@ 79
Lig@@ 79
Michelle 79
Mk 79
Nath@@ 79
Out@@ 79
Pay@@ 79
Rif@@ 79
SP@@ 79
Sz@@ 79
Sé@@ 79
Vienne 79
Vor@@ 79
Way 79
What 79
Wu 79
Your 79
acc@@ 79
aj 79
dev@@ 79
ellen@@ 79
fl@@ 79
gur@@ 79
los@@ 79
ody 79
ort 79
rad@@ 79
rap@@ 79
rit@@ 79
tics 79
won 79
yg@@ 79
113@@ 78
1858 78
1879 78
2500 78
AM 78
Arg@@ 78
Bla@@ 78
Bru@@ 78
Congo 78
Connecticut 78
Cun@@ 78
Côte 78
Dag@@ 78
Dig@@ 78
Et@@ 78
Eva 78
Franz 78
Grande 78
Gw@@ 78
Helena 78
Herbert 78
ISBN 78
Inter 78
Iran@@ 78
Kansas 78
Lord 78
Men 78
NASA 78
Nde@@ 78
Path@@ 78
Pit@@ 78
Project 78
Stadium 78
Stewart 78
This 78
Yale 78
akan 78
alle 78
aram@@ 78
ativ@@ 78
can@@ 78
cre@@ 78
ges@@ 78
inter@@ 78
izer 78
onte 78
ord 78
osis 78
oti@@ 78
she 78
tit@@ 78
ğ@@ 78
ō 78
117 77
1873 77
29,@@ 77
420 77
Abraham 77
As 77
Birmingham 77
Bond 77
Bran@@ 77
Cho@@ 77
D.@@ 77
Dum@@ 77
General 77
Gon@@ 77
Kemal 77
Ket@@ 77
Magic 77
Monte 77
Princess 77
Rud@@ 77
Woman 77
atil@@ 77
das 77
eder@@ 77
eir@@ 77
eye 77
istr@@ 77
iye 77
kt 77
mont 77
ms 77
onas 77
opl@@ 77
osom@@ 77
taya 77
tico 77
í 77
ה@@ 77
2,6@@ 76
An 76
Aziz 76
Brus@@ 76
Byr@@ 76
Hamilton 76
Jam 76
Jun@@ 76
Lad@@ 76
Sac@@ 76
Sang@@ 76
Suz@@ 76
Terr@@ 76
Vie@@ 76
Vill@@ 76
ades 76
ado@@ 76
album 76
cel@@ 76
gun 76
ilian 76
leen 76
lock 76
low@@ 76
ops 76
osia 76
plas@@ 76
sion 76
tru@@ 76
tz 76
yang 76
114 75
14.@@ 75
1400 75
1878 75
3.5 75
Ajax 75
Amer@@ 75
Austr@@ 75
Dan 75
Doh@@ 75
Dr 75
Inc. 75
Karak@@ 75
Litu@@ 75
Morgan 75
Morris 75
Philadelphia 75
SW@@ 75
Shane 75
So 75
Sub@@ 75
Taf@@ 75
Urban 75
Vivi@@ 75
Willi@@ 75
amel@@ 75
ape 75
atini 75
ative 75
ayn@@ 75
azini 75
ce@@ 75
dipl@@ 75
enj@@ 75
eshim@@ 75
had 75
ibia 75
ife 75
kee 75
ning 75
onn@@ 75
onne 75
rand 75
rell 75
thia 75
viol@@ 75
yaz@@ 75
yd@@ 75
ּ@@ 75
1.3 74
1100 74
127 74
129 74
1859 74
2,4@@ 74
Aux@@ 74
Bass@@ 74
Coc@@ 74
Diana 74
Down 74
Duke 74
EL@@ 74
Face 74
Fro@@ 74
Gib@@ 74
Hasan 74
IG@@ 74
Isid@@ 74
Java 74
Just 74
Martha 74
Miy@@ 74
Out 74
Patricia 74
Point 74
Sanc@@ 74
Sof@@ 74
Stockholm 74
V. 74
Vich@@ 74
ann 74
atem@@ 74
can 74
eld 74
elo@@ 74
ett@@ 74
fields 74
hoa 74
isto 74
mivu 74
oh 74
oton@@ 74
pre@@ 74
proj@@ 74
tors 74
ways 74
zan 74
zilishi 74
× 74
137 73
1837 73
1844 73
1876 73
35,@@ 73
451 73
540 73
74@@ 73
AT 73
ATA 73
Abbas 73
Armstrong 73
BM@@ 73
Berg@@ 73
CIA 73
Campbell 73
Clim@@ 73
Cos@@ 73
Dob@@ 73
Eb@@ 73
Eth@@ 73
Gra@@ 73
High@@ 73
Ivan 73
Jal@@ 73
Jap@@ 73
Kiev 73
LO@@ 73
Marseille 73
Norman 73
Palm 73
Plan@@ 73
Pur@@ 73
Ray@@ 73
Rhodes 73
Roberto 73
Rodrigu@@ 73
Rosa 73
Rot@@ 73
Ruth 73
Sax@@ 73
Schleswig 73
Tch@@ 73
UN 73
Venez@@ 73
allo 73
ands 73
bit@@ 73
court 73
didae 73
ely 73
mouth 73
tel 73
thu@@ 73
ugen@@ 73
urn@@ 73
uya 73
ws 73
wur@@ 73
· 73
ó 73
1.6 72
1875 72
19@@ 72
212 72
520 72
Aus@@ 72
Austin 72
Bh@@ 72
Bron@@ 72
CP@@ 72
Carr@@ 72
Child 72
Eugene 72
Fernando 72
Fund@@ 72
Future 72
Gn@@ 72
Inn@@ 72
J.@@ 72
Jose 72
Lanka 72
Lili@@ 72
Louisiana 72
Lucy 72
Mann@@ 72
Money 72
Of 72
PC 72
Pra@@ 72
Sean 72
Service 72
Tibet 72
Tir@@ 72
Voice 72
Zh@@ 72
amad@@ 72
aren 72
aton 72
auer 72
bre@@ 72
cas@@ 72
cher@@ 72
dad@@ 72
dale 72
diz@@ 72
fam@@ 72
film 72
ique 72
ister 72
itz@@ 72
let 72
loc@@ 72
obi@@ 72
ovich 72
tica 72
tif@@ 72
try 72
uss@@ 72
ón 72
ς 72
田 72
1.4 71
1874 71
39,@@ 71
480 71
850 71
D.C. 71
Dallas 71
Ferr@@ 71
Fred 71
Get 71
Gray 71
IT@@ 71
Night 71
Oper@@ 71
Robin 71
Schutz@@ 71
Sergio 71
She 71
Space 71
Story 71
Toledo 71
Wer@@ 71
XX 71
abak@@ 71
ady 71
anger@@ 71
angu@@ 71
athon 71
azi@@ 71
dic@@ 71
enburg 71
enter@@ 71
fit@@ 71
islam 71
itw@@ 71
kay@@ 71
lon 71
olim@@ 71
sels 71
tai 71
u. 71
viel@@ 71
wick 71
zek@@ 71
111 70
1841 70
19.@@ 70
2,5@@ 70
251 70
30,@@ 70
302 70
32,@@ 70
370 70
46@@ 70
AN 70
Afro@@ 70
Anay@@ 70
Catherine 70
Dream 70
Esp@@ 70
Ey@@ 70
Falls 70
Han 70
Harrison 70
Heart 70
Lamb@@ 70
Manuel 70
Nicolas 70
Pug@@ 70
Rup@@ 70
Santo 70
Sec@@ 70
Sheffield 70
Singapore 70
Tat@@ 70
Tour 70
Zah@@ 70
aine 70
amine 70
atlan@@ 70
cap@@ 70
diplom@@ 70
dog@@ 70
dri@@ 70
hie 70
inger@@ 70
insul@@ 70
kov@@ 70
leg@@ 70
mong 70
opath@@ 70
ovi@@ 70
ses 70
uppe 70
vertebr@@ 70
wit@@ 70
ï 70
ʿ@@ 70
0.5 69
1.8 69
1820 69
2,7@@ 69
311 69
33,@@ 69
Au@@ 69
Baz@@ 69
Cant@@ 69
Cour@@ 69
Democ@@ 69
Duncan 69
EN@@ 69
Fame 69
Got 69
IF@@ 69
Jah@@ 69
Jason 69
Kuv@@ 69
Mary@@ 69
Mili@@ 69
Mission 69
Nept@@ 69
Palmer 69
Sea 69
Seattle 69
Stalin 69
States 69
Vf@@ 69
Wh@@ 69
With 69
arak 69
azar@@ 69
borg 69
dij@@ 69
enta 69
entr@@ 69
formes 69
ids 69
lain 69
odo 69
plaz@@ 69
ril 69
sos@@ 69
wh@@ 69
è@@ 69
ée 69
ḥ@@ 69
17.@@ 68
1846 68
306 68
410 68
430 68
560 68
90@@ 68
Adrian 68
Alabama 68
Anth@@ 68
Bres@@ 68
Castro 68
DV@@ 68
Fah@@ 68
Flor@@ 68
Graham 68
Hermann 68
Iowa 68
Kent 68
Nash 68
O. 68
P.@@ 68
Rich@@ 68
Science 68
Sofia 68
Sup@@ 68
Thr@@ 68
U.S. 68
Uran@@ 68
abad 68
adu@@ 68
aim@@ 68
ano@@ 68
borough 68
by@@ 68
cin@@ 68
essa 68
hayat@@ 68
inho 68
ment@@ 68
nat@@ 68
orn 68
polis 68
teki 68
that 68
urdu 68
weg@@ 68
yer 68
éd@@ 68
122 67
1847 67
1848 67
1868 67
1877 67
203 67
309 67
Agnes 67
Banks 67
Carter 67
Christi@@ 67
Conn@@ 67
Cruz 67
Dave 67
First 67
Ghost 67
Hugo 67
IC 67
Jubil@@ 67
Kant@@ 67
LE@@ 67
MI@@ 67
Melbourne 67
Monica 67
NATO 67
Nazar@@ 67
Nikol@@ 67
Organization 67
Pope 67
Rev@@ 67
Ronald 67
Sey@@ 67
Wolf@@ 67
aduni 67
ating 67
atri@@ 67
avent@@ 67
bana 67
cat@@ 67
e. 67
enf@@ 67
fom@@ 67
gan 67
insula 67
kei 67
lau@@ 67
lington 67
music 67
nam 67
opar@@ 67
org@@ 67
ostr@@ 67
sang@@ 67
sie 67
sim 67
tes@@ 67
מ@@ 67
190 66
215 66
314 66
680 66
7000 66
Airport 66
Alf@@ 66
Apar@@ 66
Championship 66
Chel@@ 66
Cla@@ 66
Colombia 66
Cub@@ 66
Edgar 66
Ernst 66
Fair@@ 66
Globe 66
Homo 66
Internet 66
Lob@@ 66
Orlando 66
Ow@@ 66
PL@@ 66
Pant@@ 66
Prize 66
SPD 66
Sant@@ 66
South@@ 66
TO@@ 66
Tito 66
Warren 66
abl@@ 66
ape@@ 66
aura 66
azy 66
bola 66
cm 66
esco 66
fer 66
format 66
oll@@ 66
ox@@ 66
qui@@ 66
see 66
sis@@ 66
sson 66
yay@@ 66
1.7 65
124 65
157 65
204 65
209 65
Agr@@ 65
Arkansas 65
Brid@@ 65
Disk@@ 65
Eugen@@ 65
Gloria 65
Independent 65
Jed@@ 65
Karen 65
Ki 65
LC 65
Leonard 65
Log@@ 65
MO@@ 65
MT@@ 65
Raw@@ 65
Rog@@ 65
Roy 65
Samp@@ 65
Tin@@ 65
Under@@ 65
Wright 65
anes 65
anie 65
beck 65
dak@@ 65
ehr@@ 65
este 65
face 65
fort 65
hip@@ 65
ibi 65
iss 65
lois 65
mail 65
ologne 65
otom@@ 65
ough 65
pol 65
put@@ 65
radio 65
rag@@ 65
rah 65
rie 65
ron 65
san 65
urs 65
ventr@@ 65
wal 65
water 65
wol@@ 65
zuk@@ 65
ı 65
1852 64
199@@ 64
307 64
4.5 64
640 64
66@@ 64
8000 64
Amazon 64
Amp@@ 64
Bed@@ 64
Bishop 64
CAF 64
Did@@ 64
François 64
Holstein 64
Hospital 64
If 64
Kentucky 64
Luci@@ 64
Mahar@@ 64
Main@@ 64
Marathon 64
Mé@@ 64
NE@@ 64
Nom@@ 64
Portland 64
Productions 64
Rand@@ 64
Rita 64
Sa 64
Sham@@ 64
Steph@@ 64
Suc@@ 64
Technology 64
There 64
apolis 64
blu@@ 64
dez 64
eaux 64
ect 64
etr@@ 64
hang@@ 64
hiv@@ 64
ib 64
ig 64
int 64
kilis@@ 64
och 64
semi 64
star 64
sv@@ 64
tot@@ 64
ulus 64
yani 64
ér@@ 64
נ@@ 64
123 63
1854 63
1872 63
201 63
206 63
214 63
365 63
470 63
48@@ 63
AU 63
Ada 63
Allan 63
Andal@@ 63
CBS 63
Charl@@ 63
Chi 63
Cros@@ 63
Curtis 63
Delhi 63
Dim@@ 63
Eastern 63
End 63
Fos@@ 63
Gad@@ 63
Janet 63
Johnny 63
Kav@@ 63
Kilim@@ 63
Lic@@ 63
ME@@ 63
Mac 63
Michel 63
Midd@@ 63
Palace 63
Peter@@ 63
Rapha@@ 63
Silv@@ 63
Simpson 63
Sind@@ 63
T.@@ 63
Walker 63
abil@@ 63
adel@@ 63
afe 63
agen 63
alt@@ 63
ants 63
asis 63
emat@@ 63
ency 63
ever 63
gas@@ 63
icia 63
ilg@@ 63
italiano 63
kini 63
las 63
less 63
model 63
oku 63
yon 63
är@@ 63
′ 63
1853 62
312 62
440 62
BO@@ 62
Barr@@ 62
Bauer 62
Brand@@ 62
CO 62
CT@@ 62
Ce@@ 62
Children 62
Eas@@ 62
Fid@@ 62
Gran@@ 62
Gut@@ 62
How 62
Jim 62
Konya 62
Kır@@ 62
Lau@@ 62
Laura 62
Lloyd 62
Lost 62
Lot@@ 62
Madonna 62
Manga 62
Mbe@@ 62
Mud@@ 62
Newcastle 62
PF 62
PO@@ 62
Powell 62
Py@@ 62
Rol@@ 62
SV 62
Salzburg 62
Tot@@ 62
Ukraina 62
Universal 62
Venice 62
Versailles 62
When 62
Yal@@ 62
Year 62
aban 62
ace@@ 62
ague 62
alum@@ 62
ander 62
anto 62
auch@@ 62
bel 62
gado 62
gar 62
icky 62
igi@@ 62
koa 62
mar 62
mavi 62
nas 62
ović 62
ovo 62
rat 62
red 62
rett 62
sian 62
ska 62
spur 62
tho@@ 62
ture 62
western 62
zy@@ 62
121 61
193 61
49@@ 61
530 61
Agency 61
Buc@@ 61
Choice 61
Dipl@@ 61
Dut@@ 61
Flam@@ 61
G.@@ 61
Garcia 61
Glasgow 61
Got@@ 61
Griff@@ 61
L.@@ 61
Land 61
Monaco 61
Moore 61
Nam 61
Nancy 61
Ner@@ 61
Nevada 61
Nih@@ 61
Niz@@ 61
Off 61
PN 61
Punj@@ 61
RT@@ 61
Rel@@ 61
Sound 61
Sr. 61
Tay@@ 61
abria 61
aden@@ 61
ahr@@ 61
aldo 61
andro 61
asaki 61
asser 61
asta 61
aven@@ 61
cop@@ 61
country 61
cul@@ 61
deon 61
elik 61
epe 61
fir@@ 61
idan 61
lus@@ 61
mat 61
matem@@ 61
modi@@ 61
nan@@ 61
nis@@ 61
s.@@ 61
tre 61
van@@ 61
vor 61
waliou@@ 61
you 61
ès 61
č@@ 61
ש@@ 61
118 60
139 60
202 60
216 60
301 60
308 60
460 60
Atlas 60
Ces@@ 60
Cit@@ 60
Co 60
Cou@@ 60
Death 60
Derby 60
Eur@@ 60
Forum 60
Get@@ 60
Gum@@ 60
ICC 60
Laf@@ 60
McCar@@ 60
Pedro 60
Pictures 60
Premier 60
Scot@@ 60
Stre@@ 60
Village 60
adir 60
agin@@ 60
agon@@ 60
angle 60
ardi 60
dal 60
lib@@ 60
lip 60
meg@@ 60
pens@@ 60
plan@@ 60
pos 60
school 60
set 60
traf@@ 60
world 60
ö@@ 60
1.1 59
155 59
1789 59
1814 59
2,8@@ 59
223 59
23.@@ 59
AG@@ 59
Are 59
Area 59
Ast@@ 59
CT 59
Cameron 59
Comp@@ 59
Craig 59
End@@ 59
Epi@@ 59
Fund 59
Germain 59
Guatemala 59
Guy 59
Head 59
IT 59
Ja@@ 59
Jackie 59
Kop@@ 59
Nest@@ 59
PR 59
Pascal 59
Pass@@ 59
Pun@@ 59
Row@@ 59
SU@@ 59
Sao 59
Stanford 59
VI@@ 59
Wrestling 59
Yusuf 59
acks 59
act@@ 59
ael 59
agog@@ 59
ahu@@ 59
aille 59
aise 59
dae 59
elly 59
etown 59
etus 59
fich@@ 59
fri@@ 59
hat 59
ibe 59
inf@@ 59
mikro@@ 59
mol@@ 59
seg@@ 59
ship 59
top@@ 59
tube 59
ég@@ 59
− 59
.S. 58
16.@@ 58
229 58
316 58
381 58
390 58
Act 58
Atle@@ 58
Bj@@ 58
CE 58
Caes@@ 58
Calvin 58
Christ@@ 58
Georg 58
Jor@@ 58
Leonardo 58
Mills 58
Mitchell 58
Monte@@ 58
Mozart 58
Pearl 58
Phoenix 58
Pier@@ 58
Sap@@ 58
Stade 58
Yen@@ 58
aco 58
amii 58
ater@@ 58
cal@@ 58
contributor 58
cé 58
dibu@@ 58
diy@@ 58
dom 58
domin@@ 58
ering 58
hija 58
inh 58
mur@@ 58
ozo@@ 58
ping 58
res 58
rot@@ 58
thm 58
tie 58
tions 58
tras@@ 58
³ 58
ı@@ 58
ś@@ 58
ִ@@ 58
128 57
182 57
1821 57
225 57
22@@ 57
630 57
99@@ 57
Arti@@ 57
Augusto 57
Betty 57
Bing@@ 57
Boul@@ 57
Brom@@ 57
Champions 57
Chief 57
Cleveland 57
Coll@@ 57
Come 57
Digital 57
Dong@@ 57
Emma 57
Estonia 57
Eul@@ 57
Gan@@ 57
Hampshire 57
Hits 57
Janeiro 57
K.@@ 57
Lind@@ 57
Magazine 57
Moon 57
Nguy@@ 57
Oliv@@ 57
Peak 57
Pro 57
Rainbow 57
Rav@@ 57
Richards 57
SO@@ 57
Sent@@ 57
Sweet 57
System 57
Whitney 57
aniki 57
atic 57
ats@@ 57
avo 57
beria 57
dera 57
eg 57
enny 57
eum 57
igan 57
lard 57
leta 57
mut@@ 57
osaur@@ 57
pH 57
robot@@ 57
rop@@ 57
vis 57
zy 57
1517 56
175 56
18.@@ 56
1810 56
207 56
208 56
213 56
323 56
André 56
Anj@@ 56
Army 56
Auto 56
Cha@@ 56
EF 56
Edinburgh 56
Freder@@ 56
Hudson 56
Hul@@ 56
Jos@@ 56
Lep@@ 56
Lip@@ 56
Loy@@ 56
Lun@@ 56
Lyn@@ 56
Manhattan 56
Maxim@@ 56
Net@@ 56
Next 56
PR@@ 56
PS 56
Parad@@ 56
Ra 56
Ric@@ 56
SE 56
Shang@@ 56
Smo@@ 56
Sno@@ 56
Son 56
Til@@ 56
Tran@@ 56
Who 56
acy 56
ager 56
ald@@ 56
aten 56
atis@@ 56
azar 56
bot 56
ding 56
gion 56
itis 56
los 56
mas 56
ob 56
oslov@@ 56
sah 56
stad 56
sup@@ 56
thu 56
timestamp 56
west 56
wing 56
xis 56
yasa 56
ör@@ 56
ør@@ 56
ր@@ 56
126 55
2.4 55
205 55
217 55
256 55
264 55
406 55
44@@ 55
AG 55
AP 55
Afrique 55
Age 55
Ain 55
Album 55
BE 55
Bath@@ 55
Brah@@ 55
Cir@@ 55
Cook 55
Dy@@ 55
Flores 55
Gregory 55
He 55
Hin@@ 55
ISO 55
Joel 55
Journal 55
Krak@@ 55
Malta 55
Mustafa 55
Oregon 55
Piz@@ 55
RS 55
Randy 55
Reh@@ 55
Roosevelt 55
Seine 55
Shan@@ 55
Trade 55
Vul@@ 55
Wisconsin 55
adj@@ 55
agi@@ 55
aver 55
aze 55
bac@@ 55
bach@@ 55
bes 55
chil@@ 55
ck@@ 55
dar 55
dum@@ 55
gli@@ 55
icus 55
ink@@ 55
ino@@ 55
kov 55
lug@@ 55
ples 55
pros@@ 55
ram 55
unc@@ 55
username 55
ven 55
wald 55
yet@@ 55
zon@@ 55
ַ@@ 55
ם 55
15.@@ 54
1835 54
218 54
222 54
227 54
335 54
About 54
Are@@ 54
Atlantic 54
Au 54
Barb@@ 54
Belarus 54
Brig@@ 54
Christina 54
DT 54
Dais@@ 54
Danny 54
Dik@@ 54
Dod@@ 54
Faith 54
Fern@@ 54
Garden 54
Guang@@ 54
Gy@@ 54
Isab@@ 54
Kass@@ 54
Kingston 54
Lec@@ 54
Li 54
Madagascar 54
Miguel 54
Mind@@ 54
More 54
Museum 54
Nicholas 54
Nick 54
Or 54
Palermo 54
Paula 54
Penn@@ 54
Perry 54
Pet@@ 54
Pradesh 54
Rach@@ 54
Schrö@@ 54
Shah@@ 54
Torres 54
Tra@@ 54
Utah 54
Yun@@ 54
Zor@@ 54
ahan 54
amaz@@ 54
amura 54
ander@@ 54
chlor@@ 54
con 54
deg@@ 54
dub@@ 54
eer 54
engu@@ 54
etti@@ 54
gon@@ 54
ind 54
las@@ 54
min 54
onom@@ 54
otic 54
oul@@ 54
parentid 54
sel 54
spir@@ 54
sus@@ 54
uz 54
-- 53
181 53
1832 53
1849 53
185 53
1851 53
199 53
20.@@ 53
24.@@ 53
354 53
38,@@ 53
AE 53
August 53
Bar 53
Berkeley 53
Big@@ 53
Broadcasting 53
Capital 53
Convention 53
Davies 53
Dep@@ 53
Elec@@ 53
Fland@@ 53
Greatest 53
Guardian 53
Hub@@ 53
LP 53
Lan@@ 53
Latin 53
Lithu@@ 53
Lorenzo 53
Meh@@ 53
Montreal 53
Netflix 53
Pand@@ 53
Pittsburgh 53
Public 53
Pyth@@ 53
Ris@@ 53
Rolling 53
Sot@@ 53
Stan@@ 53
Sunday 53
Tad@@ 53
Thompson 53
Vista 53
War 53
Wolfgang 53
Yel@@ 53
alism 53
amas 53
ames 53
amoja 53
anatom@@ 53
aqu@@ 53
bach 53
boy 53
bus 53
com 53
eca 53
egu 53
ider 53
ily 53
kateg@@ 53
lier 53
naz@@ 53
nde@@ 53
ocho 53
remix 53
tham 53
uman 53
under@@ 53
yes 53
én 53
İzmir 53
--@@ 52
136 52
145 52
151 52
1521 52
165 52
177 52
179 52
1831 52
226 52
283 52
3D 52
401 52
55@@ 52
7.5 52
Ado@@ 52
Am 52
Ba 52
Barry 52
Basel 52
Benz 52
Book 52
Bow@@ 52
Britain 52
Buz@@ 52
Chu@@ 52
Cin@@ 52
Di 52
Edwin 52
Emin@@ 52
English 52
Foster 52
Granada 52
Hob@@ 52
Holland 52
Honduras 52
Hugh 52
Indian 52
Jamaica 52
Keith 52
Line 52
Mack@@ 52
Medical 52
Milton 52
Minh 52
Pow@@ 52
Pru@@ 52
Rudolf 52
Sankt 52
Scor@@ 52
Sky 52
Spar@@ 52
TH@@ 52
Techn@@ 52
Too 52
Trump 52
Trust 52
Yang@@ 52
Ye@@ 52
assi@@ 52
atan 52
band 52
ebra 52
edr@@ 52
ere@@ 52
gor@@ 52
influ@@ 52
itwayo 52
kel 52
neg@@ 52
nik 52
occ@@ 52
omy@@ 52
oney 52
ough@@ 52
oyle 52
paz@@ 52
peri@@ 52
pio 52
rel@@ 52
rup@@ 52
uva 52
yos@@ 52
zus@@ 52
zz@@ 52
ه@@ 52
ṣ@@ 52
131 51
144 51
167 51
56@@ 51
6.5 51
AO 51
Albi@@ 51
Apol@@ 51
Billy 51
Bordeaux 51
Brad@@ 51
Butler 51
CC 51
Chen 51
Chir@@ 51
Chr@@ 51
Constant@@ 51
Cul@@ 51
Data 51
Detroit 51
Diz@@ 51
Dow@@ 51
Es 51
Fak@@ 51
Gamb@@ 51
Glad@@ 51
Gren@@ 51
HP 51
Hard@@ 51
Harold 51
Haut 51
Hed@@ 51
Heights 51
Hier@@ 51
IBM 51
Ich@@ 51
Lif@@ 51
Lopez 51
Marc 51
Marco 51
Matthew 51
Mountain 51
N.@@ 51
Nh@@ 51
Nun@@ 51
Our 51
Over 51
Palm@@ 51
Plas@@ 51
Poin@@ 51
Province 51
Ricardo 51
Rovers 51
Russell 51
Simone 51
TV@@ 51
Tes@@ 51
Upper 51
W.@@ 51
Zeus 51
aid 51
apti@@ 51
avirus 51
emin@@ 51
estra 51
gil 51
hard 51
inas 51
jer 51
kri@@ 51
live 51
mana 51
mus 51
neutr@@ 51
pok@@ 51
ris 51
super@@ 51
sus 51
text 51
vok@@ 51
yum@@ 51
ère 51
ɛ@@ 51
ɪ@@ 51
大@@ 51
146 50
1845 50
195 50
2.2 50
224 50
233 50
257 50
258 50
331 50
49,@@ 50
490 50
510 50
610 50
AIDS 50
Antoine 50
Benedic@@ 50
Burn@@ 50
Chand@@ 50
Cli@@ 50
Const@@ 50
Dead 50
Feld@@ 50
Ferguson 50
Freedom 50
GO 50
Gonz@@ 50
Human 50
Instagram 50
Jeff 50
Jerry 50
Justin 50
Micha@@ 50
Micro@@ 50
Ministry 50
Murphy 50
Nazi 50
Nes@@ 50
Nit@@ 50
Owen 50
Prix 50
Renaissance 50
Roy@@ 50
Sophia 50
Suzuki 50
Theodore 50
Ts@@ 50
Wiki@@ 50
Without 50
ages 50
agonjwa 50
alls 50
aup@@ 50
azu 50
bio@@ 50
dit 50
dova 50
dre@@ 50
eck@@ 50
elles 50
esti@@ 50
gang@@ 50
hakim@@ 50
ink 50
kinson 50
og 50
oir 50
otr@@ 50
ris@@ 50
ry@@ 50
sag@@ 50
stan 50
thr@@ 50
vic 50
ém@@ 50
ž@@ 50
بن 50
149 49
153 49
163 49
2.6 49
275 49
Aaron 49
Aff@@ 49
Alexandra 49
Alo@@ 49
Anglo 49
Apollo 49
Bever@@ 49
Bonn@@ 49
Bridge 49
CI@@ 49
Caroline 49
Change 49
Clu@@ 49
Comics 49
Corona 49
Cum@@ 49
Dakota 49
Dok@@ 49
Du 49
EU 49
Eff@@ 49
Eisen@@ 49
Estr@@ 49
Evans 49
FF 49
Gardens 49
Gibraltar 49
Gustav 49
Guz@@ 49
Hannah 49
Islands 49
Last 49
Lynn 49
Mao 49
Margar@@ 49
Mars 49
Muslim 49
N. 49
Never 49
Ober@@ 49
Ox@@ 49
PP@@ 49
Plata 49
Play 49
R.@@ 49
Republic 49
Research 49
Rouen 49
SM@@ 49
Schal@@ 49
Series 49
Shakespeare 49
Social 49
Sog@@ 49
Soy@@ 49
Square 49
Two 49
UR@@ 49
Vancouver 49
Werner 49
Xi@@ 49
alus 49
aly 49
anan 49
back 49
ball@@ 49
bank 49
ben 49
boro 49
ean@@ 49
ensen 49
eton 49
etz@@ 49
fan 49
ful 49
haribi 49
inan@@ 49
magazine 49
mina 49
nes@@ 49
nio 49
oine 49
one@@ 49
onz@@ 49
oshima 49
phon@@ 49
prop@@ 49
raine 49
right 49
sion@@ 49
sons 49
soul 49
tima 49
ude 49
uld 49
umbr@@ 49
urn 49
vić 49
vu@@ 49
wn 49
ów 49
şehir 49
ד@@ 49
ל@@ 49
1250 48
133 48
138 48
166 48
168 48
178 48
1806 48
1855 48
192 48
253 48
259 48
286 48
30.@@ 48
315 48
345 48
720 48
Arc@@ 48
Bei 48
Bird 48
Camp 48
Celtic 48
Cran@@ 48
Dic@@ 48
Dw@@ 48
Econom@@ 48
Edmund 48
Ef@@ 48
Empire 48
Express 48
FBI 48
Fall 48
Fernández 48
Flora 48
Franc@@ 48
Francesco 48
From 48
Hey@@ 48
Hull 48
Islam 48
Lang 48
Level 48
Louise 48
Nice 48
Off@@ 48
PD 48
Peg@@ 48
Pompe@@ 48
Provence 48
Script 48
Still 48
Syn@@ 48
Thur@@ 48
Tommy 48
Vall@@ 48
Vasco 48
Vol 48
WT@@ 48
Will@@ 48
Yorkshire 48
Zuc@@ 48
Zw@@ 48
ads 48
agn@@ 48
ality 48
also 48
ardo 48
astani 48
ater 48
ault 48
born 48
china 48
dov@@ 48
dre 48
efs 48
elec@@ 48
formula 48
head 48
his 48
jiang 48
kund@@ 48
mel 48
n.@@ 48
off@@ 48
otte 48
ret 48
sin 48
thy 48
tier 48
tina 48
tion@@ 48
tum 48
tuz@@ 48
zen 48
1492 47
169 47
1750 47
221 47
241 47
285 47
321 47
332 47
404 47
76@@ 47
960 47
Ble@@ 47
Boris 47
CV 47
Cardiff 47
Crystal 47
Ec@@ 47
Ellis 47
Floyd 47
Georges 47
Harmon@@ 47
Herald 47
IB@@ 47
Il 47
Jung@@ 47
KA 47
Kids 47
Königsberg 47
Lima 47
Lisa 47
Mens@@ 47
Mess@@ 47
Miss@@ 47
NS@@ 47
NSDAP 47
Nina 47
Pac@@ 47
Pacific 47
Publ@@ 47
Pé@@ 47
Radi@@ 47
Raw 47
Reading 47
Robinson 47
Run 47
Saw@@ 47
Semin@@ 47
Springs 47
Squ@@ 47
Stu@@ 47
Stuttgart 47
Tow@@ 47
Turk@@ 47
Us 47
Weimar 47
abri@@ 47
ados 47
ains 47
anon 47
apr@@ 47
arina 47
aris 47
arius 47
asc@@ 47
att 47
aç@@ 47
body 47
cur@@ 47
dok@@ 47
entino 47
hit 47
iken 47
isters 47
log 47
mon 47
nu 47
okol@@ 47
ouv@@ 47
ras 47
tive 47
uck 47
uela 47
umuisha 47
unt 47
ush 47
yin 47
yth@@ 47
zer 47
än 47
ה 47
ע@@ 47
Ἀ@@ 47
134 46
147 46
1597 46
1807 46
1824 46
1843 46
235 46
248 46
249 46
252 46
269 46
333 46
334 46
395 46
40,@@ 46
405 46
660 46
AB 46
AFC 46
AK 46
Ami@@ 46
Arabic 46
Arnold 46
Bobby 46
CI 46
Charlie 46
Conference 46
DI 46
Darwin 46
Dorothy 46
East@@ 46
Fut@@ 46
GT 46
Gall@@ 46
Hit@@ 46
How@@ 46
Hydro@@ 46
ID 46
Jack@@ 46
Jay@@ 46
Jesus 46
Joan 46
Julian 46
Karab@@ 46
Larry 46
Laurent 46
León 46
Like 46
Mai 46
Marina 46
Mason 46
Metro 46
Metz 46
Nixon 46
Not 46
Nova 46
Number 46
Order 46
Ph.@@ 46
Rights 46
Ron@@ 46
Singh 46
Six@@ 46
Summer 46
Twitter 46
Va@@ 46
alan@@ 46
arian 46
arro 46
bag@@ 46
betr@@ 46
bit 46
bula 46
chel@@ 46
chen 46
chum@@ 46
city 46
dell 46
dida 46
dos@@ 46
dy@@ 46
ector 46
ender 46
far 46
ffe 46
fis@@ 46
gs 46
hib@@ 46
ican 46
imbali 46
jou@@ 46
kham 46
len 46
migu@@ 46
ods 46
ories 46
pei 46
pers 46
pes@@ 46
prim@@ 46
sle@@ 46
stati@@ 46
tron@@ 46
uge@@ 46
under 46
ury 46
uth 46
è 46
éré 46
ę@@ 46
Ş@@ 46
ν 46
ן 46
山@@ 46
152 45
1540 45
176 45
1813 45
1818 45
1842 45
197 45
238 45
263 45
287 45
32.@@ 45
44,@@ 45
787 45
86@@ 45
9000 45
AO@@ 45
Alfonso 45
Amas@@ 45
Ander@@ 45
Archi@@ 45
Art@@ 45
Bach@@ 45
Bomb@@ 45
Bradley 45
Chau@@ 45
Collins 45
Edo 45
Emily 45
Fle@@ 45
Gri@@ 45
Haute 45
Hood 45
Isabel 45
Jon 45
Kara 45
Kingdom 45
Klo@@ 45
Lane 45
Lap@@ 45
Leicester 45
Lé@@ 45
Madison 45
Management 45
McDonald 45
Memphis 45
Middle 45
Mix@@ 45
Oklahoma 45
Rangers 45
Rey 45
Roberts 45
Sv@@ 45
Thu@@ 45
Toulouse 45
Tsu@@ 45
Vision 45
Xbox 45
Yar@@ 45
akt@@ 45
alta 45
asco 45
asit@@ 45
aste 45
asti@@ 45
asuaji 45
awo 45
berto 45
comment 45
cus 45
cy@@ 45
dé@@ 45
enes 45
enna 45
enton 45
gil@@ 45
hero@@ 45
ider@@ 45
isar 45
kle@@ 45
kno@@ 45
lers 45
onto 45
other 45
put 45
racy 45
ski@@ 45
tara 45
tran@@ 45
trix 45
vera 45
yk@@ 45
î@@ 45
ık 45
132 44
1825 44
1828 44
183 44
187 44
188 44
198@@ 44
21.@@ 44
282 44
29.@@ 44
317 44
337 44
3500 44
54@@ 44
570 44
Action 44
Adel@@ 44
Arm@@ 44
Augsburg 44
Baker 44
Blake 44
Bonn 44
Bryan 44
Carol@@ 44
Chang 44
Clermont 44
Cob@@ 44
Cola 44
DL@@ 44
Dé@@ 44
ER 44
Environ@@ 44
Eri@@ 44
Fan@@ 44
Federal 44
Fou@@ 44
Geb@@ 44
Gou@@ 44
Grey 44
Health 44
Industry 44
Jag@@ 44
MIT 44
MV 44
Make 44
Marino 44
Marne 44
Mou@@ 44
Non@@ 44
Orig@@ 44
Pall@@ 44
PlayStation 44
Rein@@ 44
Rogers 44
Rotterdam 44
Ruby 44
SI@@ 44
Say 44
Sud 44
TP 44
Tali@@ 44
Telec@@ 44
Tyler 44
Vegas 44
Ves@@ 44
Zar@@ 44
aff 44
ale@@ 44
arts 44
atar 44
benz@@ 44
bish@@ 44
bridge 44
cha@@ 44
dag@@ 44
ders 44
enc@@ 44
eran 44
evich 44
gana 44
hydro@@ 44
iden 44
ilde 44
illi 44
ities 44
kers 44
ket@@ 44
ments 44
nataka 44
otro@@ 44
pan 44
pus 44
say 44
sive 44
swana 44
tal 44
tap@@ 44
tt@@ 44
uca 44
umin@@ 44
zor@@ 44
ép@@ 44
ö 44
1795 43
1799 43
1822 43
1829 43
228 43
244 43
262 43
268 43
375 43
760 43
ADN 43
América 43
App 43
Arab@@ 43
Aud@@ 43
Authority 43
Beat 43
Bod@@ 43
CDU 43
Clark 43
Commer@@ 43
Dortmund 43
Edwards 43
Elli@@ 43
Fischer 43
Fraser 43
Fuj@@ 43
Gate 43
Geoff@@ 43
Gilbert 43
Hannover 43
Hap@@ 43
Hod@@ 43
Hunter 43
Ih@@ 43
Justice 43
Lionel 43
Living 43
Maine 43
Meyer 43
Montana 43
Pete 43
SMS 43
Spencer 43
True 43
a- 43
abol@@ 43
aer@@ 43
agar 43
agh 43
ago@@ 43
anos 43
bonne 43
dah@@ 43
dolar 43
eni@@ 43
erie 43
ery 43
fak@@ 43
gig@@ 43
ial 43
igen 43
iger 43
ights 43
lett 43
ll 43
lum 43
mod@@ 43
new 43
not 43
par 43
pek@@ 43
px 43
quar@@ 43
riwa 43
sap@@ 43
tre@@ 43
ulata 43
umani 43
usho 43
var 43
vie 43
ín 43
öl@@ 43
ü 43
μ@@ 43
県 43
143 42
148 42
1520 42
1572 42
161 42
184 42
194 42
2.3 42
232 42
26.@@ 42
288 42
318 42
336 42
355 42
356 42
50,@@ 42
580 42
58@@ 42
Amy 42
Andor@@ 42
Arap 42
Arn@@ 42
Atlético 42
Avenue 42
Broadway 42
Bros@@ 42
Buffalo 42
Coca 42
Como 42
Coun@@ 42
Département 42
EA 42
Feder@@ 42
Five 42
Forest 42
Games 42
Gran 42
Gros@@ 42
Hass@@ 42
Hend@@ 42
Hoff@@ 42
Hopkins 42
IO@@ 42
IS 42
Jeremy 42
Knight 42
Lay@@ 42
Leipzig 42
Lod@@ 42
MB 42
Marx 42
Morning 42
NO@@ 42
Neo 42
Original 42
Pach@@ 42
Pek@@ 42
Pter@@ 42
Rice 42
SH@@ 42
Sark@@ 42
Sed@@ 42
Set@@ 42
Stor@@ 42
Toch@@ 42
Top@@ 42
Tuc@@ 42
Turner 42
Viol@@ 42
Vog@@ 42
Web 42
Winston 42
aeus 42
agon 42
aker 42
alp@@ 42
apia 42
aud 42
bomb@@ 42
book 42
cial 42
dier 42
ear@@ 42
ecca 42
ection 42
ensi@@ 42
eston 42
ety 42
evo 42
habit@@ 42
high 42
hion 42
holanzi 42
ices 42
iman 42
itch 42
ix@@ 42
lamu 42
language 42
long 42
mbal@@ 42
million 42
otti 42
pes 42
prom@@ 42
stil@@ 42
tawa 42
ties 42
tiv@@ 42
toon 42
v. 42
wanza 42
Š@@ 42
محمد 42
∘ 42
162 41
173 41
1809 41
1812 41
1834 41
191 41
254 41
276 41
36.@@ 41
386 41
8.5 41
950 41
98@@ 41
Airbus 41
Airways 41
Android 41
Blood 41
Bundest@@ 41
CR 41
Cann@@ 41
Chart 41
Ciudad 41
DR 41
DS 41
Dark@@ 41
Forever 41
Gard@@ 41
Hall@@ 41
Hard 41
Hop@@ 41
Hou@@ 41
Jav@@ 41
John@@ 41
Journ@@ 41
Jul@@ 41
Juni@@ 41
Kay 41
Köln 41
LM 41
Labr@@ 41
Manz@@ 41
Mar 41
Mikha@@ 41
Nicol@@ 41
Oh@@ 41
Ost@@ 41
Ple@@ 41
Rou@@ 41
Secret 41
Seven 41
Siy@@ 41
Spir@@ 41
Stuart 41
Swan@@ 41
TS 41
Tang 41
Vas@@ 41
Vu@@ 41
Wang 41
Wolf 41
acia 41
agne 41
alisi@@ 41
aran 41
arch@@ 41
aurus 41
bano 41
bid@@ 41
blues 41
chur@@ 41
coc@@ 41
devi@@ 41
dir 41
enko 41
eon 41
eville 41
gorod 41
ild 41
ists 41
kum 41
kö@@ 41
lai 41
mano 41
mg 41
nig@@ 41
nova 41
oker 41
orn@@ 41
ornis 41
ost 41
owo 41
prin@@ 41
rod@@ 41
sley 41
than 41
urg@@ 41
very 41
wall 41
ël 41
ū 41
1519 40
159 40
1802 40
1811 40
1833 40
292 40
69@@ 40
79@@ 40
Again 40
Airlines 40
Alber@@ 40
Amad@@ 40
Athletic 40
Back@@ 40
Batman 40
Bonaparte 40
Borussia 40
Call 40
Captain 40
Chron@@ 40
Deniz@@ 40
Deutsche 40
Dop@@ 40
Economic 40
Eduardo 40
Four 40
GM 40
Giuseppe 40
Guadal@@ 40
History 40
Honor@@ 40
Jorge 40
Kid 40
Koch 40
Kru@@ 40
Let 40
Linda 40
Lud@@ 40
Mans@@ 40
Maya 40
Mountains 40
Nord@@ 40
Olymp@@ 40
Phillips 40
Prom@@ 40
Region 40
Reims 40
Rig@@ 40
Rost@@ 40
Río 40
Samoa 40
Samsung 40
Sn@@ 40
Sob@@ 40
Tac@@ 40
Tap@@ 40
Tau@@ 40
Ted 40
Theodor 40
Torino 40
Trabzon 40
Tub@@ 40
View 40
Wander@@ 40
Wend@@ 40
Wind@@ 40
Writ@@ 40
adv@@ 40
aea 40
arin 40
atas@@ 40
away 40
bek 40
bey 40
ceph@@ 40
ches 40
chu 40
codice 40
daf@@ 40
della 40
dem 40
dium 40
ective 40
eless 40
hen@@ 40
isis 40
itas 40
ić 40
kn@@ 40
loy@@ 40
lut@@ 40
mania 40
mental 40
mere 40
micro@@ 40
mix@@ 40
number 40
obs 40
ological 40
ond 40
othing 40
outh 40
pard 40
pera 40
qi 40
rh@@ 40
s. 40
sev@@ 40
thal@@ 40
tical 40
tific@@ 40
xi@@ 40
ár@@ 40
ð@@ 40
ü@@ 40
☉ 40
0.3 39
000@@ 39
141 39
142 39
1816 39
198 39
2.7 39
2.8 39
219 39
245 39
246 39
293 39
295 39
298 39
319 39
322 39
324 39
620 39
88@@ 39
Adol@@ 39
Alberta 39
Animation 39
App@@ 39
Baj@@ 39
Blu@@ 39
Boc@@ 39
Cand@@ 39
Carl@@ 39
Challenge 39
Cic@@ 39
Classic 39
Columbus 39
Connor 39
Corr@@ 39
Creek 39
Dick@@ 39
Dream@@ 39
Federation 39
Fire 39
Four@@ 39
German 39
Gulf 39
Herr@@ 39
Hispan@@ 39
Jesse 39
Jessica 39
Joy@@ 39
João 39
Kings 39
Lenin 39
Loire 39
Luigi 39
Metropolitan 39
Nass@@ 39
Neu@@ 39
Nil@@ 39
Paolo 39
Parker 39
Pear@@ 39
Place 39
Pod@@ 39
Ports@@ 39
Prin@@ 39
Rag@@ 39
Rat@@ 39
Ring 39
SD 39
Small 39
Sos@@ 39
Traf@@ 39
Trib@@ 39
Trinity 39
UT@@ 39
Ward 39
Water 39
Wed@@ 39
Zur@@ 39
ader 39
ajara 39
aly@@ 39
amus 39
ares 39
aven 39
aï@@ 39
cape 39
dam 39
dec@@ 39
dong 39
echt 39
ennes 39
enni@@ 39
eor@@ 39
esper@@ 39
fac@@ 39
hik@@ 39
iano 39
issen@@ 39
lars 39
ls 39
oba@@ 39
oc 39
oca 39
ography 39
ont 39
ording 39
oz 39
pod@@ 39
pour 39
rania 39
spec@@ 39
this 39
tial 39
tili@@ 39
unds 39
urus 39
wes@@ 39
ú 39
ʻ@@ 39
† 39
1610 38
1780 38
1801 38
1803 38
189 38
2.0 38
2.1 38
236 38
239 38
243 38
265 38
274 38
343 38
46,@@ 38
AE@@ 38
Abel 38
Alpes 38
And@@ 38
Antalya 38
Australian 38
Burg@@ 38
Bursa 38
Burton 38
Carlo 38
Confeder@@ 38
Design 38
Drake 38
Ed 38
Enrique 38
Exchange 38
Frank@@ 38
Gener@@ 38
Her 38
Hindu 38
II@@ 38
Imperial 38
Kai 38
Ken 38
Logan 38
Mine 38
Moreno 38
NY@@ 38
Nec@@ 38
Negro 38
Phil 38
Publi@@ 38
Record 38
Shanghai 38
Soci@@ 38
Songs 38
Spider 38
Stand@@ 38
Sul 38
Terry 38
Text 38
Uru@@ 38
X. 38
Yuc@@ 38
ahn 38
ainst 38
alog 38
annes 38
atis 38
atum 38
ball 38
bat 38
bers 38
cell@@ 38
digit@@ 38
doc@@ 38
dol 38
dt 38
ew 38
glo@@ 38
hand 38
heter@@ 38
ieu 38
ift 38
ignan 38
ils 38
irini 38
jur@@ 38
kes@@ 38
lag@@ 38
lane 38
meridi@@ 38
monaster@@ 38
nin 38
nm 38
oire 38
ois 38
olan 38
ood 38
org 38
osp@@ 38
plant 38
pm 38
quot 38
ross 38
sist@@ 38
sl@@ 38
ths 38
tos 38
ular 38
umen 38
ust 38
ח@@ 38
כ@@ 38
0,0@@ 37
158 37
1622 37
164 37
1648 37
1826 37
186 37
247 37
25.@@ 37
266 37
271 37
3.2 37
68@@ 37
Alli@@ 37
And 37
Andre@@ 37
Andy 37
Arena 37
At 37
Castle 37
Christ 37
Christmas 37
DE 37
Deutsch 37
Ear@@ 37
Ej@@ 37
Ethiop@@ 37
Frances 37
Fus@@ 37
Hann@@ 37
Hug@@ 37
Jas@@ 37
Kate 37
Kend@@ 37
Light 37
Lille 37
Linn@@ 37
Liu 37
Lux@@ 37
ME 37
Mainz 37
Mercury 37
NCAA 37
Nashville 37
Nob@@ 37
Nord 37
Park@@ 37
Pat 37
Phyl@@ 37
Princeton 37
Range 37
Rich 37
Rugby 37
Ruiz 37
SAR@@ 37
Serge@@ 37
Sivas 37
Sl@@ 37
Some@@ 37
Sporting 37
Syr@@ 37
TC 37
Talk 37
Thomson 37
Utr@@ 37
VA 37
aar 37
agus 37
alan 37
annon 37
ante@@ 37
ara@@ 37
arta 37
ational 37
atrice 37
bibli@@ 37
bil 37
brook 37
cli@@ 37
dison 37
eline 37
els@@ 37
esc@@ 37
euro 37
gin@@ 37
hab 37
irie 37
isp@@ 37
itude 37
mang@@ 37
muj@@ 37
né@@ 37
oman 37
ords 37
orio 37
ospel 37
ree 37
server 37
she@@ 37
sm@@ 37
spor@@ 37
tez 37
tidae 37
tim 37
uf 37
yu@@ 37
zeit@@ 37
ça 37
ɡ@@ 37
ܝ@@ 37
0.4 36
1.9 36
154 36
1792 36
1804 36
1817 36
196@@ 36
2030 36
255 36
277 36
28.@@ 36
291 36
296 36
33.@@ 36
39.@@ 36
415 36
5.5 36
64@@ 36
Alex@@ 36
Ama 36
Anton 36
April 36
Aub@@ 36
Augustus 36
Ball 36
Berger 36
Bill@@ 36
Blan@@ 36
Boeing 36
Bretagne 36
Cast@@ 36
Computer 36
Czech 36
Deu@@ 36
Emil 36
Erik 36
Fam@@ 36
Field 36
Fred@@ 36
Friends 36
García 36
Glenn 36
HA 36
Hamp@@ 36
Harr@@ 36
Hart@@ 36
Hep@@ 36
Herman 36
Holy 36
Inc 36
Iron 36
Jefferson 36
Josef 36
Jou@@ 36
Joy 36
KO 36
Kayseri 36
Kod@@ 36
Krish@@ 36
Kug@@ 36
Lie@@ 36
MD 36
María 36
Muhammed 36
Murray 36
NT 36
Napole@@ 36
Norte 36
ON@@ 36
Ocean 36
Only 36
Oslo 36
Over@@ 36
Roman 36
Romano 36
Rome 36
Sport 36
Station 36
Strasbourg 36
Tower 36
UB@@ 36
Universe 36
Vicente 36
Virgin 36
Weekly 36
Wis@@ 36
Wonder 36
Yosh@@ 36
Zer@@ 36
acet@@ 36
aft 36
aines 36
aragua 36
arya 36
aves 36
awn 36
azz@@ 36
ca@@ 36
cas 36
cast 36
cester 36
chez 36
doksi 36
eph@@ 36
eson 36
esp@@ 36
esse 36
estyle 36
fly 36
fum@@ 36
horn 36
https 36
igg@@ 36
igr@@ 36
insk 36
ionale 36
ites 36
iv 36
ley@@ 36
lic@@ 36
ogen@@ 36
ographic 36
onica 36
opp@@ 36
oru 36
osu 36
oto@@ 36
pert 36
pierre 36
pon 36
pper 36
ps@@ 36
red@@ 36
rep@@ 36
sek 36
ug 36
vat@@ 36
web@@ 36
weight 36
ères 36
ön@@ 36
ān 36
ş 36
1453 35
171 35
1740 35
1787 35
1808 35
1827 35
196 35
279 35
299 35
512 35
Andrews 35
Baja 35
Balıkesir 35
Bek@@ 35
Braun 35
Budapest 35
CF 35
CO2 35
Canal 35
Chlor@@ 35
Coch@@ 35
Colin 35
Cov@@ 35
Dean 35
Dek@@ 35
Dil@@ 35
Double 35
Encyclo@@ 35
Enter@@ 35
Fisher 35
Flight 35
Greater 35
Hamb@@ 35
Henderson 35
Hind@@ 35
Hong@@ 35
Hughes 35
ID@@ 35
IN 35
Jenn@@ 35
Jo 35
Jur@@ 35
Kirch@@ 35
Nem@@ 35
Nos@@ 35
Prague 35
Pul@@ 35
Reserve 35
Rica 35
Right 35
Riv@@ 35
Ron 35
SN@@ 35
Sco@@ 35
Sound@@ 35
Special 35
Sti@@ 35
Strat@@ 35
Today 35
UM@@ 35
Umw@@ 35
Under 35
Watson 35
Wing 35
Yaz@@ 35
Zürich 35
acon 35
acter@@ 35
afro@@ 35
aft@@ 35
alem@@ 35
ansen 35
ashara 35
atsu 35
automati@@ 35
beat 35
bet 35
black 35
board 35
but 35
core 35
down 35
eit@@ 35
eki@@ 35
ener 35
entes 35
fid@@ 35
fot@@ 35
gat 35
gir@@ 35
heimer 35
hn@@ 35
ici 35
inal 35
inn 35
ip 35
isc@@ 35
ision 35
ism@@ 35
lair 35
lang 35
lesias 35
loo 35
mac@@ 35
madh@@ 35
modeli 35
nov@@ 35
ogy 35
onna 35
orith@@ 35
orus 35
patri@@ 35
pedi@@ 35
rugby 35
sam 35
sept@@ 35
series 35
show 35
stad@@ 35
sz@@ 35
tres 35
trus@@ 35
tuy@@ 35
ums 35
ushing 35
ving 35
wen 35
ylo@@ 35
à@@ 35
ə 35
ե@@ 35
ո@@ 35
َ 35
ἀ@@ 35
0.2 34
0.7 34
174 34
1760 34
1770 34
1775 34
1783 34
1793 34
1797 34
22.@@ 34
231 34
242 34
267 34
27.@@ 34
281 34
289 34
3.3 34
35.@@ 34
45,@@ 34
85@@ 34
Aar@@ 34
Adelaide 34
Aless@@ 34
Astr@@ 34
BAS@@ 34
BD 34
Bois 34
Born 34
Castel@@ 34
Clara 34
Commission 34
Cooper 34
Copenh@@ 34
Critics 34
Culture 34
EMI 34
Eddie 34
Ella 34
Erzurum 34
FK 34
Fit@@ 34
Flying 34
Frauen 34
Ga 34
Gerald 34
Guar@@ 34
HTML 34
Haus@@ 34
Hill@@ 34
Hof@@ 34
Jon@@ 34
Ka 34
Kiss 34
Krasno@@ 34
Kurt 34
Luna 34
Machine 34
Mohammad 34
Nissan 34
Nou@@ 34
Och@@ 34
Olympi@@ 34
PM 34
Rang@@ 34
Sach@@ 34
Senior 34
Services 34
Sinc@@ 34
Stam@@ 34
Stop 34
Tai@@ 34
Them@@ 34
Whe@@ 34
Zaragoza 34
action 34
aleg@@ 34
alition 34
amin 34
anic 34
ansa 34
aray 34
ards 34
atidae 34
audi@@ 34
bir 34
brand 34
cam@@ 34
duc@@ 34
egen@@ 34
elt 34
eros 34
found@@ 34
fug@@ 34
gy@@ 34
hil 34
ht@@ 34
illus 34
left 34
lich 34
lins 34
love 34
mal 34
mul@@ 34
nier 34
oll 34
ols 34
onius 34
park 34
phone 34
pic@@ 34
ref@@ 34
rin 34
rol@@ 34
ror 34
say@@ 34
shin@@ 34
strö@@ 34
system 34
techni@@ 34
tine 34
tional 34
use@@ 34
yav@@ 34
year 34
ն 34
ֹ@@ 34
1550 33
1640 33
1650 33
1690 33
172 33
1776 33
1798 33
1805 33
1819 33
237 33
272 33
326 33
338 33
37.@@ 33
4.2 33
425 33
747 33
78@@ 33
999 33
AW@@ 33
Ais@@ 33
Alab@@ 33
Alto 33
Amat@@ 33
Angels 33
Ans@@ 33
Aug@@ 33
Aul@@ 33
Bahn 33
Bailey 33
Beh@@ 33
Bristol 33
Bry@@ 33
Cabr@@ 33
Chamb@@ 33
Chamber@@ 33
Civil 33
Commonwealth 33
Contemporary 33
DA@@ 33
DL 33
Das 33
Def@@ 33
Drama 33
EM@@ 33
Erz@@ 33
French 33
GA 33
Gang 33
German@@ 33
Gos@@ 33
Gusta@@ 33
H.@@ 33
IR@@ 33
Internationale 33
Julio 33
Jupiter 33
Know 33
Kütahya 33
Lion 33
Malat@@ 33
Manisa 33
Memorial 33
Müller 33
Nair@@ 33
Nantes 33
Ordu 33
Palma 33
Price 33
Professor 33
Pseud@@ 33
Ralph 33
Rhein 33
Sic@@ 33
Sidney 33
Sol 33
Sánchez 33
Toul@@ 33
Wagner 33
Zero 33
ablan@@ 33
agno@@ 33
ahl@@ 33
akadem@@ 33
aks 33
amie 33
auss 33
aş 33
bass 33
bian 33
cat 33
dil@@ 33
dn 33
dorf 33
dou@@ 33
eig@@ 33
enh@@ 33
erini 33
flam@@ 33
hard@@ 33
have 33
hiz@@ 33
imini 33
ingrad 33
inv@@ 33
jav@@ 33
kal 33
kett 33
like 33
lim 33
lit 33
lus 33
melan@@ 33
mim@@ 33
nitr@@ 33
part 33
phy@@ 33
poly@@ 33
pur 33
ques 33
raph 33
sec@@ 33
seh@@ 33
stanz 33
street 33
suya 33
tain 33
thon 33
ual 33
vic@@ 33
ware 33
work 33
~ 33
École 33
ène 33
ë 33
ɾ@@ 33
الله 33
ْ@@ 33
ṭ@@ 33
.C. 32
0.1 32
1560 32
1790 32
3.1 32
AZ 32
Alg@@ 32
Auckland 32
BL 32
Batt@@ 32
Bella 32
Bergen 32
Brandenburg 32
Civ@@ 32
Clif@@ 32
Conrad 32
Croatia 32
Det@@ 32
Doctor 32
Ein@@ 32
Einstein 32
Elisabeth 32
Engineering 32
Eskişehir 32
Fair 32
Flo@@ 32
Freiburg 32
Félix 32
Gig@@ 32
Heritage 32
Hubert 32
Hunt 32
IF 32
Information 32
Jules 32
KO@@ 32
Kastamonu 32
Klin@@ 32
Lanc@@ 32
Lid@@ 32
Ling@@ 32
Lo 32
Lower 32
Mann 32
March 32
Mecklenburg 32
Nebraska 32
Nich@@ 32
Oakland 32
Ov@@ 32
Oz@@ 32
Pag@@ 32
Part 32
Pho@@ 32
Porter 32
Richardson 32
Ridge 32
Rosario 32
Samsun 32
Sebasti@@ 32
Sex@@ 32
Sylv@@ 32
Tari@@ 32
Tud@@ 32
Watch 32
Yuk@@ 32
Zhang 32
adol@@ 32
angel@@ 32
ank 32
asse 32
asy@@ 32
ather 32
aut 32
corona 32
cz@@ 32
eine 32
eles 32
elik@@ 32
endorf 32
entin 32
esto 32
eur 32
form 32
gers 32
idel@@ 32
iel 32
igny 32
ingu@@ 32
ische 32
isten 32
iten@@ 32
kê 32
lag 32
lav 32
leaf 32
litz 32
lun@@ 32
nau@@ 32
nen 32
ner@@ 32
ock@@ 32
opus 32
orr@@ 32
oux 32
part@@ 32
phus 32
pist@@ 32
priv@@ 32
quer@@ 32
rates 32
rid 32
roy 32
song@@ 32
tionary 32
tos@@ 32
uck@@ 32
wig@@ 32
yir@@ 32
Île 32
éc@@ 32
ís 32
ô 32
ă@@ 32
ν@@ 32
ός 32
ск 32
ֶ@@ 32
0.8 31
1. 31
1535 31
1598 31
197@@ 31
234 31
261 31
273 31
284 31
47,@@ 31
77@@ 31
978 31
Alc@@ 31
Apostol@@ 31
Bang 31
Board 31
Books 31
Box 31
Brad 31
Catal@@ 31
Chase 31
Clarke 31
Cristi@@ 31
Córdoba 31
Dat@@ 31
Dus@@ 31
Edmon@@ 31
Esta 31
Fe 31
Food 31
Fried@@ 31
Gru@@ 31
Head@@ 31
Heil@@ 31
Hern@@ 31
Hok@@ 31
IU@@ 31
Initiative 31
Jus@@ 31
Kent@@ 31
Latina 31
MI 31
MR 31
Mall@@ 31
Miles 31
Monroe 31
München 31
Nokia 31
Né@@ 31
Oak 31
Orth@@ 31
Other 31
Production 31
Review 31
Rib@@ 31
Ril@@ 31
Scar@@ 31
Sebastian 31
September 31
Shaw 31
Sophie 31
Spr@@ 31
Symphony 31
Tech 31
Training 31
U.@@ 31
Val 31
Von 31
Warriors 31
Wet@@ 31
Woods 31
ahl 31
anapolis 31
anime 31
aras@@ 31
aren@@ 31
asp@@ 31
bius 31
bri@@ 31
cle 31
come 31
cri@@ 31
dian 31
dle 31
duda 31
dur 31
ede@@ 31
eler 31
ems 31
engen 31
engers 31
eps 31
fast 31
first 31
gie 31
iens 31
ires 31
isl@@ 31
jon 31
kisi@@ 31
koh@@ 31
lay 31
lidae 31
manuel 31
nati@@ 31
neb@@ 31
okie 31
ore@@ 31
othy 31
plasma 31
play 31
plex 31
plus 31
program 31
qui 31
ric 31
rif@@ 31
song 31
stat@@ 31
stead 31
tius 31
tney 31
tra@@ 31
tress 31
tural 31
versi@@ 31
vey 31
vier 31
word 31
xe 31
yst@@ 31
zum@@ 31
émon 31
és 31
év@@ 31
ın@@ 31
ũ@@ 31
γ 31
ת 31
وَ@@ 31
藤 31
郎 31
156 30
1675 30
96@@ 30
Adana 30
Aran@@ 30
Arist@@ 30
Associ@@ 30
Atatürk 30
BT 30
Base 30
Belle 30
Bish@@ 30
Bros. 30
Brunswick 30
By 30
Call@@ 30
Capitol 30
Card@@ 30
Caribbean 30
Cath@@ 30
Christian@@ 30
Comedy 30
Crow@@ 30
Flem@@ 30
Gaulle 30
Gene 30
Gramm@@ 30
HIV 30
Hart 30
Hell 30
Helsinki 30
Homer 30
Hz 30
Jung 30
Kenn@@ 30
Kno@@ 30
Konrad 30
Mayo 30
Monter@@ 30
Moz@@ 30
NET 30
Name 30
Nel@@ 30
Norfolk 30
Open 30
Osaka 30
Paz 30
Railway 30
Rhode 30
Ring@@ 30
Schwar@@ 30
Springfield 30
Studies 30
Sussex 30
Teh@@ 30
Toy@@ 30
Tu 30
Viet@@ 30
Week 30
William@@ 30
Wood 30
XXI 30
Zanz@@ 30
acle 30
adio 30
aho 30
akter@@ 30
alu@@ 30
ampton 30
anh 30
anz 30
atin 30
cal 30
cro@@ 30
dat@@ 30
dings 30
dius 30
diya 30
elev@@ 30
ender@@ 30
ensburg 30
eron 30
etry 30
fic@@ 30
flo@@ 30
fungi@@ 30
gem@@ 30
gin 30
got 30
html 30
iff 30
illon 30
inski 30
isch 30
ited 30
iting 30
kod@@ 30
law 30
leton 30
lot@@ 30
milli@@ 30
mons 30
mund 30
oidea 30
onso 30
otra 30
ph 30
phen@@ 30
pic 30
pool 30
ppo 30
press 30
quin@@ 30
reno 30
rico 30
rier 30
sai 30
sor@@ 30
standing 30
teur 30
tone 30
ub 30
wais@@ 30
xen 30
yen 30
ying 30
yne 30
zan@@ 30
zer@@ 30
Ö@@ 30
än@@ 30
ün@@ 30
ʁ@@ 30
ία 30
β@@ 30
י 30
פ@@ 30
ز@@ 30
् 30
.org 29
0.000 29
0.6 29
1.0 29
1547 29
1555 29
1580 29
1730 29
1762 29
1823 29
2. 29
278 29
297 29
737 29
87@@ 29
94@@ 29
ATP 29
Atlan@@ 29
Aydın 29
Benito 29
Berry 29
Blues 29
Cad@@ 29
Carol 29
Chan 29
Chen@@ 29
Circle 29
Clem@@ 29
Clo@@ 29
Cohen 29
Commons 29
Commun@@ 29
Covid 29
Donn@@ 29
Dylan 29
Ecuador 29
Elis@@ 29
Europe 29
Evangel@@ 29
Eye 29
FL 29
Ferrari 29
GO@@ 29
Germany 29
Giac@@ 29
Grav@@ 29
Greg@@ 29
Guadalajara 29
Gug@@ 29
Heli@@ 29
Idaho 29
Julie 29
Klaus 29
LS 29
Las@@ 29
Leslie 29
Liter@@ 29
Lorraine 29
Los@@ 29
MG 29
MP 29
Major 29
Mant@@ 29
Maxwell 29
Morrison 29
Nacional 29
Nau@@ 29
Neil 29
No. 29
Pablo 29
Ped@@ 29
Pig@@ 29
Play@@ 29
Post@@ 29
Quar@@ 29
Rest@@ 29
Ret@@ 29
Reynolds 29
Sant 29
Sask@@ 29
Schi@@ 29
See 29
Soccer 29
Staf@@ 29
Take 29
Tall@@ 29
Teleg@@ 29
Turkey 29
Voc@@ 29
Yang 29
Yok@@ 29
alist 29
anas 29
anner 29
arl@@ 29
aspir@@ 29
aver@@ 29
ayet@@ 29
bau@@ 29
blo@@ 29
bro 29
cis 29
cs 29
door 29
dra@@ 29
eich@@ 29
emati@@ 29
equ@@ 29
evi@@ 29
fax 29
fif@@ 29
fish 29
flu@@ 29
force 29
get 29
gri 29
hagen 29
hane 29
hill 29
imbab@@ 29
inian 29
inson 29
iran 29
ising 29
ives 29
kam 29
khe@@ 29
makam@@ 29
news 29
nis 29
ocar@@ 29
ocy@@ 29
odor@@ 29
oides 29
olph 29
orie 29
oul 29
ovia 29
owski 29
pen 29
ple 29
pler 29
point 29
programming 29
propaganda 29
rea 29
real 29
revision 29
rist@@ 29
sant@@ 29
sep@@ 29
sola 29
sum 29
tela 29
tere 29
thouse 29
tle 29
top 29
trav@@ 29
trof@@ 29
wikitext 29
wind@@ 29
yat 29
yle 29
zh@@ 29
zur 29
élé@@ 29
č 29
ħ@@ 29
š 29
γ@@ 29
ح@@ 29
1450 28
1530 28
1536 28
1603 28
1620 28
1670 28
1774 28
193@@ 28
294 28
3. 28
3.0 28
5. 28
89@@ 28
97@@ 28
Abbey 28
Alba 28
Andreas 28
Angelo 28
Anti 28
Anto@@ 28
BT@@ 28
Bald@@ 28
Baptiste 28
Bart@@ 28
Barth@@ 28
Beatles 28
Bennett 28
Bureau 28
CR@@ 28
Champ@@ 28
Citi@@ 28
Clay@@ 28
Clin@@ 28
Cly@@ 28
Court 28
Crim@@ 28
Cuc@@ 28
Del 28
Díaz 28
Educ@@ 28
Era 28
Essex 28
Fitz@@ 28
Franç@@ 28
Freud 28
Fritz 28
Fron@@ 28
Generation 28
Gill 28
Government 28
Institut 28
Islamic 28
Ivan@@ 28
Jeanne 28
Kenny 28
Koca@@ 28
Koh@@ 28
Leh@@ 28
Linux 28
Luf@@ 28
Magnus 28
Maritime 28
Maximilian 28
Mi 28
Nicole 28
Pa 28
Peri@@ 28
Pes@@ 28
Phili@@ 28
Philippe 28
Rachel 28
Rafael 28
Región 28
Rit@@ 28
SK 28
Suff@@ 28
TR@@ 28
Team 28
Vermont 28
Warri@@ 28
Week@@ 28
Well@@ 28
adem@@ 28
anch@@ 28
assy 28
atma 28
bé 28
cir@@ 28
code 28
company 28
eber@@ 28
ect@@ 28
edio 28
eds 28
erek 28
ern 28
esin@@ 28
feld 28
gens 28
gri@@ 28
haup@@ 28
hood 28
iTunes 28
icks 28
icon 28
idea 28
inci 28
ital 28
jin 28
jun@@ 28
kho@@ 28
ladi@@ 28
lee 28
mari@@ 28
nar 28
nay 28
nd 28
nus 28
onder@@ 28
orian 28
padre 28
por 28
power 28
rez 28
rhy@@ 28
ré@@ 28
sier 28
spr@@ 28
tape 28
test@@ 28
til 28
tura 28
uer@@ 28
uit 28
uster 28
will 28
Çanakkale 28
ór@@ 28
ın 28
ır@@ 28
ıy@@ 28
ʾ@@ 28
ֵ@@ 28
ת@@ 28
1605 27
1619 27
1660 27
1756 27
501 27
Ars@@ 27
BN 27
Bartolom@@ 27
Bas 27
Beautiful 27
Benz@@ 27
Bloom@@ 27
Body 27
Boz@@ 27
Campus 27
Cap 27
Carp@@ 27
Cassini 27
Christine 27
Control 27
Cow@@ 27
Cristina 27
Dame 27
Delaware 27
Den 27
Department 27
Edge 27
Elle 27
En 27
Etim@@ 27
FL@@ 27
FS 27
Gallery 27
Gibson 27
Glo@@ 27
Goethe 27
Greg 27
Göttingen 27
Harbor 27
Horiz@@ 27
INE 27
Independ@@ 27
Jerusalem 27
Jonas 27
Josh 27
Kopen@@ 27
Koz@@ 27
Lancaster 27
Marcel@@ 27
Modern 27
Mtw@@ 27
NFL 27
Nikolai 27
Noel 27
Nur 27
Oh 27
Pens@@ 27
Pf@@ 27
Player 27
Po 27
Provincia 27
Quer@@ 27
Revolution 27
Riz@@ 27
Rosen@@ 27
SR 27
Sci@@ 27
Scottish 27
Sieg@@ 27
Sky@@ 27
Sta@@ 27
Territ@@ 27
Thor@@ 27
Three 27
Together 27
Visual 27
Works 27
Years 27
aber 27
acruz 27
act 27
afric@@ 27
amor@@ 27
anca 27
arc@@ 27
atch@@ 27
bad 27
bom 27
bor 27
chet 27
cic@@ 27
cois 27
cos@@ 27
dağ 27
drama 27
dul@@ 27
ebe@@ 27
ec 27
einer 27
embr@@ 27
emon 27
eren 27
esty 27
father 27
friend 27
gab@@ 27
gai 27
giriki 27
gran@@ 27
hen 27
hiy@@ 27
host@@ 27
hou@@ 27
ication 27
icum 27
ih 27
ikon 27
itali@@ 27
its@@ 27
ket 27
kre@@ 27
lep@@ 27
mine 27
now 27
ologies 27
olu 27
ool 27
orch@@ 27
otus 27
over@@ 27
ovic 27
rat@@ 27
rev@@ 27
rig@@ 27
sal 27
sche 27
sing 27
than@@ 27
thir@@ 27
thor@@ 27
toc@@ 27
tries 27
ucci 27
vai 27
view 27
w.@@ 27
wns 27
yr 27
zun@@ 27
án@@ 27
ò 27
öder@@ 27
ĩ@@ 27
ığ 27
ış 27
ɔ@@ 27
ի@@ 27
ל 27
ר 27
َّ@@ 27
ّ@@ 27
ܐ 27
1637 26
1680 26
194@@ 26
195@@ 26
31.@@ 26
38.@@ 26
64,@@ 26
911 26
Administration 26
Audi@@ 26
Bass 26
CF@@ 26
CW 26
Catholic 26
Compos@@ 26
Conservation 26
Construction 26
Cri@@ 26
Diam@@ 26
Docum@@ 26
Dragon 26
Energy 26
Fay@@ 26
Gerhard 26
Gil 26
Heaven 26
Honda 26
Johan 26
Kepler 26
Klein 26
Kron@@ 26
Labour 26
Liz@@ 26
Mans 26
Min 26
Most 26
Moul@@ 26
Nassau 26
Nep@@ 26
Olympic 26
Ottoman 26
Phar@@ 26
Phot@@ 26
Produc@@ 26
Race 26
Rau@@ 26
Revol@@ 26
Richmond 26
Roh@@ 26
Saar@@ 26
Saj@@ 26
Salv@@ 26
Scher@@ 26
Second 26
Spring 26
Tai 26
Trail 26
Tübingen 26
UF@@ 26
Universit@@ 26
Vamp@@ 26
Voy@@ 26
Warsaw 26
abaj@@ 26
aign 26
ajo 26
alog@@ 26
aret 26
arti@@ 26
atl@@ 26
ause 26
banks 26
bis 26
camp@@ 26
cell 26
edan 26
eleg@@ 26
elop@@ 26
fred 26
für 26
ged 26
grade 26
group 26
haus 26
ighton 26
iner 26
irus 26
isson 26
istic 26
ivi@@ 26
kat 26
level 26
liber@@ 26
loi 26
lé 26
master 26
nel 26
net@@ 26
nom 26
oid 26
omor@@ 26
oran 26
orca 26
pas 26
pass@@ 26
poem 26
quez 26
rel 26
ror@@ 26
sman 26
sun 26
tain@@ 26
tepe 26
tero 26
test 26
toral 26
tric@@ 26
ularis 26
wers 26
works 26
zano 26
zar 26
Á@@ 26
Étienne 26
ē 26
ık@@ 26
Π@@ 26
س 26
َ@@ 26
木 26
本 26
田@@ 26
野 26
001 25
1609 25
1642 25
1644 25
1763 25
1794 25
400@@ 25
45.@@ 25
95@@ 25
Aer@@ 25
Alfredo 25
Anhalt 25
Anim@@ 25
Antar@@ 25
Audi 25
Bartol@@ 25
Bertr@@ 25
Bez@@ 25
Brab@@ 25
Brach@@ 25
Bras@@ 25
Bu 25
CS 25
Case 25
Chic@@ 25
Clau@@ 25
Committee 25
Concer@@ 25
Crown 25
Dick 25
Diplom@@ 25
Division 25
Dud@@ 25
EP@@ 25
Esc@@ 25
Fif@@ 25
Fire@@ 25
GPS 25
Guil@@ 25
Gómez 25
H2O 25
HMS 25
HT@@ 25
Hang@@ 25
Henn@@ 25
Hig@@ 25
Inde@@ 25
Index 25
Ira@@ 25
KZ 25
Karnataka 25
Lai 25
Lao 25
Lour@@ 25
Luxembourg 25
Luz@@ 25
Market 25
Mont 25
Much@@ 25
Musical 25
Myr@@ 25
NH@@ 25
Net 25
Oly@@ 25
Osman 25
Ottawa 25
Philipp@@ 25
Polo 25
Publishing 25
Rally 25
Reich@@ 25
Rick 25
Rob 25
Rocky 25
Roll 25
ST 25
Sain@@ 25
Schne@@ 25
Schw@@ 25
Side 25
SmackDown 25
Source 25
Spo@@ 25
Statis@@ 25
Stein@@ 25
Tell 25
Tex@@ 25
Thai 25
Tod 25
Turn@@ 25
UA 25
UE@@ 25
Univers@@ 25
Urs@@ 25
Viel@@ 25
Viktor 25
Villar@@ 25
Vinc@@ 25
Zagreb 25
acker 25
aen@@ 25
akes 25
aling 25
ancer 25
anco 25
anges@@ 25
anny 25
ases@@ 25
aster 25
asum@@ 25
auto@@ 25
d. 25
digital 25
dé 25
eal 25
eas@@ 25
eim 25
ellen 25
ental 25
entry 25
erk@@ 25
estan 25
eux 25
eves 25
funk 25
gir 25
ground 25
hay 25
hos@@ 25
ht 25
iden@@ 25
iler 25
illas 25
infr@@ 25
inos 25
irs 25
itor 25
ky@@ 25
lama 25
lap@@ 25
lion 25
luk 25
matr@@ 25
miner@@ 25
olla 25
omys 25
onidae 25
orial 25
osh 25
people 25
pin 25
pith@@ 25
plut@@ 25
pup@@ 25
py@@ 25
qua 25
return 25
ros 25
rus@@ 25
same 25
sau 25
space 25
stan@@ 25
sula 25
syn@@ 25
tenstein 25
therap@@ 25
trac@@ 25
tree 25
trig@@ 25
ugu@@ 25
ulin 25
ult 25
urt 25
vir 25
volution 25
which 25
wn@@ 25
xa 25
zar@@ 25
zon 25
ė@@ 25
Ł@@ 25
ׁ@@ 25
ي 25
ῖ@@ 25
1570 24
1590 24
1595 24
1607 24
1618 24
1630 24
1632 24
1667 24
1710 24
1765 24
190@@ 24
46.@@ 24
49.@@ 24
Alonso 24
Annie 24
Att@@ 24
Baptist 24
Bengal 24
Blin@@ 24
Brand 24
Cau@@ 24
Ced@@ 24
Centr@@ 24
Cl 24
Cord@@ 24
Cres@@ 24
DB 24
Dioc@@ 24
Earl 24
Ech@@ 24
Federico 24
Fine 24
Friday 24
GNU 24
GP@@ 24
Ges@@ 24
Gin@@ 24
Giov@@ 24
HS 24
Hein@@ 24
Holocaus@@ 24
Horn 24
Imag@@ 24
Javier 24
Jeffrey 24
Jes@@ 24
Jesús 24
Jord@@ 24
Jov@@ 24
Jura 24
LG@@ 24
LGBT 24
Luc 24
Manila 24
Marcel 24
Marsh@@ 24
Michel@@ 24
Moskva 24
Motor@@ 24
Nati@@ 24
Natural 24
Navy 24
Night@@ 24
Office 24
Orch@@ 24
Pati@@ 24
Perth 24
Pietro 24
Plant@@ 24
Potsdam 24
Quint@@ 24
Rain 24
Re 24
Reed 24
Resp@@ 24
Rin@@ 24
Rodríguez 24
Six 24
Slam 24
Solanum 24
Spirit 24
Stur@@ 24
Thir@@ 24
Tunes 24
Venus 24
Volk@@ 24
WWF 24
Westminster 24
Wir@@ 24
Xavier 24
Yu 24
Zul@@ 24
acán 24
alya 24
anali@@ 24
antes 24
aries 24
atz 24
back@@ 24
bey@@ 24
bire@@ 24
burg@@ 24
bute 24
centr@@ 24
church 24
cons@@ 24
cum 24
def@@ 24
dim 24
dro@@ 24
ebel 24
ells 24
ening 24
enst@@ 24
enter 24
eral 24
fed@@ 24
fem@@ 24
femin@@ 24
fib@@ 24
four 24
gene 24
get@@ 24
glu@@ 24
hn 24
ifer@@ 24
ikal 24
imler 24
ior 24
isra@@ 24
istry 24
kas 24
kır@@ 24
lac@@ 24
lige 24
lyn 24
mart 24
medi@@ 24
mens@@ 24
mol 24
movie 24
oise 24
olet 24
olith@@ 24
online 24
orta 24
phr@@ 24
prof@@ 24
raf 24
river 24
sax@@ 24
squ@@ 24
stadium 24
sten 24
suy@@ 24
tac@@ 24
tec@@ 24
tee 24
thias 24
tista 24
tiz@@ 24
tros 24
udo 24
uel 24
ustr@@ 24
vas@@ 24
vet@@ 24
vie@@ 24
xon 24
yel@@ 24
yev 24
Å@@ 24
ño 24
ôme 24
α@@ 24
ε@@ 24
م@@ 24
ܘ@@ 24
‏ 24
夫 24
1515 23
1720 23
1741 23
1767 23
1796 23
34.@@ 23
47.@@ 23
84@@ 23
AL 23
After 23
Alban@@ 23
Aleksand@@ 23
Apr@@ 23
Auguste 23
Bachelor 23
Bey@@ 23
Block 23
Buff@@ 23
Byzant@@ 23
Cannes 23
Cat 23
Cay@@ 23
Century 23
Champion 23
Championships 23
Chester 23
Christophe 23
Chung 23
Châ@@ 23
Cis@@ 23
Class@@ 23
Cloud 23
Cong@@ 23
DF@@ 23
Dawn 23
Denver 23
Diyarbakır 23
Düsseldorf 23
EL 23
EM 23
ESCO 23
Egyp@@ 23
Emp@@ 23
Epis@@ 23
Extr@@ 23
Eyes 23
FF@@ 23
Fen@@ 23
GC 23
Gebr@@ 23
Grenoble 23
Guill@@ 23
Halle 23
Happy 23
Heidelberg 23
Hungary 23
IE@@ 23
IV@@ 23
Isle 23
Jamie 23
Jr. 23
Kars 23
LE 23
Lamp@@ 23
Legend 23
Lex@@ 23
List 23
Lyc@@ 23
Mariano 23
Mend@@ 23
Mercedes 23
Miranda 23
Moun@@ 23
Multi@@ 23
Nikolaus 23
Organisation 23
Performance 23
Plymouth 23
Pog@@ 23
Poli@@ 23
Report 23
Rhône 23
Rodrigo 23
Roland 23
Rush 23
SB 23
Sakarya 23
Serv@@ 23
Shr@@ 23
Silver 23
Stand 23
Stefan 23
Stock 23
Stra@@ 23
Sullivan 23
Swe@@ 23
Theory 23
Todd 23
Trich@@ 23
Triple 23
VP 23
Weber 23
Where 23
Wild 23
Wild@@ 23
Winter@@ 23
Work 23
Zir@@ 23
aat 23
acher 23
alt 23
ancy 23
anted 23
ardt 23
arum 23
arus 23
ation@@ 23
atorio 23
bahn 23
bog@@ 23
borne 23
ces 23
chir@@ 23
dev 23
ects 23
edra 23
egal 23
eit 23
ember 23
emy 23
enk@@ 23
erson 23
essing 23
eve 23
fact 23
fat 23
fat@@ 23
gué 23
heit 23
how 23
icle 23
iet 23
illac 23
illing 23
immun@@ 23
insky 23
ité 23
jk 23
join@@ 23
kus 23
lave 23
liers 23
lik 23
made 23
male 23
mawas@@ 23
nea 23
ngo@@ 23
non@@ 23
nos 23
obus 23
opol@@ 23
quil@@ 23
records 23
ren 23
rian 23
roll 23
sahi@@ 23
sang 23
serv@@ 23
ses@@ 23
style 23
sung 23
tile 23
topo@@ 23
tori@@ 23
tures 23
unes 23
urai 23
veri 23
vern@@ 23
vidence 23
wave 23
xico 23
xx 23
zhou 23
ás@@ 23
å 23
édi@@ 23
éri@@ 23
ò@@ 23
Č@@ 23
İ@@ 23
ʼ@@ 23
ρος 23
א 23
ק@@ 23
ال@@ 23
Ḥ@@ 23
″ 23
山 23
高@@ 23
1565 22
1592 22
1748 22
1772 22
AH 22
Academ@@ 22
Affairs 22
Agriculture 22
Alexandre 22
Andro@@ 22
Auvergne 22
BM 22
BO 22
Boliv@@ 22
Brisbane 22
Burns 22
Champagne 22
Cho 22
Collection 22
Cox 22
César 22
DS@@ 22
Dark 22
Domingo 22
Doug@@ 22
ES 22
Edition 22
Eduard 22
Egypt 22
Eil@@ 22
Emilio 22
Fav@@ 22
Form@@ 22
GE 22
Gag@@ 22
Grec@@ 22
Guerrero 22
Harper 22
Harvey 22
Herschel 22
Holding 22
Hyper@@ 22
Islam@@ 22
Jim@@ 22
Kyle 22
Kö@@ 22
LD 22
Mail 22
Martínez 22
Merr@@ 22
Milwaukee 22
Model 22
Msum@@ 22
Municipal 22
NR@@ 22
Native 22
Online 22
Orthodo@@ 22
PE 22
PG 22
Paz@@ 22
Phy@@ 22
Pie@@ 22
Plus 22
Prof. 22
Puebla 22
Pyrénées 22
Ramón 22
Rand 22
Raúl 22
SN 22
Schwe@@ 22
Sciences 22
Scienti@@ 22
Security 22
Seh@@ 22
Steel 22
Sten@@ 22
Sund@@ 22
Sym@@ 22
TE 22
Technical 22
Tel 22
Temple 22
Tep@@ 22
Tree 22
Vari@@ 22
Wein@@ 22
Wid@@ 22
Winter 22
Wr@@ 22
Wur@@ 22
Yves 22
Zap@@ 22
abase 22
adura 22
amt 22
ancing 22
andal 22
arch 22
asing 22
ature 22
awards 22
bass@@ 22
been 22
bol 22
bright 22
car 22
card 22
ces@@ 22
chan 22
chart 22
chem 22
chrom@@ 22
cot 22
cover 22
cut@@ 22
det@@ 22
dete 22
did@@ 22
disease 22
duo 22
eber 22
ecas 22
egel 22
electr@@ 22
elin 22
elis 22
ench@@ 22
encia 22
fou@@ 22
franchise 22
geb@@ 22
greg@@ 22
hic 22
idas 22
ident 22
ign 22
irat@@ 22
iris 22
jen 22
kav@@ 22
kim 22
know 22
list 22
lon@@ 22
lows 22
machine 22
medi 22
mos 22
muhaf@@ 22
nada 22
night 22
obr@@ 22
oci@@ 22
olm 22
oly@@ 22
onio 22
onym@@ 22
oras 22
pher@@ 22
pit@@ 22
post 22
pou@@ 22
rim 22
self 22
sell 22
set@@ 22
state 22
tered 22
tery 22
they 22
thing 22
tienne 22
title 22
trum 22
ulum 22
upp@@ 22
uy 22
vak@@ 22
version 22
ween 22
yar 22
yx 22
zem@@ 22
zin 22
zir@@ 22
Ø@@ 22
äl@@ 22
éré@@ 22
ük 22
ün 22
üş@@ 22
ɑ@@ 22
ρ@@ 22
ская 22
յ@@ 22
ن@@ 22
一 22
川 22
1525 21
1556 21
1596 21
1601 21
1624 21
1627 21
1649 21
1655 21
1721 21
1764 21
1782 21
189@@ 21
1st 21
99.@@ 21
Artem@@ 21
Aster@@ 21
Augusta 21
Austral@@ 21
Baron 21
Beb@@ 21
Box@@ 21
CL 21
Cali@@ 21
Cam 21
Capit@@ 21
Capr@@ 21
Carmen 21
Ceph@@ 21
Churchill 21
Code 21
Colomb@@ 21
Conservative 21
Düz@@ 21
Eagle 21
Edi@@ 21
Far 21
Fi 21
Film@@ 21
Fort@@ 21
Gaziantep 21
Gill@@ 21
Golf 21
HO@@ 21
Holmes 21
Imp@@ 21
Io@@ 21
Italian 21
Jet 21
Jin 21
Kahr@@ 21
Langu@@ 21
Late 21
Lincol@@ 21
Loh@@ 21
Malm@@ 21
Medina 21
Meer 21
Mer 21
Mersin 21
Mother 21
Motors 21
NAS@@ 21
NC 21
NXT 21
Netherlands 21
Ninh 21
Nuevo 21
October 21
Olimp@@ 21
Oriental 21
PP 21
Param@@ 21
Percy 21
Petro@@ 21
Philipp 21
Pist@@ 21
Rain@@ 21
Room 21
Sainte 21
Sans@@ 21
Schmidt 21
Somerset 21
Sonn@@ 21
Sph@@ 21
Spring@@ 21
Tamil 21
Te 21
Thanh 21
Tiger 21
Touch 21
Trig@@ 21
Valladolid 21
Volkswagen 21
Wellington 21
ading 21
amaduni 21
anor 21
app 21
arium 21
atoria 21
atory 21
bourne 21
bul 21
burgh 21
cipe 21
debe 21
dura 21
edes 21
emann 21
enso 21
enus 21
erer 21
erine 21
etes 21
etic 21
fik 21
free 21
game 21
gau 21
halde 21
hausen 21
high@@ 21
ications 21
idar@@ 21
igner 21
ignon 21
international 21
iriki@@ 21
iscus 21
istem@@ 21
jang@@ 21
lap 21
light 21
lug 21
mans 21
math@@ 21
nak 21
ogne 21
ograph@@ 21
ois@@ 21
onal 21
onds 21
onic 21
oning 21
oque 21
order 21
oss 21
oue 21
ously 21
patr@@ 21
phy 21
rol 21
scher@@ 21
tau@@ 21
television 21
thus 21
tif 21
ting@@ 21
tronics 21
té 21
unction 21
ures 21
ution 21
uts 21
yeni 21
µ@@ 21
½ 21
æ 21
ń@@ 21
Şanlıurfa 21
θ@@ 21
ον 21
р@@ 21
ւ@@ 21
ג@@ 21
د@@ 21
عبد 21
و 21
ُ@@ 21
ِ@@ 21
→ 21
井 21
口 21
村 21
松@@ 21
1.0@@ 20
1612 20
1616 20
1621 20
1633 20
1717 20
1728 20
1758 20
1769 20
1773 20
32@@ 20
48,@@ 20
Afrik@@ 20
Alphon@@ 20
Another 20
Because 20
Beethoven 20
Bern 20
Bir 20
Blanc 20
Brenn@@ 20
Buck@@ 20
Butter@@ 20
Bình 20
Campo 20
Canadian 20
Chor@@ 20
Chuck 20
Communications 20
Cortes 20
Count 20
Cuando 20
Danz@@ 20
Deg@@ 20
Dmi@@ 20
Dom 20
EF@@ 20
EN 20
Edirne 20
Eis@@ 20
Fantas@@ 20
Fey@@ 20
Flu@@ 20
Fot@@ 20
GI 20
Gior@@ 20
Grove 20
Guide 20
Güm@@ 20
HD 20
Hack@@ 20
Hand 20
Hans@@ 20
Heb@@ 20
Hit 20
Horst 20
Inf@@ 20
Invest@@ 20
Jazz@@ 20
July 20
June 20
Kane 20
Kes@@ 20
Language 20
Lew@@ 20
Liège 20
Mechan@@ 20
Mobile 20
Mund@@ 20
Must@@ 20
Naples 20
Neum@@ 20
Neur@@ 20
Newport 20
Nguyễn 20
Nueva 20
Oro@@ 20
Ort@@ 20
Pis@@ 20
Planet 20
Plaza 20
Private 20
Proj@@ 20
Pyr@@ 20
Quang 20
Ramos 20
Rhin@@ 20
Roch@@ 20
Rous@@ 20
Sang 20
Se 20
Sinf@@ 20
Solo 20
Stock@@ 20
Su 20
Switzerland 20
These 20
Tiy@@ 20
Vega 20
WCW 20
WW@@ 20
Walk 20
Wells 20
Wien 20
Wy@@ 20
Wyoming 20
Yes@@ 20
\ 20
abb@@ 20
abis 20
acea 20
acid 20
ament@@ 20
andt 20
anese 20
antha 20
apur 20
award 20
ayak@@ 20
berger 20
berland 20
berry 20
bow@@ 20
box@@ 20
cant@@ 20
cer 20
continental 20
coron@@ 20
dat 20
dicho 20
dige 20
disco 20
dor 20
ead 20
ecker 20
edy 20
elen 20
elos 20
ences 20
enci@@ 20
ense@@ 20
ept@@ 20
erumani 20
esch@@ 20
etary 20
eur@@ 20
football 20
fried 20
fro@@ 20
gaz@@ 20
hyper@@ 20
icht 20
icio 20
ict 20
idal 20
igne 20
igns 20
ilus 20
ince 20
initi@@ 20
itaria 20
ition 20
iyi 20
ked 20
km@@ 20
last 20
lati@@ 20
liga 20
lines 20
met 20
ming 20
mono@@ 20
mua 20
muz@@ 20
mán 20
namo 20
ners 20
nica 20
ofauti@@ 20
ogen 20
olle 20
onian 20
orno 20
oscop@@ 20
page 20
pec@@ 20
phi@@ 20
phot@@ 20
rab@@ 20
refu@@ 20
rique 20
rix 20
roc@@ 20
rov@@ 20
sau@@ 20
sher@@ 20
sir 20
spap@@ 20
stars 20
sters 20
struc@@ 20
sul 20
table 20
taine 20
tat@@ 20
tern 20
them 20
tilla 20
tory 20
trea 20
ual@@ 20
using 20
utt@@ 20
vari@@ 20
vek@@ 20
vel 20
vers@@ 20
vor@@ 20
women 20
ycl@@ 20
ñ@@ 20
öl 20
Ž@@ 20
ʉ@@ 20
η 20
ο@@ 20
π@@ 20
Ա@@ 20
տ@@ 20
ان 20
د 20
ه 20
ى 20
Ἰ@@ 20
三 20
小@@ 20
雄 20
1350 19
1568 19
1623 19
1629 19
1643 19
1676 19
1689 19
1713 19
1725 19
1729 19
1732 19
1736 19
1744 19
1768 19
1781 19
250@@ 19
4.0 19
48.@@ 19
9. 19
Advanced 19
Alexis 19
Anders 19
Andrés 19
Aph@@ 19
Archit@@ 19
Armen@@ 19
Asp@@ 19
Aten@@ 19
Atom@@ 19
BAFTA 19
Ban 19
Benjam@@ 19
Bo 19
Bot 19
Bourgogne 19
Bowl 19
Branch 19
Buffy 19
Bull 19
Bund@@ 19
Bus 19
Calais 19
Cathedral 19
Chrys@@ 19
Class 19
Conservat@@ 19
Crist@@ 19
DR@@ 19
Deep 19
Des 19
Dru@@ 19
ET@@ 19
Emil@@ 19
Enterprise 19
February 19
Finn@@ 19
Frédéric 19
GS 19
Giang 19
Gim@@ 19
Glob@@ 19
Gottfried 19
Greek 19
Greene 19
Henri@@ 19
Human@@ 19
Hydr@@ 19
Inn 19
Italy 19
Kapit@@ 19
Key 19
Leib@@ 19
Leningrad 19
Library 19
Lions 19
Local 19
Marcos 19
Marine 19
Mill 19
Mind 19
Mozambi@@ 19
Myster@@ 19
Már@@ 19
Nintendo 19
O2 19
Oise 19
Olivier 19
Ork@@ 19
PT@@ 19
Page 19
Perf@@ 19
Pion@@ 19
Potter 19
Poz@@ 19
Preston 19
Proc@@ 19
Pérez 19
Quir@@ 19
Raz@@ 19
Rennes 19
Romeo 19
Salt 19
Send@@ 19
Soh@@ 19
Spin@@ 19
Stan 19
Stein 19
Superior 19
Sut@@ 19
Swift 19
Systems 19
Ta 19
Tan 19
Total 19
Train 19
Tyr@@ 19
UC 19
UL@@ 19
Un 19
Valenci@@ 19
abei 19
ables 19
about 19
abra 19
agre@@ 19
alc@@ 19
alists 19
allen 19
anian 19
ators 19
atti 19
autom@@ 19
av 19
ayed 19
ayr@@ 19
azz 19
bauer 19
bed@@ 19
cab@@ 19
cen@@ 19
chia 19
club 19
cola 19
cou@@ 19
cules 19
cus@@ 19
dance 19
dek@@ 19
ders@@ 19
divis@@ 19
dum 19
dus 19
dès 19
eci 19
education 19
egen 19
elor 19
endr@@ 19
eñ@@ 19
fera 19
flor@@ 19
fusion 19
gate 19
hang 19
hung 19
hé@@ 19
ibl@@ 19
icon@@ 19
iles 19
ilk 19
indica 19
ismo 19
iste 19
iyet 19
kW 19
köy 19
lieu 19
lop@@ 19
lower 19
luc@@ 19
mani@@ 19
manus@@ 19
math 19
mey@@ 19
mic 19
mph 19
mt 19
new@@ 19
nig 19
nith@@ 19
ograf@@ 19
oking 19
olar 19
onis 19
oration 19
oslav 19
osph@@ 19
parti@@ 19
pay@@ 19
ped@@ 19
pent@@ 19
person 19
phe 19
phu 19
port@@ 19
prol@@ 19
ries 19
rug@@ 19
sch 19
seau 19
shan 19
sko@@ 19
som 19
sous 19
sts 19
sville 19
tage 19
tem 19
tenberg 19
thin 19
tified 19
timo 19
tric 19
ulan 19
ump 19
utes 19
vania 19
voc@@ 19
wr@@ 19
ww@@ 19
xy 19
yal 19
years 19
yet 19
yla 19
Év@@ 19
Öz@@ 19
ás 19
équ@@ 19
õ@@ 19
Đồng 19
ė 19
ğr@@ 19
ław 19
ż@@ 19
ɨ@@ 19
κα@@ 19
ז@@ 19
ס@@ 19
اء 19
اد 19
ذ@@ 19
رَ@@ 19
ك@@ 19
ُ 19
አ@@ 19
ῆ@@ 19
三@@ 19
和@@ 19
1204 18
1571 18
1585 18
1606 18
1631 18
1645 18
1651 18
1722 18
1726 18
1778 18
1786 18
1788 18
21@@ 18
7. 18
After@@ 18
Akadem@@ 18
Arsen@@ 18
Assemb@@ 18
Aviv 18
Bertrand 18
Bible 18
Brook@@ 18
Bundes@@ 18
CON@@ 18
Canton 18
Cerro 18
Chall@@ 18
Chat@@ 18
Chrom@@ 18
Chur@@ 18
Comm@@ 18
Common 18
DI@@ 18
Der 18
Doc@@ 18
Dominique 18
Dra@@ 18
Duf@@ 18
Durham 18
Dynam@@ 18
Edit@@ 18
Factory 18
Fest@@ 18
Films 18
Garr@@ 18
González 18
Gérard 18
Ha 18
Helmut 18
Hous@@ 18
IEEE 18
Impact 18
Irish 18
Jour@@ 18
Jug@@ 18
Lara 18
Liberal 18
Lt@@ 18
MT 18
Magdal@@ 18
March@@ 18
Matthe@@ 18
Mein@@ 18
Mercur@@ 18
Mikro@@ 18
Notre 18
Occidental 18
Pas 18
Pix@@ 18
Progres@@ 18
Príncipe 18
Que@@ 18
RCA 18
Regional 18
Rep@@ 18
Sacram@@ 18
Samm@@ 18
Show@@ 18
Singapur 18
Sist@@ 18
Sociedad 18
Spi@@ 18
Spor@@ 18
Storm 18
Stud@@ 18
Termin@@ 18
Terre 18
Theater 18
Their 18
Theo 18
Tif@@ 18
Trou@@ 18
Tru@@ 18
UE 18
Ville 18
WH@@ 18
Weg@@ 18
Wide 18
Yab@@ 18
Zone 18
acht 18
aday 18
akers 18
akta 18
alba 18
alin 18
alk@@ 18
allas 18
alli 18
ampli@@ 18
ason 18
asons 18
ativa 18
aub@@ 18
ave@@ 18
aving 18
aş@@ 18
baum 18
biji 18
blin 18
box 18
c. 18
capit@@ 18
cav@@ 18
cham@@ 18
chwitz 18
cock 18
crip@@ 18
dere 18
deu@@ 18
dica 18
dil 18
dot@@ 18
dow@@ 18
eco 18
egan 18
eiro 18
emie 18
enas 18
enz 18
erra 18
etz 18
ffer 18
fire 18
foot 18
gian 18
gic 18
gut 18
hal 18
haus@@ 18
igen@@ 18
iggins 18
ikos 18
imm@@ 18
inde@@ 18
inin 18
ios 18
isco 18
ished 18
isher 18
iyet@@ 18
ization 18
jour@@ 18
k. 18
klar@@ 18
later 18
latter 18
lecht 18
lek@@ 18
lès 18
mai 18
mart@@ 18
may 18
mee 18
meni 18
nee 18
neum@@ 18
noch 18
novi@@ 18
ocol@@ 18
olar@@ 18
olep@@ 18
omar 18
operation 18
orth@@ 18
oton 18
otype 18
pac@@ 18
paras@@ 18
phil@@ 18
pios 18
pot 18
pp 18
print 18
public 18
que@@ 18
rano 18
rate 18
rog@@ 18
rom 18
ruta 18
sat 18
siti@@ 18
spe@@ 18
spo@@ 18
tabak@@ 18
tam 18
teen 18
teh@@ 18
tet 18
tir 18
tium 18
uch 18
ues 18
urs@@ 18
uses 18
venture 18
vus 18
white 18
wid@@ 18
yes@@ 18
zey 18
â 18
çon 18
ónoma 18
ós 18
Κ@@ 18
τ@@ 18
τος 18
ش@@ 18
ܪ@@ 18
佐@@ 18
原 18
岡@@ 18
正@@ 18
福@@ 18
長@@ 18
1526 17
1626 17
1652 17
1654 17
1669 17
1705 17
1707 17
1712 17
1715 17
1723 17
1742 17
1745 17
1746 17
1749 17
1779 17
6. 17
AI 17
AV 17
Advis@@ 17
Albrecht 17
Albums 17
Athletics 17
Augus@@ 17
Autom@@ 17
Aviation 17
Azi@@ 17
BP 17
Bach 17
Berg 17
Bezirks@@ 17
Bio@@ 17
Bret@@ 17
Broad@@ 17
CN 17
Ceb@@ 17
Chu 17
Colonel 17
Crawford 17
Cyc@@ 17
Days 17
Differ@@ 17
Dimi@@ 17
Direc@@ 17
División 17
Dog 17
Dresden 17
Ehr@@ 17
España 17
Eugène 17
Fast 17
Fis@@ 17
Flash 17
Frances@@ 17
Gay 17
Gesellschaft 17
Gle@@ 17
Glen 17
Guay@@ 17
Gün@@ 17
HC 17
His 17
Hist@@ 17
IL 17
IUCN 17
Igu@@ 17
Industries 17
Itali@@ 17
January 17
KG 17
Kader 17
Khu@@ 17
Laut 17
Legacy 17
Leopol@@ 17
Magdeburg 17
Magn@@ 17
Mahmud 17
Manit@@ 17
Mediterran@@ 17
Mini 17
Montevideo 17
Moyen 17
Neill 17
Neub@@ 17
Nha 17
Nouvelle 17
OT@@ 17
Observat@@ 17
Petit 17
Princip@@ 17
Program 17
Programme 17
Rac@@ 17
Rath@@ 17
René 17
Restaur@@ 17
SF@@ 17
Sand 17
Saône 17
Schum@@ 17
Sherman 17
Shō@@ 17
Sign@@ 17
Slo@@ 17
Soviet 17
Style 17
Tax@@ 17
Tech@@ 17
Telek@@ 17
Temp@@ 17
Through 17
Tierra 17
Vak@@ 17
Vent@@ 17
Vladi@@ 17
Vos@@ 17
WM 17
Wich@@ 17
Wind 17
Xen@@ 17
Yap@@ 17
Yol@@ 17
aders 17
aking 17
alar 17
amay@@ 17
amer 17
ampi@@ 17
anche 17
angek@@ 17
antum 17
aron 17
atom 17
aur 17
ble@@ 17
boys 17
cara 17
cep@@ 17
chard 17
chus 17
cip@@ 17
cord 17
cott 17
coun@@ 17
cross 17
cup 17
dav@@ 17
dent@@ 17
dif@@ 17
digo 17
district 17
ease 17
ejer@@ 17
enty 17
ership 17
erst@@ 17
esk@@ 17
estre 17
ext@@ 17
fang@@ 17
fied 17
fordshire 17
formed 17
française 17
fres@@ 17
ged@@ 17
hart 17
icial 17
ieve 17
imar 17
imus 17
issons 17
iter 17
kill 17
kow@@ 17
languages 17
late 17
ld@@ 17
ldwide 17
lic 17
lie@@ 17
list@@ 17
lose 17
mad 17
mec@@ 17
mek 17
ml 17
nen@@ 17
nius 17
ollo 17
omen@@ 17
ority 17
pasa 17
pau@@ 17
pel 17
plo@@ 17
polit@@ 17
protein@@ 17
pura 17
rum@@ 17
said 17
sberg 17
sekon@@ 17
sex 17
sey@@ 17
shore 17
sidi@@ 17
software 17
stag 17
telenov@@ 17
tida 17
tig 17
tly 17
tn@@ 17
unit 17
uss 17
vez 17
virus 17
with@@ 17
yond 17
ázquez 17
ä 17
èle 17
éli@@ 17
éra 17
ì 17
ío 17
ück 17
ɐ@@ 17
ʃ@@ 17
κ@@ 17
λογία 17
ω 17
к 17
і@@ 17
կ@@ 17
أَ@@ 17
ة 17
ܕ@@ 17
ọ 17
ἰ@@ 17
安@@ 17
川@@ 17
.000 16
1559 16
1577 16
1611 16
1615 16
1701 16
1727 16
1761 16
1771 16
1777 16
1784 16
187@@ 16
4. 16
A1 16
AV@@ 16
Ab 16
Aix 16
Alain 16
Als@@ 16
Alsace 16
Aquitaine 16
Arth@@ 16
Asim@@ 16
BW@@ 16
Bail@@ 16
Barbar@@ 16
Buil@@ 16
Building 16
Campe@@ 16
Castell@@ 16
Claudia 16
Constitu@@ 16
Cryp@@ 16
Dam 16
Deh@@ 16
Deportivo 16
Dollar 16
Domen@@ 16
ED 16
Early 16
Eber@@ 16
Engel@@ 16
Ern@@ 16
Esk@@ 16
Euph@@ 16
Fall@@ 16
Fantasy 16
Financial 16
Gali@@ 16
Grand@@ 16
Guillaume 16
HBO 16
Hain@@ 16
Hal 16
Here 16
Hoffmann 16
Humboldt 16
ICA@@ 16
Inh@@ 16
Intel 16
Intelligence 16
Investig@@ 16
Janu@@ 16
Jess@@ 16
Jér@@ 16
Kauf@@ 16
Laguna 16
Ley 16
Mal 16
Marc@@ 16
Marqu@@ 16
Matthias 16
Mendoza 16
Milli@@ 16
Minas 16
Mosk@@ 16
Mov@@ 16
Málaga 16
Mö@@ 16
Nürnberg 16
PL 16
Panz@@ 16
Parti@@ 16
Pays 16
Person@@ 16
Pink 16
Police 16
Pont@@ 16
Purple 16
Put@@ 16
Rai@@ 16
Richter 16
Robertson 16
Rum 16
SF 16
Sachsen 16
Selim 16
Slav@@ 16
Sle@@ 16
Soc@@ 16
Software 16
Speed 16
Spek@@ 16
Sper@@ 16
Spiel@@ 16
Stap@@ 16
Studi@@ 16
Sultan@@ 16
Supreme 16
Sur 16
Tales 16
Ten 16
Trab@@ 16
U. 16
USD 16
Université 16
VC 16
VV@@ 16
Version 16
Villen@@ 16
WC 16
Wars 16
Zey@@ 16
aband@@ 16
academ@@ 16
acer@@ 16
actus 16
adam 16
alas 16
algo 16
algorith@@ 16
aller 16
aller@@ 16
apas 16
arte 16
ateur 16
atur 16
ausen 16
avera 16
bec@@ 16
big 16
bs@@ 16
chol@@ 16
chum 16
comp@@ 16
computer 16
comun@@ 16
copal 16
cula 16
dion 16
dır 16
eger 16
elling 16
elten 16
endra 16
epis@@ 16
estro 16
eus@@ 16
even 16
evento 16
ezya 16
fic 16
fluor@@ 16
frame 16
gano 16
gence 16
ging 16
heb@@ 16
ibar 16
ief 16
ifad@@ 16
internet 16
irk 16
irt 16
isch@@ 16
ises 16
itar 16
ival@@ 16
jp@@ 16
kent 16
khan 16
kuts@@ 16
lay@@ 16
local 16
magn@@ 16
main@@ 16
mst@@ 16
national 16
nek@@ 16
network 16
ocer@@ 16
oid@@ 16
olin 16
onc@@ 16
ort@@ 16
otis 16
oxide 16
pero 16
petition 16
phosph@@ 16
pick 16
ply 16
ppi 16
pping 16
program@@ 16
pru@@ 16
publi@@ 16
rou@@ 16
rum 16
sever@@ 16
shor@@ 16
singles 16
some 16
spitze 16
station 16
tema 16
ternal 16
tification 16
ull 16
unter 16
utz@@ 16
val 16
value 16
versities 16
versity 16
vá@@ 16
week 16
woman 16
xima 16
ylon 16
ynam@@ 16
zburg 16
­ 16
Álvarez 16
árez 16
éph@@ 16
éro@@ 16
ê 16
ł 16
Ō@@ 16
ն@@ 16
الس@@ 16
بِ@@ 16
ܬ@@ 16
中@@ 16
1604 15
1634 15
1636 15
1641 15
1656 15
1665 15
1666 15
1703 15
1709 15
1737 15
1757 15
1759 15
185@@ 15
186@@ 15
192@@ 15
300@@ 15
Académie 15
Adv@@ 15
Alejandro 15
Alexand@@ 15
Alt 15
Antarc@@ 15
Antigu@@ 15
Aragon 15
Bask@@ 15
Basketball 15
Battle 15
Burgos 15
C1 15
Camille 15
Campeonato 15
Car 15
Chev@@ 15
Crom@@ 15
Cultural 15
Cus@@ 15
DOS 15
David@@ 15
Defence 15
Dram@@ 15
Eind@@ 15
Electronic 15
Ent@@ 15
Eve 15
Farm 15
Feb@@ 15
Ferg@@ 15
Fest 15
Final 15
Forces 15
Formula 15
Free@@ 15
Gaga 15
Galaxy 15
Gly@@ 15
Guerr@@ 15
Hansen 15
Heavy 15
Hero 15
Himm@@ 15
Isla 15
Ital@@ 15
Japanese 15
Jena 15
Kateg@@ 15
Kov@@ 15
Lausanne 15
Liberty 15
Lich@@ 15
Lynch 15
Marion 15
Mark@@ 15
Mec@@ 15
Mega 15
Moder@@ 15
NY 15
Nationale 15
Nielsen 15
Nine 15
Now@@ 15
ON 15
Olga 15
PD@@ 15
PT 15
Paramount 15
Paraná 15
Philippines 15
Pitts@@ 15
Political 15
Power@@ 15
Prime 15
Pueblo 15
Renn@@ 15
Rural 15
Schu@@ 15
Season 15
Set 15
Sex 15
Sez@@ 15
Silver@@ 15
Spanish 15
Stal@@ 15
Stat@@ 15
Stol@@ 15
They 15
Tor 15
USS 15
Universität 15
VO@@ 15
Vand@@ 15
Vera 15
Verb@@ 15
Verd@@ 15
Wester@@ 15
Wilhel@@ 15
achers 15
acio 15
adis 15
aint 15
alli@@ 15
amen 15
andes 15
anni 15
argent 15
arias 15
arry 15
artist 15
atik 15
atin@@ 15
bourg 15
cano 15
cars 15
cerc@@ 15
change 15
chl@@ 15
chn@@ 15
cit@@ 15
classical 15
edition 15
egio 15
eje 15
emer@@ 15
enen 15
enzie 15
ered 15
esen 15
estes 15
euve 15
family 15
fantas@@ 15
fiadini 15
fication 15
fie 15
fin 15
franco 15
graphy 15
gro@@ 15
heart 15
here 15
hipot@@ 15
hora 15
icide 15
iday 15
iger@@ 15
ihe 15
ilar 15
inco 15
indis@@ 15
inet 15
inners 15
ire@@ 15
ive 15
ivo 15
jet 15
kai 15
kard 15
key@@ 15
khi@@ 15
kii 15
laf 15
lide 15
macul@@ 15
mark@@ 15
mechan@@ 15
metro 15
nic@@ 15
nie 15
nos@@ 15
oes 15
ologie 15
olus 15
omel@@ 15
oming 15
omon 15
oms 15
only 15
open 15
original 15
orium 15
ott@@ 15
oğlu 15
peace 15
pies 15
polo 15
polog@@ 15
press@@ 15
print@@ 15
process@@ 15
qué 15
rew 15
rich 15
rift 15
rojo 15
science 15
screen 15
secondary 15
short 15
smo@@ 15
sol 15
sten@@ 15
stri@@ 15
strong@@ 15
such@@ 15
tell 15
tent@@ 15
through 15
ticul@@ 15
ticus 15
tiz 15
toile 15
too 15
trad@@ 15
tron 15
type 15
ugen 15
uil 15
umul@@ 15
upon 15
usal@@ 15
utions 15
vas 15
ventures 15
vet 15
vid 15
vida 15
vik 15
vino 15
wed@@ 15
ystal 15
zih@@ 15
çal@@ 15
ð 15
ña 15
ù 15
ım 15
ń 15
ι 15
φ@@ 15
ω@@ 15
ի 15
צ@@ 15
ار@@ 15
الن@@ 15
دي 15
دی 15
غ@@ 15
ل@@ 15
من 15
ون 15
ስ 15
ὁ 15
⁄ 15
↑ 15
也 15
司 15
島 15
森@@ 15
樹 15
治 15
直@@ 15
ﬁ@@ 15
0s 14
10000 14
1569 14
1658 14
1662 14
1668 14
1678 14
1683 14
1685 14
1686 14
1704 14
1716 14
1724 14
1734 14
1747 14
1754 14
1766 14
179@@ 14
188@@ 14
20th 14
8. 14
@ 14
Acro@@ 14
Agricul@@ 14
Aleksandr 14
Alp@@ 14
Ask@@ 14
Assembly 14
Atl@@ 14
Beat@@ 14
Beck 14
Becker 14
Bernhard 14
Bilbao 14
Bismar@@ 14
Blas@@ 14
Boot 14
Bros 14
But 14
CM 14
Ca 14
Casa 14
Chry@@ 14
Cog@@ 14
Cricket 14
Cyr@@ 14
Defense 14
Dendro@@ 14
Devil 14
Disco@@ 14
Elektr@@ 14
Eug@@ 14
Eurovision 14
Farm@@ 14
Fellow 14
Fru@@ 14
Full 14
Galatasaray 14
Gli@@ 14
Graz 14
Ground 14
H2@@ 14
Hamburger 14
Hay 14
Ide@@ 14
Kilis@@ 14
Kinder 14
Klu@@ 14
Konstantin 14
Lac 14
Luke 14
Léon 14
MW 14
Martín 14
Masters 14
Mayer 14
Medicine 14
Ment@@ 14
Military 14
Monde 14
Montgomery 14
Montpellier 14
Moselle 14
Motor 14
Muhar@@ 14
Oil 14
Paral@@ 14
Parks 14
Pharm@@ 14
Philosoph@@ 14
Phoen@@ 14
Popular 14
Population 14
Portugal 14
Psy@@ 14
Ptol@@ 14
Quảng 14
Reina 14
Reyes 14
Riga 14
Roll@@ 14
Roman@@ 14
SP 14
SU 14
Saints 14
Saturday 14
Schneider 14
Secre@@ 14
Société 14
Spain 14
Stage 14
Swiss 14
Tam 14
Tec@@ 14
Tourn@@ 14
UP 14
Wahl 14
Wahl@@ 14
Was 14
Zé@@ 14
aching 14
after 14
ammad 14
andan 14
andere 14
anl@@ 14
anol 14
arom@@ 14
arri@@ 14
asan 14
añ@@ 14
b. 14
baseball 14
bem@@ 14
bone 14
break@@ 14
brig@@ 14
cc 14
champ@@ 14
cine 14
classi@@ 14
col 14
cole 14
cut 14
dans@@ 14
depart@@ 14
division 14
down@@ 14
ece 14
echa 14
efe 14
eil@@ 14
eing 14
elas 14
eling 14
enek@@ 14
engel 14
eper 14
ersch@@ 14
essor 14
estos 14
ever@@ 14
evol@@ 14
eyi 14
fj@@ 14
fru@@ 14
furt 14
gas 14
giy@@ 14
gü@@ 14
history 14
hong@@ 14
hot 14
iber 14
iker 14
ilis 14
inden 14
inti@@ 14
ions 14
isons 14
itte 14
itzer 14
ized 14
kâ@@ 14
label 14
lec@@ 14
led 14
ledge 14
lets 14
lı@@ 14
main 14
many 14
map 14
mare 14
max 14
maya 14
mud 14
muz 14
má@@ 14
ned 14
negative 14
odon@@ 14
ografi 14
ograp@@ 14
olas 14
oles 14
olls 14
omer@@ 14
opsis 14
p.@@ 14
paral@@ 14
porting 14
pren@@ 14
quis@@ 14
rem 14
rine 14
room 14
rose 14
roy@@ 14
ruz 14
sevi@@ 14
singer 14
site 14
six 14
siz@@ 14
sohn 14
ste 14
stock 14
sue 14
suit 14
syndrome 14
tadores 14
takri@@ 14
tas 14
tav@@ 14
tax@@ 14
tea 14
team 14
tekn@@ 14
tens 14
their 14
theory 14
tiger 14
tik 14
tual 14
tur 14
tz@@ 14
ulizo 14
usion 14
vamp@@ 14
variable 14
vent 14
vies 14
vs 14
vs. 14
wart 14
water@@ 14
when 14
where 14
who 14
wom@@ 14
xes 14
yere 14
ém 14
érieure 14
öy 14
ún 14
ă 14
Đ@@ 14
ński 14
ő@@ 14
Ś@@ 14
Σ@@ 14
χ@@ 14
евич 14
ј@@ 14
الج@@ 14
ب@@ 14
بع@@ 14
بَ@@ 14
عَ@@ 14
ف@@ 14
ق 14
ق@@ 14
مَ@@ 14
مْ 14
ية 14
ܡ@@ 14
ṯ@@ 14
ἐ@@ 14
Ἐ@@ 14
一@@ 14
中 14
人 14
林 14
男 14
1.5@@ 13
1628 13
1664 13
1672 13
1731 13
1735 13
1743 13
1752 13
1755 13
2023 13
AX 13
Agus@@ 13
Anc@@ 13
Anh@@ 13
Anime 13
Around 13
Avi@@ 13
Aç@@ 13
BB 13
Balt@@ 13
Beşiktaş 13
Blanche 13
Brau@@ 13
Büt@@ 13
COM 13
Calli@@ 13
Cao 13
Cari@@ 13
Carroll 13
Catalina 13
Chevrolet 13
Christi 13
Claudio 13
Clay 13
Cold 13
Cristó@@ 13
Croix 13
Darmstadt 13
Dies@@ 13
Dietrich 13
Dutch 13
ED@@ 13
Electric 13
Elek@@ 13
Ferdin@@ 13
Fiction 13
Fig@@ 13
Gius@@ 13
Glas@@ 13
Gregor 13
Guard 13
Guillermo 13
Guin@@ 13
Heid@@ 13
Hockey 13
Hog@@ 13
Identi@@ 13
Innov@@ 13
Innsbruck 13
Ins@@ 13
Integr@@ 13
Irel@@ 13
Joachim 13
Kieb@@ 13
Kra@@ 13
Lach@@ 13
Lenn@@ 13
Libre 13
Llan@@ 13
López 13
ML 13
Madeleine 13
Mey@@ 13
Mez@@ 13
Montréal 13
Murcia 13
ND 13
NS 13
Nac@@ 13
Nash@@ 13
Normandie 13
OR 13
OR@@ 13
Obr@@ 13
Once 13
Operation 13
PI@@ 13
Para 13
Peña 13
Philharmon@@ 13
Phys@@ 13
Port@@ 13
Premio 13
Primera 13
Quin@@ 13
Québec 13
RN 13
Reich 13
Roche 13
Rodol@@ 13
Roi 13
Romero 13
Roth@@ 13
Round 13
Ríos 13
SD@@ 13
SH 13
SO 13
Snow 13
Sub 13
Tach@@ 13
Trin@@ 13
Trom@@ 13
V.@@ 13
Vad@@ 13
Valle 13
Vers@@ 13
Vinh 13
Welsh 13
Yug@@ 13
ability 13
aces 13
actylus 13
against 13
ahn@@ 13
ails 13
alled 13
appy 13
aque 13
atives 13
atos 13
aum 13
bacteri@@ 13
best@@ 13
bic@@ 13
books 13
bour 13
brand@@ 13
cartes 13
cath@@ 13
cent@@ 13
chant 13
chino 13
cina 13
cle@@ 13
committee 13
crit@@ 13
critique 13
dek 13
dial 13
diam@@ 13
dice 13
eberg 13
echo 13
eden@@ 13
eff 13
endi@@ 13
enos 13
eries 13
esses 13
fait 13
fare 13
fest 13
film@@ 13
fli@@ 13
flora 13
fs 13
gal 13
girl 13
glass 13
green 13
hafen 13
harmon@@ 13
head@@ 13
hem 13
hol 13
home 13
hop@@ 13
ieux 13
inidae 13
intern@@ 13
inu 13
isburg 13
iç@@ 13
kies 13
laine 13
laya 13
layer 13
leben 13
led@@ 13
lende 13
lot 13
lyc@@ 13
lí@@ 13
matter 13
mers 13
metal 13
meteor@@ 13
mic@@ 13
mill@@ 13
mission 13
mé@@ 13
nad 13
named 13
nda 13
oceph@@ 13
oder@@ 13
okun@@ 13
ombi@@ 13
onau@@ 13
once 13
onial 13
ophi@@ 13
orama 13
organ@@ 13
oting 13
ox 13
pad@@ 13
party 13
play@@ 13
porte 13
positive 13
post@@ 13
ppen@@ 13
proc@@ 13
rats 13
road 13
run 13
sali@@ 13
sheim 13
sine 13
soci@@ 13
stein@@ 13
string 13
studi@@ 13
syst@@ 13
tag 13
telev@@ 13
tering 13
texte 13
thy@@ 13
tiers 13
tiva 13
tiy@@ 13
tois 13
trach@@ 13
track 13
traduc@@ 13
uer 13
ulation 13
ules 13
unif@@ 13
urban 13
used 13
usse 13
uzak@@ 13
vag@@ 13
vili 13
vision 13
walk 13
wear 13
wine 13
writer 13
zel 13
± 13
ày 13
ác@@ 13
ät@@ 13
édition 13
ík 13
íl@@ 13
ù@@ 13
ý 13
ý@@ 13
ıl@@ 13
ţ@@ 13
ξ@@ 13
π 13
ών 13
У@@ 13
а@@ 13
и 13
на 13
ш@@ 13
Մ@@ 13
ս@@ 13
ּ 13
ا 13
الح@@ 13
الع@@ 13
ج@@ 13
ر@@ 13
لا@@ 13
محافظة 13
هُ 13
ي@@ 13
া@@ 13
ር@@ 13
ụ@@ 13
ῦ 13
ῶ@@ 13
宮@@ 13
島@@ 13
西@@ 13
谷 13
道 13
1635 12
1638 12
1708 12
1711 12
1714 12
1718 12
1733 12
1751 12
1785 12
1980s 12
2.0@@ 12
Afgh@@ 12
Amerik@@ 12
Asturias 12
Ayr@@ 12
BR@@ 12
Bapti@@ 12
Belgrad 12
Bey 12
Biy@@ 12
Brien 12
CV@@ 12
Caracas 12
Castilla 12
Cincinnati 12
Cler@@ 12
Commerce 12
Continental 12
Danish 12
Dist@@ 12
Distribution 12
Eagles 12
Elite 12
Erich 12
Et 12
Europ@@ 12
Ex 12
Exper@@ 12
Fenerbahçe 12
Figh@@ 12
Foc@@ 12
Garonne 12
Gilles 12
Gymnasium 12
Génér@@ 12
HL 12
Haupt@@ 12
Hif@@ 12
Hyp@@ 12
Im 12
Industrial 12
Instituto 12
Int@@ 12
Jewish 12
Juvent@@ 12
Kaiser 12
Kiel 12
Label 12
Lef@@ 12
Ley@@ 12
Linz 12
Ludwig@@ 12
MVP 12
Madel@@ 12
Marguerite 12
Medal 12
Merc@@ 12
Minn@@ 12
Musik@@ 12
Má@@ 12
Mön@@ 12
Nation@@ 12
Oak@@ 12
Orléans 12
PO 12
Partn@@ 12
Pou@@ 12
RE 12
Real@@ 12
Rober@@ 12
S.A. 12
Salz@@ 12
Scr@@ 12
Segunda 12
Short 12
Sich@@ 12
Siv@@ 12
Spec@@ 12
Supre@@ 12
TT@@ 12
Tag 12
Tier@@ 12
Tigers 12
Tin 12
Torre 12
Track 12
Tradi@@ 12
Trag@@ 12
Transport 12
Trois 12
Unix 12
Wald@@ 12
Witt@@ 12
XT 12
Zimmer@@ 12
ably 12
aches 12
achus@@ 12
acu@@ 12
adal@@ 12
agnes 12
alen 12
alista 12
allos 12
alogue 12
anthus 12
aring 12
arla 12
arle 12
atal 12
atta@@ 12
auf 12
bap@@ 12
based 12
baz@@ 12
being 12
bias 12
bill@@ 12
bird 12
bles 12
blog 12
blood 12
bos 12
brit@@ 12
brücken 12
buc@@ 12
buch 12
buz@@ 12
canal 12
cent 12
cht 12
cible 12
class 12
common 12
control 12
corpor@@ 12
cot@@ 12
culture 12
development 12
dial@@ 12
dic 12
dich@@ 12
dist@@ 12
dit@@ 12
dog 12
e- 12
eburg 12
ecia 12
ees 12
egu@@ 12
ehouse 12
eil 12
eler@@ 12
emen 12
emiti@@ 12
endem@@ 12
engineering 12
erh@@ 12
essed 12
essen 12
europ@@ 12
eurs 12
eş@@ 12
fain@@ 12
fier 12
fle@@ 12
gener@@ 12
gina 12
golf 12
graph@@ 12
hasta 12
hof 12
hosts 12
hy 12
iPhone 12
iben 12
igher 12
iidae 12
ills 12
imal 12
imz@@ 12
include 12
iques 12
ird 12
isation 12
ision@@ 12
itation 12
jar 12
jos 12
kind 12
kirchen 12
kur 12
lande 12
ligh@@ 12
linear 12
logo 12
lov 12
lı 12
magne@@ 12
mass 12
mil 12
minor 12
most 12
mou@@ 12
mundo 12
nec@@ 12
neu 12
ngu@@ 12
nois 12
oft 12
olay@@ 12
olig@@ 12
onie 12
onnen 12
onu 12
others 12
oxy@@ 12
pale@@ 12
partement 12
perten@@ 12
phis 12
phys@@ 12
phố 12
porter 12
pression 12
prises 12
production 12
quit@@ 12
rau 12
raz@@ 12
region 12
related 12
released 12
reste 12
roads 12
rob@@ 12
sain@@ 12
sanc@@ 12
scher 12
sed@@ 12
segu@@ 12
sil 12
small 12
solar 12
source 12
sper@@ 12
stag@@ 12
stell@@ 12
stor@@ 12
strat@@ 12
sud@@ 12
swe@@ 12
tard 12
tex@@ 12
tigen 12
timi 12
tique 12
titu@@ 12
tril@@ 12
two 12
ufuku 12
ulos 12
uls 12
ups 12
utz 12
verse 12
vil 12
vila 12
volume 12
while 12
yard 12
ything 12
yum 12
zone 12
´ 12
Ángel 12
Â@@ 12
ç 12
ías 12
ónica 12
ôn 12
ě@@ 12
ım@@ 12
ŋ@@ 12
ũ 12
ʊ@@ 12
ʒ@@ 12
ε 12
ζ 12
λ@@ 12
να@@ 12
ρ 12
σ@@ 12
στ@@ 12
το@@ 12
Рес@@ 12
С@@ 12
в@@ 12
ский 12
Հ@@ 12
إ@@ 12
الب@@ 12
الم@@ 12
ب 12
ت 12
خ@@ 12
س@@ 12
ص@@ 12
ط@@ 12
ع@@ 12
علي 12
ّ 12
ა@@ 12
ም 12
ን@@ 12
ḇ@@ 12
ὶ 12
ー 12
二 12
太 12
清@@ 12
良@@ 12
野@@ 12
----@@ 11
1,2 11
1583 11
1687 11
1702 11
1739 11
1970s 11
3- 11
93.@@ 11
Aachen 11
Asian 11
Ave@@ 11
Away 11
BMW 11
Bew@@ 11
Bibli@@ 11
Blu 11
Bogotá 11
Boulevard 11
Bölgesi 11
CEO 11
CG 11
CH 11
Cey@@ 11
Coupe 11
Cra@@ 11
Cé@@ 11
Deutsch@@ 11
Deutschland 11
Drive 11
Duc@@ 11
Duch@@ 11
Eck@@ 11
Ensemble 11
Explorer 11
Fabr@@ 11
Felipe 11
Franken@@ 11
Fé@@ 11
GB 11
Galicia 11
Geg@@ 11
Geh@@ 11
Glass 11
Glou@@ 11
Gott@@ 11
Graf@@ 11
Gustavo 11
Handels@@ 11
Hawai@@ 11
Herrera 11
Heter@@ 11
Horn@@ 11
Hà 11
Infin@@ 11
Institu@@ 11
Instrum@@ 11
Ji 11
Kanz@@ 11
Kart@@ 11
Korean 11
Lager 11
Lept@@ 11
Libr@@ 11
Light@@ 11
Lokom@@ 11
Low 11
Malay@@ 11
Misch@@ 11
Mitch@@ 11
Montre@@ 11
Morales 11
NCA@@ 11
Natur@@ 11
Niv@@ 11
Non 11
Norwegian 11
November 11
OH 11
Olympics 11
Open@@ 11
Ortho@@ 11
PI 11
Pass 11
Plant 11
Premi@@ 11
Priv@@ 11
Professional 11
Quart@@ 11
RAM 11
Russian 11
Salamanca 11
Scho@@ 11
Sebastián 11
Sekre@@ 11
Site 11
Sr@@ 11
Stad@@ 11
Stern 11
Store 11
Student 11
Swedish 11
Syst@@ 11
Temper@@ 11
Test@@ 11
Tetr@@ 11
Tic@@ 11
Turin 11
Unic@@ 11
Universidad 11
Upon 11
Vide@@ 11
Vie 11
Vier@@ 11
Wies@@ 11
Zep@@ 11
aat@@ 11
abel 11
abilis 11
abras 11
acre 11
active 11
adas 11
agnol 11
aill@@ 11
alian 11
allo@@ 11
amber 11
americana 11
amide 11
anal 11
analysis 11
angen@@ 11
arc 11
arma 11
arms 11
arn 11
around 11
arren 11
arten 11
arı 11
assen 11
athlon 11
athol@@ 11
auth@@ 11
bium 11
bloc@@ 11
blue 11
bre 11
bun 11
caf@@ 11
care 11
case 11
cel 11
chal@@ 11
championship 11
chief 11
child 11
clar@@ 11
clear 11
clusive 11
condi@@ 11
contemporary 11
copa 11
countries 11
cript 11
cum@@ 11
date 11
dej@@ 11
det 11
dido 11
dot 11
double 11
dow 11
drive 11
dule 11
dés 11
edit@@ 11
elds 11
elt@@ 11
eme@@ 11
ements 11
emic 11
enbach 11
erei 11
esca 11
escope 11
fall 11
featured 11
fill 11
folk 11
full 11
function 11
gang 11
gau@@ 11
gestr@@ 11
good 11
grou@@ 11
hin 11
hydr@@ 11
hyp@@ 11
icz 11
idential 11
ight@@ 11
illar@@ 11
illes 11
iness 11
isse 11
istin 11
kil 11
kiye 11
kleri 11
kow 11
koy@@ 11
l. 11
langen 11
ld 11
league 11
lida 11
loss@@ 11
m2 11
maal@@ 11
mak 11
management 11
manch@@ 11
mann@@ 11
membran@@ 11
mid 11
movement 11
mud@@ 11
nal 11
nic 11
nitz 11
nou@@ 11
odes 11
odon 11
ofre@@ 11
oil 11
olina 11
ologist 11
olor 11
onium 11
onnais 11
opter@@ 11
organ 11
orig@@ 11
oring 11
osas 11
osus 11
oty@@ 11
outre 11
ovsky 11
plic@@ 11
ports 11
province 11
pyr@@ 11
rac@@ 11
rang@@ 11
rant 11
ray@@ 11
recht 11
rest 11
ril@@ 11
rir 11
ritt 11
role 11
rég@@ 11
scale 11
schen@@ 11
script 11
seas 11
sed 11
semb@@ 11
send 11
sequ@@ 11
seri 11
sign@@ 11
siy@@ 11
skaya 11
sn@@ 11
social 11
sof@@ 11
sports 11
spot 11
syl@@ 11
sym@@ 11
systems 11
talk 11
terminal 11
tern@@ 11
terns 11
thal 11
thers 11
thành 11
tillo 11
tner 11
trou@@ 11
tuber@@ 11
tés 11
ungef@@ 11
uten 11
uter 11
utionary 11
uña 11
vais 11
vert 11
verty 11
voice 11
wski 11
xo@@ 11
yeri 11
ylus 11
young 11
your 11
yro@@ 11
zap@@ 11
zel@@ 11
Æ@@ 11
Édouard 11
Öster@@ 11
Ú@@ 11
ál@@ 11
éry 11
és@@ 11
ét@@ 11
ím@@ 11
ön 11
öz@@ 11
ül@@ 11
İn@@ 11
ź 11
ž 11
ɛ 11
ʾ 11
Α@@ 11
Ε@@ 11
Μ@@ 11
ί@@ 11
εια 11
εύ@@ 11
ης 11
τη@@ 11
χ 11
а 11
ка 11
л@@ 11
ма@@ 11
т 11
ь 11
ד 11
أ@@ 11
الر@@ 11
الف@@ 11
اَ@@ 11
ة@@ 11
ث@@ 11
ملعب 11
هُ@@ 11
و@@ 11
وم 11
وَ 11
ی@@ 11
ܩ@@ 11
ር 11
ới 11
Ἄ@@ 11
‌ 11
久@@ 11
幸 11
忠@@ 11
藤@@ 11
西 11
金@@ 11
0.0 10
1.000 10
110@@ 10
1659 10
1688 10
1697 10
1699 10
1719 10
184@@ 10
2,5 10
2nd 10
5.000 10
Adem@@ 10
Adler 10
Ail@@ 10
Alger@@ 10
Alternative 10
Ark@@ 10
Arturo 10
Autonom@@ 10
BI 10
Bau 10
Before 10
Borough 10
Brist@@ 10
CPU 10
Centro 10
Château 10
Cinema 10
Contr@@ 10
Cz@@ 10
Defin@@ 10
Desp@@ 10
EE 10
EG 10
EST 10
EV@@ 10
Emperor 10
Fré@@ 10
GDP 10
Grün@@ 10
Göl@@ 10
HF 10
Hammer 10
Heinz 10
Hoa 10
Hoh@@ 10
Hòa 10
Infantry 10
Jagu@@ 10
Jakob 10
Jeff@@ 10
Joaqu@@ 10
Johannes@@ 10
Joint 10
Jürgen 10
Karlsruhe 10
Kazak@@ 10
Kons@@ 10
Laborat@@ 10
Latino 10
Lot 10
Lübeck 10
Madame 10
Mex@@ 10
Mexican 10
Mode 10
Monster 10
Music@@ 10
Mér@@ 10
Münster 10
NH 10
NT@@ 10
Naval 10
Nicaragua 10
Nicolás 10
Niedersachsen 10
Noël 10
Ord@@ 10
Ostr@@ 10
Oxy@@ 10
Part@@ 10
Pey@@ 10
Pick@@ 10
Plan 10
Pokal 10
Polic@@ 10
Polit@@ 10
Pomer@@ 10
Presse 10
Princ@@ 10
Protection 10
Racing 10
Regi@@ 10
Renault 10
SL 10
SL@@ 10
Satell@@ 10
Schools 10
Schul@@ 10
Skul@@ 10
Some 10
Sport@@ 10
Stadi@@ 10
Stoc@@ 10
Strateg@@ 10
Sty@@ 10
Sá@@ 10
Süd@@ 10
Taş@@ 10
Third 10
Ubel@@ 10
Ve@@ 10
Vice 10
Vida 10
Welt 10
Wimb@@ 10
Windsor 10
Yay@@ 10
Zeitung 10
Zug 10
Zy@@ 10
accor@@ 10
acon@@ 10
adora 10
aged 10
aging 10
alization 10
aming 10
angeb@@ 10
angeg@@ 10
aning 10
aper@@ 10
apon 10
appeared 10
areti 10
ark 10
ases 10
asure 10
ataifa 10
atas 10
avis 10
azine 10
azzo 10
aña 10
ał@@ 10
bajo 10
başı 10
bean 10
best 10
bew@@ 10
bier@@ 10
bow 10
boy@@ 10
brahim 10
bres 10
bt 10
carbon@@ 10
category 10
chs 10
cian 10
cite 10
cla@@ 10
clo@@ 10
commerce 10
contr@@ 10
cos 10
counter 10
culp@@ 10
cá@@ 10
cán 10
dead 10
degree 10
designer 10
dicha 10
dien 10
dies 10
dili 10
dire 10
dru@@ 10
echn@@ 10
egro 10
emo@@ 10
empl@@ 10
enca 10
enstr@@ 10
enth@@ 10
enthal 10
eppe 10
erin 10
eten 10
eten@@ 10
etos 10
ffs 10
flag 10
food 10
fore 10
former 10
forming 10
för@@ 10
g. 10
gery 10
gest@@ 10
gle 10
glob@@ 10
graphi@@ 10
gues 10
iOS 10
icana 10
icos 10
icul@@ 10
ilien 10
imag@@ 10
imin 10
index 10
information 10
ingen@@ 10
inning 10
inter 10
isen@@ 10
iser 10
islam@@ 10
issen 10
iten 10
jet@@ 10
junior 10
kamer@@ 10
known 10
kop 10
lak 10
legi@@ 10
limited 10
liter@@ 10
load 10
lou@@ 10
mayo 10
med 10
metabol@@ 10
mill 10
minster 10
mix 10
mur 10
mut 10
nation 10
now@@ 10
nuclear 10
né 10
ober@@ 10
oks 10
ologue 10
oqu@@ 10
orf 10
oslav@@ 10
ows 10
où 10
pendiente 10
person@@ 10
phi 10
plano 10
plant@@ 10
pose 10
power@@ 10
pre 10
pris@@ 10
protest@@ 10
published 10
quilla 10
rank 10
rd 10
reas 10
rosa 10
sci@@ 10
sekre@@ 10
service 10
shel@@ 10
shot 10
sic@@ 10
sig 10
signed 10
sino 10
sources 10
spring 10
square 10
stig@@ 10
super 10
sé@@ 10
tado 10
teo 10
terres 10
thang 10
then 10
thre@@ 10
tier@@ 10
toire 10
tom 10
tour@@ 10
uco 10
unci@@ 10
unk 10
urb@@ 10
usta 10
veda 10
veren 10
wick@@ 10
width 10
wig 10
yol 10
yurt 10
º 10
Î@@ 10
Ó@@ 10
áz@@ 10
ège 10
ées 10
éo 10
érie 10
été 10
öh@@ 10
ös@@ 10
ø 10
û@@ 10
ć@@ 10
İl@@ 10
ǎ@@ 10
ɪ 10
ʿ 10
ή 10
ει@@ 10
θ 10
ξ 10
της 10
Ро@@ 10
й 10
ль@@ 10
н@@ 10
с@@ 10
ы@@ 10
լ@@ 10
վ@@ 10
ב 10
ח 10
آ@@ 10
الدين 10
الش@@ 10
ل 10
مو@@ 10
ن 10
هِ 10
ܣ@@ 10
ስ@@ 10
ብ@@ 10
Ọ@@ 10
℟ 10
ー@@ 10
井@@ 10
介 10
健@@ 10
加@@ 10
原@@ 10
吉@@ 10
本@@ 10
武@@ 10
永@@ 10
鈴@@ 10
1- 9
1653 9
1738 9
1753 9
20. 9
4.000 9
500@@ 9
Abl@@ 9
Admir@@ 9
Ambi@@ 9
Anadolu 9
Anci@@ 9
Architecture 9
Arro@@ 9
Artic@@ 9
Assist@@ 9
BB@@ 9
BL@@ 9
Belgium 9
Between 9
Blanco 9
Bolívar 9
Brow@@ 9
Bắc 9
Classi@@ 9
Claus@@ 9
Columb@@ 9
Dem 9
Down@@ 9
Drag@@ 9
Dunk@@ 9
Dür@@ 9
Edel@@ 9
Elektron@@ 9
Er 9
Erd@@ 9
Ernesto 9
Ero@@ 9
Essen 9
Estado 9
Eugen 9
Fond@@ 9
Fra@@ 9
Grab@@ 9
Grap@@ 9
Grig@@ 9
Gü@@ 9
Gür@@ 9
HK 9
Hammer@@ 9
Hell@@ 9
Hello 9
Hernández 9
Hi 9
Highway 9
Ingen@@ 9
Jew@@ 9
Jiménez 9
Jup@@ 9
KP 9
Kü@@ 9
LED 9
Lein@@ 9
Lü@@ 9
Many 9
Master@@ 9
Mathemati@@ 9
Mehmet 9
Mej@@ 9
Metropolit@@ 9
Minister 9
Monum@@ 9
México 9
NP 9
Navarra 9
Note 9
Oro 9
Phan 9
Phúc 9
Pref@@ 9
President 9
Prof@@ 9
Pseudo@@ 9
RAF 9
RN@@ 9
Reyn@@ 9
Rus 9
SQL 9
Section 9
Sega 9
Senate 9
Somer@@ 9
Stro@@ 9
Survey 9
Tenn@@ 9
Thom@@ 9
Town@@ 9
Trang 9
Tō@@ 9
UTC 9
Ukrain@@ 9
Ulrich 9
Vé@@ 9
Ví@@ 9
Víctor 9
Wun@@ 9
Würzburg 9
Yên 9
Zamora 9
aben 9
acias 9
acos 9
acous@@ 9
acteri@@ 9
afen 9
aide 9
aile 9
aires 9
airs 9
alej@@ 9
aliers 9
alle@@ 9
along 9
alte 9
alty 9
amateur 9
ambre 9
ances 9
anistan 9
anom@@ 9
appe@@ 9
apped 9
aquel 9
article 9
aters 9
athan 9
atif 9
atures 9
atz@@ 9
aux@@ 9
available 9
avoc@@ 9
avy 9
aware 9
ayer 9
baden 9
basa 9
because 9
bed 9
before 9
blan@@ 9
blatt 9
both 9
bran@@ 9
brun@@ 9
burger 9
call 9
canti@@ 9
cap 9
carp@@ 9
century 9
channel 9
chos 9
climate 9
coll@@ 9
costa 9
cu 9
cular 9
dex 9
diz 9
document 9
domain 9
done 9
downs 9
dır@@ 9
e.org 9
eby 9
eccl@@ 9
econom@@ 9
ected 9
ecti@@ 9
ections 9
ecture 9
ectus 9
eget@@ 9
egia 9
eks 9
elen@@ 9
else 9
enario 9
enco 9
ended 9
eness 9
ential 9
ently 9
enzyme 9
eras 9
eres 9
esini 9
esque 9
ests 9
etapa 9
eters 9
etts 9
fair 9
flan@@ 9
flav@@ 9
formis 9
front 9
gall@@ 9
girls 9
gly@@ 9
government 9
grand 9
grá@@ 9
guard 9
gö@@ 9
held 9
hibit@@ 9
hibition 9
homo@@ 9
hp 9
ically 9
identi@@ 9
ifer 9
iff@@ 9
illera 9
ingue 9
integ@@ 9
irat 9
itable 9
itos 9
itr@@ 9
journ@@ 9
keting 9
klin 9
kontin@@ 9
kul 9
landa 9
lech@@ 9
lein 9
letin 9
leur 9
levels 9
lez 9
libr@@ 9
lieb 9
lied 9
links 9
logos 9
lor 9
lung 9
lé@@ 9
mass@@ 9
match 9
metr@@ 9
motor 9
multi@@ 9
mó@@ 9
nac@@ 9
neu@@ 9
nich@@ 9
nick@@ 9
nucle@@ 9
old@@ 9
olen 9
omas 9
onné 9
opti@@ 9
ordin@@ 9
oride 9
osen 9
otes 9
ought 9
oxid@@ 9
oyn@@ 9
p. 9
pain@@ 9
pant@@ 9
phila 9
phin 9
pra@@ 9
pron@@ 9
propi@@ 9
prote@@ 9
pré@@ 9
psych@@ 9
qu 9
rage 9
reo 9
required 9
rer 9
ricane 9
rim@@ 9
ring 9
rot 9
rur@@ 9
saw 9
scr@@ 9
second 9
second@@ 9
sections 9
sein@@ 9
songs 9
speed 9
spin@@ 9
stadi@@ 9
stedt 9
storm 9
such 9
suff@@ 9
taire 9
tation 9
tch@@ 9
territorial 9
theast 9
theatre 9
times 9
tram@@ 9
trial 9
trong 9
uled 9
ungs@@ 9
ungst@@ 9
uve 9
vali@@ 9
ved@@ 9
venti@@ 9
verd@@ 9
vival 9
yok 9
zed 9
zipi@@ 9
Álvar@@ 9
ét 9
ód@@ 9
ören 9
ünde 9
Ā@@ 9
Đà 9
İz@@ 9
ıl 9
ız 9
ış@@ 9
ŏ@@ 9
ʲ@@ 9
Δ@@ 9
ας 9
δ 9
η@@ 9
λλ@@ 9
λόγος 9
ο 9
ρι@@ 9
ων 9
На@@ 9
О@@ 9
Совет@@ 9
ла@@ 9
м@@ 9
н 9
публика 9
р 9
թ@@ 9
մ@@ 9
آل 9
ا@@ 9
بر@@ 9
ت@@ 9
سعيد 9
فر@@ 9
قي@@ 9
ك 9
كُ@@ 9
لِ@@ 9
من@@ 9
مي@@ 9
مُ@@ 9
نْ@@ 9
وا 9
ون@@ 9
يد 9
يل 9
ين 9
ين@@ 9
يَ@@ 9
ِ 9
ܐ@@ 9
์ 9
ክ@@ 9
የ@@ 9
ድ@@ 9
ḥ 9
ọ@@ 9
ἱ@@ 9
ὐ@@ 9
ᾶ@@ 9
二@@ 9
俊@@ 9
前@@ 9
北@@ 9
南@@ 9
史 9
宏 9
崎 9
平 9
幸@@ 9
彦 9
昌@@ 9
李@@ 9
橋 9
水@@ 9
津@@ 9
輝 9
部 9
隆@@ 9
도 9
시 9
1684 8
180@@ 8
1960s 8
8.000 8
A2 8
Acanth@@ 8
According 8
Ahmet 8
Akademi 8
Alem@@ 8
Alta 8
Alter 8
Altın@@ 8
Atel@@ 8
Austrian 8
Auth@@ 8
Avant 8
Bangkok 8
Banglad@@ 8
Baseball 8
Bayr@@ 8
Bem@@ 8
Bev@@ 8
Biel@@ 8
Blum@@ 8
Breslau 8
Brest 8
Café 8
Cher 8
Church@@ 8
Coh@@ 8
Command 8
Compu@@ 8
Con 8
Contin@@ 8
Coul@@ 8
Cous@@ 8
DT@@ 8
Dieu 8
Discovery 8
Doğ@@ 8
Dung 8
EB@@ 8
Equi@@ 8
Esteban 8
Euc@@ 8
Expl@@ 8
Fass@@ 8
Fatih 8
Faz@@ 8
Flag@@ 8
Form 8
Found@@ 8
Frag@@ 8
Fren@@ 8
Friedrich@@ 8
GN@@ 8
Garde 8
Gedi@@ 8
Gest@@ 8
Glen@@ 8
Gram@@ 8
Greece 8
Gust@@ 8
Gutiérrez 8
HD@@ 8
Hardy 8
Herz@@ 8
Herzog 8
Hex@@ 8
Hoch@@ 8
Häl@@ 8
Hér@@ 8
Hö@@ 8
Ignacio 8
Inv@@ 8
Jake 8
KS 8
Karad@@ 8
Keller 8
Krieg@@ 8
Lieb@@ 8
Lieutenant 8
Lö@@ 8
Mania 8
Mannheim 8
Miner@@ 8
Mundial 8
Musik 8
Musée 8
NAT@@ 8
Nog@@ 8
Notes 8
Nucle@@ 8
Olden@@ 8
Organiz@@ 8
Ouest 8
Palestine 8
Phú 8
Posi@@ 8
Premier@@ 8
Punk 8
Religi@@ 8
Rhein@@ 8
République 8
Sche@@ 8
Schwarz 8
Schwer@@ 8
Shadow 8
Siemens 8
Sov@@ 8
Species 8
Stevens 8
Stil@@ 8
Stir@@ 8
Stras@@ 8
Superman 8
Sơn 8
Team@@ 8
Terminal 8
Tod@@ 8
Trophy 8
UCI 8
Uc@@ 8
Ultimate 8
Utur@@ 8
Via 8
Vĩnh 8
Wald 8
Wiener 8
Wort 8
Wör@@ 8
Zimbab@@ 8
aber@@ 8
ación 8
actor 8
administration 8
admir@@ 8
afin 8
ags 8
ainer 8
aler 8
alier 8
amac@@ 8
amed 8
anced 8
angen 8
angers 8
anor@@ 8
anten 8
anyon 8
apel@@ 8
apie 8
arda 8
arios 8
arka 8
articles 8
atura 8
aun 8
ayar 8
ayla 8
aíso 8
aître 8
ağ 8
became 8
bilin@@ 8
billion 8
bind@@ 8
bodies 8
bour@@ 8
boz@@ 8
bra@@ 8
brach@@ 8
break 8
cac@@ 8
cali@@ 8
cancer 8
celles 8
champs 8
chaîne 8
chemin 8
chers 8
cht@@ 8
cias 8
cid@@ 8
cili@@ 8
coast 8
comic 8
compl@@ 8
conference 8
county 8
cru@@ 8
current 8
czy@@ 8
ded 8
deki 8
design 8
dey@@ 8
dik 8
directed 8
doch 8
documentary 8
dyn@@ 8
each 8
eas 8
economic 8
ectiv@@ 8
edge 8
eding 8
edt 8
ehir 8
ejo 8
elde 8
electronic 8
ellus 8
emble 8
emed 8
emis 8
enders 8
ending 8
endron 8
energy 8
enth 8
entu@@ 8
eous 8
eping 8
eres@@ 8
ero@@ 8
escu 8
eser 8
esian 8
etas 8
excel@@ 8
facto 8
fashion 8
fellow 8
ffen 8
fonso 8
ford@@ 8
formation 8
found 8
gare 8
gay 8
gaz 8
gem 8
genes 8
genus 8
geri 8
global 8
gold 8
govern@@ 8
gren 8
guest 8
guitar 8
gut@@ 8
hac@@ 8
hak 8
hale 8
half 8
hall 8
haut 8
health 8
hier@@ 8
hold 8
hour 8
hr 8
human 8
hund@@ 8
ician 8
icola 8
idence 8
ieh@@ 8
ilan 8
iling 8
imas 8
inking 8
ios@@ 8
ischer 8
ived 8
ière 8
jas 8
justice 8
khu@@ 8
kitap@@ 8
kowski 8
kshire 8
lac 8
lais 8
lau 8
leave 8
ledi 8
leg 8
leist@@ 8
lider 8
lingen 8
lock@@ 8
lod@@ 8
lumin@@ 8
luy@@ 8
m3 8
make 8
maker 8
manif@@ 8
market 8
mern 8
monde 8
mot 8
mpi@@ 8
multi 8
multiple 8
myth@@ 8
mâ@@ 8
narr@@ 8
natural 8
need 8
negro 8
nek 8
nership 8
observ@@ 8
odes@@ 8
ographie 8
oj 8
olf 8
oloji 8
olos 8
omb 8
ophy@@ 8
oral 8
orb@@ 8
orden 8
ored 8
organization 8
orient@@ 8
orph@@ 8
oter 8
oter@@ 8
otik 8
ources 8
ours 8
outs 8
ouvre 8
oval 8
ová 8
pal 8
parole 8
partem@@ 8
pek 8
perf@@ 8
pf@@ 8
pharm@@ 8
phia 8
plac@@ 8
played 8
pole@@ 8
prec@@ 8
prov@@ 8
provinces 8
pus@@ 8
pınar 8
race 8
religi@@ 8
requi@@ 8
resc@@ 8
ress@@ 8
rich@@ 8
ried 8
risk 8
riv@@ 8
rooms 8
sac@@ 8
score 8
scre@@ 8
sdorf 8
section 8
sello 8
septi@@ 8
serve 8
shop 8
simb@@ 8
sit 8
slo@@ 8
soit 8
soundtrack 8
south 8
spon@@ 8
sport 8
standard 8
sto@@ 8
strike 8
take 8
tank 8
tech@@ 8
templ@@ 8
tennis 8
tent 8
terre 8
theater 8
theor@@ 8
tice 8
tiles 8
tionnaire 8
tip 8
titled 8
told 8
trade 8
trag@@ 8
tral 8
trich@@ 8
tropo@@ 8
tung 8
ubil@@ 8
ufac@@ 8
ulus@@ 8
unter@@ 8
vec@@ 8
verde 8
vesti@@ 8
views 8
villa 8
visible 8
website 8
whe@@ 8
wide 8
wie 8
wth 8
xim@@ 8
yerere 8
yna 8
yor 8
ysis 8
zaf@@ 8
zug@@ 8
º@@ 8
Ál@@ 8
Ángeles 8
Çam@@ 8
Émile 8
ß 8
ã@@ 8
äs@@ 8
èse 8
ève 8
ération 8
î 8
öt@@ 8
ür@@ 8
ą@@ 8
ĩ 8
İstanbul 8
ız@@ 8
œ@@ 8
ǁ@@ 8
ɐ 8
ɑ 8
ɣ@@ 8
ɲ@@ 8
ʎ@@ 8
ˌ@@ 8
͡ 8
Τ@@ 8
δ@@ 8
ερ@@ 8
θος 8
ιος 8
ισ@@ 8
λι@@ 8
μ 8
μα 8
μα@@ 8
πι@@ 8
σ 8
σις 8
υ@@ 8
А@@ 8
Са@@ 8
Со@@ 8
ба@@ 8
ва 8
е 8
нович 8
ный 8
т@@ 8
ха@@ 8
ћ 8
ղ@@ 8
ր 8
ו 8
ע 8
ף 8
ئ@@ 8
ابن 8
الد@@ 8
الص@@ 8
الْ@@ 8
ح 8
حَ@@ 8
رة 8
سي 8
سَ@@ 8
عيد 8
لَ@@ 8
م 8
مؤ@@ 8
مة 8
مِ@@ 8
نا 8
ني 8
وط@@ 8
ير 8
يُ@@ 8
َا 8
ܠ@@ 8
ܢ@@ 8
ተ@@ 8
ṇ@@ 8
Ṣ@@ 8
Ἁ@@ 8
℣ 8
≥ 8
ン@@ 8
之 8
保 8
古@@ 8
名@@ 8
太@@ 8
子 8
孝@@ 8
州 8
泰@@ 8
渡@@ 8
澤 8
真@@ 8
輔 8
青@@ 8
대@@ 8
1,5 7
2.000 7
API 7
Academia 7
Actu@@ 7
Ai 7
Alej@@ 7
Americ@@ 7
Analy@@ 7
Arap@@ 7
Arbeiter@@ 7
Argent@@ 7
Aun@@ 7
Aven@@ 7
Balkan 7
Bavi@@ 7
Baş@@ 7
Beno@@ 7
Bernh@@ 7
Braunschweig 7
Bü@@ 7
CAR 7
Cathol@@ 7
Chamber 7
Chanc@@ 7
Charts 7
Christoph 7
Comic 7
Comté 7
Cover 7
Cré@@ 7
Design@@ 7
Develop@@ 7
Dieter 7
Distr@@ 7
Dos 7
Dry@@ 7
Dyn@@ 7
Eh@@ 7
Elena 7
Elim@@ 7
Episode 7
Ese 7
Esper@@ 7
Est 7
Euro@@ 7
Executive 7
F1 7
Franche 7
Front@@ 7
Fédération 7
GT@@ 7
Gia 7
Glau@@ 7
Grou@@ 7
Gör@@ 7
HR 7
Hac@@ 7
Hauts 7
Histoire 7
Horse 7
However 7
Hr@@ 7
Illustr@@ 7
Indon@@ 7
Internacional 7
Julien 7
Kern 7
Klein@@ 7
Kli@@ 7
Kras@@ 7
Lambert 7
Lands@@ 7
MHz 7
Marin@@ 7
Mehmed 7
Member 7
Municipality 7
Muse@@ 7
National@@ 7
Ngh@@ 7
Occit@@ 7
Palais 7
Pale@@ 7
Personal 7
Pfe@@ 7
Phi 7
Pont 7
Programm@@ 7
Prus@@ 7
Psych@@ 7
Queens@@ 7
Ruta 7
SK@@ 7
SR@@ 7
Salon 7
Savo@@ 7
Savoie 7
Sech@@ 7
Secretary 7
Sens@@ 7
Sie@@ 7
Ski@@ 7
Stell@@ 7
Stic@@ 7
Swed@@ 7
Teatro 7
Tecn@@ 7
Tennis 7
Thé@@ 7
Treaty 7
Turkish 7
UI 7
UV 7
Ungu@@ 7
Verte@@ 7
Victor@@ 7
Virgin@@ 7
Wahr@@ 7
Wei@@ 7
Westfalen 7
Wrest@@ 7
XP 7
Xu@@ 7
abeth 7
acles 7
addition 7
adow 7
agent 7
aham 7
aillon 7
ained 7
aissance 7
albums 7
alda 7
alias 7
alien 7
als@@ 7
alumin@@ 7
ambas 7
amework 7
among 7
amos 7
animation 7
anma 7
anni@@ 7
annis 7
aper 7
appel 7
apping 7
archiv@@ 7
asen 7
asse@@ 7
astal 7
atori@@ 7
attack 7
aue 7
avuk@@ 7
ayak 7
ayos 7
ağı 7
aşa 7
background 7
base 7
basketball 7
bios 7
bishop 7
biy@@ 7
block 7
bons 7
border 7
brick 7
brid@@ 7
bringen 7
bru@@ 7
business 7
cao 7
carbon 7
cass@@ 7
cause 7
center 7
ched 7
children 7
ching 7
cide 7
clin@@ 7
comm@@ 7
communes 7
conc@@ 7
conf@@ 7
conquist@@ 7
cont@@ 7
content 7
copies 7
counter@@ 7
covered 7
cristi@@ 7
death 7
debut 7
deep 7
deo 7
dile 7
dimension 7
direc@@ 7
doctor 7
drei 7
dry 7
due 7
during 7
durumu 7
départem@@ 7
early 7
eban 7
eces 7
ecr@@ 7
educ@@ 7
effect 7
ehr 7
ej 7
ekt@@ 7
elier 7
elsen 7
emis@@ 7
enr@@ 7
entale 7
entation 7
erc@@ 7
erde 7
erne 7
erte 7
ería 7
esel 7
eseri 7
eses 7
estone 7
event@@ 7
extr@@ 7
famili@@ 7
faz@@ 7
featuring 7
fen 7
festival 7
films 7
following 7
foot@@ 7
forest 7
fron@@ 7
ft@@ 7
future 7
gag@@ 7
gebir@@ 7
gency 7
gend 7
given 7
gos 7
grap@@ 7
holz 7
hous@@ 7
ibil@@ 7
idari 7
idos 7
idé 7
iers 7
ific@@ 7
illed 7
inals 7
ineers 7
iron 7
isinin 7
isol@@ 7
issi@@ 7
itan 7
itter 7
journal 7
just 7
kanal 7
laim@@ 7
lass 7
lead@@ 7
letter 7
lex 7
lig 7
lista 7
look 7
ls@@ 7
lub 7
lum@@ 7
lö@@ 7
masa 7
medieval 7
mex@@ 7
modern 7
morph@@ 7
motion 7
musical 7
n. 7
nationale 7
natur@@ 7
newspaper 7
nez 7
nä@@ 7
obil@@ 7
ocarp@@ 7
office 7
oman@@ 7
omina 7
omun@@ 7
orik 7
ork@@ 7
otyp@@ 7
ouch@@ 7
oven 7
pack@@ 7
pais@@ 7
phyl@@ 7
physical 7
pie 7
piece 7
plan 7
player 7
pler@@ 7
pore 7
porters 7
possible 7
postul@@ 7
ppe 7
prak@@ 7
prise 7
private 7
prud@@ 7
pseud@@ 7
pt 7
pter@@ 7
punk 7
quality 7
radio@@ 7
rama 7
reality 7
rection 7
resp@@ 7
resse 7
resto 7
retr@@ 7
ride 7
rise 7
rul@@ 7
rév@@ 7
saire 7
satellite 7
scar 7
sciences 7
sene 7
senior 7
sens 7
services 7
sessions 7
sex@@ 7
sif 7
silver 7
simul@@ 7
since 7
sional 7
sport@@ 7
stable 7
staff 7
start 7
status 7
steel 7
stories 7
straße 7
sub 7
sule 7
symp@@ 7
synth@@ 7
tant 7
tant@@ 7
teau 7
technique 7
technology 7
tei 7
tek 7
tex 7
thetic 7
thly 7
tically 7
timate 7
tipi 7
tire 7
titude 7
toma 7
toms 7
touch@@ 7
tour 7
tov@@ 7
translation 7
tris 7
tured 7
turn@@ 7
ucle@@ 7
udur 7
university 7
ural 7
vac@@ 7
variables 7
ved 7
veget@@ 7
vention 7
ves@@ 7
vide@@ 7
viera 7
weather 7
web 7
weil 7
west@@ 7
what 7
wings 7
work@@ 7
xin 7
xy@@ 7
yakal@@ 7
yans@@ 7
youth 7
yph@@ 7
zay@@ 7
zey@@ 7
ziti@@ 7
ziy@@ 7
zona 7
ß@@ 7
áng 7
énie 7
úl 7
üt@@ 7
üzel@@ 7
Ć@@ 7
ır 7
ıt 7
ř@@ 7
ʉ 7
ʊ 7
Ι@@ 7
Κύ@@ 7
ά@@ 7
άς 7
έλ@@ 7
ή@@ 7
αι@@ 7
εία 7
ζ@@ 7
λα@@ 7
ου@@ 7
πος 7
σιος 7
τιος 7
ό@@ 7
όκ@@ 7
И@@ 7
б@@ 7
в 7
вич 7
з@@ 7
и@@ 7
ко 7
ная 7
пе@@ 7
сь@@ 7
ц@@ 7
ї@@ 7
ә 7
ә@@ 7
Ե@@ 7
Ս@@ 7
ց@@ 7
ֲ@@ 7
أن@@ 7
اس@@ 7
الأ@@ 7
الخ@@ 7
الغ@@ 7
الكويت 7
الل@@ 7
اللَّ@@ 7
بة 7
بي@@ 7
تُ@@ 7
ج 7
ر 7
ست@@ 7
طر@@ 7
علی 7
فِ@@ 7
لل@@ 7
ور 7
ور@@ 7
وس@@ 7
ولی 7
ٱ@@ 7
ܥ@@ 7
ი 7
ი@@ 7
ნ@@ 7
ት 7
ያ@@ 7
ደ@@ 7
ግ@@ 7
ḏ@@ 7
ṃ@@ 7
ẵ@@ 7
ῦ@@ 7
ク@@ 7
仁 7
光@@ 7
内 7
千@@ 7
博@@ 7
岡 7
崎@@ 7
平@@ 7
弘 7
徳@@ 7
志 7
戸@@ 7
明 7
朗 7
木@@ 7
江@@ 7
海@@ 7
石@@ 7
神@@ 7
茂@@ 7
行 7
谷@@ 7
近@@ 7
都@@ 7
한@@ 7
𝄆 7
𝄇 7
.-@@ 6
100.000 6
12th 6
150@@ 6
1661 6
1990s 6
2,7 6
2- 6
7.000 6
9th 6
Acker@@ 6
Akad@@ 6
Alcal@@ 6
Alle@@ 6
Alre@@ 6
Atlantique 6
Ayd@@ 6
Ağ@@ 6
BSD 6
Bank@@ 6
Berliner 6
Bier@@ 6
Biography 6
Blat@@ 6
Bon 6
Bourbon 6
Brasil 6
Braun@@ 6
Bris@@ 6
Brut@@ 6
Bruxelles 6
Bä@@ 6
Böl@@ 6
Califor@@ 6
Castillo 6
Celle 6
Cem@@ 6
Cemetery 6
Chinese 6
Colonia 6
Concep@@ 6
Craw@@ 6
Critical 6
Cultura 6
DAP 6
Darm@@ 6
Demir@@ 6
Deutscher 6
Director 6
Ebene 6
Ede@@ 6
Febru@@ 6
Feli@@ 6
Fleet 6
Formation 6
Funk@@ 6
GP 6
Geschichte 6
GmbH 6
Gord@@ 6
Govern@@ 6
Graf 6
Groß@@ 6
Guerra 6
Gä@@ 6
Harv@@ 6
Hik@@ 6
Hiz@@ 6
Huế 6
Hymenoptera 6
Inst@@ 6
Intel@@ 6
Islas 6
Jard@@ 6
Kard@@ 6
Karls@@ 6
Kathol@@ 6
Kind 6
Kinder@@ 6
Kirche 6
Koc@@ 6
Kran@@ 6
Kurz@@ 6
Kızıl@@ 6
Kō@@ 6
Lan 6
Landes 6
Later 6
Latino@@ 6
Lomb@@ 6
Marse@@ 6
Materi@@ 6
Metal 6
Metall@@ 6
Metro@@ 6
Mtag@@ 6
Munici@@ 6
Museo 6
Napo@@ 6
Neustadt 6
Nisan 6
Nuestra 6
Obl@@ 6
Orient 6
Paci@@ 6
Parc 6
Parliament 6
Parti 6
Partido 6
Pfalz 6
Phong 6
Poc@@ 6
Premios 6
Première 6
Program@@ 6
Provin@@ 6
Pub@@ 6
Quel@@ 6
Rat 6
Rech@@ 6
Religion 6
Ritter 6
Rivera 6
Rostock 6
SB@@ 6
SG 6
Schen@@ 6
Schil@@ 6
Schle@@ 6
Schn@@ 6
Schutz 6
Sen 6
Señora 6
Shakespe@@ 6
Sin 6
Slov@@ 6
Sommer 6
Sour@@ 6
Stif@@ 6
Sus 6
Symph@@ 6
Sân 6
Test 6
Thái 6
Treat@@ 6
Tuy 6
Tàu 6
Türk 6
UFC 6
UR 6
USB 6
Urban@@ 6
WI 6
WTA 6
Yeşil@@ 6
Zuk@@ 6
abou@@ 6
acios 6
actions 6
adet 6
adier 6
adt 6
adult 6
affe 6
again 6
aklı 6
aktu@@ 6
alber@@ 6
allar 6
althy 6
alto 6
amak 6
amarca 6
ambass@@ 6
amm 6
angew@@ 6
angs@@ 6
anot@@ 6
antik 6
appel@@ 6
aps 6
arca 6
archae@@ 6
arco 6
arde 6
arding 6
arien 6
ariz@@ 6
arly 6
arre 6
asal 6
ations@@ 6
atte 6
auc@@ 6
aught 6
avec 6
aí@@ 6
ağ@@ 6
bane 6
bas 6
batt@@ 6
beau@@ 6
bell 6
bere@@ 6
bern@@ 6
between 6
big@@ 6
bill 6
bine 6
bita 6
bitir@@ 6
bli@@ 6
boards 6
broad@@ 6
brothers 6
cad@@ 6
calend@@ 6
cannot 6
cau@@ 6
caus@@ 6
cay@@ 6
central 6
chain 6
chev@@ 6
chr@@ 6
ché 6
cim@@ 6
cities 6
cles 6
coin 6
college 6
comedy 6
community 6
comput@@ 6
concer@@ 6
conten@@ 6
contin@@ 6
conven@@ 6
cover@@ 6
craft 6
cros@@ 6
cré@@ 6
culus 6
cycl@@ 6
cylin@@ 6
dau@@ 6
days 6
deal 6
defin@@ 6
desi 6
device 6
differ@@ 6
dimen@@ 6
director 6
disc 6
disput@@ 6
divin@@ 6
donde 6
driver 6
east 6
eben@@ 6
ebook 6
ecken@@ 6
eher 6
eled 6
elli@@ 6
eln 6
emark 6
emey@@ 6
emin 6
empire 6
encies 6
ends 6
enem@@ 6
enfeld 6
enin 6
enor@@ 6
enstein 6
entum 6
erung 6
escul@@ 6
esqu@@ 6
esser 6
estar 6
ets@@ 6
ettes 6
ettin 6
falls 6
fang 6
fauna 6
feature 6
feh@@ 6
femmes 6
fiction 6
files 6
filos@@ 6
foundation 6
français 6
fruit 6
fs@@ 6
games 6
garten 6
gel 6
general 6
geti@@ 6
gios 6
gira 6
gram@@ 6
help 6
hoan 6
hockey 6
homme 6
hotel 6
iP@@ 6
ichen 6
icop@@ 6
ided 6
ident@@ 6
iders 6
idor 6
ienne 6
iev@@ 6
igos 6
ikili 6
iled 6
iment 6
imit@@ 6
industry 6
inen 6
iner@@ 6
institu@@ 6
integr@@ 6
intel@@ 6
intr@@ 6
introduction 6
ishes 6
ishing 6
isie 6
isine 6
isme 6
ispo 6
issu@@ 6
istics 6
istik 6
itre 6
iş@@ 6
job 6
jour 6
khu 6
kilom@@ 6
lana 6
lateral 6
lead 6
lement 6
lemente 6
liche 6
line@@ 6
link 6
living 6
lá@@ 6
material 6
mede 6
member 6
memory 6
merc@@ 6
method 6
miento 6
minton 6
missions 6
modern@@ 6
money 6
musician 6
must 6
nant 6
ney@@ 6
numbers 6
numer@@ 6
ockey 6
odos 6
offic@@ 6
official 6
ogle 6
okul@@ 6
olas@@ 6
olma 6
ombie 6
omen 6
omorph@@ 6
onado 6
oned 6
onen 6
ophora 6
opping 6
osper@@ 6
otur@@ 6
ouse 6
partei 6
past 6
pendi@@ 6
period 6
pers@@ 6
peti@@ 6
pez 6
pid@@ 6
platz 6
playing 6
police 6
political 6
portal 6
poss@@ 6
pref@@ 6
present 6
pressure 6
prime 6
provided 6
quir@@ 6
quot@@ 6
rad 6
rail 6
ranked 6
reaction 6
received 6
record 6
reference 6
reli@@ 6
rent 6
repar@@ 6
reper@@ 6
resist@@ 6
reti@@ 6
rights 6
robot 6
roch@@ 6
ré 6
scheid 6
scrip@@ 6
search 6
sens@@ 6
served 6
sett@@ 6
shell 6
should 6
show@@ 6
sign 6
sii 6
simil@@ 6
size 6
soc@@ 6
society 6
sole 6
sound 6
spiritu@@ 6
stage 6
stas 6
stel@@ 6
sth@@ 6
stitu@@ 6
story 6
stre@@ 6
stream 6
stric@@ 6
study 6
subject 6
suc@@ 6
summer 6
tail 6
tane 6
taş 6
techn@@ 6
teil 6
tempor@@ 6
territory 6
terror@@ 6
there 6
think 6
thoph@@ 6
three 6
thum@@ 6
thé@@ 6
tible 6
tide 6
tien 6
till@@ 6
tiques 6
tit 6
tières 6
torio 6
tracks 6
tradi@@ 6
translated 6
tribut@@ 6
trio 6
tuğ@@ 6
té@@ 6
ults 6
unción 6
unders 6
ungen 6
unun 6
uros 6
user 6
usine 6
ution@@ 6
verein 6
videos 6
vill@@ 6
village 6
vière 6
voir 6
vot@@ 6
vé 6
want 6
watch 6
wech@@ 6
wich@@ 6
wind 6
woh@@ 6
wood@@ 6
writing 6
zada 6
zes 6
zh 6
¥ 6
Ä@@ 6
Ü@@ 6
áo 6
ân@@ 6
äng@@ 6
är 6
èche 6
èg@@ 6
éch@@ 6
éti@@ 6
írit@@ 6
ît 6
ñez 6
òn 6
ól@@ 6
ón@@ 6
õ 6
ört@@ 6
öss@@ 6
ús 6
û 6
über 6
üm 6
üs@@ 6
ıt@@ 6
ś 6
ũng 6
ǐ 6
ǒ@@ 6
ș@@ 6
ʁ 6
ʃ 6
ʋ@@ 6
ʌ@@ 6
ʔ@@ 6
̣ 6
͵ 6
Ζ@@ 6
Θ@@ 6
Φ@@ 6
άσ@@ 6
ίας 6
ια 6
ις 6
κυ@@ 6
λ 6
οι 6
ομ@@ 6
ού@@ 6
πλ@@ 6
πολι@@ 6
ριος 6
ρο@@ 6
ώ@@ 6
Б@@ 6
Владимирович 6
К@@ 6
Ма@@ 6
Ра@@ 6
Та@@ 6
г@@ 6
за@@ 6
к@@ 6
л 6
м 6
о 6
о@@ 6
ро@@ 6
у@@ 6
Қ@@ 6
қ@@ 6
բ@@ 6
գ@@ 6
կ 6
ս 6
ֱ@@ 6
ַ 6
ט@@ 6
ק 6
ש 6
، 6
أبو 6
اب 6
اب@@ 6
الت@@ 6
الز@@ 6
الق@@ 6
الك@@ 6
تَ@@ 6
خان 6
دا@@ 6
در@@ 6
ش 6
شن@@ 6
ط 6
ع 6
عر@@ 6
فة 6
فَ@@ 6
قَ@@ 6
كَ@@ 6
نْ 6
وا@@ 6
وادي 6
وي 6
يوم 6
کل 6
ക@@ 6
ል 6
ሕ@@ 6
መ@@ 6
ማ@@ 6
ም@@ 6
ራ 6
ት@@ 6
ኢ@@ 6
ይ@@ 6
ዮ@@ 6
ፍ@@ 6
ḗ@@ 6
ắ@@ 6
Ἅ@@ 6
Ἡ@@ 6
い@@ 6
久 6
信@@ 6
剛 6
友@@ 6
周@@ 6
富@@ 6
岩@@ 6
州市 6
康@@ 6
志@@ 6
敏@@ 6
朝 6
橋@@ 6
永 6
江 6
生 6
秀@@ 6
秋@@ 6
立@@ 6
美 6
蔵 6
裕@@ 6
貴@@ 6
賀@@ 6
輝@@ 6
那@@ 6
重@@ 6
隆 6
雅@@ 6
남@@ 6
안@@ 6
주@@ 6
 6
﻿ 6
0,1 5
1,3 5
10.000 5
183@@ 5
1950s 5
19th 5
2,3 5
3,4 5
3,5 5
3.000 5
3rd 5
4,5 5
4- 5
6th 5
8,5 5
A4 5
Adap@@ 5
Alfre@@ 5
Aquit@@ 5
Arte 5
Ay 5
Azerbaij@@ 5
Battalion 5
Belgique 5
Biblioteca 5
Bien 5
Bourg@@ 5
Buddh@@ 5
Bà 5
CLC 5
Caballer@@ 5
Cela 5
Chili 5
Cinc@@ 5
Common@@ 5
Compagnie 5
Conserv@@ 5
Constantinople 5
Construc@@ 5
Corpor@@ 5
Corte 5
Cá@@ 5
Cádiz 5
Dach@@ 5
December 5
Demok@@ 5
Deniz 5
Deux 5
Dial@@ 5
Draft 5
Dres@@ 5
Dương 5
EX@@ 5
Edu@@ 5
Eich@@ 5
Ein 5
Euphor@@ 5
Fiat 5
Fighter 5
Français 5
Frei@@ 5
Ged@@ 5
Groupe 5
Gé@@ 5
Gén@@ 5
Hessen 5
Hochschule 5
Holz@@ 5
Hóa 5
Höhe 5
Hü@@ 5
Hải 5
Hồ 5
Illus@@ 5
Inform@@ 5
Interior 5
Isra@@ 5
Jeunesse 5
Joaquín 5
Judge 5
Kazakh@@ 5
Kraft 5
Kunst@@ 5
Kä@@ 5
Köpr@@ 5
Kül@@ 5
Kün@@ 5
Labor 5
Legislative 5
Leic@@ 5
Macedonia 5
Manager 5
Manche 5
Mart 5
Milit@@ 5
Montpel@@ 5
Mord@@ 5
Muñ@@ 5
Myth@@ 5
Méd@@ 5
Mü@@ 5
Mül@@ 5
Napoléon 5
Nieder@@ 5
Nordrhein 5
Normal 5
Okinawa 5
Olimpi@@ 5
Organ@@ 5
Parish 5
Peti@@ 5
Phan@@ 5
Prov@@ 5
Provincial 5
Puente 5
Ramírez 5
Recon@@ 5
Reform 5
Represent@@ 5
República 5
Resol@@ 5
Rhin 5
Roo@@ 5
Rotten 5
Révolution 5
Rü@@ 5
Sail@@ 5
Schl@@ 5
Short@@ 5
Sied@@ 5
Since 5
Sozial@@ 5
Speci@@ 5
Stern@@ 5
Stim@@ 5
Sén@@ 5
Sü@@ 5
Tarihi 5
Tats@@ 5
Testament 5
Thema 5
Then 5
Todos 5
Tournament 5
Train@@ 5
Tri 5
Tribunal 5
Tunnel 5
Ukr@@ 5
Unter@@ 5
Veter@@ 5
Việt 5
Voivodeship 5
Volks@@ 5
Voll@@ 5
Völ@@ 5
While 5
Wii 5
Wimbledon 5
Work@@ 5
Xuân 5
Yıl@@ 5
Zeit@@ 5
above 5
acab@@ 5
accoun@@ 5
acting 5
adap@@ 5
adele 5
ador@@ 5
aer 5
agers 5
agram 5
aled 5
alise 5
alma 5
along@@ 5
alth 5
amento 5
amik 5
ample 5
ancement 5
anci@@ 5
andinav@@ 5
anlı 5
anst@@ 5
appelle 5
archi@@ 5
architecture 5
argentina 5
arm 5
arrive 5
aría 5
aser 5
association 5
aths 5
atique 5
aute 5
auto 5
axe 5
axis 5
ayd@@ 5
aç 5
ağaç 5
bacher 5
bahnhof 5
bang 5
bile 5
bing 5
birisi 5
bottom 5
brevi@@ 5
cable 5
called 5
camp 5
capital 5
cardi@@ 5
cens@@ 5
centre 5
char 5
character 5
chas 5
christ@@ 5
chré@@ 5
civiliz@@ 5
closed 5
cog@@ 5
collaboration 5
colum@@ 5
comedi@@ 5
commerci@@ 5
commun 5
communication 5
compati@@ 5
competition 5
concert 5
conduc@@ 5
consid@@ 5
consol@@ 5
count 5
cricket 5
cryp@@ 5
cue 5
cultural 5
dans 5
def 5
defeated 5
deh@@ 5
design@@ 5
dict@@ 5
diger 5
dioc@@ 5
distributed 5
divided 5
dix 5
document@@ 5
doğ@@ 5
doğan 5
déf@@ 5
dó@@ 5
ear 5
eben 5
ecting 5
eder 5
eines 5
election 5
eleme 5
enant 5
enges@@ 5
ennis 5
enses 5
enten 5
essel 5
estate 5
ested 5
ethe 5
eting 5
etk@@ 5
etle 5
eval 5
every 5
exemple 5
expected 5
eyes 5
famil@@ 5
fans 5
features 5
fee 5
felt 5
female 5
fest@@ 5
fico 5
fight 5
final 5
financial 5
footballer 5
forz@@ 5
founded 5
frag@@ 5
freedom 5
frequency 5
fue 5
fy 5
fır@@ 5
gabe 5
galax@@ 5
ganz@@ 5
gender 5
gesellschaft 5
gets 5
gium 5
give 5
great 5
hall@@ 5
hardt 5
hey@@ 5
hig 5
hijo 5
histori@@ 5
hits 5
honneur 5
hoy 5
huiti@@ 5
human@@ 5
icien 5
idaceae 5
ied 5
ield 5
ifolia 5
iges 5
illet 5
inaug@@ 5
indir@@ 5
ineer 5
insel 5
interpre@@ 5
inté@@ 5
island 5
issance 5
isser 5
istes 5
istische 5
istère 5
itage 5
itself 5
izen 5
jury 5
kais@@ 5
kamu 5
karar@@ 5
kathol@@ 5
kek 5
kent@@ 5
khi 5
kho 5
kit 5
klasse 5
kli@@ 5
knapp 5
know@@ 5
komedi 5
kurum@@ 5
lange 5
legal 5
lege 5
lek 5
lera 5
leti 5
leyball 5
lieg@@ 5
limit@@ 5
liner 5
lique 5
lisi 5
located 5
lul@@ 5
macro@@ 5
major 5
makin@@ 5
mant@@ 5
mess@@ 5
meter 5
metre 5
middle 5
mile 5
mortal@@ 5
much@@ 5
murder 5
museum 5
nach 5
national@@ 5
nature 5
neau 5
nem@@ 5
nete 5
noir 5
nomination 5
north 5
note 5
notes 5
novela 5
nt 5
nutri@@ 5
object 5
officer 5
officially 5
ogie 5
oloj@@ 5
oniidae 5
onik 5
onist 5
onome 5
ophyl@@ 5
ople 5
osc@@ 5
ourg 5
ovice 5
pages 5
painting 5
panel 5
parall@@ 5
parec@@ 5
paro@@ 5
parti 5
pass 5
path 5
pays 5
persona 5
peso 5
phab@@ 5
phase 5
philus 5
phones 5
physi@@ 5
pico 5
pis@@ 5
plen@@ 5
popular 5
portun@@ 5
pound 5
pres 5
presa 5
primary 5
prob@@ 5
produced 5
product 5
project 5
propri@@ 5
psy@@ 5
puerto 5
quad@@ 5
queda 5
ques@@ 5
rain@@ 5
range 5
rar@@ 5
rede 5
refer@@ 5
reform@@ 5
regul@@ 5
release 5
remon@@ 5
rence 5
requ@@ 5
reserve 5
revolution 5
riers 5
rit 5
rière 5
roe 5
rough@@ 5
région 5
sac 5
saint 5
sas 5
says 5
schild 5
schule 5
scor@@ 5
sech@@ 5
secre@@ 5
sedi@@ 5
shausen 5
short@@ 5
shows 5
sigui@@ 5
sites 5
sold 5
solid@@ 5
soul@@ 5
southern 5
soy 5
special 5
species 5
sph@@ 5
spin 5
started 5
statement 5
stic@@ 5
stra@@ 5
strong 5
students 5
tabla 5
talent 5
tamin@@ 5
tay 5
technical 5
tees 5
tension 5
tenu 5
termin@@ 5
terr@@ 5
ticia 5
tiv 5
tivities 5
tons 5
topl@@ 5
tours 5
tradition 5
train 5
trait 5
tras 5
trat@@ 5
travel 5
treat 5
trom@@ 5
tronesia 5
trop 5
troph@@ 5
tson 5
tun 5
turn 5
typ@@ 5
ually 5
ucture 5
ular@@ 5
ummer 5
uns 5
until 5
urgo 5
urt@@ 5
usar 5
usunda 5
uwezek@@ 5
uzun@@ 5
vay 5
versions 5
vice 5
violence 5
vol 5
wall@@ 5
warf 5
wealth 5
week@@ 5
wehr 5
went 5
westen 5
wild 5
winner 5
yedi 5
yiy@@ 5
ymnas@@ 5
zt 5
® 5
âm 5
èvre 5
ì@@ 5
óc 5
ône 5
öne 5
öy@@ 5
úa 5
ür 5
þ@@ 5
Định 5
đ@@ 5
đa 5
Ē@@ 5
İsk@@ 5
ılar 5
ŋ 5
ŕ@@ 5
Şeh@@ 5
ŭ 5
ź@@ 5
ǀ 5
ʒ 5
ʕ@@ 5
̄ 5
̯ 5
Α 5
Σ 5
άν@@ 5
άρ@@ 5
έ@@ 5
ί 5
αγ@@ 5
αι 5
ακ@@ 5
αν@@ 5
απ@@ 5
βι@@ 5
γράφ@@ 5
δης 5
δι@@ 5
θη@@ 5
ικ@@ 5
ικός 5
ιον 5
κλ@@ 5
κος 5
μέ@@ 5
με@@ 5
μος 5
τρο@@ 5
των 5
υρ@@ 5
φάν@@ 5
χάρι@@ 5
ψ 5
ψ@@ 5
ύ@@ 5
ώς 5
Алек@@ 5
Г@@ 5
Иль@@ 5
Ка@@ 5
Никола@@ 5
Социалистиче@@ 5
Х@@ 5
Че@@ 5
би@@ 5
га 5
д 5
д@@ 5
евна 5
кин 5
ков 5
ла 5
море 5
нова 5
сия 5
то@@ 5
у 5
ч 5
я 5
ү@@ 5
Գ@@ 5
Վ@@ 5
ա 5
դ@@ 5
շ@@ 5
պ@@ 5
ջ@@ 5
־ 5
ס 5
ץ 5
أر@@ 5
أل@@ 5
أم@@ 5
إبراهيم 5
إل@@ 5
ار 5
البحر 5
المه@@ 5
الو@@ 5
امة 5
با@@ 5
بلا@@ 5
به 5
بْ@@ 5
جي@@ 5
حسن 5
حمد 5
خليفة 5
دي@@ 5
دَ@@ 5
را@@ 5
راء 5
رجل 5
رو@@ 5
سلطان 5
عبد@@ 5
عة 5
عل@@ 5
عن@@ 5
كت@@ 5
كر@@ 5
لا 5
مان 5
مع@@ 5
مي 5
ند@@ 5
هب 5
وب@@ 5
ولاية 5
يا 5
٢ 5
ک@@ 5
ܝ 5
ܦ@@ 5
া 5
് 5
ු@@ 5
่ 5
ვ@@ 5
ቀ@@ 5
ታ@@ 5
ን 5
ወ@@ 5
ዘ@@ 5
ያ 5
ዳ@@ 5
ገ@@ 5
ẖ@@ 5
ịa 5
ἄ@@ 5
ἔ@@ 5
Ἑ@@ 5
ἡ 5
ἡ@@ 5
Ὀ@@ 5
ὸ@@ 5
ᾶ 5
‑ 5
ⴰ@@ 5
上 5
今@@ 5
倉 5
八@@ 5
内@@ 5
勇@@ 5
勝@@ 5
四@@ 5
市@@ 5
愛@@ 5
慶@@ 5
明@@ 5
智@@ 5
杉@@ 5
東@@ 5
横@@ 5
浦 5
知@@ 5
紀 5
英@@ 5
辺 5
馬 5
국@@ 5
라 5
부@@ 5
왕 5
원@@ 5
000.000 4
1,8 4
11. 4
13th 4
18th 4
1930s 4
Abitur 4
Addi@@ 4
Admiral 4
Alben 4
Algérie 4
Aller@@ 4
Alman@@ 4
Amateur 4
Americans 4
Among 4
Anh 4
Antiqu@@ 4
Apos@@ 4
Arz@@ 4
Athle@@ 4
Auch 4
Aş@@ 4
Background 4
Barcel@@ 4
Bere@@ 4
Bild@@ 4
Biên 4
Brazilian 4
Bruch@@ 4
Bré@@ 4
Bö@@ 4
Bür@@ 4
COVI@@ 4
Canadi@@ 4
Carrera 4
Católica 4
Ce 4
Cen@@ 4
Champi@@ 4
Chef 4
Chí 4
Co. 4
Commander 4
Comme 4
Commission@@ 4
Communist 4
Compan@@ 4
Comput@@ 4
Conseil 4
Constitution 4
Cour 4
Cycl@@ 4
Cô@@ 4
Công 4
Dağı 4
Dich@@ 4
Due 4
Durant 4
During 4
Emper@@ 4
Erdoğan 4
Estadio 4
Este 4
Estudi@@ 4
Evil 4
FIBA 4
Fahr@@ 4
Flughafen 4
Franzis@@ 4
Frente 4
Fäl@@ 4
Für@@ 4
Gas 4
Gazi@@ 4
Genève 4
Groß 4
Grupo 4
Gó@@ 4
Gül@@ 4
Güter@@ 4
Halk 4
Handel 4
Haus 4
Herb@@ 4
Honor 4
Humb@@ 4
Höh@@ 4
Iber@@ 4
Industr@@ 4
Infr@@ 4
Juli 4
KV@@ 4
Kampf 4
Kanton 4
Kassel 4
Kultur@@ 4
Lam 4
Lê 4
Match 4
Meister 4
Minister@@ 4
Mit 4
Monuments 4
Mundo 4
Mühl@@ 4
NGC 4
Noctuidae 4
Ná@@ 4
Occ@@ 4
Officer 4
Ordre 4
Par 4
Parall@@ 4
Pers@@ 4
Person 4
Phone 4
Physi@@ 4
Portugu@@ 4
Pour 4
Problem 4
ROM 4
Register 4
Republic@@ 4
Rez@@ 4
Rui@@ 4
SV@@ 4
Scarab@@ 4
Schaff@@ 4
Schule 4
Sept@@ 4
Server 4
Smack@@ 4
Somme 4
Sovi@@ 4
Sovyet@@ 4
Sozi@@ 4
Spitz@@ 4
Spor 4
Sprint 4
Staat@@ 4
Staff 4
Start 4
Status 4
Stephan 4
Studien 4
Symb@@ 4
Sä@@ 4
TNA 4
Teil 4
Televisión 4
Thail@@ 4
Thuận 4
Tie@@ 4
Tomatoes 4
Trichoptera 4
Trung 4
Trọng 4
Tsch@@ 4
Type 4
UKIM@@ 4
Um 4
Unidas 4
Uno 4
Vau@@ 4
Vend@@ 4
Weih@@ 4
Welt@@ 4
With@@ 4
Yav@@ 4
Zug@@ 4
ablo 4
acak@@ 4
ached 4
acier 4
acion 4
acr@@ 4
acts 4
acul@@ 4
addi@@ 4
aded 4
administrative 4
adores 4
adul@@ 4
advanced 4
advis@@ 4
agoza 4
akademie 4
almost 4
alter 4
alter@@ 4
alı 4
amam@@ 4
americ@@ 4
amor 4
amour 4
américa 4
anensis 4
aner 4
anges 4
appear 4
application 4
appliqu@@ 4
arada 4
araz@@ 4
arden 4
areas 4
arena 4
argent@@ 4
arp@@ 4
arring 4
artic@@ 4
aseg@@ 4
askazini 4
assemb@@ 4
asses 4
atern@@ 4
ativ 4
autobi@@ 4
avant 4
ayda 4
bau 4
begin 4
believe 4
berge 4
bildung 4
bility 4
birth 4
boat 4
bois 4
bout 4
broke 4
buts 4
bür@@ 4
cada 4
cam 4
capa 4
captain 4
carri@@ 4
castle 4
cathol@@ 4
causa 4
cela 4
celebr@@ 4
cells 4
cem@@ 4
changed 4
charts 4
chemical 4
circu@@ 4
circuit 4
cke 4
class@@ 4
classified 4
clav@@ 4
clos@@ 4
colonia 4
color 4
coming 4
common@@ 4
commun@@ 4
commune 4
complete 4
conflict 4
conserv@@ 4
conservation 4
contra 4
control@@ 4
conventi@@ 4
conver@@ 4
cost@@ 4
could 4
council 4
coupe 4
cous@@ 4
cred@@ 4
crew 4
crime 4
crimin@@ 4
crita 4
critical 4
curr@@ 4
custom@@ 4
cyclo@@ 4
daily 4
daki 4
danger 4
dates 4
dating 4
deli@@ 4
deriv@@ 4
designed 4
deut@@ 4
diction 4
did 4
died 4
direct 4
direction 4
divi@@ 4
dokum@@ 4
dose 4
draft 4
dres 4
drome 4
duction 4
dul 4
duty 4
dynasty 4
ecke 4
ecta 4
edad 4
eded 4
eight 4
eld@@ 4
elder 4
electoral 4
electric 4
element 4
embran@@ 4
emos 4
encour@@ 4
enden 4
enl@@ 4
entos 4
enzy@@ 4
eption 4
error 4
espe@@ 4
esting 4
etc 4
ethnic 4
evin 4
example 4
exchange 4
f. 4
faces 4
factor 4
fair@@ 4
fav@@ 4
favor@@ 4
fell 4
femme 4
ference 4
few 4
file 4
fili@@ 4
filled 4
finale 4
fit 4
flex@@ 4
folia 4
follow@@ 4
forms 4
fort@@ 4
forte 4
franco@@ 4
friends 4
func@@ 4
garde 4
gart 4
gath@@ 4
genous 4
geschichte 4
gew@@ 4
gies 4
glau@@ 4
going 4
gol 4
gr 4
gran 4
gres@@ 4
gros@@ 4
guar@@ 4
hatt@@ 4
heat 4
heav@@ 4
heavy 4
heim@@ 4
helped 4
heren 4
hl 4
hormon@@ 4
hospital 4
icher 4
icket 4
idad 4
ification 4
iggest 4
ihr@@ 4
ihre 4
ikisi 4
ildi 4
image 4
imen 4
imine 4
immer 4
imming 4
imos 4
including 4
industri@@ 4
infl@@ 4
influence 4
inner@@ 4
interpret@@ 4
inver@@ 4
ised 4
isel 4
isions 4
issue 4
issues 4
issus 4
istas 4
iterran@@ 4
kampf 4
kler 4
krist@@ 4
lando 4
lands@@ 4
leader 4
learning 4
lern 4
lery 4
lex@@ 4
lice 4
literature 4
llama 4
llan@@ 4
logr@@ 4
lowers 4
luz 4
lyr@@ 4
magnit@@ 4
making 4
manager 4
margin@@ 4
marin 4
married 4
materials 4
mathemati@@ 4
members 4
mez 4
might 4
mind 4
minh 4
mining 4
minister 4
mis 4
mise 4
miss@@ 4
mobile 4
moment 4
mother 4
motor@@ 4
mountain 4
mule 4
mé 4
mün@@ 4
nations 4
navig@@ 4
necessary 4
neur 4
nev@@ 4
ngh@@ 4
noi 4
nomin@@ 4
nten 4
oden 4
odio 4
olan@@ 4
ologique 4
ológica 4
ondan 4
oner 4
onstr@@ 4
oper 4
orada 4
orden@@ 4
orer 4
organis@@ 4
organizations 4
orien 4
origin 4
orit@@ 4
orte 4
orthodo@@ 4
otas 4
otive 4
oute 4
oyer 4
painted 4
papel 4
param@@ 4
partic@@ 4
paşa 4
penetr@@ 4
philosoph@@ 4
pilot 4
place 4
plateau 4
plication 4
plu@@ 4
poetry 4
policy 4
portr@@ 4
position 4
potential 4
pped 4
ppen 4
president 4
princ@@ 4
prison 4
proced@@ 4
proces@@ 4
produc@@ 4
productions 4
products 4
programm@@ 4
programs 4
promot@@ 4
provid@@ 4
provide 4
préf@@ 4
pub@@ 4
puls@@ 4
quadr@@ 4
quan 4
quel 4
quin 4
r. 4
raid 4
rand@@ 4
rang 4
rating 4
read 4
recep@@ 4
recherche 4
recipi@@ 4
recognition 4
reform 4
regions 4
rek 4
relationship 4
relevant 4
resistance 4
respond@@ 4
rest@@ 4
reto 4
revol@@ 4
rien 4
riff@@ 4
rig 4
roman 4
roqu@@ 4
round 4
round@@ 4
royal 4
rt 4
saber 4
saga 4
sans 4
sao 4
saying 4
scholar@@ 4
schwe@@ 4
sede 4
seek@@ 4
sements 4
serie 4
sert 4
session 4
shap@@ 4
ships 4
sible 4
signal 4
signe 4
situation 4
six@@ 4
skir@@ 4
soccer 4
sona 4
soon 4
sor 4
spar@@ 4
speci@@ 4
spl@@ 4
stantin 4
stay 4
step 4
step@@ 4
still 4
studied 4
sty@@ 4
supr@@ 4
susp@@ 4
tabl@@ 4
tail@@ 4
takes 4
tarihi 4
taus@@ 4
teilung 4
tell@@ 4
temp@@ 4
temps 4
tenant 4
term 4
thao 4
third 4
throughout 4
tiem@@ 4
tionally 4
tora 4
tores 4
total 4
tox@@ 4
trian 4
trip 4
trol 4
true 4
tá 4
tête 4
uen 4
ulaire 4
ulimweng@@ 4
ulty 4
unca 4
undtrack 4
unid@@ 4
univers@@ 4
uren 4
usalem 4
v.@@ 4
vad@@ 4
valle 4
valley 4
vard@@ 4
various 4
verb@@ 4
verl@@ 4
vey@@ 4
virtual 4
vos 4
voy@@ 4
vr@@ 4
wann 4
who@@ 4
whole 4
wife 4
wins 4
winter 4
without 4
witz 4
working 4
worldwide 4
would 4
wow@@ 4
xu 4
xu@@ 4
yards 4
ymn@@ 4
ympi@@ 4
z. 4
zeh@@ 4
zeng@@ 4
zig 4
zor 4
zug 4
zum 4
zuz@@ 4
¢ 4
§ 4
À 4
Çay@@ 4
État 4
Ì@@ 4
Í@@ 4
Ñ@@ 4
Ön@@ 4
Ör@@ 4
àn 4
âte@@ 4
äb@@ 4
äh@@ 4
çi 4
çı 4
èn 4
èv@@ 4
édr@@ 4
égal 4
évision 4
êtes 4
ín@@ 4
ông 4
öm@@ 4
öng@@ 4
ör 4
österreich 4
öz 4
üc@@ 4
ück@@ 4
üd@@ 4
üm@@ 4
ünd@@ 4
ğ 4
ġ@@ 4
ĩa 4
Ī@@ 4
ıklı 4
ınar 4
Ľ@@ 4
ő 4
ŭ@@ 4
ų 4
ż 4
ǐ@@ 4
ț@@ 4
ɕ 4
ɫ@@ 4
ʂ@@ 4
ʹ 4
ʽ@@ 4
̃ 4
̈ 4
Ά@@ 4
Αιγ@@ 4
Β@@ 4
Η@@ 4
Θε@@ 4
Κα@@ 4
Κλ@@ 4
Λ@@ 4
Μαρία 4
Ν@@ 4
Τρί@@ 4
Υ@@ 4
Χ@@ 4
Χριστ@@ 4
ής 4
ίς 4
δό@@ 4
ειος 4
ες 4
ευ@@ 4
θρ@@ 4
ι@@ 4
ιδ@@ 4
ιλ@@ 4
ιν@@ 4
κ 4
κά@@ 4
μή@@ 4
μι@@ 4
μφ@@ 4
να 4
νη 4
οβ@@ 4
ολογία 4
ορ@@ 4
παρ@@ 4
πο@@ 4
πολογ@@ 4
πό@@ 4
πόρ@@ 4
ρί@@ 4
ρα 4
ρα@@ 4
ρη@@ 4
σος 4
σσ@@ 4
τ 4
τί@@ 4
τα@@ 4
τυ@@ 4
υν@@ 4
ων@@ 4
όν@@ 4
ώ 4
Бе@@ 4
Владимир 4
Вол@@ 4
Д@@ 4
Ки@@ 4
Ко@@ 4
Ле@@ 4
Москов@@ 4
Ру@@ 4
Свети 4
Сергей 4
Су@@ 4
Т@@ 4
То@@ 4
Укра@@ 4
Фё@@ 4
али@@ 4
би 4
ве@@ 4
ви@@ 4
г 4
гар@@ 4
град 4
да 4
дар 4
ди@@ 4
до@@ 4
ев 4
й@@ 4
ли@@ 4
не@@ 4
нов 4
п@@ 4
поль 4
рин@@ 4
с 4
ские 4
ское 4
ст@@ 4
стров 4
ха 4
э 4
э@@ 4
қ 4
Կ@@ 4
տ 4
ך 4
أحمد 4
أس@@ 4
أصول 4
إِ@@ 4
اس 4
استاد 4
اق 4
اق@@ 4
الإسلامي 4
الذ@@ 4
الرحمن 4
السوي@@ 4
الشيخ 4
العزيز 4
القي@@ 4
الي 4
ام 4
ام@@ 4
اني 4
اي@@ 4
برج 4
بلس 4
بني 4
بوس@@ 4
بيت 4
جبل 4
جمال 4
جه@@ 4
جو@@ 4
حافظ 4
حم@@ 4
حي@@ 4
دار 4
دري@@ 4
دو@@ 4
را 4
راشد 4
رب 4
رسول 4
رِ@@ 4
زبان 4
زة 4
سب@@ 4
سي@@ 4
سين@@ 4
سْ@@ 4
شة 4
طرا@@ 4
ظ 4
ظ@@ 4
عائ@@ 4
عمر 4
عيسى 4
عَلَ@@ 4
عْ@@ 4
فق@@ 4
قال 4
لة 4
لش@@ 4
لي 4
لية 4
لْ@@ 4
مار@@ 4
مج@@ 4
مَا 4
می@@ 4
نا@@ 4
ند 4
ندرية 4
نه 4
نوا@@ 4
هر@@ 4
واح@@ 4
ولی@@ 4
ير@@ 4
يم@@ 4
يو@@ 4
َّ 4
ِّ@@ 4
ّة 4
ْ 4
کم 4
کور@@ 4
ܚ@@ 4
ܟ@@ 4
ܢ 4
का@@ 4
জ@@ 4
ব@@ 4
ম@@ 4
ল@@ 4
ে@@ 4
ੰ@@ 4
් 4
ช@@ 4
ณ 4
ม 4
་ 4
ლ@@ 4
რ@@ 4
ს@@ 4
ለ@@ 4
ረ@@ 4
ሳ@@ 4
በ@@ 4
ባ@@ 4
ቤ@@ 4
ች 4
ዎ@@ 4
ዲ@@ 4
ጵ@@ 4
ḇ 4
ḍ 4
ṓ@@ 4
ạng 4
ạt 4
ến 4
ὄ@@ 4
≤ 4
々@@ 4
さ@@ 4
の@@ 4
タ@@ 4
マ@@ 4
ャ@@ 4
ル 4
ル@@ 4
上@@ 4
下@@ 4
伊@@ 4
保@@ 4
分@@ 4
取@@ 4
合@@ 4
和 4
哲@@ 4
営@@ 4
地 4
坂 4
奈@@ 4
宁 4
宇@@ 4
安 4
宏@@ 4
悟 4
手@@ 4
拓@@ 4
新@@ 4
昭@@ 4
武 4
水 4
沢 4
河@@ 4
洋 4
洋@@ 4
熊@@ 4
相@@ 4
章 4
米@@ 4
義 4
義@@ 4
茂 4
菊@@ 4
謙@@ 4
遠@@ 4
酒@@ 4
阪@@ 4
阳 4
静@@ 4
香@@ 4
鳥@@ 4
鹿@@ 4
龍@@ 4
개@@ 4
김@@ 4
동@@ 4
산 4
신@@ 4
여 4
자@@ 4
전@@ 4
청@@ 4
￼ 4
0,2 3
1,6 3
1,7 3
1,9 3
12. 3
130@@ 3
15th 3
17th 3
2,2 3
20.000 3
25.000 3
50.000 3
500.000 3
6.000 3
Akdeniz 3
Allgem@@ 3
Alten@@ 3
Amph@@ 3
Aper@@ 3
Aragón 3
Argentine 3
Arquit@@ 3
Auf 3
Autr@@ 3
Avenida 3
Banco 3
Bart 3
Basket@@ 3
Baur@@ 3
Beam@@ 3
Bezirk 3
Bien@@ 3
Blanca 3
Boden 3
Boden@@ 3
Bosna 3
Both 3
Boğaz@@ 3
Bronz@@ 3
Buch 3
Bürger@@ 3
Büyükşehir 3
Bằng 3
Canad@@ 3
Career 3
Castil@@ 3
Cet 3
Championnat 3
Châu 3
Cine 3
Colegio 3
Comité 3
Concepción 3
Constantin@@ 3
Depor@@ 3
Deutschlands 3
Dios 3
Diplo@@ 3
Distrito 3
Dör@@ 3
E9E9E9 3
Each 3
Ege 3
Egi@@ 3
Elater@@ 3
Engl@@ 3
Entre 3
Ermen@@ 3
Escu@@ 3
Eğ@@ 3
Famili@@ 3
Fener@@ 3
Fisch@@ 3
Francia 3
Frankfurter 3
Frauen@@ 3
Freih@@ 3
För@@ 3
Für 3
GR@@ 3
Galax@@ 3
Galerie 3
Game@@ 3
Gast@@ 3
Geography 3
Grenz@@ 3
Grä@@ 3
Güney@@ 3
Heim@@ 3
Helsin@@ 3
Hender@@ 3
Hohen@@ 3
Holoc@@ 3
Huy 3
Hy 3
Hür@@ 3
Hüseyin 3
Hưng 3
II. 3
INSE@@ 3
Inde 3
Independencia 3
Infrastr@@ 3
Initi@@ 3
Insel 3
Institut@@ 3
Interpre@@ 3
Israël 3
JR 3
Jaime 3
Joach@@ 3
Kandid@@ 3
Karş@@ 3
Kayn@@ 3
Kern@@ 3
Khang 3
Kreis@@ 3
Kreuz@@ 3
Kurz 3
König@@ 3
Kör@@ 3
Künste 3
Landtag 3
Lehr@@ 3
Lepto@@ 3
Link 3
Liver@@ 3
Liêu 3
Lond@@ 3
Lotus 3
Lào 3
Macar@@ 3
Megach@@ 3
Mehr@@ 3
Merkez 3
MiG 3
Minute 3
Mississi@@ 3
Mitte 3
Modell 3
Morr@@ 3
Mär@@ 3
Mét@@ 3
Mỹ 3
NHL 3
Nether@@ 3
Nguyên 3
Noctu@@ 3
Nomin@@ 3
Nouv@@ 3
Obj@@ 3
Offic@@ 3
Olí@@ 3
Oreg@@ 3
Orle@@ 3
Ost 3
Oy 3
Palacio 3
Palest@@ 3
Parte@@ 3
Particip@@ 3
Philos@@ 3
Piy@@ 3
Plot 3
Polish 3
Porsche 3
Portuguese 3
Prad@@ 3
Probl@@ 3
Pré@@ 3
Prés@@ 3
Pér@@ 3
Qualif@@ 3
Rail 3
Recht 3
Refer@@ 3
References 3
Reichs@@ 3
Reser@@ 3
Rest 3
Rheinland 3
Rue 3
Rusia 3
Russ@@ 3
Rég@@ 3
Rö@@ 3
SSR 3
STS 3
Santander 3
Santi@@ 3
Scarabaeidae 3
Schiff 3
Schiff@@ 3
Schwarz@@ 3
Schön@@ 3
Sein 3
Servic@@ 3
Señ@@ 3
Sieg 3
Singapo@@ 3
Sinh 3
Sistema 3
Sommer@@ 3
Sonder@@ 3
Sprache 3
Spre@@ 3
Statisti@@ 3
Stockh@@ 3
Strom@@ 3
Switz@@ 3
Symp@@ 3
Süper 3
Tek 3
Texte 3
Thiên 3
Théâtre 3
Thüringen 3
Thừa 3
Todo 3
Tore 3
Tout 3
Tuyên 3
Tây 3
Tä@@ 3
Tĩnh 3
Unión 3
V8 3
Vargas 3
Vek@@ 3
Verk@@ 3
Verlag 3
Vietnam@@ 3
Volk 3
Văn 3
Weit@@ 3
Within 3
XV@@ 3
Zeit 3
Zentrum 3
Zwe@@ 3
abilities 3
abled 3
abrik@@ 3
absol@@ 3
abstr@@ 3
academic 3
acas 3
acial 3
aciones 3
acqu@@ 3
acted 3
activity 3
actors 3
actr@@ 3
adop@@ 3
adver@@ 3
affaires 3
afor@@ 3
agü@@ 3
ailleurs 3
aison 3
aked 3
akla 3
aklar 3
align 3
alities 3
alité 3
allem 3
alles 3
alling 3
allows 3
alom 3
alternative 3
ambigu@@ 3
ament 3
ammed 3
ammer 3
anded 3
anderen 3
anik 3
annen 3
anno@@ 3
another 3
apons 3
appe 3
après 3
aques 3
arac@@ 3
arist@@ 3
armed 3
arrang@@ 3
arrived 3
arro@@ 3
arron@@ 3
artes 3
artiller@@ 3
artists 3
arz@@ 3
arş@@ 3
ased 3
aspor 3
assign@@ 3
assistant 3
associated 3
asty 3
ası 3
atelier 3
ativo 3
attended 3
attention 3
auch 3
auff@@ 3
auses 3
author 3
awarded 3
ayna 3
aî@@ 3
ağa 3
ağan 3
bahçe 3
bail@@ 3
baja 3
bare 3
barr@@ 3
basse 3
beit@@ 3
berg@@ 3
bien 3
birds 3
blanc 3
bombar@@ 3
bonus 3
branch 3
brother 3
building 3
bund 3
bá 3
bán 3
café 3
came 3
campus 3
canc@@ 3
capac@@ 3
career 3
cari@@ 3
carr@@ 3
casting 3
caught 3
celer@@ 3
chairman 3
challenge 3
champ 3
charge 3
chef 3
ciel 3
cil 3
ciones 3
cir 3
circum@@ 3
cker 3
clu@@ 3
coal 3
coloni@@ 3
color@@ 3
combin@@ 3
command 3
comment@@ 3
commercial 3
compar@@ 3
compil@@ 3
comple@@ 3
complex 3
compos@@ 3
composer 3
concentr@@ 3
concentration 3
configur@@ 3
constitu@@ 3
continent 3
contributions 3
cord@@ 3
coul@@ 3
couleur 3
cours 3
covering 3
covers 3
created 3
criv@@ 3
crow@@ 3
cual 3
cule 3
cup@@ 3
có@@ 3
dao 3
democ@@ 3
demok@@ 3
demokrati@@ 3
demos 3
dep@@ 3
depend@@ 3
depos@@ 3
derived 3
dern 3
described 3
detr@@ 3
deutscher 3
develop 3
developed 3
diagnos@@ 3
dici@@ 3
didn 3
dienst 3
diff@@ 3
different 3
difficile 3
difí@@ 3
dimin@@ 3
direk@@ 3
disco@@ 3
discus@@ 3
display 3
dispute 3
distribu@@ 3
districts 3
dition 3
domestic 3
dram@@ 3
dres@@ 3
drug 3
dung 3
dée 3
défense 3
démocratique 3
düz@@ 3
dı 3
earned 3
economy 3
ecu@@ 3
eden 3
editor 3
effects 3
egas 3
eigh@@ 3
einem 3
ejas 3
elements 3
ellectu@@ 3
ellip@@ 3
embar@@ 3
emed@@ 3
ement@@ 3
encer 3
encio 3
endor@@ 3
endro@@ 3
ened 3
engines 3
enov@@ 3
ensel 3
entales 3
ented 3
entier 3
enton@@ 3
entre 3
environmental 3
ept 3
ergie 3
erio 3
erre@@ 3
erste 3
esas 3
esos 3
established 3
estad@@ 3
eties 3
etten 3
etzen 3
euse 3
eventually 3
every@@ 3
evit@@ 3
exper@@ 3
expres@@ 3
ezu 3
fail@@ 3
febr@@ 3
females 3
ffield 3
fiel@@ 3
fil 3
filed 3
fine 3
finished 3
fondo 3
forma 3
founder 3
four@@ 3
fra@@ 3
front@@ 3
fuel 3
fuer@@ 3
fundament@@ 3
fäl@@ 3
gazet@@ 3
gend@@ 3
getting 3
gica 3
glaci@@ 3
grab@@ 3
grad 3
gradu@@ 3
graduate 3
grave 3
gros 3
groups 3
growth 3
gru@@ 3
gue 3
guez 3
gyp@@ 3
gä@@ 3
gó@@ 3
gün 3
habe 3
hair 3
halt 3
hands 3
hangi 3
hans 3
heur@@ 3
heures 3
hex@@ 3
hier 3
hips 3
histor@@ 3
honor@@ 3
horse 3
hosp@@ 3
hynch@@ 3
hypoth@@ 3
icht@@ 3
icts 3
idam 3
idents 3
ieder 3
iefs 3
ießen 3
ift@@ 3
ignant 3
ilgili 3
ilik 3
ilinde 3
illustr@@ 3
imagin@@ 3
iment@@ 3
impact 3
ims 3
incar@@ 3
includes 3
increase 3
independent 3
indic@@ 3
induc@@ 3
industrial 3
ingly 3
ingt 3
inne 3
inner 3
insanlar 3
insec@@ 3
inst@@ 3
intelligence 3
interest 3
internation@@ 3
isches 3
ishment 3
islands 3
islas 3
issant 3
isses 3
iture 3
iver 3
ió 3
ión 3
iğ@@ 3
iş 3
japon@@ 3
jede 3
jeunes 3
joue 3
judge 3
junction 3
junta 3
kalit@@ 3
kans@@ 3
kapit@@ 3
kend@@ 3
kenn@@ 3
kings 3
knowledge 3
kolon@@ 3
kuk 3
köprü 3
kış@@ 3
lada 3
langer 3
last@@ 3
leadership 3
lear@@ 3
least 3
leaving 3
leuc@@ 3
liamentary 3
library 3
lichen 3
liches 3
lien 3
liger 3
linde 3
lingu@@ 3
listed 3
little 3
liye 3
longer 3
lowing 3
lá 3
lés 3
magnitude 3
managed 3
mars 3
matches 3
maxim@@ 3
meas@@ 3
medal 3
medium 3
meeting 3
metropolit@@ 3
mexicana 3
meye 3
mik 3
miles 3
ministr@@ 3
minute 3
mises 3
missing 3
mite 3
mites 3
mixed 3
mode 3
morning 3
moved 3
mung 3
music@@ 3
már@@ 3
nation@@ 3
native 3
near 3
negoti@@ 3
nem 3
never 3
neye 3
nice 3
nies 3
noc@@ 3
novel 3
numerous 3
oble 3
occidentale 3
ocur@@ 3
oder 3
offici@@ 3
often 3
ographi@@ 3
ollis 3
olog 3
onale 3
onlyinclude 3
onnat 3
onym 3
operating 3
ophysi@@ 3
optim@@ 3
orado 3
orders 3
ortho@@ 3
osum 3
oten 3
oğ@@ 3
paper 3
parent 3
parish 3
pasar 3
paso 3
pav@@ 3
ped 3
pelig@@ 3
pfel 3
phrase 3
pieces 3
pied 3
plants 3
plot 3
poet 3
point@@ 3
politiques 3
porno@@ 3
powers 3
prepar@@ 3
previous 3
princip@@ 3
principio 3
prix 3
procedi@@ 3
producer 3
programme 3
progres@@ 3
property 3
propos@@ 3
protec@@ 3
protoc@@ 3
pson 3
public@@ 3
publica 3
publications 3
pula 3
purpose 3
pá@@ 3
pé@@ 3
qualified 3
quem@@ 3
quet 3
quốc 3
rach@@ 3
racing 3
radar 3
raised 3
rar 3
rare 3
ratio 3
reasons 3
reb@@ 3
recent 3
reci@@ 3
recognized 3
recru@@ 3
refl@@ 3
reich 3
relati@@ 3
relativ@@ 3
renamed 3
report 3
reported 3
repres@@ 3
represent@@ 3
resol@@ 3
responsible 3
restric@@ 3
reve@@ 3
richt 3
riere 3
ring@@ 3
rios 3
rule 3
ruption 3
rural 3
ryth@@ 3
rá@@ 3
sage 3
sak 3
sales 3
salv@@ 3
samm@@ 3
save 3
schen 3
scienti@@ 3
season 3
sector 3
seinen 3
selling 3
semif@@ 3
sent 3
setting 3
seu@@ 3
seur 3
shape 3
sibility 3
sicher@@ 3
sied@@ 3
sigu@@ 3
sionn@@ 3
sito 3
situ@@ 3
siv@@ 3
soft 3
sometimes 3
soph@@ 3
sorg@@ 3
spi@@ 3
spiel 3
sprung 3
stand 3
states 3
steri@@ 3
stop 3
studies 3
styl@@ 3
städ@@ 3
support 3
swit@@ 3
sı@@ 3
tains 3
taken 3
taria 3
tax 3
ted@@ 3
temper@@ 3
tendr@@ 3
teor@@ 3
teros 3
territ@@ 3
tez@@ 3
these 3
though 3
thought 3
tici 3
tige 3
tims 3
tions@@ 3
tives 3
tivi@@ 3
today 3
together 3
towns 3
trail@@ 3
training 3
trau@@ 3
tribu@@ 3
triple 3
trouv@@ 3
turned 3
typical 3
tér@@ 3
tế 3
uchia 3
ucu 3
uelo 3
ulas 3
ulg@@ 3
ums@@ 3
unas 3
uncia 3
unger 3
unos 3
urban@@ 3
usalemu 3
usually 3
utili@@ 3
uvo 3
uç 3
uş@@ 3
valu@@ 3
vation 3
veloc@@ 3
vier@@ 3
visu@@ 3
vivo 3
vocal 3
volun@@ 3
volunte@@ 3
vom 3
vote 3
vous 3
và 3
weit@@ 3
widely 3
window 3
windows 3
wise 3
words 3
wrest@@ 3
writers 3
written 3
yellow 3
yers 3
ymnasium 3
yük 3
zant@@ 3
zos 3
zul@@ 3
zwe@@ 3
¼ 3
África 3
Çel@@ 3
É 3
Ê@@ 3
Ö 3
Ü 3
ße 3
ßen 3
áb@@ 3
ái 3
áp 3
ã 3
ãi 3
äf@@ 3
ähr@@ 3
ätter 3
çak@@ 3
çek@@ 3
ème 3
ète 3
èze 3
éal 3
ément 3
études 3
ême 3
ên 3
ói 3
óp@@ 3
ög@@ 3
önem@@ 3
úr@@ 3
üch@@ 3
üh@@ 3
ül 3
üz@@ 3
ăng 3
ą 3
Điện 3
ĕ@@ 3
ğlu 3
Ħ@@ 3
ĭ@@ 3
İs@@ 3
İsti@@ 3
ıs 3
ıs@@ 3
ıç@@ 3
ň 3
œuvre 3
Şark@@ 3
Ż@@ 3
ǃ@@ 3
ǧ@@ 3
ɦ@@ 3
ɯ@@ 3
ʷ@@ 3
ˀ@@ 3
ˌ 3
ˤ 3
˧ 3
̀ 3
̞ 3
΄ 3
Ό@@ 3
Β 3
Γ@@ 3
Γαλ@@ 3
Θεοτ@@ 3
Ιω@@ 3
Μέγ@@ 3
Νικ@@ 3
Ο@@ 3
Π 3
Συ@@ 3
Τρ@@ 3
άνα 3
άπ@@ 3
ήνη 3
ίνα 3
ίσ@@ 3
αλλ@@ 3
αμ 3
αμ@@ 3
ασ@@ 3
βί@@ 3
βασιλεία 3
γέν@@ 3
γεω@@ 3
γιος 3
δί@@ 3
δο@@ 3
δρ@@ 3
εί@@ 3
εδ@@ 3
ετ@@ 3
ηδ@@ 3
θάλασσα 3
θε@@ 3
ικος 3
λί@@ 3
λε@@ 3
λιος 3
μαγ@@ 3
νά 3
νομ@@ 3
ντ@@ 3
ογ@@ 3
ολ@@ 3
οσ@@ 3
πά@@ 3
πα@@ 3
ποι@@ 3
πολη 3
πους 3
ραν@@ 3
ρεύ@@ 3
ρον 3
ρυ@@ 3
ρω@@ 3
ρό@@ 3
σία 3
σα 3
σα@@ 3
σι@@ 3
σμα 3
σχ@@ 3
σω@@ 3
τα 3
τε@@ 3
τι@@ 3
τισμός 3
υλ@@ 3
φαν@@ 3
φιλ@@ 3
φύ@@ 3
χα@@ 3
χαρ@@ 3
χος 3
χρ@@ 3
όν 3
ώπ@@ 3
Ал@@ 3
Александр 3
Анаста@@ 3
Бай@@ 3
Би@@ 3
Васи@@ 3
Ви@@ 3
Влади@@ 3
Во@@ 3
Ду@@ 3
Иван 3
Иванович 3
Ку@@ 3
Кур@@ 3
Ми@@ 3
Миха@@ 3
Михайлович 3
Москва 3
Н@@ 3
Ниж@@ 3
Никола 3
Ново@@ 3
Република 3
Свя@@ 3
Соци@@ 3
Фе@@ 3
Ха@@ 3
Чер@@ 3
Чу@@ 3
Я@@ 3
Ярослав@@ 3
ав@@ 3
автоно@@ 3
ан@@ 3
ат@@ 3
бе@@ 3
бо@@ 3
вета 3
ган@@ 3
ге 3
город 3
гу@@ 3
де@@ 3
ж@@ 3
за 3
йская 3
кен@@ 3
ки@@ 3
кий 3
лар 3
ль 3
мо@@ 3
мова 3
мович 3
нин 3
но 3
полу@@ 3
ран@@ 3
ре 3
ре@@ 3
рен@@ 3
ру@@ 3
ры 3
ры@@ 3
сан@@ 3
си@@ 3
ск@@ 3
со@@ 3
сы@@ 3
ты 3
х@@ 3
цкий 3
чи@@ 3
ш 3
ъ 3
ь@@ 3
і 3
ғ@@ 3
ұ@@ 3
ӣ 3
Բ@@ 3
զ@@ 3
ծ@@ 3
հ@@ 3
ռ@@ 3
ց 3
ְ 3
ֹ 3
ׂ@@ 3
ז 3
ך@@ 3
أمير 3
أهل 3
إن@@ 3
ابو 3
اة 3
ات 3
ارة 3
از@@ 3
ال 3
الأحمر 3
الأر@@ 3
الأص@@ 3
الأكبر 3
الأول 3
الإسك@@ 3
الإسلام 3
الإمارات 3
الاس@@ 3
الجزائر 3
الجه@@ 3
الدولي 3
الدین 3
السلام 3
السنة 3
العرب 3
العربي 3
العربية 3
القاهرة 3
الكبير 3
المج@@ 3
المرا@@ 3
المملكة 3
المن@@ 3
اله@@ 3
ان@@ 3
اه@@ 3
اِ@@ 3
ای 3
باح 3
بحر 3
بحيرة 3
بري@@ 3
بش@@ 3
بط@@ 3
بن@@ 3
به@@ 3
بوت@@ 3
بور@@ 3
بي 3
بُ@@ 3
ةً 3
تب@@ 3
تعال@@ 3
جزر 3
جنوب 3
خ 3
خل@@ 3
داء 3
داد 3
دبي 3
دنا 3
دية 3
دی@@ 3
رأس 3
رق@@ 3
ري 3
ري@@ 3
رْ@@ 3
ری@@ 3
ز 3
زي 3
سا 3
سع@@ 3
سليمان 3
سما@@ 3
سه@@ 3
سو@@ 3
سيد 3
سُ@@ 3
شر@@ 3
شمس 3
شي@@ 3
شی@@ 3
صر 3
صَ@@ 3
طر 3
عط@@ 3
عمان 3
عي 3
عي@@ 3
عِ@@ 3
غر 3
ف 3
فار@@ 3
فاط@@ 3
في@@ 3
فی 3
قاسم 3
قرط@@ 3
قُ@@ 3
لار 3
لس@@ 3
لو 3
لو@@ 3
لوك 3
لي@@ 3
لُ@@ 3
لِ 3
لی 3
ما@@ 3
مار 3
مر@@ 3
مس@@ 3
مل 3
مل@@ 3
مه@@ 3
موسى 3
مية 3
نب 3
نة 3
نج@@ 3
نط@@ 3
نهر 3
نَ 3
نَ@@ 3
نُ@@ 3
نی 3
هار@@ 3
هان 3
هر 3
وار@@ 3
وت 3
وج@@ 3
وس 3
ول 3
ول@@ 3
وي@@ 3
يب 3
يل@@ 3
يني 3
يوسف 3
يون 3
يون@@ 3
ُّ@@ 3
٠ 3
١ 3
٣ 3
٤ 3
٥ 3
٧ 3
٩ 3
چ@@ 3
کی 3
گ@@ 3
ی 3
ܛ@@ 3
ܫ@@ 3
गुप 3
त 3
य 3
ली 3
ং@@ 3
ন@@ 3
র 3
র@@ 3
স@@ 3
ু@@ 3
ਜ@@ 3
ਬ 3
ਰ@@ 3
ਸ@@ 3
ਾ@@ 3
ੀ 3
ા@@ 3
் 3
ව@@ 3
ා@@ 3
ง@@ 3
น@@ 3
า@@ 3
็ 3
้ 3
ລ@@ 3
ຸ@@ 3
ა 3
ე@@ 3
თ@@ 3
უ@@ 3
ለ 3
ል@@ 3
ሐ@@ 3
ሙ@@ 3
ረ 3
ራ@@ 3
ሬ@@ 3
ሰ@@ 3
ቆ@@ 3
ቡ@@ 3
ባ 3
ብ 3
ቦ@@ 3
ቱ 3
ቴ@@ 3
ና 3
ና@@ 3
ኤ@@ 3
ዊ 3
ዋ@@ 3
ዝ@@ 3
ይ 3
ዱ@@ 3
ጣ@@ 3
ጾ@@ 3
ḍ@@ 3
ṅ@@ 3
ṗ@@ 3
ṛ@@ 3
Ṭ@@ 3
ṭ 3
ṯ 3
ẓ 3
ẓ@@ 3
ạc 3
ạn 3
ẹ 3
ἶ@@ 3
Ὑ@@ 3
Ὕ@@ 3
ὴ 3
‚ 3
‡ 3
ⴷ@@ 3
す@@ 3
ま@@ 3
み 3
り@@ 3
ア@@ 3
イ@@ 3
キ@@ 3
グ@@ 3
シ@@ 3
ジ@@ 3
ッ@@ 3
ナ@@ 3
ニ@@ 3
フ 3
ュ@@ 3
リ@@ 3
レ@@ 3
ワ@@ 3
ヶ@@ 3
下 3
世 3
之@@ 3
京@@ 3
亮@@ 3
代 3
仲@@ 3
伸@@ 3
佑@@ 3
信 3
倉@@ 3
健 3
充 3
克@@ 3
児@@ 3
全@@ 3
勝 3
博 3
口@@ 3
台@@ 3
名 3
哉 3
土@@ 3
坂@@ 3
城 3
堀@@ 3
塚 3
好@@ 3
子@@ 3
孔@@ 3
孝 3
家@@ 3
寛 3
寿@@ 3
尔@@ 3
岐@@ 3
廣@@ 3
形@@ 3
慎@@ 3
成 3
指@@ 3
文@@ 3
斉@@ 3
新 3
日@@ 3
春 3
昭 3
晃 3
月 3
有@@ 3
望@@ 3
松 3
柳@@ 3
桑@@ 3
森 3
次 3
歌@@ 3
池@@ 3
沢@@ 3
波 3
浅@@ 3
浜@@ 3
浦@@ 3
浩 3
淳@@ 3
源@@ 3
潟@@ 3
潤@@ 3
牟 3
玉@@ 3
理@@ 3
甘@@ 3
祐@@ 3
神 3
竹@@ 3
笠@@ 3
篤@@ 3
聖@@ 3
聡 3
肥 3
航@@ 3
良 3
色@@ 3
若@@ 3
葉@@ 3
語 3
豊@@ 3
贵@@ 3
道@@ 3
達@@ 3
邦@@ 3
鎌@@ 3
长@@ 3
関@@ 3
阜@@ 3
陽@@ 3
雄@@ 3
韓@@ 3
須@@ 3
가@@ 3
강@@ 3
경@@ 3
광@@ 3
동 3
방@@ 3
북@@ 3
상@@ 3
성 3
소@@ 3
여@@ 3
원 3
주 3
창@@ 3
천 3
치@@ 3
 3
 3
ﻟ@@ 3
𐤔 3
0,4 2
0,5 2
1,1 2
1.500 2
10. 2
10th 2
14. 2
16. 2
16th 2
17. 2
19. 2
2,6 2
21. 2
2560 2
31. 2
4th 2
6,5 2
Acan@@ 2
Activ@@ 2
Akademie 2
Altar@@ 2
Alter@@ 2
Andalucía 2
Anf@@ 2
Antal@@ 2
Armée 2
Arnavut@@ 2
Artes 2
Artiller@@ 2
Asociación 2
Astur@@ 2
Auf@@ 2
BR 2
Bankası 2
Bei@@ 2
Beledi@@ 2
Best@@ 2
Bild 2
Bildung 2
Bisch@@ 2
Bolog@@ 2
Brigade 2
Bronze 2
Bund 2
Böh@@ 2
Büyük@@ 2
Cardi@@ 2
Carre@@ 2
Census 2
Cerambycidae 2
Cez@@ 2
Challenger 2
Chapelle 2
Chré@@ 2
Circu@@ 2
Circuit 2
Citro@@ 2
Comer@@ 2
Communauté 2
Comunidad 2
Core 2
Corea 2
Cristo 2
Cumhuriyet 2
Cumhuriyeti 2
Cung 2
Cộng 2
DDR 2
Defensa 2
Demokrati@@ 2
Denizi 2
Description 2
Dez@@ 2
Dies 2
Diy@@ 2
Diyar@@ 2
Doğu 2
Drit@@ 2
Duy 2
Ecu@@ 2
Eigen@@ 2
Eine 2
Einwohner 2
Elles 2
Ener@@ 2
Enf@@ 2
Entr@@ 2
Envir@@ 2
Escuela 2
Eski 2
Española 2
Estudios 2
Está 2
Even 2
Exec@@ 2
Exist@@ 2
Expedition 2
Eyal@@ 2
Eş@@ 2
Fein@@ 2
Fergus@@ 2
Fes@@ 2
Festiv@@ 2
Feuer@@ 2
Fic@@ 2
Filipin@@ 2
Fin 2
Frau@@ 2
Freund 2
Fuer@@ 2
Fútbol 2
Führ@@ 2
Fün@@ 2
Fürst@@ 2
Garc@@ 2
Gatt@@ 2
Gazi 2
Gef@@ 2
Governor 2
Grab 2
Große 2
Guardia 2
Gér@@ 2
Gök@@ 2
Güney 2
Hasta 2
Histor@@ 2
Histori@@ 2
Historic 2
Historical 2
Hungarian 2
Hàn 2
Hä@@ 2
Hô@@ 2
Hör@@ 2
Hậu 2
IGN 2
Iglesia 2
Indians 2
Individ@@ 2
Industri@@ 2
Industrie 2
Its 2
J.-@@ 2
Jeffer@@ 2
Jews 2
Junta 2
Kabin@@ 2
Karadeniz 2
Khi 2
Khoa 2
Khánh 2
Klass@@ 2
Konf@@ 2
Kontin@@ 2
Kore 2
Kosova 2
Kultur 2
Kunst 2
Kuş@@ 2
Köl@@ 2
Köy@@ 2
Küh@@ 2
Küçük 2
Kỳ 2
Literatur 2
Loan 2
Louisi@@ 2
Luft@@ 2
Lâm 2
Länder 2
Ló@@ 2
MPO@@ 2
Maison 2
Maked@@ 2
Mayor 2
Merkezi 2
Mev@@ 2
Milli 2
Millionen 2
Ministr@@ 2
Mittel@@ 2
Moritz 2
Mosco@@ 2
Myan@@ 2
Nghi 2
Nghệ 2
Nhi@@ 2
Niss@@ 2
Nouveau 2
Nông 2
Nür@@ 2
Nội 2
Occup@@ 2
Oeste 2
Orta 2
Oster@@ 2
Oğ@@ 2
Palmar@@ 2
Panam@@ 2
Panamá 2
Parque 2
Partner 2
Perú 2
Peugeot 2
Pfarr@@ 2
Philosophie 2
Phòng 2
Phước 2
Phủ 2
Places 2
Platz 2
Politique 2
Poliz@@ 2
Polonia 2
Por 2
Position 2
Prag 2
Prinz 2
Prob@@ 2
Promotion 2
Protest@@ 2
Quelle 2
Quy 2
Railroad 2
Rang 2
Regiment 2
Regional@@ 2
Representatives 2
Republik 2
Richard@@ 2
Rodr@@ 2
Route 2
SQ@@ 2
Salud 2
Schles@@ 2
Schloss 2
Schweiz 2
Sie 2
Siem@@ 2
Sobre 2
Soldaten 2
Span@@ 2
Spitze 2
Squadron 2
Staats@@ 2
Stadion 2
Stadt@@ 2
Staff@@ 2
Start@@ 2
Straße 2
Stutt@@ 2
Synagog@@ 2
Synchron@@ 2
Sí@@ 2
Süley@@ 2
Süleyman 2
Tal 2
Telef@@ 2
Thành 2
Thọ 2
Tiền 2
Tomás 2
Tradition 2
Trau@@ 2
Tres 2
Trương 2
Trần 2
Trị 2
Tube 2
Turni@@ 2
Turqu@@ 2
Tuấn 2
Typ@@ 2
Tân 2
Türk@@ 2
Türkiye 2
Türkçe 2
Ukrainian 2
Untersuchungen 2
Uy 2
Vakfı 2
Venedi@@ 2
Verkehrs@@ 2
Voiv@@ 2
Vom 2
Waffen 2
Wehrmacht 2
Wirtschafts@@ 2
Woh@@ 2
Wür@@ 2
Yard@@ 2
Yaş@@ 2
Yeş@@ 2
Yukar@@ 2
Z.@@ 2
Zeitschrift 2
Zentral@@ 2
Zivil@@ 2
Zu 2
Zukun@@ 2
Zun@@ 2
Zusammenarbeit 2
Zür@@ 2
abbé 2
absence 2
abteilung 2
achen 2
achsen 2
acht@@ 2
acked 2
acor@@ 2
acres 2
acri@@ 2
across 2
activ@@ 2
acus@@ 2
adapt@@ 2
aday@@ 2
adic@@ 2
advoc@@ 2
adém@@ 2
adı 2
aeidae 2
agency 2
aggreg@@ 2
agues 2
ailesi 2
aily 2
aining 2
aired 2
airport 2
aises 2
akt 2
aktiv 2
aktiv@@ 2
akya 2
alanda 2
alara 2
aler@@ 2
aliforni@@ 2
alion 2
aliste 2
allow 2
allowed 2
alone 2
alongside 2
altar 2
altern@@ 2
always 2
amanca 2
ammen 2
ancak 2
andal@@ 2
angs 2
anien 2
anikio 2
animal 2
animals 2
anjaro 2
anlar 2
annul@@ 2
antage 2
antly 2
apes 2
appearance 2
appointed 2
arabe 2
aral@@ 2
araya 2
archives 2
arché@@ 2
ared 2
arlı 2
artes@@ 2
asked 2
assault 2
asser@@ 2
assist@@ 2
[...]
