. 1
на 1
, 1
и 1
в 1
е 1
от 1
се 1
( 1
) 1
за 1
с 1
@-@ 1
да 1
„ 1
“ 1
&quot; 0.4826209594802624
са 1
по 1
– 1
г. 1
г 1
като 1
през 1
ни 1
си 1
но 1
до 1
ната 1
ните 1
година 1
а 1
През 1
В 1
му 1
не 1
ва 1
на@@ 1
че 1
ния 1
: 0.8994180077404137
ска 1
ка 1
т 1
из@@ 1
ски 1
не@@ 1
ли 1
за@@ 1
ти 1
ската 1
л 1
н 1
ват 1
това 1
ното 1
А@@ 1
към 1
ре@@ 1
та 1
ли@@ 1
по@@ 1
с@@ 1
пре@@ 1
които 1
у@@ 1
к 1
най 1
при 1
или 1
който 1
ри@@ 1
след 1
о@@ 1
ския 1
ко@@ 1
но@@ 1
съ@@ 1
ла 1
На 1
от@@ 1
Е@@ 1
ни@@ 1
д 1
я 1
ра 1
раз@@ 1
ци 1
фон 1
във 1
; 0.7568534446867522
к@@ 1
е@@ 1
ле@@ 1
ди@@ 1
ване 1
л@@ 1
има 1
ите 1
р 1
де@@ 1
си@@ 1
до@@ 1
С@@ 1
част 1
време 1
ско 1
О@@ 1
ка@@ 1
ра@@ 1
ви 1
ти@@ 1
те 1
те@@ 1
ри 1
а@@ 1
в@@ 1
ки 1
която 1
то 1
ми@@ 1
ските 1
години 1
ването 1
ката 1
След 1
което 1
ма@@ 1
ви@@ 1
ро@@ 1
ва@@ 1
м@@ 1
про@@ 1
при@@ 1
т@@ 1
със 1
ът 1
ят 1
ди 1
той 1
я@@ 1
ма 1
град 1
се@@ 1
ция 1
мо@@ 1
д@@ 1
то@@ 1
ското 1
лен 1
1 1
о 1
й@@ 1
п@@ 1
ден 1
ният 1
И@@ 1
з@@ 1
м 1
ло@@ 1
ник 1
па@@ 1
цията 1
ята 1
По 1
г@@ 1
става 1
/ 1
ла@@ 1
ст 1
България 1
2 1
Ко@@ 1
бо@@ 1
б@@ 1
Ма@@ 1
ку@@ 1
ме@@ 1
между 1
го 1
пе@@ 1
около 1
век 1
пи@@ 1
много 1
ба@@ 1
Ка@@ 1
Б@@ 1
ве@@ 1
От 1
зи@@ 1
ш@@ 1
Той 1
и@@ 1
об@@ 1
село 1
х@@ 1
би@@ 1
рите 1
та@@ 1
во@@ 1
го@@ 1
ата 1
ници 1
га 1
ко 1
където 1
† 1
У@@ 1
ците 1
ло 1
може 1
ѝ 1
един 1
ност 1
П@@ 1
да@@ 1
сти@@ 1
лите 1
ф@@ 1
ени 1
й 1
ство 1
нието 1
Д@@ 1
н@@ 1
По@@ 1
война 1
че@@ 1
3 1
ж@@ 1
както 1
други 1
чен 1
под@@ 1
също 1
ми 1
под 1
им 1
вен 1
лно 1
рия 1
лни 1
ще 1
ството 1
ща 1
За@@ 1
Ми@@ 1
лна 1
На@@ 1
са@@ 1
К@@ 1
га@@ 1
со@@ 1
во 1
ността 1
този 1
ля@@ 1
рат 1
В@@ 1
Т@@ 1
сто@@ 1
започва 1
ду@@ 1
бе@@ 1
4 1
чи@@ 1
късно 1
вата 1
ан@@ 1
въз@@ 1
само 1
ен 1
ца 1
Г@@ 1
ките 1
Из@@ 1
су@@ 1
Се@@ 1
още 1
ста@@ 1
ин@@ 1
М@@ 1
пред@@ 1
рен 1
нов 1
ст@@ 1
ки@@ 1
За 1
ба 1
Х@@ 1
души 1
над 1
р@@ 1
него 1
ру@@ 1
вид 1
ци@@ 1
път 1
5 1
щи 1
една 1
края 1
Ви@@ 1
срещу 1
Па@@ 1
I 1
Ли@@ 1
така 1
хо@@ 1
когато 1
би 1
З@@ 1
чни 1
сти 1
Не@@ 1
Биография 1
ч@@ 1
Са@@ 1
ран 1
10 1
6 1
български 1
началото 1
Ф@@ 1
Де@@ 1
няколко 1
m 1
ъ@@ 1
всички 1
II 1
селото 1
тен 1
ха@@ 1
ча@@ 1
ява 1
ето 1
Р@@ 1
13@@ 1
20 1
Бо@@ 1
ков 1
п 1
С 1
жи 1
лия 1
ен@@ 1
два 1
km 1
семейство 1
ц 1
щ 1
граф 1
тях 1
Ха@@ 1
ране 1
щата 1
ш 1
14@@ 1
река 1
ър 1
ц@@ 1
София 1
две 1
Ба@@ 1
ж 1
ският 1
кра@@ 1
май 1
септември 1
Мо@@ 1
ше@@ 1
Ку@@ 1
з 1
у 1
ге@@ 1
града 1
Ш@@ 1
лата 1
же@@ 1
заедно 1
ту@@ 1
Ро@@ 1
Това 1
нията 1
тя 1
жи@@ 1
де 1
% 0.5520628982906292
бу@@ 1
зо@@ 1
получава 1
чно 1
Про@@ 1
Ре@@ 1
тези 1
Н@@ 1
Съ@@ 1
дени 1
гра@@ 1
място 1
це@@ 1
ч 1
7 1
ниците 1
кон@@ 1
тази 1
ван 1
Според 1
дъщеря 1
ги@@ 1
ги 1
рани 1
Ра@@ 1
Бе@@ 1
ат@@ 1
имат 1
януари 1
- 0.546917475740515
жени 1
три@@ 1
ства 1
хи@@ 1
намира 1
октомври 1
15@@ 1
ал@@ 1
дни 1
САЩ 1
преди 1
ръ@@ 1
върху 1
юни 1
лу@@ 1
юли 1
Ме@@ 1
х 1
он 1
три 1
името 1
август 1
ю@@ 1
15 1
зи 1
Пе@@ 1
различни 1
Македония 1
бъде 1
чи 1
Си@@ 1
До@@ 1
ран@@ 1
8 1
чрез 1
март 1
вете 1
област 1
април 1
йски 1
син 1
тите 1
ар@@ 1
ноември 1
работи 1
Л@@ 1
декември 1
община 1
гу@@ 1
12 1
При@@ 1
ня@@ 1
Ди@@ 1
вър@@ 1
Ле@@ 1
зе@@ 1
стра@@ 1
фи@@ 1
рана 1
пла@@ 1
Пи@@ 1
йки 1
Ар@@ 1
ница 1
ве 1
Ю@@ 1
жда 1
Пре@@ 1
Ал@@ 1
30 1
чна 1
История 1
&amp; 0.6620707402894029
Ц@@ 1
ор@@ 1
му@@ 1
ние 1
Я@@ 1
вия 1
чески 1
някои 1
пу@@ 1
зна@@ 1
група 1
чер@@ 1
12@@ 1
ф 1
лят 1
фе@@ 1
често 1
б 1
ск@@ 1
ника 1
9 1
ши@@ 1
щ@@ 1
То@@ 1
вани 1
лната 1
ено 1
При 1
мъ@@ 1
берг 1
страната 1
ме 1
ек@@ 1
вите 1
ке@@ 1
роден 1
Тя 1
Ла@@ 1
тъ@@ 1
кръ@@ 1
мен@@ 1
бург 1
февруари 1
Ри@@ 1
вайки 1
тан@@ 1
кия 1
език 1
тре@@ 1
ьо@@ 1
гла@@ 1
въ@@ 1
вече 1
Ру@@ 1
ман 1
Те 1
ции 1
ля 1
ман@@ 1
могат 1
сред 1
Мар@@ 1
ско@@ 1
16 1
ща@@ 1
ста 1
прави 1
център 1
пр.н.е. 1
14 1
мен 1
Лу@@ 1
империя 1
ит@@ 1
Би@@ 1
мата 1
ча 1
Го@@ 1
Да@@ 1
18 1
Разпространение 1
нен 1
Видът 1
повече 1
ак@@ 1
фа@@ 1
сен 1
университет 1
11 1
спо@@ 1
Италия 1
ха 1
ан 1
завършва 1
отново 1
части 1
Северна 1
Раз@@ 1
Ни@@ 1
ет@@ 1
без 1
Га@@ 1
бил 1
използва 1
лните 1
Та@@ 1
чу@@ 1
000 1
тът 1
ър@@ 1
ев 1
участва 1
страна 1
мите 1
13 1
край 1
тра@@ 1
19 1
вания 1
ро 1
кан@@ 1
ден@@ 1
пло@@ 1
жители 1
води 1
Бу@@ 1
пра@@ 1
училище 1
Ти@@ 1
населението 1
Ан@@ 1
сезон 1
височина 1
25 1
бър@@ 1
пи 1
Най 1
па 1
Ч@@ 1
дава 1
поради 1
ани 1
17 1
От@@ 1
рата 1
световна 1
трябва 1
ну@@ 1
нея 1
кри@@ 1
Ве@@ 1
нява 1
първата 1
периода 1
ур@@ 1
рането 1
малко 1
тия 1
он@@ 1
обаче 1
лов 1
Хо@@ 1
сте@@ 1
ря@@ 1
според 1
тата 1
дена 1
III 1
&apos; 0.21933345867873502
име 1
сън 1
къ@@ 1
голяма 1
тур@@ 1
кар@@ 1
ров 1
Кар@@ 1
Германия 1
дър@@ 1
Ва@@ 1
ген 1
ности 1
чев 1
Об@@ 1
Но@@ 1
стите 1
Франция 1
вана 1
без@@ 1
Те@@ 1
своя 1
жда@@ 1
член 1
ска@@ 1
Русия 1
.@@ 1
Ло@@ 1
us 0.5110752556013535
ши 1
ер@@ 1
ари 1
армия 1
рът 1
тни 1
полу@@ 1
ша@@ 1
система 1
умира 1
Свети 1
йн 1
жа 1
2010 0.7412342104211664
пол@@ 1
А 1
вя@@ 1
жа@@ 1
били 1
* 1
смъртта 1
лю@@ 1
род@@ 1
сла@@ 1
лъ@@ 1
км 1
нат 1
фо@@ 1
дата 1
бра@@ 1
чните 1
Гра@@ 1
щите 1
нал 1
Гърция 1
бата 1
2011 0.820077800138714
Ки@@ 1
Су@@ 1
стро@@ 1
дия 1
църква 1
лич@@ 1
население 1
рията 1
нски 1
Иван 1
Европа 1
дъ@@ 1
ем@@ 1
Георги 1
само@@ 1
ждат 1
Въпреки 1
нови 1
ате@@ 1
над@@ 1
гле@@ 1
сло@@ 1
нова 1
бя@@ 1
кът 1
пред 1
шен 1
ша 1
докато 1
пъ@@ 1
вена 1
днес 1
24 1
пер@@ 1
тна 1
първи 1
дя@@ 1
сия 1
чната 1
ващи 1
играе 1
едно 1
21 1
мът 1
Мария 1
времето 1
пише 1
22 1
мал@@ 1
щайн 1
деца 1
отбор 1
жение 1
Со@@ 1
ер 1
ител 1
циите 1
собстве@@ 1
Роден 1
Ж@@ 1
страни 1
групата 1
баща 1
живот 1
тъй 1
печели 1
Населението 1
4@@ 1
класи@@ 1
пис@@ 1
тогава 1
мия 1
големи 1
първия 1
след@@ 1
света 1
сили 1
крал 1
период 1
йския 1
окръг 1
дите 1
йската 1
кс 1
рано 1
вал 1
запа@@ 1
хра@@ 1
остава 1
Южна 1
тър@@ 1
Ста@@ 1
idae 1
брат 1
хе@@ 1
лото 1
Ду@@ 1
рин@@ 1
Има 1
нение 1
ък 1
провинция 1
лин@@ 1
ление 1
оби@@ 1
бор@@ 1
ител@@ 1
ане 1
дж@@ 1
Кон@@ 1
23 1
2000 0.9701295215345243
първите 1
пле@@ 1
кли@@ 1
др 1
войната 1
вени 1
йска 1
жена 1
сни 1
бъдат 1
ати@@ 1
гат 1
известен 1
стре@@ 1
вен@@ 1
лет@@ 1
места 1
почти 1
стта 1
начин 1
гата 1
няма 1
10@@ 1
2012 0.7282433285987449
там 1
2009 0.7510591587353552
8@@ 1
голям 1
вла@@ 1
2007 0.8019005496633353
9@@ 1
вали 1
цен@@ 1
зем@@ 1
коле@@ 1
2008 0.7476904125250575
Фи@@ 1
ваща 1
тор 1
28 1
27 1
жен 1
продължава 1
5@@ 0.8985512084487647
поли@@ 1
тро@@ 1
Щ@@ 1
Му@@ 1
филм 1
вар@@ 1
ални 1
сел@@ 1
сър@@ 1
включва 1
пъл@@ 1
дат 1
ващ 1
вой@@ 1
Александър 1
цел 1
лен@@ 1
гор@@ 1
Първата 1
2006 0.7993288996869442
вра@@ 1
ита 1
що 1
представ@@ 1
Ке@@ 1
хора 1
Ин@@ 1
използват 1
26 1
мест@@ 1
двете 1
50 1
данни 1
Йо@@ 1
лан@@ 1
ел 1
яване 1
дено 1
край@@ 1
тно 1
все 1
работа 1
ле 1
работ@@ 1
всеки 1
лния 1
син@@ 1
ене@@ 1
била 1
Димитър 1
̀ 1
американски 1
гъ@@ 1
мина@@ 1
ждане 1
ще@@ 1
им@@ 1
лек@@ 1
чо 1
ед@@ 1
семейството 1
ън 1
Че@@ 1
Кри@@ 1
успява 1
спа@@ 1
лин 1
ху@@ 1
рен@@ 1
40 1
откри@@ 1
ун@@ 1
резултат 1
чени 1
север 1
100 1
областта 1
излиза 1
сът 1
района 1
същата 1
награда 1
море 1
бро@@ 1
дар@@ 1
форма 1
ос@@ 1
Фридрих 1
Хи@@ 1
дейност 1
мо 1
територията 1
император 1
ители 1
ново 1
послед@@ 1
род 1
юг 1
ген@@ 1
плани@@ 1
лд 1
четири 1
пар@@ 1
председател 1
ся@@ 1
вото 1
Ор@@ 1
ствено 1
ъл@@ 1
Кра@@ 1
пара@@ 1
вода 1
Втората 1
3@@ 0.9763615183443445
Ге@@ 1
Като 1
степен 1
съюз 1
2013 0.653005032291716
же 1
държав@@ 1
кото 1
малки 1
присъ@@ 1
първият 1
лка 1
разде@@ 1
стър 1
шо@@ 1
отбора 1
29 1
мар@@ 1
шки 1
партия 1
заради 1
пъти 1
мет@@ 1
генерал 1
дъл@@ 1
кла@@ 1
6@@ 0.8848548670935874
своите 1
тя@@ 1
мат 1
2014 0.6258915169345111
дори 1
регион 1
управление 1
сред@@ 1
република 1
фор@@ 1
7@@ 0.9319477365900722
бер@@ 1
изток 1
ална 1
ет 1
соци@@ 1
албум 1
оръ@@ 1
жен@@ 1
2005 0.824290474590612
анти@@ 1
йн@@ 1
Гу@@ 1
Фа@@ 1
дел@@ 1
вер@@ 1
лното 1
нове@@ 1
своята 1
отде@@ 1
ческа 1
лени 1
Пет@@ 1
тер@@ 1
площ 1
ше 1
рай@@ 1
це 1
ред@@ 1
анд@@ 1
жението 1
множество 1
мача 1
преминава 1
чат 1
ори 1
съвремен@@ 1
голямата 1
например 1
възраст 1
° 1
Бра@@ 1
обикновено 1
ера 1
йна 1
стан@@ 1
участие 1
тън 1
сре@@ 1
дру@@ 1
близо 1
IV 1
църквата 1
живота 1
преда@@ 1
разпростра@@ 1
филма 1
съпруга 1
2001 0.9759635517216815
e 0.22977948420335567
мир 1
Към 1
зва@@ 1
Бер@@ 1
ня 1
Мон@@ 1
вате@@ 1
нения 1
джа@@ 1
зия 1
дължина 1
острови 1
Основ@@ 1
разпространен 1
организация 1
остров 1
мер@@ 1
60 1
чава 1
слу@@ 1
яват 1
чва 1
2015 0.5967615917430077
Карл 1
чка 1
войски 1
йни 1
чета 1
позна@@ 1
вида 1
история 1
среща 1
2004 0.8160207642223842
зъм 1
гри@@ 1
1944 1
зира 1
тира 1
ствени 1
мор@@ 1
Дж@@ 1
покри@@ 1
гро@@ 1
надморска 1
юго@@ 1
Република 1
ителите 1
вено 1
ент@@ 1
К 1
Османската 1
вод@@ 1
Вер@@ 1
тен@@ 1
живо@@ 1
16@@ 1
включително 1
ре 1
Чер@@ 1
образ@@ 1
ред 1
кто@@ 1
До 1
2002 0.9279534749480971
ално 1
Фе@@ 1
нов@@ 1
стен 1
лски 1
Когато 1
общината 1
герман@@ 1
достига 1
ск 1
рим@@ 1
пор@@ 1
линия 1
_ 0.6031708273993661
И 1
Ту@@ 1
ланд@@ 1
Лю@@ 1
групи 1
ком@@ 1
лина 1
ствата 1
истори@@ 1
кариера 1
31 1
съвет 1
мла@@ 1
ано 1
северо@@ 1
съпругата 1
80 1
състои 1
застрашен 1
изда@@ 1
Кла@@ 1
The 0.04319717781865528
обя@@ 1
особено 1
дей@@ 1
избран 1
Хе@@ 1
тин@@ 1
кова 1
изпъл@@ 1
казва 1
запад 1
Освен 1
министър 1
шка 1
подоб@@ 1
вли@@ 1
започ@@ 1
брой 1
чния 1
gt 0.8101267523498253
лена 1
тар@@ 1
Це@@ 1
джи@@ 1
създава 1
ата@@ 1
стъ@@ 1
народ@@ 1
средата 1
приема 1
ав@@ 1
бан@@ 1
власт 1
рин 1
граф@@ 1
предимно 1
живее 1
диа@@ 1
География 1
логия 1
историята 1
Ман@@ 1
бен 1
дове 1
добре 1
гия 1
прове@@ 1
² 1
вява 1
рени 1
Ша@@ 1
мати@@ 1
започват 1
втората 1
херцог 1
крити@@ 1
гре@@ 1
българи 1
игра@@ 1
Ню 1
0 0.7616730755743353
вероятно 1
вият 1
V 1
право 1
ход@@ 1
70 1
стве@@ 1
общо 1
назначен 1
създа@@ 1
Во@@ 1
дан@@ 1
стар@@ 1
lt 0.7915866387677004
сту@@ 1
връзка 1
въпреки 1
доб@@ 1
рав@@ 1
тер 1
ита@@ 1
силно 1
Рай@@ 1
П 1
сите 1
нарича 1
тове 1
цо@@ 1
рий@@ 1
нос 1
Ай@@ 1
мета@@ 1
сен@@ 1
Хайнрих 1
отнася 1
вица 1
гар@@ 1
ян 1
град@@ 1
стъп@@ 1
сл 1
служба 1
произ@@ 1
договор 1
състава 1
допъл@@ 1
ането 1
Сто@@ 1
майка 1
тип 1
вътреш@@ 1
ин 1
образу@@ 1
чове@@ 1
1990 0.9822913773536426
Така 1
вала 1
Бар@@ 1
Мал@@ 1
защото 1
бри@@ 1
Кара@@ 1
бре@@ 1
Мак@@ 1
влиза 1
прие@@ 1
ителна 1
Йохан 1
годишна 1
видове 1
завър@@ 1
Никола 1
ний 1
коло@@ 1
2016 0.5223082234501456
наре@@ 1
Ши@@ 1
ок@@ 1
ков@@ 1
ус 1
Завършва 1
ато@@ 1
вно 1
s 0.10348875775482101
Пред@@ 1
наме@@ 1
Фран@@ 1
ев@@ 1
№ 1
Петър 1
ров@@ 1
водо@@ 1
вет@@ 1
Ча@@ 1
ландия 1
зма 1
ъл 1
посо@@ 1
спор@@ 1
носи 1
&#93; 0.4933439092425828
опа@@ 1
било 1
българска 1
Хар@@ 1
роля 1
пан@@ 1
съществу@@ 1
гръцки 1
Разпространен 1
никът 1
свет@@ 1
жат 1
големите 1
фил@@ 1
осман@@ 1
дро@@ 1
Три@@ 1
Пловдив 1
нин 1
щат 1
&#91; 0.4889732935206784
изчезване 1
ствена 1
гите 1
ад@@ 1
ако 1
неговата 1
бар@@ 1
представлява 1
британ@@ 1
вни 1
мач 1
зат@@ 1
район 1
рена 1
мат@@ 1
мили@@ 1
пада 1
2003 0.7976354834077504
зу@@ 1
дре@@ 1
физи@@ 1
хората 1
пол 1
ните@@ 1
цар 1
Рим 1
вели@@ 1
мя@@ 1
2017 0.527432921267576
90 1
свър@@ 1
ити@@ 1
повечето 1
песни 1
ати 1
воде@@ 1
Джон 1
стри@@ 1
състав 1
Васил 1
ем 1
Дже@@ 1
мини@@ 1
светов@@ 1
свят 1
прав@@ 1
ън@@ 1
пит@@ 1
графиня 1
сата 1
всяка 1
мър@@ 1
кти@@ 1
втори 1
пости@@ 1
вин@@ 1
Вар@@ 1
нението 1
комитет 1
мс 1
лището 1
провежда 1
метра 1
лс 1
дна 1
Англия 1
мин@@ 1
академия 1
хар@@ 1
продъл@@ 1
редица 1
рак@@ 1
англи@@ 1
турата 1
ително 1
лий 1
команд@@ 1
нена 1
четвър@@ 1
слав 1
човек 1
гръц@@ 1
пр 1
държава 1
Дру@@ 1
дове@@ 1
ват@@ 1
сно 1
въве@@ 1
вре@@ 1
ити 1
електро@@ 1
нася 1
къс@@ 1
Кор@@ 1
милиона 1
Въз@@ 1
ъ 1
Гор@@ 1
българската 1
няват 1
хода 1
Испания 1
свързани 1
учи 1
мост 1
бите 1
еди@@ 1
ене 1
обеди@@ 1
мъж@@ 1
пен@@ 1
C 0.5610715924541599
Б 1
кре@@ 1
чо@@ 1
вна 1
ца@@ 1
християн@@ 1
Тре@@ 1
есте@@ 1
жения 1
Д 1
ена 1
Него@@ 1
нем@@ 1
тър 1
руски 1
ционен 1
Нова 1
Париж 1
спи@@ 1
Стефан 1
теле@@ 1
рабо@@ 1
гне 1
форми@@ 1
манастир 1
полк 1
кро@@ 1
шно 1
съвет@@ 1
яването 1
1912 1
праз@@ 1
командир 1
Филип 1
со 1
Вал@@ 1
ора 1
стоя@@ 1
живеят 1
раст@@ 1
популяр@@ 1
щия 1
офици@@ 1
сила 1
въл@@ 1
пет 1
О 1
бързо 1
близ@@ 1
нама@@ 1
ален 1
тните 1
известни 1
временно 1
Джо@@ 1
ю 0.8043089927953136
Дра@@ 1
Америка 1
образование 1
Великобритания 1
ителен 1
музика 1
голямо 1
неговите 1
ери 1
све@@ 1
струк@@ 1
Сред@@ 1
друг 1
кул@@ 1
йските 1
връх 1
дивизия 1
лено 1
бал@@ 1
гимназия 1
лица 1
има@@ 1
Китай 1
организи@@ 1
бази@@ 1
1991 0.9999509267076082
настоя@@ 1
връща 1
дин@@ 1
ос 1
гли@@ 1
разположен 1
Африка 1
шампи@@ 1
P@@ 0.14348691619498632
развитие 1
известна 1
ниче@@ 1
политически 1
Мари@@ 1
Пър@@ 1
нин@@ 1
дне@@ 1
служ@@ 1
лище 1
рал 1
логи@@ 1
цата 1
кове 1
нар@@ 1
началник 1
национа@@ 1
кло@@ 1
M@@ 0.14843814328063007
плат@@ 1
оста@@ 1
Христо 1
Българ@@ 1
главен 1
1945 1
ана 1
Умира 1
проте@@ 1
движение 1
друга 1
месеца 1
вски 1
цент@@ 1
разположени 1
дра@@ 1
нер 1
граждан@@ 1
Бал@@ 1
отношение 1
способ@@ 1
Бре@@ 1
шни 1
рал@@ 1
поло@@ 1
стил 1
Хер@@ 1
заема 1
ствие 1
они 1
пър@@ 1
театър 1
Македо@@ 1
Пер@@ 1
дол@@ 1
ал 1
ква 1
продължение 1
вол@@ 1
право@@ 1
коре@@ 1
основно 1
бия 1
1999 0.7545674334317334
кият 1
2018 0.4409550223913291
реката 1
чното 1
1913 1
рий 1
али@@ 1
актив@@ 1
пат@@ 1
италиан@@ 1
кита@@ 1
Зе@@ 1
професиона@@ 1
СССР 1
тан 1
десет 1
инди@@ 1
правителство 1
следва 1
гър@@ 1
разработ@@ 1
Май@@ 1
твър@@ 1
+ 1
годиш@@ 1
част@@ 1
изпра@@ 1
То 1
произход 1
фици@@ 1
тната 1
ези@@ 1
дву@@ 1
йско 1
ета 1
жава 1
действия 1
мов 1
държави 1
Този 1
джа 1
опера@@ 1
литература 1
ван@@ 1
директор 1
постро@@ 1
излъ@@ 1
ил 1
създаването 1
първенство 1
изди@@ 1
ь@@ 1
Сла@@ 1
— 0.09055789772169763
200 1
лятото 1
вано 1
хи 1
вид@@ 1
Бур@@ 1
президент 1
Япония 1
мястото 1
ствен 1
цар@@ 1
израз@@ 1
Йорк 1
западната 1
тор@@ 1
тръ@@ 1
дер@@ 1
древ@@ 1
юр@@ 1
щето 1
новата 1
S@@ 0.11275259423239721
дения 1
останалите 1
ителни 1
of 0.009636925254129949
сина 1
разши@@ 1
английски 1
зват 1
управлението 1
фак@@ 1
птица 1
бива 1
гна@@ 1
Ше@@ 1
фа 1
гола 1
прода@@ 1
тел 1
ква@@ 1
стрел@@ 1
= 0.609540865828237
ждава 1
цялата 1
хард 1
международ@@ 1
състеза@@ 1
Първият 1
лей@@ 1
сле@@ 1
нически 1
1992 0.8951624776853668
уч@@ 1
източната 1
Българската 1
дълбо@@ 1
първото 1
точка 1
дет@@ 1
гот@@ 1
хайм 1
1941 1
ара 1
ход 1
центра@@ 1
политик 1
рей@@ 1
C@@ 0.15409314156279508
рих 1
гори@@ 1
1989 1
говори 1
ок 1
използва@@ 1
нала 1
сов 1
Николай 1
май@@ 1
оп@@ 1
книги 1
френски 1
зен 1
наслед@@ 1
значение 1
Вилхелм 1
цето 1
Доб@@ 1
западно 1
лер 1
Ер@@ 1
мон@@ 1
решава 1
Ху@@ 1
Джа@@ 1
ницата 1
центъра 1
ьор@@ 1
дри@@ 1
дът 1
бъде@@ 1
XIX 1
a 0.011705286861003413
намират 1
пове@@ 1
Анна 1
Гла@@ 1
кан 1
1998 0.7788831927516241
въоръ@@ 1
служи 1
Полша 1
Западна 1
топ@@ 1
дер 1
чки 1
Св 1
напуска 1
рото 1
другите 1
пръ@@ 1
поч@@ 1
нени 1
сме@@ 1
Михаил 1
малка 1
двата 1
гло@@ 1
Някои 1
морски 1
пти@@ 1
епископ 1
стават 1
мно@@ 1
в. 1
лев 1
formula 0.5000337545144979
роман 1
Москва 1
правителството 1
Вели@@ 1
лов@@ 1
същото 1
футболист 1
разположено 1
сна@@ 1
дьо 1
албума 1
Цент@@ 1
1997 0.8298784155081891
она 1
общ@@ 1
еле@@ 1
децата 1
лът 1
вис@@ 1
чават 1
източно 1
ФК 1
резер@@ 1
ролята 1
дви@@ 1
бряг 1
едва 1
щати 1
тон 1
М 1
рода 1
рио@@ 1
ули@@ 1
ностите 1
Вол@@ 1
Пла@@ 1
Във 1
беле@@ 1
призна@@ 1
Тази 1
Поли@@ 1
македон@@ 1
неговото 1
превръща 1
is 0.029943374110779217
жо@@ 1
сна 1
Там 1
! 0.6166099458713203
тена 1
35 1
i 0.21001978726802523
лети@@ 1
чет@@ 1
означава 1
единстве@@ 1
Т 1
външ@@ 1
1996 0.8155263136415091
Намира 1
Уе@@ 1
последните 1
битката 1
връ@@ 1
D@@ 0.1315896998152896
зае@@ 1
Азия 1
вър 1
ета@@ 1
гово@@ 1
Тези 1
военни 1
учител 1
разлика 1
кен@@ 1
нали 1
песента 1
лига 1
известно 1
дор 1
ите@@ 1
чено 1
ней@@ 1
противо@@ 1
Кръ@@ 1
теж@@ 1
ган@@ 1
мм 1
бли@@ 1
Турция 1
1995 0.8401424950123166
нос@@ 1
унищо@@ 1
нето 1
действие 1
Къ@@ 1
кт 1
Селото 1
княз 1
съще@@ 1
скоро 1
съответ@@ 1
Ги@@ 1
1994 0.838869172313056
поставя 1
книга 1
ново@@ 1
два@@ 1
политиче@@ 1
лат@@ 1
сията 1
съгла@@ 1
Поради 1
защит@@ 1
публику@@ 1
бах 1
свобо@@ 1
едно@@ 1
консул 1
широ@@ 1
успех 1
кали@@ 1
Индия 1
йт 1
възстанов@@ 1
чение 1
напълно 1
основ@@ 1
форми 1
ву@@ 1
ческо 1
око@@ 1
главно 1
изкуство 1
Мла@@ 1
информация 1
течение 1
од@@ 1
малък 1
Света 1
издава 1
двамата 1
много@@ 1
щият 1
музика@@ 1
поста@@ 1
фал@@ 1
кур@@ 1
нау@@ 1
1980 0.8830648810712113
зона 1
ъра 1
Елизабет 1
участ@@ 1
Описание 1
компания 1
нове 1
изпълните@@ 1
Сан@@ 1
Сърбия 1
чите 1
дале@@ 1
кораба 1
насо@@ 1
територия 1
стена 1
нската 1
лип@@ 1
кораби 1
ващите 1
народен 1
щото 1
стран@@ 1
гане 1
въстание 1
гнат 1
влияние 1
изследвания 1
самостояте@@ 1
Сан 1
разли@@ 1
футбо@@ 1
Константин 1
Варна 1
север@@ 1
низи@@ 1
поле 1
зва 1
развитието 1
рон 1
Лудвиг 1
сп@@ 1
бъ@@ 1
бой@@ 1
кови 1
събрание 1
кръг 1
тив@@ 1
тук 1
чен@@ 1
осъ@@ 1
изгра@@ 1
градове 1
Йе@@ 1
предста@@ 1
уни@@ 1
планина 1
произве@@ 1
сан@@ 1
обще@@ 1
извърш@@ 1
днеш@@ 1
Дей@@ 1
Чи@@ 1
исторически 1
защита 1
политика 1
­ 1
Фор@@ 1
Участва 1
фи 1
писател 1
Австралия 1
опит 1
mm 1
B@@ 0.12114117808116785
ото 1
прием@@ 1
артиле@@ 1
официално 1
почи@@ 1
фер@@ 1
производство 1
българските 1
новете 1
половина 1
тото 1
жан@@ 1
обви@@ 1
риа@@ 1
електри@@ 1
прави@@ 1
спе@@ 1
целия 1
случай 1
професор 1
завръща 1
водата 1
нен@@ 1
наси@@ 1
бле@@ 1
ческите 1
500 1
идва 1
изцяло 1
1993 0.8366364145723174
членове 1
лява 1
лагат 1
ционни 1
Пра@@ 1
инте@@ 1
произведения 1
установ@@ 1
зата 1
Шу@@ 1
преброяването 1
неговия 1
погре@@ 1
вич 1
Лондон 1
рове 1
пита@@ 1
развива 1
ций 1
обявява 1
стват 1
тият 1
култура 1
ления 1
Кам@@ 1
ум@@ 1
рису@@ 1
Украйна 1
гер 1
окол@@ 1
позиция 1
шката 1
графи@@ 1
тай@@ 1
тична 1
против 1
участват 1
подкреп@@ 1
Международ@@ 1
ческата 1
обра@@ 1
правят 1
следващите 1
появява 1
Пу@@ 1
Тър@@ 1
она@@ 1
гането 1
мента@@ 1
лство 1
2019 0.3896250258474693
Благо@@ 1
вил 1
сестра 1
стка 1
чена 1
дар 1
45 1
пови@@ 1
съд 1
Под@@ 1
евре@@ 1
тин 1
A@@ 0.14122971580010624
ждането 1
музей 1
положение 1
тел@@ 1
Народ@@ 1
планината 1
острова 1
дво@@ 1
точ@@ 1
Но 1
кораб 1
кор@@ 1
лан 1
села 1
шава 1
нер@@ 1
1943 1
чин 1
крат@@ 1
първо 1
2@@ 0.7867547688021137
0@@ 0.9393542400209345
L@@ 0.1135040053151035
Ран@@ 1
консу@@ 1
1@@ 1
Ак@@ 1
Бразилия 1
жените 1
кот@@ 1
управля@@ 1
1878 1
мени 1
състояние 1
прину@@ 1
рии 1
ум 1
Вто@@ 1
уби@@ 1
иг@@ 1
Източна 1
клуб 1
T@@ 0.11520957170903702
Воен@@ 1
лова 1
тика 1
всичко 1
двой@@ 1
автор 1
щи@@ 1
дават 1
тег@@ 1
земи 1
първоначално 1
ол@@ 1
дин 1
длъж@@ 1
менти 1
гене@@ 1
игри 1
вестник 1
коми@@ 1
между@@ 1
Дъ@@ 1
тори 1
годината 1
Държав@@ 1
дипло@@ 1
условия 1
Бан@@ 1
пен 1
владе@@ 1
кой 1
висо@@ 1
Сред 1
Ком@@ 1
1970 0.8832207223791343
Г 1
кин 1
Кан@@ 1
br 1
Пар@@ 1
помощта 1
здра@@ 1
хими@@ 1
значително 1
1900 1
изобраз@@ 1
компози@@ 1
напа@@ 1
лага 1
авто@@ 1
шу@@ 1
Разположено 1
себе 1
спече@@ 1
Сти@@ 1
демокра@@ 1
райони 1
техните 1
вец 1
стика 1
уме@@ 1
довете 1
системи 1
издаден 1
убе@@ 1
километра 1
изследовате@@ 1
проект 1
сли@@ 1
план@@ 1
езици 1
шев 1
V@@ 0.16493256881573698
щение 1
открива 1
чина 1
годините 1
кни@@ 1
1918 1
флот 1
Фамилия 1
столицата 1
нина 1
формата 1
институт 1
мон 1
ян@@ 1
фон@@ 1
записва 1
цели 1
причи@@ 1
взе@@ 1
представител 1
сви@@ 1
последовате@@ 1
Гер@@ 1
елементи 1
пад@@ 1
съхра@@ 1
включ@@ 1
рис 1
включват 1
обществе@@ 1
Източ@@ 1
разположена 1
пръв 1
E@@ 0.15891951958957798
пря@@ 1
българско 1
компанията 1
мар 1
шампион 1
иде@@ 1
отво@@ 1
тура 1
Стара 1
зов 1
нав@@ 1
тов 0.8938895102459941
the 0.004313088331482886
Марк 1
лър 1
мир@@ 1
производ@@ 1
шата 1
алната 1
пис 1
поя@@ 1
сто 1
рик 1
кси@@ 1
ланд 1
книгата 1
глав@@ 1
военен 1
32 1
основава 1
селище 1
уче@@ 1
точки 1
европей@@ 1
позволява 1
смята 1
участието 1
близост 1
Ев@@ 1
Австрия 1
успе@@ 1
търгов@@ 1
пътя 1
бър 1
секретар 1
следващата 1
версия 1
възник@@ 1
Вла@@ 1
френ@@ 1
кол@@ 1
решение 1
G@@ 0.11694671600565527
ческия 1
вяр@@ 1
макар 1
1960 0.946362674490829
освен 1
йс 1
75 1
яне 1
ьо 1
зване 1
модер@@ 1
ъм 1
Други 1
обща 1
часа 1
предлага 1
състав@@ 1
мери@@ 1
средства 1
освобо@@ 1
брак 1
дати@@ 1
титлата 1
толкова 1
F@@ 0.12047233840309639
пли@@ 1
реали@@ 1
Между 1
независи@@ 1
окръ@@ 1
оти@@ 1
1940 1
лет 1
изключително 1
колек@@ 1
бур@@ 1
доби@@ 1
лска 1
задъл@@ 1
оказва 1
армията 1
тек@@ 1
песен 1
сезона 1
зар 1
тех@@ 1
cm 1
завърш@@ 1
военна 1
сметка 1
рява 1
Ек@@ 1
работата 1
изо@@ 1
лизи@@ 1
лите@@ 1
мона@@ 1
дело 1
1942 1
Послед@@ 1
лож@@ 1
Хай@@ 1
чване 1
Жи@@ 1
математи@@ 1
писате@@ 1
езерото 1
Све@@ 1
Мексико 1
Сле@@ 1
ниво 1
У 1
такива 1
шко 1
процес 1
шест 1
Първоначално 1
пуска 1
Не 1
къщи 1
заместник 1
алните 1
филми 1
сигурност 1
аб@@ 1
реги@@ 1
втория 1
писан 1
стопан@@ 1
помощ 1
Унгария 1
прото@@ 1
взема 1
разкри@@ 1
Фу@@ 1
e@@ 0.12269134474850207
Уи@@ 1
ец 1
Анти@@ 1
добър 1
понякога 1
бол@@ 1
ито 1
Ен@@ 1
мени@@ 1
стане 1
губи 1
Тео@@ 1
Пан@@ 1
големият 1
наблю@@ 1
Й@@ 1
заве@@ 1
показва 1
своето 1
смя@@ 1
отношения 1
ктор 1
пое@@ 1
икономиче@@ 1
ански 1
необходи@@ 1
2020 0.3671838408280151
температура 1
мни 1
омъжва 1
награди 1
съеди@@ 1
следните 1
дж 1
форма@@ 1
ванията 1
гръ@@ 1
дости@@ 1
българския 1
Син@@ 1
ун 1
сграда 1
Стра@@ 1
Църквата 1
гр 1
новия 1
духов@@ 1
дали 1
ул 1
мията 1
концер@@ 1
изку@@ 1
Много 1
представя 1
студи@@ 1
ващо 1
зави@@ 1
изя@@ 1
намира@@ 1
мрежа 1
Канада 1
възможност 1
рок 1
de 0.005577443788920281
Же@@ 1
юж@@ 1
права 1
Въ@@ 1
новен 1
рам@@ 1
ели@@ 1
събития 1
R@@ 0.11588853707804309
учеб@@ 1
дом 1
запис@@ 1
Лан@@ 1
ар 1
дан 1
ологи@@ 1
щава 1
1986 0.8833980232022205
отказва 1
основа 1
сва@@ 1
зите 1
Р 1
дружество 1
изи@@ 1
300 1
Френ@@ 1
числе@@ 1
състоя@@ 1
съста@@ 1
висока 1
нари@@ 1
съюз@@ 1
Централна 1
определя 1
вари@@ 1
рение 1
пет@@ 1
стандар@@ 1
Още 1
жд@@ 1
испан@@ 1
1988 0.8069358751678615
проблеми 1
нито 1
нор@@ 1
Кру@@ 1
потреб@@ 1
списание 1
лният 1
спек@@ 1
забра@@ 1
Глав@@ 1
южната 1
Йоан 1
годишен 1
разви@@ 1
стан 1
оце@@ 1
Кирил 1
отли@@ 1
вът 1
изуча@@ 1
Бен@@ 1
животни 1
1950 0.9538688147073714
стаби@@ 1
коро@@ 1
хай@@ 1
минава 1
обе@@ 1
съдържа 1
казват 1
създадена 1
чита@@ 1
Ел@@ 1
каз 1
зин@@ 1
достигат 1
цвет@@ 1
съществува 1
постав@@ 1
нато@@ 1
цу@@ 1
так@@ 1
Преди 1
лиза 1
рас@@ 1
став@@ 1
ток 1
бив@@ 1
дно 1
... 0.6831860755189202
новите 1
1934 1
властта 1
памет@@ 1
възмож@@ 1
военно@@ 1
гру@@ 1
рамките 1
твор@@ 1
области 0.9395718332716915
N@@ 0.12393774849011463
Север@@ 1
вери@@ 1
византи@@ 1
извършва 1
Тай@@ 1
1905 1
опитва 1
зву@@ 1
ясно 1
тиче@@ 1
херцо@@ 1
сон 1
месец 1
оръдия 1
y@@ 0.17926300568125866
треньор 1
двама 1
Ако 1
психо@@ 1
Тра@@ 1
литератур@@ 1
родена 1
назна@@ 1
Египет 1
оло@@ 1
посве@@ 1
културата 1
приток 1
реша@@ 1
хъл@@ 1
програма 1
Х 1
тски 1
ган 1
същия 1
северната 1
сел 1
религиоз@@ 1
шите 1
източ@@ 1
лищ@@ 1
присъеди@@ 1
публикува 1
впоследствие 1
хиляди 1
националния 1
напра@@ 1
смърт 1
.. 1
извън 1
хран@@ 1
Ос@@ 1
срещ@@ 1
Кли@@ 1
ева 1
басейн 1
границата 1
бе 1
интер@@ 1
основните 1
цът 1
Румъния 1
вън@@ 1
опит@@ 1
сръб@@ 1
извест@@ 1
проуч@@ 1
западна 1
сове 1
телевизион@@ 1
лис 1
Ско@@ 1
зано 1
хия 1
Гре@@ 1
еки@@ 1
избори 1
лист@@ 1
Сре@@ 1
автомоби@@ 1
футбол 1
попада 1
гори 1
интере@@ 1
разру@@ 1
вяват 1
преми@@ 1
загу@@ 1
рон@@ 1
Бър@@ 1
дате@@ 1
ково 1
наградата 1
нати 1
доста 1
стен@@ 1
Джи@@ 1
кате@@ 1
стър@@ 1
вка 1
построена 1
леген@@ 1
кара 1
тялото 1
поле@@ 1
модел 1
1985 0.8419423672189216
Стру@@ 1
Сте@@ 1
пъту@@ 1
1920 1
-@@ 0.5940050059931623
Бру@@ 1
установява 1
Анто@@ 1
плъ@@ 1
вест@@ 1
принцеса 1
фина@@ 1
начело 1
ця@@ 1
поема 1
они@@ 1
обработ@@ 1
рец 1
рак 1
ръко@@ 1
1987 0.810758870543686
аген@@ 1
раб@@ 1
причина 1
следва@@ 1
Името 1
O@@ 0.14861920115818963
Население 1
иска 1
склю@@ 1
жела@@ 1
отраз@@ 1
срещат 1
възможно 1
зе 1
изпълнява 1
немски 1
опреде@@ 1
бун@@ 1
деец 1
кон 1
жу@@ 1
създаден 1
Пор@@ 1
лението 1
одрин@@ 1
пите 1
случаи 1
капитан 1
рина 1
тран@@ 1
езеро 1
ут@@ 1
представители 1
премина@@ 1
Само@@ 1
рова 1
сега 1
рите@@ 1
тури 1
1984 0.8251315615247269
фамилията 1
кариерата 1
коп@@ 1
финансо@@ 1
ам@@ 1
рения 1
автоно@@ 1
получават 1
кин@@ 1
H@@ 0.10494373219652979
Бро@@ 1
38 1
Гру@@ 1
1939 1
Първите 1
вока@@ 1
клю@@ 1
пя@@ 1
пе 1
строе@@ 1
кър@@ 1
вай@@ 1
проце@@ 1
засе@@ 1
1981 0.880409975567285
XX 1
тру@@ 1
Произход 1
слън@@ 1
1968 0.9169762115857011
прекра@@ 1
боле@@ 1
остав@@ 1
тки 1
култур@@ 1
Борис 1
ела 1
национален 1
хва@@ 1
архи@@ 1
фото@@ 1
циона@@ 1
тов@@ 1
33 1
Берлин 1
япон@@ 1
офицер 1
Светов@@ 1
населе@@ 1
бни 1
комунистиче@@ 1
четата 1
времен@@ 1
Виена 1
лон 1
скорост 1
тат@@ 1
пока@@ 1
високо 1
клас 1
бит@@ 1
основни 1
1974 0.9055644567964437
пома@@ 1
географ@@ 1
енергия 1
стъпва 1
Балканската 1
ема 1
дем 1
шена 1
34 1
арти@@ 1
региона 1
роман@@ 1
точно 1
бо 1
нис 1
чението 1
статут 1
из 0.19262399767031124
Джеймс 1
пак 1
митрополит 1
хро@@ 1
път@@ 1
помага 1
Също 1
войници 1
Баща 1
епархия 1
промени 1
сътруд@@ 1
знач@@ 1
тю@@ 1
десе@@ 1
жерт@@ 1
ционна 1
чани 1
негов 1
джи 1
жка 1
1979 0.8657480701094759
печат@@ 1
гора 1
планински 1
план 1
как 0.32801765511631215
мед 1
среда 1
насе@@ 1
W@@ 0.11117781546861025
клет@@ 1
ке 0.47615257462784166
вижда 1
занимава 1
храм 1
специ@@ 1
ляване 1
лист 1
производството 1
щаб 1
долината 1
зация 1
39 1
мна 1
трите 1
1978 0.8902096852898511
кат@@ 1
име@@ 1
пристани@@ 1
1948 1
VI 1
1971 0.9001535996412802
големия 1
събити@@ 1
църков@@ 1
чието 1
типа 1
Ам@@ 1
Кър@@ 1
Мор@@ 1
Нор@@ 1
Административен 1
Северо@@ 1
Тур@@ 1
Хоен@@ 1
турнира 1
лог 1
посока 1
широко 1
Или@@ 1
убит 1
1928 1
земя 1
цве@@ 1
Кал@@ 1
Тер@@ 1
контрол 1
ралния 1
сне@@ 1
влизат 1
мент 1
ляне 1
части@@ 1
1982 0.8312969955159507
увели@@ 1
55 1
чност 1
фу@@ 1
бург@@ 1
ковски 1
сед@@ 1
шия 1
брего@@ 1
избя@@ 1
насят 1
1976 0.8720487107993273
рийски 1
отбелязва 1
ьор 1
Разположен 1
структура 1
дълго 1
характер@@ 1
местообитание 1
сул@@ 1
победа 1
1946 1
Ата@@ 1
открити 1
Сер@@ 1
преси@@ 1
сам 1
чето 1
тури@@ 1
винаги 1
Вър@@ 1
Левски 1
школа 1
симво@@ 1
европейски 1
кратко 1
ология 1
къл 1
бю@@ 1
йо@@ 1
зани 1
присти@@ 1
тичен 1
Владимир 1
практика 1
гът 1
проекта 1
италиански 1
войни 1
турен 1
оригина@@ 1
ръководството 1
1972 0.8292649032176518
um 0.13233002617083237
Вай@@ 1
Кьо@@ 1
шение 1
сградата 1
нет 1
твърди 1
стра 1
столица 1
берт 1
тични 1
37 1
използвани 1
Британ@@ 1
Гри@@ 1
момент 1
запла@@ 1
сии 1
местните 1
1930 1
т.нар. 1
чест 1
вле@@ 1
загла@@ 1
Ст@@ 1
университета 1
дел 1
правител@@ 1
един@@ 1
зан@@ 1
чения 1
жни 1
засел@@ 1
промен@@ 1
ограни@@ 1
дра 1
вън 1
лската 1
т.е. 1
ради@@ 1
дял 1
иска@@ 1
творчество 1
маси@@ 1
къща 1
остават 1
тар 1
камен@@ 1
турската 1
42 1
йското 1
нати@@ 1
основа@@ 1
Димитров 1
нд 1
b@@ 0.11332044311549094
темпера@@ 1
цялото 1
Нико@@ 1
грани@@ 1
Градът 1
Род@@ 1
стер@@ 1
традицион@@ 1
рено 1
четири@@ 1
65 0.9943120940947733
Всички 1
1975 0.802247771206351
благород@@ 1
унгар@@ 1
редактор 1
сий 1
геро@@ 1
общество 1
разв@@ 1
присъединява 1
1947 1
океан 1
метър 1
I@@ 0.18431895025017606
рез@@ 1
цо 1
Калифорния 1
ид@@ 1
постепенно 1
предизви@@ 1
побе@@ 1
хвър@@ 1
ей 1
жителите 1
Алек@@ 1
Ара@@ 1
стру@@ 1
въздуш@@ 1
гол 1
обла@@ 1
напре@@ 1
36 1
истин@@ 1
Джу@@ 1
нителни 1
A 0.103532453019895
жеството 1
ръководител 1
продук@@ 1
свързва 1
Вис@@ 1
ствието 1
яр@@ 1
подчи@@ 1
чаване 1
радио@@ 1
Днес 1
прив@@ 1
наричат 1
мит@@ 1
каза 1
хове 1
1969 0.8955033651365903
мани@@ 1
Национа@@ 1
гъл 1
Солун 1
анали@@ 1
Ото 1
уча@@ 1
лати@@ 1
битка 1
Ръ@@ 1
австри@@ 1
1973 0.8469989496679554
оча@@ 1
Лай@@ 1
Площта 1
организацията 1
рият 1
нични 1
1983 0.7843700651440263
Започва 1
обо@@ 1
скоро@@ 1
гръцката 1
кови@@ 1
предло@@ 1
отива 1
сил@@ 1
затво@@ 1
земята 1
проя@@ 1
дете 1
спон@@ 1
месе@@ 1
православна 1
зад 1
Ци@@ 1
заминава 1
1927 1
изче@@ 1
революция 1
нска 1
63 1
a@@ 0.2005466695579091
йл 1
лацията 1
Югославия 1
полуостров 1
Луи 1
Тодор 1
американ@@ 1
лд@@ 1
сгради 1
76 1
Саксония 1
чват 1
парк 1
организации 1
1919 1
реките 1
писва 1
in 0.005676329388601642
ителя 1
пода@@ 1
турски 1
съответно 1
семейства 1
Сли@@ 1
специално 1
държавата 1
1923 1
1967 0.8885176377974943
бан 1
Един 1
гел 1
бивш 1
добав@@ 1
посе@@ 1
пия 1
различните 1
забележител@@ 1
вин 1
стин@@ 1
еро@@ 1
мин 1
Земята 1
Фо@@ 1
трети 1
описва 1
стата 1
изпраща 1
дън 1
актьор 1
Фри@@ 1
българското 1
пълно@@ 1
бор 1
общин@@ 1
82 1
технологи@@ 1
издате@@ 1
Игра@@ 1
сор@@ 1
фигу@@ 1
стът 1
64 1
Кур@@ 1
пом@@ 1
науки 1
станция 1
издание 1
Запад@@ 1
Голе@@ 1
дворец 1
румъ@@ 1
1962 0.9657119407216155
Европей@@ 1
манастира 1
41 1
48 1
благо@@ 1
Бургас 1
85 1
Павел 1
Кул@@ 1
тивно 1
майор 1
отделни 1
организира 1
зависимост 1
щен 1
актриса 1
основата 1
пие@@ 1
селе@@ 1
успешно 1
фикация 1
граница 1
съсед@@ 1
Създа@@ 1
резултат@@ 1
лация 1
дка 1
местността 1
Американ@@ 1
1966 0.9090812714155866
мно 1
мостта 1
подписва 1
военно 1
полковник 1
вну@@ 1
статистиката 1
материали 1
et 0.020466454899648167
режи@@ 1
вор@@ 1
Тро@@ 1
стои 1
най@@ 1
44 1
кралство 1
парти@@ 1
транс@@ 1
зването 1
източна 1
превър@@ 1
крайна 1
открит 1
изслед@@ 1
титла 1
бло@@ 1
начало 1
дълго@@ 1
сравнително 1
господар 1
52 1
бого@@ 1
неу@@ 1
Вра@@ 1
ства@@ 1
1965 0.8864968116585266
вторият 1
150 1
нския 1
стига 1
БКП 1
системата 1
ограниче@@ 1
мюсюлман@@ 1
живе@@ 1
глед 1
копи@@ 1
Георг 1
Община 1
Пара@@ 1
46 1
Бри@@ 1
бое@@ 1
науч@@ 1
1977 0.8224004250582286
X 0.5695387178105795
когото 1
финала 1
1959 1
1964 0.8693171980463427
Бай@@ 1
нес@@ 1
Тук 1
литера@@ 1
преде@@ 1
търго@@ 1
1915 1
гео@@ 1
Мин@@ 1
мбо@@ 1
пило@@ 1
гара 1
вета 1
ждението 1
Пон@@ 1
лност 1
Бор@@ 1
Жан 1
дение 1
Уилям 1
епоха 1
подгот@@ 1
практи@@ 1
стой@@ 1
избра@@ 1
управлява 1
Тогава 1
Чар@@ 1
патриар@@ 1
Тек@@ 1
южно 1
административ@@ 1
преимену@@ 1
ителност 1
следващия 1
Кай@@ 1
паметник 1
папа 1
уе@@ 1
57 1
1949 1
лския 1
95 1
Работи 1
1938 0.9904683136538711
Формула 1
54 1
жават 1
меха@@ 1
2021 0.3517967576780736
кръсто@@ 1
движ@@ 1
Ау@@ 1
Иванов 1
приемат 1
00 1
подкрепа 1
факултет 1
атор 1
каз@@ 1
смър@@ 1
Кир@@ 1
Ф 1
имало 1
наречен 1
седми@@ 1
стън 1
Пен@@ 1
скло@@ 1
оттег@@ 1
публи@@ 1
зо 1
лянето 1
първен@@ 1
преве@@ 1
първа 1
градът 1
Вой@@ 1
предостав@@ 1
K@@ 0.09123566322963934
женията 1
скри@@ 1
романа 1
рес 1
албан@@ 1
звез@@ 1
недо@@ 1
родния 1
градски 1
Хол@@ 1
политическа 1
o 0.06800889671620894
електрон@@ 1
дже@@ 1
зако@@ 1
хре@@ 1
музикан@@ 1
нейната 1
борба 1
гва 1
1961 0.9517972401019863
територии 1
хвърля 1
изво@@ 1
жество 1
отгле@@ 1
Заедно 1
мира 1
Н 1
майсто@@ 1
тния 1
1956 0.9426907974192875
79 1
художник 1
Голяма 1
посещава 1
северно 1
сява 1
ул@@ 1
поддържа 1
Гвинея 1
рели@@ 1
контра@@ 1
орден 1
проти@@ 1
обучение 1
1963 0.9064815350683493
вместо 1
Швеция 1
1000 1
злат@@ 1
прите@@ 1
дие 1
стени 1
комби@@ 1
реше@@ 1
73 1
миналото 1
катедра@@ 1
теория 1
Дъл@@ 1
Търново 1
маса 1
Кре@@ 1
глава 1
дома 1
лича 1
1958 0.9412155366887701
Меди@@ 1
аси@@ 1
съвмест@@ 1
българите 1
Вен@@ 1
Скопие 1
долара 1
хер 1
връщат 1
ходи 1
източници 1
действа 1
пери@@ 1
ски@@ 1
отколкото 1
магни@@ 1
стойност 1
премества 1
ъгъл@@ 1
Докато 1
известните 1
Кле@@ 1
бла@@ 1
обръ@@ 1
заги@@ 1
негово 1
средно 1
изиск@@ 1
клуба 1
активно 1
член@@ 1
Софи@@ 1
експери@@ 1
тана 1
тация 1
Злат@@ 1
62 1
1936 1
басе@@ 1
обект 1
купу@@ 1
отбра@@ 1
1924 1
93 1
жител@@ 1
селата 1
свой 1
водят 1
училището 1
дат@@ 1
латен 1
разполага 1
Тан@@ 1
400 1
чик 1
Между@@ 1
Член 1
кня@@ 1
рядко 1
47 1
ори@@ 1
йд 1
разби@@ 1
тво@@ 1
Ней@@ 1
Юж@@ 1
музиката 1
Константинопол 1
наследство 1
жите 1
различ@@ 1
Тракия 1
режисьор 1
подобни 1
чис@@ 1
телевизи@@ 1
лично 1
революционер 1
? 0.7039159250322893
ic@@ 0.19665670650956402
лу 1
мента 1
1926 1
вие 1
лие 1
успеш@@ 1
нео@@ 1
младеж@@ 1
нару@@ 1
цяло 1
езика 1
класа@@ 1
ствената 1
труд@@ 1
ленбург 1
никога 1
Кариера 1
Етнография 1
поддържа@@ 1
превод 1
мей@@ 1
мощ@@ 1
Мъ@@ 1
бозай@@ 1
зан 1
успяват 1
конститу@@ 1
горе@@ 1
сък 1
1903 1
аре@@ 1
работят 1
Родо@@ 1
римски 1
Пале@@ 1
x 0.2696646255497147
вет 1
взаимо@@ 1
мер 1
Е 1
ль@@ 0.27660681525271524
годишно 1
обита@@ 1
стати@@ 1
ia 0.1709871685724365
мият 1
техника 1
ползва 1
добра 1
роди@@ 1
учи@@ 1
люби@@ 1
създават 1
комуни@@ 1
Тъй 1
образува 1
статистика 1
броя 1
носител 1
сан 1
раните 1
хор@@ 1
стина 1
c@@ 0.09713775628484332
закри@@ 1
използването 1
варя 1
гон@@ 1
Пол@@ 1
дъщер@@ 1
моно@@ 1
скъ@@ 1
терито@@ 1
Ван@@ 1
поз@@ 1
тически 1
операция 1
изби@@ 1
тона 1
дома@@ 1
58 1
Гро@@ 1
режисьора 1
Лин@@ 1
млн. 1
поръ@@ 1
продължават 1
връзки 1
66 1
мена 1
помо@@ 1
крайцери 1
достатъчно 1
контро@@ 1
огром@@ 1
линии 1
43 1
поме@@ 1
миче@@ 1
нали@@ 1
бен@@ 1
слож@@ 1
германски 1
ensis 1
чуж@@ 1
моби@@ 1
бели 1
майстор 1
бира 1
герой 1
отбеля@@ 1
нар 1
нася@@ 1
микро@@ 1
против@@ 1
определени 1
разпреде@@ 1
Александ@@ 1
пото@@ 1
цин@@ 1
партията 1
мъже 1
средновеков@@ 1
Швейцария 1
число 1
Крал@@ 1
залив 1
Бит@@ 1
десети@@ 1
кция 1
издадена 1
зен@@ 1
последния 1
революционна 1
научни 1
попа@@ 1
храма 1
високи 1
74 1
88 1
1935 1
база 1
дов@@ 1
изработ@@ 1
67 1
реки 1
търговски 1
s@@ 0.05822115285579285
1952 0.9592488718586071
дълбочина 1
чиято 1
повърх@@ 1
дума 1
надесе@@ 1
експло@@ 1
меди@@ 1
броне@@ 1
възраст@@ 1
еми 1
1929 1
юри@@ 1
Дар@@ 1
Спа@@ 1
свои 1
1914 1
дебе@@ 1
сингъл 1
Първа 1
фронт 1
размери 1
51 1
Джордж 1
Ян@@ 1
цки 1
Запа@@ 1
сбург 1
Елена 1
n@@ 0.08615015717848519
Дю@@ 1
няване 1
ѐ@@ 1
ООН 1
офи@@ 1
имена 1
Софийския 1
1925 1
81 1
значи@@ 1
собственост 1
минути 1
Колумбия 1
счита 1
славя@@ 1
обез@@ 1
административен 1
1921 1
86 1
влия@@ 1
генера@@ 1
лта 1
органи@@ 1
номер 1
използван 1
Ама@@ 1
християни 1
централната 1
ката@@ 1
хан 1
вицата 1
теат@@ 1
o@@ 0.11693966962363513
ент 1
гли 1
Кат@@ 1
настъп@@ 1
низ@@ 1
сексу@@ 1
съдържа@@ 1
ВМОРО 1
насти@@ 1
цвят 1
дението 1
янето 1
Остро@@ 1
жъл@@ 1
d@@ 0.08987861547649038
състезате@@ 1
мито@@ 1
вземат 1
т.н. 1
храна 1
войска 1
вало 1
фен@@ 1
Около 1
непре@@ 1
птици 1
творби 1
Тех@@ 1
тяхната 1
кър 1
дии 1
седем 1
серио@@ 1
достав@@ 1
художе@@ 1
тното 1
каф@@ 1
човека 1
графия 1
наследник 1
пру@@ 1
тина 1
къде 1
главния 1
икономически 1
полски 1
смес@@ 1
мото 1
ващата 1
1908 1
рит 1
Националната 1
награ@@ 1
нико@@ 1
уста@@ 1
племен@@ 1
1922 1
тирани 1
кара@@ 1
построен 1
Министерството 1
есента 1
78 1
кула 1
американската 1
войвода 1
въпро@@ 1
фир@@ 1
думи 1
Сар@@ 1
мина 1
вали@@ 1
дията 1
компютър@@ 1
атаку@@ 1
все@@ 1
потвър@@ 1
споменава 1
ов@@ 1
епи@@ 1
серия 1
държавен 1
линията 1
Русе 1
брега 1
Съществу@@ 1
94 1
уз@@ 1
on 0.01717299508531171
ническа 1
96 1
предназна@@ 1
1951 1
ничен 1
ражда 1
такъв 1
зни 1
контак@@ 1
втора 1
Чу@@ 1
продукти 1
Брат 1
комплекс 1
поп 1
слав@@ 1
краси@@ 1
маги@@ 1
84 1
сер@@ 1
формира 1
чината 1
жна 1
1953 0.9604989486467508
мас@@ 1
мето 1
носе@@ 1
равни@@ 1
Римската 1
създаване 1
1877 1
Велики 1
Ол@@ 1
зар@@ 1
Музи@@ 1
вдо@@ 1
p@@ 0.081769114621906
Белгия 1
1933 0.9398025948166858
56 1
жки 1
игра 1
Кни@@ 1
осигур@@ 1
променя 1
върха 1
код 1
после 0.5470258589594343
специали@@ 1
1957 0.8978176201824555
обратно 1
прости@@ 1
крайцера 1
меня 1
шения 1
Демокра@@ 1
утвър@@ 1
фла@@ 1
Горна 1
власти 1
изме@@ 1
61 1
Руската 1
нарича@@ 1
Орга@@ 1
пристига 1
провеждат 1
хан@@ 1
Загора 1
поредица 1
укра@@ 1
нев 1
дал 1
моти@@ 1
екипа@@ 1
престъп@@ 1
71 1
защитава 1
77 1
Съединените 1
тропи@@ 1
53 1
вз@@ 1
Луций 1
католи@@ 1
расте@@ 1
1937 0.9503233276030442
мре@@ 1
тера@@ 1
Пав@@ 1
тивен 1
транспор@@ 1
гер@@ 1
характер 1
Филмът 1
оне@@ 1
изкуството 1
Ари@@ 1
съл 1
братя 1
Але@@ 1
ис@@ 1
снаб@@ 1
1904 1
Мер@@ 1
премах@@ 1
земедел@@ 1
кани 1
дела 1
дълги 1
стату@@ 1
бъл 1
пролетта 1
разузна@@ 1
писи 1
съпру@@ 1
дорф 1
нейните 1
академи@@ 1
излож@@ 1
постоян@@ 1
Университета 1
дови@@ 1
провин@@ 1
Димит@@ 1
склонове 1
зам@@ 1
72 1
президент@@ 1
федера@@ 1
1917 1
Под 1
роли 1
селища 1
възра@@ 1
Гар@@ 1
опис@@ 1
Хон@@ 1
налага 1
образуват 1
моне@@ 1
площа@@ 1
единствено 1
лец 1
употреба 1
ристи@@ 1
френския 1
дената 1
направи 1
принц 1
Вене@@ 1
проф 1
тира@@ 1
Васи@@ 1
Мит@@ 1
подходя@@ 1
беше 1
пов@@ 1
Йор@@ 1
държа@@ 1
тора 1
Бел@@ 1
полага 1
затова 1
комуника@@ 1
ико@@ 1
последната 1
пехотен 1
палу@@ 1
пари 1
фран@@ 1
VII 1
68 1
именно 1
полож@@ 1
военните 1
al@@ 0.08259832870238486
y 0.014809934576164254
католиче@@ 1
98 1
знание 1
91 1
осъществява 1
украин@@ 1
зъ@@ 1
Франц 1
футболен 1
мор 1
пече@@ 1
албу@@ 1
изключение 1
многобро@@ 1
0,@@ 0.9901774990791311
Една 1
отряд 1
раке@@ 1
камък 1
сем@@ 1
тели 1
нително 1
лства 1
осем 1
творче@@ 1
наричан 1
Купата 1
тиран 1
взима 1
ним 1
тил 1
49 1
каме@@ 1
къл@@ 1
Сюжет 1
гласно 1
комисия 1
дейността 1
Спи@@ 1
принци@@ 1
регистри@@ 1
лиан@@ 1
1954 0.8831785450155601
лон@@ 1
Ед@@ 1
американска 1
интерес 1
моде@@ 1
обек@@ 1
международни 1
and 0.0052276848609433485
ѝ@@ 1
види@@ 1
Андре@@ 1
гон 1
използване 1
растения 1
любов@@ 1
Гай 1
заявява 1
намалява 1
сиг@@ 1
бин@@ 1
манасти@@ 1
Кали@@ 1
поста 1
старите 1
Мартин 1
отдел 1
линей@@ 1
Слу@@ 1
бита 1
благодарение 1
гов 1
преподава 1
сена 1
труд 1
заповед 1
хо 1
варя@@ 1
епизо@@ 1
пуснат 1
Дунав 1
пазар@@ 1
лед@@ 1
пуск@@ 1
строител@@ 1
събра@@ 1
бел@@ 1
появяват 1
вя 1
лез@@ 1
’ 0.05046378596586963
жът 1
текст 1
1932 1
дете@@ 1
тео@@ 1
ърс 1
лика 1
местни 1
сек@@ 1
пост 1
основан 1
нещо 1
сведения 1
кмет 1
вся@@ 1
теро@@ 1
измер@@ 1
изпратен 1
етата 1
алното 1
Съюза 1
дес@@ 1
1910 1
африкан@@ 1
корпус 1
носят 1
онът 1
товете 1
Повечето 1
Сту@@ 1
дените 1
побеждава 1
оръжие 1
тит@@ 1
кораб@@ 1
нено 1
сериал 1
Балкан@@ 1
орке@@ 1
космо@@ 1
пози@@ 1
западните 1
обекти 1
определя@@ 1
atus 1
щане 1
Сара@@ 1
кле@@ 1
ъри 1
железопъ@@ 1
вале@@ 1
линко@@ 1
тици 1
каза@@ 1
Евро@@ 1
Ок@@ 1
кам@@ 1
наречена 1
постъпва 1
веднага 1
зова@@ 1
родо@@ 1
гале@@ 1
Индонезия 1
Дани@@ 1
Робърт 1
възви@@ 1
телевизия 1
лизат 1
i@@ 0.12053132190887503
комплек@@ 1
идеята 1
огла@@ 1
сови 1
ландски 1
1955 0.8639306824479948
журнали@@ 1
траки@@ 1
замък 1
кори@@ 1
Все@@ 1
ево 1
крепост 1
алния 1
лето@@ 1
проек@@ 1
ляните 1
командването 1
стки 1
чия 1
биват 1
шат 1
сната 1
добри 1
Фердинанд 1
ефек@@ 1
скулп@@ 1
техниче@@ 1
онен 1
лейтенант 1
федерация 1
нови@@ 1
сра@@ 1
ЦСКА 1
жаване 1
старо@@ 1
Конрад 1
поддръ@@ 1
св 1
уд@@ 1
клон 1
вената 1
прекъс@@ 1
седа@@ 1
студен@@ 1
цяла 1
дебю@@ 1
срещи 1
изка@@ 1
скан@@ 1
ляр@@ 1
ралната 1
Ул@@ 1
относно 1
B 0.22955196424163513
просто 1
изви@@ 1
едновременно 1
t 0.05936132598034701
етите 1
59 1
режим 1
материал 1
разгле@@ 1
вече@@ 1
ключва 1
Спо@@ 1
богат@@ 1
Свет@@ 1
лки 1
открито 1
принадле@@ 1
Атина 1
самия 1
стадион 1
чийто 1
89 1
наля@@ 1
Въл@@ 1
Сал@@ 1
тяхното 1
северозапад 1
количество 1
раната 1
мална 1
ску@@ 1
аз@@ 1
цио@@ 1
Обеди@@ 1
Охри@@ 1
училища 1
Семей@@ 1
макси@@ 1
полета 1
пространство 1
тяло 1
Междусъюзническата 1
мисле@@ 1
контроли@@ 1
фло@@ 1
Аржентина 1
гне@@ 1
произлиза 1
сова 1
87 1
държа 1
постоянно 1
Автор 1
Бя@@ 1
дръ@@ 1
гун@@ 1
типи@@ 1
Ернст 1
изве@@ 1
негови 1
Ню@@ 1
сели@@ 1
Албания 1
нача@@ 1
Южен 1
опи@@ 1
изра@@ 1
лва 1
Томас 1
изпълнение 1
прекарва 1
вро@@ 1
спрямо 1
Републикан@@ 1
ляз@@ 1
ac@@ 0.12288063665138163
изключ@@ 1
свидетел@@ 1
Вел@@ 1
бва 1
кос@@ 1
Бъ@@ 1
бира@@ 1
непосред@@ 1
дова 1
къв 1
Край@@ 1
информа@@ 1
сним@@ 1
орган 1
счита@@ 1
99 1
лос 1
лиза@@ 1
ческото 1
нация 1
мра@@ 1
оцен@@ 1
Ска@@ 1
ращи 1
мет 1
паша 1
бул 1
действието 1
квартал 1
визи@@ 1
специфи@@ 1
шах@@ 1
Слън@@ 1
какви 1
мето@@ 1
риите 1
нан@@ 1
точен 1
циви@@ 1
ствените 1
услови@@ 1
чният 1
гаш@@ 1
бове 1
йският 1
полови@@ 1
Хитлер 1
побед@@ 1
канал 1
Един@@ 1
жата 1
леги@@ 1
Рей@@ 1
добрите 1
иконо@@ 1
ph@@ 0.1843286726150052
Богородица 1
какво 1
оке@@ 1
лово 1
La 0.05459028744419219
бет 1
зала 1
реца 1
шкото 1
основен 1
Лъ@@ 1
лян 1
волю@@ 1
дух 1
спу@@ 1
Впоследствие 1
дов 0.9669065932577819
08 1
Село 1
пребро@@ 1
amp 0.18281930389956816
играят 1
съоръ@@ 1
победата 1
театра@@ 1
р. 1
Публи@@ 1
важна 1
уре@@ 1
голямото 1
президента 1
вина 1
кистан 1
хърват@@ 1
Фин@@ 1
претър@@ 1
1931 1
X@@ 0.3586279908202083
Пол 1
Тор@@ 1
поредицата 1
Фло@@ 1
строй@@ 1
тема 1
Откри@@ 1
Учи 1
гърци 1
Например 1
документи 1
нейния 1
гроб@@ 1
програмата 1
сравнение 1
разпо@@ 1
върхо@@ 1
исля@@ 1
Обикновено 1
функциони@@ 1
Кате@@ 1
ляват 1
наро@@ 1
нг 1
зало@@ 1
Едуард 1
рие 1
тието 1
сериала 1
щат@@ 1
високата 1
стот@@ 1
69 1
тима 1
чката 1
сим@@ 1
тическа 1
рес@@ 1
Ети@@ 1
библиотека 1
кона 1
нените 1
североизток 1
поня@@ 1
посла@@ 1
негова 1
руския 1
600 1
райки 1
чиито 1
енерги@@ 1
Става 1
бой 1
тивни 1
тогаваш@@ 1
общини 1
чева 1
Черно@@ 1
даден 1
компю@@ 1
Ъ@@ 1
ждават 1
лката 1
Живо@@ 1
Вин@@ 1
екра@@ 1
еска@@ 1
югоизток 1
Атлан@@ 1
икономика 1
въпроси 1
Корея 1
кал@@ 1
обича@@ 1
нара@@ 1
високо@@ 1
градовете 1
общност 1
Съвет@@ 1
дем@@ 1
Албрехт 1
Пру@@ 1
турнир 1
яв@@ 1
обса@@ 1
Зо@@ 1
Илия 1
класа 1
рито@@ 1
Следва@@ 1
изло@@ 1
ръководи 1
сблъ@@ 1
лове 1
1916 1
земно@@ 1
изградена 1
руската 1
н.в. 1
приет 1
рус 1
епо@@ 1
устието 1
причини 1
сътрудничество 1
основате@@ 1
конгрес 1
ография 1
Авто@@ 1
Тю@@ 1
лес 1
долу 1
университе@@ 1
швед@@ 1
бомбарди@@ 1
вната 1
британски 1
ас 1
импер@@ 1
списъ@@ 1
Дейвид 1
всяко 1
мом@@ 1
кана 1
in@@ 0.056078481060654044
висок 1
екс@@ 1
сар 1
нейното 1
разбира 1
Макар 1
пто@@ 1
1906 1
лев@@ 1
Бю@@ 1
всичките 1
обикнове@@ 1
важни 1
получи 1
определен 1
укреп@@ 1
g@@ 0.07888919461180191
пускат 1
Първото 1
хидро@@ 1
показват 1
автор@@ 1
лища 1
Интер@@ 1
енен 1
изли@@ 1
крепостта 1
or@@ 0.0929853769340929
ерата 1
съществуват 1
d 0.06527867962532768
падането 1
подно@@ 1
зер@@ 1
извън@@ 1
правото 1
фолкло@@ 1
първонача@@ 1
Каме@@ 1
портре@@ 1
Гръ@@ 1
тност 1
лови 1
руп@@ 1
гии 1
лива 1
метри@@ 1
суб@@ 1
софту@@ 1
Родена 1
погребан 1
ставлява 1
манд@@ 1
основната 1
разказва 1
Първи 1
t@@ 0.058576771550767036
учени 1
архитек@@ 1
промиш@@ 1
повре@@ 1
върне 1
сво@@ 1
Стро@@ 1
дис 1
екзархи@@ 1
рус@@ 1
фект 1
краля 1
фрай@@ 1
сни@@ 1
страните 1
Стан@@ 1
Кня@@ 1
едноимен@@ 1
пробле@@ 1
ционно 1
S 0.288537785003541
Дел@@ 1
царство 1
км2 1
тери@@ 1
обхваща 1
подпис@@ 1
полет 1
Еле@@ 1
лер@@ 1
Л 1
гда@@ 1
контин@@ 1
Ботев 1
дател 1
континента@@ 1
приятел 1
Гос@@ 1
дий 1
изследване 1
йка 1
сово 1
Прин@@ 1
философия 1
92 1
сцена 1
Бело@@ 1
партн@@ 1
Попу@@ 1
Иран 1
km2 1
разполо@@ 1
ae 0.4808953365508975
поет 1
търговия 1
n 0.09613794105426542
затвор 1
мил 1
цени 1
големина 1
фаза 1
лекар 1
лината 1
лството 1
Август 1
въоръжение 1
удар@@ 1
вдъх@@ 1
живя@@ 1
племена 1
победи 1
Обитава 1
представляват 1
жено 1
извър@@ 1
фанта@@ 1
рекла@@ 1
ционните 1
свещеник 1
пси@@ 1
зрите@@ 1
приятел@@ 1
що@@ 1
подвод@@ 1
седмици 1
бригада 1
основана 1
хата 1
02 1
рев@@ 1
санд@@ 1
чество 1
индустри@@ 1
Хал@@ 1
произвежда 1
стове 1
вените 1
зането 1
кит@@ 1
оценка 1
фан@@ 1
гина@@ 1
Хр 1
дент 1
Израел 1
Рабо@@ 1
изграждането 1
83 1
джиев 1
дски 1
сят 1
яй@@ 1
Двамата 1
проекти 1
кат 1
лесно 1
Влади@@ 1
източник 1
крайбрежие 1
спан@@ 1
центри@@ 1
поход 1
предиш@@ 1
Национален 1
държи 1
селището 1
лицата 1
Мол@@ 1
данъ@@ 1
зон@@ 1
ресур@@ 1
Опера@@ 1
клу@@ 1
предше@@ 1
g 0.17712552425396094
нес 1
тари@@ 1
нямат 1
предизвиква 1
продължител@@ 1
1911 1
постига 1
гол@@ 1
фило@@ 1
Джор@@ 1
мигри@@ 1
Хесен 1
воен@@ 1
кар 1
осигурява 1
фек@@ 1
финал 1
124@@ 1
L 0.2522093019057418
писана 1
дина@@ 1
зло@@ 1
лар@@ 1
el@@ 0.08057393128200449
гове 1
образованието 1
F 0.357070578594921
специалност 1
спомена@@ 1
Успе@@ 1
енбург 1
рали 1
ана@@ 1
независимост 1
пата 1
дъж@@ 1
затвора 1
сигур@@ 1
натат@@ 1
обявен 1
тежки 1
форд 1
събира 1
Тру@@ 1
Долна 1
Ала@@ 1
анима@@ 1
въгле@@ 1
камъ@@ 1
притежава 1
Чо@@ 1
общ 1
1902 1
гради@@ 1
револю@@ 1
югозапад 1
Ради@@ 1
друго 1
лай@@ 1
въд@@ 1
науките 1
повя@@ 1
характери@@ 1
Георгиев 1
сли 1
флота 1
кап@@ 1
относ@@ 1
Малко 1
Мюнхен 1
граждани 1
правата 1
личе@@ 1
прин@@ 1
Дър@@ 1
Любо@@ 1
Климент 1
пон@@ 1
язови@@ 1
графство 1
лира 1
море@@ 1
йе@@ 1
руските 1
1907 1
главната 1
оборуд@@ 1
сберг 1
листи 1
Фили@@ 1
Хенри 1
чув@@ 1
ителните 1
юн@@ 1
лей 0.6692760923867959
мини 1
фика@@ 1
машини 1
Нидерландия 1
Христос 1
защите@@ 1
лице 1
свеще@@ 1
Юго@@ 1
изъм 1
постанов@@ 1
преподавател 1
Петров 1
бойни 1
медал 1
убийството 1
членовете 1
Адолф 1
западния 1
вице@@ 1
рово 1
говор 1
вариант 1
улица 1
Дан@@ 1
Сръб@@ 1
магистра@@ 1
монар@@ 1
хил. 1
Голямата 1
далеч 1
претен@@ 1
нас 1
увеличава 1
нало@@ 1
тивна 1
зато@@ 1
Кънчов 1
владетел 1
преди@@ 1
архитектура 1
открита 1
Шампи@@ 1
размер 1
Хен@@ 1
снати 1
on@@ 0.08888482588754641
вието 1
вила@@ 1
труп@@ 1
Коста 1
емо@@ 1
ранните 1
яна 1
бир@@ 1
гиня 1
главата 1
графски 1
лън 1
сми@@ 1
възста@@ 1
1909 1
поне 1
силата 1
тка 1
зимата 1
гство 1
лични 1
Никола@@ 1
ментите 1
Нос@@ 1
Стоян 1
дон 1
планини 1
народна 1
олимпийски 1
Вътрешната 1
впечат@@ 1
бизнес 1
ряване 1
J@@ 0.09385591155053603
ани@@ 1
династията 1
Коло@@ 1
f@@ 0.06784905857043318
120 1
замен@@ 1
пл@@ 1
див@@ 1
97 1
летия 1
ширина 1
номини@@ 1
автори 1
бед@@ 1
национално 1
ръковод@@ 1
Кин@@ 1
Мате@@ 1
монт 1
програ@@ 1
Мона@@ 1
мили 1
метро@@ 1
мяна 1
поези@@ 1
поставят 1
титу@@ 1
функции 1
инструменти 1
Браун@@ 1
няването 1
тък 1
чил 1
войските 1
привър@@ 1
Част 1
доказате@@ 1
залива 1
Кро@@ 1
къщата 1
Милано 1
Ну@@ 1
инициати@@ 1
ника@@ 1
загуби 1
зада@@ 1
кисе@@ 1
произведен 1
арестуван 1
Португалия 1
действа@@ 1
преминават 1
колкото 1
българ@@ 1
космиче@@ 1
Европейския 1
прияте@@ 1
лив 1
общи@@ 1
публиката 1
действ@@ 1
Словения 1
Ис@@ 1
Ели@@ 1
стъл@@ 1
гате@@ 1
тие 1
деля 1
избухването 1
отборът 1
пан 1
фор 1
жия 1
психи@@ 1
документа@@ 1
Атанас 1
гласу@@ 1
запазени 1
Насау 1
дърво 1
отне@@ 1
рания 1
цент 1
култури 1
особе@@ 1
er@@ 0.05983903543752399
Скоро 1
позволя@@ 1
синте@@ 1
технически 1
гент 1
Зи@@ 1
1885 1
цер@@ 1
05 1
единственият 1
съдържание 1
Бела@@ 1
Вален@@ 1
редо@@ 1
ващия 1
лева 1
рова@@ 1
Антон 1
индуст@@ 1
шаване 1
06 1
Солу@@ 1
нологи@@ 1
Лат@@ 1
Сим@@ 1
поне@@ 1
радио 1
Конго 1
r@@ 0.07416481311151937
1873 1
нини 1
проекти@@ 1
Втора 1
рел 1
ство@@ 1
фт 1
Али@@ 1
взри@@ 1
слад@@ 1
Ла 1
паз@@ 1
Вся@@ 1
бон 1
после@@ 1
устройство 1
Освобо@@ 1
гат@@ 1
дам 1
лег@@ 1
наблюдава 1
логията 1
Виктор 1
N 0.40104127066195894
езера 1
коно@@ 1
Фла@@ 1
зад@@ 1
подобно 1
минера@@ 1
въпрос 1
Неа@@ 1
новена 1
la 0.006032069081628761
Управ@@ 1
водач 1
старата 1
Филипи@@ 1
чужбина 1
om@@ 0.143092460007311
ителната 1
йците 1
Цариград 1
зина 1
надесет 1
участник 1
бежанци 1
Ц 1
ента 1
реле@@ 1
лизация 1
ност@@ 1
яко@@ 1
подготовка 1
целта 1
ефектив@@ 1
търси 1
Пат@@ 1
ковод@@ 1
пояснение 1
Шо@@ 1
престо@@ 1
Пит@@ 1
поставени 1
сва 1
наи@@ 1
Съвета 1
древно@@ 1
жката 1
придобива 1
армен@@ 1
пос@@ 1
Велико 1
продуци@@ 1
Численост 1
региона@@ 1
кралица 1
реш@@ 1
фелд 1
&#124; 0.41425904500762206
накрая 1
отстъп@@ 1
ракет@@ 1
Олимпи@@ 1
съветник 1
съветски 1
ядре@@ 1
доли@@ 1
кръст 1
стопанство 1
мол@@ 1
получа@@ 1
Херман 1
горе 1
слабо 1
кват 1
твърде 1
Среща 1
Бавария 1
дебютира 1
драв@@ 1
закон 1
дс 1
доброво@@ 1
ata 0.35952438147872534
er 0.018697025652307984
Майкъл 1
бран@@ 1
обслуж@@ 1
повърхността 1
национални 1
мю@@ 1
низация 1
Вит@@ 1
водите 1
драмати@@ 1
турци 1
дейности 1
осъщест@@ 1
th@@ 0.09821374995532811
програми 1
рез 1
ге 1
градата 1
зон 1
поро@@ 1
вода@@ 1
рич 1
категория 1
статии 1
ученици 1
ждан@@ 1
шан@@ 1
македоно 1
крайцер 1
ничка 1
местен 1
процеса 1
Ирландия 1
Оскар 1
убива 1
Кей@@ 1
Роб@@ 1
минът 1
карти@@ 1
лият 1
Руско 1
единици 1
източните 1
обществото 1
партии 1
експедиция 1
звезда 1
пясъ@@ 1
Кралство 1
броят 1
концеп@@ 1
ствия 1
церемо@@ 1
офор@@ 1
сбор@@ 1
ждение 1
звание 1
Истори@@ 1
Роман@@ 1
фестивал 1
журналист 1
медицина 1
онова 1
финанси@@ 1
миш@@ 1
смятат 1
Методий 1
архитектур@@ 1
Чет@@ 1
зел 1
рос 1
Сю@@ 1
джу@@ 1
опас@@ 1
Виетнам 1
жде@@ 1
кович 1
национална 1
музикални 1
250 1
Оли@@ 1
осно@@ 1
Хел@@ 1
архиепископ 1
динами@@ 1
Ей@@ 1
американския 1
мате@@ 1
такава 1
Лос 1
етап 1
любов 1
всъщност 1
ръка 1
търсен@@ 1
илю@@ 1
употре@@ 1
използвана 1
метод 1
играч 1
фести@@ 1
аку@@ 1
став 1
дина 1
компании 1
разруш@@ 1
социация 1
Акаде@@ 1
ралните 1
Еге@@ 1
изиграва 1
чар@@ 1
хожда 1
изборите 1
Бори@@ 1
напис@@ 1
охра@@ 1
малките 1
Белград 1
вди@@ 1
подава 1
Националния 1
отстра@@ 1
промяна 1
сис 1
характеристики 1
скали 1
границите 1
Стоянов 1
запад@@ 1
олог 1
хиля@@ 1
Норвегия 1
Съветския 1
включени 1
вци 1
градче 1
дефини@@ 1
добро 1
чването 1
ционната 1
04 1
Николов 1
отделя 1
тично 1
социалистиче@@ 1
Z@@ 0.09542580252174726
Специ@@ 1
водни 1
дължи 1
1901 1
трени@@ 1
предава 1
чита 1
I. 0.7699756891932918
еписко@@ 1
парламентар@@ 1
времена 1
хаузен 1
800 1
Хю@@ 1
гент@@ 1
заболя@@ 1
мисия 1
дието 1
писа@@ 1
социали@@ 1
зър@@ 1
моз@@ 1
забеля@@ 1
дят 1
помощник 1
последният 1
ляв 1
нало 1
отбори 1
свети@@ 1
турците 1
напред@@ 1
отговор@@ 1
l 0.0640559287212536
Епи@@ 1
глас 1
куп@@ 1
мунд 1
ура 1
обикол@@ 1
ави@@ 1
знак 1
sa 0.10718651412414819
атака 1
предварите@@ 1
разделя 1
второ 1
династия 1
лови@@ 1
пес@@ 1
специални 1
неговият 1
VIII 1
Ган@@ 1
остана@@ 1
Бил 1
тява 1
форму@@ 1
шките 1
приблизително 1
цбург 1
изне@@ 1
Босна 1
годишната 1
функция 1
десен 1
кана@@ 1
културно 1
оба@@ 1
основател 1
подо@@ 1
кен 1
черно@@ 1
09 1
k@@ 0.07265185316241382
имо@@ 1
премест@@ 1
Кристи@@ 1
Харак@@ 1
конкре@@ 1
ЦК 1
борбата 1
сръбски 1
новото 1
оните 1
Института 1
бав@@ 1
едноименния 1
елемент 1
забав@@ 1
запознава 1
предполага 1
НС 1
базата 1
въстанието 1
двор@@ 1
самолети 1
чът 1
пазар 1
Пана@@ 1
Теле@@ 1
араб@@ 1
принуден 1
систе@@ 1
газо@@ 1
лм 1
ваните 1
движението 1
пари@@ 1
убити 1
Ива@@ 1
братята 1
занима@@ 1
стено@@ 1
каби@@ 1
островите 1
морската 1
разнообраз@@ 1
туристи@@ 1
силите 1
Баден 1
нахлу@@ 1
Ня@@ 1
свързан 1
нки 1
окупи@@ 1
язви@@ 1
ol@@ 0.11078380576449137
индивиду@@ 1
пример 1
думата 1
налите 1
експеди@@ 1
операции 1
рас 1
низацията 1
догово@@ 1
реда@@ 1
земедели@@ 1
магази@@ 1
мис@@ 1
x@@ 0.19121090112006336
свързана 1
отговаря 1
управител 1
Окръг 1
вий 1
кино@@ 1
конфликт 1
играта 1
изкуства 1
каква 1
равнина 1
Кюстендил 1
изглежда 1
стични 1
Кол@@ 1
стро 1
Албу@@ 1
Ана@@ 1
двора 1
капита@@ 1
сценарий 1
вероя@@ 1
ничи 1
изма 1
световно 1
освободен 1
певица 1
македо@@ 1
тат 1
повод 1
единица 1
летие 1
чените 1
вията 1
избира 1
пусне 1
Ори@@ 1
уто 1
Както 1
преслед@@ 1
вку@@ 1
съобще@@ 1
нината 1
Пле@@ 1
моду@@ 1
списък 1
Пъ@@ 1
вод 1
братовче@@ 1
местното 1
отбраната 1
тон@@ 1
учението 1
хов@@ 1
маните 1
Юли@@ 1
ляни 1
сцената 1
кува 1
Асен 1
създадени 1
фен 1
ней 0.6461354035622294
Лей@@ 1
писмо 1
Реги@@ 1
замъка 1
мова 1
поля@@ 1
Сър@@ 1
сферата 1
сар@@ 1
хори@@ 1
рието 1
ническите 1
земе@@ 1
D 0.2519317548282121
Герман@@ 1
Пот@@ 1
Сви@@ 1
епизод 1
медици@@ 1
спечели 1
стически 1
Съединени 1
З 1
теоре@@ 1
Ричард 1
стов 1
това@@ 1
уси@@ 1
Перу 1
Мен@@ 1
тени 1
Рек@@ 1
катастро@@ 1
православ@@ 1
крайбрежи@@ 1
мину@@ 1
днев@@ 1
шкия 1
смисъл 1
Зал@@ 1
новски 1
оставя 1
талан@@ 1
турни@@ 1
стратеги@@ 1
Списък 1
кампания 1
светлина 1
частично 1
шо 1
завръщането 1
трибу@@ 1
кален@@ 1
мигра@@ 1
отговор 1
мпи@@ 1
03 1
инвести@@ 1
т. 1
1895 1
учител@@ 1
прово@@ 1
вземан@@ 1
съдеб@@ 1
драма 1
морето 1
трудно 1
Лон@@ 1
Съю@@ 1
тик 1
филмо@@ 1
Ной@@ 1
публикуван 1
ърк@@ 1
Гон@@ 1
нощта 1
църкви 1
бек 1
долина 1
реди@@ 1
съд@@ 1
лети 1
труда 1
Андрей 1
Аб@@ 1
основна 1
стените 1
ing 0.022020245993776187
знае 1
дълга 1
мачове 1
спът@@ 1
to 0.0054986178988343255
болница 1
дър 1
космически 1
секун@@ 1
главните 1
стия 1
прехвър@@ 1
ходите 1
медицин@@ 1
памет 1
повлия@@ 1
притоци 1
рица 1
рация 1
допри@@ 1
писания 1
тре 1
Плевен 1
Прав@@ 1
запазва 1
кви 1
фамилия 1
Рудолф 1
Хор@@ 1
лъчеперка 1
Върхов@@ 1
Сици@@ 1
дик@@ 1
офицери 1
изпълняват 1
сие 1
разкази 1
набро@@ 1
строителството 1
Тран@@ 1
империята 1
фрид 1
био@@ 1
граници 1
второто 1
физика 1
циф@@ 1
Гали@@ 1
вещества 1
испански 1
Среднове@@ 1
издига 1
лекар@@ 1
пътища 1
фин@@ 1
френската 1
G 0.30292460602519894
възможността 1
народ 1
наде@@ 1
позиции 1
астро@@ 1
южните 1
Дон@@ 1
каните 1
ливи 1
революцион@@ 1
хът 1
жба 1
специализи@@ 1
дадена 1
корабо@@ 1
Зиг@@ 1
нична 1
Същата 1
пехотна 1
07 1
І@@ 1
политиката 1
см 1
Област 1
Получава 1
борда 1
Вашингтон 1
Сен 1
екзархия 1
Сейнт 1
удар 1
традиция 1
1896 1
родителите 1
ot@@ 0.12463220260014768
мове 1
съдове 1
лас 1
приклю@@ 1
Битоля 1
северните 1
Петербург 1
приятели 1
Христов 1
предме@@ 1
фюр@@ 1
Габрово 1
соли@@ 1
доктор 1
общава 1
веднъж 1
световен 1
моги@@ 1
усло@@ 1
достъп 1
художествена 1
чужде@@ 1
Зем@@ 1
символ 1
тела 1
завладя@@ 1
ръцете 1
семей@@ 1
мало@@ 1
Зна@@ 1
Инди@@ 1
ай@@ 1
водосборния 1
полза 1
рови@@ 1
избух@@ 1
състезания 1
венството 1
дните 1
лато 1
определят 1
ради 1
морска 1
c 0.09799262042740266
Дебю@@ 1
Бол@@ 1
ползва@@ 1
отго@@ 1
Българска 1
Кипър 1
ске@@ 1
диалект 1
Среди@@ 1
Анге@@ 1
венту@@ 1
дири@@ 1
тежко 1
зор@@ 1
интен@@ 1
вер 1
методи 1
ителното 1
чети@@ 1
тъл@@ 1
сус 1
механиз@@ 1
нец 1
сение 1
колони@@ 1
купата 1
пенси@@ 1
изисква 1
дския 1
лезе 1
подви@@ 1
ителят 1
сро@@ 1
лост@@ 1
поче@@ 1
технологии 1
дон@@ 1
пка 1
градите 1
придру@@ 1
случа@@ 1
чан@@ 1
ено@@ 1
министер@@ 1
тий 1
листа 1
ьон@@ 1
надпис 1
нителна 1
щен@@ 1
дипломати@@ 1
Дания 1
СС 1
вкарва 1
позицията 1
en@@ 0.04332409590619029
Луис 1
банка 1
губ@@ 1
ку 0.3468084046700659
текстове 1
дебют 1
Илин@@ 1
осигу@@ 1
американските 1
мнение 1
природата 1
десет@@ 1
домини@@ 1
стари 1
Ах@@ 1
Северен 1
уника@@ 1
Групата 1
актьор@@ 1
молеку@@ 1
скон@@ 1
популярност 1
важен 1
жно 1
конструкция 1
чов 1
домакинства 1
ниска 1
гар 1
двор 1
джър 1
партизан@@ 1
ch@@ 0.055473614579579444
раждането 1
ВМРО 1
европейските 1
Проек@@ 1
събират 1
кило@@ 1
император@@ 1
линг 1
мигран@@ 1
неза@@ 1
an@@ 0.05764109925608109
жанра 1
останали 1
поте@@ 1
стката 1
Виз@@ 1
Коми@@ 1
Черна 1
бори 1
съпротив@@ 1
една@@ 1
избе@@ 1
конкурс 1
преме@@ 1
оли@@ 1
опълчение 1
горната 1
дол 1
нова@@ 1
жието 1
окупа@@ 1
Бат@@ 1
кохо@@ 1
лагер 1
цов 1
гау 1
Мел@@ 1
вят 1
музикален 1
бавно 1
навлиза 1
директно 1
процеси 1
свири 1
важ@@ 1
отправ@@ 1
Венеция 1
желез@@ 1
отхвър@@ 1
Черно 1
тече 1
1899 1
хите 1
Нача@@ 1
лийски 1
съм 1
двигател 1
трима 1
уда@@ 1
01 1
рил 1
am@@ 0.0938410627110965
лечение 1
романи 1
Йосиф 1
Кристиан 1
Малайзия 1
корабите 1
независимо 1
свобода 1
транспорт 1
Ада@@ 1
каче@@ 1
119@@ 1
признава 1
чево 1
институции 1
пътува 1
Анаста@@ 1
източния 1
португа@@ 1
курс 1
мести 1
звезди 1
научна 1
h 0.11453853756722417
влади@@ 1
нс 1
отношенията 1
Анджелис 1
Често 1
интернет 1
Ур@@ 1
природни 1
карта 1
нските 1
внимание 1
значителни 1
боли@@ 1
жително 1
Подоб@@ 1
обшир@@ 1
ръководство 1
es 0.017340616038426685
заре@@ 1
споразумение 1
наука 1
промишленост 1
Оби@@ 1
лиде@@ 1
трябвало 1
ут 1
поред@@ 1
Гьо@@ 1
Хам@@ 1
Санкт 1
капаците@@ 1
студент@@ 1
археологически 1
въста@@ 1
бер 1
кано@@ 1
криза 1
Гю@@ 1
ърът 1
Ебер@@ 1
лона 1
самата 1
застра@@ 1
слава 1
Йордан 1
изва@@ 1
копия 1
опити 1
срав@@ 1
Произ@@ 1
загуба 1
Хаджи@@ 1
Ген@@ 1
военната 1
Кристо@@ 1
аристокра@@ 1
кули 1
риал@@ 1
Няколко 1
тическия 1
Йозеф 1
мино@@ 1
широка 1
разстояние 1
останки 1
съчета@@ 1
ненията 1
задача 1
ловина 1
прести@@ 1
трона 1
японски 1
следи 1
услуги 1
млади 1
окси@@ 1
служе@@ 1
Римска 1
излъчва 1
инженер 1
чин@@ 1
Каролина 1
потенци@@ 1
преврат 1
Гран@@ 1
Фон@@ 1
меня@@ 1
нищо 1
окончателно 1
врата 1
определена 1
третата 1
едни 1
стване 1
жете 1
латински 1
огън 1
противоре@@ 1
зали@@ 1
чата 1
чко 1
Пие@@ 1
ar@@ 0.061768166377901404
oc@@ 0.13175895684965616
пресел@@ 1
Сити 1
профе@@ 1
Радо@@ 1
Швар@@ 1
пътеше@@ 1
An@@ 0.09239551593679664
препоръ@@ 1
старши 1
Пау@@ 1
видео 1
кс@@ 1
ох@@ 1
купа 1
работе@@ 1
ходът 1
АН 1
кг 1
славян@@ 1
жества 1
насочва 1
събор 1
варят 1
ЕС 1
$ 0.19157378233578434
Агнес 1
минист@@ 1
наличието 1
ока@@ 1
Извест@@ 1
откло@@ 1
разтво@@ 1
сериозно 1
порт 1
обяс@@ 1
тови 1
Смо@@ 1
устойчи@@ 1
идеи 1
носа 1
чак 1
воден 1
4,@@ 0.8601760451218127
жп 1
отве@@ 1
яд@@ 1
еже@@ 1
освобод@@ 1
тово 1
1876 1
Шан@@ 1
зони 1
j@@ 0.07790765424121596
Тайланд 1
Световната 1
Стар@@ 1
сце@@ 1
гради 1
малкото 1
силен 1
матът 1
меж@@ 1
мощност 1
прило@@ 1
модели 1
недостатъ@@ 1
резиден@@ 1
автомати@@ 1
вита@@ 1
парламент 1
сада 1
съпротива 1
Уол@@ 1
течението 1
граничи 1
климат 1
любо@@ 1
предаване 1
андар@@ 1
драта 1
Лео@@ 1
Само 1
Със 1
високите 1
лагане 1
разглежда 1
лил 1
Обще@@ 1
ря 1
нарежда 1
комен@@ 1
наци@@ 1
преоблада@@ 1
влиянието 1
фли@@ 1
Анд@@ 1
лии 1
торпе@@ 1
стоят 1
клетки 1
метъл 1
Вил@@ 1
Симеон 1
кер 1
1894 1
бин 1
издания 1
как@@ 1
вул@@ 1
ровка 1
Ловеч 1
жесто@@ 1
лям 1
мах@@ 1
U@@ 0.11577404211510034
Им@@ 1
Шумен 1
лод@@ 1
совете 1
направени 1
трета 1
Син 1
Сирия 1
бани 1
дире@@ 1
неф@@ 1
дружина 1
иск@@ 1
лета 1
Йоа@@ 1
бом@@ 1
герои 1
икономиката 1
Вън@@ 1
Шарл 1
газ 1
писанието 1
ду 0.6831620025696291
инженер@@ 1
омъжена 1
участък 1
жени@@ 1
фре@@ 1
гал 1
бившия 1
Анхалт 1
вати@@ 1
положението 1
фар@@ 1
1,@@ 0.6072174874208498
кет 1
адмирал 1
Ля@@ 1
Стани@@ 1
ническата 1
псевдо@@ 1
кандидат 1
редов@@ 1
зеку@@ 1
Попов 1
органи 1
схе@@ 1
Продъл@@ 1
Югоизточна 1
картини 1
IX 1
изграден 1
место@@ 1
основано 1
възрожден@@ 1
художници 1
имената 1
самият 1
домакин@@ 1
Лау@@ 1
фурт 1
Квин@@ 1
Ханс 1
ванге@@ 1
хал@@ 1
институ@@ 1
Пло@@ 1
важните 1
консер@@ 1
пустин@@ 1
700 1
анализ 1
третия 1
XVIII 1
младе@@ 1
проблем 1
степен@@ 1
връзката 1
Бой@@ 1
шър 1
Охридски 1
декора@@ 1
тради@@ 1
Кос@@ 1
държат 1
продуцент 1
произведе@@ 1
Хърватия 1
факта 1
Христо@@ 1
функ@@ 1
ционния 1
денията 1
изобре@@ 1
нараст@@ 1
различен 1
Хъ@@ 1
арабски 1
гъл@@ 1
построени 1
шест@@ 1
Армения 1
добровол@@ 1
коали@@ 1
льо 1
женен 1
наследява 1
ч. 1
чини 1
стар 1
Маргарета 1
стади@@ 1
тинген 1
id@@ 0.12597671988384657
Дължината 1
ато 1
гимназията 1
сня@@ 1
кер@@ 1
Стой@@ 1
махала 1
обявена 1
огро@@ 1
писатели 1
лек 1
даде 1
ствения 1
Дит@@ 1
Тръ@@ 1
качеството 1
R 0.23676673666804918
Ал 1
рибо@@ 1
гани 1
въздуха 1
Бранденбург 1
Дре@@ 1
Обе@@ 1
известния 1
l@@ 0.054846048082784746
шко@@ 1
копа@@ 1
пале@@ 1
Ангел 1
Танзания 1
прия@@ 1
щем 1
съби@@ 1
дев 1
Вюртемберг 1
Санд@@ 1
Мех@@ 1
олимпи@@ 1
ІІ 1
няко@@ 1
1880 1
1898 1
XIV 1
Брю@@ 1
Мадрид 1
итите 1
Прага 1
чеството 1
астроно@@ 1
нира 1
Луиза 1
Лом@@ 1
Оу@@ 1
посредством 1
озву@@ 1
сас 1
сест@@ 1
1897 1
op@@ 0.1402446163609346
год@@ 1
обика@@ 1
градина 1
кру@@ 1
Шот@@ 1
Ат@@ 1
щер@@ 1
разрабо@@ 1
Пала@@ 1
остро@@ 1
съдържат 1
лато@@ 1
моди@@ 1
фов 1
5,@@ 0.8859205729355496
сет 1
направ@@ 1
вариан@@ 1
нович 1
треб@@ 1
решения 1
M 0.26313453064007103
Ща@@ 1
стин 1
Москов@@ 1
Мю@@ 1
продаж@@ 1
пора@@ 1
рев 1
съвърш@@ 1
ur@@ 0.09843228315419024
Ад@@ 1
биологи@@ 1
изго@@ 1
кари@@ 1
образовате@@ 1
атова 1
устройства 1
Погре@@ 1
рю@@ 1
Цве@@ 1
градската 1
бере 1
маркграф 1
мски 1
Хър@@ 1
тем@@ 1
Инте@@ 1
Лит@@ 1
стер 1
ано@@ 1
привле@@ 1
Добру@@ 1
лате@@ 1
тс 1
Локомотив 1
дивизи@@ 1
императора 1
тим 1
Вну@@ 1
закона 1
наше@@ 1
11@@ 1
придоби@@ 1
кварта@@ 1
подкре@@ 1
рита 1
сражение 1
После@@ 1
Торино 1
обозна@@ 1
Пазар@@ 1
наб@@ 1
лидер 1
пропаганда 1
рио 1
композитор 1
отда@@ 1
Преми@@ 1
Тар@@ 1
зана@@ 1
пер 1
турне 1
Виктория 1
гвай 1
природ@@ 1
Фро@@ 1
T 0.24209348219424917
Оре@@ 1
ети@@ 1
Мати@@ 1
персона@@ 1
равно@@ 1
финан@@ 1
пилот 1
посеща@@ 1
Майка 1
бана 1
буди@@ 1
Con@@ 0.12289407008046241
заво@@ 1
обуча@@ 1
приложение 1
зана 1
Бей@@ 1
” 0.1382069712784478
ina 0.1479213390393536
уд 1
леп@@ 1
нави@@ 1
мора@@ 1
перси@@ 1
НК 1
доку@@ 1
рика 1
u@@ 0.09380200722443532
пър 1
гард 1
блъ@@ 1
нау 1
атмо@@ 1
шен@@ 1
бог@@ 1
Гот@@ 1
социа@@ 1
XVI 1
вис 1
съю@@ 1
Ден@@ 1
предотвра@@ 1
зах@@ 1
Чехия 1
музе@@ 1
сфе@@ 1
тис 1
Зим@@ 1
бол 1
сира 1
кос 1
джик 1
йно 1
латин@@ 1
теми 1
тол@@ 1
Стре@@ 1
председате@@ 1
Ян 1
включен 1
кино 1
русали@@ 1
приме@@ 1
бежан@@ 1
Цар@@ 1
отделение 1
сон@@ 1
Иса@@ 1
законодате@@ 1
видно 1
вследствие 1
договора 1
Георги@@ 1
самолет 1
Богороди@@ 1
Кари@@ 1
версии 1
хов 1
Михай@@ 1
Свобо@@ 1
обу@@ 1
самолета 1
m@@ 0.06535087495818272
Доро@@ 1
Поч@@ 1
нан 1
Брай@@ 1
Гене@@ 1
ключ@@ 1
поколение 1
Мат@@ 1
щта 1
Кю@@ 1
стота 1
бей 1
сента 1
O 0.19558607476650341
свобод@@ 1
всем 1
ел@@ 1
нят 1
други@@ 1
управ@@ 1
Жа@@ 1
Яко@@ 1
плу@@ 1
бета 1
p 0.1255078783449516
Сил@@ 1
керами@@ 1
поведение 1
Пал@@ 1
спорт 1
квадра@@ 1
ът@@ 1
хт 1
1890 1
брони@@ 1
TV 0.3035914497623548
Санта 1
лит@@ 1
нка 1
1500 1
аври@@ 1
Берн@@ 1
Офици@@ 1
маршал 1
ag@@ 0.07973739147375418
принцип 1
софи@@ 1
Свето@@ 1
фонд 1
госпо@@ 1
нета 1
продукт 1
E 0.24092764631797245
баро@@ 1
деление 1
опера 1
Дис@@ 1
Ново@@ 1
интерв@@ 1
Ar@@ 0.10560138413390845
провинции 1
мп@@ 1
зна 1
Судан 1
завод 1
казате@@ 1
1879 1
Дет@@ 1
гаран@@ 1
конструк@@ 1
лик 1
ранен 1
реду@@ 1
щица 1
z@@ 0.06180681264141797
боя 1
пожа@@ 1
1891 1
аресту@@ 1
Трен@@ 1
идея 1
пур 1
Все 1
v@@ 0.06521233724073514
особ@@ 1
Парти@@ 1
Поп@@ 1
конкурен@@ 1
фоку@@ 1
виде@@ 1
духо@@ 1
пев@@ 1
рист 1
огра@@ 1
археологи@@ 1
Вест@@ 1
гов@@ 1
́ 0.27744194419980045
уст@@ 1
дарение 1
нично 1
сте 1
паци@@ 1
спира 1
онат 1
химия 1
душ@@ 1
Христи@@ 1
дисципли@@ 1
ta 0.1349166316667024
тур 1
анга@@ 1
фе 1
бара@@ 1
ял 1
муску@@ 1
философ@@ 1
инци@@ 1
ранг 1
иденти@@ 1
нации 1
стие 1
ливо@@ 1
цеговина 1
Константи@@ 1
kg 1
Хан@@ 1
бар 1
чле@@ 1
Народно 1
Ита@@ 1
циан@@ 1
Ката@@ 1
архите@@ 1
Бог 1
доров 1
Кло@@ 1
P 0.2582856779213205
Мно@@ 1
благоприя@@ 1
вит@@ 1
Катарина 1
it@@ 0.080778311188195
вание 0.8198631580670059
момента 1
хен@@ 1
Древ@@ 1
пола 1
гражда@@ 1
маршру@@ 1
Науч@@ 1
имену@@ 1
дели 1
рекор@@ 1
господ@@ 1
библиоте@@ 1
метео@@ 1
фай@@ 1
арх@@ 1
бру@@ 1
депутат 1
цион@@ 1
1870 1
виг 1
компонен@@ 1
сор 1
историк 1
Цари@@ 1
сно@@ 1
правила 1
публикан@@ 1
т.@@ 1
ума 1
дания 1
лар 1
лат 1
кол 1
свойства 1
7,@@ 0.9381268752544308
карто@@ 1
отка@@ 1
дес 1
компа@@ 1
Al@@ 0.08917900006488463
Теодор 1
Car@@ 0.1461222704454813
бак@@ 1
Най@@ 1
воз@@ 0.5305458822301193
научно 1
6,@@ 0.896392866469592
провод@@ 1
устрой@@ 1
люб@@ 1
конфлик@@ 1
споме@@ 1
бук@@ 1
серта@@ 1
жината 1
180 1
нуж@@ 1
фри@@ 1
Оста@@ 1
филосо@@ 1
квар@@ 1
успехи 1
Корне@@ 1
вара 1
денбург 1
is@@ 0.07295510608780709
Гео@@ 1
иту@@ 1
певец 1
сай@@ 1
Дне@@ 1
Дя@@ 1
характеристи@@ 1
насле@@ 1
яни 1
Произве@@ 1
конференция 1
разнообрази@@ 1
връщ@@ 1
Бон@@ 1
Шар@@ 1
гря@@ 1
попу@@ 1
интерпре@@ 1
потом@@ 1
проду@@ 1
обособ@@ 1
парламента 1
пр@@ 1
Спартак 1
визия 1
евреи 1
беля@@ 1
веще@@ 1
1893 1
ник@@ 1
Василий 1
СК@@ 1
важно 1
мана 1
полез@@ 1
пов 1
д. 1
рд 1
агре@@ 1
близки 1
брази@@ 1
гови@@ 1
Тем@@ 1
грамо@@ 1
средство 1
Марко 1
Близ@@ 1
демо@@ 1
кола 1
цеп@@ 1
участъ@@ 1
случая 1
демон@@ 1
Пари@@ 1
Уо@@ 1
координа@@ 1
Вселе@@ 1
Полу@@ 1
хла@@ 1
Али 1
Коле@@ 1
флан@@ 1
цилин@@ 1
1889 1
Мала@@ 1
пълно 1
сфера 1
Рейн@@ 1
Мет@@ 1
Хаб@@ 1
растение 1
гнез@@ 1
Изда@@ 1
1892 1
h@@ 0.056953313580090224
секретаря 1
XVII 1
Бран@@ 1
пал@@ 1
Боли@@ 1
периоди@@ 1
1886 1
подчер@@ 1
C. 0.43563339483128827
Люксем@@ 1
абсолю@@ 1
атри@@ 1
ес 1
вое@@ 1
гор 1
бара 1
Гви@@ 1
et@@ 0.09373593822003957
lo@@ 0.09375145568703294
нами@@ 1
фер 1
нич@@ 1
вато@@ 1
задачи 1
лам@@ 1
текста 1
уско@@ 1
3,@@ 0.6568137312462508
води@@ 1
земпля@@ 1
архиеписко@@ 1
зас 1
зена 1
масо@@ 1
гин@@ 1
жие 1
канад@@ 1
наказа@@ 1
трен@@ 1
ul@@ 0.08950617118483728
заме@@ 1
as@@ 0.06189804382641738
ti@@ 0.0811783658248472
Бун@@ 1
шил 1
Австри@@ 1
Вале@@ 1
стент 1
били@@ 1
криста@@ 1
ринг 1
автомобили 1
обнов@@ 1
Представ@@ 1
евро 1
южно@@ 1
патриарх 1
Постро@@ 1
пору@@ 1
вов 1
лиш@@ 1
пояс 1
20@@ 0.6219545098200397
бик 1
сектор 1
Блан@@ 1
позво@@ 1
худож@@ 1
бестсел@@ 1
семина@@ 1
лес@@ 1
меда@@ 1
тара 1
акть@@ 1
курор@@ 1
вед@@ 1
джан@@ 1
Чили 1
заслу@@ 1
навли@@ 1
1881 1
вален@@ 1
Иск@@ 1
вертика@@ 1
плен@@ 1
чеш@@ 1
национали@@ 1
арт 1
кологи@@ 1
плавате@@ 1
пус@@ 1
тания 1
тюр@@ 1
Кала@@ 1
Плов@@ 1
комедия 1
невро@@ 1
забо@@ 1
кавале@@ 1
Косово 1
реак@@ 1
слой 1
ужа@@ 1
шево 1
Мир@@ 1
ту 0.5143914896158096
Профе@@ 1
администрация 1
сена@@ 1
Фол@@ 1
вки 1
нк@@ 1
гни@@ 1
сов@@ 1
Особ@@ 1
психологи@@ 1
дация 1
учред@@ 1
Лим@@ 1
УЕФА 1
Сей@@ 1
Бого@@ 1
концерт 1
отрицате@@ 1
кримина@@ 1
убийство 1
Флорен@@ 1
лицен@@ 1
псевдони@@ 1
уми@@ 1
характе@@ 1
os@@ 0.11969514643529132
120@@ 1
провер@@ 1
фра@@ 1
досто@@ 1
бакала@@ 1
функциона@@ 1
огъ@@ 1
дек@@ 1
лем 1
1,5 1
Ун@@ 1
k 0.059366734926745976
НАС@@ 1
явление 1
хтен@@ 1
диалек@@ 1
осве@@ 1
1884 1
парка 1
религи@@ 1
118@@ 1
no@@ 0.18135172081250206
Наполеон 1
уро@@ 1
ученик 1
произведение 1
1883 1
термин 1
Две 1
ели 1
телефон@@ 1
бронзо@@ 1
зеф 1
лива@@ 1
зале@@ 1
клуб@@ 1
наши 1
Жу@@ 1
авиа@@ 1
ия 1
чай@@ 1
статистиче@@ 1
француз@@ 1
лун@@ 1
мпе@@ 1
b 0.11293910298535866
Бог@@ 1
риту@@ 1
желание 1
Архите@@ 1
Гло@@ 1
Конститу@@ 1
супер@@ 1
Миха@@ 1
вене@@ 1
топо@@ 1
чете 1
u 0.07520963612741513
пена 1
3000 1
сухо@@ 1
вел 1
чели 1
машина 1
разгро@@ 1
сам@@ 1
ада@@ 1
поли 1
ФИ@@ 1
армии 0.9745605885974046
нта 1
учре@@ 1
написана 1
отря@@ 1
изклю@@ 1
следовате@@ 1
кад@@ 1
с. 1
статъ@@ 1
водство 1
План@@ 1
ваку@@ 1
ленд 1
Гал@@ 1
блу@@ 1
ента@@ 1
мото@@ 1
биографи@@ 1
инфра@@ 1
концентра@@ 1
народа 1
музея 1
протестан@@ 1
глу@@ 1
именова@@ 1
шоу 1
Адриа@@ 1
зин 1
рами@@ 1
Th@@ 0.12347411386419177
гуа 1
Диа@@ 1
Вре@@ 1
Казахстан 1
океан@@ 1
просвет@@ 1
квалифика@@ 1
подроб@@ 1
сюже@@ 1
ром 0.28087487691110063
ica 0.17986327606338823
Тя@@ 1
отра@@ 1
Сел@@ 1
бит 1
документ 1
нелега@@ 1
ec@@ 0.10350854167285314
Шарло@@ 1
необходимо 1
парат 1
Слова@@ 1
импера@@ 1
фраг@@ 1
Windows 1
гно@@ 1
отбо@@ 1
брю@@ 1
лаборато@@ 1
простран@@ 1
1860 1
меч@@ 1
опти@@ 1
чисто 1
Административно 1
Максимили@@ 1
египет@@ 1
вили 1
деле@@ 1
доба@@ 1
мос 1
деш 1
лята 1
стихотво@@ 1
кандидат@@ 1
Река 1
изграждан@@ 1
пота@@ 1
преду@@ 1
многократно 1
гера 1
лян@@ 1
одобре@@ 1
противника 1
оз@@ 1
ana 0.10945448459131515
бат 1
вне@@ 1
ману@@ 1
внима@@ 1
урав@@ 1
дора 1
ез@@ 1
удостоен 1
Пей@@ 1
Граждан@@ 1
Ся@@ 1
пати@@ 1
кост@@ 1
фабри@@ 1
ждения 1
Дире@@ 1
ного 0.10716431364863654
фигура 1
Авгу@@ 1
Нобе@@ 1
Божи@@ 1
Фар@@ 1
фирма 1
XV 1
рум 1
доктор@@ 1
тра 1
венство 1
Ир@@ 1
упраж@@ 1
активи@@ 1
десан@@ 1
обре@@ 1
реакция 1
организ@@ 1
зат 1
рка 1
дизайн 1
педагоги@@ 1
Фил@@ 1
ro@@ 0.08552383754384194
акт 1
дание 1
Музе@@ 1
XII 1
Рели@@ 1
кис 1
Population 1
средо@@ 1
em@@ 0.08072178141041851
положен 1
ов 1
дю@@ 1
Без@@ 1
Макси@@ 1
марка 1
сите@@ 1
хар 1
Од@@ 1
Лига 1
160 1
Мето@@ 1
Chré@@ 1
Macédoine 1
Мада@@ 1
дей 1
tienne 1
Констан@@ 1
плато 1
реч@@ 1
щин@@ 1
преподавате@@ 1
Зам@@ 1
двигатели 1
небе@@ 1
Иде@@ 1
Кост@@ 1
фили@@ 1
драматур@@ 1
оно@@ 1
толе@@ 1
См@@ 1
тал 1
удо@@ 1
1888 1
2,@@ 0.6027850561686524
корпуса 1
резо@@ 1
типо@@ 1
Исто@@ 1
хор 1
alis 1
усп@@ 1
Фер@@ 1
коли@@ 1
предложение 1
секре@@ 1
Клу@@ 1
Смит 1
брон@@ 1
сей 1
Нар@@ 1
архе@@ 1
пиано 1
ктура 1
рази@@ 1
Мей@@ 1
Над 1
гарни@@ 1
лекту@@ 1
сак@@ 1
армей@@ 1
подар@@ 1
Худо@@ 1
атак@@ 1
лое 1
фрон@@ 1
зонта@@ 1
сино@@ 1
услу@@ 1
избирате@@ 1
фабрика 1
Дом 1
стила 1
Мил@@ 1
депутат@@ 1
пля@@ 1
Джей@@ 1
Сай@@ 1
Григорий 1
начи@@ 1
Ас@@ 1
идентифици@@ 1
Апосто@@ 1
Федера@@ 1
рота 1
Сергей 1
ам 1
цио 1
тила 1
номина@@ 1
уве@@ 1
усилия 1
нии 0.2698641437884133
свободно 1
нападение 1
техни@@ 1
снаря@@ 1
вме@@ 1
цу 1
Рейн 1
дене 1
защитник 1
популя@@ 1
Над@@ 1
действи@@ 1
хен 1
Бла@@ 1
ари@@ 1
инду@@ 1
часов@@ 1
шел 1
Адри@@ 1
Касте@@ 1
личности 1
предпочита@@ 1
бас 1
кардина@@ 1
кура@@ 1
Председате@@ 1
мел@@ 1
отлич@@ 1
1848 1
жет 1
сценарист 1
югослав@@ 1
ува@@ 1
блок 1
предприятия 1
находи@@ 1
прогре@@ 1
стиче@@ 1
Хил@@ 1
входа 1
одоб@@ 1
фини@@ 1
XI 1
ремон@@ 1
Балти@@ 1
заря@@ 1
пейза@@ 1
1882 1
фред 1
8,@@ 0.9021565330403138
НЕ@@ 1
посред@@ 1
маг@@ 1
петро@@ 1
Теат@@ 1
изображения 1
брат@@ 1
бра 1
рестав@@ 1
итер 1
скар 1
Спор@@ 1
Фут@@ 1
смен@@ 1
табли@@ 1
взи@@ 1
кисло@@ 1
благотво@@ 1
укре@@ 1
Резу@@ 1
зда@@ 1
Оде@@ 1
жина 1
преодо@@ 1
енер@@ 1
1871 1
зя@@ 1
роб@@ 1
шан 1
Сало@@ 1
предо@@ 1
брака 1
говорят 1
XIII 1
Зав@@ 1
начал@@ 1
el 0.008221688994583545
Вероятно 1
вения 1
упо@@ 1
Соло@@ 1
Флорида 1
лз 1
норве@@ 1
гиган@@ 1
W 0.3251993938144195
1887 1
Стефа@@ 1
Уч@@ 1
ri@@ 0.11109870338105168
Вирджи@@ 1
рар@@ 1
Адам 1
дово 1
освобожда@@ 1
полице@@ 1
Киев 1
бело@@ 1
бус 1
наблюда@@ 1
тенден@@ 1
икономи@@ 1
хово 1
поко@@ 1
сформи@@ 1
теч@@ 1
at@@ 0.06261209510597633
Уил@@ 1
нист 1
ad@@ 0.05239611074559651
опе@@ 1
ничество 1
ауди@@ 1
прибли@@ 1
прими@@ 1
цена 1
9,@@ 0.8863337234564205
приблиз@@ 1
тино 1
хер@@ 1
маши@@ 1
очер@@ 1
мала 1
бат@@ 1
традиции 1
an 0.009060322209691378
Три 1
евич 0.7638282047649609
Ан 1
Петро@@ 1
дели@@ 1
стор 1
ap@@ 0.08532080653946732
жиз@@ 1
Да 1
взаим@@ 1
Дон 1
зии 1
Уру@@ 1
Гър@@ 1
вам 1
il@@ 0.08219871609908401
Антонио 1
мексикан@@ 1
Си 1
показате@@ 1
говора 1
изоли@@ 1
числа 1
юно@@ 1
bi@@ 0.10501222787888827
наименование 1
en 0.004303255606382229
практически 1
профи@@ 1
1875 1
представля@@ 1
бюро 1
мал 1
тинг 1
Ната@@ 1
рид 1
Джон@@ 1
кономика 1
час 1
Дер@@ 1
успеха 1
пур@@ 1
конструи@@ 1
вар 1
звуко@@ 1
конвен@@ 1
менена 1
li@@ 0.07533085366266125
чките 1
Барсе@@ 1
сход@@ 1
Бир@@ 1
обеща@@ 1
• 1
администра@@ 1
докла@@ 1
чан 1
Библи@@ 1
Мест@@ 1
вло@@ 1
дово@@ 1
Кав@@ 1
Дор@@ 1
Жо@@ 1
вал@@ 1
1872 1
инструмент 1
Вси@@ 1
команди@@ 1
спира@@ 1
Цвет@@ 1
века 0.607115932038834
норма@@ 1
леку@@ 1
Клуб@@ 1
сх@@ 1
приложения 1
хим 1
114@@ 1
НАТО 1
качества 1
квали@@ 1
фро@@ 1
озна@@ 1
ливо 1
слуш@@ 1
название 0.8508691838185064
обстоя@@ 1
ремонт 1
циони@@ 1
Казан@@ 1
Кот@@ 1
чувства 1
Ch@@ 0.06478278691381079
мемо@@ 1
наход@@ 1
os 0.04004727077619348
Вир@@ 1
адап@@ 1
скла@@ 1
K 0.23604334918405973
лах 1
Дви@@ 1
Супер@@ 1
r 0.1216668143243757
Лен@@ 1
хирур@@ 1
мара 1
западно@@ 1
Рио 1
местности 1
том@@ 1
мато@@ 1
популяри@@ 1
реб@@ 1
Tr@@ 0.09205612332907646
коман@@ 1
тации 1
es@@ 0.05207831866413689
Литера@@ 1
Ник@@ 1
лит 1
печ@@ 1
административно 1
поражение 1
юноше@@ 1
140 1
World 0.09854269379559308
звук 1
сбо@@ 1
Независи@@ 1
автобу@@ 1
аро@@ 1
жил 1
ников 0.37199400668698873
школ@@ 1
Анри 1
Манче@@ 1
Тей@@ 1
Сен@@ 1
бълга@@ 1
актри@@ 1
мити@@ 1
ру 1
терна@@ 1
рам 1
станции 1
чие 1
сиона@@ 1
Хуан 1
as 0.00743377585887978
дент@@ 1
оператив@@ 1
единени 1
Фели@@ 1
включена 1
неде@@ 1
онлайн 1
You 0.42045889412174214
di 0.20440598466915927
критика 1
повторно 1
приз@@ 1
Аре@@ 1
хин@@ 1
брига@@ 1
Юнайтед 1
лага@@ 1
разделена 1
същност 1
проби@@ 1
at 0.011141823747669952
Известен 1
130 1
Карлос 1
иници@@ 1
показа@@ 1
направление 1
доро@@ 1
пехот@@ 1
рала 1
перио@@ 1
Сиг@@ 1
оне 1
Систе@@ 1
Хей@@ 1
буква@@ 1
бек@@ 1
ном 0.1302829769344073
2,5 1
заклю@@ 1
регули@@ 1
достига@@ 1
пони@@ 1
дец 1
пал 1
H 0.29104930438604093
Франческо 1
носи@@ 1
Мило@@ 1
In@@ 0.07968721188209528
Сло@@ 1
вулка@@ 1
защ@@ 1
мит 1
навод@@ 1
og@@ 0.16815241558178237
вила 1
гла 1
фю@@ 1
Мори@@ 1
марк@@ 1
Уай@@ 1
Чехослова@@ 1
атаки 1
деви@@ 1
разу@@ 1
вей@@ 1
полити@@ 1
5000 1
док@@ 1
ей@@ 1
лита 1
сю@@ 1
лосо@@ 1
реа@@ 1
Либе@@ 1
Пис@@ 1
балан@@ 1
удоб@@ 1
фикации 1
Тере@@ 1
ау@@ 1
Le@@ 0.10554007970220103
st@@ 0.04548841217996436
зор 1
интегра@@ 1
бу 1
лока@@ 1
австрали@@ 1
обх@@ 1
рун@@ 1
Архе@@ 1
тях@@ 1
Кита@@ 1
връщането 1
забеле@@ 1
строй 1
шпи@@ 1
Рим@@ 1
дит 1
сей@@ 1
Обла@@ 1
кой@@ 1
Афгани@@ 1
изгна@@ 1
арда 1
Кова@@ 1
читате@@ 1
or 0.019430799918296764
Вод@@ 1
престола 1
Нан@@ 1
кир@@ 1
низма 1
посет@@ 1
сара@@ 1
1869 1
WWE 1
марки@@ 1
115@@ 1
tr@@ 0.04752625570183655
Союз 1
Жене@@ 1
Маро@@ 1
Приме@@ 1
мии 1
‰ 1
1867 1
чувств@@ 1
швейцар@@ 1
1864 1
вир@@ 1
него@@ 1
декла@@ 1
поток 1
Основан 1
Y@@ 0.08471752337825368
Университе@@ 1
проник@@ 1
Нем@@ 1
зим@@ 1
ровки 1
зени@@ 1
дирек@@ 1
Архан@@ 1
ar 0.02853558394927256
записи 1
щения 1
избо@@ 1
Водо@@ 1
Уа@@ 1
осъще@@ 1
отри@@ 1
St@@ 0.08043732732751889
Том 1
количества 1
нарко@@ 1
Каро@@ 1
пел 1
Австро 1
вино 1
ys 0.29636809934859376
видеокли@@ 1
глежда 1
зер 1
110 1
900 1
мей 1
среднове@@ 1
Уин@@ 1
кух@@ 1
орга@@ 1
Кер@@ 1
ed 0.01471443085215129
разо@@ 1
ид 1
категори@@ 1
количе@@ 1
антро@@ 1
описание 1
отноше@@ 1
оче@@ 1
рек 1
иза 1
карва 1
архипе@@ 1
бити@@ 1
гато 1
Мюн@@ 1
Франк@@ 1
граду@@ 1
забе@@ 1
Мака@@ 1
писателя 1
aceae 0.521843845690735
le@@ 0.06700605361503287
Фернан@@ 1
кса 1
сков 1
Ени@@ 1
Фреде@@ 1
стви@@ 1
тно@@ 1
либера@@ 1
апосто@@ 1
закон@@ 1
Мора@@ 1
лагер@@ 1
Конгре@@ 1
безопас@@ 1
инспе@@ 1
сау 1
батальон 1
стеро@@ 1
Груп@@ 1
Тон@@ 1
качество 1
азиат@@ 1
хло@@ 1
императри@@ 1
персо@@ 1
запи@@ 1
картина 1
бай@@ 1
Физи@@ 1
ат 1
раз 0.8221662559607715
сма@@ 1
Азербайджа@@ 1
говор@@ 1
приказ@@ 1
1200 1
na 0.10894306671277583
al 0.017007830215550985
лом 0.47231730644466813
ню@@ 1
Шек@@ 1
po@@ 0.07166436735857529
хоро@@ 1
мене@@ 1
рато@@ 1
вой 0.2658297108020014
кай@@ 1
w@@ 0.04749757669489593
гражданин 1
движения 1
шков 1
су 1
инстру@@ 1
кас 1
Ю 1
линг@@ 1
ресто@@ 1
матери@@ 1
хит 1
Разполо@@ 1
кратно 1
нон 1
Де 1
бище 1
топ 1
интерес@@ 1
Берлин@@ 1
шин@@ 1
креп@@ 1
област@@ 1
люс 1
нидер@@ 1
деж@@ 1
фол@@ 1
ea 0.23383599393500082
охла@@ 1
di@@ 0.05834588920464032
лили 1
Бли@@ 1
полиция 1
Компа@@ 1
Центра@@ 1
мело@@ 1
ор 1
отсе@@ 1
Кен@@ 1
Cr@@ 0.20170232127057705
дже 1
публикации 1
1874 1
Дал@@ 1
Марга@@ 1
Пин@@ 1
Тъ@@ 1
Co@@ 0.11871250209193843
Сат@@ 1
локо@@ 1
мък 1
орбит@@ 1
иму@@ 1
леност 1
спорта 1
срок 1
ѫ@@ 1
1868 1
АТ@@ 1
Бак@@ 1
кал 1
ху 1
ci@@ 0.10513804365209763
губернатор 1
мони@@ 1
руд@@ 1
Преображен@@ 1
Максим 1
покров@@ 1
Нау@@ 1
Алжи@@ 1
Мари 1
Тради@@ 1
Именно 1
някога 1
Англи@@ 1
вард 1
ella 0.22065785010263247
1866 0.8878400571289454
фос@@ 1
U 0.16649396072232447
арте@@ 1
рея 1
Еди@@ 1
зая@@ 1
нег@@ 1
разве@@ 1
спокой@@ 1
юриди@@ 1
маха@@ 1
конкурса 1
oph@@ 0.3420702899254932
лекции 1
ситуация 1
клон@@ 1
трудо@@ 1
нил 1
участия 1
темати@@ 1
МВ@@ 1
патри@@ 1
1861 0.9859671078856294
приви@@ 1
универса@@ 1
художника 1
лежа@@ 1
место 0.5118585173919641
Синга@@ 1
симфо@@ 1
Монте@@ 1
пусти@@ 1
Records 0.3212202863630201
Ново 1
Андер@@ 1
евро@@ 1
подготов@@ 1
сайт 1
Саму@@ 1
станов@@ 1
диагно@@ 1
Уни@@ 1
размно@@ 1
стото 1
СП 1
демонстри@@ 1
отличие 1
факт 1
ази@@ 1
подзем@@ 1
корпора@@ 1
бата@@ 1
ври 1
председателя 1
quot 1
тали@@ 1
департамент 1
страте@@ 1
Дим@@ 1
плодо@@ 1
стя@@ 1
Тол@@ 1
f 0.11422676074774622
изигра@@ 1
мур 1
опу@@ 1
гиз@@ 1
фия 1
ряда 1
инфек@@ 1
кор 1
верен 1
жар@@ 1
Жен@@ 1
Ред@@ 1
разно@@ 1
диску@@ 1
замъ@@ 1
цир@@ 1
Джо 1
350 1
назва@@ 1
спря@@ 1
нит 1
уна 1
Григо@@ 1
кау@@ 1
лом@@ 1
Дол@@ 1
фин 1
24@@ 0.6512687379051325
рене@@ 1
истории 0.7765344309639475
стиму@@ 1
обли@@ 1
фео@@ 1
Ву@@ 1
птем@@ 1
блоки@@ 1
следствие 1
Лет@@ 1
Браун 1
плен 1
хау@@ 1
баскет@@ 1
цев 0.4496542466228457
Сток@@ 1
мб@@ 1
тей@@ 1
атели 1
гено@@ 1
матика 1
Хри@@ 1
заслуги 1
крепост@@ 1
признание 1
замест@@ 1
миро@@ 1
Кана@@ 1
двигателя 1
116@@ 1
1863 0.9822804605139293
кампа@@ 1
образ 1
повто@@ 1
Пос@@ 1
кива 1
цин 1
le 0.00702115484869045
менти@@ 1
готов@@ 1
метра@@ 1
Bar@@ 0.10684718886351284
Андро@@ 1
тет 1
фган@@ 1
конгре@@ 1
гур@@ 1
рекорд 1
od@@ 0.12036448051353163
Давид 1
ордена 1
помещения 1
правило 1
пци@@ 1
кина 1
специал@@ 1
стая 1
da 0.052478946050467185
Веро@@ 1
анг@@ 1
1850 0.9741087854498558
Re@@ 0.06622443742248212
Ог@@ 1
гам 1
Дек@@ 1
район@@ 1
грузин@@ 1
мология 1
посто@@ 1
117@@ 1
нах 0.9304349882476466
унд@@ 1
1865 0.946301617248305
lidae 1
Лар@@ 1
его 0.08732184715662458
моста 1
вити@@ 1
хана 1
подход 1
красо@@ 1
ктор@@ 1
ориента@@ 1
дил 1
препят@@ 1
нужда@@ 1
рецеп@@ 1
свое 1
1830 1
Par@@ 0.11159956381371351
вечер@@ 1
владения 1
традиционно 1
Два@@ 1
Сиби@@ 1
for 0.007292155807201109
принадлежа@@ 1
остан@@ 1
говото 1
диск 1
ть@@ 1
Так@@ 1
биз@@ 1
Кири@@ 1
Старо@@ 1
млад@@ 1
СД@@ 1
Чикаго 1
пато@@ 1
пки 1
1800 1
споразуме@@ 1
бина 1
отец 1
хол@@ 1
Стю@@ 1
un@@ 0.031244172958800123
Сак@@ 1
организа@@ 1
Твор@@ 1
полузащитник 1
химиче@@ 1
Мета@@ 1
имуще@@ 1
ств@@ 1
фаши@@ 1
Вътреш@@ 1
ВИ@@ 1
дис@@ 1
моря@@ 1
Love 0.42949763235028493
І 1
ида 1
комеди@@ 1
26@@ 0.9596398793768904
Он@@ 1
Хосе 1
хон@@ 1
визу@@ 1
еве 1
радика@@ 1
Голя@@ 1
вни@@ 1
ференци@@ 1
Министерство 1
зре@@ 1
волей@@ 1
мба@@ 1
Трои@@ 1
Франциско 1
Парла@@ 1
Леона@@ 1
бота@@ 1
ed@@ 0.07660590038356771
публици@@ 1
сения 1
спози@@ 1
Мини@@ 1
кции 1
публика 1
Побед@@ 1
достъ@@ 1
категории 1
манов 1
главно@@ 1
Творчество 1
пехо@@ 1
зависи@@ 1
свое@@ 1
сериа@@ 1
сил 0.9261345519406332
христи@@ 1
иран@@ 1
помощ@@ 1
разновид@@ 1
чинов@@ 1
сани@@ 1
re@@ 0.01612473962385128
КС 1
запозна@@ 1
170 1
Съще@@ 1
зали 1
алгори@@ 1
Патри@@ 1
домо@@ 1
Буда@@ 1
номе@@ 1
разме@@ 0.9769495781323972
явления 1
изде@@ 1
домаш@@ 1
върш@@ 1
Архи@@ 1
125 1
деми@@ 1
цла@@ 1
груп@@ 1
DVD 0.6396998333414744
шли 1
Касти@@ 1
товар@@ 1
целе@@ 1
ДР 1
разрешение 1
Соци@@ 1
пин 1
страда@@ 1
2022 0.3273446324966506
ала 1
Осман@@ 1
гс 1
рю 1
113@@ 1
Министер@@ 1
ара@@ 1
лаго@@ 1
ниси@@ 1
ориен@@ 1
1856 1
шев@@ 1
… 0.28598554041791924
Мед@@ 1
Сул@@ 1
л. 1
степенно 1
парт@@ 1
ru@@ 0.1247171182993412
сайта 1
второ@@ 1
00@@ 0.5379482832416561
1862 0.8952548260730049
Екатерина 1
z 0.07067084375647466
режись@@ 1
родители 1
фрак@@ 1
one 0.023701850285744386
бора 1
гло 1
Рожде@@ 1
Звез@@ 1
ас@@ 1
набор 1
зай@@ 1
1859 1
ѣ@@ 1
морфо@@ 1
падан@@ 1
зова 1
термо@@ 1
Хра@@ 1
хара 1
полага@@ 1
вършва 1
зеле@@ 1
як 1
мерно 1
пропа@@ 1
авторите@@ 1
изображение 1
чайно 1
лъж@@ 1
морф@@ 1
# 0.31612517800829976
Като@@ 1
клад 1
веро@@ 1
лингви@@ 1
милия 1
Византи@@ 1
to@@ 0.0833024118590604
лик@@ 1
pi@@ 0.11986180616088046
коди@@ 1
рида 1
владение 1
доне@@ 1
голо@@ 1
оси@@ 1
Коман@@ 1
гас 1
отличия 1
27@@ 0.9550867853501669
просве@@ 1
Мек@@ 1
Пед@@ 1
хам@@ 1
Генерал 1
акти@@ 1
рит@@ 1
сати@@ 1
сер 1
галакти@@ 1
Участ@@ 1
марки 1
незакон@@ 1
Ази@@ 1
опер@@ 1
шва 1
Марти@@ 1
същ@@ 1
Парк 1
молит@@ 1
оправ@@ 1
рей 1
Импера@@ 1
разка@@ 1
Рафа@@ 1
констру@@ 1
свиде@@ 1
добро@@ 1
предпоч@@ 1
ni@@ 0.08916496370346705
техники 1
Ван 1
Мур@@ 1
ir@@ 0.06399918652347222
получил 0.4727964408954183
подразде@@ 1
безу@@ 1
лега@@ 1
графа 1
делега@@ 1
консервато@@ 1
цер 1
Тони 1
хит@@ 1
Игна@@ 1
справед@@ 1
дона 1
случайно 1
двигате@@ 1
номинации 1
ктора 1
максима@@ 1
ter@@ 0.06577713955059461
намест@@ 1
ранже@@ 1
сть@@ 1
im@@ 0.04724241121074516
Съеди@@ 1
писе@@ 1
щина 1
зра@@ 1
почита@@ 1
Коро@@ 1
Рот@@ 1
Иван@@ 1
хот@@ 1
хотел 1
нам 0.898690163768696
Тат@@ 1
тец 1
можно 0.6558023114647107
Стати@@ 1
еро 1
шеви@@ 1
Коб@@ 1
банд@@ 1
лея 1
фронта 1
ис 1
кред@@ 1
пова 1
сдел@@ 1
дивизии 1
мети@@ 1
тей 1
престол 1
голе@@ 1
хищ@@ 1
слов@@ 1
Mar@@ 0.05778107185416634
дли@@ 1
колко 1
степ@@ 1
дим 1
удосто@@ 1
Геро@@ 1
ВМС 1
парта@@ 1
Два 1
лектро@@ 1
мл@@ 1
anus 0.896313931390692
усили@@ 1
ежегодно 1
медали 1
тения 1
конфликта 1
ТВ 1
аван@@ 1
поляр@@ 1
пещер@@ 1
намере@@ 1
Str@@ 0.11906454817754178
епархи@@ 1
сцена@@ 1
Брон@@ 1
колонии 1
чков 1
4000 1
Андже@@ 1
хри@@ 1
dae 1
виру@@ 1
тиви@@ 1
105 1
огне@@ 1
тера 1
ti 0.2093202191742689
лок 1
сфер@@ 1
принадлеж@@ 1
достатъ@@ 1
лого@@ 1
Дмитрий 1
вто@@ 1
23@@ 0.7938080563571788
лизма 1
1858 1
Право@@ 1
свой@@ 1
среди 0.5359316577682584
Велико@@ 1
устро@@ 1
Монго@@ 1
Ac@@ 0.16639643514629687
бизне@@ 1
слабо@@ 1
оформ@@ 1
прокуро@@ 1
увелич@@ 1
Бала@@ 1
шири@@ 1
мур@@ 1
пролет@@ 1
сет@@ 1
дея@@ 1
жив 1
завла@@ 1
чник 1
Col@@ 0.10459963368267595
Фре@@ 1
пера@@ 1
1840 0.9810960305737396
am 0.02446451921897206
сборник 1
канала 1
нистиче@@ 1
шено 1
нев@@ 1
Кюстен@@ 1
убий@@ 1
чит@@ 1
Бул@@ 1
Социалистиче@@ 1
1300 1
сражения 1
организато@@ 1
ФА 1
кван@@ 1
мя 1
28@@ 0.9117307682322718
Sh@@ 0.07818697147384657
серти@@ 1
фей 1
Динамо 1
зидент@@ 1
Сала@@ 1
вере@@ 1
порта 1
Дона@@ 1
Уор@@ 1
втори@@ 1
пас@@ 1
Cor@@ 0.10248834551087223
Еги@@ 1
референ@@ 1
Алексей 1
мону@@ 1
режима 1
Am@@ 0.10414629217195147
1600 1
парата 1
450 1
Роман 1
Токио 1
сок 1
m3 1
гин 1
кора@@ 1
мах 1
обстанов@@ 1
измене@@ 1
чере@@ 1
icus 1
внезап@@ 1
пункт 1
отряда 1
припа@@ 1
ob@@ 0.09144600611596934
Сам 1
Сезон 1
Док@@ 1
Спе@@ 1
назад 1
Ирина 1
co@@ 0.04546217928019466
княже@@ 1
означа@@ 1
1849 1
фера 1
гимнази@@ 1
матри@@ 1
ВВС 1
tu@@ 0.1257801488412407
ab@@ 0.03211927984154203
пожар@@ 1
ситуа@@ 1
ир@@ 1
бов 1
вонача@@ 1
ръб@@ 1
сервато@@ 1
Режи@@ 1
блю@@ 1
101 1
Br@@ 0.08146070454986375
des 0.005427171343739349
ich@@ 0.19387210212719122
гвардей@@ 1
даже 0.8281566752931238
смо@@ 1
Александра 1
пуск 1
циклопе@@ 1
Академи@@ 1
измен@@ 1
критик 1
мян 1
нападения 1
акции 1
клави@@ 1
лур@@ 1
ост@@ 1
тока 1
лович 1
³ 1
предстоя@@ 1
дизай@@ 1
пин@@ 1
предполага@@ 1
серии 1
Известно 1
писал 1
ну 0.6104504817462001
питания 1
Образование 1
1806 1
сама 1
Google 1
ig@@ 0.06785815345574417
полка 1
рат@@ 1
цик@@ 1
Me 0.4541035117112629
мле@@ 1
ферен@@ 1
лекате@@ 1
духа 1
окончате@@ 1
риан@@ 1
чело 1
1.@@ 0.2619404214399287
дека@@ 1
30@@ 0.4788076180533143
зно 1
Лиг@@ 1
per@@ 0.05041655675916107
либе@@ 1
решено 1
скор@@ 1
тев 1
1854 1
говори@@ 1
като@@ 1
теории 1
New 0.037443538233921284
дор@@ 1
Bo@@ 0.12043175397251797
ale 0.05126521742928098
лум@@ 1
препода@@ 1
противополож@@ 1
par@@ 0.04688049634389991
Юрий 1
Ав@@ 1
пети@@ 1
codice 1
опере@@ 1
Бек@@ 1
стат@@ 1
деб@@ 1
материа@@ 1
специалист 1
ставля@@ 1
Cy@@ 0.40889379528524294
ансам@@ 1
рован 0.9276754172281731
трав@@ 1
формат@@ 1
Боб@@ 1
Изра@@ 1
революцио@@ 1
br@@ 0.05777967466051324
мед@@ 1
Microsoft 0.8906188205563602
Каза@@ 1
Di@@ 0.08574446620510513
1853 1
urus 1
бюдже@@ 1
водоро@@ 1
наги 1
Климат 1
атив@@ 1
102 1
1857 0.9366521462559028
тура@@ 1
Симе@@ 1
нага 1
пей@@ 1
рад 1
Рос@@ 1
философи@@ 1
стана 1
чат@@ 1
Гол@@ 1
кава 1
хе 1
зки 1
плана 1
опро@@ 1
терми@@ 1
der 0.0033695941225538205
комплекса 1
лак@@ 1
проф@@ 1
литов@@ 1
фунда@@ 1
Бълга@@ 1
Жан@@ 1
гото@@ 1
офицер@@ 1
КНР 1
СП@@ 1
две@@ 1
гу 0.5861045245742291
ким 0.7063169846579608
ници@@ 1
дир 1
плати@@ 1
Евгений 1
инструмента@@ 1
ber@@ 0.07145924130351841
ma 0.09556944162090007
Ex@@ 0.0933544036376668
гана 1
префек@@ 1
2.@@ 0.26890476229897475
Тен@@ 1
Гай@@ 1
запове@@ 1
ърт 1
1700 1
Джен@@ 1
× 0.5133964436615799
Фила@@ 1
Ш 1
Кем@@ 1
Music 0.1790182456529391
декс 1
здраво@@ 1
носители 1
танка 1
корей@@ 1
it 0.012374843940859928
Ph@@ 0.19051111064814877
Гам@@ 1
inus 0.9995372550293248
{ 0.5762645701536678
предприятие 1
12,@@ 1
автора 1
мило@@ 1
пост@@ 1
розо@@ 1
bus 0.3725637273048729
Хро@@ 1
прито@@ 1
реакции 1
мически 1
установки 1
і@@ 1
Mon@@ 0.08934156340166904
ve 0.027767328263885244
Отече@@ 1
оценки 1
Украин@@ 1
Сол@@ 1
равно 1
ine 0.0380611400962515
ликвиди@@ 1
Тихо@@ 1
Абду@@ 1
дала 1
манитар@@ 1
том 0.10600765643715915
UTC 1
CD 0.2971121911596474
живопис@@ 1
играл 1
водосбор@@ 1
порта@@ 1
Киев@@ 1
обща@@ 1
ch 0.055293145918541696
шин 1
Дво@@ 1
сег@@ 1
3,5 1
виз@@ 1
сами 1
КП 1
пере@@ 0.08632346140745077
чности 1
Cal@@ 0.15597417071607766
te 0.019005323984780883
Роберт 1
ССР 0.9357098146515994
Афри@@ 1
qu@@ 0.04620108068992671
Зак@@ 1
вес 1
запаз@@ 1
Завър@@ 1
сериал@@ 1
храни@@ 1
Sp@@ 0.10942045083936064
ach@@ 0.07200693414988432
чове 1
печата@@ 1
фикси@@ 1
ходя@@ 1
ers 0.020572535158115062
Куз@@ 1
тате@@ 1
ter 0.031750071361710014
дом@@ 1
Ленин@@ 1
мун@@ 1
1821 1
чеб@@ 1
Sc@@ 0.2502185130572508
редак@@ 1
se 0.008384351122217578
mo@@ 0.07055750617435376
завое@@ 1
педаго@@ 1
НИ@@ 1
лял 1
Франци@@ 1
осе@@ 1
кав@@ 1
ation 0.014175322261569498
връз@@ 1
мая 0.31532324780210297
шотланд@@ 1
ura 0.18790561475303688
После 0.19425291766313132
почва 1
АС@@ 1
Вилхе@@ 1
1815 1
In 0.008790786043634488
страции 1
царя 1
Мя@@ 1
ниц 1
цвета 1
1831 1
1812 0.9858968516228593
подразделения 1
упа@@ 1
Узбе@@ 1
изобра@@ 1
диапа@@ 1
чук 1
ra 0.0638841918830009
жем 1
ent 0.019491547954197778
мож@@ 1
1835 1
сезо@@ 1
АР 1
бей@@ 1
индиви@@ 1
лога 1
ряд 0.7351539723458657
удовлетво@@ 1
Валерий 1
1829 1
My 0.37163320463972255
вклю@@ 1
законо@@ 1
гвар@@ 1
De@@ 0.09360956870076069
era 0.04658955383978078
ran@@ 0.10418726205240092
чила 1
240 1
знания 1
Q@@ 0.12395858455428546
регу@@ 1
ari@@ 0.1240505330759134
ing@@ 0.0778541184814332
Обо@@ 1
con@@ 0.039219152019517436
ходи@@ 1
25@@ 0.3841759225523223
J 0.2724267113902068
eus 0.7930897720434879
езе@@ 1
крепости 1
тта 1
My@@ 0.39480692988619964
перка 1
1855 0.8735656835359903
29@@ 0.8808701011598038
ними 1
Лите@@ 1
враже@@ 1
Hy@@ 0.3117000895858434
канди@@ 1
лана 1
Сам@@ 1
тили 1
горо@@ 1
Мах@@ 1
кости 1
менно 1
употреб@@ 1
ie 0.03039681326306835
знамени@@ 1
127 1
диза@@ 1
ирланд@@ 1
Be@@ 0.059645389602982296
oma 0.31035081200042264
вай 1
Qu@@ 0.07855119186734999
статус 1
vi@@ 0.0681097959724268
ВМ@@ 1
фур@@ 1
ov@@ 0.1036186656712685
необ@@ 1
теку@@ 1
Ne@@ 0.08721106530857153
Разпростра@@ 1
способности 1
− 0.49805798665631856
1852 0.9151091155794725
1845 0.982796726624645
ографи@@ 1
1828 1
коне@@ 1
ориенти@@ 1
ca 0.12368932660014202
17@@ 0.5186826658706708
ит 1
композиции 1
10,@@ 0.9258021530837935
Se@@ 0.07782562934358857
ког@@ 1
обстре@@ 1
писание 1
стрем@@ 1
тив 1
ad 0.07040279280257983
us@@ 0.05233163558829482
еги@@ 1
Пере@@ 0.9839789288081999
ники 0.2793893675008102
Гей@@ 1
мало 1
неж@@ 1
атов 0.8239548037190996
1820 0.8005753388293465
прак@@ 1
рая 1
1837 1
Com@@ 0.0846234564893225
XX@@ 1
Гур@@ 1
гей@@ 1
Or@@ 0.0903047237939958
eri 0.3757651457620005
конкур@@ 1
ог@@ 1
ens 0.04111376877760738
историко 1
гал@@ 1
машин@@ 1
1814 1
Желез@@ 1
служил 1
w 0.08814552959542178
общества 0.8532417988784377
свето@@ 1
счит@@ 1
1847 0.9406687693688293
STS 1
ne@@ 0.06858119107558125
нима@@ 1
eg@@ 0.06413219479277554
номера 1
спеди@@ 1
OS 0.5075131515615181
1841 1
Варшав@@ 1
152 1
220 1
Калифор@@ 1
ску 1
изменения 1
местообита@@ 1
de@@ 0.03513767426991297
опъл@@ 1
исто@@ 1
митрополи@@ 1
появи@@ 1
yr@@ 0.19675994852201625
ОО@@ 1
Вя@@ 1
учения 1
комите@@ 1
​ 1
Колум@@ 1
похо@@ 1
Отде@@ 1
мюсюл@@ 1
блиоте@@ 1
tidae 1
International 0.09918762802793743
ate 0.021622163853336252
si@@ 0.05653892485541385
поря@@ 1
0,5 1
5.@@ 0.27894465692763293
Демо@@ 1
вера 1
осу@@ 1
увеличе@@ 1
ченко 1
za 0.11579691016103824
Том@@ 1
1851 0.8535862056312467
ans 0.034185117343388326
Гран 1
Y 0.27150321137851935
отмен@@ 1
дана 1
сче@@ 1
шили 1
1844 0.9955541367404291
Транспорт 1
птември 1
Z 0.329703467079026
1846 0.9096227712416635
360 1
ver@@ 0.021144282767494308
6000 1
гит@@ 1
убийства 1
Занима@@ 1
яние 1
1836 0.9877426124759073
Доктор 1
Ж 1
Пь@@ 1
гран@@ 1
Pr@@ 0.07969280620366817
рой 0.6384406262064753
спас@@ 1
анализа 1
гну@@ 1
катего@@ 1
пространства 1
age 0.02554339510237886
Комитета 1
факул@@ 1
НР 1
Юр@@ 1
бн 1
кно@@ 1
фактически 1
Live 0.4094340689696428
US@@ 0.29730806847692154
цър@@ 1
каса@@ 1
начина@@ 1
оте@@ 1
Вет@@ 1
Тома@@ 1
героя 1
ларов 1
Per@@ 0.08145968338917343
максимум 1
рополи@@ 1
смет@@ 1
графии 1
стоян@@ 1
серий@@ 1
1400 1
3.@@ 0.2464178865656555
коме@@ 1
alus 1
ops 0.3770619940456879
ап@@ 1
прозви@@ 1
1792 1
2500 1
публика@@ 1
Робер@@ 1
бои 1
сив@@ 1
ями 0.4030985290098679
слов 1
постройки 1
снение 1
Клю@@ 1
En@@ 0.08399250726885128
v 0.09777289754355768
машино@@ 1
рока 1
лее 1
Lo@@ 0.10443541343746557
ep@@ 0.09416234073270434
11,@@ 0.8698050221984079
cus 0.5872222424803936
4.@@ 0.2632803522834382
дили 1
pr@@ 0.05487792095013029
Маргаре@@ 1
програм@@ 0.8740925671203374
омъ@@ 1
4,5 1
Tour 0.19099678927819183
лабо@@ 1
пуска@@ 1
Gr@@ 0.06888813460759215
Mo@@ 0.09676907291869898
вели 1
верси@@ 1
car@@ 0.05930103412555637
нера@@ 1
шу 1
Te@@ 0.13806388980628573
odon 1
ад 1
ряд@@ 1
Хайн@@ 1
дисци@@ 1
могли 1
сь@@ 1
se@@ 0.03964535293848172
Турк@@ 1
етна@@ 1
1839 0.9602285760165437
1843 0.979212739052728
костю@@ 1
Ави@@ 1
поколения 1
ся 0.809793060240112
80@@ 0.7806263391582127
шести 1
ситуации 1
трам@@ 1
учение 1
носите@@ 1
ная 0.05809809616728963
облада@@ 1
скре@@ 1
106 1
кий 0.5092699192565666
жили 1
видео@@ 1
рона 1
Камен@@ 1
снима@@ 1
КП@@ 1
пун@@ 1
зал 1
атмосфер@@ 1
оказа@@ 0.7923221037030902
акт@@ 1
сценари@@ 1
280 1
ati@@ 0.07239412105202953
Шве@@ 1
onidae 1
Спар@@ 1
Поло@@ 1
Самар@@ 1
минимум 1
хин 1
вос@@ 0.5236036200758694
заим@@ 1
построе@@ 1
opus 1
корен@@ 1
сков@@ 1
Награ@@ 1
дола@@ 1
шал 1
One 0.11028666638762845
партий@@ 1
ath@@ 0.10845794760734344
Музей 1
шина 1
IS@@ 0.2633876300718081
ai 0.08076210123622374
gr@@ 0.04528314139673906
Иг@@ 1
завода 1
9.@@ 0.35770837818849016
Цер@@ 1
завод@@ 1
дето 1
He@@ 0.08375659181285061
per 0.06959508329970633
bo@@ 0.05757438948825769
ps 0.10631270469964738
1818 1
Миро@@ 1
чили 1
1832 0.9372572767969203
Бос@@ 1
que 0.005289523191749249
наличие 1
ent@@ 0.03280706605145136
1838 0.9108352164864327
1834 0.9500233752202114
13,@@ 0.9133072540167113
гим@@ 1
ii 0.7503071757438226
департамента 1
резул@@ 1
lu@@ 0.10593436928496153
tic@@ 0.12901079662531545
чате@@ 1
лю 0.6691789831939117
Как@@ 1
тии 0.9373322717159134
стал 0.1618620755168883
Can@@ 0.16435068788143908
com@@ 0.05414674507830702
ила 1
.com 0.48293812934650315
Тал@@ 1
вед 1
схо@@ 1
135 1
750 1
безо@@ 1
мбу@@ 1
1810 0.9994479497160628
Вюр@@ 1
бивши@@ 1
института 1
мона 1
Po@@ 0.10512658067458301
mar@@ 0.04439287183142227
ore 0.09108585778715307
34,@@ 1
gi@@ 0.07507122678484043
столи@@ 1
pe@@ 0.07579845739440663
шек 1
1793 1
ho@@ 0.08074631215563463
дки 1
янов 1
108 1
вести@@ 1
публики 1
AC 0.29491744893158617
Таджи@@ 1
пара 1
1842 0.8814546120997214
au@@ 0.0558601140937277
жила 1
кала 1
um@@ 0.04290353847893008
оре 1
положения 1
eb@@ 0.06214642096576388
ula 0.4157030431442952
Пуш@@ 1
Тимо@@ 1
вей 1
Президен@@ 1
зате@@ 1
нила 1
конструкции 1
статисти@@ 1
ционе@@ 1
1825 1
кампании 1
предлага@@ 1
сали@@ 1
1100 1
av@@ 0.053034365586270525
едино@@ 1
яния 1
All 0.10001801323373628
Mus@@ 0.15219397193033818
didae 1
ax 0.5016772489541956
ons 0.0386595148879505
лайн 1
1822 1
кономиче@@ 1
н. 0.8895938825201615
190 1
io 0.09812513825005113
францу@@ 1
los@@ 0.2728045527177499
Life 0.21281813869853028
1813 0.9761349813568628
ut@@ 0.06651654629527701
Ли 1
отделения 1
пропове@@ 1
It 0.01690315732343291
103 1
oth@@ 0.18059892489275697
Сино@@ 1
Яро@@ 1
впа@@ 1
материал@@ 1
320 1
Ag@@ 0.15345666428475493
tes 0.048926167805317146
Соб@@ 1
ская 0.07846933894214908
so@@ 0.061644376761520174
жин@@ 1
отдела 1
V. 0.3677453326574497
дене@@ 1
Пя@@ 1
Стат@@ 1
вои@@ 1
аналоги@@ 1
вез@@ 1
Group 0.1488672924610272
104 1
Un@@ 0.08600957708833726
tor@@ 0.07094040533722364
Вита@@ 1
стон 1
зя 1
tus 0.5135834890129054
Billboard 0.330893645742118
Pro@@ 0.08669501056064231
гава 1
припис@@ 1
6.@@ 0.261535144554191
ha 0.061315731088601756
направления 1
степени 0.7307778786201814
7.@@ 0.2729831562320871
Les 0.03476602932088777
Аг@@ 1
БА 1
Институт 1
Леони@@ 1
Сем@@ 1
сток 1
j 0.19105022784745923
нио 1
сюл@@ 1
1789 1
стието 1
ститу@@ 1
1795 1
orum 0.7539618570610229
кнове@@ 1
si 0.0895020884071916
109 1
Black 0.17651645545866143
35,@@ 1
osa 0.16226536516566958
трак@@ 1
1803 1
лоша@@ 1
нили 1
рейтин@@ 1
Ro@@ 0.07528668179667468
лера 1
yc@@ 0.2759469622006448
Осно@@ 1
веща@@ 1
комитета 1
ell@@ 0.0672072476269938
128 1
pl@@ 0.03888396558356713
ИК 1
Румъ@@ 1
нем 0.5606379404682269
1797 1
AS@@ 0.22822743225659217
º 0.48038962642452276
конферен@@ 1
lar@@ 0.12968181740403636
кала@@ 1
църк@@ 1
Участник 1
греб@@ 1
hi@@ 0.08821298113602932
даря 1
230 1
мероприя@@ 1
предприя@@ 1
SS 0.3142994827998943
кандид@@ 1
транспорта 1
1790 1
инжен@@ 1
Нат@@ 1
авиацион@@ 1
prin@@ 0.42596532962842104
онов 1
чал 1
tra 0.1585361908953398
москов@@ 1
1819 1
спери@@ 1
à 0.004571892242966465
дуар@@ 1
107 1
Ad@@ 0.09143372612684095
Rock 0.2516713633913126
Воро@@ 1
друго@@ 1
обору@@ 1
обще 1
ον 1
имен@@ 1
14,@@ 0.878692216404857
Константино@@ 1
aur@@ 0.2101610237204724
жден 1
1833 0.8775862182932942
Император@@ 1
1,2 1
1805 1
8.@@ 0.28946320988370955
tis 0.24943618687299687
Бара@@ 1
руб@@ 1
int 0.5353595882857564
построено 1
дано 1
пъти@@ 1
ске 0.4217519665263246
Анато@@ 1
оборо@@ 0.8960692947620346
продукции 1
док 0.8683352626761204
Wrestling 0.6293652452355436
Яку@@ 1
305 1
паро@@ 1
строен@@ 1
AR@@ 0.21936256966317866
II@@ 0.9368246192675953
Java 0.9695426685237934
Саксо@@ 1
верто@@ 1
служи@@ 0.9856594846338709
сети 1
уру 1
36@@ 0.9183949550169407
Tur@@ 0.14138435584155046
нар. 1
1808 1
стали 0.43407472060959834
210 1
Роди@@ 1
доста@@ 1
методи@@ 1
122 1
Ge@@ 0.07657594840748246
зархи@@ 1
Ma@@ 0.08447793931025029
1816 0.9533863375858566
1799 1
40@@ 0.5219030927352808
ВО 1
Сева@@ 1
нера 1
Комите@@ 1
правед@@ 1
sch@@ 0.0298156865614944
sp@@ 0.04411309050954713
1750 1
ком 0.15540479635430637
Филип@@ 1
1796 1
получили 1
ka 0.07565481739057991
ne 0.02545315467917682
СС@@ 1
ак 1
1817 1
отказа@@ 1
34@@ 0.8870130715344317
Mac@@ 0.1240227054435203
Q 0.2915430015613027
ili@@ 0.10957637130008592
губерния 1
зап@@ 1
Fe@@ 0.17061826768334112
och@@ 0.21562622624317693
фамили@@ 1
синг@@ 1
приве@@ 1
Моги@@ 1
115 1
Sol@@ 0.12670161280115724
1826 0.9333728834757756
заяв@@ 1
вело@@ 1
кономи@@ 1
сол@@ 1
Ap@@ 0.1537515140986035
EP 0.31004188092209983
върх@@ 1
As@@ 0.08868478601209653
Cl@@ 0.13814596907858193
Go@@ 0.1260880026840639
нъж 1
щу@@ 1
1801 0.9615934130370637
Tro@@ 0.1771260353884851
уреат 1
Apple 0.6369523294921837
библиотеки 1
1807 1
рах 0.49784020793771233
щие 0.6881491940883067
Шах@@ 1
рецен@@ 1
вит 1
отрас@@ 1
ini 0.09391010404620598
заключ@@ 1
35@@ 0.6478515862587618
re 0.033093443739776456
звания 1
слова@@ 1
твер@@ 1
рован@@ 0.6481831497149325
ic 0.03390193123215681
un 0.004354652203230209
нане@@ 1
проб@@ 1
Църк@@ 1
260 1
ena 0.10394758328990701
Нидер@@ 1
ский 0.04473191873479891
550 1
Entertainment 0.35374413946124494
Pi@@ 0.1086638343802079
ору@@ 0.5845369388154749
1635 1
Я 0.679405475760838
фун@@ 1
чек 1
id 0.06631843860773541
Ря@@ 1
1648 1
650 1
ni 0.10922696023312381
Петер@@ 1
ях 0.27354349088690166
ous 0.03804015330658552
новременно 1
1804 1
cor@@ 0.06663997378197917
ator 0.07486580027787577
ce 0.02595484336083666
inc@@ 0.08024470971048299
ten@@ 0.04506322985320398
ура@@ 1
126 1
минима@@ 1
Cer@@ 0.19544316514518237
all@@ 0.06980079252349143
omys 1
em 0.06236352342188482
und 0.002768985763608936
Зу@@ 1
1794 1
du@@ 0.07573659709961961
получи@@ 0.9146095817758488
270 1
ei 0.16736306882220353
yl@@ 0.11568717196957022
Ty@@ 0.27999783545795476
командира 1
ist@@ 0.06968144217291486
330 1
380 1
uli@@ 0.29683460240386544
ведом@@ 1
реши@@ 1
бес@@ 1
ото@@ 0.9224724033187923
1791 1
est 0.004925200871713197
sh@@ 0.030293940981096928
Пове@@ 1
цвет 1
123 1
RA@@ 0.33315403885104583
Ser@@ 0.09675484188211379
Дуна@@ 1
Li@@ 0.09952208416991241
111 1
are 0.00902675967572871
тение 1
Le 0.01546804294132955
Татар@@ 1
брата 1
фу 1
1772 1
поражения 1
хова 1
Администра@@ 1
Tri@@ 0.11566725883428304
Име@@ 1
1824 0.8633342859563018
33@@ 0.7875999621594945
стой 1
СА@@ 1
чества 1
1680 1
WWF 1
бка 1
1798 1
mon@@ 0.044538853472595834
гай@@ 1
ot 0.07611498656792322
корпу@@ 1
юни@@ 1
.-@@ 0.7573377293782655
1634 1
1660 1
De 0.06377497164645113
Mel@@ 0.14685520832566673
Micro@@ 0.8563726163855018
yn@@ 0.14492288677397008
Нов@@ 1
буд@@ 1
зания 1
1827 0.9304619863465694
Vi@@ 0.13855397869157166
ost@@ 0.21353951449937728
10.@@ 0.3915008942555617
множе@@ 1
станови@@ 1
уточ@@ 1
ют 0.0913059737267113
1823 0.9463278269172836
XXI 1
дет 1
0.@@ 0.13819416909330073
112 1
El@@ 0.05666463300022251
уса 1
Ино@@ 1
кипа@@ 1
15,@@ 0.903709839140518
1640 1
ou@@ 0.04334094308918841
7,5 1
ak@@ 0.040302550172651885
ora 0.10623255352786826
1688 1
Ver@@ 0.026446356785787113
ty 0.04651621875244253
Кън@@ 1
No 0.1527148299757598
дела@@ 0.49642782088562154
мотив 1
1570 1
203 1
37@@ 0.83619066040253
ite 0.04159451698173699
uc@@ 0.10439300624953894
Джер@@ 1
175 1
ani 0.1043695866715117
боро@@ 1
1780 1
воло@@ 0.5470579834398113
шот@@ 1
3D 0.6055642538669656
aria 0.1258397204596293
Доне@@ 1
8000 1
Ab@@ 0.03616885576567301
1530 1
CO@@ 0.28519978093842563
man 0.022657379297014557
oides 0.699954036083882
Сво@@ 1
сочи@@ 1
no 0.01760349629655014
значения 0.5776723676517108
Company 0.1126356557934766
tri@@ 0.05938145642120461
Сбор@@ 1
логии 0.6456644263762782
1606 1
ion 0.08452771361835057
Воло@@ 1
чет 1
50@@ 0.4560164779865952
AM@@ 0.30929813289525593
cu@@ 0.056818985078967266
do 0.03519219680210398
соб@@ 0.2998551354323349
oni 0.24222596624027623
дере@@ 1
124 1
1763 1
col@@ 0.044552012467866366
1676 1
1802 0.9376994662207571
лакти@@ 1
ides 0.10972624949196054
ol 0.06609763661526527
РО 1
1809 0.9013552758399664
22@@ 0.742548716851749
No@@ 0.1809714721572695
Op@@ 0.16995534705043402
разуме@@ 1
12.@@ 0.502421741491736
ant 0.015063218159725722
лектри@@ 1
арми@@ 1
шер@@ 1
114 1
вян@@ 1
117 1
17,@@ 0.8713177646317362
1650 1
te@@ 0.039889205371134634
КО@@ 1
1623 1
указа@@ 1
зв@@ 1
см@@ 1
ys@@ 0.12118047282692483
Аф@@ 1
ству@@ 0.5631447236346018
1618 1
me 0.04822615766798344
ok@@ 0.08237978586558468
vir@@ 0.24976164441912838
соз@@ 1
понен@@ 1
хле@@ 1
cin@@ 0.14319539447702953
yp@@ 0.18642525902909252
1740 1
ala 0.09534556390068681
lan@@ 0.09384022841647123
mag@@ 0.14274982303478342
Баш@@ 1
КА 1
рино 1
→ 0.9250546309767196
School 0.04480196149109276
РС@@ 1
мага@@ 1
Категория 1
цифро@@ 1
man@@ 0.04360591809678272
1787 1
IN@@ 0.2747565654327142
1770 1
38@@ 0.7731925487672131
UN@@ 0.29695762966564765
WTA 1
For@@ 0.0686915724708905
Time 0.26306963198894373
бря@@ 1
phus 1
наимено@@ 1
цера 1
дзе 1
татар@@ 1
ell 0.053569079765844504
Hz 1
конференции 1
1610 1
ius 0.2962606972534092
сьор 1
1625 1
Er@@ 0.03710927973953285
Сент 1
1632 1
1774 1
ma@@ 0.0645964953165474
ј@@ 1
1768 1
шед@@ 0.5982073512221202
щате@@ 1
MS 0.34490019510593345
Австра@@ 1
капа@@ 1
16,@@ 0.8611147664905628
спорт@@ 1
é 0.011743540167761638
Ο@@ 0.588777912652167
Ч 1
7000 1
дера 1
каде@@ 1
пр.н@@ 1
To@@ 0.12657354097110365
Калу@@ 1
разработки 1
слово 1
1560 1
Глу@@ 1
нужно 1
ass@@ 0.040362301904917734
вице 1
пише@@ 1
рь@@ 1
Sch@@ 0.023214235133469555
ay 0.04794017971304065
1776 1
Лове@@ 1
fr@@ 0.050562752711516966
гля@@ 1
лесо@@ 1
пие 1
Око@@ 1
1775 1
1811 0.8680498568072148
FI@@ 0.2892572958276906
Fr@@ 0.09404181237189543
надеж@@ 1
25,@@ 1
480 1
del 0.0061786233972338025
кварти@@ 1
1616 1
€ 0.5944784626435838
дя 1
ина 1
стояние 1
bl@@ 0.04656362754878255
преимуще@@ 1
ino 0.055825509818908284
Отец 1
Empire 0.16297690666878628
SO@@ 0.4060821720856013
пор 0.8795452483387731
1630 1
ang@@ 0.041039764919899635
do@@ 0.06798005826761885
yg@@ 0.3383078032203566
площад@@ 1
ity 0.028645310190481884
ola 0.14923138640734118
жу 1
à@@ 1
por@@ 0.08605333124586047
казал 1
ik@@ 0.043323252583993124
az@@ 0.05809322856948973
Й 1
1701 1
Петрович 1
низа@@ 1
and@@ 0.047397598838944746
ваго@@ 1
покуп@@ 1
Eth@@ 0.3762693334804226
город 0.2612115156092914
дз@@ 1
American 0.027623911361369234
be 0.008619053547704288
121 1
1598 1
1788 1
osus 1
rom@@ 0.12619820999786005
α 0.23153303137633588
сад@@ 0.9027010777207926
1627 1
mi@@ 0.06389539465084637
1683 1
IBM 0.8531593406147335
co 0.05070410025707833
Do@@ 0.12679728356986106
Man@@ 0.05869560863458681
NO@@ 0.49601648470664833
RO@@ 0.4569845102498611
ref 0.40037194721100494
водохрани@@ 1
повтор@@ 1
1651 1
ai@@ 0.1246863036871076
for@@ 0.036326806264258875
1540 1
Bre@@ 0.09976484285919301
sus 0.03342347508144587
цикло@@ 1
Елиза@@ 1
вмест@@ 1
никова 1
Институ@@ 1
город@@ 0.3315954327334577
1667 1
Мекси@@ 1
118 1
1450 1
Hot 0.3025450019666737
ser@@ 0.05158336184992029
неш@@ 1
ISO 0.9726258916896353
избира@@ 1
ответ@@ 0.7541181583200345
1638 1
достиг 1
1704 1
Bel@@ 0.05943682869890009
Dis@@ 0.11466007214756274
Mark 0.16277203196839135
Mor@@ 0.0526302186709352
ant@@ 0.05083272727507597
Брази@@ 1
Of 0.2609699118719267
Как 0.49575036307538484
5,5 1
Cha@@ 0.7484816759791579
вое 0.31883298379449526
тряб@@ 1
аре 1
присво@@ 1
1550 1
cop@@ 0.1534660191500898
ежегод@@ 1
1622 1
ES@@ 0.23528222803701515
SI 0.944141464431672
атом 0.6384837119236991
1605 1
ara 0.07094020590203508
реи 1
топли@@ 1
1526 1
1631 1
1665 1
рации 1
129 1
155 1
Disney 0.3314766684701326
MHz 1
втор@@ 1
офице@@ 1
IM@@ 0.3625513143855911
ренно 1
цате@@ 1
1585 1
end@@ 0.03727355770556942
1619 1
á@@ 0.05172949776769136
вес@@ 1
н.@@ 1
ь 0.09138533798653754
1783 1
19,@@ 1
CA@@ 0.20062085763746756
Network 0.317590774919457
Герой 1
але 1
енко 1
рование 0.5439945399827176
So@@ 0.08295455244479648
надле@@ 1
1636 1
be@@ 0.018785889028487365
la@@ 0.08445834943179856
луч@@ 0.443675963852776
SA@@ 0.2450344250473698
бере@@ 0.37181355963101537
1568 1
illa 0.11751458476941992
Анг@@ 1
стани@@ 1
Me@@ 0.05406156052910143
nig@@ 0.8408485768073106
ya 0.028386537024435065
1620 1
1668 1
мь@@ 1
1711 1
all 0.01654918578733024
1666 1
du 0.004678757223134492
1785 1
chil@@ 0.5175192709465738
Михайлов@@ 1
мам 1
рово@@ 0.8140392004761114
1559 1
них 0.12238119495636014
1569 1
1621 1
1661 1
Cas@@ 0.08961254238327501
odon@@ 1
IP 0.4944640675567355
ly 0.021363471854908077
пу 0.8832491925118986
1612 1
1670 1
Bur@@ 0.07465457514950041
opter@@ 1
1595 1
Linux 0.7665769252499833
Mal@@ 0.06974188551041126
ef@@ 0.09027090371598792
Ι@@ 0.5348858762690258
преки 1
iz@@ 0.04758611408887128
mac@@ 0.3350181068300241
Олег 1
образо@@ 0.46008652258242155
1250 1
Acro@@ 1
герба 1
IC@@ 0.24525990181501245
è@@ 0.14273283002530868
1547 1
18,@@ 0.9001505505865728
Bi@@ 0.07228150332062307
Ленинград@@ 0.9320589556797334
39@@ 0.7546157743883414
лам 1
лън@@ 1
1536 1
1715 1
20,@@ 0.9678054520331866
cr@@ 0.04634828293463905
Иванов@@ 1
1,6 1
1572 1
6,5 1
Ca@@ 0.3065180251937056
Man 0.13985555492661153
′ 1
can@@ 0.08052920219979
ita 0.0756494717619801
ure 0.03561624832596019
яну@@ 1
1626 1
1686 1
Сталин@@ 1
проводи@@ 0.5077118484179295
1675 1
1784 1
ill@@ 0.04469090124674129
1769 1
On 0.01879908134281707
om 0.09606465238159947
Генера@@ 1
Inter@@ 0.0713592069398837
il 0.008820875449055889
щена 0.7542752573686144
1590 1
340 1
pra@@ 1
Хит@@ 1
гита@@ 1
ex@@ 0.02189676209142374
sit@@ 0.13024412605391103
165 1
At@@ 0.11084137545427836
ance 0.02748959047330087
su@@ 0.033757494987121
116 1
1521 1
1699 1
Hol@@ 0.0868288616253027
IT@@ 0.4450764270484214
Times 0.16416299269963666
dia 0.15303315163286324
батальона 1
1492 1
Die 0.008787713160385843
ann@@ 0.055435519407132254
епископа 1
} 0.32728353393425363
£ 0.2146911097487385
eps 0.3656833867249998
ulus 0.7756026670054431
оба 1
1637 1
1722 1
газ@@ 1
PC 0.28655865684376175
кио 1
музи@@ 1
ym@@ 0.12609302422911275
Военно 1
1,3 1
DJ 0.4586767569472036
Таш@@ 1
Pol@@ 0.0821068398256809
hy@@ 0.1596556899259468
Δ@@ 0.4728015861638893
цей 0.7593378204116673
1577 1
1664 1
Крас@@ 0.49550047242635653
зу 0.6377141779475837
ton 0.0268179056936975
ard 0.042212396090101155
eph@@ 0.3189483908544963
1580 1
m2 1
дт 1
спектак@@ 1
1757 1
Департа@@ 1
жур@@ 1
1690 1
oni@@ 0.13087929117619876
Α@@ 0.3222971104604756
кома 0.9268386493223484
133 1
145 1
1603 1
1744 1
1762 1
евна 0.7972351034338264
1607 1
1689 1
tica 0.1630810540888728
кая 0.36263492396830693
1649 1
To 0.13026833055604464
Your 0.41365436991603455
by 0.003005563622071155
ts 0.015443952129535742
act@@ 0.20980577337162085
ano 0.038421839246753534
Cre@@ 0.12185905750273876
импе@@ 1
1453 1
1643 1
1767 1
MP@@ 0.3463042326808025
ak 0.04752111176300227
š@@ 0.13746534909653868
написал 0.8833308829967712
1778 1
Mer@@ 0.07971530969829009
ight 0.10867069264879335
1633 1
1743 1
27,@@ 1
aris 0.7749453483000135
enti@@ 0.05411708087147995
ida 0.057927287736954096
pal@@ 0.10742847358385542
1786 1
ence 0.03343778067086739
iv@@ 0.09642825576006932
sc@@ 0.07587325061522426
sol@@ 0.04259977583298407
Португа@@ 1
1659 1
MTV 0.5322766391281286
chem 1
406 1
азербайджан@@ 1
1702 1
ates 0.032226986620856775
1737 1
ex 0.1483852478863569
1766 1
225 1
CH@@ 0.3121280958276066
кого 0.23766411977511628
1,8 1
1707 1
1535 1
28,@@ 1
45@@ 0.6382280864993041
60@@ 0.4811406435697166
ta@@ 0.08387244012479127
1672 1
об 0.2812347513163663
сад 1
144 1
1735 1
Hel@@ 0.13510271343702515
eli@@ 0.13522461356342033
окра@@ 0.9634856466873729
1712 1
AC@@ 0.17034688393796685
Pe@@ 0.09333125772311074
династи@@ 1
имено@@ 1
113 0.9431994358441556
1604 1
1748 1
NXT 1
atidae 1
end 0.022028243287740643
ler 0.028649698736785693
годи@@ 1
anti@@ 0.06984426269622186
atr@@ 0.09314072257284302
ba@@ 0.0676295959960757
yi 0.3281929948722186
КПСС 1
получила 0.5152343493033834
1760 1
24,@@ 1
Her@@ 0.056906154847381436
public 0.04521360443169667
11.@@ 0.3947983692243661
1656 1
1728 1
долф 1
1. 0.08070124518782706
1644 1
199 1
Bl@@ 0.08437412622670491
tor 0.05637334993761835
li 0.1056571476452347
vo@@ 0.10145697935304698
1596 1
1771 1
близо@@ 1
1724 1
Евге@@ 1
1652 1
Warner 0.4528553618976866
ge 0.03120898046714237
1781 1
лизации 1
проходи@@ 0.7704350624191504
1519 1
les 0.00404600845143805
lin@@ 0.06915010119739692
млн 0.5327306474012948
1756 1
dr@@ 0.037141311427588024
ord@@ 0.06946522538376486
дъх@@ 1
отлича@@ 1
1777 1
`@@ 1
ος 0.17909244090087156
1653 1
1720 1
1773 1
Pic@@ 0.2339306753603749
eti@@ 0.13885757305354185
name 0.030299677550481286
Населе@@ 1
1721 1
ev@@ 0.04473447275393089
pel@@ 0.09381867003552352
НК@@ 1
строения 1
Sal@@ 0.06338948014986544
gen@@ 0.03408477441497983
ornis 1
ā@@ 0.11320608713855593
Моло@@ 1
адми@@ 1
1746 1
1641 1
1658 1
Air 0.08780700656339654
eri@@ 0.1243865166804487
ское 0.08347798024663786
if@@ 0.0549874389298912
168 1
1739 1
System 0.181424860107502
Наполе@@ 1
1520 1
1592 1
ML 0.8120951237082429
hynch@@ 1
1741 1
индекс 1
политики 1
самостоя@@ 1
1525 1
1726 1
1601 1
Красно@@ 0.608023746302722
гастро@@ 1
1642 1
26,@@ 1
Bal@@ 0.07396617495153755
Su@@ 0.07340837738561393
Кавказ@@ 1
купи@@ 1
основания 1
420 1
Геор@@ 1
Гоме@@ 1
Президиума 1
Ричар@@ 1
стойчи@@ 1
55@@ 0.8492501110959733
hin@@ 0.14149139451173615
ja 0.07417565366345599
Бере@@ 1
1782 1
Club 0.06048628767942042
Mag@@ 0.09382316227564357
chi@@ 0.1143341080094181
ue 0.04480665726129229
болез@@ 1
зви@@ 1
скорости 1
1678 1
1729 1
1738 1
Gal@@ 0.09277068095943837
Gu@@ 0.04821009469938631
MA 0.26015678180979673
bar@@ 0.04299228711035705
cul@@ 0.10879055011759987
зации 0.6097293454328787
1,4 1
th 0.026186672217334023
сч@@ 1
1709 1
gar@@ 0.08395386457106893
Швей@@ 1
Thr@@ 0.33401293514504615
with 0.002782843748378601
хър@@ 1
1745 1
und@@ 0.05169325980096941
жертво@@ 1
даго@@ 1
рович 1
1350 1
1655 1
208 1
BBC 0.18085943380085975
ceph@@ 1
Иванович 0.5964129138549669
фигур@@ 1
1611 1
1629 1
1708 1
AT@@ 0.23534929391916992
Corporation 0.19964466733200142
Em@@ 0.11075568484835219
anth@@ 0.2444895297472704
den 0.0041077685758577264
ist 0.00571936099354956
850 1
AN@@ 0.23457623461749516
ess 0.041841711700304804
thr@@ 0.15976421004702504
ците@@ 1
High 0.07125575353703625
Пес@@ 1
директора 1
1571 1
Night 0.2561578151706618
1730 1
\ 0.44356156678226616
ona 0.08111471091160706
ведение 1
вше@@ 0.6482608616853786
1685 1
1669 1
1733 1
1764 1
yth@@ 0.7144496457877978
газе@@ 0.7916583245217026
интересо@@ 1
палат@@ 1
El 0.012381578914926476
Grec@@ 1
Star 0.13713008867730048
Up 0.3315370626415441
gu@@ 0.04218190396520445
Hydro@@ 0.6761625423794154
Open 0.13864408030298508
new 0.020193672993969066
134 1
1714 1
1723 1
ER@@ 0.2176211601014589
pin@@ 0.20017756734403835
urn@@ 0.1913181550449422
деяте@@ 1
HTML 1
Is 0.2696276118361969
Meg@@ 0.33118847778132776
cal@@ 0.08566334832851286
don@@ 0.08196139707456965
1662 1
iidae 1
Τ@@ 0.2846104111012236
Ура@@ 1
крепо@@ 1
ню 0.7343505184095488
тики 0.8453919989896956
Best 0.1103031168911207
SP@@ 0.26928589235574135
cap@@ 0.07198597946354605
graphique 0.7231561135060941
1597 1
Ottoman 0.4373483292829648
Statisti@@ 0.8880165400646562
ium 0.15966120065653555
132 1
str@@ 0.033789262040328005
года 0.010247020198767396
Tor@@ 0.08009385679163979
alb@@ 0.14992859760460273
ister 0.14321970137580878
ori@@ 0.0680181767883905
Σ@@ 0.18000146509706086
ровна 1
установи@@ 1
фестива@@ 0.5635359524868931
Pan@@ 0.10653408582073097
min@@ 0.040498696726800766
thi@@ 0.18355713663872075
кинемато@@ 1
пропаган@@ 1
формирования 1
138 1
1615 1
1705 1
1765 1
185 1
Fl@@ 0.05703311275904983
Sph@@ 0.829324830752129
Ниж@@ 0.6160331780064716
дав@@ 0.7649914081943092
дила 1
1204 1
1628 1
Awards 0.10496219613757675
fer@@ 0.041816062218880165
Луч@@ 0.9981019987292482
желе@@ 1
205 1
48@@ 0.7605114491912834
DC 0.22047622645907766
kW 0.7447918027892972
mor@@ 0.06718829203366243
.е. 1
University 0.020972760328580642
ici@@ 0.08804551894113082
son@@ 0.07042277187175872
1710 1
Fox 0.24198945917632098
Red 0.10721896147713203
atum 0.4022360500230868
der@@ 0.03472845290989411
Олимпиа@@ 1
AN 0.34604412493527176
ile 0.03162010249476951
доров@@ 1
йнт 1
Il 0.01343382359465598
ke 0.035392314592354916
loc@@ 0.07169651623138182
Смолен@@ 1
1684 1
Val@@ 0.07673307101748807
Викто@@ 1
власт@@ 1
писали 1
1758 1
инжене@@ 1
1645 1
1742 1
23,@@ 0.9309420314536847
3500 1
AF 0.34194908200536844
ge@@ 0.02133339586009271
1731 1
1754 1
1761 1
MI 0.9267874247001895
ur 0.04673015007361811
YouTube 0.36755971570036466
принце@@ 1
роз@@ 1
1718 1
City 0.03454882741724954
cer@@ 0.06452743856883555
è 0.8513223913002821
жан 1
310 1
USS 0.4666531899308272
итава 1
конку@@ 1
Pictures 0.48158689746589994
This 0.018841609144299706
ings 0.025376611290632237
Герма@@ 1
1716 1
36,@@ 1
SM 0.508460910795205
Inc. 0.2954198658412345
кафе@@ 1
клад@@ 0.73740595074497
1515 1
Blue 0.17588372682278328
позволи@@ 0.665005193065381
1736 1
Im@@ 0.0873213970877092
Media 0.17953616615689785
é@@ 0.017378469255286567
1609 1
ere 0.04087443329211437
out 0.017308334547026044
заня@@ 0.3532542104633861
A. 0.0859229854948997
Mur@@ 0.1270592610916374
olo@@ 0.31000502483648373
1654 1
1779 1
Si@@ 0.09666957803485947
моло@@ 0.3322805364709995
ной 0.018991780315555262
скул@@ 1
Char@@ 0.0765849458541731
We 0.17424482110939762
· 0.035013057425306304
Por@@ 0.09653555551500742
ST@@ 0.28643619448333435
the@@ 0.06471389675168032
Георгий 1
бокс@@ 1
1759 1
land 0.021917890456349804
mat@@ 0.06448976221871673
ордина@@ 1
22,@@ 0.9339665544136283
370 1
ali@@ 0.06246965529818399
пореди@@ 1
1565 1
RI@@ 0.3284062115882279
q@@ 0.10822549400662275
1583 1
1753 1
ostr@@ 0.68604853591728
Краснояр@@ 1
1703 1
National 0.02559885447784918
SE@@ 0.1954111993634168
e.@@ 0.6003429277551517
ki 0.0720983670338457
Черни@@ 1
км@@ 1
нок 0.35507349618049905
ard@@ 0.06992631564018334
Фердина@@ 1
пограни@@ 1
ука@@ 0.8306529612196528
44@@ 0.7608848346239186
son 0.006844576639578852
боло@@ 1
отече@@ 1
0,1 1
доход 1
onia 0.17861574218903034
уез@@ 0.7307176040811846
1687 1
325 1
Vol@@ 0.08622120501820366
Ros@@ 0.07617501632049312
asi@@ 0.10155152692237099
решил 0.9135965697798741
1624 1
War@@ 0.09845641309959859
eo 0.08544157656082531
im 0.004726332354891147
omy@@ 1
otus 1
запу@@ 1
TE@@ 0.3242275990366753
pora 0.8589192818297356
СМ@@ 1
154 1
ib@@ 0.07029154599218508
вси@@ 1
AG 0.2197286587312608
Channel 0.2670438043956223
147 1
1751 1
ace@@ 0.16148426006718933
176 1
Eur@@ 0.22815383245617873
Sor@@ 0.18040978796671342
ary 0.02107240403203269
рян@@ 1
чел 0.5702891492331139
1752 1
Acanth@@ 1
Studios 0.2844045093719039
mer@@ 0.033803641129292655
146 1
1713 1
1749 1
Ur@@ 0.07418544212762875
1725 1
зиди@@ 1
одо@@ 1
сержан@@ 1
136 1
166 1
Pter@@ 1
Reg@@ 0.05138245679320068
‘ 0.11502244920981661
Intel 0.9925861537281586
` 1
che 0.03872093717022076
ek@@ 0.04143016791151411
phy@@ 0.328795013148831
гани@@ 1
46@@ 0.6888384322877538
OH 1
Plat@@ 0.12039398314011948
VI@@ 0.34578070973774233
ectus 1
крае@@ 1
1732 1
1734 1
Not@@ 0.14258770829008177
ema 0.14051614627566816
чив 1
162 1
Min@@ 0.06125565301004444
www.@@ 0.5904223538079922
ect 0.061092158714795085
Rhin@@ 1
amb@@ 0.0803094997221184
tion 0.02270818984816539
148 1
ah 0.045196010321296214
ory 0.06012597152441042
едо@@ 1
1727 1
Phyl@@ 1
est@@ 0.028869692426622805
up@@ 0.046448752598741996
лано 1
Анатолий 1
1697 1
ВД 1
192 1
US 0.03288297803995315
af@@ 0.030980396068738897
ko@@ 0.10918762980420949
York 0.02544081815450087
able 0.016829578527888918
ning 0.05867408080664204
st 0.029736381853806382
Wor@@ 0.08577225562016794
cur@@ 0.05576648099926291
прав 1
оставил 1
119 0.9719058101926138
2. 0.12246596595462976
Na@@ 0.188901600309087
TV@@ 0.33230622845236196
arius 0.631399306782384
yan@@ 0.24153541708409607
тая 0.5018758938666578
шие 0.23689173569893524
131 1
Cu@@ 0.12803488412256056
Rom@@ 0.08257010107063206
SA 0.17509713220082257
HMS 0.41388809145712396
oceph@@ 1
sim@@ 0.14270932733995226
tac@@ 0.2820189822273736
дино@@ 1
круп@@ 0.2903661885337878
помощи 0.6016102322469283
he@@ 0.03551483064991901
шав@@ 1
1,7 1
NGC 0.2656297834041238
chrom@@ 0.44363302742078176
Поз@@ 1
sin@@ 0.07383385529022991
8,5 1
Big 0.12526504809534544
Dr@@ 0.07924029097574302
O2 1
Николаевич 0.7951996437623383
1717 1
1755 1
ales 0.020629613083125206
ari 0.08661126953684961
теше@@ 1
MW 0.75102663601173
Pro 0.2147556549184236
q 0.13574998182129874
РСФСР 0.5472953920832406
вопро@@ 0.4638270287680254
EC@@ 0.5330869046227409
Ho@@ 0.07425175337063754
АО 0.6918521292975706
примерно 0.389085291773399
Don 0.13678696397230852
Nov@@ 0.14266405872569274
тело 1
142 1
151 1
uf@@ 0.12065012440850577
стр 0.7750236034052138
2,3 1
70@@ 0.4956603847500957
AP@@ 0.2133984087609925
ae@@ 0.26772299258539917
ks 0.02225094721618567
Script 1
ense 0.09496160278614633
воро@@ 0.5256526459362839
зав@@ 1
метров 0.2757306728345328
сона 0.6085504868355942
Окон@@ 1
Поб@@ 1
ay@@ 0.03522190780942769
лая 0.7521623530573152
1517 1
AS 0.2067589046849553
Ber@@ 0.03655115185700861
DE@@ 0.26925856339726406
Lib@@ 0.21795421536522963
bu@@ 0.050828067920182615
illi@@ 0.23795068298246605
č@@ 0.12923378236636288
шир@@ 1
1719 1
amp@@ 0.06427505212857633
if 0.0440185179999702
sub@@ 0.028122535492084533
могла 1
200@@ 0.2254674205096655
Sci@@ 0.7092147818438493
названия 0.7451899183272561
bul@@ 0.07790119598993364
go@@ 0.08068734887034625
Етно@@ 1
гимна@@ 1
Be 0.3957801045280638
235 1
430 1
bat@@ 0.061234920255838036
eh@@ 0.035053893566503125
ise 0.02225651803546144
me@@ 0.03373444833210308
zi 0.2044377605842399
Fac@@ 0.16997808944530512
Leg@@ 0.09763719358487971
ra@@ 0.043095139224428064
275 1
356 1
aw@@ 0.04270029321378716
melan@@ 1
гда 1
161 1
Av@@ 0.10794725526311512
cel@@ 0.11068258224523575
ken 0.03396478309412084
orus 0.7846277422471802
ѐ 1
ave 0.1113735285149426
class 0.07261499817369456
ularis 1
команда 0.49155071239294107
секретар@@ 1
1555 1
1747 1
SS@@ 0.34348221887684705
Studio 0.29356580954966477
Об 1
ям 0.2377391326150732
Ple@@ 0.3313240086527404
Sil@@ 0.13055429024835855
lia 0.208816494728508
0,3 1
Pal@@ 0.07254012084796256
mg 1
уго@@ 0.4338201467274801
0,2 1
440 1
90@@ 0.5759779473926679
цете 1
182 1
For 0.04447465984925422
ick@@ 0.05288453369982252
ner 0.026804943594520604
социации 1
хии 1
21,@@ 0.844077755635216
Κ@@ 0.20968579217684052
47@@ 0.6062659865023701
ny@@ 0.20077813374843445
новил 1
псе@@ 1
Grand 0.06038321240730213
бух@@ 1
ess@@ 0.033211748095534496
iss@@ 0.08197007585569556
low 0.05255545468493729
ones 0.04119623807385454
Щ 1
вобо@@ 1
Ste@@ 0.06603040659926492
Tel@@ 0.14147863812220565
ade 0.040067494318808176
ene 0.039089825062403556
137 1
217 1
1556 1
Pl@@ 0.055737506875143776
od 0.10964403781667045
AT 0.2969394303625485
CE@@ 0.2367554190742417
Estr@@ 0.4761615097246247
ВС 1
Свя@@ 0.356533796317099
163 1
ast 0.07620438448693553
ff@@ 0.051866276519894415
ima 0.10001504405769787
мами 0.722460951269858
формирова@@ 0.8103138783568052
193 1
43@@ 0.7454118255946423
Gi@@ 0.07228790753021007
баш@@ 0.6894178222176554
парламен@@ 1
195 1
290 1
FO@@ 0.5111982804538439
Pseud@@ 0.5040334541608688
ake 0.07233989706167529
opo@@ 0.254758219733737
вши@@ 0.6375616143001975
actylus 1
ellus 1
til@@ 0.0706742693666395
Михайлович 0.8739594655429935
Преобра@@ 1
мович 1
156 1
Day 0.11219477364127833
ah@@ 0.03852886415267537
bor@@ 0.06963490863989906
bre@@ 0.04114948101200336
sk@@ 0.04873736242330377
Норве@@ 1
201 0.9954517278839624
Dark 0.39601304947807814
Like 0.21592664077409646
San 0.02721560270943242
ваш@@ 1
тога@@ 1
256 1
Do 0.2628429977359067
pp@@ 0.08736882810794057
йти 0.41481463367800714
141 0.9964120345216412
ABC 0.27596634889041993
Fo@@ 0.11626321747295448
ack 0.07167386368357813
tur@@ 0.031720815647768276
μ@@ 0.1982258402454119
треш@@ 1
2.0 0.5746730956283257
Death 0.20298293934433306
cas@@ 0.04335481058610636
etta 0.22695786871476548
nus 0.7078399069023651
ster@@ 0.07967118986349057
Ν@@ 0.23075933407820565
Android 0.6549255586752534
Sub@@ 0.09162628348082832
return 0.08820492120757824
1,1 1
va 0.04441762228646622
ς 0.28701370235467455
Centr@@ 0.3999476473471264
Del@@ 0.10033462458955138
ker 0.04000750068648828
крас@@ 0.31628693326607826
ное 0.03168789685878343
пизо@@ 1
950 1
Ε@@ 0.31594487220103445
европе@@ 1
164 1
кут@@ 1
196 1
204 1
Go 0.29601506436453323
tar@@ 0.053212818811516745
560 1
Rec@@ 0.07141835828542867
ire 0.03775646465859011
гами 0.632809386453971
172 1
2,4 1
460 1
Mir@@ 0.1173291644805536
RE@@ 0.21682047703657176
гет@@ 1
Ri@@ 0.05867603165788933
54@@ 0.881208204863997
H2O 1
Line 0.12585217979548508
Rem@@ 0.14854727446464766
ast@@ 0.052748139433100014
Казах@@ 0.8928260075359373
Чика@@ 1
вив 0.8574028121992652
ключе@@ 1
167 1
206 1
410 1
49@@ 0.47885242446353726
хослова@@ 1
NE@@ 0.2725236412712679
aster 0.24672576443604083
Рус@@ 0.4418294359361563
215 1
520 1
Hal@@ 0.07943709624108673
Образо@@ 1
188 1
29,@@ 0.953633256223362
HS 0.47076965197298587
ir 0.026198828232398823
Open@@ 0.4536800548707835
dus 0.934296819453128
inidae 1
ve@@ 0.06375331034843633
view 0.09739960261736154
Петербург@@ 0.7487732862431355
Sy@@ 0.1010715047545435
Zo@@ 0.3442332548478064
bur@@ 0.054758484632706175
eil@@ 0.28292039484667664
flav@@ 0.5159894795996846
ics 0.0352493117547903
mi 0.1167488945169703
чу 0.3492237668349328
139 1
aj@@ 0.047641312862908486
als 0.004446055038928771
ical 0.026222397103975142
pa 0.10471006462050282
сибир@@ 1
0,6 1
from 0.002836323599056652
ley 0.02534784154081884
лем@@ 1
CBS 0.3244826591986086
Out 0.2467028356409949
isti@@ 0.10757649692162254
ng@@ 0.08420686417634902
железо@@ 1
неуда@@ 0.8046535545237036
Hap@@ 0.9245964648442673
ila 0.1204597592557498
Bol@@ 0.10023161846736205
United 0.015918387505824846
What 0.24717339095009105
ain@@ 0.0529025336730871
скет@@ 1
212 1
We@@ 0.05084165487698137
eng@@ 0.03738429565025388
Χ@@ 0.2996265709154067
див 1
178 1
184 1
197 1
Es@@ 0.057365465682963385
чика 0.7631561578424401
186 1
720 1
AV@@ 0.4541124649437658
COVID 0.18872451970013035
Labr@@ 1
Prot@@ 0.11122362680367705
TS 0.39053374726295254
aja 0.15297966304316446
ine@@ 0.14056074290496734
sal@@ 0.05215819146080117
tel@@ 0.05205087444871623
ani@@ 0.09872829233338482
arg@@ 0.09957866735574152
174 1
RT@@ 0.29703258122927284
dic@@ 0.0636830599513212
dom@@ 0.107425140095601
ick 0.04338053565699488
k.@@ 0.8821399917828652
oh@@ 0.08275178320227983
ud@@ 0.06891684025178754
губернатора 1
365 1
Du@@ 0.07407194150110226
Home 0.16525393842029162
PS 0.1818665937285913
Sim@@ 0.07803831553125697
Bor@@ 0.06015811138786755
Pin@@ 0.15928082894830917
SQL 1
ith@@ 0.314247881513754
губер@@ 0.668982486598066
von 0.0027950003349346505
149 1
177 1
2,6 1
otis 1
~ 0.4410212746170957
Оле@@ 1
бя 1
нах@@ 1
reg@@ 0.03516893017320049
ò@@ 1
Площа@@ 1
парла@@ 1
AD@@ 0.1999858228050605
Cro@@ 0.1035720060927916
зови@@ 1
узна@@ 0.639323409180311
183 1
74@@ 1
Ni@@ 0.07641104238826914
денти@@ 1
игро@@ 0.4614915374208526
кое 0.2288094890529201
пии 1
стокра@@ 1
ходят 0.4987585014752931
169 1
Des@@ 0.06728610860804737
Radio 0.08931980917713392
Super@@ 0.10540998623087047
pes 0.16128373804536128
ή 0.07652994358710347
вило 1
213 1
254 1
BC 0.1172327628038668
ice 0.0372910245522488
opsis 0.4206201396984951
ty@@ 0.0824856771833735
правил 0.9283520194122878
153 1
Scar@@ 0.36006586920625416
aup@@ 0.4481641314920123
cre@@ 0.036105400363016724
так 0.0729091330453775
64@@ 0.8492126597447343
Sun 0.165350161127334
211 1
65@@ 0.5934809489645141
John 0.01897289659860149
убит@@ 1
67@@ 0.8164004735136341
юго 0.21592794025532241
3,2 1
3,6 1
56@@ 0.750254747498808
pa@@ 0.18085489054403037
tan@@ 0.05450691446941212
рем 0.9391171960676973
Space 0.22816100881822748
bi 0.14047184528506573
низации 0.8254737050962608
Cat@@ 0.11165512134480082
Heart 0.30388131781575245
Kar@@ 0.03851137268268832
arch@@ 0.06145031701928536
ax@@ 0.09258649861893527
ë@@ 0.2746044274455033
216 1
58@@ 0.7777301520880954
Award 0.05632246730554786
Bros. 0.7733855856966136
Facebook 0.413609795434782
Uni@@ 0.143604114851157
ok 0.08659060928694068
включа@@ 0.4175643765985477
FC 0.05158417626037154
Royal 0.05018520976958611
fer 0.06055211258119084
une 0.003932701238207102
кото@@ 1
143 0.978393966795066
202 1
A.@@ 0.1678591311504605
Mot@@ 0.09388364484214277
Sab@@ 0.11286876953673589
char@@ 0.06742350415540337
здание 0.4026406476217959
191 1
sen@@ 0.040502323975003744
авгу@@ 1
агент@@ 0.9328680571694515
лке 1
2,2 1
Mc@@ 0.03003339638664599
aga 0.11952313212902105
alm@@ 0.09140340162718993
ВМО@@ 1
Чем@@ 1
Pri@@ 0.1036885429281923
0,8 1
218 1
AB@@ 0.21841026617898956
TP 0.5138904392796501
eu@@ 0.14551062564968367
Француз@@ 1
шла 0.2654730765528876
,@@ 0.855190741180648
390 1
9000 1
HD 0.31168146458710966
Show 0.13549887330124957
etus 0.7348559117505451
ota 0.11863912561400212
ó@@ 0.04075833664574069
лой 0.24940577498534966
ожи@@ 0.6495251363775787
King 0.0485674189579815
eum 0.24622427495080973
ë 0.5074354986706123
старто@@ 1
59@@ 0.793045661469027
Dance 0.27389095523758084
aci@@ 0.07811571185655194
otr@@ 0.3072129330336361
сомо@@ 1
Top 0.11813537332311658
WCW 1
km@@ 0.4808371626903976
68@@ 0.6673792699080096
Cur@@ 0.07517313337532466
Mac 0.37784379489368874
ada 0.011384537675483059
oa 0.1354804350103401
189 1
ther@@ 0.06357775122649503
слова 0.5366315870178889
157 1
640 1
ama 0.049915810431898515
ip@@ 0.13492302583911792
верса@@ 1
оконча@@ 1
остат@@ 0.8223664181806244
187 1
API 1
cic@@ 0.36216578791411597
inae 0.3166020430089695
je 0.07317368344634093
ven@@ 0.03844630865624222
СР 1
285 1
Cam@@ 0.08174867547434901
News 0.13778530718783188
─ 0.37012505942201296
Ger@@ 0.04307064951255602
House 0.039303475709255506
Sony 0.3372040032150873
ler@@ 0.04310156297623264
Camp@@ 0.13268496641260175
Journal 0.15373359105397624
ilia 0.3745032304936342
pu@@ 0.04759134186779042
style 0.04577803565957064
tal@@ 0.06653986731532066
новка 0.9803172798215719
98@@ 1
Hem@@ 0.25649227683009035
igh@@ 0.07102574032348209
lam@@ 0.06950752818845901
ong@@ 0.05437656924988917
Александрович 0.6226291745231894
рост 1
Kr@@ 0.04362357648005191
ca@@ 0.21406381280874695
cat@@ 0.04887001091504001
cl@@ 0.03195886650730955
ν 0.2900412948595491
ός 0.1751562956565233
хок@@ 1
General 0.036287325572303214
HBO 0.8219934313613161
Pom@@ 0.25344551830557677
TA 0.21655121923363135
VA 0.34648610492372295
tera 0.22495249434152176
Lov@@ 0.25925628451210314
au 0.004427139685845121
tra@@ 0.09478550169010394
vit@@ 0.2018830159515691
Can 0.3612858393602344
Center 0.061680612307136284
Jav@@ 0.5720279250668878
tro@@ 0.04855756837238829
και 0.01192891817035027
Амери@@ 1
мъжва 1
2,7 1
Camb@@ 0.38223596502410057
HD@@ 1
Xen@@ 1
her@@ 0.02311940350889655
ua 0.0964838736995698
238 1
99@@ 0.852509939461356
ow@@ 0.03835955761664622
sec@@ 0.04552707764709442
ug@@ 0.05919841919325531
династии 1
пут@@ 0.76086214735524
шинг@@ 1
ѣ 1
540 1
DOS 0.9063790702503347
Way 0.2880693637427342
ens@@ 0.02053505157525166
381 1
Pas@@ 0.06932639409108864
йто 1
IE@@ 0.392648097716051
tic 0.032845817702367115
± 0.8737825444452203
нами 0.12401332402078122
Unix 1
aen@@ 1
int@@ 0.049673635713368545
2,8 1
33,@@ 0.9562562311094791
AL@@ 0.2110957467007576
CP 0.3581606010830658
Pap@@ 0.10797075894435217
Res@@ 0.062023049386910285
zi@@ 0.061469304320816306
соф@@ 1
тря@@ 1
222 1
Street 0.04556997367786748
USB 1
atis 0.7961891031582721
bius 1
our 0.031946835770065296
ung@@ 0.032345596536396
дера@@ 1
306 1
680 1
ets 0.023910525421718266
formes 0.18547439486194672
ulata 0.8904203632224146
198 1
209 1
PO@@ 0.3699617654526056
ilis 0.8357635637480448
ry@@ 0.31627591121625276
окон@@ 0.7100363908763115
173 1
179 1
CD@@ 0.14443123514833014
ab 0.02163582510530179
ba 0.07001508284448035
mel@@ 0.06833618897458237
time 0.008899110256669226
шру@@ 1
88@@ 0.8357065826104686
Tre@@ 0.06532436941558847
olor 0.761417039981329
ste@@ 0.04501387266773605
аль@@ 0.1047279920155616
студии 0.649980524742904
75@@ 0.5467253005377264
ack@@ 0.05252608740243628
arr@@ 0.03913220678128671
entr@@ 0.051484041526251474
Π@@ 0.17377037854921343
207 1
ated 0.007963949422719854
171 1
343 1
9,5 1
GB 0.24819427154945886
Mat@@ 0.05670244594455552
ero 0.04569210282644276
ez@@ 0.0558369557112072
470 1
Ran@@ 0.12546257877279388
WA 0.3937824553211702
dium 0.26112608044920305
ico 0.04224004162383884
rich@@ 0.08046073095975316
yx 0.8227485101595293
Яков@@ 0.9839810991504747
бест@@ 1
кам 0.2073645716834475
AB 0.3387971895508672
Dic@@ 0.2982207577301163
Good 0.24128057246526127
Lep@@ 0.46727503295806655
SMS 1
anthus 0.8653502975908294
olog@@ 0.09631030608823075
tig@@ 0.06424009622189113
tro 0.1424150102752454
ρι@@ 0.23967913204135888
229 1
Gen@@ 0.05589463162147465
Har@@ 0.03905017656940621
gens 0.29645575166845295
Β@@ 0.18975686397614158
395 1
Universal 0.2771237634132253
dy 0.07247463304834706
ko 0.0663561214124057
nis 0.10458060801820013
ong 0.03362282200431365
ony@@ 0.22343395469392224
ž@@ 0.20222017743179554
мок 0.9966842176769702
ремо@@ 1
355 1
TNA 1
occ@@ 0.3875230433456558
тата@@ 0.9541125338825573
0,4 1
HT@@ 0.719123892375818
Mic@@ 0.22984717642647928
idi@@ 0.10565988080192931
las 0.005248929014118673
лиц 0.7480859165219054
AI@@ 0.21398925328635035
elle 0.009878066404629609
ł@@ 0.09764469669101325
Ль@@ 1
CC@@ 0.2069788780505123
Eng@@ 0.10417946317499627
Fre@@ 0.03865316707463516
Writ@@ 0.20949447165995638
lis 0.1102694852134953
text 0.11364196967481595
географи@@ 0.6641435088518284
живу@@ 0.961357598401872
245 1
3. 0.10859118738251126
375 1
Ach@@ 0.1640219593929368
Cir@@ 0.22004377044119997
fo@@ 0.06150424235143301
ATP 0.313029161003132
Cl 1
DO@@ 0.33312435783426647
Festival 0.05797930057573734
PE@@ 0.3032987094263357
Plan@@ 0.10024820501038886
Sur@@ 0.0694278700875238
fasci@@ 1
icul@@ 0.2767164949507517
Новосибир@@ 1
водил 1
001 0.8362630888110659
America 0.04923974269524931
pay 0.15906993702889655
Сибир@@ 0.7287239159278023
здания 0.45427772377456616
S.@@ 0.17976165354581888
chr@@ 0.2312584046688868
mal@@ 0.04646358889015324
стров 0.7155005722846559
elli 0.11630400680828637
ву 0.3323875945822496
зиден@@ 1
Black@@ 0.1591440325323036
MO@@ 0.3086084784933821
pos@@ 0.029902162687539993
β 0.3702247101304657
Вашинг@@ 1
бок 0.9107108389457481
гом 0.22536278529260384
лого 0.6351663996657844
DA 0.2398268365019535
cha 0.06497156670836426
chin@@ 0.1839928887897567
dor@@ 0.08929608784967151
sil@@ 0.07463088242090145
ι 0.1833040183282237
Рас@@ 0.5765490016681595
орде@@ 0.9427759318683635
Lab@@ 0.21501927289096393
aer@@ 0.15809934636614537
ars 0.03836219440472409
bit 0.11816561536276317
ello 0.07343302800855285
go 0.047073807287906555
inn@@ 0.04102856347375333
3,3 1
College 0.02883009906557515
a.@@ 0.29153911081551515
rec@@ 0.02493765399862811
Λ@@ 0.19922306144642746
Eu@@ 0.370716787995474
Ferrari 0.4419528454737426
GM 0.33741028421090247
ft 0.038545953868116004
milit@@ 0.1944024073298201
Алексе@@ 0.37767865007952606
194 1
255 1
960 1
Bath@@ 0.6811461690260201
EN@@ 0.44579187408173737
ey 0.0329127869878496
Μ@@ 0.18043963304836802
аспиран@@ 1
итуа@@ 1
чем 0.10335354540675225
219 1
53@@ 0.6774468992712588
BMW 0.5154502771669914
Bul@@ 0.1036769058438351
First 0.05549197574233685
Project 0.17857636570688662
amm@@ 0.06424090950198261
king 0.03209071878414759
nem@@ 0.8357528262902079
net 0.07987386087750685
rop@@ 0.24813947431479452
ry 0.04558446769131873
vo 0.09362211890806683
η 0.02833773259014318
Из 0.2084359619525282
тности 0.8153075499605922
Dead 0.31486595513246596
FM 0.12767449314289994
Homo 1
IP@@ 0.31523845733793565
prim@@ 0.07783107564414188
веду@@ 0.2786919814332695
18@@ 0.22133852186969077
BS 0.21012002674634833
Dol@@ 0.11930557702393049
Girl 0.25359345006753425
Gl@@ 0.07953023372078044
PC@@ 0.19417891438858392
Trans@@ 0.0565691965792966
Vir@@ 0.1392056561243865
ish 0.04156512895526766
ly@@ 0.07889370160095482
ode 0.15878437030550796
tia 0.13036028314258014
« 0.0027581346113134926
баталь@@ 1
зани@@ 1
уг@@ 0.6754170160908515
HP 0.420889926015098
PP@@ 0.40620007913254613
Sar@@ 0.06421156434347336
del@@ 0.04741356930329539
pha 0.32626979934264877
тика@@ 1
159 1
CA 0.16326202676791557
Chi@@ 0.06937116079614078
Dec@@ 0.07875617088465935
M. 0.0796077767180363
NET 1
Ter@@ 0.08641198969381446
White 0.06619057473733383
ato 0.04761936198913742
ber 0.04340133473276864
op 0.094736952756663
pul@@ 0.06539733000764618
Иркут@@ 1
Петра 0.8283407022316833
Sel@@ 0.08842314370773854
Star@@ 0.09654544942733598
ette 0.02913672292555165
leg@@ 0.03985551799070053
toon 0.5137227870796014
vus 0.8061087052079547
‎ 1
Apo@@ 0.37357098492631424
IC 0.20613294623863965
ain 0.033057949253805397
die 0.0013445856897131507
long@@ 0.10519359783672663
оса@@ 0.6627454875614596
530 1
86@@ 1
Ang@@ 0.04539718387273199
CN@@ 0.25336891463887456
Sw@@ 0.08421186898583187
ce@@ 0.06150634356099205
ovo 0.38342933079484665
vic@@ 0.0678097450918991
λ@@ 0.20308454529958864
Локо@@ 1
лъче@@ 1
251 1
Fi@@ 0.08356620044602253
Syn@@ 0.1684404430295386
Vo@@ 0.1168096976272901
ga 0.07578015572836382
335 1
Kiss 0.7269026961949888
Lady 0.13902564577490378
Mas@@ 0.05148975784256213
ep 0.10447477652468136
sel@@ 0.04352136568282338
sy@@ 0.10136509560339586
una 0.004527676227036605
Степа@@ 0.9324994666003836
181 1
610 1
дистанции 1
158 0.9214333678567423
Ke@@ 0.08226398970508897
LA 0.16016813883776435
Lin@@ 0.0855431983764984
ill 0.06362367742154351
pre@@ 0.01814906507864783
δ@@ 0.17588304368131863
занти@@ 1
рождения 0.531795440817849
232 1
66@@ 0.7300321156941432
chi 0.07306503713258557
fus@@ 0.1770858259006025
soni 1
ä@@ 0.01985313096030404
221 1
323 1
Hor@@ 0.06424945921158855
Web 0.3962496786237194
optera 0.6879488549798488
Ρ@@ 0.23135782645236377
του 0.010000742824083652
вру@@ 0.5190117198324874
D. 0.07614257449883045
Hello 1
Oc@@ 0.11261909294735079
hr@@ 0.08145569060932605
ut 0.05212622465233347
α@@ 0.1637861150865667
восток 0.5865974803914286
ье 0.0812879033055942
Ti@@ 0.06310144916257157
esti@@ 0.07062995393214153
icum 0.5862113976392542
oi 0.19821384919824536
ting 0.016112573154460113
барди@@ 1
бре 1
265 1
Cham@@ 0.25161001972075714
Championship 0.0500475934275828
Co 0.13827796187183725
LC 0.26798910861284975
Press 0.1533251996321626
art@@ 0.06594765592750568
pe 0.04269366039925936
департа@@ 1
цери 1
283 1
Book 0.14827454902574513
Down 0.29583222753284144
Ly@@ 0.09490583649077289
Mk 0.9052523624251959
ˈ@@ 1
And 0.16631183272972402
Are 0.4404198801332738
MS@@ 0.27773479609799134
UT@@ 0.7129089866597548
bal@@ 0.055881199829055976
wer@@ 0.03813495822832587
ι@@ 0.15599184669018396
1,9 1
253 1
Brach@@ 0.9053973155255362
Song 0.11736674347317977
eni 0.19945743289883483
estr@@ 0.04553164417940606
окли@@ 1
плав@@ 0.74093760001382
президен@@ 1
301 0.9030949532759907
334 1
MC 0.2447065131254018
ame 0.06927139168990373
cho@@ 0.09108186862364497
illus 0.9042147603707008
вок@@ 0.9551415120060837
303 1
Met@@ 0.10346362153183365
PA 0.15011622319541912
Twitter 0.3781322050824331
ach 0.029316742262158628
dis@@ 0.009414075517271159
not@@ 0.03991420689557297
unc@@ 0.05014446151237908
Юго 0.9797268920959843
дой 0.2236878068995544
15.@@ 0.3351886022748802
214 1
B. 0.05312661501073374
Der 0.008931639368556435
Last 0.25485673283110444
Little 0.11199076273248146
ds 0.04213832099215533
ors 0.015221345974624542
ub@@ 0.06991271039554418
ō@@ 0.12625888081197684
Наи@@ 1
рос@@ 0.3291400740965431
234 1
GP@@ 0.3715847784302744
Sun@@ 0.12158706639681659
estes 0.9251620882552206
дами 0.1826908429132098
зей 0.5905429632081618
свя@@ 0.12931764204289897
тем 0.14205465136673043
224 1
Fal@@ 0.09828856053374205
GNU 1
Model 0.2744336512173798
NH@@ 0.32846157230502837
RC 0.19374643612480189
arus 1
ins 0.01689422308029254
usa 0.13075360264399727
vol@@ 0.03670990575562914
262 1
38,@@ 1
Visual 0.7199238202746484
ech@@ 0.056533452240422
tin@@ 0.13174072428169073
епархии 0.6789936137774831
регуляр@@ 0.439896710479896
туда 0.7670742166441091
57@@ 0.5690989391752341
CI@@ 0.18912861544254503
CO 0.2798169780234805
Columb@@ 1
E. 0.09592098500581019
Gro@@ 0.11081324489657193
Super 0.0869023196829084
War 0.023009941173767
Wh@@ 0.12218985968071833
eta 0.06001232154346177
fic@@ 0.06365190401710058
leuc@@ 1
Сверд@@ 0.8838598339289438
год 0.050333033036449114
14.@@ 0.28976952877114115
32,@@ 1
Internet 0.1323303799742129
NBC 0.2500851018961793
Sho@@ 0.11227662041909693
284 1
580 1
AA 0.13965481077876735
Amp@@ 0.36276821643034285
Mes@@ 0.10963275267358046
Sep@@ 0.3482232863957268
Ul@@ 0.07797143896022812
aca 0.13464786351489583
ek 0.04641406941374087
ticus 0.8909494629386747
Азербай@@ 0.9217179423290158
писала 0.768176849708405
ято 1
425 1
Ba@@ 0.09398819855749163
Productions 0.34061932260816763
RAM 0.6798467841931917
asy@@ 0.45403668608434833
aus@@ 0.01302957642585033
ha@@ 0.05846255874847423
rot@@ 0.07237986808854247
Bas@@ 0.046760168180782304
ania 0.09426911067178853
non 0.02379258417488537
AX 0.595280981316247
Back 0.26677097313117615
Loc@@ 0.09265857315504361
Ob@@ 0.11091172501280888
ali 0.07090591827030483
len@@ 0.05285690246708928
pus 0.3355474991022928
.н@@ 1
241 1
AE@@ 0.30265071220069467
Mi@@ 0.06476960766940937
ati 0.10226260510835411
philus 1
начала 0.15052342896800813
2,1 1
227 1
244 1
Lar@@ 0.09449924973050623
els 0.018653476157078974
Няко@@ 1
Game 0.1197243395622345
Light 0.1858734651661383
etti 0.11710485275201564
жден@@ 1
империи 0.28002947431895525
Fire 0.20360418723855023
Park 0.031393232462242744
agus 0.576655820625591
ela 0.06481322454332163
Абсолю@@ 0.8990741739648993
фектив@@ 1
23.@@ 0.39992929592914855
451 1
Lim@@ 0.10430564658869756
Os@@ 0.07188180431121009
fl@@ 0.028066371546633367
lat@@ 0.0417787577408921
this 0.006722655157405952
tu 0.14379262167750378
зеро 1
DE 0.28531874765594617
Dre@@ 0.07843478704077916
Dream 0.33434327356110344
Gar@@ 0.048457887913250244
Pre@@ 0.0491566685846855
ac 0.0509249742559621
ey@@ 0.06613475897973231
ira 0.06908959902238059
ros@@ 0.10190563810618254
реж@@ 1
760 1
Hu@@ 0.056753300774255604
London 0.02748666141199707
USA 0.06501582543388007
ang 0.029132887245737225
ap 0.058317921780446196
iti@@ 0.03992721043989793
ock 0.06289026213559228
out@@ 0.03230182417000462
tho@@ 0.1511345321191426
генерала 0.6482660423282519
шим 0.18340651981037706
3,4 1
ier@@ 0.03135520049159055
olep@@ 1
ome 0.06118726804106546
sti@@ 0.04086445114369204
tis@@ 0.059677864621868124
видов 0.28632181912184995
мян@@ 0.45206307921603484
полков@@ 0.5975981719619093
чит 0.724158512573767
щено 0.570603800986904
1.0@@ 0.8043898218625192
242 1
630 1
78@@ 0.7157087417875319
But@@ 0.18013089813655359
CV 0.597612690846425
Hell 0.491428109636741
Who 0.23258919083051202
alia 0.17646442839565657
arum 0.7267608468448746
of@@ 0.04894098484791157
252 1
333 1
Animation 0.7598654377083734
Bu@@ 0.06772592501419919
Lu@@ 0.045866155897587815
Ori@@ 0.16748318856599353
my 0.08668970002694702
ters 0.024369120483820058
» 0.00245063953964473
243 1
249 1
295 1
69@@ 0.7443386223082396
747 1
Ak@@ 0.052321036402270156
BSD 1
Cin@@ 0.1550372603944403
way 0.018683330106218775
ѧ 1
315 1
Bad 0.13474290173134393
Call@@ 0.31872074145017004
их 0.03805735289559732
22.@@ 0.3947254362159473
570 1
adi@@ 0.04827068224704018
ki@@ 0.05807000762772913
ric@@ 0.1269683537756704
арен@@ 0.5358934875851653
Art 0.038339411769402816
GT@@ 0.3545157420750728
ache 0.07067280741307565
anc@@ 0.04279916402377596
pan@@ 0.05595268416901499
основе 0.2784109632847527
313 1
^ 1
isi@@ 0.04046250472215136
res@@ 0.016225596493261787
Chir@@ 0.3346460490116598
DF 0.22360531475593606
Get 0.4390287235558055
don 0.07071218617187983
phis 1
so 0.011389404218418874
жал 0.5548478794471744
зрения 0.43148455811396347
тр@@ 0.8450927334920184
264 1
279 1
Syst@@ 0.1742899734798455
Tom@@ 0.09092520233974115
das 0.0038496352569567264
восто@@ 0.18211362279114673
-- 0.42399518247135487
282 1
ations 0.008121494904258834
fi@@ 0.029542082279399327
phil@@ 0.19635538640385744
Во 0.12516590827726126
Уст@@ 0.9399595602775237
лами 0.2633756126223996
Association 0.037467256397168594
Roc@@ 0.11376939733997624
ish@@ 0.038109296273447724
ista 0.03716678314312305
312 1
324 1
Ci@@ 0.11618704890307473
GC 0.3598551895136063
MI@@ 0.22914629673971357
anum 0.4652974364307607
ci 0.04543725491199226
ias 0.224976826185493
ori 0.11150147537098033
246 1
AP 0.18400783371745302
Deep 0.42023473332078876
Dem@@ 0.07419837092013902
Video 0.18186870552678078
ace 0.039927843429245026
bel@@ 0.03239427538271333
cola 0.29407983459772863
ro 0.05734432058864954
ye 0.03753882961109057
Anth@@ 0.2553708126582673
DS 0.18598209880857774
GT 0.3308967711747273
Plus 0.18940276781424187
Works 0.1865554690426347
ami@@ 0.14015046730183403
po 0.09017287382275331
272 1
Global 0.1901016784954494
Luc@@ 0.0889478119451809
Type 0.2524959065534345
ellas 0.17400980239786204
ito 0.053922657723396536
key 0.061648772660687225
we@@ 0.024239254296929583
вая 0.0693149911828856
нице 0.4922022084425966
281 1
337 1
I.@@ 0.3129479576047719
IS 0.20144013602590774
ents 0.015255949274675714
oz@@ 0.0990980992532127
286 1
BO@@ 0.3670961592002328
Cel@@ 0.11903017136239914
Days 0.36021086246580625
Dragon 0.322462876460452
Fi 0.7063081396220622
Machine 0.3922250258013454
Obj@@ 0.2430364420475749
Ram@@ 0.07197577630769254
ə@@ 0.5371760823315742
β@@ 0.120641997655419
Воз@@ 0.22331580593793132
лечения 0.9400581440802549
меро@@ 1
302 1
Canal 0.17477511747096638
Force 0.06524347345977535
istr@@ 0.13908532447008912
ME@@ 0.20679316520197583
Queen 0.0830750120745371
Tal@@ 0.07648055565491939
That 0.08623433235077485
della 0.37024657641956804
row 0.050336301173076255
var@@ 0.08413730132745291
world 0.026884794554583567
273 1
37,@@ 0.865577322704598
79@@ 0.8496791480641823
escens 1
vul@@ 0.26763519935792524
ĸ@@ 1
производства 0.3030976022112878
336 1
Net@@ 0.18298990254473438
ath 0.05145139332188349
Band 0.05968582236773449
CS@@ 0.13775340835134575
Europe 0.03235183060913259
M.@@ 0.18265606336758342
Team 0.053493390162825144
agr@@ 0.09520197640250386
eth@@ 0.06359094102995658
fe@@ 0.018702370042779103
yst@@ 0.1204121735371462
ο 0.02088179385252592
езда 0.5515523688814274
прояв@@ 0.8607974869909574
317 1
Fe 0.3203679929547439
Mil@@ 0.05682414131703321
Росто@@ 0.6946477352914522
вах 0.3852155555266325
267 1
274 1
510 1
Cap@@ 0.09430988676546777
Stars 0.2195661319048164
har@@ 0.031553368801383895
мой 0.11859052951079285
стала 0.1077399439913111
226 1
237 1
248 1
30,@@ 0.7050842489179432
Baby 0.31177630764369973
Play 0.2133059043720354
aph@@ 0.14472193537238495
ern@@ 0.03833001456966245
í@@ 0.02303546807694617
GPS 0.8028854634113194
Nor@@ 0.03158792468589306
Road 0.045324240729067586
acea 0.9742736482328705
dec@@ 0.02194337797294129
mas@@ 0.038241687294927204
ren@@ 0.025194343800004463
ă@@ 0.15606888986228984
Γ@@ 0.26321405193130837
276 1
32@@ 0.8124110418682858
Amaz@@ 0.3119056276208831
κα@@ 0.2270173430518539
τ@@ 0.1279298202488998
звуча@@ 0.9055596067326003
Mem@@ 0.10715181094717986
UR@@ 0.4475919293976854
ago 0.06665875243226634
mus 0.2357650413465573
my@@ 0.09069492808153702
Осве@@ 1
236 1
660 1
@ 0.6522898986445715
Pot@@ 0.11677309013878773
trum 0.24400180088681866
Чемпи@@ 0.49990889410315215
European 0.0340565215449135
ou 0.00878885836116748
tom@@ 0.04272427868415068
Иль@@ 0.33865305417110675
гария 1
ный 0.01259696586895186
рее 0.4872615710624318
620 1
Ceph@@ 0.9593090054059343
Dom@@ 0.08094921527139115
cip@@ 0.16826632341429787
enn@@ 0.02957950840579345
oo 0.12555289634027425
Аржен@@ 1
подписал 0.5171144817997
Brothers 0.20479478329653322
Games 0.0663230091161915
T. 0.1273523700284229
Win@@ 0.07439334178488632
day 0.016341231013523007
ee 0.04223128045318277
olus 1
pic@@ 0.07284047195705114
pro@@ 0.025114424517233468
ω 0.5457789089885281
гория 1
268 1
76@@ 0.5911465302766336
Phili@@ 0.4345218205432346
Play@@ 0.08726060280147621
Power 0.13001922699064258
Rhy@@ 0.25925681579744525
Young 0.0806710030131424
ri 0.09700544721811108
sur@@ 0.018390821537295068
бурга 0.7726959035049314
двиг 1
превра@@ 0.3868219668804572
Mol@@ 0.05873293262884622
NT 0.4368995915544648
Name 0.06772208407357008
RS 0.19082236907176775
Via 0.5152275863257155
With 0.04257134911196728
down 0.024934681257956108
eria 0.16059018539642272
ind@@ 0.03646563951771938
ment 0.0159118234281613
yo@@ 0.11349249113860813
ансамб@@ 0.8874762719489182
изнача@@ 0.7400532747812925
233 1
257 1
266 1
asc@@ 0.09796736789662872
ky 0.06200264160513967
οβ@@ 0.6650299125565484
Телефон@@ 0.8616937062660724
293 1
316 1
Express 0.17526162442802967
Rev@@ 0.09026977622922154
sem@@ 0.06267356869929172
пунк@@ 0.665170779116129
287 1
308 1
404 1
Blood 0.3516796956156212
Chlor@@ 0.7500121840444961
Dream@@ 0.6490494125507709
Stu@@ 0.08811499978324128
abr@@ 0.11084483151163292
ader 0.08989847967923557
enia 0.44611050071660857
á 0.0392545010250479
Карла 0.7322423265536003
Хот@@ 1
брежи@@ 1
ино@@ 0.9713121927274178
предложил 0.6454601824173636
223 1
331 1
77@@ 0.6948423431330025
Rh@@ 0.13909334087463326
Sa@@ 0.04649080700728975
ik 0.04414368769340999
kh@@ 0.03323538135023643
lig@@ 0.04331319247431272
our@@ 0.04699038824676226
uch@@ 0.042703954874846635
академии 0.25968767734570647
← 1
13.@@ 0.22774860063100208
228 1
4. 0.09475571638336767
Iron 0.22168350348121954
Saint 0.016209612710971624
apo@@ 0.059109018206123624
color 0.06568919940496692
gn@@ 0.1523146750064414
osp@@ 0.16191916074882448
Золо@@ 0.36739344985256706
вс@@ 1
Amph@@ 0.9280604639831193
ISBN 1
bis 0.006523711070834304
ray 0.2055199509221917
Aer@@ 0.17199549811314369
Bet@@ 0.12818361658827762
CL@@ 0.43177510703290045
Ever@@ 0.12016296282428411
Ju@@ 0.06621765602086872
SC 0.09112028186899775
San@@ 0.054390514153856026
Sky 0.23284244513641936
Society 0.044556911998042105
ger 0.030331383216500044
ini@@ 0.17682244342988138
ke@@ 0.03441942780514784
ы 0.012400324097035632
ы@@ 0.03319293591183564
Action 0.2299844147515154
Boeing 0.2943528195947955
Girls 0.1974816087368353
esper@@ 0.1425514709591942
macro@@ 0.5540274482351935
ole 0.04557967260815829
Υ 1
304 1
490 1
Ali@@ 0.12027100833475174
Digital 0.21076395201919917
Elec@@ 0.08995189587629318
Pon@@ 0.10270838154163436
eme 0.05778464784866706
ger@@ 0.02169721620543629
pon@@ 0.07908744040952541
бии 0.5397200105706806
322 1
84@@ 1
Arch@@ 0.057576362840157526
Ben@@ 0.05023439060404403
Electric 0.2580514741531498
Japan 0.04129160307462327
Let 0.27561955832360174
azy 0.4155714319159114
nam@@ 0.05853978254920873
obi@@ 0.24146453669720985
pro 0.08540399811480301
uk@@ 0.04315138816385649
АССР 0.5390310614341887
дорович 0.5244694751030156
пункта 0.7733883474559224
часов 0.4600564084981338
Aus@@ 0.01713356034301777
Ele@@ 0.1819253748895791
Ltd 0.200206847508209
Pa@@ 0.10063328641838754
S. 0.07087668504560826
Sym@@ 0.22647084291623726
icola 0.9349499599737228
ton@@ 0.06286172259369437
val@@ 0.04251982709117674
L. 0.09857445340090058
Research 0.06784367935248023
Science 0.06950674645431903
orn@@ 0.17157279129208908
tem@@ 0.0690691123436172
π 0.41435289489144955
ρ 0.2606352269434647
Код 0.3677593528514091
образован 0.4807124211227678
Arc@@ 0.18731434485710863
Century 0.2581351190768035
Mu@@ 0.057276739337232895
X. 0.44389329516175
bia 0.3020852201510564
des@@ 0.011905868822676595
eni@@ 0.47332493821488913
ites 0.04159996527351037
лиги 0.36651787134678204
нач@@ 0.5045464447079266
свет 0.6369980476910657
увеличи@@ 0.5140896077527167
239 1
63@@ 0.6277881273778521
978 1
IB@@ 0.358353044258832
Sin@@ 0.07113117625496439
Stone 0.13432785771523545
UK 0.046441901724802497
ans@@ 0.038679755072975955
mu@@ 0.042071170040434445
nm 0.7484019692552016
pH 0.6008980629958305
Прод@@ 1
307 1
Ox@@ 0.24273343811031795
Wi@@ 0.09913887744017093
sw@@ 0.04003495512186499
16.@@ 0.27405174925493075
263 1
405 1
Al 0.0323249528083686
FA 0.09845754509245125
Hip@@ 0.2978311279983545
NT@@ 0.3870572869218249
Poly@@ 0.1541960792808267
Pyth@@ 0.6218636143536279
SI@@ 0.26997382949470516
anz@@ 0.05505383014800655
ple@@ 0.05541324664015559
rh@@ 0.19232191505333468
string 0.29096151120672575
י@@ 0.7973974867808691
258 1
Zep@@ 0.7164575846185324
ado 0.0053656608576529725
arc@@ 0.09928635066547606
get@@ 0.08366200521754749
pol@@ 0.033641662469122306
участи@@ 0.7048596250756107
512 1
Now 0.18870466057753948
Office 0.08831264307704587
Server 0.5905501506499753
ines 0.02177472012476065
iscus 0.9933930922727835
ου 0.08603606821552154
лла 0.2097576583859451
нца 0.7822626406086302
хождение 0.5729703605301677
271 1
Arg@@ 0.17490644923172624
Blo@@ 0.12189094500424695
P. 0.08561954303461845
Pop@@ 0.13037865906827367
Vic@@ 0.10847748013224623
ash@@ 0.03310284343917763
ilus 0.5575050158515776
mus@@ 0.043046783460943344
ness 0.03331601408360338
pur@@ 0.035146459091471655
var 0.20435639940399913
σ@@ 0.10208278982140293
дворян@@ 0.5750404391379328
17.@@ 0.2791489164893616
AM 0.12287311865303148
BA 0.12671615307634737
iPhone 0.7722233581932265
oria 0.14408396051741923
other 0.006950613878156864
Покров@@ 0.7103050667898033
311 1
Div@@ 0.11051829535535351
Wild 0.23242856486021832
gia 0.04431161187556264
tius 0.6296073040914999
Укра@@ 1
Форму@@ 1
261 1
Lon@@ 0.1982262434234459
Paris 0.019771713439727955
SE 0.27566188178377743
Ta@@ 0.07756660341568042
ail@@ 0.05274158055734388
ble 0.037452347377766926
den@@ 0.02236421916152386
esta 0.024074043552771655
odi@@ 0.06706300276005041
ster 0.03012830535272743
замени@@ 0.5904442723891314
H2@@ 1
Ko@@ 0.0447877521957974
Maria 0.05246577229612555
Nokia 0.7876012965138034
So 0.05349670042044904
Spe@@ 0.059591378637822164
con 0.0032804838391496316
peri@@ 0.08119545306055541
окончания 0.24255953966304084
100@@ 0.2842027507662993
415 1
5. 0.09620753535740298
BM@@ 0.23716271157905974
DB 0.36212915504469273
Ha@@ 0.05589248170628371
Hill 0.05629749861539275
ane 0.03202248884760324
iTunes 0.48754138131341523
ie@@ 0.039955562566553714
lum 0.15059039657371992
nov@@ 0.14519351530922825
uta 0.1388632836032917
í 0.04607034352442102
Σ 1
π@@ 0.13426903026638282
Восто@@ 0.19027273655529336
лейб@@ 0.5747546382376867
набра@@ 0.5267561928693982
201@@ 0.26473762012224
338 1
Atel@@ 0.5127798436131172
Bro@@ 0.0464980301685243
Fin@@ 0.04213111392157963
May@@ 0.09518206020657151
acc@@ 0.026237396764374234
astr@@ 0.09952259120943399
bic@@ 0.15617690978082663
ici 0.15390077232873686
include 0.02270557390115821
leri 0.07040977633172335
ò 0.27613128606577236
рована 0.3784416768251185
сум@@ 0.3087432805514735
318 1
Bulgaria 0.27768978147232765
Pun@@ 0.19369392931243076
Spar@@ 0.1507644004230354
dei 0.4509983240053045
esi 0.0786165649248942
hu@@ 0.029464628092784446
iOS 0.5944347104842521
kar@@ 0.047034546052433436
ν@@ 0.1267206332792729
жер@@ 1
299 1
Aur@@ 0.1346613893906957
By@@ 0.21095632600874836
Cos@@ 0.11253962365840502
Free 0.1381701602013725
G. 0.10190637609382719
Out@@ 0.10459806042984328
ement 0.00966565601838968
kr@@ 0.044978487265050014
macul@@ 0.5522549532990765
шло 0.2812675568167712
Boy 0.1696214855820554
bas@@ 0.02807520804652604
ted 0.00841749161542979
F.@@ 0.2999290806408295
align 0.11699789568084727
iden 0.0638752608113979
inter@@ 0.010102310422710436
ylo@@ 0.46050958076168447
купа@@ 1
маке@@ 1
25.@@ 0.3459923883692398
85@@ 0.6625656874357867
Boys 0.16306677929445962
IA 0.223095313839093
Is@@ 0.040497456521383424
Lam@@ 0.09824957289138798
Review 0.19216094762338903
acer@@ 0.2487723823058775
acle 0.19522810656162595
fu@@ 0.05560752797851872
log@@ 0.05894767528746415
ze 0.03466279356236687
αν@@ 0.09827986461452169
ω@@ 0.1523332121036637
19@@ 0.29310996185469146
309 1
Bank 0.06263173280590878
CC 0.14328933870201987
Heter@@ 0.7084429941806505
Magazine 0.13885505567850503
New@@ 0.0668396134333143
Rel@@ 0.05711323973245612
ante 0.013348647628965591
hom@@ 0.04124268010507568
nic@@ 0.23840942215347452
sum@@ 0.04404557385741421
you 0.0494942233059281
Уз@@ 1
воин@@ 0.5883090299490816
сда@@ 0.6546804420842002
288 1
39,@@ 0.8366090328311033
Metal 0.21980000953471715
When 0.026784931127979625
ham@@ 0.0766282029549248
ische 0.011280810109324196
orb@@ 0.2432077832392049
назначения 0.7293644068387711
2.5 0.24416432148521466
247 1
278 1
294 1
CO2 0.6204399857068668
Over 0.11684587640368183
Software 0.233938829435679
aea 0.412492930962516
цах 0.3269970802271592
Cryp@@ 0.534912678270573
Proc@@ 0.23072396913734178
less 0.026515790959742977
rol@@ 0.119306780486878
sa@@ 0.030098045089816654
Моск@@ 1
простра@@ 1
18.@@ 0.2817687529497814
326 1
Bell 0.14047974644452924
British 0.017197732255057368
Heaven 0.44525260397249883
Je@@ 0.07068158728377016
LO@@ 0.2737175658045854
Syl@@ 0.25842643210437377
ust@@ 0.07976697408184039
vil@@ 0.12336587433148323
Один 0.4640639437256178
лизо@@ 0.4677317148832262
332 1
Abr@@ 0.19048798348556165
Explorer 0.49866527664860044
IT 0.2252701798594102
LE@@ 0.20101224425986014
La@@ 0.07260682779473478
Mobile 0.2850952600629628
Pat@@ 0.05974774352628452
XP 0.9182517634007593
elas 0.27424222384349906
enta 0.05269778049929304
men@@ 0.02168975300892436
Дина@@ 1
РК@@ 1
ль 0.017486999472739545
AR 0.17119818747879287
Business 0.1074015636668092
Come 0.40769959851152165
Not 0.15832449311027866
Red@@ 0.0577513804459023
Service 0.05829626790142823
Ven@@ 0.07815719706672768
nom@@ 0.06516810731283791
ris 0.275903121893976
yd@@ 0.13913387758329565
γ@@ 0.13284608774834278
раза 0.4250726962541204
седате@@ 1
Ari@@ 0.11167095261802164
Chil@@ 0.14962895726320208
Film 0.027645798757836442
Max 0.08108445020693239
Pach@@ 0.3026898957132915
Sac@@ 0.17347832625296136
Squ@@ 0.21559643611469737
gi 0.159255289327405
idel@@ 0.18781038116370868
ike 0.07063628174786532
vari@@ 0.032236752568621005
½ 0.4375123539549619
основал 0.6515191443547986
345 1
AL 0.199611155570438
Buc@@ 0.1062912769326765
Foundation 0.0789637272366276
France 0.012871848660765971
Mad@@ 0.04924088811119816
RA 0.14921634055562996
Tw@@ 0.1111775925686196
VC 0.38334097114647725
dii 1
eli 0.11466450525315078
etes 0.10093296518471023
ies 0.01750040493871484
via 0.03347747489909909
чело@@ 0.669182513929283
20.@@ 0.2791899623230273
As 0.013508233892903527
Cot@@ 0.11915387507350696
Gun@@ 0.12312921372873818
MG 0.45684871862819065
Pel@@ 0.11309770844364359
RT 0.19031353759370945
ative 0.017176752585058637
bil@@ 0.04318658124038625
dis 0.1770381352314129
ollis 1
trix 0.21775196086446377
ver 0.03168282527217931
å@@ 0.13398506125476947
ū@@ 0.11419052781024384
Data 0.2989647630806066
Deutsche 0.10978385796738997
Great 0.04702972935515173
Jo@@ 0.05562185925833247
North 0.01787258387805903
Sem@@ 0.08512388496843169
The@@ 0.06084187439718262
hip@@ 0.2717137674616951
ian 0.022461024349588292
292 1
3.0 0.5872950463814985
AD 0.12341441008351206
All@@ 0.06750617196769652
Pyr@@ 0.23186008260219174
Systems 0.18882726356170682
Union 0.02511044097867573
ass 0.05014881125850602
ava 0.10093273618196799
mul@@ 0.10371811320361377
side 0.017133850933859492
ze@@ 0.037097752871907114
Рес@@ 0.2945515671556179
земле@@ 0.5897200700612402
кров@@ 0.715651215015131
386 1
Aut@@ 0.07359542117063345
End 0.17296827769078496
K. 0.1225600648155103
Medi@@ 0.08181878293532718
Nu@@ 0.12641429393153122
West@@ 0.04373128520769226
Woman 0.23288564838988435
comes 0.08848054454286682
ku@@ 0.05537427115041005
ts@@ 0.020055192244076658
куро@@ 1
млрд 0.5426614262393201
шая 0.15594056177705465
259 1
296 1
H. 0.07127956947370263
Old 0.06629948962284665
aeus 0.45870985646425594
anensis 1
aus 0.0047798301022791674
ights 0.08253398480947144
over 0.00730691151029475
sion 0.019027393349491696
секу@@ 1
ствен@@ 0.1426007529411139
1.5 0.20170386204149807
269 1
Earth 0.09016379209562538
Ep@@ 0.12018404410779614
Fil@@ 0.06291464683111692
Opera 0.16443286681081526
St. 0.022573717149752242
Tar@@ 0.05381968557584273
V8 0.5024625415144596
Web@@ 0.09197873849470245
arian 0.0780370546222271
met@@ 0.03387348604071309
port 0.0322455538582138
stri@@ 0.09639493922177421
tion@@ 0.044584887640437554
заболе@@ 0.3897194642360969
19.@@ 0.2859818994895846
Bab@@ 0.09659885654638414
DV@@ 0.3300923183929144
Edition 0.2729660540450756
Gall@@ 0.22800126981139254
ML@@ 0.1396088778432183
Never 0.3911348709724796
Power@@ 0.3880012796331711
Pres@@ 0.041219573613699836
Sum@@ 0.07214354089990753
ī@@ 0.1575751217231714
дь@@ 0.17237136199815786
│ 0.08607998244607803
Arts 0.045768506338114044
Astr@@ 0.1396429359811692
Dev@@ 0.06097437231774309
People 0.07172729967545177
chus 0.6665250275252966
ns 0.022738141336670785
Ие@@ 0.5692669041534453
губерна@@ 1
Hall 0.03558819477014629
Pascal 0.42105934492915936
SK 0.28553102479375964
SW@@ 0.3034666740969501
Trich@@ 0.4872297813855254
ams 0.05436422896416073
body 0.03573215428039368
ser 0.01769304262426901
образова@@ 0.2513043682413251
отно@@ 1
Dro@@ 0.1219134845852218
Fire@@ 0.3925884059984634
Hits 0.3832167072983878
Hon@@ 0.06133453940194263
Island 0.03667281982332697
Magic 0.26416469265831916
On@@ 0.09068312145121452
Xbox 0.33047183407710945
bo 0.09647321660946981
inger 0.03820810019230733
stati@@ 0.15325350850478262
Augus@@ 0.4095445538314772
DI 0.23698934671546956
m. 0.09886321000479499
rit@@ 0.03759442206290595
ru 0.31045979347827096
ό@@ 0.13977780703421325
F. 0.08187695630089087
ME 0.26254096774220104
R. 0.07261446110841516
Ring 0.22891545278833736
ash 0.05259066814264864
gon 0.558828576154025
lep@@ 0.5890341178794423
line@@ 0.15296753282805814
Χ 1
ζ@@ 0.15543667353889237
РФ 0.2505949787704339
вести 0.40874373812732495
этно@@ 0.6600834090747228
1.0 0.4896008312323177
298 1
Blu 0.48835886499980224
CG 0.467890981115923
Greatest 0.48223003863453023
P.@@ 0.26412207458194314
Post@@ 0.10705521086474437
Sav@@ 0.07048728632206798
Scre@@ 0.22640755579001046
Te 0.3639212243029408
air@@ 0.029239560651931288
ime 0.06446871017098021
s.@@ 0.4079301196008078
пяти@@ 0.3941909663519569
ו@@ 0.7667236165130801
0,0@@ 0.7519934895519649
Bos@@ 0.07011367251318439
GP 0.2837027624581138
Soul 0.2902616543068109
Theatre 0.07251246554787927
gl@@ 0.034201128208725076
ms 0.035290006629676844
nor@@ 0.036850984401349506
plat@@ 0.058745742881528014
ung 0.005584304871465217
της 0.009287138652132676
Арме@@ 0.6536695687526771
соби@@ 0.8102908278058423
231 0.8120169690164368
Fab@@ 0.13591854870641484
From 0.0288469657747597
Hom@@ 0.06769576427275341
Just 0.17546558636632906
Lac@@ 0.15381077714792246
att@@ 0.023660307011347206
aud@@ 0.09265030892268945
gal@@ 0.06042825435653133
ody 0.09323657170409676
tw@@ 0.040511739162222955
ù 0.43647878674902524
ρ@@ 0.15928778097695223
рее@@ 0.7175101590768032
27.@@ 0.3250687734019691
737 0.6790736603021983
AG@@ 0.21135800454806522
Arti@@ 0.10267179325936754
Myr@@ 0.3277243582968336
Under@@ 0.14222364246780275
house 0.021469660266257077
tili@@ 0.23886570896535936
ί 0.21999347731460733
321 0.960345242785469
CW 0.5437963744547505
Dendro@@ 1
Family 0.08306672939474978
Hir@@ 0.07998041030535921
PS@@ 0.12428974859843057
Public 0.06387536956829724
Run@@ 0.15446828882822983
Sk@@ 0.06848656300421206
ami 0.0679070383424608
line 0.013729881246046516
mot@@ 0.041637237539734584
red 0.023019490883499912
vin@@ 0.06058975381196967
ă 0.4219003064559568
куда 0.2915242040770527
20. 0.06918245918974615
Che@@ 0.14096886347276394
MB 0.41228508754018073
Mak@@ 0.0757508493353197
SL@@ 0.32691694551065503
Test@@ 0.24779863532802718
West 0.018265373842100002
background 0.10039260247937348
ento 0.04390406611338662
mo 0.06626253652144501
ories 0.04140722433333788
sis 0.17408439963521102
sor@@ 0.03857700771628144
tre@@ 0.031584666624225925
yn 0.06491787376749215
Серге@@ 0.27078943622166957
Числе@@ 0.9315036267320315
жит 0.6019919329182366
Il@@ 0.06775727402523268
Wal@@ 0.03444684444118174
inum 0.24919463341000983
lio 0.22549809856249542
nia 0.13729695422701427
ova 0.07871007751897836
ture 0.026708668267051292
use 0.010335976896444242
vis 0.13390465621048075
An 0.025209453527801323
DS@@ 0.2904320848318288
Kids 0.37149498019374005
Lic@@ 0.1938092522194138
Los 0.011974044503768225
PlayStation 0.2033350932899287
Shi@@ 0.06725090342985333
ator@@ 0.11042079669019907
brach@@ 0.3413615765296742
kii 1
oth 0.07587166881372799
Η@@ 0.43758814237099736
Екате@@ 0.8925276653262926
Blues 0.17942654852363416
God 0.07860629304520265
Ru@@ 0.037279270206332316
State 0.015206262464396783
avi@@ 0.09135852970077979
berg 0.02045883189659778
itch 0.07348254270324128
kin 0.06412608435335836
micro@@ 0.08164866209296241
poem 0.13995441940699338
punc@@ 0.5151914277335227
É@@ 0.02509888913384114
Уча@@ 0.45336178044690584
лли@@ 0.13203871892843114
Fu@@ 0.06567891687299958
GA 0.18189306874007805
Let@@ 0.12441671357794247
NS@@ 0.13822085017941693
Television 0.11564274193161814
act 0.02989837511236362
ando 0.01158350705201491
ten 0.004379146121295136
Ν 1
ничества 0.5757942208125898
21.@@ 0.28044532684349105
297 1
97@@ 0.8660629253103025
Box 0.2245148551550536
He 0.002647843993320346
Summer 0.054152350627187235
elo@@ 0.2643508975941279
fin@@ 0.016352091448647584
iller 0.06576197193430558
mail 0.1919358272535967
pen@@ 0.025968162514850904
ά 0.08784640758720558
аспи@@ 1
жав@@ 0.3684560518726469
Gor@@ 0.06985000373212927
Ir@@ 0.04089930344255623
Kon@@ 0.030734542524134264
Liv@@ 0.11423797914303777
Ol@@ 0.047623822585557196
Party 0.026858709422202382
ROM 0.6416177875812769
Story 0.18045480107587314
eti 0.14597457248624965
Š@@ 0.12633996449690196
ο@@ 0.0985339588655042
Аль@@ 0.08982533375338007
предвари@@ 1
тах 0.09021696474632564
314 1
ATA 0.5979121455786949
Fru@@ 0.21531989575972102
ON@@ 0.16344508197460958
SD 0.27046013110316636
ebr@@ 0.08272127192673956
ling 0.02227745476221994
lo 0.00909398020249643
we 0.028161360112358324
Меж@@ 1
приш@@ 1
сси@@ 0.09326157835790991
стики 0.5345642102674055
24.@@ 0.29466965682154517
Na 0.3003366682872967
Nec@@ 0.29427443490138117
culus 0.7233727479877975
ich 0.03061831927061823
san@@ 0.04043259045225305
Со 0.6163708831049218
89@@ 0.6889570766784667
96@@ 0.7785718386110695
IF@@ 0.2322029463138681
Real 0.06641631694002673
Wo@@ 0.07447283005577285
land@@ 0.025340103594179833
left 0.017937991452248208
tii 0.8796734982626089
деле 0.44460184072509046
деся@@ 0.18900637974788184
289 1
Airlines 0.18761716780602758
Audi 0.5620487990602919
EC 0.2138277362474138
Take 0.38614886670691956
ats 0.01749450011236907
let 0.045937209552506734
ney 0.03873247665839727
ocer@@ 0.5185086417251352
yla 0.6212807364497897
ē@@ 0.45286636275290937
ś@@ 0.20556997835585225
Haw@@ 0.0743849428650238
Van@@ 0.131609072933707
Vel@@ 0.08697427750507825
fal@@ 0.05084216317178472
ymn@@ 0.3983977291938511
товче@@ 1
28.@@ 0.3232039726489039
Phil@@ 0.09592536711822218
bra 0.12274219508305446
cher 0.022528116803811865
cli@@ 0.05026731066581078
nu@@ 0.05519054871281299
tics 0.03643454831299482
ul 0.062460959831236264
354 1
How 0.2284247670762071
Long 0.06668750536197979
Parad@@ 0.32479761245927624
Sen@@ 0.04989586544345035
Som@@ 0.09753495636439266
face 0.028178778660943225
hp 0.5598983012544625
vel@@ 0.06512336712948541
xi@@ 0.09798994983551071
сит 0.6405540834191508
ѫ 1
21@@ 0.5497297530827662
Angel 0.2088903894913572
Central 0.02942864318354079
DP 0.1301694873164408
Dor@@ 0.04860095649668309
E.@@ 0.152013574103769
Got@@ 0.07709033434047514
J. 0.03899927680609435
L.@@ 0.18541565257322684
Sound 0.1459733847451207
ase 0.028000787838935073
elia 0.16403163328592765
ign@@ 0.028293383717854708
mod@@ 0.046701328338332425
ology 0.019561915687041062
ond@@ 0.03897656370390839
χ@@ 0.09392675701100807
стом 0.10509618127831302
Ford 0.08425927281436767
Paul 0.020071063314423664
SH@@ 0.27780044254060027
Santa 0.03527831994295977
Var@@ 0.08898701192508388
enc@@ 0.022513882853386163
ese 0.015578124532244398
esh@@ 0.07663900574752859
gin@@ 0.2058837611625128
uv@@ 0.06000347531928546
â@@ 0.04271446477529015
Ъ 1
вами 0.3515043404848138
зависимости 0.37365681914532595
стера 0.33928824239916805
87@@ 0.6443325493134132
Bon@@ 0.07246822694343741
Books 0.19463616474945622
CR@@ 0.2329841597092228
Calli@@ 0.7383516227741388
Institute 0.034237444364842926
Mess@@ 0.11228227853569965
Voice 0.2830374369478179
its 0.002933951215677693
tos 0.03865974899570337
unk@@ 0.06574665183124112
революции 0.2928593687988067
401 0.8335594476303365
EA 0.31897451931200055
Films 0.14372175946598073
Italia 0.10540331742567527
Jean 0.02000686959806161
Post 0.06877895728883893
app@@ 0.043809305504127094
ett@@ 0.04352976273898387
ful@@ 0.1365088609586617
ide@@ 0.05288316036597456
ov 0.027976981896425626
su 0.0031499239512599395
wal@@ 0.03653982274411444
ō 0.0509764017209559
длин@@ 0.19004715925989454
княз@@ 1
управления 0.13824363079509225
Ra@@ 0.05800176525484742
SU@@ 0.3624396326821851
Sweet 0.33856401973011885
TH@@ 0.2465385434851951
ater 0.08551057794438315
back 0.013298201940492608
bin@@ 0.05324127846135539
center 0.03585949664607434
gio 0.1078363700457018
iger 0.036829722219989654
state 0.012160342051887069
Маль@@ 0.4937313786516044
командо@@ 0.2904715824954938
ѭ 1
319 1
Chel@@ 0.2681267086809112
Jonas 0.45401527099121175
Nick@@ 0.22553961894772898
Rolling 0.2051356413890612
Three 0.07636280168084159
gig@@ 0.2319334792728477
up 0.006205670055467525
ě@@ 0.18502403892169644
Ζ@@ 0.23030047986310656
Ω@@ 1
29.@@ 0.33403288207160503
Academy 0.03612376523809512
Computer 0.194726714569724
Cop@@ 0.09788362166957103
Ev@@ 0.05868383869513717
Eyes 0.48094984093512183
Head 0.11640866726804178
More 0.11051324592584359
TO@@ 0.223821568204858
inf@@ 0.028126476847673918
phyl@@ 0.4041838953577129
sia 0.22893927165750144
uma 0.08720293617637662
æ@@ 0.15050736285145105
Мадри@@ 1
изпол@@ 1
поселения 0.10288439130689572
рами 0.08225258105267055
277 0.9964672152002307
AU 0.3400390529645025
Cinema 0.33739050584861235
N.@@ 0.23889975666610883
Sea 0.07104675272371805
Some@@ 0.2021071964320555
Sper@@ 0.3014837535901197
anger 0.0770878416610784
atio 0.420326527714262
ful 0.032606602927696876
hor@@ 0.03240694919937323
kl@@ 0.03113960047500721
mol@@ 0.06210525354561964
oto 0.04954655608779542
van 0.038198898972905446
праж@@ 1
291 1
Away 0.462745033622253
ICA@@ 0.6288190650923987
Ray 0.11381666486440985
Right 0.2807887342086732
Sm@@ 0.10446468769851182
TC 0.14331063534252705
Ze@@ 0.07181472538430597
eros 0.051828704178723095
print@@ 0.23834875631104108
rup@@ 0.0675610198521677
sii 0.9400934090987606
wa 0.029025278347333087
26.@@ 0.2855486141109299
Acc@@ 0.11461714511178282
Ban@@ 0.0467021668017845
EV@@ 0.6210609844473568
Gate 0.2857215900099552
Pop 0.16631495091270593
Rain 0.49211298001535775
Un 0.0259920709955162
dy@@ 0.16261251012209604
ins@@ 0.024568151553693747
ji 0.052170849880211076
tim@@ 0.02875610891018595
одеж@@ 0.5487624913604092
Liber@@ 0.06905158367989295
Pep@@ 0.16329322023639908
Point 0.08758776742693866
chlor@@ 0.2772671244614298
cula 0.25831111121836425
emis 0.5717536512078695
fac@@ 0.027416016720161408
grac@@ 0.729445522499434
oper@@ 0.0301028870579603
orient@@ 0.07139464539833972
sac@@ 0.058746800099426476
контракт 0.22410178041175696
пой 0.7261880613961735
95@@ 0.7598218433666274
Autom@@ 0.11257763835638622
CV@@ 0.44713136880471
If 0.05454383290194216
MP 0.09804079285752451
Pen@@ 0.04157181644659339
Shar@@ 0.06973802838863585
Tim@@ 0.07201999612836386
adr@@ 0.0820366039672823
ellidae 0.8784457148324993
los 0.0017726017451589733
quit@@ 0.08586426033420558
tric@@ 0.10702381999527968
Ивана 0.5279643523732372
масте@@ 0.5609134166901006
ѧ@@ 1
911 0.7294149734632229
Asp@@ 0.19690087088593944
Benz 0.36711251351854984
Comedy 0.2907015879862191
ES 0.28732067975681613
PG 0.2679635714526142
Samsung 0.4606592070562624
cid@@ 0.6383562575535593
edi@@ 0.036460441718892594
eth 0.05695735173054634
gran@@ 0.10166319840524202
mer 0.019762258421646174
ng 0.10823956172537096
non@@ 0.10051595690533435
ocy@@ 0.2347874241521952
wo@@ 0.04022772504993006
ü@@ 0.019465879802753223
евка 0.5822465739675987
ARC 0.4940733694541399
Austr@@ 0.11448374196921514
Chrom@@ 0.402496775738052
Cul@@ 0.10499006976350851
Dam@@ 0.07050067553809362
Dog@@ 0.2125286230382496
FF 0.1665501040774015
Green 0.05137728890457318
History 0.016423634671444802
League 0.011838972452702322
Lost 0.24713484099889133
Vista 0.4047432225154161
agon@@ 0.08619797267510329
esa 0.03603736538643155
grandi@@ 0.41769592560190755
onym@@ 0.13403881917316038
rostr@@ 0.5655562515074299
spin@@ 0.4117089400342028
ush 0.10310047341190072
ε@@ 0.1293431507790531
нике 0.19975931635604288
тече@@ 0.40118870365435644
् 0.00186024373185408
999 0.9536033676707479
B.@@ 0.13397812026421638
Mis@@ 0.06755476390735383
Standard 0.1408558616298388
acul@@ 0.3259043153155366
egr@@ 0.08646895038675989
esia 0.1304082231224254
lob@@ 0.09574684299159927
uz@@ 0.053162842568523605
е. 1
.н. 1
DM 0.25127674673964207
Gesellschaft 0.08363678357691849
Tu@@ 0.06199853622194166
austr@@ 0.2230858321545631
mol 0.4225900385435999
oll@@ 0.04523258432031991
onis 0.5333287399056049
otes 0.10898298944162069
ust 0.0464833698921141
нъ@@ 1
Aqu@@ 0.10500481874532258
Control 0.17890955557739247
Factory 0.34191407548884506
Forever 0.4867252347156378
Master 0.07952737463835202
Non 0.1933540085826509
Prim@@ 0.06590667861772012
Sec@@ 0.08699910659049853
South 0.011622752418439216
Tran@@ 0.10214727433304019
ains 0.022210396853775485
amework 0.22603634348975732
asp@@ 0.24891460176394617
mit@@ 0.028562111035451632
ume 0.037709223390453205
колхо@@ 0.23208682791383073
неме@@ 0.6622638235474331
1.1 0.33767532219332763
BE 0.2508015852067238
Beautiful 0.43944741996535713
Das 0.0073938253069840395
Don@@ 0.044181016575228764
ET 0.2820255919141473
Got 0.41976006371740615
IV@@ 0.3594281893908004
Land 0.040446206324455586
SD@@ 0.25676772582029406
Stre@@ 0.06477806321125376
Under 0.066649587017475
alli@@ 0.04425176447925472
art 0.01477900376097996
cy@@ 0.10156510258496602
lem@@ 0.052664237268016244
ny 0.0643568178196246
sions 0.03388350480631619
type 0.02765957511958754
όν 0.3405804934852927
Япо@@ 1
дут 0.5697952099176579
тех 0.18440210648202765
Bulg@@ 0.174070071069856
Daily 0.14398111599215463
Ed@@ 0.046386593394160965
Tak@@ 0.05674157179566966
UFC 0.30549454469061
Wall 0.16846049286187406
bian 0.10249217330591888
gre@@ 0.036921938930517595
isa 0.06653423046312522
onom@@ 0.12611807761169208
sul@@ 0.08286403914567292
рубе@@ 0.37088521064859253
A1 0.31122545240311983
Children 0.12828492955794174
Hyper@@ 0.3345038988259778
IG@@ 0.25251294462719565
Motor@@ 0.11829138078947608
SM@@ 0.2500743159597715
Sam@@ 0.03988633448994538
TE 0.2615384907782278
Wol@@ 0.055348639253884876
bran@@ 0.13699700576819215
ì@@ 1
Екатери@@ 0.4672001550046477
Оль@@ 0.2806196929373931
голя@@ 1
отвер@@ 0.42904517712701545
присвоено 0.36425296095272724
BB 0.28368432564345236
Bat@@ 0.04383916269861046
Cle@@ 0.1066364336281868
EN 0.3869075796344426
EP@@ 0.25465245313075735
GmbH 0.11868871267342487
IN 0.23049167869203893
Mid@@ 0.06500677503105133
Petr@@ 0.11207360090494997
fol@@ 0.04152213605907754
https 0.32810968529412315
light 0.030020381575042453
pter@@ 0.6464725948893462
self 0.04458119168288303
set 0.014456719134242419
well 0.007293131663399475
ā 0.1920068137298425
θ@@ 0.09666149065215421
ками 0.047498495522397155
ской 0.00780166055392839
Aeg@@ 0.46677014371483566
Chart 0.1425744699732286
East 0.02195141970484416
FS 0.3948358592550502
Golden 0.07905942227877923
Mercedes 0.19312500544095076
Moon 0.147235386494328
Om@@ 0.11233719428242114
PR@@ 0.18698062728174286
Trav@@ 0.1069397068149322
abilis 0.9213306171820923
com 0.151547503120581
ect@@ 0.04615502140308235
gh@@ 0.06330010869472152
isch@@ 0.03581776526784099
kon@@ 0.02448874506063044
mani 0.45023974642282255
udi@@ 0.10256993865818614
value 0.06951232035855723
Cup 0.017539310225151275
Good@@ 0.11950283508002822
NS 0.17048607626035064
Quer@@ 0.18666031690732113
Ruby 0.48489872176116144
Two 0.04152549744901285
function 0.07049705300321095
men 0.009847827972528162
tiv@@ 0.04664629643111323
vi 0.11083409316752985
ού@@ 0.1385916977801739
уде@@ 0.4463792548109482
6. 0.07321991901768783
About 0.11502055183774859
IEEE 0.5568197975163133
PR 0.1963878372658618
Ret@@ 0.09209687783873609
UC@@ 0.16540689094937316
bro@@ 0.0383946325672167
lex 0.4248800971652237
pres@@ 0.02033121614696503
rix 0.5360627019731468
Арх@@ 1
ктов 0.27459961711135183
следо@@ 0.17591922038174052
ством 0.05591596154494691
45,@@ 0.7158968012503485
Born 0.08134366183403767
Fun@@ 0.12325883413748187
Kal@@ 0.03686700421902565
R.@@ 0.1629664487650718
Songs 0.11588854634110614
Sti@@ 0.07783155521272142
ein 0.002685376562100571
hol@@ 0.026118130843379113
iter 0.06403292317583584
ml 1
oy@@ 0.03533078648283909
tal 0.040782919572899985
мирович 1
напада@@ 0.4757973341227231
Age 0.13238210437753323
Am 0.015359657221677293
Bay 0.03885002713626325
EMI 0.44218619085423316
Radi@@ 0.08136573340504288
Rho@@ 0.22116405163571462
Rob@@ 0.06800697860148135
Sports 0.06632570397201971
eca 0.12446674005901381
not 0.003441145482593788
ulg@@ 0.3056920201558269
under@@ 0.016679974452844398
Θ@@ 0.2859124908465326
брово 1
дерев@@ 0.22751317945928293
если 0.1176368017786452
раун@@ 0.3807905696395297
ссе@@ 0.18430561688846492
ა@@ 1
30.@@ 0.3187570107960231
CM@@ 0.24068981140551896
Christmas 0.10662278977256384
Da@@ 0.09726756018754913
ER 0.2391777440569573
Ec@@ 0.11057986296587456
Fol@@ 0.05760572022249084
Gom@@ 0.19043044923810867
Human 0.10617676042558048
Series 0.04875219999621762
Ther@@ 0.05959306656586099
come 0.03595926494898324
dol@@ 0.0679011565488198
ew@@ 0.030381975230698223
ille 0.024326542128750742
isi 0.07045685450073277
low@@ 0.03558228292140922
ίου 0.14244006893693895
γ 0.5648135877057768
Заслу@@ 1
гой 0.21120375849812706
дах 0.1264982640004556
3.5 0.24601001696091968
AK@@ 0.25175635091992354
Lat@@ 0.06478048702489432
Side 0.196229711966079
Ton@@ 0.08499542181321144
Wil@@ 0.029820611900587702
da@@ 0.10984769131417368
imus 0.7182648614780993
iti 0.14110439956359874
kan@@ 0.04167028212302449
lati@@ 0.5597081480486958
ret@@ 0.030022693637409694
ski 0.038877329821260596
uck 0.07937327912174863
ée 0.004251067691611923
ί@@ 0.10458338823486336
Э@@ 0.016993169171377918
вии 0.15771452191912863
ждена 0.3010631441751148
одно 0.2598236188283312
њ@@ 1
Ann@@ 0.06709534418561536
Bit@@ 0.15541267029412706
CT 0.2517922546046891
NA 0.14125024454857152
Pil@@ 0.06028303778632778
Stor@@ 0.14719267607233624
Wide 0.3589722082984453
Xi@@ 0.12720778028614219
aul@@ 0.07147672906193243
ente 0.010216370332073612
head 0.01976110799549113
onal@@ 0.06466999735662976
wi@@ 0.06708024914455993
ws 0.03408184748933964
τζ@@ 0.32074259489316764
сту 0.23537767514461425
стя 0.560813896499057
44,@@ 0.7231518204613151
Au@@ 0.03612895082350081
Fall 0.08858492041780854
Ky@@ 0.07589811823911619
LP 0.11730451739431118
Management 0.08804875960819968
Morning 0.23668991166591885
Technology 0.08095398611602816
Tit@@ 0.0609642706878128
aff@@ 0.02425366600180709
apia 0.6177650094864352
din@@ 0.04996238357011435
else 0.21632503236197206
esis 0.05559285045860131
fil@@ 0.03540489798717088
more 0.0053791248796678515
ικ@@ 0.1501168535138229
ГУ 0.32359504840944114
воль@@ 0.2697116037923747
километров 0.2589913721480248
і 1
49,@@ 0.6307087087992539
Cros@@ 0.11891139949690262
Dog 0.2970807724405636
Fel@@ 0.06115027599003719
Mr. 0.08557133541154463
Sex@@ 0.17007041266255785
Ster@@ 0.10038864046312344
ate@@ 0.12926353636509072
atic 0.034544275865181814
lock 0.06450364110226978
mic@@ 0.13083430994983591
org@@ 0.07061525077438324
sar@@ 0.07790889907362698
spir@@ 0.05129122713638964
top@@ 0.05713822621145723
″ 0.6185858034513414
Again 0.2797532953144984
Child 0.21574638050965902
Dr. 0.04156202747929937
Modern 0.10996635363497681
Sofia 0.28041704229838754
ado@@ 0.12623440641567507
alar@@ 0.09466296260514433
dal@@ 0.17666942982424752
duc@@ 0.057348604506517825
fre@@ 0.024715557574558705
ide 0.0330440571656249
ili 0.0926650177461391
ju@@ 0.03566085812642044
ker@@ 0.039844042960254004
lie 0.04866652016218579
na@@ 0.08534346524135164
pil@@ 0.04727605712842585
star 0.05006862111818518
wood 0.028410321395680962
Вероя@@ 1
ември 1
ологии 0.3682825521847673
потен@@ 1
сом@@ 0.473213945161144
199@@ 0.4774784296832157
Clar@@ 0.07641908608177629
Comp@@ 0.11341580714407899
Dan@@ 0.05680052561909264
EF@@ 0.4232125831728927
Fiat 0.3046139696590926
Impact 0.25807564936226235
Kor@@ 0.036076190053113744
Lor@@ 0.05816826774600778
Men 0.05902811902938884
Mod@@ 0.057187971658167136
atin@@ 0.33387276856867526
boy 0.07616742499486524
cili@@ 0.6532709813334541
ele 0.03669026677840539
ff 0.03535559937845961
field 0.013031300462937384
ho 0.1308924492790526
ial 0.04959736287362638
ment@@ 0.03413500419013445
mp@@ 0.061167284048051135
mun@@ 0.052911562009392905
ome@@ 0.10983875500258325
osoma 0.6791204902424819
pf@@ 0.03828896239122631
phr@@ 0.7642509828303102
tura 0.07000441629541956
Ι 1
Act 0.033877772804781665
Ere@@ 0.35469059337099107
Max@@ 0.15408405228296915
Net 0.4169155806275112
Perf@@ 0.33424042165158757
RCA 0.3829090922356811
Sex 0.29960876461946023
augh@@ 0.0766352934100274
burg 0.026727813223604263
elo 0.07625570508132351
ez 0.029648892582026777
für 0.0026393051981357337
meg@@ 0.25217996754651695
private 0.035104724484756336
ures 0.036068942617882765
ï@@ 0.033409242602185224
Ярослав@@ 0.4840611666547968
ї@@ 1
501 0.5325084465059646
Alo@@ 0.3570606627326481
Brown 0.04546109228618224
Store 0.28177712471430183
Year 0.05064188953969292
bol@@ 0.05661393911489576
deon 0.4205675393519484
ika 0.053884380083979284
nat@@ 0.09098162998185028
rem@@ 0.022141020463683873
tre 0.03648419435425662
ö@@ 0.017031922775774862
Aph@@ 0.4870910773455195
Bot@@ 0.04746342689864553
CR 0.20066047212815685
Od@@ 0.11609555604820156
Pseudo@@ 0.6567831434176823
Will 0.12817819054722035
by@@ 0.0658674479706367
hab@@ 0.029924406590835527
nch@@ 0.20180870332551887
osh 0.2440894173240976
pec@@ 0.1538402702113253
utt@@ 0.2539691961483689
width 0.15457599842006337
ying 0.01949977571544956
zy@@ 0.07481766186284226
Δήμος 1
мое 0.39905602713550037
э@@ 0.01292287205101168
196@@ 0.5434599368758001
50,@@ 0.6016951712664731
Ado@@ 0.5984822850088696
Audi@@ 0.13129458715722875
D.@@ 0.171103877422449
Martin 0.027192255256091487
Mind 0.34776337413332087
Set@@ 0.3109555807989111
Vol 0.37193443251158725
dem@@ 0.01943727150241828
ego 0.10682724184328952
imal 0.0964213801542476
ket 0.05778221782000355
nik 0.08831089107263099
section 0.03048396096030992
zen 0.0285258281445599
ων 0.06362780122054676
брехт 1
AF@@ 0.1375008602129359
Chron@@ 0.12009298477121366
David 0.01826355919833476
Full 0.3087648604270974
George 0.017212612974534008
Hur@@ 0.06685001593834251
Kin@@ 0.0542841097018534
LED 0.5058657237113192
Nav@@ 0.061859337534440034
Part 0.16395050255081303
Roll 0.28801294572874053
Sl@@ 0.12421609115264032
Sport 0.08799579627156676
W. 0.05410705117640341
ask@@ 0.06724234688145937
fes@@ 0.08359223762311635
hi 0.048983556926732834
ink 0.08691159034244224
stein 0.030667964229540396
ː 1
Белару@@ 0.4455033065818595
чета@@ 1
47,@@ 0.669228726836763
C.@@ 0.10959747376641203
COM 0.4537809910847852
Enterprise 0.3139628441475656
GS 0.2675590987551138
Pir@@ 0.07620049504661729
Secret 0.219326535593075
Si 0.059428060606011676
Wr@@ 0.27733993297425097
aka 0.05490183208686607
alba 0.4883636337981767
bon@@ 0.09522353589135144
cep@@ 0.07507872718499843
esi@@ 0.10556142966990188
ots 0.022834949536680773
ę@@ 0.13254539045669647
φ@@ 0.07134230767222097
Ниже@@ 0.5135208419062862
грам@@ 0.21385771119405045
стихот@@ 1
Ball@@ 0.06290745730238936
Here 0.13946060283933123
ST 0.20673087795211073
air 0.021539183882391143
amo@@ 0.07106360795361148
anti 0.03584774102797018
clear 0.08209947526824359
eles 0.1135212907907176
g. 0.2983191673990175
mann 0.018001618074793516
mos@@ 0.061473895258781004
pat@@ 0.026418203274980352
play 0.01391377915051922
px 1
tive 0.016336744104506983
ute 0.0376070458969427
чной 0.058249237547054966
48,@@ 0.5871312249539171
94@@ 0.8450833745612172
Cloud 0.28146054955158817
Ga@@ 0.07940098781143141
Rap@@ 0.07431603652680807
SV@@ 0.3835139800386129
agn@@ 0.06082543808936983
asi 0.12369513755571078
ces 0.014365258188603855
ding 0.021532930010534853
equ@@ 0.03535738279543376
iga 0.09614913584239114
je@@ 0.03808058730352412
let@@ 0.04807456792119557
nas@@ 0.16386699636429172
off 0.011420852709681125
ole@@ 0.25544336172519466
phila 0.5677272803079871
phon@@ 0.0861127736895345
super@@ 0.026560930713933374
tam@@ 0.07059209979559614
апри@@ 1
кто 0.18153953593796737
поля 0.26586184253169354
шем 0.24713511567128812
ա@@ 0.8494221682451694
Anti@@ 0.06625593313408967
Fas@@ 0.13363100235722158
Lit@@ 0.0740680317848996
PL 0.3852830930397546
Publ@@ 0.0927388228810334
Run 0.1898430402504265
Stop 0.40049780955816994
Water@@ 0.10295964886711698
Wit@@ 0.06800095234459012
ao 0.02933971986393674
cho 0.011772330081127158
dea 0.17006684705697078
dex 0.25992453289541956
form@@ 0.020915861292974854
gris@@ 0.6922853431394418
ism 0.013588390299329768
ux 0.04921165222599134
κ@@ 0.08686052966893222
мум 1
40,@@ 0.7110126266851389
Bir@@ 0.04479263559107128
Bou@@ 0.059129072418937174
Cola 0.44171496440472785
Final 0.06238046749724355
Fri@@ 0.054970521874440334
Jazz 0.09555155384959284
Junior 0.07259650478107453
Men@@ 0.039862901733613273
Purple 0.4421132518166795
Ultimate 0.3346482098394479
ards 0.031140781252993188
bac@@ 0.06528358848991354
chia 0.13930800102143406
iss 0.09013874957266706
itas 0.1128764989037339
jpg 1
print 0.11183928124623926
ski@@ 0.09800367494727058
uca 0.2185789334288067
zo 0.05374456957448619
µ@@ 0.4718984913437373
Η 0.026556042416850452
Василь@@ 0.3094962196772548
площади 0.2319469979500481
сокра@@ 0.24011723115753722
500@@ 0.5263759033124532
Air@@ 0.08921322152188965
Collection 0.18105325114002113
Dar@@ 0.029756807277136425
EL@@ 0.23166688454048376
Gold@@ 0.05549068764199491
IL 0.2024678918219583
Language 0.18890388012993606
Ot@@ 0.0783157384657109
Saf@@ 0.09231316202440591
UE@@ 0.4622193823057389
can 0.006173752867230746
core 0.06276404994395236
ein@@ 0.0068971926227899775
ely 0.01243497921293503
emp@@ 0.028851998887056005
ever 0.025775483530673205
inia 0.39267630268405124
japon@@ 0.29730936866835345
ll 0.18517379374189688
patr@@ 0.034294666724471776
ska 0.10815834620637638
ø@@ 0.061032980259101074
ία 0.05856025959178814
ε 0.10478685982817065
Авст@@ 0.46592850147397685
еха@@ 0.6853541697556588
руки 0.42594481381236854
стол@@ 0.2322070108688656
чая 0.45081164851704536
31.@@ 0.7123976633920398
CNN 0.3906458537915904
Han@@ 0.03541217268469283
Mom@@ 0.1533159542631544
Nes@@ 0.2745371810881378
Number 0.3023453105319275
Pod@@ 0.10388234387696575
True 0.3138638935925814
elec@@ 0.03792942339474959
ende 0.012101971963587834
ido 0.014663872617793337
mad@@ 0.059506106276296176
sap@@ 0.26296836198862605
while 0.008154174186757207
ά@@ 0.09839418307236701
ης 0.08728767539083304
Дмитри@@ 0.3328544310914943
СКА 1
Фридри@@ 0.68273535004871
обучения 0.35986650184882646
рур@@ 1
уезд 0.3113774861691729
.org 0.6063560350807443
Bus@@ 0.05250730700617383
CP@@ 0.1354834004872878
HC 0.15640247527586398
No. 0.0419472366588213
Over@@ 0.06925109393458141
Sand@@ 0.03719631709454167
aun@@ 0.04316852206007324
edo 0.06609380703726185
he 0.001395743715098755
hel@@ 0.031168718281242798
lus 0.17899378235425553
ods 0.04126392930419626
sig@@ 0.022729364395859587
ull 0.2534609054085942
® 1
ː@@ 1
των 0.017424654810395554
Дмит@@ 0.4455552099341911
Изве@@ 1
Bry@@ 0.20120851342696008
Cyc@@ 0.22214909821298534
Heli@@ 0.3260068705828187
James 0.016010181162111742
Py@@ 0.1434082523416389
amo 0.10128371188576578
box 0.0658095020401854
ends 0.03125037624649183
eter@@ 0.1001648185240958
ote 0.02914968609902336
Ио@@ 0.15612983079768708
Amazon 0.24016548327360407
Battle 0.04275848753879317
Change 0.30551929826148294
Gir@@ 0.06321879676240676
ID 0.19529525980560705
Reb@@ 0.06624525028336166
Scarabaeidae 1
cape 0.09300242219058973
etto 0.14897524425073239
itus 0.20296195695573563
jav@@ 0.3334956293522873
jo@@ 0.0454554476738203
lev@@ 0.058797737808501116
ophy@@ 0.3479529779238005
pard 0.177354695724311
pot@@ 0.04097989035435633
ump@@ 0.03287940978706071
yon 0.12774843137958064
yon@@ 0.1464504901965871
Τσ@@ 0.2865036834737814
κ 0.15195726675885715
λ 0.12558447057738423
Arena 0.10776727069537297
By 0.021576524429650936
Cast@@ 0.1282622645509684
Dark@@ 0.30031756337835525
Drive 0.1642864786209109
Ful@@ 0.0758411263581217
Hot@@ 0.11236708205737275
Mul@@ 0.056391988497256816
SL 0.2455176931057508
Wind 0.19296894582683818
ants 0.009265987170348284
eleg@@ 0.05929193117666512
eon 0.16104520649700696
iP@@ 0.51914191860379
oli@@ 0.09533602213817627
Č@@ 0.1382496910682252
нее 0.061440738532585616
победил 0.47650834026434147
California 0.019104510437735443
Face 0.2630817777446301
Far@@ 0.03102871195650526
Hen@@ 0.06842630692148716
Ner@@ 0.13536517738114073
Sap@@ 0.17593739197768948
Virgin 0.16165347753691275
ais 0.02654452953411019
cio 0.05426055554826001
err@@ 0.036243700645682005
inga 0.18875944644626136
kom@@ 0.030379593133223134
lut@@ 0.12844824482298697
plus 0.004491869559726606
ylus 0.6647453358129012
Υ@@ 0.44743432226649205
αρ@@ 0.1262998885707209
ρος 0.21681390560835953
τσ@@ 0.14838849772073368
сцен@@ 0.38482182250696473
чей 0.09584754320410402
Ath@@ 0.07342923002542223
Bed@@ 0.05676735687497769
Body 0.33121396551349375
Dir@@ 0.1133277458348224
Dynam@@ 0.2449781326055032
Hard 0.26907252137677756
Nat@@ 0.06850209709665164
Pet@@ 0.10330386833480938
Player 0.12483748496017165
T.@@ 0.21073655633058708
Techn@@ 0.06741506542465064
Vul@@ 0.16042775802351855
Wars 0.15333360344694594
acia 0.10133137993014274
ady 0.057620733833604935
lab@@ 0.04364687559236085
lit@@ 0.04804997318606204
medi@@ 0.033148644777724404
min 0.08400389718025024
ost 0.059815399573346424
ror 0.09037881650049409
tum 0.1031642762347576
vir 0.4106936474355062
war@@ 0.014126359779477182
École 0.09639406109705667
ó 0.003831976377495932
το@@ 0.1461547810742899
Auto 0.18499205633067967
Chem@@ 0.06692310838870454
Chr@@ 0.1417631509413635
Gaz@@ 0.14878983919521355
Historia 0.044403869138145424
Ice 0.1561348543085397
Luci@@ 0.10812780217976088
O.@@ 0.24100078076739442
Operation 0.08400082260469864
SG 0.1489453180419353
Sky@@ 0.17166589051842845
ag 0.055914125941063354
ancing 0.0767977111593571
les@@ 0.028209450968954226
mark 0.048513840710945465
nit@@ 0.09416331894737484
som@@ 0.04632912109982726
достижения 0.4449251542442265
развития 0.1425483611012049
сом 0.0538526815343497
швей@@ 1
CS 0.12376278647270562
Civ@@ 0.22438537338169282
Cri@@ 0.13193693629441094
Free@@ 0.34118814876049774
Hein@@ 0.1557772907668057
Hyp@@ 0.22062071148728837
IUCN 0.36689091158991005
Kn@@ 0.043800201820722945
Only 0.09877648359062724
Sig@@ 0.05849470678688183
Tem@@ 0.05714154884527452
Years 0.17466117806324122
atra 0.13353100167536033
ji@@ 0.09252153083063978
lers 0.02864648012831776
mil@@ 0.036380842137802925
multi@@ 0.048894659199742
nes 0.02793823035079002
pos 0.0813501444270185
proc@@ 0.048678748375448104
val 0.09366746653692788
Ο 0.02851665496500111
η@@ 0.10368983496016286
Псков@@ 0.4276741131914244
тенан@@ 1
Beau@@ 0.060489634796080584
Blu@@ 0.0929890231170498
Double 0.20667446502035786
Flash 0.2993394686732462
Gold 0.05916049637104124
IO@@ 0.18348190233874692
Las 0.017753465056891835
List 0.032873744644751776
Michael 0.020118281874988906
Nem@@ 0.2066444416129074
Num@@ 0.11091382203198617
Phone 0.7560204166579703
Pra@@ 0.13035259469816998
Seven 0.14104585025213806
VO@@ 0.32387486998623966
bit@@ 0.0637181892351103
iki 0.045769130823493896
lav@@ 0.09879500668039808
old 0.013147708562538324
radi@@ 0.04046785076443071
right 0.019479346312544225
ρο@@ 0.12040638535542306
комп@@ 1
суд 0.286574959387699
Core 0.3859972409690167
Fro@@ 0.10026665110441275
Mun@@ 0.06988533847301254
Pit@@ 0.10591546475810201
Wel@@ 0.06896373525877557
aux 0.004202227786847281
brun@@ 0.16596058006482933
cat 0.18635305199695423
ear@@ 0.024405461854782817
folia 0.2675098982539624
mb@@ 0.05751572900829451
oon 0.07694816219870242
other@@ 0.05650760467891523
thy@@ 0.37664652153546757
ια 0.12154032886114688
ито@@ 0.5280119189890037
пом 0.19514857749782316
цкий 0.09887754491850895
BW@@ 0.3172457927302681
Coca 0.48794980880929234
Dig@@ 0.12756587253193385
Direc@@ 0.059064967039224855
Mail 0.2764187732396228
Main 0.05825849945213845
Online 0.16023839748481447
She@@ 0.06106329845186175
Water 0.0998308741698421
http 0.22785716900265474
poli@@ 0.09737634456845941
ses 0.005157236338438809
ακ@@ 0.11713437404101834
кризи@@ 0.4128757009702679
љ@@ 1
Af@@ 0.09081861133040679
Hollywood 0.07290189610384361
Imag@@ 0.18623152203199772
Kit@@ 0.07320168341699046
LM 0.35665927208037806
Li 0.09878674900378831
Make 0.350777589140852
Mi 0.23039360038722004
Robert 0.016199773078571327
Security 0.09611967928902501
Special 0.0699623133515755
Where 0.2317978945104867
crist@@ 0.21684267484565464
ix 0.07123306300235704
minor 0.06014948887186372
ont@@ 0.06378925172916397
tin 0.022952809268152734
urn 0.11998900294186175
urs 0.027165767921493302
zon@@ 0.24164378177899803
zz@@ 0.10212447050291945
Ѐ@@ 1
Начи@@ 0.35491430448790334
лейтенан@@ 0.35329569862880084
одна 0.1412260424101399
япо@@ 1
Alc@@ 0.282006722704213
Der@@ 0.05037682227109886
Devil 0.2765572872097956
Nova 0.12535617264201213
Off@@ 0.0391833100633517
Pac@@ 0.16684123889037444
Pur@@ 0.06594688062729774
She 0.006297707241211294
Sof@@ 0.11760057324780732
Spir@@ 0.14824402011814206
aqu@@ 0.03810205086071832
az 0.04103706891127072
dell 0.2659883316695685
iana 0.2564926576891837
ison 0.03116876699003675
itor 0.068260210733303
lei 0.20067521754876733
sive 0.01919459089308213
where 0.004932113948310346
коль@@ 0.15168400437685509
Gener@@ 0.06502894751858691
Ig@@ 0.07146090569488857
Mit@@ 0.03450834054465092
Tin@@ 0.15573787148207435
ages 0.011306105853982644
dius 0.32176814679945925
fa 0.10016030838244867
formis 0.6537471102326624
olo 0.09578391744502598
osis 0.05954187696001497
pera 0.30785510270765315
ther 0.03785200924706477
thia 0.3538024437975823
wil@@ 0.048680943793628875
ών 0.04261924381500256
поряд@@ 0.34027693400473785
преподавал 0.4227581015705396
--@@ 0.4415155061646725
Bell@@ 0.10117314474226384
Class 0.08777867314121048
Cru@@ 0.09618147308000953
Dest@@ 0.17649467344631367
Metall@@ 0.2245100665966527
Paramount 0.30105246107911127
Rad@@ 0.03946915823399021
Tang@@ 0.23071463185175345
ange 0.03976217844088409
dol 0.32308898551531645
ech 0.07771949816524963
eci@@ 0.12361368996480156
gel@@ 0.014639810991859837
hal@@ 0.018820847226862416
mir@@ 0.05827341855759752
Α 0.13097476677457912
ίας 0.05763837598347524
ερ@@ 0.11389569018318815
ВКП 0.4510872630387168
дево@@ 0.41721822208381826
400@@ 0.4869562693261772
Fur@@ 0.05019920108965722
Limited 0.12080939376706884
Lyc@@ 0.2831049221052997
Pu@@ 0.055090818701679506
William 0.013519600191178923
aeidae 1
cit@@ 0.037297107432937515
craft 0.1548931885132031
dig@@ 0.03784774960859703
gas@@ 0.058753822118685316
ocol@@ 0.15896370118577244
ores 0.02159825562855558
org 0.24840563886302297
vers@@ 0.025613098489161597
ì 0.21354519478065648
съюзническата 1
фут@@ 1
щик 0.2786861518996993
BAS@@ 0.40932255380184907
BT@@ 0.28298265496272956
Chim@@ 0.3616602037125057
Fer@@ 0.03895799448713756
Gre@@ 0.03365587945706822
Jones 0.03969145373348624
Know 0.3321549114528985
Sno@@ 0.2644478587062312
Sug@@ 0.15141679369424338
Van 0.04624855229839804
WW@@ 0.2615395823457668
arium 0.1534940151069085
bri@@ 0.041019330263705106
flu@@ 0.032536252871593674
ith 0.02882856033928491
qui@@ 0.04197646074674097
sam@@ 0.046447804842536834
tions 0.007537055092373538
xx 0.4569601609412474
š 0.13322755134398748
Верх@@ 0.17308820344363782
сут@@ 0.5328926446266515
787 0.9987072925957424
Alliance 0.09528956113787128
Az@@ 0.04313297909212056
China 0.01806945182699382
Choice 0.2730168181318491
Chrys@@ 0.2621541430590426
G.@@ 0.20240664720708257
GE 0.24518381949158566
Honor 0.17644384794914675
IL@@ 0.2535985587380438
Netflix 0.21938016736557236
Pos@@ 0.08782885440408833
Produc@@ 0.09238565285764973
Rock@@ 0.11220384882904172
Sanc@@ 0.2008673818202304
Still 0.23926122266000507
Touch 0.4465689054430557
Whit@@ 0.05383698350037839
aft 0.041865495332540775
cht@@ 0.049718516044056
dam@@ 0.07136201748265279
kin@@ 0.057890509474440195
lac@@ 0.10862661052773433
umba 0.21698120933010243
ć 0.06163250972866374
έ@@ 0.08849806719205759
неско@@ 1
нования 0.29744424835662103
шта@@ 0.1496218580194121
Ball 0.13514026017159747
Columbia 0.04401657333176329
Corn@@ 0.052556525107689656
Federation 0.07446353027497989
Kom@@ 0.023965229521076895
Nas@@ 0.10465958421823043
Peter 0.019050004389249208
Wan@@ 0.23187187735225606
any@@ 0.03260344704121907
ays 0.027472506794992364
dar@@ 0.02891922883006277
ega 0.06239694127007508
elli@@ 0.41513999672706425
gul@@ 0.11469847332252908
kel 0.045050316611886625
lad@@ 0.03994437032040745
mur@@ 0.037288062408867687
night 0.03233058682280277
onn@@ 0.020106352410046838
ous@@ 0.05601670783100973
ram@@ 0.057440403160646816
tom 0.08971774828186184
§ 0.1658326627895333
Φ@@ 0.10312103003661534
призва@@ 0.24451952048957784
1.2 0.2273867784083018
10000 0.8181287312419939
46,@@ 0.5657911702100421
After 0.006971949870997783
Clu@@ 0.10134971293851053
F1 0.21664732952749666
Gam@@ 0.09389444081141021
God@@ 0.07980402826823273
Lif@@ 0.19438190164182245
Lou@@ 0.06307469919222444
Pul@@ 0.09364124032287884
Rub@@ 0.08836014302185044
assa 0.31165581962706096
cum 0.3420297408763546
idea 0.039694756578633694
imb@@ 0.08528759650337378
oli 0.09421698436884691
ows 0.13300730963521173
pap@@ 0.04062642322210442
py@@ 0.13814874265932398
syl@@ 0.135698854653482
τος 0.14729503345912393
алистиче@@ 1
журнал 0.33781700078818905
лине 0.35396729345500233
метал@@ 0.1540911193926222
сент@@ 0.6332830300596589
ть 0.013877104520017978
7. 0.05991154319303955
Amar@@ 0.18150337894178353
At 0.010172405183379099
Bri@@ 0.03870836759252487
Forbes 0.22502013281130567
Laur@@ 0.0535019828660462
Psych@@ 0.09152369657795721
River 0.013339574168815148
Sat@@ 0.06894901807211308
Tetr@@ 0.4621308206502136
Total 0.2030396380554937
Yah@@ 0.23578272819401433
affin@@ 0.30882955370883797
chen 0.016115701715627408
eon@@ 0.4844589161754663
icon 0.12129537643070361
itz 0.027064743920417116
media 0.02296724875531656
under 0.005729322207273301
uss@@ 0.03328721613956236
άν@@ 0.09513756228386086
οι 0.021741919461069147
измени@@ 0.2555586142413656
20th 0.04974063659802149
Au 0.023904181932492354
Bay@@ 0.04778397273860518
Bridge 0.060147670009724916
Evil 0.3397319687969855
Mari@@ 0.030281445689244863
Motors 0.23370136092128946
Ren@@ 0.03813407221518886
Tot@@ 0.1079281251598333
Vog@@ 0.10256783866618409
af 0.08136369457931987
arm@@ 0.029925855411991085
book 0.014385704339256669
data 0.031884568436296015
lip@@ 0.10072356949526744
prot@@ 0.016065515416046873
rur@@ 0.2797425002201361
ves 0.012732910092263043
Владимирович 0.3901200725329196
Малай@@ 1
образования 0.08909141904507203
ה@@ 1
1.3 0.2754722646280272
2023 0.2956899624440963
Album 0.04084046048065362
Cand@@ 0.1558811336916111
Classic 0.1290156366127401
Hi@@ 0.06355094251800184
Lem@@ 0.09513317946386024
Sn@@ 0.12988788018052883
Ten@@ 0.07519408924817393
There 0.010332361784696754
ection 0.026309267970400188
fur@@ 0.061824624655406175
ider 0.03595432036635532
onica 0.2926376981725366
ox@@ 0.051956893897076493
trach@@ 0.28415990450114853
йской 0.05309759864467978
путеше@@ 0.2218309585227204
Design 0.07003125624031709
English 0.01376881296942457
Hali@@ 0.1685098659508601
Ku@@ 0.04584664382377009
aro@@ 0.08899330637131193
hum@@ 0.030078591587511524
irus 0.3450672874018256
ix@@ 0.10705121152905693
major 0.013074744166832339
mes@@ 0.04618372586348282
odes 0.11248830269757308
qua 0.042987024936453115
ron@@ 0.09635064913216361
trop@@ 0.09176328920314476
tut@@ 0.09700022773154655
umb@@ 0.04729545324052598
uts 0.14733398141851972
yph@@ 0.42033549798619574
ими 0.3444081330801411
титул 0.167225339343464
Associ@@ 0.08611095326947853
Beg@@ 0.04509222672712823
Eg@@ 0.08999774862875345
GO@@ 0.20854631506761906
Garden 0.09852509781890292
Louis 0.018236244513869012
Miss 0.062207143736934464
SN 0.37551873353393367
Strateg@@ 0.14510429743000067
Us 0.21342668196454534
Without 0.24505441228219904
ington 0.029488464304942223
mis@@ 0.014805749511705334
pas@@ 0.0170429009349847
rus@@ 0.0805458175840742
tata 0.7007722652464892
tium 0.17891172897647967
ύ@@ 0.0953932665532904
ი@@ 1
Anim@@ 0.15832075751491473
CH 0.25546162221346164
Duke 0.05721889888195599
Equ@@ 0.16031634104166564
Euph@@ 0.4058028838230256
LD 0.3558204032019395
Lag@@ 0.07098060966909402
Money 0.2323090100257667
Movie 0.2188126008798456
Pay@@ 0.12137958543864277
Phys@@ 0.083591348747454
Tor 0.13602005867242273
W.@@ 0.24115282400630267
Walt 0.19789405835081586
ban@@ 0.02615204836545898
bat 0.05727019741175049
lea 0.20757597584287812
ques 0.009771769237404727
res 0.02488090136503241
tory 0.08897041364549207
vid@@ 0.06301175273602497
är@@ 0.01728301125802345
чий 0.18395749631491445
Car 0.13242405943661478
Fran@@ 0.04384367427045464
Glass 0.26225416306634547
Rainbow 0.3558460813356636
Say 0.34565632003317537
States 0.007038277195085492
Tokyo 0.06760936988482488
ating 0.007684488859166065
fe 0.02610325820174951
ih@@ 0.038230241621440356
jo 0.023018516922161055
khe@@ 0.1490776425440276
life 0.0073394540016291435
ony 0.03971794414375989
rel@@ 0.010983703235369404
seri@@ 0.1011160400806612
squ@@ 0.05175738278260522
using 0.014343555602932214
wa@@ 0.04763548259299395
ù@@ 1
στ@@ 0.07735741959659247
στα 0.051051991901985026
Лондо@@ 0.9494717053691633
ксем@@ 1
Angels 0.2203324715535445
CE 0.07392690238715309
Cath@@ 0.1511393118908404
Electronic 0.2623452814689768
Friends 0.16964205589128792
MIT 0.2687847858225234
Oliv@@ 0.22322586371331543
Prix 0.0428803313354105
Rus@@ 0.044881101935629206
Sic@@ 0.12010189037144381
Vit@@ 0.07161213797226397
You@@ 0.25293857294809674
ature 0.04926097834130142
eck 0.03388479414003632
ev 0.04807229856937311
hur@@ 0.047125053189483485
imi 0.08520295353315667
iva 0.09280134800246298
ose 0.033551406249926044
rei 0.47525109323852655
uti@@ 0.048207802655764506
wh@@ 0.023946335241673417
za@@ 0.1338944291299162
ç@@ 0.025696761723567926
ą@@ 0.16089716787161293
матур@@ 1
объ@@ 0.18802167741528572
2030 0.49593705396232374
CI 0.19615930124082312
Est@@ 0.022370774261801937
Our 0.11584180125790437
Piz@@ 0.2556254311205797
Sle@@ 0.1864921644479229
Soci@@ 0.05883273912278012
Son@@ 0.04509707372127615
TR@@ 0.23958962321626096
Thi@@ 0.06130404051526753
Vil@@ 0.039494282116350116
enor@@ 0.1713242653516099
isp@@ 0.1658326279511265
lin 0.03190513010011643
lor@@ 0.12498641839766364
mit 0.0013346957554877885
neg@@ 0.035516870082698805
que@@ 0.04753907903880965
roc@@ 0.05137384653220419
ual 0.0256540869073358
δ 0.6291973330915321
οχώ@@ 1
Свер@@ 1
мости 0.10108116079395739
обили 1
распо@@ 0.653341768568336
AI 0.17273067774084097
Ast@@ 0.12679196332800258
Augusta 0.248411424290912
Brit@@ 0.07493015580483547
Call 0.2049386175955987
Canada 0.015100329869123295
Cis@@ 0.3657900223023949
Din@@ 0.06015729569569084
Guide 0.18361635241100063
Lion 0.21169375554439554
Lord 0.0344445457610524
Prin@@ 0.07592789766394692
Republic 0.02924233932754364
SP 0.1973755900098286
Scor@@ 0.14454300429330502
Smo@@ 0.21275506127397154
Spo@@ 0.1599224603984323
Tes@@ 0.14155011908721649
alc@@ 0.15842987526175176
alt@@ 0.022358623900385295
ano@@ 0.1476592558311846
ario 0.015381030968861304
dit 0.022597101724074635
ert 0.010014767733942647
gen 0.015269218849350879
list 0.022055823214094692
ort 0.034195497598839164
othing 0.1050887691937581
sey 0.04411288094197054
sur 0.0025193748269461114
w.@@ 1
zu 0.0019285177355079968
сть 0.032957442165232234
000@@ 0.2828660928913561
2- 0.7373376154701349
Charles 0.013811460655252211
Comics 0.11080995000386087
Dur@@ 0.04728788977595025
Edge 0.23314589025064952
Fort@@ 0.11562629850714916
Gra@@ 0.06168746635041045
IU@@ 0.5264671405775316
Och@@ 0.25787714530691247
Oxy@@ 0.5363440406432282
Renault 0.1690149356281104
Roy@@ 0.08667281656704613
Tan@@ 0.0412762082448327
aco 0.0627548348792498
ands 0.023256650431663525
ei@@ 0.08358113942880756
iens 0.17192349563075468
iri 0.08243526135690948
new@@ 0.09543014162467103
omor@@ 0.21321539879525458
s. 0.06510871958311434
ér@@ 0.012541407099965643
÷ 1
Ω 1
ας 0.07557660937562727
Вос@@ 0.21579549841804305
ј 1
1.4 0.27962829284366814
Acan@@ 1
App@@ 0.07580309726677761
Da 0.03677247572268631
Domin@@ 0.056744048646495
GR@@ 0.3509783553552854
Get@@ 0.23356557421125926
Index 0.20189228211779864
Light@@ 0.19576650775181656
Math@@ 0.0812743065596515
Motor 0.08328915575639752
PM 0.1608592337957446
Peace 0.11112035249627804
Rose 0.06573597852651507
Too 0.3202250794793271
Valley 0.03540849050927662
ality 0.02706039815583254
anda 0.04444386838002695
anna 0.05998584964795213
cam@@ 0.040179117471834815
dem 0.0016007776894222461
emat@@ 0.212323626653383
ennis 0.462645814210499
ext@@ 0.03524584600101719
ford 0.014234537812387996
longi@@ 0.786367297295619
nh@@ 0.022435347645802975
poly@@ 0.05057856589376904
εν@@ 0.05771368975376509
λι@@ 0.10784675421336189
дети 0.3373040154828502
ские 0.016171034085286494
ских 0.010568618110834878
тед 1
∞ 1
Advanced 0.18357530145306558
Airbus 0.32553325393247284
Atlantic 0.05578500622858137
Discovery 0.21456027829991112
Future 0.14862569003468024
Hotel 0.0587303359176743
Land@@ 0.014106487857827824
Marie 0.02848735312746403
Sax@@ 0.09003532848737815
Social 0.049999120245128724
afric@@ 0.09949344589499381
azzo 0.21559433475454215
break 0.04422724562993566
eur@@ 0.07038775122243601
fast 0.029282298645306265
hir@@ 0.15593691227180287
ner@@ 0.02659804037622495
o.@@ 0.477437239437387
orr@@ 0.10100253235652647
own 0.01007648278067631
polis 0.09329038717711083
quin@@ 0.09215720223734354
tul@@ 0.29796612414282336
Ј@@ 1
Алба@@ 0.9097898990494206
включая 0.12005178338959316
муниципа@@ 0.19689544888568414
ѡ@@ 1
BD 0.24593134063082422
Broadcasting 0.13827458551348518
Cav@@ 0.05974788675062391
DR 0.13121024067437442
Division 0.014314425465308797
IF 0.18134444886477638
Lev@@ 0.04485551201288915
Mary 0.024847810553361504
O. 0.1318897176555743
Rosa 0.10963076796115342
Rot@@ 0.0442151056965258
SF@@ 0.18266989413466478
Um@@ 0.021476854563472546
Wat@@ 0.04822824527486057
Zone 0.0955923472809446
ben@@ 0.025266281954303173
cal 0.05441163670958696
cia 0.10454245172730355
erry 0.05043416438342292
top 0.013469288545695016
v. 0.05080521342581253
ão 0.07436636559443337
ör@@ 0.020766018249961563
μ 0.1428714259481461
Вюртем@@ 1
Centre 0.030931652033505876
DL 0.28474033478414223
Douglas 0.06532532927322163
Eas@@ 0.10711423456240869
Europ@@ 0.05201902338448905
Hum@@ 0.04950025195546407
Laborat@@ 0.11211592399653238
Lis@@ 0.06546960201938178
Mn@@ 0.9326440827612063
Monster 0.28789184325040734
Nar@@ 0.047086976855914696
Pok@@ 0.11093922306624189
RAF 0.12154334327137108
Sing@@ 0.06922150775041755
Sunday 0.07139243609353293
Tales 0.23663917358440398
ally 0.00500088685109089
azi@@ 0.1903563526706205
eter 0.020858054001166994
sen 0.01316857800935571
uni@@ 0.01806312744923589
ville 0.007274724345288449
ère 0.011243711520215544
αλ@@ 0.12682764699666296
να 0.011360011708097454
Индии 0.2631495206362609
администрации 0.3564131185431141
спец@@ 0.3916072700272976
сь 0.0648499035597121
א@@ 0.7147465663887235
64,@@ 0.7486546522606721
Bil@@ 0.03973704613980687
Bru@@ 0.04707166209768955
Conn@@ 0.06032217248541456
Emp@@ 0.06377829967071022
Hit 0.2685798564985161
SR 0.05688498751758328
Telec@@ 0.20683936218820517
acy 0.021327477053103974
aire 0.007618432130381836
anta 0.07931901679103945
assi@@ 0.05945018422169926
ough 0.04487913268828069
ow 0.026032193986034423
rag@@ 0.06881351635146754
tical 0.020148911967522824
trich@@ 0.23090975709489703
uld 0.10202463684653983
works 0.013811903176378072
ī 0.13685064113893688
Бель@@ 0.23113787869905228
дации 0.3789213739334832
Alli@@ 0.07388354283592764
Another 0.04520317739925858
KO 0.20270760110521313
Kir@@ 0.032946179813390625
Sir@@ 0.08097145971813696
Spirit 0.17304168155185723
Washington 0.0172369407733505
arch 0.06876549731198246
ements 0.011481907415391469
ingi 0.9748090098696935
pag@@ 0.05833228368144263
ple 0.0766815495608982
plic@@ 0.05880887716783166
tronics 0.17549281218799082
ventr@@ 0.21872468548154755
ð@@ 0.138515964611988
ż@@ 0.20113825193536633
σ 0.4913485007406801
зой 0.3562716606428073
сса@@ 0.08955287229791123
цего@@ 1
App 0.39158894348147727
Boh@@ 0.0669022291670442
German@@ 0.10366304197348318
Living 0.19932806958760074
Nintendo 0.11471842812568196
Singles 0.07054109672787538
Sit@@ 0.15860677131488965
amus 0.30524092777684037
ather 0.046440395952760956
cos@@ 0.05586676529072073
double 0.033312787273933275
ged 0.03840988988074982
music 0.009328717924268967
osc@@ 0.20297167157277407
version 0.01292632045769944
vor 0.007484048953734853
ye@@ 0.04408533374502528
ρί@@ 0.13239459538333498
цкой 0.12425788721599014
ר@@ 0.6948740417698008
198@@ 0.33587142726508556
4.0 0.39600934352350964
Ass@@ 0.08869788904400541
Aster@@ 0.14360492552229792
Concer@@ 0.0935451168056299
Development 0.04286557724387833
Eye 0.23354281792195336
Gn@@ 0.2185657558545971
HF 0.15343203795239843
Hav@@ 0.03860820300335157
Log@@ 0.08375295823415134
Mand@@ 0.045760468333747605
Other 0.023722254673734088
Pho@@ 0.2976810001954873
SN@@ 0.09749471470485903
Steel 0.17204940051482673
Sup@@ 0.0571762053302546
Up@@ 0.10568938488812576
Viol@@ 0.09574152306267787
Wa@@ 0.0645767767434502
Women 0.024118131334564853
ads 0.03716221753348195
bun@@ 0.08359148474906267
but@@ 0.04671387209959552
che@@ 0.04547271122230003
love 0.03594480921859716
nius 0.3028931597862351
odo@@ 0.2043685450626099
person@@ 0.033744427007454586
pia 0.2390353225492702
ras@@ 0.033811380455949364
thon 0.4219113301477325
trol@@ 0.06263234517074555
try 0.025810953816383396
yond 0.24575252782024795
υ@@ 0.0934685360319822
Турции 0.3675125338250367
поселение 0.1276478316241991
тами 0.05282078794758878
Ash@@ 0.03876141972011278
Capital 0.0939743455702689
Four 0.059080717697101985
Int@@ 0.10881762837138136
Long@@ 0.0697402644336711
Nucle@@ 0.21498172810931301
OR@@ 0.18936479315390645
Pa 0.3450041910206531
Petro@@ 0.3183725532707536
Pink 0.21136577976128942
Tach@@ 0.45238919578968806
arts 0.034656690978787534
emb@@ 0.0155901775758444
enger 0.08960990233753412
esch@@ 0.03925198178542716
fel@@ 0.04351348474572331
icon@@ 0.151318076981041
ique 0.017940626061060182
mis 0.036445451401827714
ords 0.04643927422114625
pri@@ 0.025680601640280135
pyr@@ 0.12438880782539292
tas@@ 0.0400801640844991
[...]
