् 8669031
के 1667175
। 1546065
में 1259006
, 1226863
है 1085862
प 859209
की 787887
और 690486
़ 656794
स 626452
से 613040
का 604503
को 495499
एक 453923
य 410941
) 387192
( 385418
हैं 373996
क 364381
&quot; 332340
पर 326378
ट 313021
त 303089
ने 300523
र 295449
व 280019
. 278378
द 275607
@-@ 274189
किया 242885
था 231376
लिए 225826
न 207226
भी 203068
कर 195193
म 192298
यह 190775
इस 182315
गया 178847
या 175432
वर 166694
कि 161224
ग 161199
ज 159272
ड 155100
रूप 142312
ध 135284
र@@ 133496
उन 133202
जो 131657
फ 130628
कार 125785
जाता 125218
श 123106
ही 122233
री 121995
ष 117916
साथ 117304
करने 115682
उत 112411
हो 109770
म@@ 109245
वारा 107481
ल 107165
ब 106551
थे 104761
राज 103837
&apos; 102958
भारत 101648
: 101376
स@@ 100964
नहीं 100235
तक 99734
अ@@ 94534
तर 94436
बाद 94208
निर 93304
रा@@ 92064
क@@ 92021
न@@ 90755
व@@ 89143
अन 88733
ली 88209
तथा 86774
थी 85262
अपने 84981
ता 84945
ण 83967
ी 82733
वि@@ 82516
यक 81632
य@@ 81294
ति 81074
दिया 80613
ब@@ 80395
ल@@ 77702
आ@@ 76579
षेत 76360
पूर 75557
वह 75556
प@@ 75088
होंने 74573
दी 72862
होता 72228
ना 69905
ा 69210
जा 67890
रो@@ 67741
त@@ 67589
का@@ 66238
हुआ 65799
वे 64763
इन 64613
सर 64376
ना@@ 64028
थित 63530
मा@@ 62703
थ 62410
ला@@ 62382
रा 62063
रि@@ 61884
ए@@ 61413
ट@@ 61349
च 60724
नाम 60378
े 60158
वा@@ 59831
कुछ 59681
राष 59304
ला 59237
द@@ 59196
ज@@ 59023
हें 58524
रीय 58342
नी 58225
विश 58003
ग@@ 57842
रे@@ 56443
सम 56383
ह@@ 56317
नि@@ 55859
ती 55766
ं@@ 55159
करते 54291
हुए 53613
श@@ 53570
सं@@ 53561
दर 53407
तो 53360
गाँव 53341
या@@ 52219
समय 52188
ता@@ 51862
- 51696
इसके 51274
सन 51202
सा@@ 51073
एवं 50970
बा@@ 50876
ले@@ 50194
होने 50029
कई 49377
उनके 49272
संस 49054
षा 48985
रों 48717
सि@@ 48693
पा@@ 48662
; 48076
टी 47530
भारतीय 47133
ले 47055
को@@ 46970
सी@@ 46935
अधिक 46933
च@@ 46843
जन 46605
वाले 46536
लि@@ 46441
जी 46112
दा@@ 45608
बड 45450
ड@@ 45341
शन 45306
मार 45130
सबसे 45118
कारण 44805
पत 44679
मे@@ 44675
ते 44545
अपनी 44513
सु@@ 44472
कम 44436
करता 44377
होती 44225
मुख 43928
पहले 43722
इ@@ 43486
सी 43313
थान 43114
अर 43099
गए 43078
टर 42962
दो 42663
यू@@ 42555
बर 42458
ई 42240
रकार 42181
सकता 41932
ख 41880
फिल 41181
जा@@ 41176
वी 41146
किसी 40978
मि@@ 40872
मा 40491
&#93; 40456
जब 40447
गई 40309
&#91; 40299
री@@ 40289
यों 40032
ये 39370
कहा 39249
उ@@ 39174
लेकिन 38596
रक 38434
सा 38429
बे@@ 38406
‍ 38393
रदेश 38348
लो@@ 38345
राप 38065
ध@@ 37523
जाती 37345
हुई 37289
बहुत 37039
लिया 36972
शामिल 36859
रम 36855
ति@@ 36803
देश 36408
फ@@ 36341
कु@@ 36320
बन 36141
ओ@@ 36051
भ@@ 36037
ख@@ 35702
थ@@ 35581
भाषा 35510
जैसे 35415
गो@@ 35170
मो@@ 35105
होते 34920
से@@ 34867
गत 34777
के@@ 34630
षण 34599
चित 34564
जिले 34545
ए 34417
/ 34375
दक 34351
ई@@ 34110
वास 34056
वे@@ 34043
मन 33567
रहे 33491
धर 32797
उनकी 32293
मान 32199
उस 32123
विद 32051
जाने 32037
रिया 31969
रस 31755
गा@@ 31734
मु@@ 31715
यालय 31653
सो@@ 31647
कों 31307
बीच 31257
ली@@ 31249
भाग 31190
उसके 31143
बार 31122
पी@@ 31102
उद 31088
रहा 31024
सभी 30951
ा@@ 30900
तरह 30673
रत 30642
जिसमें 30586
पश 30579
पुर 30550
ने@@ 30527
नों 30410
ियों 30214
इसे 30132
रह 30070
मी 30031
भ 29970
तान 29836
आर 29746
इसका 29716
ंग 29613
.@@ 29508
अनुसार 29398
ह 29377
टी@@ 29289
तहसील 28994
बी@@ 28737
माण 28556
शिक 28519
रमुख 28499
करना 28396
काम 28394
यात 28236
पड 28128
गु@@ 28087
अनु@@ 27937
उसे 27696
अध 27669
ण@@ 27609
राम 27555
कोई 27527
लोगों 27496
ष@@ 27440
अक 27204
महत 27194
शा@@ 27154
नी@@ 27106
टा@@ 26890
हा@@ 26785
बढ 26749
ञान 26719
रु@@ 26700
मक 26624
उपयोग 26562
पार 26559
मण 26535
अल 26428
दा 26411
जीवन 26370
हिन 26366
वाली 26254
भा@@ 26224
डी 25946
पो@@ 25938
तों 25795
बल 25792
िल 25763
जाते 25746
मध 25701
कै@@ 25666
रू@@ 25649
ंग@@ 25647
चार 25390
करण 25349
&#124; 25310
लक 25271
छ@@ 25236
पे@@ 25199
नगर 25197
दोनों 25174
कि@@ 25173
आदि 25112
डे@@ 24942
बो@@ 24864
सिंह 24784
टे@@ 24775
जी@@ 24741
बि@@ 24675
शब 24547
मूल 24527
शहर 24496
लिये 24484
उप@@ 24442
लगभग 24406
वार 24381
काल 24346
रयोग 24219
दौरान 24186
यहाँ 24054
चा@@ 24004
हि@@ 23953
विज 23915
साहित 23741
यु@@ 23712
रेस 23702
तन 23629
अंग 23626
ओर 23494
ि@@ 23485
वी@@ 23320
सरकार 23298
दे@@ 23293
शक 23171
डल 23137
अब 23120
तीन 23085
खा@@ 22947
पि@@ 22940
शुरू 22915
फिर 22847
1 22818
ों 22816
ठ 22783
रण 22745
लोग 22684
पन 22634
लों 22612
नो@@ 22609
पास 22555
% 22547
षिण 22486
जिसे 22445
मै@@ 22422
ंस 22380
कृत 22344
अलग 22320
हर 22316
बु@@ 22291
ी@@ 22250
विकास 22223
महा@@ 22203
रति@@ 22171
मे 22128
जे@@ 22015
ं 22006
शि@@ 21782
टि@@ 21770
युद 21729
यान 21679
करती 21602
ऑफ 21553
वस 21379
गर 21279
े@@ 21207
ो@@ 21058
वा 21044
राज@@ 20974
केवल 20931
डा@@ 20922
अंतर 20907
यम 20866
जिन 20825
दिन 20807
तु 20774
जाना 20713
ँ@@ 20661
जर 20640
रिकेट 20614
कल 20572
सकते 20563
बी 20553
पै@@ 20507
विशेष 20477
परि@@ 20451
मंदिर 20444
इसकी 20427
टो@@ 20362
ठ@@ 20285
टा 20257
घ@@ 20190
पद 19976
ंड 19968
&amp; 19926
हे@@ 19856
विस 19822
मान@@ 19792
सिद 19731
कभी 19576
वीं 19454
ंट 19425
रे 19406
उनका 19334
विभिन 19323
सदस 19317
टीम 19312
रदर 19219
2 19217
मी@@ 19139
इतिहास 19127
दु@@ 19120
संख 19108
चर 19053
रता 18958
योंकि 18953
साल 18952
उच 18904
इसमें 18898
पी 18765
धि 18761
कर@@ 18680
नदी 18604
सू@@ 18565
वपूर 18531
माना 18498
अपना 18422
हार 18392
इसी 18378
डी@@ 18339
योग 18334
राजा 18320
कहते 18274
हो@@ 18272
यो@@ 18257
िया 18255
पर@@ 18240
डि@@ 18236
हालांकि 18211
थिति 18176
रही 18131
जि@@ 18116
हिस 18101
कुल 18057
पु@@ 18057
तत 18049
कन 17976
तु@@ 17925
किए 17888
दिल 17839
वाला 17834
षित 17830
लैंड 17703
रसिद 17645
चि@@ 17557
रथम 17501
आ 17422
टन 17390
ार 17359
रित 17357
अव@@ 17345
॰ 17310
तब 17301
दि@@ 17253
वविद 17241
पहली 17220
ओं 17205
ो 17120
सत 17061
आवश 17031
रदान 17012
वत 16974
ते@@ 16960
मों 16897
पुरस 16893
अस 16862
मिक 16836
रन 16767
रिय 16604
वै@@ 16595
बै@@ 16588
यता 16561
बना 16542
एस 16533
संयुक 16450
कृष 16434
अं@@ 16373
वन 16356
पक 16334
दूसरे 16332
जिसके 16319
अमेरिका 16276
गि@@ 16271
दी@@ 16260
जल 16258
की@@ 16224
तियों 16196
केंद 16185
वाद 16176
भू@@ 16119
० 16090
अप@@ 16080
ु@@ 16042
थापित 16023
सक 16002
दे 15990
गा 15984
ीय 15906
समर 15879
ु 15875
उल 15859
टेशन 15807
भर 15806
२ 15724
तमान 15711
उसकी 15697
ार@@ 15646
था@@ 15630
जबकि 15591
सामान 15575
यहां 15544
नर 15511
संग 15508
है@@ 15506
फि@@ 15490
मात 15485
अप 15448
ताओं 15440
रै@@ 15390
टि 15376
दो@@ 15304
जिसका 15289
खु@@ 15281
यन 15267
तर@@ 15266
पाकिस 15194
बच 15158
सभा 15156
लड 15140
मित 15079
आज 15060
3 15034
फे@@ 14994
डा 14949
माध 14879
ंद 14871
१ 14855
थापना 14832
ंड@@ 14724
झ@@ 14718
तौर 14708
िले 14708
यू 14680
एं 14674
कॉ@@ 14642
शे@@ 14626
ित 14626
जो@@ 14620
यर 14608
समूह 14572
सम@@ 14568
’ 14563
रति 14540
एल 14500
अत 14466
आई@@ 14433
‘ 14432
पिता 14423
रिक 14419
देशों 14390
मर 14377
५ 14343
घर 14331
गढ 14328
मंत 14321
गयी 14276
रखा 14241
यवस 14237
दों 14234
मृत 14228
बनाया 14220
नामक 14196
ती@@ 14194
अनेक 14180
दार 14180
आधार 14151
ियाँ 14100
पुस 14086
कोड 14045
यास 14010
बारे 13992
जु@@ 13974
उसने 13954
टिक 13953
परिवार 13874
लै@@ 13874
विक 13837
सेना 13829
एँ 13772
चाहिए 13749
देने 13748
यी 13727
चक 13711
बात 13707
आम 13670
धा@@ 13551
ययन 13548
जारी 13515
तार 13500
20 13481
संगीत 13457
बिहार 13448
ऐ@@ 13438
सै@@ 13426
वक 13417
वों 13402
सेवा 13401
उपलब 13391
षक 13354
ढ@@ 13321
लम 13281
रो 13275
िया@@ 13272
शास 13267
ऐसा 13243
अच 13166
षों 13160
कता 13149
यु 13117
जिला 13067
सकती 13057
लेख 13043
इं@@ 13039
पू@@ 12988
रान 12948
रभाव 12901
पुत 12893
राम@@ 12889
राचीन 12885
लु@@ 12884
चे@@ 12878
केन 12869
दूर 12859
दृष 12851
ऐसे 12836
जहां 12813
डो@@ 12797
महिला 12778
आई 12748
मस 12742
बनाने 12709
अभि@@ 12704
चिम 12676
एस@@ 12666
परिवर 12633
थीं 12631
अलावा 12607
छोड 12604
लन 12581
रह@@ 12571
दुर 12489
वादी 12486
अफ 12400
देता 12365
चन 12357
4 12333
कला 12329
चौ@@ 12316
चा 12315
भूमिका 12305
मैच 12271
करके 12270
पादन 12232
शी 12230
कृति 12227
माता 12203
लर 12177
तराखण 12170
चे 12161
मत 12161
जुड 12154
निम 12128
चिकित 12111
गी 12109
जिससे 12095
येक 12083
खिलाफ 12075
जन@@ 12072
सार 12068
ऑस 12020
यदि 12019
३ 11996
धा 11990
वतंत 11961
धार 11941
कंपनी 11922
रोग 11919
पता 11912
5 11866
काफी 11842
अन@@ 11838
सामाजिक 11814
समस 11807
दुनिया 11747
कूल 11735
लेकर 11704
दू 11700
३@@ 11651
चुनाव 11645
ीन 11644
वान 11631
उसका 11629
फै@@ 11572
जिस 11558
तरी 11512
लू@@ 11507
हस 11493
कप 11477
निक@@ 11474
रण@@ 11456
ि 11451
नई 11449
हम 11435
ू 11413
शताब 11402
10 11393
फा@@ 11367
कड 11361
रिटिश 11354
पहला 11348
चु@@ 11339
लाल 11339
जोड 11331
गये 11319
परीक 11310
रॉ@@ 11293
अथवा 11273
टों 11269
आन 11267
ौ@@ 11255
सुरक 11252
ओ 11249
सह@@ 11220
पानी 11194
खेल 11167
ोर 11151
समान 11132
०@@ 11115
४ 11107
७ 11105
पह@@ 11071
इंग 11067
6 11062
इसलिए 11057
किये 11054
पति 11018
शुरुआत 11015
आगे 10963
धन 10961
अमेरिकी 10958
छोटे 10949
ंत 10942
जहाँ 10942
थि@@ 10924
– 10895
तेमाल 10880
गे@@ 10874
रणाली 10870
वरूप 10869
उम 10867
= 10857
एम@@ 10843
आधारित 10828
सर@@ 10802
नु@@ 10800
ंक 10752
६ 10744
रेन 10693
रकाशित 10691
पा 10687
छा 10680
वीप 10678
ान 10673
तित 10593
उदाहरण 10591
रेज 10573
लगा 10535
टिंग 10533
साम 10473
रेलवे 10472
९ 10468
जनवरी 10456
समाज 10424
पूरी 10407
इससे 10394
फर 10391
राजस 10390
मुक 10384
समा@@ 10379
बाहर 10345
इनके 10325
अंत 10306
दू@@ 10302
मू@@ 10281
शासन 10274
नियंत 10258
सिस 10245
विकसित 10210
ू@@ 10193
खो@@ 10185
होगा 10181
ऑ@@ 10175
वो 10168
मद 10167
लोक 10161
गांव 10157
कू@@ 10149
ही@@ 10140
निक 10114
राइ@@ 10106
कारों 10074
पदार 10054
कार@@ 10001
छा@@ 10001
ूर 9999
रहता 9979
भगवान 9971
बहु@@ 9965
संघ 9963
दस 9958
थन 9951
दशक 9939
बनी 9935
८ 9923
मुद 9921
थल 9900
रेणी 9900
निया 9899
सौ@@ 9889
बने 9887
वित 9856
नाथ 9845
रंग 9804
सब 9803
आत 9797
देते 9797
जिनमें 9783
रहते 9773
अतिरिक 9710
आधुनिक 9705
! 9701
होकर 9689
नक 9679
मं@@ 9670
बा 9668
एम 9641
हा 9641
अधिकांश 9639
दन 9638
मानित 9621
मई 9592
रृंखला 9587
शरीर 9580
शीर 9580
निश 9578
रमण 9575
वाल 9568
बन@@ 9551
ाई 9544
रेजी 9520
रात 9512
gt 9500
लोकप 9479
लता 9478
थिक 9461
रम@@ 9456
ियां 9451
अगस 9438
नए 9420
डे 9403
शर 9401
देखा 9396
टै@@ 9343
यिक 9337
ारा 9335
नो 9312
यादा 9306
ढ 9298
तंत 9294
णन 9282
बांग 9268
रवा@@ 9267
लिंग 9255
संक 9249
बस 9240
टूबर 9234
देव 9230
रास 9185
तो@@ 9182
मिल 9172
तम 9165
अधिकार 9139
५@@ 9133
डर 9130
हु@@ 9122
lt 9121
मानव 9115
इन@@ 9113
उसी 9113
एन@@ 9086
६@@ 9079
दूसरी 9059
विभाग 9056
लगा@@ 9053
भिन 9043
रैल 9037
सूर 9021
रां@@ 8987
आप 8981
वाचन 8979
संबंध 8976
जून 8970
मल 8966
णा@@ 8960
चीन 8939
भूमि 8935
जगह 8931
the 8925
मिश 8911
राजधानी 8907
जुलाई 8900
देवी 8889
पूरा 8888
ऊपर 8877
-@@ 8852
चिमी 8825
तव 8823
वैज 8805
रोत 8803
लो 8787
दान 8786
घा@@ 8783
ठा 8771
धान 8767
फो@@ 8758
राजनीतिक 8753
पल 8743
विचार 8743
of 8742
पष 8740
सूची 8734
तैयार 8723
दल 8716
विषय 8705
बिना 8702
सों 8701
सप 8686
ची 8684
मीटर 8681
जों 8672
शु@@ 8672
ै@@ 8649
अग 8643
णा 8638
सल 8630
सीमा 8618
जीत 8617
टेस 8605
यार 8598
शो@@ 8582
हों 8567
साइ@@ 8562
किन 8556
विधानसभा 8554
लेने 8551
युग 8548
शी@@ 8540
रचना 8526
४@@ 8514
राय 8509
धि@@ 8499
२@@ 8496
टे 8495
ञानिक 8487
तीय 8479
युत 8479
पृथ 8474
दास 8470
वयं 8467
कीय 8462
निष 8461
अंतिम 8458
खिलाड 8453
धी 8445
लिखा 8442
लौ@@ 8416
लाइ@@ 8409
चों 8404
जनसंख 8388
9 8386
गै@@ 8384
आकर 8381
कारी 8367
ञ 8365
थानीय 8360
हत 8360
षी 8348
कोर 8346
भक 8337
रपति 8333
जे 8322
वृद 8316
उर 8301
ॅ@@ 8301
समुद 8294
सहायता 8291
योजना 8280
टूर 8269
हल 8252
आने 8241
युक 8240
नीचे 8238
मार@@ 8212
रेट 8211
8 8203
रिय@@ 8201
८@@ 8165
7 8162
िय@@ 8147
लं@@ 8144
मूर 8142
यापक 8142
करा@@ 8135
७@@ 8124
ऐसी 8105
संगठन 8100
कहानी 8099
भे@@ 8099
कांग 8094
ॉर 8089
होना 8082
१८@@ 8080
समाप 8074
हिंदी 8065
पढ 8046
ंद@@ 8029
छात 8029
अभी 8019
टल 8019
पात 8013
पाया 8010
तुलना 8007
कॉलेज 8004
रहने 8004
तरा@@ 7996
चंद 7995
लू 7986
रकाश 7978
बम 7944
आक 7936
रवेश 7928
पण 7925
नै@@ 7917
वें 7917
मिला 7906
शैली 7897
गौ@@ 7890
रव 7882
15 7876
नाटक 7873
भाई 7871
भी@@ 7869
रिस 7869
लीग 7836
ची@@ 7821
वितीय 7820
किलोमीटर 7814
पूरे 7810
लॉ@@ 7805
खे@@ 7802
चात 7801
विशिष 7787
रभावित 7780
सहित 7766
षमता 7757
सदी 7752
दूरी 7742
नन 7741
रं@@ 7740
दृश 7738
अवधि 7735
वार@@ 7735
सिर 7706
12 7701
हे 7692
अवस 7689
संबंधित 7672
जै@@ 7665
पॉ@@ 7663
१@@ 7663
पहाड 7648
णु 7639
एंड 7637
वं@@ 7636
वल 7634
एन 7627
सूत 7623
मौ@@ 7621
रयास 7611
किंग 7607
वश 7604
घु@@ 7593
लगे 7586
2008 7585
बॉ@@ 7577
णी 7576
िक 7574
आबादी 7571
किमी 7561
सब@@ 7561
कुमाऊँ 7553
विधि 7547
देव@@ 7543
यत 7543
ऐतिहासिक 7527
९@@ 7524
मह@@ 7517
ऊ@@ 7513
मिलता 7510
मुस 7509
धित 7508
पोर 7507
बुद 7506
मैं 7501
बोर 7500
बे 7496
वहाँ 7496
रानी 7494
उड 7487
0 7484
यकता 7481
णों 7480
कं@@ 7479
षा@@ 7469
खान 7459
इनमें 7456
यंत 7451
रीका 7444
वंश 7426
पित 7401
रियों 7401
रिया@@ 7399
भु@@ 7398
आर@@ 7384
गति 7367
तः 7362
२००@@ 7361
पं@@ 7356
राय@@ 7356
रेष 7348
सिक 7344
तहत 7328
काव 7327
घोषणा 7323
यापार 7317
रहती 7310
लाम 7288
2007 7286
मैन 7286
एं@@ 7282
तुत 7268
वीकार 7266
आकार 7262
दिए 7259
विधान 7252
कृ@@ 7249
कला@@ 7244
अधि@@ 7238
सिं@@ 7238
आता 7235
मेंट 7231
लिम 7223
शा 7223
पुरुष 7220
विन 7217
बू@@ 7216
दूसरा 7215
जनगणना 7198
आते 7188
चरण 7184
हाल 7172
आयोजित 7169
सके 7166
हाथ 7124
गीत 7123
नियम 7120
ऊर 7083
ंगे 7073
नौ@@ 7072
मदद 7067
रेलिया 7065
19 7052
लिस 7042
एशिया 7040
थे@@ 7038
बौद 7038
जिसने 7025
लादेश 7009
टार 7004
बनाए 6997
टर@@ 6990
गुप 6985
इनका 6980
तिक 6977
दिखाई 6977
विवाह 6957
तियाँ 6953
जू@@ 6949
2018 6947
टो 6945
मॉ@@ 6917
2019 6909
चल 6887
ारों 6887
थात 6884
बाल 6884
थर 6881
जाए 6872
टम 6869
कालीन 6840
आया 6839
जाति 6831
खा 6827
तल 6809
2009 6808
नामेंट 6802
हेतु 6800
चो@@ 6790
ौर 6787
औ@@ 6783
धांत 6783
एल@@ 6776
लास 6772
रखने 6758
याय 6752
गन 6747
ारी 6746
तुम 6745
30 6740
बताया 6731
सामने 6726
हॉ@@ 6724
अंतरराष 6723
जान@@ 6717
विष 6708
शादी 6706
बैंक 6695
थानों 6694
महिलाओं 6682
11 6677
मिली 6672
रारंभिक 6670
ंच@@ 6661
वो@@ 6644
जल@@ 6633
उपन 6631
पांच 6629
ियन 6625
ञा@@ 6618
डन 6612
लिन 6612
राह 6601
साक 6598
रप 6592
नियुक 6585
पुलिस 6580
भाव 6575
रशिक 6570
कश 6567
बंद 6567
लिक 6547
मास 6534
नेतृत 6531
पुनर 6520
ये@@ 6517
कवि 6514
कुमार 6504
नि 6477
हवाई 6477
‌ 6472
रेल 6471
कक 6465
नस 6463
हम@@ 6456
ंज 6446
बं@@ 6445
चला 6443
अम 6437
रद 6417
धार@@ 6415
नात 6409
सात 6399
घटना 6396
किस 6390
शाह 6385
कस 6381
सांस 6377
रिका 6373
परिषद 6371
बह@@ 6364
फरवरी 6359
रिकॉर 6355
सफल 6355
रंग@@ 6350
लग@@ 6349
ंडर 6348
लेखक 6347
पैदा 6346
राकृतिक 6346
लने 6336
ीं 6334
जीव 6332
18 6329
दिशा 6327
बर@@ 6326
संरक 6326
7@@ 6310
डॉ 6309
मीर 6307
वेस 6294
छत 6289
नीति 6282
यद 6281
बंगाल 6277
मनुष 6276
मिलियन 6274
अरब 6261
वती 6257
यवहार 6247
पार@@ 6244
गों 6243
नृत 6235
रल 6234
सितंबर 6223
ें 6218
हित 6215
गैर 6205
जानकारी 6201
वापस 6201
वामी 6198
२०१@@ 6193
ईस 6191
जित 6182
खड 6177
2006 6176
लेक 6171
जनता 6170
आश 6161
लाभ 6160
गार 6148
गोल 6146
छि@@ 6142
षिणी 6141
वजनिक 6132
ंडा 6123
25 6122
हन 6114
दिनों 6104
मनी 6104
छोटी 6099
सैन 6098
नल 6087
समुदाय 6065
यूरोप 6057
भि@@ 6056
रच@@ 6056
सड 6040
रांत 6036
भीतर 6009
हासिल 6006
पुष 6004
राव 5979
खि@@ 5977
वेल 5970
ँ 5962
कानून 5952
एच@@ 5941
पाल 5933
कथा 5931
वृत 5928
14 5927
बार@@ 5926
कब 5923
इनकी 5921
निस 5919
चै@@ 5918
खोज 5917
लाया 5915
आमतौर 5911
अगर 5901
अड 5893
शित 5893
बजे 5891
देती 5886
लब 5884
धीरे 5880
सरकारी 5880
छी 5878
सामग 5874
ठी 5868
वीर 5861
16 5860
पहचान 5857
राजमार 5853
मन@@ 5845
शिव 5841
पीछे 5829
इलेक 5822
कृतिक 5815
टॉ@@ 5812
सिटी 5811
रतिशत 5804
षिक 5803
जिम 5801
गी@@ 5783
2010 5781
उपस 5767
चले 5763
कृषि 5758
जिसकी 5756
तू@@ 5756
मेल 5749
तरफ 5747
मिस 5734
नग@@ 5728
नाग@@ 5727
नीय 5727
वाड 5719
१९९@@ 5708
समिति 5707
बद 5704
लाइन 5704
पाठ 5691
दिसंबर 5682
परिणाम 5670
लगता 5668
सागर 5665
यही 5663
परा@@ 5650
? 5648
रहण 5644
१९@@ 5643
समझ@@ 5625
जैसा 5624
सहायक 5623
अभिनय 5619
नवंबर 5617
बिल 5607
लित 5606
डिग 5596
शै@@ 5595
चीनी 5593
लाख 5586
महान 5585
अनुसंधान 5583
ईसा 5581
5@@ 5576
मौजूद 5571
कंप 5569
वर@@ 5569
खर 5565
टीवी 5565
फु@@ 5559
ठा@@ 5558
गं@@ 5554
रौद 5548
सेंट 5546
कमी 5541
मां@@ 5539
नलिखित 5538
पंजाब 5535
खुद 5534
रख@@ 5533
ञात 5526
साधारण 5521
आप@@ 5520
तिगत 5509
लोक@@ 5502
अकादमी 5499
ताकि 5499
बद@@ 5495
जीता 5493
जैन 5487
टाइ@@ 5478
वजह 5475
तानी 5473
21 5464
अपेक 5464
बिन 5461
तुओं 5457
आधिकारिक 5455
यतः 5454
घट@@ 5453
टेक 5449
तीर 5438
निजी 5436
ः 5430
गुरु 5429
निय@@ 5426
पाद 5426
सिन 5414
थों 5407
हर@@ 5405
रांस 5401
भाषाओं 5388
नता 5382
रिलीज 5371
बदल 5358
औसत 5353
नव@@ 5352
याप 5350
धारित 5349
रेम 5346
धारा 5345
जाएगा 5340
षे@@ 5338
एकल 5337
आंदोलन 5335
योगदान 5335
नेपाल 5333
बाहरी 5328
एक@@ 5327
रेड 5327
यूरोपीय 5324
विशाल 5324
धु@@ 5322
पिक 5322
उससे 5318
17 5311
िला 5310
बाजार 5305
जय@@ 5290
हरा 5290
सां@@ 5289
यूटर 5287
वेद 5286
लय 5281
अनुमति 5270
रेक 5264
रु 5261
6@@ 5256
उनमें 5256
खंड 5256
वहां 5254
रमा@@ 5253
दिर 5251
गम 5249
पट 5241
पृष 5240
भार@@ 5238
जैसी 5230
मुंबई 5228
फी@@ 5226
रोक 5214
किंतु 5213
हरा@@ 5208
अली 5202
2014 5200
गल 5200
पालन 5199
नें 5198
सूचना 5197
इस@@ 5194
पूजा 5192
यस 5190
2011 5186
कान 5182
मंडल 5181
2016 5180
नपुर 5177
हाइड 5174
रिश 5173
ऋ@@ 5166
ठीक 5164
इल 5161
णय 5156
चू@@ 5150
लियों 5145
नत 5144
रबंधन 5143
_ 5139
विजय 5139
2017 5138
लाई 5137
दित 5136
चुके 5131
दर@@ 5130
सेन 5126
फोर 5125
13 5124
विल 5121
शान 5121
डब 5113
संचालित 5106
रधान 5104
संदर 5103
देखने 5093
विरोध 5092
सीमित 5089
कविता 5088
आसपास 5076
अनुवाद 5075
8@@ 5072
लग 5067
आस 5065
रतियोगिता 5065
2005 5064
and 5057
फल 5047
पेक 5038
लागू 5034
ियो@@ 5031
ंगा 5025
लगाया 5022
रीन 5013
मामले 5012
धी@@ 5011
एफ@@ 5003
अंग@@ 5000
काओं 5000
सफलता 4999
बेल 4995
जग@@ 4980
कह@@ 4970
देश@@ 4966
मनो@@ 4963
सुधार 4958
लाने 4956
नेटवर 4954
करें 4951
शासक 4945
चलता 4944
छ 4935
शल 4926
०० 4922
पटना 4921
नेट 4917
महीने 4911
+ 4910
तियां 4907
संघर 4902
इंडिया 4898
भोजन 4898
फू@@ 4893
भिक 4882
योगिकी 4882
,@@ 4866
भो@@ 4865
सॉफ 4863
बंधित 4862
इत 4861
शो 4861
महाराष 4859
गंज 4857
बावजूद 4853
जॉन 4844
पहुँ@@ 4843
9@@ 4842
मिलती 4841
शुक 4838
लिय@@ 4837
बनाई 4834
ृ@@ 4833
नया 4828
रू 4828
उठा@@ 4823
ऑक 4820
गंगा 4819
मोड 4818
गो 4817
तविक 4803
तं@@ 4799
भारी 4799
शुद 4799
2012 4798
घंटे 4796
घ 4788
सेल 4784
पना 4782
शिष 4778
बैंड 4771
जापान 4770
षम 4770
परन 4761
पाए 4760
रिटेन 4756
अधिनियम 4746
भार 4745
कहीं 4742
रुप 4738
डिंग 4735
आं@@ 4734
षर 4733
चरित 4732
सुन 4732
लेट 4726
संबंधी 4724
आए 4722
धारण 4721
2000 4720
मॉडल 4713
संभव 4711
ारि@@ 4710
रयुक 4709
छह 4705
अभिनेता 4699
पुरा@@ 4691
नाओं 4685
याख 4679
तमिल 4677
१९८@@ 4677
आय@@ 4675
गठन 4671
आती 4667
संकेत 4660
राट 4650
मिट 4649
झील 4646
परम 4646
तुर 4642
शिव@@ 4641
नम 4637
शों 4635
50 4630
पेन 4630
2020 4629
तें 4628
24 4622
4@@ 4621
रेखा 4609
मिनट 4607
परंतु 4606
हिंदू 4602
करोड 4601
माल 4592
पीड 4589
in 4584
कोशिश 4582
उपचार 4581
लस 4580
रिपोर 4579
परिचय 4572
संरचना 4568
दियों 4564
आरम 4562
रतिनिधित 4562
विवरण 4560
परियोजना 4559
घो@@ 4556
माँ 4554
वज 4547
100 4546
गड 4545
टू@@ 4538
रूस 4537
णित 4533
छोटा 4527
मीडिया 4524
मामलों 4523
दत 4521
22 4514
अम@@ 4511
हरे 4511
होगी 4506
मानते 4499
मील 4498
झा@@ 4496
माने 4489
रसाद 4484
रिज 4475
तट 4470
मुरादाबाद 4470
तृत 4468
नेता 4467
लकर 4466
ंगी 4465
डॉ@@ 4465
रोड 4465
रतिक 4463
लेखन 4461
आइ@@ 4457
कौ@@ 4457
विपरीत 4455
तेज 4449
a 4446
2015 4443
बंध@@ 4442
अधिकारी 4441
3@@ 4439
तै@@ 4429
भव 4428
संविधान 4409
एफ 4407
जान 4401
अभियान 4395
दीन 4395
सही 4395
भागों 4394
ेक 4390
शकों 4382
ारे 4380
2004 4379
रि 4378
देना 4377
महल 4375
रत@@ 4375
लते 4375
रका@@ 4369
आयोजन 4363
पुराने 4363
रकाशन 4355
लेषण 4354
सहयोग 4351
चिन 4350
अनुभव 4346
एयर@@ 4344
ऊ 4341
खों 4340
राव@@ 4339
कम@@ 4334
रतिष 4332
रकृति 4330
पों 4329
आईसीसी 4328
अगले 4326
याओं 4321
ियर 4321
खण 4320
पाई 4311
वॉ@@ 4308
नियों 4299
गुरु@@ 4295
आचार 4291
पुरी 4290
घोषित 4289
शं@@ 4289
डॉलर 4286
फाइनल 4284
१९७@@ 4283
नू@@ 4279
लि 4276
कोट 4274
लगातार 4273
फा 4271
इच 4266
वेक 4266
लेते 4265
चुका 4260
काम@@ 4250
मुहम 4250
विधायक 4245
पेट 4244
पदक 4243
ॉ@@ 4243
भविष 4240
मेन 4236
वीडियो 4236
तेल 4235
2013 4234
शाखा 4232
शाही 4232
रश 4227
कित 4226
भाषा@@ 4225
ओलंपिक 4221
संसद 4221
आयु 4217
डु@@ 4211
लंदन 4211
रतिस 4208
बनने 4201
सक@@ 4200
रचित 4199
गुण 4195
जय 4194
सिल 4192
लती 4183
गांधी 4182
समीक 4181
अतः 4177
2021 4176
घरेलू 4171
धिक 4170
s 4168
उसमें 4158
विभाजित 4158
निवास 4153
पिछले 4153
विदेशी 4152
दौर 4146
करीब 4143
लेस 4143
अर@@ 4142
खेलों 4134
भवन 4134
लगी 4133
बाज 4132
शस 4125
रंथ 4123
रशासनिक 4123
नामित 4121
राजनीति 4116
गुजरात 4115
यादि 4112
वायु 4112
अज 4110
योगिक 4110
षेप 4107
जम 4100
योज@@ 4097
लीय 4096
रज 4092
किनारे 4090
इसने 4087
यि@@ 4087
बोली 4086
निकट 4085
सेट 4085
गण@@ 4084
२० 4083
आदेश 4081
नेस 4081
धो@@ 4080
रखते 4080
कथा@@ 4076
B@@ 4075
जिनके 4075
लाह 4074
शेष 4069
“ 4067
छु@@ 4065
डिजाइन 4065
$ 4061
पकड 4061
भेद 4061
वालों 4057
युवा 4052
सूक 4052
बू 4049
टिन 4046
चारों 4042
यायालय 4039
फॉर 4030
दौरा 4028
रौ@@ 4028
मत@@ 4023
इलाहाबाद 4022
टने 4019
आठ 4009
रचलित 4000
सुविधा 4000
मेट 3999
पवित 3996
यूज 3993
उपकरण 3992
मिलकर 3992
23 3989
मानक 3983
चुना 3982
माइक 3980
परिणामस 3979
थायी 3978
वृ@@ 3972
थोड 3971
शोध 3971
विशेष@@ 3968
ै 3966
” 3966
पारंपरिक 3965
हमारे 3965
बिक 3960
कट 3956
टु@@ 3955
ताव 3953
ताक 3952
केट 3948
रार 3947
लें 3944
तस 3941
अनुमान 3940
यम@@ 3940
ाने 3939
मैचों 3935
निवे@@ 3934
मंग@@ 3929
नारायण 3923
अभिनेत 3920
तरीके 3920
वाधिक 3920
नार 3917
नाइट 3916
ंस@@ 3915
रारंभ 3915
सारे 3915
H@@ 3906
यपि 3905
खेला 3904
औद 3898
चेन 3898
दिसम 3895
आदर 3894
रवर 3893
26 3892
ंक@@ 3892
वप 3892
ः@@ 3891
दावा 3890
रिंग 3890
हरी 3889
नाइ@@ 3888
​ 3886
लिखी 3880
पाँच 3874
रोह 3874
नान 3873
१९६@@ 3868
रख 3867
है- 3867
दै@@ 3863
यवसाय 3858
यादातर 3856
वली 3849
बता@@ 3845
नेवाले 3842
रीलंका 3840
भावना 3838
तकों 3837
छे 3836
लपुर 3836
गैस 3833
वृक 3831
दिखा@@ 3828
15@@ 3825
आगरा 3824
रेशन 3823
अभ 3818
समाचार 3815
आग 3810
टेल 3810
राथमिक 3807
विकेट 3803
पट@@ 3800
विख 3799
टिस 3798
फोन 3796
चैनल 3795
मौत 3794
नवम 3791
नागरिक 3790
नियमित 3790
रीक 3789
नातक 3786
अना@@ 3784
शील 3784
टस 3778
लेखनीय 3778
बजाय 3774
जिन@@ 3773
अधीन 3771
लेन 3771
28 3769
रतीक 3768
बना@@ 3767
पथ 3763
ंडी 3759
थियों 3757
2003 3756
ूल 3755
I 3752
मानी 3751
हिं@@ 3746
गिर@@ 3744
संपर 3743
आध@@ 3741
40 3740
लिपि 3740
कलाकार 3732
मना@@ 3732
खाने 3731
थाओं 3731
घाट 3727
डिस 3726
कॉर 3724
निभा@@ 3724
रेरित 3722
अवसर 3721
D@@ 3719
बाई 3719
दोस 3718
कारक 3714
रचार 3713
वां 3711
2002 3709
साइड 3709
2001 3708
लेता 3708
27 3703
इ 3703
संत 3703
धों 3698
मंड@@ 3695
अस@@ 3694
आरंभ 3693
सार@@ 3693
यधिक 3689
सामना 3689
धियों 3684
अद 3680
नॉ@@ 3680
विकल 3677
रज@@ 3676
रामीण 3675
थो@@ 3666
वैश 3665
दु 3664
बई 3663
P@@ 3661
वाक 3660
मिलते 3659
हमेशा 3659
घाटी 3658
१० 3658
संचार 3652
फी 3649
सुन@@ 3648
तरण 3647
भट 3646
M@@ 3645
N@@ 3645
विवाद 3643
पुरा 3641
थितियों 3640
लामी 3638
खाद 3636
षि@@ 3634
उप 3633
ईश 3631
पुनः 3631
रशासन 3625
आँ@@ 3621
लना 3616
निवेश 3615
देख@@ 3613
1990 3609
मैदान 3609
तृ@@ 3608
टेट 3606
रचना@@ 3606
रैक 3605
हरि@@ 3604
जॉर 3603
विध@@ 3603
बां@@ 3601
नष 3599
तीसगढ 3598
रोज 3596
जनरल 3595
पेश 3590
एकमात 3588
खी 3587
देशक 3587
बाजी 3582
अति@@ 3581
जिनका 3579
जीवित 3575
रमा 3575
परिस 3569
नेशनल 3568
रधानमंत 3567
लिखित 3567
याय@@ 3562
मैक 3561
किल 3555
वायु@@ 3553
एड@@ 3552
दिवसीय 3552
मधु@@ 3551
१७@@ 3551
रमों 3545
2@@ 3542
कनाडा 3538
खंड@@ 3536
तीसरे 3536
धति 3535
वेन 3534
परमाणु 3533
बिया 3531
संपत 3531
बों 3528
मोर 3528
हराया 3528
पेड 3524
चाहते 3518
वाइ@@ 3514
अंतरिक 3513
यज 3513
ताप 3510
वेश 3509
अधिकतर 3504
ंब@@ 3503
बैठ@@ 3500
भर@@ 3498
ॉ 3495
रेडियो 3494
उपा@@ 3490
एका@@ 3488
हीं 3487
टेड 3480
विष@@ 3480
टता 3478
णि@@ 3478
पे 3477
यो 3476
आलोचना 3469
जांच 3469
मू 3468
इंड@@ 3462
रुद 3460
वाई 3457
मिले 3455
बेटे 3454
निंग 3448
बत 3447
माइ@@ 3446
राशि 3444
हाउस 3444
पुरुषों 3435
गेम 3434
सव 3434
बेहतर 3432
यमान 3429
गणित 3426
रकट 3425
काल@@ 3421
ढा@@ 3421
रिकेटर 3420
शू@@ 3420
चढ 3416
चुकी 3416
शय 3416
टक 3414
जनक 3410
ंडे@@ 3409
रारम 3406
लियन 3406
नायक 3405
इंजन 3404
तापमान 3404
तात 3403
षणों 3403
करियर 3399
पताल 3398
याद 3398
केरल 3397
परिक 3396
परंपरा 3392
दम 3391
जेल 3389
मांग 3388
ईसाई 3384
जिद 3384
सिंग 3381
यौ@@ 3380
कीर 3376
फाइ@@ 3373
बराबर 3369
लंबे 3367
गल@@ 3366
टवेयर 3365
नज 3365
लार 3361
सैनिक 3361
रभा@@ 3360
10@@ 3356
महासागर 3355
हद 3350
समारोह 3349
केश 3348
परे@@ 3340
शहरों 3340
T@@ 3338
अंदर 3334
संचालन 3334
... 3332
टाइम 3332
मेलन 3330
हालाँकि 3330
मियों 3323
G@@ 3319
दारी 3319
ंच 3318
रासायनिक 3316
तीव 3314
विमान 3314
पंच@@ 3310
गंभीर 3302
टिकोण 3302
वां@@ 3301
वहीं 3300
अंड@@ 3299
ंप@@ 3298
धिकार 3297
मिलित 3292
लिका 3292
इज 3291
विषयों 3288
मौसम 3283
उनसे 3280
यावरण 3279
लगाने 3279
to 3275
तारा 3275
0@@ 3273
टियों 3271
मिन 3271
उन@@ 3269
देख 3268
भूमि@@ 3265
मंच 3265
मां 3265
रांति 3263
डो 3261
मृ@@ 3260
आयोग 3259
विलियम 3259
कत 3256
रालय 3255
रोम 3254
अरबी 3253
समाज@@ 3251
तथ 3250
बाँ@@ 3249
१९५@@ 3247
थापक 3245
जड 3243
पारि@@ 3243
भौतिक 3243
शारीरिक 3243
सान 3242
विवा@@ 3240
इतना 3239
महाद 3239
देखें 3237
यूट 3235
C@@ 3233
महाराज 3233
रायः 3233
घटनाओं 3230
थव 3227
डिज 3225
कल@@ 3224
अभ@@ 3223
लागत 3223
सितम 3223
ताल 3213
दिख@@ 3213
ञा 3211
पाने 3211
लिखे 3211
समूहों 3210
हमला 3210
किले 3209
तना 3208
तोड 3208
हैं- 3205
पुल 3204
एच 3202
वन@@ 3198
फॉ@@ 3197
हान 3196
बेटी 3193
मोहन 3193
वाणिज 3193
मक@@ 3185
सुल 3185
यकार 3181
डाय@@ 3180
कपड 3178
वही 3178
तकनीक 3175
परिसर 3174
संप 3174
दिक 3172
साध@@ 3172
सीधे 3171
अंक 3170
टू 3170
गे 3169
धक 3165
कपूर 3164
विरोधी 3164
चली 3162
सेक 3162
मय 3161
ताह 3159
फुटबॉल 3159
विभाजन 3158
दिखाया 3157
पान 3157
दुल 3156
अधिकारियों 3155
इक 3154
नाट@@ 3154
१९४@@ 3154
मिलने 3153
माल@@ 3151
सच 3150
षीय 3148
सें@@ 3147
गाने 3145
ंसी 3144
रॉन 3144
भग@@ 3143
वोच 3143
ियो 3142
पौ@@ 3141
हवा 3139
निभाई 3137
रियाओं 3137
लोकसभा 3136
रहालय 3131
चलने 3130
तेजी 3127
२०@@ 3126
नाक 3124
निकल 3123
नित 3122
वानों 3122
अध@@ 3121
झु@@ 3121
थक 3120
यप 3119
कुं@@ 3117
रिम 3117
देशित 3115
विजेता 3113
बल@@ 3112
शंकर 3112
कैरियर 3109
सभ 3109
रोमन 3108
लह@@ 3107
रूसी 3104
1980 3102
कैसे 3101
मुझे 3101
राजवंश 3100
सह 3099
गां@@ 3097
तला@@ 3094
सतह 3092
षात 3091
तनी 3090
भित 3089
ॉन 3087
भाव@@ 3086
विरुद 3086
भूत 3085
अश 3084
पहुंच 3084
राक 3084
याग 3079
विचारों 3079
माला 3076
अलीगढ 3075
दि 3074
यूक 3073
29 3072
1999 3068
तकनीकी 3066
सेवाओं 3061
षत 3058
भेजा 3057
सोवियत 3055
पाद@@ 3046
बेस 3045
मर@@ 3045
रखता 3045
॥ 3045
देखते 3042
चट 3041
चिह 3041
दिवस 3041
भुगतान 3040
उपाधि 3038
A 3036
वेंटी 3036
यावसायिक 3035
कोश 3027
इयों 3024
घू@@ 3024
रजा@@ 3022
शांति 3019
नैनीताल 3014
विवे@@ 3013
31 3009
डै@@ 3005
जोखिम 3004
देवता 3001
पसंद 3001
एशियाई 2999
चतुर 2998
देशन 2998
दौरे 2998
आये 2996
तिब 2995
रियल 2993
लंबी 2992
इब 2989
रवृत 2989
लत 2989
यमंत 2988
खू@@ 2987
पुराण 2986
वातावरण 2984
सरल 2984
डॉक 2981
उचित 2979
सचिव 2979
रभावी 2976
विशेषज 2975
अंततः 2973
तार@@ 2973
लैक 2972
संभावना 2970
धातु 2967
दौ@@ 2965
जलवायु 2963
तिष 2962
डिया 2959
जिसमे 2958
करेगा 2957
थिर 2955
नियमों 2955
कोलकाता 2952
R@@ 2950
वाह 2950
करी 2949
14@@ 2948
कण 2944
अल@@ 2943
टीमों 2942
इंस 2940
चय 2940
डों 2939
रोजन 2938
E@@ 2935
कॉन 2934
कास 2933
लैण 2933
पत@@ 2928
यटन 2928
चलते 2927
जेम 2926
यूजीलैंड 2925
S@@ 2924
गवर 2922
तरित 2915
कवि@@ 2914
जापानी 2914
टिव 2914
मेर 2911
नार@@ 2909
1998 2908
मोहम 2907
इकाई 2903
गतिविधियों 2902
हज 2900
हड 2900
१५@@ 2900
पद@@ 2899
कट@@ 2892
हाइ@@ 2890
कंपनियों 2889
यकाल 2889
भाग@@ 2886
कू 2885
घे@@ 2885
ङ 2885
चार@@ 2881
रमाण 2881
00@@ 2880
गद 2880
जीव@@ 2880
मानना 2875
इंडियन 2874
formula 2873
जस 2871
शैक 2870
हिल 2870
चैम 2869
रस@@ 2869
दबाव 2868
वोल 2867
मजबूत 2866
करा 2862
सारी 2860
कलन 2858
नर@@ 2858
शत 2857
फैसला 2856
रिप 2856
पैमाने 2854
यौगिक 2854
कराया 2853
गति@@ 2853
टेलीविजन 2852
लाना 2852
वाहन 2851
ञ@@ 2849
हारी 2849
दोलन 2848
मूल@@ 2847
लिप 2847
गान 2846
कैंसर 2844
नाई 2840
वास@@ 2840
सीमा@@ 2839
ियाई 2839
पहुंच@@ 2838
जाग@@ 2837
दीक 2836
पुराना 2835
खाड 2834
उपयोगकर 2828
ंडल 2825
शायद 2825
नुसार 2823
शाह@@ 2822
चने 2820
रॉक 2819
सीरीज 2819
कां@@ 2816
३० 2816
वरी 2815
चयन 2810
बैं@@ 2810
रेजों 2807
आरोप 2806
करे 2804
थि 2803
वेज 2802
भा 2799
यूयॉर 2798
उनको 2795
यर@@ 2794
सीजन 2794
परिवहन 2791
यालयों 2789
हाई 2788
13@@ 2787
हमें 2787
बुल 2783
मोबाइल 2782
यूनाइटेड 2782
रसारण 2780
मेश 2779
वनि 2777
विशेषता 2773
ठे 2772
आवाज 2771
फुट 2771
नं@@ 2770
यूनिवर 2770
हास 2767
तन@@ 2766
गाँ@@ 2758
उपयुक 2756
जंक 2756
सफ@@ 2756
टेडियम 2755
१५ 2755
जानी 2754
डाला 2754
भूषण 2754
मतलब 2752
पोस 2750
फिक 2750
हूँ 2748
औष@@ 2747
रदाय 2747
सत@@ 2743
सिया 2743
शिकार 2742
L@@ 2740
निवासी 2739
मानसिक 2739
असम 2738
वेब 2738
मेरे 2736
पाठ@@ 2731
गृह 2722
खेती 2720
ढंग 2719
रदा@@ 2719
रोल 2717
यें 2716
रूपों 2716
सीज 2711
रसा@@ 2710
सैनिकों 2709
° 2706
जीवा@@ 2706
निदेशक 2706
बाह 2706
रव@@ 2706
12@@ 2704
पुरानी 2704
लभ 2704
बॉक 2703
बहन 2700
रपुर 2699
संभा@@ 2698
१६@@ 2698
रहे@@ 2693
वारी 2692
पुन@@ 2691
इंटरनेट 2689
उज 2688
सस 2687
तीसरी 2686
मिंग 2686
शुल 2684
पस 2683
जुन 2682
रॉफी 2682
यं@@ 2681
नज@@ 2678
सित 2678
तू 2676
अनुप 2675
गईं 2673
ञापन 2673
राफ 2673
A@@ 2672
कृतियों 2672
णु@@ 2672
रखी 2671
ुक 2671
मैक@@ 2667
जगत 2665
लीन 2665
ताएं 2664
रवाह 2663
विविध 2662
उष 2661
टरी 2661
बृ@@ 2657
जिक 2655
ईरान 2653
ावा 2652
गुज@@ 2651
पेश@@ 2651
वैदिक 2651
रफल 2650
इंटर@@ 2648
गूगल 2648
यकर 2647
कटि@@ 2645
1996 2643
W@@ 2643
बिंदु 2643
मज 2643
लकड 2640
सुंदर 2639
संसार 2638
लेज 2636
थशास 2635
समझ 2635
कहला@@ 2632
यव@@ 2631
दुस 2630
शिल 2629
आपूर 2626
कियों 2624
जातियों 2624
बनिक 2622
चुने 2618
नही 2618
लेना 2618
१२ 2618
निधन 2616
गिर 2615
पाइ@@ 2614
बिजली 2614
पाल@@ 2610
जीन 2609
षकों 2609
वामित 2608
ियम 2607
कहना 2604
is 2603
परिभाषित 2603
वि 2603
विदेश 2602
हरियाणा 2602
मिर 2601
गिरफ 2599
नॉर 2599
आय 2598
60 2597
अनंतपुर 2595
गृ@@ 2594
खेले 2592
टेली@@ 2592
लघु 2592
इटली 2591
तापूर 2591
रसार 2591
संधि 2591
चम 2590
सुविधा@@ 2588
पशु 2587
उद@@ 2585
कहा@@ 2585
लखनऊ 2585
गणराज 2583
योग@@ 2583
सौ 2581
षियों 2580
हजार 2579
रुखाबाद 2578
अपराध 2577
बीमारी 2574
तने 2569
1970 2564
रशा@@ 2564
पें@@ 2562
मृति 2553
वट 2553
कानूनी 2551
F@@ 2550
दिये 2550
बाबा 2550
बिल@@ 2550
आसानी 2548
सल@@ 2548
महाभारत 2543
मरा@@ 2541
लिमिटेड 2539
कहलाता 2537
निका@@ 2537
वु@@ 2537
कारणों 2536
I@@ 2535
पीढ 2534
अनिवार 2532
आंतरिक 2531
धारी 2530
ील 2530
आंकड 2527
पौड 2527
साबित 2526
आयरलैंड 2525
परा 2524
घन 2522
नेताओं 2522
लां@@ 2522
पब 2521
09 2520
नव 2520
1997 2519
टिप 2518
तुल@@ 2518
खास 2517
राग 2517
टरों 2516
हृदय 2516
अवार 2515
एयर 2515
नौ 2515
देशी 2513
रीकी 2513
तय 2511
देकर 2509
षिप 2508
वितरण 2507
उपग 2506
दीर 2505
मिशन 2504
सफ 2504
जोर 2502
महाराजा 2502
याम 2502
चारण 2499
पीठ 2499
चौड 2497
जनों 2497
जहा@@ 2497
धता 2496
वानी 2495
एड 2493
बंध 2493
फार 2490
खतर@@ 2489
ऊँ@@ 2488
सदर 2488
वोत 2487
गुणवत 2486
राण@@ 2485
हैदराबाद 2484
डेटा 2483
200 2482
एकत 2482
रेश 2481
कठिन 2480
जमीन 2480
निगम 2479
होटल 2477
हटा@@ 2475
मो 2474
सिय@@ 2473
नुकसान 2472
C 2471
काशी 2471
रोस 2471
सो 2471
अभिव 2468
गाड 2466
समझा 2465
रियन 2464
जाकर 2463
पहुँच 2461
रसन 2461
शिया 2460
बचपन 2457
लान 2456
x 2452
इला@@ 2450
यानी 2450
रीज 2448
लिख@@ 2448
महसूस 2447
आपको 2446
नंबर 2446
साफ 2446
दें 2444
The 2442
ऋषि 2442
तिशाली 2442
राल 2442
संज 2441
रोकने 2438
चना 2437
बैक 2433
किरदार 2432
वाह@@ 2423
धु 2422
वनडे 2422
एजे@@ 2419
मनाया 2419
रंथों 2417
साम@@ 2417
बहा@@ 2415
रचनाओं 2414
वनस 2414
कोरिया 2412
चाहता 2412
रेय 2411
रेलियाई 2410
मज@@ 2409
बारी 2408
डक 2407
तीनों 2407
राणा 2407
शनों 2407
मेह@@ 2401
मुगल 2400
रियता 2399
ऊंचाई 2398
पंक 2397
हमले 2397
जेक 2396
वाणी 2395
K@@ 2393
अके@@ 2393
लॉक 2392
पनी 2391
कमा@@ 2389
नियो@@ 2388
सेंटर 2388
साथी 2384
आनंद 2383
साधन 2382
अ 2381
चं@@ 2379
ारण 2378
फीट 2377
मुश 2377
खेलने 2375
राजाओं 2374
1992 2370
में@@ 2370
चाई 2369
घरों 2368
इंजीनियरिंग 2367
तारों 2366
उपज 2363
जहाज 2363
डार 2362
सुर 2362
चला@@ 2359
तृतीय 2359
यिकी 2358
१०@@ 2358
जक 2357
गीकरण 2356
अनुपात 2355
कने 2355
जयपुर 2355
समृद 2354
ाया 2353
धारावाहिक 2352
कोल 2351
— 2351
पादों 2350
सूचित 2350
होंगे 2349
अहमद 2347
रायगढ 2345
छेद 2344
दुओं 2344
पहचा@@ 2344
लु 2344
रीष 2343
दूध 2342
मल@@ 2342
मुख@@ 2340
साय@@ 2338
पूं@@ 2337
रॉनिक 2337
तारे 2336
रीट 2336
कैम@@ 2335
जिनकी 2335
चूंकि 2334
टुकड 2332
टी20@@ 2331
डेल 2331
तता 2331
नूलु 2331
षता 2330
1994 2329
रोगी 2329
यानि 2327
बंगाली 2325
रय 2325
जरूरत 2324
रसारित 2324
बनाये 2322
गुण@@ 2321
जरी 2321
आउट 2318
मिलाकर 2318
कोण 2317
गायक 2317
डाइ@@ 2317
खत 2316
जरू@@ 2316
V@@ 2315
तुरंत 2315
किला 2313
अफ@@ 2312
तभी 2312
1960 2311
पांड@@ 2311
खाना 2310
इलाज 2309
भौगोलिक 2309
रिन 2307
शु 2307
गणना 2306
पियनशिप 2306
जाया 2305
रीमियर 2305
चिं@@ 2303
जातीय 2302
धू@@ 2300
चीज 2299
ठित 2299
हार@@ 2298
मेरी 2295
मांकन 2294
ोन 2293
20@@ 2292
गण 2292
जार 2292
पठ@@ 2292
रुचि 2292
1991 2291
गुज 2290
ऊंच@@ 2289
भूगोल 2289
O@@ 2286
गाना 2285
शिला@@ 2283
वारों 2282
औपचारिक 2280
ताएँ 2280
जनसांख 2279
जिल 2279
तया 2279
रवरी 2278
काली 2277
णीय 2276
80 2275
काफ 2274
मोक 2274
1995 2273
कुर 2273
टोन 2270
भागलपुर 2270
हाथों 2270
रगति 2269
नौज 2268
भुत 2267
गुड 2265
कदम 2264
संपूर 2264
अधिकतम 2262
आध 2262
भाषाएँ 2262
M 2261
संबद 2261
1993 2260
कलाकारों 2260
ऑर 2259
बोल 2259
500 2258
जाये@@ 2258
रतिनिधि 2258
कोशिकाओं 2257
दीप 2255
गू@@ 2254
रग 2254
सौर 2253
डू@@ 2251
उपकरणों 2247
करेंगे 2247
शिका@@ 2247
हाट 2247
ारित 2246
ताल@@ 2244
-- 2242
रहित 2242
नेक 2241
सिनेमा 2241
मुकाब@@ 2240
अपना@@ 2238
तीसरा 2237
बदलाव 2237
छे@@ 2235
उपयोगी 2232
पिछ@@ 2232
बीज 2232
महाविद 2231
रती 2230
ँग 2229
गेंद 2228
बाकी 2228
नाल 2227
पौधों 2226
मिल@@ 2226
नाट 2223
वात 2222
रांसीसी 2221
तेलु@@ 2218
35 2217
मारक 2217
देवताओं 2216
आदमी 2213
पंचायत 2211
भै@@ 2211
इंडीज 2208
मुखी 2208
नियर 2207
परिभाषा 2207
शाखा@@ 2207
कालिक 2206
जात 2206
पाय@@ 2206
ेन 2206
ंदर 2205
फूल 2205
यूनि@@ 2205
,००० 2204
निरा@@ 2201
मराठी 2200
ऊँचाई 2198
दार@@ 2197
घाटन 2196
बनाकर 2196
रेरणा 2195
समझने 2195
हॉल 2193
70 2192
एथ@@ 2192
बनाता 2192
माह 2192
नाग 2191
हिमालय 2188
अति 2187
इट 2185
इण 2184
कह 2182
लॉन 2181
अवधारणा 2180
रहस 2180
शुरुआती 2177
निहित 2176
समु@@ 2176
कात 2174
मद@@ 2174
२५ 2174
टूडियो 2173
अंश 2172
कुमारी 2172
वेत 2171
जॉ@@ 2170
तगा@@ 2167
धन@@ 2167
सफेद 2167
डिजिटल 2165
वायरस 2165
हटा 2165
विभा@@ 2163
इमारत 2162
जीतने 2162
रीम 2162
थु@@ 2161
साउ@@ 2161
लौट 2159
हिंसा 2159
T 2158
घं@@ 2155
थानांतरित 2155
सीट 2155
दृढ 2154
दैनिक 2154
पन@@ 2154
मुसलमानों 2154
बनाते 2152
मारे 2152
रुक 2150
मचारियों 2148
जटिल 2147
फलस 2147
अनुया@@ 2146
किंगडम 2145
भौ@@ 2144
रॉयल 2144
सरस 2143
महे@@ 2142
45 2141
यौन 2141
लिखने 2141
तीं 2140
पेशेवर 2137
रशंसा 2137
सद 2137
इम 2136
पू 2136
बस@@ 2134
बाग 2134
यल 2134
गोल@@ 2133
झू@@ 2133
अधिकारों 2132
मोटर 2132
इंटरनेशनल 2130
पुन 2130
उपभोक 2129
एलि@@ 2128
मातृ@@ 2128
संबंधों 2128
करे@@ 2127
आदि@@ 2126
११ 2126
आयुर 2125
परस 2125
यातायात 2125
तीत 2123
दया@@ 2123
गणि@@ 2122
कोशिका 2120
पोषण 2120
शन@@ 2119
कच 2118
मारी 2118
चुनावों 2116
तांत 2115
महात 2115
लट 2115
१९३@@ 2115
ंगों 2114
हीन 2114
खो 2113
रसायन 2113
षाकृत 2113
सवीं 2113
खरी@@ 2112
फैला 2112
रूप@@ 2112
गु 2110
an 2109
रतीत 2108
टेन 2107
यकारी 2107
घात 2103
टान 2103
मचारी 2102
सज 2102
डेन 2101
अमरीका 2100
अला@@ 2100
पेस 2100
खे 2099
शराब 2099
शृंखला 2099
ोड 2099
PM 2098
डाल 2098
आतंक@@ 2097
उभ@@ 2097
एव@@ 2097
इलाकों 2095
अपरा@@ 2094
उ 2094
कौशल 2094
जीवनी 2094
५० 2094
चाह@@ 2093
सुपर 2093
डेविड 2092
लाइट 2091
घोड 2090
लाब 2090
करी@@ 2087
काउंटी 2087
नील 2087
डोर 2085
लंबाई 2085
अट@@ 2084
अशोक 2084
रष 2083
नवा@@ 2082
राइड 2081
वल@@ 2081
पालिका 2080
राजनैतिक 2080
याण 2077
1@@ 2073
चम@@ 2073
तह@@ 2070
पंजाबी 2070
रेण@@ 2070
१४ 2070
नक@@ 2069
हूं 2069
अमेरिकन 2068
कोच 2067
शीलता 2067
ंडि@@ 2065
ऍ@@ 2065
झ 2065
ृत 2065
इतनी 2063
सलाह 2062
होम 2061
रखना 2060
ठभूमि 2059
पृथक 2059
विका@@ 2059
अभाव 2058
संगठनों 2058
भंड@@ 2057
ठोस 2056
नड 2056
बंदी 2055
मणि@@ 2055
पौराणिक 2054
बनता 2054
J@@ 2053
रीम@@ 2053
शे 2052
कराने 2050
तिरु@@ 2050
शनी 2050
छू@@ 2049
षरता 2048
समीप 2047
मशीन 2046
विधा@@ 2046
खेत 2045
गेट 2045
सेस 2044
अरु@@ 2043
संहिता 2043
वरों 2040
ऋण 2039
नाएं 2039
यपाल 2039
शौ@@ 2038
जब@@ 2037
पादित 2036
माम@@ 2036
समानता 2036
शां@@ 2035
आविष 2034
मेदार 2034
चलती 2033
लगती 2033
तल@@ 2032
मिथ 2030
लेखों 2030
दाता 2029
लख@@ 2029
किक 2028
जने 2028
साह@@ 2028
ऊपरी 2027
योगि@@ 2026
बनाना 2025
रथ 2023
रोटीन 2023
सूच@@ 2023
ंगटन 2022
तां@@ 2022
महिला@@ 2022
रोफेसर 2022
यिका 2020
सराय 2017
चस 2016
सीख@@ 2015
सुबह 2015
नाश 2014
रशं@@ 2014
बास 2012
वचा 2012
शाला 2011
90 2010
गलत 2010
जंगल 2010
रांड 2010
रर 2009
रणी 2008
बाद@@ 2007
रेगोरी 2007
बसा 2006
वतन 2006
किताब 2005
यांकन 2005
आनु@@ 2002
काले 2001
माइकल 1999
विषा@@ 1999
शिवा@@ 1999
ंगल 1998
मिला@@ 1998
मेक 1998
कॉम 1997
बरी 1997
माया 1996
रेंच 1996
२१ 1996
on 1995
जमा 1995
नेत 1995
विरासत 1995
बॉलीवुड 1994
वाचित 1994
इंच 1993
पहुंचती 1993
वनी 1993
शनिक 1993
सकारात 1991
नये 1990
पंडित 1990
सन@@ 1990
झे@@ 1989
टेज 1989
तकालय 1989
दूत 1989
मठ 1989
राजनीतिज 1989
सुनिश 1987
यार@@ 1986
रमशः 1986
समाधान 1985
माउ@@ 1984
रुप@@ 1984
लिश 1984
षि 1984
समन 1984
सुझाव 1984
इंजीनिय@@ 1983
D 1982
काउं@@ 1982
शिखर 1980
अलं@@ 1979
नदियों 1979
पिंग 1979
वैसे 1979
जीवों 1974
नाम@@ 1973
दवा 1972
बेन 1972
लेती 1972
ौ 1971
रेम@@ 1970
इका@@ 1969
मीद 1969
जवाब 1968
थी@@ 1966
बायो@@ 1966
मेला 1965
वत@@ 1964
शायर 1964
कबी@@ 1963
टिल 1963
रोध 1963
जिंग 1962
टॉक 1962
मुला@@ 1962
रुपये 1962
16@@ 1961
एसोसिएशन 1960
शह@@ 1958
नेवाली 1957
शून 1957
निकाला 1956
बाल@@ 1954
तौ@@ 1953
बंग@@ 1953
कंप@@ 1952
सका 1952
चि 1951
टकर 1951
देखी 1951
मिया 1951
1989 1950
२४ 1947
फील 1946
गेंद@@ 1944
ठों 1944
थलों 1944
सीन 1944
राउंड 1943
वयस 1943
मानों 1942
रजातियों 1942
संभावित 1942
विंग 1941
y 1939
हिर 1938
करवाया 1937
बुक 1937
जीवन@@ 1936
नवी@@ 1936
रखण 1936
राह@@ 1936
तिथि 1935
कैलंडर 1934
गुणों 1933
वीय 1933
शीघ 1933
सेना@@ 1932
बीमा 1931
बो 1931
मंदिरों 1931
सात@@ 1931
मोह@@ 1930
अकबर 1929
केशन 1929
टेनिस 1929
नतम 1929
मना 1927
समझौते 1927
S 1924
पारी 1924
शेयर 1924
१६ 1924
थाई 1923
देखकर 1923
वाय@@ 1923
सुप 1923
1950 1922
संकट 1922
ation 1919
एप 1918
बक 1918
ऑन 1917
चाहे 1917
ईट 1916
कथित 1916
रणा@@ 1916
सियों 1916
ंव 1915
यूरो@@ 1915
सालों 1915
पुट 1914
वरिष 1914
ंदा 1913
कुल@@ 1912
गुना 1912
रूपां@@ 1911
विलय 1911
किम 1910
१८ 1910
मगध 1909
याव@@ 1909
संवेद@@ 1909
कुत 1907
कैम 1907
रें 1906
वाज 1906
कौन 1905
यथा 1905
चालक 1904
यहीं 1904
रेखांश 1903
वंद 1902
साइट 1902
सूरत 1901
खराब 1900
विच 1900
लाभ@@ 1899
षु@@ 1899
ंत@@ 1898
लोर 1898
चुम 1897
पौधे 1897
लेखकों 1897
जीते 1895
लॉजी 1894
सिख 1894
ऑनलाइन 1893
खेलते 1893
ञानिकों 1893
मालिक 1893
संग@@ 1893
चल@@ 1891
जाये 1891
रेखा@@ 1891
दोष 1890
नोट 1890
रभु 1889
लुप 1889
हू@@ 1889
होल 1889
कहता 1888
ेश 1888
ठाकुर 1886
२०११ 1886
पांच@@ 1885
बदले 1885
बैठक 1885
एट 1884
निरंतर 1883
चौधरी 1882
लाहौर 1882
आंध 1881
रखे 1881
सास 1881
ing 1880
उपनि@@ 1880
वाया 1878
इड 1876
ऐल 1876
गोस 1875
संसाधन 1875
सकें 1875
कारियों 1874
महि@@ 1874
वाँ 1873
हुये 1873
बाब 1872
सरण 1871
धांतों 1869
सांसद 1869
दंड 1867
यहूदी 1865
टैक 1864
संदेश 1864
देन 1863
यूब 1863
अहम@@ 1859
जवा@@ 1859
टेंट 1859
यापारिक 1859
लगते 1858
आहार 1857
32 1856
दौड 1855
बीसी 1855
शहरी 1855
इरा@@ 1854
कवर 1854
बज@@ 1854
रचनात 1854
चोट 1853
राणी 1853
i 1852
कॉल 1852
पारित 1851
यूनानी 1851
धारा@@ 1850
रहों 1850
लेबाज 1850
बुनियादी 1849
कलकत 1848
हेनरी 1848
दीवार 1847
छवि 1846
शॉ@@ 1846
B 1845
नियन 1845
बिस 1844
उंड 1843
जना 1843
जिलों 1843
थना 1843
विड 1842
सृ@@ 1841
अख@@ 1840
भू 1840
तमिलनाडु 1839
मनोविज 1839
रोगों 1839
कोष 1838
जला@@ 1838
जैक 1838
१४@@ 1837
दायित 1836
देखभाल 1836
१३ 1836
डबल 1835
रॉस 1835
शुरूआत 1835
षद 1835
अनुबंध 1833
करणों 1833
गमन 1833
संशोधन 1832
1947 1831
नैतिक 1831
रथा 1830
संकल 1825
al 1824
यंजन 1824
भूति 1823
याज 1823
यायाधीश 1823
यादव 1822
२०१४ 1821
1986 1819
कारिता 1819
नौकरी 1819
पनिक 1819
बहादुर 1819
निकाल 1818
मती 1818
तुल 1817
नने 1817
कैथोलिक 1815
दाई 1814
बेगूसराय 1814
यांत 1814
रांति@@ 1812
रिकी 1810
ारी@@ 1810
औरंगाबाद 1809
णुओं 1809
समकालीन 1809
रतिद 1807
पने 1806
मनोरंजन 1806
संयोजन 1806
अज@@ 1804
s@@ 1803
ताप@@ 1802
दय 1801
नामों 1801
माम 1801
0.@@ 1799
राइट 1799
भाष 1798
रबंध@@ 1798
सेवन 1798
भव@@ 1797
राफी 1797
ऑफिस 1796
कोशि@@ 1796
ारो@@ 1796
गीतों 1795
रॉबर 1795
सकर 1795
1988 1794
अष 1794
किसान 1794
इंद 1793
वेग 1793
अमृ@@ 1792
यंग 1791
सुधार@@ 1790
तक@@ 1789
आपके 1788
थॉ@@ 1787
रबंध 1787
१२@@ 1787
राई 1785
गॉ@@ 1784
नमू@@ 1784
मांस 1784
देर 1783
ंश 1782
चालन 1782
रयासों 1782
योजन 1781
धरती 1780
हजारों 1780
छूटती 1779
वरण 1779
नेर 1778
नेहरू 1778
अफगानिस 1777
b@@ 1775
शासकों 1775
सिंगापुर 1775
1984 1774
नेल 1774
बागेश 1774
रयत 1774
कुश 1773
याकरण 1772
वस@@ 1771
होत 1770
बोस 1769
अपनाया 1768
शनल 1768
१९ 1768
ठि@@ 1764
विचार@@ 1764
बोध 1763
अदालत 1762
आका@@ 1762
हिट 1761
पाण 1760
पीटर 1760
गुर 1759
यय 1759
शाली 1758
संभ@@ 1757
ंडों 1755
दूर@@ 1755
निदान 1754
मानव@@ 1754
रताप 1754
एंटी@@ 1753
कॉटलैंड 1752
दारों 1752
राजपूत 1751
तकें 1750
लव 1750
शाम 1750
दाबाद 1749
चेस 1748
पुणे 1748
सरों 1748
ौली 1748
बालक 1747
ई.@@ 1746
मीन 1746
षाओं 1746
कोय@@ 1743
जैव 1743
निया@@ 1743
हल@@ 1743
खै@@ 1742
दश@@ 1742
निको@@ 1742
पैरा@@ 1740
वेबसाइट 1740
षणिक 1740
कीमत 1739
राजकुमार 1739
इमार@@ 1738
भौतिकी 1738
ंगो@@ 1737
कैप 1737
मैन@@ 1737
टाई 1734
निन 1734
टीन 1733
दिष 1733
रवाई 1733
वाही 1733
हिमाचल 1732
ंती 1731
नवीन 1731
अने@@ 1730
नियां 1729
पादक 1729
षिण@@ 1729
विविधता 1728
मुर 1727
मौजूदा 1727
पदों 1726
* 1725
तरीय 1725
भद 1725
भरी 1724
सिम 1723
अवश 1722
मकालीन 1722
कमाई 1721
तनाव 1721
यरत 1721
वापसी 1720
फेस 1719
बचाने 1719
लोन 1719
नंद 1718
रुव 1718
वैकल 1717
n 1716
गिल 1716
रोगियों 1716
असफल 1715
१७ 1715
रामायण 1714
पहुंचा 1713
पैर 1713
ूत 1713
आरो@@ 1712
जनजाति 1711
चमोली 1709
नास 1709
निवासियों 1709
रतिमा 1709
वेट 1709
सेवाएं 1709
1985 1707
आकाश 1706
चैंप@@ 1706
आवृत 1705
करार 1705
भास 1705
हुसैन 1705
दिरा 1704
चाल 1703
सामूहिक 1702
डिवीजन 1701
रभावशाली 1701
रामा@@ 1701
सॉ@@ 1701
योजित 1700
शोध@@ 1700
िश 1700
आजकल 1699
अनुकूल 1698
कठोर 1698
बनाती 1698
135 1697
तरी@@ 1697
काई 1696
पसंख 1696
सुविधाओं 1696
इसको 1695
पेरिस 1695
बिता@@ 1695
जैविक 1694
रोटो@@ 1693
लिं@@ 1693
गोली 1691
रहना 1691
समी@@ 1691
br 1690
or 1690
अनुरूप 1690
जुर 1690
तकर 1690
हज@@ 1688
• 1687
करनी 1686
जाम 1686
परिणा@@ 1686
अनुक 1684
धां@@ 1684
1.@@ 1683
वादियों 1683
वुड 1683
ढू@@ 1682
चालित 1681
पतन 1681
बंदरगाह 1681
बारा 1681
सजा 1681
एसि@@ 1680
तराधिकारी 1680
c 1679
मुकद@@ 1678
संघीय 1678
संतु@@ 1678
पंजी@@ 1677
ाइन 1677
कठि@@ 1676
कोस 1676
P 1675
तरल 1675
रैंक 1675
नकर 1673
खिताब 1672
तरों 1672
मानु@@ 1672
पौडी 1671
रमित 1671
विपणन 1671
खाते 1670
दरबार 1669
75 1668
केल 1668
बेहद 1667
फाय@@ 1666
1987 1665
चतम 1665
डियम 1665
यीं 1665
हिब 1665
घटक 1664
बताते 1664
मि 1664
AM 1663
रबन 1662
संभवतः 1662
हमारी 1661
आग@@ 1660
खोला 1660
डस 1660
फाई 1659
वें@@ 1659
ंचा@@ 1658
मछली 1657
याया@@ 1657
1962 1656
देखे 1656
षय 1656
1971 1655
तप 1654
उपजिला 1653
काएँ 1653
मौलिक 1653
वजन 1653
आवास 1652
सकों 1652
आंशिक 1651
डियो@@ 1651
शुरु 1651
ओवर 1650
दिल@@ 1649
नियाँ 1649
पॉल 1649
तथापि 1648
बरा 1648
विकि@@ 1648
रने 1646
रैं@@ 1646
वच 1646
मंगल 1645
मुम 1645
रीति 1645
वाहि@@ 1645
संके@@ 1645
बचा@@ 1644
संसदीय 1644
बचाव 1643
मेरा 1643
टिया 1642
दशा 1642
शिय@@ 1641
दरवा@@ 1640
जिस@@ 1639
लाओं 1639
समझौता 1639
ोल 1639
राहक 1637
शासनकाल 1637
बिलियन 1636
मेडिकल 1636
सहा@@ 1636
२२ 1636
0,000 1633
लैंग@@ 1633
नीत 1632
मजबूर 1632
राधि@@ 1632
लोगो 1632
शतक 1632
दिग 1631
पुरम 1630
उदय@@ 1628
1972 1627
1967 1625
यथार 1625
जेन 1623
शरी@@ 1623
सांख 1623
२०१० 1623
नरी 1622
मारा 1622
टाचार 1621
आगमन 1620
बातचीत 1620
राजनेता 1620
आपने 1619
मोन 1619
रहीं 1619
नयी 1618
बांध 1618
हेल 1618
अधिग 1617
तुकला 1617
रियासत 1617
सेज 1617
डिक 1616
बाइ@@ 1616
मारने 1616
सें 1616
चलाने 1615
दपुर 1615
वाना 1615
L 1614
कथाओं 1614
टार@@ 1613
मुताबिक 1613
सोने 1613
जानते 1612
कहानियों 1611
गार@@ 1611
डीज 1611
पिन 1611
भीड 1611
विचारधारा 1611
अनि@@ 1610
एपि@@ 1610
मपुर 1610
लिप@@ 1610
यमु@@ 1609
जानवरों 1608
नाय@@ 1608
यटक 1608
रजनन 1608
लैटिन 1608
वैधानिक 1608
संशो@@ 1608
रयोगों 1607
पंचा@@ 1606
मनोवैज 1605
1952 1604
उठ@@ 1604
रिं@@ 1603
१३@@ 1602
लॉस 1601
हौ@@ 1601
धारणा 1600
3.@@ 1599
महीनों 1597
माध@@ 1597
काय 1596
बदला 1596
ऊष 1595
घायल 1595
योगों 1595
R 1594
गाया 1594
लाइसे@@ 1593
ंगु@@ 1591
कागज 1591
चौथे 1591
ओपन 1590
मूत 1590
सहयोगी 1588
ुदा 1588
जू 1587
रोजगार 1587
राण 1584
गिनी 1583
मौखिक 1583
हानि 1583
लंबा 1582
विशेषकर 1582
२००९ 1582
मिनल 1580
आवे@@ 1579
टोग 1579
नेश 1579
तारी@@ 1578
पटकथा 1578
रारूप 1577
33 1575
बौ@@ 1575
रामक 1575
अमरीकी 1574
नशील 1574
फारसी 1574
शेर 1574
N 1572
उदाह@@ 1572
संपादक 1572
तिम 1571
रतिबंध 1571
लोड 1571
नां@@ 1569
यारण 1569
d@@ 1568
रतिभा 1568
रेंस 1568
लव@@ 1568
अदिलाबादु 1567
पीय 1567
कोलं@@ 1566
रदू@@ 1566
हनुमान 1566
ar 1565
# 1564
300 1564
F 1564
e@@ 1563
घि@@ 1563
मलयालम 1563
विजय@@ 1563
आपस 1562
ऑपरे@@ 1562
सरो@@ 1561
णिक 1560
वेयर 1560
रावण 1559
नागरिकों 1558
कील 1557
संयंत 1557
कमल 1555
लाइव 1554
2.@@ 1553
बदलने 1553
बचने 1552
रब 1552
रयाग 1551
गठबंधन 1549
टाउन 1549
परियोज@@ 1549
बरा@@ 1549
अंत@@ 1548
इतने 1548
डिय@@ 1548
सरदार 1548
बान 1547
रशांत 1547
उदय 1546
भरा 1546
राहकों 1546
साई 1546
कवियों 1545
कुशल 1545
गामी 1545
समेत 1545
हट 1545
हुल 1545
चेतना 1544
टोरिया 1543
मणि 1543
रमिक 1542
पेशकश 1541
36 1540
टीय 1540
E 1538
तरीकों 1537
रपात 1537
विट 1537
वेद@@ 1537
सफल@@ 1537
कारा@@ 1536
चावल 1536
महादेव 1535
यनों 1535
रिचर 1535
4.@@ 1534
मुं@@ 1534
ंडी@@ 1533
कव@@ 1533
गोवा 1533
महर 1532
उपनाम 1531
तनों 1531
पीडिया 1531
एण 1530
भागीदारी 1530
दिव 1529
हिम 1529
काएं 1528
मशी@@ 1528
मुसलमान 1528
सुपर@@ 1528
णता 1527
पिल 1527
किसानों 1526
यां 1526
सौंप@@ 1526
धाम 1525
ईंधन 1524
एकीकृत 1524
तकनी@@ 1524
लनों 1524
सटी@@ 1524
अंचल 1522
अवतार 1522
वय 1522
जोकि 1521
ढाका 1521
नेवाला 1521
इनकार 1520
शम 1519
घड 1518
तावित 1518
वाला@@ 1518
कोप 1517
नदार 1517
नाएँ 1517
एडि@@ 1516
खरीद@@ 1516
चुंब@@ 1516
थापन 1516
रिड 1516
m 1515
हुईं 1515
किट 1514
गेंदबाज 1514
ताज 1514
रेल@@ 1514
वंशज 1514
सारा 1514
1977 1513
1982 1513
तपुर 1513
भेज 1513
कोत 1512
टें 1512
गहराई 1511
फसल 1511
भूत@@ 1511
मशहूर 1511
मता 1509
ंगे@@ 1508
पहुंचने 1508
दूसरों 1507
नेशिया 1507
मलेशिया 1507
रयो@@ 1507
लेख@@ 1507
वयं@@ 1507
ियाना 1507
इतिहासकार 1506
इलाके 1506
टेन@@ 1506
पशुओं 1506
मानवीय 1506
अमीर 1505
ञान@@ 1505
आखिरी 1504
ऑल 1504
शोषण 1504
घनत 1503
बलों 1503
उपाध 1502
संपन 1502
नद@@ 1501
ओड 1500
परंपरागत 1500
खूब@@ 1498
तज 1498
नू 1498
बेथ 1498
विपक 1498
नमक 1497
रें@@ 1497
h 1496
बीस 1496
सैं@@ 1496
आउट@@ 1495
ईं 1495
बेड@@ 1495
सुल@@ 1495
ॆ@@ 1495
नति 1494
सना 1494
जाय 1493
रजाति 1493
रोतों 1493
सिंहा@@ 1493
ंगर 1492
गज 1492
पाता 1492
संगम 1492
सेवानिवृत 1492
जलि 1491
मैंने 1491
5.@@ 1490
गठित 1490
शासित 1490
उपर 1489
भाषण 1489
फाउ@@ 1488
रणालियों 1488
दुष 1487
निर@@ 1487
वालीफायर 1487
नेपाली 1486
वाराणसी 1486
गीकृत 1485
जाएगी 1485
जोधपुर 1485
जोन 1485
ठान 1485
जं@@ 1484
धे@@ 1484
यवाद 1484
लाल@@ 1484
इंडो@@ 1483
रगढ 1483
साझा 1483
U@@ 1482
अवै@@ 1482
ऐ 1482
यावहारिक 1481
वीपों 1481
काश 1479
टतम 1479
रीस 1479
सोम@@ 1478
खुले 1477
पराजित 1477
पाते 1477
रोन 1477
कडप 1476
दाब 1476
सूरज 1476
काला 1475
चौथी 1475
जंगली 1475
यक@@ 1475
उसको 1474
एनए 1474
चाहिये 1474
जितना 1474
परिवारों 1474
गीता 1473
यटकों 1473
विकार 1473
जनपद 1470
महाकाव 1469
आशा 1468
गतिविधि 1468
रेड@@ 1468
बाज@@ 1467
रेली 1467
गरीब 1466
जंग@@ 1466
राजन@@ 1466
टॉप 1465
बिग 1463
मला 1463
55 1462
खें 1462
णात 1462
तुति 1462
बारह 1462
तरीका 1461
बताता 1461
परत 1460
सवाल 1460
झा 1458
संगत 1458
रवि@@ 1457
रेख 1457
परामर 1456
आदिवासी 1455
एनि@@ 1455
कमजोर 1455
संघ@@ 1454
अगली 1453
पाली 1453
शाक 1453
दाद 1452
बाढ 1452
डम 1451
रेडि@@ 1451
गदर 1450
भारती 1450
रिए 1450
वचन 1450
विं@@ 1450
दण 1449
विमानक 1449
अखिल 1448
लेयर 1448
णक 1446
दवाओं 1446
२३ 1446
निज 1445
साँ@@ 1445
1975 1444
पिस 1443
बैंग@@ 1442
पणी 1441
मेजबानी 1441
नामकरण 1440
समीकरण 1440
हाथी 1440
.. 1439
अमर 1439
उस@@ 1439
फोट 1439
खी@@ 1438
as 1437
चैंपियनशिप 1437
वॉल 1437
गणेश 1436
दाय@@ 1436
एजेंसी 1435
यमिक 1435
राइल 1435
वड 1435
खींच@@ 1434
पाँ@@ 1434
बहती 1434
यवसा@@ 1434
अभिया@@ 1433
बेटा 1433
००० 1433
चलाया 1431
सिंह@@ 1431
पहुँच@@ 1430
आरंभिक 1429
धम@@ 1429
बिट 1429
सहज 1429
आसान 1428
सृष 1428
रियो 1427
डियन 1424
रमुख@@ 1424
लुओं 1424
संगीतकार 1424
लेश 1423
यापारी 1422
विंडोज 1422
1973 1420
चुनौती 1420
रखती 1420
1979 1419
भावनाओं 1419
हं@@ 1419
अनू@@ 1418
राओं 1418
नीदर@@ 1417
अंतर@@ 1416
इसीलिए 1416
उपाय 1416
झारखंड 1416
लियम 1416
हाइट 1416
खतरा 1415
नीतियों 1415
मने 1415
लुक 1415
कठ@@ 1414
कारा 1414
नाडु 1414
यताओं 1414
आलोचकों 1413
खर@@ 1413
रसू@@ 1413
शांत 1413
सैण 1413
कहने 1412
सचे@@ 1412
1948 1411
डाक 1411
मगर 1411
अनुरोध 1410
गिस 1410
टाइप 1410
डू 1410
नानी 1410
वायत 1410
कुम 1409
याल 1409
ीकरण 1409
२६ 1409
O 1408
कैलिफोर 1407
हक 1407
आना 1406
ञों 1406
शीतकालीन 1406
साव@@ 1406
एटर 1405
कोटा 1405
गिरजाघर 1405
पैसे 1405
समग 1405
कुण 1404
मुंगेर 1404
सरे 1404
19@@ 1403
ऋतु 1403
रागढ 1403
सूचीबद 1403
२००८ 1403
सदन 1402
२७ 1402
लिंक 1401
सिको 1401
४० 1401
दगी 1400
यूनतम 1400
लिखते 1399
साब 1399
तिहा@@ 1398
रतिरोध 1398
वादक 1397
खरीद 1396
पला@@ 1395
किशोर 1394
कूलों 1394
घिरा 1394
छः 1394
जाए@@ 1394
काट 1393
ढांच@@ 1393
किं@@ 1392
जमी@@ 1392
1930 1391
अयोध 1391
करो 1391
गिरावट 1391
चलकर 1391
चिंता 1391
धे 1391
G 1390
किता@@ 1390
बोलने 1390
मानता 1390
समुदायों 1390
1983 1389
रफ 1389
वाहक 1389
1956 1388
फार@@ 1388
भोज@@ 1388
मैग 1388
सुख 1388
घा 1387
दुश 1387
अवशेष 1385
चाँ@@ 1384
टूट 1384
संदेह 1384
ंडे 1383
लियाँ 1383
हथियार 1383
जियम 1381
तपस 1381
तोष 1381
नगर@@ 1381
नजर 1380
पिथोरागढ 1380
ंप 1378
अका@@ 1378
आनन 1378
थाई@@ 1378
बती 1378
आईटी 1377
इराक 1377
इसलिये 1377
कॉमे@@ 1377
रूद 1377
भेड 1376
नकारात 1375
पाती 1375
बिं@@ 1375
लगने 1375
p@@ 1374
अग@@ 1373
सुंद@@ 1373
मेदारी 1372
संपादित 1372
समि@@ 1372
सोसाइटी 1372
1957 1371
भाँति 1371
२८ 1370
पहुंचा@@ 1369
for 1368
याँ 1368
सहमति 1368
उक 1367
वालियर 1367
शेख 1367
षांश 1367
34 1366
वाभाविक 1366
आमंत 1365
ऑपरेशन 1365
गंगा@@ 1365
चरणों 1365
हारे 1365
१९०@@ 1365
मरण 1364
योतिष 1364
गतिशील 1363
शाब 1363
कांक 1362
जौ@@ 1362
यूनियन 1362
आवा@@ 1361
37 1360
रेटर 1360
विकिरण 1360
सहमत 1360
कमरे 1359
बसे 1359
मासिक 1359
p 1358
निकाय 1358
यकताओं 1358
यूरो 1358
वैद 1357
रूढ 1355
विर 1355
संगठित 1355
असामान 1354
गरी@@ 1354
फड 1354
योद 1354
सलाहकार 1354
२०१३ 1354
कारो@@ 1352
बटा@@ 1352
ऊँचा 1351
संतुलन 1351
एकता 1350
गाय@@ 1349
मिसाइ@@ 1349
ंडिया 1348
कारकों 1348
संसाधनों 1348
सीता 1347
ताई 1346
थिय@@ 1346
डच 1345
नौसेना 1345
बीन 1345
मोत 1345
विज@@ 1345
मुग 1344
रदेशों 1344
आधे 1343
गुफा 1343
निकालने 1343
65 1342
खनिज 1342
मीदवार 1342
1,@@ 1341
गुजराती 1341
विया 1341
38 1340
कुन 1340
षति 1340
आजादी 1338
खन 1338
रथ@@ 1338
रामपुर 1338
२००६ 1338
भोपाल 1337
रयोगशाला 1337
एडवर 1336
वैष 1336
.एस@@ 1335
नूर 1333
पुरु@@ 1333
मुनि 1333
ृ 1333
II 1331
आरक 1331
जीवी 1331
साहब 1331
विफल 1330
कु 1329
तैयारी 1329
52 1328
वाष 1327
वीकृति 1327
संवाद 1327
अमीरात 1326
पो 1326
1978 1325
मथुरा 1325
वासियों 1325
नवाब 1324
निगरानी 1324
रनाथ 1324
सेवा@@ 1323
1965 1322
y@@ 1322
रंगों 1320
शियम 1320
पशु@@ 1319
1981 1318
टोक 1317
विशे@@ 1317
धूम 1316
पियन 1316
टिकट 1315
रहा@@ 1315
लियो@@ 1315
वासी 1314
सुना@@ 1314
h@@ 1313
कोरियाई 1311
जाँच 1311
1976 1310
ed 1310
amp 1308
48 1307
मोदी 1304
n@@ 1300
यां@@ 1300
वियत@@ 1299
6.@@ 1298
रियर 1290
1969 1288
1974 1288
42 1287
लाव 1286
वाओं 1286
कैं@@ 1281
कें 1276
t 1273
d 1270
विशा@@ 1270
de 1269
हिक 1269
.com 1267
X 1260
V 1258
k@@ 1258
400 1257
शिप 1257
64 1256
डियो 1256
आखि@@ 1255
विधियों 1255
a@@ 1254
खिला@@ 1254
ळ@@ 1254
g@@ 1253
A. 1246
l 1246
कना@@ 1243
रती@@ 1242
08 1240
अथ@@ 1238
44 1235
रियाई 1233
am 1227
औप@@ 1224
डु 1223
j@@ 1219
हाँ 1212
तिज 1210
an@@ 1209
t@@ 1209
वंश@@ 1209
05 1206
संगीत@@ 1204
रतियोगि@@ 1201
30@@ 1195
b 1190
रोधी 1189
बच@@ 1188
51 1187
06 1186
1000 1185
1920 1185
H 1184
al@@ 1183
चारिक 1183
मिन@@ 1182
गू 1180
ीक 1180
1968 1177
o@@ 1176
https 1175
बेह@@ 1175
उदा@@ 1174
1964 1173
r@@ 1171
किन@@ 1170
छो@@ 1169
सीसी 1168
1966 1166
रधा@@ 1165
by 1164
7.@@ 1163
at 1163
95 1162
x@@ 1160
47 1159
झार@@ 1159
परंपरा@@ 1157
07 1156
निकाल@@ 1153
ंटी 1150
in@@ 1149
39 1146
बित 1146
दबा@@ 1145
ar@@ 1143
ic 1142
N.@@ 1140
इतिहास@@ 1140
अधिका@@ 1139
मग@@ 1137
43 1133
000 1130
99 1126
c@@ 1125
मले@@ 1124
हिमा@@ 1122
as@@ 1117
डिजा@@ 1116
लयों 1116
सिने@@ 1116
00 1115
us 1109
es 1100
विध 1098
04 1096
46 1095
Z.@@ 1095
o 1094
41 1093
85 1092
en 1092
िये 1092
1940 1090
17@@ 1087
9.@@ 1085
मछ@@ 1084
150 1080
देह 1079
काउ@@ 1077
X@@ 1075
1961 1072
53 1072
w@@ 1069
ॆ 1069
राथ@@ 1065
शियाई 1065
8.@@ 1064
that 1064
तरा 1063
1963 1062
योगी 1056
01 1054
टवर 1053
k 1049
अमे@@ 1047
रतिनि@@ 1046
आस@@ 1045
3,@@ 1044
e 1043
राजा@@ 1042
णि 1040
m@@ 1039
गीत@@ 1035
किर@@ 1034
बॉल 1034
Y@@ 1032
1955 1031
56 1029
आधु@@ 1024
ोस 1024
ङ@@ 1022
तरिक 1020
रया@@ 1015
रोग@@ 1014
1949 1012
18@@ 1011
अमी@@ 1010
हृ@@ 1010
72 1007
आम@@ 1003
रभाव@@ 1001
1945 998
54 996
68 995
88 993
रधान@@ 990
v@@ 989
फैस@@ 989
थाप@@ 987
62 986
58 984
बिज@@ 984
02 983
लीवुड 981
1954 980
2,@@ 979
49 979
66 979
57 976
1946 973
हथिय@@ 968
लीज 967
25@@ 965
वाली@@ 965
th@@ 961
i@@ 960
यॉर 954
पसं@@ 953
03 952
1958 950
63 944
ॊ@@ 944
24@@ 942
U 941
1951 940
86 939
अक@@ 935
सद@@ 935
re@@ 934
1959 932
वय@@ 932
एकी@@ 931
विय@@ 931
um 930
77 929
आलो@@ 929
ंपिक 924
पृ@@ 924
आलोच@@ 923
शीत@@ 920
61 918
600 916
कानू@@ 916
71 915
er 913
g 913
ँकि 911
98 910
l@@ 910
--@@ 909
K 907
26@@ 906
रणों 905
राब 905
are 903
यापार@@ 902
समू@@ 899
भागी@@ 898
with 897
फायर 897
समे@@ 895
f@@ 891
साधनों 890
it 889
was 889
अली@@ 889
ag@@ 886
96 881
निग@@ 881
टबॉल 880
73 875
ad@@ 875
याद@@ 875
Z@@ 872
रतियो@@ 872
76 867
74 865
ate 865
विधा 863
40@@ 862
गिक 862
नाव 860
वेब@@ 860
1857 858
मेजबा@@ 858
1942 855
67 851
84 846
परमा@@ 845
III 844
आजा@@ 844
नय 844
राजपू@@ 843
11@@ 837
1953 836
Ch@@ 836
2022 834
5,@@ 831
50@@ 829
82 827
बंधन 826
ch@@ 824
नुष 823
आतं@@ 822
ंकि 820
कुमा@@ 820
4,@@ 816
ref 808
800 807
चारी 804
28@@ 802
W 802
78 801
तिकी 801
59 797
81 796
1936 795
दृ@@ 792
r 790
ity 784
नाइटेड 783
u 781
91 780
92 779
www.@@ 779
कारि@@ 778
http 775
राश@@ 775
94 774
शुरू@@ 773
97 772
IS@@ 772
निरं@@ 772
1939 768
87 767
ृंख@@ 766
अदा@@ 765
am@@ 763
शोर 762
AS@@ 761
83 759
web@@ 757
नाराय@@ 755
दिला@@ 754
1941 748
1937 746
93 746
ताब 743
en@@ 742
1900 739
27@@ 739
णे 739
पां@@ 739
from 738
1919 737
250 736
कोल@@ 736
e.org 734
web 732
79 731
US 731
archiv@@ 729
f 729
रयोग@@ 728
23@@ 726
1932 725
ap@@ 725
,000 723
Q@@ 721
Y 721
ur 721
टिश 719
धिकारी 719
मुरा@@ 719
89 717
69 714
चुनौ@@ 714
on@@ 712
मति 711
यहू@@ 710
120 706
at@@ 705
बाव@@ 705
लंका 704
ns 703
om@@ 703
v 703
सामा@@ 703
Z 701
ph@@ 700
ंडो@@ 700
{ 697
ic@@ 696
पि 694
lo@@ 693
धानी 692
उपभो@@ 690
जनन 690
or@@ 689
29@@ 688
ियान 688
मेडि@@ 687
6,@@ 685
ia 684
हां 683
া@@ 679
गाह 677
1928 676
er@@ 674
आधि@@ 672
नागरि@@ 671
be 670
मीद@@ 668
1931 667
di@@ 667
‎ 666
रभ@@ 665
1,000 662
आज@@ 660
1935 658
model 658
राबाद 656
201@@ 655
7,@@ 654
1934 653
£ 653
700 652
ab@@ 651
1921 650
} 650
1924 649
ॅ 648
1918 647
1944 647
हाबाद 647
ं- 646
लाह@@ 646
समारो@@ 646
45@@ 643
संचा@@ 643
1938 642
ology 639
पंड@@ 639
ac@@ 636
ine 635
un@@ 634
आयु@@ 633
le 630
पहा@@ 626
A4 624
National 624
one 622
contributor 621
timestamp 620
सिए@@ 620
टलैंड 617
दरगाह 617
5,000 616
लियर 613
1943 608
1912 607
`@@ 607
format 607
ur@@ 607
es@@ 605
हाला@@ 605
10,000 603
it@@ 603
le@@ 603
ईं@@ 602
विक@@ 602
SA@@ 600
et 600
sh@@ 599
₹ 599
भीर 596
1922 595
1929 595
el@@ 595
कड@@ 594
8,@@ 593
9,@@ 592
ary 590
बह 590
co@@ 588
पहु@@ 588
− 588
1933 587
ak@@ 587
la 587
ya 586
1925 585
2.5 585
username 585
थानां@@ 582
ॐ 582
is@@ 581
1914 580
An@@ 579
ot@@ 579
ent 575
1917 574
India 574
pur 574
तिहासिक 574
1926 571
कारिक 570
1.5 567
po@@ 566
कैलि@@ 566
सचि@@ 564
ous 563
ul@@ 563
In@@ 558
Q 556
200@@ 553
अमेरि@@ 553
de@@ 552
ical 550
which 549
ed@@ 548
मजब@@ 546
Re@@ 545
tr@@ 540
1927 539
th 539
ँच 539
झे 539
गठ@@ 538
ated 535
ीज 535
पराज@@ 534
35@@ 532
मही@@ 532
संगठ@@ 530
j 529
टली 529
1908 528
1910 526
10.@@ 525
ers 525
· 525
op@@ 524
संहि@@ 524
80@@ 521
विजे@@ 520
1905 518
1923 518
comment 517
el 517
× 516
1911 515
ol@@ 514
नेह@@ 513
रिके@@ 513
इसी@@ 512
शोक 512
सील 511
IN@@ 508
हनु@@ 506
CA@@ 505
थार 505
di 504
Al@@ 502
Ar@@ 502
id@@ 502
ro@@ 502
z@@ 502
सानी 502
his 501
ad 497
em@@ 496
ism 496
1916 494
ंतु 494
सुझा@@ 492
… 490
In 489
ऽ@@ 489
OS 488
Sh@@ 488
DVD 487
बादी 486
ओल@@ 485
खिक 485
5000 483
निकों 482
li@@ 481
u@@ 477
भग 477
एसोसिए@@ 475
CO@@ 474
ec@@ 474
ti@@ 474
Th@@ 472
se 471
12.@@ 470
WWE 469
Windows 468
J 467
कद@@ 467
id 464
os@@ 464
kh@@ 462
ळ 462
2,000 461
ay@@ 461
1915 459
ai 458
गेश 458
विजन 458
11.@@ 456
60@@ 456
il@@ 456
वाता@@ 456
1906 453
tic 453
1500 452
av@@ 451
180 450
1901 450
ir@@ 449
मश@@ 449
AD@@ 448
parentid 448
CD@@ 447
दिरों 447
निवृत 446
oc@@ 444
্ 443
AL@@ 442
ite 442
160 440
z 436
் 436
वज@@ 434
1904 432
CH@@ 430
im@@ 430
720 428
SO@@ 428
रोफे@@ 428
ations 425
st@@ 425
1896 424
IV 424
et@@ 424
ra 424
1909 423
1913 421
har@@ 420
Microsoft 419
og@@ 419
यारी 419
350 417
मनोरं@@ 417
IC@@ 416
ana 416
dis@@ 416
have 416
चुना@@ 416
ER@@ 415
FI@@ 415
wiki 415
900 414
तुर@@ 413
यायाधी@@ 413
UK 411
ance 411
घोष@@ 409
་ 409
AC 408
NBC 408
1907 407
he 407
विधान@@ 407
ari 406
110 405
align 405
ath@@ 405
सूस 405
टती 404
70@@ 403
डिवी@@ 402
0,@@ 401
ics 401
jpg 401
thumb 401
चान 401
HIV 400
ik@@ 400
tion 400
Con@@ 399
2.0 398
not 398
परी 397
130 396
AC@@ 396
to@@ 396
1890 395
फिस 395
वाहिक 394
140 392
has 392
3000 391
ैतिक 391
34@@ 390
मौजू@@ 388
100,000 385
108 385
AN@@ 384
अनुसं@@ 384
aj@@ 383
किलो@@ 383
55@@ 382
TV 382
age 382
center 382
meridi@@ 380
यूजी@@ 380
te 379
text 379
ant 378
ma 378
13.@@ 377
MS 377
also 377
ch 377
कैल@@ 377
Co@@ 376
Kh@@ 376
ve 376
3.5 375
ts 375
1902 374
रोजग@@ 374
ऊँ 373
हरिया@@ 373
ae 372
ile 372
रासत 372
ach@@ 371
name 370
AT 369
od@@ 369
w 368
CD 366
PA 366
per@@ 366
Indian 365
con@@ 365
no@@ 365
its 364
als 363
रामी@@ 363
14.@@ 362
3,000 362
q 362
1880 361
AM@@ 360
MS@@ 360
par@@ 360
125 359
ter 359
NET 358
ang@@ 358
hi@@ 357
bi@@ 356
ऱ 356
ā@@ 354
ov@@ 353
pr@@ 353
able 352
गोरी 352
seau 351
AR@@ 350
Rous@@ 350
1800 349
1899 349
50,000 349
ST@@ 349
ंख@@ 348
किंग@@ 348
20,000 347
ex@@ 347
----@@ 346
Man@@ 345
SE@@ 344
समे 343
BC 342
पेशे@@ 342
codice 341
ha 340
this 340
ting 340
1895 338
da 338
ˈ@@ 338
1903 337
Pr@@ 337
SC 337
ative 337
pl@@ 337
na 335
संबंध@@ 335
NA 334
1860 333
1898 332
AS 332
Highway 332
ish@@ 332
les 332
747 331
AT@@ 331
1858 330
CI@@ 330
um@@ 330
Mar@@ 328
ut@@ 328
1889 327
22@@ 327
IM@@ 327
1870 326
Cl@@ 326
a.@@ 326
gr@@ 326
इनल 326
ta 325
105 323
all 323
sp@@ 323
1885 322
33@@ 322
ons 322
101 321
1891 321
TS 321
br@@ 321
man 321
² 321
1887 320
than 319
MA 318
ho@@ 318
SA 317
and@@ 317
র@@ 317
Par@@ 316
se@@ 316
BS 315
ator 315
ne@@ 315
Or@@ 314
mo@@ 314
US@@ 313
ka 312
revision 312
शासन@@ 312
रिष 311
10,@@ 310
can 310
104 309
1897 309
River 308
aw@@ 308
ans 306
system 306
हिए 306
1894 305
ah@@ 305
bo@@ 305
com@@ 304
ani 303
360 302
Ig@@ 302
1888 301
90@@ 301
ence 301
right 301
us@@ 301
1,0@@ 300
ni@@ 300
ব@@ 300
CS@@ 299
ah 299
230 298
ala 298
1882 297
LA 297
WWF 296
time 296
Per@@ 295
AB@@ 294
hi 294
36@@ 293
os 293
si@@ 293
wikitext 293
DC 292
1886 291
UN@@ 291
ates 291
q@@ 291
Am@@ 290
ari@@ 290
ha@@ 290
विविध@@ 290
शुरु@@ 290
100@@ 289
As 289
ISO 289
15.@@ 288
21@@ 288
47@@ 288
be@@ 287
ing@@ 287
ol 287
ंदु 287
टकों 287
1892 286
NT@@ 285
RA@@ 285
\ 285
qu@@ 285
विप@@ 285
16.@@ 284
4,000 284
SP@@ 284
group 284
ok@@ 284
हारिक 284
102 283
1893 283
end@@ 283
ene 283
ob@@ 283
Bar@@ 282
eg@@ 282
ure 282
भवतः 282
inter@@ 281
ি@@ 281
AN 280
AP@@ 279
Ex@@ 279
MP@@ 279
ata 279
der 279
their 279
ver@@ 279
CE 278
U.S. 278
1.2 277
750 277
38@@ 276
IP@@ 276
ri@@ 276
अनंत@@ 276
जोखि@@ 276
Com@@ 275
^ 275
me@@ 275
1884 273
St@@ 273
two 273
1200 272
amp@@ 272
ati@@ 272
आयर@@ 272
ay 271
27.@@ 270
PC 270
tive 270
समझौ@@ 270
ak 269
ॠ@@ 269
Sam@@ 268
ist 268
FA 267
Tr@@ 267
37@@ 266
more 265
str@@ 265
~ 265
Ph@@ 264
Qu@@ 264
ating 264
ci@@ 264
km 264
ty 264
450 263
CC@@ 263
Institute 263
LC 263
ऎ@@ 263
106 262
cr@@ 262
ig@@ 262
mar@@ 262
1850 261
1881 261
AA 261
ment 261
sub@@ 261
11,@@ 260
119@@ 260
RE@@ 260
4000 259
Di@@ 259
0.5 258
tu@@ 258
were 258
1867 257
IC 257
SM 257
इसे@@ 257
103 256
राजनी@@ 255
18.@@ 254
190@@ 254
col@@ 254
α 254
് 254
ara 253
1872 252
1876 252
ess 252
first 251
number 251
war 251
115 250
but 250
ep@@ 250
est 250
1883 249
Car@@ 249
Inter@@ 249
Le@@ 249
ents 249
other 249
170 248
48@@ 248
Raj@@ 248
car@@ 248
ali 247
tic@@ 247
Ac@@ 246
NH@@ 246
ors 246
Google 245
MTV 245
ke 245
गानिस 245
→ 245
ES@@ 244
RS 244
This 244
World 244
had 244
1848 243
1878 243
Se@@ 243
ंचाई 243
.-@@ 242
109 242
65@@ 242
BE 242
RI@@ 242
he@@ 242
120@@ 241
been 241
1700 240
It 240
ম@@ 240
GE 239
1871 238
De@@ 238
योगकर 238
30,000 237
FC 237
electr@@ 237
so@@ 237
1865 236
Me@@ 236
ted 236
tri@@ 236
21.@@ 235
22.@@ 235
ii 235
ran@@ 235
औ 235
ra@@ 234
सानों 234
€ 234
Col@@ 233
Ne@@ 233
agar 233
me 233
गापुर 233
000,000 232
220 232
En@@ 232
Mah@@ 232
PE@@ 232
University 232
hap@@ 232
ist@@ 232
pi@@ 232
1868 231
International 231
यण 231
001 230
1861 230
HD 230
html 230
ore 230
107 229
17.@@ 229
1875 229
6,000 229
DA 229
ge@@ 229
used 229
1873 228
CA 228
tical 228
रंगा@@ 228
1877 227
78@@ 227
CP 227
Mo@@ 227
il 226
ti 226
up@@ 226
్ 226
CE@@ 225
NO@@ 225
sion 225
ter@@ 225
0.1 224
SE 224
law 224
man@@ 224
IP 223
ant@@ 223
hy@@ 223
las 223
DNA 222
MI@@ 222
ক@@ 222
AI@@ 221
GB 221
1.3 220
1.6 220
126 220
1879 220
23.@@ 219
ot 219
ton 219
್ 219
1856 218
320 218
46@@ 218
FDA 218
bit 218
dr@@ 218
oph@@ 218
poem 218
vi@@ 218
who 218
ল@@ 218
1600 217
1859 217
SS 217
eb@@ 217
use 217
1830 216
19.@@ 216
LS 216
equ@@ 216
128 215
1840 215
4.5 215
trans@@ 215
west 215
सोसिए@@ 215
1.1 214
56@@ 214
WCW 214
ki 214
pre@@ 214
des 213
no 213
114 212
1866 212
2500 212
pe@@ 212
mon@@ 211
घु 211
20.@@ 210
Sp@@ 210
fr@@ 210
ly 210
1863 209
As@@ 209
action 209
आउ@@ 209
7.5 208
ens 208
function 208
ings 208
भुग@@ 208
124@@ 207
te@@ 207
া 207
1,4@@ 206
112 206
Pat@@ 206
era 206
ory 206
px 206
sc@@ 206
44@@ 205
res@@ 205
war@@ 205
सफे@@ 205
ISBN 204
ally 204
go@@ 204
tics 204
हिंद@@ 204
ন 204
43@@ 203
AD 203
OH 203
116 202
122 202
1818 202
25.@@ 202
BM@@ 202
ino 202
sol@@ 202
ऱ@@ 202
॒ 202
1.8 201
12,@@ 201
1854 201
1874 201
Be@@ 201
Nag@@ 201
east 201
org 201
रेर@@ 201
380 200
ash@@ 200
ma@@ 200
190 199
Ab@@ 199
Ad@@ 199
iv@@ 199
value 199
1.4 198
111 198
CO 198
CP@@ 198
HTML 198
anti@@ 198
type 198
63@@ 197
BBC 197
CO2 197
Cor@@ 197
EC@@ 197
S.@@ 197
SI 197
atic 197
s.@@ 197
परी@@ 197
1869 196
49@@ 196
GP@@ 196
li 196
pro@@ 196
124 195
75@@ 195
@ 195
Dis@@ 195
ai@@ 195
such 195
240 194
CC 194
New 194
parallel 194
ə@@ 194
घरेल@@ 194
जूद 194
39@@ 193
AP 193
NS 193
Po@@ 193
cor@@ 193
ological 193
1815 192
8,000 192
ale 192
gar@@ 192
ong 192
सलाह@@ 192
1,5@@ 191
VI 191
ann@@ 191
gen@@ 191
psych@@ 191
they 191
भाषित 191
ু@@ 191
Pro@@ 190
TE@@ 190
au@@ 190
ru@@ 190
Kar@@ 189
SW@@ 189
WHO 189
ang 189
ath 189
for@@ 189
ks 189
nam@@ 189
র 189
1864 188
2.4 188
500,000 188
Div@@ 188
ea 188
ement 188
kar@@ 188
pH 188
144 187
English 187
Ge@@ 187
IT@@ 187
O2 187
do@@ 187
eh@@ 187
em 187
energy 187
form 187
ind@@ 187
land 187
line 187
काता 187
1820 186
Bo@@ 186
He 186
Un@@ 186
æ@@ 186
AO@@ 185
Ro@@ 185
ica 185
into 185
ms 185
point 185
st 185
und@@ 185
β 185
ॄ@@ 185
117 184
138 184
14,@@ 184
7,000 184
II@@ 184
IS 184
TA 184
ina 184
ular 184
काब@@ 184
मलया@@ 184
1855 183
ATA 183
Hz 183
bar@@ 183
ner 183
osis 183
out 183
up 183
121 182
123 182
650 182
PS@@ 182
Su@@ 182
ada 182
between 182
ent@@ 182
over 182
­ 182
118 181
RA 181
enti@@ 181
1803 180
26.@@ 180
6000 180
ID 180
ere 180
per 180
theory 180
113 179
210 179
25,000 179
Fe@@ 179
Tri@@ 179
ell@@ 179
eter 179
बुनिया@@ 179
1.0 178
IT 178
only 178
1- 177
145 177
24.@@ 177
Kal@@ 177
Ma@@ 177
SD@@ 177
hai 177
A.@@ 176
Mas@@ 176
alism 176
all@@ 176
gi@@ 176
uk@@ 176
where 176
1400 175
Cl 175
language 175
su@@ 175
पंजा@@ 175
Ap@@ 174
Na@@ 174
Ram@@ 174
do 174
end 174
kr@@ 174
yl@@ 174
भाल 174
16,@@ 173
1851 173
330 173
Cr@@ 173
SQL 173
SS@@ 173
az@@ 173
ie 173
ion 173
mi@@ 173
sur@@ 173
ে@@ 173
.org 172
13,@@ 172
550 172
Str@@ 172
aceae 172
her@@ 172
most 172
ː@@ 172
तका@@ 172
1845 171
2.3 171
CT 171
John 171
ev@@ 171
left 171
power 171
sa 171
ɪ@@ 171
132 170
1835 170
1853 170
CR@@ 170
Cal@@ 170
ICA@@ 170
Sa@@ 170
ell 170
लखन@@ 170
COVID 169
ists 169
languages 169
od 169
2.2 168
57@@ 168
Br@@ 168
H.@@ 168
M.@@ 168
My@@ 168
UR@@ 168
` 168
ain 168
esh@@ 168
ge 168
ill@@ 168
mer@@ 168
re 168
ud@@ 168
ys@@ 168
2.1 167
2023 167
66@@ 167
El@@ 167
Gr@@ 167
Pan@@ 167
RNA 167
bl@@ 167
lu@@ 167
un 167
vol@@ 167
सूची@@ 167
हैद@@ 167
15,@@ 166
BA 166
Bas@@ 166
amb@@ 166
ati 166
ation@@ 166
edi@@ 166
esis 166
our 166
pol@@ 166
1,500 165
118@@ 165
IE@@ 165
Mal@@ 165
PC@@ 165
cu@@ 165
ian 165
idae 165
will 165
लिमि@@ 165
1,8@@ 164
1819 164
2- 164
WA 164
ets 164
ir 164
so 164
স@@ 164
115@@ 163
1817 163
5.5 163
Er@@ 163
IF@@ 163
Sch@@ 163
adi@@ 163
ass@@ 163
dec@@ 163
state 163
शः 163
Bal@@ 162
ML 162
USB 162
ins 162
iz@@ 162
ome 162
000@@ 161
1,6@@ 161
40,000 161
BMW 161
Bi@@ 161
He@@ 161
MC 161
NS@@ 161
Te@@ 161
United 161
angle 161
colspan 161
est@@ 161
ties 161
ौद 161
॑ 161
দ@@ 161
1843 160
Open 160
PS 160
TC 160
out@@ 160
tor 160
try 160
ura 160
141 159
15,000 159
280 159
32@@ 159
CL@@ 159
Im@@ 159
SI@@ 159
current 159
e.@@ 159
hu@@ 159
if 159
tro@@ 159
water 159
29.@@ 158
CM@@ 158
On 158
PO@@ 158
TP 158
ab 158
ability 158
body 158
fe@@ 158
life 158
set 158
ue 158
ו@@ 158
850 157
act 157
ta@@ 157
जबा@@ 157
165 156
CN@@ 156
RI 156
arg@@ 156
du 156
π 156
ி@@ 156
201 155
For@@ 155
abad 155
may 155
́ 155
1847 154
mart@@ 154
धरी 154
1.7 153
127 153
175 153
67@@ 153
DE@@ 153
GA 153
Sar@@ 153
USA 153
ain@@ 153
ong@@ 153
son 153
when 153
ா@@ 153
1862 152
200,000 152
270 152
B.@@ 152
DP 152
GDP 152
SV 152
Sc@@ 152
hal@@ 152
mi 152
ora 152
well 152
ন@@ 152
Fr@@ 151
Mad@@ 151
Pal@@ 151
acle 151
ational 151
her 151
radi@@ 151
series 151
tis 151
world 151
ऽ 151
1844 150
Mon@@ 150
ac 150
cl@@ 150
dia 150
ou@@ 150
तीस@@ 150
131 149
133 149
1839 149
3.1 149
59@@ 149
Elec@@ 149
VO@@ 149
ect 149
ne 149
pal@@ 149
some 149
ung@@ 149
י@@ 149
142 148
CEO 148
GP 148
Go@@ 148
Har@@ 148
Lo@@ 148
RO@@ 148
apur 148
ba@@ 148
ection 148
ise 148
sa@@ 148
मोली 148
148 147
17,@@ 147
SP 147
Sal@@ 147
XX@@ 147
field 147
him 147
inal 147
ish 147
light 147
we 147
शारी@@ 147
0.2 146
DR 146
ants 146
any 146
force 146
ness 146
style 146
इतिहा@@ 146
जाघर 146
় 146
】 146
136 145
1849 145
6.5 145
76@@ 145
8.5 145
DI 145
HT@@ 145
Hindi 145
NT 145
eng@@ 145
tions 145
ve@@ 145
Al 144
Mag@@ 144
Res@@ 144
after 144
ca 144
ow@@ 144
que 144
tor@@ 144
ug@@ 144
we@@ 144
मथु@@ 144
राती 144
【 144
1789 143
1838 143
8000 143
AV@@ 143
South 143
duc@@ 143
ick@@ 143
iki@@ 143
हराई 143
ত@@ 143
க@@ 143
264 142
53@@ 142
IA 142
NY@@ 142
Research 142
att@@ 142
ley 142
ng 142
pu@@ 142
uri 142
1100 141
137 141
146 141
152 141
1837 141
American 141
RC 141
System 141
Ver@@ 141
adi 141
ality 141
cat@@ 141
many 141
order 141
दाय 141
ऩ@@ 141
116@@ 140
1832 140
1842 140
185 140
300@@ 140
Az@@ 140
au 140
data 140
om 140
pat@@ 140
ా@@ 140
154 139
155 139
199@@ 139
P.@@ 139
ler 139
1300 138
134 138
153 138
3.0 138
58@@ 138
FS 138
PN@@ 138
UEFA 138
ase 138
lin@@ 138
pp@@ 138
tur@@ 138
wa 138
166 137
1770 137
1801 137
1805 137
260 137
54@@ 137
68@@ 137
Gu@@ 137
ME@@ 137
ard 137
fi@@ 137
ib@@ 137
if@@ 137
king 137
ps 137
same 137
´ 137
119 136
129 136
225 136
3.2 136
For 136
Mac@@ 136
Rh@@ 136
TV@@ 136
UM@@ 136
bu@@ 136
mat@@ 136
sive 136
ī@@ 136
157 135
28.@@ 135
74@@ 135
Kan@@ 135
NH 135
YouTube 135
ft 135
ji 135
mm 135
och@@ 135
ole 135
title 135
yn@@ 135
इंजी@@ 135
यादा@@ 135
ர@@ 135
1,3@@ 134
86@@ 134
Act 134
Arch@@ 134
DS 134
First 134
RT@@ 134
ST 134
TE 134
af@@ 134
ess@@ 134
mass 134
tra 134
सामू@@ 134
1824 133
3D 133
ans@@ 133
ding 133
du@@ 133
ency 133
non 133
য 133
1846 132
98@@ 132
AF 132
about 132
ane 132
cur@@ 132
log@@ 132
pedi@@ 132
tis@@ 132
ंने 132
ো@@ 132
143 131
149 131
340 131
ABC 131
AI 131
Bot 131
ce 131
ek@@ 131
नुक@@ 131
॓ 131
1707 130
235 130
DR@@ 130
Group 130
IBM 130
ber@@ 130
fer@@ 130
fl@@ 130
met@@ 130
prot@@ 130
tel@@ 130
151 129
1799 129
1833 129
1841 129
202 129
D. 129
IO@@ 129
NE@@ 129
bul@@ 129
els 129
ies 129
ni 129
people 129
ऑन@@ 129
बंगा@@ 129
1,9@@ 128
182 128
2,0@@ 128
3.3 128
AB 128
Hu@@ 128
Hy@@ 128
La 128
Lee 128
Mc@@ 128
lar@@ 128
tional 128
कैथो@@ 128
भाँ@@ 128
156 127
1826 127
205 127
23,@@ 127
AG 127
AL 127
ax@@ 127
based 127
color 127
elec@@ 127
electric 127
ens@@ 127
gu@@ 127
ip@@ 127
ker 127
oth@@ 127
put 127
ser@@ 127
through 127
158 126
64@@ 126
IB@@ 126
PL@@ 126
अधिक@@ 126
नशिप 126
159 125
1775 125
1806 125
1814 125
7000 125
Des@@ 125
FO@@ 125
IR@@ 125
MO@@ 125
Ni@@ 125
Si@@ 125
We@@ 125
ali@@ 125
called 125
inf@@ 125
iy@@ 125
like 125
min@@ 125
rec@@ 125
three 125
117@@ 124
18,@@ 124
Ag@@ 124
Sol@@ 124
Technology 124
Trans@@ 124
ail 124
arch@@ 124
ely 124
im 124
known 124
ly@@ 124
ozo@@ 124
वजन@@ 124
Dev@@ 123
Do@@ 123
ED@@ 123
EMI 123
Mor@@ 123
Pre@@ 123
XP 123
net@@ 123
process 123
second 123
º 123
मुसल@@ 123
4.2 122
978 122
So@@ 122
air@@ 122
back 122
ee 122
oh@@ 122
oid 122
tan@@ 122
there 122
ture 122
would 122
1,7@@ 121
163 121
1750 121
1852 121
370 121
ME 121
MP 121
day 121
hat@@ 121
pa 121
ste@@ 121
ym@@ 121
139 120
1825 120
air 120
des@@ 120
ids 120
indi@@ 120
istic 120
ko@@ 120
loc@@ 120
pur@@ 120
ster 120
uc@@ 120
way 120
172 119
640 119
Av@@ 119
DL@@ 119
Pakistan 119
Singh 119
Sur@@ 119
aya 119
chrom@@ 119
′ 119
164 118
1793 118
211 118
AR 118
F1 118
LO@@ 118
Mot@@ 118
each 118
ential 118
eth@@ 118
film 118
fin@@ 118
ning 118
ri 118
ulation 118
wor@@ 118
½ 118
डिजि@@ 118
1834 117
2.7 117
400@@ 117
DS@@ 117
IX 117
San 117
flu@@ 117
ling 117
mod@@ 117
the@@ 117
த@@ 117
1761 116
1836 116
An 116
Corporation 116
ani@@ 116
ap 116
har 116
mal@@ 116
micro@@ 116
new 116
ther@@ 116
ual 116
width 116
ర@@ 116
192 115
Can@@ 115
EF@@ 115
Pi@@ 115
cap@@ 115
den 115
ili@@ 115
ium 115
kar 115
lat@@ 115
low 115
unc@@ 115
very 115
် 115
0.4 114
0.7 114
147 114
195 114
20,@@ 114
256 114
500@@ 114
79@@ 114
No@@ 114
RAM 114
To@@ 114
Val@@ 114
igh@@ 114
tion@@ 114
under 114
আ@@ 114
0.6 113
168 113
169 113
1776 113
1783 113
1821 113
1831 113
3- 113
Long@@ 113
PR@@ 113
ace 113
arr@@ 113
atr@@ 113
both 113
distance 113
ial 113
ten@@ 113
প@@ 113
114@@ 112
1792 112
1829 112
212 112
217 112
77@@ 112
9000 112
99@@ 112
BD 112
DE 112
EC 112
MHz 112
Pol@@ 112
Sim@@ 112
State 112
common 112
der@@ 112
during 112
esh 112
ke@@ 112
ng@@ 112
tric 112
1.9 111
161 111
DV@@ 111
EG 111
H2@@ 111
Inc. 111
Is@@ 111
cs 111
dh@@ 111
ena 111
net 111
spec@@ 111
these 111
tiv@@ 111
vo@@ 111
0.3 110
167 110
1765 110
188 110
19,@@ 110
203 110
206 110
4- 110
999 110
EN@@ 110
San@@ 110
Tar@@ 110
ini 110
less 110
ode 110
partic@@ 110
und 110
yr@@ 110
1526 109
1772 109
30.@@ 109
4.0 109
BO@@ 109
CBS 109
Last 109
M. 109
Pe@@ 109
Vol@@ 109
XI 109
ast@@ 109
ble 109
red 109
sw@@ 109
then 109
ר@@ 109
● 109
150@@ 108
1804 108
1827 108
1828 108
2.8 108
AF@@ 108
Apple 108
DM 108
Iglesia 108
MV 108
PT@@ 108
RN@@ 108
Sub@@ 108
complex 108
cy@@ 108
enc@@ 108
fac@@ 108
int 108
method 108
news 108
nm 108
sin@@ 108
super@@ 108
ung 108
work 108
मोबा@@ 108
1773 107
1812 107
480 107
84@@ 107
Indi@@ 107
R.@@ 107
Samsung 107
ages 107
ales 107
ao 107
aur 107
code 107
ey 107
ff@@ 107
include 107
int@@ 107
ko 107
ography 107
onal 107
public@@ 107
year 107
σ 107
1823 106
365 106
Char@@ 106
Ta@@ 106
Temple 106
Ur@@ 106
VI@@ 106
acy 106
ast 106
cin@@ 106
cre@@ 106
ever 106
gan@@ 106
la@@ 106
phot@@ 106
reg@@ 106
rot@@ 106
± 106
सहम@@ 106
ு@@ 106
162 105
1764 105
1788 105
1816 105
204 105
420 105
Hal@@ 105
Nar@@ 105
Sony 105
States 105
ach 105
circuit 105
inc@@ 105
phy@@ 105
ters 105
ub@@ 105
জ@@ 105
1780 104
1790 104
1798 104
85@@ 104
87@@ 104
College 104
GM 104
H2O 104
Khan 104
ML@@ 104
One 104
constant 104
using 104
va 104
é 104
হ@@ 104
ಾ@@ 104
1774 103
2.6 103
AIDS 103
AX 103
Category 103
Gar@@ 103
RT 103
Ter@@ 103
Wor@@ 103
ade 103
ds 103
eli@@ 103
io 103
ire 103
map@@ 103
years 103
� 103
22,@@ 102
39.@@ 102
C. 102
E. 102
LP 102
North 102
Ser@@ 102
U.@@ 102
atom@@ 102
del 102
ella 102
ging 102
hin@@ 102
mu@@ 102
ov 102
period 102
ples 102
south 102
wave 102
بن 102
ਾ@@ 102
1757 101
1784 101
181 101
PR 101
Pl@@ 101
ROM 101
act@@ 101
area 101
bre@@ 101
cal 101
differ@@ 101
etic 101
fo@@ 101
high 101
north 101
numbers 101
oma 101
￼ 101
38.@@ 100
Association 100
CF@@ 100
ICC 100
J. 100
LE@@ 100
Min@@ 100
bin@@ 100
ean 100
ick 100
iti@@ 100
ogen@@ 100
ond@@ 100
our@@ 100
plas@@ 100
si 100
ാ@@ 100
178 99
1795 99
245 99
By 99
CI 99
Central 99
Hol@@ 99
SR@@ 99
VII 99
Web 99
XX 99
ba 99
cer@@ 99
han@@ 99
ita 99
off 99
yan@@ 99
0.8 98
113@@ 98
183 98
215 98
37.@@ 98
88@@ 98
All 98
CS 98
HS 98
I.@@ 98
PG 98
ard@@ 98
ass 98
ats 98
cal@@ 98
change 98
chem@@ 98
ice 98
key 98
pan@@ 98
ren@@ 98
sym@@ 98
wh@@ 98
0,0@@ 97
192@@ 97
Cy@@ 97
Ho@@ 97
IG@@ 97
Mu@@ 97
PP@@ 97
Prot@@ 97
SR 97
Shar@@ 97
Society 97
ake 97
das 97
ef@@ 97
list 97
tar@@ 97
une 97
unit 97
θ 97
110@@ 96
1556 96
177 96
1802 96
184 96
193@@ 96
Ban@@ 96
Co 96
EP 96
ET 96
MI 96
Plan@@ 96
SL@@ 96
The@@ 96
Vi@@ 96
ature 96
dy 96
ear@@ 96
ides 96
mag@@ 96
son@@ 96
them 96
tom@@ 96
ua 96
तमिल@@ 96
1760 95
221 95
28,@@ 95
HC 95
HP 95
Her@@ 95
ama 95
ema 95
gener@@ 95
han 95
heat 95
ht@@ 95
lam@@ 95
minor 95
oper@@ 95
ox@@ 95
ut 95
पसी 95
ம@@ 95
1822 94
195@@ 94
3500 94
Bel@@ 94
Bur@@ 94
Mi@@ 94
Op@@ 94
SH@@ 94
School 94
Siemens 94
T. 94
aus@@ 94
cos@@ 94
ek 94
imp@@ 94
ines 94
ments 94
peri@@ 94
pressure 94
yp@@ 94
ల@@ 94
ರ@@ 94
193 93
232 93
25,@@ 93
310 93
Ber@@ 93
CV 93
DT 93
EM@@ 93
Em@@ 93
V8 93
ato 93
cell 93
det@@ 93
made 93
ota 93
poly@@ 93
side 93
systems 93
tem@@ 93
verse 93
γ 93
हमे@@ 93
171 92
176 92
1787 92
2,8@@ 92
265 92
36,@@ 92
Bh@@ 92
Council 92
DO@@ 92
Development 92
Dr@@ 92
Dyn@@ 92
Great 92
Kum@@ 92
Publ@@ 92
R. 92
Rec@@ 92
Reg@@ 92
Sans@@ 92
Social 92
book 92
ese 92
ga 92
led 92
neur@@ 92
ori@@ 92
ories 92
sy@@ 92
tes 92
top 92
« 92
मचार@@ 92
179 91
1st 91
26,@@ 91
275 91
3,0@@ 91
99.@@ 91
E.@@ 91
EU 91
Mer@@ 91
S. 91
William 91
acc@@ 91
acid 91
app@@ 91
chi 91
chi@@ 91
dic@@ 91
district 91
ective 91
oo 91
pe 91
sam@@ 91
shi@@ 91
table 91
tors 91
ying 91
2,5@@ 90
227 90
48.@@ 90
95@@ 90
AE@@ 90
Ak@@ 90
Ca@@ 90
Company 90
FIFA 90
MB 90
SB 90
def@@ 90
lab@@ 90
my 90
ye 90
ऋ 90
1813 89
24,@@ 89
325 89
69@@ 89
ER 89
SD 89
SN@@ 89
Sanc@@ 89
Tit@@ 89
ars 89
asa 89
being 89
cul@@ 89
itis 89
over@@ 89
place 89
rom@@ 89
row 89
sch@@ 89
ి@@ 89
1540 88
173 88
250@@ 88
35.@@ 88
404 88
B. 88
Gal@@ 88
General 88
Ma 88
Mes@@ 88
ae@@ 88
ail@@ 88
ax 88
can@@ 88
ce@@ 88
co 88
ez@@ 88
fication 88
given 88
iri 88
mechan@@ 88
my@@ 88
nom@@ 88
part 88
tim@@ 88
ush@@ 88
yc@@ 88
א@@ 88
ச@@ 88
ക@@ 88
1550 87
1763 87
1785 87
AG@@ 87
At@@ 87
Cur@@ 87
GNU 87
Gen@@ 87
K. 87
Red@@ 87
Science 87
Tel@@ 87
Ther@@ 87
UI 87
West 87
alis 87
aur@@ 87
ays 87
bur@@ 87
development 87
fol@@ 87
ga@@ 87
km2 87
men 87
ock 87
product 87
self 87
ume 87
yo@@ 87
ী 87
ப@@ 87
1620 86
174 86
1807 86
1809 86
194 86
196@@ 86
2,9@@ 86
226 86
Es@@ 86
Gl@@ 86
London 86
Ti@@ 86
cc 86
company 86
dar 86
dev@@ 86
example 86
following 86
ites 86
ki@@ 86
lan@@ 86
plan@@ 86
pos@@ 86
position 86
taya 86
ts@@ 86
tt@@ 86
vari@@ 86
ō@@ 86
ऴ 86
ॊ 86
ા@@ 86
ར@@ 86
10000 85
1756 85
1810 85
208 85
222 85
BL 85
CL 85
Chinese 85
Ed@@ 85
GI 85
GR@@ 85
MT@@ 85
Pres@@ 85
SMS 85
Server 85
TH@@ 85
WW@@ 85
class 85
emb@@ 85
odi@@ 85
ok 85
osa 85
space 85
tag@@ 85
tal@@ 85
ute 85
ysis 85
मुता@@ 85
वाभा@@ 85
ਸ@@ 85
1782 84
194@@ 84
199 84
239 84
290 84
BP 84
CR 84
Det@@ 84
Gan@@ 84
History 84
Linux 84
Mak@@ 84
Mand@@ 84
VC 84
Year 84
ace@@ 84
anti 84
ental 84
ich@@ 84
ization 84
pm 84
real 84
sil@@ 84
ves 84
ys 84
243 83
27,@@ 83
630 83
C.@@ 83
Li@@ 83
NBA 83
OR@@ 83
Psych@@ 83
Pur@@ 83
SU@@ 83
Sah@@ 83
Union 83
aria 83
atus 83
cas@@ 83
champ 83
coun@@ 83
effect 83
ide 83
later 83
long@@ 83
orr@@ 83
sec@@ 83
section 83
sions 83
ula 83
you 83
यावसा@@ 83
■ 83
1660 82
29,@@ 82
47.@@ 82
AH 82
Cer@@ 82
East 82
GO@@ 82
Ha@@ 82
IN 82
Life 82
MT 82
P. 82
SM@@ 82
UTC 82
amework 82
asty 82
free 82
human 82
ight 82
induc@@ 82
kg 82
long 82
mer 82
not@@ 82
nucle@@ 82
phase 82
small 82
while 82
za 82
শ@@ 82
1748 81
1791 81
1794 81
191 81
305 81
32.@@ 81
BT 81
Book 81
China 81
ES 81
Mur@@ 81
aph@@ 81
base 81
cells 81
den@@ 81
gas 81
hol@@ 81
isi@@ 81
ius 81
near 81
oz@@ 81
ple@@ 81
quanti@@ 81
sen@@ 81
surface 81
ɛ@@ 81
দ 81
৷ 81
130@@ 80
1536 80
196 80
2nd 80
530 80
Air 80
Ba@@ 80
Day 80
Dec@@ 80
FM 80
Health 80
High 80
Ko@@ 80
Law 80
alg@@ 80
ame 80
ero 80
form@@ 80
ika 80
ja 80
magne@@ 80
mus@@ 80
ner@@ 80
ols 80
ome@@ 80
organ@@ 80
public 80
tage 80
til@@ 80
ā 80
आरं@@ 80
ਰ@@ 80
வ@@ 80
207 79
228 79
238 79
302 79
560 79
950 79
API 79
CPU 79
James 79
King 79
RCA 79
Yam@@ 79
You 79
active 79
asi@@ 79
city 79
ements 79
gh@@ 79
ola 79
onic 79
por@@ 79
una 79
গ@@ 79
ര@@ 79
1605 78
1739 78
198@@ 78
21,@@ 78
214 78
233 78
301 78
303 78
96@@ 78
Black 78
IA@@ 78
Met@@ 78
Mus@@ 78
Music 78
PI 78
Pak@@ 78
Santa 78
bal@@ 78
celer@@ 78
century 78
control 78
del@@ 78
eme 78
functions 78
gen 78
gre@@ 78
has@@ 78
pres@@ 78
science 78
sin 78
source 78
tw@@ 78
under@@ 78
ye@@ 78
yg@@ 78
ਿ@@ 78
ി@@ 78
1740 77
189 77
198 77
2,7@@ 77
234 77
AE 77
EV@@ 77
Gi@@ 77
HD@@ 77
Island 77
Kam@@ 77
Kingdom 77
Por@@ 77
Ran@@ 77
Tal@@ 77
ack@@ 77
case 77
different 77
ensis 77
eral 77
eri@@ 77
hom@@ 77
sti@@ 77
ে 77
180@@ 76
197 76
2030 76
218 76
375 76
DF 76
DL 76
DOS 76
FF 76
H. 76
Tur@@ 76
UL@@ 76
ams 76
anga 76
bel@@ 76
comp@@ 76
down 76
emp@@ 76
ery 76
ey@@ 76
face 76
found 76
ih@@ 76
ku@@ 76
lig@@ 76
mal 76
mg 76
old 76
ona 76
page 76
pel@@ 76
ro 76
ship 76
sk@@ 76
social 76
sources 76
temperature 76
ul 76
wan@@ 76
চ@@ 76
0s 75
Bah@@ 75
Ga@@ 75
IL 75
Lin@@ 75
aka 75
anc@@ 75
arch 75
ators 75
bs 75
ful 75
illa 75
ized 75
mp@@ 75
» 75
ō 75
ū@@ 75
מ@@ 75
ང 75
1768 74
1778 74
216 74
241 74
244 74
At 74
Bor@@ 74
Cre@@ 74
Fo@@ 74
Mos@@ 74
NAS@@ 74
Nu@@ 74
UC@@ 74
Ul@@ 74
War@@ 74
aha 74
ber 74
cycle 74
ida 74
inn@@ 74
ju@@ 74
kal@@ 74
mis@@ 74
mot@@ 74
ones 74
rel@@ 74
sing@@ 74
tha 74
ə 74
ऍ 74
ன 74
ు@@ 74
ོ@@ 74
1786 73
1797 73
1808 73
186 73
2,6@@ 73
209 73
237 73
273 73
660 73
737 73
CT@@ 73
Cap@@ 73
Cas@@ 73
EL@@ 73
Foundation 73
George 73
KP 73
Krish@@ 73
Leg@@ 73
Mel@@ 73
Pen@@ 73
Power 73
To 73
alp@@ 73
analysis 73
char@@ 73
eri 73
esc@@ 73
estr@@ 73
ew@@ 73
family 73
m2 73
mathemati@@ 73
mtDNA 73
oa 73
points 73
return 73
standard 73
ster@@ 73
tec@@ 73
ver 73
word 73
ী@@ 73
1530 72
187 72
223 72
251 72
286 72
307 72
322 72
33.@@ 72
34,@@ 72
89@@ 72
97@@ 72
Aj@@ 72
Da@@ 72
GT 72
Loc@@ 72
Medical 72
Peri@@ 72
Ros@@ 72
Sir 72
Sir@@ 72
background 72
head 72
ices 72
information 72
mit@@ 72
of@@ 72
phys@@ 72
region 72
uru 72
wara 72
الله 72
रासाय@@ 72
ি 72
ಿ@@ 72
248 71
540 71
BI 71
Chi@@ 71
DB 71
David 71
EP@@ 71
Far@@ 71
Fin@@ 71
Fl@@ 71
GC 71
Mul@@ 71
Net@@ 71
PD 71
Space 71
Techn@@ 71
anth@@ 71
aries 71
ash 71
ering 71
ham@@ 71
hat 71
kan@@ 71
lie 71
multi@@ 71
onom@@ 71
op 71
ori 71
ote 71
other@@ 71
ry 71
ution 71
á@@ 71
μ@@ 71
परिव@@ 71
ত 71
94@@ 70
Ang@@ 70
Bre@@ 70
CN 70
Centre 70
DD 70
Is 70
MIT 70
Open@@ 70
Proc@@ 70
Robert 70
Wild@@ 70
alme 70
gam@@ 70
ici@@ 70
identity 70
mor@@ 70
ose 70
plat@@ 70
ratio 70
river 70
ses 70
single 70
those 70
thr@@ 70
version 70
बात@@ 70
224 69
309 69
District 69
Earth 69
Fe 69
House 69
However 69
Information 69
Jo@@ 69
KO 69
Man 69
N. 69
Nap@@ 69
Pradesh 69
TO@@ 69
aj 69
amm@@ 69
bs@@ 69
cle 69
ern@@ 69
hr@@ 69
level 69
motion 69
mun@@ 69
reaction 69
rit@@ 69
run 69
sig@@ 69
sph@@ 69
star 69
ust 69
yst@@ 69
ה@@ 69
محمد 69
अयो@@ 69
खाबाद 69
‚ 69
1658 68
1689 68
1699 68
1759 68
1767 68
219 68
236 68
266 68
410 68
430 68
Bag@@ 68
EE 68
Ke@@ 68
List 68
No 68
Rel@@ 68
Sab@@ 68
See 68
Tor@@ 68
Web@@ 68
art 68
asp@@ 68
ave 68
cho@@ 68
emia 68
ger 68
go 68
hab@@ 68
hydro@@ 68
ils 68
lar 68
mah@@ 68
mas@@ 68
mel@@ 68
pin@@ 68
proc@@ 68
pul@@ 68
rap@@ 68
rule 68
uk 68
uses 68
য@@ 68
1720 67
1769 67
213 67
231 67
247 67
262 67
356 67
36.@@ 67
37,@@ 67
570 67
610 67
BSD 67
CIA 67
Cav@@ 67
City 67
Delhi 67
Dr. 67
Hel@@ 67
Hor@@ 67
Jag@@ 67
Kol@@ 67
Office 67
Park 67
Some 67
Sy@@ 67
UFC 67
Vir@@ 67
before 67
conduc@@ 67
cular 67
ded 67
don@@ 67
ep 67
frequency 67
identi@@ 67
linear 67
meas@@ 67
much 67
nu 67
ots 67
properties 67
ten 67
test 67
ules 67
what 67
चीत 67
सनिक 67
మ@@ 67
မ@@ 67
.S. 66
1680 66
1729 66
1752 66
1766 66
252 66
35,@@ 66
510 66
A1 66
AK@@ 66
COM 66
Charles 66
Cop@@ 66
Cu@@ 66
England 66
GN@@ 66
Gh@@ 66
Le 66
PN 66
Plus 66
aja 66
alli 66
device 66
e.g. 66
ences 66
enn@@ 66
hiv@@ 66
ine@@ 66
ll 66
ny@@ 66
opo@@ 66
she 66
spir@@ 66
ē@@ 66
ـ@@ 66
सोसाइ@@ 66
1690 65
1781 65
30,@@ 65
34.@@ 65
520 65
Ben@@ 65
Bu@@ 65
Equ@@ 65
Han@@ 65
Kat@@ 65
Live 65
Ltd 65
Pro 65
Service 65
Sil@@ 65
Soci@@ 65
Sw@@ 65
antum 65
calcul@@ 65
conver@@ 65
cop@@ 65
fied 65
gro@@ 65
hem@@ 65
hindi 65
how 65
isa 65
ker@@ 65
mes@@ 65
phen@@ 65
pi 65
political 65
pura 65
scale 65
umb@@ 65
uni@@ 65
ven@@ 65
धानिक 65
1650 64
1779 64
1811 64
285 64
304 64
333 64
335 64
Army 64
D.@@ 64
DI@@ 64
French 64
Human 64
Jum@@ 64
OR 64
Pu@@ 64
She 64
These 64
Var@@ 64
Wh@@ 64
ack 64
apo@@ 64
aves 64
centr@@ 64
chemical 64
eum 64
history 64
log 64
mann 64
medi@@ 64
ocy@@ 64
sal@@ 64
tia 64
tre@@ 64
tronics 64
true 64
ऑ 64
ऩ 64
ৰ@@ 64
ಕ@@ 64
‏ 64
1520 63
1580 63
1670 63
259 63
271 63
276 63
321 63
334 63
440 63
45.@@ 63
960 63
Ash@@ 63
BAFTA 63
Bir@@ 63
CM 63
Cam@@ 63
Code 63
Global 63
HF 63
HR 63
ID@@ 63
Joseph 63
MG 63
Mat@@ 63
Name 63
Network 63
New@@ 63
Pas@@ 63
Republic 63
Sea 63
Tir@@ 63
UT@@ 63
Xbox 63
above 63
ains 63
could 63
dit 63
factor 63
ill 63
integr@@ 63
ira 63
ith 63
je@@ 63
let 63
lic 63
major 63
mm@@ 63
music 63
mut@@ 63
nam 63
negative 63
osph@@ 63
refl@@ 63
theor@@ 63
therap@@ 63
ב@@ 63
ל@@ 63
वसीय 63
ল 63
ు 63
1610 62
1710 62
1728 62
1755 62
255 62
268 62
39,@@ 62
49.@@ 62
App@@ 62
Center 62
EST 62
Fil@@ 62
GT@@ 62
HA 62
His 62
Lad@@ 62
Language 62
Pap@@ 62
Road 62
Ste@@ 62
Sum@@ 62
Systems 62
Time 62
anda 62
ards 62
bes 62
charge 62
dig@@ 62
endra 62
eth 62
four 62
ham 62
house 62
hyper@@ 62
iss@@ 62
large 62
men@@ 62
mo 62
now 62
often 62
pression 62
result 62
sem@@ 62
sian 62
sson 62
tar 62
val@@ 62
van@@ 62
vi 62
xi@@ 62
і@@ 62
वियत 62
ു@@ 62
1618 61
1724 61
1730 61
229 61
323 61
326 61
460 61
911 61
Bil@@ 61
Bl@@ 61
CV@@ 61
Hem@@ 61
IUCN 61
Kur@@ 61
MR 61
Moh@@ 61
NR@@ 61
Out@@ 61
RE 61
Red 61
Sav@@ 61
Shah@@ 61
She@@ 61
Shr@@ 61
Theory 61
There 61
Thir@@ 61
actions 61
another 61
arp@@ 61
axis 61
books 61
bus@@ 61
cogni@@ 61
come 61
dead 61
due 61
eus 61
fal@@ 61
fier 61
great 61
hav@@ 61
hum@@ 61
imal 61
land@@ 61
ney 61
oli 61
ou 61
positive 61
run@@ 61
see 61
several 61
since 61
sing 61
village 61
vis@@ 61
wan 61
ī 61
ɑ@@ 61
β@@ 61
ृद 61
ి 61
― 61
242 60
31.@@ 60
319 60
324 60
De 60
European 60
Government 60
Limited 60
Me 60
Medi@@ 60
Micro@@ 60
Phys@@ 60
Sel@@ 60
Syn@@ 60
USD 60
VIII 60
War 60
ag 60
ami 60
anus 60
ayan 60
bor@@ 60
ect@@ 60
fil@@ 60
ges 60
gl@@ 60
government 60
home 60
hor@@ 60
indic@@ 60
international 60
ised 60
istry 60
ital 60
itor 60
ks@@ 60
ogr@@ 60
port 60
ros@@ 60
total 60
tube 60
tural 60
works 60
yl 60
، 60
ऒ@@ 60
ੰ@@ 60
ం@@ 60
త@@ 60
1250 59
1688 59
1749 59
1753 59
249 59
278 59
282 59
293 59
46.@@ 59
490 59
Bad@@ 59
Bud@@ 59
CLC 59
Chem@@ 59
Commission 59
Direc@@ 59
Energy 59
Eng@@ 59
Engineering 59
Fer@@ 59
Fi@@ 59
Ford 59
From 59
G. 59
IL@@ 59
Ind@@ 59
Ir@@ 59
March 59
Pri@@ 59
Ra@@ 59
Ri@@ 59
SAR@@ 59
SH 59
SL 59
Scre@@ 59
T.@@ 59
TR@@ 59
White 59
XVI 59
agram 59
because 59
country 59
door 59
frame 59
general 59
ima 59
ision 59
ited 59
ition 59
iv 59
les@@ 59
main 59
material 59
mic 59
nu@@ 59
orph@@ 59
ost@@ 59
own 59
phone 59
plane 59
scope 59
sen 59
structure 59
urn@@ 59
uv@@ 59
xx 59
ynam@@ 59
É@@ 59
1703 58
1754 58
1796 58
188@@ 58
281 58
295 58
311 58
32,@@ 58
680 58
Aer@@ 58
BR 58
British 58
C1 58
Cent@@ 58
Chand@@ 58
Fre@@ 58
Gor@@ 58
K.@@ 58
Ki@@ 58
LG@@ 58
Nav@@ 58
Thomas 58
Wil@@ 58
around 58
atur@@ 58
bat@@ 58
bol 58
cir@@ 58
early 58
eo 58
etes 58
final 58
geome@@ 58
ger@@ 58
including 58
non@@ 58
oil 58
open 58
ord@@ 58
otic 58
rate 58
research 58
she@@ 58
software 58
tin 58
ush 58
view 58
yu 58
മ@@ 58
★ 58
1665 57
1758 57
246 57
257 57
258 57
294 57
312 57
355 57
415 57
America 57
Education 57
June 57
Kor@@ 57
Media 57
ON@@ 57
Paul 57
W. 57
absor@@ 57
aff@@ 57
andi@@ 57
compon@@ 57
ech 57
eph@@ 57
esti@@ 57
fre@@ 57
gic 57
ide@@ 57
ith@@ 57
kho@@ 57
last 57
leg@@ 57
must 57
natural 57
nuclear 57
object 57
ope 57
ophy@@ 57
ordin@@ 57
pen@@ 57
physical 57
prec@@ 57
ray 57
rop@@ 57
sed 57
sel@@ 57
should 57
sum 57
syn@@ 57
thi 57
uli@@ 57
wal@@ 57
won 57
yan 57
धपुर 57
ਨ@@ 57
ட@@ 57
ల 57
1603 56
1627 56
274 56
306 56
313 56
345 56
386 56
470 56
760 56
Airport 56
Dar@@ 56
Dig@@ 56
Force 56
Games 56
HO@@ 56
IU@@ 56
Intel 56
Khar@@ 56
Maj@@ 56
Public 56
SF@@ 56
SV@@ 56
Ty@@ 56
Uni@@ 56
aga 56
against 56
alm@@ 56
ances 56
aun@@ 56
black 56
box 56
com 56
continu@@ 56
diff@@ 56
direct 56
ems 56
entr@@ 56
err@@ 56
ev 56
even 56
forces 56
icient 56
ik 56
industry 56
modern 56
onlyinclude 56
oth 56
oy@@ 56
potential 56
production 56
prop@@ 56
put@@ 56
states 56
sul@@ 56
ternal 56
ton@@ 56
ust@@ 56
variable 56
without 56
ʲ@@ 56
ه@@ 56
रारं@@ 56
ਹ@@ 56
క@@ 56
ಮ@@ 56
1517 55
1648 55
1704 55
1713 55
308 55
390 55
Brah@@ 55
Business 55
Del@@ 55
ET@@ 55
Facebook 55
Green 55
HBO 55
Hydro@@ 55
Kot@@ 55
L. 55
Mac 55
Management 55
Mem@@ 55
My 55
PL 55
Pa@@ 55
Poly@@ 55
Sem@@ 55
Series 55
Sho@@ 55
Visual 55
Vo@@ 55
aa 55
alization 55
andi 55
any@@ 55
asis 55
atory 55
bon 55
bri@@ 55
cel@@ 55
ces 55
course 55
disease 55
education 55
emis@@ 55
eng 55
him@@ 55
mati@@ 55
ment@@ 55
olog@@ 55
oning 55
published 55
range 55
rati@@ 55
search 55
species 55
struc@@ 55
tan 55
term 55
trum 55
vector 55
ville 55
zo@@ 55
ه 55
୍ 55
న@@ 55
བ@@ 55
1555 54
1630 54
1708 54
1725 54
254 54
283 54
287 54
August 54
Bay 54
EA 54
EX@@ 54
F. 54
Gang@@ 54
If 54
Long 54
Meth@@ 54
Multi@@ 54
NASA 54
Pul@@ 54
Raw@@ 54
Royal 54
Tam@@ 54
Ven@@ 54
Western 54
acter@@ 54
assi@@ 54
bank 54
bers 54
bil@@ 54
cm 54
crip@@ 54
din 54
ects 54
ended 54
eous 54
ex 54
forms 54
grap@@ 54
hydr@@ 54
ila 54
itation 54
mean 54
media 54
mission 54
molec@@ 54
nature 54
nor@@ 54
oke 54
pound 54
princip@@ 54
san@@ 54
sar@@ 54
trol@@ 54
wal 54
was@@ 54
women 54
à@@ 54
م 54
ক 54
ம 54
ல@@ 54
ས@@ 54
ṭ@@ 54
253 53
263 53
272 53
288 53
331 53
343 53
580 53
620 53
AU 53
April 53
Bab@@ 53
I. 53
Jean 53
MW 53
Mathemati@@ 53
Middle 53
Mir@@ 53
Project 53
Records 53
Region 53
Sin@@ 53
Sr@@ 53
Sud@@ 53
Sun@@ 53
TT@@ 53
Tak@@ 53
Tro@@ 53
V. 53
Xi@@ 53
alist 53
ano 53
ava 53
bar 53
blog@@ 53
ching 53
cli@@ 53
cross 53
ech@@ 53
ected 53
eti@@ 53
ett@@ 53
gal@@ 53
gs 53
ky 53
nic@@ 53
path@@ 53
property 53
pus 53
sim@@ 53
stage 53
team 53
terms 53
times 53
trig@@ 53
ved 53
æ 53
ð 53
ָ@@ 53
कारात 53
दमी 53
મ@@ 53
ய@@ 53
గ@@ 53
ನ@@ 53
1640 52
1659 52
1751 52
1777 52
197@@ 52
Academy 52
Bang@@ 52
CH 52
Court 52
ED 52
Edward 52
FF@@ 52
France 52
IV@@ 52
Ker@@ 52
La@@ 52
Lake 52
Mil@@ 52
Oc@@ 52
Other 52
Standard 52
Tre@@ 52
VA 52
Vista 52
aci@@ 52
allo@@ 52
among 52
arm@@ 52
ban@@ 52
cle@@ 52
coordin@@ 52
cro@@ 52
cut@@ 52
dem@@ 52
elle 52
eta 52
ford 52
gas@@ 52
had@@ 52
hu 52
index 52
ion@@ 52
istics 52
kl@@ 52
lands 52
lines 52
mol 52
mos@@ 52
ologies 52
oni 52
oni@@ 52
operation 52
play 52
quality 52
qui@@ 52
said 52
sor@@ 52
stone 52
support 52
technology 52
uli 52
unds 52
worth 52
¤ 52
§ 52
ð@@ 52
ε 52
मुंगे@@ 52
ప@@ 52
ག@@ 52
″ 52
1450 51
1598 51
1612 51
1743 51
1762 51
2,4@@ 51
292 51
BR@@ 51
Baz@@ 51
CF 51
Du@@ 51
EN 51
Environ@@ 51
GS 51
Ger@@ 51
Hind@@ 51
Je@@ 51
July 51
Kas@@ 51
L.@@ 51
Na 51
Nor@@ 51
PE 51
Sad@@ 51
Shi@@ 51
Sing@@ 51
UN 51
XIV 51
XV 51
ago 51
agr@@ 51
ais@@ 51
ana@@ 51
ark@@ 51
auri 51
average 51
best 51
bit@@ 51
core 51
ebo@@ 51
eff@@ 51
ette 51
ike 51
ington 51
itude 51
make 51
med@@ 51
metal 51
mol@@ 51
obi@@ 51
ond 51
oscop@@ 51
parti@@ 51
present 51
sine 51
specific 51
sum@@ 51
umin@@ 51
vas@@ 51
wood 51
ze 51
í@@ 51
ح@@ 51
पिथो@@ 51
ম 51
ਮ@@ 51
√ 51
▪ 51
.C. 50
1492 50
1661 50
1702 50
1771 50
189@@ 50
Bank 50
CG 50
Catedral 50
Eul@@ 50
IF 50
Internet 50
Kin@@ 50
Ly@@ 50
Nam@@ 50
PO 50
Pad@@ 50
Sciences 50
Studies 50
Super 50
Super@@ 50
Vis@@ 50
Wy@@ 50
alan 50
ania 50
aring 50
back@@ 50
cha 50
did 50
dom@@ 50
expon@@ 50
features 50
ff 50
get 50
hur@@ 50
important 50
inde@@ 50
ins@@ 50
ities 50
ket 50
learning 50
lied 50
membran@@ 50
ont@@ 50
org@@ 50
process@@ 50
reduc@@ 50
rut@@ 50
sh 50
short 50
sit@@ 50
spo@@ 50
stat@@ 50
tica 50
trav@@ 50
von 50
wing 50
zy@@ 50
ধ@@ 50
ভ@@ 50
ವ@@ 50
1631 49
1715 49
1719 49
1722 49
1727 49
184@@ 49
261 49
279 49
284 49
354 49
512 49
787 49
Ali 49
Android 49
BM 49
Bak@@ 49
Bol@@ 49
Canada 49
Cat@@ 49
Gand@@ 49
German 49
IEEE 49
Integr@@ 49
Kir@@ 49
Kon@@ 49
LD 49
Lak@@ 49
Land 49
October 49
Of 49
Old 49
Philosoph@@ 49
Sat@@ 49
Sen@@ 49
ads 49
art@@ 49
asi 49
bas@@ 49
computer 49
dat@@ 49
double 49
dy@@ 49
eas@@ 49
ending 49
ently 49
equal 49
fact 49
grav@@ 49
ili 49
immun@@ 49
inae 49
ished 49
kin@@ 49
ler@@ 49
lia 49
lock 49
los@@ 49
na@@ 49
numer@@ 49
ons@@ 49
pedia 49
plac@@ 49
ree 49
square 49
stell@@ 49
study 49
uch@@ 49
ule 49
var@@ 49
vers 49
white 49
І 49
נ@@ 49
दूस@@ 49
ಿ 49
ು@@ 49
വ@@ 49
ས 49
း@@ 49
1638 48
1666 48
1672 48
297 48
405 48
50,@@ 48
All@@ 48
Board 48
Cin@@ 48
Egypt 48
Eth@@ 48
Gur@@ 48
Henry 48
Hun@@ 48
Jur@@ 48
Kad@@ 48
Pa 48
Pale@@ 48
SK@@ 48
Son@@ 48
Station 48
Statis@@ 48
WH@@ 48
che 48
conn@@ 48
dir 48
dium 48
eli 48
esses 48
ete 48
ference 48
half 48
hand 48
ically 48
ier 48
image 48
ingu@@ 48
kum@@ 48
lo 48
low@@ 48
mental 48
mir 48
quar@@ 48
soci@@ 48
sv@@ 48
third 48
ths 48
tra@@ 48
ty@@ 48
ulus 48
ump@@ 48
values 48
ving 48
vir@@ 48
ó@@ 48
ω 48
ּ@@ 48
ੀ 48
ி 48
జ@@ 48
ိ@@ 48
ြ@@ 48
1350 47
1453 47
1572 47
1632 47
1718 47
267 47
291 47
315 47
Cel@@ 47
Chap@@ 47
Cro@@ 47
Dur@@ 47
Fac@@ 47
Jam@@ 47
January 47
Jav@@ 47
Ka@@ 47
Kash@@ 47
Louis 47
Mach@@ 47
Men@@ 47
Non 47
Ob@@ 47
SF 47
Sang@@ 47
Spec@@ 47
Sudan 47
Tan@@ 47
Ten@@ 47
Test 47
Tu@@ 47
Vari@@ 47
WT@@ 47
When 47
Yah@@ 47
ampli@@ 47
bai 47
below 47
bi 47
born 47
business 47
contr@@ 47
ders 47
dist@@ 47
ert 47
food 47
ged 47
gi 47
ich 47
ider@@ 47
lic@@ 47
original 47
others 47
pil@@ 47
ption 47
ret@@ 47
take 47
took 47
tree 47
uma 47
é@@ 47
ɔ@@ 47
ɡ@@ 47
ʁ@@ 47
Δ 47
י 47
ي 47
ོ 47
1535 46
1628 46
1642 46
1652 46
1667 46
1734 46
1744 46
20th 46
269 46
289 46
336 46
After 46
Asia 46
Cir@@ 46
DF@@ 46
Dom@@ 46
E9E9E9 46
GO 46
Jan@@ 46
Ku@@ 46
Library 46
MD 46
Mobile 46
People 46
Ret@@ 46
Services 46
Sid@@ 46
aft 46
amo@@ 46
article 46
aul@@ 46
berg 46
blood 46
board 46
bot@@ 46
bridge 46
ches 46
comm@@ 46
defin@@ 46
die 46
duction 46
eding 46
engineering 46
ense 46
having 46
hip 46
hyp@@ 46
iPhone 46
iti 46
kW 46
len@@ 46
management 46
million 46
motor 46
onia 46
optera 46
pa@@ 46
pap@@ 46
phon@@ 46
pic@@ 46
ple 46
population 46
propor@@ 46
quot 46
sho@@ 46
sil 46
syl@@ 46
trac@@ 46
whe@@ 46
ــــ@@ 46
नवं@@ 46
ॿ@@ 46
ਤ@@ 46
ர 46
ಂ@@ 46
ུ@@ 46
1560 45
1606 45
1716 45
1745 45
185@@ 45
298 45
332 45
395 45
Ari@@ 45
Bih@@ 45
Church 45
Economic 45
God 45
Him@@ 45
Index 45
Kun@@ 45
Lord 45
MO 45
Od@@ 45
Os@@ 45
Punj@@ 45
Richard 45
Ru@@ 45
Sul@@ 45
Tamil 45
Yol@@ 45
York 45
acts 45
af 45
aji 45
ancy 45
andra 45
atti 45
curr@@ 45
design 45
ebr@@ 45
ector 45
engine 45
fa@@ 45
full 45
geb@@ 45
graphy 45
hel@@ 45
icial 45
idea 45
inst@@ 45
itch 45
mad@@ 45
magnitude 45
mil@@ 45
national 45
nav@@ 45
new@@ 45
phil@@ 45
rd 45
rem@@ 45
subst@@ 45
thus 45
trade 45
unger 45
ures 45
within 45
ʊ@@ 45
области 45
ש@@ 45
ة 45
ং@@ 45
వ@@ 45
1596 44
1597 44
1611 44
1624 44
1644 44
1709 44
1717 44
317 44
501 44
Also 44
Award 44
BAS@@ 44
Bro@@ 44
Ci@@ 44
Dal@@ 44
Dor@@ 44
El 44
Eur@@ 44
Four@@ 44
Jal@@ 44
Journal 44
Lab@@ 44
Lar@@ 44
Les 44
Lu@@ 44
Mol@@ 44
Phot@@ 44
RD 44
Sag@@ 44
Security 44
Sri 44
UV 44
Us 44
Wal@@ 44
Water 44
ables 44
aging 44
by@@ 44
condition 44
critical 44
defined 44
elements 44
emati@@ 44
event 44
ho 44
i.@@ 44
ji@@ 44
lag@@ 44
length 44
liz@@ 44
map 44
match 44
matter 44
medium 44
ners 44
ods 44
pole 44
products 44
quadr@@ 44
size 44
sus 44
tex@@ 44
tile 44
ural 44
à 44
ה 44
শ 44
ਜ@@ 44
ದ@@ 44
≤ 44
0.0 43
1685 43
1705 43
1712 43
1714 43
1726 43
1746 43
299 43
318 43
ARC 43
Aut@@ 43
CB 43
Class 43
Control 43
Department 43
End 43
Mania 43
María 43
May 43
Ner@@ 43
Neur@@ 43
Radi@@ 43
Rah@@ 43
Rat@@ 43
They 43
Tw@@ 43
Wrest@@ 43
arc@@ 43
ases 43
ater 43
awa 43
block 43
certain 43
cont@@ 43
countries 43
cus 43
da@@ 43
does 43
ela 43
element 43
formation 43
former 43
i.e. 43
independent 43
ix 43
late 43
m3 43
medicine 43
memory 43
ml 43
modi@@ 43
morph@@ 43
mph 43
operating 43
par 43
pas@@ 43
resist@@ 43
stati@@ 43
story 43
until 43
vis 43
wall 43
wat@@ 43
written 43
zi@@ 43
án 43
ƒ 43
ɾ@@ 43
ʃ@@ 43
ְ@@ 43
ب@@ 43
ز@@ 43
ى 43
ನ 43
പ@@ 43
င 43
↑ 43
大@@ 43
1565 42
1568 42
1616 42
1622 42
1653 42
1731 42
316 42
3rd 42
49,@@ 42
Ah@@ 42
And 42
Ann@@ 42
Aqu@@ 42
Ay@@ 42
BB@@ 42
BT@@ 42
DJ 42
DT@@ 42
Dh@@ 42
Division 42
EM 42
FL@@ 42
Grand 42
Gy@@ 42
Industrial 42
Kus@@ 42
Liber@@ 42
Malaysia 42
News 42
Paris 42
Post 42
Pot@@ 42
Ren@@ 42
Star@@ 42
Tim@@ 42
XII 42
Ze@@ 42
ask@@ 42
became 42
ca@@ 42
cher 42
cos 42
date 42
deriv@@ 42
dor@@ 42
dynasty 42
ele 42
fir@@ 42
gn@@ 42
good 42
groups 42
health 42
idge 42
jo 42
lead 42
lev@@ 42
load 42
local 42
lower 42
machine 42
making 42
mom@@ 42
mul@@ 42
navig@@ 42
neutr@@ 42
post 42
sar 42
school 42
star@@ 42
tam@@ 42
tex 42
units 42
ured 42
ward 42
win 42
Ú@@ 42
ː 42
μ 42
ת 42
و 42
། 42
1615 41
1669 41
1687 41
1723 41
1736 41
314 41
33,@@ 41
338 41
406 41
44,@@ 41
93.@@ 41
Ali@@ 41
Anti@@ 41
Art 41
Arthur 41
Ball@@ 41
Big 41
Blue 41
CNN 41
F.@@ 41
Hi@@ 41
Hus@@ 41
Mang@@ 41
Many 41
Nations 41
Plat@@ 41
Sec@@ 41
September 41
Source 41
Two 41
Vel@@ 41
Whe@@ 41
band 41
difference 41
ein 41
eps 41
fa 41
films 41
gery 41
green 41
iTunes 41
idi@@ 41
ough 41
placement 41
pon@@ 41
possible 41
price 41
ram@@ 41
ruled 41
sal 41
serv@@ 41
service 41
shar@@ 41
sm@@ 41
thi@@ 41
tro 41
unda 41
vul@@ 41
α@@ 41
ان 41
య@@ 41
ా 41
1623 40
1675 40
1701 40
1721 40
1733 40
179@@ 40
337 40
425 40
AW@@ 40
Bin@@ 40
Bos@@ 40
Deb@@ 40
Free 40
G.@@ 40
Ham@@ 40
Ka 40
Kap@@ 40
Korea 40
Kr@@ 40
LED 40
Liter@@ 40
Military 40
NC 40
NCAA 40
Natural 40
Note 40
Ny@@ 40
O. 40
Off@@ 40
Path@@ 40
Pay@@ 40
Point 40
Ray@@ 40
Rev@@ 40
SB@@ 40
Scienti@@ 40
acu@@ 40
alphab@@ 40
ands 40
autom@@ 40
az 40
bra 40
ception 40
children 40
cit@@ 40
considered 40
culture 40
dri@@ 40
dynam@@ 40
eds 40
enta 40
enter@@ 40
exchange 40
generation 40
hot@@ 40
ign@@ 40
iner@@ 40
ip 40
ison 40
ka@@ 40
lis 40
lum 40
ogen 40
oy 40
parts 40
play@@ 40
problem 40
pros@@ 40
record 40
reser@@ 40
resistance 40
show 40
sional 40
site 40
station 40
still 40
tit@@ 40
tour@@ 40
ud 40
urg@@ 40
va@@ 40
vin@@ 40
wer@@ 40
wo@@ 40
ó 40
Δ@@ 40
φ 40
ִ@@ 40
ד@@ 40
د 40
गोलिक 40
विपरी@@ 40
প 40
ਾ 40
ന@@ 40
ി 40
ု@@ 40
≥ 40
1515 39
1625 39
1643 39
1664 39
1668 39
1683 39
1742 39
277 39
296 39
Amaz@@ 39
BB 39
Bat@@ 39
Bul@@ 39
Comp@@ 39
Dan@@ 39
Electric 39
Fal@@ 39
Fu@@ 39
Ky@@ 39
Let@@ 39
Lim@@ 39
Mod@@ 39
Prim@@ 39
Revolution 39
Rom@@ 39
Saf@@ 39
Sak@@ 39
Sand@@ 39
Second 39
Sen 39
UF@@ 39
Vid@@ 39
actor 39
aki 39
apar@@ 39
astr@@ 39
av 39
cat 39
chain 39
chlor@@ 39
coll@@ 39
division 39
don 39
eling 39
equivalent 39
ests 39
eters 39
every 39
few 39
flo@@ 39
flow 39
gang@@ 39
ground 39
hand@@ 39
hard 39
held 39
ibn 39
ication 39
ico 39
illar@@ 39
imm@@ 39
isation 39
isch@@ 39
jan@@ 39
ked 39
las@@ 39
manufactur@@ 39
market 39
means 39
min 39
multiple 39
ned 39
omi 39
results 39
span 39
tig@@ 39
tures 39
weight 39
yi 39
ān 39
ʒ@@ 39
ফ@@ 39
વ@@ 39
ு 39
ം 39
ത@@ 39
ല@@ 39
ན 39
្ 39
---- 38
1519 38
1570 38
1609 38
1732 38
AV 38
Agency 38
Alpha 38
Anth@@ 38
Authority 38
Best 38
Boy@@ 38
Cant@@ 38
Committee 38
Common 38
Computer 38
Defence 38
Dic@@ 38
EL 38
Econom@@ 38
FBI 38
FL 38
Fi 38
Gir@@ 38
Industries 38
Intelligence 38
LE 38
May@@ 38
Meg@@ 38
ON 38
PD@@ 38
Peter 38
Right 38
Sn@@ 38
Software 38
Su 38
Zo@@ 38
aer@@ 38
always 38
approxim@@ 38
arian 38
asc@@ 38
athon 38
bro@@ 38
count 38
cri@@ 38
days 38
depend@@ 38
determin@@ 38
dial 38
dur@@ 38
eau 38
ei 38
equilibri@@ 38
ered 38
expos@@ 38
ext@@ 38
father 38
fundamental 38
hara 38
ht 38
icus 38
iki 38
ind 38
integ@@ 38
ister 38
ize 38
jo@@ 38
kam 38
kat@@ 38
ligh@@ 38
military 38
mit 38
needed 38
network 38
ographic 38
oride 38
person 38
quot@@ 38
ram 38
released 38
religious 38
rup@@ 38
six 38
speed 38
stad 38
sue 38
sun@@ 38
tain@@ 38
tle 38
tom 38
tu 38
wn 38
your 38
zu 38
á 38
ś@@ 38
δ 38
ر@@ 38
याता@@ 38
ৰ 38
ା@@ 38
ರ 38
≡ 38
1649 37
1738 37
Age 37
Bio@@ 37
Bom@@ 37
Coun@@ 37
Data 37
December 37
EF 37
Fort 37
Gre@@ 37
Gun@@ 37
Hill 37
Hin@@ 37
Hir@@ 37
Hon@@ 37
Ju@@ 37
Love 37
Med@@ 37
Mic@@ 37
November 37
Pic@@ 37
Plas@@ 37
Princip@@ 37
Rem@@ 37
S.A. 37
Special 37
Star 37
Sym@@ 37
Vit@@ 37
We 37
Wo@@ 37
addition 37
alt@@ 37
ather 37
ave@@ 37
basic 37
bon@@ 37
built 37
carbon 37
cell@@ 37
dra@@ 37
econom@@ 37
economic 37
eless 37
ends 37
ener@@ 37
exper@@ 37
extr@@ 37
fis@@ 37
fixed 37
game 37
get@@ 37
height 37
higher 37
included 37
kin 37
kn@@ 37
leaf 37
lies 37
limit 37
lin 37
literature 37
ls 37
mac@@ 37
meth@@ 37
oll@@ 37
osh@@ 37
otr@@ 37
ous@@ 37
person@@ 37
pig@@ 37
po 37
programming 37
py@@ 37
related 37
rent 37
sea 37
sid@@ 37
solar 37
spe@@ 37
speci@@ 37
supply 37
tax 37
tered 37
thor@@ 37
uy@@ 37
ware 37
wrote 37
ws 37
Ω 37
ן 37
ج@@ 37
د@@ 37
ش@@ 37
م@@ 37
ن@@ 37
ॾ@@ 37
த 37
ே@@ 37
ర 37
ന 37
ေ@@ 37
1.5@@ 36
1525 36
1601 36
1641 36
1651 36
38,@@ 36
381 36
A2 36
AO 36
Ask@@ 36
Civil 36
Cog@@ 36
Coll@@ 36
Exchange 36
Hindu 36
Kab@@ 36
Lon@@ 36
Machine 36
Martin 36
Mechan@@ 36
Most 36
Mut@@ 36
NFL 36
Organ@@ 36
Ori@@ 36
PT 36
Pin@@ 36
Player 36
Ple@@ 36
Saint 36
Shim@@ 36
Stu@@ 36
Sun 36
Sup@@ 36
W.@@ 36
Wel@@ 36
Women 36
Young 36
absol@@ 36
access 36
amin@@ 36
animals 36
aqu@@ 36
avi 36
away 36
bed 36
broad@@ 36
cause 36
child 36
ck 36
compar@@ 36
cru@@ 36
ening 36
enth@@ 36
environment 36
far 36
fic 36
fields 36
five 36
formed 36
gia 36
hal 36
haw@@ 36
icle 36
ie@@ 36
ills 36
inga 36
ista 36
just 36
k.@@ 36
kara 36
ld@@ 36
lim@@ 36
macro@@ 36
mus 36
named 36
olo@@ 36
osp@@ 36
otro@@ 36
pha 36
plant 36
print 36
repe@@ 36
script 36
started 36
statement 36
su 36
tera 36
top@@ 36
tournament 36
towards 36
udi@@ 36
van 36
variables 36
vid@@ 36
wer 36
whose 36
wr@@ 36
ya@@ 36
yn 36
® 36
³ 36
è 36
ˌ@@ 36
λ 36
ρ 36
פ@@ 36
ট@@ 36
ਦ@@ 36
མ@@ 36
ာ@@ 36
ー@@ 36
￸ 36
1521 35
1619 35
1629 35
1636 35
187@@ 35
According 35
Amp@@ 35
Anci@@ 35
Band@@ 35
California 35
Cle@@ 35
Die 35
Gam@@ 35
Hello 35
Hills 35
J.@@ 35
Java 35
KO@@ 35
League 35
Mi 35
Mountains 35
Mun@@ 35
Net 35
Nil@@ 35
Population 35
President 35
Railway 35
Rights 35
Sky@@ 35
Spe@@ 35
Tab@@ 35
Tag@@ 35
UK@@ 35
ache 35
alb@@ 35
alia 35
aling 35
alog@@ 35
along 35
amine 35
amount 35
analy@@ 35
ander 35
aud@@ 35
awn 35
bac@@ 35
bah@@ 35
basis 35
bing 35
bol@@ 35
but@@ 35
cav@@ 35
cent@@ 35
comput@@ 35
cot@@ 35
dimen@@ 35
doc@@ 35
dom 35
eti 35
ez 35
figure 35
graph@@ 35
hang@@ 35
hen@@ 35
here 35
hop@@ 35
inger 35
ising 35
ken 35
kind 35
lex@@ 35
mand@@ 35
nh@@ 35
normal 35
off@@ 35
ologist 35
omer@@ 35
onn@@ 35
opath@@ 35
oral 35
ously 35
ova 35
ow 35
phones 35
plic@@ 35
plication 35
popular 35
pora 35
primary 35
produced 35
ras@@ 35
rather 35
sag@@ 35
shi 35
smo@@ 35
start 35
storage 35
tac@@ 35
tam 35
temple 35
ther 35
thetic 35
tun@@ 35
urs 35
var 35
veloc@@ 35
wi@@ 35
yo 35
µ@@ 35
â@@ 35
ç@@ 35
è@@ 35
ਰ 35
ર@@ 35
ି@@ 35
க 35
ಗ@@ 35
ಸ@@ 35
1583 34
1590 34
1626 34
1711 34
1735 34
1737 34
Battle 34
By@@ 34
Chief 34
Country 34
Digital 34
Extr@@ 34
Fox 34
Gas@@ 34
Gener@@ 34
Hat@@ 34
Hom@@ 34
Io@@ 34
Jer@@ 34
Ji@@ 34
Line 34
Log@@ 34
Medicine 34
Mount 34
Order 34
Organization 34
Plant 34
Political 34
Produc@@ 34
Rap@@ 34
Rud@@ 34
Sik@@ 34
Sit@@ 34
So 34
St. 34
Tem@@ 34
Tol@@ 34
Total 34
VP 34
Valley 34
acet@@ 34
ado 34
again 34
ame@@ 34
aq 34
architecture 34
areas 34
artic@@ 34
aster@@ 34
atha 34
ats@@ 34
ault 34
become 34
bos@@ 34
character@@ 34
ched 34
chen 34
chin@@ 34
conf@@ 34
dens@@ 34
direc@@ 34
ement@@ 34
etary 34
fish 34
fly 34
foreign 34
head@@ 34
hiz@@ 34
intr@@ 34
inv@@ 34
inver@@ 34
kh 34
let@@ 34
liqui@@ 34
liter@@ 34
living 34
mail 34
methods 34
nj@@ 34
opter@@ 34
orial 34
oto 34
pend@@ 34
pic 34
plants 34
played 34
press@@ 34
regul@@ 34
ring 34
round 34
secondary 34
similar 34
society 34
tif@@ 34
tin@@ 34
tox@@ 34
tre 34
tus 34
ulu 34
wa@@ 34
yal@@ 34
zz@@ 34
ø@@ 34
ν 34
س@@ 34
عبد 34
ِ@@ 34
नैनी@@ 34
യ@@ 34
က@@ 34
1.0@@ 33
1547 33
1569 33
1585 33
1635 33
401 33
Africa 33
Ath@@ 33
Autom@@ 33
Beg@@ 33
Borough 33
Christian 33
Dam@@ 33
Ele@@ 33
Ep@@ 33
Europe 33
February 33
Film 33
Fol@@ 33
Ga 33
Geneva 33
Hans 33
Hil@@ 33
Home 33
Hospital 33
Hydr@@ 33
IGN 33
Korean 33
Laborat@@ 33
Lat@@ 33
Ling@@ 33
Mary 33
Mis@@ 33
Mum@@ 33
Museum 33
Nas@@ 33
Navy 33
Nov@@ 33
On@@ 33
Oper@@ 33
PP 33
Ph.@@ 33
Pun@@ 33
Rad@@ 33
Sev@@ 33
Si 33
UC 33
Video 33
Vik@@ 33
Win@@ 33
XIX 33
aba 33
across 33
activity 33
adr@@ 33
age@@ 33
agn@@ 33
animal 33
anta 33
appar@@ 33
aris 33
atives 33
bin 33
bus 33
changes 33
chem 33
corpor@@ 33
cript 33
cyc@@ 33
density 33
dha 33
distribution 33
eal 33
eci@@ 33
effici@@ 33
eing 33
electronic 33
esia 33
eva 33
fas@@ 33
fer 33
ft@@ 33
fu@@ 33
gence 33
guitar@@ 33
hak@@ 33
help 33
hex@@ 33
hil@@ 33
however 33
hp 33
hun@@ 33
ied 33
interest 33
ische 33
kw@@ 33
latitu@@ 33
lion 33
lor@@ 33
mani 33
mart 33
mic@@ 33
mid 33
moment 33
nar@@ 33
nas@@ 33
o.@@ 33
omen@@ 33
osc@@ 33
osh 33
oxy@@ 33
para 33
patr@@ 33
pay@@ 33
physi@@ 33
pot@@ 33
print@@ 33
proj@@ 33
rac@@ 33
relative 33
runs 33
sex 33
signal 33
simple 33
sl@@ 33
solution 33
sometimes 33
stor@@ 33
syndrome 33
taken 33
territory 33
than@@ 33
town 33
transfer 33
udi 33
uni 33
val 33
vel@@ 33
vers@@ 33
via 33
vic@@ 33
vous 33
wel@@ 33
whole 33
xy@@ 33
н@@ 33
ע@@ 33
ك@@ 33
۝ 33
ਕ@@ 33
ਗ@@ 33
ਲ@@ 33
ತ@@ 33
ර@@ 33
ྱ@@ 33
ရ@@ 33
⁄ 33
1,1 32
1,2 32
1621 32
1633 32
1697 32
1747 32
451 32
4th 32
Ach@@ 32
Arc@@ 32
BL@@ 32
CW 32
Cos@@ 32
Dem@@ 32
Dragon 32
Entertainment 32
Es 32
Ev@@ 32
Forest 32
GPS 32
Invest@@ 32
Juan 32
KA 32
Kel@@ 32
Key@@ 32
Kos@@ 32
Low 32
Major 32
Nik@@ 32
Obj@@ 32
Party 32
Rag@@ 32
Tas@@ 32
Tech 32
Tul@@ 32
Writ@@ 32
XIII 32
amar@@ 32
bat 32
bes@@ 32
big 32
capital 32
cis 32
concept 32
cut 32
degree 32
direction 32
display 32
diz@@ 32
dule 32
ear 32
economy 32
either 32
elling 32
eu@@ 32
eur 32
expres@@ 32
expression 32
fall 32
front 32
func@@ 32
further 32
hard@@ 32
hir@@ 32
ign 32
iliz@@ 32
increase 32
iting 32
jus@@ 32
ku 32
lip@@ 32
meg@@ 32
member 32
mobile 32
names 32
ops 32
orders 32
personal 32
pet@@ 32
plus 32
received 32
rel 32
resol@@ 32
resp@@ 32
rig@@ 32
risk 32
running 32
ser 32
services 32
sky 32
sound 32
sy 32
tak@@ 32
tering 32
tery 32
tes@@ 32
thought 32
tial 32
titude 32
today 32
tric@@ 32
usion 32
uth 32
volume 32
writing 32
yth@@ 32
zone 32
ö@@ 32
š@@ 32
ال@@ 32
ަ@@ 32
मशह@@ 32
समुदा@@ 32
খ@@ 32
ன@@ 32
ద@@ 32
ಲ@@ 32
් 32
ད@@ 32
-------- 31
1684 31
1686 31
2,3 31
40,@@ 31
45,@@ 31
46,@@ 31
7th 31
Administration 31
Af@@ 31
Am 31
Audi@@ 31
Bac@@ 31
Blood 31
Books 31
Child 31
Class@@ 31
Congress 31
DA@@ 31
Da 31
Der@@ 31
Encyclo@@ 31
Exper@@ 31
Fat@@ 31
Federation 31
Financial 31
Gramm@@ 31
Gran@@ 31
Identi@@ 31
Il@@ 31
Ja@@ 31
Kak@@ 31
Kn@@ 31
Lah@@ 31
Lam@@ 31
Law@@ 31
Little 31
Lor@@ 31
Lun@@ 31
Mahar@@ 31
Map@@ 31
No. 31
O.@@ 31
Pass@@ 31
Ped@@ 31
Pir@@ 31
Posi@@ 31
Press 31
Pyth@@ 31
Rus@@ 31
Since 31
Sug@@ 31
Sus@@ 31
Syst@@ 31
Times 31
Trich@@ 31
UP 31
UR 31
Ud@@ 31
Um@@ 31
Van 31
Vic@@ 31
Village 31
Wa@@ 31
Wi@@ 31
Wol@@ 31
You@@ 31
abase 31
aca 31
acea 31
acier 31
ais 31
aman@@ 31
ample 31
announced 31
aran 31
ares 31
aro@@ 31
ate@@ 31
attack 31
avi@@ 31
bal 31
ble@@ 31
central 31
controlled 31
dale 31
dar@@ 31
developed 31
eb 31
edi 31
edit@@ 31
ein@@ 31
eman 31
enz@@ 31
eping 31
etry 31
eur@@ 31
evidence 31
evol@@ 31
female 31
fic@@ 31
files 31
gly@@ 31
iled 31
internal 31
invol@@ 31
jav@@ 31
lan 31
largest 31
little 31
live 31
lob@@ 31
measure 31
night 31
ocar@@ 31
onal@@ 31
onda 31
osper@@ 31
performance 31
plate 31
port@@ 31
race 31
radio 31
rain 31
ran 31
relation 31
rest 31
rid@@ 31
rights 31
say 31
scre@@ 31
scrip@@ 31
shows 31
significant 31
step 31
test@@ 31
ticul@@ 31
trix 31
ulum 31
upon 31
user 31
usually 31
vision 31
words 31
working 31
ַ@@ 31
ם 31
َّ@@ 31
ॲ@@ 31
অ@@ 31
ব 31
ਪ@@ 31
ର@@ 31
ல 31
డ@@ 31
ಪ@@ 31
ು 31
† 31
1634 30
6th 30
Agr@@ 30
Astr@@ 30
Auth@@ 30
Beh@@ 30
Bet@@ 30
Def@@ 30
Din@@ 30
Ec@@ 30
Fem@@ 30
Fir@@ 30
Go 30
Gro@@ 30
Hard@@ 30
Hum@@ 30
Hyper@@ 30
Inf@@ 30
Int@@ 30
Jay@@ 30
KS 30
Lap@@ 30
Post@@ 30
Prin@@ 30
Proj@@ 30
Rock 30
Sap@@ 30
Script 30
Sex@@ 30
Shan@@ 30
Sof@@ 30
Sor@@ 30
Ster@@ 30
Sto@@ 30
Sub 30
Survey 30
TNA 30
Teh@@ 30
Up@@ 30
Vas@@ 30
Vin@@ 30
What 30
achi 30
ader 30
ades 30
adu@@ 30
alit@@ 30
alized 30
amba 30
amus 30
aw 30
bert 30
better 30
birds 30
buc@@ 30
care 30
cath@@ 30
cial 30
composed 30
conservation 30
cou@@ 30
dep@@ 30
discre@@ 30
dot 30
ease 30
edge 30
election 30
eness 30
established 30
follow 30
give 30
greater 30
hon@@ 30
iment 30
instead 30
instrument 30
isti@@ 30
know 30
kon@@ 30
kul@@ 30
kur@@ 30
larger 30
legal 30
ling@@ 30
located 30
loss 30
materials 30
members 30
meter 30
move 30
nd@@ 30
ograp@@ 30
operations 30
orth@@ 30
orum 30
otype 30
pad@@ 30
phi@@ 30
polar@@ 30
positi@@ 30
post@@ 30
pri@@ 30
prob@@ 30
que@@ 30
rian 30
seen 30
separ@@ 30
seven 30
shell 30
squ@@ 30
status 30
stein 30
sts 30
suff@@ 30
tain 30
tal 30
teenth 30
thm 30
tho@@ 30
tran@@ 30
tz 30
uti@@ 30
valu@@ 30
vertebr@@ 30
ves@@ 30
virus 30
voir 30
¾ 30
ão 30
й 30
خ@@ 30
خان 30
ু 30
ବ@@ 30
ந@@ 30
ோ@@ 30
ತ 30
മ 30
1645 29
Alexander 29
Au 29
Au@@ 29
Bot@@ 29
Bruno 29
Bureau 29
Ca 29
Chang@@ 29
Commun@@ 29
Cot@@ 29
Dro@@ 29
Dum@@ 29
Festival 29
Food 29
Fran@@ 29
Frederick 29
Fur@@ 29
Greek 29
Hay@@ 29
Inc 29
Ish@@ 29
Kod@@ 29
Lac@@ 29
Light 29
Modern 29
More 29
NATO 29
Naval 29
Organisation 29
Ox@@ 29
Page 29
Roman 29
Russian 29
Sind@@ 29
Sm@@ 29
Som@@ 29
Tech@@ 29
Terr@@ 29
Tom@@ 29
Tran@@ 29
Tru@@ 29
UB 29
Zh@@ 29
ading 29
agus 29
aker 29
alli@@ 29
although 29
anese 29
applied 29
arc 29
atom 29
award 29
aye 29
bacteri@@ 29
began 29
bird 29
bo 29
building 29
came 29
ci 29
clin@@ 29
complete 29
dir@@ 29
domain 29
dop@@ 29
eh 29
ells 29
essel 29
eter@@ 29
famous 29
flex@@ 29
fusion 29
gau@@ 29
ges@@ 29
glo@@ 29
heter@@ 29
hir 29
ification 29
iler 29
illi@@ 29
imb@@ 29
inking 29
iron 29
lang 29
laws 29
lers 29
los 29
lost 29
medical 29
mill@@ 29
mir@@ 29
movement 29
nec@@ 29
never 29
official 29
ogy 29
onian 29
ony 29
ority 29
p.@@ 29
pers 29
philosophy 29
phyl@@ 29
rak@@ 29
read 29
relationship 29
ris@@ 29
tang@@ 29
tax@@ 29
tel 29
tend@@ 29
together 29
trad@@ 29
uh@@ 29
uj@@ 29
various 29
vin 29
viol@@ 29
ze@@ 29
Ü@@ 29
í 29
ον 29
ن 29
স 29
ಯ@@ 29
ത 29
ེ@@ 29
ྲ@@ 29
186@@ 28
5th 28
64,@@ 28
Agricul@@ 28
Area 28
Arts 28
Aur@@ 28
Billboard 28
Cass@@ 28
Cham@@ 28
Chau@@ 28
Civ@@ 28
Dol@@ 28
Ear@@ 28
Falls 28
Ferrari 28
God@@ 28
Had@@ 28
Independ@@ 28
Main 28
Max 28
Mess@@ 28
North@@ 28
Now 28
Num@@ 28
Orig@@ 28
PF 28
Pand@@ 28
PlayStation 28
Rak@@ 28
Raw 28
Sens@@ 28
Sher@@ 28
Street 28
Technical 28
Van@@ 28
Vul@@ 28
Washington 28
Wr@@ 28
abl@@ 28
ably 28
activ@@ 28
astronom@@ 28
aut@@ 28
bad@@ 28
bir@@ 28
birth 28
bloc@@ 28
blue 28
bury 28
che@@ 28
cip@@ 28
concre@@ 28
consum@@ 28
content 28
death 28
digital 28
down@@ 28
ei@@ 28
entum 28
eon 28
ety 28
exec@@ 28
expansion 28
financial 28
forest 28
gave 28
growth 28
harmon@@ 28
ights 28
ille 28
infin@@ 28
iser 28
jan 28
lap@@ 28
lec@@ 28
levels 28
lier 28
lingu@@ 28
lit@@ 28
lot 28
lumin@@ 28
mark@@ 28
middle 28
nal 28
nchron@@ 28
neg@@ 28
now@@ 28
office 28
oidea 28
olar 28
once 28
orient@@ 28
osom@@ 28
ough@@ 28
oxide 28
pag@@ 28
pent@@ 28
perf@@ 28
phosph@@ 28
ping 28
prof@@ 28
rep@@ 28
represent@@ 28
ru 28
rul@@ 28
ry@@ 28
sequence 28
sis 28
sle@@ 28
som@@ 28
statis@@ 28
steel 28
studies 28
sub 28
teen 28
translation 28
tri 28
trom@@ 28
uns 28
venti@@ 28
vid 28
yap@@ 28
ystal 28
yx 28
¿ 28
ɪ 28
ς 28
р@@ 28
ֹ@@ 28
כ@@ 28
सदीय 28
এ@@ 28
ਵ@@ 28
ੋ@@ 28
ે 28
ந 28
ూ@@ 28
ె@@ 28
ད 28
≈ 28
ン@@ 28
1559 27
1592 27
1595 27
1604 27
1607 27
1662 27
1741 27
48,@@ 27
9th 27
Acc@@ 27
Air@@ 27
Alt 27
Asian 27
Associ@@ 27
Astronom@@ 27
Australian 27
Awards 27
Beach 27
Clim@@ 27
Club 27
Conference 27
Dav@@ 27
Dy@@ 27
Early 27
Era 27
Family 27
Germany 27
GmbH 27
Gold@@ 27
Gul@@ 27
High@@ 27
Iron 27
Jacques 27
Japanese 27
Kit@@ 27
Land@@ 27
Later 27
Lep@@ 27
Les@@ 27
Luc@@ 27
Max@@ 27
Nokia 27
Nucle@@ 27
Pav@@ 27
Py@@ 27
Rab@@ 27
Real 27
Shah 27
Smith 27
Southern 27
Sph@@ 27
Trade 27
Training 27
UB@@ 27
Vil@@ 27
ady 27
agon@@ 27
aik@@ 27
aining 27
ald 27
algorith@@ 27
ames 27
anna 27
ante 27
apr@@ 27
asy@@ 27
atri@@ 27
ayed 27
benef@@ 27
bias 27
bic@@ 27
bility 27
billion 27
bot 27
carri@@ 27
charged 27
chron@@ 27
clear 27
college 27
combin@@ 27
concentration 27
court 27
deep 27
diver@@ 27
dre@@ 27
eda 27
educ@@ 27
ej@@ 27
enty 27
error 27
erry 27
especially 27
etc 27
fare 27
formes 27
frac@@ 27
fur@@ 27
glass 27
gold 27
haz@@ 27
hr 27
iOS 27
icon@@ 27
ier@@ 27
incident 27
intelligence 27
inus 27
ishes 27
itself 27
ive 27
iya 27
ju 27
kers 27
least 27
lem@@ 27
lets 27
letter 27
limited 27
love 27
mark 27
mother 27
neum@@ 27
oda 27
olf 27
omy@@ 27
ords 27
otive 27
param@@ 27
paras@@ 27
path 27
pher@@ 27
pore 27
problems 27
propag@@ 27
pun@@ 27
reci@@ 27
regular 27
relations 27
sab@@ 27
sector 27
selection 27
semi 27
sha 27
sion@@ 27
sort 27
tas@@ 27
thing 27
thir@@ 27
though 27
tory 27
tron 27
trop@@ 27
turn 27
udu 27
ugu 27
versi@@ 27
vie@@ 27
vil 27
wala 27
wi 27
wind 27
writ@@ 27
write 27
ww@@ 27
yet 27
¥ 27
º@@ 27
Ð 27
ã@@ 27
ér@@ 27
ū 27
ंपरिक 27
ऴ@@ 27
ॐ@@ 27
ড 27
ੀ@@ 27
ட 27
ற@@ 27
ದ 27
ೆ 27
ೆ@@ 27
ೇ@@ 27
േ@@ 27
མ 27
1571 26
1676 26
47,@@ 26
8th 26
Advanced 26
Bon@@ 26
Box 26
But@@ 26
Capr@@ 26
Centr@@ 26
Chal@@ 26
Concer@@ 26
Convention 26
Culture 26
Differ@@ 26
Dud@@ 26
Edge 26
Emp@@ 26
Fel@@ 26
Foreign 26
François 26
Fund 26
Gad@@ 26
Gn@@ 26
Gol@@ 26
Hall 26
Here 26
Industry 26
Kand@@ 26
Khal@@ 26
Li 26
Michael 26
Mind@@ 26
Muhammad 26
Muk@@ 26
Nature 26
Not@@ 26
Number 26
PI@@ 26
Pierre 26
Play@@ 26
Poli@@ 26
Pter@@ 26
Pyr@@ 26
Range 26
Roh@@ 26
SO 26
Scor@@ 26
Shel@@ 26
Stand@@ 26
Tib@@ 26
Treaty 26
Type 26
Upper 26
V.@@ 26
Whit@@ 26
XVII 26
abe 26
abi 26
account 26
adv@@ 26
ait 26
arrang@@ 26
ativ@@ 26
augh@@ 26
available 26
beau@@ 26
bound@@ 26
break 26
cancer 26
cha@@ 26
circum@@ 26
consci@@ 26
day@@ 26
died 26
divided 26
dol@@ 26
done 26
e- 26
ecting 26
ega 26
eller 26
eria 26
esa 26
essor 26
eye 26
factors 26
farm@@ 26
file 26
fire 26
gar 26
got 26
govern@@ 26
hana 26
hip@@ 26
hist@@ 26
hypoth@@ 26
includes 26
injury 26
ino@@ 26
ishing 26
ism@@ 26
ito 26
itz 26
lad@@ 26
lit 26
location 26
loss@@ 26
mix@@ 26
monument 26
nar 26
occ@@ 26
orb@@ 26
ort 26
outside 26
pith@@ 26
placed 26
ply 26
press 26
project 26
rand@@ 26
rat 26
reading 26
reference 26
rh@@ 26
rier 26
rock 26
sak@@ 26
sav@@ 26
scientific 26
security 26
sens@@ 26
sey 26
shire 26
strong 26
themselves 26
tionary 26
too 26
training 26
treatment 26
ui@@ 26
uman 26
use@@ 26
vet 26
visual 26
with@@ 26
yon 26
ç 26
ñ@@ 26
ε@@ 26
ա@@ 26
را@@ 26
چ@@ 26
ই@@ 26
ঙ 26
ੁ@@ 26
્ 26
ை@@ 26
స@@ 26
ക 26
ട@@ 26
ག 26
ི@@ 26
1637 25
AK 25
Amar@@ 25
Back@@ 25
Bay@@ 25
Bill 25
Bis@@ 25
Championships 25
Cher@@ 25
Chlor@@ 25
Design 25
Emb@@ 25
Explorer 25
Friedrich 25
Game 25
Harry 25
How 25
Human@@ 25
Ide@@ 25
Japan 25
Kath@@ 25
Key 25
Kul@@ 25
LGBT 25
Let 25
Lev@@ 25
Mars 25
Mg@@ 25
Mission 25
Mr@@ 25
Muslim 25
Nah@@ 25
Northern 25
Ol@@ 25
Param@@ 25
Pep@@ 25
Phan@@ 25
Polic@@ 25
Pon@@ 25
RN 25
Radio 25
Ras@@ 25
Run@@ 25
SG 25
Sig@@ 25
Sk@@ 25
Story 25
Tap@@ 25
Three 25
Twitter 25
USS 25
Way 25
While 25
Who 25
Wikipedia 25
Wimbledon 25
XVIII 25
Yel@@ 25
acquired 25
ahi 25
amber 25
ami@@ 25
angal@@ 25
anger 25
anthro@@ 25
apping 25
army 25
asia 25
associated 25
aug@@ 25
auth@@ 25
beat 25
ben@@ 25
bow@@ 25
celebr@@ 25
cher@@ 25
chol@@ 25
civil 25
commonly 25
conflict 25
cylin@@ 25
dan 25
dev 25
dhar@@ 25
dil@@ 25
divid@@ 25
eck@@ 25
ections 25
elimin@@ 25
enia 25
erg@@ 25
exp@@ 25
far@@ 25
freedom 25
fuel 25
generally 25
global 25
greatest 25
gri 25
gy@@ 25
himself 25
hold 25
icon 25
idal 25
ided 25
ider 25
igh 25
ime 25
insul@@ 25
iro 25
itter 25
jar@@ 25
kit 25
knowledge 25
lay@@ 25
m. 25
mode 25
money 25
moving 25
oga 25
onder@@ 25
one@@ 25
opposite 25
ore@@ 25
park 25
piece 25
plex 25
pping 25
prim@@ 25
program 25
ps@@ 25
quad@@ 25
ras 25
rid 25
ron 25
rules 25
s. 25
season 25
sides 25
standards 25
stock 25
symp@@ 25
tari@@ 25
tradition 25
trial 25
tuber@@ 25
tum@@ 25
ums 25
union 25
urai 25
uri@@ 25
uz@@ 25
writer 25
yon@@ 25
zh@@ 25
÷ 25
γ@@ 25
ζ 25
λ@@ 25
в@@ 25
ع@@ 25
َ@@ 25
۔ 25
ंडोज 25
परियो@@ 25
উ@@ 25
ਬ@@ 25
ી 25
ે@@ 25
క 25
ಕ 25
འ@@ 25
ལ 25
ྫ@@ 25
တ@@ 25
ḍ@@ 25
1678 24
Another 24
Arg@@ 24
Ass@@ 24
Assembly 24
Australia 24
Beta 24
Black@@ 24
CAR 24
Canadian 24
Chang 24
Che@@ 24
Coast 24
Contr@@ 24
Cyc@@ 24
Dak@@ 24
Diff@@ 24
Don@@ 24
Dynam@@ 24
Ed 24
Egyp@@ 24
Electronic 24
Empire 24
Est@@ 24
Et@@ 24
Express 24
Gem@@ 24
Gold 24
Good 24
Hand@@ 24
Head 24
Heritage 24
Hung@@ 24
Islands 24
LM 24
Lav@@ 24
Mari@@ 24
Meh@@ 24
Men 24
Model 24
Mont@@ 24
Newton 24
Nic@@ 24
Night 24
Olympic 24
Om@@ 24
Orth@@ 24
Pacific 24
Person@@ 24
Phil@@ 24
Pho@@ 24
Power@@ 24
Psy@@ 24
Queen 24
Rot@@ 24
STS 24
Sac@@ 24
Satell@@ 24
Shir@@ 24
Show 24
Shu@@ 24
Sound 24
Spo@@ 24
Strateg@@ 24
Studio 24
Third 24
Tik@@ 24
Ton@@ 24
Top@@ 24
Universal 24
WI 24
Wilhelm 24
With 24
aces 24
agent 24
aggreg@@ 24
ained 24
aking 24
aliz@@ 24
anatom@@ 24
ange 24
angu@@ 24
aus 24
author 24
auto@@ 24
ball 24
begin 24
brain 24
capac@@ 24
cases 24
chang@@ 24
characters 24
claim 24
climate 24
communication 24
correspond@@ 24
currently 24
cus@@ 24
derived 24
directly 24
div@@ 24
eck 24
effects 24
ele@@ 24
emer@@ 24
ender 24
enough 24
ero@@ 24
esian 24
eties 24
exc@@ 24
fill 24
fit 24
folia 24
forced 24
fore 24
forward 24
friend 24
gene 24
gives 24
hier@@ 24
historical 24
hours 24
ij@@ 24
illy 24
incre@@ 24
indica 24
inform@@ 24
intens@@ 24
ions 24
journ@@ 24
kal 24
lang@@ 24
layer 24
lon 24
meaning 24
months 24
next 24
observ@@ 24
odon@@ 24
ody 24
oon 24
oria 24
ost 24
ostr@@ 24
part@@ 24
particular 24
pass 24
pes 24
player 24
polog@@ 24
ports 24
pre 24
prime 24
primiti@@ 24
produc@@ 24
produce 24
racy 24
religion 24
rey 24
room 24
roqui@@ 24
ror 24
sac@@ 24
saf@@ 24
saw 24
sexual 24
shan 24
ski 24
ski@@ 24
special 24
standing 24
styl@@ 24
suc@@ 24
synth@@ 24
tabla 24
tropical 24
unique 24
unt 24
uta 24
volution 24
water@@ 24
week 24
wind@@ 24
yal 24
zi 24
¸ 24
̃ 24
ος 24
ק@@ 24
ل@@ 24
णिज 24
वाराण@@ 24
संबर 24
ণ 24
ূ@@ 24
ੱ@@ 24
ମ@@ 24
ெ@@ 24
ை 24
న 24
ා@@ 24
ි@@ 24
ེ 24
ា@@ 24
█ 24
19th 23
ATP 23
Ai 23
Alfred 23
Anti 23
BN 23
Bau@@ 23
Beng@@ 23
Bran@@ 23
Bridge 23
Bus@@ 23
Capital 23
Chil@@ 23
Chin@@ 23
Comput@@ 23
Conn@@ 23
Cup 23
Dam 23
Dead 23
Don 23
Educ@@ 23
Eff@@ 23
Emer@@ 23
Field 23
Francis 23
Get@@ 23
Golden 23
Green@@ 23
Hai 23
Hip@@ 23
Instrum@@ 23
Karl 23
Mali@@ 23
Mr. 23
NP 23
NY 23
Nad@@ 23
Natur@@ 23
Neg@@ 23
Nin@@ 23
Oxford 23
Plan 23
Prince 23
Rang@@ 23
Re 23
Resp@@ 23
Rob@@ 23
Rol@@ 23
Sha@@ 23
Sl@@ 23
Spir@@ 23
Square 23
Stock 23
That 23
UA 23
UM 23
WTA 23
Wall 23
academic 23
acted 23
addi@@ 23
ador 23
agog@@ 23
agu@@ 23
alu 23
aly@@ 23
amin 23
ann 23
ara@@ 23
arium 23
asing 23
atis@@ 23
ator@@ 23
aura 23
aut 23
bab@@ 23
bad 23
behavi@@ 23
bine 23
capacity 23
cape 23
card 23
col 23
common@@ 23
cons@@ 23
consist@@ 23
cost 23
counter@@ 23
created 23
dea 23
dies 23
dis 23
domin@@ 23
dro@@ 23
eins 23
eld 23
electric@@ 23
embr@@ 23
ensi@@ 23
entation 23
ession 23
fe 23
finals 23
flav@@ 23
gol@@ 23
gun 23
heart 23
ido 23
ight@@ 23
ika@@ 23
inflam@@ 23
ink@@ 23
irs 23
isi 23
isol@@ 23
jar 23
king@@ 23
kor@@ 23
ky@@ 23
lak@@ 23
leading 23
lep@@ 23
lim 23
lip 23
liv@@ 23
luk 23
mai 23
max 23
mis 23
moral 23
nik@@ 23
nit@@ 23
occur 23
oi 23
oms 23
ord 23
ores 23
organis@@ 23
origin 23
otom@@ 23
ped 23
ped@@ 23
pendi@@ 23
por 23
predic@@ 23
prom@@ 23
ques 23
rang@@ 23
recur@@ 23
resulting 23
road 23
roc@@ 23
sah@@ 23
sam 23
sites 23
sour@@ 23
tai 23
thal@@ 23
tian 23
tice 23
titles 23
tone 23
trag@@ 23
tras@@ 23
ui 23
ult@@ 23
usa 23
ventr@@ 23
virtu@@ 23
wards 23
watch 23
wav@@ 23
win@@ 23
yak@@ 23
yar@@ 23
yellow 23
young 23
zen 23
zer 23
¨ 23
č@@ 23
ē 23
ŋ@@ 23
˚ 23
а@@ 23
н 23
о@@ 23
ל 23
أبو 23
الر@@ 23
علی 23
ف@@ 23
من 23
ی@@ 23
ঁ@@ 23
ન@@ 23
ா 23
ಡ@@ 23
ಶ@@ 23
ള@@ 23
ར 23
ྒ@@ 23
သ@@ 23
္ 23
ṇ@@ 23
↓ 23
李@@ 23
0.000 22
Agriculture 22
Apo@@ 22
App 22
Bell 22
Building 22
CON@@ 22
Carl 22
Citi@@ 22
Commonwealth 22
Contin@@ 22
Cru@@ 22
D.C. 22
Dat@@ 22
Deg@@ 22
Diplom@@ 22
Dul@@ 22
Dun@@ 22
Eli@@ 22
Free@@ 22
Fri@@ 22
Head@@ 22
Honda 22
Ing@@ 22
Its 22
Jan 22
Johann 22
Kom@@ 22
Kud@@ 22
Lambert 22
Leon@@ 22
Lib@@ 22
Main@@ 22
Math@@ 22
Maur@@ 22
Mid@@ 22
Mit@@ 22
Money 22
NGC 22
Nat@@ 22
Ng@@ 22
Only 22
Operation 22
Original 22
Part 22
Peace 22
Pel@@ 22
Pil@@ 22
Port 22
Programm@@ 22
Publishing 22
Put@@ 22
Review 22
Sant@@ 22
Seven 22
Shak@@ 22
Short 22
Staff 22
Taylor 22
Termin@@ 22
Thus 22
Tiger 22
Til@@ 22
Up 22
WC 22
Wis@@ 22
Work 22
abol@@ 22
accoun@@ 22
acial 22
acting 22
added 22
additional 22
agi 22
agon 22
ague 22
aim@@ 22
alan@@ 22
alar@@ 22
alt 22
altern@@ 22
ament 22
amer@@ 22
angi 22
application 22
ately 22
atmosph@@ 22
audio 22
awali 22
ayn@@ 22
ball@@ 22
band@@ 22
bis 22
cast 22
chr@@ 22
compl@@ 22
completed 22
condi@@ 22
contact 22
cord 22
cum@@ 22
defeat 22
despite 22
dial@@ 22
dog 22
eca 22
edr@@ 22
ef 22
ello 22
else 22
enni@@ 22
enter 22
ento 22
ested 22
failure 22
fan 22
fast 22
fel@@ 22
fle@@ 22
follows 22
foot@@ 22
fos@@ 22
fourth 22
gain 22
hes@@ 22
hips 22
hood 22
human@@ 22
ible 22
ican 22
icide 22
idence 22
igu@@ 22
ilia 22
ises 22
ishi 22
issa 22
ja@@ 22
je 22
joint 22
kes 22
kol@@ 22
lex 22
link 22
listed 22
look 22
lus@@ 22
mak@@ 22
mation 22
maximum 22
meet 22
met 22
mid@@ 22
mos 22
mouth 22
movie 22
nik 22
nitr@@ 22
née 22
oe 22
og 22
oly@@ 22
ored 22
otes 22
oti 22
oti@@ 22
ought 22
oxid@@ 22
philosoph@@ 22
politics 22
pot 22
pren@@ 22
prin@@ 22
proced@@ 22
rare 22
rates 22
real@@ 22
requ@@ 22
required 22
rif@@ 22
rod@@ 22
role 22
sep@@ 22
sequ@@ 22
sets 22
shown 22
sign 22
sk 22
spot 22
stand 22
strength 22
students 22
superior 22
sus@@ 22
swe@@ 22
tent 22
testing 22
therefore 22
transmission 22
tured 22
ues 22
ulas 22
v. 22
vention 22
video 22
vill@@ 22
villages 22
vus 22
wife 22
wil@@ 22
xy 22
ylon 22
yr 22
yro@@ 22
¢ 22
É 22
èse 22
ì 22
ֶ@@ 22
צ@@ 22
الم@@ 22
ي@@ 22
ْ@@ 22
ٱ@@ 22
জ 22
ਤ 22
ਲ 22
દ@@ 22
ལ@@ 22
ི 22
ခ@@ 22
ပ@@ 22
រ@@ 22
ṣ@@ 22
ⴰ@@ 22
2. 21
2.0@@ 21
Ado@@ 21
Akh@@ 21
Although 21
Andr@@ 21
Antarc@@ 21
Arab 21
Ball 21
Be 21
Block 21
Bou@@ 21
Bow@@ 21
Cambridge 21
Cen@@ 21
Century 21
Channel 21
Chir@@ 21
Collection 21
Compos@@ 21
Dan 21
Drive 21
Eastern 21
Ex 21
Fa@@ 21
Fab@@ 21
Fire 21
Flash 21
Front 21
Game@@ 21
Gas 21
Gau@@ 21
Gon@@ 21
Good@@ 21
Gra@@ 21
Has@@ 21
Heli@@ 21
Her 21
Hit@@ 21
Hot@@ 21
Il 21
Ireland 21
Islam 21
It@@ 21
Jac@@ 21
Jah@@ 21
Jas@@ 21
Joint 21
Jud@@ 21
Lewis 21
Like 21
Maria 21
Mark 21
Miami 21
Micha@@ 21
Mov@@ 21
Movement 21
Myr@@ 21
Nak@@ 21
Nau@@ 21
Not 21
OT@@ 21
Ocean 21
Over@@ 21
Pedro 21
References 21
Sign@@ 21
Stat@@ 21
Suc@@ 21
Then 21
Tradi@@ 21
UE@@ 21
Under@@ 21
Ut@@ 21
Water@@ 21
Wiki@@ 21
Works 21
Yos@@ 21
according 21
agreement 21
aise 21
alay@@ 21
anced 21
anch@@ 21
anim@@ 21
arly 21
arms 21
arya 21
ased 21
aster 21
atra 21
atta 21
benz@@ 21
bits 21
blog 21
carbon@@ 21
cep@@ 21
collec@@ 21
collection 21
colum@@ 21
companies 21
compared 21
compos@@ 21
conc@@ 21
conditions 21
consequ@@ 21
continued 21
correc@@ 21
cover@@ 21
cricket 21
democ@@ 21
details 21
develop@@ 21
dice 21
din@@ 21
document 21
edition 21
elled 21
elli 21
emic 21
enes 21
enth 21
eper 21
ept@@ 21
eval 21
event@@ 21
exist@@ 21
expressed 21
ffe 21
fiel@@ 21
figures 21
find 21
fo 21
fon@@ 21
fy 21
gin 21
gros@@ 21
hot 21
iger@@ 21
impl@@ 21
ingi@@ 21
institu@@ 21
integral 21
irat@@ 21
junction 21
ket@@ 21
lac@@ 21
led@@ 21
lif@@ 21
liqu@@ 21
logo 21
mail@@ 21
mb@@ 21
meeting 21
migration 21
month 21
nati@@ 21
need 21
nel 21
num@@ 21
obj@@ 21
olith@@ 21
opus 21
pped 21
practice 21
pron@@ 21
provides 21
pt 21
quarter 21
radio@@ 21
rang 21
recognition 21
report 21
respon@@ 21
response 21
ric@@ 21
rich@@ 21
row@@ 21
sat@@ 21
says 21
set@@ 21
shu@@ 21
sn@@ 21
spread 21
stri@@ 21
string 21
subject 21
substitu@@ 21
sup@@ 21
sur 21
tation 21
teri@@ 21
thous@@ 21
thre@@ 21
thro@@ 21
tol@@ 21
transition 21
types 21
unge 21
urg 21
uria 21
utionary 21
vec@@ 21
ven 21
vent@@ 21
voc@@ 21
wali 21
xi 21
yana 21
ás@@ 21
ù 21
ü@@ 21
ł@@ 21
ŋ 21
ʊ 21
η 21
π@@ 21
л@@ 21
ג@@ 21
ח@@ 21
ق@@ 21
و@@ 21
॔ 21
ও@@ 21
ষ 21
જ@@ 21
କ@@ 21
ସ@@ 21
బ@@ 21
ಬ@@ 21
ಲ 21
ಹ@@ 21
ೀ@@ 21
അ@@ 21
സ@@ 21
ာ 21
ḥ@@ 21
∞ 21
1,3 20
1577 20
1654 20
Administr@@ 20
Agu@@ 20
Ale@@ 20
Alg@@ 20
Amazon 20
Back 20
Bengal 20
Bern@@ 20
Bod@@ 20
Brit@@ 20
Buz@@ 20
Case 20
Cul@@ 20
Delta 20
Democ@@ 20
Den@@ 20
Dr 20
Dru@@ 20
Eg@@ 20
Ever@@ 20
Ey@@ 20
Four 20
Fun@@ 20
Gaz@@ 20
Generation 20
Hab@@ 20
Haw@@ 20
Hot 20
Imp@@ 20
Islamic 20
Jar@@ 20
Johnson 20
Kav@@ 20
Kepler 20
Kho@@ 20
Lang@@ 20
Langu@@ 20
Lower 20
Master 20
Mik@@ 20
Mill@@ 20
Mom@@ 20
Mong@@ 20
Mund@@ 20
Must@@ 20
ND 20
NHL 20
Nan@@ 20
Out 20
Physi@@ 20
Prize 20
Rub@@ 20
Rural 20
SU 20
Simon 20
Soviet 20
Stre@@ 20
Ta 20
Theatre 20
Thor@@ 20
Too 20
Top 20
Tum@@ 20
Ve@@ 20
Was@@ 20
Wik@@ 20
Wood@@ 20
Youth 20
aching 20
ado@@ 20
ait@@ 20
almost 20
alogue 20
aly 20
ancer 20
ancient 20
anz@@ 20
apa 20
articles 20
assembly 20
atio 20
ations@@ 20
atu 20
ban 20
beginning 20
bli@@ 20
career 20
clus@@ 20
competition 20
con 20
concentr@@ 20
concer@@ 20
consecutive 20
cover 20
create 20
criptions 20
dal 20
depos@@ 20
edia 20
eer 20
ellip@@ 20
escope 20
ettes 20
existence 20
expl@@ 20
ext 20
fes@@ 20
formal 20
genus 20
graphi@@ 20
guide 20
hair 20
hau@@ 20
hid 20
hik@@ 20
host 20
iced 20
ichi 20
icked 20
ient 20
iling 20
iller 20
ime@@ 20
impul@@ 20
individual 20
introduced 20
issue 20
itu@@ 20
ives 20
lateral 20
legi@@ 20
lib@@ 20
links 20
male 20
matches 20
math 20
med 20
might 20
ming 20
moun@@ 20
ms@@ 20
nch@@ 20
needs 20
nes 20
notes 20
nt 20
nutri@@ 20
ny 20
odi 20
opl@@ 20
orus 20
otion 20
oud 20
ours 20
pair 20
paper 20
parent 20
past 20
pharm@@ 20
players 20
policy 20
pose 20
princi@@ 20
principal 20
provide 20
provided 20
purpose 20
pyr@@ 20
railway 20
reason 20
records 20
ref@@ 20
rev@@ 20
revolution 20
rio 20
separate 20
sia 20
soon 20
southern 20
spr@@ 20
stig@@ 20
strateg@@ 20
student 20
subs@@ 20
tail 20
taire 20
tank 20
tap@@ 20
topl@@ 20
tou@@ 20
train 20
trich@@ 20
troph@@ 20
uring 20
uss@@ 20
visit@@ 20
wak@@ 20
want 20
ways 20
website 20
ween 20
wild 20
wood@@ 20
yas@@ 20
yin 20
Ø@@ 20
ô@@ 20
ار@@ 20
ب 20
سن@@ 20
ِ 20
ই 20
ষ@@ 20
ਘ 20
ਸ 20
਼ 20
ા 20
ங 20
ப 20
ள@@ 20
ಟ@@ 20
ട 20
ശ@@ 20
န 20
း 20
◆ 20
18th 19
About 19
African 19
Anne 19
Arabic 19
Assist@@ 19
Ax@@ 19
Bam@@ 19
Beau@@ 19
Bish@@ 19
Bri@@ 19
Cape 19
Ceph@@ 19
Chen 19
Cho@@ 19
Compu@@ 19
Corn@@ 19
Corpor@@ 19
Crim@@ 19
Cultural 19
Disney 19
Flu@@ 19
Fron@@ 19
Guide 19
Horse 19
Imperial 19
Indonesia 19
Inter 19
Kang@@ 19
Kil@@ 19
Lag@@ 19
Lex@@ 19
Link 19
Liv@@ 19
Mam@@ 19
Matthew 19
Motor 19
Ok@@ 19
Oriental 19
Parti@@ 19
PhD 19
Protection 19
Rand@@ 19
Ray 19
Revol@@ 19
Roc@@ 19
Rod@@ 19
SN 19
Sa 19
Small 19
Sou@@ 19
South@@ 19
Sper@@ 19
Stone 19
Tang@@ 19
Territory 19
Tex@@ 19
Vad@@ 19
Wii 19
Yu@@ 19
acks 19
anol 19
aper@@ 19
argum@@ 19
arts 19
balance 19
becomes 19
becoming 19
bio@@ 19
bodies 19
cannot 19
chl@@ 19
chu@@ 19
cine 19
clo@@ 19
close 19
closed 19
combination 19
comes 19
command@@ 19
commercial 19
compens@@ 19
configur@@ 19
connection 19
const@@ 19
contract 19
conversion 19
cros@@ 19
dark 19
demand 19
diam@@ 19
digit@@ 19
diya 19
dog@@ 19
domestic 19
dry 19
ean@@ 19
egr@@ 19
ehr@@ 19
elev@@ 19
emat@@ 19
encies 19
enna 19
ett 19
etti 19
etus 19
evich 19
exhaus@@ 19
faces 19
fluor@@ 19
fort 19
future 19
gate 19
gir@@ 19
gy 19
hid@@ 19
highest 19
hl 19
hou 19
idas 19
ief 19
ifer@@ 19
igr@@ 19
ild 19
illus 19
independence 19
influence 19
ingly 19
initi@@ 19
inten@@ 19
intermedi@@ 19
isha 19
isher 19
istr@@ 19
iter@@ 19
jug@@ 19
jum@@ 19
kab@@ 19
kad@@ 19
kins 19
kir@@ 19
kt@@ 19
library 19
lide 19
longer 19
lows 19
main@@ 19
marks 19
mem@@ 19
metabol@@ 19
mind 19
miz@@ 19
model@@ 19
motiv@@ 19
native 19
nia 19
note 19
oh 19
oid@@ 19
onis 19
ont 19
ood 19
open@@ 19
opti@@ 19
organization 19
party 19
plant@@ 19
preser@@ 19
private 19
quin@@ 19
rag@@ 19
reco@@ 19
recognized 19
recorded 19
refer@@ 19
release 19
remain 19
rol@@ 19
ross 19
sana 19
sap@@ 19
seg@@ 19
soft 19
specif@@ 19
sth@@ 19
stre@@ 19
structures 19
television 19
tern 19
tern@@ 19
tically 19
tiles 19
till@@ 19
tot@@ 19
tz@@ 19
ularis 19
upper 19
ury 19
uth@@ 19
utions 19
vely 19
versity 19
verte@@ 19
wers 19
why 19
xin 19
yd@@ 19
¼ 19
Å@@ 19
Ï@@ 19
Ù@@ 19
ée 19
ï@@ 19
ǎ@@ 19
ɒ@@ 19
ʰ@@ 19
ʻ@@ 19
ζ@@ 19
ν@@ 19
р 19
اس@@ 19
ط@@ 19
غ@@ 19
گ@@ 19
ی 19
މ@@ 19
ট 19
ণ@@ 19
ধ 19
ফ 19
ત@@ 19
அ@@ 19
ཐ@@ 19
པ@@ 19
့ 19
ျ@@ 19
ṛ@@ 19
人 19
字 19
日本@@ 19
1204 18
1655 18
Action 18
Andrew 18
Arm@@ 18
Arti@@ 18
Base 18
Bed@@ 18
Bes@@ 18
Boh@@ 18
Bru@@ 18
Cab@@ 18
Cha@@ 18
Change 18
Concep@@ 18
Cou@@ 18
Cri@@ 18
Cros@@ 18
Cus@@ 18
Do 18
Doc@@ 18
Docum@@ 18
Down@@ 18
During 18
Elizabeth 18
Epi@@ 18
Five 18
Frank 18
Freedom 18
Ful@@ 18
Heb@@ 18
Hen@@ 18
Hist@@ 18
Historical 18
Hong 18
How@@ 18
Imag@@ 18
Israel 18
Jos@@ 18
Jou@@ 18
Kah@@ 18
Ki 18
Kno@@ 18
Kong 18
Latin 18
Len@@ 18
Lok@@ 18
Marie 18
Metall@@ 18
MiG 18
Minister 18
Morgan 18
Muz@@ 18
Mé@@ 18
NAT@@ 18
Non@@ 18
Observat@@ 18
Ot@@ 18
Pach@@ 18
Peak 18
Price 18
Production 18
Program 18
Rat 18
Rav@@ 18
Ris@@ 18
Rum@@ 18
Russia 18
Sci@@ 18
Scr@@ 18
Sog@@ 18
Sports 18
Thomson 18
Tower 18
Tree 18
Tu 18
Tun@@ 18
UNESCO 18
VV@@ 18
Vice 18
Wat@@ 18
Will 18
Work@@ 18
XXI 18
abr@@ 18
accur@@ 18
acia 18
acker 18
adio 18
agin@@ 18
ahr@@ 18
airs 18
aku 18
alaya 18
alis@@ 18
alle 18
aller 18
alog 18
ande 18
ander@@ 18
ank@@ 18
ao@@ 18
appointed 18
araj@@ 18
arily 18
aro 18
atern@@ 18
atures 18
aurus 18
ause 18
ayer 18
bay 18
believed 18
belong@@ 18
bia 18
bio 18
bles 18
bom@@ 18
branch 18
bu 18
burg 18
cardi@@ 18
ces@@ 18
changed 18
chor@@ 18
claimed 18
coc@@ 18
collap@@ 18
community 18
constitu@@ 18
dal@@ 18
dam 18
dated 18
dem 18
directed 18
discovered 18
disper@@ 18
dle 18
dok@@ 18
dres@@ 18
dru@@ 18
eder@@ 18
edral 18
edy 18
eign 18
eline 18
eni 18
eno 18
ente 18
entry 18
esi 18
esi@@ 18
eton 18
events 18
explor@@ 18
extrem@@ 18
fib@@ 18
found@@ 18
gin@@ 18
gran@@ 18
heavy 18
humans 18
iP@@ 18
ician 18
ict 18
ideas 18
idi 18
iga 18
ilk 18
imagin@@ 18
inda 18
industrial 18
inian 18
insula 18
internet 18
interpre@@ 18
isions 18
iss 18
jap@@ 18
jet 18
kap@@ 18
kata 18
kav@@ 18
ken@@ 18
kit@@ 18
lett 18
lu 18
mach@@ 18
marketing 18
mass@@ 18
mata 18
may@@ 18
mud@@ 18
nak@@ 18
ning@@ 18
o. 18
oba 18
ocarp@@ 18
ois 18
oj@@ 18
older 18
onds 18
ophyl@@ 18
opp@@ 18
osaurus 18
oug@@ 18
pain 18
plasma 18
portal 18
pu 18
qi 18
rah@@ 18
red@@ 18
regions 18
rhy@@ 18
ring@@ 18
rou@@ 18
sand@@ 18
serve 18
shape 18
shore 18
sibility 18
sik@@ 18
sm 18
sons 18
spl@@ 18
sta 18
stop 18
stories 18
straight 18
stream 18
sun 18
super 18
sych@@ 18
tab@@ 18
tension 18
tium 18
tiz@@ 18
tly 18
toral 18
traditional 18
travel 18
uch 18
ucle@@ 18
ult 18
ump 18
unter 18
venture 18
views 18
whom 18
yam@@ 18
yer 18
zo 18
är@@ 18
ñ 18
Ā@@ 18
ɐ 18
ɐ@@ 18
ʿ@@ 18
απ@@ 18
τ 18
в 18
ва 18
у@@ 18
ס@@ 18
ת@@ 18
احمد 18
الح@@ 18
الع@@ 18
ذ@@ 18
ك 18
مو@@ 18
وَ@@ 18
ّ@@ 18
গ 18
ਅ@@ 18
ਿ 18
ં@@ 18
ી@@ 18
ା 18
ள 18
చ@@ 18
ే@@ 18
ో@@ 18
ര 18
န@@ 18
ု 18
ွ@@ 18
℃ 18
← 18
国@@ 18
子 18
山 18
， 18
1656 17
AZ 17
Ab 17
Abr@@ 17
Abu 17
Alternative 17
Archi@@ 17
Batt@@ 17
Because 17
Blu@@ 17
Body 17
Buddh@@ 17
Can 17
Catholic 17
Ce@@ 17
Census 17
Chrom@@ 17
Const@@ 17
Cricket 17
Diam@@ 17
Dim@@ 17
Dog 17
Dra@@ 17
Europ@@ 17
Eye 17
F.C. 17
Fed@@ 17
Ferr@@ 17
Forces 17
Fres@@ 17
Garden 17
Hav@@ 17
Heter@@ 17
Horiz@@ 17
Hyp@@ 17
Ice 17
JR 17
Jak@@ 17
Jr 17
Justice 17
Lawrence 17
Lif@@ 17
Lili@@ 17
Lit@@ 17
Mann@@ 17
NXT 17
Nim@@ 17
Nuestra 17
Nur@@ 17
Pac@@ 17
Personal 17
Phone 17
Potter 17
Prof. 17
Ring 17
SK 17
Sach@@ 17
Samb@@ 17
Scott 17
Sex 17
Señora 17
Sle@@ 17
Song 17
Stan@@ 17
Store 17
Supreme 17
Syl@@ 17
Team 17
Telec@@ 17
Temper@@ 17
Tour 17
Toyota 17
Trav@@ 17
View 17
Wad@@ 17
Wright 17
aan 17
acqu@@ 17
aden@@ 17
aircraft 17
allowed 17
alls 17
anas 17
anj@@ 17
anne 17
ared 17
arum 17
asan 17
atum 17
aud 17
authority 17
avirus 17
awards 17
bach 17
bid 17
boy 17
break@@ 17
brought 17
calend@@ 17
canal 17
ceph@@ 17
chap@@ 17
character 17
cho 17
circu@@ 17
circular 17
committee 17
concep@@ 17
connected 17
conserv@@ 17
consisting 17
containing 17
criticized 17
cultural 17
defeated 17
degrees 17
denomin@@ 17
described 17
dian 17
dish 17
drawn 17
ectiv@@ 17
effective 17
eigen@@ 17
elles 17
elo@@ 17
emerg@@ 17
emph@@ 17
engl@@ 17
enses 17
erra 17
estim@@ 17
estimated 17
eto 17
etr@@ 17
existing 17
feature 17
fi 17
flag@@ 17
foc@@ 17
focus 17
followed 17
fur 17
gency 17
gest@@ 17
gio 17
gir 17
glu@@ 17
heim 17
hic 17
hol 17
holds 17
increased 17
instruments 17
isis 17
jang@@ 17
jun@@ 17
kam@@ 17
kay@@ 17
kill 17
lag 17
law@@ 17
ledge 17
leg 17
liber@@ 17
lik@@ 17
lists 17
loy@@ 17
mans 17
median 17
message 17
mine 17
mont 17
nah@@ 17
nee 17
offer 17
oku 17
olia 17
omb 17
ony@@ 17
onym@@ 17
oted 17
ovi@@ 17
pack@@ 17
pah@@ 17
pattern 17
persons 17
pin 17
pli@@ 17
prac@@ 17
pro 17
progres@@ 17
rant 17
raph 17
rav@@ 17
relief 17
rine 17
rise 17
rus@@ 17
sciences 17
sely 17
sent@@ 17
signed 17
silver 17
skin 17
sko@@ 17
steam 17
taking 17
techniques 17
tent@@ 17
thal 17
tham 17
thy 17
toc@@ 17
toms 17
tos@@ 17
tual 17
unk 17
urn 17
users 17
usi@@ 17
utt@@ 17
vak@@ 17
verl@@ 17
vertical 17
virtual 17
vit@@ 17
went 17
xa 17
zed 17
Ì@@ 17
å@@ 17
ă@@ 17
ě@@ 17
Š@@ 17
θ@@ 17
д@@ 17
и 17
ы@@ 17
қ@@ 17
ө@@ 17
ר 17
أ@@ 17
الن@@ 17
حسن 17
شهر 17
علي 17
ــ@@ 17
ܝ@@ 17
रावट 17
ॼ@@ 17
ৃ@@ 17
ো 17
ਆ@@ 17
ੂ@@ 17
ક@@ 17
ો@@ 17
େ@@ 17
ண 17
ண@@ 17
ய 17
ழ 17
ద 17
య 17
ἀ@@ 17
─ 17
ﷺ 17
1. 16
13th 16
Afghanistan 16
Alliance 16
Anim@@ 16
Atlantic 16
Atom@@ 16
Aus@@ 16
Bisch@@ 16
Blo@@ 16
Boston 16
Bour@@ 16
Boys 16
Bull 16
But 16
Camp@@ 16
Car 16
Chik@@ 16
Children 16
Christi@@ 16
Cit@@ 16
Coc@@ 16
Columbia 16
Commerce 16
Conservation 16
Cross 16
Crow@@ 16
Dance 16
Day@@ 16
Despite 16
Dist@@ 16
Dw@@ 16
Ek@@ 16
Euc@@ 16
Exec@@ 16
Fas@@ 16
Federal 16
Fire@@ 16
Gom@@ 16
Gos@@ 16
Grav@@ 16
HK 16
HL 16
HMS 16
Haz@@ 16
Heinrich 16
Hollywood 16
Hou@@ 16
Howard 16
Hul@@ 16
INSE@@ 16
Ins@@ 16
Isaac 16
Italian 16
Jack 16
Jews 16
Jose 16
KG 16
KV@@ 16
Kim@@ 16
Kut@@ 16
Las@@ 16
Lau@@ 16
Lec@@ 16
Libr@@ 16
Lotus 16
Mant@@ 16
Mau@@ 16
Memorial 16
Mercury 16
Mn@@ 16
Mohammad 16
Motors 16
Naz@@ 16
Nih@@ 16
Nile 16
Oh@@ 16
Oil 16
Or 16
Ou@@ 16
Ov@@ 16
Over 16
Pag@@ 16
Pati@@ 16
Patri@@ 16
Pit@@ 16
Play 16
Police 16
Private 16
Reb@@ 16
Religion 16
Renault 16
Row@@ 16
SQ@@ 16
Say@@ 16
Seg@@ 16
Serv@@ 16
Song@@ 16
Squ@@ 16
St 16
Sut@@ 16
Sv@@ 16
Tad@@ 16
Tax@@ 16
Text 16
Thr@@ 16
Tos@@ 16
Unix 16
Va@@ 16
Vol 16
Wak@@ 16
Williams 16
Wir@@ 16
XT 16
Yard@@ 16
Years 16
Yer@@ 16
Your 16
Zar@@ 16
Zone 16
abor@@ 16
acking 16
activities 16
adh@@ 16
aine 16
alists 16
allow 16
alone 16
alus 16
anya 16
approach 16
arab@@ 16
arm 16
aters 16
attempt 16
auss 16
bag@@ 16
bed@@ 16
brach@@ 16
bran@@ 16
brand@@ 16
brevi@@ 16
bud@@ 16
build 16
buildings 16
bun@@ 16
camera 16
capture 16
car 16
channel 16
char 16
cia 16
cities 16
civiliz@@ 16
ck@@ 16
cla@@ 16
constructed 16
construction 16
cryp@@ 16
custom@@ 16
dam@@ 16
daughter 16
decided 16
declared 16
define 16
definiti@@ 16
dell 16
dic 16
diplom@@ 16
disc 16
eas 16
echn@@ 16
educational 16
een 16
efforts 16
ench@@ 16
endi@@ 16
engines 16
engu@@ 16
entire 16
esp@@ 16
ester@@ 16
etz@@ 16
exist 16
experimental 16
fem@@ 16
femin@@ 16
fen@@ 16
fifth 16
flora 16
frag@@ 16
fri@@ 16
fund@@ 16
galax@@ 16
geograph@@ 16
going 16
gon@@ 16
hani 16
hour 16
hua 16
hut@@ 16
ications 16
icul@@ 16
ikh 16
illing 16
impact 16
implement@@ 16
iness 16
influ@@ 16
ink 16
investig@@ 16
investment 16
ional 16
ires 16
itual 16
keep 16
khi 16
ldwide 16
lights 16
line@@ 16
mar 16
marriage 16
minimum 16
musical 16
nation 16
nation@@ 16
noc@@ 16
norm@@ 16
northern 16
nos@@ 16
objects 16
ock@@ 16
odes 16
offic@@ 16
ograph@@ 16
oking 16
oles 16
olling 16
ologi@@ 16
olus 16
ongo 16
osus 16
overall 16
ox 16
pal 16
pard 16
ph 16
pit@@ 16
places 16
playing 16
posterior 16
prepar@@ 16
programs 16
prud@@ 16
psy@@ 16
publ@@ 16
quir@@ 16
rah 16
ratic 16
recomm@@ 16
reported 16
retired 16
retr@@ 16
review 16
revol@@ 16
rich 16
rot 16
sad@@ 16
sense 16
sively 16
sof@@ 16
solutions 16
spar@@ 16
sper@@ 16
stab@@ 16
stable 16
store 16
sult@@ 16
supr@@ 16
tary 16
teaching 16
teams 16
tista 16
transformation 16
tru@@ 16
uba 16
uf@@ 16
uka 16
unction 16
universal 16
uno 16
vehicle 16
vent 16
vor@@ 16
w.@@ 16
wide 16
winning 16
wise 16
woman 16
yle 16
 16
ª@@ 16
Á@@ 16
Â@@ 16
Ö@@ 16
Ù 16
én 16
ë@@ 16
ón 16
ö 16
ʌ@@ 16
δ@@ 16
У@@ 16
а 16
вич 16
на 16
ا 16
حي@@ 16
ر 16
س 16
میں 16
پاکستان 16
کی 16
ऎ 16
थापि 16
मुंब@@ 16
ગ@@ 16
હ@@ 16
ତ@@ 16
ନ 16
ஸ 16
అ@@ 16
ీ@@ 16
ಚ@@ 16
ಜ@@ 16
ദ@@ 16
ཁ@@ 16
བ 16
ུ 16
☃ 16
♭ 16
の@@ 16
南@@ 16
漢@@ 16
한@@ 16
﻿ 16
12th 15
Affairs 15
Analy@@ 15
Arab@@ 15
BW@@ 15
Bad 15
Band 15
Barn@@ 15
Bell@@ 15
Bird 15
Bla@@ 15
Boy 15
Britain 15
Cath@@ 15
Champ@@ 15
Championship 15
Cler@@ 15
Clin@@ 15
Commons 15
County 15
Crown 15
Dah@@ 15
Daniel 15
Denmark 15
Diamond 15
Dir@@ 15
Doctor 15
Dog@@ 15
Dre@@ 15
Emperor 15
Enter@@ 15
Even 15
Fle@@ 15
Flo@@ 15
Full 15
Future 15
Gest@@ 15
Gil@@ 15
Grap@@ 15
Greater 15
Guinea 15
Haj@@ 15
Hey@@ 15
Hos@@ 15
Ich@@ 15
Intel@@ 15
Joe 15
Jones 15
Kish@@ 15
Kw@@ 15
Lem@@ 15
Light@@ 15
Lis@@ 15
Loh@@ 15
Lov@@ 15
Lt@@ 15
Lud@@ 15
Marine 15
Market 15
Masters 15
Maw@@ 15
Maxim@@ 15
Miller 15
Miss@@ 15
Museo 15
Nacional 15
Ne 15
Neu@@ 15
Notes 15
Olympics 15
Online 15
Otto 15
Our 15
Pharm@@ 15
Phase 15
Philip 15
Prom@@ 15
Province 15
RAF 15
Reh@@ 15
Rep@@ 15
Roy 15
Sark@@ 15
Sau@@ 15
Second@@ 15
Ses@@ 15
Sound@@ 15
Species 15
Ten 15
Territ@@ 15
Tom 15
Tour@@ 15
Ung@@ 15
Unic@@ 15
Victor 15
Vide@@ 15
Wales 15
Wind 15
Ye@@ 15
a. 15
aar 15
abar@@ 15
abil@@ 15
abstr@@ 15
achiev@@ 15
acked 15
aco 15
adap@@ 15
aea 15
aeus 15
aged 15
ahl 15
aire 15
akh 15
alisation 15
alty 15
alu@@ 15
amed 15
amide 15
aming 15
anap@@ 15
ancing 15
ano@@ 15
anthus 15
app 15
applications 15
arti@@ 15
attle 15
bill 15
bis@@ 15
bow 15
boys 15
bron@@ 15
call 15
cam@@ 15
cent 15
cible 15
citizens 15
classical 15
cles 15
coming 15
competed 15
contain 15
control@@ 15
converted 15
cour@@ 15
craft 15
critics 15
cultiv@@ 15
cycl@@ 15
cyclo@@ 15
damage 15
dedicated 15
dimensions 15
doctr@@ 15
dt 15
eba 15
eight 15
elin 15
enberg 15
endant 15
endel@@ 15
enger 15
enh@@ 15
enzyme 15
ers@@ 15
ership 15
evalu@@ 15
examples 15
experim@@ 15
extinc@@ 15
fat 15
feet 15
finish 15
fix@@ 15
flor@@ 15
française 15
fro@@ 15
fung@@ 15
gets 15
giving 15
goal 15
gor@@ 15
grad@@ 15
graduate 15
gru@@ 15
hai@@ 15
hands 15
heri 15
hit 15
hit@@ 15
hospital 15
hus@@ 15
ias 15
icket 15
idem@@ 15
iden 15
inclu@@ 15
infl@@ 15
itable 15
iter 15
kil@@ 15
lack 15
lah 15
lake 15
leaders 15
lear@@ 15
leist@@ 15
len 15
letters 15
likely 15
lov@@ 15
lun@@ 15
marine 15
metr@@ 15
miss@@ 15
mitted 15
mov@@ 15
moved 15
nat@@ 15
nor 15
noted 15
numerous 15
nun 15
odor@@ 15
olig@@ 15
ometr@@ 15
onas 15
oned 15
onium 15
origin@@ 15
orium 15
oso 15
othe@@ 15
othing 15
ources 15
particularly 15
pid@@ 15
plan 15
pler 15
plo@@ 15
polis 15
prak@@ 15
preci@@ 15
quet 15
radical 15
ray@@ 15
referred 15
represent 15
roman@@ 15
sau@@ 15
sci@@ 15
scr@@ 15
selected 15
share 15
sible 15
slow 15
some@@ 15
song 15
songs 15
stimul@@ 15
street 15
stret@@ 15
subj@@ 15
suffered 15
supp@@ 15
supported 15
tant 15
tard 15
tari 15
technical 15
termin@@ 15
tests 15
think 15
tier 15
tral 15
transport 15
tres 15
tribu@@ 15
ube 15
udo 15
uel@@ 15
uer@@ 15
urb@@ 15
vic 15
vice 15
victory 15
viv@@ 15
vo 15
vs. 15
wani 15
weeks 15
wich 15
wir@@ 15
xim@@ 15
yab@@ 15
¡ 15
École 15
Ü 15
án@@ 15
ár@@ 15
ä@@ 15
és 15
ño 15
ý@@ 15
ρ@@ 15
τος 15
г@@ 15
к 15
м 15
ская 15
بر@@ 15
ت@@ 15
ش 15
عمر 15
لَ@@ 15
پ@@ 15
ދ@@ 15
ऺ 15
হ 15
ৌ@@ 15
ਕ 15
ਨ 15
ୁ@@ 15
இ@@ 15
ஜ@@ 15
ಅ@@ 15
ೋ@@ 15
ച@@ 15
ണ@@ 15
പ 15
ൂ@@ 15
ോ@@ 15
ཆ@@ 15
⅓ 15
↔ 15
≠ 15
☑ 15
イ@@ 15
國@@ 15
小@@ 15
10th 14
16th 14
1960s 14
1990s 14
2,2 14
202@@ 14
Abd 14
Ahmed 14
Ajax 14
Alb@@ 14
Albert 14
Alli@@ 14
Alt@@ 14
Ander@@ 14
Aph@@ 14
Are 14
Aristot@@ 14
BO 14
Baba 14
Benz 14
Bit@@ 14
Blan@@ 14
Boul@@ 14
Box@@ 14
Broad@@ 14
Brown 14
Buch@@ 14
Bus 14
Caes@@ 14
Cann@@ 14
Caribbean 14
Cast@@ 14
Castle 14
Cla@@ 14
Coch@@ 14
Communications 14
Cord@@ 14
Core 14
Cran@@ 14
Cryp@@ 14
Das 14
Death 14
Deutschland 14
Edition 14
Ernst 14
Esper@@ 14
Eu@@ 14
Evil 14
Expl@@ 14
FK 14
Fair@@ 14
Fey@@ 14
Fif@@ 14
Fos@@ 14
Geography 14
Gib@@ 14
Heavy 14
Holy 14
Hur@@ 14
Indians 14
Institu@@ 14
Karnataka 14
Kau@@ 14
Kid@@ 14
Lan@@ 14
Late 14
Lay@@ 14
Leo 14
Level 14
Ley@@ 14
Living 14
Lot@@ 14
Marathon 14
Marx 14
Maxwell 14
Maz@@ 14
Member 14
Mind 14
Ministry 14
Mountain 14
Movie 14
Mug@@ 14
Nation 14
Nel@@ 14
Nep@@ 14
Never 14
Nob@@ 14
Opera 14
Palace 14
Pear@@ 14
Penn@@ 14
Pent@@ 14
Phy@@ 14
Pictures 14
Planet 14
Pra@@ 14
Rai@@ 14
Renaissance 14
Reser@@ 14
Ry@@ 14
Sas@@ 14
Scar@@ 14
Sham@@ 14
Singapore 14
Site 14
Siv@@ 14
Son 14
Sour@@ 14
Spar@@ 14
Studios 14
Sultan@@ 14
Take 14
Talk 14
Today 14
Urs@@ 14
Vision 14
Voice 14
Where 14
Wilson 14
Wit@@ 14
Wood 14
Zealand 14
a- 14
abis 14
acr@@ 14
aday 14
aded 14
adri 14
aen@@ 14
affa@@ 14
agen 14
ahu 14
aid@@ 14
alar 14
alities 14
aller@@ 14
alter@@ 14
alternative 14
amen 14
anal@@ 14
ando 14
anian 14
aning 14
ape 14
appear 14
aras@@ 14
aru 14
asti@@ 14
auto 14
beta 14
bian 14
blo@@ 14
border 14
box@@ 14
camp@@ 14
cap 14
chan@@ 14
chart 14
chir@@ 14
clav@@ 14
coal 14
command 14
composition 14
compositions 14
conv@@ 14
cup 14
dae 14
daily 14
demonstr@@ 14
dile 14
divisions 14
drug 14
dul@@ 14
edo 14
eka 14
element@@ 14
employment 14
ened 14
entes 14
entrepren@@ 14
esta 14
eting 14
etta 14
eu 14
except 14
explo@@ 14
failed 14
fall@@ 14
fav@@ 14
fee 14
females 14
finished 14
folk 14
foot 14
founder 14
gall@@ 14
garden 14
gel@@ 14
gem@@ 14
gens 14
goes 14
grandi@@ 14
growing 14
gul@@ 14
gur@@ 14
hata 14
hib@@ 14
hn 14
hn@@ 14
horn 14
hos@@ 14
icum 14
ield 14
ife 14
ige 14
igg@@ 14
illed 14
illi 14
ilo 14
imbi 14
imler 14
inclin@@ 14
ini@@ 14
inj@@ 14
insec@@ 14
isch 14
island 14
isters 14
ither 14
iz 14
jana 14
justice 14
kat 14
kaya 14
kes@@ 14
kid@@ 14
kings 14
lam 14
launched 14
lav@@ 14
lem 14
lement 14
loo 14
maker 14
mam@@ 14
mas 14
master 14
mat 14
math@@ 14
medal 14
mes 14
minister 14
minton 14
minutes 14
models 14
mud 14
multi 14
mur@@ 14
nad@@ 14
nan@@ 14
nea 14
necessary 14
nos 14
nuc@@ 14
och 14
ois@@ 14
oki 14
olet 14
oli@@ 14
omb@@ 14
online 14
ool 14
otyp@@ 14
owned 14
pain@@ 14
passed 14
pay 14
pec@@ 14
petrol@@ 14
pollu@@ 14
pper 14
protein 14
reas 14
recent 14
recogni@@ 14
rein@@ 14
replaced 14
res 14
ron@@ 14
sac 14
satis@@ 14
scienti@@ 14
sel 14
setting 14
ships 14
situated 14
sius 14
sol 14
soul 14
speech 14
stan@@ 14
stated 14
ston 14
sura 14
tag 14
talk 14
technique 14
temper@@ 14
thu 14
tified 14
tribut@@ 14
triple 14
tur 14
twice 14
ude 14
ulata 14
ull 14
urus 14
ushing 14
variety 14
veget@@ 14
vey 14
vir 14
voice 14
volcan@@ 14
wali@@ 14
warf 14
whether 14
wig@@ 14
writers 14
ylo@@ 14
© 14
¶ 14
Ø 14
ía 14
ú 14
ú@@ 14
ɑ 14
ɡ 14
ία 14
χ@@ 14
А@@ 14
С@@ 14
й@@ 14
ка 14
ный 14
ֵ@@ 14
ז@@ 14
آ@@ 14
آباد 14
ار 14
الب@@ 14
ت 14
عن 14
في 14
ل 14
مسجد 14
مه@@ 14
وا@@ 14
राणिक 14
ॻ@@ 14
ਭ@@ 14
੍ 14
અ@@ 14
ି 14
ం 14
ಣ@@ 14
ಪ 14
ಳ@@ 14
ಶ 14
റ@@ 14
လ@@ 14
ီ@@ 14
ᱟ@@ 14
ṅ@@ 14
♦ 14
三@@ 14
新@@ 14
明@@ 14
金@@ 14
ꯤ@@ 14
￱ 14
1,4 13
1920@@ 13
1980s 13
3. 13
Abdullah 13
Abraham 13
Asi@@ 13
Austr@@ 13
Autonom@@ 13
Baj@@ 13
Barr@@ 13
Bec@@ 13
Benjamin 13
Blas@@ 13
Brothers 13
Bub@@ 13
Bug@@ 13
Bun@@ 13
Charlie 13
Circle 13
Clar@@ 13
Classic 13
Cli@@ 13
Cloud 13
Command 13
Continental 13
Cour@@ 13
Cov@@ 13
Dep@@ 13
Deutsche 13
Di 13
Domin@@ 13
Dé@@ 13
Esp@@ 13
Fame 13
Ferdinand 13
Final 13
Forbes 13
Formula 13
Fund@@ 13
Gallery 13
Garr@@ 13
Giovanni 13
Girl 13
Glass 13
Gog@@ 13
Gordon 13
Grim@@ 13
Gru@@ 13
Gug@@ 13
Hans@@ 13
Herbert 13
Inst@@ 13
José 13
Julian 13
Jun@@ 13
Junior 13
Just 13
Kaw@@ 13
Kes@@ 13
Ket@@ 13
Know@@ 13
Koh@@ 13
Kop@@ 13
Koz@@ 13
Lic@@ 13
Lil@@ 13
Lind@@ 13
Lod@@ 13
Lut@@ 13
Lyn@@ 13
Malay@@ 13
Manager 13
Mart 13
Mec@@ 13
Mercedes 13
Mim@@ 13
Mt 13
Nab@@ 13
Nepal 13
Offic@@ 13
Olymp@@ 13
Pall@@ 13
Parall@@ 13
Part@@ 13
Partido 13
Pau@@ 13
Pop@@ 13
Pos@@ 13
Priv@@ 13
Professional 13
Programme 13
Protest@@ 13
Quar@@ 13
Rein@@ 13
Religi@@ 13
Report 13
Resol@@ 13
Rhy@@ 13
Ruby 13
Salvador 13
Samuel 13
Santiago 13
Saw@@ 13
Sche@@ 13
Scotland 13
SmackDown 13
Spanish 13
Spr@@ 13
Sten@@ 13
Sund@@ 13
Swiss 13
Tag 13
Tah@@ 13
Tek@@ 13
Television 13
Test@@ 13
Thompson 13
Tin@@ 13
Transport 13
Tunnel 13
Under 13
Unit 13
Venez@@ 13
Veter@@ 13
Vill@@ 13
Walter 13
West@@ 13
Wide 13
Yo@@ 13
Zero 13
abled 13
acher 13
aches 13
acquisition 13
adas 13
address 13
advantage 13
ags 13
aid 13
ails 13
akers 13
allen 13
already 13
alum 13
aman 13
ament@@ 13
anes 13
anic 13
anner 13
anos 13
appropri@@ 13
archi@@ 13
ario 13
arius 13
armed 13
arranged 13
ason 13
asser@@ 13
ater@@ 13
atidae 13
attention 13
attribu@@ 13
avoid 13
azim@@ 13
bak@@ 13
bas 13
bass@@ 13
battle 13
bay@@ 13
baz@@ 13
behind 13
bern@@ 13
bet@@ 13
biot@@ 13
bone 13
brid@@ 13
cable 13
cel 13
cer 13
chant 13
charg@@ 13
chen@@ 13
cim@@ 13
claims 13
clusive 13
comment@@ 13
conductor 13
consists 13
contains 13
cord@@ 13
counter 13
creation 13
critic@@ 13
culus 13
dan@@ 13
declar@@ 13
dered 13
didae 13
difficult 13
disco@@ 13
dix 13
draw 13
duk@@ 13
earlier 13
edra 13
educated 13
eil 13
elds 13
elia 13
elt 13
enko 13
enne 13
entered 13
ept 13
equi@@ 13
erh@@ 13
eron 13
establish 13
etto 13
evi 13
examin@@ 13
expanded 13
experience 13
falls 13
fera 13
ffer 13
fit@@ 13
flight 13
fran@@ 13
fs 13
ful@@ 13
für 13
gained 13
games 13
gan 13
gestion 13
hay@@ 13
hibition 13
hy 13
icks 13
idar@@ 13
ideal 13
ig 13
iger 13
ikan@@ 13
iku@@ 13
iles 13
ily 13
individuals 13
inferior 13
initial 13
inner 13
intellectu@@ 13
ix@@ 13
jah@@ 13
kari 13
kel 13
killed 13
kot@@ 13
kun@@ 13
label 13
lap 13
lay 13
leges 13
lery 13
lich@@ 13
limit@@ 13
lined 13
list@@ 13
locom@@ 13
luc@@ 13
mad 13
mainly 13
makes 13
manipul@@ 13
married 13
mec@@ 13
mers 13
mf@@ 13
migr@@ 13
miner@@ 13
nations 13
natur@@ 13
negoti@@ 13
nig@@ 13
novi@@ 13
oba@@ 13
observed 13
omin@@ 13
onym 13
opsis 13
oting 13
otra 13
oz 13
paid 13
parties 13
photo 13
phus 13
plays 13
powers 13
pp 13
praised 13
present@@ 13
professional 13
proportion 13
protect 13
protection 13
province 13
pup@@ 13
question 13
radic@@ 13
rar@@ 13
reach 13
reached 13
refer 13
refers 13
reform 13
registr@@ 13
represented 13
representing 13
rew 13
ric 13
sch 13
schol@@ 13
shel@@ 13
shor@@ 13
sist@@ 13
ska 13
smaller 13
som 13
sou@@ 13
stand@@ 13
sty@@ 13
successful 13
tad@@ 13
tah@@ 13
tat@@ 13
techn@@ 13
terminal 13
terns 13
thy@@ 13
tiful 13
tigen 13
tir@@ 13
tos 13
traits 13
tries 13
tum 13
typically 13
ufac@@ 13
uld 13
ulo 13
unción 13
university 13
uro 13
ux 13
valley 13
vil@@ 13
wana 13
wash@@ 13
wen@@ 13
wick 13
widely 13
worldwide 13
yat 13
yen@@ 13
zy 13
ê@@ 13
ë 13
ì@@ 13
ò 13
ör@@ 13
þ@@ 13
ɹ@@ 13
Σ 13
ός 13
Ми@@ 13
евич 13
о 13
ский 13
ׁ@@ 13
ד 13
ז 13
ע 13
ابن 13
الرحمن 13
ان@@ 13
ح 13
رو@@ 13
ری 13
سم 13
ع 13
ف 13
لا@@ 13
مح@@ 13
محافظة 13
مع@@ 13
مَ@@ 13
ورة 13
ين 13
َ 13
ُ 13
ک@@ 13
ު 13
ऺ@@ 13
ঘ@@ 13
ছ@@ 13
ਬ 13
ન 13
ભ@@ 13
સ@@ 13
ુ@@ 13
ହ@@ 13
எ@@ 13
ழ@@ 13
ట@@ 13
డ 13
హ@@ 13
ೂ@@ 13
ം@@ 13
ീ@@ 13
ൃ@@ 13
ම@@ 13
ස@@ 13
ු@@ 13
ཀ@@ 13
ན@@ 13
པ 13
စ@@ 13
ည 13
ა@@ 13
ម@@ 13
‑ 13
☉ 13
一@@ 13
中@@ 13
市 13
西@@ 13
김@@ 13
 13
AFC 12
Academ@@ 12
Adi@@ 12
Adv@@ 12
Afgh@@ 12
Alan 12
Alex@@ 12
Amer@@ 12
And@@ 12
Anj@@ 12
Ans@@ 12
Artic@@ 12
Aster@@ 12
Att@@ 12
Bibli@@ 12
Big@@ 12
Blin@@ 12
Boeing 12
Bomb@@ 12
Brach@@ 12
Brid@@ 12
Brom@@ 12
Calvin 12
Camb@@ 12
Camp 12
Card@@ 12
Career 12
Catal@@ 12
Cathedral 12
Cau@@ 12
Cay@@ 12
Chan@@ 12
Chel@@ 12
Chron@@ 12
Chur@@ 12
Clo@@ 12
Compan@@ 12
Constitution 12
Dark 12
Dipl@@ 12
Director 12
Distribution 12
Double 12
Due 12
Einstein 12
Emir@@ 12
En 12
End@@ 12
Executive 12
FIBA 12
Figh@@ 12
Fon@@ 12
Form 12
Forum 12
Gab@@ 12
Gard@@ 12
Girls 12
Govern@@ 12
Graham 12
Ground 12
Ha 12
Haf@@ 12
Hak@@ 12
Hansen 12
Innov@@ 12
Ji 12
Jug@@ 12
KK 12
King@@ 12
Kings 12
L4 12
Laur@@ 12
Libre 12
Linn@@ 12
Lip@@ 12
Lob@@ 12
Local 12
Lost 12
MVP 12
Mans@@ 12
Mb@@ 12
Mend@@ 12
Merc@@ 12
Monte 12
Nam 12
Nath@@ 12
Nati@@ 12
Neb@@ 12
Neo 12
Nick@@ 12
Nintendo 12
Nom@@ 12
Norway 12
Palest@@ 12
Patr@@ 12
Pet@@ 12
Phar@@ 12
Phoen@@ 12
Phoenix 12
Pier@@ 12
Prime 12
Pseud@@ 12
Record 12
Rho@@ 12
Rig@@ 12
Roch@@ 12
Rock@@ 12
Rogers 12
Ross 12
Roy@@ 12
Russell 12
SPD 12
SSR 12
Sali@@ 12
Santo 12
Sieg@@ 12
Sin 12
Sky 12
Slam 12
Smo@@ 12
Stewart 12
Sultan 12
Symp@@ 12
Tat@@ 12
Though 12
Tokyo 12
Tow@@ 12
Town 12
Tube 12
Ve 12
Ves@@ 12
Viv@@ 12
Wan@@ 12
Warren 12
Wars 12
Wild 12
Will@@ 12
Wimb@@ 12
Zen@@ 12
Zi@@ 12
abi@@ 12
abilities 12
abu 12
achieved 12
actually 12
adj@@ 12
advis@@ 12
ager 12
agriculture 12
akar@@ 12
aler 12
alk@@ 12
alth 12
ambi@@ 12
anded 12
ante@@ 12
anterior 12
approximately 12
appy 12
aran@@ 12
arbitr@@ 12
artists 12
atal 12
athan 12
atia 12
atika 12
audi@@ 12
aun 12
aver@@ 12
avu 12
aza 12
bands 12
beg@@ 12
behavior 12
berry 12
beyond 12
boat 12
brand 12
burn 12
c. 12
cad@@ 12
cally 12
capit@@ 12
categ@@ 12
category 12
causes 12
choice 12
circul@@ 12
circulation 12
club 12
compati@@ 12
comple@@ 12
conqu@@ 12
constr@@ 12
conventi@@ 12
convention 12
coron@@ 12
cost@@ 12
cula 12
dad@@ 12
decre@@ 12
deg@@ 12
department 12
determined 12
diction 12
diffusion 12
distr@@ 12
dn 12
document@@ 12
dow@@ 12
ecture 12
edly 12
ees 12
eigh@@ 12
eign@@ 12
eles 12
elly 12
embran@@ 12
emper@@ 12
emy 12
endr@@ 12
ented 12
enthal 12
equipment 12
eres 12
ern 12
esser 12
estate 12
etti@@ 12
eve 12
ever@@ 12
exer@@ 12
eyes 12
f. 12
factory 12
fair 12
fat@@ 12
fj@@ 12
ford@@ 12
foundation 12
fra@@ 12
frequ@@ 12
fried 12
gal 12
gath@@ 12
gers 12
gies 12
gli@@ 12
glob@@ 12
goods 12
hala 12
high@@ 12
highly 12
hin 12
igher 12
igne 12
iko 12
implic@@ 12
improv@@ 12
iner 12
infr@@ 12
inger@@ 12
inning 12
inside 12
instance 12
interpret@@ 12
irus 12
itas 12
itus 12
joining 12
jur@@ 12
key@@ 12
kov@@ 12
kri@@ 12
lak 12
latter 12
leaves 12
lei 12
lying 12
mari@@ 12
marked 12
minute 12
mixed 12
motor@@ 12
neo 12
nership 12
nur@@ 12
oblig@@ 12
oc 12
occup@@ 12
oceph@@ 12
oder@@ 12
odo@@ 12
offensive 12
offered 12
ogle 12
ole@@ 12
olo 12
onna 12
opa 12
optim@@ 12
organisation 12
organiz@@ 12
oring 12
orn 12
oro 12
oshi 12
oss 12
otop@@ 12
ovich 12
pak@@ 12
participated 12
pass@@ 12
phi 12
pio 12
planning 12
plans 12
plot 12
pod@@ 12
porting 12
pour 12
powerful 12
presence 12
priv@@ 12
producing 12
protoc@@ 12
proved 12
pter@@ 12
qua 12
quer@@ 12
quite 12
rea 12
removed 12
resid@@ 12
respond@@ 12
rest@@ 12
result@@ 12
rett 12
retur@@ 12
round@@ 12
sanc@@ 12
save 12
schools 12
screen 12
seconds 12
secre@@ 12
senti@@ 12
ses@@ 12
shaped 12
sier 12
simply 12
sold 12
spin@@ 12
spor@@ 12
staff 12
stars 12
stations 12
stitut@@ 12
swit@@ 12
syst@@ 12
tarak@@ 12
technologies 12
tee 12
tens@@ 12
thu@@ 12
tible 12
ticus 12
tific@@ 12
titu@@ 12
told 12
toler@@ 12
track 12
translated 12
trau@@ 12
tron@@ 12
ub 12
uck 12
uled 12
umi 12
unknown 12
unter@@ 12
urt 12
usu@@ 12
uter 12
uts 12
veda 12
vern@@ 12
versities 12
vial 12
visible 12
vot@@ 12
vs 12
wait 12
wid@@ 12
wine 12
winners 12
work@@ 12
yar 12
yav@@ 12
ything 12
yu@@ 12
za@@ 12
zar 12
zee 12
zin@@ 12
áng 12
ü 12
ġ@@ 12
Ÿ@@ 12
Α@@ 12
κ 12
σ@@ 12
τ@@ 12
Х@@ 12
д 12
к@@ 12
у 12
ш@@ 12
ט@@ 12
إ@@ 12
اب 12
اد 12
الأ@@ 12
در 12
رَ@@ 12
ری@@ 12
ص@@ 12
لو@@ 12
مي 12
نام@@ 12
ند@@ 12
ية 12
ނ@@ 12
परंप@@ 12
ও 12
ਖ@@ 12
બ@@ 12
લ@@ 12
ଦ@@ 12
ର 12
ୋ@@ 12
త 12
భ@@ 12
ಟ 12
ೊ@@ 12
ല 12
ල@@ 12
้ 12
ང@@ 12
တ 12
ე@@ 12
ស@@ 12
ῖ@@ 12
ℓ 12
∆ 12
∈ 12
ン 12
北@@ 12
山@@ 12
式@@ 12
🙏 12
17th 11
2,6 11
Adap@@ 11
Advis@@ 11
Anton@@ 11
Architecture 11
Armada 11
Arth@@ 11
Avi@@ 11
BK 11
Bach@@ 11
Baptist 11
Bath@@ 11
Benedic@@ 11
Benz@@ 11
Bron@@ 11
Cand@@ 11
Carlo 11
Casa 11
Cat 11
Chairman 11
Chat@@ 11
Chor@@ 11
Chr@@ 11
Dag@@ 11
Deh@@ 11
Develop@@ 11
Down 11
Duke 11
Dutch 11
Eas@@ 11
Element@@ 11
Galil@@ 11
Gesellschaft 11
Gig@@ 11
Gli@@ 11
Glo@@ 11
Got 11
Gulf 11
Harmon@@ 11
Hed@@ 11
Hep@@ 11
Hermann 11
Hid@@ 11
Hop@@ 11
Hous@@ 11
Id@@ 11
Infin@@ 11
Inform@@ 11
Jeux 11
Johannes 11
Jon@@ 11
Jung@@ 11
Kaiser 11
Kay@@ 11
Kim 11
Klein 11
Kuv@@ 11
Lou@@ 11
Luis 11
Madame 11
Magn@@ 11
Make 11
Martha 11
Medal 11
Mich@@ 11
National@@ 11
Nova 11
Palm 11
Palm@@ 11
Pam@@ 11
Pan 11
Pant@@ 11
Pass 11
Peter@@ 11
Petr@@ 11
Phili@@ 11
Poc@@ 11
Prob@@ 11
Prof@@ 11
Que@@ 11
Racing 11
Raf@@ 11
Rail 11
Rail@@ 11
Refer@@ 11
Regional 11
Reserve 11
Rich@@ 11
Roger 11
Rost@@ 11
Rudolf 11
Rup@@ 11
Salt 11
Salv@@ 11
Satur@@ 11
Schools 11
Scot@@ 11
Secre@@ 11
Secret 11
Sep@@ 11
Sierra 11
Sis@@ 11
Songs 11
Spring 11
Steel 11
Stein@@ 11
Stephen 11
Stop 11
Stor@@ 11
Switzerland 11
Tai@@ 11
Te 11
Tes@@ 11
Thi@@ 11
Tig@@ 11
Tob@@ 11
Trail 11
Trans 11
Trust 11
Us@@ 11
Vent@@ 11
Vie@@ 11
WM 11
Walker 11
Watson 11
Wind@@ 11
Yan@@ 11
Yuk@@ 11
Zam@@ 11
abo@@ 11
actors 11
actual 11
advanced 11
agan 11
agers 11
ago@@ 11
agreed 11
aint 11
alam@@ 11
alco@@ 11
alleg@@ 11
alo 11
alo@@ 11
amu 11
andal 11
andan 11
ango 11
ank 11
annual 11
anto 11
anum 11
apor@@ 11
aque 11
arding 11
aspect 11
ata@@ 11
atura 11
auch@@ 11
autonom@@ 11
aux 11
aver 11
awi 11
ayar 11
azi@@ 11
bee 11
bili@@ 11
bium 11
borough 11
bound 11
busin@@ 11
cab@@ 11
caus@@ 11
centre 11
centuries 11
chan 11
chel@@ 11
chu 11
church 11
cili@@ 11
classes 11
combus@@ 11
consid@@ 11
cule 11
dance 11
deal 11
desc@@ 11
description 11
destruc@@ 11
dich@@ 11
dot@@ 11
drive 11
drop 11
dum 11
duty 11
ead 11
ec 11
ece 11
ecr@@ 11
ecti@@ 11
eded 11
eder 11
emo 11
emplo@@ 11
ende 11
esch@@ 11
essenti@@ 11
ete@@ 11
exten@@ 11
extra 11
fashion 11
festival 11
fif@@ 11
fight 11
fighting 11
filled 11
fine 11
forming 11
foss@@ 11
founded 11
frequently 11
fron@@ 11
fruit 11
fun@@ 11
fut@@ 11
getting 11
gian 11
girls 11
gium 11
grade 11
guard 11
gut 11
haps 11
haria 11
hep@@ 11
hiver 11
hul@@ 11
husband 11
hynch@@ 11
idel@@ 11
ident 11
ieu 11
ieve 11
ift 11
ilfe 11
ilus 11
ingen 11
ingo 11
innov@@ 11
inspired 11
instruc@@ 11
insur@@ 11
ire@@ 11
ishment 11
isson 11
issues 11
izer 11
jam@@ 11
jit@@ 11
job 11
kah@@ 11
kan 11
kard 11
kel@@ 11
keting 11
kom@@ 11
kov 11
kul 11
kur 11
kus@@ 11
labor 11
leadership 11
lik 11
linked 11
lique 11
lived 11
liye 11
losses 11
lowing 11
mam 11
managed 11
manif@@ 11
materi@@ 11
mil 11
miles 11
mk@@ 11
mon 11
n.@@ 11
nd 11
obtained 11
oides 11
oja 11
olan 11
olar@@ 11
oldest 11
olla 11
ologie 11
olympiques 11
oney 11
onne 11
oqu@@ 11
oration 11
orch@@ 11
ornis 11
oun 11
ouv@@ 11
p. 11
pages 11
pale@@ 11
parall@@ 11
passengers 11
pav@@ 11
pen 11
percent 11
performed 11
persist@@ 11
phab@@ 11
placing 11
planned 11
poli@@ 11
poor 11
practic@@ 11
previous 11
progr@@ 11
projects 11
prol@@ 11
propos@@ 11
providing 11
qualif@@ 11
qui 11
refle@@ 11
regarded 11
regional 11
representative 11
require 11
respect 11
rim 11
riv@@ 11
rob@@ 11
ros 11
rose 11
royal 11
safety 11
sang 11
satellite 11
scru@@ 11
seas 11
sed@@ 11
sei 11
sels 11
sent 11
sert 11
session 11
show@@ 11
showing 11
sir@@ 11
speaking 11
spon@@ 11
sports 11
spre@@ 11
stanz 11
stead 11
strong@@ 11
success 11
surg@@ 11
ted@@ 11
tei 11
tela 11
tens 11
thin 11
tioned 11
tn@@ 11
tons 11
transform@@ 11
trees 11
trou@@ 11
ually 11
umen 11
unif@@ 11
unk@@ 11
v.@@ 11
vac@@ 11
vation 11
vertic@@ 11
verty 11
viewed 11
wall@@ 11
wang 11
waters 11
weather 11
wher@@ 11
wit@@ 11
worked 11
xes 11
xima 11
yang 11
yat@@ 11
ycl@@ 11
yel@@ 11
yph@@ 11
zan 11
Ç@@ 11
Émile 11
Ö 11
Österreich@@ 11
â 11
ère 11
ò@@ 11
ɔ 11
ɕ@@ 11
ɛ 11
ʰ 11
Σ@@ 11
И@@ 11
К@@ 11
Ка@@ 11
Ле@@ 11
М@@ 11
ла@@ 11
м@@ 11
нович 11
ң 11
ә@@ 11
א 11
است@@ 11
الج@@ 11
الخ@@ 11
الدین 11
الص@@ 11
ام@@ 11
به 11
بو@@ 11
بَ@@ 11
بِ@@ 11
تر@@ 11
ج 11
حَ@@ 11
ستان 11
سی@@ 11
ض@@ 11
ق 11
من@@ 11
نی@@ 11
هر 11
هُ 11
ود 11
ور 11
وری 11
ُ@@ 11
ہ@@ 11
ۃ 11
ܪ@@ 11
औरंगा@@ 11
ॠ 11
ॱ 11
খ 11
ঞ 11
থ@@ 11
ਚ@@ 11
ਧ@@ 11
ੁ 11
ੂ 11
છ@@ 11
ણ@@ 11
પ@@ 11
ર 11
િ@@ 11
ନ@@ 11
ீ@@ 11
ట 11
మ 11
ಡ 11
ജ@@ 11
ശ 11
ഷ 11
ഷ@@ 11
ഹ@@ 11
െ@@ 11
ൻ 11
ർ 11
ක@@ 11
ත@@ 11
ය 11
ဒ@@ 11
မ 11
រ 11
ᱚ@@ 11
↵ 11
る 11
ラ@@ 11
ル@@ 11
日 11
東@@ 11
株@@ 11
武@@ 11
의 11
이 11
인@@ 11
 11
1,5 10
183@@ 10
1970s 10
2,4 10
4,5 10
Adam 10
Aeg@@ 10
Aff@@ 10
Alem@@ 10
Alice 10
Alo@@ 10
Ame@@ 10
Anderson 10
Anthony 10
Aran@@ 10
Ba 10
Basil@@ 10
Beno@@ 10
Bill@@ 10
Biz@@ 10
Ble@@ 10
Broadcasting 10
Buc@@ 10
Buil@@ 10
Butter@@ 10
Cad@@ 10
Capit@@ 10
Cey@@ 10
Chanc@@ 10
Chi 10
Christ@@ 10
Christian@@ 10
Christmas 10
Chrys@@ 10
Cic@@ 10
Colorado 10
Corona 10
Davis 10
Deep 10
Der 10
Des 10
Dial@@ 10
Dong@@ 10
Dream 10
Dub@@ 10
Dubai 10
EB@@ 10
Edmund 10
Eich@@ 10
Enterprise 10
Esc@@ 10
Faith 10
Fall 10
Fam@@ 10
Fiction 10
Films 10
Finn@@ 10
Found@@ 10
Frank@@ 10
Gabriel 10
Gall@@ 10
Georges 10
German@@ 10
Glob@@ 10
Got@@ 10
Graf@@ 10
Grou@@ 10
Hamp@@ 10
Hand 10
Hong@@ 10
Honor@@ 10
Hotel 10
Ibn 10
Initiative 10
Internationale 10
Interpre@@ 10
Investig@@ 10
Italy 10
Jacob 10
Jesus 10
Jo 10
Jose@@ 10
Kag@@ 10
Kamp@@ 10
Kati@@ 10
Ken@@ 10
Khali@@ 10
Kri@@ 10
Kub@@ 10
Lanka 10
Liberty 10
Lup@@ 10
Mar 10
Marqu@@ 10
Mart@@ 10
Materi@@ 10
Maurice 10
Mix@@ 10
Mk 10
Mob@@ 10
Moon 10
Mud@@ 10
Nec@@ 10
Nem@@ 10
Ni 10
Nich@@ 10
Night@@ 10
Nun@@ 10
Para 10
Parad@@ 10
Paral@@ 10
Patrick 10
Peg@@ 10
Peti@@ 10
Pf@@ 10
Phyl@@ 10
Robin 10
Rolling 10
Roman@@ 10
Room 10
Rut@@ 10
République 10
Samp@@ 10
Sant 10
Saturday 10
Sax@@ 10
Say 10
Secretary 10
Set@@ 10
Sib@@ 10
Silver@@ 10
Some@@ 10
Soul 10
Soy@@ 10
Spirit 10
Stanley 10
Stars 10
Status 10
Stern 10
Summer 10
Swe@@ 10
Syr@@ 10
Taxonom@@ 10
Tin 10
Trag@@ 10
Tub@@ 10
Verte@@ 10
Victoria 10
Wid@@ 10
Xen@@ 10
Zin@@ 10
Zu@@ 10
aban 10
aber 10
accomp@@ 10
accompl@@ 10
acha 10
achers 10
acor@@ 10
administration 10
adop@@ 10
adult 10
advertis@@ 10
affili@@ 10
afr@@ 10
agents 10
ahl@@ 10
aina 10
akes 10
alised 10
aliy@@ 10
alled 10
altitude 10
amo 10
anan 10
anza 10
aper 10
apon 10
appearance 10
appeared 10
artificial 10
ashi 10
assemb@@ 10
asses 10
associ@@ 10
association 10
asure 10
atch@@ 10
aten 10
atis 10
att 10
attraction 10
aum 10
aving 10
awarded 10
azar 10
bani 10
believe 10
bile 10
boards 10
bright 10
bro 10
bul 10
carried 10
casting 10
certain@@ 10
cession 10
chair 10
charges 10
chil@@ 10
cian 10
classified 10
colonial 10
commerce 10
commun@@ 10
completely 10
confin@@ 10
consol@@ 10
contained 10
convers@@ 10
coul@@ 10
cred@@ 10
credited 10
cription 10
crow@@ 10
decision 10
deo 10
design@@ 10
determine 10
did@@ 10
distinct 10
distinction 10
dite 10
divide 10
drome 10
dub@@ 10
dur 10
easily 10
eber 10
eby 10
ectus 10
editor 10
ego 10
elected 10
ellan 10
ember 10
emot@@ 10
employed 10
encour@@ 10
environmental 10
esty 10
eventually 10
every@@ 10
eze 10
families 10
fellow 10
ffen 10
film@@ 10
flows 10
flying 10
fortun@@ 10
fully 10
fund 10
ged@@ 10
gel 10
gle 10
grand@@ 10
gres@@ 10
grounds 10
guar@@ 10
gue 10
gun@@ 10
hari@@ 10
headed 10
helped 10
hil 10
honor@@ 10
hop 10
hormon@@ 10
horse 10
host@@ 10
ibil@@ 10
ici 10
icop@@ 10
ilis 10
images 10
importance 10
ina@@ 10
indu@@ 10
influenced 10
inher@@ 10
inin 10
initially 10
iny 10
ionally 10
ior 10
ique 10
isc@@ 10
isco 10
ision@@ 10
isp@@ 10
istan 10
itage 10
iver 10
iyi 10
join@@ 10
kept 10
khan 10
kilom@@ 10
kk 10
km@@ 10
kut@@ 10
lana 10
lea 10
leb@@ 10
leen 10
legisl@@ 10
lein 10
letes 10
lil@@ 10
lives 10
lock@@ 10
lut@@ 10
lywood 10
lí@@ 10
machines 10
magazine 10
males 10
mang@@ 10
mano 10
mant@@ 10
manus@@ 10
mare 10
matr@@ 10
maxim@@ 10
melan@@ 10
meteor@@ 10
mg@@ 10
mig@@ 10
mond 10
mono@@ 10
morning 10
nau@@ 10
nier 10
nin@@ 10
nine 10
nis 10
noble 10
nomin@@ 10
notable 10
obr@@ 10
obus 10
ocer@@ 10
odes@@ 10
oes 10
ogo 10
oise 10
oj 10
oks 10
olor 10
omor@@ 10
omorph@@ 10
onau@@ 10
opposed 10
ordered 10
orta 10
ospel 10
oster@@ 10
oton@@ 10
pac@@ 10
passage 10
peace 10
peak 10
penetr@@ 10
perspective 10
peti@@ 10
pist@@ 10
police 10
pool 10
pos 10
positions 10
potenti@@ 10
precipit@@ 10
prises 10
profit 10
propri@@ 10
protected 10
pseud@@ 10
publishing 10
pus@@ 10
qu 10
quick@@ 10
rank 10
reduced 10
relatively 10
remain@@ 10
remaining 10
remains 10
rements 10
request 10
requi@@ 10
resear@@ 10
restric@@ 10
returned 10
rie 10
san 10
sat 10
saying 10
sche 10
scholar@@ 10
score 10
sections 10
semin@@ 10
served 10
server 10
sex@@ 10
shap@@ 10
shop 10
shot 10
simultan@@ 10
sir 10
slo@@ 10
something 10
soph@@ 10
spons@@ 10
stages 10
storm 10
streng@@ 10
subsequently 10
succession 10
superi@@ 10
tabl@@ 10
tail@@ 10
takes 10
teacher 10
tell 10
them@@ 10
throughout 10
tico 10
tique 10
touch@@ 10
trach@@ 10
tress 10
tus@@ 10
tut@@ 10
ug 10
ulia 10
umul@@ 10
undi 10
unga 10
uss 10
uti 10
vas 10
vet@@ 10
visa 10
wad@@ 10
wah@@ 10
weapons 10
western 10
wick@@ 10
wo 10
yard 10
yk@@ 10
Å 10
él@@ 10
én@@ 10
ín 10
ís 10
Ś@@ 10
ž@@ 10
ʀ@@ 10
ʔ@@ 10
̩ 10
ρος 10
τί@@ 10
της 10
О@@ 10
с@@ 10
т 10
т@@ 10
ү@@ 10
ե@@ 10
آل 10
أحمد 10
ام 10
انی 10
باغ 10
دة 10
در@@ 10
ري 10
سید 10
عبد@@ 10
لل@@ 10
مش@@ 10
مولانا 10
نا@@ 10
ܐ 10
އ@@ 10
ު@@ 10
अदिला@@ 10
सितं@@ 10
ृंखला 10
ং 10
ড@@ 10
থ 10
ਮ 10
ં 10
શ@@ 10
ஆ@@ 10
ఆ@@ 10
శ 10
ొ@@ 10
ಣ 10
ಯ 10
ഗ@@ 10
യ 10
ප@@ 10
ය@@ 10
ල 10
่ 10
က 10
ယ 10
အ@@ 10
ទ@@ 10
Ḥ@@ 10
ṅ 10
‡ 10
₂ 10
✔ 10
ル 10
中国@@ 10
会@@ 10
寺 10
川 10
拳 10
日本 10
法 10
田@@ 10
菠@@ 10
蘿@@ 10
ꯥ@@ 10
국@@ 10
대@@ 10
자 10
 10
️ 10
🌹 10
👉 10
Activ@@ 9
Again 9
Aircraft 9
Ambi@@ 9
Americans 9
Among 9
Amph@@ 9
Anna 9
Ant@@ 9
Aud@@ 9
Augustus 9
Austral@@ 9
Austria 9
Bass@@ 9
Berg@@ 9
Beth@@ 9
Biography 9
Bond 9
Bonn 9
Bra@@ 9
Brazil 9
Brunswick 9
Buck@@ 9
Bung@@ 9
Burns 9
Bình 9
Cali@@ 9
Cardi@@ 9
Castillo 9
Cathol@@ 9
Ce 9
Chim@@ 9
Christopher 9
Chuck 9
Claude 9
Collins 9
Come 9
Congo 9
Constitu@@ 9
Construction 9
Coul@@ 9
Count 9
Critical 9
Cum@@ 9
Cun@@ 9
Dad@@ 9
Daily 9
Defense 9
Deutsch@@ 9
Din 9
Donald 9
Du 9
Each 9
Edi@@ 9
Euro@@ 9
Farm@@ 9
Feder@@ 9
Fisher 9
Flem@@ 9
Flora 9
Foc@@ 9
Following 9
Football 9
Frag@@ 9
Franç@@ 9
Fried@@ 9
Fro@@ 9
Fru@@ 9
Galaxy 9
Gamb@@ 9
Gary 9
Gate 9
Goethe 9
Grace 9
Gram@@ 9
Greatest 9
Hamilton 9
Hang@@ 9
Haus@@ 9
Henri 9
Hier@@ 9
Ho 9
Hochschule 9
Hope 9
Hub@@ 9
INE 9
Illustr@@ 9
Individ@@ 9
Institut 9
Iran 9
Jab@@ 9
Jewish 9
Joh@@ 9
Jol@@ 9
Jour@@ 9
Jules 9
Kari@@ 9
Kem@@ 9
Kend@@ 9
Kids 9
Kran@@ 9
Kö@@ 9
Lamb@@ 9
Legend 9
Leon 9
Leonardo 9
Lom@@ 9
Lyon 9
Marcus 9
Mass@@ 9
Mexico 9
Michel 9
Mikha@@ 9
Mill 9
Miss 9
Monum@@ 9
Moscow 9
Municipal 9
Murray 9
NCA@@ 9
Nd@@ 9
Nelson 9
Next 9
Nicol@@ 9
Nicolas 9
Nielsen 9
Nig@@ 9
Niz@@ 9
Nos@@ 9
Oliver 9
Ontario 9
Ostr@@ 9
Oy 9
Parliament 9
Pearl 9
Performance 9
Pis@@ 9
Piz@@ 9
Place 9
Pod@@ 9
Poin@@ 9
Presidente 9
Problem 9
Pug@@ 9
Rath@@ 9
Reich 9
Rio 9
Rose 9
Rou@@ 9
Ré@@ 9
Schmidt 9
Sheikh 9
Stanford 9
Stell@@ 9
Style 9
Sur 9
Symphony 9
Tec@@ 9
Thai 9
Their 9
Thé@@ 9
Toronto 9
Tot@@ 9
Trig@@ 9
Trophy 9
True 9
Uj@@ 9
Vall@@ 9
Vincent 9
Virginia 9
Voc@@ 9
Voy@@ 9
Walt 9
Wang 9
Wang@@ 9
Warner 9
Watch 9
Wed@@ 9
Winter@@ 9
Wolf 9
Wolfgang 9
Woman 9
Yoh@@ 9
Zak@@ 9
ached 9
acritic 9
actus 9
adel@@ 9
aders 9
admir@@ 9
adul@@ 9
aff 9
aflu@@ 9
agi@@ 9
ahi@@ 9
ale@@ 9
aled 9
alumin@@ 9
ambi 9
amia 9
anak@@ 9
ange@@ 9
anime 9
annes 9
anni@@ 9
antage 9
antha 9
appro@@ 9
arak 9
ark 9
arle 9
arma 9
arrived 9
arry 9
asked 9
aspects 9
assa 9
athle@@ 9
auer 9
authorities 9
ayo 9
azi 9
baba 9
batt@@ 9
bau@@ 9
best@@ 9
bey 9
bid@@ 9
bind@@ 9
bomb@@ 9
bour 9
brick 9
bring 9
broke 9
bronze 9
brown 9
bt 9
buch 9
buil@@ 9
cali@@ 9
capable 9
carry 9
cas 9
cen@@ 9
cend@@ 9
census 9
chers 9
chief 9
chn@@ 9
cio 9
circ@@ 9
clos@@ 9
combined 9
compet@@ 9
compr@@ 9
conducted 9
constituent 9
contamin@@ 9
contin@@ 9
contributed 9
contribution 9
conven@@ 9
council 9
covered 9
crew 9
criminal 9
crit@@ 9
cy 9
d. 9
dates 9
deb@@ 9
deli@@ 9
delta 9
deon 9
depres@@ 9
designed 9
develop 9
developing 9
devi@@ 9
dienst 9
dimension 9
dings 9
disc@@ 9
diy@@ 9
doing 9
dorf 9
dus 9
dé@@ 9
earned 9
eg 9
ege 9
egen 9
eig@@ 9
ej 9
eld@@ 9
eled 9
ellen@@ 9
emas 9
emi 9
emon 9
enced 9
endre 9
enemy 9
enge 9
enk@@ 9
enza 9
eros 9
escap@@ 9
essed 9
essing 9
esto 9
excell@@ 9
exclus@@ 9
exerc@@ 9
expected 9
extension 9
extraordin@@ 9
fan@@ 9
filtr@@ 9
fin 9
finally 9
flag 9
flan@@ 9
flat 9
follow@@ 9
forcement 9
fordshire 9
fort@@ 9
friends 9
front@@ 9
genes 9
genous 9
glut@@ 9
gr 9
gradu@@ 9
gram@@ 9
gri@@ 9
gu 9
haus@@ 9
hibi@@ 9
highway 9
histor@@ 9
horizontal 9
hund@@ 9
huri 9
iche 9
icro@@ 9
idan 9
ifer 9
igen@@ 9
ignant 9
igo 9
ilit@@ 9
illo 9
iman 9
iments 9
imo 9
income 9
industries 9
inet 9
ingham 9
inn 9
institutions 9
intended 9
inter 9
invest@@ 9
iran 9
isine 9
issued 9
ister@@ 9
items 9
itz@@ 9
jin@@ 9
jour@@ 9
kai 9
kali 9
kim 9
kle@@ 9
kno@@ 9
kote 9
lage 9
lai 9
lav 9
lave 9
ld 9
leader 9
leads 9
learned 9
leaving 9
leng@@ 9
ley@@ 9
liers 9
literary 9
ls@@ 9
lus 9
maf@@ 9
maintenance 9
measures 9
mentioned 9
mess@@ 9
mia 9
minister@@ 9
missed 9
mission@@ 9
mountain 9
mt@@ 9
musicians 9
nac@@ 9
neb@@ 9
nes@@ 9
novel 9
obe 9
occas@@ 9
oci@@ 9
oka 9
oked 9
oker 9
okie 9
olin 9
omo 9
onc@@ 9
oner 9
onto 9
opened 9
opening 9
organ 9
organizations 9
organized 9
orn@@ 9
osi 9
ott@@ 9
oyn@@ 9
pan 9
pand@@ 9
participation 9
pies 9
platform 9
pol 9
pon 9
possibly 9
power@@ 9
presented 9
previously 9
prior 9
pris@@ 9
proxim@@ 9
quali@@ 9
quarters 9
quit@@ 9
rach@@ 9
rain@@ 9
rat@@ 9
rech@@ 9
recording 9
remained 9
reports 9
responsible 9
ries 9
rival 9
rt 9
rug@@ 9
rum 9
rum@@ 9
sales 9
sali@@ 9
scor@@ 9
segment 9
sell 9
selling 9
semif@@ 9
signific@@ 9
singles 9
situation 9
six@@ 9
sman 9
sociation 9
spring 9
sten@@ 9
stic@@ 9
stil@@ 9
strat@@ 9
sud@@ 9
surname 9
surviv@@ 9
suspension 9
systemati@@ 9
tains 9
tane 9
tennis 9
terres@@ 9
territ@@ 9
territorial 9
terror@@ 9
thang 9
theast 9
things 9
tie 9
tiers 9
tification 9
tik@@ 9
timate 9
tish 9
topo@@ 9
traf@@ 9
traffic 9
tram@@ 9
trus@@ 9
tun 9
twenty 9
typ@@ 9
uan 9
ubil@@ 9
ucture 9
ular@@ 9
uls 9
umbo 9
understanding 9
upp@@ 9
utes 9
util@@ 9
vel 9
visit 9
walk 9
wand@@ 9
wear 9
wed 9
xu@@ 9
ymn@@ 9
youth 9
ysi@@ 9
ystem 9
zen@@ 9
¹ 9
Æ@@ 9
ß 9
àn 9
ál@@ 9
î@@ 9
óst@@ 9
ă 9
Đ@@ 9
ǐ 9
ʁ 9
ˈ 9
͡ 9
ι 9
ϕ 9
Г@@ 9
г 9
е 9
ев 9
з 9
л 9
ль@@ 9
х 9
хо@@ 9
Қ@@ 9
ն@@ 9
ր@@ 9
ב 9
ا@@ 9
ال 9
الق@@ 9
اله@@ 9
اني 9
با@@ 9
بي 9
ث@@ 9
جان 9
حسین 9
رة 9
رسول 9
سلطان 9
شه@@ 9
عل@@ 9
مان 9
مة 9
مر@@ 9
مِ@@ 9
وم@@ 9
يد 9
ީ@@ 9
ް 9
ऒ 9
ৈ@@ 9
ਦ 9
ੇ 9
આ@@ 9
ો 9
କ 9
ଗ@@ 9
ଦ 9
ପ@@ 9
ଳ 9
ச 9
ற 9
ஷ 9
ூ@@ 9
ణ 9
ವ 9
ണ 9
റ 9
ව@@ 9
ේ@@ 9
แ@@ 9
ວ@@ 9
ྩ@@ 9
ត 9
ន 9
ᱨ@@ 9
ḷ@@ 9
⋅ 9
ⵉ@@ 9
ジ@@ 9
ス@@ 9
七@@ 9
京@@ 9
包 9
周@@ 9
国 9
家@@ 9
東 9
河 9
社 9
道 9
阿@@ 9
고@@ 9
민@@ 9
이@@ 9
치 9
ﺍ@@ 9
ﻟ@@ 9
𐩖 9
𝐞@@ 9
1.000 8
3,4 8
3,5 8
5. 8
Abel 8
Actu@@ 8
Addi@@ 8
Admiral 8
Adolf 8
After@@ 8
Ahmad 8
Airlines 8
Alexandria 8
Alfa 8
Ambro@@ 8
Ann 8
Antonio 8
Apos@@ 8
Archit@@ 8
Aston 8
Atlas 8
Augus@@ 8
Auto 8
Aviation 8
Aw@@ 8
Baptiste 8
Baron 8
Berkeley 8
Berlin 8
Bernard 8
Between 8
Bib@@ 8
Bid@@ 8
Bloom@@ 8
Bob 8
Both 8
Bret@@ 8
Brian 8
Bros. 8
Bulg@@ 8
Call 8
Captain 8
Carol@@ 8
Cassini 8
Catherine 8
Ces@@ 8
Chen@@ 8
Chev@@ 8
Clark 8
Colegio 8
Commander 8
Community 8
Cong@@ 8
Cuc@@ 8
Côte 8
DAP 8
Daw@@ 8
Del 8
Democratic 8
Deputy 8
Deu@@ 8
Dil@@ 8
Dj@@ 8
Dow@@ 8
Dream@@ 8
Dublin 8
East@@ 8
Edwin 8
Eric 8
Estr@@ 8
Eug@@ 8
Eugene 8
Fati@@ 8
Fav@@ 8
Faz@@ 8
Flor@@ 8
Form@@ 8
Fra@@ 8
Franc@@ 8
Francisco 8
Gel@@ 8
Geograph@@ 8
Geor@@ 8
Georgia 8
Gibraltar 8
Gly@@ 8
Governor 8
Gray 8
Greece 8
Greg@@ 8
Guadal@@ 8
Guil@@ 8
Guy 8
Gw@@ 8
Hag@@ 8
Harr@@ 8
Hell@@ 8
Hero 8
Histori@@ 8
Hob@@ 8
Holding 8
Hymenoptera 8
Igu@@ 8
Impact 8
Independent 8
Inh@@ 8
Instagram 8
Irish 8
Itali@@ 8
Jagu@@ 8
Jakob 8
Jane 8
Jay 8
Jersey 8
Jor@@ 8
Jordan 8
Jov@@ 8
Jul@@ 8
Khu@@ 8
Kib@@ 8
Kingston 8
Kirch@@ 8
Kl@@ 8
Knight 8
Koch 8
Kok@@ 8
Kov@@ 8
Kre@@ 8
Lady 8
Legislative 8
Leib@@ 8
Lenn@@ 8
Lig@@ 8
Lions 8
Louise 8
Ludwig 8
Mall@@ 8
Manchester 8
Mann 8
Maritime 8
Mark@@ 8
Marshall 8
Massachusetts 8
Metropolitan 8
Minister@@ 8
Moder@@ 8
Monte@@ 8
Morales 8
Morning 8
Motor@@ 8
Much@@ 8
Munich 8
Myth@@ 8
Neill 8
Nest@@ 8
Nev@@ 8
Nine 8
Norte 8
Oak 8
Ober@@ 8
Of@@ 8
Oh 8
Olympi@@ 8
Oxy@@ 8
Palacio 8
Palmer 8
Pennsylvania 8
Philippe 8
Phillips 8
Places 8
Plant@@ 8
Poland 8
Pow@@ 8
Premier 8
Prix 8
Professor 8
Progres@@ 8
Prov@@ 8
Quer@@ 8
Quin@@ 8
Race 8
Reading 8
Real@@ 8
Rech@@ 8
Rhin@@ 8
Rib@@ 8
Ric@@ 8
Rice 8
Rome 8
Romeo 8
Rue 8
Saudi 8
Schwar@@ 8
Se 8
Seh@@ 8
Sek@@ 8
Senior 8
Set 8
Several 8
Shadow 8
Shakespeare 8
Shaw 8
Side 8
Sonn@@ 8
Spider 8
Spin@@ 8
Sport 8
Staff@@ 8
Stap@@ 8
Stud@@ 8
Student 8
Suff@@ 8
Suz@@ 8
Sz@@ 8
Tamb@@ 8
Tay@@ 8
Tell 8
Testament 8
Texas 8
Tony 8
Tou@@ 8
Tra@@ 8
Ts@@ 8
Tus@@ 8
Typ@@ 8
U. 8
UE 8
Ug@@ 8
Uh@@ 8
Vega 8
Venus 8
Vog@@ 8
Von 8
Vy@@ 8
Wallace 8
Way@@ 8
Weber 8
Wein@@ 8
Willi@@ 8
William@@ 8
Within 8
Woh@@ 8
Yes@@ 8
Yusuf 8
aband@@ 8
abund@@ 8
academ@@ 8
accepted 8
adem@@ 8
adia 8
adir 8
adopted 8
advoc@@ 8
agre@@ 8
ainer 8
ainst 8
aired 8
airport 8
aki@@ 8
album 8
als@@ 8
altitu@@ 8
ambu@@ 8
amental 8
amer 8
amis 8
amura 8
andal@@ 8
angel@@ 8
anl@@ 8
apons 8
apos@@ 8
appears 8
aps 8
apu 8
aram@@ 8
archae@@ 8
archives 8
arte 8
artiller@@ 8
asal 8
asse 8
assign@@ 8
assigned 8
assumed 8
assy 8
atan 8
atin 8
ativa 8
atma 8
atoria 8
attacks 8
automobile 8
avia 8
bank@@ 8
begins 8
bek@@ 8
berger 8
bet 8
big@@ 8
borne 8
bra@@ 8
bun 8
ceremony 8
chal@@ 8
challenge 8
chanc@@ 8
chev@@ 8
chus 8
cler@@ 8
coff@@ 8
coinc@@ 8
commune 8
communications 8
conclus@@ 8
conform@@ 8
constituency 8
contemporary 8
continental 8
continue 8
contrast 8
contribut@@ 8
contributions 8
cot 8
couple 8
courses 8
creating 8
crisis 8
culp@@ 8
cz@@ 8
dans 8
dav@@ 8
debate 8
della 8
depic@@ 8
descri@@ 8
describes 8
dier 8
dioc@@ 8
director 8
disciplin@@ 8
dit@@ 8
dol 8
dong 8
dov@@ 8
driver 8
earliest 8
eaux 8
einer 8
elf 8
elius 8
ellectu@@ 8
elli@@ 8
ellus 8
emann 8
emen 8
emin@@ 8
ender@@ 8
endor@@ 8
ener 8
enf@@ 8
ennes 8
equival@@ 8
erst@@ 8
esque 8
ester 8
esting 8
estone 8
etle 8
eus@@ 8
evu 8
exact@@ 8
excav@@ 8
executive 8
explic@@ 8
extensive 8
facilities 8
fail@@ 8
fam@@ 8
fest@@ 8
floor 8
font 8
formerly 8
fought 8
fres@@ 8
gae 8
gaz@@ 8
glaci@@ 8
grave 8
gren 8
guns 8
haj@@ 8
hart 8
hasa 8
hati 8
heard 8
hibit@@ 8
hill 8
histori@@ 8
hospit@@ 8
hous@@ 8
hug@@ 8
iba 8
iber 8
icia 8
identified 8
iders 8
ien 8
ific@@ 8
igan 8
igi@@ 8
ile@@ 8
improve 8
inces 8
inch 8
inclus@@ 8
independ@@ 8
ineers 8
infer@@ 8
ingen@@ 8
inners 8
inson 8
introduc@@ 8
invent@@ 8
isten 8
istische 8
itu 8
iture 8
ité 8
ival@@ 8
ivo 8
jal@@ 8
jas 8
jer 8
joined 8
jon 8
journal 8
killing 8
laborat@@ 8
laim@@ 8
lard 8
laya 8
lee 8
lington 8
lis@@ 8
loan 8
mab@@ 8
maintained 8
maj@@ 8
majority 8
matern@@ 8
mobil@@ 8
mostly 8
mu 8
mw@@ 8
national@@ 8
ndi@@ 8
neigh@@ 8
nem@@ 8
newspaper 8
nith@@ 8
nov@@ 8
nur 8
ob 8
oca 8
occurs 8
ocol@@ 8
odo 8
offers 8
oll 8
onial 8
ophora 8
opinion 8
opot@@ 8
opping 8
option 8
osoma 8
ott 8
outs 8
owner 8
passing 8
pati@@ 8
patient 8
performing 8
phila 8
phrase 8
phyllum 8
pion@@ 8
plen@@ 8
plum@@ 8
poder@@ 8
point@@ 8
polit@@ 8
popul@@ 8
premi@@ 8
prevent 8
printed 8
profes@@ 8
programme 8
prov@@ 8
quickly 8
r. 8
rab@@ 8
raised 8
rating 8
rats 8
reaching 8
reasons 8
rectang@@ 8
reduce 8
reign 8
relativ@@ 8
rem 8
ren 8
resources 8
respectively 8
restr@@ 8
rik 8
ril 8
rit 8
rix 8
rog@@ 8
roman 8
ror@@ 8
rural 8
sang@@ 8
scher@@ 8
schi@@ 8
schule 8
sedi@@ 8
seems 8
serious 8
settlement 8
severe 8
sim 8
sis@@ 8
sister 8
sit 8
situ@@ 8
sixth 8
solo 8
spati@@ 8
spent 8
spin 8
split 8
stal@@ 8
starting 8
stating 8
sters 8
sto@@ 8
strike 8
successfully 8
suit 8
suppos@@ 8
surround@@ 8
suscep@@ 8
symb@@ 8
sz@@ 8
tables 8
tara 8
target 8
temporal 8
tenance 8
tend 8
tero 8
thers 8
tidae 8
tine 8
tit 8
tives 8
tour 8
tower 8
trait 8
triang@@ 8
tril@@ 8
turn@@ 8
udur 8
umed 8
umes 8
una@@ 8
undo 8
ungs 8
universit@@ 8
urban 8
urity 8
usi 8
usu 8
uted 8
uva 8
vacc@@ 8
ventures 8
venue 8
versus 8
vies 8
visi@@ 8
vit 8
vy@@ 8
wam@@ 8
wap@@ 8
wei 8
winner 8
wn@@ 8
xo@@ 8
yes 8
yla 8
zam@@ 8
ä 8
än@@ 8
état 8
ê 8
íl@@ 8
öl@@ 8
ù@@ 8
š 8
ʱ 8
Α 8
Γ 8
Μ@@ 8
Π@@ 8
Τ@@ 8
Φ@@ 8
ικός 8
κ@@ 8
ρον 8
χ 8
Вели@@ 8
Е@@ 8
Са@@ 8
ба@@ 8
край 8
ла 8
на@@ 8
ъ 8
ь@@ 8
э@@ 8
є@@ 8
ј@@ 8
ի@@ 8
յ@@ 8
ո@@ 8
ש 8
أَ@@ 8
اب@@ 8
از 8
اسلامی 8
اللہ 8
الْ@@ 8
ای 8
ای@@ 8
ایران 8
بة 8
برا@@ 8
به@@ 8
بي@@ 8
جامع 8
دي@@ 8
سي@@ 8
شاه 8
شی@@ 8
لان 8
ملی 8
نو@@ 8
نگ 8
ون@@ 8
ٰ@@ 8
پر@@ 8
ڠ@@ 8
ܘ@@ 8
ލ@@ 8
ऌ 8
ৈ 8
ৱ 8
ਜ 8
ੇ@@ 8
ੋ 8
ଙ 8
ତ 8
ଭ@@ 8
ଶ 8
ଷ 8
ୀ 8
ୁ 8
ୟ 8
ொ@@ 8
ణ@@ 8
ష 8
ీ 8
ಗ 8
ಮ 8
ಷ 8
ങ 8
ള 8
ർ@@ 8
ൽ 8
න 8
න@@ 8
ා 8
ນ 8
ັ@@ 8
ཙ@@ 8
ླ@@ 8
ူ@@ 8
ლ@@ 8
ᱵ@@ 8
ḥ 8
ῆ@@ 8
₩ 8
∂ 8
⏩ 8
✍ 8
ア@@ 8
ク@@ 8
コ@@ 8
ト@@ 8
バ@@ 8
レ@@ 8
中國@@ 8
人@@ 8
光@@ 8
名@@ 8
和@@ 8
地方 8
文 8
清@@ 8
白@@ 8
藩 8
국 8
성@@ 8
ﺎ@@ 8
： 8
15th 7
1950s 7
3,3 7
4. 7
AFTA 7
ANU 7
Abdul 7
Afr@@ 7
Afric@@ 7
Alber@@ 7
Alexand@@ 7
Allen 7
Alp@@ 7
Ama 7
Ami@@ 7
Amsterdam 7
Anat@@ 7
Andre@@ 7
Andreas 7
André 7
Andy 7
Annie 7
Antoine 7
Ard@@ 7
Arena 7
Arnold 7
Artem@@ 7
Asp@@ 7
Austin 7
Bang 7
Bangladesh 7
Basel 7
Bav@@ 7
Before 7
Bern 7
Bi 7
Blu 7
Braz@@ 7
Brun@@ 7
Byr@@ 7
Bắc 7
CCM 7
Caesar 7
Cairo 7
Canal 7
Cannes 7
Carr@@ 7
Centro 7
Chase 7
Chicago 7
Coh@@ 7
Cold 7
Colombia 7
Como 7
Comun@@ 7
Conseil 7
Conservat@@ 7
Constant@@ 7
Corps 7
Costa 7
Crystal 7
Cub@@ 7
Dark@@ 7
Dau@@ 7
Dendro@@ 7
Distribu@@ 7
Dou@@ 7
Drama 7
Dry@@ 7
Dut@@ 7
Eagle 7
Earl 7
Emma 7
Emmy 7
Eri@@ 7
Ernest 7
Ero@@ 7
Eugen@@ 7
Euph@@ 7
Face 7
Fair 7
Far 7
Flying 7
Fort@@ 7
Fou@@ 7
Franklin 7
Franz 7
Frei@@ 7
Fritz 7
Fus@@ 7
Gag@@ 7
Garcia 7
Georg 7
Giang 7
Gior@@ 7
Gott@@ 7
Grande 7
Grey 7
Gri@@ 7
Griff@@ 7
Gusta@@ 7
Gö@@ 7
Hali@@ 7
Han 7
Hard 7
Heart 7
Heroes 7
Hex@@ 7
Historia 7
Hod@@ 7
Hof@@ 7
Hog@@ 7
Hopkins 7
Horn@@ 7
Hr@@ 7
Hunter 7
Hut@@ 7
Infr@@ 7
Initi@@ 7
Inv@@ 7
Iran@@ 7
Islam@@ 7
Iv@@ 7
Ivan 7
Iz@@ 7
Jack@@ 7
Je 7
Jeff 7
Jenn@@ 7
Jeremy 7
Jet 7
Johnny 7
Joy 7
Jus@@ 7
Kaz@@ 7
Kazakhstan 7
Kenneth 7
Kern@@ 7
Kevin 7
Kik@@ 7
Kiz@@ 7
Klein@@ 7
Kro@@ 7
Kru@@ 7
Lai 7
Lamp@@ 7
Legacy 7
Leh@@ 7
Leonard 7
Lid@@ 7
Lie@@ 7
Los 7
Los@@ 7
Loy@@ 7
Lux@@ 7
Lyc@@ 7
Lê 7
Macedonia 7
Magazine 7
Master@@ 7
Maya 7
Mayor 7
Metro 7
Michigan 7
Milli@@ 7
Miz@@ 7
Monuments 7
Moore 7
Mother 7
Mr 7
Music@@ 7
Nation@@ 7
Netherlands 7
Normal 7
Now@@ 7
Orange 7
Orch@@ 7
Organiz@@ 7
Oro@@ 7
Orthodo@@ 7
Ottawa 7
Partn@@ 7
Pascal 7
Paz@@ 7
Person 7
Phi 7
Philippines 7
Po 7
Pop 7
Popular 7
Position 7
Princess 7
Quảng 7
Rain 7
Ralph 7
Reci@@ 7
Recon@@ 7
Reform 7
República 7
Rich 7
Riv@@ 7
Rober@@ 7
Roll 7
Ruh@@ 7
Run 7
Sahara 7
Said 7
Scho@@ 7
Sebastian 7
Sed@@ 7
Senate 7
Sent@@ 7
Shab@@ 7
Shō@@ 7
Silver 7
Six 7
Six@@ 7
Ski@@ 7
Soc@@ 7
Société 7
Solanum 7
Sophie 7
Sport@@ 7
Sr. 7
Sta@@ 7
Stadium 7
Staf@@ 7
Stand 7
Steph@@ 7
Still 7
Stir@@ 7
Stol@@ 7
Sơn 7
Tach@@ 7
Tai 7
Taiwan 7
Tang 7
Tel 7
Tok@@ 7
Toledo 7
Tor 7
Torre 7
Toy@@ 7
Train 7
Trib@@ 7
Turk@@ 7
Turkish 7
Tyr@@ 7
Universität 7
Université 7
Uran@@ 7
Vancouver 7
Vig@@ 7
Wag@@ 7
Wali@@ 7
Waz@@ 7
Week 7
Weekly 7
Weimar 7
Werner 7
Whitney 7
Wien 7
Ya 7
Ya@@ 7
Yar@@ 7
Yaz@@ 7
Yorkshire 7
Zab@@ 7
Zep@@ 7
Zir@@ 7
accused 7
acht 7
acon 7
acous@@ 7
adam@@ 7
adapt@@ 7
adol@@ 7
ados 7
adow 7
advance 7
afric@@ 7
agency 7
agne 7
agricultural 7
aille 7
alc@@ 7
alle@@ 7
alling 7
allows 7
althy 7
amaz@@ 7
ambigu@@ 7
anal 7
anam@@ 7
aner 7
anom@@ 7
antly 7
apo 7
appu@@ 7
aren@@ 7
argued 7
arina 7
ariz@@ 7
arom@@ 7
aron 7
artisti@@ 7
asha 7
aspir@@ 7
atin@@ 7
aton 7
attempted 7
attr@@ 7
atu@@ 7
aup@@ 7
autobi@@ 7
avail@@ 7
avo 7
awa@@ 7
ayak@@ 7
ayi 7
aç@@ 7
banks 7
bass 7
bel 7
bele 7
beria 7
bil 7
bir 7
bish@@ 7
bishop 7
blu@@ 7
borg 7
bottom 7
bou@@ 7
brothers 7
budget 7
campaign 7
cari@@ 7
caught 7
cham@@ 7
championship 7
chet 7
chia 7
chim 7
cite 7
coach 7
coin 7
coin@@ 7
comb@@ 7
comedy 7
competi@@ 7
concluded 7
conference 7
confirmed 7
construc@@ 7
continent 7
controversi@@ 7
corruption 7
cosa 7
crick@@ 7
crist@@ 7
cu 7
cules 7
cum 7
dat 7
ded@@ 7
dee 7
def 7
defense 7
dent@@ 7
describe 7
det 7
diesel 7
dik@@ 7
dil 7
discipl@@ 7
discipline 7
discrimin@@ 7
discus@@ 7
disput@@ 7
dispute 7
distribu@@ 7
dius 7
documents 7
dominant 7
draf@@ 7
drew 7
dum@@ 7
eber@@ 7
eco 7
ectives 7
eger 7
egu@@ 7
eine 7
eki 7
elo 7
elop@@ 7
elt@@ 7
enda 7
endron 7
enjoy@@ 7
entre 7
eon@@ 7
eppe 7
eries 7
escu 7
escul@@ 7
eses 7
estan 7
estyle 7
etas 7
exception 7
faced 7
facility 7
faire 7
famili@@ 7
favor 7
favor@@ 7
fig 7
figur@@ 7
fired 7
firm 7
fli@@ 7
flowers 7
formations 7
fot@@ 7
français 7
funds 7
gee 7
gig@@ 7
girl 7
glau@@ 7
governor 7
hatt@@ 7
hava 7
hay 7
haya 7
heads 7
his@@ 7
homes 7
honor 7
hora 7
icas 7
ident@@ 7
iff 7
iges 7
iji 7
ikawa 7
ilg@@ 7
imag@@ 7
imar@@ 7
immer 7
improved 7
increasing 7
ineer 7
installed 7
institution 7
instruction 7
intel@@ 7
intern@@ 7
intersection 7
interview 7
inum 7
invasi@@ 7
involved 7
irt 7
isia 7
isse 7
isto 7
itt 7
itzer 7
iva 7
ived 7
jia 7
join 7
jp@@ 7
judicial 7
juris@@ 7
kana 7
kett 7
kies 7
kinson 7
kis@@ 7
kiye 7
l. 7
lah@@ 7
lands@@ 7
largely 7
later@@ 7
lau@@ 7
lava 7
leave 7
ledon 7
lever 7
lod@@ 7
looking 7
lose 7
losing 7
lot@@ 7
lov 7
lyc@@ 7
lé 7
mani@@ 7
mara 7
massive 7
md@@ 7
mel 7
mens@@ 7
mere 7
merged 7
mile 7
mineral 7
minim@@ 7
mith@@ 7
mons 7
monuments 7
mou@@ 7
mr@@ 7
municipality 7
mut 7
nak 7
nan 7
near@@ 7
necess@@ 7
neighbor@@ 7
ney@@ 7
nick@@ 7
noi 7
normal@@ 7
notably 7
nothing 7
novel@@ 7
obs 7
occupied 7
ocul@@ 7
oden 7
officers 7
officially 7
oft 7
olled 7
olls 7
omas 7
ongo@@ 7
ophyllum 7
oppos@@ 7
opposition 7
orit@@ 7
orith@@ 7
ose@@ 7
otis 7
oty@@ 7
oul 7
oven 7
ovia 7
pas 7
patri@@ 7
pense 7
pera 7
performances 7
persu@@ 7
phr@@ 7
phy 7
plut@@ 7
poin@@ 7
pop 7
portation 7
portr@@ 7
poss@@ 7
ppen 7
prefer@@ 7
president 7
prestigi@@ 7
primarily 7
princ@@ 7
prison@@ 7
provinces 7
publication 7
pula 7
purchase 7
pute 7
quasi 7
questions 7
rad@@ 7
rail 7
ranking 7
rap 7
realiz@@ 7
receiv@@ 7
recently 7
rej@@ 7
relevant 7
rement 7
rend@@ 7
represents 7
ret 7
retained 7
revealed 7
ride 7
robot@@ 7
robus@@ 7
rough@@ 7
rur@@ 7
sai 7
saint 7
say@@ 7
scene 7
scheduled 7
scol@@ 7
secretary 7
send 7
separated 7
sett@@ 7
sexu@@ 7
sig 7
sign@@ 7
simpli@@ 7
skills 7
slightly 7
soldiers 7
sole 7
soundtrack 7
spect@@ 7
spective 7
sport 7
stay 7
stric@@ 7
substanti@@ 7
suggest@@ 7
suggested 7
sule 7
summer 7
suppl@@ 7
surve@@ 7
suspend@@ 7
symbol@@ 7
tas 7
tav@@ 7
tay@@ 7
tees 7
temps 7
theater 7
theatre 7
theme 7
thouse 7
thum@@ 7
tien 7
til 7
tions@@ 7
titled 7
tius 7
toward 7
treat 7
treated 7
tul@@ 7
tung 7
typical 7
té 7
uel 7
ulin 7
ultimately 7
umba 7
unded 7
uo 7
urs@@ 7
ushed 7
uso 7
utiliz@@ 7
ution@@ 7
vag@@ 7
vali@@ 7
variations 7
vat@@ 7
vend@@ 7
verg@@ 7
vig@@ 7
volun@@ 7
vor 7
vr@@ 7
wealth 7
week@@ 7
who@@ 7
window 7
wol@@ 7
wrest@@ 7
wth 7
xe 7
xon 7
yani 7
yay@@ 7
yor 7
zar@@ 7
zel 7
zin 7
zur 7
 7
À@@ 7
Î@@ 7
Île 7
Ó 7
Õ@@ 7
éri@@ 7
ós 7
ög@@ 7
ön 7
ül@@ 7
ć 7
Ō@@ 7
œ@@ 7
ş@@ 7
ǔ 7
ɨ@@ 7
ʒ 7
ʔ 7
˜ 7
̀ 7
Β@@ 7
Φ 7
ο@@ 7
ρι@@ 7
ρκ@@ 7
ω@@ 7
Алек@@ 7
За@@ 7
Никола 7
Николай 7
Су@@ 7
Т@@ 7
Ц@@ 7
Я@@ 7
ан 7
б@@ 7
да@@ 7
ра@@ 7
с 7
ские 7
х@@ 7
ха@@ 7
ь 7
і 7
ғ@@ 7
ו 7
آئین 7
أس@@ 7
ئ 7
اء 7
الدين 7
الز@@ 7
الش@@ 7
الـ@@ 7
الف@@ 7
المدينة 7
اور 7
بنو 7
بني 7
بھ@@ 7
جھ@@ 7
حسين 7
دار 7
دار@@ 7
دو@@ 7
دی 7
رضا 7
زی 7
سر@@ 7
سَ@@ 7
صل@@ 7
ضلع 7
ظ@@ 7
عليه 7
عي@@ 7
عید 7
غ 7
كر@@ 7
لا 7
لم 7
لْ@@ 7
مد@@ 7
مل@@ 7
مي@@ 7
مُ@@ 7
مِ 7
نور 7
ني 7
هِ 7
وة 7
ور@@ 7
ولا 7
ون 7
يا 7
يم 7
ين@@ 7
يْ@@ 7
ڌ@@ 7
ܐ@@ 7
ް@@ 7
ॄ 7
ঠ@@ 7
ৱ@@ 7
ਟ@@ 7
ਡ@@ 7
ੈ 7
ત 7
ૂ@@ 7
ଉ@@ 7
ଚ@@ 7
ଣ 7
ଳ@@ 7
ୀ@@ 7
େ 7
ప 7
ై@@ 7
ಉ@@ 7
ಧ@@ 7
ಷ@@ 7
ಸ 7
ಾ 7
ദ 7
ധ@@ 7
സ 7
ද@@ 7
බ@@ 7
හ@@ 7
ී 7
ง 7
์ 7
ງ 7
ཁ 7
ཕ@@ 7
ཞ@@ 7
ཡ@@ 7
ྗ@@ 7
ྷ@@ 7
ဘ@@ 7
ဝ@@ 7
ံ@@ 7
ი 7
ប@@ 7
ម 7
វ@@ 7
័ 7
Ἰ@@ 7
ὐ@@ 7
‰ 7
∇ 7
⊕ 7
☆ 7
い@@ 7
う 7
か@@ 7
ん 7
エ@@ 7
グ@@ 7
デ@@ 7
メ@@ 7
中 7
五@@ 7
内@@ 7
大 7
女 7
安@@ 7
島 7
方@@ 7
日@@ 7
本 7
本@@ 7
松@@ 7
特@@ 7
百@@ 7
石@@ 7
豆@@ 7
軍 7
陀@@ 7
院 7
ꠣ@@ 7
ꯁ@@ 7
ꯂ@@ 7
강@@ 7
동@@ 7
리@@ 7
부@@ 7
성 7
에 7
전 7
정@@ 7
조@@ 7
주@@ 7
0,1 6
1,6 6
100.000 6
2558 6
6. 6
Académie 6
Adams 6
Ain 6
Alexandra 6
Amad@@ 6
Aman@@ 6
América 6
Ana 6
Angel 6
Angola 6
Anh@@ 6
Aper@@ 6
Apollo 6
Around 6
Art@@ 6
Away 6
Bachelor 6
Baden 6
Baker 6
Bank@@ 6
Bar 6
Barb@@ 6
Bask@@ 6
Beb@@ 6
Bob@@ 6
Bologna 6
Born 6
Brisbane 6
Broadway 6
Brow@@ 6
Bry@@ 6
Bush 6
Calli@@ 6
Cerro 6
Challenge 6
Chic@@ 6
Chu 6
Château 6
Cinema 6
Circuit 6
Ciudad 6
Classi@@ 6
Claudia 6
Clay 6
Comedy 6
Communist 6
Confeder@@ 6
Conserv@@ 6
Cook 6
Cox 6
Cruz 6
Cycl@@ 6
Danz@@ 6
Dave 6
Dean 6
Did@@ 6
Diego 6
Dik@@ 6
Dioc@@ 6
Dmi@@ 6
Dod@@ 6
Dok@@ 6
Draft 6
E9 6
Ech@@ 6
Ef@@ 6
Ehr@@ 6
Emily 6
Entr@@ 6
España 6
Est 6
Europa 6
Expedition 6
Fak@@ 6
Fall@@ 6
Fast 6
Faus@@ 6
Film@@ 6
Fin 6
Fine 6
Fiz@@ 6
Fleet 6
Freder@@ 6
Freud 6
Frit@@ 6
Fuj@@ 6
Fut@@ 6
Fédération 6
Gene 6
Ges@@ 6
Gill 6
Gin@@ 6
Git@@ 6
Giuseppe 6
Globe 6
Gottfried 6
Gou@@ 6
Gran 6
Gregory 6
Guar@@ 6
Guard 6
Guy@@ 6
Happy 6
Hart 6
Harvard 6
Heaven 6
Heinz 6
Hok@@ 6
Holoc@@ 6
Hugh 6
Inn 6
Inn@@ 6
Institut@@ 6
Instituto 6
Isab@@ 6
Jerusalem 6
Jimmy 6
Jin@@ 6
Joan 6
John@@ 6
Just@@ 6
Kant@@ 6
Kid 6
Kriegs@@ 6
Labor 6
Labour 6
Lac 6
Lands@@ 6
Lane 6
Lati@@ 6
Leipzig 6
Lieutenant 6
Loire 6
Louisiana 6
Lug@@ 6
Luz@@ 6
Lý 6
Madison 6
Mail 6
Malta 6
Manila 6
Mati@@ 6
McCar@@ 6
Mek@@ 6
Metal 6
Midd@@ 6
Mohamed 6
Mohammed 6
Morris 6
Mp@@ 6
Musa 6
Musée 6
Mw@@ 6
Nash 6
Nationale 6
Native 6
Nazar@@ 6
Nde@@ 6
Nept@@ 6
Nikolai 6
Nit@@ 6
Nobel 6
Occidental 6
Off 6
Og@@ 6
Oli@@ 6
Once 6
Organis@@ 6
Ow@@ 6
Owen 6
Perf@@ 6
Petit 6
Pob@@ 6
Pok@@ 6
Pope 6
Porsche 6
Portugal 6
Portugu@@ 6
Portuguese 6
Probl@@ 6
Productions 6
Profes@@ 6
Progr@@ 6
Promotion 6
Provincial 6
Pub@@ 6
Puente 6
Puerto 6
Quadr@@ 6
Ra 6
Rac@@ 6
Raz@@ 6
Rest@@ 6
Rid@@ 6
Rin@@ 6
Ring@@ 6
Rit@@ 6
Roland 6
Roll@@ 6
Romano 6
Ron 6
Roo@@ 6
Seb@@ 6
Selim 6
Sey@@ 6
Sherman 6
Sie@@ 6
Single 6
Slo@@ 6
Sob@@ 6
Soh@@ 6
Spain 6
Speci@@ 6
Stam@@ 6
Start 6
Stern@@ 6
Steve 6
Superior 6
Sweden 6
Sweet 6
Synchron@@ 6
Tau@@ 6
Terminal 6
Tetr@@ 6
Thailand 6
Theater 6
Theod@@ 6
Thu@@ 6
Thur@@ 6
Théâtre 6
Touch 6
Town@@ 6
Track 6
Trou@@ 6
Tsu@@ 6
Turkey 6
Turn@@ 6
Tut@@ 6
Una 6
Universe 6
Universit@@ 6
Utr@@ 6
Venezuela 6
Virgin@@ 6
Vor@@ 6
Wagner 6
Wall@@ 6
Wav@@ 6
Westminster 6
Wies@@ 6
X. 6
XV@@ 6
Xu@@ 6
Yak@@ 6
Yay@@ 6
Yor@@ 6
Yuc@@ 6
Za@@ 6
Zanzibar 6
aat 6
abra 6
abri@@ 6
accommod@@ 6
ación 6
acles 6
acri@@ 6
adil@@ 6
afa 6
affected 6
affin@@ 6
afi 6
agara 6
agh 6
aham@@ 6
ahan 6
ahead 6
ahn 6
aires 6
aji@@ 6
aks 6
aland 6
alba 6
alcohol 6
aler@@ 6
alla 6
allas 6
allo 6
amad@@ 6
amor 6
ampa 6
anat@@ 6
annon 6
anor 6
antes 6
anticip@@ 6
apart@@ 6
apes 6
appen 6
ardo 6
ariat 6
arta 6
artis@@ 6
artist 6
aser 6
atement 6
atik 6
atsu 6
attach@@ 6
attended 6
attrac@@ 6
auxili@@ 6
añ@@ 6
bach@@ 6
bang 6
bases 6
bean 6
biggest 6
bor 6
boul@@ 6
bres 6
bring@@ 6
calling 6
calls 6
cano 6
canti@@ 6
captured 6
cartes 6
castell@@ 6
causing 6
cens@@ 6
chance 6
chester 6
china 6
chung 6
cil@@ 6
civ@@ 6
clas@@ 6
class@@ 6
classi@@ 6
classification 6
closely 6
clu@@ 6
coast 6
cock 6
colon@@ 6
color@@ 6
comic 6
communic@@ 6
compil@@ 6
complic@@ 6
concert 6
conflic@@ 6
consider@@ 6
consisted 6
contribu@@ 6
costs 6
cous@@ 6
crime 6
culmin@@ 6
defensive 6
descendants 6
designs 6
destin@@ 6
destroyed 6
detail@@ 6
dica 6
dim 6
dison 6
dispos@@ 6
distributed 6
districts 6
dition 6
dou@@ 6
dram@@ 6
dre 6
dropped 6
ede 6
editorial 6
ehri 6
eil@@ 6
eke 6
eks 6
eland 6
elem@@ 6
emed 6
empire 6
emu 6
enas 6
enburg 6
ende@@ 6
endi 6
eni@@ 6
enus 6
environ@@ 6
enz 6
epis@@ 6
eras 6
eren 6
erk@@ 6
espir@@ 6
esqu@@ 6
establishment 6
etc. 6
ethnic 6
etings 6
etu 6
eves 6
exam@@ 6
exces@@ 6
expan@@ 6
expect@@ 6
extra@@ 6
facilit@@ 6
facto 6
fax 6
featuring 6
feld 6
fell 6
felt 6
fest 6
fici@@ 6
football 6
forc@@ 6
forts 6
fru@@ 6
fu 6
fum@@ 6
g. 6
gare 6
gender 6
gil 6
gil@@ 6
gom@@ 6
got@@ 6
graf@@ 6
hab 6
habit@@ 6
hali 6
hall 6
hardt 6
heav@@ 6
heit 6
hen 6
hing@@ 6
historian 6
hiy@@ 6
horiz@@ 6
hosts 6
houses 6
iana 6
ib 6
iday 6
idential 6
idh@@ 6
igns 6
ikal 6
ikal@@ 6
illera 6
illustr@@ 6
imet@@ 6
imi@@ 6
immedi@@ 6
import@@ 6
impres@@ 6
ims 6
inals 6
incorporated 6
inge 6
ings@@ 6
initiative 6
injur@@ 6
inner@@ 6
inos 6
intention 6
introduction 6
invited 6
ios@@ 6
ischen 6
isches 6
iscus 6
isel 6
isen 6
issu@@ 6
iste 6
istes 6
itar 6
itr@@ 6
iven 6
izi@@ 6
jet@@ 6
jin 6
kas@@ 6
kee 6
kham 6
khe@@ 6
know@@ 6
kula 6
kus 6
kö@@ 6
lain 6
lars 6
league 6
leuc@@ 6
libr@@ 6
lig 6
lins 6
lips 6
lon@@ 6
lop@@ 6
lou@@ 6
lowers 6
macul@@ 6
magaz@@ 6
magn@@ 6
maint@@ 6
manga 6
mania 6
mann@@ 6
manuel 6
mars 6
mate 6
meant 6
member@@ 6
meters 6
mili@@ 6
millions 6
mim@@ 6
mining 6
mites 6
mj@@ 6
moder@@ 6
monit@@ 6
muda 6
muj@@ 6
mula 6
music@@ 6
nearby 6
nic 6
nice 6
notion 6
nou@@ 6
né 6
odia 6
ofs 6
ographi@@ 6
oir 6
oire 6
omen 6
omp@@ 6
orca 6
ording 6
orian 6
orie 6
orientation 6
orig@@ 6
orio 6
osaur@@ 6
oter 6
otus 6
outh 6
oux 6
ovo 6
owa 6
pandemic 6
paral@@ 6
partner 6
pei 6
persec@@ 6
pes@@ 6
petition 6
petr@@ 6
pieces 6
pit 6
planes 6
podium 6
poids 6
pom@@ 6
porter 6
poses 6
premier 6
prise 6
probably 6
proce@@ 6
professor 6
programm@@ 6
programmes 6
proposed 6
propul@@ 6
pub@@ 6
publican 6
publik@@ 6
punc@@ 6
pé@@ 6
qualified 6
quent 6
races 6
radar 6
rage 6
ranked 6
raz@@ 6
receiving 6
recep@@ 6
refu@@ 6
rell 6
resulted 6
reve@@ 6
revel@@ 6
ricane 6
riers 6
rol 6
romanti@@ 6
route 6
ré@@ 6
sant@@ 6
satell@@ 6
sched@@ 6
scho@@ 6
sculp@@ 6
seats 6
selves 6
senior 6
sept@@ 6
sera 6
seri@@ 6
seventh 6
sevi@@ 6
shared 6
showed 6
sie 6
sif 6
simil@@ 6
simul@@ 6
sinh 6
sio 6
skaya 6
sought 6
spatial 6
sta@@ 6
stood 6
succes@@ 6
sug@@ 6
suj@@ 6
sul 6
supporting 6
supports 6
taine 6
tained 6
tainment 6
tape 6
tek@@ 6
tem 6
temp@@ 6
thode 6
threaten@@ 6
tika 6
tims 6
tir 6
tivi@@ 6
toon 6
tori@@ 6
toria 6
torney 6
towns 6
transl@@ 6
trat@@ 6
tributed 6
tried 6
trong 6
tropo@@ 6
trying 6
uchi 6
uda 6
uga 6
uki 6
uku 6
ume@@ 6
ummer 6
underground 6
urban@@ 6
usar 6
uster 6
ustr@@ 6
uz 6
vania 6
vert 6
vij@@ 6
vik@@ 6
visited 6
visu@@ 6
vocals 6
vu 6
wahi 6
wake 6
wale 6
wanted 6
wed@@ 6
winter 6
wom@@ 6
workers 6
yen 6
yer@@ 6
yne 6
yol@@ 6
zes 6
zip 6
zu@@ 6
Â 6
Étienne 6
àng 6
ân 6
ça 6
ège 6
èn@@ 6
ï 6
ô 6
ör 6
Č@@ 6
ę@@ 6
ř 6
ǒ@@ 6
ɲ@@ 6
ʋ@@ 6
ʲ 6
̯ 6
Γ@@ 6
Ε@@ 6
Ν@@ 6
ή@@ 6
αι@@ 6
εία 6
εια 6
μέ@@ 6
μα 6
ολ@@ 6
ς@@ 6
τισμός 6
φ@@ 6
ψ 6
Ба@@ 6
Бе@@ 6
Гу@@ 6
Д@@ 6
На@@ 6
П@@ 6
Ро@@ 6
Со@@ 6
Хер@@ 6
ва@@ 6
во 6
до@@ 6
е@@ 6
ж@@ 6
з@@ 6
за@@ 6
и@@ 6
ка@@ 6
ков 6
лович 6
ля 6
море 6
мы@@ 6
ная 6
ний 6
но 6
но@@ 6
пи@@ 6
ра 6
ре@@ 6
республики 6
ри@@ 6
са 6
си@@ 6
ское 6
сь@@ 6
та@@ 6
хал@@ 6
ц@@ 6
э 6
я 6
ї@@ 6
إِ@@ 6
ابرا@@ 6
اح@@ 6
اسلا@@ 6
اش@@ 6
الت@@ 6
الد@@ 6
الس@@ 6
الك@@ 6
الل@@ 6
المن@@ 6
انه 6
اي@@ 6
باب 6
باب@@ 6
بـ@@ 6
بن@@ 6
بی@@ 6
بیگم 6
تب@@ 6
ترمیم 6
ته@@ 6
ثان@@ 6
جا 6
جه 6
خر@@ 6
دان 6
دي 6
دی@@ 6
را 6
رب@@ 6
سل@@ 6
سيد 6
شاه@@ 6
شو@@ 6
شي@@ 6
صحيح 6
صلا@@ 6
عب@@ 6
عباس 6
عر@@ 6
على 6
في@@ 6
قر@@ 6
قص@@ 6
كري@@ 6
لِ@@ 6
لی@@ 6
مؤ@@ 6
ما@@ 6
مرزا 6
مس@@ 6
نا 6
ند 6
نص@@ 6
نماز 6
وال@@ 6
وسلم 6
ول 6
وم 6
وي@@ 6
ير 6
يُ@@ 6
ّ 6
کر@@ 6
کے 6
گی 6
ہ 6
ہے 6
ین 6
ܟ@@ 6
ރ@@ 6
ި@@ 6
बेगू@@ 6
भागल@@ 6
ঝ@@ 6
৳ 6
ਂ 6
ਇ 6
ਪ 6
દ 6
મ 6
ળ@@ 6
સ 6
ଓ 6
ଧ@@ 6
ଶ@@ 6
ୃ@@ 6
ୟ@@ 6
గ 6
శ@@ 6
స 6
ಆ@@ 6
ೀ 6
ೃ@@ 6
ജ 6
ബ@@ 6
ു 6
ග@@ 6
ජ@@ 6
ර 6
ශ 6
ง@@ 6
า@@ 6
ຈ@@ 6
ທ@@ 6
ເ@@ 6
ཚ@@ 6
འ 6
ཤ@@ 6
ྡ@@ 6
ྤ@@ 6
ვ@@ 6
ი@@ 6
ს@@ 6
ል 6
ል@@ 6
ክ@@ 6
ក@@ 6
ង 6
អ@@ 6
ᱢ@@ 6
ᱦ@@ 6
Ṣ@@ 6
ἄ@@ 6
ἰ@@ 6
ῥ@@ 6
‬ 6
℅ 6
○ 6
ⴰ 6
ⵎ@@ 6
ⵣ@@ 6
、 6
た@@ 6
と@@ 6
ん@@ 6
カ@@ 6
ス 6
ッ@@ 6
ナ@@ 6
ブ@@ 6
マ@@ 6
ロ@@ 6
・ 6
ー 6
中国 6
事@@ 6
仁 6
会 6
區 6
天@@ 6
天皇 6
孫@@ 6
富@@ 6
島@@ 6
帝@@ 6
手 6
摩@@ 6
星 6
木 6
林 6
根@@ 6
江@@ 6
沖 6
派 6
海@@ 6
湖 6
神@@ 6
經 6
美 6
道@@ 6
陈@@ 6
鳥@@ 6
黄@@ 6
龙 6
꫰ 6
개 6
기@@ 6
노@@ 6
반@@ 6
비@@ 6
사@@ 6
선 6
오@@ 6
전@@ 6
화@@ 6
ﺮ@@ 6
ﻣ@@ 6
） 6
🇮 6
🇳 6
🔺 6
1930s 5
2.000 5
2560 5
2562 5
Aar@@ 5
Abbey 5
Aber@@ 5
Additionally 5
Adri@@ 5
Airbus 5
Akadem@@ 5
Alberta 5
Albi@@ 5
Albrecht 5
Album 5
Allah 5
Alman@@ 5
Americ@@ 5
Andrea 5
Andro@@ 5
Andrés 5
Anglo 5
Animation 5
Antar@@ 5
Antiqu@@ 5
Anton 5
Arabia 5
Are@@ 5
Arsen@@ 5
Assemb@@ 5
Ast@@ 5
Atel@@ 5
Aziz 5
Background 5
Bahn 5
Bail@@ 5
Banda 5
Barcelona 5
Beatles 5
Bek@@ 5
Belgium 5
Ben 5
Bernhard 5
Betty 5
Bey@@ 5
Bible 5
Bir 5
Blanc 5
Bog@@ 5
Botswana 5
Bourbon 5
Brand@@ 5
Bras@@ 5
Bres@@ 5
Brooklyn 5
Bruce 5
Brus@@ 5
Bu 5
Byzant@@ 5
Cabo 5
Campus 5
Canadi@@ 5
Capitol 5
Carl@@ 5
Carlos 5
Castro 5
Charlotte 5
Chevrolet 5
Chile 5
Cho 5
Christ 5
Chry@@ 5
Clem@@ 5
Cob@@ 5
Cole 5
Comics 5
Comm@@ 5
Commer@@ 5
Cortes 5
Cow@@ 5
Craw@@ 5
Creek 5
Cres@@ 5
Cyr@@ 5
DDR 5
Dame 5
Danish 5
Dar 5
Dawn 5
Days 5
Den 5
Deutschen 5
Devil 5
Dick@@ 5
Distr@@ 5
Diy@@ 5
Dob@@ 5
Dop@@ 5
Douglas 5
Duc@@ 5
Edgar 5
Edo 5
Eil@@ 5
Ej@@ 5
Erik 5
Euphor@@ 5
Euro 5
Evangel@@ 5
Eyes 5
Fach@@ 5
Farm 5
Felix 5
Flam@@ 5
Florida 5
Fot@@ 5
Frances@@ 5
Français 5
Frédéric 5
Gabri@@ 5
Gardens 5
Gebr@@ 5
Geometr@@ 5
Ghost 5
Gilbert 5
Gill@@ 5
Gis@@ 5
Glad@@ 5
Grab@@ 5
Grant 5
Guang@@ 5
Guerra 5
Gut@@ 5
Hall@@ 5
Hammer@@ 5
Harper 5
Hassan 5
Hau@@ 5
Hawaii 5
Heidelberg 5
Helena 5
Hend@@ 5
Hern@@ 5
Hi 5
Hig@@ 5
Hill@@ 5
His@@ 5
Histor@@ 5
Hugo 5
Hunt 5
Hồng 5
Ian 5
Ibrahim 5
Ili@@ 5
Iraq 5
Isle 5
Jam 5
Jeffrey 5
Jesse 5
Jim@@ 5
Jonas 5
Joy@@ 5
Juli@@ 5
Jupiter 5
Justin 5
Kai 5
Keith 5
Kelly 5
Kis@@ 5
Klaus 5
Kle@@ 5
Know 5
Kra@@ 5
Krak@@ 5
Kras@@ 5
Kurt 5
Labr@@ 5
Lach@@ 5
Lao 5
Leb@@ 5
Leopold 5
Ler@@ 5
Lew@@ 5
Liberal 5
Lion 5
Lloyd 5
Loan 5
Luk@@ 5
Luke 5
Lum@@ 5
Lus@@ 5
Lé@@ 5
Magdalena 5
Marc 5
Marco 5
Margaret 5
Martin@@ 5
Mediterran@@ 5
Meter 5
Metro@@ 5
Mex@@ 5
Miguel 5
Mih@@ 5
Mike 5
Mills 5
Miner@@ 5
Mini 5
Minnesota 5
Monaco 5
Mou@@ 5
Moz@@ 5
Ms@@ 5
Muh@@ 5
Musical 5
Mustafa 5
Müller 5
NSDAP 5
Nach@@ 5
Nes@@ 5
Nguyễn 5
Nicaragua 5
Nick 5
Nikol@@ 5
Ninh 5
Nis@@ 5
Nomin@@ 5
Norfolk 5
Norman 5
Occup@@ 5
Och@@ 5
Omar 5
Oro 5
Oscar 5
Oz@@ 5
Paci@@ 5
Panam@@ 5
Papua 5
Park@@ 5
Parque 5
Partei 5
Parti 5
Particip@@ 5
Peru 5
Petro@@ 5
Pittsburgh 5
Pom@@ 5
Portland 5
Pou@@ 5
Ptolem@@ 5
Quart@@ 5
Rain@@ 5
Ramírez 5
Raymond 5
Reichs@@ 5
Renn@@ 5
René 5
Restaur@@ 5
Richards 5
Richter 5
Río 5
Saints 5
Schwarz 5
Sco@@ 5
Sean 5
Season 5
Section 5
Shin@@ 5
Short@@ 5
Silah@@ 5
Skul@@ 5
Sonic 5
Sozial@@ 5
Spor@@ 5
Stage 5
Stal@@ 5
Storm 5
Strasbourg 5
Stuart 5
Sul 5
Suzuki 5
Sydney 5
Symb@@ 5
Syria 5
Tal 5
Tales 5
Tav@@ 5
Team@@ 5
Ted@@ 5
Teleg@@ 5
Temp@@ 5
Terry 5
Tet@@ 5
Togo 5
Torres 5
Tradition 5
Traf@@ 5
Trin@@ 5
Trần 5
Tuc@@ 5
Turner 5
Tō@@ 5
Uch@@ 5
Ultimate 5
Un 5
Urban 5
Utah 5
Vak@@ 5
Vend@@ 5
Version 5
Vienna 5
Vietnam 5
Vinc@@ 5
Virgin 5
Volks@@ 5
Wah@@ 5
Ward 5
Wer@@ 5
Wes@@ 5
Wet@@ 5
With@@ 5
Without 5
Yale 5
Yo 5
Yug@@ 5
Zer@@ 5
abandoned 5
abilidad 5
abilis 5
acces@@ 5
accident 5
acer@@ 5
acon@@ 5
acteri@@ 5
actu@@ 5
adam 5
adaptation 5
adhi 5
adores 5
adron 5
afor@@ 5
aines 5
ako 5
alian 5
aliment@@ 5
alition 5
alliance 5
alum@@ 5
amateur 5
americ@@ 5
amm 5
ampton 5
anas@@ 5
anche 5
andinav@@ 5
angia 5
anie 5
anja 5
anny 5
ansa 5
ansi 5
appe@@ 5
apped 5
aray@@ 5
architec@@ 5
architectural 5
arded 5
arin 5
arl@@ 5
arn 5
arse 5
artes 5
asim@@ 5
assault 5
asser 5
aste 5
atar 5
aten@@ 5
aths 5
atil@@ 5
atori@@ 5
atos 5
atz 5
auc@@ 5
audience 5
auf@@ 5
auss@@ 5
author@@ 5
automati@@ 5
awe 5
ayak 5
ayar@@ 5
aze 5
azu 5
aña 5
baj@@ 5
bana 5
bann@@ 5
bao 5
bara 5
bec@@ 5
bein@@ 5
beschrän@@ 5
blan@@ 5
blind@@ 5
bog@@ 5
bola 5
bons 5
bought 5
branches 5
broadcast 5
brother 5
bru@@ 5
bund 5
burg@@ 5
camp 5
canc@@ 5
cant@@ 5
carne 5
carp@@ 5
caud@@ 5
caused 5
cerem@@ 5
chairman 5
champion 5
child@@ 5
chini 5
chosen 5
chs 5
cht 5
chur@@ 5
cic@@ 5
civili@@ 5
claim@@ 5
clim@@ 5
clubs 5
cn 5
collected 5
collectiv@@ 5
commerci@@ 5
commod@@ 5
communities 5
complet@@ 5
composer 5
congr@@ 5
consolid@@ 5
conspir@@ 5
constitution 5
consult@@ 5
contempor@@ 5
context 5
corps 5
corr@@ 5
covering 5
crim@@ 5
crimes 5
cue 5
cultur@@ 5
cup@@ 5
daha 5
debut 5
debuted 5
decor@@ 5
demokrati@@ 5
depart@@ 5
destroy@@ 5
destruction 5
diagnos@@ 5
dict@@ 5
didn 5
difficul@@ 5
dimin@@ 5
distinc@@ 5
distingu@@ 5
diverse 5
divor@@ 5
dose 5
dow 5
draft 5
driving 5
droit 5
eastern 5
ebook 5
echo 5
effort 5
efs 5
eget@@ 5
ehouse 5
eim 5
elabor@@ 5
eleg@@ 5
employ@@ 5
endo 5
ensa 5
ensen 5
ension 5
ensive 5
entitled 5
env@@ 5
eor@@ 5
episode 5
ere@@ 5
erer 5
erie 5
erin 5
escape 5
eshi 5
esk@@ 5
establ@@ 5
estar 5
este 5
ets@@ 5
eurs 5
eux 5
eville 5
ewa 5
experienced 5
experiment@@ 5
extended 5
fab@@ 5
fabric@@ 5
fabrication 5
faculty 5
farm 5
fauna 5
feder@@ 5
fern 5
ffs 5
fiction 5
fig@@ 5
fik 5
finishing 5
folkl@@ 5
four@@ 5
fred 5
fruits 5
fs@@ 5
führer 5
gana 5
gard@@ 5
garten 5
gay 5
german@@ 5
gestr@@ 5
git@@ 5
goals 5
gon 5
gone 5
greg@@ 5
gris 5
gris@@ 5
grou@@ 5
grup@@ 5
guitar 5
hadi@@ 5
hatta 5
heimer 5
hek@@ 5
hie 5
hii 5
hion 5
hired 5
holding 5
huj@@ 5
hundred 5
hung 5
hup@@ 5
iefs 5
ien@@ 5
igner 5
ikia 5
iku 5
illance 5
illon 5
imani 5
immediately 5
impos@@ 5
impose 5
inas 5
inde 5
inia 5
insp@@ 5
inspiration 5
installation 5
instrum@@ 5
integri@@ 5
intend@@ 5
interests 5
interrup@@ 5
introdu@@ 5
investigation 5
iny@@ 5
ischer 5
isition 5
isl@@ 5
islands 5
islature 5
isme 5
ismus 5
iso 5
isons 5
itali@@ 5
iye 5
izo 5
jiang 5
journalist 5
judi@@ 5
kamp@@ 5
kanda 5
kent 5
khai 5
kii 5
kler 5
koh@@ 5
kop@@ 5
kule 5
kush@@ 5
lass@@ 5
launch 5
lengua 5
leton 5
liament 5
lich 5
liche 5
lichen 5
lidae 5
lieb 5
lum@@ 5
lé@@ 5
manager 5
mang 5
manufac@@ 5
mari 5
mates 5
mesures 5
mill 5
milli@@ 5
mini@@ 5
missions 5
mita 5
mite 5
municipal 5
museum 5
mv@@ 5
namo 5
nant 5
nas 5
naz@@ 5
nev@@ 5
newly 5
nh 5
nitz 5
nobl@@ 5
nus 5
obil@@ 5
offs 5
ogne 5
ologne 5
ologue 5
oman@@ 5
ombie 5
onale 5
onde 5
onship 5
onso 5
onz@@ 5
opera 5
operates 5
ophysi@@ 5
opini@@ 5
oppon@@ 5
oran 5
orf 5
ornam@@ 5
oses 5
osum 5
oten 5
otz 5
ovina 5
ows 5
paci@@ 5
painting 5
particip@@ 5
partnership 5
passes 5
patients 5
pau@@ 5
pel 5
pens@@ 5
perform 5
permit@@ 5
pers@@ 5
phe 5
photos 5
pia 5
pie 5
pis@@ 5
plu@@ 5
poli 5
policies 5
popularity 5
ppe 5
ppi 5
producer 5
prosp@@ 5
provid@@ 5
publi@@ 5
purch@@ 5
quis@@ 5
rad 5
raf 5
rast@@ 5
reality 5
rebel@@ 5
receive 5
regard 5
regarding 5
regularly 5
rek@@ 5
relati@@ 5
reli@@ 5
religi@@ 5
rence 5
replace 5
rer 5
reserve 5
reun@@ 5
revi@@ 5
rez 5
rico 5
rim@@ 5
rin 5
ris 5
riz@@ 5
roles 5
rom 5
rugby 5
sala 5
sale 5
schel 5
scored 5
seat 5
sek 5
settled 5
seudo@@ 5
sevent@@ 5
sever@@ 5
sey@@ 5
shooting 5
sidi@@ 5
siles 5
singer 5
situ 5
siz@@ 5
sola 5
sport@@ 5
stad@@ 5
stan 5
stands 5
starts 5
station@@ 5
stud@@ 5
styles 5
subsidi@@ 5
subur@@ 5
succ@@ 5
sugg@@ 5
suite 5
superfici@@ 5
susp@@ 5
tang 5
tea 5
tells 5
tere 5
terr@@ 5
thel@@ 5
tik 5
tili@@ 5
tionally 5
tish@@ 5
tivities 5
tiy@@ 5
tracks 5
trains 5
transferred 5
tras 5
treat@@ 5
trin@@ 5
trip 5
troops 5
u. 5
uck@@ 5
uji 5
uke 5
ulty 5
umu@@ 5
unders 5
ungs@@ 5
ups 5
usal 5
ushi 5
usias@@ 5
ussia 5
ustri@@ 5
usual 5
utz@@ 5
uvar@@ 5
uwa 5
ved@@ 5
versions 5
vesti@@ 5
videos 5
vive 5
vivi@@ 5
voirs 5
vol 5
vote 5
voted 5
wag@@ 5
walls 5
wart 5
wns 5
yao 5
ylus 5
yote 5
zer@@ 5
zon 5
zon@@ 5
zw@@ 5
¯ 5
Î 5
ân@@ 5
ät@@ 5
å 5
ès 5
ét@@ 5
ña 5
ø 5
ć@@ 5
Đồng 5
đồng 5
ė 5
ğ@@ 5
ı 5
ǐ@@ 5
ɣ@@ 5
ɦ@@ 5
ɴ 5
ɾ 5
̥ 5
̪ 5
Θ 5
Ι@@ 5
Ο@@ 5
άν@@ 5
άς 5
αί@@ 5
ας 5
βά@@ 5
θος 5
ικ@@ 5
σος 5
στ@@ 5
ων 5
ό@@ 5
Ал@@ 5
Ар@@ 5
Б@@ 5
В 5
В@@ 5
Ко@@ 5
Ку@@ 5
Л@@ 5
Р@@ 5
Ш@@ 5
ан@@ 5
вод@@ 5
ге 5
ги@@ 5
го 5
град 5
де@@ 5
ди 5
же@@ 5
кин 5
ко 5
ко@@ 5
ма@@ 5
ник 5
п 5
ру@@ 5
рь 5
ск 5
со 5
сте@@ 5
сть 5
та 5
ф 5
ха 5
ч@@ 5
ы 5
ю 5
ян 5
Ӏ 5
մ@@ 5
ն 5
տ@@ 5
آباد@@ 5
أهل 5
ابو 5
اد@@ 5
ارة 5
اردو 5
اس 5
اص@@ 5
اف@@ 5
افغانستان 5
الإ@@ 5
الحسن 5
العزيز 5
النبي 5
اه@@ 5
او@@ 5
بت 5
بر 5
ة@@ 5
تم@@ 5
تی@@ 5
جة 5
جر@@ 5
جو@@ 5
حمد 5
خالد 5
خان@@ 5
خوا@@ 5
ده 5
ده@@ 5
رف@@ 5
رم 5
رية 5
ز 5
زر@@ 5
زي@@ 5
سعيد 5
سْ@@ 5
شا@@ 5
شت 5
شري@@ 5
صاحب 5
صر 5
عثمان 5
فت 5
قاسم 5
قال 5
قلعة 5
كت@@ 5
لال 5
له 5
مذ@@ 5
ملك 5
ملک 5
مه 5
موسى 5
می 5
میر 5
ني@@ 5
نَ 5
وادي 5
وار 5
ول@@ 5
وی 5
يب 5
ٔ 5
ٹی 5
ڌ 5
کا 5
کن@@ 5
کو@@ 5
ڪ@@ 5
یہ 5
ހ@@ 5
ޙ@@ 5
ॼ 5
উ 5
ঙ@@ 5
ਂ@@ 5
ਇ@@ 5
ਉ@@ 5
ਖ 5
ਗ 5
ਣ@@ 5
ੈ@@ 5
ੌ@@ 5
ક 5
થ@@ 5
શ 5
૦@@ 5
૧@@ 5
ଁ 5
ଗ 5
ଜ@@ 5
ଡ 5
ଣ@@ 5
ଵ@@ 5
ସ 5
଼ 5
ே 5
ధ 5
బ 5
౹ 5
ಎ@@ 5
ಬ 5
ಳ 5
ೈ@@ 5
ೌ@@ 5
വ 5
ൾ 5
අ@@ 5
ක 5
ත 5
ต 5
พระ@@ 5
ม 5
ว@@ 5
ห 5
็ 5
ນ@@ 5
ຫ@@ 5
ອ@@ 5
ཇ@@ 5
ཏ@@ 5
ྐ@@ 5
ྣ@@ 5
စ 5
ထ@@ 5
ှ@@ 5
თ@@ 5
ნ@@ 5
რ@@ 5
ግ@@ 5
ក 5
ខ 5
ជ 5
ទ 5
ន@@ 5
ស 5
ី@@ 5
ុ@@ 5
ែ@@ 5
ắ@@ 5
Ἀ@@ 5
ᾶ@@ 5
ῦ@@ 5
⁻ 5
™ 5
⊂ 5
ⵀ@@ 5
ⵍ@@ 5
。 5
す@@ 5
ま@@ 5
り 5
イ 5
キ@@ 5
ゴ@@ 5
シ@@ 5
セ@@ 5
タ@@ 5
チ@@ 5
テ@@ 5
ト 5
ド@@ 5
ビ@@ 5
モ@@ 5
上@@ 5
上海@@ 5
不@@ 5
信@@ 5
元 5
八@@ 5
公司 5
切@@ 5
北京 5
区 5
华@@ 5
原 5
县 5
外@@ 5
安 5
定@@ 5
少@@ 5
巴@@ 5
平@@ 5
德 5
性@@ 5
朱@@ 5
村 5
森 5
步@@ 5
武 5
民主@@ 5
江 5
治@@ 5
法@@ 5
海 5
王 5
班 5
田 5
空@@ 5
笛 5
羅@@ 5
義@@ 5
記 5
語 5
谷@@ 5
貴@@ 5
農@@ 5
迦@@ 5
部 5
雪@@ 5
馬@@ 5
马@@ 5
高@@ 5
ꯅ@@ 5
기 5
무@@ 5
박@@ 5
백@@ 5
복 5
삼@@ 5
애@@ 5
어 5
원@@ 5
의@@ 5
젓 5
지@@ 5
한 5
화 5
회@@ 5
 5
𝐚@@ 5
𝐭@@ 5
.000 4
1,8 4
2,1 4
200.000 4
2535 4
2539 4
2540 4
2553 4
2554 4
2555 4
2556 4
2557 4
Abbas 4
Abo@@ 4
Ada 4
Aki@@ 4
Alcal@@ 4
Alek@@ 4
Alexandre 4
Allan 4
Alphon@@ 4
Alternati@@ 4
Andrews 4
Anto@@ 4
Aquitaine 4
Aragon 4
Argum@@ 4
Armen@@ 4
Ars@@ 4
Arte 4
Artes 4
Aug@@ 4
Augsburg 4
Auguste 4
Aven@@ 4
Baby 4
Ban 4
Banco 4
Bas 4
Basis 4
Baus@@ 4
Bayer 4
Beck 4
Beijing 4
Bernardo 4
Berry 4
Bier@@ 4
Billy 4
Bishop 4
Bj@@ 4
Blake 4
Blat@@ 4
Blum@@ 4
Boc@@ 4
Bowl 4
Brab@@ 4
Brad@@ 4
Brigade 4
Brooks 4
Bund@@ 4
Bundes@@ 4
CDU 4
Calais 4
Califor@@ 4
Call@@ 4
Campbell 4
Campo 4
Carp@@ 4
Castilla 4
Categ@@ 4
Ceb@@ 4
Cec@@ 4
Celtic 4
Cem@@ 4
Chall@@ 4
Chamb@@ 4
Chamber 4
Champion 4
Chelsea 4
Chester 4
Choice 4
Chris 4
Christoph 4
Chu@@ 4
Châ@@ 4
Clarke 4
Clau@@ 4
Colin 4
Colonel 4
Concepción 4
Contemporary 4
Cooper 4
Crom@@ 4
Cré@@ 4
Dach@@ 4
Dais@@ 4
Dallas 4
Darwin 4
Defin@@ 4
Deleg@@ 4
Demographics 4
Dennis 4
Description 4
Dest@@ 4
Deutscher 4
Dich@@ 4
Dieu 4
Direction 4
Discovery 4
Diz@@ 4
Donn@@ 4
Dos 4
Doug@@ 4
Drag@@ 4
Dram@@ 4
Duf@@ 4
Duncan 4
Durant 4
Eb@@ 4
Edinburgh 4
Eduard 4
Eh@@ 4
Ein@@ 4
Eisen@@ 4
Elli@@ 4
Emil 4
Equi@@ 4
Erd@@ 4
Españ@@ 4
Exist@@ 4
Factory 4
Fah@@ 4
Feld@@ 4
Felipe 4
Fernando 4
Fic@@ 4
Fig@@ 4
Fighter 4
Fili@@ 4
Fis@@ 4
Fischer 4
Flag@@ 4
Flughafen 4
Formation 4
Fred@@ 4
Front@@ 4
Gat@@ 4
Gav@@ 4
Gay 4
Gazet@@ 4
Geb@@ 4
Geh@@ 4
Geld@@ 4
Gerhard 4
Get 4
Ghana 4
Gil 4
Glen 4
Gonz@@ 4
Grammy 4
Grenz@@ 4
Grove 4
Grün@@ 4
Guardian 4
Guill@@ 4
Guillaume 4
Guin@@ 4
Gum@@ 4
Gustav 4
Hamb@@ 4
Hammer 4
Hannah 4
Hardy 4
Harold 4
Harv@@ 4
Hawai@@ 4
Herschel 4
Hispan@@ 4
Hoh@@ 4
Holmes 4
Holocaus@@ 4
Honduras 4
Honor 4
Hood 4
Horn 4
Hubert 4
Hug@@ 4
Hull 4
Hà 4
Hô@@ 4
Hö@@ 4
Ich 4
Illinois 4
Inde@@ 4
Indon@@ 4
Ingen@@ 4
Isabel 4
Isid@@ 4
Italia 4
Ivoire 4
Jackson 4
Jap@@ 4
Jason 4
Jed@@ 4
Jefferson 4
Jena 4
Jeunesse 4
Joachim 4
Jonathan 4
Journ@@ 4
Jubil@@ 4
Judge 4
Julius 4
Juvent@@ 4
Kaf@@ 4
Kais@@ 4
Kali@@ 4
Kapit@@ 4
Karen 4
Ken 4
Kent@@ 4
Kie@@ 4
Kind@@ 4
Kinder@@ 4
Kiss 4
Klo@@ 4
Kommun@@ 4
Kong@@ 4
Kriti@@ 4
Kuh@@ 4
Kup@@ 4
König@@ 4
Kō@@ 4
Laguna 4
Lang 4
Larry 4
Latina 4
Lebanon 4
Leslie 4
Lisa 4
List@@ 4
Lithu@@ 4
Liz@@ 4
Lomb@@ 4
Lorenzo 4
Luci@@ 4
Luf@@ 4
Luxembourg 4
Lynch 4
Léon 4
Mab@@ 4
Madrid 4
Maf@@ 4
Magic 4
Mal 4
Mali 4
Manhattan 4
Manuel 4
Manz@@ 4
Mao 4
Margar@@ 4
Mario 4
Marion 4
Marsh@@ 4
Mary@@ 4
Mayer 4
Mayo 4
Medina 4
Memphis 4
Merr@@ 4
Michel@@ 4
Mine 4
Minn@@ 4
Miy@@ 4
Mode 4
Mog@@ 4
Montgomery 4
Montreal 4
Moses 4
Moul@@ 4
Moy@@ 4
Mt@@ 4
Muse@@ 4
Myanmar 4
México 4
Mỹ 4
Nassau 4
Netflix 4
Neue 4
Neum@@ 4
Newcastle 4
Nguyên 4
Nice 4
Niger 4
Nou@@ 4
Nuevo 4
Nyam@@ 4
Oak@@ 4
Ord@@ 4
Ordre 4
Ost@@ 4
Oy@@ 4
Palestine 4
Panama 4
Patricia 4
Phil 4
Philippine 4
Pick@@ 4
Pig@@ 4
Pix@@ 4
Polish 4
Politi@@ 4
Pseudo@@ 4
Ptol@@ 4
Québec 4
Rafael 4
Rainbow 4
Rapha@@ 4
Regi@@ 4
Reich@@ 4
Rek@@ 4
Represent@@ 4
Representatives 4
Reynolds 4
Ricardo 4
Richardson 4
Richmond 4
Rif@@ 4
Robertson 4
Robinson 4
Rodrigu@@ 4
Rog@@ 4
Ronald 4
Roth@@ 4
Round 4
Rö@@ 4
Sacram@@ 4
Sail@@ 4
Sain@@ 4
Saj@@ 4
Sam 4
Samm@@ 4
Sand 4
Sask@@ 4
Schi@@ 4
Schl@@ 4
Schn@@ 4
Schrö@@ 4
Schul@@ 4
Schw@@ 4
Semin@@ 4
Seoul 4
Ses 4
Sever@@ 4
Shanghai 4
Show@@ 4
Sic@@ 4
Siy@@ 4
Slav@@ 4
Sno@@ 4
Snow 4
Speed 4
Sprint 4
Stadi@@ 4
Stadt@@ 4
Stil@@ 4
Stra@@ 4
Strat@@ 4
Strom@@ 4
Sty@@ 4
Sullivan 4
Superman 4
Supre@@ 4
Sánchez 4
Tages@@ 4
Tari@@ 4
Tek 4
Them@@ 4
Thom@@ 4
Thái 4
Toch@@ 4
Tod@@ 4
Together 4
Tommy 4
Torino 4
Treat@@ 4
Trung 4
Turin 4
Tây 4
UCI 4
Univers@@ 4
Urban@@ 4
Ush@@ 4
Uz@@ 4
Valent@@ 4
Vamp@@ 4
Vasco 4
Venice 4
Versailles 4
Vietnam@@ 4
Viktor 4
Villar@@ 4
Ville 4
Virgen 4
Vos@@ 4
Wander@@ 4
Warri@@ 4
Wells 4
Wilhel@@ 4
Wing 4
Winter 4
Wolf@@ 4
Wonder 4
Wur@@ 4
Yang 4
Yas@@ 4
Yav@@ 4
Yves 4
Zah@@ 4
Zanz@@ 4
Zeitschrift 4
Zor@@ 4
Zuc@@ 4
Zw@@ 4
aam 4
abandon@@ 4
abati 4
aben 4
accep@@ 4
accept@@ 4
achia 4
acul@@ 4
adala 4
adan 4
aden 4
adic@@ 4
adjacent 4
administrative 4
ador@@ 4
ael 4
afen 4
affe 4
after@@ 4
ahu@@ 4
aia 4
aign 4
aill@@ 4
aises 4
ajo 4
akat@@ 4
aked 4
akia 4
aku@@ 4
alanda 4
ald@@ 4
alda 4
alias 4
alien 4
alim@@ 4
allowing 4
alternati@@ 4
amani 4
amay@@ 4
amba@@ 4
ambass@@ 4
ambul@@ 4
amen@@ 4
americana 4
anah@@ 4
ancement 4
anci@@ 4
andin@@ 4
andro 4
anger@@ 4
angs@@ 4
anh 4
animation 4
annex@@ 4
anni 4
anno@@ 4
announc@@ 4
anor@@ 4
anot@@ 4
anted 4
antu 4
ape@@ 4
appear@@ 4
araya 4
argent@@ 4
arro 4
asco 4
asit@@ 4
asons 4
assist@@ 4
assistance 4
assistant 4
assur@@ 4
astal 4
atan@@ 4
atif 4
atir@@ 4
attend 4
atur 4
austr@@ 4
auti@@ 4
avant 4
aven 4
avy@@ 4
axe 4
ayr@@ 4
azar@@ 4
azo 4
azy 4
azz@@ 4
azzo 4
banc@@ 4
bap@@ 4
bare 4
basa 4
bau 4
bauer 4
beau 4
bek 4
bell 4
bera 4
bibli@@ 4
bie 4
bire@@ 4
bombard@@ 4
bos 4
bour@@ 4
bourne 4
bre 4
brief 4
brig@@ 4
bula 4
burgh 4
caf@@ 4
campus 4
candidate 4
captur@@ 4
cards 4
cars 4
cass@@ 4
castle 4
catal@@ 4
cau@@ 4
caval@@ 4
charts 4
chau@@ 4
chim@@ 4
ché 4
cid@@ 4
cide 4
cipit@@ 4
citiz@@ 4
collabor@@ 4
committed 4
compete 4
conception 4
considerable 4
continues 4
controvers@@ 4
corona 4
cott 4
coup 4
covers 4
crec@@ 4
ctu@@ 4
cultures 4
dad 4
danger@@ 4
dating 4
decade 4
deck 4
defeating 4
dei 4
dera 4
deser@@ 4
dest@@ 4
deutsch@@ 4
dez 4
dhana 4
diagn@@ 4
dido 4
dif@@ 4
dig 4
dio 4
dipl@@ 4
disci@@ 4
disposition 4
divis@@ 4
dner 4
dollars 4
dos 4
dos@@ 4
dote 4
doubles 4
dura 4
dyn@@ 4
déj@@ 4
e. 4
ebe 4
ebel 4
eberg 4
eces 4
ecta 4
eden@@ 4
edt 4
eers 4
egel 4
eir@@ 4
ekw@@ 4
eler 4
ellschaft 4
els@@ 4
emin 4
endum 4
enem@@ 4
enges@@ 4
enst@@ 4
enti 4
entirely 4
enton@@ 4
enzie 4
eption 4
equili@@ 4
eran 4
erina 4
escens 4
esos 4
esti 4
etab@@ 4
evi@@ 4
ew 4
excep@@ 4
exclusiv@@ 4
eza 4
faz@@ 4
featured 4
festivals 4
fet@@ 4
figh@@ 4
flam@@ 4
focused 4
folium 4
forma 4
för@@ 4
gai 4
gang 4
garde 4
gend@@ 4
giy@@ 4
grand 4
granted 4
guerr@@ 4
générale 4
hak 4
hall@@ 4
hang 4
hao 4
haus 4
hawa@@ 4
headquarters 4
heavily 4
hectar@@ 4
heit@@ 4
historic 4
hockey 4
holz 4
households 4
housing 4
htt@@ 4
icht 4
icion@@ 4
icola 4
icts 4
icules 4
idaceae 4
iden@@ 4
idents 4
iev@@ 4
igned 4
ikit@@ 4
ikos 4
ilar 4
iler@@ 4
iline 4
imba 4
imen 4
imi 4
imin@@ 4
imine 4
imming 4
imonio 4
inay@@ 4
inci 4
inhabitants 4
innen 4
insan@@ 4
insig@@ 4
insist@@ 4
inski 4
inspir@@ 4
institut@@ 4
instrumental 4
interested 4
invasion 4
ionale 4
ios 4
isser 4
istas 4
itat 4
iwa 4
izen 4
izi 4
japon@@ 4
jed@@ 4
jer@@ 4
jip@@ 4
jk 4
judge 4
jury 4
juven@@ 4
kanal 4
kand@@ 4
kim@@ 4
kurum@@ 4
lac 4
laid 4
lais 4
lane 4
lares 4
lass 4
last@@ 4
lat 4
lati@@ 4
laun@@ 4
leid@@ 4
lements 4
leo 4
lera 4
letin 4
liamentary 4
liches 4
lie@@ 4
logos 4
lois 4
lol@@ 4
longi@@ 4
lug 4
lug@@ 4
lung 4
mak 4
mali 4
march@@ 4
mau@@ 4
mayor 4
memor@@ 4
mens 4
merc@@ 4
metropolit@@ 4
mexicana 4
mik@@ 4
milit@@ 4
mines 4
mini 4
ministers 4
ministr@@ 4
missing 4
mitt@@ 4
modific@@ 4
monaster@@ 4
monum@@ 4
moth 4
mst@@ 4
mt 4
musician 4
mé@@ 4
nach@@ 4
narr@@ 4
naval 4
nay 4
nearly 4
neces@@ 4
nek@@ 4
nica 4
nig 4
nin 4
nis@@ 4
nova 4
nun@@ 4
nung 4
nz@@ 4
obs@@ 4
observation 4
occasions 4
occo 4
occurred 4
odon 4
officer 4
officials 4
ograf@@ 4
oko 4
old@@ 4
olos 4
oman 4
omba 4
omel@@ 4
onder 4
onga 4
onidae 4
onstr@@ 4
operate 4
ophi@@ 4
opin@@ 4
opo 4
opportunity 4
oque 4
oran@@ 4
orange 4
orbit@@ 4
originally 4
ortho@@ 4
oru 4
otte 4
ouvre 4
owski 4
pant@@ 4
partei 4
particul@@ 4
pep@@ 4
permanent 4
permi@@ 4
personnel 4
pf@@ 4
pilot 4
pir@@ 4
plein 4
podi@@ 4
poetry 4
politi@@ 4
populations 4
portant 4
portion 4
portrait 4
possibil@@ 4
prair@@ 4
precis@@ 4
prince 4
prize 4
produ@@ 4
promin@@ 4
prominent 4
promot@@ 4
promote 4
promotion 4
pronunci@@ 4
publications 4
pudi@@ 4
puesto 4
puls@@ 4
pâ@@ 4
quarter@@ 4
quel@@ 4
quer 4
quil@@ 4
quán 4
raf@@ 4
raid 4
ral@@ 4
rapid@@ 4
rau@@ 4
reb@@ 4
recog@@ 4
record@@ 4
rection 4
reform@@ 4
regi@@ 4
regres@@ 4
rei 4
rejected 4
rek 4
releas@@ 4
reo 4
reper@@ 4
reproduc@@ 4
resc@@ 4
residential 4
respons@@ 4
reviews 4
ria 4
richt 4
riff 4
roll 4
roof 4
roqu@@ 4
routes 4
ruption 4
rö@@ 4
sahi@@ 4
sain@@ 4
sak 4
sanctu@@ 4
sans 4
sbr@@ 4
sburg 4
schen 4
schild 4
schutz 4
seri 4
serving 4
sev@@ 4
shausen 4
sheim 4
shin@@ 4
short@@ 4
signature 4
simpl@@ 4
soc@@ 4
sohn 4
song@@ 4
sozial@@ 4
spann@@ 4
specifically 4
spiele 4
stabil@@ 4
stadi@@ 4
stag@@ 4
stern 4
stitu@@ 4
stores 4
strug@@ 4
strö@@ 4
succe@@ 4
suicide 4
suz@@ 4
talent 4
tata 4
taught 4
tch@@ 4
tek 4
telev@@ 4
templ@@ 4
tenberg 4
teur 4
tienne 4
tiger 4
tim 4
timately 4
tival 4
tières 4
toire 4
traditions 4
traverse 4
tren 4
tris 4
trit@@ 4
trophe 4
tros 4
tunnel 4
turned 4
twelve 4
ucci 4
uchs 4
uf 4
ufi 4
ugu@@ 4
uit 4
ulg@@ 4
umbr@@ 4
unable 4
unat@@ 4
unia 4
upe 4
uru@@ 4
usage 4
uw@@ 4
uña 4
venir 4
vered 4
versary 4
vide 4
vidence 4
vier 4
vili 4
volumes 4
voy@@ 4
vulner@@ 4
wach@@ 4
wald 4
wau@@ 4
weekly 4
west@@ 4
[...]
