. 5592818
, 4136577
&apos; 3258545
ve 2252421
&quot; 1949936
bir 1380549
) 821379
( 819642
da 810078
de 794375
@-@ 608661
olarak 580375
ile 518359
in 435490
için 398144
ın 377947
bu 349583
en 347472
olan 347365
’ 324206
ya 294961
i 292852
ı 288124
an 287901
yılında 283605
lar 283574
ler 283514
tarafından 282312
leri 282264
ları 272338
Bu 258258
sonra 257762
; 254264
k@@ 250217
a 243206
: 242391
un 240220
nin 236260
nın 232854
ç@@ 231477
ş@@ 212987
y@@ 211930
te 208970
al@@ 204840
daha 203117
e 202136
ilk 199028
esi 187439
an@@ 183682
ise 177848
inin 174712
den 173532
ası 173283
u 172861
ye 169754
yer 169267
at@@ 167786
ak@@ 165194
K@@ 164620
t@@ 160375
li 160264
ol@@ 158094
il@@ 156975
ar@@ 156545
gibi 156186
ar 155817
ma 150628
S@@ 150168
ine 149953
çok 147569
ini 147453
arasında 143980
dir 143714
ta 143191
dan 142947
ının 139802
et@@ 137717
kadar 137424
k 137271
lı 137147
ik@@ 135646
bağlı 135507
l@@ 135444
lerin 134975
T@@ 134800
ay@@ 134529
ak 134312
inde 134201
veya 134110
Ç@@ 134110
ların 133462
= 133270
iki 133005
d@@ 131686
Y@@ 131395
isi 130887
z@@ 130683
s@@ 129370
c@@ 128986
1 128280
İ@@ 127876
ek@@ 127807
g@@ 126883
büyük 126823
D@@ 125940
ını 124890
la 124550
me 123753
G@@ 123250
at 122383
göre 121592
H@@ 120743
er 120678
am@@ 120363
oldu 117996
ıl@@ 117730
ik 116505
iş@@ 115874
el@@ 115693
2 115511
im@@ 114444
m@@ 114289
M@@ 113565
ü 113510
ır 113406
ında 112674
bulunan 112355
ad@@ 111872
&#124; 111493
in@@ 111430
ına 110065
al 110034
A@@ 109964
ım 109544
yap@@ 108806
lik 108759
ver@@ 108717
kal@@ 107080
on 106862
d 106769
ev@@ 105430
el 105107
er@@ 105018
em@@ 104967
Türkiye 103564
olduğu 103110
E@@ 103077
le 102397
B@@ 102142
- 100606
lık 99097
adı 98765
Ş@@ 98286
h@@ 98117
en@@ 96831
P@@ 96570
im 95406
lerini 95007
ması 94898
tarihinde 94785
et 94558
alan 93118
deki 92888
mak 92569
ne 91479
o 91375
v@@ 91128
birlikte 90539
ül@@ 90529
ı@@ 90403
nde 90089
di 90036
4 89903
! 89884
p@@ 89804
3 89765
ir@@ 88796
kar@@ 88182
z 87856
f@@ 87733
ılar 87383
km 86448
diğer 85047
or@@ 84905
etti 84711
ın@@ 84590
aş@@ 84367
as@@ 84359
r@@ 84126
kur@@ 83969
ü@@ 83951
/ 82949
b@@ 82448
az@@ 82159
ay 81793
iz@@ 81748
unu 81583
nda 81496
inden 81184
n@@ 80974
aynı 80345
is@@ 80187
C@@ 79945
N@@ 79943
Türk 79929
larını 79880
gel@@ 79840
daki 79175
O@@ 79146
t 78952
ır@@ 78873
ün 78185
ti@@ 77369
lara 76846
di@@ 76816
R@@ 76692
ından 76668
ık 76556
larda 76192
son 76059
lerinin 75815
F@@ 75731
ul@@ 75708
V@@ 75465
ık@@ 75296
L@@ 75147
miştir 74610
iler 74216
ama 74114
adlı 73670
yıl 73579
yeni 73572
larının 73525
align 73485
center 73235
maya 73227
her 72925
una 72917
ana 72722
eli 72572
aldı 72336
lerde 72195
Ar@@ 71968
il 71963
ten 71942
Z@@ 71835
ir 71663
ç 71638
unun 71466
ur 71466
aya 71308
ğ@@ 70925
arak 70883
ısı 70850
kon@@ 70773
on@@ 70766
mek 70742
ada 70581
ancak 70533
â@@ 70435
ış@@ 70151
ter@@ 70110
alı 70011
re@@ 69794
ış 69779
aç@@ 69513
lan@@ 69418
ek 69411
nun 69145
tan 69086
us 68815
İstanbul 68631
m 68481
ıdır 68311
karşı 68290
p 68237
yaz@@ 67968
Avrupa 67833
aları 67384
it@@ 67224
na 66876
say@@ 66864
önemli 66818
eden 66798
Kar@@ 66673
mesi 66672
Dünya 66609
&amp; 66450
% 66375
ki 66361
es@@ 66033
anı 65736
larında 65661
unda 65442
çek@@ 64964
göster@@ 64495
larına 64433
eski 64354
baş@@ 64061
başladı 63970
ım@@ 63552
önce 63050
ilçesine 62982
lere 62982
am 62895
av@@ 62820
eri 62748
tan@@ 61831
ileri 61531
mıştır 61358
Al@@ 61273
ur@@ 60780
lerinde 60548
5 60280
az 60235
eler 60015
kan@@ 59723
li@@ 59572
man@@ 59343
bir@@ 59190
liği 59033
şekilde 58779
ünü 58673
yar@@ 58646
mektedir 58570
lu 58535
olduğunu 58528
U@@ 58413
enin 58403
um 58320
l 58304
olmuştur 58279
yapılan 58260
6 58196
The 58115
it 57902
ab@@ 57727
üzere 57704
ağ@@ 57580
de@@ 57529
lerine 57518
sür@@ 57347
ti 57330
ayı 57193
içinde 56729
Üniversitesi 56703
gör@@ 56622
anın 56395
üzerine 56391
edil@@ 56327
imi 56294
bulun@@ 56193
yi 56043
le@@ 55985
vardır 55979
te@@ 55936
iyi 55787
ör@@ 55562
ot@@ 55471
den@@ 55315
Bir 55311
man 55279
birçok 55212
kez 55097
10 55072
belir@@ 54916
s 54346
eleri 54298
eş@@ 54096
Mart 54079
kap@@ 53965
kabul 53945
ılan 53901
y 53801
Ayrıca 53633
ıp 53304
maktadır 53301
sahip 53061
iy@@ 53056
Mayıs 53004
h 52878
ed@@ 52579
len@@ 52561
ken 52407
alan@@ 52350
lam@@ 52325
ah@@ 52311
ür 52139
devam 51624
Ocak 51593
ili 51440
erek 51296
üç 51289
mış 51173
ikinci 51159
tı 51103
ş 51070
par@@ 51062
eti 51029
.@@ 50825
ıyla 50735
geç@@ 50508
uy@@ 50420
ilen 50240
Kasım 50126
bul@@ 50115
gelen 50040
2010 49941
esinde 49874
fazla 49819
meye 49802
tüm 49767
j@@ 49712
ün@@ 49710
un@@ 49624
e@@ 49611
is 49585
“ 49558
yaptı 49477
arı 49417
yer@@ 49135
Eylül 49119
lardan 49083
miş 49057
Ekim 48872
dı 48827
lerinden 48775
” 48582
i@@ 48548
kay@@ 48394
ardından 48289
ilinin 47977
yüksek 47783
Haziran 47778
yaş@@ 47778
kendi 47763
ıldı 47761
Nisan 47560
ABD 47528
Osmanlı 47505
Temmuz 47242
af@@ 47232
ımı 47204
ac@@ 47127
An@@ 47063
asında 47019
ok@@ 47008
Daha 46970
bazı 46964
sa 46959
ö@@ 46944
olmak 46940
dır 46925
Ağustos 46862
Amerika 46846
tek 46817
ük@@ 46814
biri 46594
um@@ 46482
Aralık 46444
alar 46422
hem 46344
ara 46193
ağı 46145
kullan@@ 46069
sırasında 46000
si 45946
diği 45868
üzerinde 45675
farklı 45601
çi 45592
f 45442
oğlu 45300
olup 45268
su 45221
ede 45064
a@@ 45054
Ancak 44987
tak@@ 44983
doğ@@ 44964
esine 44904
ist@@ 44810
görev 44758
re 44653
ür@@ 44649
of 44644
indeki 44582
çalış@@ 44558
7 44488
dön@@ 44436
zaman 44257
ser@@ 44178
kö@@ 43824
der@@ 43795
yarış@@ 43775
çık@@ 43766
bil@@ 43750
şark@@ 43704
ortaya 43538
yol@@ 43533
ünde 43375
ka 43286
ız 43281
katıl@@ 43200
us@@ 43161
12 43102
se@@ 43074
eye 42841
15 42792
&#93; 42771
yılları 42744
İlk 42676
Şubat 42669
Birleşik 42654
var@@ 42604
lığı 42585
gün 42577
üm@@ 42513
&#91; 42508
iş 42501
as 42456
yılı 42450
ıları 42423
eğ@@ 42403
colspan 42379
çeşitli 42308
onu 42283
8 42282
Savaşı 42167
o@@ 42028
bas@@ 41992
res@@ 41954
id@@ 41904
bulunmaktadır 41883
öl@@ 41870
geri 41835
pl@@ 41800
küçük 41647
ünün 41633
20 41595
os 41547
nedeniyle 41430
kat@@ 41401
edildi 41395
larından 41297
dil@@ 41273
boyunca 41178
ındaki 41156
dev@@ 41083
n 41008
yapıl@@ 40680
J@@ 40654
masına 40493
– 40488
yeniden 40446
ön@@ 40377
ne@@ 40339
uk 40332
lerden 40244
görün@@ 40124
Er@@ 40033
zamanda 40019
tir 40004
idi 39968
tür@@ 39893
üst@@ 39841
oy@@ 39776
2012 39580
bağ@@ 39574
yan@@ 39467
ildi 39423
ni@@ 39418
2020 39389
getir@@ 39299
bak@@ 39259
sadece 39210
os@@ 39151
I@@ 39135
sel 39024
ey@@ 39005
En 38994
yüz@@ 38943
üne 38865
ist 38843
tar@@ 38692
Öz@@ 38673
uz@@ 38646
luk 38603
gir@@ 38600
edilen 38540
yaklaşık 38516
larla 38407
iyle 38388
gün@@ 38379
2011 38316
ce 38254
2009 38231
adan 38192
asyon 38132
Ak@@ 38109
tanım@@ 38108
ıcı 38090
çıkar@@ 38006
usu 37998
lem@@ 37994
Or@@ 37979
tamam@@ 37835
î 37745
düş@@ 37685
gen@@ 37670
ilerin 37640
eb@@ 37498
II 37490
bi@@ 37421
mad@@ 37392
geliş@@ 37378
ca 37335
ona 37263
alt@@ 37078
Mar@@ 37072
ör 37000
san@@ 36922
Ü@@ 36913
eme 36902
ıt@@ 36881
üs@@ 36807
kullanıl@@ 36797
kes@@ 36791
se 36699
du 36679
yle 36652
süre 36593
genel 36552
11 36505
değiş@@ 36502
ulaş@@ 36495
nüfusu 36483
om@@ 36473
ez@@ 36423
v 36355
ığı 36350
masını 36307
film 36258
9 36207
ere 36152
ecek 36115
ans@@ 36110
düzen@@ 36090
esinin 36084
lanan 36020
ele 35981
üy@@ 35967
W@@ 35959
acak 35946
uzun 35863
tek@@ 35846
yerine 35811
ali 35732
iç@@ 35654
2008 35610
art@@ 35579
ic@@ 35558
aj@@ 35544
30 35402
ap@@ 35401
si@@ 35330
tarih@@ 35243
Ö@@ 35207
be@@ 35206
gi@@ 35179
16 35152
ız@@ 35141
ri@@ 35138
r 35072
tur@@ 35062
köy 35053
uç@@ 35051
2014 34998
yas@@ 34908
Tarihçe 34886
onun 34841
merkezine 34838
ut@@ 34787
görev@@ 34765
çe 34716
lama 34693
As@@ 34572
tut@@ 34541
ığını 34488
Almanya 34479
Baş@@ 34389
seç@@ 34334
rağmen 34281
ant@@ 34252
ec@@ 34234
Fransa 34223
elde 34213
geliştir@@ 34197
ıkları 34169
Kon@@ 34036
tasar@@ 33916
albüm@@ 33896
2015 33817
tr@@ 33806
idir 33782
2013 33754
kor@@ 33710
kır@@ 33699
or 33682
şu 33570
kazan@@ 33519
and@@ 33442
Genel 33334
sun@@ 33203
yak@@ 33185
Coğrafya 33174
ait 33160
u@@ 33157
yı 33131
yaptığı 33080
uş@@ 33077
saldır@@ 33035
bulunur 33000
geçir@@ 32987
kişi 32969
siz 32940
altında 32917
od@@ 32904
2007 32868
2016 32809
sır@@ 32801
ilgili 32733
sat@@ 32718
kısa 32689
O 32653
dahil 32650
0 32618
İngiltere 32610
alın@@ 32609
kom@@ 32572
abil@@ 32526
Alman 32495
son@@ 32472
asına 32467
met@@ 32463
men 32413
kr@@ 32391
14 32383
har@@ 32320
beri 32283
ılmıştır 32241
tik 32226
ilmiştir 32147
yon 32130
Güney 32126
ler@@ 32115
2006 32095
hazır@@ 32082
ip 32033
men@@ 32029
muştur 32028
Ankara 32026
savaş@@ 32002
ıs@@ 31992
19 31988
edilmiştir 31942
New 31898
bölüm@@ 31876
genellikle 31860
18 31841
Yeni 31841
almıştır 31840
13 31821
ayrıca 31775
Bil@@ 31702
mi 31672
düşün@@ 31669
ko@@ 31662
udur 31645
the 31612
em 31579
asını 31543
sistem@@ 31531
Kur@@ 31520
mak@@ 31513
lerle 31486
sağ@@ 31462
ku@@ 31456
dur@@ 31426
yıl@@ 31382
özel 31348
yen@@ 31216
mayı 31168
lü 31084
oluştur@@ 31037
to@@ 31037
gerek@@ 31024
esini 31000
İngiliz 30994
ci 30953
doğru 30927
eni 30883
Kuzey 30875
Amerikan 30870
uzaklıktadır 30814
takım 30672
yon@@ 30653
laş@@ 30633
kazandı 30608
ra 30583
4@@ 30548
form@@ 30514
anlar 30440
Rusya 30438
17 30414
sin@@ 30409
başka 30404
başar@@ 30401
eder 30289
Ad@@ 30273
kaynak@@ 30246
A 30201
25 30058
bel@@ 30056
üre@@ 30015
dört 30012
tür 30001
oloji 29952
ni 29916
dığı 29915
ince 29906
ayr@@ 29904
ia 29894
kil@@ 29861
öz@@ 29861
yay@@ 29814
sen@@ 29640
müştür 29637
kim@@ 29610
anlaş@@ 29601
merkezi 29595
abilir 29574
ye@@ 29536
mesine 29464
2018 29444
es 29426
adıyla 29422
kad@@ 29419
ro@@ 29407
sor@@ 29397
2017 29396
eyi 29282
Roma 29197
tarihi 29153
yön@@ 29153
Cumhuriyeti 29120
ilmiş 29096
ılmış 29081
özellikle 29061
git@@ 29040
müzik 29006
tin 29002
arasındaki 28944
bırak@@ 28865
diz@@ 28813
konuş@@ 28812
yayın@@ 28774
ilir 28764
kol@@ 28696
bin@@ 28688
kab@@ 28681
ag@@ 28653
oyun@@ 28603
lar@@ 28578
ol 28524
ği 28506
dönem@@ 28474
lanmıştır 28464
bi 28442
tal@@ 28345
yerleş@@ 28334
El@@ 28283
bilinen 28242
dü 28221
mem@@ 28201
iz 28143
_ 28123
mesini 28117
ıya 28102
ber@@ 28046
undan 28016
ev 27988
tekrar 27982
içer@@ 27936
Birliği 27909
ıc@@ 27831
millî 27830
anlat@@ 27822
Doğu 27820
taş@@ 27789
sahiptir 27787
ılık 27747
tem@@ 27738
birkaç 27725
po@@ 27725
kl@@ 27719
oluşan 27664
ular 27644
duy@@ 27602
ılı 27546
ılır 27540
2005 27529
sonunda 27524
kullanılan 27504
2019 27433
kiş@@ 27433
Büyük 27391
İn@@ 27374
tab@@ 27335
yaşam@@ 27311
gönder@@ 27294
st@@ 27234
Kupası 27184
oluş@@ 27176
su@@ 27172
değiştir@@ 27158
21 27118
2000 27072
ke@@ 27001
sırada 26990
göz@@ 26986
5@@ 26944
landı 26940
hakkında 26935
İtalya 26934
devlet 26918
açık@@ 26890
6@@ 26875
altı 26838
yapan 26775
isinin 26753
mi@@ 26742
aki 26617
kıs@@ 26604
verdi 26603
anda 26585
üz@@ 26553
hav@@ 26543
24 26482
olması 26472
olmayan 26470
lik@@ 26451
yüksel@@ 26418
lt 26398
ıyor 26381
ıda 26361
du@@ 26323
muş 26322
ger@@ 26300
ki@@ 26300
22 26183
şehir 26181
işlem@@ 26125
leş@@ 26088
takım@@ 26079
ih@@ 26076
Aynı 26032
Fransız 26022
Türk@@ 26010
per@@ 26007
pr@@ 26003
vi@@ 26001
Rus 25989
çıkan 25958
itibaren 25884
maç@@ 25866
ton 25854
iler@@ 25849
Paşa 25845
üm 25845
spor 25803
oyuncu 25788
yet@@ 25775
ans 25765
Ser@@ 25721
kaz@@ 25704
bal@@ 25678
kurul@@ 25676
Çin 25665
sıra 25645
he@@ 25624
almaktadır 25583
etmiştir 25573
uk@@ 25563
b 25555
gt 25551
düz@@ 25517
mu@@ 25471
üş@@ 25470
ıktan 25421
luğu 25364
mer@@ 25349
2004 25289
rol 25270
geldi 25262
bu@@ 25253
mes@@ 25237
inşa 25234
yol 25228
26 25197
ov 25183
gerçekleştir@@ 25116
ad 25109
program@@ 25093
ebil@@ 25088
milyon 25032
savaş 25025
ut 25005
I. 24962
Devletleri 24953
asının 24946
sezonunda 24921
lo@@ 24898
grup 24873
eser@@ 24849
ıy@@ 24826
çıktı 24824
mek@@ 24823
yakın 24814
ırlar 24814
bur@@ 24808
film@@ 24797
gö@@ 24733
yapmıştır 24727
adını 24711
edi 24680
elerin 24674
Film 24663
tiği 24651
kaç@@ 24632
ap 24623
istan 24611
ça 24570
7@@ 24554
zor@@ 24539
din@@ 24537
etkil@@ 24509
kıy@@ 24497
do@@ 24410
merkez@@ 24405
Köy 24392
Re@@ 24380
yan 24335
döneminde 24262
op@@ 24255
tü@@ 24249
23 24234
etmek 24226
ey 24161
hi@@ 24161
bar@@ 24123
ru@@ 24085
asyon@@ 24081
ilik 24054
tu@@ 23996
sah@@ 23989
neden 23957
pek 23921
Bar@@ 23911
ayrıl@@ 23908
mahalledir 23905
tah@@ 23879
dur 23864
Kor@@ 23858
takımı 23823
olojik 23817
ci@@ 23809
yanı 23735
isim@@ 23703
bin 23683
Partisi 23665
if@@ 23665
list@@ 23663
karakter@@ 23627
ıştır 23612
ina 23601
Gö@@ 23544
Be@@ 23535
destek@@ 23514
ayan 23509
8@@ 23502
söy@@ 23496
hay@@ 23485
verilen 23470
and 23465
manın 23455
duğu 23447
ani 23421
Amerikalı 23403
tir@@ 23402
dışında 23401
atı 23395
kadın 23380
tam 23375
alır 23333
ıydı 23333
Hal@@ 23318
teki 23318
itibarıyla 23304
ülk@@ 23290
B 23264
bat@@ 23252
por 23250
ıyordu 23225
me@@ 23208
sınır@@ 23207
min@@ 23196
Aş@@ 23185
plan@@ 23178
uygulam@@ 23164
ıt 23119
sü@@ 23080
osu 23073
andı 23058
şek@@ 23037
aş 23022
toplam 23018
eg@@ 22995
27 22983
acı 22983
sonucu 22966
iye 22886
isinde 22878
ast@@ 22851
koy@@ 22839
dolayı 22821
sar@@ 22796
Kal@@ 22777
İş@@ 22762
bek@@ 22758
futbol 22757
nüfus 22755
büyü@@ 22753
taraf@@ 22722
ib@@ 22691
28 22682
güç@@ 22659
eğitim 22598
ing 22585
endi 22580
der 22575
Batı 22558
lık@@ 22524
dar@@ 22513
görüş@@ 22490
ra@@ 22469
aldığı 22458
Tr@@ 22447
sal 22431
umu 22417
ılması 22397
meyi 22383
til@@ 22378
Ligi 22365
ov@@ 22363
öğren@@ 22357
üc@@ 22357
lanmış 22348
Har@@ 22315
dem@@ 22284
söz@@ 22264
rol@@ 22246
ail@@ 22240
mas@@ 22237
yen 22215
sayımına 22209
çöz@@ 22203
şarkı 22195
kel@@ 22172
parç@@ 22164
Kol@@ 22142
ark@@ 22131
kariyeri 22051
sal@@ 22034
eleştir@@ 22033
Kan@@ 21964
dönemde 21939
hal@@ 21925
Anadolu 21919
sayısı 21910
Bir@@ 21897
leme 21880
masıyla 21869
yü@@ 21869
leyen 21855
kem@@ 21851
yılından 21789
maları 21782
üst 21782
ke 21761
York 21748
Ulusal 21720
olur 21720
mar@@ 21710
İmparatorluğu 21660
bo@@ 21641
ah 21629
ze 21608
isti@@ 21607
maz 21602
sak@@ 21586
veril@@ 21583
çoğu 21575
Bur@@ 21569
9@@ 21552
kul@@ 21535
üler 21527
anlam@@ 21478
ri 21476
İl@@ 21472
Şarkı 21470
Ödülü 21461
leriyle 21455
ob@@ 21437
imleri 21431
fik@@ 21399
gelir 21381
3@@ 21379
nden 21375
pat@@ 21374
ili@@ 21358
2002 21346
iden 21336
temsil 21336
Di@@ 21317
gü@@ 21317
toprak@@ 21314
Sar@@ 21272
kan 21238
dik@@ 21203
lenen 21193
yaşında 21190
yarat@@ 21130
ard@@ 21127
hastal@@ 21113
luğ@@ 21098
2021 21084
iti@@ 21082
tel@@ 21079
yıllarında 21068
En@@ 21067
gem@@ 21012
ünden 20994
ö 20968
irler 20965
1990 20963
mişti 20954
üçüncü 20946
ıların 20913
ati@@ 20890
masının 20882
Ch@@ 20879
Man@@ 20846
tim@@ 20842
yl@@ 20840
kin 20831
ip@@ 20821
ade 20808
Uluslararası 20781
karar 20781
so@@ 20753
hak@@ 20749
üdür 20735
üsü 20725
üç@@ 20724
dir@@ 20714
Bunun 20706
edilir 20672
tanın@@ 20671
Orta 20667
ilç@@ 20651
sezon 20622
topl@@ 20615
ığında 20594
adi@@ 20583
var 20571
diğini 20565
oz@@ 20546
kas@@ 20542
müz@@ 20542
savun@@ 20538
29 20531
uz 20519
Ali 20506
sim@@ 20460
Her 20443
insan 20439
fakat 20421
bit@@ 20413
2003 20405
ale 20396
Ay@@ 20363
başkan@@ 20354
kurulan 20329
ayında 20317
değişik@@ 20311
attı 20291
doğdu 20282
2001 20264
C 20251
Lig 20245
John 20243
karşılaş@@ 20228
ışı 20219
kalan 20216
anl@@ 20215
alt 20213
yal@@ 20175
katıldı 20173
dünya 20158
yat@@ 20154
yapımı 20153
del@@ 20129
isini 20118
ete 20113
ali@@ 20102
köy@@ 20100
Tur@@ 20096
isimli 20015
tü 20007
hemen 19990
ime 19984
aların 19967
kız@@ 19959
askeri 19943
ettiği 19943
end@@ 19921
açık 19909
uma 19905
oyuncul@@ 19892
gi 19887
Se@@ 19881
100 19872
bes@@ 19869
31 19866
temel 19857
malar 19844
sonraki 19844
Pr@@ 19838
beraber 19813
lük 19813
sonuç@@ 19813
Hay@@ 19810
ladı 19802
ent@@ 19799
yet 19794
uluslararası 19741
giy@@ 19728
fil@@ 19708
arası 19697
NGC 19696
başkanı 19669
Azerbaycan 19667
kaldır@@ 19643
dır@@ 19640
elik 19622
örü 19608
kaldı 19588
eli@@ 19576
atik 19568
dol@@ 19560
g 19556
ük 19549
çal@@ 19548
ırken 19543
durum@@ 19537
orta 19499
köydür 19488
asyonu 19478
dönüş@@ 19478
ğini 19478
beş 19466
futbolcudur 19442
lendir@@ 19442
ret@@ 19412
Parti 19406
yayım@@ 19376
Her@@ 19371
ifade 19361
albümü 19360
araştır@@ 19343
ıl 19340
anc@@ 19327
Sovyet 19326
tu 19307
ici 19289
yine 19274
lat@@ 19262
aca 19256
inc@@ 19251
filmi 19241
Ma@@ 19227
bulunduğu 19223
boy@@ 19216
lad@@ 19209
oranı 19172
iç 19138
İyi 19128
mez@@ 19112
x 19112
î@@ 19112
erin 19078
geniş 19072
sel@@ 19066
Şampiyonası 19054
Afrika 19038
ran@@ 19008
Ab@@ 18984
ata 18980
geçen 18973
mam@@ 18947
oyn@@ 18927
çı 18916
şampiyon@@ 18905
of@@ 18889
amp 18883
ıma 18882
tır 18875
ilçe 18871
ari 18853
karar@@ 18850
yerel 18850
düzenlenen 18837
D 18810
biridir 18809
dayan@@ 18809
gul@@ 18795
Par@@ 18788
han 18777
uc@@ 18762
leştir@@ 18757
Paris 18737
siz@@ 18720
eti@@ 18706
bilin@@ 18695
değer@@ 18672
din 18662
Kat@@ 18646
mesiyle 18646
County 18599
biy@@ 18598
ks@@ 18596
lığını 18588
olay@@ 18574
proj@@ 18568
siyasi 18568
kullanılır 18554
oc@@ 18547
lay@@ 18545
üyesi 18494
van 18458
be 18457
zaman@@ 18447
th@@ 18389
ta@@ 18385
Kır@@ 18371
Devlet 18364
ydi 18356
lanır 18351
düğü 18310
oğ@@ 18299
inan@@ 18297
lu@@ 18288
Sal@@ 18287
burada 18278
resmi 18272
yıllarda 18261
formula 18243
uyar@@ 18243
İran 18212
Sh@@ 18197
eng@@ 18193
transfer 18188
edi@@ 18185
izin 18152
gol 18147
lenmiştir 18143
pe@@ 18121
Ger@@ 18088
cin@@ 18070
Te@@ 18057
masından 18054
herhangi 18038
sayıda 17980
vardı 17979
içerisinde 17974
1999 17943
eceğini 17930
gazet@@ 17873
ova 17833
erkek 17829
sol@@ 17816
kav@@ 17799
mıştı 17796
Bel@@ 17755
yıllık 17695
uğ@@ 17690
layan 17683
oynadı 17671
asker@@ 17668
acağı 17667
ins@@ 17655
grubu 17648
sezonu 17640
Nüfus 17636
1980 17627
liğini 17608
K 17593
Ne@@ 17579
hareket@@ 17579
ef@@ 17574
okul@@ 17571
televizyon 17571
Am@@ 17566
pi@@ 17530
Bey 17508
sistemi 17502
St@@ 17496
İngilizce 17483
landır@@ 17482
Sin@@ 17479
bütün 17479
anlamına 17467
haline 17467
MÖ 17422
c 17407
birleş@@ 17395
rom@@ 17395
I 17388
yum@@ 17385
laştır@@ 17378
ecek@@ 17371
larıyla 17371
Per@@ 17365
suç@@ 17357
sk@@ 17328
id 17314
cu 17309
küt@@ 17306
ken@@ 17301
dağ@@ 17300
ize 17296
ünlü 17285
yöntem@@ 17273
Fakat 17269
mal@@ 17263
Doğ@@ 17250
yaşayan 17232
uş 17231
Diğer 17219
may@@ 17219
enc@@ 17207
eği 17204
öldü 17181
kuzey@@ 17175
yakın@@ 17175
Su@@ 17167
başarılı 17163
derg@@ 17132
mücadele 17120
komut@@ 17103
yanında 17087
amı 17061
alm@@ 17054
güney@@ 17041
sürdür@@ 17037
ıştı 17026
Tak@@ 17018
nı 17014
ge@@ 17005
genç 16986
girdi 16984
Mısır 16974
Ev@@ 16972
esinden 16951
maçta 16941
halk@@ 16936
Av@@ 16934
elerinde 16933
ül 16933
çocuk@@ 16931
ederek 16927
Mer@@ 16918
acağını 16909
çağ@@ 16905
mo@@ 16904
ve@@ 16904
andır@@ 16902
olabilir 16902
ord@@ 16889
uv@@ 16889
za 16862
elerinin 16846
mut@@ 16845
sık@@ 16839
ba@@ 16836
û@@ 16833
başlayan 16830
karş@@ 16830
ısında 16827
madan 16822
forma 16819
makta 16815
ilan 16809
dizi 16796
oldukça 16765
müş 16751
çalıştı 16750
yılına 16745
sahibi 16740
karşıl@@ 16727
Le@@ 16726
zi 16722
mey@@ 16720
başına 16711
konusunda 16707
yüzyılda 16702
mez 16699
vur@@ 16699
lak 16696
ley@@ 16683
eyaletinde 16665
rak@@ 16661
ilmesi 16651
yazar@@ 16647
çalışmalar@@ 16643
teknik 16636
iken 16615
öldür@@ 16612
İs@@ 16610
edilmiş 16598
mağ@@ 16598
fi 16594
masında 16574
değil 16573
1998 16572
ısını 16553
1992 16541
De@@ 16538
bunun 16531
val@@ 16518
taki 16506
Ağ@@ 16497
ağ 16472
çocuk 16470
sosyal 16465
görül@@ 16462
yarı 16450
sit@@ 16448
mekte 16440
14@@ 16437
fır@@ 16430
parti@@ 16417
lidir 16390
diye 16387
meden 16382
T 16379
metre 16368
ülke 16336
tas@@ 16334
İkinci 16334
50 16322
günü 16321
sil@@ 16319
Tar@@ 16317
luk@@ 16317
evi 16315
imler 16312
zam@@ 16305
land@@ 16302
tespit 16302
tığı 16286
İspanya 16273
ısına 16264
yürüt@@ 16249
to 16248
hizmet@@ 16245
dür 16237
dış@@ 16223
geçti 16222
başlat@@ 16218
best@@ 16201
Tek@@ 16199
j 16198
kend@@ 16198
türü 16192
yağ@@ 16192
has@@ 16174
şehir@@ 16166
deniz 16151
bey@@ 16145
ch@@ 16137
kuruluş@@ 16135
iri 16126
dönem 16092
Ber@@ 16081
belediye 16056
ks 16054
elerini 16048
kâ@@ 16037
tartış@@ 16030
Yap@@ 16024
15@@ 16020
Kö@@ 16020
Bal@@ 16014
öğrenc@@ 16001
uğr@@ 15993
ul 15989
ge 15988
veren 15988
kü@@ 15987
ers 15984
Pol@@ 15983
ağır@@ 15970
ılarak 15940
Sel@@ 15939
malar@@ 15938
sev@@ 15925
isine 15908
Me@@ 15907
amacıyla 15903
P 15883
hiçbir 15879
Hak@@ 15871
ent 15871
aba 15870
ledi 15869
ice 15864
canlandır@@ 15847
fa@@ 15847
hu@@ 15847
adet 15828
başlamıştır 15825
dav@@ 15803
Ol@@ 15801
sız 15790
aç 15783
sa@@ 15783
etti@@ 15761
söz 15761
sonucunda 15745
ren@@ 15721
kam@@ 15714
Bakanlığı 15712
alarda 15704
güçlü 15704
Japonya 15675
yazar 15665
dar 15655
Em@@ 15647
akt@@ 15629
1996 15627
Böl@@ 15623
lis@@ 15617
ter 15609
ön 15598
S 15587
Bo@@ 15586
tik@@ 15580
Bay@@ 15560
albüm 15559
diğ@@ 15558
eceği 15557
ndan 15527
benzer 15526
giriş@@ 15520
1991 15506
1994 15493
1995 15484
ğ 15480
asıyla 15479
hareket 15472
ımc@@ 15472
Fakültesi 15458
ılığı 15458
fe@@ 15452
sız@@ 15451
eh@@ 15445
1993 15434
1997 15430
Tan@@ 15422
etkin@@ 15420
hava 15417
erken 15411
açıklam@@ 15385
Der@@ 15382
doğu 15378
ismi 15377
hizmet 15372
yana 15357
değildir 15346
kent@@ 15339
alarında 15337
ucu 15325
yaygın 15325
yayınlanan 15324
siyon 15322
ho@@ 15305
özellik@@ 15295
ülkenin 15292
alanı 15285
şehrin 15277
familyasına 15267
alık 15266
Oy 15263
Yunan 15263
başında 15258
kent 15252
lem 15217
sona 15216
yık@@ 15213
ebilir 15212
önceki 15195
Yak@@ 15191
iğ@@ 15183
yani 15182
Ter@@ 15181
birbir@@ 15158
iller 15151
iliği 15134
Brezilya 15114
ular@@ 15103
Th@@ 15089
mezun 15080
ortak 15069
ınca 15067
batı 15048
bağlant@@ 15042
ano 15040
etmektedir 15038
ari@@ 15034
suz 15033
1970 15031
TV 15014
parçası 15009
bilim 15005
pol@@ 15004
Mal@@ 14997
1.@@ 14992
bildir@@ 14988
At@@ 14984
İsrail 14973
ze@@ 14971
teor@@ 14963
iddia 14956
şeklinde 14936
Mah@@ 14933
oyun 14918
uzun@@ 14918
Car@@ 14917
ham@@ 14908
ödül@@ 14870
uygun 14854
ses@@ 14841
seçildi 14841
Sultan 14840
bilgi 14835
kitap@@ 14834
tamamen 14812
bulundu 14808
meydana 14797
ane 14790
Asya 14785
sağlam@@ 14785
fer@@ 14784
Son 14771
kuş@@ 14764
nedenle 14762
şirket@@ 14757
yesi 14754
yu 14752
ene 14743
adır 14741
ite 14740
İzmir 14739
ğin 14718
iştir 14712
izm 14704
ilere 14692
Br@@ 14675
ai 14660
ie 14660
Kr@@ 14658
Bazı 14655
ayak@@ 14647
are 14629
içeren 14626
yalnızca 14617
kuvvet@@ 14616
Kay@@ 14613
Suriye 14606
üs 14601
br 14593
tic@@ 14580
Dev@@ 14565
olabil@@ 14553
1960 14537
10@@ 14519
ayrı 14508
diler 14506
40 14493
istem@@ 14479
elerde 14473
seçim@@ 14473
sonrasında 14473
tor@@ 14472
kir@@ 14467
bölgeler@@ 14426
cm 14420
babası 14408
Eski 14402
gerçekleş@@ 14394
teş@@ 14394
ulusal 14374
Kaz@@ 14370
Ver@@ 14360
turnuv@@ 14360
ann@@ 14357
deney@@ 14356
X@@ 14347
güven@@ 14343
Kaliforniya 14320
adaki 14319
halk 14318
emi 14306
alarını 14301
undaki 14296
Bizans 14281
Londra 14277
ıyı 14270
eler@@ 14265
model@@ 14255
Mu@@ 14251
elerine 14249
önem@@ 14244
kelim@@ 14237
ladığı 14233
mev@@ 14214
üyle 14203
İslam 14201
başl@@ 14200
listesi 14188
üş 14148
elem@@ 14144
Nehri 14136
ley 14133
aday 14122
Bak@@ 14110
Mehmet 14110
lemek 14104
seslendir@@ 14100
üğ@@ 14100
² 14095
ansı 14081
yard@@ 14078
alarak 14075
yüzyılın 14075
bölges@@ 14070
etin 14070
X 14068
bilg@@ 14068
esiyle 14065
ilerine 14056
dil 14055
idae 14055
manı 14055
çarp@@ 14054
ürün@@ 14054
kitab@@ 14050
üzerinden 14029
any@@ 14026
konum@@ 14009
piyasaya 13989
ide 13983
lider@@ 13982
ekonomik 13973
Yıl@@ 13955
yaklaş@@ 13946
la@@ 13930
Sez@@ 13928
bile 13918
mac@@ 13916
Japon 13913
lig@@ 13907
lardı 13896
aman 13891
yerini 13891
lenir 13882
meyen 13875
öğ@@ 13859
ıklı 13856
kı 13848
düşük 13842
Başkanı 13839
İki 13838
aktadır 13829
sık 13825
ındadır 13821
ğinde 13817
Ko@@ 13795
kardeşi 13784
yüksek@@ 13784
Do@@ 13774
İtalyan 13774
cez@@ 13768
ire 13767
uğu 13767
gerçek 13766
ette 13758
-@@ 13757
hap@@ 13716
üt@@ 13715
tur 13704
yalı 13700
boş@@ 13695
Ön@@ 13694
Kap@@ 13687
hâ@@ 13682
L 13679
kleri 13646
Rom@@ 13639
Sa@@ 13638
kül@@ 13634
mü@@ 13581
Mustafa 13579
Futbol 13578
uzak@@ 13570
İz@@ 13568
E 13564
Bah@@ 13559
uldu 13543
asa 13539
ısının 13539
Krallık 13538
br@@ 13535
yonu 13533
+ 13532
bağımsız 13526
kontrol 13510
yayınlandı 13508
M 13501
ens@@ 13500
başı 13496
esidir 13490
otom@@ 13472
Gir@@ 13467
bölgesinde 13449
derec@@ 13448
mec@@ 13440
bah@@ 13431
yardım 13427
alar@@ 13424
verildi 13421
Sam@@ 13399
iyordu 13396
profesyonel 13395
Polonya 13374
inç 13372
lanması 13361
ılmaktadır 13351
ha 13349
şi 13341
Millî 13313
öner@@ 13304
Ül@@ 13302
yn@@ 13297
Şir@@ 13293
ığ@@ 13271
bü@@ 13270
mada 13266
1989 13258
gol@@ 13254
eyalet@@ 13252
Avusturya 13249
sonrası 13248
Yar@@ 13244
kendisine 13242
x@@ 13242
lan 13241
olmasına 13239
soy@@ 13237
rir 13234
ümü 13228
13@@ 13222
ilg@@ 13221
birliği 13206
ışık 13203
Siy@@ 13202
gez@@ 13195
ha@@ 13191
ya@@ 13191
serbest 13181
alarının 13179
çiz@@ 13177
yok@@ 13176
kariyerine 13174
ayır@@ 13151
Mes@@ 13149
hat@@ 13149
bölge 13128
bilinir 13127
liğinde 13125
tip 13115
kı@@ 13101
adam@@ 13094
meleri 13088
doğal 13078
sürec@@ 13078
kurulmuştur 13073
Yahudi 13066
amaç@@ 13064
El 13062
dağıl@@ 13059
yönünde 13055
ıf@@ 13054
hale 13049
sürül@@ 13049
yapt@@ 13043
Arap 13042
birinci 13034
up 13033
Kom@@ 13032
dek 13027
bilim@@ 13023
tanıt@@ 13006
kısmı 12988
arlar 12985
Örneğin 12985
inci 12981
yolu 12981
yardımcı 12971
modern 12970
şey@@ 12959
maktaydı 12952
Dem@@ 12950
Sen@@ 12936
aka 12929
U 12928
fi@@ 12928
Eurovision 12921
altına 12909
başlam@@ 12893
Hav@@ 12882
han@@ 12881
arkadaş@@ 12874
şehr@@ 12873
bölümü 12872
ten@@ 12872
R 12855
ald@@ 12854
Türkçe 12850
0@@ 12834
Sovyetler 12823
ulan 12805
dünyanın 12803
yapıldı 12801
fin@@ 12783
F 12778
kuruldu 12778
yorum@@ 12761
def@@ 12756
durum 12744
eri@@ 12743
verdiği 12739
adlandır@@ 12738
maçında 12732
ınt@@ 12720
başlar 12714
nes@@ 12700
video 12697
oran@@ 12695
iliş@@ 12691
iydi 12682
Buna 12669
üğü 12669
fe 12661
Merkezi 12658
Yüksek 12658
günümüzde 12654
lerdir 12640
ig@@ 12638
tekn@@ 12633
maç 12629
oluşur 12628
ekonom@@ 12622
att@@ 12603
süre@@ 12601
yum 12596
Yunanistan 12593
çalışan 12589
og@@ 12577
emek@@ 12575
gar@@ 12570
olsa 12565
tep@@ 12549
bol@@ 12546
tav@@ 12544
San@@ 12540
Müzik 12537
altın 12512
tarihli 12511
kalm@@ 12509
değ@@ 12502
hızlı 12499
12@@ 12496
bun@@ 12484
hüküm@@ 12482
dal@@ 12480
yazıl@@ 12460
ate 12454
yok 12450
bunu 12444
sanat 12443
saat 12428
cu@@ 12426
paylaş@@ 12419
iyor 12410
çatış@@ 12404
satın 12396
Gün@@ 12387
kri@@ 12383
devlet@@ 12380
defa 12378
dikten 12376
ence 12366
ed 12354
adına 12326
olmuş 12316
ort@@ 12316
can@@ 12309
Tem@@ 12308
uyla 12307
Halk 12305
Es@@ 12303
Toplam 12301
2.@@ 12293
yönetim 12293
ilerinin 12287
üretil@@ 12257
arın 12246
let@@ 12232
enen 12231
Mad@@ 12230
Mor@@ 12226
Avustralya 12224
alam@@ 12221
ıç@@ 12205
birlik@@ 12203
diğinde 12191
kızı 12191
mesinden 12177
Ham@@ 12174
ağır 12166
ika 12166
1988 12148
beyaz 12145
baş 12138
ot 12129
yapı 12128
mon@@ 12120
İk@@ 12119
Yen@@ 12117
ker@@ 12115
yapılmıştır 12109
iline 12105
etik 12095
ala 12094
ses 12091
alanında 12090
içi 12089
korum@@ 12089
Val@@ 12047
FC 12032
imini 12032
kavram@@ 12022
if 12013
all@@ 12008
lendi 11984
Ödülleri 11976
hafta 11975
Fenerbahçe 11974
çalışmaları 11972
ölç@@ 11971
ğine 11971
sözc@@ 11965
yönelik 11963
Has@@ 11961
olu 11959
ep@@ 11954
uyordu 11949
ila 11941
irken 11941
öne 11939
minin 11938
verir 11936
eki 11933
On@@ 11931
zorunda 11931
Han@@ 11930
kız 11908
und@@ 11906
kurum@@ 11902
sebe@@ 11900
do 11898
miş@@ 11895
? 11894
içerir 11891
yenil@@ 11886
ordusu 11883
faaliyet@@ 11877
Mel@@ 11873
alarına 11864
ing@@ 11849
şehri 11844
cel@@ 11837
Vol@@ 11834
Merkez 11832
arg@@ 11832
edir 11824
1987 11823
bileş@@ 11820
nit@@ 11819
tepe 11818
çevir@@ 11815
yıldız@@ 11814
lığına 11805
ülke@@ 11801
don@@ 11797
Bununla 11794
ph@@ 11794
ordu 11783
elinde 11777
cumhur@@ 11772
Mek@@ 11766
ıklar 11764
ji 11762
yeri 11759
dair 11750
anan 11749
Galatasaray 11748
To@@ 11733
tesi 11730
güç 11728
dis@@ 11724
eci 11719
kadın@@ 11719
ilerek 11718
Say@@ 11701
üd@@ 11701
orum 11699
yük@@ 11698
dağıt@@ 11694
kın 11690
Kanada 11688
yapmış 11685
felse@@ 11684
tör@@ 11679
Yarışması 11674
lardır 11668
aj 11660
kurtar@@ 11649
mesinin 11648
aşam@@ 11645
taşın@@ 11643
ılara 11642
değerlendir@@ 11639
Yay@@ 11625
1928 11617
Son@@ 11615
Bey@@ 11610
Seç@@ 11603
red@@ 11603
bölüm 11596
üret@@ 11596
spor@@ 11593
Gal@@ 11589
Mez@@ 11589
Hayatı 11579
kontrol@@ 11578
yılının 11578
III 11569
para 11554
uları 11549
onları 11533
San 11527
Gr@@ 11520
gözlem@@ 11519
üzerindeki 11519
sinema 11516
Ukrayna 11515
lenmiş 11515
G 11513
motor@@ 11512
ba 11510
Grup 11502
land 11493
öldürül@@ 11493
Kıbrıs 11490
Kad@@ 11486
kamp@@ 11483
anlık 11482
oy 11478
Muh@@ 11462
başkenti 11462
şarkıcı 11458
döndü 11457
sıcak@@ 11457
Kore 11449
ass@@ 11448
kop@@ 11446
yüzyıl 11439
1986 11426
dünyaya 11424
Az@@ 11414
Yahud@@ 11414
müş@@ 11414
hız@@ 11413
andığı 11399
İsk@@ 11398
V 11390
kasab@@ 11378
sergil@@ 11377
performans@@ 11375
tanr@@ 11375
karşısında 11369
çoğ@@ 11361
boş 11355
kendini 11349
erini 11345
kişinin 11328
Köyün 11326
geleneksel 11318
Mon@@ 11306
belirli 11301
örgüt@@ 11301
era 11298
şim@@ 11296
söyledi 11295
kültür@@ 11292
des@@ 11285
lamıştır 11284
şe 11284
2@@ 11281
çünkü 11281
aliz@@ 11277
sh@@ 11276
eyen 11273
1950 11270
tipi 11268
sayesinde 11259
andır 11256
gerçek@@ 11254
yoğun@@ 11254
kıl@@ 11247
Hol@@ 11234
sezon@@ 11234
tri@@ 11233
ığına 11231
acaktır 11230
isidir 11227
menin 11217
çift@@ 11213
aktif 11210
edilmektedir 11210
fre@@ 11206
sahi@@ 11205
yazarı 11205
Ordu 11202
artık 11194
indir@@ 11189
imparator@@ 11185
imz@@ 11182
Muhammed 11178
alara 11178
Gen@@ 11177
Şehir 11172
sayı 11164
yayın 11159
taş 11157
elli 11154
yo 11154
Bol@@ 11151
Hindistan 11139
üstü 11138
liğe 11136
He@@ 11130
Hollanda 11120
Kit@@ 11120
İsveç 11119
dış 11117
kurdu 11115
w@@ 11113
dikleri 11109
üniversit@@ 11095
kayıt@@ 11092
60 11088
aras@@ 11087
enerji 11087
konu 11081
harek@@ 11080
ıştır@@ 11079
Han 11077
işlet@@ 11071
galaksidir 11061
iv@@ 11041
tır@@ 11031
William 11027
anti@@ 11018
uygulan@@ 11018
med@@ 11017
1984 11016
ill@@ 11005
senar@@ 11004
ece 10999
eriş@@ 10984
Süper 10982
kardeş@@ 10979
aat 10978
bitir@@ 10975
Devleti 10974
kaybet@@ 10963
ığın 10963
Burada 10962
araç@@ 10960
şehirdir 10956
no@@ 10949
mişlerdir 10943
va 10943
kut@@ 10941
elen@@ 10937
boyut@@ 10936
ez 10936
organ@@ 10931
Gü@@ 10930
Savaş@@ 10929
ang@@ 10926
maçı 10917
met 10917
tutuk@@ 10913
bor@@ 10906
destek 10900
Windows 10890
işle@@ 10890
adığı 10888
tif@@ 10878
Res@@ 10869
Gürcistan 10867
bölge@@ 10861
lis 10857
ok 10856
mit@@ 10853
şarkısı 10852
Mir@@ 10849
single 10846
indedir 10845
ilinde 10842
yerleşim 10842
ino 10838
özg@@ 10838
mel@@ 10829
hiç 10827
yazdığı 10826
â 10826
şey 10824
tar 10820
2. 10817
ce@@ 10817
UEFA 10814
yönetic@@ 10812
1985 10801
idari 10799
biçim@@ 10797
mahall@@ 10789
takip 10789
inti@@ 10786
korun@@ 10785
90 10778
ayarak 10770
larındaki 10767
İmparator@@ 10765
Bul@@ 10751
Sanat@@ 10746
cinstir 10745
ımcı 10737
Böylece 10730
ölçüde 10730
ündeki 10726
1982 10718
kuzey 10718
sürekli 10718
siy@@ 10708
Yaş@@ 10707
yoktur 10705
kazanmıştır 10689
lılar 10688
başkanlığı 10674
deniz@@ 10674
ziy@@ 10674
kazanan 10668
sos@@ 10667
tarihleri 10667
oloj@@ 10662
maz@@ 10652
Tarihi 10645
etmeye 10644
gaz@@ 10643
arş@@ 10641
sahn@@ 10640
final 10639
cı 10633
dışı 10628
politik@@ 10628
oynanan 10627
ens 10624
çalışma 10622
kara 10620
tes@@ 10620
Deniz 10614
for@@ 10611
inş@@ 10609
anlı 10608
dö@@ 10608
So@@ 10604
bölgede 10597
ati 10596
Mc@@ 10593
adında 10592
ket 10588
tiy@@ 10587
kanal@@ 10582
ölüm@@ 10577
Ahmet 10575
Po@@ 10569
sı@@ 10564
kum@@ 10561
silah@@ 10561
aman@@ 10560
tiyatro 10555
Osman@@ 10551
Ni@@ 10544
ıç 10542
Irak 10541
ben@@ 10540
bö@@ 10540
kın@@ 10538
Fil@@ 10537
Hat@@ 10536
af 10535
cam@@ 10522
göç@@ 10518
aşağıdaki 10514
güney 10514
Yaz@@ 10513
öy 10512
Bab@@ 10500
ard 10499
doğrudan 10489
ılabilir 10489
lamak 10488
Bas@@ 10485
Kul@@ 10485
200 10477
elektr@@ 10475
haf@@ 10466
Cem@@ 10461
kendisi 10459
Eğitim 10458
prot@@ 10458
Mo@@ 10451
kitap 10451
kötü 10445
gösteren 10435
yerleştir@@ 10434
asıdır 10431
ancı 10430
James 10427
... 10426
Yard@@ 10426
ces@@ 10425
let 10418
geçmektedir 10408
ant 10407
bölgel@@ 10407
ind@@ 10407
resmî 10405
Mü@@ 10404
Don@@ 10400
takımına 10395
yazdı 10394
koşul@@ 10389
popüler 10384
hayvan 10382
taşıyan 10377
Sonuçlar 10368
kurulmuş 10366
endi@@ 10364
pleri 10363
3.@@ 10360
Harek@@ 10359
Bölgesi 10356
enler 10342
özel@@ 10330
iyet@@ 10329
zu 10327
1983 10324
Kızıl@@ 10319
çevr@@ 10306
vet 10303
Kurulu 10293
Uz@@ 10290
Özel 10289
ban@@ 10287
elik@@ 10285
dam@@ 10284
Gu@@ 10283
uda 10283
one 10275
anları 10268
her@@ 10264
açıl@@ 10262
sul@@ 10259
görevi 10257
Bor@@ 10255
olan@@ 10252
Üniversit@@ 10247
Kuvvetleri 10246
vol@@ 10244
asından 10222
yoğun 10222
mevcut 10219
Enstitüsü 10199
elektrik 10196
gen 10194
David 10183
seviy@@ 10183
siyon@@ 10183
azi 10177
futbol@@ 10173
sınıf@@ 10167
ımlar 10166
elerinden 10165
lek 10164
dedir 10158
Birinci 10157
Sp@@ 10150
Yer@@ 10138
çekil@@ 10138
kısm@@ 10135
kullanarak 10134
dönemi 10123
Yaz 10120
Berlin 10114
Ermeni 10104
medi 10102
otur@@ 10099
dok@@ 10098
yo@@ 10098
Mat@@ 10097
batısında 10097
gelmiştir 10090
Şehrin 10077
Ro@@ 10073
sab@@ 10072
yedi 10069
işi 10063
ell@@ 10055
rim@@ 10052
dah@@ 10051
yetiş@@ 10050
halinde 10046
kin@@ 10043
ortam@@ 10040
Cor@@ 10038
‘ 10037
Fer@@ 10035
psik@@ 10035
yılındaki 10034
çö@@ 10031
uygul@@ 10030
yası 10030
eşi 10017
insan@@ 10016
ask@@ 10015
Bakanı 10010
ku 10007
lilik 10005
etmiş 9997
haz@@ 9988
Cumhuriyet 9984
hedef@@ 9983
yaşam 9981
Altın 9980
rad@@ 9980
19. 9977
Co@@ 9976
ilçesinde 9972
çıkmıştır 9972
bölgesi 9962
Moskova 9955
süren 9949
kendisini 9944
top@@ 9940
aktar@@ 9939
oluşturul@@ 9936
enti@@ 9923
gelen@@ 9921
yordu 9921
Var@@ 9915
hak 9907
Pro@@ 9905
lek@@ 9903
Kas@@ 9901
Profesyonel 9901
80 9896
trik 9896
vir@@ 9894
liğine 9893
nu 9893
Si@@ 9884
güc@@ 9884
van@@ 9882
etkisi 9870
çesi 9868
ilik@@ 9867
keşf@@ 9865
toplan@@ 9863
yüzyıl@@ 9860
araştırma 9858
sorun@@ 9858
sem@@ 9845
aret@@ 9843
Beyaz 9842
om 9835
çift 9833
Başkanlığı 9827
donan@@ 9827
lak@@ 9820
ıtı 9819
Ku@@ 9815
final@@ 9815
madalya 9814
Mak@@ 9812
hesap@@ 9810
rec@@ 9810
çı@@ 9800
dr@@ 9795
grubun 9795
bitki 9793
asındaki 9788
1979 9787
akadem@@ 9786
eliği 9786
şah@@ 9786
kayb@@ 9784
sırasıyla 9778
sek@@ 9772
Festivali 9769
Dar@@ 9768
net 9755
sefer@@ 9750
atr@@ 9742
Kariyeri 9741
ayet 9737
Okulu 9736
sav@@ 9736
Şark@@ 9735
Alt@@ 9733
uştur@@ 9733
Can@@ 9727
bay@@ 9725
Sab@@ 9723
söylem@@ 9715
hir 9713
açısından 9709
masıdır 9702
kilis@@ 9698
Belediye 9683
kullanılmaktadır 9683
kişilik 9682
çisi 9670
bazen 9668
35 9667
elere 9666
amam@@ 9664
zar@@ 9657
pu@@ 9656
Michael 9651
vaz@@ 9643
fiz@@ 9639
şirketi 9638
H 9633
N 9633
nasıl 9632
grupl@@ 9629
Olimpiyatları 9625
karış@@ 9625
birleştir@@ 9624
dağ 9621
gösterir 9621
mis@@ 9613
kesin 9611
bağımsız@@ 9604
45 9601
1981 9593
yg@@ 9593
İç@@ 9591
antik 9583
meler 9582
oynam@@ 9581
doğusunda 9576
desi 9575
sap@@ 9574
kaf@@ 9573
La 9572
yla 9570
Müslüman 9563
dördüncü 9560
est@@ 9556
ifad@@ 9556
bilimsel 9554
hayvan@@ 9554
fir@@ 9551
cihaz@@ 9548
eğitimi 9548
urlar 9548
mahalle 9544
Geç@@ 9533
alındı 9533
Ge@@ 9525
kayıtlarında 9522
tis@@ 9512
ımını 9512
açıkladı 9500
gec@@ 9500
ıld@@ 9500
Tat@@ 9499
göç 9496
70 9490
annesi 9490
rast@@ 9490
gal@@ 9483
çev@@ 9479
şehrinde 9479
oyunu 9474
Kral 9471
kullanılmıştır 9471
meni 9465
Ordusu 9462
arab@@ 9461
yapmaktadır 9459
ko 9458
yapmak 9456
böylece 9455
oper@@ 9449
çevres@@ 9449
sen 9444
üye 9438
lediği 9435
belirt@@ 9426
ena 9426
verilmiştir 9424
vak@@ 9410
bulunmuştur 9407
Krallığı 9404
mil@@ 9402
siyas@@ 9402
3. 9400
örnek@@ 9394
1974 9392
Gel@@ 9391
isim 9391
üretilen 9390
ografi 9386
aklı 9385
ecektir 9382
Yaşamı 9379
üf@@ 9379
öncesi 9378
etkili 9375
bölümünde 9369
nokt@@ 9368
müzik@@ 9365
serv@@ 9362
buna 9344
yabancı 9344
gelmektedir 9333
hayatını 9332
ilişkil@@ 9332
lisi 9332
iddi@@ 9330
yoluyla 9329
takımyıldızı 9327
1978 9313
mat@@ 9313
Grubu 9307
minde 9307
profes@@ 9306
toplum@@ 9306
ağa 9304
yıldız 9298
stüdyo 9290
sik@@ 9285
Günümüzde 9283
Öl@@ 9281
ilgi 9280
nok@@ 9271
Spor 9270
Mus@@ 9266
muh@@ 9263
tarz@@ 9262
lul@@ 9254
1945 9252
Hava 9250
dür@@ 9248
neredeyse 9246
Albüm@@ 9245
oku@@ 9245
fark@@ 9244
min 9242
ıf 9239
Lisesi 9234
Cen@@ 9232
Bağ@@ 9230
Akdeniz 9227
ch 9227
aci@@ 9225
malzem@@ 9224
sahne 9221
çaplı 9219
uyor 9217
his@@ 9208
Bat@@ 9205
konusu 9205
Oy@@ 9193
Rus@@ 9192
dini 9191
ora 9187
str@@ 9183
ılığ@@ 9180
aile 9179
tarih 9176
kapat@@ 9173
onya 9171
Sad@@ 9167
In@@ 9166
mim@@ 9166
kitabı 9161
medi@@ 9155
Savaş 9142
parti 9136
lanmaktadır 9134
gu 9130
göl@@ 9124
çocuğu 9122
geçirdi 9119
mal 9119
Con@@ 9118
Robert 9118
kullanıc@@ 9101
hab@@ 9100
mücadel@@ 9094
500 9093
yasa 9091
tane 9090
1973 9088
Ah@@ 9083
Dur@@ 9082
görevini 9080
terk 9080
1968 9078
Beşiktaş 9073
Str@@ 9072
azar 9071
nün 9071
siyasetçi 9057
çoğunlukla 9053
dizisi 9052
telef@@ 9048
ımcısı 9045
ığından 9041
arkadaşı 9038
futbolcu 9034
madı 9032
fl@@ 9026
Kemal 9021
acak@@ 9021
ğe 9021
doğrul@@ 9018
kentinde 9018
arken 9016
eller 9016
Müz@@ 9008
finalde 9007
dikkat 9003
yüzden 9003
işgal 8998
aller 8996
ıdan 8992
çeş@@ 8988
sınırları 8986
yetiştir@@ 8985
malı 8984
1972 8980
FIFA 8979
almış 8979
ettir@@ 8978
Mil@@ 8972
tec@@ 8963
1975 8955
başlad@@ 8955
dili 8947
ğr@@ 8943
göz 8939
vermiştir 8938
hayatı 8931
tamamladı 8930
ılarını 8929
zay@@ 8925
ımları 8923
bölgesine 8920
metr@@ 8920
32 8919
Tel@@ 8916
Kara 8915
Britanya 8911
filmin 8904
keşfedilmiştir 8904
lığa 8903
gitti 8902
üyeleri 8901
ilçesi 8900
seçim 8900
Hristiyan 8893
Bursa 8889
faz@@ 8881
4.@@ 8879
cinsel 8877
aşı 8876
lanma 8876
araya 8873
ıldığı 8872
kapsam@@ 8870
nü 8868
isi@@ 8867
değer 8865
elerden 8865
giren 8864
görülür 8862
Rad@@ 8861
ortalama 8861
nam@@ 8860
ndeki 8858
ma@@ 8857
Na@@ 8856
canlı 8856
milletvekili 8854
Küçük 8847
1977 8843
ısıyla 8839
yöneti@@ 8829
Gör@@ 8826
Tarih 8826
1920 8820
grub@@ 8820
hayat@@ 8816
keş@@ 8812
lig 8807
yapılmış 8805
başlarında 8791
° 8790
aceae 8787
Macaristan 8786
beledi@@ 8785
sağlar 8780
Demir@@ 8777
eceğ@@ 8776
hala 8775
sağlayan 8774
bab@@ 8768
George 8764
kırmızı 8761
ub@@ 8757
seçimleri 8756
durumu 8753
alınan 8746
çiler 8745
ikti@@ 8744
idar@@ 8741
takımında 8738
içindeki 8731
yayımlanan 8730
Sanat 8723
bay 8723
Muharebesi 8719
Mac@@ 8718
yönetimi 8714
unları 8710
ışt@@ 8707
düzey@@ 8706
Lo@@ 8705
aklar 8705
Mur@@ 8703
ro 8702
ai@@ 8699
Bu@@ 8698
istedi@@ 8694
ys@@ 8690
tal 8688
can 8685
ders@@ 8685
indi@@ 8685
toplant@@ 8684
kökenli 8683
lerce 8683
sevi@@ 8677
başta 8671
1976 8668
olmam@@ 8668
Mas@@ 8663
Meclisi 8663
ae 8663
sanatçı 8655
mevcuttur 8650
İsviçre 8650
Kulüp 8649
başlang@@ 8649
mm 8649
düny@@ 8645
baz@@ 8641
saat@@ 8635
Tab@@ 8630
ilerini 8627
ica 8619
bölün@@ 8616
şar@@ 8616
Sch@@ 8615
ond@@ 8608
Med@@ 8607
yaşadığı 8603
Kültür 8601
dük@@ 8593
düğ@@ 8593
lenmesi 8593
Tay@@ 8590
sol 8588
Dol@@ 8586
mayan 8584
Güneş 8570
Özellikle 8564
kit@@ 8558
onların 8556
Bi@@ 8554
Rum@@ 8550
vatandaş@@ 8550
izi 8548
andan 8546
Dr. 8540
çağr@@ 8540
olmadığı 8536
Tüm 8531
ilişk@@ 8529
işleri 8528
düzenlem@@ 8526
endir@@ 8523
coğr@@ 8521
1969 8520
pler@@ 8520
ts@@ 8520
Kir@@ 8519
Kadın 8517
merkez 8515
Cam@@ 8513
Derneği 8513
ish@@ 8510
puan 8510
nak@@ 8509
pler 8501
imli 8500
lıdır 8498
air@@ 8497
düşünül@@ 8497
ita 8497
duvar@@ 8495
tercih 8494
Haz@@ 8493
Müzesi 8493
laması 8492
1971 8491
ham 8482
çıkar 8477
5.@@ 8476
Yas@@ 8475
kaya 8471
Gül@@ 8470
içine 8470
toplul@@ 8463
yarar@@ 8463
okulu 8461
çab@@ 8461
Şampiyon@@ 8456
eyal@@ 8454
ver 8454
oynadığı 8453
na@@ 8450
per 8449
diş@@ 8448
Akademisi 8441
kurtul@@ 8438
ese 8436
çapında 8434
dakik@@ 8433
Portekiz 8432
onay@@ 8431
ga 8430
erk@@ 8429
Kayn@@ 8427
rah@@ 8427
2022 8417
Sim@@ 8416
ızı 8416
Sey@@ 8413
atandı 8412
dün@@ 8406
Tun@@ 8400
gu@@ 8400
götür@@ 8396
mektu@@ 8396
kanıt@@ 8394
diren@@ 8392
zi@@ 8389
anik 8387
likler 8386
City 8380
eylem@@ 8377
yetkil@@ 8369
kuşat@@ 8361
hey@@ 8359
üretim 8349
asker 8347
ndaki 8346
normal 8345
kolay@@ 8343
denir 8339
rev@@ 8333
yayınladı 8328
gücü 8324
orijinal 8317
Ti@@ 8313
derece 8305
Q@@ 8304
lı@@ 8303
uf@@ 8302
polis 8300
edilmesi 8298
rim 8298
mekteydi 8295
tahmin 8295
fark 8287
taşımaktadır 8286
makin@@ 8285
ker 8283
isinden 8281
ket@@ 8281
pan@@ 8271
Mem@@ 8265
Tor@@ 8263
Kadınlar 8260
Los 8259
ayrıldı 8259
kah@@ 8259
ateş@@ 8257
göstermektedir 8257
sam@@ 8251
istik 8249
ticari 8247
Gaz@@ 8244
Pe@@ 8243
Sah@@ 8240
enf@@ 8238
çalışt@@ 8237
1967 8232
söyler 8230
aşırı 8228
Taş@@ 8226
ograf@@ 8225
ücü 8223
ira 8222
seri 8222
genç@@ 8215
oyuncusu 8211
azalt@@ 8210
ülkede 8208
Bunlar 8206
dönüştür@@ 8205
eten 8204
yor 8204
devr@@ 8197
hatta 8183
Et@@ 8177
likleri 8174
ner 8169
lim 8168
geçmiş@@ 8166
iyeti 8166
Qu@@ 8164
takımın 8159
Sur@@ 8158
mant@@ 8153
ölmüştür 8151
erine 8150
sağ 8149
Teknik 8148
gördü 8147
Charles 8140
Kilisesi 8140
amadı 8140
ılarının 8139
fonksiyon@@ 8135
anların 8129
dest@@ 8129
bilinmektedir 8123
teri 8117
ori 8115
maddel@@ 8114
açtı 8106
cul@@ 8105
artır@@ 8096
ikler 8096
arka 8094
durumda 8080
por@@ 8078
ihtiy@@ 8075
Sır@@ 8073
ato 8073
Tanrı 8072
Kab@@ 8064
ulu 8064
Gök@@ 8062
dirler 8062
no 8062
Kend@@ 8058
adi 8054
ong 8054
tül@@ 8054
Ur@@ 8048
day@@ 8047
hikâ@@ 8044
fotoğraf@@ 8030
özellikleri 8030
rek 8029
Paul 8028
rel@@ 8028
Ac@@ 8025
kültürel 8024
aday@@ 8020
yaptır@@ 8019
aly@@ 8018
sanat@@ 8016
belli 8015
neden@@ 8012
İlçenin 8012
sebebiyle 8010
ticaret 8010
roman@@ 8009
almak 8007
tro@@ 8006
koş@@ 8002
ret 8001
fer 7998
1930 7990
öz 7989
len 7983
insanların 7979
ıza 7976
kuv@@ 7975
arada 7973
meş@@ 7969
dönemin 7968
Van 7967
şiir@@ 7967
Ama 7966
takımının 7966
ımının 7965
olma 7964
metal 7960
urken 7960
adamı 7956
sınıflandır@@ 7956
yaş 7955
kuzeyinde 7950
Ana 7949
ekler 7949
yerde 7948
aşa 7944
gr@@ 7943
sun 7943
lü@@ 7942
sistem 7942
lev@@ 7940
Min@@ 7929
aracılığıyla 7921
sok@@ 7915
ziyaret 7914
yükseldi 7913
kulübünde 7912
1961 7909
tı@@ 7908
Geçersiz 7904
çekir@@ 7899
örnek 7899
pozisyonunda 7898
Af@@ 7896
kale 7891
pas@@ 7891
yapısı 7891
küm@@ 7888
gece 7887
culuk 7884
astronom 7877
doğum 7876
etler 7871
liğin 7869
yeter@@ 7869
ımında 7867
çalışmalar 7866
Kam@@ 7863
anlay@@ 7863
akları 7862
bağl@@ 7862
pos@@ 7859
yıllar 7859
kendine 7856
müziği 7856
yem@@ 7854
kapasit@@ 7853
nüfusunun 7848
yurt 7848
etme 7847
geçer@@ 7845
Hor@@ 7844
amacı 7844
üz 7842
olduğuna 7838
olmadığını 7837
sekiz 7835
mışlardır 7826
biçimde 7821
Tür@@ 7820
bahse@@ 7814
oluşturan 7813
bek 7808
grup@@ 7807
urt@@ 7806
kontluğunda 7803
Dav@@ 7800
1@@ 7797
Dağ@@ 7792
çu 7789
ilerde 7788
Atatürk 7784
Dün@@ 7784
Hali@@ 7784
teslim 7783
Naz@@ 7781
parish 7781
günlük 7772
civil 7770
kararı 7766
Sak@@ 7765
ges@@ 7761
asal 7760
atör 7759
sı 7754
hiz@@ 7753
pazar@@ 7753
yanın 7751
1965 7750
satış@@ 7750
Yüz@@ 7748
klasik 7748
okul 7745
yür@@ 7744
alanda 7743
attığı 7743
Çok 7742
amb@@ 7733
Kü@@ 7732
doğan 7731
illi 7730
uç 7725
sahipliği 7718
fü@@ 7716
vek@@ 7716
1966 7713
örneğin 7711
dılar 7709
İrlanda 7707
İç 7707
1940 7701
teknoloj@@ 7699
atif 7689
kategor@@ 7687
ört@@ 7682
siyah 7676
mekte@@ 7674
mod@@ 7672
çalışmaya 7670
gin 7668
pal@@ 7665
tutul@@ 7662
vel@@ 7662
ell 7661
durdur@@ 7659
Aday 7656
araz@@ 7649
yere 7642
sağlay@@ 7640
lili@@ 7635
doğr@@ 7632
sey@@ 7629
mimar@@ 7625
lığ@@ 7622
ski 7622
Yine 7614
önceleri 7614
evi@@ 7610
hücrel@@ 7609
öğretim 7608
1964 7605
Nor@@ 7603
Sosyal 7603
kis@@ 7599
müd@@ 7595
lenme 7593
fak@@ 7591
pro@@ 7581
veri 7579
yılda 7577
oluşmaktadır 7573
Oğ@@ 7570
alarından 7569
Büyük@@ 7566
hükümdar@@ 7565
muştu 7564
ettiler 7562
ber 7560
yılın 7556
4. 7553
Türkç@@ 7551
ailesi 7551
by 7550
süreç@@ 7546
zir@@ 7545
asi 7543
ölümünden 7543
20. 7541
fa 7541
tat@@ 7541
Cr@@ 7537
ony@@ 7536
giriş 7533
seçil@@ 7529
Far@@ 7527
karşılık 7527
anlam 7526
bilgisayar 7523
yapmaya 7523
sorum@@ 7521
toprak 7520
ruh@@ 7519
kariyer@@ 7516
enerj@@ 7515
ura 7513
Konseyi 7511
sur@@ 7509
listesinde 7506
üme 7505
etmesi 7503
inde@@ 7501
unla 7499
abilen 7498
yor@@ 7495
iyet 7494
uncu 7493
boğ@@ 7488
dalg@@ 7488
Gru@@ 7485
st 7484
fiziksel 7483
ürü 7482
lıklı 7479
parçal@@ 7477
İspanyol 7477
ore 7476
müzis@@ 7475
kus@@ 7472
elek@@ 7467
General 7465
Trabzon 7465
League 7461
gelebilir 7461
ımıyla 7458
ımına 7456
sağlık 7454
organiz@@ 7452
kaybetti 7450
Oyuncu 7449
kullanımı 7448
tom@@ 7440
kiler 7436
Deniz@@ 7435
zaf@@ 7434
kalmıştır 7433
sivil 7433
Ede@@ 7430
ong@@ 7425
üphan@@ 7422
duyur@@ 7420
insanlar 7420
ras@@ 7417
pop@@ 7415
yüzey@@ 7410
Arapça 7406
ton@@ 7405
türüdür 7403
ep 7400
Ba@@ 7391
Çalış@@ 7391
kahr@@ 7388
yatır@@ 7388
Hasan 7387
diplom@@ 7379
Pl@@ 7375
tre 7374
Is@@ 7368
gerekli 7368
lendiği 7365
Ek@@ 7363
1. 7362
je@@ 7362
aştır@@ 7357
lüğ@@ 7356
bazıları 7355
lardaki 7355
vok@@ 7355
Fin@@ 7354
For@@ 7354
filminde 7354
Meksika 7352
Belçika 7351
güvenlik 7351
yaparak 7349
anlığı 7348
cev@@ 7345
ezi 7345
TBMM 7344
aral@@ 7344
ult@@ 7342
onlar 7339
yazı 7339
atan@@ 7338
şart@@ 7337
1944 7336
ığa 7336
malıdır 7334
ilerden 7333
bakanı 7328
dığını 7328
1963 7323
yayımlandı 7321
filmde 7320
hep@@ 7320
Li@@ 7318
Bulgaristan 7317
ımın 7317
gan@@ 7316
teleskopla 7316
çeşit@@ 7314
Mol@@ 7312
Birçok 7311
oluşturur 7311
ilebilir 7307
lin@@ 7307
landığı 7302
Dönem 7299
Peter 7296
Yal@@ 7296
danış@@ 7296
sonradan 7295
ıncı 7295
ısal 7295
sözleşme 7294
Çek@@ 7290
sebep 7288
öğret@@ 7286
sığ@@ 7284
şirket 7283
io 7282
merkezli 7282
Haç@@ 7280
tüke@@ 7280
ajı 7273
gesel 7271
ıklarını 7269
vil@@ 7268
é 7268
henüz 7267
olduğundan 7263
uru 7260
Karadeniz 7258
engi 7258
oluştuğu 7256
hüc@@ 7255
prak@@ 7253
luğunu 7252
işlev@@ 7248
ceph@@ 7244
birey@@ 7243
Katalog 7242
önc@@ 7238
liğinden 7234
art 7232
rüt@@ 7232
uzay 7229
eline 7223
usunda 7218
aynalı 7214
belirtil@@ 7213
görülen 7212
dolayısıyla 7211
Microsoft 7206
Fransızca 7205
adlandırılan 7204
Ef@@ 7203
yandan 7202
Gökyüzünde 7200
geçer 7196
yüzünden 7195
lin 7191
Karab@@ 7189
ilim@@ 7189
kh@@ 7188
ang 7185
Albüm 7182
Col@@ 7182
tiler 7181
kaynağı 7179
zem@@ 7178
klu 7171
İbrahim 7171
ütte@@ 7169
güneyinde 7165
sub@@ 7163
yapılır 7163
imin 7161
Arjantin 7159
teh@@ 7157
edebiyat@@ 7150
sonlarında 7146
ödül 7146
belirtti 7145
sağladı 7145
erk 7142
tuğ@@ 7142
Dış 7141
akta 7141
zengin 7137
Ir@@ 7134
getirildi 7134
kov@@ 7132
anya 7130
sayılı 7128
Adana 7125
det 7125
parçac@@ 7123
rı 7121
diğer@@ 7119
avi 7117
ıyor@@ 7115
hastan@@ 7111
7.@@ 7110
deş@@ 7110
pa 7108
Efendi 7107
Abdül@@ 7103
alg@@ 7103
Grand 7100
1941 7099
rock 7094
fik 7090
zer@@ 7090
karşın 7089
mümkün 7089
kar 7088
orman@@ 7084
ebe 7080
versiyon@@ 7080
Jean 7078
reddet@@ 7071
6.@@ 7068
maçına 7068
sağlamak 7067
ılar@@ 7066
lim@@ 7064
tedir 7062
Sü@@ 7059
Federasyonu 7058
ikleri 7056
fr@@ 7051
Hukuk 7049
port@@ 7048
büyükl@@ 7047
ciddi 7042
Ardından 7037
anması 7037
enek@@ 7033
Ör@@ 7033
tay@@ 7030
Angeles 7029
aslında 7029
1962 7028
Ke@@ 7028
eğiti@@ 7028
lisans 7027
Ben@@ 7026
önünde 7025
Babası 7024
amay@@ 7022
von 7022
gil@@ 7017
şöyle 7014
Sın@@ 7013
acılık 7009
Şah@@ 7007
metin 7004
pak@@ 7003
Cel@@ 7000
Kralı 7000
iği 7000
kesim@@ 6999
omi 6999
oj@@ 6998
Pat@@ 6996
Bölümü 6994
1959 6993
1956 6989
fiy@@ 6988
inli 6988
Şey@@ 6988
programı 6986
Göz@@ 6985
sın@@ 6982
75 6977
evlendi 6976
haber@@ 6975
Pal@@ 6973
tari@@ 6967
World 6964
sp@@ 6963
bugün 6961
Kl@@ 6959
Uy@@ 6959
ilişkin 6956
afi 6954
rö@@ 6952
kaynak 6950
üp 6948
yavaş 6947
hükûmet 6939
orada 6932
leyici 6931
soğ@@ 6930
Hitler 6929
Kim@@ 6929
kültür 6928
ikisi 6927
NBA 6925
nan 6924
miktar@@ 6919
olacak 6917
olar@@ 6915
sö@@ 6914
ürlüğ@@ 6914
á@@ 6912
neye 6909
Müdürlüğü 6907
Eğer 6898
sıv@@ 6895
yapımc@@ 6895
eseri 6893
Kil@@ 6891
Alman@@ 6888
Dışişleri 6886
yöne@@ 6885
üretimi 6885
ğinden 6883
ortadan 6878
aksine 6875
politi@@ 6875
yasal 6874
Süleyman 6872
yapar 6871
Söz@@ 6870
yayınlan@@ 6870
babasının 6868
yürü@@ 6864
kralı 6863
lıklar 6863
kış@@ 6862
irdi 6858
fes@@ 6856
mesinde 6854
geniş@@ 6852
benzer@@ 6851
olduğ@@ 6849
anlamlara 6846
kg 6846
Ker@@ 6845
gösterdi 6842
yukar@@ 6841
atan 6840
molek@@ 6839
çiç@@ 6835
şirke@@ 6835
azar@@ 6834
ris@@ 6830
Tim@@ 6829
Sil@@ 6827
renk@@ 6825
dakika 6824
larca 6823
ori@@ 6823
Dan@@ 6821
ludur 6820
plas@@ 6820
tüm@@ 6818
kü 6817
Ermenistan 6816
.. 6814
lideri 6810
Mahall@@ 6808
cek 6808
eybol 6803
Hüseyin 6801
eşit@@ 6800
lo 6800
Antalya 6797
mül@@ 6797
demir 6794
num@@ 6794
eza 6792
Est@@ 6789
vad@@ 6788
Sür@@ 6784
ou@@ 6783
Ok@@ 6782
laşma 6782
mah@@ 6781
Den@@ 6779
arac@@ 6779
Hristiyan@@ 6778
kt@@ 6777
kapsamında 6776
kadros@@ 6774
1946 6773
kişisel 6760
tad@@ 6760
hakkı 6755
İsko@@ 6752
1958 6745
atör@@ 6744
Biy@@ 6743
IV 6739
barındır@@ 6736
üzer@@ 6736
lüğü 6735
yasak@@ 6735
Gölü 6734
duğ@@ 6733
Çağ@@ 6729
for 6727
çizgi 6727
yönetmen@@ 6724
Sivas 6721
odak@@ 6720
duğunu 6719
Köy@@ 6717
eğini 6717
gizli 6717
Din@@ 6716
karakter 6715
ağın 6713
aktiv@@ 6712
giderek 6710
Park 6709
bon@@ 6708
etkileş@@ 6702
timi 6699
gerçekleştirilen 6698
Norveç 6697
yaşındayken 6697
anali@@ 6696
Değ@@ 6695
ayla 6693
Öğ@@ 6691
Üç 6691
Gürcü 6690
Belediyesi 6685
girişim@@ 6685
konular@@ 6685
yönet@@ 6685
Hu@@ 6683
Mi@@ 6679
mik@@ 6678
hızla 6677
Ceph@@ 6674
konser@@ 6674
ırdı 6673
etkilen@@ 6672
Anay@@ 6671
biraz 6670
Antik 6669
hane 6668
33 6663
Sem@@ 6663
biç@@ 6662
mühendis@@ 6662
tarım 6662
değişik 6658
köyü 6654
ıcısı 6654
Go@@ 6651
aza 6651
acağ@@ 6649
tiz@@ 6648
giden 6644
tam@@ 6642
politik 6641
ide@@ 6637
bunların 6636
üretic@@ 6634
getirdi 6628
St 6625
Erzurum 6622
radyo 6622
sürüm@@ 6622
İlç@@ 6622
kalınt@@ 6618
Mey@@ 6617
amaz 6616
giydi 6612
yakal@@ 6611
1918 6610
başarı 6608
elt@@ 6606
pen@@ 6606
sene 6604
ölüm 6602
kullanan 6596
au 6591
Hint 6589
Lis@@ 6583
kli@@ 6583
Ros@@ 6581
silah 6581
Ag@@ 6579
model 6578
Art@@ 6574
makal@@ 6571
Kem@@ 6567
sanatç@@ 6565
Komis@@ 6563
geçmiştir 6562
rek@@ 6562
1957 6555
Tu@@ 6555
akya 6555
toplamda 6552
Basketbol 6551
Sol@@ 6549
yönetim@@ 6544
Yun@@ 6543
dos@@ 6543
On 6542
Camii 6541
ikli 6538
Filmin 6537
Cumhurbaşkanı 6536
kre@@ 6535
memiş 6534
doğumlu 6532
Pan@@ 6526
abilecek 6524
fu@@ 6519
faaliyet 6518
kun@@ 6518
Denizi 6517
0.000 6515
hat 6515
şer@@ 6515
nedeni 6514
berg 6513
leyerek 6513
liğinin 6513
savunma 6512
şiddet@@ 6512
Konya 6511
des 6509
layarak 6508
web 6507
kel 6504
olay 6502
ilerinden 6501
ımda 6501
sözleş@@ 6498
les 6496
nik 6496
hidro@@ 6495
almaya 6492
ulaştı 6491
Sosyalist 6490
ister 6489
Kuş@@ 6488
64 6487
Sor@@ 6484
Yunanca 6484
Başkan 6479
iyil@@ 6475
Beledi@@ 6472
daş 6472
eser 6472
34 6471
alardan 6471
geti@@ 6468
halef@@ 6467
seyah@@ 6466
Ermen@@ 6465
ven@@ 6465
Venedik 6463
1954 6462
1955 6457
gök@@ 6457
ısıdır 6457
ilidir 6456
lıkları 6455
ayet@@ 6454
ılarına 6453
Hab@@ 6449
raf 6446
graf@@ 6445
kişidir 6445
düşür@@ 6444
katılan 6441
askerî 6436
Gar@@ 6435
1943 6433
Bit@@ 6431
sınır 6431
Cal@@ 6430
od 6430
Stadyumu 6428
not@@ 6428
uzak 6428
ug@@ 6426
5. 6425
mini 6424
part@@ 6423
etnik 6420
rekor@@ 6420
üyor 6416
edebil@@ 6415
ğinin 6415
roman 6412
kayn@@ 6410
Men@@ 6406
300 6403
48 6402
muhtemelen 6402
rolü 6402
eş 6401
1948 6400
cins@@ 6394
off 6393
kulü@@ 6391
ilmektedir 6390
mesaf@@ 6389
ima 6387
kullanıldı 6386
alma 6385
ella 6378
böl@@ 6376
16@@ 6374
şampiyon 6373
finale 6372
ren 6368
Bek@@ 6367
halkı 6367
jen 6367
gâ@@ 6364
madde 6364
bon 6363
Danimarka 6361
Tep@@ 6360
Henry 6358
Ölümü 6358
Karş@@ 6357
Adası 6356
Adaylık 6356
Uzun 6355
Osman 6354
dey@@ 6353
kural@@ 6350
çıkış 6349
Nik@@ 6347
ud@@ 6346
yüz 6346
suz@@ 6344
Dr@@ 6339
sinin 6339
önde 6339
başardı 6338
yük 6337
matemati@@ 6336
oynayan 6335
özelliği 6334
oynan@@ 6331
Thomas 6328
acaktı 6327
entin 6325
gereken 6324
1939 6320
Milletler 6320
urdu 6320
Kızıl 6319
Dönem@@ 6317
w 6317
başvur@@ 6316
Düz@@ 6314
Kategori 6314
lenmektedir 6313
nö@@ 6310
oz 6310
ayd@@ 6308
yeten@@ 6307
ordus@@ 6302
şekil@@ 6301
ödülü 6299
00 6298
Genç@@ 6297
Nazi 6296
kuvvetleri 6294
hakim@@ 6292
Hükû@@ 6291
incel@@ 6290
şampiyonu 6288
Samsun 6287
bakan 6286
seçimlerinde 6286
birim@@ 6285
genelde 6284
Mehmed 6283
tedavi 6283
Sırbistan 6279
rest@@ 6279
benim@@ 6276
gerektiğini 6273
Genç 6267
Tiyatrosu 6266
ema 6266
koruy@@ 6266
ismini 6265
Ul@@ 6262
birbirine 6259
girmiştir 6257
sert 6257
Hik@@ 6256
seçilmiştir 6256
İst@@ 6256
Oyun@@ 6255
çap@@ 6252
Tarih@@ 6251
Hel@@ 6249
Kör@@ 6246
ümüz 6246
birisi 6244
aydı 6243
ayn@@ 6242
Fu@@ 6237
dek@@ 6236
alılar 6235
har 6234
işe 6234
Komünist 6233
Ben 6232
Tü@@ 6231
Yarış@@ 6227
düz 6227
stand@@ 6223
makam@@ 6221
çalıştır@@ 6221
lığın 6219
ırı 6219
Os@@ 6216
anay@@ 6216
hikây@@ 6214
Final 6213
pop 6212
sad@@ 6212
zor 6204
kün@@ 6202
Kav@@ 6201
oyunc@@ 6200
verilir 6196
yönel@@ 6196
civarında 6194
stat@@ 6193
güzel 6192
milyar 6192
komün@@ 6191
co@@ 6189
elidir 6189
tük@@ 6189
Yük@@ 6188
kök@@ 6187
mer 6186
alış@@ 6184
yaygın@@ 6184
rit@@ 6183
göv@@ 6176
ışlardır 6173
kod@@ 6172
sy@@ 6172
rar@@ 6171
Del@@ 6170
tanesi 6170
ağaç@@ 6169
mür@@ 6167
oto 6167
Pi@@ 6163
ick 6163
itibarı 6163
Vil@@ 6159
davran@@ 6159
gaz 6159
muhar@@ 6159
bozul@@ 6158
car@@ 6158
Richard 6157
yazılan 6155
küç@@ 6154
Lev@@ 6153
bölgeye 6151
ons@@ 6151
ülebilir 6151
ınd@@ 6151
düzenli 6150
ardır 6146
ea 6146
saha 6146
ja 6144
Tok@@ 6143
sürdü 6139
uvar@@ 6139
Oyunları 6136
egemen@@ 6136
yaşadı 6134
hafif 6133
incelem@@ 6131
37 6129
arlı 6128
olog 6127
duk@@ 6126
Şeh@@ 6126
36 6119
kullanılarak 6118
Kısa 6111
oni 6108
diy@@ 6104
endüstr@@ 6104
8.@@ 6102
köş@@ 6102
liye 6101
stan 6099
hangi 6096
çıkış@@ 6096
dizisinde 6095
müdah@@ 6095
giz@@ 6094
arda 6092
basit 6092
piy@@ 6088
uydu 6087
fakt@@ 6086
ildiği 6086
ran 6084
kişiler 6083
test@@ 6082
Antlaşması 6080
hek@@ 6077
Washington 6076
çok@@ 6076
birden 6075
erkek@@ 6071
uzman@@ 6071
kari@@ 6070
Yönetim 6069
güne 6067
gümüş 6065
Cez@@ 6064
kuz@@ 6062
Havalimanı 6061
ân 6059
Hırv@@ 6058
noktası 6055
tif 6054
Topl@@ 6050
istasyon@@ 6049
sin 6049
vermektedir 6047
taşındı 6046
Göl@@ 6045
gerçekleşen 6040
Ali@@ 6039
etki 6039
büyük@@ 6037
saldırı 6035
1942 6033
Genellikle 6030
mamış 6029
ımad@@ 6029
çekildi 6027
asıllı 6023
günümüze 6021
rej@@ 6021
Romanya 6019
davranış@@ 6014
krall@@ 6010
ezya 6009
öm@@ 6009
belediy@@ 6008
sahipti 6008
ven 6008
Ann@@ 6004
kulüp 6004
Baz@@ 6002
arttır@@ 6002
rağ@@ 6000
Boğaz@@ 5998
beşinci 5998
ford 5998
düğünü 5995
yönetmen 5995
dalında 5994
gören 5993
Kırım 5992
vin 5991
başkan 5990
boz@@ 5988
tanınan 5986
38 5985
undadır 5985
çıkt@@ 5984
feder@@ 5983
mir@@ 5982
letin 5981
sonuna 5981
9.@@ 5979
United 5979
les@@ 5978
haber 5977
niş@@ 5976
1953 5973
ksel 5972
isti 5971
sinem@@ 5971
Rusça 5968
hukuk 5965
erinin 5963
1919 5962
edilebilir 5962
bitirdi 5960
You 5956
ağaç 5956
kullanılabilir 5952
ılığını 5952
yerli 5949
etleri 5948
kabil@@ 5948
Arab@@ 5947
sektör@@ 5946
55 5944
Boy@@ 5942
Nas@@ 5941
hac@@ 5938
nüfus@@ 5938
lerdi 5937
top 5936
çıkart@@ 5934
araç 5933
Saf@@ 5931
42 5928
elerle 5928
fabrik@@ 5928
geçiş 5928
toplam@@ 5922
taşı@@ 5918
asla 5917
galibi@@ 5916
Olimpiyat 5910
lıkla 5908
Lu@@ 5907
ematik 5907
lığında 5907
istifa 5904
zarar 5903
geçici 5902
şeh@@ 5901
Saint 5897
sk 5897
Katolik 5896
Fr@@ 5895
albümün 5895
Ru@@ 5894
bran@@ 5893
mahk@@ 5893
Finlandiya 5891
del 5891
karşılaştır@@ 5887
Ahmed 5886
etkis@@ 5886
tedav@@ 5885
Kel@@ 5883
hükûmeti 5883
au@@ 5882
emekli 5882
iliy@@ 5881
çıkardı 5881
görülmektedir 5879
kes 5878
yayınlanmıştır 5877
1952 5875
cil@@ 5874
Un@@ 5873
haft@@ 5871
çalışır 5871
š@@ 5871
emp@@ 5870
Fe@@ 5869
temsilc@@ 5869
vide@@ 5869
Yüzölçümü 5868
memiştir 5865
gösterildi 5864
Ho@@ 5863
Kutsal 5862
numaralı 5862
farkl@@ 5861
Erkekler 5860
MS 5858
Dağı 5857
hatt@@ 5857
klem@@ 5854
şehridir 5853
Cas@@ 5852
areti 5848
benzeri 5847
lip 5847
ji@@ 5846
ty 5846
Milli 5845
başlamış 5845
geril@@ 5845
internet 5842
Geliş@@ 5840
Köpr@@ 5840
ius 5840
Komitesi 5839
mezar@@ 5839
muhaf@@ 5836
öy@@ 5836
olumlu 5833
varsay@@ 5829
65 5828
Bin@@ 5827
beğ@@ 5825
Sev@@ 5824
tahta 5824
potansiy@@ 5822
Viyana 5821
önceden 5821
abilmektedir 5820
ani@@ 5818
ida 5818
öğrenci 5818
şid@@ 5816
imzaladı 5815
basın@@ 5810
usa 5809
üreti@@ 5808
estr@@ 5803
Gi@@ 5802
olo@@ 5802
yaz 5802
babasıdır 5799
DNA 5797
Şu 5797
bayr@@ 5796
dü@@ 5796
Gre@@ 5792
Almanca 5791
temel@@ 5791
yayıl@@ 5790
alb@@ 5789
içeri@@ 5789
dıktan 5787
kür@@ 5787
erler 5786
ster@@ 5785
cinsidir 5784
rip 5784
sorumlu 5779
katıldığı 5777
Meclis 5776
Güney@@ 5774
ola 5774
zamanlar 5772
memektedir 5771
evlen@@ 5769
ly 5769
yos@@ 5769
ailesinin 5766
çerçev@@ 5766
leşme 5765
ilip 5764
resim 5763
vas@@ 5763
bl@@ 5758
rapor@@ 5754
tören@@ 5754
uh@@ 5753
Kah@@ 5751
çizg@@ 5751
onlara 5749
Tas@@ 5748
dere 5748
oldukları 5748
Diyarbakır 5746
Ta@@ 5746
başlay@@ 5744
geldiği 5744
efsan@@ 5743
tiş@@ 5743
yö@@ 5743
konus@@ 5741
eden@@ 5740
gan 5740
benz@@ 5739
tre@@ 5739
yaşamı 5736
stad@@ 5735
Billboard 5733
pel@@ 5733
Çev@@ 5731
İsa 5731
ektedir 5728
üce 5727
ab 5725
lerindeki 5724
İngiliz@@ 5722
bil 5721
Diz@@ 5720
çocuğ@@ 5719
Okyan@@ 5717
kuyru@@ 5717
tilen 5717
85 5716
Eş@@ 5716
sabit 5716
sınıf 5714
Arnavutluk 5713
zamanlarda 5713
luğunda 5712
sefer 5710
platform@@ 5707
bölgenin 5704
ederken 5702
Tah@@ 5700
olmadan 5700
hakları 5699
yav@@ 5699
eştir@@ 5695
koruma 5695
ole 5694
ıldığında 5694
Akademi 5692
Kür@@ 5692
ebi 5690
görevlendir@@ 5690
1949 5684
Eyaleti 5682
Milletvek@@ 5682
oh@@ 5681
çıkard@@ 5681
Louis 5680
Silah@@ 5678
oda 5678
gerekir 5677
1947 5676
altındaki 5676
çya 5675
aralarında 5673
kıt@@ 5671
Bö@@ 5668
edildiği 5668
0.@@ 5667
Met@@ 5666
Yukar@@ 5666
sti@@ 5666
leh@@ 5663
sunul@@ 5663
güneş 5662
salg@@ 5661
mağlup 5660
sıcak 5659
komündür 5656
sayg@@ 5655
Mag@@ 5653
renk 5653
aktır 5652
oğu 5648
Pap@@ 5647
bunlar 5647
Ail@@ 5645
yiy@@ 5642
ayrımı 5641
400 5640
kenar@@ 5639
ısından 5637
Şampiyonlar 5635
kul 5633
1938 5632
Cad@@ 5632
Mih@@ 5632
Şehir@@ 5632
asıl 5630
Erkek 5627
parça 5627
Wil@@ 5626
barış 5626
unsur@@ 5626
hakk@@ 5625
sembol@@ 5623
Adaları 5621
başladığı 5621
kimyasal 5621
aray@@ 5620
yönetmenliğini 5619
çalışması 5618
üzel@@ 5617
Bayr@@ 5616
retim 5616
yanl@@ 5616
öğretmen@@ 5616
mahkem@@ 5615
obil 5612
İslam@@ 5612
eşit 5611
ettiğini 5607
incisi 5607
İnsan 5604
liğ@@ 5600
serisi 5600
nek 5597
başrol@@ 5596
duyurdu 5595
büy@@ 5594
Çağ 5594
amaçlı 5593
ded@@ 5592
yenin 5592
yönettiği 5592
Konstant@@ 5589
imi@@ 5589
6. 5588
Love 5587
makla 5585
isindeki 5584
uğraş@@ 5584
plan 5583
toplumsal 5583
performans 5582
ülü 5582
Devlet@@ 5581
gruplar@@ 5581
kalp 5580
böyle 5579
pek@@ 5579
aspor 5578
cut 5578
maktan 5578
Üçüncü 5574
Atina 5572
direktör@@ 5570
veç@@ 5569
Gür@@ 5568
Kahr@@ 5568
Ri@@ 5568
lanarak 5568
ilerle 5566
Fır@@ 5563
ehir@@ 5563
Latin 5562
bol 5562
Por@@ 5560
yeşil 5559
plak 5558
kamu 5557
iki@@ 5555
yazılmış 5553
öng@@ 5553
familyasıdır 5551
hükûmet@@ 5548
yetenek@@ 5548
kurulu 5542
Modern 5541
Martin 5540
Oyun 5540
kadınlar 5538
numar@@ 5531
Mev@@ 5530
Records 5528
zamanında 5527
sezonunun 5523
isiyle 5521
Aydın 5520
adam 5520
antren@@ 5520
mete 5518
oca 5518
ılarında 5518
akla 5517
det@@ 5517
anah@@ 5516
bed@@ 5515
hi 5512
kazandır@@ 5512
isar 5511
Kudüs 5508
durumunda 5507
kilise 5507
sunuc@@ 5505
istedi 5504
und 5502
Plat@@ 5500
anma 5498
ilerinde 5498
halka 5496
ücret@@ 5496
iletişim 5493
sarı 5493
Hüküm@@ 5492
katı 5492
uşu 5492
tapın@@ 5490
orta@@ 5489
Fatih 5488
Su 5486
cular 5486
mill@@ 5486
çak 5486
gin@@ 5483
olmay@@ 5482
İt@@ 5480
Gazet@@ 5478
ağı@@ 5478
bakımından 5478
ateş 5475
Da@@ 5474
gön@@ 5474
ayar@@ 5473
Erken 5472
doktor@@ 5471
illiği 5471
1925 5469
Sağlık 5469
katkıda 5469
ej@@ 5467
eserleri 5465
taarru@@ 5464
gusal 5463
kendisinin 5463
başlandı 5461
kilometre 5461
OS 5457
ider 5457
ilk@@ 5457
Sist@@ 5453
anus 5452
yarg@@ 5452
kuts@@ 5451
dik 5449
olojisi 5449
türleri 5449
bet@@ 5447
ekran@@ 5446
kuş 5446
çevrel@@ 5446
ölümü 5445
dünyada 5444
yel@@ 5444
ener@@ 5442
gider@@ 5439
kiye 5437
yörüng@@ 5433
başlıca 5431
Birleşmiş 5429
alist 5428
taht@@ 5428
57 5427
op 5426
Yayın@@ 5424
çey@@ 5424
W 5422
sonuçları 5421
Bre@@ 5419
Güvenlik 5418
sanatçı@@ 5413
Ram@@ 5412
mediği 5412
bağlıdır 5411
yk@@ 5410
1936 5408
Cih@@ 5408
işaret 5407
Sav@@ 5406
yang@@ 5406
mor@@ 5404
ortal@@ 5404
Kut@@ 5401
uçak 5401
yıla 5398
başarısız 5396
mensu@@ 5396
anlamda 5394
standart 5394
kalit@@ 5391
Savunma 5390
ath@@ 5389
lerdeki 5389
Ve 5388
sand@@ 5388
aması 5387
Ste@@ 5386
önder@@ 5385
Farsça 5384
Tom@@ 5384
mann 5384
abı 5383
evinde 5383
topluluk@@ 5383
Mut@@ 5382
ödem@@ 5382
age 5380
sarmal 5379
amik 5378
play@@ 5378
yakınlarında 5378
maruz 5375
mit 5374
leridir 5372
leyic@@ 5371
numaraya 5370
sezonda 5370
Başkan@@ 5369
İl 5369
araştırmac@@ 5368
zy@@ 5368
engel@@ 5367
kullandığı 5366
alis@@ 5365
39 5364
yaşan@@ 5364
imzal@@ 5360
1951 5358
allar 5356
$ 5353
uri 5353
41 5352
ekte 5351
Lee 5350
sıralam@@ 5350
Piy@@ 5349
Yol@@ 5348
Sırp 5346
ekiplerinden 5346
1933 5343
kayıt 5343
ede@@ 5341
oll@@ 5341
olar 5340
öncel@@ 5340
ülkeler 5340
1921 5338
filmidir 5338
dijital 5336
dalga 5334
Haf@@ 5331
Kullan@@ 5331
amp@@ 5331
ortak@@ 5331
çekti 5331
Küt@@ 5330
modeli 5330
bastır@@ 5329
şir@@ 5328
Hey@@ 5327
kulübü 5327
suyu 5327
kten 5324
ardı 5323
gun@@ 5323
mezun@@ 5321
dile 5319
sur 5318
1922 5317
Makedonya 5317
birlikleri 5317
Müslüman@@ 5316
klü 5316
Tek 5314
kat 5314
komedi 5313
elektronik 5311
Ed@@ 5310
adayı 5309
renkli 5309
Adalet 5307
bugünkü 5305
üniversite 5305
atom@@ 5304
motor 5304
döv@@ 5303
gid@@ 5302
Ken@@ 5301
dikkat@@ 5301
milyon@@ 5301
Com@@ 5300
rekab@@ 5300
mekle 5299
Bölge 5298
1935 5295
Fl@@ 5295
edin@@ 5295
unc@@ 5295
ela 5294
yerek 5294
yola 5291
deş 5290
ebe@@ 5290
mot@@ 5290
ilişkileri 5289
Kurul@@ 5288
sürdürdü 5287
leti 5285
ışma 5283
çat@@ 5281
şair 5279
def 5278
Vakfı 5275
ates 5275
Div@@ 5274
san 5273
süt@@ 5273
th 5271
ess@@ 5269
katılmıştır 5269
paşa 5267
öv@@ 5267
Hi@@ 5266
maça 5263
Joseph 5260
Ra@@ 5259
hatır@@ 5257
bire@@ 5256
sezonun 5255
Al 5254
Bundan 5254
44 5253
test 5251
Tiyatro 5250
saf@@ 5246
Kiş@@ 5243
dedi 5243
cal@@ 5242
kullanır 5242
sanatçısı 5241
emek 5240
Cer@@ 5238
52 5237
Düş@@ 5237
SS 5236
unlu 5236
dolar 5235
Adam 5231
geçmiş 5231
kurucusu 5231
Fiz@@ 5229
Google 5229
Yerli 5229
lanabilir 5227
halde 5225
kup@@ 5225
uva 5221
93 5220
likte 5215
iksel 5214
ığının 5214
blo@@ 5212
keleri 5212
72 5211
cü 5211
ung@@ 5208
şif@@ 5208
yans@@ 5205
yanlış 5204
Apple 5202
üyordu 5202
bask@@ 5198
milliyet@@ 5196
pınar 5193
Güm@@ 5189
ic 5188
Dağları 5187
arke@@ 5186
hayv@@ 5186
oynamıştır 5185
çak@@ 5183
1923 5182
ediyor 5182
petrol 5182
yaşanan 5182
yn 5182
95 5179
esindeki 5179
istih@@ 5179
set@@ 5176
bulundur@@ 5175
bidir 5174
Demokratik 5173
enz@@ 5172
lası 5172
suy@@ 5172
tehlik@@ 5170
tor 5170
yönetilen 5169
Lim@@ 5168
ici@@ 5168
İsti@@ 5168
vir 5166
ödülünü 5165
uygulama 5164
belgel@@ 5163
AR@@ 5162
Araştırma 5162
lıca 5159
ülen 5159
Zey@@ 5157
değeri 5157
Hiz@@ 5156
derin@@ 5155
geçerek 5153
iliyor 5153
lığının 5153
insel 5152
Kum@@ 5151
ast 5151
bıraktı 5150
nesn@@ 5148
yanına 5148
farklıl@@ 5146
hayatta 5144
liler 5144
anlaşma 5142
kapsay@@ 5142
köyün 5141
person@@ 5140
buldu 5139
Top@@ 5138
karmaşık 5138
sürede 5138
CD 5137
Kazakistan 5133
Od@@ 5132
eviz@@ 5132
ölçüm@@ 5132
ılardan 5132
ac 5131
bisik@@ 5131
cil 5128
besi 5125
teşvik 5124
takımları 5122
Madrid 5121
mış@@ 5121
tim 5118
çuk 5116
Kraliyet 5115
Parkı 5115
ilişkiler 5115
ilerlem@@ 5114
idam 5113
Müd@@ 5112
ediği 5112
ehr@@ 5112
şiir 5111
ekli 5110
yal 5109
gerekti@@ 5108
maktad@@ 5107
İr@@ 5107
16. 5106
çubu@@ 5105
alınmıştır 5104
iti 5102
Yarı 5101
qu@@ 5098
liliği 5097
Turn@@ 5096
vermek 5096
Evli 5094
oyu 5091
Ex@@ 5090
Şah 5090
Çanakkale 5088
basketbol 5086
erdi 5086
Katılım 5084
göre@@ 5084
q@@ 5084
Ey@@ 5082
Çocuk@@ 5082
statüsü 5081
grubunun 5080
field 5079
isteyen 5077
kısıt@@ 5076
line 5076
demiryolu 5075
ders 5073
eğer 5073
okum@@ 5072
bahar@@ 5071
cell@@ 5071
uların 5070
aittir 5068
dular 5066
tez@@ 5066
Sand@@ 5062
halkın 5061
koleksiyon@@ 5061
ülük 5061
1924 5060
alanan 5060
olum@@ 5060
poli@@ 5060
malarına 5059
lük@@ 5058
açıdan 5057
sek 5055
menler 5053
Mill@@ 5051
amak 5050
ürün 5050
eğitimini 5048
Yılın 5046
Bosna 5043
savaşı 5043
malarını 5042
sey 5042
güreş@@ 5040
merc@@ 5039
miktarda 5039
spek@@ 5038
gesi 5037
ören 5036
aban 5034
kenti 5034
ami 5033
sam 5033
edebiyat 5030
görevine 5030
hareketi 5026
yerleşimi 5026
Çünkü 5025
İnsan@@ 5024
adlandırılır 5022
elle 5022
kas 5021
tarihsel 5021
ach@@ 5017
Büyükşehir 5015
ilgilen@@ 5013
değildi 5011
yeterli 5011
üyesidir 5011
Ban@@ 5009
1937 5007
tora 5004
çevresinde 5004
Moğol@@ 5003
etrafında 5003
gömül@@ 5003
Doktor 5001
cudur 5001
emez 5001
incil 5000
yansıt@@ 5000
ation 4999
talep 4999
all 4998
küresel 4998
asi@@ 4997
ısındaki 4997
Kayseri 4996
bağış@@ 4995
ailenin 4994
derin 4993
festiv@@ 4992
kulübü@@ 4990
raf@@ 4990
7. 4988
arm@@ 4988
aw@@ 4987
Kalesi 4986
tabak@@ 4986
cem@@ 4985
Mahkemesi 4984
Üy@@ 4983
şunlardır 4983
tehdit 4982
Bunların 4979
yüzde 4974
kulüplerinde 4973
Boz@@ 4972
dadır 4972
kaçır@@ 4971
açılan 4970
Kaf@@ 4969
geçirdiği 4969
pap@@ 4969
yönetmeni 4969
esas 4968
Hil@@ 4966
Mühendis@@ 4966
Aziz 4964
Me 4963
hayatına 4961
Biz@@ 4960
Kulübü 4958
oları 4957
yemek 4957
ılarından 4955
anak@@ 4954
47 4952
üler@@ 4952
Yöne@@ 4951
eşlik 4950
dolaş@@ 4949
46 4947
aylık 4947
Nüf@@ 4945
ahr@@ 4945
96 4944
artan 4944
gemi 4944
istler 4944
İsmail 4944
lamaya 4943
edip 4942
unca 4942
uta 4942
ordusunun 4941
davet 4940
gelişmiş 4940
1914 4939
Karak@@ 4939
ao 4937
sınırlı 4936
açıldı 4934
rüz@@ 4934
siyaset@@ 4934
ınday@@ 4933
general 4932
iliyordu 4932
Kürt 4930
birer 4930
aşağ@@ 4929
ender 4926
avuk@@ 4922
dokuz 4921
ilişki 4921
dayanan 4920
versiyonu 4920
yardımcısı 4919
stratej@@ 4918
1934 4917
olmakla 4917
biriydi 4916
kans@@ 4916
mikro@@ 4916
bünyesinde 4915
karakteri 4915
ly@@ 4914
time 4914
Cumhuriy@@ 4913
alanları 4913
traf@@ 4913
92 4912
engell@@ 4912
1912 4908
Kup@@ 4908
Tıp 4908
za@@ 4907
silahlı 4906
Afrik@@ 4905
Mersin 4905
vat@@ 4904
Barış 4901
ii 4900
kuruc@@ 4900
enn@@ 4897
dem 4896
önem 4896
eji 4895
he 4893
ym@@ 4892
doldur@@ 4890
rahats@@ 4890
ahl@@ 4889
ami@@ 4889
alfab@@ 4887
ötürü 4887
anne 4885
88 4884
lise 4884
unvanını 4884
şarkının 4882
kadro@@ 4881
Büt@@ 4880
Tam@@ 4880
51 4879
köprü 4879
mavi 4879
18. 4877
eğitim@@ 4872
afa 4869
ins 4869
bozuk@@ 4867
dost@@ 4867
hel@@ 4867
Takımı 4866
ekibi 4863
ahi 4862
tiyle 4862
ō 4860
est 4858
Sonraki 4857
ellik@@ 4857
karıştır@@ 4855
ligi 4855
Litvanya 4854
Jackson 4853
dans 4853
fal@@ 4853
ith@@ 4853
yargıl@@ 4853
kisi@@ 4852
ike 4851
lah 4851
43 4850
lif@@ 4850
Kürt@@ 4849
edit@@ 4848
eleme 4848
ciler 4847
olmaya 4844
Lig@@ 4843
kaydet@@ 4840
şüph@@ 4840
Eser@@ 4839
Fel@@ 4839
Kari@@ 4839
isten@@ 4839
İmparator 4839
altyap@@ 4838
kapalı 4838
ters 4836
Tro@@ 4835
istatisti@@ 4835
larıdır 4835
yab@@ 4835
komutanı 4831
Yeş@@ 4830
fen@@ 4830
Star 4829
ff@@ 4829
imiz 4829
mamıştır 4829
çileri 4829
Arap@@ 4828
dukları 4827
fel@@ 4827
lenebilir 4827
SC 4826
Ari@@ 4825
Bulgar 4825
Plan@@ 4824
ihtiyaç 4824
Ticaret 4823
lebil@@ 4823
gruba 4822
karşılığında 4822
Sun@@ 4821
oluşturulan 4818
bey 4817
kullandı 4817
abl@@ 4816
tarafında 4816
ğlu 4816
1917 4815
tarihlerinde 4814
One 4813
önüne 4812
birinin 4809
77 4808
sta 4808
67 4806
lir 4806
müsabak@@ 4806
seçilen 4806
ülkelerde 4806
Tal@@ 4802
53 4800
kesi 4800
kıyısında 4800
esnasında 4798
bilgisayar@@ 4797
prodük@@ 4796
99 4795
lüğünü 4794
uya 4794
Açık 4792
illa 4792
Ömer 4792
Tri@@ 4791
bilgiler 4789
tiğini 4789
düşünülmektedir 4787
ıdaki 4787
ehri 4786
şeklin@@ 4786
adr@@ 4784
ilde 4784
koc@@ 4784
tra 4784
takımlarından 4783
Gürc@@ 4780
giye 4780
Şi@@ 4780
Hanedanı 4779
Rec@@ 4779
baskı 4776
iro 4776
Sonr@@ 4775
medya 4775
shire 4775
tarzı 4774
ılarda 4774
özgü 4773
dükten 4772
milletvek@@ 4771
çıktığı 4770
ölümüne 4770
Sarayı 4769
ayrılır 4769
Devrimi 4768
0,@@ 4767
söyl@@ 4767
zırh@@ 4766
üstlendi 4766
Video 4765
atlar 4765
emen 4765
oluşturduğu 4764
dak@@ 4763
We@@ 4762
fat 4762
bundan 4760
landalı 4760
uzan@@ 4758
ayda 4757
oynamaktadır 4756
ysel 4755
öyk@@ 4755
oma 4753
Nev@@ 4750
operasyon@@ 4750
Kafkas@@ 4748
şi@@ 4748
ımlı 4747
süs@@ 4746
led@@ 4745
imza 4743
alama 4742
harf@@ 4742
Dal@@ 4741
oğulları 4741
aber@@ 4740
sistemleri 4737
Herschel 4735
seyir@@ 4735
Yönet@@ 4733
irleri 4733
yr@@ 4732
66 4731
kaydedil@@ 4729
may 4728
süresi 4728
yaşamaktadır 4728
tipik 4726
Filistin 4724
1,@@ 4722
dört@@ 4722
plar@@ 4722
semt@@ 4721
Ren@@ 4720
bağlantılar 4720
İd@@ 4720
reak@@ 4719
M.@@ 4716
Murat 4715
toplum 4715
ville 4715
zan 4714
ı.@@ 4714
liğindeki 4712
anim@@ 4710
ensel 4707
okun@@ 4707
uzanan 4705
Bilim 4703
sisteminin 4702
kurucu 4700
durumlarda 4698
78 4697
şehirde 4697
abilirler 4696
Kitap 4695
hip 4694
neg@@ 4694
noktas@@ 4689
paral@@ 4689
cer@@ 4688
konfer@@ 4688
konul@@ 4688
Pas@@ 4686
WWE 4685
anti 4685
ikili 4685
Karad@@ 4684
gönderildi 4684
tesis@@ 4684
Yugoslavya 4683
kalma 4681
Maria 4680
giyen 4680
geliştirilen 4679
madığı 4679
olduktan 4678
Bü@@ 4677
go 4676
nükleer 4676
Bro@@ 4674
akıl@@ 4674
çoğunluğu 4672
yazılmıştır 4670
Ph@@ 4669
Yıldız 4669
Cup 4668
şah 4668
1926 4667
86 4667
aracı 4667
haned@@ 4667
con@@ 4666
problem@@ 4666
68 4665
mekaniz@@ 4665
May@@ 4663
ibi 4661
sınıfı 4661
refer@@ 4660
takımlar 4660
tarihinin 4660
yaşad@@ 4660
tarihte 4659
temiz@@ 4658
end 4657
pir@@ 4657
Sultan@@ 4655
ziti@@ 4654
ört 4653
62 4652
Edward 4650
çalışmalarına 4650
açıklandı 4649
viz@@ 4649
bütün@@ 4648
pe 4648
Yav@@ 4647
çilik 4647
ash@@ 4646
forması 4646
maların 4646
görüldü 4645
temsilcisi 4645
çoğun@@ 4644
54 4643
kolon@@ 4643
uvarı 4643
atlı 4641
dayalı 4641
isp@@ 4640
ster 4639
unv@@ 4639
hücre 4638
Ortodo@@ 4637
58 4635
mesidir 4635
Ord@@ 4634
61 4633
Eskişehir 4633
CH@@ 4632
A. 4631
konser 4630
Ka@@ 4628
Portekiz@@ 4628
dom@@ 4626
ıkların 4625
yiti@@ 4624
hayat 4623
sıklıkla 4623
irse 4622
rem@@ 4622
Selçuklu 4620
türlü 4620
alması 4619
ağının 4617
edeki 4616
08 4613
94 4613
Ang@@ 4613
familyas@@ 4612
olacaktır 4612
Soy@@ 4611
kral@@ 4610
köpr@@ 4609
Çoc@@ 4609
birisidir 4606
çer@@ 4606
71 4604
kısmen 4604
likle 4603
Balıkesir 4601
Kıl@@ 4601
1927 4600
63 4599
Buc@@ 4599
ikle 4597
müh@@ 4597
ung 4597
De 4595
öncesinde 4595
Latince 4592
ted@@ 4592
Bakü 4589
ıcılar 4588
ağan 4587
dat 4586
enmiş 4586
sanayi 4586
My 4585
arasına 4584
ars 4582
Il@@ 4581
Toplul@@ 4580
nüfusun 4580
direktör 4579
sonuç 4579
yönlendir@@ 4579
Dam@@ 4574
göreve 4573
— 4573
yazılım 4572
İspanyol@@ 4572
geç 4571
şık 4569
Macar 4568
depre@@ 4568
far@@ 4568
Sek@@ 4566
hakkındaki 4566
algıl@@ 4564
ow@@ 4564
adının 4562
avant@@ 4562
Yerel 4561
kaydetti 4559
ortasında 4559
malara 4557
olduk@@ 4556
Bankası 4555
dan@@ 4555
etraf@@ 4553
pik 4552
Kurtuluş 4550
belediyeye 4550
civar@@ 4550
gali@@ 4550
Sat@@ 4549
TRT 4549
Vad@@ 4548
ou 4546
kendilerini 4543
Le 4542
West 4542
bakış 4541
nitelendir@@ 4541
uzaklıkta 4541
ka@@ 4540
Edirne 4539
burg 4539
ban 4537
emiştir 4537
çocukları 4537
olaylar 4536
Mik@@ 4535
hem@@ 4535
fos@@ 4534
Du@@ 4533
göstermiştir 4533
aret 4532
old@@ 4532
Kı@@ 4530
akış@@ 4530
kullanım 4530
‎ 4530
ayrılmıştır 4529
ng@@ 4529
yazmıştır 4529
çıkmış 4528
derecede 4527
Eng@@ 4526
Güzel 4526
je 4526
bölümde 4523
çevre 4523
soğuk 4522
boyu 4521
ava 4520
aylar 4520
koz@@ 4520
işletim 4519
SSCB 4518
akar@@ 4518
Başlang@@ 4517
Abdullah 4516
ğı 4516
56 4514
Afgan@@ 4514
buluş@@ 4514
olog@@ 4514
yapılmaktadır 4514
Nov@@ 4513
ion 4513
tuz@@ 4513
87 4512
lam 4512
Bölüm@@ 4511
Bugün 4509
abileceği 4509
düştü 4509
mut 4509
alif@@ 4508
AS@@ 4501
Bunlardan 4500
Maç@@ 4499
Kül@@ 4498
ederler 4498
Eyal@@ 4497
Takım 4496
Örgüt@@ 4496
bölgesinin 4491
ney 4487
ektir 4486
puan@@ 4485
gerçekleşti 4484
kaç 4483
arlığı 4481
bronz 4481
lenerek 4481
tem 4481
örler 4480
cad@@ 4479
Gazi 4478
Bağım@@ 4476
kolay 4475
layıcı 4472
müm@@ 4472
Komünün 4468
lav 4468
rel 4468
aten 4467
91 4466
Askeri 4466
Tes@@ 4465
abilmek 4465
ağında 4465
oluşum@@ 4465
ondan 4465
hüküm 4463
lıların 4462
Music 4460
gelmiş 4459
incelen@@ 4459
Y 4458
anna 4458
kazand@@ 4458
ahş@@ 4456
grafik 4456
hast@@ 4455
him@@ 4454
V. 4453
dam 4453
eksik@@ 4453
5,@@ 4451
Ekon@@ 4451
Tap@@ 4451
Papa 4450
yirmi 4450
İ 4450
Sonra 4449
Çeşit@@ 4449
Santa 4448
aydın@@ 4448
akça 4446
başlangıçta 4445
taşıy@@ 4445
1929 4443
Rock 4443
muşlardır 4442
Eri@@ 4439
işaret@@ 4439
Prix 4438
aat@@ 4434
zm 4434
Onun 4433
tıp 4433
Komut@@ 4431
hâl@@ 4431
Mit@@ 4430
şö@@ 4430
dair@@ 4429
döng@@ 4429
yenerek 4429
vücu@@ 4426
gruplar 4425
asit 4424
devrim@@ 4424
č@@ 4424
17. 4422
Black 4422
Ay 4419
Gor@@ 4418
Hir@@ 4417
düğünde 4417
Avru@@ 4413
birimi 4413
Laz@@ 4411
düşman@@ 4411
dışındaki 4411
inler 4411
aha 4410
desteklem@@ 4409
desteği 4409
saç@@ 4409
76 4408
olmasını 4408
Sok@@ 4405
gazeteci 4405
atıl@@ 4402
Derg@@ 4401
dari 4401
Mari@@ 4400
ometr@@ 4400
yolcul@@ 4400
81 4396
Milli@@ 4396
sonuc@@ 4396
Um@@ 4394
deb@@ 4394
manyetik 4392
öldürüldü 4391
Yah@@ 4390
taşım@@ 4389
82 4388
emey@@ 4388
ittif@@ 4387
esk@@ 4386
lamaktadır 4384
sonu 4384
zeng@@ 4384
Başbakan 4383
Tokyo 4380
bahç@@ 4380
hari@@ 4378
Ödül@@ 4378
73 4377
Selim 4377
kısmını 4377
teklif 4377
Ege 4375
bom@@ 4375
zz@@ 4372
Kosova 4371
Show 4370
ა@@ 4370
ser 4369
Bl@@ 4367
itler 4366
Dil@@ 4365
cüm@@ 4365
pozisyon@@ 4365
hattı 4360
urg@@ 4360
organizasyon@@ 4359
Gençlik 4358
onur@@ 4358
74 4355
eo 4354
Harry 4353
bac@@ 4353
erde 4352
sar 4351
bec@@ 4349
gerek 4347
usal 4347
Çel@@ 4346
1932 4345
Kastamonu 4344
Demokrat 4343
ello 4342
Kuzey@@ 4338
jür@@ 4338
insanları 4337
okudu 4335
hali@@ 4333
fon@@ 4332
erkekler 4330
biyat 4327
büt@@ 4326
8. 4324
Manisa 4318
alternatif 4318
cas@@ 4318
mine 4318
ats@@ 4317
49 4315
kuk@@ 4312
mir 4311
Manchester 4308
sahip@@ 4308
sig@@ 4308
zinc@@ 4303
figür@@ 4299
ende 4297
masa 4295
sini 4292
Prot@@ 4290
84 4288
plar 4287
buz 4286
Kong@@ 4284
mede 4284
Komutanlığı 4281
7,5 4280
q 4276
trans@@ 4276
umlu 4276
Beş@@ 4274
eta 4267
A.@@ 4265
List@@ 4265
Ori@@ 4265
Oper@@ 4264
Yam@@ 4262
Smith 4261
olmad@@ 4261
dim 4260
COVID 4259
ts 4259
04 4258
play 4255
ust@@ 4253
yat 4252
İm@@ 4252
asy@@ 4250
Ün@@ 4249
Hy@@ 4248
Dor@@ 4247
All 4246
ayi 4245
sak 4244
fo@@ 4242
up@@ 4239
Wal@@ 4238
Jack 4237
rey 4237
asıl@@ 4234
Don 4230
Vik@@ 4229
alarla 4229
hük@@ 4229
krist@@ 4227
bar 4226
1931 4224
ağıdaki 4224
fas@@ 4224
98 4223
ger 4220
Elek@@ 4219
Kim 4219
ef 4219
Entertainment 4216
Fre@@ 4215
rab@@ 4213
Konfer@@ 4212
kte 4210
ogr@@ 4206
zul@@ 4205
ayak 4204
bun 4203
esir 4197
Tekn@@ 4193
konom@@ 4193
ensi@@ 4191
köken@@ 4190
Çay@@ 4184
Hen@@ 4177
Ant@@ 4176
km. 4176
Cl@@ 4174
M. 4173
Nar@@ 4171
paz@@ 4170
dans@@ 4169
zih@@ 4165
keti 4163
AB 4162
ru 4160
imine 4158
co 4156
Ap@@ 4155
Android 4154
av 4149
Yan@@ 4148
isel 4147
­ 4145
Rio 4144
awa 4144
Film@@ 4142
ack 4142
inen 4140
1915 4139
solo 4139
Federal 4136
mik 4135
semb@@ 4135
Futbol@@ 4130
Kongr@@ 4130
Je@@ 4128
alim@@ 4128
Nak@@ 4125
ave 4125
eder@@ 4123
Frank 4121
Balkan 4120
J. 4120
ā@@ 4118
sent@@ 4117
gelenek@@ 4116
sim 4116
97 4115
Lüb@@ 4114
aire 4113
Parlament@@ 4112
orik 4112
09 4111
bina 4111
ain 4109
9. 4107
Malat@@ 4105
Hot 4104
* 4102
Sib@@ 4097
cen@@ 4096
emb@@ 4094
key 4093
ner@@ 4092
Sekre@@ 4090
stein 4089
ail 4088
ork@@ 4086
antum 4085
serg@@ 4084
Pre@@ 4083
10.@@ 4082
150 4080
Karl 4080
4,@@ 4079
aze 4075
rik 4075
bola 4074
kenin 4071
J 4070
ern@@ 4069
gür@@ 4068
hr@@ 4068
yespor 4068
Araştır@@ 4066
Nec@@ 4066
Aj@@ 4062
mark@@ 4054
Pakistan 4053
89 4052
İtal@@ 4052
EP 4049
ei 4048
Jo@@ 4046
20@@ 4044
ender@@ 4038
ome@@ 4038
ć 4038
Pek@@ 4037
famil@@ 4037
liste 4037
Chi@@ 4026
soy 4025
disi@@ 4024
topr@@ 4023
600 4022
79 4022
Ly@@ 4020
kal 4018
eddin 4013
Des@@ 4007
aram@@ 4007
day 4005
dül@@ 4005
sekre@@ 4004
1000 4002
stüd@@ 4002
reform@@ 4000
sonr@@ 3997
hiss@@ 3992
onik 3992
Amat@@ 3990
olas@@ 3990
yaln@@ 3988
Sic@@ 3986
esin@@ 3980
kil 3979
atmos@@ 3978
69 3977
fot@@ 3975
Yusuf 3974
05 3973
eksiyon@@ 3971
ğu 3971
Mec@@ 3970
sas 3967
Can 3966
hid@@ 3964
esel 3963
Bud@@ 3960
tici 3960
SK 3953
öl 3952
Op@@ 3945
reli 3945
Play 3944
Oc@@ 3934
yaspor 3932
Eğiti@@ 3931
Trab@@ 3928
Hac@@ 3924
Pir@@ 3923
laşması 3923
aliyet@@ 3922
send@@ 3921
Mim@@ 3920
Fi@@ 3919
imar@@ 3918
Sali@@ 3915
Altın@@ 3913
Koca@@ 3910
pis@@ 3908
mil 3907
koordin@@ 3905
Maz@@ 3901
ero 3898
sine 3898
mel 3897
Kes@@ 3895
ain@@ 3895
iko 3895
buc@@ 3891
01 3890
King 3890
arc@@ 3889
eve 3888
Cumhur@@ 3886
Club 3883
59 3881
sil 3881
türe@@ 3878
Ne 3876
eci@@ 3873
Daniel 3871
3,@@ 3868
Man 3866
orit@@ 3861
ınar 3856
​ 3851
Buffy 3850
Brit@@ 3849
muş@@ 3848
6,@@ 3846
7,@@ 3845
Alexander 3844
yd@@ 3844
Ec@@ 3842
aliyet 3841
low 3841
otik 3840
ach 3839
bank@@ 3839
program 3839
Rek@@ 3837
atin 3834
ığ 3831
Nur@@ 3830
kli 3826
pozis@@ 3826
oksi@@ 3823
83 3822
Kent 3821
02 3819
organize 3819
ō@@ 3819
1916 3818
indi 3818
ian 3817
Ü 3815
.com 3813
Live 3813
Chicago 3812
inopolis 3812
da@@ 3811
ürl@@ 3808
Lor@@ 3807
bağım@@ 3803
tablo@@ 3803
alli 3802
Tol@@ 3801
Zelanda 3801
ille 3801
Erz@@ 3799
Pav@@ 3798
ray@@ 3796
org@@ 3789
18,7 3784
Mary 3783
Nobel 3780
My@@ 3777
1908 3774
gat 3768
komple@@ 3768
Reg@@ 3765
Sakarya 3765
Çam@@ 3765
Pasif@@ 3764
Ven@@ 3763
Flor@@ 3762
Inter@@ 3761
kim 3756
07 3755
anz@@ 3752
köl@@ 3750
ə@@ 3746
Red 3745
buz@@ 3745
No@@ 3744
udi 3742
Emir@@ 3741
protein@@ 3739
Q 3736
800 3735
odi@@ 3735
Baba 3733
ansa 3733
ington 3733
Bis@@ 3732
IS@@ 3730
Z 3730
Kütahya 3727
arist@@ 3722
Hid@@ 3720
iten 3720
ota 3718
yalist 3715
nas@@ 3714
Mark 3713
bit 3711
pul@@ 3708
ance 3707
Vel@@ 3704
rekt@@ 3703
ure 3701
neh@@ 3692
Gaziantep 3691
fol@@ 3691
Koz@@ 3690
São 3689
rot@@ 3689
Marmara 3678
Real 3677
hal 3675
1913 3672
Albert 3672
Nokia 3672
Tour 3672
ick@@ 3671
• 3670
rü@@ 3664
televiz@@ 3664
Williams 3663
Let@@ 3662
Tom 3662
rat 3662
edr@@ 3658
Rum 3656
ons 3656
Roman 3653
Fat@@ 3651
International 3651
aff@@ 3642
ales 3639
ener 3636
udi@@ 3636
üste 3633
Vi@@ 3625
Üç@@ 3624
Vir@@ 3623
ue 3619
Â@@ 3618
ity 3617
Yeşil@@ 3616
zun@@ 3614
Vak@@ 3613
asik 3613
opera 3610
kutu@@ 3609
dy 3608
baba 3606
direkt@@ 3604
Anne 3602
Miss 3602
Allah 3599
Akadem@@ 3598
Big 3596
meli 3586
Belarus 3584
neği 3584
ost 3584
Eur@@ 3582
ulus@@ 3582
No 3580
ud 3579
Okul@@ 3578
unvan@@ 3577
ess 3572
Dik@@ 3570
Max 3570
yev 3565
13. 3562
Ha@@ 3560
Fo@@ 3558
afe 3557
lider 3552
AK 3551
hum@@ 3550
hükû@@ 3550
pilot@@ 3547
hil 3546
Erdoğan 3545
bet 3545
best 3541
DVD 3540
günümüz@@ 3538
sky 3537
ât 3537
aki@@ 3535
çek 3535
kub@@ 3530
1910 3524
bat 3523
sit 3519
ism@@ 3517
pp@@ 3517
Sir@@ 3512
gru@@ 3511
cel 3510
ps 3510
boy 3508
tis 3508
bre@@ 3506
It 3505
ost@@ 3500
ff 3492
demir@@ 3489
ó@@ 3489
Mis@@ 3486
FA 3484
mater@@ 3484
ân@@ 3484
Anna 3482
Gali@@ 3482
well 3480
fotoğ@@ 3479
Cum@@ 3478
Company 3476
NATO 3476
AC 3474
Yab@@ 3472
idi@@ 3471
Tav@@ 3467
oti@@ 3466
Ky@@ 3465
Solanum 3465
ğer 3465
á 3463
Pop@@ 3459
Kars 3457
Dir@@ 3454
los@@ 3452
Proj@@ 3451
mali 3451
nik@@ 3450
genin 3449
rede 3448
katkı@@ 3447
Lar@@ 3444
In 3443
ary 3442
basket@@ 3439
protest@@ 3439
06 3438
ıs 3438
klar 3437
SA@@ 3436
Tut@@ 3436
port 3435
kuru 3429
las@@ 3428
ple 3426
ılım 3426
Arizona 3420
15. 3418
National 3418
Bes@@ 3416
alin 3415
AN@@ 3414
Ork@@ 3414
BBC 3413
Moğ@@ 3413
2,@@ 3412
Diy@@ 3412
alle 3411
Luc@@ 3410
abe 3409
gül@@ 3407
atma 3406
Massachusetts 3403
verg@@ 3403
Royal 3401
The@@ 3401
10. 3398
9,@@ 3396
feri 3396
11.@@ 3394
ina@@ 3394
Meg@@ 3393
Gem@@ 3391
gun 3391
silc@@ 3391
Sig@@ 3386
ets 3384
iss@@ 3384
Chris 3382
taya 3380
Prus@@ 3379
int@@ 3379
laborat@@ 3378
nek@@ 3376
Arthur 3375
é@@ 3369
03 3368
aga 3367
parator 3367
alk@@ 3363
kamera 3362
tabl@@ 3360
Sof@@ 3359
statisti@@ 3359
Bun@@ 3358
kati@@ 3358
mati@@ 3355
Eli@@ 3353
Pierre 3351
amel@@ 3351
zon@@ 3349
posta 3347
Esk@@ 3345
Jones 3345
Pen@@ 3341
Ty@@ 3340
üt 3340
Dis@@ 3339
öt@@ 3338
ito 3335
Ep@@ 3334
Ki@@ 3334
ben 3333
Liga 3332
uni 3332
agr@@ 3331
atür@@ 3331
esto 3330
Siv@@ 3326
ator 3324
inger 3324
inal 3320
vin@@ 3319
nü@@ 3317
1900 3316
Premier 3313
hit@@ 3313
ift@@ 3313
vey@@ 3313
Cur@@ 3311
Nam@@ 3309
Virginia 3305
ıçta 3304
American 3298
avy@@ 3298
ikal 3291
po 3289
1911 3288
tul@@ 3285
Fransız@@ 3284
KK 3284
00@@ 3283
Florida 3282
Profes@@ 3279
emin 3279
ous 3277
analiz@@ 3275
Vietnam 3274
bot@@ 3274
vi 3273
.000 3272
Francisco 3272
Pu@@ 3271
Yor@@ 3269
pol 3269
so 3269
Stalin 3266
enden 3265
Life 3264
Zir@@ 3264
spons@@ 3264
örd@@ 3264
tel 3263
Prof. 3262
ih 3262
isa 3258
aliy@@ 3253
lit 3252
dev 3251
rasi 3250
ürlüğü 3250
kler 3248
astronom@@ 3243
Sc@@ 3242
uyu 3242
14. 3241
Slov@@ 3241
tris 3240
Elizabeth 3239
Mid@@ 3235
bis@@ 3235
Alan 3232
Friedrich 3231
ings 3228
RNA 3226
Cy@@ 3224
ula 3222
ith 3220
Alek@@ 3218
La@@ 3215
ny@@ 3215
ısız 3215
b. 3212
tin@@ 3211
Cre@@ 3206
ft 3206
dolay@@ 3202
ys 3202
üb@@ 3202
sch@@ 3201
Koc@@ 3199
Konservat@@ 3199
Pin@@ 3197
Mod@@ 3195
trop@@ 3193
Vas@@ 3192
mî 3192
wood 3190
Time 3189
okol@@ 3189
oni@@ 3189
Brezil@@ 3188
12. 3187
Dest@@ 3182
Ayd@@ 3180
Hem@@ 3179
Rob@@ 3173
urt 3171
yoğ@@ 3170
Oscar 3169
Scott 3169
elin 3167
iter 3167
Formula 3164
luy@@ 3164
Nes@@ 3163
vü@@ 3162
park 3161
kamer@@ 3159
tekli@@ 3152
Grammy 3147
Jersey 3143
fan@@ 3141
Hür@@ 3138
UNESCO 3138
Sas@@ 3136
els 3135
inter@@ 3131
arkad@@ 3129
piyas@@ 3128
onal 3124
Had@@ 3123
sis 3121
Nih@@ 3120
Ner@@ 3117
120 3116
zin@@ 3115
stil 3113
utu 3113
his 3112
une 3111
bez@@ 3110
Bug@@ 3105
Bot@@ 3104
abr@@ 3103
Yıld@@ 3102
hipot@@ 3100
oth@@ 3100
Musa 3099
ich@@ 3098
ellen@@ 3097
tt@@ 3096
Mali@@ 3095
vit@@ 3092
Pey@@ 3091
Yel@@ 3087
Amas@@ 3086
enko 3085
ling 3084
HP 3083
uki 3083
dia 3081
ight 3081
ilgil@@ 3078
pay@@ 3077
ble 3076
sus 3076
Ayr@@ 3074
ital 3068
Times 3067
mahalle@@ 3066
Alb@@ 3065
adal@@ 3065
ich 3065
âr@@ 3065
11. 3064
Kanal 3063
ES@@ 3062
Kuvvet@@ 3059
bas 3059
kok@@ 3058
amu 3057
Cav@@ 3056
eva 3056
amad@@ 3055
dram@@ 3055
yetik 3055
H. 3054
Rem@@ 3054
Arnav@@ 3053
Dom@@ 3053
ck 3053
Lin@@ 3051
Libya 3048
Petr@@ 3047
Kart@@ 3045
oya 3044
TC 3042
rar 3040
ico 3038
ame@@ 3036
Som@@ 3035
Ukr@@ 3035
beş@@ 3035
erle 3033
GB 3028
alet 3028
turn@@ 3027
Nat@@ 3026
Şanlıurfa 3026
aur@@ 3025
North 3024
Pil@@ 3024
veda 3024
inn@@ 3023
egen@@ 3022
Hollywood 3021
og 3017
Pri@@ 3015
hom@@ 3014
Blo@@ 3012
DP 3010
Brown 3009
tuğu 3008
reti@@ 3007
Fran@@ 3005
mızı 3003
Char@@ 3001
with 2999
Not@@ 2997
mur@@ 2997
nak 2997
dis 2996
ky 2994
Carl 2993
fat@@ 2991
eus 2990
apr@@ 2989
mur 2985
Alaska 2984
ihr@@ 2984
Mahmud 2983
Wor@@ 2983
galak@@ 2982
Hum@@ 2981
ovi@@ 2981
AT@@ 2980
iner 2980
Eğ@@ 2979
AM@@ 2978
Benz@@ 2978
adres@@ 2977
lukla 2972
Bon@@ 2971
Parti@@ 2970
Red@@ 2969
Young 2969
Dör@@ 2966
name 2965
1909 2963
Ash@@ 2963
yse 2960
Marie 2959
Sum@@ 2959
Johnson 2958
Ten@@ 2957
güre@@ 2957
vatand@@ 2957
kum 2954
Star@@ 2953
las 2952
Lak@@ 2951
Trans@@ 2951
engel 2950
phe 2949
arr@@ 2947
Bay 2946
Vit@@ 2946
demok@@ 2946
Dum@@ 2945
Feder@@ 2945
ileti@@ 2945
Ford 2943
Lit@@ 2942
Tit@@ 2940
12.@@ 2939
zo 2938
ros@@ 2937
tren 2935
apo@@ 2933
Fal@@ 2932
log@@ 2929
amac@@ 2928
plaz@@ 2928
bal 2927
jen@@ 2927
nur 2926
# 2920
Zi@@ 2920
annis 2920
lında 2919
pah@@ 2918
Fa@@ 2917
que 2916
Kız@@ 2915
ram 2914
avi@@ 2911
Tos@@ 2909
inus 2909
gar 2908
ınlar 2908
Berg@@ 2905
Def@@ 2905
Ort@@ 2903
Ry@@ 2903
700 2901
Bos@@ 2900
Spar@@ 2897
thi@@ 2897
War@@ 2896
section 2896
gener@@ 2894
Gl@@ 2893
250 2890
Tre@@ 2890
federal 2888
hiy@@ 2888
1907 2884
had@@ 2884
Andr@@ 2883
lia 2882
riv@@ 2881
sanc@@ 2880
Fakül@@ 2879
VI 2879
pres@@ 2878
Sul@@ 2875
Aks@@ 2873
Ener@@ 2869
vard@@ 2869
ğrenc@@ 2869
FK 2865
eth 2865
Leh@@ 2863
ensi 2863
lilik@@ 2861
ory 2860
dor@@ 2859
vr@@ 2859
ex@@ 2856
Tam 2854
Hall 2851
Pa@@ 2851
asist@@ 2851
Bulgar@@ 2849
1905 2848
mus@@ 2847
Raw 2846
the@@ 2845
ölçü@@ 2844
D. 2839
Sto@@ 2839
arla 2839
inos 2837
ımından 2836
mand@@ 2835
zey@@ 2835
ი@@ 2835
olina 2834
lip@@ 2833
» 2832
Malta 2830
Cat@@ 2828
mag@@ 2826
ift 2825
000 2823
Kn@@ 2822
CO@@ 2821
Samsung 2818
Akh@@ 2817
Joe 2817
yıldızı 2817
FI@@ 2816
ath 2816
Sağ@@ 2814
Stand@@ 2814
amm@@ 2812
ago 2811
Anti@@ 2809
RA@@ 2807
College 2802
Rod@@ 2801
aro 2801
atom 2800
jinal 2800
Kamp@@ 2799
Kh@@ 2797
esc@@ 2796
stil@@ 2795
ente 2794
nüf@@ 2792
Gil@@ 2791
Atle@@ 2789
1878 2788
MTV 2788
vil 2785
Got@@ 2784
ashi 2780
err@@ 2780
drama 2779
Şub@@ 2776
cam 2774
hor@@ 2773
not 2772
zur@@ 2771
Spor@@ 2770
che 2765
Pel@@ 2764
Sk@@ 2764
kuku 2763
Nag@@ 2762
oph@@ 2762
üph@@ 2762
asit@@ 2761
Top 2759
Angel 2758
pil@@ 2758
1902 2755
ier 2755
Hur@@ 2753
Obl@@ 2753
Hong 2752
Merkez@@ 2752
ett 2752
Kiev 2749
Sanc@@ 2748
Cey@@ 2746
Tif@@ 2746
estra 2746
360 2745
ado 2740
ido 2740
som@@ 2740
Mıs@@ 2739
pi 2739
dy@@ 2738
Dok@@ 2737
Aster@@ 2736
algorit@@ 2734
ill 2733
Atlan@@ 2732
TE@@ 2732
Vladimir 2732
enti 2730
Super@@ 2726
Hö@@ 2725
abi 2724
5.000 2723
ige 2723
landa 2721
tren@@ 2721
« 2721
José 2720
Taylor 2720
Madonna 2719
Lewis 2717
Mot@@ 2716
anos 2716
Jer@@ 2715
Belgrad 2712
chi 2711
Bask@@ 2710
kle@@ 2710
die 2709
End@@ 2706
Shi@@ 2701
amba 2701
Antonio 2698
pos 2698
ort 2697
Bob 2696
SE@@ 2693
Pot@@ 2692
Carlos 2689
Eb@@ 2689
PC 2689
trol 2688
Aç@@ 2687
AP 2686
1886 2685
ake 2682
Sed@@ 2680
esia 2679
gil 2679
epe 2676
Fri@@ 2675
our 2674
SA 2672
ee 2672
ish 2672
gri 2671
ment@@ 2668
Rah@@ 2667
Paulo 2666
Wilhelm 2666
Sony 2665
km2 2665
sir@@ 2665
Ray@@ 2664
transfer@@ 2664
30@@ 2663
CD@@ 2663
Group 2663
Antak@@ 2662
aal@@ 2662
gis@@ 2662
elektron@@ 2661
jer@@ 2661
va@@ 2661
Etim@@ 2660
vanya 2660
protein 2659
ste@@ 2658
R. 2657
ock 2655
DC 2654
tank 2654
ase 2653
hit 2653
Liverpool 2651
ando 2651
í@@ 2649
Final@@ 2645
nem 2645
ush@@ 2645
Boston 2643
ä@@ 2643
AC@@ 2641
elec@@ 2640
bert 2638
School 2636
akan 2635
demokrati@@ 2634
Pis@@ 2633
ais 2632
astr@@ 2632
ehir 2632
itz 2632
ped@@ 2632
oslov@@ 2630
sever@@ 2629
ındır@@ 2629
Pro 2626
amo 2626
8,@@ 2622
uli@@ 2622
Ces@@ 2620
Sir 2620
eto 2620
etta 2619
tro 2619
tit@@ 2618
Ada 2617
Yo@@ 2617
enstr@@ 2616
Fir@@ 2614
Ale@@ 2612
Haned@@ 2612
hur@@ 2610
ildir 2610
Lenin 2609
kateg@@ 2608
bekistan 2607
faz 2607
izi@@ 2605
ensis 2604
urg 2601
Lam@@ 2598
entr@@ 2598
nd@@ 2595
Num@@ 2592
don 2591
ania 2589
kanal 2589
Pam@@ 2588
Vek@@ 2587
zu@@ 2586
cher 2585
Disney 2583
osen 2583
esab@@ 2582
ie@@ 2582
ry 2582
Wat@@ 2581
0,1 2580
AL 2580
Mam@@ 2580
Mars 2580
ime@@ 2578
naz@@ 2578
nem@@ 2578
hali 2577
opo@@ 2577
reç@@ 2577
inae 2576
Sus@@ 2575
án 2575
eman 2574
Gur@@ 2573
ł@@ 2573
Simon 2572
Day 2569
klin@@ 2568
bür@@ 2567
nu@@ 2567
Balt@@ 2564
Super 2564
oran 2563
Kong 2561
onda 2561
Niz@@ 2560
arma 2557
net@@ 2557
set 2557
Sw@@ 2556
abad 2555
vo@@ 2555
ense 2554
like 2554
hasta 2553
kör@@ 2552
ölçümü 2550
Ars@@ 2546
Hamilton 2546
BM 2545
bombard@@ 2544
Team 2543
oku 2543
Air 2542
ER@@ 2541
Fox 2540
Fot@@ 2539
Demok@@ 2538
yeti 2536
Meh@@ 2535
ikat@@ 2535
Kre@@ 2533
Victoria 2532
laz@@ 2532
DE@@ 2528
Rab@@ 2528
Mül@@ 2527
Hill 2526
ão 2526
ი 2525
lit@@ 2524
Hır@@ 2522
oa 2521
1906 2520
Bed@@ 2520
Linux 2520
Steve 2519
egen 2518
Day@@ 2517
ont@@ 2515
ier@@ 2514
E. 2513
Juan 2513
ister@@ 2513
Fili@@ 2511
Sol 2510
vo 2509
ST@@ 2508
Bill 2506
Cin@@ 2505
Key@@ 2505
atta 2505
ua 2504
ame 2503
She@@ 2502
Sy@@ 2502
Bundesliga 2499
amaz@@ 2499
ace 2497
ash 2497
ile@@ 2497
ept@@ 2496
mp@@ 2496
Not 2495
Tony 2495
diya 2495
Sos@@ 2494
Sub@@ 2494
pot@@ 2493
France 2492
Pak@@ 2492
meyd@@ 2490
pand@@ 2489
Sam 2488
Loc@@ 2487
lon 2486
C. 2484
etr@@ 2484
ert 2483
Lef@@ 2482
Pop 2482
Protest@@ 2481
amo@@ 2480
Ez@@ 2479
Christian 2478
aye 2477
oto@@ 2477
temas 2475
Rey 2474
Müs@@ 2472
1890 2471
element@@ 2469
etten 2469
Yu@@ 2466
com@@ 2466
biyat@@ 2463
çuk@@ 2463
Avustur@@ 2462
Ever@@ 2462
Laur@@ 2461
aus@@ 2461
air 2460
stan@@ 2458
YouTube 2456
eter 2455
François 2453
urs 2453
All@@ 2452
tika 2451
UN@@ 2450
aber 2449
Ju@@ 2447
Beh@@ 2445
ıca 2445
reh@@ 2441
aray 2439
Corn@@ 2438
White 2438
Kale 2436
Ö 2431
bine 2430
kombin@@ 2430
rat@@ 2430
1876 2429
Walter 2429
Ses@@ 2428
düncü 2428
osa 2428
Im@@ 2427
ew@@ 2427
Win@@ 2425
ū@@ 2423
CA@@ 2422
Mac 2422
Fut@@ 2419
Maked@@ 2419
eka 2419
ett@@ 2419
sekt@@ 2419
aa 2418
has 2417
1877 2416
US@@ 2416
Ere@@ 2414
enses 2412
bo 2411
rem 2410
ini@@ 2409
nat@@ 2408
Ot@@ 2407
ayar 2404
ng 2404
Zam@@ 2403
1896 2402
Pau@@ 2402
form 2401
University 2400
cr@@ 2400
hiper@@ 2400
1904 2398
Haw@@ 2398
Lord 2398
bank 2397
Night 2395
trol@@ 2395
uke 2395
kov 2394
1,5 2392
Black@@ 2392
B. 2391
Ov@@ 2391
col@@ 2391
pilot 2390
Hom@@ 2389
Wilson 2388
alp@@ 2386
komit@@ 2383
10.000 2382
AD@@ 2382
rap@@ 2382
ampiyon 2377
zen 2377
Barcelona 2376
aliye@@ 2376
Hon@@ 2375
alya 2375
Hun@@ 2373
ont 2373
win 2373
Arena 2372
elen 2370
Bing@@ 2365
Mike 2365
Milano 2365
Andrew 2364
ekt@@ 2364
direkt 2363
ej 2362
alay@@ 2361
bün@@ 2360
tadan 2360
House 2359
erg@@ 2359
lah@@ 2359
lie 2358
Brian 2357
Stephen 2354
lice 2353
Sho@@ 2352
dal 2351
ome 2348
Dre@@ 2347
bır@@ 2347
agon@@ 2346
Kurt 2344
asan 2343
AS 2342
Kri@@ 2342
Buenos 2341
1901 2339
Corporation 2339
anj@@ 2339
Kilis@@ 2338
aport@@ 2338
afya 2337
parlament@@ 2337
S. 2336
fig@@ 2336
Wh@@ 2335
Oxford 2334
gut 2332
ting 2332
Aires 2331
Spe@@ 2330
AL@@ 2327
sat 2327
olim@@ 2326
-- 2325
we@@ 2323
ž@@ 2323
Holding 2322
sus@@ 2322
Len@@ 2321
Pic@@ 2321
Nikol@@ 2320
kam 2320
bury 2319
riz@@ 2317
Tac@@ 2316
oi 2315
MS@@ 2313
Tiyatr@@ 2313
Napoli 2309
gre@@ 2309
umi 2308
Hans 2307
ë@@ 2307
Ş 2307
Nav@@ 2306
gl@@ 2304
mam 2304
reg@@ 2303
ე@@ 2303
Liv@@ 2302
New@@ 2301
Championship 2300
Mand@@ 2300
zek@@ 2297
Batman 2295
Jacques 2294
mun@@ 2294
tiz 2293
Sloven@@ 2292
vey 2292
Rol@@ 2291
tran@@ 2291
Bank 2290
ettin 2288
ombi@@ 2288
oman@@ 2287
Patr@@ 2286
yesinde 2284
Pensil@@ 2282
yeye 2282
sed@@ 2281
Who 2280
mağlu@@ 2280
East 2278
Mont@@ 2278
Mos@@ 2278
sson 2278
Bod@@ 2277
öh@@ 2277
Grande 2276
oter@@ 2276
vet@@ 2274
Ca@@ 2272
IC@@ 2272
25@@ 2269
Kin@@ 2269
Alt 2267
suya 2266
ento 2265
gam@@ 2264
Boğ@@ 2263
rul@@ 2263
Japon@@ 2261
80@@ 2260
dör@@ 2258
Gro@@ 2255
hik@@ 2254
40@@ 2253
Nah@@ 2253
ante 2253
lil@@ 2253
Stone 2252
Ted@@ 2251
IM@@ 2250
Charlie 2249
Tir@@ 2247
Art 2245
arya 2245
14.@@ 2244
Pet@@ 2243
lige 2243
130 2242
Sinc@@ 2241
tropo@@ 2241
Mark@@ 2240
femin@@ 2240
Sm@@ 2239
Arnavut@@ 2237
hata 2235
lus 2235
Maur@@ 2234
vis@@ 2234
hü@@ 2233
oth 2233
Of 2231
önces@@ 2228
Newton 2227
Amerik@@ 2225
Lat@@ 2225
ø@@ 2225
24@@ 2224
ison 2224
yp@@ 2224
odo@@ 2222
Stad@@ 2221
1903 2220
Rak@@ 2220
Web 2220
als 2220
Tic@@ 2219
parlamento 2219
а@@ 2219
ther 2213
Buz@@ 2212
yam@@ 2211
Swift 2210
alis 2210
Cu@@ 2209
este 2209
normal@@ 2207
Hek@@ 2206
í 2205
17.@@ 2203
denen 2203
Galaxy 2202
Ulus@@ 2202
iOS 2202
Filipin@@ 2201
Boh@@ 2199
Ras@@ 2199
Alfred 2198
dire@@ 2197
Pale@@ 2195
HD 2194
Program@@ 2194
Kub@@ 2193
Progr@@ 2191
Avustr@@ 2190
× 2189
row 2188
Nit@@ 2187
ho 2187
ors 2187
Wol@@ 2185
Alice 2182
Green 2182
sburg 2181
Dun@@ 2180
ju@@ 2180
Muk@@ 2174
trav@@ 2173
Ci@@ 2172
1880 2171
etle 2171
oru 2168
Cap@@ 2163
Pay@@ 2163
Wo@@ 2163
ebr@@ 2163
ple@@ 2163
Tran@@ 2162
jin@@ 2162
Football 2161
bâ@@ 2160
ty@@ 2157
vili 2157
Gol@@ 2156
go@@ 2156
patr@@ 2156
ón 2156
hol@@ 2155
ović 2155
Sudan 2154
Little 2153
Muhar@@ 2153
miz@@ 2153
agan 2152
tes 2152
Liz@@ 2150
ikam@@ 2150
Faz@@ 2149
Ohio 2149
Jac@@ 2148
ikan@@ 2148
mo 2148
och@@ 2148
aller@@ 2147
13.@@ 2144
50@@ 2143
ú@@ 2143
cor@@ 2142
mang@@ 2142
Eric 2141
ram@@ 2141
Island 2140
plat@@ 2140
Parlamento 2139
Sap@@ 2139
Columbia 2137
II@@ 2137
anca 2137
mom@@ 2136
Maine 2134
tura 2134
dat@@ 2133
eren 2133
oshi 2133
რ@@ 2133
öf@@ 2132
PS 2130
Sit@@ 2130
müs@@ 2130
110 2129
Atlas 2128
Heinrich 2128
şun@@ 2127
Kevin 2126
iben 2126
Euro 2123
ark 2123
ikil@@ 2121
uca 2121
Shar@@ 2120
cir 2119
oid 2119
Konstantin 2118
hil@@ 2118
portr@@ 2118
Illinois 2116
Nic@@ 2116
hes@@ 2116
ney@@ 2115
wa 2115
esti@@ 2114
Alex 2112
Center 2112
Roc@@ 2112
opter@@ 2111
Bern@@ 2110
Medi@@ 2108
SB@@ 2108
ein 2108
ukur@@ 2108
bakır 2106
kong@@ 2106
worth 2106
Prag 2105
SS@@ 2102
W. 2102
chi@@ 2102
iran 2102
Pep@@ 2101
Ensti@@ 2100
miner@@ 2099
cami@@ 2098
Opera 2095
sep@@ 2095
way 2095
hai 2091
Fen@@ 2090
kot@@ 2090
Adri@@ 2089
Coğr@@ 2088
Adolf 2087
yar 2086
Mich@@ 2083
Euro@@ 2081
Radi@@ 2081
kapit@@ 2081
oğul@@ 2080
ulus 2080
Cambridge 2079
Blue 2078
Einstein 2078
milit@@ 2078
filme 2076
ther@@ 2075
Geor@@ 2074
Hot@@ 2074
ides 2074
iller@@ 2074
ine@@ 2070
ümüş 2070
Nu@@ 2069
mr@@ 2069
Jan@@ 2068
Liber@@ 2068
Porto 2068
eke 2068
thi 2068
Philadelphia 2067
Hap@@ 2066
Michigan 2066
Fon@@ 2065
apa 2064
moda 2063
1870 2062
Francis 2062
Seb@@ 2062
eter@@ 2061
oslav 2060
klar@@ 2059
sist@@ 2059
Otto 2058
Anthony 2056
F. 2056
Politi@@ 2055
Chelsea 2053
Off 2053
pref@@ 2053
rom 2053
lat 2052
Peru 2047
hus@@ 2047
ref 2047
1897 2046
Kost@@ 2046
ics 2046
raz@@ 2045
arca 2044
Nem@@ 2043
atar 2043
1500 2042
Jon 2039
tron 2039
P. 2038
PlayStation 2038
aer@@ 2038
MP 2037
Ath@@ 2036
Yorkshire 2036
ME@@ 2035
dova 2035
ator@@ 2034
Kob@@ 2033
hiç@@ 2033
nir 2033
pin@@ 2032
1899 2031
AT 2031
Gior@@ 2029
Yemen 2029
PS@@ 2028
kins 2027
Š@@ 2027
DJ 2026
Harvard 2026
11@@ 2025
IP 2025
Van@@ 2025
KP 2024
Panzer 2024
eki@@ 2024
etk@@ 2024
opot@@ 2024
ment 2020
slo@@ 2020
mana 2018
Pon@@ 2017
TP 2016
hin@@ 2015
Street 2012
Domin@@ 2011
Giovanni 2011
Fey@@ 2010
adele 2010
NASA 2006
udu 2005
üng@@ 2005
Noel 2003
lebilir 2002
Frankfurt 1999
VII 1998
fut@@ 1997
Azer@@ 1996
God@@ 1996
Gold@@ 1996
depres@@ 1996
siv@@ 1996
Fab@@ 1994
eh 1993
West@@ 1991
iPhone 1991
Om@@ 1990
fan 1989
tüsü 1989
Ga@@ 1987
Astr@@ 1986
Gun@@ 1986
ife 1986
Go 1985
Is 1984
1864 1983
I.@@ 1983
Fin 1982
Wood@@ 1980
yüzünde 1980
California 1979
Rick 1979
Teh@@ 1979
Hep@@ 1978
enberg 1978
11,@@ 1977
flor@@ 1976
matr@@ 1975
reb@@ 1975
Miy@@ 1974
bomb@@ 1974
Lah@@ 1973
Whit@@ 1973
Universe 1968
AP@@ 1967
Dah@@ 1967
Bus@@ 1966
Laborat@@ 1965
MA 1965
Yok@@ 1964
Just@@ 1962
amber 1962
Kons@@ 1961
Villa 1960
Serge@@ 1959
karma@@ 1959
Clar@@ 1958
Gaga 1958
Milan 1958
DS@@ 1956
Leg@@ 1956
Ful@@ 1955
1895 1954
Arg@@ 1954
Samuel 1953
Dig@@ 1952
Kuz@@ 1952
jo 1952
AB@@ 1951
olik 1951
1885 1950
Serie 1950
yc@@ 1949
Mul@@ 1948
key@@ 1948
tili@@ 1948
û 1948
ikal@@ 1947
Ruh@@ 1945
Kant@@ 1944
usta 1944
1,2 1943
Game 1943
ning 1943
gus@@ 1942
anta 1940
him 1940
tap@@ 1939
Bad@@ 1938
tz 1937
Aleksandr 1936
cuya 1936
nh@@ 1936
€ 1936
900 1935
South 1935
Gog@@ 1934
Ceb@@ 1933
m. 1931
26@@ 1930
Hamburg 1930
tion 1930
Arsenal 1929
L. 1928
yör@@ 1928
üstr@@ 1928
Kuv@@ 1927
enter 1926
heb@@ 1926
Ray 1924
km@@ 1922
Elektron@@ 1921
Hugo 1921
pre@@ 1920
gio 1919
Kos@@ 1918
180 1917
Prim@@ 1917
Sen 1917
tig@@ 1917
heim 1916
Cro@@ 1915
Doctor 1915
use 1915
G. 1914
Of@@ 1913
SO@@ 1913
risk 1913
ves@@ 1913
Amsterdam 1912
Bad 1912
Model 1912
1898 1911
Lind@@ 1911
Budap@@ 1910
hop 1910
Slo@@ 1908
teles@@ 1908
ızca 1908
His@@ 1907
1889 1906
28@@ 1906
khan 1904
sens@@ 1904
Mobile 1903
Pres@@ 1902
Kov@@ 1901
Radio 1901
Yön@@ 1901
Peter@@ 1900
yeş@@ 1900
Lav@@ 1898
off@@ 1898
mat 1897
adel@@ 1896
uli 1896
ana@@ 1894
sul 1894
liberal 1892
ichi 1891
esh@@ 1889
Jan 1888
atus 1888
Fol@@ 1887
Normal 1887
oe 1887
Ast@@ 1886
post@@ 1883
ref@@ 1883
Lad@@ 1882
Zor@@ 1882
muz@@ 1881
uch@@ 1881
Cos@@ 1880
Kent@@ 1880
Sun 1880
nük@@ 1880
omen 1878
Bell@@ 1877
tram@@ 1877
Lady 1876
war@@ 1876
Georgia 1875
Up 1875
fonk@@ 1874
ikos 1872
otor@@ 1872
tri 1872
Tel 1871
geometr@@ 1871
But@@ 1870
iP@@ 1870
tra@@ 1870
Luci@@ 1869
Mario 1869
Society 1867
Tanz@@ 1867
ango 1867
das 1867
lib@@ 1867
Patrick 1866
Bec@@ 1863
Said 1863
MP@@ 1862
ald 1862
nes 1862
out 1862
rap 1862
Henri 1861
Leon 1860
Leon@@ 1860
Tw@@ 1860
27@@ 1859
Abbas 1859
Motor@@ 1859
iga 1859
Köln 1858
hö@@ 1858
Association 1856
Metal 1856
onom@@ 1856
kayde@@ 1853
Antar@@ 1852
BC 1852
Dep@@ 1852
Luis 1850
Rose 1849
Aleksand@@ 1848
Hul@@ 1848
uman 1848
Franz 1847
IN@@ 1847
tac@@ 1847
Bau@@ 1846
abrik@@ 1846
Ig@@ 1845
− 1845
å@@ 1844
Dic@@ 1841
SP@@ 1841
Din 1840
³ 1840
eno 1839
Cab@@ 1837
aus 1837
terci@@ 1837
Victor 1836
ack@@ 1836
kili@@ 1836
16.@@ 1834
Nur 1834
AN 1833
Allen 1833
Die 1833
alc@@ 1833
asti@@ 1833
imo 1832
Anderson 1831
obi 1831
Twitter 1830
ange 1830
eira 1830
liber@@ 1830
Jr 1828
100.000 1827
gir 1827
Ses 1826
fen 1826
Miller 1825
17@@ 1823
60@@ 1823
Bet@@ 1823
Media 1822
Lincoln 1820
geome@@ 1820
tesp@@ 1820
Play@@ 1819
king 1817
Anton@@ 1816
ater@@ 1816
Del 1815
Roger 1815
aun@@ 1815
pay 1814
Aur@@ 1813
Jim 1813
Studios 1813
Town 1813
dre@@ 1812
ester@@ 1812
termin@@ 1810
tia 1810
Diego 1809
ider@@ 1809
DT@@ 1806
Venezuela 1806
Olimpiyat@@ 1805
North@@ 1803
strat@@ 1803
türk@@ 1803
1860 1802
Adams 1801
aria 1801
rin 1801
Jane 1800
ire@@ 1800
Marcus 1799
Net@@ 1799
Stockholm 1799
öd@@ 1799
sid@@ 1798
SM 1796
15.@@ 1795
cio 1795
tus 1795
Benjamin 1794
acet@@ 1793
3000 1792
ester 1792
mas 1791
iat 1790
nova 1790
ax 1789
old 1789
hara 1787
imal 1787
Bri@@ 1785
CE@@ 1785
emati@@ 1784
1894 1783
Paz@@ 1782
ones 1782
tom 1782
Xbox 1781
versi@@ 1780
ein@@ 1779
Girl 1778
Sz@@ 1778
Christopher 1777
Dan 1777
aja 1777
21. 1776
Dead 1776
ax@@ 1776
ingen 1774
oka 1774
teri@@ 1773
Günümüz@@ 1772
Norman 1772
enj@@ 1772
kur 1772
nic@@ 1771
iste 1770
Franklin 1769
Nus@@ 1769
kule 1769
eles 1768
aver@@ 1767
int 1767
titr@@ 1767
oks 1766
Douglas 1765
akter@@ 1765
car 1765
gur@@ 1765
Stal@@ 1764
kop 1764
obj@@ 1763
ium 1762
Rap@@ 1761
agon 1761
Johann 1760
Web@@ 1760
Your 1760
ador 1760
Davis 1759
Les@@ 1759
belge 1759
ogen@@ 1759
Deb@@ 1758
etz@@ 1758
igh@@ 1758
Rot@@ 1757
sis@@ 1756
Camp@@ 1755
Lov@@ 1754
Arti@@ 1753
Ze@@ 1753
ned@@ 1753
Organiz@@ 1752
ass 1751
oke 1749
19.@@ 1748
irt 1748
nel 1747
Sher@@ 1746
cl@@ 1745
Krist@@ 1743
eba 1743
pist@@ 1743
… 1743
20.@@ 1742
vers 1742
BS 1741
Connecticut 1741
oker 1741
Uruguay 1740
Rev@@ 1739
lus@@ 1739
Gam@@ 1738
SmackDown 1738
enk@@ 1736
1893 1735
Network 1735
Pul@@ 1735
okras@@ 1735
tw@@ 1735
Facebook 1734
sten 1731
amer@@ 1729
vs 1728
yl 1728
plerinden 1727
Pad@@ 1726
Lake 1724
Boy 1723
Dec@@ 1722
Ryan 1721
emis@@ 1721
kuy@@ 1721
AK@@ 1720
Festival 1719
bel 1718
amin@@ 1716
iliz@@ 1716
1800 1715
Afr@@ 1715
Kazak@@ 1715
Song 1715
inf@@ 1715
evin 1714
Bâ@@ 1713
Cannes 1713
TO@@ 1711
dad@@ 1711
onal@@ 1711
18.@@ 1710
IX 1708
Bart@@ 1705
CEO 1705
Ing@@ 1705
Zer@@ 1705
.S. 1703
1882 1702
linde 1702
Jar@@ 1701
Pur@@ 1701
S.@@ 1701
atra 1701
porno@@ 1701
à 1701
Barbar@@ 1700
Chap@@ 1700
Emmy 1700
Post@@ 1700
Lawrence 1698
Minnesota 1698
ny 1697
Shin@@ 1696
vić 1696
ლ@@ 1696
1892 1695
CS@@ 1695
Mun@@ 1695
Michel 1693
TA 1693
Nintendo 1692
VIII 1691
from 1690
1881 1689
Bru@@ 1689
Nil@@ 1689
fordshire 1689
High 1688
able 1688
ić 1688
adap@@ 1687
azz@@ 1686
Güven@@ 1685
We 1685
18@@ 1684
Erk@@ 1684
Pictures 1683
aton 1683
Dek@@ 1682
Queen 1682
Yos@@ 1682
bot 1682
ag 1681
agog@@ 1679
ate@@ 1679
los 1678
arz@@ 1677
Best 1675
icus 1675
CP 1674
ect 1674
nar 1674
Motor 1673
lum 1673
RT@@ 1672
amin 1672
ա@@ 1672
BA 1670
eff@@ 1670
zar 1670
Apol@@ 1669
Bou@@ 1668
Metro 1668
Augustus 1667
liter@@ 1667
dit@@ 1666
fin 1666
Antal@@ 1665
agn@@ 1665
AE@@ 1664
Ark@@ 1664
Toronto 1664
Vo@@ 1664
ska 1664
23@@ 1662
Singapur 1662
kuz 1662
topo@@ 1660
Hit@@ 1659
SV 1658
Kongo 1657
oria 1657
Land@@ 1655
Bush 1654
PE@@ 1654
sius 1654
AA 1653
ehrin 1652
Zeus 1650
embe 1649
IS 1648
eld 1648
́ 1648
kompl@@ 1647
uba 1647
River 1646
bana 1645
nis@@ 1645
fet@@ 1644
Games 1643
Sarah 1643
Vincent 1643
eer 1643
filtr@@ 1643
É@@ 1642
Mart@@ 1641
Aer@@ 1640
1891 1639
Blu@@ 1639
eck 1639
over 1639
res 1639
Lombar@@ 1638
Tibet 1637
bach 1637
riz 1637
33,@@ 1636
Warner 1636
tere 1636
Alg@@ 1635
anal@@ 1634
pag@@ 1634
Krall@@ 1633
Matt 1631
RAM 1631
onius 1631
101 1630
onn@@ 1630
Schleswig 1628
Under@@ 1628
Mahkem@@ 1626
ae@@ 1626
insk 1626
onia 1626
UCI 1625
Donald 1624
29@@ 1623
türel 1623
Flam@@ 1622
1835 1621
Green@@ 1621
alia 1621
metro 1619
oba 1619
ă@@ 1618
London 1617
ansiy@@ 1617
Slav@@ 1616
2.000 1615
Abr@@ 1615
K. 1615
tay 1613
ó 1612
RI@@ 1610
Rub@@ 1610
Sonuç@@ 1610
Ther@@ 1610
Vor@@ 1610
ical 1610
jan 1610
mon 1610
Be 1609
Ferdinand 1608
maye 1608
Kle@@ 1607
Part@@ 1607
ibe 1607
Kus@@ 1606
side 1606
mond 1605
ston 1605
Hus@@ 1604
160 1603
star 1601
125 1600
Bag@@ 1600
Bran@@ 1600
Eg@@ 1600
Minas 1599
Jay 1598
140 1597
British 1596
AM 1595
Bron@@ 1595
ei@@ 1595
FM 1594
Leo 1594
eria 1594
Bac@@ 1593
arius 1593
ca@@ 1593
elia 1593
leer 1593
Ball@@ 1591
RO@@ 1591
Belç@@ 1590
Charlotte 1588
FF 1587
Ferrari 1586
bad@@ 1586
Jason 1585
parlam@@ 1585
iss 1584
more 1584
Marx 1582
Bernard 1581
ow 1581
0,6 1580
anime 1580
doğru@@ 1580
onlyinclude 1580
Selçuk@@ 1579
wich 1579
ds 1578
Lang@@ 1577
Wrestling 1575
1.000 1574
Bruce 1574
Miami 1574
tol@@ 1574
vis 1574
TV@@ 1573
azam@@ 1572
tica 1571
Cop@@ 1570
KA 1570
oli 1570
Andrea 1569
Basil@@ 1569
Howard 1569
fes 1569
tesis 1569
1848 1568
Holstein 1567
Kelly 1567
Pers@@ 1567
Philip 1567
2,5 1566
Bell 1566
vamp@@ 1566
Jür@@ 1565
müc@@ 1565
Mic@@ 1564
isten 1564
illi@@ 1563
America 1562
Batt@@ 1562
Strat@@ 1562
laf 1562
ait@@ 1561
Gas@@ 1560
Petersburg 1560
Til@@ 1560
tadır 1560
Long 1559
Maj@@ 1559
hy@@ 1559
iletiş@@ 1559
Dance 1558
Mali 1558
Post 1558
Ran@@ 1558
asu 1558
eda 1558
Gordon 1557
Performan@@ 1557
Py@@ 1557
kana 1557
oldu@@ 1557
wen@@ 1557
bro@@ 1556
lav@@ 1556
Muz@@ 1553
oride 1553
1867 1552
1888 1552
AF 1552
NE@@ 1552
pa@@ 1552
200@@ 1551
Janeiro 1551
oton@@ 1551
Voy@@ 1550
bos@@ 1550
eng 1550
mevcut@@ 1550
1884 1549
23.@@ 1549
filos@@ 1549
mar 1549
we 1549
Helsinki 1548
mâ@@ 1548
tic 1548
PA 1547
Lap@@ 1546
Manuel 1546
Indiana 1545
Marvel 1545
nor@@ 1545
Kati@@ 1544
Mr 1544
begin 1544
Ele@@ 1543
Lid@@ 1543
This 1543
Bryan 1542
adem@@ 1541
rah 1541
Yug@@ 1540
âm 1540
Las 1538
non 1538
ough 1538
ais@@ 1537
Russell 1536
filmi@@ 1536
20.000 1535
traj@@ 1534
Phone 1533
iner@@ 1533
say 1533
{ 1533
ager 1532
ex 1531
unk@@ 1531
İsviç@@ 1531
Organ@@ 1530
api 1529
Abdul@@ 1528
Sankt 1528
elo 1528
Mess@@ 1527
asen 1527
lâm 1527
nom@@ 1527
Vamp@@ 1526
itt 1526
rop@@ 1525
Steven 1524
oo 1524
stati@@ 1524
mav@@ 1523
tum 1523
RE@@ 1522
alle@@ 1522
ნ@@ 1522
rün@@ 1520
tras@@ 1520
1865 1518
Ej@@ 1518
Out 1517
Sn@@ 1517
XX@@ 1517
ader 1517
deleg@@ 1517
Houston 1516
Doktor@@ 1515
obil@@ 1515
´ 1515
bilgis@@ 1514
cha 1514
Andre@@ 1513
Bog@@ 1513
Kun@@ 1513
Lag@@ 1512
uzaklık@@ 1512
Dro@@ 1511
dale 1511
Fernando 1510
cir@@ 1510
Fair@@ 1509
Ludwig 1509
Tim 1509
Mercedes 1508
ube 1508
Margaret 1507
TH@@ 1507
Marshall 1506
ace@@ 1505
ander 1505
Emin@@ 1504
Guy 1504
Pedro 1504
house 1504
zon 1504
Danim@@ 1502
Elem@@ 1502
dig@@ 1501
ros 1501
aster@@ 1500
ju 1500
www.@@ 1500
Kennedy 1499
News 1499
Tul@@ 1499
mün@@ 1499
Him@@ 1498
Wi@@ 1498
dic@@ 1498
Boliv@@ 1497
LE@@ 1497
Potter 1497
1887 1495
1871 1494
Drama 1494
NO@@ 1494
Bom@@ 1493
Theod@@ 1493
Fur@@ 1492
plant@@ 1492
Kard@@ 1491
Kath@@ 1491
aks 1491
ris 1491
gag@@ 1490
Boeing 1489
ahan 1489
ako 1489
site 1489
Poly@@ 1488
VI@@ 1487
dit 1487
DS 1486
skaya 1486
acc@@ 1485
Hop@@ 1484
edan 1484
sn@@ 1483
zan@@ 1483
belle@@ 1482
vor 1482
ega 1481
arru@@ 1480
105 1479
First 1479
Roman@@ 1479
Harris 1478
zır@@ 1478
Gabriel 1476
Cand@@ 1475
Hampshire 1475
Hin@@ 1475
Ernst 1474
Les 1474
Lisa 1474
Yang@@ 1474
ideal 1474
nada 1474
ote 1474
Sky@@ 1473
con 1473
pembe 1473
Sidney 1472
T. 1472
Will 1472
Rez@@ 1471
Anim@@ 1470
monte 1470
Arm@@ 1469
Aviv 1469
LGBT 1469
1850 1468
64,@@ 1468
Balık@@ 1468
bra 1468
ovo 1468
bie 1467
pon 1467
Dür@@ 1465
Rag@@ 1465
Telek@@ 1465
DA 1463
BB 1461
Vis@@ 1461
oga 1461
Kru@@ 1460
Moore 1460
MI@@ 1458
Intel 1457
erry 1456
yu@@ 1456
Phil@@ 1455
ault 1455
jin 1455
lej@@ 1455
metabol@@ 1455
X. 1454
DE 1453
Dark 1453
To 1453
MC 1452
Nick 1452
ahi@@ 1452
polar@@ 1452
umb@@ 1451
š 1451
arom@@ 1450
leg@@ 1450
3D 1449
PG 1449
back 1449
Vic@@ 1448
1.5 1446
Hub@@ 1446
Program 1446
Shakespeare 1446
endem@@ 1446
Ya@@ 1445
Claude 1444
vay 1444
Reh@@ 1443
Sau@@ 1443
Tig@@ 1443
isse 1443
thr@@ 1443
Jimmy 1442
Morgan 1442
1883 1441
ardin@@ 1440
Death 1439
dua 1439
elendir@@ 1438
Robin 1437
lock 1437
tâ@@ 1437
Lü@@ 1436
omer@@ 1435
presti@@ 1435
State 1434
div@@ 1434
ingham 1434
Out@@ 1433
US 1433
firma 1432
ī@@ 1432
bomba 1431
Girls 1429
tha 1429
Broadway 1428
Edi@@ 1428
Jeff 1428
Kot@@ 1428
prati@@ 1428
350 1427
Arts 1427
Enter@@ 1427
dos 1427
Do 1426
ios 1426
vac@@ 1426
2.0 1425
IP@@ 1425
Kand@@ 1425
Great 1424
Netflix 1424
Ton@@ 1423
igo 1423
Nin@@ 1422
Arch@@ 1420
dec@@ 1420
gran@@ 1420
rum 1420
Joh@@ 1419
Universal 1418
ated 1417
Gib@@ 1416
stone 1416
Nan@@ 1415
depart@@ 1415
gh@@ 1415
prof@@ 1415
ady 1414
iTunes 1414
itch 1414
1863 1413
Manhattan 1413
Reb@@ 1413
Venedi@@ 1413
dius 1413
Dimi@@ 1412
Norman@@ 1412
ო@@ 1412
Ob@@ 1411
oidea 1411
under@@ 1411
yir@@ 1411
yin 1410
Oliver 1408
Boris 1407
Gul@@ 1407
ij@@ 1407
inn 1407
35@@ 1405
Ji@@ 1405
Pod@@ 1405
own 1405
Moh@@ 1404
yes@@ 1404
Way 1403
jet 1403
ray 1403
AV@@ 1402
Alem@@ 1402
Good 1402
Ross 1401
£ 1401
ody 1400
platform 1400
atri@@ 1399
Banglad@@ 1398
aham@@ 1398
anger 1398
dae 1398
kost@@ 1398
0,3 1397
3.000 1397
ech 1397
itz@@ 1397
Riz@@ 1395
Wayne 1395
jan@@ 1395
Studio 1394
Lost 1393
Wes@@ 1393
vel 1393
10,@@ 1392
heter@@ 1392
ness 1392
о@@ 1392
Kok@@ 1391
Liberal 1391
sc@@ 1391
zen@@ 1391
AG@@ 1389
Kate 1389
rine 1389
Cle@@ 1388
hard 1388
Bayern 1387
ū 1387
1875 1386
Bla@@ 1386
Serv@@ 1386
ET@@ 1385
Ober@@ 1385
Ostr@@ 1385
bahçe 1385
Mass@@ 1384
zo@@ 1384
120@@ 1382
Office 1382
PC@@ 1382
vim@@ 1382
An 1381
Dublin 1381
Johnny 1380
Thor@@ 1380
eau 1380
olo 1380
1873 1379
illo 1379
lob@@ 1379
Must@@ 1378
apar@@ 1377
asim@@ 1377
imb@@ 1377
Fah@@ 1376
Miguel 1376
ers@@ 1375
1830 1373
Jordan 1373
Juli@@ 1373
Ligue 1373
SD@@ 1373
hen@@ 1373
AD 1372
Division 1372
ABC 1371
TS 1371
burn 1371
A2 1370
abak@@ 1370
prim@@ 1369
LA 1368
iral 1367
Barbara 1366
maf@@ 1366
Sag@@ 1365
elt 1365
ole@@ 1365
mus 1364
ë 1364
Amazon 1363
Wrest@@ 1363
AG 1362
CIA 1362
Conn@@ 1362
Kopen@@ 1362
Last 1362
liv@@ 1362
ann 1361
esi@@ 1361
urn@@ 1361
Hok@@ 1360
Missouri 1360
aud 1360
Aus@@ 1359
Store 1359
oki 1359
Lan@@ 1358
128 1357
til 1357
Xi@@ 1356
Helen 1354
Hü@@ 1354
fres@@ 1354
trin@@ 1354
Channel 1353
Jerry 1353
Mach@@ 1353
augh@@ 1353
Jonathan 1352
Yus@@ 1352
geb@@ 1352
Kron@@ 1351
oid@@ 1351
ric@@ 1351
Pit@@ 1350
Zel@@ 1350
istr@@ 1350
prom@@ 1349
22.@@ 1348
Carlo 1347
Good@@ 1347
Pom@@ 1347
ümer 1347
inay@@ 1346
Seattle 1345
Torino 1345
aph@@ 1345
Julia 1344
atur@@ 1344
1868 1343
Gag@@ 1342
ave@@ 1342
1834 1341
Wit@@ 1341
esta 1341
Lib@@ 1340
Para 1340
anatom@@ 1340
mol@@ 1340
ves 1340
Lyon 1339
alimanı 1339
enza 1339
tidae 1339
Frederick 1338
tiv@@ 1338
Che@@ 1337
Riv@@ 1337
124@@ 1336
FIBA 1336
GP@@ 1336
Slam 1336
eon 1336
org 1334
Open@@ 1333
Süley@@ 1332
ME 1331
RT 1331
idea 1331
lor@@ 1331
low@@ 1331
Olimpi@@ 1330
Junior 1329
cia 1329
enburg 1329
hin 1329
1861 1328
Raf@@ 1328
cho 1328
cus 1328
Telef@@ 1327
Atlanta 1326
Hz 1326
Santos 1326
arl@@ 1326
1879 1325
Ris@@ 1325
ps@@ 1325
Cul@@ 1324
Stan@@ 1324
band@@ 1324
Li 1323
amet@@ 1323
36@@ 1322
André 1322
Fas@@ 1321
Fro@@ 1321
ns 1321
Dou@@ 1320
Tennessee 1320
70@@ 1319
AR 1319
sir 1319
arp@@ 1318
Ivan 1316
Raymond 1316
Ye@@ 1316
didae 1316
mart 1316
1872 1315
Leningrad 1315
That 1315
ée 1315
Müh@@ 1314
meg@@ 1314
tral 1314
Seg@@ 1313
ikon 1313
Mant@@ 1312
Ya 1312
Kamb@@ 1311
dokum@@ 1311
pin 1311
ron@@ 1311
} 1311
Sv@@ 1310
aux 1310
GM 1309
tun@@ 1309
ose@@ 1308
Geb@@ 1307
Heart 1307
Wright 1307
moderni@@ 1307
iman 1305
000.000 1304
Aristot@@ 1304
E.@@ 1304
Max@@ 1304
Viz@@ 1304
ui 1304
12,@@ 1302
tron@@ 1302
http 1300
1.0@@ 1299
What 1299
fantas@@ 1299
RC 1298
Trav@@ 1298
hir@@ 1298
lov@@ 1298
21.@@ 1297
probl@@ 1296
Cec@@ 1295
Maya 1295
seg@@ 1295
1874 1294
Kıbr@@ 1294
Marino 1294
Hard@@ 1293
Home 1293
eth@@ 1293
assa 1292
1840 1291
ix 1291
ms 1291
Santiago 1290
ech@@ 1290
für 1289
170 1288
Lab@@ 1288
ambi@@ 1288
nen 1288
alit@@ 1287
Boys 1286
Golden 1286
graf 1286
Austin 1285
Dave 1285
Perry 1285
SD 1285
anor@@ 1285
unt 1285
Bow@@ 1284
illy 1284
ishi 1284
kini 1284
FO@@ 1283
Justin 1283
Rolling 1283
mu 1283
problem 1283
sm@@ 1283
Sty@@ 1282
Zo@@ 1282
par 1281
Family 1279
Josef 1279
egr@@ 1279
had 1279
Lou@@ 1278
ely 1278
ines 1278
ago@@ 1277
owski 1277
sum@@ 1277
33@@ 1276
Cour@@ 1276
beta 1276
UK 1275
auss 1274
kont@@ 1273
Clau@@ 1272
Gran@@ 1272
Pier@@ 1272
Hog@@ 1271
Road 1271
Sant@@ 1271
Zen@@ 1271
kulüb@@ 1271
Greg@@ 1270
Inc 1270
pes 1270
cid@@ 1269
yumu 1269
Billy 1268
Reich 1268
Stefan 1268
ally 1267
ig 1267
Sep@@ 1266
anik@@ 1266
fil 1266
Airlines 1265
Cola 1265
IC 1265
omo 1265
tics 1265
ín 1264
Amy 1263
ement 1263
esis 1263
icz 1263
Ox@@ 1262
aven@@ 1262
trat 1261
undu 1261
Adap@@ 1260
Sl@@ 1260
ding 1260
esen 1260
rett 1260
Old 1259
Single 1259
ust 1259
Julius 1258
manga 1258
Dmi@@ 1257
Thi@@ 1257
ades 1257
Matthew 1256
War 1255
CAF 1254
Eu@@ 1254
hid 1254
Kang@@ 1253
1866 1252
And 1252
Gom@@ 1251
mos@@ 1251
Brooklyn 1250
Kansas 1250
Luk@@ 1250
rod@@ 1250
Catherine 1249
Marc 1248
Grig@@ 1247
Union 1247
Utah 1247
Jov@@ 1246
alla 1246
hay 1246
Azerbay@@ 1245
Copa 1245
Mum@@ 1245
Renault 1245
Sonic 1245
ats 1245
usi 1245
B.@@ 1244
Suff@@ 1244
Valent@@ 1244
amoto 1244
Clark 1243
Fort 1243
Wa@@ 1243
fu 1243
Dream 1242
Port 1242
güt@@ 1242
that 1242
Cass@@ 1241
Cruz 1241
Jud@@ 1241
ehr 1241
folkl@@ 1241
geni 1241
Hes@@ 1240
ges 1240
ibn 1240
ვ@@ 1240
Oklahoma 1239
propaganda 1239
anga 1238
Mania 1237
Nis@@ 1237
ande 1237
esp@@ 1237
gs 1237
Gh@@ 1236
Git@@ 1236
tema 1236
Eth@@ 1235
app@@ 1235
eral 1235
liz@@ 1235
pus 1235
aran@@ 1234
Dallas 1233
MO@@ 1233
inda 1233
reform 1233
Dani@@ 1232
Neb@@ 1232
450 1231
Koh@@ 1231
spir@@ 1230
Power 1229
omor@@ 1229
onte 1229
Dim@@ 1228
icum 1228
uf 1228
‭ 1228
Cru@@ 1226
Ian 1226
Phoenix 1226
Series 1226
Apollo 1225
Digital 1225
jo@@ 1225
mes 1225
Eskiş@@ 1224
Kane 1224
NXT 1224
Salon 1224
Gav@@ 1223
LC 1223
Shel@@ 1223
aco 1223
pes@@ 1223
ubu@@ 1223
1869 1222
Big@@ 1222
Gary 1222
ord 1222
otr@@ 1222
Darwin 1221
Hand@@ 1221
Kli@@ 1221
abria 1221
hou 1221
imm@@ 1221
Dak@@ 1220
prov@@ 1220
ს@@ 1220
Andy 1219
Ed 1219
Nova 1219
pan 1219
Beach 1218
Co 1218
hang@@ 1218
ē@@ 1218
Jap@@ 1217
Zar@@ 1217
Dog@@ 1216
Sean 1216
ș@@ 1216
edo 1215
lac@@ 1215
æ@@ 1215
Philippe 1214
Pont@@ 1214
Ric@@ 1214
Vati@@ 1214
Č@@ 1214
1200 1213
Like 1213
bri@@ 1213
daima 1213
ista 1213
zin 1213
Luke 1212
cada 1212
its 1212
ê@@ 1212
Alternati@@ 1211
Steph@@ 1211
organ 1211
Cher@@ 1210
ISO 1210
Space 1210
Au@@ 1209
fün@@ 1209
Astronom@@ 1208
oro 1208
Colorado 1207
ams 1207
gor@@ 1207
Arc@@ 1206
Dul@@ 1206
Stu@@ 1206
basi 1206
Air@@ 1205
Dean 1205
Valley 1205
ls 1205
lum@@ 1205
tiva 1205
asaki 1204
ule 1204
Hind@@ 1203
borg 1203
erc@@ 1203
uss@@ 1203
Jose@@ 1202
Journal 1202
Toyota 1201
modi@@ 1201
ason 1200
bus 1200
feld 1200
gene 1200
Hag@@ 1199
Rid@@ 1199
escu 1199
ump@@ 1199
Madison 1197
modern@@ 1197
Gri@@ 1196
13,@@ 1195
wo@@ 1195
amiral 1194
Homer 1193
issa 1193
Cleveland 1191
Jacob 1191
Kenya 1191
aide 1191
opl@@ 1191
sidir 1191
Tang 1190
Internet 1189
PO@@ 1189
RS 1189
hormon@@ 1189
Lem@@ 1188
ê 1188
Leipzig 1187
Trump 1187
muz 1187
punk 1187
anth@@ 1186
oli@@ 1186
zil@@ 1186
ember 1185
uck 1185
Carter 1184
Detroit 1184
Lug@@ 1184
etab@@ 1184
gri@@ 1184
nar@@ 1184
Ajax 1183
Brun@@ 1183
Festiv@@ 1183
Hawaii 1183
Pan 1183
Pos@@ 1183
att 1183
Mi 1182
ondo 1182
Story 1181
`@@ 1181
ign@@ 1181
Row@@ 1180
kit 1180
Erd@@ 1179
Guang@@ 1179
Sul 1179
nia 1179
sult@@ 1179
Sou@@ 1178
oko 1178
orn 1178
Roberto 1177
T.@@ 1177
aren@@ 1177
Rachel 1175
Zh@@ 1175
gas@@ 1175
ów 1175
Burg@@ 1174
Rest@@ 1174
ino@@ 1174
Sovyet@@ 1173
cay@@ 1173
omb@@ 1173
Gan@@ 1172
ander@@ 1171
At 1170
Ax@@ 1170
shi 1170
propag@@ 1169
ía 1169
Bra@@ 1168
ains 1168
Beau@@ 1167
Miz@@ 1167
17,@@ 1166
Pac@@ 1166
Franco 1165
Hip@@ 1165
Ny@@ 1164
Oslo 1164
Rock@@ 1164
Gab@@ 1163
Wer@@ 1163
5000 1162
Taliban 1162
GC 1161
Sis@@ 1161
Cooper 1160
Emma 1160
Klin@@ 1160
Light 1160
biyle 1160
‬ 1160
Silva 1159
UR@@ 1159
fed@@ 1158
ron 1158
án@@ 1158
ümüz@@ 1158
100@@ 1155
Down 1155
Georges 1155
Juventus 1155
direk@@ 1155
kura 1155
Best@@ 1154
Jennifer 1154
Run@@ 1154
ank@@ 1154
sw@@ 1154
zer 1154
borough 1152
Harr@@ 1151
Sug@@ 1151
135 1150
Lau@@ 1150
ents 1150
Cir@@ 1149
Jos@@ 1149
Va@@ 1149
apart@@ 1149
Hermann 1148
aul@@ 1148
esa 1148
fah@@ 1148
CA 1147
Moon 1147
amino 1147
wer@@ 1147
Anti 1146
Lanc@@ 1146
\ 1146
acy 1146
ague 1146
მ@@ 1146
4.000 1145
asta 1145
eck@@ 1145
Aki@@ 1144
For 1144
Iv@@ 1144
Sec@@ 1144
Vide@@ 1144
caz@@ 1144
ATP 1143
Alberto 1143
Mang@@ 1143
Vermont 1143
Stein@@ 1142
trom@@ 1142
Museum 1141
Tommy 1141
1862 1140
eran 1140
Magic 1139
sh 1139
ındayken 1139
Bart 1138
Jefferson 1138
Wisconsin 1138
aeus 1138
ever 1138
ril 1138
robot@@ 1138
she 1138
wald 1138
3,5 1137
Frank@@ 1137
Lucas 1137
Us@@ 1137
uchi 1137
ume 1137
Central 1136
Stanley 1135
Dubai 1134
Server 1134
Point 1133
icks 1133
koloni 1133
Dans 1132
May 1132
isto 1131
Gy@@ 1130
Zagreb 1130
är@@ 1130
103 1129
ege 1129
lag@@ 1129
ér@@ 1129
AI@@ 1128
Bonn 1128
Gra@@ 1128
Norfolk 1128
Ontario 1127
dri@@ 1127
red 1127
vik 1127
Pes@@ 1126
aft 1126
nov@@ 1126
Thompson 1125
pard 1125
Mississippi 1124
ht@@ 1124
wick 1124
Angel@@ 1123
Marco 1123
Mikro@@ 1123
Nelson 1123
ink@@ 1123
ñ@@ 1123
Ma 1122
Rud@@ 1122
omen@@ 1122
wal@@ 1122
zona 1122
Komit@@ 1121
Prince 1121
Roy 1121
Sierra 1121
alli@@ 1121
igu@@ 1121
mid@@ 1121
pus@@ 1121
rag@@ 1121
2.5 1120
Jam@@ 1120
maktay@@ 1120
Comics 1119
Dış@@ 1119
elius 1119
gres@@ 1119
118@@ 1117
ache 1117
tos 1117
ár@@ 1117
face 1116
lab@@ 1116
uri@@ 1116
თ@@ 1116
neo 1115
By@@ 1114
Palm 1114
nal 1114
Agu@@ 1113
Ann 1113
Birmingham 1113
Neg@@ 1113
Oli@@ 1113
depos@@ 1113
Robinson 1112
α 1112
1828 1111
26.@@ 1111
Ferr@@ 1111
Lloyd 1111
nav@@ 1111
Ple@@ 1110
festival 1110
sic@@ 1110
Cot@@ 1109
Danny 1109
Open 1109
Ster@@ 1109
Za@@ 1108
Sans@@ 1107
gay 1107
45@@ 1106
Nad@@ 1106
omu 1106
Ard@@ 1105
Jama@@ 1105
lov 1105
osp@@ 1105
Esp@@ 1104
Gold 1104
Sever@@ 1104
dul 1103
emann 1103
val 1103
zur 1103
Fire 1102
Shim@@ 1102
104 1101
Atlético 1101
Bon 1101
Bruno 1101
Men 1101
Stuttgart 1101
ott 1101
Global 1100
It@@ 1100
Sports 1100
emy 1100
30.000 1099
ky@@ 1099
Kentucky 1098
mab@@ 1098
119@@ 1097
obi@@ 1097
ás 1097
Aqu@@ 1096
akat@@ 1096
ations 1096
Osaka 1095
Vegas 1095
pas 1095
Fay@@ 1094
Lon@@ 1094
Parker 1094
itar 1094
lio 1094
0,000 1093
igh 1093
Il 1092
Lac@@ 1092
Muhareb@@ 1092
Angola 1091
Plan 1091
ampiy@@ 1091
any 1091
hip@@ 1091
uil 1091
zik@@ 1091
FL 1090
Tet@@ 1090
Coca 1088
Kak@@ 1088
Long@@ 1088
amer 1088
sif 1088
Der 1087
Triple 1086
dedi@@ 1086
opti@@ 1086
Dakota 1085
evo 1085
vic@@ 1085
amura 1084
deh@@ 1084
mont 1084
osaurus 1084
Polit@@ 1083
agu@@ 1083
bian 1083
eros 1083
′ 1083
Book 1082
ante@@ 1082
dul@@ 1082
mobil@@ 1082
Ron 1081
Texas 1081
entum 1081
uti 1081
Java 1080
cara 1080
dum@@ 1080
enter@@ 1080
~ 1080
Institute 1079
NBC 1078
System 1078
USB 1078
sons 1078
Francesco 1077
core 1077
minimum 1077
pon@@ 1077
37@@ 1076
Alabama 1076
Type 1075
ʿ@@ 1075
Grant 1074
Maryland 1074
Mini 1074
Suz@@ 1074
Nicolas 1073
alus 1073
etto 1073
Elektr@@ 1072
Kaw@@ 1072
osaur@@ 1072
Graham 1071
Kop@@ 1071
Press 1071
Solo 1071
Anah@@ 1070
Anton 1070
Beng@@ 1070
Just 1070
Sebastian 1070
Shak@@ 1070
Brand@@ 1069
Edge 1069
Nürnberg 1069
burg@@ 1069
ry@@ 1069
Herbert 1067
NA 1067
afir@@ 1067
laka 1067
Academy 1066
Diplom@@ 1066
mide 1065
seyi 1065
én 1065
mineral 1064
AFC 1063
Clara 1063
Stre@@ 1063
enes 1063
salon 1063
öp@@ 1063
Fi 1062
Georg 1062
Hass@@ 1062
Rh@@ 1062
alog@@ 1062
bre 1062
gie 1062
layer 1062
Baron 1061
wi@@ 1061
Band@@ 1059
Fred 1059
Mom@@ 1059
Shane 1058
Stewart 1058
aris 1058
chester 1058
eum 1058
ward 1058
onga 1057
ws 1057
Fiat 1056
HC 1056
anto 1056
uth 1056
Gaziante@@ 1055
Harold 1055
nun@@ 1055
115@@ 1054
Iowa 1054
Monte 1053
UTC 1053
vik@@ 1053
End 1052
Magazine 1052
ck@@ 1052
did@@ 1052
750 1051
Dragon 1051
Laura 1051
sept 1051
Mexico 1050
Neil 1050
Sevilla 1050
formes 1050
osh@@ 1050
J.@@ 1049
Kud@@ 1049
Master 1049
https 1049
Andreas 1047
Lok@@ 1047
Oregon 1047
ies 1047
DF 1046
Galil@@ 1046
Iron 1046
Sing@@ 1046
sion 1046
via 1046
6.000 1045
Aut@@ 1045
arin 1045
üzel 1045
ław 1045
Amar@@ 1044
Diyar@@ 1044
Scar@@ 1044
Da 1043
Fem@@ 1043
Beg@@ 1042
Fame 1042
Hart@@ 1042
Stat@@ 1042
Koordin@@ 1041
Leonardo 1041
Maurice 1041
Morris 1041
Roth@@ 1041
eron 1041
1856 1040
Abraham 1040
Fos@@ 1040
Fres@@ 1040
Pink 1040
Raz@@ 1040
Rich@@ 1040
Ambro@@ 1039
CI@@ 1039
MB 1039
ays 1039
1,1 1038
Paraguay 1038
Salvador 1038
aver 1038
enne 1038
fo 1038
Esper@@ 1037
Sik@@ 1037
cy 1037
uka 1037
uti@@ 1037
Aston 1036
Kod@@ 1036
emper@@ 1036
iva 1036
pros@@ 1036
Hotel 1035
Rocky 1035
illus 1035
Panama 1034
Warren 1034
BM@@ 1033
LED 1033
Punk 1033
atas@@ 1033
iber 1033
iser 1033
kus 1033
tez 1033
vec@@ 1033
1784 1032
Tot@@ 1032
rell 1032
Pent@@ 1031
Rav@@ 1031
tot@@ 1031
Log@@ 1030
BMW 1029
CBS 1029
Cook 1028
by@@ 1028
elly 1028
inski 1028
loc@@ 1028
109 1027
CN@@ 1027
Michel@@ 1027
aug@@ 1027
eb 1027
card 1026
inge 1026
kulüpler@@ 1026
tz@@ 1026
Glenn 1025
Metro@@ 1025
kati 1025
umia 1025
vid@@ 1025
BK 1024
Grim@@ 1024
ous@@ 1024
ა 1024
Pompe@@ 1023
enos 1023
ы@@ 1023
Fig@@ 1022
lard 1022
urs@@ 1022
ATA 1021
GP 1021
acher 1021
otop@@ 1021
rie 1021
Fak@@ 1020
Person@@ 1020
plo@@ 1020
30.@@ 1019
Baden 1019
Carey 1019
Fac@@ 1019
Nest@@ 1019
amen 1019
gia 1019
pale@@ 1019
Baby 1018
Elec@@ 1018
sche 1018
CC@@ 1017
Dawn 1017
Fun@@ 1017
Science 1017
fid@@ 1017
sing@@ 1017
uno 1017
Brothers 1016
ear@@ 1016
eland 1016
115 1015
Hart 1015
Rand@@ 1015
sup@@ 1015
1859 1014
CG 1014
rece@@ 1014
უ@@ 1014
14,@@ 1013
HT@@ 1013
bs 1013
esti 1013
lana 1013
Comp@@ 1012
Pokémon 1012
ec 1012
pep@@ 1012
ð@@ 1012
Ng@@ 1011
Gros@@ 1010
Olympi@@ 1010
polisi 1010
.C. 1009
AIDS 1009
Liste 1009
NCA@@ 1009
andi 1009
hisi 1009
tarafa 1009
Lep@@ 1008
Roy@@ 1008
bad 1008
jet@@ 1008
Ž@@ 1008
seven 1007
Charl@@ 1006
Elena 1006
Two 1006
102 1005
Holmes 1005
enci@@ 1005
IT@@ 1004
N. 1004
annes 1004
aster 1004
istin 1004
Og@@ 1003
eze 1003
fahr@@ 1003
Johannes 1001
ego 1001
ifa 1001
1.2 1000
90@@ 1000
CF 1000
Chem@@ 1000
abol@@ 1000
erina 1000
H.@@ 999
Nicholas 999
icho 999
nev@@ 999
י@@ 999
PT@@ 998
Sky 998
Whe@@ 998
tilla 998
August 996
Dortmund 996
L.@@ 996
light 996
pot 996
Homo 995
Women 995
wall 995
34@@ 994
Awards 994
Bar 994
difer@@ 994
Forest 993
Let 993
Micro@@ 993
Theatre 993
Wehrmacht 993
sola 993
Back 992
Martin@@ 992
Songs 992
our@@ 992
won 992
Fahr@@ 991
Vin@@ 991
hist@@ 991
IBM 990
Midd@@ 990
SE 990
Sri 990
vic 990
xi 990
Cant@@ 989
Civ@@ 989
lins 989
You@@ 988
anom@@ 988
pedi@@ 988
über@@ 988
Sid@@ 987
onne 987
ère 987
50.000 986
Eddie 986
Rel@@ 986
iles 986
less 986
sv@@ 986
İng@@ 986
106 985
enta 985
Berkeley 984
Jin 984
Montreal 984
Nevada 984
Mans@@ 983
Nick@@ 983
cover 983
mani 983
Gedi@@ 982
Graf@@ 982
Hills 982
Rudolf 982
cal 982
rates 982
ted 982
Ped@@ 981
^ 981
andi@@ 981
umu@@ 981
е@@ 981
Edinburgh 980
Gon@@ 980
Schum@@ 980
Ts@@ 980
Turner 980
107 979
Bologna 979
izo@@ 979
1857 978
asso 978
enger 978
post 978
Palm@@ 977
enny 977
1849 976
Hut@@ 976
Italia 976
Solomon 976
utt@@ 976
38@@ 975
Anat@@ 975
aine 975
sl@@ 975
240 974
NT 974
Nog@@ 974
üh@@ 974
Maxwell 973
Plus 973
edral 973
1831 972
Law@@ 972
ski@@ 972
under 972
Borussia 971
Cent@@ 971
Nancy 971
tine 971
act@@ 970
ende@@ 970
yı@@ 970
Arnold 969
codice 969
manuel 969
town 969
Dad@@ 968
Rost@@ 968
1785 967
Ken 967
IN 966
Pra@@ 966
Sym@@ 966
mos 966
otro@@ 966
Hob@@ 965
Ment@@ 965
15,@@ 964
1826 964
Mün@@ 964
Rein@@ 964
Shir@@ 963
ting@@ 963
GPS 962
Gustav 962
Ted 962
iliz 962
ī 962
Baker 961
Get 961
Nice 961
Cape 960
Earth 960
Fed@@ 960
Melbourne 960
Touch 960
1600 959
Ander@@ 959
Churchill 959
Eva 959
Now 959
Lynch 958
Syn@@ 958
asp@@ 958
nos 958
ater 957
emat@@ 957
1855 956
Gos@@ 956
108 955
Alfa 955
ado@@ 955
lot 955
1854 954
Volkswagen 954
lers 954
Barry 953
Reich@@ 953
Ve@@ 953
ily 953
Bour@@ 952
Carol 952
ery 952
25.@@ 951
Benz 951
Hell 951
Newcastle 951
Sur 951
ovich 951
plasti@@ 951
Wimbledon 950
PP@@ 949
atsu 949
Orange 948
Wel@@ 948
alo@@ 948
Vid@@ 947
anam@@ 947
mm@@ 947
ünkü 947
Collins 946
Isaac 946
So 946
Walker 946
anie 946
mark 946
Coc@@ 945
eton 945
EC@@ 944
Masters 944
Sac@@ 944
Guy@@ 943
II. 943
SI 943
Wood 943
glu@@ 943
Artem@@ 942
Neo 942
Bez@@ 941
Nord@@ 941
mama 941
GNU 940
Orlando 940
aran 940
limit@@ 940
nan@@ 940
Bj@@ 939
Hall@@ 939
Madag@@ 939
Yuk@@ 939
grav@@ 939
Fern@@ 938
Ptolem@@ 938
16,@@ 937
24.@@ 937
BP 937
annon 937
sept@@ 937
Murphy 936
airi 935
etz 935
lö@@ 935
As 934
Viktor 934
bus@@ 934
nam 934
pant@@ 934
uro 934
a.@@ 933
down 933
els@@ 933
tart@@ 932
ú 932
Las@@ 931
Tob@@ 931
amor@@ 931
aut 931
dez 931
Ich@@ 930
Sult@@ 930
adis 930
fare 930
leyen@@ 930
ods 930
agi 929
ingrad 929
uto 929
1839 928
andro 928
etes 928
kos@@ 928
F1 927
GA 927
Jorge 927
Nept@@ 927
Band 926
Nig@@ 926
Shu@@ 926
orf 926
Ach@@ 925
Barr@@ 925
HIV 925
Mozart 925
Power@@ 925
Ret@@ 925
Sti@@ 925
1789 924
Bobby 924
Lec@@ 924
Part 924
Abd@@ 923
God 923
ML 923
R.@@ 923
sha 923
̣ 923
Four@@ 922
Gray 922
Rafael 922
Tag 922
arch@@ 922
deon 922
Dud@@ 921
Kid@@ 921
Pun@@ 921
él@@ 921
Hük@@ 920
Lincol@@ 920
Money 920
alog 920
engu@@ 920
osis 920
sof@@ 920
Gener@@ 919
KO@@ 919
Toy@@ 919
head 919
web@@ 919
Water@@ 918
Yosh@@ 918
aku 918
erer 918
201@@ 917
AO@@ 917
Vent@@ 917
achi 917
ism 917
Hunter 916
Rou@@ 916
Uni@@ 916
aker 916
cap@@ 916
pig@@ 916
Clinton 915
Eul@@ 915
Louisiana 915
Wolf 915
gy 915
SH@@ 914
Sport 914
igns 914
norm@@ 914
yonel 914
put@@ 913
Sco@@ 912
Sup@@ 912
illon 912
Kib@@ 911
auer 911
iya 911
lon@@ 911
1858 910
dist@@ 910
ond 910
vill@@ 910
Aless@@ 909
Anast@@ 909
People 909
ario 909
char@@ 909
ulos 909
üncü 909
AF@@ 908
DO@@ 908
ML@@ 908
Mayer 908
een 908
Cic@@ 907
SI@@ 907
ekten 907
wan 907
BO@@ 906
Departamento 906
Montgomery 906
omb 906
sper@@ 906
Ğ@@ 906
Sara 905
Sci@@ 905
atil@@ 905
into 905
27,@@ 904
Arist@@ 904
heavy 904
itte 904
Chr@@ 903
Somerset 903
Valencia 903
cur@@ 903
isha 903
XI 902
500.000 901
eper 901
ilo 901
kek 901
ops 901
dh@@ 900
Gau@@ 899
Simpson 899
com 899
idge 899
zap@@ 899
Challenge 898
EN@@ 898
oney 898
AZ 897
Fid@@ 897
Gin@@ 897
Gren@@ 897
Rut@@ 897
lidae 897
trib@@ 897
1836 896
550 896
Aman@@ 896
Barn@@ 896
Drive 896
Giuseppe 896
IA 896
akter 896
hut@@ 896
opa 896
style 896
Iz@@ 895
1853 894
4000 894
Edgar 894
Tali@@ 894
radar 894
0.1 893
46@@ 893
Freder@@ 893
Ves@@ 893
gn@@ 893
Silver 892
s. 892
39@@ 891
Honda 891
Nepal 891
SR 891
Sark@@ 891
cre@@ 891
nm 891
Bros 890
online 890
Castro 889
Denis 889
Larry 889
Pablo 889
Roberts 889
bli@@ 889
Business 887
Carolina 887
Diana 887
Ernest 887
peri@@ 887
stab@@ 887
→ 887
Aran@@ 886
Orleans 886
Project 886
aut@@ 886
integr@@ 886
220 885
Brid@@ 885
EA 885
Rosa 885
Yes@@ 885
frag@@ 885
Are 884
Dy@@ 884
Eve 884
SM@@ 884
Tyler 884
sch 884
atis@@ 883
master 883
mg 883
temelen 883
200.000 882
Chart 882
Hell@@ 882
Lil@@ 882
Sha@@ 882
dou@@ 882
ხ@@ 882
1851 881
Brad@@ 881
Jun@@ 881
Lorenzo 881
ბ@@ 881
1845 880
NS@@ 880
Roosevelt 880
Blood 879
Emer@@ 879
aro@@ 879
isl@@ 879
kett 879
Brah@@ 878
Monica 878
Thr@@ 878
Det@@ 876
Flash 876
qui@@ 876
ו@@ 876
Alex@@ 875
Apo@@ 875
Benn@@ 875
Guatemala 875
Jung 875
Online 875
Rotterdam 875
cat@@ 875
öne@@ 875
Griff@@ 874
Jessica 874
Math@@ 874
RA 874
Total 874
Walt 874
Daily 873
Rap 873
aru 873
kn@@ 873
Arn@@ 872
Express 872
İsp@@ 872
ias 871
Born 870
Faus@@ 870
ture 870
1847 869
Cameron 869
Hardy 869
Hoff@@ 869
Tad@@ 869
111 868
Hudson 868
Jas@@ 868
Joan 868
Sov@@ 868
fri@@ 868
nete 868
Di 867
Tag@@ 867
ather 867
ode 867
ofisi 867
Free 866
Savun@@ 866
ology 866
ˈ@@ 866
Hannover 865
direc@@ 865
inho 865
1829 864
8.000 864
Kamerun 864
Krak@@ 864
ano@@ 864
65@@ 863
Terry 863
Wallace 863
atum 863
25. 862
Parlam@@ 862
Susan 862
Wagner 862
bud@@ 862
eu@@ 862
ots 862
scope 862
EF 861
Force 861
Mab@@ 861
Phil 861
rep@@ 861
112 860
Atl@@ 860
Stanford 860
ean 860
trig@@ 860
Cole 859
1.4 858
Pand@@ 858
dop@@ 858
sec@@ 858
ï@@ 858
122 857
Bang 857
დ@@ 857
1815 856
75@@ 856
Ltd 856
Pok@@ 856
Sut@@ 856
Traf@@ 856
kip@@ 856
leb@@ 856
3.5 855
Khan 855
Pag@@ 855
Peugeot 855
Pyr@@ 855
Racing 855
bul 855
cé 855
oman 855
pet@@ 855
Chir@@ 854
Note 854
Von 854
ados 854
eph@@ 854
my 854
Feh@@ 853
Isab@@ 853
Tai@@ 853
Tsu@@ 853
XIV 853
atak@@ 853
got@@ 853
pur@@ 853
reper@@ 853
tivi@@ 853
ā 853
Felipe 852
Louise 852
ayna 852
1837 851
76@@ 851
Pist@@ 851
pid@@ 851
D.@@ 850
Senegal 850
Stef@@ 850
arina 850
ä 850
1846 849
Fire@@ 849
Western 849
lava 849
uni@@ 849
Å@@ 849
Basel 848
XII 848
afor@@ 848
fran@@ 848
Ass@@ 847
Gall@@ 847
Helena 847
Watson 847
haci@@ 847
22@@ 846
Christi@@ 846
Dennis 846
Oh 846
Termin@@ 846
Tuc@@ 846
XIII 846
prop@@ 846
ric 846
1700 845
40.000 845
Andor@@ 845
Days 845
Summer 845
iji 845
Cros@@ 844
Tib@@ 844
Vancouver 844
chin@@ 844
rid 844
1530 843
Bob@@ 843
Peg@@ 843
diz 843
nius 843
„ 843
Asp@@ 842
Cli@@ 842
Germain 842
Malm@@ 842
Micha@@ 842
More 842
Willi@@ 842
bor 842
soundtrack 842
urus 842
44@@ 841
Eas@@ 841
Forbes 841
Wild 841
lair 841
ling@@ 841
pod@@ 841
ury 841
Cun@@ 840
Daw@@ 840
Myanmar 840
elo@@ 840
1812 839
1820 839
Ayn@@ 839
HMS 839
Leeds 839
ogo 839
Bella 838
Inter 838
Josh 838
María 838
cili@@ 838
Mason 837
Woman 837
aw 837
iger 837
Ja@@ 836
Pass@@ 836
SF@@ 836
anes 836
ilia 836
API 835
BAFTA 835
Cov@@ 835
Never 835
Plas@@ 835
Vog@@ 835
pert 835
ř@@ 835
Mikha@@ 834
Vista 834
atu 834
Acc@@ 833
EL@@ 833
Hr@@ 833
ICA@@ 833
Rhy@@ 833
fab@@ 833
ien 833
uza 833
1844 832
ID 832
Na 832
33.@@ 831
HF 831
Off@@ 831
duda 831
kinson 831
Amaz@@ 830
Cha@@ 830
Patri@@ 830
enges@@ 830
put 830
size 830
68@@ 829
Adrian 829
Clem@@ 829
FBI 829
Michelle 829
aqu@@ 829
ved@@ 829
27.@@ 828
And@@ 828
Bremen 828
CS 828
Princeton 828
Ptol@@ 828
1.1 827
Emilia 827
German@@ 827
McCar@@ 827
Obama 827
dea 827
ose 827
them 827
Dick 826
Did@@ 826
Gregory 826
Jur@@ 826
Nab@@ 826
mix@@ 826
stadt 826
board 825
ring 825
uo 825
és 825
127 824
Abu 824
ET 824
Lanka 824
Lud@@ 824
Maxim@@ 824
Rangers 824
igg@@ 824
LG@@ 823
amar@@ 823
astron@@ 823
ores 823
1814 822
CC 822
ares 822
lands 822
ub 822
114@@ 821
49@@ 821
Jum@@ 821
Tec@@ 821
akos 821
fte 821
Amp@@ 820
adil@@ 820
bag@@ 820
egel 820
rio 820
voy@@ 820
Á@@ 820
Meks@@ 819
Monroe 819
Saw@@ 819
elop@@ 819
rif@@ 819
tho@@ 819
venc@@ 819
Krasno@@ 818
Mitchell 818
Suzuki 818
Venez@@ 818
auf 818
my@@ 818
uga 818
VA 817
oral 817
Athletic 816
Ein@@ 816
Line 816
ilit@@ 816
mb@@ 816
· 816
Felix 815
Tottenham 815
Up@@ 815
C.@@ 814
Wall 814
fit 814
yac@@ 814
Evans 813
Murray 813
hib@@ 813
Hugh 812
aq 812
isch 812
õ@@ 812
LO@@ 811
Leb@@ 811
Leonard 811
Sullivan 811
mail 811
Jose 810
Moz@@ 810
Bordeaux 809
Vul@@ 809
beste 809
dum 809
nini 809
190 808
England 808
Kiss 808
Mall@@ 808
Scor@@ 808
wer 808
Claire 807
High@@ 807
Pietro 807
ild 807
m2 807
320 806
Nac@@ 806
Randy 806
Ril@@ 806
Veter@@ 806
alem@@ 806
maj@@ 806
15.000 805
Adi@@ 805
ER 805
Erik 805
erse 805
29.@@ 804
Cou@@ 804
European 804
Ish@@ 804
Nacional 804
wen 804
ST 803
kand@@ 803
tle 803
7.000 802
Bret@@ 802
Guar@@ 802
Politik 802
Rous@@ 802
Stor@@ 802
Yale 802
element 802
ough@@ 802
ě@@ 802
Magn@@ 801
Pant@@ 801
anot@@ 801
atlan@@ 801
chen 801
gel 801
yes 801
1821 800
BT 800
Country 800
chen@@ 800
fur 800
hen 800
was 800
Beatles 799
Delhi 799
Harrison 799
tern@@ 799
Bry@@ 798
Hindu 798
IF@@ 798
its@@ 798
pora 798
try 798
Uran@@ 797
Vill@@ 797
get 797
gorod 797
App@@ 796
Roh@@ 796
XVI 796
ux 796
GT 795
Monte@@ 795
uj@@ 795
zhou 795
57@@ 794
Pennsylvania 794
Zak@@ 794
now@@ 794
55@@ 793
Stuart 793
Whitney 793
imar 793
izer 793
ony 793
pH 793
48@@ 792
Aff@@ 792
Bach 792
Carr@@ 792
Garden 792
Mog@@ 792
atis 792
ib 792
École 792
Bres@@ 791
Mug@@ 791
aland 791
itus 791
onis 791
uan 791
vy@@ 791
č 791
Alain 790
Land 790
210 789
Armstrong 789
Vf@@ 789
gal 789
inz@@ 789
Campbell 788
Ero@@ 788
Oh@@ 788
Tan 788
rup@@ 788
ór@@ 788
GS 787
atini 787
sala 787
Electric 786
Productions 786
Knight 785
Scre@@ 785
Spir@@ 785
box 785
ind 785
tive 785
zy 785
agen 784
ceden 784
uld 784
1,4 783
47@@ 783
650 783
Afro@@ 783
Burton 783
CO 783
Jazz 783
Jules 783
odi 783
Romeo 782
eber 782
eston 782
thy 782
230 781
Bristol 781
Cast@@ 781
Elli@@ 781
berger 781
olin 781
ush 781
Bond 780
Gand@@ 780
Montana 780
Over 780
Porsche 780
Terr@@ 780
oug@@ 780
Eugene 779
Hod@@ 779
Ralph 779
Ronald 779
rass@@ 779
xi@@ 779
à@@ 779
Fland@@ 778
Mud@@ 778
Test 778
della 778
1832 777
Grace 777
LP 777
MVP 777
Nich@@ 777
René 777
Sud@@ 777
heimer 777
mul@@ 777
Goethe 776
Zimbab@@ 776
igan 776
tors 776
Ç 776
Carl@@ 775
Japan 775
band 775
daf@@ 775
dier 775
sera 775
Emily 774
Rodrigu@@ 774
Tin@@ 774
ingo 774
revi@@ 774
tham 774
Fort@@ 773
Paolo 773
ampa 773
4.0 772
Dick@@ 772
Sound 772
pers 772
rit 772
CE 771
Haiti 771
Hard 771
Uganda 771
28.@@ 770
Secret 770
Syl@@ 770
asha 770
ISBN 769
ubi 769
Portland 768
Tall@@ 768
lararası 768
Blu 767
Christ@@ 767
SG 767
bius 767
gang@@ 767
loy@@ 767
Bayer 766
Hop 766
XV@@ 766
amus 766
inat@@ 766
ois 766
ør@@ 766
Cham@@ 765
Delta 765
Get@@ 765
mouth 765
phi 765
prol@@ 765
Bank@@ 764
Bomb@@ 764
Caroline 764
Mountain 764
Mé@@ 764
pit@@ 764
see 764
Jen@@ 763
Party 763
SL@@ 763
agi@@ 763
eg 763
AE 762
Battle 762
Foster 762
Jav@@ 762
Leopold 762
Ricardo 762
but@@ 762
iter@@ 762
Dow@@ 761
EM@@ 761
GT@@ 761
Gilbert 761
Mati@@ 761
Soh@@ 761
ball 761
ights 761
121 760
330 760
Lus@@ 760
acht 760
gari 760
rimi 760
uzam@@ 760
ر@@ 760
KO 759
dio 759
jili 759
lington 759
ope 759
Soul 758
Tari@@ 758
abor@@ 758
cus@@ 758
kün 758
yoy@@ 758
A1 757
EB@@ 757
ES 757
Freud 757
Gn@@ 757
Nicol@@ 757
SU@@ 757
stad 757
Colin 756
Mann 756
Wall@@ 756
Wii 756
icon 756
117 755
Jet 755
Ley@@ 755
abri@@ 755
andra 755
cli@@ 755
fit@@ 755
oso 755
wan@@ 755
Harvey 754
IG@@ 754
Nob@@ 754
SB 754
aden 754
ants 754
aves 754
thor@@ 754
tru@@ 754
Lamb@@ 753
ekt 753
fast 753
neğin 753
out@@ 753
pha 753
56@@ 752
ffe 752
kW 752
oper 752
Ō@@ 752
β 752
Buk@@ 751
Burn@@ 751
Bé@@ 751
Cross 751
DI 751
Nathan 751
Rib@@ 751
Rig@@ 751
ardo 751
seri@@ 751
Head 750
Map@@ 750
Stars 750
itibar@@ 750
magne@@ 750
э@@ 750
sz@@ 749
Ce@@ 748
Over@@ 748
Was@@ 748
lake 748
123 747
Mob@@ 747
agres@@ 747
ites 747
Fle@@ 746
Four 746
NS 746
Si 746
Stur@@ 746
ames 746
BT@@ 745
Kō@@ 745
Squ@@ 745
khe@@ 745
Arkansas 744
Bull 744
O. 744
bridge 744
fib@@ 744
onidae 744
Alp@@ 743
Baj@@ 743
EM 743
Julie 743
Lopez 743
arro 743
ès 743
Beta 742
Deep 742
Jamie 742
Keith 742
laya 742
Costa 741
Himm@@ 741
Instagram 740
Morrison 740
1852 739
Clo@@ 739
Cord@@ 739
Dais@@ 739
Leicester 739
PR@@ 739
Raj@@ 739
Rit@@ 739
Roland 739
Tik@@ 739
hard@@ 739
Barb@@ 738
afr@@ 738
Min 737
radi@@ 737
servat@@ 737
Hang@@ 736
Gang@@ 735
Gazi@@ 735
HA 735
Page 735
Santo 735
ahu 735
EP@@ 734
IE@@ 734
Rö@@ 734
Sweet 734
USA 734
Vall@@ 734
very 734
zus@@ 734
District 733
Olga 733
Research 733
Sheffield 733
ahn 733
garanti@@ 733
ilif@@ 733
А@@ 733
Dod@@ 732
Edition 732
Got 732
Ut@@ 732
Vakf@@ 732
4,5 731
Deutsche 731
Komün@@ 731
Pseud@@ 731
UI 731
ged@@ 731
habit@@ 731
კ@@ 731
João 730
Square 730
Sydney 730
ammer 730
Wander@@ 729
EL 728
IO@@ 728
Mr@@ 728
Sent@@ 728
Zah@@ 728
etus 728
itis 728
Christina 727
Glou@@ 727
Pach@@ 727
ix@@ 727
odon@@ 727
0.3 726
1.0 726
CM 726
Christmas 726
Dj@@ 726
Floyd 726
PM 726
ahl 726
fav@@ 726
gut@@ 726
Juni@@ 725
Nicole 725
aben 725
ensen 725
inga 725
ink 725
1841 724
Boul@@ 724
Capr@@ 724
Hip 724
Ki 724
Nielsen 724
She 724
Singles 724
aron 724
away 724
odon 724
ć@@ 724
Dub@@ 723
ayo 723
insky 723
а 723
Pho@@ 722
ibl@@ 722
orian 722
star@@ 722
trat@@ 722
Glasgow 721
Scot@@ 721
rama 721
Empire 720
Monaco 720
Nazar@@ 720
Stephan 720
ô@@ 720
HBO 719
Kay 719
Klein 719
ariz@@ 719
icia 719
idal 719
zh@@ 719
256 718
Brooks 718
Cloud 718
Metall@@ 718
Palermo 718
Pascal 718
Reform 718
Sea 718
acab@@ 718
cock 718
kanad@@ 718
oner 718
67@@ 717
Dut@@ 717
Hüsey@@ 717
Ice 717
Julian 717
Rob 717
Sieg@@ 717
Sporting 717
leton 717
Hein@@ 716
Salzburg 716
opsis 716
yst@@ 716
117@@ 715
DR 715
Er 715
Ho 715
OH 715
ael 715
ands 715
dorf 715
Dresden 714
you 714
Aaron 713
Child 713
Europe 713
Gusta@@ 713
Television 713
cop@@ 713
pio 713
ə 713
1843 712
Baltimore 712
Sno@@ 712
ental 712
show 712
Call@@ 711
Joel 711
Ket@@ 711
Sophie 711
gli@@ 711
igi 711
rati@@ 711
uktur 711
1.5@@ 710
Aud@@ 710
afen 710
aliye 710
rail@@ 710
rov@@ 710
sier 710
Turk@@ 709
WWF 709
alie 709
melod@@ 709
ovu 709
sei 709
1842 708
54@@ 708
Cohen 708
Craig 708
Fati@@ 708
Marcel 708
Sant 708
mali@@ 708
omp@@ 708
Allan 707
Wolfgang 707
rest 707
59@@ 706
Anth@@ 706
PN 706
Tour@@ 706
andal 706
asia 706
nio 706
toon 706
1642 705
1787 705
Brandenburg 705
Harper 705
Mercury 705
Oz@@ 705
Petro@@ 705
cell 705
jer 705
pto 705
2.0@@ 704
Antoine 704
Lom@@ 704
SN@@ 704
Weekly 704
eca 704
itten 704
kw@@ 704
1833 703
Alpes 703
Core 703
Tiger 703
eu 703
23,@@ 702
25.000 702
Drake 702
Fars@@ 702
Jol@@ 702
Rü@@ 702
amii 702
aur 702
і@@ 702
Byr@@ 701
Form@@ 701
oval 701
wat@@ 701
Chand@@ 700
Lane 700
Law 700
MHz 700
ON@@ 700
Ud@@ 700
ern 700
esten 700
Box 699
Shō@@ 699
Wolf@@ 699
alo 699
fort 699
onist 699
oon 699
Humboldt 698
Kepler 698
O.@@ 698
Parad@@ 698
sta@@ 698
tier 698
1838 697
Award 697
Indi@@ 697
ROM 697
Satur@@ 697
Schwar@@ 697
With 697
ative 697
bron@@ 697
lang@@ 697
tas 697
124 696
Donn@@ 696
Guardian 696
Pearl 696
terminal 696
vit 696
Anglo 695
BL 695
Cat 695
Et 695
Riga 695
Say 695
Spencer 695
Toulouse 695
ono 695
vul@@ 695
116 694
126 694
Birleş@@ 694
Kenneth 694
PR 694
alen 694
ebel 694
lett 694
rand@@ 694
SL 693
Spr@@ 693
cast 693
hl 693
tril@@ 693
Classic 692
History 692
Seine 692
When 692
XX 692
adili 692
ifer@@ 692
én@@ 692
ś@@ 692
22,@@ 691
Dob@@ 691
Three 691
amini 691
esh 691
kund@@ 691
Johan 690
Prom@@ 690
anten 690
40,@@ 689
Creek 689
Springs 689
wil@@ 689
1790 688
270 688
Direc@@ 688
Kings 688
Wu 688
andinav@@ 688
islam 688
obs 688
papa 688
ring@@ 688
tag@@ 688
145 687
27. 687
Fisher 687
Fritz 687
Theodore 687
finden 687
itat 687
motiv@@ 687
plen@@ 687
Liège 686
OR@@ 686
ful 686
ă 686
Hed@@ 685
Nissan 685
euro 685
ighton 685
yek@@ 685
Granada 684
Württemberg 684
atha 684
elos 684
113 683
Blan@@ 683
encer 683
otti 683
zim@@ 683
113@@ 682
Banks 682
Ellen 682
Kis@@ 682
Limited 682
Petro 682
ga@@ 682
lies 682
Jim@@ 681
Luftwaffe 681
ror 681
26. 680
intern@@ 680
kii 680
vor@@ 680
129 679
Bismarck 679
Foundation 679
Nim@@ 679
Ring 679
dom 679
isme 679
usu@@ 679
280 678
Gamb@@ 678
IT 678
Müller 678
Send@@ 678
Take 678
asse 678
Emmanuel 677
English 677
G.@@ 677
Gabri@@ 677
Marion 677
P.@@ 677
Rhône 677
SMS 677
eson 677
2500 676
58@@ 676
Janet 676
Nebraska 676
Olivier 676
Paraná 676
WA 676
edia 676
wa@@ 676
114 675
Ble@@ 675
Const@@ 675
Hend@@ 675
USS 675
XP 675
bistan 675
Standard 674
Techn@@ 674
Unix 674
Village 674
aniz@@ 674
aven 674
kez@@ 674
ostr@@ 674
1595 673
3.0 673
Bonn@@ 673
Haj@@ 673
Kids 673
Reichs@@ 673
Side 673
TT@@ 673
XV 673
hici@@ 673
weight 673
CO2 672
Hos@@ 672
idas 672
ols 672
sportif 672
1827 671
480 671
Heinz 671
Manz@@ 671
Schw@@ 671
engen 671
ignon 671
olig@@ 671
ė 671
country 670
ikawa 670
oir 670
Erich 669
Park@@ 669
eks 669
uel@@ 669
vari@@ 669
Drag@@ 668
Vy@@ 668
Works 668
kiz 668
yang 668
Crom@@ 667
Am 666
Düsseldorf 666
Lip@@ 666
116@@ 665
Agr@@ 665
Blake 665
Chuck 665
Forum 665
Fuj@@ 665
Heavy 665
Jeremy 665
Kro@@ 665
Nina 665
ft@@ 665
melan@@ 665
meteor@@ 665
è 665
Atlantic 664
Bever@@ 664
Clu@@ 664
Crown 664
Leib@@ 664
auri 664
orus 664
romanti@@ 664
131 663
18,@@ 663
Extr@@ 663
Planet 663
Soc@@ 663
Wend@@ 663
Woods 663
edeyse 663
fur@@ 663
hp 663
mont@@ 663
sana 663
43@@ 662
Anj@@ 662
Bub@@ 662
Century 662
Edmund 662
Gard@@ 662
RI 662
Salticidae 662
aler@@ 662
atos 662
cuy@@ 662
folk 662
tube 662
64@@ 661
CNN 661
Come 661
Ler@@ 661
Mount 661
Werner 661
aden@@ 661
aldo 661
gate 661
260 660
Essex 660
Franc@@ 660
Pete 660
Todd 660
active 660
iv 660
Ferguson 659
Torres 659
than 659
CI 658
Metropolitan 658
iny 658
jede 658
1808 657
78@@ 657
MW 657
Marina 657
Neu@@ 657
Tou@@ 657
luc@@ 657
Fe 656
Inc. 656
Rhode 656
Service 656
ampton 656
enh@@ 656
kilome@@ 656
occ@@ 656
How 655
How@@ 655
Milton 655
aea 655
coin 655
ös@@ 654
O2 653
azzo 653
cester 653
lion 653
tun 653
Ball 652
Berry 652
Bridge 652
alternati@@ 652
bizi 652
dipl@@ 652
oyle 652
pri@@ 652
Basketball 651
Bennett 651
Eh@@ 651
Magnus 651
born 651
cari@@ 651
deren 651
elli@@ 651
ique 651
veter@@ 651
22. 650
Kid 650
Technology 650
Virgin 650
petrol@@ 650
1300 649
Blues 649
Spiel@@ 649
Talk 649
dre 649
kupan@@ 649
ál@@ 649
1400 648
Ear@@ 648
Fried@@ 648
Golf 648
Lomb@@ 648
Sa 648
Site 648
Sund@@ 648
Zab@@ 648
sea 648
118 647
1786 647
Io@@ 647
Nun@@ 647
nis 647
vu@@ 647
Caesar 646
Friends 646
hu 646
osh 646
programa 646
ruz 646
Franken@@ 645
Ivan@@ 645
Jake 645
Kingston 645
Us 645
bers 645
eten@@ 645
trum 645
Are@@ 644
Augusta 644
Córdoba 644
Dame 644
He 644
Luigi 644
cer 644
jana 644
App 643
Rog@@ 643
TE 643
adia 643
berto 643
führer 643
Monster 642
Mozambi@@ 642
gios 642
harmon@@ 642
Again 641
Miss@@ 641
Reed 641
allo 641
ards 641
Buch@@ 640
Fred@@ 640
King@@ 640
Mau@@ 640
Sophia 640
aku@@ 640
angi 640
enton 640
get@@ 640
kham 640
31.@@ 639
Bang@@ 639
Hamp@@ 639
Major 639
Palace 639
UF@@ 639
eal 639
ems 639
haus 639
ping 639
1.6 638
Hill@@ 638
Jak@@ 638
South@@ 638
court 638
endr@@ 638
ionale 638
lier 638
polit@@ 638
ril@@ 638
გ@@ 638
1806 637
Ado@@ 637
Bora 637
García 637
HS 637
Stevens 637
ticus 637
Bern 636
China 636
Cran@@ 636
bes 636
hibit@@ 636
ufi 636
Fav@@ 635
Gene 635
IF 635
Karen 635
Leone 635
anyon 635
ape 635
bonne 635
ican 635
log 635
oti 635
1810 634
Alexandre 634
Dark@@ 634
ste 634
Ł@@ 634
AI 633
Airways 633
Ced@@ 633
Motors 633
bei 633
bia 633
tari 633
tit 633
165 632
Ba 632
Connor 632
Kiy@@ 632
Lyn@@ 632
NT@@ 632
Swe@@ 632
apo 632
kari 632
life 632
unge 632
vers@@ 632
DR@@ 631
Kamer@@ 631
Laurent 631
Lille 631
bugün@@ 631
AV 630
CPU 630
Tang@@ 630
UV 630
agram 630
andal@@ 630
bezi 630
ński 630
Chan 629
Jesse 629
avo 629
eko 629
ques 629
sia 629
1.500 628
Deportivo 628
N.@@ 628
Pyth@@ 628
emo 628
facto 628
Dram@@ 627
UC@@ 627
Put@@ 626
Test@@ 626
Voice 626
Wak@@ 626
idan 626
ld@@ 626
pent@@ 626
Alf@@ 625
Cus@@ 625
Dw@@ 625
Jag@@ 625
Strasbourg 625
Wy@@ 625
Zap@@ 625
anni 625
batt@@ 625
robot 625
tie 625
ving 625
Call 624
From 624
Penn@@ 624
Wells 624
dor 624
jiang 624
roy@@ 624
132 623
155 623
19@@ 623
Age 623
Beautiful 623
Disk@@ 623
Köl@@ 623
Mann@@ 623
Oro@@ 623
Pall@@ 623
Rogers 623
Spo@@ 623
Theodor 623
Zeh@@ 623
egem@@ 623
ingi 623
ive 623
oft 623
sedi@@ 623
ستان 623
1813 622
Children 622
EX@@ 622
Oliv@@ 622
Owen 622
Set@@ 622
ank 622
apur 622
enton@@ 622
tius 622
vern@@ 622
Bass@@ 621
DA@@ 621
Dar 621
Jon@@ 621
Lil 621
Norte 621
param@@ 621
water 621
Card@@ 620
Eduard 620
Proc@@ 620
xe 620
175 619
66@@ 619
Chil@@ 619
Wed@@ 619
act 619
awn 619
che@@ 619
rus@@ 619
yth@@ 619
EC 618
Fall 618
Samp@@ 618
last@@ 618
libre@@ 618
liga 618
naf@@ 618
sag@@ 618
1819 617
Alber@@ 617
Camp 617
Machine 617
Mine 617
icky 617
147 616
Bib@@ 616
Cob@@ 616
Fener@@ 616
Piz@@ 616
Powell 616
Software 616
eine 616
trix 616
Canada 615
DF@@ 615
Gig@@ 615
Place 615
aud@@ 615
debil@@ 615
opp@@ 615
sive 615
DB 614
Deh@@ 614
Duke 614
Gug@@ 614
Martha 614
Poc@@ 614
Vig@@ 614
frey 614
23. 613
Aragon 613
Here 613
dete 613
lain 613
vert 613
Butler 612
Gibson 612
III. 612
Lun@@ 612
Phillips 612
19,@@ 611
Lé@@ 611
c. 611
yr 611
ր@@ 611
Greg 610
Heaven 610
Lynn 610
Prof@@ 610
Seven 610
Stan 610
acker 610
iris 610
24. 609
Angela 609
Un 609
phus 609
ę@@ 609
1793 608
Cay@@ 608
Clarke 608
Heli@@ 608
Hughes 608
ansen 608
bara 608
gani 608
quot 608
Alpha 607
Mills 607
egan 607
nin@@ 607
s.@@ 607
Ain 606
KV@@ 606
Neill 606
Rat@@ 606
Thom@@ 606
arch 606
cc 606
minim@@ 606
pac@@ 606
schild 606
trof@@ 606
CL 605
CM@@ 605
Hig@@ 605
Pug@@ 605
kula 605
tani 605
ural 605
Att@@ 604
Cam 604
Curtis 604
Dat@@ 604
Koch 604
Québec 604
Rotten 604
TR@@ 604
dex 604
iker 604
nas 604
ucci 604
zum 604
ò 604
119 603
133 603
Brow@@ 603
Fabr@@ 603
Kag@@ 603
MR 603
gens 603
1792 602
20,@@ 602
737 602
Cla@@ 602
Jor@@ 602
NET 602
einer 602
evich 602
irini 602
king@@ 602
vie 602
Edwards 601
Flo@@ 601
Gle@@ 601
If 601
Jack@@ 601
Jo 601
NH@@ 601
cape 601
wn 601
53@@ 600
After 600
DL 600
Explorer 600
Mao 600
Westminster 600
Zin@@ 600
aia 600
ulia 600
ás@@ 600
1453 599
26,@@ 599
GE 599
Gest@@ 599
Lima 599
Now@@ 599
Systems 599
Will@@ 599
aise 599
Bradley 598
Dami@@ 598
Fall@@ 598
K.@@ 598
SAR@@ 598
Tru@@ 598
Yang 598
sho@@ 598
х@@ 598
978 597
BE 597
Mind@@ 597
dison 597
ion@@ 597
ories 597
spur 597
Duf@@ 596
Führ@@ 596
Mail 596
Queens 596
Rep@@ 596
Rovers 596
Viol@@ 596
essa 596
شه@@ 596
850 595
Angelo 595
Ra 595
Ron@@ 595
Schmidt 595
Vu@@ 595
1825 594
César 594
Hud@@ 594
John@@ 594
Lenn@@ 594
Sergio 594
anthus 594
bis 594
market 594
ozo@@ 594
ual 594
uku 594
Buck@@ 593
Emil 593
McDonald 593
Schal@@ 593
WTA 593
Wellington 593
berg@@ 593
ennes 593
ph 593
Brad 592
Gut@@ 592
Poli@@ 592
Review 592
irk 592
islam@@ 592
Airbus 591
Honduras 591
Jin@@ 591
Sonn@@ 591
Wang 591
brand 591
hausen 591
lane 591
sley 591
Diamond 590
Ent@@ 590
Linda 590
López 590
Script 590
Temp@@ 590
azy 590
erb@@ 590
,000 589
Memphis 589
SK@@ 589
Yu 589
artisti@@ 589
d. 589
denk@@ 589
last 589
oides 589
performan@@ 589
rain 589
ventr@@ 589
ո@@ 589
365 588
Net 588
Some@@ 588
aragua 588
dad 588
nier 588
pu 588
Edwin 587
Fam@@ 587
Grey 587
Wars 587
Weimar 587
enten 587
tney 587
Brest 586
Dru@@ 586
Fit@@ 586
Gregor 586
MD 586
Rac@@ 586
Them@@ 586
bai 586
blog@@ 586
grad 586
poly@@ 586
152 585
2023 585
Gonz@@ 585
González 585
Ind@@ 585
iscus 585
lop@@ 585
pool 585
wh@@ 585
win@@ 585
380 584
AX 584
Brig@@ 584
Ellis 584
Ji 584
Provence 584
arti@@ 584
otte 584
0,5 583
Crystal 583
Grav@@ 583
Rhodes 583
Shaw 583
orb@@ 583
zit@@ 583
2.2 582
Chase 582
Roll 582
allah 582
omy@@ 582
ს 582
1804 581
inas 581
у@@ 581
América 580
Glass 580
Kurtul@@ 580
Under 580
azu 580
body 580
deg@@ 580
ilis 580
ische 580
э 580
Albi@@ 579
Lic@@ 579
Lucy 579
Phili@@ 579
Song@@ 579
bell 579
gram@@ 579
ingen@@ 579
Warriors 578
blues 578
dus 578
tos@@ 578
146 577
1809 577
Bill@@ 577
Fou@@ 577
Miles 577
enz 577
1801 576
1822 576
Fitz@@ 576
Hopkins 576
Weber 576
dong 576
endel@@ 576
heri 576
ial 576
August@@ 575
Celtic 575
Covid 575
Faith 575
Klaus 575
golf 575
ovsky 575
Jam 574
Kno@@ 574
MV 574
Maf@@ 574
kali 574
omon 574
Kateg@@ 573
ead 573
sah 573
yün 573
1818 572
Denver 572
Format 572
Future 572
Garr@@ 572
Rita 572
Sound@@ 572
navig@@ 572
1.3 571
74@@ 571
Key 571
Lot@@ 571
Rho@@ 571
SQL 571
Tu 571
Bid@@ 570
Jr. 570
Phys@@ 570
Trinidad 569
black 569
Alliance 568
antes 568
1816 567
Alonso 567
Glo@@ 567
MT@@ 567
Refer@@ 567
Sph@@ 567
Val 567
kata 567
lec@@ 567
Đ@@ 567
1807 566
Lati@@ 566
PD 566
Sussex 566
Trinity 566
Year 566
aan 566
auch@@ 566
emon 566
ensburg 566
right 566
Chester 565
Field 565
Hier@@ 565
Suc@@ 565
Tower 565
Trans 565
oud 565
CW 564
Jeffrey 564
elis 564
imen 564
itas 564
uel 564
Champions 563
Coupe 563
DM 563
Hope 563
erh@@ 563
mara 563
qua 563
ras 563
sing 563
sten@@ 563
144 562
Burkina 562
Lub@@ 562
law 562
Chron@@ 561
Clin@@ 561
Eisen@@ 561
Myr@@ 561
Ou@@ 561
blog 561
dog@@ 561
dra@@ 561
idem@@ 561
Beethoven 560
Bengal 560
Lancaster 560
Ward 560
alta 560
nati@@ 560
rich@@ 560
ț@@ 560
Capital 559
flü@@ 559
ushi 559
Castle 558
Coll@@ 558
alom 558
asis 558
sman 558
Chal@@ 557
Joyce 557
Maximilian 557
Pear@@ 557
Rain 557
Sach@@ 557
chus 557
ovic 557
vs. 557
р@@ 557
Carmen 556
Game@@ 556
Holland 556
Marc@@ 556
Metacritic 556
cim@@ 556
nim@@ 556
onds 556
spin 556
1824 555
Alc@@ 555
Alexand@@ 555
Po 555
Waffen 555
asc@@ 555
dej@@ 555
ense@@ 555
taine 555
Desp@@ 554
Haus@@ 554
Vladi@@ 554
acle 554
endis@@ 554
ouv@@ 554
138 553
Gill@@ 553
doc@@ 553
ends 553
ign 553
oll 553
strö@@ 553
176 552
199@@ 552
77@@ 552
Atom@@ 552
Bergen 552
Heter@@ 552
Patricia 552
Poz@@ 552
ches 552
mare 552
è@@ 552
141 551
24,@@ 551
Gw@@ 551
oux 551
Abdul 550
Fantas@@ 550
ieu 550
к@@ 550
Beth@@ 549
Jonas 549
Lö@@ 549
Movie 549
Run 549
aft@@ 549
mail@@ 549
remix 549
sy 549
205 548
Elisabeth 548
Geoff@@ 548
Watch 548
integral 548
odor@@ 548
ongo 548
orn@@ 548
Laos 547
Plaza 547
Set 547
ces 547
ector 547
134 546
AH 546
Das 546
Gaulle 546
Happy 546
Hero 546
Only 546
Quebec 546
rant 546
--@@ 545
216 545
225 545
Alfonso 545
Auto 545
Borough 545
TNA 545
Tomatoes 545
Turkey 545
lada 545
Fernández 544
Foc@@ 544
Macar@@ 544
Togo 544
Vie@@ 544
nec@@ 544
pp 544
real 544
AO 543
Hamil@@ 543
IL@@ 543
Sin 543
Sle@@ 543
Wan@@ 543
apolis 543
ball@@ 543
sdorf 543
ه 543
69@@ 542
Adol@@ 542
Aeg@@ 542
Know 542
Salt 542
Samoa 542
Sang@@ 542
Stade 542
estes 542
gro@@ 542
iku@@ 542
ils 542
lau@@ 542
ofu 542
quin@@ 542
1788 541
1798 541
nus 541
1100 540
Betty 540
Bras@@ 540
atidae 540
azi@@ 540
bourne 540
nde@@ 540
pic@@ 540
usi@@ 540
Away 539
Electronic 539
Garcia 539
Hammer 539
Myster@@ 539
celer@@ 539
color 539
kran@@ 539
nez 539
self 539
ń@@ 539
1774 538
Alto 538
Bald@@ 538
Hood 538
Lay@@ 538
Sex 538
Winter@@ 538
oshima 538
phone 538
reci@@ 538
Car 537
Coast 537
Reis@@ 537
enge 537
monit@@ 537
osi 537
pei 537
tum@@ 537
About 536
CF@@ 536
Fischer 536
HD@@ 536
Luna 536
cartes 536
mol 536
ree 536
toler@@ 536
ustos 536
7.5 535
Lokom@@ 535
Utr@@ 535
Winston 535
eas 535
one@@ 535
sions 535
ʻ@@ 535
Aber@@ 534
Vera 534
ata@@ 534
kowski 534
roc@@ 534
veh@@ 534
Idaho 533
KS 533
Lionel 533
Monter@@ 533
absor@@ 533
dium 533
eos 533
night 533
rehabilit@@ 533
tern 533
א@@ 533
1791 532
Centre 532
Enf@@ 532
Ferg@@ 532
Grand@@ 532
Human 532
Ruth 532
SP 532
Tetr@@ 532
Wis@@ 532
eville 532
firm@@ 532
ria 532
Javier 531
Mack@@ 531
Nation 531
Sot@@ 531
dell 531
elles 531
mud 531
optim@@ 531
ysis 531
4.5 530
Discovery 530
Forever 530
Percy 530
SU 530
monta@@ 530
tera 530
136 529
Braun 529
Dag@@ 529
Full 529
Nau@@ 529
SO 529
Swan@@ 529
anol 529
indis@@ 529
micro@@ 529
ová 529
Eduardo 528
Gim@@ 528
Leslie 528
MO 528
Nash 528
Olymp@@ 528
Our 528
hynch@@ 528
pic 528
tens@@ 528
verse 528
Cyr@@ 527
Rodrigo 527
Tō@@ 527
death 527
dei 527
zip 527
Duncan 526
Evil 526
MIT 526
Marcel@@ 526
Or 526
Ost@@ 526
ality 526
echt 526
odes 526
tara 526
Bür@@ 525
Chamber@@ 525
Freiburg 525
Port@@ 525
Tito 525
phy@@ 525
HTML 524
Hyp@@ 524
Joy 524
Lew@@ 524
Lif@@ 524
Liu 524
Next 524
isco 524
jit@@ 524
Bam@@ 523
Kras@@ 523
Logan 523
MT 523
Mainz 523
Rodríguez 523
Smo@@ 523
arron@@ 523
ety 523
flora 523
kid@@ 523
Étienne 523
ר@@ 523
Coul@@ 522
Dus@@ 522
Dylan 522
Infin@@ 522
Kenny 522
Silver@@ 522
Southampton 522
anum 522
cum@@ 522
enst@@ 522
onica 522
tag 522
166 521
Chen 521
Dream@@ 521
Gay 521
Generation 521
Meyer 521
Price 521
Rin@@ 521
Thomson 521
efe 521
inson 521
oras 521
yx 521
Abel 520
DT 520
Design 520
Europa 520
Hunt 520
alaya 520
dol 520
ock@@ 520
ood 520
ós 520
1817 519
Alejandro 519
Davies 519
Malcolm 519
Mord@@ 519
Obr@@ 519
eves 519
lug@@ 519
progres@@ 519
works 519
Asi@@ 518
Five 518
Luther 518
Paramount 518
Pat 518
atl@@ 518
bio 518
icul@@ 518
± 518
ís 518
1805 517
Alexandra 517
Jenn@@ 517
NFL 517
inv@@ 517
lee 517
uer@@ 517
BSD 516
Bloom@@ 516
Brom@@ 516
F.C. 516
Hull 516
Snow 516
Sob@@ 516
UL@@ 516
left 516
paras@@ 516
Annie 515
Cath@@ 515
States 515
lap@@ 515
uss 515
1.8 514
154 514
99@@ 514
Chang@@ 514
EN 514
Horiz@@ 514
Nom@@ 514
Paula 514
Rush 514
Special 514
chum 514
mis 514
onde 514
world 514
ტ@@ 514
1783 513
1797 513
1811 513
Belle 513
Christine 513
Dra@@ 513
Zu@@ 513
beck 513
jon 513
limi@@ 513
1780 512
207 512
CR@@ 512
Computer 512
Derby 512
Falls 512
Hann@@ 512
text 512
unga 512
ān 512
137 511
Eff@@ 511
Gabon 511
Harmon@@ 511
LD 511
Schrö@@ 511
Winter 511
ox@@ 511
panel 511
sberg 511
urn 511
Dog 510
Films 510
Pius 510
Zero 510
ayer 510
mart@@ 510
1795 509
Chan@@ 509
Hasta 509
Lut@@ 509
Multi@@ 509
Zhang 509
avia 509
eni@@ 509
poli 509
som 509
Main 508
Sunday 508
Tud@@ 508
antha 508
atic 508
aurus 508
gren 508
ids 508
tions 508
wei 508
156 507
Andrews 507
Brab@@ 507
Ha 507
Imag@@ 507
Jus@@ 507
Sofia 507
Witt@@ 507
aham 507
anner 507
0.6 506
AU 506
CP@@ 506
Domen@@ 506
Hug@@ 506
IR@@ 506
Jackie 506
eur@@ 506
orio 506
rico 506
tico 506
1823 505
Bien@@ 505
Columbus 505
Mar 505
Richmond 505
There 505
Xavier 505
pound 505
role 505
tend@@ 505
upp@@ 505
ος 505
Emp@@ 504
F.@@ 504
Obj@@ 504
but 504
ll 504
ride 504
usan 504
verm@@ 504
й 504
Flora 503
Hal 503
Loire 503
Well@@ 503
arts 503
fax 503
litz 503
unya 503
zel@@ 503
Bas 502
Kw@@ 502
Nine 502
Pog@@ 502
eon@@ 502
other 502
О@@ 502
Ghost 501
Kyle 501
Mend@@ 501
Saar@@ 501
Wid@@ 501
petr@@ 501
6000 500
Anadol@@ 500
Beşik@@ 500
Gad@@ 500
Preston 500
Scr@@ 500
arios 500
dot 500
ision 500
lea 500
other@@ 500
rez 500
Auguste 499
Castel@@ 499
Hadi 499
Ling@@ 499
Public 499
double 499
duc@@ 499
eir@@ 499
fried 499
rail 499
tex 499
233 498
25,@@ 498
63@@ 498
Bih@@ 498
Bundes@@ 498
Calvin 498
Council 498
Delaware 498
Hau@@ 498
Hof@@ 498
Papua 498
Sega 498
agus 498
brid@@ 498
idel@@ 498
1802 497
217 497
30. 497
Ami@@ 497
Animation 497
Diam@@ 497
Jab@@ 497
Jesus 497
Sex@@ 497
Trin@@ 497
Windsor 497
ero@@ 497
pra@@ 497
Church 496
Pittsburgh 496
Richards 496
anza 496
ating 496
hot@@ 496
kik@@ 496
ool 496
sio 496
vio 496
Alberta 495
Bowl 495
España 495
Gerald 495
Harbor 495
Hoh@@ 495
LS 495
Mind 495
Moder@@ 495
aji 495
delta 495
jk 495
ross 495
Quint@@ 494
Uru@@ 494
osom@@ 494
Capitol 493
Fair 493
Jura 493
Re 493
rier 493
ufu@@ 493
ène 493
ե@@ 493
1776 492
Devil 492
Edit@@ 492
Gran 492
Hadi@@ 492
Marin@@ 492
Nantes 492
SF 492
SN 492
oster@@ 492
retr@@ 492
uku@@ 492
21,@@ 491
Carp@@ 491
GmbH 491
Siemens 491
anger@@ 491
itali@@ 491
leist@@ 491
tn@@ 491
western 491
xx 491
Ago@@ 490
Aph@@ 490
Emb@@ 490
Epi@@ 490
Gis@@ 490
Kingdom 490
Luz@@ 490
ą@@ 490
Bo 489
Carroll 489
Eis@@ 489
IUCN 489
Tech@@ 489
Tof@@ 489
culus 489
gon@@ 489
kai 489
live 489
olm 489
onder@@ 489
1- 488
2.1 488
5.5 488
Dau@@ 488
Faso 488
Fru@@ 488
Kapit@@ 488
Laf@@ 488
Second 488
Tub@@ 488
oceph@@ 488
ship 488
Alba 487
Inn@@ 487
Lod@@ 487
Reynolds 487
assi@@ 487
enia 487
inj@@ 487
nos@@ 487
Dé@@ 486
Giac@@ 486
Paral@@ 486
Río 486
Sper@@ 486
UR 486
Ug@@ 486
cho@@ 486
engo 486
row@@ 486
än@@ 486
Dong@@ 485
Saturday 485
global 485
lide 485
nad@@ 485
olph 485
Audi@@ 484
Edo 484
Gloria 484
Greatest 484
Kik@@ 484
Vinc@@ 484
abu 484
ellidae 484
esse 484
fem@@ 484
flam@@ 484
format 484
magaz@@ 484
torio 484
tronics 484
Doh@@ 483
Fan@@ 483
Guil@@ 483
IV@@ 483
Sr@@ 483
Week@@ 483
amis 483
berry 483
ppi 483
ute 483
ქ@@ 483
Beno@@ 482
ED@@ 482
Liter@@ 482
Margar@@ 482
Simone 482
Springfield 482
True 482
azo 482
beg@@ 482
lé 482
oder@@ 482
zel 482
143 481
Coun@@ 481
Grove 481
Henderson 481
Make 481
Night@@ 481
Wr@@ 481
asili 481
funk 481
ules 481
163 480
185 480
32.@@ 480
Beat 480
Gate 480
Memorial 480
Nord 480
Quer@@ 480
Today 480
entry 480
tice 480
148 479
1803 479
235 479
Mans 479
Mia 479
Sign@@ 479
ampli@@ 479
chu@@ 479
fle@@ 479
imp@@ 479
mund 479
war 479
5,000 478
Storm 478
idor 478
pres 478
tain 478
ő@@ 478
л@@ 478
Barth@@ 477
Göttingen 477
Heights 477
Lara 477
atu@@ 477
cy@@ 477
Cardiff 476
Control 476
Konrad 476
Soccer 476
Turkish 476
Yo 476
berland 476
dov@@ 476
ying 476
139 475
HK 475
Hannah 475
Orig@@ 475
Rif@@ 475
Tum@@ 475
anst@@ 475
ellan 475
emin@@ 475
prin@@ 475
ridir 475
rut@@ 475
267 474
Jeanne 474
Tell 474
Vicente 474
ablan@@ 474
ean@@ 474
imin@@ 474
ladi@@ 474
nith@@ 474
wing 474
₺ 474
142 473
Audi 473
Cit@@ 473
Jung@@ 473
Nixon 473
Rau@@ 473
Sacram@@ 473
horn 473
kard 473
teleskop@@ 473
xon 473
Chang 472
Face 472
GO 472
Joachim 472
Universit@@ 472
ening 472
enni@@ 472
1794 471
37.@@ 471
420 471
Cri@@ 471
Gram@@ 471
Many@@ 471
Zaragoza 471
dro@@ 471
ecr@@ 471
enna 471
new 471
árez 471
● 471
950 470
Boc@@ 470
FF@@ 470
Heidelberg 470
Ré@@ 470
brook 470
ectus 470
jar@@ 470
opus 470
ík 470
ն 470
195 469
340 469
640 469
Camille 469
Edir@@ 469
allas 469
anor 469
bani 469
cat 469
Wein@@ 468
shan 468
tian 468
38.@@ 467
DD 467
Dop@@ 467
Dorothy 467
Gang 467
Lex@@ 467
Pix@@ 467
bro 467
draft 467
inum 467
orca 467
rh@@ 467
Benin 466
Lang 466
Premi@@ 466
Quar@@ 466
Theo 466
alu 466
drei 466
onas 466
ubil@@ 466
Nath@@ 465
Toledo 465
akula 465
eur 465
i.@@ 465
orno 465
pro 465
station 465
ylo@@ 465
Baptiste 464
Linn@@ 464
Martín 464
Rapha@@ 464
Vau@@ 464
Wyoming 464
endorf 464
quel@@ 464
unds 464
Books 463
Erzur@@ 463
Ka 463
Seh@@ 463
agh 463
okrati@@ 463
recht 463
Alexis 462
Bird 462
Fün@@ 462
Show@@ 462
V.@@ 462
dle 462
.org 461
Bör@@ 461
Florence 461
Vietnam@@ 461
anal 461
Alvar@@ 460
Broad@@ 460
Jagu@@ 460
Ruby 460
Stil@@ 460
forme 460
sian 460
Blin@@ 459
Enrique 459
PL@@ 459
Stop 459
Work 459
arta 459
Beck 458
Benedic@@ 458
Chev@@ 458
Chevrolet 458
Marcos 458
defin@@ 458
obr@@ 458
tina 458
Abd 457
Autom@@ 457
Avi@@ 457
Bilbao 457
Fron@@ 457
Isa@@ 457
Kass@@ 457
Montpellier 457
Nassau 457
chwitz 457
multi@@ 457
qui 457
wak@@ 457
Cristi@@ 456
Raw@@ 456
Right 456
Sylv@@ 456
Unic@@ 456
Walk 456
stream 456
äl@@ 456
μ@@ 456
CR 455
Du 455
Earl 455
Production 455
Rug@@ 455
View 455
XVIII 455
ilus 455
ographic 455
pez 455
seli 455
158 454
1770 454
Jaime 454
Township 454
amos 454
background 454
lois 454
mari@@ 454
oun 454
vas 454
zina 454
1660 453
370 453
Als@@ 453
Bath@@ 453
Bund@@ 453
Chi 453
Chrys@@ 453
Kau@@ 453
Milwaukee 453
Notre 453
PD@@ 453
mid 453
pati@@ 453
utz 453
vá@@ 453
г@@ 453
Action 452
Order 452
See 452
Teresa 452
ering 452
esn@@ 452
fru@@ 452
ires 452
onic 452
ui@@ 452
28,@@ 451
415 451
Broadcasting 451
Fren@@ 451
GO@@ 451
Herman 451
Heroes 451
León 451
WCW 451
demi 451
leg 451
rac@@ 451
222 450
Player 450
Vega 450
acia 450
Cyc@@ 449
Ehr@@ 449
Know@@ 449
Legend 449
Lion 449
Sherman 449
Sten@@ 449
Wind@@ 449
Wonder 449
boro 449
gae 449
infr@@ 449
lep@@ 449
refle@@ 449
Associ@@ 448
Circle 448
Guillaume 448
Heb@@ 448
Natur@@ 448
Tech 448
atti 448
ilini 448
isch@@ 448
wie 448
מ@@ 448
Brien 447
Dominique 447
Sciences 447
Trib@@ 447
Yi 447
eor@@ 447
pper 447
spr@@ 447
ń 447
1,0@@ 446
1520 446
168 446
Crim@@ 446
Exchange 446
Eyes 446
ambo 446
look 446
192 445
32@@ 445
French 445
Lotus 445
Ski@@ 445
hua 445
venture 445
Cryp@@ 444
Name 444
Partn@@ 444
Rain@@ 444
Staf@@ 444
Vari@@ 444
aste 444
book 444
entes 444
manif@@ 444
med 444
sorg@@ 444
tape 444
tical 444
tig 444
yna 444
Pru@@ 443
Vand@@ 443
ages 443
cher@@ 443
dot@@ 443
ecca 443
ful@@ 443
Angels 442
DOS 442
Gil 442
allen 442
eiro 442
host@@ 442
kt 442
wild 442
на 442
153 441
Indian 441
Management 441
MiG 441
Rice 441
Theater 441
ads 441
Far 440
Joshua 440
Kirch@@ 440
Miner@@ 440
Writ@@ 440
Zur@@ 440
eben 440
favor@@ 440
ingi@@ 440
m3 440
onen 440
ouvre 440
que@@ 440
sac@@ 440
talk 440
ш@@ 440
405 439
Julio 439
Pacific 439
Porter 439
Trou@@ 439
ambul@@ 439
dt 439
ything 439
395 438
Medical 438
Nature 438
Ruf@@ 438
mith@@ 438
wski 438
Famil@@ 437
Manga 437
Sport@@ 437
Te 437
aup@@ 437
gers 437
ms@@ 437
stand 437
,@@ 436
1204 436
331 436
Bulg@@ 436
Data 436
Liberty 436
Omar 436
Pf@@ 436
Southern 436
Stadium 436
Steel 436
Zan@@ 436
bid@@ 436
fis@@ 436
illing 436
imet@@ 436
omin@@ 436
178 435
34.@@ 435
35.@@ 435
India 435
Luc 435
Ocean 435
Social 435
Wir@@ 435
abo 435
cit@@ 435
nica 435
roll 435
tory 435
Beb@@ 434
Cox 434
Eugen@@ 434
Main@@ 434
Trig@@ 434
enda 434
kho@@ 434
leen 434
stead 434
umin@@ 434
ble@@ 433
nig@@ 433
sie 433
table 433
167 432
1799 432
BW@@ 432
Community 432
Lup@@ 432
MG 432
Stol@@ 432
Trail 432
UM@@ 432
dee 432
onym@@ 432
ré@@ 432
this 432
tista 432
wel@@ 432
zis@@ 432
ác@@ 432
π 432
1,6 431
164 431
1796 431
2.4 431
540 431
911 431
Auvergne 431
Claudia 431
Double 431
Schul@@ 431
Station 431
Wester@@ 431
Wien 431
ifer 431
jeni 431
rd 431
ways 431
ב@@ 431
0.5 430
2- 430
29,@@ 430
Clif@@ 430
Frances 430
Nap@@ 430
alto 430
isson 430
open@@ 430
ulin 430
ν 430
н 430
1,3 429
1750 429
Anto@@ 429
Doc@@ 429
ausen 429
cle 429
pen 429
unter 429
éc@@ 429
ël 429
001 428
Elite 428
link 428
oh 428
Glad@@ 427
Rich 427
Spec@@ 427
Water 427
Zul@@ 427
stop 427
them@@ 427
к 427
ე 427
შ@@ 427
430 426
Benito 426
Campo 426
Development 426
Frag@@ 426
NAS@@ 426
Soci@@ 426
asisi 426
later 426
nitr@@ 426
ühr@@ 426
39.@@ 425
Alli@@ 425
Aub@@ 425
Chor@@ 425
Khal@@ 425
NC 425
Perf@@ 425
Tod@@ 425
Trich@@ 425
ehouse 425
onc@@ 425
onna 425
üssel@@ 425
151 424
Hou@@ 424
Living 424
Spring 424
Ta 424
kshire 424
thal 424
Alban@@ 423
Butter@@ 423
Independent 423
Mig@@ 423
Spider 423
Tra@@ 423
Without 423
aar 423
flu@@ 423
otis 423
zia 423
ì 423
Glen 422
IEEE 422
Prime 422
Where 422
baum 422
lag 422
loo 422
moral 422
venti@@ 422
xy 422
171 421
264 421
Adelaide 421
Adler 421
Clay 421
Durham 421
Hyper@@ 421
Lob@@ 421
Nikolai 421
PT 421
cip@@ 421
stedt 421
ures 421
310 420
Cann@@ 420
Plata 420
asco 420
oul 420
vez 420
ь@@ 420
198@@ 419
6.5 419
Istanbul 419
PI 419
SR@@ 419
Urban 419
W.@@ 419
Wik@@ 419
cz@@ 419
ets@@ 419
imus 419
lie@@ 419
lows 419
uña 419
BR@@ 418
DV@@ 418
Federico 418
Neum@@ 418
Plymouth 418
Primera 418
aktive 418
fish 418
igen 418
р 418
149 417
Abbey 417
Franç@@ 417
Light@@ 417
arra 417
aí@@ 417
cab@@ 417
itter 417
seau 417
000@@ 416
Feld@@ 416
Hesse 416
MI 416
hana 416
wang 416
west 416
159 415
520 415
Free@@ 415
Greene 415
Horn@@ 415
Sens@@ 415
Shadow 415
Six@@ 415
Terminal 415
Years 415
eim 415
erre 415
membran@@ 415
volution 415
đ@@ 415
ţ@@ 415
2.3 414
512 414
Burundi 414
Choice 414
Palmer 414
Roch@@ 414
bass 414
enus 414
fire 414
olla 414
olus 414
pit 414
rig@@ 414
172 413
Mohamed 413
Pulitzer 413
arme 413
cht 413
embr@@ 413
Cly@@ 412
Code 412
Cow@@ 412
NY@@ 412
Polo 412
Republic 412
Tamb@@ 412
Torre 412
eless 412
quez 412
بن 412
162 411
Bibli@@ 411
Court 411
Lorraine 411
Makao 411
München 411
age@@ 411
aun 411
tamb@@ 411
Dynam@@ 410
Richardson 410
Spek@@ 410
VO@@ 410
Xen@@ 410
lich 410
natür@@ 410
serve 410
1521 409
DI@@ 409
EV@@ 409
Finale 409
Lop@@ 409
Mön@@ 409
Param@@ 409
Pomer@@ 409
Vich@@ 409
cott 409
feet 409
iidae 409
inidae 409
ob 409
outh 409
Kader 408
Phyl@@ 408
chia 408
four 408
mente 408
synth@@ 408
5,5 407
Chel@@ 407
Deleg@@ 407
Gat@@ 407
Herz@@ 407
Pérez 407
SPD 407
Tex@@ 407
aum 407
ebo@@ 407
ernes 407
oc 407
umba 407
С@@ 407
Albums 406
Cl 406
Conrad 406
Cuc@@ 406
Sánchez 406
Yoh@@ 406
fred 406
othing 406
roy 406
wor@@ 406
10,000 405
201 405
Peri@@ 405
Ub@@ 405
e.@@ 405
emer@@ 405
holding 405
livan 405
stal@@ 405
thing 405
ː@@ 405
ה@@ 405
Amad@@ 404
Anders 404
Asia 404
Tales 404
Yves 404
erra 404
uria 404
747 403
960 403
Bach@@ 403
Ib@@ 403
Itali@@ 403
Moreno 403
aly 403
ear 403
ells 403
fine 403
ingu@@ 403
kug@@ 403
ә@@ 403
1,8 402
182 402
Case 402
Chin@@ 402
HO@@ 402
Nos@@ 402
Pig@@ 402
Ufa 402
bonus 402
ylon 402
м@@ 402
----@@ 401
36.@@ 401
Alfredo 401
Casa 401
EMI 401
Gerhard 401
H2O 401
anapolis 401
deo 401
ele@@ 401
fly 401
lez 401
metropolit@@ 401
sko@@ 401
soul 401
view 401
169 400
Eugène 400
Isabel 400
Robertson 400
adu@@ 400
amia 400
huy@@ 400
lower 400
ords 400
py@@ 400
quer@@ 400
1730 399
Adel@@ 399
Board 399
Hack@@ 399
Metz 399
Mother 399
Ports@@ 399
630 398
Cold 398
Rosen@@ 398
erst@@ 398
etos 398
hol 398
iba 398
igne 398
ives 398
204 397
305 397
Captain 397
Irene 397
Stir@@ 397
Visual 397
Vol 397
baya 397
gig@@ 397
quet 397
spi@@ 397
ult 397
Édouard 397
186 396
Becker 396
Berger 396
Body 396
Chamber 396
Teleg@@ 396
ara@@ 396
e.org 396
sung 396
thus 396
ø 396
θ 396
1550 395
1648 395
1775 395
Alab@@ 395
Dist@@ 395
East@@ 395
NR@@ 395
Oak 395
Ultimate 395
William@@ 395
ED 394
Eye 394
Hessen 394
Justice 394
Jürgen 394
Market 394
Miranda 394
Rivera 394
Shah@@ 394
Spirit 394
alls 394
eme@@ 394
front@@ 394
g. 394
jav@@ 394
plex 394
zum@@ 394
ł 394
174 393
202 393
410 393
Collection 393
Tus@@ 393
Wiz@@ 393
icio 393
iny@@ 393
ã@@ 393
ל@@ 393
1603 392
193 392
IB@@ 392
Montevideo 392
Ten 392
Es 391
Marsh@@ 391
Martínez 391
engine 391
partner@@ 391
plasma 391
power 391
177 390
Down@@ 390
His 390
Hubert 390
Por 390
Spi@@ 390
211 389
Beat@@ 389
Burns 389
División 389
Estr@@ 389
Kai 389
Kou@@ 389
Meth@@ 389
Queensland 389
Stern 389
Superman 389
edra 389
neb@@ 389
ox 389
rian 389
tuy@@ 389
utar@@ 389
vus 389
6,5 388
Amer@@ 388
CT 388
Crow@@ 388
Marseille 388
Tor 388
Wind 388
anny 388
determin@@ 388
eps 388
ffer 388
ground 388
iggins 388
ocer@@ 388
otus 388
ß 388
325 387
Brenn@@ 387
CV@@ 387
RAF 387
Sax@@ 387
bili@@ 387
grad@@ 387
gy@@ 387
itor 387
othy 387
ė@@ 387
Ś@@ 387
212 386
30,@@ 386
Bav@@ 386
Chic@@ 386
Encyclo@@ 386
Marqu@@ 386
Phot@@ 386
atrice 386
cos@@ 386
hardt 386
ité 386
ndi@@ 386
Christoph 385
Fantasy 385
Kais@@ 385
Lach@@ 385
Matthias 385
Wikipedia 385
aen@@ 385
ails 385
alba 385
eban 385
erie 385
shi@@ 385
ã 385
ש@@ 385
1570 384
208 384
Gallery 384
Roll@@ 384
dice 384
enga 384
enthal 384
glut@@ 384
istre 384
ologies 384
и 384
161 383
Area 383
Dr 383
Estadio 383
aleg@@ 383
ehem@@ 383
μ 383
ω 383
بخش 383
1768 382
184 382
Buffalo 382
Common 382
Graz 382
Hospital 382
Philipp 382
Stra@@ 382
ale@@ 382
183 381
218 381
Federation 381
Gli@@ 381
Impact 381
Kiel 381
Lambert 381
Lum@@ 381
Master@@ 381
Purple 381
ause 381
same 381
BL@@ 380
Bertrand 380
Castell@@ 380
Chu@@ 380
Globe 380
akini 380
gr 380
muda 380
sum 380
where 380
1650 379
203 379
215 379
FL@@ 379
Haute 379
Kuh@@ 379
Tiy@@ 379
anas 379
idos 379
onio 379
н@@ 379
0,2 378
Heil@@ 378
IL 378
Jour@@ 378
Merc@@ 378
Ulrich 378
limit 378
optera 378
z. 378
ück 378
1778 377
209 377
680 377
Zep@@ 377
acer@@ 377
ection 377
ellus 377
fac@@ 377
gon 377
hon@@ 377
ocol@@ 377
onian 377
pur 377
Bishop 376
Como 376
Corr@@ 376
David@@ 376
Jakob 376
List 376
Pokal 376
Room 376
Schneider 376
Stein 376
Thur@@ 376
UT@@ 376
cent@@ 376
gos 376
olls 376
1763 375
460 375
Danz@@ 375
Hit 375
NP 375
Oly@@ 375
Reading 375
XIX 375
anic 375
chil@@ 375
cum 375
xa 375
ն@@ 375
189 374
Gum@@ 374
Shan@@ 374
Urugu@@ 374
andere 374
jur@@ 374
ocul@@ 374
opar@@ 374
qi 374
157 373
206 373
Duc@@ 373
Frances@@ 373
Madame 373
Prin@@ 373
Too 373
Verde 373
akes 373
erson 373
hop@@ 373
rich 373
ño 373
у 373
196 372
Coch@@ 372
Kanton 372
Singh 372
ardi 372
chan 372
ecker 372
eco 372
sters 372
sti 372
Villar@@ 371
acks 371
iel 371
semi 371
young 371
188 370
3- 370
Augus@@ 370
Energy 370
Low 370
Málaga 370
SH 370
ament@@ 370
aper@@ 370
atte 370
cover@@ 370
eberg 370
point 370
tenberg 370
vier 370
т@@ 370
յ@@ 370
1,8@@ 369
Aar@@ 369
Arz@@ 369
Augsburg 369
Box@@ 369
CT@@ 369
EG 369
Enterprise 369
GR@@ 369
Khar@@ 369
PL 369
RCA 369
come 369
ective 369
eux 369
terr@@ 369
Çanak@@ 369
BD 368
Capit@@ 368
Concer@@ 368
Israel 368
Mathemati@@ 368
Münster 368
lyn 368
ög@@ 368
1740 367
Bernhard 367
CL@@ 367
Díaz 367
Félix 367
Imperial 367
Jay@@ 367
Produc@@ 367
alda 367
ect@@ 367
ieve 367
isburg 367
232 366
Evangel@@ 366
Hä@@ 366
Sao 366
Tai 366
Wales 366
data 366
flo@@ 366
hindi 366
ien@@ 366
ising 366
lay 366
ning@@ 366
sto@@ 366
ña 366
239 365
Album 365
Conference 365
Dioc@@ 365
Hain@@ 365
IGN 365
Temple 365
VC 365
WW@@ 365
andt 365
marine 365
Ø@@ 365
е 365
238 364
Army 364
fund@@ 364
habitat 364
othe@@ 364
rist@@ 364
sprint 364
év@@ 364
Т@@ 364
Apostol@@ 363
Bi 363
Clay@@ 363
Econom@@ 363
IV. 363
Rainbow 363
beli@@ 363
eling 363
oss 363
uso 363
Ó@@ 363
ù 363
530 362
CON@@ 362
Malay@@ 362
Revolution 362
Romero 362
Trophy 362
after 362
ature 362
basa 362
dion 362
elling 362
esch@@ 362
rea 362
zile 362
290 361
7000 361
Canadian 361
Gill 361
U.S. 361
egas 361
gion 361
ppo 361
rid@@ 361
round 361
wol@@ 361
ς 361
720 360
Alo@@ 360
Morning 360
Nashville 360
Sham@@ 360
egel@@ 360
sville 360
1526 359
1772 359
197 359
199 359
BR 359
Constant@@ 359
Für@@ 359
Industries 359
Mannheim 359
NSDAP 359
Émile 359
Brut@@ 358
Hern@@ 358
Id@@ 358
Mk 358
Stap@@ 358
VP 358
Vivi@@ 358
ahu@@ 358
aliers 358
asidi 358
ills 358
ôme 358
255 357
Act 357
Avenue 357
Library 357
Minn@@ 357
Town@@ 357
UN 357
Wild@@ 357
deter@@ 357
dian 357
enzo 357
iden@@ 357
include 357
orbit@@ 357
ump 357
Ú@@ 357
ém@@ 357
1.7 356
28. 356
Bailey 356
Claudio 356
Emilio 356
Flu@@ 356
Klo@@ 356
Newport 356
Speed 356
Style 356
UK@@ 356
even 356
isc@@ 356
media 356
osoma 356
ths 356
173 355
Race 355
ext@@ 355
nd 355
och 355
sidi@@ 355
undtrack 355
ḥ@@ 355
Breslau 354
Cho 354
Guillermo 354
Non 354
Six 354
Sog@@ 354
Train 354
UFC 354
Was 354
county 354
deal 354
enzie 354
irus 354
osus 354
yne 354
ż@@ 354
Direk@@ 353
Eil@@ 353
angel@@ 353
bass@@ 353
cide 353
dominant 353
eger 353
jas 353
ombi 353
85@@ 352
Anime 352
Another 352
BB@@ 352
By 352
Lie@@ 352
Mt@@ 352
Puerto 352
abi@@ 352
deli@@ 352
inam@@ 352
iso 352
kers 352
lave 352
lex 352
ventures 352
─ 352
2,4 351
@ 351
BAS@@ 351
Eck@@ 351
SV@@ 351
Sind@@ 351
chem@@ 351
cri@@ 351
ident 351
logo 351
max 351
mons 351
sud@@ 351
uy 351
ères 351
ý@@ 351
λ 351
т 351
38,@@ 350
Kontr@@ 350
Marne 350
Non@@ 350
SW@@ 350
Spin@@ 350
Syr@@ 350
acea 350
arium 350
atia 350
olf 350
stock 350
stri@@ 350
1492 349
88@@ 349
Braunschweig 349
Khali@@ 349
March 349
Mill 349
Phar@@ 349
Samb@@ 349
Shab@@ 349
Wad@@ 349
anze 349
safi 349
solar 349
upa 349
Biel@@ 348
Giov@@ 348
Mov@@ 348
WHO 348
first 348
iza 348
kuk 348
tion@@ 348
tres 348
ulum 348
560 347
8000 347
Chat@@ 347
Cho@@ 347
Education 347
Hauts 347
Kabin@@ 347
Merr@@ 347
Nations 347
Pas 347
Tow@@ 347
Viv@@ 347
bem@@ 347
ects 347
hof 347
igi@@ 347
scher 347
xo@@ 347
ε 347
246 346
610 346
Den 346
Ges@@ 346
Gilles 346
Graf 346
Theory 346
UB 346
elev@@ 346
istir 346
testi@@ 346
unde 346
187 345
Con 345
Dry@@ 345
Hits 345
Muhammad 345
Má@@ 345
Oakland 345
Vita 345
Zone 345
ambu 345
asser 345
aten@@ 345
cot 345
eshi 345
ows 345
sıc@@ 345
tour@@ 345
254 344
EE 344
Link 344
Scho@@ 344
Short 344
adol@@ 344
bird 344
cos 344
dic 344
hart 344
ight@@ 344
inia 344
irat@@ 344
urb@@ 344
ș 344
о 344
275 343
AW@@ 343
Blanc 343
Firma 343
Kash@@ 343
Mal 343
Mendoza 343
Once 343
Phan@@ 343
Studies 343
aming 343
music 343
oton 343
pedia 343
stag 343
wo 343
ý 343
2,000 342
Crawford 342
Dunk@@ 342
General@@ 342
Horse 342
Lamp@@ 342
Olimp@@ 342
Plant@@ 342
dru@@ 342
gian 342
opol@@ 342
rose 342
wiki 342
ː 342
224 341
301 341
Champ@@ 341
Eagle 341
Handel 341
Henri@@ 341
Klu@@ 341
Kulüb@@ 341
LE 341
Mode 341
Schwarz@@ 341
Wag@@ 341
Wies@@ 341
adas 341
ulio 341
ég@@ 341
ի@@ 341
ه@@ 341
179 340
2,3 340
3.1 340
Benedi@@ 340
Brook@@ 340
Freedom 340
Paz 340
Uk@@ 340
chem 340
iday 340
rog@@ 340
unk 340
ılığıyla 340
‚ 340
1515 339
440 339
Abl@@ 339
Bros. 339
Comic 339
Institut 339
Pion@@ 339
Revol@@ 339
eas@@ 339
igny 339
pad@@ 339
phon@@ 339
spo@@ 339
å 339
1,000 338
1517 338
20th 338
21@@ 338
Arth@@ 338
CAR 338
Centro 338
Esc@@ 338
Industry 338
Mix@@ 338
Musik@@ 338
Peters 338
dings 338
edy 338
iff 338
kow@@ 338
ml 338
oza 338
rum@@ 338
uer 338
ւ@@ 338
195@@ 337
Asturias 337
Jess@@ 337
Middle 337
Peace 337
Trom@@ 337
atch@@ 337
eil 337
icle 337
laine 337
mai 337
pole 337
spin@@ 337
start 337
yph@@ 337
Ángel 337
éri@@ 337
0,4 336
Brunswick 336
Carol@@ 336
Equ@@ 336
Flem@@ 336
Heid@@ 336
Ili@@ 336
Lo 336
Princip@@ 336
atz 336
fera 336
food 336
ming 336
Eugen 335
Fra@@ 335
Jou@@ 335
Kün@@ 335
Ush@@ 335
essel 335
n. 335
Île 335
ּ@@ 335
Basket@@ 334
Fus@@ 334
Hansen 334
Number 334
Perth 334
atio 334
atura 334
meth@@ 334
p. 334
pasaj@@ 334
Centr@@ 333
Gou@@ 333
Jes@@ 333
Kho@@ 333
Late 333
Still 333
arian 333
assi 333
jed@@ 333
non@@ 333
ogne 333
onz@@ 333
vie@@ 333
were 333
1781 332
4.2 332
German 332
Guide 332
Mega 332
Vargas 332
bourg 332
jam@@ 332
ned 332
room 332
state 332
tang 332
thia 332
ы 332
1571 331
3.2 331
Anh@@ 331
Bernardo 331
Cau@@ 331
Hans@@ 331
Hello 331
Historia 331
Other 331
lywood 331
mayo 331
pher@@ 331
pok@@ 331
Bangkok 330
CH 330
CN 330
LM 330
Léon 330
OR 330
Petit 330
Ridge 330
abel 330
rano 330
tree 330
ull 330
ј@@ 330
1.9 329
252 329
3500 329
390 329
Pick@@ 329
Potsdam 329
Timor 329
a- 329
agara 329
arte 329
endo 329
entino 329
nine 329
GI 328
ID@@ 328
Kraft 328
Olympic 328
Ow@@ 328
PN@@ 328
Quin@@ 328
anas@@ 328
gets 328
glo@@ 328
hall 328
phil@@ 328
rix 328
308 327
Back@@ 327
Hoffmann 327
Pter@@ 327
Youth 327
bid 327
enfeld 327
list 327
orer 327
sound 327
yıld@@ 327
К@@ 327
п@@ 327
Canterbury 326
Commonwealth 326
Guz@@ 326
Hassan 326
Kauf@@ 326
Ottawa 326
bee 326
bera 326
divis@@ 326
ikali 326
iri@@ 326
raph 326
stell@@ 326
נ@@ 326
194 325
June 325
Stic@@ 325
beat 325
break 325
iku 325
ival@@ 325
jpg 325
oter 325
rob@@ 325
temporal 325
vot@@ 325
262 324
Before 324
Hydro@@ 324
Phy@@ 324
Ramos 324
hoy 324
lecht 324
prote@@ 324
sex 324
umi@@ 324
29. 323
Adv@@ 323
Bourbon 323
Manila 323
Railway 323
Scienti@@ 323
Universidad 323
XXI 323
Zw@@ 323
auto@@ 323
kuna 323
ocy@@ 323
reality 323
syn@@ 323
vent@@ 323
vid 323
с@@ 323
1,7 322
1782 322
226 322
245 322
45.@@ 322
Cincinnati 322
Dutch 322
Engel@@ 322
Fis@@ 322
Gottfried 322
Mary@@ 322
Mö@@ 322
Orch@@ 322
Pow@@ 322
Stand 322
Stock@@ 322
Via 322
cs 322
sang@@ 322
uck@@ 322
1640 321
Berg 321
Hispan@@ 321
Neur@@ 321
Publ@@ 321
Publishing 321
Rennes 321
Sr. 321
ativ@@ 321
back@@ 321
eds 321
karat@@ 321
sait 321
470 320
Aachen 320
Ais@@ 320
Philosoph@@ 320
Vos@@ 320
Wilhel@@ 320
eaux 320
far 320
namo 320
pec@@ 320
plic@@ 320
л 320
Armen@@ 319
Aux@@ 319
Oil 319
Rhin@@ 319
aim@@ 319
cant@@ 319
essen 319
lima 319
long@@ 319
lut@@ 319
oten 319
realiz@@ 319
seh@@ 319
super@@ 319
verd@@ 319
241 318
Académie 318
Advanced 318
Essen 318
Gly@@ 318
Kran@@ 318
Matthe@@ 318
Viy@@ 318
aina 318
burger 318
cep@@ 318
fauna 318
hio 318
izen 318
ornis 318
wn@@ 318
191 317
375 317
39,@@ 317
Ask@@ 317
Flight 317
STS 317
Semin@@ 317
Spring@@ 317
sede 317
sell 317
ved 317
2,2 316
FDA 316
Most 316
Probl@@ 316
chez 316
cole 316
koh@@ 316
mere 316
sac 316
tien 316
ues 316
214 315
228 315
251 315
95@@ 315
98@@ 315
Cis@@ 315
Dom 315
Front@@ 315
Konstantin@@ 315
Okinawa 315
ellen 315
flav@@ 315
ilidae 315
34,@@ 314
Durant 314
Hammer@@ 314
Panzer@@ 314
Pati@@ 314
U.@@ 314
aid@@ 314
pun@@ 314
uelta 314
zano 314
Edin@@ 313
Ernesto 313
NCAA 313
Psy@@ 313
acio 313
bou@@ 313
debut 313
incar@@ 313
patri@@ 313
pm 313
ylus 313
éry 313
1779 312
231 312
253 312
49.@@ 312
Braz@@ 312
Kuf@@ 312
Mama 312
Sé@@ 312
Telec@@ 312
aint 312
atz@@ 312
ה 312
Block 311
Friday 311
Honor 311
IA@@ 311
Kaiser 311
Rosario 311
Unter@@ 311
have 311
tain@@ 311
verte@@ 311
в 311
ان 311
213 310
227 310
234 310
Ban 310
Ca 310
Cler@@ 310
Cz@@ 310
Finlan@@ 310
Wiki@@ 310
athan 310
chor@@ 310
inst@@ 310
ubu 310
width 310
Æ@@ 310
érie 310
ʼ@@ 310
‌ 310
Buff@@ 309
Deutschland 309
PE 309
Palma 309
Pope 309
Richter 309
Se 309
Tenn@@ 309
acteri@@ 309
etas 309
hul@@ 309
ischer 309
ppen@@ 309
space 309
tress 309
vidence 309
½ 309
् 309
181 308
300@@ 308
Cres@@ 308
Stam@@ 308
Valle 308
Way@@ 308
cord 308
kirchen 308
owa 308
river 308
sarm@@ 308
step 308
toral 308
1777 307
237 307
Andrés 307
Citroën 307
Paran@@ 307
Psych@@ 307
USD 307
Wald@@ 307
aking 307
ational 307
bibli@@ 307
ejo 307
immer 307
inflam@@ 307
sû@@ 307
tori@@ 307
У@@ 307
221 306
249 306
Gustavo 306
SSR 306
Sask@@ 306
bt 306
eber@@ 306
enas 306
hao 306
igen@@ 306
series 306
ָ@@ 306
ز@@ 306
س@@ 306
Arsen@@ 305
Chen@@ 305
Kenn@@ 305
Nam 305
Nouvelle 305
Rhein@@ 305
Teatro 305
arrondissement 305
blin 305
dada 305
nea 305
sula 305
thy@@ 305
1250 304
286 304
Brand 304
C1 304
Marine 304
Vision 304
Volks@@ 304
action 304
bauer 304
domin@@ 304
found@@ 304
hand@@ 304
pav@@ 304
rent 304
242 303
Cabr@@ 303
Hung@@ 303
ezo 303
itzer 303
kama 303
mers 303
nad 303
vida 303
1605 302
400@@ 302
Andro@@ 302
Cinema 302
Class@@ 302
Financial 302
Karaden@@ 302
Lili@@ 302
Oblast 302
PP 302
They 302
Thé@@ 302
big 302
chr@@ 302
ew 302
fail@@ 302
server 302
zt 302
ская 302
ְ@@ 302
FS 301
Head@@ 301
Hi 301
Rai@@ 301
Ring@@ 301
auff@@ 301
lina 301
lot@@ 301
mina 301
moment 301
ód@@ 301
з@@ 301
ү@@ 301
1773 300
2.8 300
Duch@@ 300
Source 300
borne 300
1556 299
223 299
46.@@ 299
Cub@@ 299
Lyc@@ 299
Nep@@ 299
acter@@ 299
aries 299
cas 299
cro@@ 299
elds 299
ency 299
got 299
icht 299
lic@@ 299
mila 299
rav@@ 299
1689 298
1735 298
Akad@@ 298
Aktiv@@ 298
CDU 298
Ramón 298
agar 298
aser 298
boa 298
cau@@ 298
grave 298
press 298
rug@@ 298
span 298
sport 298
ties 298
uko 298
vival 298
333 297
Caes@@ 297
Coh@@ 297
Comedy 297
Cristina 297
Dez@@ 297
Euc@@ 297
Fast 297
Gérard 297
Round 297
Tunes 297
cine 297
esper@@ 297
ises 297
ls@@ 297
mens@@ 297
oslav@@ 297
tium 297
ware 297
† 297
Chad 296
Henn@@ 296
Int@@ 296
Sebasti@@ 296
Tree 296
acha 296
furt 296
icide 296
k.@@ 296
mental 296
ppen 296
stur@@ 296
1683 295
1707 295
247 295
490 295
Fighter 295
Fraser 295
Front 295
Frédéric 295
ON 295
Rund@@ 295
Sebastián 295
Unit 295
estone 295
hn@@ 295
part 295
run@@ 295
sali@@ 295
trong 295
witz 295
д@@ 295
1590 294
1620 294
1758 294
1769 294
306 294
451 294
Bio@@ 294
Bonif@@ 294
Eliz@@ 294
Joaqu@@ 294
XVII 294
aps 294
ardt 294
grand 294
ior 294
Şanlıur@@ 294
198 293
2,6 293
2.6 293
Brus@@ 293
COM 293
Hous@@ 293
Language 293
Living@@ 293
Moses 293
Taf@@ 293
Trust 293
abo@@ 293
eus@@ 293
obo 293
ries 293
sohn 293
yayg@@ 293
265 292
302 292
48.@@ 292
Atatür@@ 292
Cog@@ 292
Deg@@ 292
Mission 292
Pont 292
Ritter 292
Security 292
Telev@@ 292
app 292
ded 292
olia 292
olor 292
orium 292
tros 292
watch 292
229 291
47.@@ 291
Class 291
Crist@@ 291
Ern@@ 291
GN@@ 291
Holy 291
Mahar@@ 291
Mili@@ 291
inger@@ 291
kill 291
pris@@ 291
toc@@ 291
udo 291
И@@ 291
1,3@@ 290
1760 290
244 290
295 290
501 290
Agnes 290
Orth@@ 290
Uch@@ 290
endor@@ 290
mili@@ 290
ì@@ 290
и@@ 290
Cher 289
Figh@@ 289
Halle 289
arum 289
chan@@ 289
cola 289
enbach 289
kanda 289
oise 289
ġ@@ 289
د@@ 289
36,@@ 288
8,5 288
Côte 288
Denk@@ 288
Elle 288
Kritik 288
Laguna 288
Prov@@ 288
Tax@@ 288
Toul@@ 288
arren 288
för@@ 288
iens 288
olle 288
б@@ 288
31. 287
323 287
334 287
Arro@@ 287
D.C. 287
Dietrich 287
Moscow 287
Reims 287
incap@@ 287
éph@@ 287
Acanth@@ 286
Heim@@ 286
Herald 286
Pref@@ 286
Record 286
bright 286
fic 286
mig@@ 286
nee 286
px 286
toria 286
წ@@ 286
285 285
Continental 285
Edmon@@ 285
Gymnasium 285
Kali@@ 285
Kiz@@ 285
Publi@@ 285
Schön@@ 285
hall@@ 285
itos 285
lais 285
nch@@ 285
ore@@ 285
primer 285
sou@@ 285
urban@@ 285
й@@ 285
ყ@@ 285
1720 284
35,@@ 284
404 284
Africa 284
After@@ 284
Bass 284
Bh@@ 284
Ih@@ 284
Quir@@ 284
Real@@ 284
assen 284
hood 284
nen@@ 284
trich@@ 284
γ 284
100,000 283
Brach@@ 283
Chrom@@ 283
Ex 283
Flores 283
Vend@@ 283
anted 283
archiv@@ 283
bahn 283
ices 283
olet 283
pre 283
run 283
teau 283
will 283
1765 282
192@@ 282
315 282
4- 282
999 282
Ans@@ 282
Auckland 282
Citi@@ 282
Finn@@ 282
Jah@@ 282
Los@@ 282
Mohammed 282
Mou@@ 282
PO 282
UC 282
UE 282
akawa 282
asure 282
child 282
emba 282
hani 282
iwa 282
ja@@ 282
noc@@ 282
phi@@ 282
1555 281
1618 281
258 281
620 281
Albrecht 281
Guerrero 281
folia 281
nj@@ 281
odo 281
pole@@ 281
senti@@ 281
then 281
1649 280
Helmut 280
Kiv@@ 280
Natural 280
Venus 280
aines 280
chard 280
cross 280
fun@@ 280
ifu 280
1450 279
219 279
Darmstadt 279
Eastern 279
Glas@@ 279
Julien 279
Már@@ 279
Nel@@ 279
Oxy@@ 279
Schu@@ 279
Tyr@@ 279
Würzburg 279
ación 279
anz 279
lun@@ 279
stabil@@ 279
ρ 279
1580 278
3,000 278
3.3 278
Augusto 278
Canal 278
Est 278
Hispania 278
JR 278
Nationale 278
Süd@@ 278
ables 278
actus 278
fest 278
olas 278
rew 278
unders 278
union 278
1755 277
1757 277
32,@@ 277
660 277
Fine 277
Gott@@ 277
Jug@@ 277
Karlsruhe 277
Lower 277
RN@@ 277
Shr@@ 277
craft 277
gle 277
hion 277
hun@@ 277
ilio 277
orama 277
pour 277
urai 277
ー@@ 277
Baptist 276
EST 276
Igu@@ 276
Inf@@ 276
Services 276
UM 276
ancing 276
elf 276
lateral 276
pili 276
ums 276
ém 276
Е@@ 276
ზ@@ 276
0.2 275
1540 275
303 275
Alphon@@ 275
Cha 275
Health 275
Hong@@ 275
Jord@@ 275
akt 275
awi 275
dow@@ 275
engers 275
fic@@ 275
vera 275
ǎ@@ 275
М@@ 275
1688 274
BI 274
Northern 274
Raúl 274
bias 274
quar@@ 274
tell 274
teo 274
wehr 274
386 273
79@@ 273
Chry@@ 273
Domingo 273
Manager 273
Schi@@ 273
ht 273
intr@@ 273
mud@@ 273
pom@@ 273
rique 273
transform@@ 273
undo 273
σ 273
1610 272
1625 272
510 272
Austral@@ 272
Factory 272
Greater 272
Guadal@@ 272
RN 272
Sta@@ 272
Third 272
Wing 272
aff 272
arias 272
class 272
czy@@ 272
imba 272
iment@@ 272
real@@ 272
rou@@ 272
teras 272
type 272
ى@@ 272
Eber@@ 271
Hata 271
Herr@@ 271
UP 271
Upper 271
amil@@ 271
coc@@ 271
dé@@ 271
enem@@ 271
fs 271
moder@@ 271
ording 271
ppe 271
Δ@@ 271
ARC 270
Alle@@ 270
Guadalajara 270
Silv@@ 270
Tours 270
Wide 270
abar@@ 270
adies 270
fass@@ 270
nie 270
phyl@@ 270
teur 270
use@@ 270
къ@@ 270
1643 269
Berliner 269
Catal@@ 269
Geometr@@ 269
Sociedad 269
aid 269
gau@@ 269
zant@@ 269
1,4@@ 268
1715 268
1762 268
261 268
337 268
Hist@@ 268
Jena 268
PF 268
Scottish 268
Zwe@@ 268
aces 268
ainst 268
ffen 268
geh@@ 268
ilian 268
love 268
syl@@ 268
word 268
µ@@ 268
èle 268
ē 268
ι 268
1,6@@ 267
1699 267
1736 267
86@@ 267
9000 267
A4 267
Christ 267
Ruiz 267
Tamil 267
Trier 267
ahn@@ 267
alier 267
atal 267
dog 267
konn@@ 267
load 267
milli@@ 267
pia 267
schen 267
tens 267
trag@@ 267
ude 267
undi 267
vali@@ 267
1764 266
1771 266
197@@ 266
Cra@@ 266
Inst@@ 266
Loh@@ 266
Professional 266
ere@@ 266
franchise 266
gado 266
mán 266
nor 266
ospel 266
tering 266
uter 266
Cali@@ 265
Champion 265
Engineering 265
Horn 265
Rodol@@ 265
Salv@@ 265
Samm@@ 265
Small 265
chet 265
ching 265
code 265
e- 265
jini 265
manifest@@ 265
nane 265
nice 265
ological 265
porta 265
stic@@ 265
todo@@ 265
евич 265
с 265
284 264
Eich@@ 264
Labr@@ 264
Mosk@@ 264
Orient 264
Renn@@ 264
Satell@@ 264
dige 264
elimin@@ 264
good 264
nus@@ 264
thel@@ 264
zeh@@ 264
ც@@ 264
1659 263
1718 263
570 263
Music@@ 263
Que@@ 263
Rach@@ 263
Tau@@ 263
Warri@@ 263
arry 263
в@@ 263
ский 263
ד@@ 263
307 262
345 262
Lept@@ 262
Milit@@ 262
Moy@@ 262
Nú@@ 262
Work@@ 262
amework 262
arena 262
brit@@ 262
cic@@ 262
html 262
idaceae 262
taire 262
utes 262
2030 261
500@@ 261
Lt@@ 261
Princess 261
V8 261
Ville 261
civ@@ 261
dif@@ 261
lor 261
trad@@ 261
wi 261
öder@@ 261
1756 260
236 260
268 260
Fest 260
Mara 260
Ni 260
Some 260
allo@@ 260
brand@@ 260
irat 260
lande 260
lich@@ 260
nay 260
opo 260
polo 260
tof@@ 260
вич 260
ћ 260
ق@@ 260
ძ@@ 260
ჭ@@ 260
1645 259
263 259
266 259
Cari@@ 259
Ella 259
Hamb@@ 259
Hand 259
Leopol@@ 259
Stern@@ 259
haya 259
iana 259
jar 259
kiz@@ 259
ordin@@ 259
osper@@ 259
ázquez 259
α@@ 259
1732 258
3,2 258
Calais 258
Cycl@@ 258
Kama 258
Match 258
Mayo 258
Vasco 258
acre 258
agno@@ 258
album 258
cis 258
ged 258
ibil@@ 258
ismo 258
lose 258
oja 258
paro@@ 258
thal@@ 258
tric@@ 258
uzo 258
2,8 257
243 257
3,3 257
309 257
Communications 257
Dres@@ 257
Moun@@ 257
Schl@@ 257
alian 257
anch@@ 257
emos 257
inet 257
jug@@ 257
ld 257
romana 257
uch 257
upon 257
1598 256
193@@ 256
274 256
281 256
37,@@ 256
Calli@@ 256
Ciudad 256
EF@@ 256
Glen@@ 256
Isle 256
Teams 256
chel@@ 256
derni@@ 256
free 256
iff@@ 256
illet 256
kh 256
lein 256
oting 256
ples 256
rahisi 256
tadores 256
two 256
yond 256
ж@@ 256
282 255
Illus@@ 255
Marguerite 255
Tennis 255
azim@@ 255
dera 255
esha 255
icola 255
itia 255
kön@@ 255
normale 255
ogen 255
orient@@ 255
podr@@ 255
spon@@ 255
tional 255
Ə@@ 255
1606 254
1665 254
20,000 254
Lich@@ 254
Sainte 254
apor@@ 254
arn 254
event@@ 254
tea 254
team 254
φ 254
1560 253
1630 253
Bonaparte 253
Grenoble 253
Société 253
Sá@@ 253
nah@@ 253
wick@@ 253
2,7 252
269 252
Bartolom@@ 252
Christophe 252
H2@@ 252
Kie@@ 252
Nicolás 252
Wen@@ 252
aho 252
ainer 252
alip@@ 252
bord@@ 252
corpor@@ 252
dag@@ 252
dow 252
euve 252
meister 252
ports 252
rot 252
shu@@ 252
ías 252
ò@@ 252
ფ@@ 252
1711 251
2.7 251
Argent@@ 251
Innsbruck 251
Internationale 251
March@@ 251
Thir@@ 251
alter@@ 251
ancia 251
foot 251
friend 251
naval 251
oil 251
onnais 251
orth@@ 251
ө@@ 251
1690 250
1723 250
1739 250
Activ@@ 250
Ave@@ 250
Bauer 250
Ged@@ 250
Llan@@ 250
Moskva 250
Oak@@ 250
Sprint 250
Stadion 250
Valladolid 250
andes 250
devi@@ 250
gender 250
isters 250
lesias 250
lug 250
oles 250
ον 250
1644 249
1676 249
304 249
322 249
Claus@@ 249
Information 249
Johannesburg 249
akif@@ 249
big@@ 249
ît 249
м 249
1654 248
276 248
425 248
Australia 248
Authority 248
Dies@@ 248
Elis@@ 248
Eyl@@ 248
Minh 248
Trag@@ 248
kia 248
osph@@ 248
plus 248
ע@@ 248
1670 247
1703 247
Archi@@ 247
Brisbane 247
Flying 247
Linz 247
Stro@@ 247
metali 247
sheim 247
ug 247
я 247
1747 246
335 246
Arab 246
Des 246
Euph@@ 246
HL 246
Ital@@ 246
Together 246
Ung@@ 246
Versailles 246
aum@@ 246
count 246
epis@@ 246
ever@@ 246
takri@@ 246
teen 246
tone 246
uster 246
uu 246
ysi@@ 246
311 245
Antigu@@ 245
Inn 245
Pass 245
adier 245
agua 245
akh 245
brun@@ 245
dedic@@ 245
dn 245
enty 245
ika@@ 245
ists 245
mad 245
stre@@ 245
umo 245
312 244
Ab 244
Austria 244
CB 244
DL@@ 244
Index 244
Leic@@ 244
Pa 244
Tübingen 244
agin@@ 244
antas@@ 244
aura 244
bau@@ 244
eing 244
igr@@ 244
umen 244
wara 244
® 244
ñ 244
ź 244
ɛ@@ 244
2,1 243
324 243
Arte 243
Commun@@ 243
Grap@@ 243
Jal@@ 243
Kern 243
Kra@@ 243
Mb@@ 243
Private 243
Problem 243
amen@@ 243
añ@@ 243
fall 243
istry 243
math 243
now 243
pero 243
porter 243
siri 243
tionary 243
trac@@ 243
uchs 243
ût 243
ش@@ 243
272 242
Aircraft 242
Blum@@ 242
Keller 242
Partido 242
ał@@ 242
estan 242
fau@@ 242
hud@@ 242
place 242
uji 242
ка 242
ма@@ 242
248 241
8.5 241
Change 241
Chim@@ 241
Gómez 241
Horst 241
Jup@@ 241
Lagos 241
Luf@@ 241
Murcia 241
Rä@@ 241
WC 241
anco 241
anian 241
ften 241
gana 241
hic 241
inning 241
itation 241
lingen 241
ophy@@ 241
pter@@ 241
ugu 241
γ@@ 241
Х@@ 241
Albü@@ 240
Around 240
Café 240
angu@@ 240
aper 240
bec 240
isher 240
ك@@ 240
10000 239
288 239
9,5 239
Arturo 239
Chik@@ 239
Circuit 239
Clermont 239
Count 239
Mecklenburg 239
Moritz 239
Sang 239
Una 239
Zuc@@ 239
ablo 239
alism 239
burgh 239
girl 239
itr@@ 239
orph@@ 239
piste 239
Д@@ 239
150@@ 238
355 238
Blanche 238
Stadi@@ 238
VV@@ 238
destin@@ 238
kee 238
kina 238
oty@@ 238
usion 238
wave 238
1350 237
1656 237
1687 237
257 237
283 237
Ame@@ 237
Aw@@ 237
Building 237
Chau@@ 237
Kind@@ 237
Puebla 237
Report 237
Rip@@ 237
Tier@@ 237
Wur@@ 237
agne 237
hab 237
iano 237
ities 237
mé 237
orado 237
ulo 237
ées 237
ъ 237
ъ@@ 237
я@@ 237
1727 236
259 236
Bartol@@ 236
CV 236
Camb@@ 236
Groß@@ 236
Wiener 236
Xu@@ 236
adapt@@ 236
efs 236
jeden 236
male 236
oning 236
thly 236
ution 236
1519 235
1565 235
1724 235
Apr@@ 235
Emil@@ 235
Epis@@ 235
Hernández 235
Irish 235
Kastam@@ 235
Manit@@ 235
Mont 235
PI@@ 235
Verd@@ 235
adul@@ 235
anana 235
equ@@ 235
feld@@ 235
fj@@ 235
nac@@ 235
oci@@ 235
orie 235
oul@@ 235
shop 235
sii 235
version 235
which 235
Þ@@ 235
ól@@ 235
з 235
1604 234
278 234
316 234
87@@ 234
Base 234
Cong@@ 234
Imp@@ 234
KG 234
Roche 234
Vé@@ 234
file 234
illas 234
mich@@ 234
once 234
staff 234
thro@@ 234
unes 234
Álvar@@ 234
Ż@@ 234
ִ@@ 234
194@@ 233
299 233
313 233
Challenger 233
Europ@@ 233
Grab@@ 233
Königsberg 233
Medicine 233
Mong@@ 233
Rober@@ 233
Somer@@ 233
These 233
coupe 233
enstein 233
ihi 233
pau@@ 233
stor@@ 233
tela 233
tima 233
zuk@@ 233
ß@@ 233
ш 233
ת 233
1,9 232
1525 232
1569 232
1572 232
1713 232
Compos@@ 232
Doug@@ 232
Ground 232
Start 232
chn@@ 232
eval 232
icial 232
iger@@ 232
led 232
ledge 232
ombe 232
י 232
خ@@ 232
1655 231
1661 231
314 231
Korea 231
Och@@ 231
Vida 231
Week 231
anche 231
brick 231
eras 231
hui 231
long 231
mans 231
mia 231
shot 231
was@@ 231
ween 231
ío 231
ŋ@@ 231
ַ@@ 231
ო 231
1623 230
Illustr@@ 230
Paragu@@ 230
UE@@ 230
Vice 230
amas 230
auth@@ 230
cla@@ 230
endra 230
minton 230
mph 230
they 230
té 230
ჯ@@ 230
1536 229
1709 229
1737 229
1766 229
298 229
Chung 229
Dipl@@ 229
Eus@@ 229
Organization 229
RE 229
Zy@@ 229
apon 229
latin 229
pal 229
sang 229
wig 229
work 229
1612 228
1622 228
1652 228
279 228
Farm@@ 228
Inde@@ 228
Jeff@@ 228
Nucle@@ 228
Rouen 228
Russia 228
Syst@@ 228
amanca 228
ao@@ 228
estro 228
hii 228
tual 228
0.4 227
1609 227
289 227
336 227
Bail@@ 227
Blanco 227
Frit@@ 227
Rico 227
alion 227
area 227
atika 227
encia 227
isis 227
iting 227
sor 227
ustr@@ 227
δ 227
η 227
1714 226
1759 226
Blas@@ 226
Bris@@ 226
Element@@ 226
Fund@@ 226
Hockey 226
Je 226
Lieb@@ 226
Romano 226
Thai 226
anon 226
bed 226
bic@@ 226
bos 226
bound 226
date 226
dha 226
itan 226
struc@@ 226
than@@ 226
thm 226
tide 226
uls 226
1,5@@ 225
1,7@@ 225
1743 225
Cé@@ 225
Rights 225
Rup@@ 225
Season 225
ading 225
afin 225
amide 225
cros@@ 225
footballer 225
force 225
illac 225
mando 225
nitz 225
Α@@ 225
В@@ 225
1585 224
1664 224
1733 224
332 224
84@@ 224
89@@ 224
Amph@@ 224
April 224
Aug@@ 224
Nouveau 224
Reyes 224
ancer 224
chu 224
heit 224
lera 224
pf@@ 224
street 224
ünd@@ 224
π@@ 224
1,9@@ 223
190@@ 223
317 223
321 223
Develop@@ 223
Rhein 223
cent 223
gard@@ 223
ging 223
gue 223
iness 223
manu@@ 223
nom 223
oire 223
rang@@ 223
sed 223
uve 223
villa 223
yale 223
yard 223
çon 223
ן 223
1583 222
271 222
338 222
Ensemble 222
Magdeburg 222
Mein@@ 222
Police 222
acon 222
doch 222
enco 222
implant@@ 222
leur 222
oking 222
omar 222
tet 222
tienne 222
times 222
tique 222
ő 222
ە@@ 222
1559 221
277 221
Committee 221
Cous@@ 221
Draft 221
Exper@@ 221
Madeleine 221
Pé@@ 221
Shanghai 221
Tch@@ 221
bles 221
cules 221
elementi 221
iria 221
motion 221
poem 221
tery 221
éd@@ 221
3,6 220
Aul@@ 220
Australian 220
Lour@@ 220
Skul@@ 220
Yuc@@ 220
abab@@ 220
amba@@ 220
antu 220
dres 220
isia 220
ternal 220
used 220
verl@@ 220
ός 220
・ 220
1611 219
1666 219
1722 219
273 219
293 219
3,4 219
Austr@@ 219
Aviation 219
Cerro 219
Glau@@ 219
Original 219
Sand 219
Stage 219
agü@@ 219
atori@@ 219
cot@@ 219
huz@@ 219
neum@@ 219
ovia 219
quin 219
soft 219
total 219
tras 219
yro@@ 219
ε@@ 219
г 219
≤ 219
1658 218
406 218
Docum@@ 218
Grou@@ 218
Magdalena 218
Morales 218
Operation 218
Orchestra 218
Poin@@ 218
Rand 218
eleg@@ 218
gab@@ 218
hill 218
olep@@ 218
tero 218
ο 218
Н@@ 218
Р@@ 218
″ 218
1596 217
1629 217
1710 217
319 217
Bus 217
Contemporary 217
Palais 217
Path@@ 217
Santander 217
Superior 217
also 217
gence 217
oder 217
ushing 217
áz@@ 217
éli@@ 217
محمد 217
‟ 217
1741 216
196@@ 216
250@@ 216
Ibrahim 216
Ignacio 216
Jesús 216
algo 216
hr 216
oue 216
stantin 216
1746 215
4,000 215
580 215
Cádiz 215
Negro 215
Neue 215
Plant 215
auc@@ 215
gic 215
libr@@ 215
tou@@ 215
vya 215
ð 215
տ@@ 215
ṭ@@ 215
1761 214
760 214
Herzog 214
Hristi@@ 214
Magaz@@ 214
Ries@@ 214
aer 214
game 214
garden 214
premi@@ 214
show@@ 214
süd@@ 214
timo 214
usse 214
viç@@ 214
ى 214
1632 213
1684 213
297 213
356 213
Anhalt 213
Tin 213
fus@@ 213
mann@@ 213
mw@@ 213
partner 213
tard 213
uth@@ 213
valid@@ 213
Б@@ 213
1672 212
1680 212
96@@ 212
99.@@ 212
Food 212
Thel@@ 212
ample 212
anlı@@ 212
anni@@ 212
bing 212
dó@@ 212
endre 212
evento 212
gest@@ 212
pith@@ 212
return 212
sein 212
Í@@ 212
гъ@@ 212
д 212
287 211
Native 211
Progres@@ 211
Uri@@ 211
appen 211
eping 211
lati@@ 211
logr@@ 211
okie 211
send 211
tado 211
و 211
1638 210
49,@@ 210
Abo@@ 210
Deutsch@@ 210
Smack@@ 210
aji@@ 210
americana 210
arle 210
folium 210
noir 210
obe 210
1628 209
Lao 209
Lions 209
Nj@@ 209
Rhin 209
Rue 209
Zanzibar 209
akati 209
dhar@@ 209
hold 209
polog@@ 209
v.@@ 209
än 209
Σ@@ 209
大@@ 209
1621 208
1725 208
1745 208
1754 208
318 208
Colomb@@ 208
Culture 208
Ireland 208
Musée 208
Pie@@ 208
Sche@@ 208
Through 208
Zürich 208
edes 208
honneur 208
leit@@ 208
mic 208
mic@@ 208
novel 208
ovice 208
ylan 208
چ@@ 208
1731 207
1752 207
97@@ 207
Critics 207
Joy@@ 207
Musical 207
Reyn@@ 207
bois 207
esco 207
estruc@@ 207
kei 207
liche 207
p.@@ 207
pendiente 207
quit@@ 207
schule 207
segment 207
upe 207
ège 207
Anc@@ 206
Apar@@ 206
Aquitaine 206
Ins@@ 206
apata 206
destroy@@ 206
ismus 206
issi@@ 206
major 206
ocar@@ 206
orr@@ 206
smo@@ 206
trip 206
ჩ@@ 206
1729 205
1751 205
1753 205
294 205
Agency 205
Gaul@@ 205
Guill@@ 205
Medina 205
Né@@ 205
Regionalliga 205
ador@@ 205
ation@@ 205
gina 205
map@@ 205
ŏ@@ 205
0.8 204
1607 204
787 204
Alsace 204
Civil 204
Hosp@@ 204
Legacy 204
Prad@@ 204
Rugby 204
axe 204
dance 204
dial@@ 204
estre 204
für@@ 204
gas 204
group 204
isen 204
lei 204
má@@ 204
ombie 204
over@@ 204
perf@@ 204
resp@@ 204
ried 204
spec@@ 204
trit@@ 204
δ@@ 204
ם 204
1651 203
1744 203
1748 203
Archit@@ 203
Gust@@ 203
Libr@@ 203
Mer 203
Polic@@ 203
Zür@@ 203
aner 203
arde 203
auss@@ 203
ignan 203
kok 203
match 203
rise 203
wid@@ 203
ñez 203
ʾ@@ 203
ب@@ 203
1717 202
Dach@@ 202
EU 202
Highway 202
Hoy 202
Seoul 202
Viktoria 202
Zimmer@@ 202
acon@@ 202
aille 202
alil@@ 202
ament 202
blu@@ 202
essing 202
lende 202
ois@@ 202
olos 202
sts 202
week 202
1701 201
2,0@@ 201
Concep@@ 201
Dam 201
Ech@@ 201
artist 201
brücken 201
city 201
edt 201
egu@@ 201
irs 201
new@@ 201
player 201
ymn@@ 201
ج@@ 201
ン@@ 201
1535 200
48,@@ 200
Bois 200
Dendro@@ 200
Dieter 200
Eagles 200
Emper@@ 200
Geçer@@ 200
Hay 200
Hex@@ 200
Spre@@ 200
UB@@ 200
ajo 200
als@@ 200
atro 200
phila 200
pital 200
ч@@ 200
1686 199
326 199
94@@ 199
Afric@@ 199
Aix 199
But 199
Democ@@ 199
Im 199
Russian 199
Uj@@ 199
Wah@@ 199
aler 199
church 199
isra@@ 199
ivi@@ 199
kind 199
klin 199
system 199
ô 199
の@@ 199
1667 198
Academ@@ 198
Châ@@ 198
Fest@@ 198
IU@@ 198
Kütah@@ 198
Loy@@ 198
Mail@@ 198
Mehr@@ 198
Nach@@ 198
Univers@@ 198
Zeitung 198
ampi@@ 198
asing 198
crip@@ 198
emia 198
gren@@ 198
ldwide 198
main 198
thouse 198
vier@@ 198
τ 198
1767 197
292 197
343 197
46,@@ 197
Castillo 197
Galatas@@ 197
Internacional 197
Jew@@ 197
Mai 197
ND 197
Sub 197
atur 197
dida 197
dura 197
influ@@ 197
lang 197
national 197
print 197
ulata 197
կ@@ 197
1669 196
1716 196
6,000 196
Haupt@@ 196
Libre 196
Mens@@ 196
Mund@@ 196
Nairobi 196
Oise 196
Rath@@ 196
Stil 196
Voc@@ 196
apas 196
bow@@ 196
dii 196
gau 196
ked 196
mort 196
otes 196
pel 196
psych@@ 196
rang 196
solid@@ 196
spe@@ 196
tner 196
utz@@ 196
your 196
θ@@ 196
პ@@ 196
1685 195
Congress 195
Glob@@ 195
Gramm@@ 195
Uf@@ 195
cet 195
cker 195
club 195
ebra 195
ird 195
kadi 195
legi@@ 195
lets 195
stanz 195
uzi 195
ח@@ 195
50,@@ 194
Anci@@ 194
Ide@@ 194
Maw@@ 194
Museo 194
Pseudo@@ 194
Quart@@ 194
Range 194
Route 194
case 194
cle@@ 194
enth@@ 194
iten@@ 194
multi 194
regres@@ 194
she@@ 194
technique 194
tenstein 194
their 194
umul@@ 194
uts 194
ž 194
σ@@ 194
د 194
1675 193
45,@@ 193
47,@@ 193
Philipp@@ 193
Resp@@ 193
Victor@@ 193
arri@@ 193
gues 193
mix 193
slow 193
thers 193
uela 193
är 193
ɑ@@ 193
ɪ@@ 193
כ@@ 193
1721 192
1738 192
291 192
8,000 192
Ahmad 192
Ai 192
Chu 192
Foreign 192
Galerie 192
Gulf 192
Gutiérrez 192
Maritime 192
acruz 192
aik@@ 192
limited 192
nuit 192
ologie 192
rech@@ 192
utions 192
İngil@@ 192
000,000 191
1568 191
2,5@@ 191
Edel@@ 191
NHL 191
Saints 191
Schn@@ 191
anat@@ 191
bra@@ 191
bé 191
cav@@ 191
diver@@ 191
dres@@ 191
dub@@ 191
garten 191
iche 191
late 191
ombo 191
platz 191
sai 191
tang@@ 191
ums@@ 191
wann 191
zone 191
érieure 191
354 190
381 190
Cinc@@ 190
Schwe@@ 190
U. 190
aux@@ 190
emiti@@ 190
hiwa 190
ihe 190
iver 190
jum@@ 190
sekon@@ 190
year 190
ӏ@@ 190
1749 189
30,000 189
50,000 189
Commons 189
Fif@@ 189
Industrial 189
Kind 189
Mechan@@ 189
Qatar 189
atin@@ 189
care 189
gem 189
guber@@ 189
lieb 189
lista 189
mata 189
ress@@ 189
scar 189
song 189
stadi@@ 189
urger 189
àn 189
ón@@ 189
1635 188
Amerikan@@ 188
HR 188
Hamburger 188
Olden@@ 188
Pfe@@ 188
S.A. 188
continental 188
eby 188
iliano 188
jos 188
only 188
osum 188
stir 188
ù@@ 188
ва 188
פ@@ 188
0.0 187
180@@ 187
Census 187
Kassel 187
Portugal 187
Toch@@ 187
Valenci@@ 187
Weg@@ 187
eff 187
igher 187
inak@@ 187
ought 187
rad 187
road 187
uen@@ 187
uit 187
wes@@ 187
white 187
ï 187
öst@@ 187
ún 187
ц@@ 187
Ambi@@ 186
Caracas 186
Instrum@@ 186
Lot 186
Parks 186
Sail@@ 186
Strateg@@ 186
Symphony 186
WT@@ 186
apel@@ 186
cog@@ 186
due 186
dé 186
maal@@ 186
nig 186
public 186
ungen 186
Ш@@ 186
Ա@@ 186
1615 185
1631 185
Carrera 185
Command 185
Ein 185
Human@@ 185
Intel@@ 185
Schwarz 185
arre 185
imos 185
magistr@@ 185
ments 185
onau@@ 185
pens@@ 185
popul@@ 185
reo 185
silaha 185
tii 185
usha 185
Ć@@ 185
ي@@ 185
2,4@@ 184
401 184
Asim@@ 184
Cao 184
Herrera 184
amour 184
ape@@ 184
apos@@ 184
asons 184
cha@@ 184
dens@@ 184
eil@@ 184
mua 184
sty@@ 184
ço@@ 184
ר 184
Contr@@ 183
Rome 183
Sich@@ 183
XT 183
aspir@@ 183
elas 183
erio 183
esser 183
jal@@ 183
kopf 183
network 183
telev@@ 183
ungs@@ 183
éo 183
1616 182
Grec@@ 182
Hydr@@ 182
Minute 182
Mér@@ 182
OT@@ 182
Oro 182
bele 182
hiv@@ 182
hte 182
irent 182
iven 182
kig@@ 182
pression 182
sion@@ 182
tric 182
vino 182
ە 182
ン 182
.-@@ 181
1653 181
44,@@ 181
Direction 181
Form 181
Jerusalem 181
Naci@@ 181
Princ@@ 181
Rostock 181
Transport 181
adio 181
amerika 181
inne 181
izo 181
jia 181
mach@@ 181
ophi@@ 181
sant@@ 181
ь 181
մ@@ 181
Administration 180
Analy@@ 180
Corona 180
Diff@@ 180
Mariano 180
Popular 180
Rouge 180
Track 180
Within 180
aling 180
ances 180
ancy 180
baki 180
itsch 180
rosa 180
thin 180
ufac@@ 180
ularis 180
Τ@@ 180
Г@@ 180
і 180
Ἀ@@ 180
Bros@@ 179
Gardens 179
Scher@@ 179
ahudi 179
asin 179
cou@@ 179
ements 179
env@@ 179
imas 179
jazz 179
jou@@ 179
kani 179
portal 179
pá@@ 179
sans 179
tation 179
tile 179
unction 179
uvi 179
venir 179
äger 179
П@@ 179
ра@@ 179
ս@@ 179
이@@ 179
0.7 178
1547 178
1633 178
1712 178
296 178
Bahn 178
Château 178
Cristó@@ 178
Kreuz@@ 178
Mg@@ 178
Performance 178
Príncipe 178
WM 178
col 178
cru@@ 178
eburg 178
estyle 178
istic 178
lol@@ 178
nur@@ 178
oba@@ 178
spot 178
Álvarez 178
Î@@ 178
ème 178
Ω 178
Alta 177
Armada 177
Cover 177
Kern@@ 177
Oriental 177
Schwer@@ 177
Upon 177
Verlag 177
aka@@ 177
cano 177
cup 177
cut@@ 177
debut@@ 177
dire 177
esos 177
nic 177
ott@@ 177
spre@@ 177
tei 177
vania 177
wana 177
ℓ 177
Alexandria 176
Investig@@ 176
Mex@@ 176
Montr@@ 176
Villen@@ 176
ability 176
domain 176
ebook 176
icos 176
lowers 176
mern 176
onso 176
ovina 176
teams 176
tus@@ 176
vesti@@ 176
voir 176
ла@@ 176
0,0@@ 175
110@@ 175
BO 175
Britain 175
Commission 175
Fiction 175
Honor@@ 175
Jul@@ 175
Prize 175
Uh@@ 175
Völ@@ 175
ief 175
iyo 175
ligh@@ 175
map 175
method 175
ummer 175
walk 175
ň 175
1637 174
1641 174
Buil@@ 174
Prinz 174
arus 174
aub@@ 174
fili@@ 174
impl@@ 174
masi 174
natural 174
ral@@ 174
tarak@@ 174
tell@@ 174
éro@@ 174
þ@@ 174
λ@@ 174
ي 174
0,8 173
1668 173
1702 173
Airport 173
Baja 173
Brasil 173
Chlor@@ 173
Co. 173
Independ@@ 173
Salz@@ 173
Uc@@ 173
afiri 173
break@@ 173
erte 173
heim@@ 173
liner 173
md@@ 173
phin 173
subj@@ 173
umbr@@ 173
│ 173
1592 172
1626 172
1697 172
1708 172
Charts 172
Dos 172
Fútbol 172
Version 172
Virgin@@ 172
empres@@ 172
ete@@ 172
etic 172
heart 172
hot 172
issen 172
mano 172
obs@@ 172
riff@@ 172
vent 172
vertebr@@ 172
viv@@ 172
üsse 172
Ӏ@@ 172
Kip@@ 171
Napoleon 171
Scotland 171
Sie@@ 171
abase 171
adora 171
anci@@ 171
egu 171
estar 171
fy 171
how 171
ited 171
mobile 171
mt@@ 171
ober@@ 171
obile 171
pend@@ 171
pren@@ 171
stant@@ 171
vies 171
weiler 171
üge 171
ś 171
Auth@@ 170
Catalina 170
Differ@@ 170
Garonne 170
Isla 170
Wach@@ 170
about 170
acán 170
addi@@ 170
akani 170
boys 170
esque 170
etown 170
gruppe 170
jud@@ 170
minor 170
ophora 170
orios 170
ský 170
vila 170
ق 170
ك 170
Dh@@ 169
Kriegs@@ 169
NY 169
Ottoman 169
Regional 169
arm 169
ease 169
enov@@ 169
eres 169
née 169
ondo@@ 169
pierre 169
pios 169
roe 169
scher@@ 169
sent 169
value 169
werk 169
wind 169
éré@@ 169
ל 169
1597 168
1627 168
1734 168
Contin@@ 168
Estudi@@ 168
Guerra 168
Tach@@ 168
anchi 168
bone 168
eting 168
guard 168
leben 168
o.@@ 168
pâ@@ 168
sible 168
suc@@ 168
uru@@ 168
zw@@ 168
ο@@ 168
ль@@ 168
Chef 167
Chile 167
Navarra 167
Nou@@ 167
Orléans 167
blanc 167
chain 167
dieu 167
ences 167
ended 167
ensa 167
inter 167
ios@@ 167
k. 167
loss@@ 167
ogie 167
peti@@ 167
publi@@ 167
stel@@ 167
қ@@ 167
1st 166
Carre@@ 166
Economic 166
Fes@@ 166
Greek 166
Ludwig@@ 166
Mn@@ 166
aña 166
bund 166
ersch@@ 166
father 166
full 166
pera 166
straße 166
thias 166
tois 166
usti@@ 166
viol@@ 166
vita 166
vé 166
β@@ 166
ṣ@@ 166
1601 165
1624 165
Bachelor 165
Islam 165
Islands 165
Monde 165
Moul@@ 165
Pou@@ 165
Urban@@ 165
eim@@ 165
inmedi@@ 165
most 165
mot 165
sub 165
suit 165
thé@@ 165
Π@@ 165
ная 165
ط@@ 165
Ḥ@@ 165
1634 164
1704 164
African 164
Eind@@ 164
Grün@@ 164
Mp@@ 164
Oeste 164
aded 164
anzo 164
bula 164
cible 164
fied 164
front 164
lida 164
lied 164
mani@@ 164
odos 164
press@@ 164
rien 164
sende 164
thu@@ 164
unter@@ 164
wine 164
ק@@ 164
1662 163
NH 163
Nuevo 163
Víctor 163
Wash@@ 163
anaf@@ 163
anja 163
banks 163
cript 163
grande 163
ography 163
speed 163
ת@@ 163
غ@@ 163
مرکزی 163
2,6@@ 162
Atel@@ 162
Bev@@ 162
Einsatz@@ 162
Frei@@ 162
Langu@@ 162
aque 162
argent 162
lic 162
oming 162
peace 162
ät@@ 162
ի 162
2,7@@ 161
Deu@@ 161
Integr@@ 161
Stud@@ 161
aill@@ 161
aso 161
comp@@ 161
copa 161
eit 161
eres@@ 161
esca 161
fie 161
gall@@ 161
immun@@ 161
obus 161
region 161
wagen 161
Ä@@ 161
ɔ@@ 161
∞ 161
2,8@@ 160
Beijing 160
Dyn@@ 160
Emperor 160
Gas 160
Geh@@ 160
Restaur@@ 160
Venice 160
aje 160
alu@@ 160
bacteri@@ 160
natur@@ 160
onel 160
oyer 160
pers@@ 160
pseud@@ 160
ucky 160
ли@@ 160
Bolívar 159
Deutscher 159
Kreis 159
Monum@@ 159
Peña 159
Sain@@ 159
Savoie 159
agreg@@ 159
ators 159
deste 159
dica 159
girls 159
haw@@ 159
ition 159
mono@@ 159
onder 159
period@@ 159
promot@@ 159
vag@@ 159
Λ@@ 159
Са@@ 159
1742 158
Au 158
Entre 158
Environ@@ 158
Hô@@ 158
Institu@@ 158
Jupiter 158
Level 158
Mohammad 158
Parish 158
RD 158
Sonder@@ 158
Thu@@ 158
Wei@@ 158
aign 158
bill@@ 158
cht@@ 158
down@@ 158
hora 158
icas 158
icon@@ 158
integ@@ 158
lars 158
pide 158
prepar@@ 158
rí@@ 158
vais 158
wam@@ 158
З@@ 158
1728 157
Cep@@ 157
Compan@@ 157
December 157
Friedrich@@ 157
Funk@@ 157
Muñ@@ 157
Naval 157
Trade 157
aíso 157
aî@@ 157
door 157
fair 157
ilar 157
iron 157
jina 157
lager 157
mee 157
onstr@@ 157
ply 157
pub@@ 157
voc@@ 157
130@@ 156
Hawai@@ 156
Landkreis 156
Ríos 156
Tal 156
Zug@@ 156
dies 156
gom@@ 156
hattan 156
hig 156
ischen 156
kies 156
mode 156
oine 156
omyia 156
squ@@ 156
umbo 156
wit@@ 156
ба@@ 156
186@@ 155
7,000 155
Architecture 155
Chili 155
Feuer@@ 155
Ga 155
Giants 155
Municipal 155
Posi@@ 155
cian 155
gang 155
iges 155
nach 155
porte 155
position 155
spl@@ 155
thon 155
uerta 155
uki@@ 155
xen 155
ρ@@ 155
م 155
Defence 154
Ereb@@ 154
Herzog@@ 154
Lübeck 154
Mash@@ 154
Nueva 154
Professor 154
Rang@@ 154
Reserve 154
acos 154
azz 154
cour@@ 154
fication 154
gé 154
ician 154
inform@@ 154
jun@@ 154
law@@ 154
lead 154
stig@@ 154
xima 154
ép@@ 154
Ч@@ 154
Bier@@ 153
Cassini 153
Champagne 153
Cortes 153
Fédération 153
Hali 153
Inh@@ 153
Kinder@@ 153
Nass@@ 153
Nati@@ 153
Pia 153
Wich@@ 153
acid 153
alogue 153
auf@@ 153
baden 153
bios 153
coun@@ 153
erne 153
fung@@ 153
issus 153
open 153
proc@@ 153
pt 153
quad@@ 153
sle@@ 153
stable 153
ungu 153
vend@@ 153
veç 153
âte@@ 153
Ма@@ 153
Comun@@ 152
Jér@@ 152
Latina 152
Strom@@ 152
Welt 152
Zealand 152
ambi 152
bow 152
egos 152
esty 152
head@@ 152
ikh 152
lock@@ 152
mass@@ 152
mate 152
osia 152
small 152
uros 152
versary 152
vocals 152
да@@ 152
ри@@ 152
ֹ@@ 152
ג@@ 152
ღ@@ 152
15,000 151
3,0@@ 151
Agustín 151
Expl@@ 151
Farm 151
ICC 151
Intelligence 151
Kaliforni@@ 151
Magdal@@ 151
Sud 151
Urs@@ 151
bour 151
cule 151
formal 151
known 151
loan 151
mé@@ 151
philus 151
stag@@ 151
tire 151
track 151
turn 151
Ι@@ 151
1577 150
1619 150
Burgos 150
Defense 150
Inv@@ 150
Mt 150
Müslü@@ 150
Nieder@@ 150
Salamanca 150
Schne@@ 150
aska 150
ected 150
gold 150
ký 150
mission 150
ogy 150
people 150
ustur@@ 150
yali@@ 150
äm@@ 150
ét@@ 150
ņ@@ 150
нович 150
ت@@ 150
1726 149
189@@ 149
Cultural 149
Guard 149
Luxemb@@ 149
Munich 149
Peak 149
Philos@@ 149
Théâtre 149
Tomás 149
atana 149
bog@@ 149
française 149
fron@@ 149
gee 149
icked 149
subs@@ 149
systems 149
tural 149
weg 149
æ 149
Aper@@ 148
Defin@@ 148
Era 148
Kish@@ 148
Varg@@ 148
abeth 148
amor 148
cryp@@ 148
distr@@ 148
neur 148
pass@@ 148
patron 148
phot@@ 148
rei 148
stars 148
tats@@ 148
tial 148
transl@@ 148
yanay@@ 148
äs@@ 148
írit@@ 148
Ка@@ 148
щ@@ 148
Championships 147
Chinese 147
Ferdin@@ 147
Gó@@ 147
Isid@@ 147
Jiménez 147
Sala 147
Stras@@ 147
been 147
inian 147
isie 147
itu@@ 147
mari 147
mt 147
orod@@ 147
oscop@@ 147
quan 147
situ 147
stein@@ 147
title 147
verde 147
who 147
zas 147
Ε@@ 147
ل@@ 147
500,000 146
Columb@@ 146
Primer 146
a. 146
did 146
eig@@ 146
gende 146
lap 146
lern 146
leuc@@ 146
lou@@ 146
phia 146
quel 146
ques@@ 146
scr@@ 146
tad 146
ufa 146
Öster@@ 146
ós@@ 146
Δ 146
χ@@ 146
Concepción 145
Corps 145
Deutsch 145
Histoire 145
Invest@@ 145
Khu@@ 145
Pradesh 145
Schle@@ 145
Stell@@ 145
Volk@@ 145
ared 145
bour@@ 145
bril@@ 145
frame 145
laur@@ 145
manos 145
mea 145
onto 145
phis 145
priv@@ 145
tamin@@ 145
unia 145
usta@@ 145
while 145
ν@@ 145
Ко@@ 145
Ми@@ 145
ко 145
на@@ 145
ס@@ 145
ع@@ 145
1719 144
Cap 144
Cuba 144
DDR 144
Fleet 144
Grund@@ 144
Gé@@ 144
Hai 144
Jagd@@ 144
König@@ 144
Nga 144
Turqu@@ 144
anderen 144
angle 144
box@@ 144
camp@@ 144
cina 144
ication 144
ions 144
isser 144
mau@@ 144
rough@@ 144
skie 144
sura 144
through 144
tida 144
uren 144
wart 144
íl@@ 144
ный 144
َ@@ 144
1705 143
Böh@@ 143
Chief 143
Flü@@ 143
Freih@@ 143
Personal 143
Secre@@ 143
anterior 143
base 143
ched 143
dig 143
enzen 143
essed 143
feh@@ 143
given 143
mania 143
nt 143
otic 143
phr@@ 143
semin@@ 143
tai 143
ʃ@@ 143
Σ 143
ح@@ 143
187@@ 142
Bish@@ 142
Boot 142
Braun@@ 142
Gér@@ 142
Iran 142
Jard@@ 142
Joaquín 142
Lands@@ 142
Premio 142
Wör@@ 142
artist@@ 142
bau 142
bom 142
entier 142
eño 142
fee 142
ihr 142
lau 142
steri@@ 142
tov@@ 142
φ@@ 142
ار@@ 142
ی 142
1678 141
Hoch@@ 141
Movement 141
Napoléon 141
National@@ 141
Navy 141
Pharm@@ 141
Segunda 141
acu@@ 141
aring 141
atac@@ 141
atas 141
ativa 141
bium 141
digital 141
function 141
histori@@ 141
ibar 141
indo 141
isches 141
lub 141
miento 141
ophyl@@ 141
pping 141
rios 141
scheid 141
septi@@ 141
tena 141
user 141
weg@@ 141
Κ@@ 141
Μ@@ 141
ди@@ 141
1636 140
2,9@@ 140
200,000 140
Bapti@@ 140
DAP 140
Gesellschaft 140
Harv@@ 140
Identi@@ 140
Lux@@ 140
Santi@@ 140
Stock 140
UA 140
Universität 140
eje 140
eppe 140
europ@@ 140
iment 140
isen@@ 140
lé@@ 140
nef 140
osha 140
wad@@ 140
Э@@ 140
Հ@@ 140
آباد 140
93.@@ 139
Bezir@@ 139
Bureau 139
Cô@@ 139
Filme 139
Forces 139
Jed@@ 139
Kaiser@@ 139
[...]
