. 4365883
на 4241106
, 4172187
и 2416440
в 1967866
е 1841122
от 1472687
се 1008278
( 964235
) 964196
за 903747
с 864648
@-@ 862337
да 678815
„ 677459
“ 671893
&quot; 646002
са 488145
по 469055
– 441593
г. 410464
г 400831
като 386605
през 383030
ни 373120
си 362339
но 297011
до 287365
ната 285175
ните 267749
година 265319
а 263723
През 254786
В 245040
му 235424
не 219110
ва 215352
на@@ 212446
че 210449
ния 205498
: 197731
ска 194507
ка 193919
т 192558
из@@ 187156
ски 187073
не@@ 171532
ли 169570
за@@ 169532
ти 165227
ската 165143
л 163318
н 156484
ват 154925
това 153740
ното 153384
А@@ 152435
към 152144
ре@@ 150846
та 148747
ли@@ 148703
по@@ 147161
с@@ 145710
пре@@ 145644
които 145558
у@@ 142462
к 141807
най 141772
при 140127
или 139502
който 139249
ри@@ 139207
след 138804
о@@ 137928
ския 137453
ко@@ 137428
но@@ 135003
съ@@ 132661
ла 131038
На 130040
от@@ 129544
Е@@ 128516
ни@@ 128097
д 128082
я 127672
ра 125377
раз@@ 123511
ци 122493
фон 122444
във 122270
; 122009
к@@ 121642
е@@ 121008
ле@@ 119752
ди@@ 119198
ване 118884
л@@ 118876
има 118651
ите 115717
р 114862
де@@ 114345
си@@ 113007
до@@ 111566
С@@ 110020
част 108863
време 108559
ско 108128
О@@ 107612
ка@@ 107271
ра@@ 106781
ви 106640
ти@@ 106348
те 105493
те@@ 105480
ри 104871
а@@ 104848
в@@ 104729
ки 103841
която 103253
то 103055
ми@@ 102972
ските 102583
години 102311
ването 102094
ката 101190
След 100902
което 100811
ма@@ 100783
ви@@ 100678
ро@@ 98904
ва@@ 98466
м@@ 97406
про@@ 97367
при@@ 97364
т@@ 96832
със 96818
ът 96783
ят 95815
ди 95191
той 94885
я@@ 94434
ма 94233
град 92815
се@@ 92759
ция 92362
мо@@ 91960
д@@ 90935
то@@ 89179
ското 89099
лен 88747
1 88592
о 87784
й@@ 87262
п@@ 86662
ден 86398
ният 83608
И@@ 83406
з@@ 83207
м 83090
ло@@ 82878
ник 82824
па@@ 82753
цията 82594
ята 81609
По 81564
г@@ 81223
става 79637
/ 79319
ла@@ 78256
ст 78173
България 77025
2 76913
Ко@@ 76867
бо@@ 76703
б@@ 76516
Ма@@ 76497
ку@@ 76407
ме@@ 76216
между 75833
го 75395
пе@@ 74464
около 74438
век 73665
пи@@ 73567
много 73355
ба@@ 73202
Ка@@ 72981
Б@@ 72521
ве@@ 72482
От 71908
зи@@ 71700
ш@@ 71631
Той 71107
и@@ 71046
об@@ 70374
село 70089
х@@ 69815
би@@ 69043
рите 69009
та@@ 68684
во@@ 68453
го@@ 68375
ата 68026
ници 67976
га 67945
ко 67647
където 67424
† 67096
У@@ 67080
ците 66968
ло 66581
може 66501
ѝ 66111
един 65634
ност 65227
П@@ 65021
да@@ 64363
сти@@ 64357
лите 64340
ф@@ 64316
ени 64273
й 64244
ство 63618
нието 63341
Д@@ 62883
н@@ 62710
По@@ 62685
война 61890
че@@ 61603
3 61500
ж@@ 61459
както 61390
други 61230
чен 60536
под@@ 60425
също 60055
ми 59932
под 59816
им 59426
вен 59268
лно 59079
рия 58600
лни 58474
ще 58325
ството 57893
ща 57886
За@@ 57871
Ми@@ 57863
лна 57842
На@@ 57508
са@@ 57275
К@@ 57096
га@@ 57074
со@@ 56975
во 56649
ността 56185
този 56050
ля@@ 55738
рат 55323
В@@ 54700
Т@@ 54627
сто@@ 54574
започва 54362
ду@@ 54253
бе@@ 53562
4 53116
чи@@ 52822
късно 52818
вата 52651
ан@@ 52632
въз@@ 52425
само 52347
ен 52224
ца 52146
Г@@ 51956
ките 51756
Из@@ 51455
су@@ 51249
Се@@ 51205
още 51192
ста@@ 51150
ин@@ 50918
М@@ 50782
пред@@ 50769
рен 50705
нов 50126
ст@@ 50113
ки@@ 49989
За 49958
ба 49743
Х@@ 49664
души 49522
над 49484
р@@ 49373
него 49243
ру@@ 48647
вид 48589
ци@@ 48512
път 48367
5 48321
щи 47948
една 47892
края 47601
Ви@@ 47549
срещу 47453
Па@@ 47052
I 46902
Ли@@ 46445
така 46426
хо@@ 46344
когато 46124
би 46063
З@@ 45798
чни 45779
сти 45776
Не@@ 45687
Биография 45618
ч@@ 45496
Са@@ 45142
ран 45031
10 44964
6 44936
български 44851
началото 44834
Ф@@ 44658
Де@@ 44422
няколко 44373
m 44340
ъ@@ 44239
всички 44215
II 44177
селото 44078
тен 44011
ха@@ 43760
ча@@ 43735
ява 43706
ето 43658
Р@@ 43632
13@@ 43614
20 43459
Бо@@ 43160
ков 43061
п 43016
С 42569
жи 42563
лия 42513
ен@@ 42417
два 42239
km 42134
семейство 42093
ц 42067
щ 41940
граф 41935
тях 41930
Ха@@ 41774
ране 41622
щата 41554
ш 41363
14@@ 41248
река 41131
ър 41114
ц@@ 41085
София 40768
две 40305
Ба@@ 40226
ж 40131
ският 40108
кра@@ 40094
май 39887
септември 39788
Мо@@ 39610
ше@@ 39555
Ку@@ 39522
з 39376
у 39376
ге@@ 39352
града 39260
Ш@@ 39059
лата 38938
же@@ 38926
заедно 38916
ту@@ 38884
Ро@@ 38856
Това 38793
нията 38776
тя 38768
жи@@ 38730
де 38525
% 38472
бу@@ 38446
зо@@ 38253
получава 38243
чно 38146
Про@@ 38143
Ре@@ 38093
тези 37996
Н@@ 37950
Съ@@ 37916
дени 37914
гра@@ 37880
място 37866
це@@ 37763
ч 37692
7 37690
ниците 37676
кон@@ 37652
тази 37588
ван 37380
Според 37335
дъщеря 37223
ги@@ 37086
ги 37083
рани 37007
Ра@@ 36988
Бе@@ 36971
ат@@ 36955
имат 36935
януари 36900
- 36819
жени 36697
три@@ 36634
ства 36583
хи@@ 36580
намира 36478
октомври 36417
15@@ 36330
ал@@ 36214
дни 36181
САЩ 36174
преди 36133
ръ@@ 36108
върху 36100
юни 36035
лу@@ 35888
юли 35861
Ме@@ 35799
х 35766
он 35712
три 35702
името 35665
август 35605
ю@@ 35545
15 35511
зи 35484
Пе@@ 35478
различни 35461
Македония 35457
бъде 35404
чи 35358
Си@@ 35339
До@@ 35332
ран@@ 35290
8 35258
чрез 35074
март 35048
вете 35008
област 34740
април 34551
йски 34463
син 34266
тите 34251
ар@@ 34208
ноември 34096
работи 33978
Л@@ 33874
декември 33827
община 33743
гу@@ 33716
12 33616
При@@ 33601
ня@@ 33597
Ди@@ 33565
вър@@ 33483
Ле@@ 33479
зе@@ 33465
стра@@ 33457
фи@@ 33441
рана 33354
пла@@ 33325
Пи@@ 33234
йки 33144
Ар@@ 32965
ница 32912
ве 32863
Ю@@ 32568
жда 32526
Пре@@ 32508
Ал@@ 32485
30 32464
чна 32453
История 32404
&amp; 32371
Ц@@ 32362
ор@@ 32317
му@@ 32276
ние 32196
Я@@ 32134
вия 31797
чески 31783
някои 31781
пу@@ 31690
зна@@ 31684
група 31630
чер@@ 31621
12@@ 31600
ф 31548
лят 31526
фе@@ 31377
често 31339
б 31250
ск@@ 30909
ника 30831
9 30810
ши@@ 30794
щ@@ 30775
То@@ 30709
вани 30601
лната 30544
ено 30463
При 30454
мъ@@ 30368
берг 30325
страната 30226
ме 30220
ек@@ 30149
вите 30128
ке@@ 30125
роден 30085
Тя 30005
Ла@@ 29989
тъ@@ 29898
кръ@@ 29737
мен@@ 29702
бург 29652
февруари 29636
Ри@@ 29565
вайки 29373
тан@@ 29293
кия 29292
език 29141
тре@@ 29088
ьо@@ 28994
гла@@ 28907
въ@@ 28890
вече 28857
Ру@@ 28803
ман 28793
Те 28782
ции 28751
ля 28701
ман@@ 28636
могат 28538
сред 28537
Мар@@ 28520
ско@@ 28501
16 28471
ща@@ 28467
ста 28436
прави 28431
център 28359
пр.н.е. 28233
14 28199
мен 28155
Лу@@ 28133
империя 28105
ит@@ 28036
Би@@ 27992
мата 27941
ча 27911
Го@@ 27909
Да@@ 27791
18 27744
Разпространение 27587
нен 27530
Видът 27505
повече 27477
ак@@ 27471
фа@@ 27467
сен 27394
университет 27389
11 27379
спо@@ 27332
Италия 27297
ха 27284
ан 27210
завършва 27191
отново 27189
части 27176
Северна 27106
Раз@@ 27003
Ни@@ 26974
ет@@ 26965
без 26956
Га@@ 26881
бил 26859
използва 26813
лните 26797
Та@@ 26751
чу@@ 26737
000 26726
тът 26687
ър@@ 26574
ев 26556
участва 26522
страна 26500
мите 26439
13 26374
край 26312
тра@@ 26307
19 26275
вания 26244
ро 26188
кан@@ 26160
ден@@ 26084
пло@@ 26065
жители 26062
води 25994
Бу@@ 25964
пра@@ 25946
училище 25903
Ти@@ 25797
населението 25720
Ан@@ 25663
сезон 25636
височина 25635
25 25621
бър@@ 25577
пи 25544
Най 25536
па 25474
Ч@@ 25441
дава 25438
поради 25428
ани 25420
17 25383
От@@ 25383
рата 25369
световна 25269
трябва 25269
ну@@ 25251
нея 25250
кри@@ 25249
Ве@@ 25227
нява 25214
първата 25182
периода 25130
ур@@ 25017
рането 24930
малко 24920
тия 24853
он@@ 24847
обаче 24839
лов 24687
Хо@@ 24665
сте@@ 24657
ря@@ 24637
според 24602
тата 24576
дена 24517
III 24495
&apos; 24428
име 24425
сън 24365
къ@@ 24361
голяма 24356
тур@@ 24327
кар@@ 24281
ров 24279
Кар@@ 24133
Германия 24019
дър@@ 23983
Ва@@ 23917
ген 23852
ности 23818
чев 23807
Об@@ 23775
Но@@ 23745
стите 23722
Франция 23716
вана 23696
без@@ 23663
Те@@ 23637
своя 23636
жда@@ 23626
член 23574
ска@@ 23562
Русия 23554
.@@ 23520
Ло@@ 23500
us 23481
ши 23431
ер@@ 23355
ари 23277
армия 23232
рът 23210
тни 23171
полу@@ 22951
ша@@ 22943
система 22939
умира 22939
Свети 22909
йн 22890
жа 22887
2010 22868
пол@@ 22847
А 22842
вя@@ 22777
жа@@ 22727
били 22683
* 22658
смъртта 22556
лю@@ 22553
род@@ 22540
сла@@ 22520
лъ@@ 22516
км 22321
нат 22294
фо@@ 22282
дата 22204
бра@@ 22160
чните 22108
Гра@@ 22102
щите 22038
нал 22036
Гърция 22025
бата 22002
2011 21996
Ки@@ 21984
Су@@ 21919
стро@@ 21897
дия 21885
църква 21839
лич@@ 21796
население 21785
рията 21780
нски 21773
Иван 21738
Европа 21727
дъ@@ 21608
ем@@ 21602
Георги 21562
само@@ 21554
ждат 21539
Въпреки 21491
нови 21446
ате@@ 21399
над@@ 21388
гле@@ 21354
сло@@ 21267
нова 21259
бя@@ 21244
кът 21211
пред 21188
шен 21152
ша 21144
докато 21140
пъ@@ 21138
вена 21130
днес 21103
24 20885
пер@@ 20878
тна 20865
първи 20853
дя@@ 20836
сия 20835
чната 20810
ващи 20786
играе 20770
едно 20744
21 20664
мът 20632
Мария 20626
времето 20609
пише 20577
22 20541
мал@@ 20518
щайн 20503
деца 20496
отбор 20473
жение 20469
Со@@ 20462
ер 20456
ител 20394
циите 20368
собстве@@ 20364
Роден 20351
Ж@@ 20336
страни 20288
групата 20265
баща 20259
живот 20245
тъй 20197
печели 20125
Населението 20020
4@@ 20010
класи@@ 20000
пис@@ 20000
тогава 19988
мия 19943
големи 19931
първия 19902
след@@ 19858
света 19848
сили 19769
крал 19762
период 19719
йския 19661
окръг 19656
дите 19632
йската 19607
кс 19601
рано 19553
вал 19544
запа@@ 19542
хра@@ 19432
остава 19414
Южна 19408
тър@@ 19372
Ста@@ 19363
idae 19362
брат 19347
хе@@ 19347
лото 19332
Ду@@ 19330
рин@@ 19293
Има 19226
нение 19181
ък 19170
провинция 19018
лин@@ 18999
ление 18992
оби@@ 18967
бор@@ 18926
ител@@ 18921
ане 18902
дж@@ 18868
Кон@@ 18864
23 18839
2000 18822
първите 18808
пле@@ 18793
кли@@ 18772
др 18715
войната 18709
вени 18670
йска 18668
жена 18648
сни 18646
бъдат 18629
ати@@ 18612
гат 18572
известен 18538
стре@@ 18449
вен@@ 18422
лет@@ 18417
места 18395
почти 18388
стта 18388
начин 18345
гата 18329
няма 18300
10@@ 18293
2012 18254
там 18253
2009 18252
8@@ 18234
голям 18227
вла@@ 18209
2007 18208
9@@ 18192
вали 18157
цен@@ 18152
зем@@ 18121
коле@@ 18108
2008 18090
Фи@@ 18079
ваща 18034
тор 17993
28 17985
27 17976
жен 17960
продължава 17959
5@@ 17924
поли@@ 17923
тро@@ 17916
Щ@@ 17899
Му@@ 17876
филм 17871
вар@@ 17853
ални 17827
сел@@ 17821
сър@@ 17804
включва 17803
пъл@@ 17775
дат 17770
ващ 17769
вой@@ 17739
Александър 17735
цел 17725
лен@@ 17713
гор@@ 17701
Първата 17677
2006 17638
вра@@ 17607
ита 17528
що 17522
представ@@ 17518
Ке@@ 17477
хора 17451
Ин@@ 17421
използват 17386
26 17385
мест@@ 17377
двете 17322
50 17318
данни 17297
Йо@@ 17293
лан@@ 17255
ел 17226
яване 17226
дено 17191
край@@ 17176
тно 17175
все 17149
работа 17066
ле 17062
работ@@ 17047
всеки 17019
лния 17010
син@@ 17007
ене@@ 16994
била 16986
Димитър 16940
̀ 16935
американски 16930
гъ@@ 16921
мина@@ 16895
ждане 16874
ще@@ 16870
им@@ 16863
лек@@ 16852
чо 16768
ед@@ 16740
семейството 16739
ън 16735
Че@@ 16719
Кри@@ 16718
успява 16718
спа@@ 16652
лин 16640
ху@@ 16618
рен@@ 16616
40 16549
откри@@ 16549
ун@@ 16533
резултат 16527
чени 16512
север 16511
100 16488
областта 16485
излиза 16478
сът 16469
района 16460
същата 16451
награда 16449
море 16425
бро@@ 16415
дар@@ 16406
форма 16377
ос@@ 16362
Фридрих 16359
Хи@@ 16354
дейност 16338
мо 16311
територията 16301
император 16287
ители 16277
ново 16238
послед@@ 16222
род 16220
юг 16173
ген@@ 16139
плани@@ 16115
лд 16113
четири 16078
пар@@ 16063
председател 16061
ся@@ 16013
вото 15973
Ор@@ 15968
ствено 15956
ъл@@ 15954
Кра@@ 15937
пара@@ 15872
вода 15867
Втората 15858
3@@ 15818
Ге@@ 15816
Като 15802
степен 15802
съюз 15787
2013 15782
же 15780
държав@@ 15776
кото 15770
малки 15766
присъ@@ 15731
първият 15712
лка 15677
разде@@ 15671
стър 15670
шо@@ 15658
отбора 15642
29 15632
мар@@ 15631
шки 15625
партия 15608
заради 15596
пъти 15579
мет@@ 15578
генерал 15577
дъл@@ 15568
кла@@ 15567
6@@ 15565
своите 15559
тя@@ 15539
мат 15534
2014 15515
дори 15514
регион 15512
управление 15512
сред@@ 15503
република 15493
фор@@ 15484
7@@ 15480
бер@@ 15478
изток 15477
ална 15473
ет 15468
соци@@ 15459
албум 15452
оръ@@ 15439
жен@@ 15421
2005 15400
анти@@ 15398
йн@@ 15398
Гу@@ 15397
Фа@@ 15381
дел@@ 15362
вер@@ 15355
лното 15354
нове@@ 15329
своята 15327
отде@@ 15245
ческа 15245
лени 15228
Пет@@ 15202
тер@@ 15199
площ 15122
ше 15113
рай@@ 15111
це 15092
ред@@ 15087
анд@@ 15081
жението 15080
множество 15078
мача 15064
преминава 15054
чат 15054
ори 15047
съвремен@@ 15023
голямата 15020
например 15020
възраст 15018
° 15012
Бра@@ 15006
обикновено 15001
ера 15000
йна 14990
стан@@ 14962
участие 14959
тън 14938
сре@@ 14921
дру@@ 14913
близо 14909
IV 14908
църквата 14904
живота 14887
преда@@ 14878
разпростра@@ 14846
филма 14830
съпруга 14827
2001 14810
e 14806
мир 14803
Към 14783
зва@@ 14779
Бер@@ 14762
ня 14717
Мон@@ 14698
вате@@ 14698
нения 14689
джа@@ 14674
зия 14667
дължина 14653
острови 14651
Основ@@ 14642
разпространен 14642
организация 14636
остров 14632
мер@@ 14605
60 14588
чава 14574
слу@@ 14567
яват 14566
чва 14549
2015 14543
Карл 14535
чка 14499
войски 14495
йни 14464
чета 14437
позна@@ 14435
вида 14417
история 14416
среща 14410
2004 14406
зъм 14402
гри@@ 14394
1944 14384
зира 14382
тира 14346
ствени 14345
мор@@ 14343
Дж@@ 14327
покри@@ 14320
гро@@ 14319
надморска 14309
юго@@ 14307
Република 14298
ителите 14278
вено 14255
ент@@ 14242
К 14235
Османската 14227
вод@@ 14208
Вер@@ 14202
тен@@ 14195
живо@@ 14187
16@@ 14157
включително 14151
ре 14147
Чер@@ 14141
образ@@ 14140
ред 14120
кто@@ 14119
До 14111
2002 14108
ално 14107
Фе@@ 14104
нов@@ 14104
стен 14087
лски 14080
Когато 14067
общината 14058
герман@@ 14035
достига 14025
ск 14023
рим@@ 14021
пор@@ 13986
линия 13983
_ 13961
И 13956
Ту@@ 13956
ланд@@ 13948
Лю@@ 13935
групи 13932
ком@@ 13931
лина 13927
ствата 13925
истори@@ 13920
кариера 13920
31 13919
съвет 13919
мла@@ 13913
ано 13894
северо@@ 13881
съпругата 13877
80 13868
състои 13864
застрашен 13856
изда@@ 13850
Кла@@ 13836
The 13833
обя@@ 13833
особено 13824
дей@@ 13818
избран 13813
Хе@@ 13807
тин@@ 13805
кова 13803
изпъл@@ 13796
казва 13795
запад 13763
Освен 13754
министър 13747
шка 13737
подоб@@ 13732
вли@@ 13728
започ@@ 13722
брой 13710
чния 13708
gt 13706
лена 13706
тар@@ 13695
Це@@ 13694
джи@@ 13648
създава 13648
ата@@ 13635
стъ@@ 13625
народ@@ 13616
средата 13587
приема 13585
ав@@ 13572
бан@@ 13567
власт 13560
рин 13555
граф@@ 13553
предимно 13551
живее 13541
диа@@ 13529
География 13521
логия 13520
историята 13481
Ман@@ 13471
бен 13469
дове 13467
добре 13466
гия 13454
прове@@ 13445
² 13444
вява 13441
рени 13432
Ша@@ 13423
мати@@ 13409
започват 13408
втората 13339
херцог 13338
крити@@ 13310
гре@@ 13306
българи 13280
игра@@ 13266
Ню 13262
0 13256
вероятно 13252
вият 13247
V 13198
право 13195
ход@@ 13195
70 13176
стве@@ 13168
общо 13154
назначен 13136
създа@@ 13125
Во@@ 13085
дан@@ 13078
стар@@ 13023
lt 13015
сту@@ 13014
връзка 13010
въпреки 13009
доб@@ 12992
рав@@ 12980
тер 12958
ита@@ 12922
силно 12920
Рай@@ 12907
П 12898
сите 12886
нарича 12879
тове 12872
цо@@ 12868
рий@@ 12865
нос 12861
Ай@@ 12859
мета@@ 12858
сен@@ 12846
Хайнрих 12829
отнася 12814
вица 12791
гар@@ 12774
ян 12774
град@@ 12757
стъп@@ 12751
сл 12740
служба 12738
произ@@ 12737
договор 12732
състава 12718
допъл@@ 12717
ането 12713
Сто@@ 12710
майка 12698
тип 12680
вътреш@@ 12676
ин 12672
образу@@ 12638
чове@@ 12636
1990 12627
Така 12623
вала 12622
Бар@@ 12583
Мал@@ 12567
защото 12567
бри@@ 12563
Кара@@ 12560
бре@@ 12550
Мак@@ 12546
влиза 12540
прие@@ 12522
ителна 12520
Йохан 12518
годишна 12517
видове 12514
завър@@ 12500
Никола 12494
ний 12478
коло@@ 12468
2016 12464
наре@@ 12446
Ши@@ 12445
ок@@ 12445
ков@@ 12443
ус 12423
Завършва 12412
ато@@ 12401
вно 12398
s 12374
Пред@@ 12372
наме@@ 12358
Фран@@ 12349
ев@@ 12347
№ 12341
Петър 12330
ров@@ 12322
водо@@ 12313
вет@@ 12301
Ча@@ 12300
ландия 12281
зма 12278
ъл 12277
посо@@ 12250
спор@@ 12226
носи 12212
&#93; 12209
опа@@ 12201
било 12199
българска 12191
Хар@@ 12183
роля 12165
пан@@ 12162
съществу@@ 12161
гръцки 12159
Разпространен 12149
никът 12145
свет@@ 12145
жат 12143
големите 12127
фил@@ 12115
осман@@ 12112
дро@@ 12111
Три@@ 12109
Пловдив 12103
нин 12093
щат 12092
&#91; 12062
изчезване 12051
ствена 12031
гите 12015
ад@@ 12002
ако 12002
неговата 11996
бар@@ 11987
представлява 11982
британ@@ 11960
вни 11929
мач 11925
зат@@ 11924
район 11922
рена 11919
мат@@ 11906
мили@@ 11905
пада 11888
2003 11886
зу@@ 11867
дре@@ 11861
физи@@ 11849
хората 11839
пол 11811
ните@@ 11808
цар 11802
Рим 11798
вели@@ 11797
мя@@ 11787
2017 11786
90 11782
свър@@ 11748
ити@@ 11737
повечето 11730
песни 11724
ати 11717
воде@@ 11714
Джон 11706
стри@@ 11705
състав 11703
Васил 11702
ем 11663
Дже@@ 11648
мини@@ 11646
светов@@ 11637
свят 11637
прав@@ 11625
ън@@ 11623
пит@@ 11612
графиня 11609
сата 11598
всяка 11594
мър@@ 11586
кти@@ 11566
втори 11562
пости@@ 11562
вин@@ 11561
Вар@@ 11556
нението 11551
комитет 11540
мс 11539
лището 11498
провежда 11481
метра 11479
лс 11478
дна 11466
Англия 11462
мин@@ 11440
академия 11419
хар@@ 11406
продъл@@ 11386
редица 11370
рак@@ 11362
англи@@ 11360
турата 11359
ително 11352
лий 11327
команд@@ 11325
нена 11325
четвър@@ 11325
слав 11324
човек 11324
гръц@@ 11310
пр 11299
държава 11294
Дру@@ 11292
дове@@ 11269
ват@@ 11260
сно 11259
въве@@ 11256
вре@@ 11255
ити 11253
електро@@ 11252
нася 11212
къс@@ 11209
Кор@@ 11207
милиона 11206
Въз@@ 11197
ъ 11190
Гор@@ 11176
българската 11171
няват 11167
хода 11163
Испания 11154
свързани 11133
учи 11133
мост 11132
бите 11116
еди@@ 11112
ене 11091
обеди@@ 11085
мъж@@ 11081
пен@@ 11081
C 11076
Б 11070
кре@@ 11053
чо@@ 11053
вна 11049
ца@@ 11049
християн@@ 11044
Тре@@ 11037
есте@@ 11034
жения 11024
Д 11019
ена 11011
Него@@ 11000
нем@@ 10996
тър 10996
руски 10990
ционен 10985
Нова 10983
Париж 10975
спи@@ 10948
Стефан 10946
теле@@ 10946
рабо@@ 10929
гне 10923
форми@@ 10918
манастир 10908
полк 10900
кро@@ 10897
шно 10890
съвет@@ 10885
яването 10885
1912 10882
праз@@ 10879
командир 10869
Филип 10867
со 10854
Вал@@ 10845
ора 10843
стоя@@ 10838
живеят 10828
раст@@ 10827
популяр@@ 10807
щия 10798
офици@@ 10795
сила 10788
въл@@ 10779
пет 10761
О 10758
бързо 10758
близ@@ 10745
нама@@ 10745
ален 10741
тните 10736
известни 10735
временно 10728
Джо@@ 10717
ю 10711
Дра@@ 10705
Америка 10701
образование 10694
Великобритания 10692
ителен 10691
музика 10691
голямо 10680
неговите 10673
ери 10667
све@@ 10664
струк@@ 10664
Сред@@ 10662
друг 10662
кул@@ 10661
йските 10657
връх 10652
дивизия 10648
лено 10646
бал@@ 10639
гимназия 10638
лица 10638
има@@ 10631
Китай 10629
организи@@ 10618
бази@@ 10617
1991 10612
настоя@@ 10612
връща 10607
дин@@ 10606
ос 10604
гли@@ 10593
разположен 10556
Африка 10554
шампи@@ 10552
P@@ 10550
развитие 10544
известна 10543
ниче@@ 10542
политически 10539
Мари@@ 10538
Пър@@ 10538
нин@@ 10538
дне@@ 10521
служ@@ 10515
лище 10512
рал 10511
логи@@ 10505
цата 10504
кове 10493
нар@@ 10493
началник 10489
национа@@ 10476
кло@@ 10467
M@@ 10462
плат@@ 10461
оста@@ 10460
Христо 10457
Българ@@ 10450
главен 10429
1945 10426
ана 10418
Умира 10416
проте@@ 10409
движение 10403
друга 10402
месеца 10396
вски 10395
цент@@ 10390
разположени 10388
дра@@ 10386
нер 10386
граждан@@ 10384
Бал@@ 10377
отношение 10370
способ@@ 10368
Бре@@ 10367
шни 10355
рал@@ 10344
поло@@ 10338
стил 10335
Хер@@ 10334
заема 10330
ствие 10324
они 10321
пър@@ 10320
театър 10314
Македо@@ 10291
Пер@@ 10286
дол@@ 10283
ал 10282
ква 10282
продължение 10281
вол@@ 10263
право@@ 10260
коре@@ 10256
основно 10245
бия 10237
1999 10223
кият 10208
2018 10207
реката 10207
чното 10206
1913 10197
рий 10190
али@@ 10189
актив@@ 10185
пат@@ 10181
италиан@@ 10172
кита@@ 10162
Зе@@ 10158
професиона@@ 10157
СССР 10155
тан 10152
десет 10145
инди@@ 10144
правителство 10143
следва 10143
гър@@ 10138
разработ@@ 10134
Май@@ 10133
твър@@ 10133
+ 10120
годиш@@ 10120
част@@ 10118
изпра@@ 10115
То 10114
произход 10112
фици@@ 10095
тната 10093
ези@@ 10091
дву@@ 10088
йско 10085
ета 10079
жава 10079
действия 10078
мов 10077
държави 10076
Този 10067
джа 10062
опера@@ 10059
литература 10049
ван@@ 10046
директор 10024
постро@@ 10021
излъ@@ 10019
ил 10015
създаването 10014
първенство 10003
изди@@ 10001
ь@@ 9989
Сла@@ 9988
— 9987
200 9986
лятото 9984
вано 9983
хи 9981
вид@@ 9980
Бур@@ 9969
президент 9964
Япония 9955
мястото 9951
ствен 9951
цар@@ 9950
израз@@ 9949
Йорк 9943
западната 9941
тор@@ 9938
тръ@@ 9934
дер@@ 9933
древ@@ 9927
юр@@ 9922
щето 9921
новата 9920
S@@ 9910
дения 9905
останалите 9905
ителни 9904
of 9899
сина 9899
разши@@ 9896
английски 9894
зват 9894
управлението 9888
фак@@ 9883
птица 9880
бива 9877
гна@@ 9877
Ше@@ 9871
фа 9870
гола 9865
прода@@ 9860
тел 9858
ква@@ 9843
стрел@@ 9843
= 9841
ждава 9830
цялата 9827
хард 9826
международ@@ 9825
състеза@@ 9818
Първият 9814
лей@@ 9806
сле@@ 9804
нически 9796
1992 9791
уч@@ 9780
източната 9779
Българската 9776
дълбо@@ 9774
първото 9770
точка 9769
дет@@ 9767
гот@@ 9764
хайм 9755
1941 9750
ара 9744
ход 9738
центра@@ 9736
политик 9735
рей@@ 9733
C@@ 9732
рих 9724
гори@@ 9721
1989 9717
говори 9717
ок 9716
използва@@ 9702
нала 9702
сов 9699
Николай 9698
май@@ 9696
оп@@ 9696
книги 9694
френски 9692
зен 9686
наслед@@ 9686
значение 9682
Вилхелм 9680
цето 9675
Доб@@ 9662
западно 9662
лер 9657
Ер@@ 9655
мон@@ 9652
решава 9650
Ху@@ 9649
Джа@@ 9641
ницата 9637
центъра 9629
ьор@@ 9615
дри@@ 9595
дът 9595
бъде@@ 9592
XIX 9589
a 9583
намират 9578
пове@@ 9576
Анна 9574
Гла@@ 9573
кан 9572
1998 9571
въоръ@@ 9570
служи 9569
Полша 9563
Западна 9555
топ@@ 9555
дер 9536
чки 9532
Св 9531
напуска 9531
рото 9530
другите 9523
пръ@@ 9522
поч@@ 9521
нени 9509
сме@@ 9507
Михаил 9497
малка 9493
двата 9487
гло@@ 9485
Някои 9477
морски 9473
пти@@ 9459
епископ 9455
стават 9455
мно@@ 9453
в. 9445
лев 9445
formula 9443
роман 9437
Москва 9432
правителството 9431
Вели@@ 9425
лов@@ 9424
същото 9419
футболист 9418
разположено 9410
сна@@ 9408
дьо 9392
албума 9388
Цент@@ 9382
1997 9380
она 9378
общ@@ 9376
еле@@ 9375
децата 9374
лът 9370
вис@@ 9364
чават 9355
източно 9352
ФК 9340
резер@@ 9337
ролята 9337
дви@@ 9334
бряг 9331
едва 9329
щати 9319
тон 9308
М 9307
рода 9300
рио@@ 9299
ули@@ 9296
ностите 9295
Вол@@ 9294
Пла@@ 9294
Във 9291
беле@@ 9291
призна@@ 9291
Тази 9288
Поли@@ 9287
македон@@ 9286
неговото 9286
превръща 9286
is 9281
жо@@ 9280
сна 9273
Там 9272
! 9267
тена 9265
35 9261
i 9261
лети@@ 9258
чет@@ 9255
означава 9254
единстве@@ 9252
Т 9251
външ@@ 9247
1996 9237
Намира 9235
Уе@@ 9229
последните 9228
битката 9227
връ@@ 9227
D@@ 9219
зае@@ 9213
Азия 9211
вър 9202
ета@@ 9196
гово@@ 9193
Тези 9188
военни 9173
учител 9172
разлика 9170
кен@@ 9149
нали 9144
песента 9144
лига 9140
известно 9136
дор 9124
ите@@ 9118
чено 9107
ней@@ 9101
противо@@ 9100
Кръ@@ 9098
теж@@ 9098
ган@@ 9096
мм 9095
бли@@ 9090
Турция 9087
1995 9086
нос@@ 9085
унищо@@ 9082
нето 9078
действие 9077
Къ@@ 9073
кт 9069
Селото 9060
княз 9060
съще@@ 9053
скоро 9051
съответ@@ 9043
Ги@@ 9039
1994 9035
поставя 9035
книга 9034
ново@@ 9031
два@@ 9027
политиче@@ 9027
лат@@ 9019
сията 9016
съгла@@ 9009
Поради 9003
защит@@ 9003
публику@@ 9003
бах 9002
свобо@@ 9001
едно@@ 8998
консул 8998
широ@@ 8983
успех 8981
кали@@ 8977
Индия 8976
йт 8976
възстанов@@ 8974
чение 8968
напълно 8959
основ@@ 8958
форми 8952
ву@@ 8949
ческо 8948
око@@ 8945
главно 8933
изкуство 8932
Мла@@ 8924
информация 8924
течение 8921
од@@ 8919
малък 8918
Света 8915
издава 8915
двамата 8913
много@@ 8906
щият 8906
музика@@ 8905
поста@@ 8905
фал@@ 8904
кур@@ 8902
нау@@ 8898
1980 8897
зона 8897
ъра 8897
Елизабет 8895
участ@@ 8893
Описание 8890
компания 8887
нове 8886
изпълните@@ 8882
Сан@@ 8880
Сърбия 8872
чите 8872
дале@@ 8866
кораба 8863
насо@@ 8861
територия 8848
стена 8839
нската 8838
лип@@ 8831
кораби 8828
ващите 8820
народен 8817
щото 8810
стран@@ 8801
гане 8797
въстание 8796
гнат 8793
влияние 8788
изследвания 8781
самостояте@@ 8779
Сан 8776
разли@@ 8765
футбо@@ 8762
Константин 8761
Варна 8752
север@@ 8749
низи@@ 8748
поле 8741
зва 8728
развитието 8727
рон 8722
Лудвиг 8720
сп@@ 8712
бъ@@ 8691
бой@@ 8687
кови 8685
събрание 8685
кръг 8679
тив@@ 8678
тук 8677
чен@@ 8677
осъ@@ 8675
изгра@@ 8674
градове 8673
Йе@@ 8672
предста@@ 8672
уни@@ 8672
планина 8671
произве@@ 8668
сан@@ 8666
обще@@ 8662
извърш@@ 8661
днеш@@ 8657
Дей@@ 8655
Чи@@ 8652
исторически 8649
защита 8642
политика 8623
­ 8621
Фор@@ 8621
Участва 8615
фи 8613
писател 8609
Австралия 8601
опит 8598
mm 8596
B@@ 8593
ото 8593
прием@@ 8592
артиле@@ 8591
официално 8586
почи@@ 8583
фер@@ 8573
производство 8572
българските 8571
новете 8568
половина 8567
тото 8567
жан@@ 8561
обви@@ 8558
риа@@ 8556
електри@@ 8553
прави@@ 8552
спе@@ 8551
целия 8550
случай 8538
професор 8532
завръща 8530
водата 8526
нен@@ 8525
наси@@ 8520
бле@@ 8518
ческите 8516
500 8514
идва 8513
изцяло 8513
1993 8509
членове 8508
лява 8505
лагат 8502
ционни 8501
Пра@@ 8498
инте@@ 8497
произведения 8491
установ@@ 8490
зата 8484
Шу@@ 8482
преброяването 8476
неговия 8475
погре@@ 8475
вич 8464
Лондон 8461
рове 8460
пита@@ 8456
развива 8456
ций 8451
обявява 8449
стват 8448
тият 8447
култура 8441
ления 8436
Кам@@ 8434
ум@@ 8431
рису@@ 8430
Украйна 8428
гер 8426
окол@@ 8426
позиция 8420
шката 8418
графи@@ 8417
тай@@ 8414
тична 8405
против 8403
участват 8403
подкреп@@ 8402
Международ@@ 8399
ческата 8390
обра@@ 8386
правят 8386
следващите 8385
появява 8383
Пу@@ 8380
Тър@@ 8376
она@@ 8376
гането 8375
мента@@ 8374
лство 8373
2019 8370
Благо@@ 8370
вил 8368
сестра 8363
стка 8358
чена 8357
дар 8353
45 8352
пови@@ 8351
съд 8344
Под@@ 8339
евре@@ 8337
тин 8335
A@@ 8332
ждането 8329
музей 8327
положение 8327
тел@@ 8327
Народ@@ 8326
планината 8318
острова 8316
дво@@ 8313
точ@@ 8307
Но 8304
кораб 8298
кор@@ 8296
лан 8296
села 8296
шава 8294
нер@@ 8293
1943 8291
чин 8291
крат@@ 8288
първо 8288
2@@ 8283
0@@ 8269
L@@ 8269
Ран@@ 8262
консу@@ 8255
1@@ 8253
Ак@@ 8253
Бразилия 8251
жените 8251
кот@@ 8248
управля@@ 8246
1878 8243
мени 8243
състояние 8239
прину@@ 8238
рии 8232
ум 8229
Вто@@ 8219
уби@@ 8217
иг@@ 8206
Източна 8204
клуб 8201
T@@ 8198
Воен@@ 8197
лова 8197
тика 8196
всичко 8193
двой@@ 8191
автор 8190
щи@@ 8182
дават 8177
тег@@ 8170
земи 8162
първоначално 8160
ол@@ 8159
дин 8158
длъж@@ 8156
менти 8152
гене@@ 8151
игри 8148
вестник 8143
коми@@ 8142
между@@ 8142
Дъ@@ 8140
тори 8136
годината 8134
Държав@@ 8133
дипло@@ 8131
условия 8123
Бан@@ 8121
пен 8119
владе@@ 8106
кой 8097
висо@@ 8090
Сред 8088
Ком@@ 8085
1970 8081
Г 8081
кин 8081
Кан@@ 8080
br 8079
Пар@@ 8077
помощта 8076
здра@@ 8074
хими@@ 8068
значително 8066
1900 8064
изобраз@@ 8064
компози@@ 8063
напа@@ 8059
лага 8057
авто@@ 8056
шу@@ 8056
Разположено 8052
себе 8044
спече@@ 8043
Сти@@ 8041
демокра@@ 8040
райони 8038
техните 8038
вец 8037
стика 8037
уме@@ 8037
довете 8034
системи 8028
издаден 8027
убе@@ 8023
километра 8021
изследовате@@ 8020
проект 8018
сли@@ 8016
план@@ 8014
езици 8013
шев 8013
V@@ 8008
щение 8008
открива 8007
чина 8007
годините 8003
кни@@ 7999
1918 7994
флот 7992
Фамилия 7989
столицата 7989
нина 7987
формата 7987
институт 7985
мон 7984
ян@@ 7983
фон@@ 7980
записва 7974
цели 7973
причи@@ 7968
взе@@ 7963
представител 7960
сви@@ 7953
последовате@@ 7951
Гер@@ 7946
елементи 7946
пад@@ 7946
съхра@@ 7937
включ@@ 7934
рис 7932
включват 7928
обществе@@ 7923
Източ@@ 7922
разположена 7922
пръв 7921
E@@ 7919
пря@@ 7917
българско 7915
компанията 7914
мар 7914
шампион 7914
иде@@ 7912
отво@@ 7912
тура 7912
Стара 7910
зов 7910
нав@@ 7910
тов 7906
the 7900
Марк 7900
лър 7897
мир@@ 7895
производ@@ 7893
шата 7889
алната 7885
пис 7881
поя@@ 7881
сто 7879
рик 7878
кси@@ 7870
ланд 7869
книгата 7865
глав@@ 7857
военен 7853
32 7849
основава 7848
селище 7846
уче@@ 7843
точки 7838
европей@@ 7837
позволява 7827
смята 7827
участието 7824
близост 7823
Ев@@ 7822
Австрия 7818
успе@@ 7818
търгов@@ 7815
пътя 7811
бър 7810
секретар 7809
следващата 7808
версия 7807
възник@@ 7799
Вла@@ 7797
френ@@ 7796
кол@@ 7795
решение 7793
G@@ 7791
ческия 7790
вяр@@ 7786
макар 7780
1960 7779
освен 7777
йс 7774
75 7771
яне 7769
ьо 7768
зване 7765
модер@@ 7765
ъм 7765
Други 7748
обща 7747
часа 7745
предлага 7744
състав@@ 7733
мери@@ 7732
средства 7732
освобо@@ 7730
брак 7727
дати@@ 7727
титлата 7725
толкова 7719
F@@ 7713
пли@@ 7712
реали@@ 7707
Между 7704
независи@@ 7701
окръ@@ 7695
оти@@ 7695
1940 7693
лет 7689
изключително 7685
колек@@ 7685
бур@@ 7682
доби@@ 7681
лска 7665
задъл@@ 7663
оказва 7661
армията 7660
тек@@ 7659
песен 7648
сезона 7645
зар 7640
тех@@ 7640
cm 7639
завърш@@ 7639
военна 7638
сметка 7637
рява 7635
Ек@@ 7632
работата 7630
изо@@ 7629
лизи@@ 7619
лите@@ 7619
мона@@ 7616
дело 7611
1942 7610
Послед@@ 7608
лож@@ 7608
Хай@@ 7602
чване 7593
Жи@@ 7588
математи@@ 7583
писате@@ 7580
езерото 7577
Све@@ 7568
Мексико 7566
Сле@@ 7564
ниво 7564
У 7562
такива 7560
шко 7560
процес 7558
шест 7547
Първоначално 7538
пуска 7538
Не 7537
къщи 7537
заместник 7536
алните 7535
филми 7535
сигурност 7529
аб@@ 7528
реги@@ 7528
втория 7518
писан 7516
стопан@@ 7515
помощ 7511
Унгария 7510
прото@@ 7507
взема 7505
разкри@@ 7504
Фу@@ 7501
e@@ 7500
Уи@@ 7499
ец 7497
Анти@@ 7495
добър 7495
понякога 7493
бол@@ 7489
ито 7488
Ен@@ 7485
мени@@ 7485
стане 7484
губи 7482
Тео@@ 7473
Пан@@ 7470
големият 7468
наблю@@ 7464
Й@@ 7463
заве@@ 7462
показва 7460
своето 7457
смя@@ 7453
отношения 7451
ктор 7449
пое@@ 7448
икономиче@@ 7447
ански 7445
необходи@@ 7445
2020 7440
температура 7440
мни 7435
омъжва 7434
награди 7426
съеди@@ 7423
следните 7418
дж 7410
форма@@ 7408
ванията 7403
гръ@@ 7399
дости@@ 7397
българския 7392
Син@@ 7388
ун 7386
сграда 7385
Стра@@ 7383
Църквата 7377
гр 7377
новия 7373
духов@@ 7371
дали 7369
ул 7365
мията 7363
концер@@ 7362
изку@@ 7357
Много 7356
представя 7353
студи@@ 7352
ващо 7348
зави@@ 7348
изя@@ 7348
намира@@ 7348
мрежа 7347
Канада 7345
възможност 7345
рок 7341
de 7339
Же@@ 7334
юж@@ 7334
права 7333
Въ@@ 7332
новен 7329
рам@@ 7328
ели@@ 7324
събития 7324
R@@ 7323
учеб@@ 7322
дом 7318
запис@@ 7316
Лан@@ 7311
ар 7311
дан 7310
ологи@@ 7304
щава 7302
1986 7295
отказва 7289
основа 7287
сва@@ 7286
зите 7283
Р 7278
дружество 7276
изи@@ 7274
300 7263
Френ@@ 7262
числе@@ 7262
състоя@@ 7252
съста@@ 7250
висока 7248
нари@@ 7243
съюз@@ 7243
Централна 7236
определя 7234
вари@@ 7233
рение 7232
пет@@ 7227
стандар@@ 7225
Още 7223
жд@@ 7222
испан@@ 7222
1988 7218
проблеми 7209
нито 7207
нор@@ 7201
Кру@@ 7199
потреб@@ 7188
списание 7188
лният 7186
спек@@ 7185
забра@@ 7184
Глав@@ 7178
южната 7178
Йоан 7172
годишен 7171
разви@@ 7171
стан 7169
оце@@ 7168
Кирил 7164
отли@@ 7161
вът 7160
изуча@@ 7160
Бен@@ 7159
животни 7159
1950 7156
стаби@@ 7152
коро@@ 7150
хай@@ 7147
минава 7145
обе@@ 7145
съдържа 7145
казват 7144
създадена 7144
чита@@ 7143
Ел@@ 7137
каз 7135
зин@@ 7130
достигат 7124
цвет@@ 7122
съществува 7118
постав@@ 7115
нато@@ 7114
цу@@ 7113
так@@ 7112
Преди 7108
лиза 7106
рас@@ 7106
став@@ 7104
ток 7103
бив@@ 7097
дно 7096
... 7093
новите 7093
1934 7091
властта 7091
памет@@ 7091
възмож@@ 7089
военно@@ 7086
гру@@ 7086
рамките 7083
твор@@ 7082
области 7080
N@@ 7073
Север@@ 7072
вери@@ 7072
византи@@ 7072
извършва 7071
Тай@@ 7063
1905 7060
опитва 7060
зву@@ 7058
ясно 7057
тиче@@ 7049
херцо@@ 7049
сон 7047
месец 7045
оръдия 7043
y@@ 7039
треньор 7039
двама 7028
Ако 7025
психо@@ 7022
Тра@@ 7021
литератур@@ 7014
родена 7014
назна@@ 7009
Египет 7001
оло@@ 6998
посве@@ 6991
културата 6990
приток 6989
реша@@ 6988
хъл@@ 6988
програма 6984
Х 6982
тски 6982
ган 6979
същия 6978
северната 6972
сел 6970
религиоз@@ 6966
шите 6965
източ@@ 6964
лищ@@ 6963
присъеди@@ 6963
публикува 6958
впоследствие 6957
хиляди 6957
националния 6953
напра@@ 6952
смърт 6949
.. 6946
извън 6946
хран@@ 6946
Ос@@ 6945
срещ@@ 6944
Кли@@ 6941
ева 6941
басейн 6936
границата 6933
бе 6928
интер@@ 6928
основните 6928
цът 6924
Румъния 6923
вън@@ 6922
опит@@ 6920
сръб@@ 6912
извест@@ 6908
проуч@@ 6906
западна 6905
сове 6901
телевизион@@ 6900
лис 6899
Ско@@ 6893
зано 6886
хия 6885
Гре@@ 6881
еки@@ 6878
избори 6876
лист@@ 6872
Сре@@ 6860
автомоби@@ 6856
футбол 6852
попада 6850
гори 6844
интере@@ 6841
разру@@ 6840
вяват 6835
преми@@ 6831
загу@@ 6829
рон@@ 6828
Бър@@ 6825
дате@@ 6825
ково 6825
наградата 6824
нати 6823
доста 6822
стен@@ 6815
Джи@@ 6812
кате@@ 6812
стър@@ 6810
вка 6802
построена 6796
леген@@ 6793
кара 6791
тялото 6790
поле@@ 6788
модел 6785
1985 6781
Стру@@ 6777
Сте@@ 6775
пъту@@ 6773
1920 6768
-@@ 6764
Бру@@ 6760
установява 6760
Анто@@ 6759
плъ@@ 6759
вест@@ 6750
принцеса 6747
фина@@ 6747
начело 6746
ця@@ 6745
поема 6744
они@@ 6743
обработ@@ 6742
рец 6739
рак 6735
ръко@@ 6731
1987 6730
аген@@ 6729
раб@@ 6729
причина 6726
следва@@ 6723
Името 6722
O@@ 6721
Население 6721
иска 6721
склю@@ 6719
жела@@ 6717
отраз@@ 6717
срещат 6716
възможно 6714
зе 6714
изпълнява 6712
немски 6712
опреде@@ 6712
бун@@ 6708
деец 6707
кон 6707
жу@@ 6701
създаден 6700
Пор@@ 6699
лението 6696
одрин@@ 6694
пите 6694
случаи 6686
капитан 6685
рина 6685
тран@@ 6684
езеро 6682
ут@@ 6681
представители 6680
премина@@ 6679
Само@@ 6668
рова 6665
сега 6661
рите@@ 6660
тури 6658
1984 6656
фамилията 6654
кариерата 6649
коп@@ 6648
финансо@@ 6647
ам@@ 6645
рения 6640
автоно@@ 6637
получават 6635
кин@@ 6632
H@@ 6631
Бро@@ 6631
38 6627
Гру@@ 6627
1939 6624
Първите 6624
вока@@ 6624
клю@@ 6624
пя@@ 6622
пе 6617
строе@@ 6614
кър@@ 6611
вай@@ 6609
проце@@ 6609
засе@@ 6607
1981 6605
XX 6605
тру@@ 6605
Произход 6600
слън@@ 6595
1968 6594
прекра@@ 6591
боле@@ 6588
остав@@ 6585
тки 6585
култур@@ 6582
Борис 6581
ела 6580
национален 6580
хва@@ 6580
архи@@ 6578
фото@@ 6578
циона@@ 6575
тов@@ 6574
33 6569
Берлин 6569
япон@@ 6567
офицер 6566
Светов@@ 6565
населе@@ 6565
бни 6561
комунистиче@@ 6559
четата 6550
времен@@ 6546
Виена 6543
лон 6541
скорост 6541
тат@@ 6541
пока@@ 6538
високо 6536
клас 6536
бит@@ 6534
основни 6534
1974 6533
пома@@ 6533
географ@@ 6532
енергия 6532
стъпва 6528
Балканската 6527
ема 6525
дем 6523
шена 6523
34 6520
арти@@ 6520
региона 6518
роман@@ 6516
точно 6515
бо 6511
нис 6510
чението 6509
статут 6505
из 6501
Джеймс 6500
пак 6500
митрополит 6499
хро@@ 6498
път@@ 6497
помага 6492
Също 6491
войници 6491
Баща 6489
епархия 6489
промени 6489
сътруд@@ 6484
знач@@ 6480
тю@@ 6480
десе@@ 6475
жерт@@ 6473
ционна 6466
чани 6465
негов 6460
джи 6459
жка 6459
1979 6458
печат@@ 6454
гора 6447
планински 6444
план 6442
как 6441
мед 6440
среда 6439
насе@@ 6435
W@@ 6431
клет@@ 6431
ке 6429
вижда 6427
занимава 6425
храм 6421
специ@@ 6420
ляване 6418
лист 6415
производството 6410
щаб 6410
долината 6409
зация 6409
39 6403
мна 6403
трите 6401
1978 6395
кат@@ 6393
име@@ 6391
пристани@@ 6390
1948 6387
VI 6386
1971 6381
големия 6381
събити@@ 6380
църков@@ 6376
чието 6369
типа 6368
Ам@@ 6365
Кър@@ 6362
Мор@@ 6362
Нор@@ 6360
Административен 6359
Северо@@ 6359
Тур@@ 6359
Хоен@@ 6358
турнира 6355
лог 6352
посока 6339
широко 6339
Или@@ 6336
убит 6335
1928 6332
земя 6331
цве@@ 6329
Кал@@ 6328
Тер@@ 6327
контрол 6327
ралния 6324
сне@@ 6323
влизат 6321
мент 6321
ляне 6318
части@@ 6318
1982 6315
увели@@ 6315
55 6314
чност 6312
фу@@ 6310
бург@@ 6300
ковски 6298
сед@@ 6298
шия 6297
брего@@ 6295
избя@@ 6289
насят 6289
1976 6286
рийски 6285
отбелязва 6284
ьор 6281
Разположен 6280
структура 6274
дълго 6271
характер@@ 6271
местообитание 6270
сул@@ 6266
победа 6265
1946 6264
Ата@@ 6263
открити 6262
Сер@@ 6261
преси@@ 6258
сам 6254
чето 6254
тури@@ 6249
винаги 6246
Вър@@ 6245
Левски 6244
школа 6244
симво@@ 6242
европейски 6238
кратко 6237
ология 6235
къл 6233
бю@@ 6229
йо@@ 6229
зани 6227
присти@@ 6226
тичен 6222
Владимир 6221
практика 6220
гът 6219
проекта 6217
италиански 6216
войни 6214
турен 6211
оригина@@ 6209
ръководството 6209
1972 6206
um 6203
Вай@@ 6203
Кьо@@ 6203
шение 6203
сградата 6201
нет 6199
твърди 6196
стра 6189
столица 6188
берт 6186
тични 6186
37 6181
използвани 6181
Британ@@ 6179
Гри@@ 6178
момент 6178
запла@@ 6171
сии 6171
местните 6170
1930 6164
т.нар. 6164
чест 6160
вле@@ 6159
загла@@ 6159
Ст@@ 6156
университета 6156
дел 6151
правител@@ 6145
един@@ 6142
зан@@ 6140
чения 6138
жни 6136
засел@@ 6136
промен@@ 6136
ограни@@ 6133
дра 6131
вън 6127
лската 6127
т.е. 6125
ради@@ 6124
дял 6122
иска@@ 6121
творчество 6120
маси@@ 6118
къща 6117
остават 6113
тар 6113
камен@@ 6102
турската 6099
42 6098
йското 6098
нати@@ 6096
основа@@ 6093
Димитров 6092
нд 6090
b@@ 6089
темпера@@ 6089
цялото 6089
Нико@@ 6088
грани@@ 6086
Градът 6085
Род@@ 6085
стер@@ 6085
традицион@@ 6084
рено 6083
четири@@ 6082
65 6078
Всички 6078
1975 6077
благород@@ 6076
унгар@@ 6076
редактор 6074
сий 6074
геро@@ 6073
общество 6070
разв@@ 6067
присъединява 6066
1947 6065
океан 6064
метър 6063
I@@ 6060
рез@@ 6058
цо 6058
Калифорния 6057
ид@@ 6057
постепенно 6057
предизви@@ 6056
побе@@ 6047
хвър@@ 6047
ей 6044
жителите 6040
Алек@@ 6039
Ара@@ 6039
стру@@ 6039
въздуш@@ 6038
гол 6037
обла@@ 6036
напре@@ 6035
36 6034
истин@@ 6032
Джу@@ 6025
нителни 6023
A 6020
жеството 6020
ръководител 6019
продук@@ 6018
свързва 6016
Вис@@ 6015
ствието 6013
яр@@ 6013
подчи@@ 6012
чаване 6011
радио@@ 6008
Днес 6005
прив@@ 6004
наричат 5998
мит@@ 5995
каза 5994
хове 5994
1969 5991
мани@@ 5990
Национа@@ 5989
гъл 5987
Солун 5986
анали@@ 5981
Ото 5980
уча@@ 5974
лати@@ 5973
битка 5972
Ръ@@ 5970
австри@@ 5968
1973 5967
оча@@ 5966
Лай@@ 5965
Площта 5963
организацията 5961
рият 5961
нични 5955
1983 5954
Започва 5954
обо@@ 5953
скоро@@ 5947
гръцката 5946
кови@@ 5943
предло@@ 5943
отива 5934
сил@@ 5933
затво@@ 5931
земята 5931
проя@@ 5929
дете 5915
спон@@ 5914
месе@@ 5913
православна 5912
зад 5908
Ци@@ 5905
заминава 5904
1927 5903
изче@@ 5903
революция 5902
нска 5901
63 5899
a@@ 5898
йл 5894
лацията 5894
Югославия 5892
полуостров 5892
Луи 5891
Тодор 5886
американ@@ 5886
лд@@ 5885
сгради 5884
76 5882
Саксония 5882
чват 5881
парк 5878
организации 5876
1919 5875
реките 5875
писва 5874
in 5871
ителя 5871
пода@@ 5871
турски 5869
съответно 5867
семейства 5866
Сли@@ 5863
специално 5862
държавата 5857
1923 5852
1967 5851
бан 5846
Един 5842
гел 5842
бивш 5838
добав@@ 5835
посе@@ 5831
пия 5829
различните 5826
забележител@@ 5824
вин 5823
стин@@ 5817
еро@@ 5816
мин 5813
Земята 5811
Фо@@ 5811
трети 5810
описва 5808
стата 5808
изпраща 5805
дън 5801
актьор 5799
Фри@@ 5798
българското 5796
пълно@@ 5796
бор 5794
общин@@ 5793
82 5790
технологи@@ 5787
издате@@ 5785
Игра@@ 5783
сор@@ 5783
фигу@@ 5783
стът 5778
64 5777
Кур@@ 5776
пом@@ 5775
науки 5772
станция 5772
издание 5770
Запад@@ 5767
Голе@@ 5766
дворец 5762
румъ@@ 5762
1962 5761
Европей@@ 5760
манастира 5760
41 5758
48 5757
благо@@ 5756
Бургас 5754
85 5753
Павел 5752
Кул@@ 5751
тивно 5751
майор 5748
отделни 5747
организира 5743
зависимост 5737
щен 5735
актриса 5729
основата 5729
пие@@ 5726
селе@@ 5723
успешно 5723
фикация 5719
граница 5714
съсед@@ 5712
Създа@@ 5711
резултат@@ 5711
лация 5707
дка 5706
местността 5704
Американ@@ 5702
1966 5699
мно 5698
мостта 5698
подписва 5697
военно 5694
полковник 5693
вну@@ 5692
статистиката 5686
материали 5684
et 5683
режи@@ 5679
вор@@ 5676
Тро@@ 5672
стои 5672
най@@ 5671
44 5670
кралство 5668
парти@@ 5667
транс@@ 5665
зването 5664
източна 5664
превър@@ 5664
крайна 5663
открит 5663
изслед@@ 5662
титла 5657
бло@@ 5653
начало 5650
дълго@@ 5649
сравнително 5648
господар 5642
52 5638
бого@@ 5637
неу@@ 5637
Вра@@ 5636
ства@@ 5635
1965 5631
вторият 5631
150 5630
нския 5630
стига 5630
БКП 5628
системата 5628
ограниче@@ 5627
мюсюлман@@ 5624
живе@@ 5623
глед 5621
копи@@ 5621
Георг 5617
Община 5616
Пара@@ 5614
46 5613
Бри@@ 5612
бое@@ 5612
науч@@ 5612
1977 5611
X 5609
когото 5604
финала 5604
1959 5603
1964 5603
Бай@@ 5602
нес@@ 5600
Тук 5598
литера@@ 5591
преде@@ 5590
търго@@ 5589
1915 5588
гео@@ 5588
Мин@@ 5585
мбо@@ 5584
пило@@ 5582
гара 5577
вета 5575
ждението 5571
Пон@@ 5569
лност 5568
Бор@@ 5566
Жан 5566
дение 5566
Уилям 5565
епоха 5565
подгот@@ 5565
практи@@ 5565
стой@@ 5564
избра@@ 5562
управлява 5562
Тогава 5560
Чар@@ 5559
патриар@@ 5557
Тек@@ 5556
южно 5555
административ@@ 5554
преимену@@ 5552
ителност 5551
следващия 5551
Кай@@ 5550
паметник 5550
папа 5550
уе@@ 5549
57 5546
1949 5545
лския 5544
95 5540
Работи 5540
1938 5539
Формула 5537
54 5535
жават 5533
меха@@ 5533
2021 5532
кръсто@@ 5531
движ@@ 5529
Ау@@ 5528
Иванов 5527
приемат 5527
00 5524
подкрепа 5524
факултет 5524
атор 5522
каз@@ 5522
смър@@ 5521
Кир@@ 5519
Ф 5515
имало 5515
наречен 5512
седми@@ 5512
стън 5512
Пен@@ 5511
скло@@ 5506
оттег@@ 5505
публи@@ 5505
зо 5503
лянето 5503
първен@@ 5501
преве@@ 5500
първа 5498
градът 5496
Вой@@ 5493
предостав@@ 5491
K@@ 5488
женията 5487
скри@@ 5487
романа 5484
рес 5483
албан@@ 5480
звез@@ 5480
недо@@ 5478
родния 5478
градски 5475
Хол@@ 5472
политическа 5469
o 5468
електрон@@ 5468
дже@@ 5465
зако@@ 5465
хре@@ 5465
музикан@@ 5462
нейната 5462
борба 5460
гва 5458
1961 5457
територии 5455
хвърля 5455
изво@@ 5450
жество 5449
отгле@@ 5448
Заедно 5446
мира 5446
Н 5445
майсто@@ 5445
тния 5445
1956 5443
79 5440
художник 5439
Голяма 5437
посещава 5436
северно 5436
сява 5434
ул@@ 5430
поддържа 5427
Гвинея 5425
рели@@ 5424
контра@@ 5421
орден 5419
проти@@ 5419
обучение 5418
1963 5417
вместо 5417
Швеция 5415
1000 5414
злат@@ 5414
прите@@ 5412
дие 5411
стени 5411
комби@@ 5410
реше@@ 5410
73 5407
миналото 5406
катедра@@ 5400
теория 5399
Дъл@@ 5396
Търново 5394
маса 5393
Кре@@ 5392
глава 5391
дома 5390
лича 5389
1958 5385
Меди@@ 5383
аси@@ 5378
съвмест@@ 5377
българите 5374
Вен@@ 5373
Скопие 5373
долара 5370
хер 5368
връщат 5367
ходи 5367
източници 5364
действа 5362
пери@@ 5361
ски@@ 5361
отколкото 5360
магни@@ 5359
стойност 5358
премества 5355
ъгъл@@ 5355
Докато 5354
известните 5354
Кле@@ 5350
бла@@ 5346
обръ@@ 5346
заги@@ 5342
негово 5342
средно 5342
изиск@@ 5341
клуба 5340
активно 5336
член@@ 5336
Софи@@ 5335
експери@@ 5333
тана 5333
тация 5333
Злат@@ 5332
62 5331
1936 5329
басе@@ 5329
обект 5328
купу@@ 5327
отбра@@ 5322
1924 5321
93 5321
жител@@ 5320
селата 5320
свой 5318
водят 5317
училището 5316
дат@@ 5313
латен 5313
разполага 5311
Тан@@ 5308
400 5306
чик 5306
Между@@ 5304
Член 5302
кня@@ 5299
рядко 5299
47 5298
ори@@ 5297
йд 5296
разби@@ 5296
тво@@ 5295
Ней@@ 5291
Юж@@ 5291
музиката 5291
Константинопол 5289
наследство 5289
жите 5288
различ@@ 5286
Тракия 5285
режисьор 5285
подобни 5281
чис@@ 5280
телевизи@@ 5279
лично 5277
революционер 5277
? 5275
ic@@ 5274
лу 5270
мента 5269
1926 5268
вие 5267
лие 5265
успеш@@ 5265
нео@@ 5264
младеж@@ 5263
нару@@ 5262
цяло 5262
езика 5260
класа@@ 5260
ствената 5260
труд@@ 5259
ленбург 5256
никога 5256
Кариера 5255
Етнография 5254
поддържа@@ 5254
превод 5253
мей@@ 5251
мощ@@ 5250
Мъ@@ 5246
бозай@@ 5244
зан 5243
успяват 5242
конститу@@ 5241
горе@@ 5240
сък 5239
1903 5238
аре@@ 5237
работят 5237
Родо@@ 5236
римски 5235
Пале@@ 5234
x 5232
вет 5230
взаимо@@ 5230
мер 5230
Е 5229
ль@@ 5229
годишно 5227
обита@@ 5226
стати@@ 5226
ia 5225
мият 5225
техника 5224
ползва 5223
добра 5222
роди@@ 5222
учи@@ 5222
люби@@ 5221
създават 5221
комуни@@ 5220
Тъй 5215
образува 5215
статистика 5215
броя 5214
носител 5212
сан 5211
раните 5210
хор@@ 5210
стина 5208
c@@ 5207
закри@@ 5207
използването 5201
варя 5200
гон@@ 5199
Пол@@ 5196
дъщер@@ 5196
моно@@ 5196
скъ@@ 5196
терито@@ 5196
Ван@@ 5195
поз@@ 5195
тически 5195
операция 5194
изби@@ 5193
тона 5190
дома@@ 5188
58 5187
Гро@@ 5182
режисьора 5182
Лин@@ 5181
млн. 5181
поръ@@ 5181
продължават 5177
връзки 5175
66 5174
мена 5174
помо@@ 5173
крайцери 5172
достатъчно 5169
контро@@ 5169
огром@@ 5167
линии 5166
43 5164
поме@@ 5163
миче@@ 5162
нали@@ 5162
бен@@ 5160
слож@@ 5158
германски 5157
ensis 5156
чуж@@ 5153
моби@@ 5152
бели 5150
майстор 5147
бира 5144
герой 5144
отбеля@@ 5142
нар 5141
нася@@ 5140
микро@@ 5139
против@@ 5139
определени 5138
разпреде@@ 5138
Александ@@ 5135
пото@@ 5135
цин@@ 5135
партията 5133
мъже 5130
средновеков@@ 5130
Швейцария 5129
число 5129
Крал@@ 5128
залив 5125
Бит@@ 5124
десети@@ 5124
кция 5123
издадена 5121
зен@@ 5120
последния 5117
революционна 5117
научни 5116
попа@@ 5114
храма 5112
високи 5111
74 5110
88 5110
1935 5108
база 5106
дов@@ 5106
изработ@@ 5106
67 5105
реки 5104
търговски 5102
s@@ 5099
1952 5097
дълбочина 5096
чиято 5096
повърх@@ 5094
дума 5092
надесе@@ 5091
експло@@ 5087
меди@@ 5085
броне@@ 5084
възраст@@ 5082
еми 5082
1929 5079
юри@@ 5078
Дар@@ 5077
Спа@@ 5075
свои 5074
1914 5073
дебе@@ 5073
сингъл 5073
Първа 5070
фронт 5066
размери 5065
51 5059
Джордж 5058
Ян@@ 5058
цки 5055
Запа@@ 5054
сбург 5054
Елена 5052
n@@ 5051
Дю@@ 5051
няване 5049
ѐ@@ 5049
ООН 5048
офи@@ 5048
имена 5047
Софийския 5045
1925 5044
81 5044
значи@@ 5043
собственост 5041
минути 5040
Колумбия 5039
счита 5037
славя@@ 5036
обез@@ 5034
административен 5032
1921 5031
86 5031
влия@@ 5030
генера@@ 5030
лта 5029
органи@@ 5027
номер 5025
използван 5024
Ама@@ 5023
християни 5023
централната 5020
ката@@ 5015
хан 5015
вицата 5012
теат@@ 5012
o@@ 5011
ент 5011
гли 5008
Кат@@ 5007
настъп@@ 5007
низ@@ 5007
сексу@@ 5006
съдържа@@ 5006
ВМОРО 5004
насти@@ 5004
цвят 5002
дението 5000
янето 5000
Остро@@ 4998
жъл@@ 4997
d@@ 4996
състезате@@ 4996
мито@@ 4993
вземат 4991
т.н. 4991
храна 4991
войска 4990
вало 4989
фен@@ 4989
Около 4988
непре@@ 4988
птици 4987
творби 4987
Тех@@ 4986
тяхната 4983
кър 4982
дии 4981
седем 4981
серио@@ 4979
достав@@ 4977
художе@@ 4977
тното 4976
каф@@ 4975
човека 4974
графия 4968
наследник 4967
пру@@ 4967
тина 4967
къде 4965
главния 4961
икономически 4961
полски 4960
смес@@ 4958
мото 4955
ващата 4954
1908 4953
рит 4952
Националната 4950
награ@@ 4950
нико@@ 4950
уста@@ 4949
племен@@ 4945
1922 4943
тирани 4941
кара@@ 4939
построен 4939
Министерството 4935
есента 4935
78 4934
кула 4933
американската 4932
войвода 4932
въпро@@ 4932
фир@@ 4931
думи 4930
Сар@@ 4929
мина 4928
вали@@ 4926
дията 4926
компютър@@ 4926
атаку@@ 4924
все@@ 4923
потвър@@ 4922
споменава 4922
ов@@ 4920
епи@@ 4918
серия 4917
държавен 4916
линията 4916
Русе 4914
брега 4913
Съществу@@ 4912
94 4910
уз@@ 4910
on 4907
ническа 4907
96 4905
предназна@@ 4905
1951 4904
ничен 4904
ражда 4904
такъв 4904
зни 4898
контак@@ 4896
втора 4894
Чу@@ 4892
продукти 4892
Брат 4891
комплекс 4891
поп 4891
слав@@ 4891
краси@@ 4890
маги@@ 4888
84 4887
сер@@ 4886
формира 4884
чината 4884
жна 4880
1953 4879
мас@@ 4878
мето 4878
носе@@ 4878
равни@@ 4878
Римската 4877
създаване 4876
1877 4873
Велики 4872
Ол@@ 4870
зар@@ 4869
Музи@@ 4868
вдо@@ 4866
p@@ 4864
Белгия 4864
1933 4863
56 4863
жки 4863
игра 4863
Кни@@ 4861
осигур@@ 4859
променя 4859
върха 4855
код 4854
после 4850
специали@@ 4846
1957 4841
обратно 4841
прости@@ 4841
крайцера 4840
меня 4838
шения 4838
Демокра@@ 4836
утвър@@ 4835
фла@@ 4835
Горна 4834
власти 4833
изме@@ 4832
61 4828
Руската 4824
нарича@@ 4824
Орга@@ 4823
пристига 4823
провеждат 4821
хан@@ 4821
Загора 4820
поредица 4820
укра@@ 4817
нев 4816
дал 4815
моти@@ 4814
екипа@@ 4813
престъп@@ 4811
71 4809
защитава 4809
77 4808
Съединените 4808
тропи@@ 4807
53 4806
вз@@ 4806
Луций 4803
католи@@ 4802
расте@@ 4802
1937 4793
мре@@ 4793
тера@@ 4791
Пав@@ 4788
тивен 4788
транспор@@ 4788
гер@@ 4786
характер 4786
Филмът 4785
оне@@ 4784
изкуството 4783
Ари@@ 4782
съл 4781
братя 4779
Але@@ 4778
ис@@ 4778
снаб@@ 4776
1904 4775
Мер@@ 4774
премах@@ 4774
земедел@@ 4773
кани 4773
дела 4769
дълги 4769
стату@@ 4766
бъл 4765
пролетта 4765
разузна@@ 4764
писи 4759
съпру@@ 4758
дорф 4757
нейните 4756
академи@@ 4753
излож@@ 4753
постоян@@ 4752
Университета 4751
дови@@ 4751
провин@@ 4750
Димит@@ 4748
склонове 4748
зам@@ 4747
72 4746
президент@@ 4744
федера@@ 4744
1917 4740
Под 4739
роли 4739
селища 4739
възра@@ 4738
Гар@@ 4736
опис@@ 4736
Хон@@ 4735
налага 4734
образуват 4734
моне@@ 4733
площа@@ 4733
единствено 4732
лец 4731
употреба 4731
ристи@@ 4730
френския 4729
дената 4727
направи 4727
принц 4727
Вене@@ 4724
проф 4723
тира@@ 4720
Васи@@ 4716
Мит@@ 4716
подходя@@ 4715
беше 4712
пов@@ 4712
Йор@@ 4709
държа@@ 4709
тора 4709
Бел@@ 4708
полага 4707
затова 4706
комуника@@ 4704
ико@@ 4703
последната 4703
пехотен 4702
палу@@ 4701
пари 4701
фран@@ 4701
VII 4700
68 4699
именно 4699
полож@@ 4699
военните 4698
al@@ 4697
y 4696
католиче@@ 4696
98 4695
знание 4693
91 4692
осъществява 4692
украин@@ 4692
зъ@@ 4691
Франц 4687
футболен 4687
мор 4684
пече@@ 4684
албу@@ 4682
изключение 4682
многобро@@ 4682
0,@@ 4681
Една 4681
отряд 4678
раке@@ 4677
камък 4675
сем@@ 4675
тели 4675
нително 4674
лства 4672
осем 4669
творче@@ 4669
наричан 4667
Купата 4665
тиран 4663
взима 4660
ним 4660
тил 4659
49 4658
каме@@ 4658
къл@@ 4658
Сюжет 4657
гласно 4656
комисия 4653
дейността 4651
Спи@@ 4649
принци@@ 4649
регистри@@ 4649
лиан@@ 4647
1954 4646
лон@@ 4645
Ед@@ 4644
американска 4644
интерес 4642
моде@@ 4641
обек@@ 4640
международни 4637
and 4636
ѝ@@ 4636
види@@ 4635
Андре@@ 4634
гон 4634
използване 4634
растения 4634
любов@@ 4631
Гай 4630
заявява 4629
намалява 4627
сиг@@ 4627
бин@@ 4625
манасти@@ 4622
Кали@@ 4620
поста 4620
старите 4620
Мартин 4618
отдел 4618
линей@@ 4617
Слу@@ 4616
бита 4615
благодарение 4615
гов 4615
преподава 4615
сена 4615
труд 4613
заповед 4611
хо 4611
варя@@ 4610
епизо@@ 4609
пуснат 4606
Дунав 4604
пазар@@ 4602
лед@@ 4599
пуск@@ 4599
строител@@ 4598
събра@@ 4595
бел@@ 4593
появяват 4591
вя 4590
лез@@ 4589
’ 4589
жът 4587
текст 4587
1932 4585
дете@@ 4585
тео@@ 4585
ърс 4585
лика 4584
местни 4584
сек@@ 4583
пост 4581
основан 4580
нещо 4579
сведения 4579
кмет 4578
вся@@ 4577
теро@@ 4577
измер@@ 4575
изпратен 4573
етата 4569
алното 4568
Съюза 4567
дес@@ 4567
1910 4566
африкан@@ 4566
корпус 4566
носят 4565
онът 4565
товете 4564
Повечето 4562
Сту@@ 4561
дените 4559
побеждава 4559
оръжие 4556
тит@@ 4556
кораб@@ 4555
нено 4555
сериал 4554
Балкан@@ 4553
орке@@ 4552
космо@@ 4551
пози@@ 4551
западните 4550
обекти 4550
определя@@ 4550
atus 4549
щане 4548
Сара@@ 4547
кле@@ 4547
ъри 4546
железопъ@@ 4542
вале@@ 4541
линко@@ 4541
тици 4541
каза@@ 4539
Евро@@ 4537
Ок@@ 4536
кам@@ 4534
наречена 4534
постъпва 4533
веднага 4532
зова@@ 4532
родо@@ 4532
гале@@ 4531
Индонезия 4528
Дани@@ 4527
Робърт 4527
възви@@ 4527
телевизия 4527
лизат 4525
i@@ 4524
комплек@@ 4524
идеята 4523
огла@@ 4522
сови 4521
ландски 4520
1955 4517
журнали@@ 4517
траки@@ 4516
замък 4515
кори@@ 4515
Все@@ 4509
ево 4509
крепост 4506
алния 4503
лето@@ 4502
проек@@ 4502
ляните 4498
командването 4497
стки 4497
чия 4497
биват 4496
шат 4495
сната 4494
добри 4493
Фердинанд 4492
ефек@@ 4492
скулп@@ 4491
техниче@@ 4491
онен 4490
лейтенант 4489
федерация 4488
нови@@ 4486
сра@@ 4486
ЦСКА 4485
жаване 4484
старо@@ 4484
Конрад 4483
поддръ@@ 4482
св 4481
уд@@ 4480
клон 4479
вената 4478
прекъс@@ 4478
седа@@ 4477
студен@@ 4477
цяла 4474
дебю@@ 4472
срещи 4472
изка@@ 4471
скан@@ 4467
ляр@@ 4465
ралната 4465
Ул@@ 4464
относно 4464
B 4463
просто 4460
изви@@ 4458
едновременно 4454
t 4453
етите 4453
59 4452
режим 4452
материал 4451
разгле@@ 4451
вече@@ 4450
ключва 4450
Спо@@ 4449
богат@@ 4449
Свет@@ 4447
лки 4446
открито 4445
принадле@@ 4445
Атина 4444
самия 4444
стадион 4441
чийто 4441
89 4440
наля@@ 4440
Въл@@ 4438
Сал@@ 4437
тяхното 4437
северозапад 4435
количество 4434
раната 4434
мална 4433
ску@@ 4432
аз@@ 4429
цио@@ 4429
Обеди@@ 4428
Охри@@ 4428
училища 4428
Семей@@ 4427
макси@@ 4427
полета 4427
пространство 4426
тяло 4424
Междусъюзническата 4423
мисле@@ 4421
контроли@@ 4420
фло@@ 4420
Аржентина 4415
гне@@ 4414
произлиза 4414
сова 4413
87 4412
държа 4412
постоянно 4412
Автор 4408
Бя@@ 4408
дръ@@ 4407
гун@@ 4406
типи@@ 4406
Ернст 4404
изве@@ 4404
негови 4404
Ню@@ 4402
сели@@ 4402
Албания 4400
нача@@ 4400
Южен 4399
опи@@ 4398
изра@@ 4396
лва 4395
Томас 4394
изпълнение 4394
прекарва 4394
вро@@ 4393
спрямо 4393
Републикан@@ 4391
ляз@@ 4391
ac@@ 4390
изключ@@ 4390
свидетел@@ 4389
Вел@@ 4388
бва 4387
кос@@ 4387
Бъ@@ 4386
бира@@ 4386
непосред@@ 4386
дова 4385
къв 4384
Край@@ 4382
информа@@ 4382
сним@@ 4382
орган 4381
счита@@ 4381
99 4380
лос 4379
лиза@@ 4378
ческото 4378
нация 4376
мра@@ 4375
оцен@@ 4372
Ска@@ 4370
ращи 4368
мет 4367
паша 4366
бул 4365
действието 4365
квартал 4365
визи@@ 4363
специфи@@ 4362
шах@@ 4361
Слън@@ 4359
какви 4359
мето@@ 4359
риите 4357
нан@@ 4355
точен 4355
циви@@ 4355
ствените 4353
услови@@ 4353
чният 4353
гаш@@ 4349
бове 4348
йският 4348
полови@@ 4347
Хитлер 4346
побед@@ 4345
канал 4344
Един@@ 4343
жата 4342
леги@@ 4342
Рей@@ 4340
добрите 4340
иконо@@ 4339
ph@@ 4337
Богородица 4337
какво 4337
оке@@ 4337
лово 4336
La 4335
бет 4335
зала 4335
реца 4335
шкото 4335
основен 4334
Лъ@@ 4332
лян 4332
волю@@ 4331
дух 4331
спу@@ 4326
Впоследствие 4324
дов 4324
08 4323
Село 4323
пребро@@ 4323
amp 4321
играят 4320
съоръ@@ 4320
победата 4319
театра@@ 4317
р. 4316
Публи@@ 4315
важна 4315
уре@@ 4313
голямото 4310
президента 4309
вина 4308
кистан 4307
хърват@@ 4306
Фин@@ 4305
претър@@ 4305
1931 4304
X@@ 4302
Пол 4302
Тор@@ 4301
поредицата 4301
Фло@@ 4300
строй@@ 4300
тема 4299
Откри@@ 4294
Учи 4293
гърци 4292
Например 4290
документи 4289
нейния 4289
гроб@@ 4286
програмата 4286
сравнение 4286
разпо@@ 4284
върхо@@ 4282
исля@@ 4282
Обикновено 4279
функциони@@ 4279
Кате@@ 4278
ляват 4277
наро@@ 4276
нг 4276
зало@@ 4275
Едуард 4274
рие 4274
тието 4274
сериала 4273
щат@@ 4273
високата 4272
стот@@ 4271
69 4270
тима 4270
чката 4268
сим@@ 4267
тическа 4267
рес@@ 4264
Ети@@ 4262
библиотека 4260
кона 4259
нените 4257
североизток 4257
поня@@ 4256
посла@@ 4255
негова 4253
руския 4253
600 4252
райки 4251
чиито 4250
енерги@@ 4249
Става 4248
бой 4248
тивни 4245
тогаваш@@ 4244
общини 4241
чева 4241
Черно@@ 4238
даден 4237
компю@@ 4236
Ъ@@ 4234
ждават 4233
лката 4233
Живо@@ 4232
Вин@@ 4231
екра@@ 4230
еска@@ 4229
югоизток 4229
Атлан@@ 4228
икономика 4226
въпроси 4225
Корея 4223
кал@@ 4223
обича@@ 4223
нара@@ 4221
високо@@ 4219
градовете 4217
общност 4216
Съвет@@ 4215
дем@@ 4214
Албрехт 4213
Пру@@ 4212
турнир 4212
яв@@ 4212
обса@@ 4211
Зо@@ 4209
Илия 4209
класа 4209
рито@@ 4209
Следва@@ 4208
изло@@ 4208
ръководи 4207
сблъ@@ 4207
лове 4206
1916 4205
земно@@ 4205
изградена 4205
руската 4205
н.в. 4204
приет 4203
рус 4202
епо@@ 4200
устието 4200
причини 4199
сътрудничество 4199
основате@@ 4197
конгрес 4194
ография 4194
Авто@@ 4190
Тю@@ 4190
лес 4190
долу 4189
университе@@ 4189
швед@@ 4189
бомбарди@@ 4187
вната 4187
британски 4185
ас 4183
импер@@ 4183
списъ@@ 4183
Дейвид 4180
всяко 4179
мом@@ 4179
кана 4178
in@@ 4177
висок 4176
екс@@ 4176
сар 4176
нейното 4175
разбира 4175
Макар 4174
пто@@ 4174
1906 4173
лев@@ 4173
Бю@@ 4171
всичките 4168
обикнове@@ 4168
важни 4167
получи 4167
определен 4162
укреп@@ 4162
g@@ 4161
пускат 4159
Първото 4158
хидро@@ 4158
показват 4155
автор@@ 4153
лища 4153
Интер@@ 4151
енен 4151
изли@@ 4151
крепостта 4151
or@@ 4149
ерата 4149
съществуват 4148
d 4146
падането 4146
подно@@ 4146
зер@@ 4145
извън@@ 4145
правото 4145
фолкло@@ 4143
първонача@@ 4141
Каме@@ 4139
портре@@ 4139
Гръ@@ 4138
тност 4138
лови 4137
руп@@ 4137
гии 4136
лива 4136
метри@@ 4136
суб@@ 4136
софту@@ 4134
Родена 4132
погребан 4132
ставлява 4132
манд@@ 4131
основната 4131
разказва 4131
Първи 4129
t@@ 4128
учени 4128
архитек@@ 4127
промиш@@ 4126
повре@@ 4125
върне 4124
сво@@ 4124
Стро@@ 4123
дис 4123
екзархи@@ 4123
рус@@ 4123
фект 4123
краля 4122
фрай@@ 4122
сни@@ 4120
страните 4119
Стан@@ 4117
Кня@@ 4116
едноимен@@ 4116
пробле@@ 4114
ционно 4112
S 4111
Дел@@ 4111
царство 4111
км2 4110
тери@@ 4110
обхваща 4109
подпис@@ 4109
полет 4109
Еле@@ 4108
лер@@ 4108
Л 4107
гда@@ 4107
контин@@ 4107
Ботев 4105
дател 4105
континента@@ 4104
приятел 4104
Гос@@ 4103
дий 4103
изследване 4103
йка 4103
сово 4103
Прин@@ 4099
философия 4098
92 4097
сцена 4097
Бело@@ 4096
партн@@ 4096
Попу@@ 4095
Иран 4094
km2 4092
разполо@@ 4092
ae 4090
поет 4089
търговия 4089
n 4088
затвор 4086
мил 4086
цени 4086
големина 4085
фаза 4084
лекар 4083
лината 4083
лството 4081
Август 4079
въоръжение 4078
удар@@ 4078
вдъх@@ 4076
живя@@ 4076
племена 4076
победи 4076
Обитава 4075
представляват 4074
жено 4073
извър@@ 4070
фанта@@ 4068
рекла@@ 4067
ционните 4067
свещеник 4066
пси@@ 4062
зрите@@ 4061
приятел@@ 4061
що@@ 4061
подвод@@ 4059
седмици 4057
бригада 4056
основана 4056
хата 4056
02 4055
рев@@ 4055
санд@@ 4054
чество 4054
индустри@@ 4053
Хал@@ 4052
произвежда 4052
стове 4052
вените 4051
зането 4049
кит@@ 4049
оценка 4049
фан@@ 4049
гина@@ 4048
Хр 4047
дент 4047
Израел 4046
Рабо@@ 4046
изграждането 4046
83 4045
джиев 4045
дски 4044
сят 4044
яй@@ 4044
Двамата 4040
проекти 4040
кат 4039
лесно 4039
Влади@@ 4038
източник 4038
крайбрежие 4036
спан@@ 4035
центри@@ 4034
поход 4033
предиш@@ 4032
Национален 4031
държи 4030
селището 4030
лицата 4028
Мол@@ 4027
данъ@@ 4027
зон@@ 4027
ресур@@ 4027
Опера@@ 4026
клу@@ 4025
предше@@ 4025
g 4023
нес 4022
тари@@ 4022
нямат 4021
предизвиква 4021
продължител@@ 4020
1911 4019
постига 4018
гол@@ 4017
фило@@ 4017
Джор@@ 4016
мигри@@ 4016
Хесен 4015
воен@@ 4015
кар 4015
осигурява 4014
фек@@ 4011
финал 4010
124@@ 4009
L 4008
писана 4008
дина@@ 4005
зло@@ 4005
лар@@ 4005
el@@ 4004
гове 4004
образованието 4004
F 4003
специалност 4003
спомена@@ 4002
Успе@@ 4001
енбург 4001
рали 4001
ана@@ 4000
независимост 3999
пата 3998
дъж@@ 3997
затвора 3997
сигур@@ 3997
натат@@ 3995
обявен 3995
тежки 3993
форд 3993
събира 3991
Тру@@ 3989
Долна 3988
Ала@@ 3987
анима@@ 3986
въгле@@ 3986
камъ@@ 3986
притежава 3986
Чо@@ 3984
общ 3983
1902 3982
гради@@ 3981
револю@@ 3980
югозапад 3980
Ради@@ 3979
друго 3979
лай@@ 3979
въд@@ 3977
науките 3976
повя@@ 3974
характери@@ 3973
Георгиев 3972
сли 3971
флота 3971
кап@@ 3969
относ@@ 3969
Малко 3968
Мюнхен 3968
граждани 3968
правата 3968
личе@@ 3967
прин@@ 3966
Дър@@ 3964
Любо@@ 3963
Климент 3962
пон@@ 3962
язови@@ 3962
графство 3961
лира 3961
море@@ 3960
йе@@ 3959
руските 3959
1907 3957
главната 3957
оборуд@@ 3956
сберг 3956
листи 3955
Фили@@ 3954
Хенри 3954
чув@@ 3954
ителните 3953
юн@@ 3952
лей 3951
мини 3951
фика@@ 3951
машини 3950
Нидерландия 3949
Христос 3949
защите@@ 3948
лице 3948
свеще@@ 3948
Юго@@ 3947
изъм 3947
постанов@@ 3947
преподавател 3947
Петров 3946
бойни 3946
медал 3946
убийството 3946
членовете 3946
Адолф 3944
западния 3943
вице@@ 3941
рово 3940
говор 3938
вариант 3936
улица 3936
Дан@@ 3935
Сръб@@ 3934
магистра@@ 3929
монар@@ 3929
хил. 3928
Голямата 3926
далеч 3925
претен@@ 3925
нас 3924
увеличава 3924
нало@@ 3923
тивна 3923
зато@@ 3922
Кънчов 3919
владетел 3919
преди@@ 3917
архитектура 3915
открита 3915
Шампи@@ 3914
размер 3914
Хен@@ 3913
снати 3913
on@@ 3912
вието 3909
вила@@ 3908
труп@@ 3908
Коста 3907
емо@@ 3906
ранните 3906
яна 3905
бир@@ 3903
гиня 3902
главата 3902
графски 3902
лън 3901
сми@@ 3901
възста@@ 3900
1909 3899
поне 3899
силата 3898
тка 3897
зимата 3895
гство 3894
лични 3894
Никола@@ 3893
ментите 3893
Нос@@ 3892
Стоян 3892
дон 3892
планини 3891
народна 3890
олимпийски 3890
Вътрешната 3888
впечат@@ 3887
бизнес 3885
ряване 3885
J@@ 3884
ани@@ 3883
династията 3883
Коло@@ 3882
f@@ 3881
120 3880
замен@@ 3880
пл@@ 3880
див@@ 3879
97 3878
летия 3878
ширина 3878
номини@@ 3877
автори 3876
бед@@ 3874
национално 3874
ръковод@@ 3873
Кин@@ 3872
Мате@@ 3872
монт 3872
програ@@ 3871
Мона@@ 3865
мили 3864
метро@@ 3863
мяна 3863
поези@@ 3863
поставят 3862
титу@@ 3862
функции 3862
инструменти 3860
Браун@@ 3859
няването 3858
тък 3857
чил 3857
войските 3856
привър@@ 3856
Част 3854
доказате@@ 3854
залива 3854
Кро@@ 3853
къщата 3853
Милано 3852
Ну@@ 3851
инициати@@ 3850
ника@@ 3849
загуби 3848
зада@@ 3848
кисе@@ 3848
произведен 3848
арестуван 3846
Португалия 3845
действа@@ 3845
преминават 3845
колкото 3843
българ@@ 3842
космиче@@ 3842
Европейския 3840
прияте@@ 3839
лив 3838
общи@@ 3837
публиката 3836
действ@@ 3835
Словения 3834
Ис@@ 3833
Ели@@ 3832
стъл@@ 3831
гате@@ 3829
тие 3829
деля 3828
избухването 3828
отборът 3828
пан 3828
фор 3827
жия 3822
психи@@ 3822
документа@@ 3820
Атанас 3819
гласу@@ 3819
запазени 3819
Насау 3817
дърво 3817
отне@@ 3817
рания 3816
цент 3816
култури 3815
особе@@ 3815
er@@ 3814
Скоро 3814
позволя@@ 3814
синте@@ 3813
технически 3813
гент 3812
Зи@@ 3811
1885 3810
цер@@ 3807
05 3806
единственият 3806
съдържание 3806
Бела@@ 3805
Вален@@ 3805
редо@@ 3805
ващия 3804
лева 3803
рова@@ 3800
Антон 3799
индуст@@ 3798
шаване 3798
06 3797
Солу@@ 3796
нологи@@ 3796
Лат@@ 3794
Сим@@ 3794
поне@@ 3794
радио 3794
Конго 3793
r@@ 3792
1873 3791
нини 3791
проекти@@ 3791
Втора 3790
рел 3787
ство@@ 3785
фт 3785
Али@@ 3784
взри@@ 3784
слад@@ 3784
Ла 3783
паз@@ 3783
Вся@@ 3782
бон 3782
после@@ 3780
устройство 3777
Освобо@@ 3776
гат@@ 3776
дам 3776
лег@@ 3776
наблюдава 3776
логията 3775
Виктор 3773
N 3771
езера 3770
коно@@ 3770
Фла@@ 3768
зад@@ 3768
подобно 3768
минера@@ 3767
въпрос 3766
Неа@@ 3765
новена 3765
la 3763
Управ@@ 3763
водач 3763
старата 3763
Филипи@@ 3760
чужбина 3760
om@@ 3759
ителната 3758
йците 3758
Цариград 3756
зина 3756
надесет 3756
участник 3756
бежанци 3755
Ц 3754
ента 3754
реле@@ 3753
лизация 3752
ност@@ 3752
яко@@ 3752
подготовка 3750
целта 3750
ефектив@@ 3749
търси 3748
Пат@@ 3747
ковод@@ 3746
пояснение 3745
Шо@@ 3744
престо@@ 3743
Пит@@ 3742
поставени 3741
сва 3741
наи@@ 3740
Съвета 3739
древно@@ 3739
жката 3739
придобива 3739
армен@@ 3738
пос@@ 3738
Велико 3737
продуци@@ 3737
Численост 3736
региона@@ 3735
кралица 3734
реш@@ 3734
фелд 3734
&#124; 3733
накрая 3731
отстъп@@ 3731
ракет@@ 3730
Олимпи@@ 3729
съветник 3729
съветски 3729
ядре@@ 3729
доли@@ 3728
кръст 3727
стопанство 3727
мол@@ 3726
получа@@ 3726
Херман 3725
горе 3724
слабо 3724
кват 3723
твърде 3721
Среща 3720
Бавария 3719
дебютира 3719
драв@@ 3718
закон 3718
дс 3717
доброво@@ 3716
ata 3715
er 3715
Майкъл 3715
бран@@ 3715
обслуж@@ 3715
повърхността 3714
национални 3713
мю@@ 3712
низация 3712
Вит@@ 3711
водите 3711
драмати@@ 3707
турци 3706
дейности 3705
осъщест@@ 3705
th@@ 3704
програми 3703
рез 3703
ге 3702
градата 3701
зон 3701
поро@@ 3701
вода@@ 3699
рич 3699
категория 3698
статии 3698
ученици 3698
ждан@@ 3697
шан@@ 3697
македоно 3696
крайцер 3694
ничка 3694
местен 3693
процеса 3693
Ирландия 3692
Оскар 3692
убива 3692
Кей@@ 3691
Роб@@ 3691
минът 3691
карти@@ 3690
лият 3690
Руско 3689
единици 3689
източните 3688
обществото 3688
партии 3688
експедиция 3687
звезда 3687
пясъ@@ 3686
Кралство 3684
броят 3683
концеп@@ 3683
ствия 3683
церемо@@ 3683
офор@@ 3681
сбор@@ 3681
ждение 3680
звание 3680
Истори@@ 3679
Роман@@ 3678
фестивал 3677
журналист 3676
медицина 3676
онова 3676
финанси@@ 3676
миш@@ 3675
смятат 3674
Методий 3672
архитектур@@ 3672
Чет@@ 3671
зел 3667
рос 3667
Сю@@ 3666
джу@@ 3665
опас@@ 3665
Виетнам 3664
жде@@ 3664
кович 3664
национална 3664
музикални 3663
250 3662
Оли@@ 3661
осно@@ 3661
Хел@@ 3659
архиепископ 3659
динами@@ 3659
Ей@@ 3657
американския 3657
мате@@ 3657
такава 3656
Лос 3655
етап 3655
любов 3655
всъщност 3654
ръка 3654
търсен@@ 3654
илю@@ 3653
употре@@ 3653
използвана 3652
метод 3652
играч 3651
фести@@ 3651
аку@@ 3649
став 3649
дина 3648
компании 3648
разруш@@ 3647
социация 3647
Акаде@@ 3646
ралните 3646
Еге@@ 3645
изиграва 3645
чар@@ 3645
хожда 3643
изборите 3642
Бори@@ 3641
напис@@ 3641
охра@@ 3638
малките 3637
Белград 3636
вди@@ 3636
подава 3635
Националния 3634
отстра@@ 3634
промяна 3634
сис 3634
характеристики 3634
скали 3632
границите 3631
Стоянов 3630
запад@@ 3630
олог 3630
хиля@@ 3630
Норвегия 3629
Съветския 3629
включени 3629
вци 3627
градче 3627
дефини@@ 3626
добро 3626
чването 3626
ционната 3625
04 3624
Николов 3624
отделя 3623
тично 3623
социалистиче@@ 3621
Z@@ 3618
Специ@@ 3617
водни 3617
дължи 3617
1901 3616
трени@@ 3616
предава 3614
чита 3613
I. 3612
еписко@@ 3612
парламентар@@ 3612
времена 3611
хаузен 3611
800 3610
Хю@@ 3610
гент@@ 3610
заболя@@ 3610
мисия 3609
дието 3607
писа@@ 3607
социали@@ 3607
зър@@ 3606
моз@@ 3605
забеля@@ 3604
дят 3603
помощник 3603
последният 3603
ляв 3599
нало 3599
отбори 3599
свети@@ 3599
турците 3598
напред@@ 3594
отговор@@ 3592
l 3591
Епи@@ 3591
глас 3591
куп@@ 3591
мунд 3591
ура 3591
обикол@@ 3590
ави@@ 3589
знак 3589
sa 3588
атака 3588
предварите@@ 3588
разделя 3587
второ 3586
династия 3586
лови@@ 3586
пес@@ 3585
специални 3585
неговият 3584
VIII 3583
Ган@@ 3583
остана@@ 3583
Бил 3582
тява 3582
форму@@ 3582
шките 3582
приблизително 3580
цбург 3580
изне@@ 3579
Босна 3578
годишната 3578
функция 3575
десен 3573
кана@@ 3573
културно 3572
оба@@ 3571
основател 3571
подо@@ 3571
кен 3570
черно@@ 3570
09 3569
k@@ 3569
имо@@ 3569
премест@@ 3569
Кристи@@ 3567
Харак@@ 3566
конкре@@ 3566
ЦК 3565
борбата 3565
сръбски 3565
новото 3563
оните 3563
Института 3561
бав@@ 3560
едноименния 3560
елемент 3560
забав@@ 3560
запознава 3560
предполага 3558
НС 3557
базата 3557
въстанието 3557
двор@@ 3557
самолети 3557
чът 3557
пазар 3556
Пана@@ 3555
Теле@@ 3555
араб@@ 3555
принуден 3554
систе@@ 3554
газо@@ 3553
лм 3553
ваните 3551
движението 3551
пари@@ 3551
убити 3551
Ива@@ 3550
братята 3550
занима@@ 3550
стено@@ 3550
каби@@ 3549
островите 3549
морската 3548
разнообраз@@ 3547
туристи@@ 3547
силите 3546
Баден 3545
нахлу@@ 3545
Ня@@ 3544
свързан 3543
нки 3542
окупи@@ 3542
язви@@ 3542
ol@@ 3540
индивиду@@ 3540
пример 3540
думата 3539
налите 3539
експеди@@ 3538
операции 3538
рас 3538
низацията 3536
догово@@ 3535
реда@@ 3535
земедели@@ 3534
магази@@ 3534
мис@@ 3534
x@@ 3533
свързана 3531
отговаря 3529
управител 3529
Окръг 3528
вий 3528
кино@@ 3528
конфликт 3528
играта 3527
изкуства 3527
каква 3527
равнина 3527
Кюстендил 3525
изглежда 3525
стични 3525
Кол@@ 3524
стро 3524
Албу@@ 3522
Ана@@ 3520
двора 3520
капита@@ 3520
сценарий 3519
вероя@@ 3518
ничи 3516
изма 3515
световно 3515
освободен 3513
певица 3513
македо@@ 3512
тат 3512
повод 3511
единица 3510
летие 3510
чените 3510
вията 3509
избира 3509
пусне 3509
Ори@@ 3507
уто 3507
Както 3506
преслед@@ 3505
вку@@ 3504
съобще@@ 3504
нината 3503
Пле@@ 3500
моду@@ 3499
списък 3499
Пъ@@ 3497
вод 3497
братовче@@ 3496
местното 3496
отбраната 3493
тон@@ 3493
учението 3493
хов@@ 3493
маните 3492
Юли@@ 3490
ляни 3490
сцената 3489
кува 3488
Асен 3486
създадени 3486
фен 3485
ней 3484
Лей@@ 3481
писмо 3480
Реги@@ 3479
замъка 3478
мова 3478
поля@@ 3478
Сър@@ 3477
сферата 3477
сар@@ 3475
хори@@ 3475
рието 3474
ническите 3473
земе@@ 3472
D 3471
Герман@@ 3471
Пот@@ 3471
Сви@@ 3471
епизод 3471
медици@@ 3471
спечели 3471
стически 3471
Съединени 3470
З 3469
теоре@@ 3469
Ричард 3467
стов 3467
това@@ 3467
уси@@ 3467
Перу 3466
Мен@@ 3465
тени 3465
Рек@@ 3463
катастро@@ 3463
православ@@ 3463
крайбрежи@@ 3462
мину@@ 3462
днев@@ 3460
шкия 3458
смисъл 3457
Зал@@ 3456
новски 3456
оставя 3456
талан@@ 3456
турни@@ 3456
стратеги@@ 3455
Списък 3453
кампания 3451
светлина 3451
частично 3451
шо 3450
завръщането 3449
трибу@@ 3448
кален@@ 3446
мигра@@ 3446
отговор 3446
мпи@@ 3445
03 3444
инвести@@ 3444
т. 3444
1895 3442
учител@@ 3441
прово@@ 3440
вземан@@ 3438
съдеб@@ 3438
драма 3436
морето 3435
трудно 3435
Лон@@ 3434
Съю@@ 3434
тик 3434
филмо@@ 3434
Ной@@ 3433
публикуван 3433
ърк@@ 3432
Гон@@ 3431
нощта 3431
църкви 3431
бек 3428
долина 3428
реди@@ 3428
съд@@ 3427
лети 3426
труда 3426
Андрей 3425
Аб@@ 3423
основна 3423
стените 3423
ing 3422
знае 3421
дълга 3419
мачове 3419
спът@@ 3419
to 3417
болница 3417
дър 3417
космически 3416
секун@@ 3416
главните 3415
стия 3415
прехвър@@ 3413
ходите 3412
медицин@@ 3411
памет 3411
повлия@@ 3411
притоци 3411
рица 3411
рация 3409
допри@@ 3408
писания 3407
тре 3407
Плевен 3406
Прав@@ 3406
запазва 3406
кви 3406
фамилия 3406
Рудолф 3405
Хор@@ 3405
лъчеперка 3403
Върхов@@ 3401
Сици@@ 3401
дик@@ 3401
офицери 3401
изпълняват 3400
сие 3400
разкази 3399
набро@@ 3397
строителството 3397
Тран@@ 3396
империята 3396
фрид 3396
био@@ 3395
граници 3395
второто 3394
физика 3394
циф@@ 3394
Гали@@ 3393
вещества 3393
испански 3393
Среднове@@ 3392
издига 3391
лекар@@ 3390
пътища 3389
фин@@ 3389
френската 3388
G 3385
възможността 3382
народ 3382
наде@@ 3381
позиции 3377
астро@@ 3376
южните 3376
Дон@@ 3375
каните 3375
ливи 3375
революцион@@ 3375
хът 3375
жба 3374
специализи@@ 3374
дадена 3373
корабо@@ 3373
Зиг@@ 3371
нична 3371
Същата 3370
пехотна 3369
07 3368
І@@ 3368
политиката 3368
см 3367
Област 3366
Получава 3365
борда 3364
Вашингтон 3363
Сен 3362
екзархия 3361
Сейнт 3360
удар 3360
традиция 3359
1896 3358
родителите 3358
ot@@ 3357
мове 3357
съдове 3357
лас 3356
приклю@@ 3356
Битоля 3355
северните 3355
Петербург 3354
приятели 3354
Христов 3352
предме@@ 3352
фюр@@ 3352
Габрово 3349
соли@@ 3349
доктор 3348
общава 3348
веднъж 3347
световен 3347
моги@@ 3346
усло@@ 3345
достъп 3344
художествена 3344
чужде@@ 3344
Зем@@ 3343
символ 3343
тела 3343
завладя@@ 3342
ръцете 3341
семей@@ 3341
мало@@ 3339
Зна@@ 3337
Инди@@ 3337
ай@@ 3336
водосборния 3336
полза 3336
рови@@ 3335
избух@@ 3334
състезания 3334
венството 3333
дните 3333
лато 3333
определят 3333
ради 3333
морска 3332
c 3331
Дебю@@ 3331
Бол@@ 3330
ползва@@ 3330
отго@@ 3328
Българска 3327
Кипър 3327
ске@@ 3327
диалект 3326
Среди@@ 3325
Анге@@ 3323
венту@@ 3322
дири@@ 3322
тежко 3322
зор@@ 3321
интен@@ 3321
вер 3320
методи 3319
ителното 3318
чети@@ 3318
тъл@@ 3316
сус 3315
механиз@@ 3314
нец 3314
сение 3314
колони@@ 3313
купата 3313
пенси@@ 3313
изисква 3312
дския 3311
лезе 3311
подви@@ 3311
ителят 3310
сро@@ 3310
лост@@ 3309
поче@@ 3309
технологии 3309
дон@@ 3306
пка 3305
градите 3304
придру@@ 3304
случа@@ 3304
чан@@ 3304
ено@@ 3303
министер@@ 3303
тий 3303
листа 3301
ьон@@ 3301
надпис 3300
нителна 3300
щен@@ 3300
дипломати@@ 3298
Дания 3297
СС 3297
вкарва 3297
позицията 3297
en@@ 3296
Луис 3295
банка 3294
губ@@ 3294
ку 3294
текстове 3294
дебют 3293
Илин@@ 3292
осигу@@ 3292
американските 3291
мнение 3291
природата 3291
десет@@ 3290
домини@@ 3290
стари 3290
Ах@@ 3289
Северен 3289
уника@@ 3289
Групата 3288
актьор@@ 3288
молеку@@ 3288
скон@@ 3287
популярност 3286
важен 3284
жно 3282
конструкция 3282
чов 3282
домакинства 3281
ниска 3281
гар 3280
двор 3280
джър 3280
партизан@@ 3280
ch@@ 3279
раждането 3279
ВМРО 3278
европейските 3278
Проек@@ 3277
събират 3277
кило@@ 3276
император@@ 3275
линг 3275
мигран@@ 3275
неза@@ 3275
an@@ 3273
жанра 3273
останали 3273
поте@@ 3271
стката 3271
Виз@@ 3270
Коми@@ 3270
Черна 3270
бори 3270
съпротив@@ 3269
една@@ 3267
избе@@ 3267
конкурс 3267
преме@@ 3266
оли@@ 3264
опълчение 3264
горната 3263
дол 3263
нова@@ 3263
жието 3261
окупа@@ 3261
Бат@@ 3260
кохо@@ 3260
лагер 3259
цов 3259
гау 3258
Мел@@ 3257
вят 3256
музикален 3254
бавно 3253
навлиза 3253
директно 3251
процеси 3251
свири 3251
важ@@ 3248
отправ@@ 3248
Венеция 3247
желез@@ 3247
отхвър@@ 3247
Черно 3245
тече 3245
1899 3244
хите 3244
Нача@@ 3243
лийски 3243
съм 3242
двигател 3241
трима 3241
уда@@ 3240
01 3239
рил 3239
am@@ 3238
лечение 3238
романи 3238
Йосиф 3237
Кристиан 3237
Малайзия 3237
корабите 3237
независимо 3237
свобода 3237
транспорт 3237
Ада@@ 3236
каче@@ 3236
119@@ 3235
признава 3234
чево 3234
институции 3233
пътува 3233
Анаста@@ 3232
източния 3232
португа@@ 3232
курс 3231
мести 3231
звезди 3230
научна 3229
h 3227
влади@@ 3227
нс 3227
отношенията 3226
Анджелис 3225
Често 3225
интернет 3225
Ур@@ 3224
природни 3224
карта 3223
нските 3223
внимание 3222
значителни 3222
боли@@ 3221
жително 3221
Подоб@@ 3220
обшир@@ 3219
ръководство 3219
es 3218
заре@@ 3218
споразумение 3218
наука 3216
промишленост 3216
Оби@@ 3215
лиде@@ 3215
трябвало 3215
ут 3215
поред@@ 3214
Гьо@@ 3210
Хам@@ 3210
Санкт 3209
капаците@@ 3209
студент@@ 3209
археологически 3208
въста@@ 3208
бер 3207
кано@@ 3207
криза 3206
Гю@@ 3205
ърът 3205
Ебер@@ 3204
лона 3204
самата 3204
застра@@ 3202
слава 3202
Йордан 3201
изва@@ 3201
копия 3200
опити 3200
срав@@ 3200
Произ@@ 3199
загуба 3199
Хаджи@@ 3198
Ген@@ 3197
военната 3197
Кристо@@ 3196
аристокра@@ 3195
кули 3195
риал@@ 3195
Няколко 3194
тическия 3194
Йозеф 3193
мино@@ 3193
широка 3193
разстояние 3191
останки 3190
съчета@@ 3190
ненията 3189
задача 3188
ловина 3188
прести@@ 3188
трона 3188
японски 3188
следи 3187
услуги 3186
млади 3185
окси@@ 3184
служе@@ 3184
Римска 3183
излъчва 3183
инженер 3183
чин@@ 3183
Каролина 3182
потенци@@ 3181
преврат 3181
Гран@@ 3180
Фон@@ 3180
меня@@ 3180
нищо 3180
окончателно 3180
врата 3179
определена 3179
третата 3179
едни 3177
стване 3176
жете 3175
латински 3174
огън 3174
противоре@@ 3174
зали@@ 3173
чата 3173
чко 3173
Пие@@ 3171
ar@@ 3170
oc@@ 3170
пресел@@ 3170
Сити 3168
профе@@ 3168
Радо@@ 3167
Швар@@ 3167
пътеше@@ 3166
An@@ 3165
препоръ@@ 3165
старши 3165
Пау@@ 3162
видео 3162
кс@@ 3162
ох@@ 3162
купа 3161
работе@@ 3161
ходът 3161
АН 3160
кг 3160
славян@@ 3160
жества 3159
насочва 3158
събор 3158
варят 3157
ЕС 3156
$ 3155
Агнес 3155
минист@@ 3154
наличието 3154
ока@@ 3154
Извест@@ 3153
откло@@ 3153
разтво@@ 3153
сериозно 3153
порт 3152
обяс@@ 3151
тови 3151
Смо@@ 3149
устойчи@@ 3149
идеи 3148
носа 3146
чак 3145
воден 3144
4,@@ 3143
жп 3143
отве@@ 3143
яд@@ 3142
еже@@ 3141
освобод@@ 3141
тово 3141
1876 3140
Шан@@ 3140
зони 3140
j@@ 3137
Тайланд 3137
Световната 3136
Стар@@ 3136
сце@@ 3136
гради 3133
малкото 3132
силен 3132
матът 3131
меж@@ 3130
мощност 3130
прило@@ 3130
модели 3127
недостатъ@@ 3126
резиден@@ 3124
автомати@@ 3123
вита@@ 3123
парламент 3123
сада 3123
съпротива 3122
Уол@@ 3121
течението 3121
граничи 3120
климат 3120
любо@@ 3120
предаване 3120
андар@@ 3119
драта 3119
Лео@@ 3118
Само 3118
Със 3118
високите 3117
лагане 3117
разглежда 3117
лил 3116
Обще@@ 3115
ря 3115
нарежда 3114
комен@@ 3112
наци@@ 3112
преоблада@@ 3112
влиянието 3111
фли@@ 3111
Анд@@ 3110
лии 3110
торпе@@ 3110
стоят 3109
клетки 3108
метъл 3108
Вил@@ 3107
Симеон 3106
кер 3106
1894 3105
бин 3105
издания 3105
как@@ 3105
вул@@ 3101
ровка 3101
Ловеч 3100
жесто@@ 3100
лям 3100
мах@@ 3100
U@@ 3099
Им@@ 3099
Шумен 3099
лод@@ 3098
совете 3098
направени 3097
трета 3097
Син 3096
Сирия 3096
бани 3095
дире@@ 3095
неф@@ 3095
дружина 3093
иск@@ 3093
лета 3093
Йоа@@ 3092
бом@@ 3091
герои 3091
икономиката 3091
Вън@@ 3090
Шарл 3090
газ 3090
писанието 3090
ду 3089
инженер@@ 3089
омъжена 3089
участък 3088
жени@@ 3087
фре@@ 3086
гал 3085
бившия 3084
Анхалт 3083
вати@@ 3082
положението 3082
фар@@ 3082
1,@@ 3081
кет 3081
адмирал 3080
Ля@@ 3078
Стани@@ 3078
ническата 3078
псевдо@@ 3078
кандидат 3077
редов@@ 3077
зеку@@ 3076
Попов 3075
органи 3075
схе@@ 3075
Продъл@@ 3074
Югоизточна 3074
картини 3074
IX 3073
изграден 3073
место@@ 3073
основано 3072
възрожден@@ 3071
художници 3071
имената 3070
самият 3070
домакин@@ 3069
Лау@@ 3068
фурт 3068
Квин@@ 3067
Ханс 3067
ванге@@ 3067
хал@@ 3067
институ@@ 3066
Пло@@ 3065
важните 3065
консер@@ 3065
пустин@@ 3065
700 3064
анализ 3064
третия 3064
XVIII 3062
младе@@ 3062
проблем 3062
степен@@ 3062
връзката 3060
Бой@@ 3059
шър 3058
Охридски 3057
декора@@ 3057
тради@@ 3057
Кос@@ 3056
държат 3055
продуцент 3055
произведе@@ 3055
Хърватия 3054
факта 3054
Христо@@ 3053
функ@@ 3053
ционния 3053
денията 3051
изобре@@ 3051
нараст@@ 3051
различен 3050
Хъ@@ 3049
арабски 3049
гъл@@ 3049
построени 3049
шест@@ 3049
Армения 3047
добровол@@ 3047
коали@@ 3047
льо 3047
женен 3046
наследява 3045
ч. 3044
чини 3044
стар 3043
Маргарета 3042
стади@@ 3042
тинген 3042
id@@ 3041
Дължината 3041
ато 3041
гимназията 3041
сня@@ 3041
кер@@ 3039
Стой@@ 3037
махала 3037
обявена 3037
огро@@ 3037
писатели 3037
лек 3036
даде 3035
ствения 3034
Дит@@ 3033
Тръ@@ 3033
качеството 3033
R 3032
Ал 3032
рибо@@ 3032
гани 3031
въздуха 3030
Бранденбург 3028
Дре@@ 3028
Обе@@ 3028
известния 3028
l@@ 3027
шко@@ 3027
копа@@ 3026
пале@@ 3026
Ангел 3025
Танзания 3025
прия@@ 3025
щем 3025
съби@@ 3023
дев 3021
Вюртемберг 3019
Санд@@ 3019
Мех@@ 3018
олимпи@@ 3018
ІІ 3017
няко@@ 3017
1880 3016
1898 3016
XIV 3016
Брю@@ 3016
Мадрид 3016
итите 3016
Прага 3015
чеството 3015
астроно@@ 3014
нира 3014
Луиза 3013
Лом@@ 3012
Оу@@ 3012
посредством 3011
озву@@ 3010
сас 3009
сест@@ 3008
1897 3006
op@@ 3006
год@@ 3004
обика@@ 3004
градина 3003
кру@@ 3003
Шот@@ 3002
Ат@@ 3001
щер@@ 3000
разрабо@@ 2999
Пала@@ 2998
остро@@ 2998
съдържат 2997
лато@@ 2996
моди@@ 2996
фов 2996
5,@@ 2995
сет 2995
направ@@ 2993
вариан@@ 2992
нович 2992
треб@@ 2992
решения 2990
M 2989
Ща@@ 2988
стин 2987
Москов@@ 2985
Мю@@ 2985
продаж@@ 2985
пора@@ 2983
рев 2983
съвърш@@ 2983
ur@@ 2982
Ад@@ 2982
биологи@@ 2982
изго@@ 2982
кари@@ 2982
образовате@@ 2982
атова 2979
устройства 2979
Погре@@ 2978
рю@@ 2978
Цве@@ 2977
градската 2977
бере 2975
маркграф 2975
мски 2975
Хър@@ 2973
тем@@ 2972
Инте@@ 2970
Лит@@ 2970
стер 2969
ано@@ 2968
привле@@ 2968
Добру@@ 2967
лате@@ 2967
тс 2965
Локомотив 2962
дивизи@@ 2959
императора 2959
тим 2959
Вну@@ 2958
закона 2958
наше@@ 2958
11@@ 2957
придоби@@ 2957
кварта@@ 2955
подкре@@ 2955
рита 2955
сражение 2955
После@@ 2954
Торино 2954
обозна@@ 2954
Пазар@@ 2952
наб@@ 2952
лидер 2951
пропаганда 2951
рио 2951
композитор 2950
отда@@ 2950
Преми@@ 2948
Тар@@ 2948
зана@@ 2948
пер 2948
турне 2948
Виктория 2947
гвай 2947
природ@@ 2947
Фро@@ 2944
T 2942
Оре@@ 2941
ети@@ 2941
Мати@@ 2940
персона@@ 2939
равно@@ 2938
финан@@ 2938
пилот 2937
посеща@@ 2935
Майка 2934
бана 2934
буди@@ 2934
Con@@ 2933
заво@@ 2933
обуча@@ 2933
приложение 2933
зана 2929
Бей@@ 2928
” 2927
ina 2926
уд 2926
леп@@ 2925
нави@@ 2923
мора@@ 2922
перси@@ 2921
НК 2919
доку@@ 2919
рика 2919
u@@ 2916
пър 2916
гард 2915
блъ@@ 2914
нау 2913
атмо@@ 2911
шен@@ 2911
бог@@ 2910
Гот@@ 2909
социа@@ 2909
XVI 2908
вис 2908
съю@@ 2908
Ден@@ 2907
предотвра@@ 2907
зах@@ 2906
Чехия 2905
музе@@ 2904
сфе@@ 2903
тис 2903
Зим@@ 2902
бол 2902
сира 2902
кос 2901
джик 2900
йно 2900
латин@@ 2899
теми 2898
тол@@ 2898
Стре@@ 2897
председате@@ 2897
Ян 2896
включен 2896
кино 2895
русали@@ 2895
приме@@ 2894
бежан@@ 2893
Цар@@ 2892
отделение 2892
сон@@ 2892
Иса@@ 2891
законодате@@ 2891
видно 2890
вследствие 2890
договора 2890
Георги@@ 2889
самолет 2889
Богороди@@ 2888
Кари@@ 2888
версии 2886
хов 2886
Михай@@ 2885
Свобо@@ 2884
обу@@ 2883
самолета 2883
m@@ 2882
Доро@@ 2882
Поч@@ 2882
нан 2882
Брай@@ 2881
Гене@@ 2881
ключ@@ 2881
поколение 2880
Мат@@ 2879
щта 2878
Кю@@ 2877
стота 2877
бей 2876
сента 2876
O 2875
свобод@@ 2875
всем 2874
ел@@ 2874
нят 2874
други@@ 2873
управ@@ 2872
Жа@@ 2869
Яко@@ 2869
плу@@ 2869
бета 2868
p 2867
Сил@@ 2867
керами@@ 2865
поведение 2865
Пал@@ 2864
спорт 2864
квадра@@ 2863
ът@@ 2862
хт 2860
1890 2859
брони@@ 2858
TV 2856
Санта 2856
лит@@ 2856
нка 2855
1500 2854
аври@@ 2852
Берн@@ 2850
Офици@@ 2850
маршал 2850
ag@@ 2849
принцип 2847
софи@@ 2847
Свето@@ 2846
фонд 2846
госпо@@ 2843
нета 2843
продукт 2843
E 2841
баро@@ 2840
деление 2840
опера 2840
Дис@@ 2839
Ново@@ 2837
интерв@@ 2835
Ar@@ 2834
провинции 2834
мп@@ 2831
зна 2830
Судан 2829
завод 2828
казате@@ 2828
1879 2827
Дет@@ 2827
гаран@@ 2827
конструк@@ 2826
лик 2826
ранен 2826
реду@@ 2826
щица 2826
z@@ 2824
боя 2824
пожа@@ 2823
1891 2822
аресту@@ 2821
Трен@@ 2820
идея 2819
пур 2819
Все 2817
v@@ 2816
особ@@ 2815
Парти@@ 2813
Поп@@ 2813
конкурен@@ 2813
фоку@@ 2813
виде@@ 2812
духо@@ 2811
пев@@ 2808
рист 2808
огра@@ 2807
археологи@@ 2806
Вест@@ 2805
гов@@ 2804
́ 2803
уст@@ 2803
дарение 2802
нично 2802
сте 2802
паци@@ 2801
спира 2801
онат 2800
химия 2800
душ@@ 2799
Христи@@ 2798
дисципли@@ 2797
ta 2795
тур 2795
анга@@ 2794
фе 2794
бара@@ 2793
ял 2793
муску@@ 2792
философ@@ 2792
инци@@ 2790
ранг 2789
иденти@@ 2788
нации 2787
стие 2786
ливо@@ 2785
цеговина 2785
Константи@@ 2784
kg 2783
Хан@@ 2783
бар 2783
чле@@ 2782
Народно 2781
Ита@@ 2780
циан@@ 2780
Ката@@ 2779
архите@@ 2778
Бог 2777
доров 2777
Кло@@ 2775
P 2774
Мно@@ 2771
благоприя@@ 2770
вит@@ 2770
Катарина 2769
it@@ 2767
вание 2767
момента 2767
хен@@ 2765
Древ@@ 2762
пола 2759
гражда@@ 2758
маршру@@ 2758
Науч@@ 2757
имену@@ 2757
дели 2756
рекор@@ 2756
господ@@ 2755
библиоте@@ 2753
метео@@ 2753
фай@@ 2753
арх@@ 2750
бру@@ 2750
депутат 2750
цион@@ 2750
1870 2748
виг 2747
компонен@@ 2746
сор 2746
историк 2745
Цари@@ 2742
сно@@ 2742
правила 2741
публикан@@ 2740
т.@@ 2740
ума 2740
дания 2739
лар 2739
лат 2739
кол 2738
свойства 2736
7,@@ 2735
карто@@ 2735
отка@@ 2735
дес 2732
компа@@ 2732
Al@@ 2731
Теодор 2731
Car@@ 2730
бак@@ 2727
Най@@ 2724
воз@@ 2723
научно 2722
6,@@ 2719
провод@@ 2719
устрой@@ 2719
люб@@ 2718
конфлик@@ 2717
споме@@ 2717
бук@@ 2716
серта@@ 2716
жината 2715
180 2713
нуж@@ 2713
фри@@ 2712
Оста@@ 2710
филосо@@ 2710
квар@@ 2709
успехи 2709
Корне@@ 2708
вара 2707
денбург 2707
is@@ 2704
Гео@@ 2704
иту@@ 2704
певец 2702
сай@@ 2702
Дне@@ 2701
Дя@@ 2701
характеристи@@ 2701
насле@@ 2700
яни 2700
Произве@@ 2699
конференция 2699
разнообрази@@ 2694
връщ@@ 2693
Бон@@ 2692
Шар@@ 2692
гря@@ 2692
попу@@ 2690
интерпре@@ 2689
потом@@ 2689
проду@@ 2689
обособ@@ 2688
парламента 2687
пр@@ 2687
Спартак 2686
визия 2686
евреи 2686
беля@@ 2685
веще@@ 2685
1893 2684
ник@@ 2682
Василий 2681
СК@@ 2681
важно 2681
мана 2679
полез@@ 2679
пов 2677
д. 2676
рд 2676
агре@@ 2675
близки 2675
брази@@ 2675
гови@@ 2675
Тем@@ 2673
грамо@@ 2673
средство 2672
Марко 2671
Близ@@ 2670
демо@@ 2670
кола 2670
цеп@@ 2669
участъ@@ 2668
случая 2666
демон@@ 2665
Пари@@ 2664
Уо@@ 2664
координа@@ 2663
Вселе@@ 2662
Полу@@ 2662
хла@@ 2660
Али 2659
Коле@@ 2658
флан@@ 2657
цилин@@ 2657
1889 2656
Мала@@ 2655
пълно 2653
сфера 2653
Рейн@@ 2652
Мет@@ 2648
Хаб@@ 2645
растение 2645
гнез@@ 2644
Изда@@ 2643
1892 2642
h@@ 2642
секретаря 2642
XVII 2641
Бран@@ 2641
пал@@ 2641
Боли@@ 2639
периоди@@ 2638
1886 2637
подчер@@ 2637
C. 2636
Люксем@@ 2635
абсолю@@ 2635
атри@@ 2635
ес 2634
вое@@ 2632
гор 2632
бара 2631
Гви@@ 2630
et@@ 2629
lo@@ 2629
нами@@ 2627
фер 2624
нич@@ 2623
вато@@ 2622
задачи 2622
лам@@ 2621
текста 2621
уско@@ 2621
3,@@ 2619
води@@ 2618
земпля@@ 2618
архиеписко@@ 2617
зас 2617
зена 2617
масо@@ 2617
гин@@ 2616
жие 2615
канад@@ 2615
наказа@@ 2614
трен@@ 2614
ul@@ 2613
заме@@ 2613
as@@ 2611
ti@@ 2611
Бун@@ 2611
шил 2608
Австри@@ 2606
Вале@@ 2606
стент 2606
били@@ 2605
криста@@ 2605
ринг 2605
автомобили 2603
обнов@@ 2603
Представ@@ 2602
евро 2602
южно@@ 2601
патриарх 2600
Постро@@ 2598
пору@@ 2598
вов 2596
лиш@@ 2596
пояс 2595
20@@ 2594
бик 2594
сектор 2594
Блан@@ 2592
позво@@ 2592
худож@@ 2592
бестсел@@ 2591
семина@@ 2591
лес@@ 2589
меда@@ 2589
тара 2589
акть@@ 2588
курор@@ 2588
вед@@ 2587
джан@@ 2587
Чили 2586
заслу@@ 2586
навли@@ 2586
1881 2585
вален@@ 2585
Иск@@ 2584
вертика@@ 2583
плен@@ 2581
чеш@@ 2579
национали@@ 2578
арт 2577
кологи@@ 2577
плавате@@ 2577
пус@@ 2577
тания 2577
тюр@@ 2577
Кала@@ 2574
Плов@@ 2574
комедия 2574
невро@@ 2574
забо@@ 2572
кавале@@ 2570
Косово 2568
реак@@ 2567
слой 2567
ужа@@ 2567
шево 2566
Мир@@ 2565
ту 2565
Профе@@ 2564
администрация 2564
сена@@ 2563
Фол@@ 2562
вки 2560
нк@@ 2559
гни@@ 2558
сов@@ 2558
Особ@@ 2557
психологи@@ 2557
дация 2556
учред@@ 2556
Лим@@ 2555
УЕФА 2555
Сей@@ 2554
Бого@@ 2553
концерт 2552
отрицате@@ 2552
кримина@@ 2551
убийство 2551
Флорен@@ 2550
лицен@@ 2550
псевдони@@ 2550
уми@@ 2550
характе@@ 2550
os@@ 2549
120@@ 2547
провер@@ 2547
фра@@ 2545
досто@@ 2544
бакала@@ 2543
функциона@@ 2543
огъ@@ 2541
дек@@ 2540
лем 2539
1,5 2538
Ун@@ 2536
k 2535
НАС@@ 2535
явление 2535
хтен@@ 2534
диалек@@ 2533
осве@@ 2532
1884 2531
парка 2531
религи@@ 2529
118@@ 2527
no@@ 2527
Наполеон 2526
уро@@ 2526
ученик 2524
произведение 2523
1883 2522
термин 2522
Две 2521
ели 2521
телефон@@ 2521
бронзо@@ 2519
зеф 2518
лива@@ 2518
зале@@ 2516
клуб@@ 2516
наши 2516
Жу@@ 2513
авиа@@ 2513
ия 2513
чай@@ 2513
статистиче@@ 2512
француз@@ 2512
лун@@ 2511
мпе@@ 2510
b 2509
Бог@@ 2509
риту@@ 2509
желание 2508
Архите@@ 2507
Гло@@ 2507
Конститу@@ 2507
супер@@ 2506
Миха@@ 2504
вене@@ 2503
топо@@ 2502
чете 2502
u 2501
пена 2501
3000 2500
сухо@@ 2500
вел 2499
чели 2499
машина 2498
разгро@@ 2498
сам@@ 2498
ада@@ 2497
поли 2497
ФИ@@ 2495
армии 2495
нта 2495
учре@@ 2495
написана 2493
отря@@ 2493
изклю@@ 2492
следовате@@ 2492
кад@@ 2491
с. 2490
статъ@@ 2490
водство 2489
План@@ 2488
ваку@@ 2488
ленд 2488
Гал@@ 2486
блу@@ 2486
ента@@ 2486
мото@@ 2486
биографи@@ 2484
инфра@@ 2484
концентра@@ 2483
народа 2483
музея 2481
протестан@@ 2481
глу@@ 2480
именова@@ 2480
шоу 2480
Адриа@@ 2479
зин 2479
рами@@ 2478
Th@@ 2477
гуа 2477
Диа@@ 2476
Вре@@ 2475
Казахстан 2475
океан@@ 2475
просвет@@ 2475
квалифика@@ 2474
подроб@@ 2474
сюже@@ 2474
ром 2470
ica 2469
Тя@@ 2469
отра@@ 2469
Сел@@ 2468
бит 2468
документ 2467
нелега@@ 2466
ec@@ 2465
Шарло@@ 2465
необходимо 2465
парат 2465
Слова@@ 2463
импера@@ 2463
фраг@@ 2462
Windows 2459
гно@@ 2459
отбо@@ 2459
брю@@ 2457
лаборато@@ 2457
простран@@ 2457
1860 2456
меч@@ 2456
опти@@ 2455
чисто 2455
Административно 2452
Максимили@@ 2451
египет@@ 2448
вили 2447
деле@@ 2447
доба@@ 2447
мос 2445
деш 2444
лята 2442
стихотво@@ 2442
кандидат@@ 2441
Река 2440
изграждан@@ 2440
пота@@ 2440
преду@@ 2439
многократно 2438
гера 2436
лян@@ 2435
одобре@@ 2435
противника 2435
оз@@ 2434
ana 2433
бат 2433
вне@@ 2433
ману@@ 2433
внима@@ 2432
урав@@ 2432
дора 2431
ез@@ 2431
удостоен 2431
Пей@@ 2430
Граждан@@ 2429
Ся@@ 2429
пати@@ 2429
кост@@ 2428
фабри@@ 2428
ждения 2427
Дире@@ 2425
ного 2425
фигура 2425
Авгу@@ 2424
Нобе@@ 2424
Божи@@ 2423
Фар@@ 2422
фирма 2422
XV 2421
рум 2420
доктор@@ 2418
тра 2418
венство 2417
Ир@@ 2416
упраж@@ 2416
активи@@ 2415
десан@@ 2415
обре@@ 2413
реакция 2412
организ@@ 2411
зат 2408
рка 2408
дизайн 2406
педагоги@@ 2406
Фил@@ 2405
ro@@ 2404
акт 2404
дание 2402
Музе@@ 2400
XII 2399
Рели@@ 2399
кис 2398
Population 2397
средо@@ 2397
em@@ 2396
положен 2394
ов 2393
дю@@ 2392
Без@@ 2391
Макси@@ 2391
марка 2390
сите@@ 2390
хар 2390
Од@@ 2389
Лига 2387
160 2386
Мето@@ 2386
Chré@@ 2385
Macédoine 2384
Мада@@ 2384
дей 2384
tienne 2383
Констан@@ 2383
плато 2383
реч@@ 2383
щин@@ 2383
преподавате@@ 2381
Зам@@ 2380
двигатели 2380
небе@@ 2380
Иде@@ 2379
Кост@@ 2378
фили@@ 2378
драматур@@ 2376
оно@@ 2376
толе@@ 2376
См@@ 2375
тал 2375
удо@@ 2375
1888 2374
2,@@ 2374
корпуса 2374
резо@@ 2373
типо@@ 2373
Исто@@ 2372
хор 2371
alis 2369
усп@@ 2369
Фер@@ 2367
коли@@ 2364
предложение 2362
секре@@ 2361
Клу@@ 2359
Смит 2359
брон@@ 2359
сей 2359
Нар@@ 2357
архе@@ 2357
пиано 2354
ктура 2353
рази@@ 2353
Мей@@ 2352
Над 2351
гарни@@ 2351
лекту@@ 2351
сак@@ 2351
армей@@ 2350
подар@@ 2350
Худо@@ 2349
атак@@ 2349
лое 2349
фрон@@ 2348
зонта@@ 2346
сино@@ 2346
услу@@ 2345
избирате@@ 2344
фабрика 2344
Дом 2342
стила 2340
Мил@@ 2338
депутат@@ 2337
пля@@ 2336
Джей@@ 2335
Сай@@ 2335
Григорий 2334
начи@@ 2334
Ас@@ 2333
идентифици@@ 2330
Апосто@@ 2329
Федера@@ 2329
рота 2328
Сергей 2327
ам 2327
цио 2327
тила 2326
номина@@ 2325
уве@@ 2325
усилия 2325
нии 2324
свободно 2324
нападение 2323
техни@@ 2323
снаря@@ 2322
вме@@ 2321
цу 2321
Рейн 2320
дене 2320
защитник 2320
популя@@ 2318
Над@@ 2317
действи@@ 2317
хен 2317
Бла@@ 2315
ари@@ 2313
инду@@ 2313
часов@@ 2313
шел 2312
Адри@@ 2311
Касте@@ 2311
личности 2311
предпочита@@ 2311
бас 2310
кардина@@ 2310
кура@@ 2309
Председате@@ 2307
мел@@ 2307
отлич@@ 2307
1848 2305
жет 2304
сценарист 2304
югослав@@ 2304
ува@@ 2303
блок 2300
предприятия 2299
находи@@ 2298
прогре@@ 2298
стиче@@ 2298
Хил@@ 2297
входа 2296
одоб@@ 2295
фини@@ 2295
XI 2294
ремон@@ 2294
Балти@@ 2293
заря@@ 2293
пейза@@ 2291
1882 2290
фред 2289
8,@@ 2288
НЕ@@ 2288
посред@@ 2288
маг@@ 2287
петро@@ 2287
Теат@@ 2285
изображения 2284
брат@@ 2282
бра 2281
рестав@@ 2281
итер 2280
скар 2280
Спор@@ 2279
Фут@@ 2279
смен@@ 2279
табли@@ 2278
взи@@ 2277
кисло@@ 2277
благотво@@ 2276
укре@@ 2276
Резу@@ 2275
зда@@ 2275
Оде@@ 2274
жина 2273
преодо@@ 2273
енер@@ 2272
1871 2271
зя@@ 2271
роб@@ 2271
шан 2271
Сало@@ 2270
предо@@ 2270
брака 2268
говорят 2268
XIII 2267
Зав@@ 2267
начал@@ 2267
el 2266
Вероятно 2266
вения 2265
упо@@ 2265
Соло@@ 2264
Флорида 2264
лз 2264
норве@@ 2264
гиган@@ 2262
W 2261
1887 2260
Стефа@@ 2260
Уч@@ 2260
ri@@ 2258
Вирджи@@ 2258
рар@@ 2257
Адам 2256
дово 2256
освобожда@@ 2256
полице@@ 2256
Киев 2255
бело@@ 2253
бус 2252
наблюда@@ 2251
тенден@@ 2251
икономи@@ 2250
хово 2250
поко@@ 2249
сформи@@ 2249
теч@@ 2248
at@@ 2247
Уил@@ 2247
нист 2247
ad@@ 2245
опе@@ 2245
ничество 2244
ауди@@ 2241
прибли@@ 2241
прими@@ 2241
цена 2241
9,@@ 2239
приблиз@@ 2235
тино 2235
хер@@ 2235
маши@@ 2234
очер@@ 2231
мала 2230
бат@@ 2229
традиции 2228
an 2227
Три 2227
евич 2226
Ан 2225
Петро@@ 2225
дели@@ 2225
стор 2225
ap@@ 2223
жиз@@ 2223
Да 2222
взаим@@ 2222
Дон 2220
зии 2220
Уру@@ 2218
Гър@@ 2217
вам 2217
il@@ 2216
Антонио 2216
мексикан@@ 2215
Си 2214
показате@@ 2214
говора 2213
изоли@@ 2213
числа 2213
юно@@ 2213
bi@@ 2212
наименование 2212
en 2211
практически 2211
профи@@ 2211
1875 2209
представля@@ 2208
бюро 2207
мал 2207
тинг 2207
Ната@@ 2205
рид 2205
Джон@@ 2204
кономика 2204
час 2204
Дер@@ 2203
успеха 2203
пур@@ 2202
конструи@@ 2201
вар 2200
звуко@@ 2200
конвен@@ 2200
менена 2200
li@@ 2199
чките 2199
Барсе@@ 2198
сход@@ 2198
Бир@@ 2197
обеща@@ 2197
• 2197
администра@@ 2196
докла@@ 2196
чан 2196
Библи@@ 2194
Мест@@ 2194
вло@@ 2194
дово@@ 2194
Кав@@ 2192
Дор@@ 2191
Жо@@ 2191
вал@@ 2190
1872 2189
инструмент 2189
Вси@@ 2188
команди@@ 2188
спира@@ 2188
Цвет@@ 2186
века 2186
норма@@ 2184
леку@@ 2183
Клуб@@ 2182
сх@@ 2182
приложения 2181
хим 2181
114@@ 2180
НАТО 2178
качества 2177
квали@@ 2177
фро@@ 2177
озна@@ 2176
ливо 2174
слуш@@ 2172
название 2171
обстоя@@ 2171
ремонт 2171
циони@@ 2171
Казан@@ 2170
Кот@@ 2170
чувства 2170
Ch@@ 2169
мемо@@ 2167
наход@@ 2166
os 2165
Вир@@ 2164
адап@@ 2163
скла@@ 2163
K 2162
лах 2160
Дви@@ 2159
Супер@@ 2159
r 2158
Лен@@ 2158
хирур@@ 2158
мара 2157
западно@@ 2156
Рио 2154
местности 2154
том@@ 2154
мато@@ 2152
популяри@@ 2151
реб@@ 2151
Tr@@ 2150
коман@@ 2149
тации 2149
es@@ 2148
Литера@@ 2148
Ник@@ 2148
лит 2148
печ@@ 2147
административно 2146
поражение 2146
юноше@@ 2144
140 2143
World 2143
звук 2142
сбо@@ 2142
Независи@@ 2141
автобу@@ 2139
аро@@ 2139
жил 2139
ников 2139
школ@@ 2138
Анри 2137
Манче@@ 2137
Тей@@ 2137
Сен@@ 2136
бълга@@ 2136
актри@@ 2135
мити@@ 2135
ру 2135
терна@@ 2135
рам 2134
станции 2133
чие 2133
сиона@@ 2132
Хуан 2128
as 2125
дент@@ 2124
оператив@@ 2123
единени 2122
Фели@@ 2121
включена 2121
неде@@ 2121
онлайн 2121
You 2120
di 2120
критика 2120
повторно 2119
приз@@ 2119
Аре@@ 2118
хин@@ 2118
брига@@ 2116
Юнайтед 2115
лага@@ 2115
разделена 2115
същност 2114
проби@@ 2113
at 2112
Известен 2112
130 2111
Карлос 2111
иници@@ 2111
показа@@ 2110
направление 2109
доро@@ 2108
пехот@@ 2107
рала 2107
перио@@ 2106
Сиг@@ 2104
оне 2104
Систе@@ 2103
Хей@@ 2103
буква@@ 2103
бек@@ 2102
ном 2102
2,5 2100
заклю@@ 2100
регули@@ 2100
достига@@ 2099
пони@@ 2099
дец 2098
пал 2098
H 2097
Франческо 2096
носи@@ 2096
Мило@@ 2095
In@@ 2094
Сло@@ 2093
вулка@@ 2093
защ@@ 2091
мит 2091
навод@@ 2089
og@@ 2088
вила 2088
гла 2087
фю@@ 2087
Мори@@ 2086
марк@@ 2086
Уай@@ 2085
Чехослова@@ 2085
атаки 2085
деви@@ 2085
разу@@ 2085
вей@@ 2083
полити@@ 2082
5000 2081
док@@ 2081
ей@@ 2080
лита 2080
сю@@ 2080
лосо@@ 2079
реа@@ 2077
Либе@@ 2076
Пис@@ 2075
балан@@ 2075
удоб@@ 2075
фикации 2073
Тере@@ 2072
ау@@ 2071
Le@@ 2070
st@@ 2069
зор 2069
интегра@@ 2069
бу 2068
лока@@ 2068
австрали@@ 2066
обх@@ 2066
рун@@ 2066
Архе@@ 2065
тях@@ 2064
Кита@@ 2063
връщането 2063
забеле@@ 2063
строй 2062
шпи@@ 2061
Рим@@ 2060
дит 2059
сей@@ 2059
Обла@@ 2058
кой@@ 2058
Афгани@@ 2057
изгна@@ 2057
арда 2056
Кова@@ 2055
читате@@ 2055
or 2054
Вод@@ 2053
престола 2052
Нан@@ 2051
кир@@ 2051
низма 2051
посет@@ 2051
сара@@ 2051
1869 2050
WWE 2050
марки@@ 2049
115@@ 2048
tr@@ 2048
Союз 2048
Жене@@ 2047
Маро@@ 2047
Приме@@ 2047
мии 2047
‰ 2047
1867 2046
чувств@@ 2046
швейцар@@ 2046
1864 2045
вир@@ 2045
него@@ 2045
декла@@ 2044
поток 2044
Основан 2043
Y@@ 2042
Университе@@ 2038
проник@@ 2038
Нем@@ 2037
зим@@ 2037
ровки 2037
зени@@ 2036
дирек@@ 2035
Архан@@ 2034
ar 2033
записи 2033
щения 2033
избо@@ 2032
Водо@@ 2031
Уа@@ 2030
осъще@@ 2030
отри@@ 2030
St@@ 2029
Том 2029
количества 2029
нарко@@ 2029
Каро@@ 2028
пел 2028
Австро 2027
вино 2027
ys 2025
видеокли@@ 2024
глежда 2024
зер 2024
110 2023
900 2023
мей 2023
среднове@@ 2023
Уин@@ 2020
кух@@ 2019
орга@@ 2018
Кер@@ 2017
ed 2016
разо@@ 2016
ид 2015
категори@@ 2014
количе@@ 2014
антро@@ 2011
описание 2010
отноше@@ 2010
оче@@ 2009
рек 2009
иза 2007
карва 2007
архипе@@ 2006
бити@@ 2005
гато 2005
Мюн@@ 2004
Франк@@ 2002
граду@@ 2002
забе@@ 2001
Мака@@ 1997
писателя 1997
aceae 1995
le@@ 1994
Фернан@@ 1993
кса 1993
сков 1993
Ени@@ 1992
Фреде@@ 1992
стви@@ 1992
тно@@ 1992
либера@@ 1991
апосто@@ 1990
закон@@ 1989
Мора@@ 1986
лагер@@ 1986
Конгре@@ 1985
безопас@@ 1985
инспе@@ 1985
сау 1985
батальон 1983
стеро@@ 1983
Груп@@ 1982
Тон@@ 1981
качество 1981
азиат@@ 1980
хло@@ 1979
императри@@ 1977
персо@@ 1977
запи@@ 1976
картина 1976
бай@@ 1975
Физи@@ 1974
ат 1974
раз 1974
сма@@ 1974
Азербайджа@@ 1972
говор@@ 1972
приказ@@ 1972
1200 1971
na 1971
al 1970
лом 1970
ню@@ 1970
Шек@@ 1969
po@@ 1968
хоро@@ 1968
мене@@ 1967
рато@@ 1967
вой 1966
кай@@ 1966
w@@ 1965
гражданин 1965
движения 1965
шков 1965
су 1964
инстру@@ 1963
кас 1963
Ю 1961
линг@@ 1960
ресто@@ 1960
матери@@ 1959
хит 1959
Разполо@@ 1958
кратно 1958
нон 1958
Де 1957
бище 1957
топ 1956
интерес@@ 1953
Берлин@@ 1952
шин@@ 1951
креп@@ 1950
област@@ 1949
люс 1948
нидер@@ 1948
деж@@ 1947
фол@@ 1946
ea 1945
охла@@ 1945
di@@ 1944
лили 1943
Бли@@ 1942
полиция 1942
Компа@@ 1941
Центра@@ 1941
мело@@ 1941
ор 1940
отсе@@ 1940
Кен@@ 1939
Cr@@ 1938
дже 1937
публикации 1937
1874 1936
Дал@@ 1936
Марга@@ 1936
Пин@@ 1935
Тъ@@ 1935
Co@@ 1934
Сат@@ 1934
локо@@ 1934
мък 1933
орбит@@ 1933
иму@@ 1932
леност 1932
спорта 1932
срок 1931
ѫ@@ 1931
1868 1930
АТ@@ 1930
Бак@@ 1930
кал 1929
ху 1929
ci@@ 1928
губернатор 1928
мони@@ 1928
руд@@ 1928
Преображен@@ 1927
Максим 1926
покров@@ 1926
Нау@@ 1925
Алжи@@ 1924
Мари 1924
Тради@@ 1923
Именно 1922
някога 1922
Англи@@ 1920
вард 1919
ella 1918
1866 1916
фос@@ 1916
U 1915
арте@@ 1915
рея 1915
Еди@@ 1913
зая@@ 1913
нег@@ 1913
разве@@ 1913
спокой@@ 1913
юриди@@ 1911
маха@@ 1910
конкурса 1908
oph@@ 1906
лекции 1906
ситуация 1906
клон@@ 1905
трудо@@ 1905
нил 1904
участия 1904
темати@@ 1901
МВ@@ 1900
патри@@ 1899
1861 1897
приви@@ 1897
универса@@ 1897
художника 1897
лежа@@ 1896
место 1896
Синга@@ 1895
симфо@@ 1894
Монте@@ 1893
пусти@@ 1892
Records 1891
Ново 1891
Андер@@ 1889
евро@@ 1889
подготов@@ 1889
сайт 1889
Саму@@ 1887
станов@@ 1886
диагно@@ 1885
Уни@@ 1884
размно@@ 1884
стото 1884
СП 1883
демонстри@@ 1883
отличие 1883
факт 1881
ази@@ 1879
подзем@@ 1879
корпора@@ 1878
бата@@ 1877
ври 1877
председателя 1877
quot 1875
тали@@ 1875
департамент 1874
страте@@ 1872
Дим@@ 1871
плодо@@ 1870
стя@@ 1870
Тол@@ 1869
f 1868
изигра@@ 1868
мур 1867
опу@@ 1867
гиз@@ 1866
фия 1866
ряда 1865
инфек@@ 1864
кор 1864
верен 1863
жар@@ 1862
Жен@@ 1859
Ред@@ 1859
разно@@ 1859
диску@@ 1858
замъ@@ 1857
цир@@ 1857
Джо 1855
350 1854
назва@@ 1854
спря@@ 1854
нит 1853
уна 1853
Григо@@ 1852
кау@@ 1852
лом@@ 1850
Дол@@ 1849
фин 1849
24@@ 1847
рене@@ 1847
истории 1846
стиму@@ 1846
обли@@ 1844
фео@@ 1842
Ву@@ 1841
птем@@ 1841
блоки@@ 1840
следствие 1840
Лет@@ 1839
Браун 1836
плен 1835
хау@@ 1835
баскет@@ 1833
цев 1833
Сток@@ 1832
мб@@ 1832
тей@@ 1832
атели 1831
гено@@ 1831
матика 1831
Хри@@ 1830
заслуги 1829
крепост@@ 1829
признание 1829
замест@@ 1828
миро@@ 1828
Кана@@ 1827
двигателя 1827
116@@ 1825
1863 1823
кампа@@ 1822
образ 1821
повто@@ 1820
Пос@@ 1819
кива 1819
цин 1819
le 1817
менти@@ 1817
готов@@ 1814
метра@@ 1814
Bar@@ 1813
Андро@@ 1813
тет 1813
фган@@ 1812
конгре@@ 1811
гур@@ 1809
рекорд 1809
od@@ 1808
Давид 1808
ордена 1808
помещения 1808
правило 1806
пци@@ 1806
кина 1805
специал@@ 1805
стая 1805
da 1804
Веро@@ 1804
анг@@ 1804
1850 1803
Re@@ 1802
Ог@@ 1801
гам 1801
Дек@@ 1800
район@@ 1800
грузин@@ 1799
мология 1799
посто@@ 1798
117@@ 1796
нах 1796
унд@@ 1796
1865 1795
lidae 1795
Лар@@ 1794
его 1794
моста 1794
вити@@ 1793
хана 1793
подход 1790
красо@@ 1789
ктор@@ 1789
ориента@@ 1789
дил 1788
препят@@ 1788
нужда@@ 1785
рецеп@@ 1785
свое 1785
1830 1784
Par@@ 1784
вечер@@ 1784
владения 1783
традиционно 1781
Два@@ 1780
Сиби@@ 1780
for 1778
принадлежа@@ 1778
остан@@ 1777
говото 1776
диск 1776
ть@@ 1776
Так@@ 1775
биз@@ 1775
Кири@@ 1774
Старо@@ 1774
млад@@ 1773
СД@@ 1772
Чикаго 1772
пато@@ 1772
пки 1772
1800 1771
споразуме@@ 1771
бина 1770
отец 1770
хол@@ 1768
Стю@@ 1766
un@@ 1765
Сак@@ 1765
организа@@ 1763
Твор@@ 1762
полузащитник 1762
химиче@@ 1761
Мета@@ 1760
имуще@@ 1758
ств@@ 1758
фаши@@ 1758
Вътреш@@ 1756
ВИ@@ 1755
дис@@ 1754
моря@@ 1754
Love 1752
І 1751
ида 1751
комеди@@ 1751
26@@ 1749
Он@@ 1749
Хосе 1748
хон@@ 1748
визу@@ 1747
еве 1746
радика@@ 1746
Голя@@ 1744
вни@@ 1744
ференци@@ 1744
Министерство 1743
зре@@ 1742
волей@@ 1741
мба@@ 1741
Трои@@ 1740
Франциско 1740
Парла@@ 1739
Леона@@ 1738
бота@@ 1738
ed@@ 1736
публици@@ 1736
сения 1734
спози@@ 1733
Мини@@ 1732
кции 1732
публика 1732
Побед@@ 1729
достъ@@ 1728
категории 1728
манов 1728
главно@@ 1727
Творчество 1726
пехо@@ 1725
зависи@@ 1724
свое@@ 1724
сериа@@ 1723
сил 1723
христи@@ 1722
иран@@ 1721
помощ@@ 1721
разновид@@ 1721
чинов@@ 1720
сани@@ 1718
re@@ 1717
КС 1717
запозна@@ 1717
170 1716
Съще@@ 1716
зали 1716
алгори@@ 1715
Патри@@ 1714
домо@@ 1714
Буда@@ 1711
номе@@ 1711
разме@@ 1711
явления 1711
изде@@ 1710
домаш@@ 1709
върш@@ 1708
Архи@@ 1704
125 1703
деми@@ 1703
цла@@ 1702
груп@@ 1701
DVD 1700
шли 1700
Касти@@ 1699
товар@@ 1699
целе@@ 1698
ДР 1697
разрешение 1697
Соци@@ 1696
пин 1696
страда@@ 1696
2022 1695
ала 1694
Осман@@ 1693
гс 1693
рю 1692
113@@ 1691
Министер@@ 1690
ара@@ 1689
лаго@@ 1689
ниси@@ 1688
ориен@@ 1687
1856 1686
шев@@ 1686
… 1686
Мед@@ 1685
Сул@@ 1685
л. 1682
степенно 1681
парт@@ 1680
ru@@ 1678
сайта 1677
второ@@ 1676
00@@ 1675
1862 1675
Екатерина 1675
z 1674
режись@@ 1674
родители 1674
фрак@@ 1674
one 1673
бора 1673
гло 1673
Рожде@@ 1672
Звез@@ 1671
ас@@ 1670
набор 1670
зай@@ 1667
1859 1666
ѣ@@ 1665
морфо@@ 1664
падан@@ 1664
зова 1662
термо@@ 1661
Хра@@ 1660
хара 1660
полага@@ 1657
вършва 1654
зеле@@ 1654
як 1654
мерно 1652
пропа@@ 1652
авторите@@ 1651
изображение 1651
чайно 1651
лъж@@ 1650
морф@@ 1650
# 1648
Като@@ 1648
клад 1648
веро@@ 1647
лингви@@ 1647
милия 1647
Византи@@ 1645
to@@ 1644
лик@@ 1644
pi@@ 1642
коди@@ 1642
рида 1642
владение 1641
доне@@ 1641
голо@@ 1640
оси@@ 1640
Коман@@ 1639
гас 1639
отличия 1639
27@@ 1638
просве@@ 1638
Мек@@ 1637
Пед@@ 1637
хам@@ 1637
Генерал 1636
акти@@ 1636
рит@@ 1636
сати@@ 1636
сер 1636
галакти@@ 1635
Участ@@ 1633
марки 1633
незакон@@ 1632
Ази@@ 1631
опер@@ 1630
шва 1630
Марти@@ 1629
същ@@ 1629
Парк 1628
молит@@ 1628
оправ@@ 1628
рей 1628
Импера@@ 1627
разка@@ 1625
Рафа@@ 1624
констру@@ 1624
свиде@@ 1624
добро@@ 1623
предпоч@@ 1623
ni@@ 1622
техники 1622
Ван 1621
Мур@@ 1621
ir@@ 1620
получил 1620
подразде@@ 1619
безу@@ 1618
лега@@ 1618
графа 1617
делега@@ 1617
консервато@@ 1615
цер 1613
Тони 1612
хит@@ 1612
Игна@@ 1610
справед@@ 1610
дона 1609
случайно 1609
двигате@@ 1608
номинации 1608
ктора 1607
максима@@ 1606
ter@@ 1604
намест@@ 1604
ранже@@ 1603
сть@@ 1603
im@@ 1602
Съеди@@ 1602
писе@@ 1602
щина 1602
зра@@ 1599
почита@@ 1598
Коро@@ 1597
Рот@@ 1597
Иван@@ 1595
хот@@ 1595
хотел 1595
нам 1591
Тат@@ 1590
тец 1590
можно 1589
Стати@@ 1588
еро 1588
шеви@@ 1588
Коб@@ 1587
банд@@ 1587
лея 1587
фронта 1586
ис 1585
кред@@ 1584
пова 1584
сдел@@ 1584
дивизии 1583
мети@@ 1583
тей 1583
престол 1582
голе@@ 1578
хищ@@ 1578
слов@@ 1576
Mar@@ 1575
дли@@ 1575
колко 1575
степ@@ 1575
дим 1574
удосто@@ 1573
Геро@@ 1572
ВМС 1571
парта@@ 1571
Два 1570
лектро@@ 1569
мл@@ 1569
anus 1568
усили@@ 1568
ежегодно 1566
медали 1566
тения 1566
конфликта 1565
ТВ 1563
аван@@ 1563
поляр@@ 1563
пещер@@ 1562
намере@@ 1561
Str@@ 1560
епархи@@ 1560
сцена@@ 1559
Брон@@ 1557
колонии 1557
чков 1556
4000 1555
Андже@@ 1555
хри@@ 1555
dae 1553
виру@@ 1550
тиви@@ 1550
105 1549
огне@@ 1549
тера 1549
ti 1548
лок 1547
сфер@@ 1547
принадлеж@@ 1546
достатъ@@ 1543
лого@@ 1543
Дмитрий 1542
вто@@ 1542
23@@ 1540
лизма 1540
1858 1538
Право@@ 1538
свой@@ 1538
среди 1538
Велико@@ 1537
устро@@ 1537
Монго@@ 1535
Ac@@ 1534
бизне@@ 1534
слабо@@ 1534
оформ@@ 1533
прокуро@@ 1533
увелич@@ 1533
Бала@@ 1532
шири@@ 1532
мур@@ 1531
пролет@@ 1529
сет@@ 1527
дея@@ 1526
жив 1526
завла@@ 1526
чник 1526
Col@@ 1525
Фре@@ 1525
пера@@ 1525
1840 1522
am 1521
сборник 1521
канала 1520
нистиче@@ 1520
шено 1519
нев@@ 1517
Кюстен@@ 1516
убий@@ 1516
чит@@ 1516
Бул@@ 1515
Социалистиче@@ 1515
1300 1514
сражения 1514
организато@@ 1511
ФА 1510
кван@@ 1510
мя 1510
28@@ 1509
Sh@@ 1509
серти@@ 1507
фей 1507
Динамо 1506
зидент@@ 1506
Сала@@ 1504
вере@@ 1504
порта 1504
Дона@@ 1503
Уор@@ 1503
втори@@ 1502
пас@@ 1502
Cor@@ 1501
Еги@@ 1499
референ@@ 1499
Алексей 1498
мону@@ 1497
режима 1497
Am@@ 1496
1600 1495
парата 1494
450 1493
Роман 1493
Токио 1493
сок 1493
m3 1491
гин 1491
кора@@ 1491
мах 1491
обстанов@@ 1491
измене@@ 1490
чере@@ 1489
icus 1487
внезап@@ 1487
пункт 1487
отряда 1486
припа@@ 1486
ob@@ 1483
Сам 1483
Сезон 1483
Док@@ 1482
Спе@@ 1482
назад 1482
Ирина 1481
co@@ 1480
княже@@ 1479
означа@@ 1479
1849 1477
фера 1476
гимнази@@ 1475
матри@@ 1474
ВВС 1473
tu@@ 1472
ab@@ 1471
пожар@@ 1470
ситуа@@ 1470
ир@@ 1469
бов 1468
вонача@@ 1468
ръб@@ 1468
сервато@@ 1468
Режи@@ 1467
блю@@ 1467
101 1465
Br@@ 1465
des 1465
ich@@ 1465
гвардей@@ 1465
даже 1465
смо@@ 1465
Александра 1463
пуск 1463
циклопе@@ 1463
Академи@@ 1462
измен@@ 1462
критик 1462
мян 1462
нападения 1462
акции 1461
клави@@ 1461
лур@@ 1460
ост@@ 1460
тока 1460
лович 1459
³ 1458
предстоя@@ 1458
дизай@@ 1457
пин@@ 1457
предполага@@ 1457
серии 1457
Известно 1456
писал 1456
ну 1455
питания 1455
Образование 1454
1806 1453
сама 1453
Google 1452
ig@@ 1452
полка 1451
рат@@ 1451
цик@@ 1450
Me 1449
мле@@ 1447
ферен@@ 1447
лекате@@ 1446
духа 1445
окончате@@ 1445
риан@@ 1444
чело 1444
1.@@ 1443
дека@@ 1443
30@@ 1442
зно 1442
Лиг@@ 1440
per@@ 1438
либе@@ 1438
решено 1438
скор@@ 1438
тев 1437
1854 1436
говори@@ 1436
като@@ 1436
теории 1436
New 1435
дор@@ 1435
Bo@@ 1434
ale 1434
лум@@ 1432
препода@@ 1432
противополож@@ 1432
par@@ 1427
Юрий 1427
Ав@@ 1426
пети@@ 1426
codice 1425
опере@@ 1425
Бек@@ 1423
стат@@ 1423
деб@@ 1422
материа@@ 1422
специалист 1421
ставля@@ 1419
Cy@@ 1418
ансам@@ 1418
рован 1417
трав@@ 1417
формат@@ 1416
Боб@@ 1415
Изра@@ 1415
революцио@@ 1413
br@@ 1412
мед@@ 1411
Microsoft 1410
Каза@@ 1409
Di@@ 1408
1853 1407
urus 1407
бюдже@@ 1407
водоро@@ 1407
наги 1407
Климат 1406
атив@@ 1406
102 1404
1857 1404
тура@@ 1404
Симе@@ 1403
нага 1403
пей@@ 1403
рад 1403
Рос@@ 1401
философи@@ 1401
стана 1400
чат@@ 1400
Гол@@ 1399
кава 1399
хе 1399
зки 1397
плана 1397
опро@@ 1396
терми@@ 1395
der 1394
комплекса 1394
лак@@ 1393
проф@@ 1393
литов@@ 1392
фунда@@ 1392
Бълга@@ 1391
Жан@@ 1390
гото@@ 1390
офицер@@ 1390
КНР 1389
СП@@ 1389
две@@ 1388
гу 1387
ким 1385
ници@@ 1385
дир 1384
плати@@ 1383
Евгений 1382
инструмента@@ 1382
ber@@ 1381
ma 1381
Ex@@ 1380
гана 1380
префек@@ 1379
2.@@ 1375
Тен@@ 1374
Гай@@ 1373
запове@@ 1373
ърт 1373
1700 1371
Джен@@ 1371
× 1369
Фила@@ 1369
Ш 1369
Кем@@ 1368
Music 1366
декс 1364
здраво@@ 1364
носители 1363
танка 1363
корей@@ 1362
it 1361
Ph@@ 1360
Гам@@ 1360
inus 1359
{ 1359
предприятие 1358
12,@@ 1356
автора 1356
мило@@ 1356
пост@@ 1356
розо@@ 1356
bus 1354
Хро@@ 1354
прито@@ 1354
реакции 1352
мически 1350
установки 1350
і@@ 1350
Mon@@ 1349
ve 1349
Отече@@ 1349
оценки 1349
Украин@@ 1348
Сол@@ 1347
равно 1346
ine 1345
ликвиди@@ 1344
Тихо@@ 1342
Абду@@ 1341
дала 1340
манитар@@ 1340
том 1340
UTC 1339
CD 1338
живопис@@ 1337
играл 1337
водосбор@@ 1336
порта@@ 1336
Киев@@ 1335
обща@@ 1335
ch 1333
шин 1332
Дво@@ 1330
сег@@ 1328
3,5 1326
виз@@ 1325
сами 1325
КП 1324
пере@@ 1323
чности 1321
Cal@@ 1320
te 1320
Роберт 1320
ССР 1320
Афри@@ 1319
qu@@ 1315
Зак@@ 1314
вес 1314
запаз@@ 1314
Завър@@ 1313
сериал@@ 1309
храни@@ 1309
Sp@@ 1308
ach@@ 1308
чове 1308
печата@@ 1306
фикси@@ 1305
ходя@@ 1305
ers 1303
Куз@@ 1302
тате@@ 1302
ter 1301
дом@@ 1299
Ленин@@ 1298
мун@@ 1298
1821 1296
чеб@@ 1296
Sc@@ 1295
редак@@ 1295
se 1293
mo@@ 1291
завое@@ 1290
педаго@@ 1290
НИ@@ 1289
лял 1289
Франци@@ 1288
осе@@ 1287
кав@@ 1286
ation 1285
връз@@ 1285
мая 1285
шотланд@@ 1285
ura 1284
После 1284
почва 1284
АС@@ 1281
Вилхе@@ 1278
1815 1277
In 1276
страции 1276
царя 1275
Мя@@ 1274
ниц 1274
цвета 1274
1831 1271
1812 1270
подразделения 1270
упа@@ 1270
Узбе@@ 1269
изобра@@ 1269
диапа@@ 1268
чук 1268
ra 1267
жем 1267
ent 1266
мож@@ 1266
1835 1265
сезо@@ 1265
АР 1263
бей@@ 1263
индиви@@ 1263
лога 1263
ряд 1263
удовлетво@@ 1263
Валерий 1262
1829 1261
My 1261
вклю@@ 1260
законо@@ 1260
гвар@@ 1259
De@@ 1257
era 1256
ran@@ 1255
чила 1255
240 1254
знания 1254
Q@@ 1253
регу@@ 1252
ari@@ 1251
ing@@ 1251
Обо@@ 1251
con@@ 1250
ходи@@ 1250
25@@ 1247
J 1246
eus 1246
езе@@ 1246
крепости 1245
тта 1245
My@@ 1243
перка 1243
1855 1242
29@@ 1242
ними 1242
Лите@@ 1241
враже@@ 1241
Hy@@ 1240
канди@@ 1240
лана 1240
Сам@@ 1239
тили 1239
горо@@ 1238
Мах@@ 1237
кости 1237
менно 1237
употреб@@ 1237
ie 1236
знамени@@ 1236
127 1235
диза@@ 1235
ирланд@@ 1234
Be@@ 1233
oma 1233
вай 1233
Qu@@ 1232
статус 1232
vi@@ 1231
ВМ@@ 1231
фур@@ 1231
ov@@ 1230
необ@@ 1230
теку@@ 1230
Ne@@ 1228
Разпростра@@ 1228
способности 1228
− 1226
1852 1225
1845 1224
ографи@@ 1224
1828 1222
коне@@ 1220
ориенти@@ 1219
ca 1218
17@@ 1216
ит 1215
композиции 1215
10,@@ 1214
Se@@ 1213
ког@@ 1213
обстре@@ 1213
писание 1213
стрем@@ 1213
тив 1212
ad 1210
us@@ 1210
еги@@ 1210
Пере@@ 1209
ники 1208
Гей@@ 1207
мало 1206
неж@@ 1206
атов 1205
1820 1204
прак@@ 1204
рая 1201
1837 1200
Com@@ 1200
XX@@ 1200
Гур@@ 1200
гей@@ 1199
Or@@ 1198
eri 1197
конкур@@ 1197
ог@@ 1197
ens 1196
историко 1196
гал@@ 1194
машин@@ 1194
1814 1193
Желез@@ 1192
служил 1192
w 1191
общества 1191
свето@@ 1191
счит@@ 1191
1847 1189
STS 1189
ne@@ 1189
нима@@ 1188
eg@@ 1187
номера 1187
спеди@@ 1187
OS 1186
1841 1184
Варшав@@ 1184
152 1182
220 1182
Калифор@@ 1182
ску 1182
изменения 1181
местообита@@ 1181
de@@ 1180
опъл@@ 1180
исто@@ 1179
митрополи@@ 1178
появи@@ 1178
yr@@ 1176
ОО@@ 1175
Вя@@ 1174
учения 1174
комите@@ 1173
​ 1173
Колум@@ 1172
похо@@ 1172
Отде@@ 1171
мюсюл@@ 1169
блиоте@@ 1167
tidae 1166
International 1165
ate 1165
si@@ 1165
поря@@ 1164
0,5 1163
5.@@ 1162
Демо@@ 1162
вера 1162
осу@@ 1162
увеличе@@ 1162
ченко 1162
za 1161
Том@@ 1160
1851 1159
ans 1159
Гран 1156
Y 1155
отмен@@ 1155
дана 1154
сче@@ 1154
шили 1154
1844 1153
Транспорт 1153
птември 1153
Z 1152
1846 1151
360 1151
ver@@ 1151
6000 1150
гит@@ 1149
убийства 1148
Занима@@ 1146
яние 1145
1836 1144
Доктор 1144
Ж 1144
Пь@@ 1144
гран@@ 1144
Pr@@ 1142
рой 1142
спас@@ 1141
анализа 1140
гну@@ 1140
катего@@ 1140
пространства 1140
age 1139
Комитета 1139
факул@@ 1139
НР 1138
Юр@@ 1138
бн 1138
кно@@ 1138
фактически 1138
Live 1136
US@@ 1136
цър@@ 1136
каса@@ 1134
начина@@ 1133
оте@@ 1133
Вет@@ 1132
Тома@@ 1130
героя 1130
ларов 1130
Per@@ 1129
максимум 1128
рополи@@ 1128
смет@@ 1128
графии 1127
стоян@@ 1127
серий@@ 1126
1400 1125
3.@@ 1123
коме@@ 1123
alus 1122
ops 1122
ап@@ 1122
прозви@@ 1122
1792 1121
2500 1121
публика@@ 1119
Робер@@ 1118
бои 1118
сив@@ 1118
ями 1116
слов 1115
постройки 1113
снение 1113
Клю@@ 1112
En@@ 1111
v 1111
машино@@ 1111
рока 1111
лее 1110
Lo@@ 1109
ep@@ 1109
11,@@ 1108
cus 1108
4.@@ 1107
дили 1107
pr@@ 1106
Маргаре@@ 1106
програм@@ 1106
омъ@@ 1105
4,5 1104
Tour 1104
лабо@@ 1104
пуска@@ 1104
Gr@@ 1103
Mo@@ 1103
вели 1103
верси@@ 1103
car@@ 1101
нера@@ 1101
шу 1099
Te@@ 1098
odon 1098
ад 1098
ряд@@ 1098
Хайн@@ 1095
дисци@@ 1095
могли 1094
сь@@ 1094
se@@ 1093
Турк@@ 1093
етна@@ 1093
1839 1092
1843 1092
костю@@ 1092
Ави@@ 1091
поколения 1091
ся 1091
80@@ 1089
шести 1089
ситуации 1088
трам@@ 1088
учение 1087
носите@@ 1086
ная 1084
облада@@ 1083
скре@@ 1082
106 1080
кий 1080
жили 1079
видео@@ 1078
рона 1078
Камен@@ 1077
снима@@ 1077
КП@@ 1076
пун@@ 1076
зал 1075
атмосфер@@ 1074
оказа@@ 1074
акт@@ 1073
сценари@@ 1073
280 1072
ati@@ 1072
Шве@@ 1071
onidae 1070
Спар@@ 1070
Поло@@ 1069
Самар@@ 1069
минимум 1069
хин 1069
вос@@ 1068
заим@@ 1068
построе@@ 1067
opus 1066
корен@@ 1066
сков@@ 1065
Награ@@ 1064
дола@@ 1064
шал 1064
One 1063
партий@@ 1062
ath@@ 1061
Музей 1061
шина 1061
IS@@ 1060
ai 1060
gr@@ 1060
Иг@@ 1060
завода 1060
9.@@ 1059
Цер@@ 1059
завод@@ 1059
дето 1058
He@@ 1057
per 1057
bo@@ 1056
ps 1056
1818 1055
Миро@@ 1054
чили 1054
1832 1052
Бос@@ 1052
que 1051
наличие 1051
ent@@ 1050
1838 1049
1834 1048
13,@@ 1047
гим@@ 1047
ii 1046
департамента 1046
резул@@ 1046
lu@@ 1045
tic@@ 1045
чате@@ 1044
лю 1042
Как@@ 1041
тии 1041
стал 1040
Can@@ 1039
com@@ 1039
ила 1039
.com 1038
Тал@@ 1038
вед 1038
схо@@ 1038
135 1037
750 1037
безо@@ 1037
мбу@@ 1037
1810 1036
Вюр@@ 1036
бивши@@ 1036
института 1036
мона 1034
Po@@ 1033
mar@@ 1033
ore 1033
34,@@ 1032
gi@@ 1032
столи@@ 1032
pe@@ 1031
шек 1031
1793 1030
ho@@ 1029
дки 1029
янов 1029
108 1028
вести@@ 1028
публики 1028
AC 1027
Таджи@@ 1026
пара 1026
1842 1025
au@@ 1025
жила 1025
кала 1025
um@@ 1024
оре 1024
положения 1024
eb@@ 1022
ula 1022
Пуш@@ 1021
Тимо@@ 1021
вей 1020
Президен@@ 1017
зате@@ 1017
нила 1017
конструкции 1015
статисти@@ 1015
ционе@@ 1015
1825 1014
кампании 1013
предлага@@ 1013
сали@@ 1013
1100 1012
av@@ 1012
едино@@ 1012
яния 1012
All 1011
Mus@@ 1011
didae 1011
ax 1010
ons 1010
лайн 1010
1822 1009
кономиче@@ 1009
н. 1009
190 1007
io 1007
францу@@ 1007
los@@ 1006
Life 1005
1813 1004
ut@@ 1004
Ли 1003
отделения 1003
пропове@@ 1002
It 1001
103 1000
oth@@ 1000
Сино@@ 1000
Яро@@ 1000
впа@@ 1000
материал@@ 999
320 998
Ag@@ 998
tes 998
Соб@@ 998
ская 997
so@@ 996
жин@@ 994
отдела 994
V. 993
дене@@ 993
Пя@@ 992
Стат@@ 992
вои@@ 992
аналоги@@ 991
вез@@ 991
Group 988
104 987
Un@@ 987
tor@@ 985
Вита@@ 982
стон 982
зя 981
tus 979
Billboard 978
Pro@@ 977
гава 977
припис@@ 977
6.@@ 976
ha 976
направления 976
степени 976
7.@@ 975
Les 975
Аг@@ 975
БА 974
Институт 974
Леони@@ 974
Сем@@ 974
сток 974
j 973
нио 973
сюл@@ 973
1789 972
стието 972
ститу@@ 972
1795 969
orum 969
кнове@@ 969
si 968
109 967
Black 967
35,@@ 966
osa 966
трак@@ 966
1803 964
лоша@@ 964
нили 964
рейтин@@ 964
Ro@@ 963
лера 963
yc@@ 962
Осно@@ 962
веща@@ 962
комитета 961
ell@@ 960
128 959
pl@@ 959
ИК 959
Румъ@@ 959
нем 959
1797 958
AS@@ 958
º 958
конферен@@ 956
lar@@ 955
кала@@ 955
църк@@ 955
Участник 954
греб@@ 954
hi@@ 953
даря 953
230 952
мероприя@@ 952
предприя@@ 952
SS 951
кандид@@ 951
транспорта 951
1790 950
инжен@@ 949
Нат@@ 947
авиацион@@ 946
prin@@ 945
онов 944
чал 944
tra 942
москов@@ 942
1819 941
спери@@ 941
à 940
дуар@@ 939
107 938
Ad@@ 938
Rock 937
Воро@@ 937
друго@@ 937
обору@@ 937
обще 937
ον 936
имен@@ 936
14,@@ 935
Константино@@ 935
aur@@ 934
жден 934
1833 933
Император@@ 933
1,2 931
1805 931
8.@@ 931
tis 931
Бара@@ 931
руб@@ 930
int 929
построено 929
дано 928
пъти@@ 928
ске 927
Анато@@ 926
оборо@@ 926
продукции 926
док 925
Wrestling 924
Яку@@ 924
305 923
паро@@ 921
строен@@ 921
AR@@ 920
II@@ 920
Java 918
Саксо@@ 918
верто@@ 918
служи@@ 918
сети 917
уру 917
36@@ 916
Tur@@ 916
нар. 915
1808 914
стали 914
210 913
Роди@@ 913
доста@@ 913
методи@@ 913
122 910
Ge@@ 910
зархи@@ 910
Ma@@ 909
1816 908
1799 907
40@@ 907
ВО 906
Сева@@ 906
нера 906
Комите@@ 905
правед@@ 905
sch@@ 904
sp@@ 903
1750 902
ком 902
Филип@@ 901
1796 899
получили 899
ka 898
ne 898
СС@@ 898
ак 898
1817 897
отказа@@ 897
34@@ 896
Mac@@ 896
Q 896
ili@@ 895
губерния 895
зап@@ 895
Fe@@ 894
och@@ 894
фамили@@ 893
синг@@ 892
приве@@ 891
Моги@@ 890
115 889
Sol@@ 889
1826 887
заяв@@ 887
вело@@ 886
кономи@@ 886
сол@@ 886
Ap@@ 885
EP 885
върх@@ 885
As@@ 883
Cl@@ 883
Go@@ 883
нъж 883
щу@@ 883
1801 882
Tro@@ 882
уреат 882
Apple 881
библиотеки 881
1807 880
рах 880
щие 879
Шах@@ 878
рецен@@ 878
вит 877
отрас@@ 877
ini 876
заключ@@ 876
35@@ 873
re 873
звания 873
слова@@ 873
твер@@ 873
рован@@ 872
ic 871
un 871
нане@@ 871
проб@@ 871
Църк@@ 870
260 869
ena 868
Нидер@@ 868
ский 867
550 866
Entertainment 866
Pi@@ 866
ору@@ 866
1635 865
Я 865
фун@@ 865
чек 865
id 864
Ря@@ 864
1648 863
650 863
ni 863
Петер@@ 863
ях 862
ous 861
новременно 861
1804 859
cor@@ 859
ator 858
ce 858
inc@@ 858
ten@@ 858
ура@@ 858
126 857
минима@@ 857
Cer@@ 856
all@@ 856
omys 856
em 855
und 855
Зу@@ 855
1794 853
du@@ 853
получи@@ 853
270 852
ei 852
yl@@ 852
Ty@@ 850
командира 850
ist@@ 849
330 846
380 846
uli@@ 846
ведом@@ 846
реши@@ 846
бес@@ 845
ото@@ 845
1791 843
est 843
sh@@ 843
Пове@@ 843
цвет 843
123 842
RA@@ 842
Ser@@ 841
Дуна@@ 840
Li@@ 839
111 836
are 836
тение 836
Le 835
Татар@@ 835
брата 834
фу 834
1772 833
поражения 833
хова 833
Администра@@ 832
Tri@@ 831
Име@@ 830
1824 829
33@@ 829
стой 829
СА@@ 828
чества 828
1680 827
WWF 826
бка 826
1798 825
mon@@ 825
гай@@ 824
ot 823
корпу@@ 823
юни@@ 823
.-@@ 822
1634 822
1660 822
De 822
Mel@@ 822
Micro@@ 822
yn@@ 822
Нов@@ 822
буд@@ 822
зания 822
1827 821
Vi@@ 821
ost@@ 821
10.@@ 820
множе@@ 820
станови@@ 820
уточ@@ 820
ют 820
1823 819
XXI 819
дет 819
0.@@ 818
112 818
El@@ 818
уса 818
Ино@@ 817
кипа@@ 817
15,@@ 816
1640 816
ou@@ 816
7,5 815
ak@@ 815
ora 815
1688 814
Ver@@ 814
ty 814
Кън@@ 814
No 813
дела@@ 813
мотив 813
1570 812
203 812
37@@ 812
ite 812
uc@@ 812
Джер@@ 812
175 810
ani 810
боро@@ 810
1780 809
воло@@ 809
шот@@ 809
3D 808
aria 808
Доне@@ 808
8000 807
Ab@@ 807
1530 806
CO@@ 806
man 806
oides 805
Сво@@ 805
сочи@@ 805
no 804
значения 804
Company 803
tri@@ 803
Сбор@@ 803
логии 803
1606 801
ion 801
Воло@@ 800
чет 800
50@@ 799
AM@@ 799
cu@@ 799
do 799
соб@@ 799
oni 798
дере@@ 798
124 797
1763 797
col@@ 796
1676 795
1802 795
лакти@@ 795
ides 794
ol 793
РО 793
1809 792
22@@ 790
No@@ 790
Op@@ 790
разуме@@ 790
12.@@ 789
ant 789
лектри@@ 789
арми@@ 788
шер@@ 788
114 787
вян@@ 786
117 784
17,@@ 784
1650 783
te@@ 783
КО@@ 783
1623 782
указа@@ 782
зв@@ 781
см@@ 781
ys@@ 780
Аф@@ 779
ству@@ 779
1618 778
me 777
ok@@ 776
vir@@ 776
соз@@ 776
понен@@ 775
хле@@ 775
cin@@ 774
yp@@ 774
1740 773
ala 773
lan@@ 773
mag@@ 773
Баш@@ 773
КА 773
рино 773
→ 773
School 772
РС@@ 772
мага@@ 772
Категория 771
цифро@@ 771
man@@ 770
1787 769
IN@@ 769
1770 768
38@@ 768
UN@@ 766
WTA 766
For@@ 765
Time 765
бря@@ 765
phus 764
наимено@@ 764
цера 763
дзе 762
татар@@ 762
ell 761
Hz 760
конференции 760
1610 759
ius 759
сьор 758
1625 757
Er@@ 757
Сент 756
1632 755
1774 755
ma@@ 755
ј@@ 755
1768 754
шед@@ 754
щате@@ 754
MS 753
Австра@@ 753
капа@@ 753
16,@@ 752
спорт@@ 752
é 750
Ο@@ 750
Ч 750
7000 748
дера 748
каде@@ 748
пр.н@@ 748
To@@ 747
Калу@@ 747
разработки 747
слово 747
1560 746
Глу@@ 746
нужно 746
ass@@ 745
вице 745
пише@@ 745
рь@@ 745
Sch@@ 744
ay 744
1776 743
Лове@@ 743
fr@@ 742
гля@@ 742
лесо@@ 742
пие 742
Око@@ 741
1775 740
1811 740
FI@@ 740
Fr@@ 740
надеж@@ 740
25,@@ 739
480 739
del 739
кварти@@ 739
1616 738
€ 738
дя 737
ина 737
стояние 737
bl@@ 736
преимуще@@ 736
ino 735
Отец 735
Empire 734
SO@@ 734
пор 734
1630 733
ang@@ 733
do@@ 733
yg@@ 733
площад@@ 733
ity 732
ola 732
жу 732
à@@ 731
por@@ 730
казал 730
ik@@ 729
az@@ 728
Й 728
1701 727
Петрович 727
низа@@ 727
and@@ 726
ваго@@ 725
покуп@@ 725
Eth@@ 724
город 724
дз@@ 724
American 723
be 723
121 722
1598 722
1788 722
osus 722
rom@@ 722
α 721
сад@@ 721
1627 720
mi@@ 720
1683 719
IBM 719
co 718
Do@@ 717
Man@@ 717
NO@@ 717
RO@@ 717
ref 717
водохрани@@ 717
повтор@@ 717
1651 716
ai@@ 716
for@@ 716
1540 715
Bre@@ 715
sus 715
цикло@@ 715
Елиза@@ 714
вмест@@ 712
никова 710
Институ@@ 709
город@@ 709
1667 707
Мекси@@ 707
118 706
1450 706
Hot 706
ser@@ 706
неш@@ 706
ISO 705
избира@@ 704
ответ@@ 704
1638 703
достиг 703
1704 702
Bel@@ 702
Dis@@ 702
Mark 702
Mor@@ 702
ant@@ 702
Брази@@ 702
Of 701
Как 701
5,5 700
Cha@@ 700
вое 699
тряб@@ 699
аре 698
присво@@ 698
1550 697
cop@@ 697
ежегод@@ 697
1622 696
ES@@ 696
SI 696
атом 696
1605 695
ara 695
реи 695
топли@@ 695
1526 694
1631 694
1665 694
рации 694
129 693
155 693
Disney 693
MHz 693
втор@@ 693
офице@@ 693
IM@@ 692
ренно 692
цате@@ 692
1585 691
end@@ 691
1619 690
á@@ 690
вес@@ 689
н.@@ 689
ь 689
1783 688
19,@@ 688
CA@@ 688
Network 688
Герой 688
але 688
енко 688
рование 688
So@@ 687
надле@@ 687
1636 686
be@@ 686
la@@ 686
луч@@ 686
SA@@ 684
бере@@ 684
1568 683
illa 683
Анг@@ 683
стани@@ 683
Me@@ 682
nig@@ 682
ya 682
1620 681
1668 681
мь@@ 681
1711 680
all 680
1666 679
du 679
1785 678
chil@@ 678
Михайлов@@ 678
мам 678
рово@@ 678
1559 677
них 677
1569 676
1621 676
1661 676
Cas@@ 676
odon@@ 676
IP 675
ly 675
пу 675
1612 674
1670 674
Bur@@ 674
opter@@ 674
1595 673
Linux 673
Mal@@ 673
ef@@ 673
Ι@@ 673
преки 673
iz@@ 672
mac@@ 672
Олег 672
образо@@ 672
1250 671
Acro@@ 671
герба 671
IC@@ 670
è@@ 670
1547 669
18,@@ 669
Bi@@ 669
Ленинград@@ 669
39@@ 668
лам 668
лън@@ 668
1536 667
1715 667
20,@@ 667
cr@@ 667
Иванов@@ 667
1,6 666
1572 666
6,5 666
Ca@@ 666
Man 666
′ 666
can@@ 665
ita 665
ure 665
яну@@ 665
1626 664
1686 664
Сталин@@ 664
проводи@@ 664
1675 663
1784 663
ill@@ 663
1769 662
On 662
om 662
Генера@@ 662
Inter@@ 661
il 661
щена 661
1590 660
340 660
pra@@ 660
Хит@@ 660
гита@@ 660
ex@@ 659
sit@@ 659
165 658
At@@ 658
ance 658
su@@ 658
116 657
1521 656
1699 656
Hol@@ 656
IT@@ 656
Times 655
dia 655
батальона 655
1492 654
Die 654
ann@@ 654
епископа 654
} 653
£ 653
eps 652
ulus 652
оба 652
1637 651
1722 651
газ@@ 651
PC 650
кио 650
музи@@ 650
ym@@ 649
Военно 649
1,3 648
DJ 648
Таш@@ 648
Pol@@ 647
hy@@ 647
Δ@@ 647
цей 647
1577 646
1664 646
Крас@@ 646
зу 646
ton 645
ard 644
eph@@ 644
1580 643
m2 643
дт 643
спектак@@ 643
1757 642
Департа@@ 642
жур@@ 642
1690 641
oni@@ 641
Α@@ 641
кома 641
133 640
145 640
1603 640
1744 640
1762 640
евна 640
1607 639
1689 639
tica 639
кая 639
1649 638
To 638
Your 638
by 638
ts 638
act@@ 637
ano 637
Cre@@ 636
импе@@ 636
1453 635
1643 635
1767 635
MP@@ 635
ak 635
š@@ 635
написал 635
1778 634
Mer@@ 634
ight 634
1633 633
1743 633
27,@@ 633
aris 633
enti@@ 632
ida 632
pal@@ 632
1786 631
ence 631
iv@@ 631
sc@@ 631
sol@@ 631
Португа@@ 631
1659 629
MTV 629
chem 629
406 628
азербайджан@@ 628
1702 627
ates 627
1737 626
ex 626
1766 625
225 625
CH@@ 625
кого 625
1,8 624
1707 624
1535 623
28,@@ 623
45@@ 623
60@@ 623
ta@@ 623
1672 622
об 622
сад 622
144 621
1735 621
Hel@@ 621
eli@@ 621
окра@@ 621
1712 620
AC@@ 620
Pe@@ 620
династи@@ 620
имено@@ 620
113 619
1604 619
1748 619
NXT 619
atidae 619
end 619
ler 619
годи@@ 619
anti@@ 618
atr@@ 618
ba@@ 618
yi 618
КПСС 618
получила 618
1760 617
24,@@ 617
Her@@ 617
public 617
11.@@ 616
1656 616
1728 616
долф 616
1. 615
1644 615
199 615
Bl@@ 615
tor 615
li 614
vo@@ 614
1596 613
1771 612
близо@@ 612
1724 611
Евге@@ 611
1652 610
Warner 610
ge 610
1781 609
лизации 609
проходи@@ 609
1519 608
les 608
lin@@ 608
млн 608
1756 607
dr@@ 607
ord@@ 607
дъх@@ 607
отлича@@ 607
1777 606
`@@ 606
ος 606
1653 605
1720 605
1773 605
Pic@@ 605
eti@@ 605
name 605
Населе@@ 605
1721 604
ev@@ 604
pel@@ 604
НК@@ 604
строения 604
Sal@@ 603
gen@@ 603
ornis 603
ā@@ 603
Моло@@ 603
адми@@ 603
1746 602
1641 601
1658 601
Air 601
eri@@ 601
ское 601
if@@ 600
168 599
1739 598
System 598
Наполе@@ 598
1520 597
1592 597
ML 597
hynch@@ 597
1741 596
индекс 596
политики 596
самостоя@@ 596
1525 595
1726 595
1601 594
Красно@@ 594
гастро@@ 594
1642 593
26,@@ 593
Bal@@ 593
Su@@ 593
Кавказ@@ 593
купи@@ 593
основания 593
420 592
Геор@@ 592
Гоме@@ 592
Президиума 592
Ричар@@ 592
стойчи@@ 592
55@@ 591
hin@@ 591
ja 591
Бере@@ 591
1782 590
Club 590
Mag@@ 590
chi@@ 590
ue 590
болез@@ 590
зви@@ 590
скорости 590
1678 589
1729 589
1738 589
Gal@@ 589
Gu@@ 588
MA 588
bar@@ 588
cul@@ 588
зации 588
1,4 587
th 587
сч@@ 587
1709 586
gar@@ 586
Швей@@ 586
Thr@@ 585
with 585
хър@@ 585
1745 584
und@@ 584
жертво@@ 584
даго@@ 583
рович 582
1350 581
1655 581
208 581
BBC 581
ceph@@ 581
Иванович 581
фигур@@ 581
1611 580
1629 580
1708 580
AT@@ 580
Corporation 580
Em@@ 580
anth@@ 580
den 580
ist 580
850 579
AN@@ 579
ess 579
thr@@ 579
ците@@ 579
High 578
Пес@@ 578
директора 578
1571 577
Night 577
1730 576
\ 576
ona 576
ведение 576
вше@@ 576
1685 575
1669 574
1733 574
1764 574
yth@@ 574
газе@@ 573
интересо@@ 573
палат@@ 573
El 572
Grec@@ 572
Star 572
Up 572
gu@@ 572
Hydro@@ 571
Open 571
new 571
134 570
1714 570
1723 570
ER@@ 570
pin@@ 570
urn@@ 570
деяте@@ 570
HTML 569
Is 569
Meg@@ 569
cal@@ 569
don@@ 569
1662 568
iidae 568
Τ@@ 568
Ура@@ 568
крепо@@ 568
ню 568
тики 568
Best 567
SP@@ 567
cap@@ 567
graphique 567
1597 566
Ottoman 566
Statisti@@ 566
ium 566
132 565
str@@ 565
года 565
Tor@@ 564
alb@@ 564
ister 564
ori@@ 564
Σ@@ 564
ровна 564
установи@@ 564
фестива@@ 564
Pan@@ 563
min@@ 563
thi@@ 563
кинемато@@ 563
пропаган@@ 563
формирования 563
138 562
1615 562
1705 562
1765 562
185 562
Fl@@ 562
Sph@@ 562
Ниж@@ 562
дав@@ 562
дила 562
1204 561
1628 561
Awards 561
fer@@ 561
Луч@@ 561
желе@@ 561
205 560
48@@ 560
DC 560
kW 560
mor@@ 560
.е. 559
University 559
ici@@ 559
son@@ 559
1710 558
Fox 558
Red 558
atum 558
der@@ 558
Олимпиа@@ 558
AN 557
ile 557
доров@@ 557
йнт 557
Il 556
ke 556
loc@@ 556
Смолен@@ 556
1684 555
Val@@ 555
Викто@@ 555
власт@@ 554
писали 554
1758 553
инжене@@ 553
1645 552
1742 552
23,@@ 552
3500 552
AF 552
ge@@ 552
1731 551
1754 551
1761 551
MI 551
ur 551
YouTube 550
принце@@ 550
роз@@ 550
1718 549
City 549
cer@@ 549
è 549
жан 549
310 548
USS 548
итава 548
конку@@ 548
Pictures 547
This 547
ings 547
Герма@@ 547
1716 546
36,@@ 546
SM 546
Inc. 545
кафе@@ 545
клад@@ 545
1515 544
Blue 544
позволи@@ 543
1736 542
Im@@ 542
Media 542
é@@ 542
1609 541
ere 541
out 541
заня@@ 541
A. 540
Mur@@ 540
olo@@ 540
1654 539
1779 539
Si@@ 539
моло@@ 539
ной 539
скул@@ 539
Char@@ 538
We 538
· 538
Por@@ 537
ST@@ 537
the@@ 537
Георгий 537
бокс@@ 536
1759 535
land 535
mat@@ 535
ордина@@ 535
22,@@ 534
370 534
ali@@ 534
пореди@@ 534
1565 533
RI@@ 533
q@@ 533
1583 532
1753 532
ostr@@ 532
Краснояр@@ 532
1703 531
National 531
SE@@ 531
e.@@ 531
ki 531
Черни@@ 531
км@@ 531
нок 531
ard@@ 530
Фердина@@ 530
пограни@@ 530
ука@@ 530
44@@ 529
son 529
боло@@ 529
отече@@ 529
0,1 528
доход 528
onia 527
уез@@ 527
1687 526
325 526
Vol@@ 526
Ros@@ 525
asi@@ 525
решил 525
1624 524
War@@ 524
eo 524
im 524
omy@@ 524
otus 524
запу@@ 524
TE@@ 523
pora 523
СМ@@ 523
154 522
ib@@ 522
вси@@ 521
AG 520
Channel 520
147 519
1751 519
ace@@ 519
176 518
Eur@@ 518
Sor@@ 518
ary 518
рян@@ 518
чел 518
1752 517
Acanth@@ 517
Studios 517
mer@@ 517
146 516
1713 516
1749 516
Ur@@ 516
1725 515
зиди@@ 515
одо@@ 515
сержан@@ 515
136 514
166 514
Pter@@ 514
Reg@@ 514
‘ 514
Intel 513
` 513
che 513
ek@@ 513
phy@@ 513
гани@@ 513
46@@ 512
OH 512
Plat@@ 512
VI@@ 512
ectus 512
крае@@ 512
1732 511
1734 511
Not@@ 511
ema 511
чив 511
162 510
Min@@ 510
www.@@ 510
ect 509
Rhin@@ 508
amb@@ 508
tion 508
148 507
ah 507
ory 507
едо@@ 507
1727 506
Phyl@@ 506
est@@ 506
up@@ 506
лано 506
Анатолий 505
1697 504
ВД 504
192 503
US 503
af@@ 503
ko@@ 503
York 502
able 502
ning 502
st 502
Wor@@ 501
cur@@ 501
прав 501
оставил 500
119 499
2. 499
Na@@ 499
TV@@ 499
arius 499
yan@@ 499
тая 499
шие 499
131 498
Cu@@ 498
Rom@@ 498
SA 498
HMS 497
oceph@@ 497
sim@@ 497
tac@@ 497
дино@@ 497
круп@@ 497
помощи 497
he@@ 496
шав@@ 496
1,7 495
NGC 495
chrom@@ 495
Поз@@ 495
sin@@ 494
8,5 493
Big 493
Dr@@ 493
O2 493
Николаевич 493
1717 492
1755 492
ales 492
ari 492
теше@@ 492
MW 491
Pro 491
q 491
РСФСР 491
вопро@@ 491
EC@@ 490
Ho@@ 490
АО 490
примерно 490
Don 489
Nov@@ 489
тело 489
142 488
151 488
uf@@ 488
стр 488
2,3 487
70@@ 487
AP@@ 487
ae@@ 487
ks 487
Script 486
ense 486
воро@@ 486
зав@@ 486
метров 486
сона 486
Окон@@ 485
Поб@@ 485
ay@@ 484
лая 484
1517 483
AS 483
Ber@@ 483
DE@@ 483
Lib@@ 482
bu@@ 482
illi@@ 482
č@@ 482
шир@@ 482
1719 481
amp@@ 481
if 481
sub@@ 481
могла 481
200@@ 480
Sci@@ 480
названия 480
bul@@ 479
go@@ 479
Етно@@ 479
гимна@@ 479
Be 478
235 477
430 477
bat@@ 477
eh@@ 477
ise 477
me@@ 477
zi 477
Fac@@ 476
Leg@@ 476
ra@@ 476
275 475
356 475
aw@@ 475
melan@@ 475
гда 475
161 474
Av@@ 474
cel@@ 474
ken 474
orus 474
ѐ 474
ave 473
class 473
ularis 473
команда 473
секретар@@ 473
1555 472
1747 472
SS@@ 472
Studio 472
Об 472
ям 472
Ple@@ 471
Sil@@ 471
lia 471
0,3 470
Pal@@ 470
mg 470
уго@@ 470
0,2 469
440 469
90@@ 469
цете 469
182 468
For 468
ick@@ 468
ner 467
социации 467
хии 467
21,@@ 466
Κ@@ 466
47@@ 465
ny@@ 465
новил 465
псе@@ 465
Grand 464
бух@@ 464
ess@@ 463
iss@@ 463
low 463
ones 463
Щ 463
вобо@@ 463
Ste@@ 462
Tel@@ 462
ade 462
ene 462
137 461
217 461
1556 460
Pl@@ 460
od 460
AT 459
CE@@ 459
Estr@@ 459
ВС 459
Свя@@ 459
163 458
ast 458
ff@@ 458
ima 458
мами 458
формирова@@ 458
193 457
43@@ 457
Gi@@ 457
баш@@ 457
парламен@@ 457
195 456
290 456
FO@@ 456
Pseud@@ 456
ake 456
opo@@ 456
вши@@ 456
actylus 455
ellus 455
til@@ 455
Михайлович 455
Преобра@@ 455
мович 455
156 454
Day 454
ah@@ 454
bor@@ 454
bre@@ 454
sk@@ 454
Норве@@ 454
201 453
Dark 453
Like 453
San 453
ваш@@ 453
тога@@ 453
256 452
Do 452
pp@@ 452
йти 452
141 451
ABC 451
Fo@@ 451
ack 451
tur@@ 451
μ@@ 451
треш@@ 451
2.0 450
Death 450
cas@@ 450
etta 449
nus 449
ster@@ 449
Ν@@ 449
Android 448
Sub@@ 448
return 448
1,1 447
va 447
ς 447
Centr@@ 446
Del@@ 446
ker 446
крас@@ 446
ное 446
пизо@@ 446
950 445
Ε@@ 445
европе@@ 445
164 444
кут@@ 444
196 443
204 443
Go 443
tar@@ 443
560 442
Rec@@ 442
ire 442
гами 442
172 441
2,4 441
460 441
Mir@@ 441
RE@@ 441
гет@@ 441
Ri@@ 440
54@@ 439
H2O 439
Line 439
Rem@@ 439
ast@@ 439
Казах@@ 439
Чика@@ 439
вив 439
ключе@@ 439
167 438
206 438
410 438
49@@ 438
хослова@@ 438
NE@@ 437
aster 437
Рус@@ 437
215 436
520 436
Hal@@ 436
Образо@@ 436
188 435
29,@@ 435
HS 435
ir 435
Open@@ 434
dus 434
inidae 434
ve@@ 434
view 434
Петербург@@ 434
Sy@@ 433
Zo@@ 433
bur@@ 433
eil@@ 433
flav@@ 433
ics 433
mi 433
чу 433
139 432
aj@@ 432
als 432
ical 432
pa 432
сибир@@ 432
0,6 431
from 431
ley 431
лем@@ 431
CBS 430
Out 430
isti@@ 430
ng@@ 430
железо@@ 430
неуда@@ 430
Hap@@ 429
ila 429
Bol@@ 428
United 428
What 428
ain@@ 428
скет@@ 428
212 427
We@@ 427
eng@@ 427
Χ@@ 427
див 427
178 426
184 426
197 426
Es@@ 426
чика 426
186 425
720 425
AV@@ 425
COVID 425
Labr@@ 425
Prot@@ 425
TS 425
aja 425
ine@@ 425
sal@@ 425
tel@@ 425
ani@@ 424
arg@@ 424
174 423
RT@@ 423
dic@@ 423
dom@@ 423
ick 423
k.@@ 423
oh@@ 423
ud@@ 423
губернатора 423
365 422
Du@@ 422
Home 422
PS 422
Sim@@ 422
Bor@@ 421
Pin@@ 421
SQL 421
ith@@ 421
губер@@ 421
von 420
149 419
177 419
2,6 419
otis 419
~ 419
Оле@@ 419
бя 419
нах@@ 419
reg@@ 418
ò@@ 418
Площа@@ 418
парла@@ 418
AD@@ 417
Cro@@ 417
зови@@ 417
узна@@ 417
183 416
74@@ 416
Ni@@ 416
денти@@ 416
игро@@ 416
кое 416
пии 416
стокра@@ 416
ходят 416
169 415
Des@@ 415
Radio 415
Super@@ 415
pes 415
ή 415
вило 415
213 414
254 414
BC 414
ice 414
opsis 414
ty@@ 414
правил 414
153 413
Scar@@ 413
aup@@ 413
cre@@ 413
так 413
64@@ 412
Sun 412
211 411
65@@ 411
John 411
убит@@ 411
67@@ 410
юго 410
3,2 409
3,6 409
56@@ 409
pa@@ 409
tan@@ 409
рем 409
Space 408
bi 408
низации 408
Cat@@ 407
Heart 407
Kar@@ 407
arch@@ 407
ax@@ 407
ë@@ 407
216 406
58@@ 406
Award 406
Bros. 406
Facebook 406
Uni@@ 406
ok 406
включа@@ 406
FC 405
Royal 405
fer 405
une 405
кото@@ 405
143 404
202 404
A.@@ 404
Mot@@ 404
Sab@@ 404
char@@ 404
здание 404
191 403
sen@@ 403
авгу@@ 403
агент@@ 403
лке 403
2,2 402
Mc@@ 402
aga 402
alm@@ 402
ВМО@@ 402
Чем@@ 402
Pri@@ 401
0,8 400
218 400
AB@@ 400
TP 400
eu@@ 400
Француз@@ 400
шла 400
,@@ 399
390 399
9000 399
HD 399
Show 399
etus 399
ota 399
ó@@ 399
лой 399
ожи@@ 399
King 398
eum 398
ë 398
старто@@ 398
59@@ 397
Dance 397
aci@@ 397
otr@@ 397
сомо@@ 397
Top 396
WCW 396
km@@ 396
68@@ 395
Cur@@ 395
Mac 395
ada 395
oa 395
189 394
ther@@ 394
слова 394
157 393
640 393
ama 393
ip@@ 393
верса@@ 393
оконча@@ 393
остат@@ 393
187 392
API 392
cic@@ 392
inae 392
je 392
ven@@ 392
СР 392
285 391
Cam@@ 391
News 391
─ 391
Ger@@ 390
House 390
Sony 390
ler@@ 390
Camp@@ 389
Journal 389
ilia 389
pu@@ 389
style 389
tal@@ 389
новка 389
98@@ 388
Hem@@ 388
igh@@ 388
lam@@ 388
ong@@ 388
Александрович 388
рост 388
Kr@@ 387
ca@@ 387
cat@@ 387
cl@@ 387
ν 387
ός 387
хок@@ 387
General 386
HBO 386
Pom@@ 386
TA 386
VA 386
tera 386
Lov@@ 385
au 385
tra@@ 385
vit@@ 385
Can 384
Center 384
Jav@@ 384
tro@@ 384
και 384
Амери@@ 384
мъжва 384
2,7 383
Camb@@ 383
HD@@ 383
Xen@@ 383
her@@ 383
ua 383
238 382
99@@ 382
ow@@ 382
sec@@ 382
ug@@ 382
династии 382
пут@@ 382
шинг@@ 382
ѣ 382
540 381
DOS 381
Way 381
ens@@ 381
381 380
Pas@@ 380
йто 380
IE@@ 379
tic 379
± 379
нами 379
Unix 378
aen@@ 378
int@@ 378
2,8 377
33,@@ 377
AL@@ 377
CP 377
Pap@@ 377
Res@@ 377
zi@@ 377
соф@@ 377
тря@@ 377
222 376
Street 376
USB 376
atis 376
bius 376
our 376
ung@@ 376
дера@@ 376
306 375
680 375
ets 375
formes 375
ulata 375
198 374
209 374
PO@@ 374
ilis 374
ry@@ 374
окон@@ 374
173 373
179 373
CD@@ 373
ab 373
ba 373
mel@@ 373
time 373
шру@@ 373
88@@ 372
Tre@@ 372
olor 372
ste@@ 372
аль@@ 372
студии 372
75@@ 371
ack@@ 371
arr@@ 371
entr@@ 371
Π@@ 371
207 370
ated 370
171 369
343 369
9,5 369
GB 369
Mat@@ 369
ero 369
ez@@ 369
470 368
Ran@@ 368
WA 368
dium 368
ico 368
rich@@ 368
yx 368
Яков@@ 368
бест@@ 368
кам 368
AB 367
Dic@@ 367
Good 367
Lep@@ 367
SMS 367
anthus 367
olog@@ 367
tig@@ 367
tro 367
ρι@@ 367
229 366
Gen@@ 366
Har@@ 366
gens 366
Β@@ 366
395 365
Universal 365
dy 365
ko 365
nis 365
ong 365
ony@@ 365
ž@@ 365
мок 365
ремо@@ 365
355 364
TNA 364
occ@@ 364
тата@@ 364
0,4 363
HT@@ 363
Mic@@ 363
idi@@ 363
las 363
лиц 363
AI@@ 362
elle 362
ł@@ 362
Ль@@ 362
CC@@ 361
Eng@@ 361
Fre@@ 361
Writ@@ 361
lis 361
text 361
географи@@ 361
живу@@ 361
245 360
3. 360
375 360
Ach@@ 360
Cir@@ 360
fo@@ 360
ATP 359
Cl 359
DO@@ 359
Festival 359
PE@@ 359
Plan@@ 359
Sur@@ 359
fasci@@ 359
icul@@ 359
Новосибир@@ 359
водил 359
001 358
America 358
pay 358
Сибир@@ 358
здания 358
S.@@ 357
chr@@ 357
mal@@ 357
стров 357
elli 356
ву 356
зиден@@ 356
Black@@ 355
MO@@ 355
pos@@ 355
β 355
Вашинг@@ 355
бок 355
гом 355
лого 355
DA 354
cha 354
chin@@ 354
dor@@ 354
sil@@ 354
ι 354
Рас@@ 354
орде@@ 354
Lab@@ 353
aer@@ 353
ars 353
bit 353
ello 353
go 353
inn@@ 353
3,3 352
College 352
a.@@ 352
rec@@ 352
Λ@@ 352
Eu@@ 351
Ferrari 351
GM 351
ft 351
milit@@ 351
Алексе@@ 351
194 350
255 350
960 350
Bath@@ 350
EN@@ 350
ey 350
Μ@@ 350
аспиран@@ 350
итуа@@ 350
чем 350
219 349
53@@ 349
BMW 349
Bul@@ 349
First 349
Project 349
amm@@ 349
king 349
nem@@ 349
net 349
rop@@ 349
ry 349
vo 349
η 349
Из 349
тности 349
Dead 348
FM 348
Homo 348
IP@@ 348
prim@@ 348
веду@@ 348
18@@ 347
BS 347
Dol@@ 347
Girl 347
Gl@@ 347
PC@@ 347
Trans@@ 347
Vir@@ 347
ish 347
ly@@ 347
ode 347
tia 347
« 347
баталь@@ 347
зани@@ 347
уг@@ 347
HP 346
PP@@ 346
Sar@@ 346
del@@ 346
pha 346
тика@@ 346
159 345
CA 345
Chi@@ 345
Dec@@ 345
M. 345
NET 345
Ter@@ 345
White 345
ato 345
ber 345
op 345
pul@@ 345
Иркут@@ 345
Петра 345
Sel@@ 344
Star@@ 344
ette 344
leg@@ 344
toon 344
vus 344
‎ 344
Apo@@ 343
IC 343
ain 343
die 343
long@@ 343
оса@@ 343
530 342
86@@ 342
Ang@@ 342
CN@@ 342
Sw@@ 342
ce@@ 342
ovo 342
vic@@ 342
λ@@ 342
Локо@@ 342
лъче@@ 342
251 341
Fi@@ 341
Syn@@ 341
Vo@@ 341
ga 341
335 340
Kiss 340
Lady 340
Mas@@ 340
ep 340
sel@@ 340
sy@@ 340
una 340
Степа@@ 340
181 339
610 339
дистанции 339
158 338
Ke@@ 338
LA 338
Lin@@ 338
ill 338
pre@@ 338
δ@@ 338
занти@@ 338
рождения 338
232 337
66@@ 337
chi 337
fus@@ 337
soni 337
ä@@ 337
221 336
323 336
Hor@@ 336
Web 336
optera 336
Ρ@@ 336
του 336
вру@@ 336
D. 335
Hello 335
Oc@@ 335
hr@@ 335
ut 335
α@@ 335
восток 335
ье 335
Ti@@ 334
esti@@ 334
icum 334
oi 334
ting 334
барди@@ 334
бре 334
265 333
Cham@@ 333
Championship 333
Co 333
LC 333
Press 333
art@@ 333
pe 333
департа@@ 333
цери 333
283 332
Book 332
Down 332
Ly@@ 332
Mk 332
ˈ@@ 332
And 331
Are 331
MS@@ 331
UT@@ 331
bal@@ 331
wer@@ 331
ι@@ 331
1,9 330
253 330
Brach@@ 330
Song 330
eni 330
estr@@ 330
окли@@ 330
плав@@ 330
президен@@ 330
301 329
334 329
MC 329
ame 329
cho@@ 329
illus 329
вок@@ 329
303 328
Met@@ 328
PA 328
Twitter 328
ach 328
dis@@ 328
not@@ 328
unc@@ 328
Юго 328
дой 328
15.@@ 327
214 327
B. 327
Der 327
Last 327
Little 327
ds 327
ors 327
ub@@ 327
ō@@ 327
Наи@@ 327
рос@@ 327
234 326
GP@@ 326
Sun@@ 326
estes 326
дами 326
зей 326
свя@@ 326
тем 326
224 325
Fal@@ 325
GNU 325
Model 325
NH@@ 325
RC 325
arus 325
ins 325
usa 325
vol@@ 325
262 324
38,@@ 324
Visual 324
ech@@ 324
tin@@ 324
епархии 324
регуляр@@ 324
туда 324
57@@ 323
CI@@ 323
CO 323
Columb@@ 323
E. 323
Gro@@ 323
Super 323
War 323
Wh@@ 323
eta 323
fic@@ 323
leuc@@ 323
Сверд@@ 323
год 323
14.@@ 322
32,@@ 322
Internet 322
NBC 322
Sho@@ 322
284 321
580 321
AA 321
Amp@@ 321
Mes@@ 321
Sep@@ 321
Ul@@ 321
aca 321
ek 321
ticus 321
Азербай@@ 321
писала 321
ято 321
425 320
Ba@@ 320
Productions 320
RAM 320
asy@@ 320
aus@@ 320
ha@@ 320
rot@@ 320
Bas@@ 319
ania 319
non 319
AX 318
Back 318
Loc@@ 318
Ob@@ 318
ali 318
len@@ 318
pus 318
.н@@ 317
241 317
AE@@ 317
Mi@@ 317
ati 317
philus 317
начала 317
2,1 316
227 316
244 316
Lar@@ 316
els 316
Няко@@ 316
Game 315
Light 315
etti 315
жден@@ 315
империи 315
Fire 314
Park 314
agus 314
ela 314
Абсолю@@ 314
фектив@@ 314
23.@@ 313
451 313
Lim@@ 313
Os@@ 313
fl@@ 313
lat@@ 313
this 313
tu 313
зеро 313
DE 312
Dre@@ 312
Dream 312
Gar@@ 312
Pre@@ 312
ac 312
ey@@ 312
ira 312
ros@@ 312
реж@@ 312
760 311
Hu@@ 311
London 311
USA 311
ang 311
ap 311
iti@@ 311
ock 311
out@@ 311
tho@@ 311
генерала 311
шим 311
3,4 310
ier@@ 310
olep@@ 310
ome 310
sti@@ 310
tis@@ 310
видов 310
мян@@ 310
полков@@ 310
чит 310
щено 310
1.0@@ 309
242 309
630 309
78@@ 309
But@@ 309
CV 309
Hell 309
Who 309
alia 309
arum 309
of@@ 309
252 308
333 308
Animation 308
Bu@@ 308
Lu@@ 308
Ori@@ 308
my 308
ters 308
» 308
243 307
249 307
295 307
69@@ 307
747 307
Ak@@ 307
BSD 307
Cin@@ 307
way 307
ѧ 307
315 306
Bad 306
Call@@ 306
их 306
22.@@ 305
570 305
adi@@ 305
ki@@ 305
ric@@ 305
арен@@ 305
Art 304
GT@@ 304
ache 304
anc@@ 304
pan@@ 304
основе 304
313 303
^ 303
isi@@ 303
res@@ 303
Chir@@ 302
DF 302
Get 302
don 302
phis 302
so 302
жал 302
зрения 302
тр@@ 302
264 301
279 301
Syst@@ 301
Tom@@ 301
das 301
восто@@ 301
-- 300
282 300
ations 300
fi@@ 300
phil@@ 300
Во 300
Уст@@ 300
лами 300
Association 299
Roc@@ 299
ish@@ 299
ista 299
312 298
324 298
Ci@@ 298
GC 298
MI@@ 298
anum 298
ci 298
ias 298
ori 298
246 297
AP 297
Deep 297
Dem@@ 297
Video 297
ace 297
bel@@ 297
cola 297
ro 297
ye 297
Anth@@ 296
DS 296
GT 296
Plus 296
Works 296
ami@@ 296
po 296
272 295
Global 295
Luc@@ 295
Type 295
ellas 295
ito 295
key 295
we@@ 295
вая 295
нице 295
281 294
337 294
I.@@ 294
IS 294
ents 294
oz@@ 294
286 293
BO@@ 293
Cel@@ 293
Days 293
Dragon 293
Fi 293
Machine 293
Obj@@ 293
Ram@@ 293
ə@@ 293
β@@ 293
Воз@@ 293
лечения 293
меро@@ 293
302 292
Canal 292
Force 292
istr@@ 292
ME@@ 291
Queen 291
Tal@@ 291
That 291
della 291
row 291
var@@ 291
world 291
273 290
37,@@ 290
79@@ 290
escens 290
vul@@ 290
ĸ@@ 290
производства 290
336 289
Net@@ 289
ath 289
Band 288
CS@@ 288
Europe 288
M.@@ 288
Team 288
agr@@ 288
eth@@ 288
fe@@ 288
yst@@ 288
ο 288
езда 288
прояв@@ 288
317 287
Fe 287
Mil@@ 287
Росто@@ 287
вах 287
267 286
274 286
510 286
Cap@@ 286
Stars 286
har@@ 286
мой 286
стала 286
226 285
237 285
248 285
30,@@ 285
Baby 285
Play 285
aph@@ 285
ern@@ 285
í@@ 285
GPS 284
Nor@@ 284
Road 284
acea 284
dec@@ 284
mas@@ 284
ren@@ 284
ă@@ 284
Γ@@ 284
276 283
32@@ 283
Amaz@@ 283
κα@@ 283
τ@@ 283
звуча@@ 283
Mem@@ 282
UR@@ 282
ago 282
mus 282
my@@ 282
Осве@@ 282
236 281
660 281
@ 281
Pot@@ 281
trum 281
Чемпи@@ 281
European 280
ou 280
tom@@ 280
Иль@@ 280
гария 280
ный 280
рее 280
620 279
Ceph@@ 279
Dom@@ 279
cip@@ 279
enn@@ 279
oo 279
Аржен@@ 279
подписал 279
Brothers 278
Games 278
T. 278
Win@@ 278
day 278
ee 278
olus 278
pic@@ 278
pro@@ 278
ω 278
гория 278
268 277
76@@ 277
Phili@@ 277
Play@@ 277
Power 277
Rhy@@ 277
Young 277
ri 277
sur@@ 277
бурга 277
двиг 277
превра@@ 277
Mol@@ 276
NT 276
Name 276
RS 276
Via 276
With 276
down 276
eria 276
ind@@ 276
ment 276
yo@@ 276
ансамб@@ 276
изнача@@ 276
233 275
257 275
266 275
asc@@ 275
ky 275
οβ@@ 275
Телефон@@ 275
293 274
316 274
Express 274
Rev@@ 274
sem@@ 274
пунк@@ 274
287 273
308 273
404 273
Blood 273
Chlor@@ 273
Dream@@ 273
Stu@@ 273
abr@@ 273
ader 273
enia 273
á 273
Карла 273
Хот@@ 273
брежи@@ 273
ино@@ 273
предложил 273
223 272
331 272
77@@ 272
Rh@@ 272
Sa@@ 272
ik 272
kh@@ 272
lig@@ 272
our@@ 272
uch@@ 272
академии 272
← 272
13.@@ 271
228 271
4. 271
Iron 271
Saint 271
apo@@ 271
color 271
gn@@ 271
osp@@ 271
Золо@@ 271
вс@@ 271
Amph@@ 270
ISBN 270
bis 270
ray 270
Aer@@ 269
Bet@@ 269
CL@@ 269
Ever@@ 269
Ju@@ 269
SC 269
San@@ 269
Sky 269
Society 269
ger 269
ini@@ 269
ke@@ 269
ы 269
ы@@ 269
Action 268
Boeing 268
Girls 268
esper@@ 268
macro@@ 268
ole 268
Υ 268
304 267
490 267
Ali@@ 267
Digital 267
Elec@@ 267
Pon@@ 267
eme 267
ger@@ 267
pon@@ 267
бии 267
322 266
84@@ 266
Arch@@ 266
Ben@@ 266
Electric 266
Japan 266
Let 266
azy 266
nam@@ 266
obi@@ 266
pro 266
uk@@ 266
АССР 266
дорович 266
пункта 266
часов 266
Aus@@ 265
Ele@@ 265
Ltd 265
Pa@@ 265
S. 265
Sym@@ 265
icola 265
ton@@ 265
val@@ 265
L. 264
Research 264
Science 264
orn@@ 264
tem@@ 264
π 264
ρ 264
Код 264
образован 264
Arc@@ 263
Century 263
Mu@@ 263
X. 263
bia 263
des@@ 263
eni@@ 263
ites 263
лиги 263
нач@@ 263
свет 263
увеличи@@ 263
239 262
63@@ 262
978 262
IB@@ 262
Sin@@ 262
Stone 262
UK 262
ans@@ 262
mu@@ 262
nm 262
pH 262
Прод@@ 262
307 261
Ox@@ 261
Wi@@ 261
sw@@ 261
16.@@ 260
263 260
405 260
Al 260
FA 260
Hip@@ 260
NT@@ 260
Poly@@ 260
Pyth@@ 260
SI@@ 260
anz@@ 260
ple@@ 260
rh@@ 260
string 260
י@@ 260
258 259
Zep@@ 259
ado 259
arc@@ 259
get@@ 259
pol@@ 259
участи@@ 259
512 258
Now 258
Office 258
Server 258
ines 258
iscus 258
ου 258
лла 258
нца 258
хождение 258
271 257
Arg@@ 257
Blo@@ 257
P. 257
Pop@@ 257
Vic@@ 257
ash@@ 257
ilus 257
mus@@ 257
ness 257
pur@@ 257
var 257
σ@@ 257
дворян@@ 257
17.@@ 256
AM 256
BA 256
iPhone 256
oria 256
other 256
Покров@@ 256
311 255
Div@@ 255
Wild 255
gia 255
tius 255
Укра@@ 255
Форму@@ 255
261 254
Lon@@ 254
Paris 254
SE 254
Ta@@ 254
ail@@ 254
ble 254
den@@ 254
esta 254
odi@@ 254
ster 254
замени@@ 254
H2@@ 253
Ko@@ 253
Maria 253
Nokia 253
So 253
Spe@@ 253
con 253
peri@@ 253
окончания 253
100@@ 252
415 252
5. 252
BM@@ 252
DB 252
Ha@@ 252
Hill 252
ane 252
iTunes 252
ie@@ 252
lum 252
nov@@ 252
uta 252
í 252
Σ 252
π@@ 252
Восто@@ 252
лейб@@ 252
набра@@ 252
201@@ 251
338 251
Atel@@ 251
Bro@@ 251
Fin@@ 251
May@@ 251
acc@@ 251
astr@@ 251
bic@@ 251
ici 251
include 251
leri 251
ò 251
рована 251
сум@@ 251
318 250
Bulgaria 250
Pun@@ 250
Spar@@ 250
dei 250
esi 250
hu@@ 250
iOS 250
kar@@ 250
ν@@ 250
жер@@ 250
299 249
Aur@@ 249
By@@ 249
Cos@@ 249
Free 249
G. 249
Out@@ 249
ement 249
kr@@ 249
macul@@ 249
шло 249
Boy 248
bas@@ 248
ted 248
F.@@ 247
align 247
iden 247
inter@@ 247
ylo@@ 247
купа@@ 247
маке@@ 247
25.@@ 246
85@@ 246
Boys 246
IA 246
Is@@ 246
Lam@@ 246
Review 246
acer@@ 246
acle 246
fu@@ 246
log@@ 246
ze 246
αν@@ 246
ω@@ 246
19@@ 245
309 245
Bank 245
CC 245
Heter@@ 245
Magazine 245
New@@ 245
Rel@@ 245
ante 245
hom@@ 245
nic@@ 245
sum@@ 245
you 245
Уз@@ 245
воин@@ 245
сда@@ 245
288 244
39,@@ 244
Metal 244
When 244
ham@@ 244
ische 244
orb@@ 244
назначения 244
2.5 243
247 243
278 243
294 243
CO2 243
Over 243
Software 243
aea 243
цах 243
Cryp@@ 242
Proc@@ 242
less 242
rol@@ 242
sa@@ 242
Моск@@ 242
простра@@ 242
18.@@ 241
326 241
Bell 241
British 241
Heaven 241
Je@@ 241
LO@@ 241
Syl@@ 241
ust@@ 241
vil@@ 241
Один 241
лизо@@ 241
332 240
Abr@@ 240
Explorer 240
IT 240
LE@@ 240
La@@ 240
Mobile 240
Pat@@ 240
XP 240
elas 240
enta 240
men@@ 240
Дина@@ 240
РК@@ 240
ль 240
AR 239
Business 239
Come 239
Not 239
Red@@ 239
Service 239
Ven@@ 239
nom@@ 239
ris 239
yd@@ 239
γ@@ 239
раза 239
седате@@ 239
Ari@@ 238
Chil@@ 238
Film 238
Max 238
Pach@@ 238
Sac@@ 238
Squ@@ 238
gi 238
idel@@ 238
ike 238
vari@@ 238
½ 238
основал 238
345 237
AL 237
Buc@@ 237
Foundation 237
France 237
Mad@@ 237
RA 237
Tw@@ 237
VC 237
dii 237
eli 237
etes 237
ies 237
via 237
чело@@ 237
20.@@ 236
As 236
Cot@@ 236
Gun@@ 236
MG 236
Pel@@ 236
RT 236
ative 236
bil@@ 236
dis 236
ollis 236
trix 236
ver 236
å@@ 236
ū@@ 236
Data 235
Deutsche 235
Great 235
Jo@@ 235
North 235
Sem@@ 235
The@@ 235
hip@@ 235
ian 235
292 234
3.0 234
AD 234
All@@ 234
Pyr@@ 234
Systems 234
Union 234
ass 234
ava 234
mul@@ 234
side 234
ze@@ 234
Рес@@ 234
земле@@ 234
кров@@ 234
386 233
Aut@@ 233
End 233
K. 233
Medi@@ 233
Nu@@ 233
West@@ 233
Woman 233
comes 233
ku@@ 233
ts@@ 233
куро@@ 233
млрд 233
шая 233
259 232
296 232
H. 232
Old 232
aeus 232
anensis 232
aus 232
ights 232
over 232
sion 232
секу@@ 232
ствен@@ 232
1.5 231
269 231
Earth 231
Ep@@ 231
Fil@@ 231
Opera 231
St. 231
Tar@@ 231
V8 231
Web@@ 231
arian 231
met@@ 231
port 231
stri@@ 231
tion@@ 231
заболе@@ 231
19.@@ 230
Bab@@ 230
DV@@ 230
Edition 230
Gall@@ 230
ML@@ 230
Never 230
Power@@ 230
Pres@@ 230
Sum@@ 230
ī@@ 230
дь@@ 230
│ 230
Arts 229
Astr@@ 229
Dev@@ 229
People 229
chus 229
ns 229
Ие@@ 229
губерна@@ 229
Hall 228
Pascal 228
SK 228
SW@@ 228
Trich@@ 228
ams 228
body 228
ser 228
образова@@ 228
отно@@ 228
Dro@@ 227
Fire@@ 227
Hits 227
Hon@@ 227
Island 227
Magic 227
On@@ 227
Xbox 227
bo 227
inger 227
stati@@ 227
Augus@@ 226
DI 226
m. 226
rit@@ 226
ru 226
ό@@ 226
F. 225
ME 225
R. 225
Ring 225
ash 225
gon 225
lep@@ 225
line@@ 225
Χ 225
ζ@@ 225
РФ 225
вести 225
этно@@ 225
1.0 224
298 224
Blu 224
CG 224
Greatest 224
P.@@ 224
Post@@ 224
Sav@@ 224
Scre@@ 224
Te 224
air@@ 224
ime 224
s.@@ 224
пяти@@ 224
ו@@ 224
0,0@@ 223
Bos@@ 223
GP 223
Soul 223
Theatre 223
gl@@ 223
ms 223
nor@@ 223
plat@@ 223
ung 223
της 223
Арме@@ 223
соби@@ 223
231 222
Fab@@ 222
From 222
Hom@@ 222
Just 222
Lac@@ 222
att@@ 222
aud@@ 222
gal@@ 222
ody 222
tw@@ 222
ù 222
ρ@@ 222
рее@@ 222
27.@@ 221
737 221
AG@@ 221
Arti@@ 221
Myr@@ 221
Under@@ 221
house 221
tili@@ 221
ί 221
321 220
CW 220
Dendro@@ 220
Family 220
Hir@@ 220
PS@@ 220
Public 220
Run@@ 220
Sk@@ 220
ami 220
line 220
mot@@ 220
red 220
vin@@ 220
ă 220
куда 220
20. 219
Che@@ 219
MB 219
Mak@@ 219
SL@@ 219
Test@@ 219
West 219
background 219
ento 219
mo 219
ories 219
sis 219
sor@@ 219
tre@@ 219
yn 219
Серге@@ 219
Числе@@ 219
жит 219
Il@@ 218
Wal@@ 218
inum 218
lio 218
nia 218
ova 218
ture 218
use 218
vis 218
An 217
DS@@ 217
Kids 217
Lic@@ 217
Los 217
PlayStation 217
Shi@@ 217
ator@@ 217
brach@@ 217
kii 217
oth 217
Η@@ 217
Екате@@ 217
Blues 216
God 216
Ru@@ 216
State 216
avi@@ 216
berg 216
itch 216
kin 216
micro@@ 216
poem 216
punc@@ 216
É@@ 216
Уча@@ 216
лли@@ 216
Fu@@ 215
GA 215
Let@@ 215
NS@@ 215
Television 215
act 215
ando 215
ten 215
Ν 215
ничества 215
21.@@ 214
297 214
97@@ 214
Box 214
He 214
Summer 214
elo@@ 214
fin@@ 214
iller 214
mail 214
pen@@ 214
ά 214
аспи@@ 214
жав@@ 214
Gor@@ 213
Ir@@ 213
Kon@@ 213
Liv@@ 213
Ol@@ 213
Party 213
ROM 213
Story 213
eti 213
Š@@ 213
ο@@ 213
Аль@@ 213
предвари@@ 213
тах 213
314 212
ATA 212
Fru@@ 212
ON@@ 212
SD 212
ebr@@ 212
ling 212
lo 212
we 212
Меж@@ 212
приш@@ 212
сси@@ 212
стики 212
24.@@ 211
Na 211
Nec@@ 211
culus 211
ich 211
san@@ 211
Со 211
89@@ 210
96@@ 210
IF@@ 210
Real 210
Wo@@ 210
land@@ 210
left 210
tii 210
деле 210
деся@@ 210
289 209
Airlines 209
Audi 209
EC 209
Take 209
ats 209
let 209
ney 209
ocer@@ 209
yla 209
ē@@ 209
ś@@ 209
Haw@@ 208
Van@@ 208
Vel@@ 208
fal@@ 208
ymn@@ 208
товче@@ 208
28.@@ 207
Phil@@ 207
bra 207
cher 207
cli@@ 207
nu@@ 207
tics 207
ul 207
354 206
How 206
Long 206
Parad@@ 206
Sen@@ 206
Som@@ 206
face 206
hp 206
vel@@ 206
xi@@ 206
сит 206
ѫ 206
21@@ 205
Angel 205
Central 205
DP 205
Dor@@ 205
E.@@ 205
Got@@ 205
J. 205
L.@@ 205
Sound 205
ase 205
elia 205
ign@@ 205
mod@@ 205
ology 205
ond@@ 205
χ@@ 205
стом 205
Ford 204
Paul 204
SH@@ 204
Santa 204
Var@@ 204
enc@@ 204
ese 204
esh@@ 204
gin@@ 204
uv@@ 204
â@@ 204
Ъ 204
вами 204
зависимости 204
стера 204
87@@ 203
Bon@@ 203
Books 203
CR@@ 203
Calli@@ 203
Institute 203
Mess@@ 203
Voice 203
its 203
tos 203
unk@@ 203
революции 203
401 202
EA 202
Films 202
Italia 202
Jean 202
Post 202
app@@ 202
ett@@ 202
ful@@ 202
ide@@ 202
ov 202
su 202
wal@@ 202
ō 202
длин@@ 202
княз@@ 202
управления 202
Ra@@ 201
SU@@ 201
Sweet 201
TH@@ 201
ater 201
back 201
bin@@ 201
center 201
gio 201
iger 201
state 201
Маль@@ 201
командо@@ 201
ѭ 201
319 200
Chel@@ 200
Jonas 200
Nick@@ 200
Rolling 200
Three 200
gig@@ 200
up 200
ě@@ 200
Ζ@@ 200
Ω@@ 200
29.@@ 199
Academy 199
Computer 199
Cop@@ 199
Ev@@ 199
Eyes 199
Head 199
More 199
TO@@ 199
inf@@ 199
phyl@@ 199
sia 199
uma 199
æ@@ 199
Мадри@@ 199
изпол@@ 199
поселения 199
рами 199
277 198
AU 198
Cinema 198
N.@@ 198
Sea 198
Some@@ 198
Sper@@ 198
anger 198
atio 198
ful 198
hor@@ 198
kl@@ 198
mol@@ 198
oto 198
van 198
праж@@ 198
291 197
Away 197
ICA@@ 197
Ray 197
Right 197
Sm@@ 197
TC 197
Ze@@ 197
eros 197
print@@ 197
rup@@ 197
sii 197
wa 197
26.@@ 196
Acc@@ 196
Ban@@ 196
EV@@ 196
Gate 196
Pop 196
Rain 196
Un 196
dy@@ 196
ins@@ 196
ji 196
tim@@ 196
одеж@@ 196
Liber@@ 195
Pep@@ 195
Point 195
chlor@@ 195
cula 195
emis 195
fac@@ 195
grac@@ 195
oper@@ 195
orient@@ 195
sac@@ 195
контракт 195
пой 195
95@@ 194
Autom@@ 194
CV@@ 194
If 194
MP 194
Pen@@ 194
Shar@@ 194
Tim@@ 194
adr@@ 194
ellidae 194
los 194
quit@@ 194
tric@@ 194
Ивана 194
масте@@ 194
ѧ@@ 194
911 193
Asp@@ 193
Benz 193
Comedy 193
ES 193
PG 193
Samsung 193
cid@@ 193
edi@@ 193
eth 193
gran@@ 193
mer 193
ng 193
non@@ 193
ocy@@ 193
wo@@ 193
ü@@ 193
евка 193
ARC 192
Austr@@ 192
Chrom@@ 192
Cul@@ 192
Dam@@ 192
Dog@@ 192
FF 192
Green 192
History 192
League 192
Lost 192
Vista 192
agon@@ 192
esa 192
grandi@@ 192
onym@@ 192
rostr@@ 192
spin@@ 192
ush 192
ε@@ 192
нике 192
тече@@ 192
् 192
999 191
B.@@ 191
Mis@@ 191
Standard 191
acul@@ 191
egr@@ 191
esia 191
lob@@ 191
uz@@ 191
е. 191
.н. 190
DM 190
Gesellschaft 190
Tu@@ 190
austr@@ 190
mol 190
oll@@ 190
onis 190
otes 190
ust 190
нъ@@ 190
Aqu@@ 189
Control 189
Factory 189
Forever 189
Master 189
Non 189
Prim@@ 189
Sec@@ 189
South 189
Tran@@ 189
ains 189
amework 189
asp@@ 189
mit@@ 189
ume 189
колхо@@ 189
неме@@ 189
1.1 188
BE 188
Beautiful 188
Das 188
Don@@ 188
ET 188
Got 188
IV@@ 188
Land 188
SD@@ 188
Stre@@ 188
Under 188
alli@@ 188
art 188
cy@@ 188
lem@@ 188
ny 188
sions 188
type 188
όν 188
Япо@@ 188
дут 188
тех 188
Bulg@@ 187
Daily 187
Ed@@ 187
Tak@@ 187
UFC 187
Wall 187
bian 187
gre@@ 187
isa 187
onom@@ 187
sul@@ 187
рубе@@ 187
A1 186
Children 186
Hyper@@ 186
IG@@ 186
Motor@@ 186
SM@@ 186
Sam@@ 186
TE 186
Wol@@ 186
bran@@ 186
ì@@ 186
Екатери@@ 186
Оль@@ 186
голя@@ 186
отвер@@ 186
присвоено 186
BB 185
Bat@@ 185
Cle@@ 185
EN 185
EP@@ 185
GmbH 185
IN 185
Mid@@ 185
Petr@@ 185
fol@@ 185
https 185
light 185
pter@@ 185
self 185
set 185
well 185
ā 185
θ@@ 185
ками 185
ской 185
Aeg@@ 184
Chart 184
East 184
FS 184
Golden 184
Mercedes 184
Moon 184
Om@@ 184
PR@@ 184
Trav@@ 184
abilis 184
com 184
ect@@ 184
gh@@ 184
isch@@ 184
kon@@ 184
mani 184
udi@@ 184
value 184
Cup 183
Good@@ 183
NS 183
Quer@@ 183
Ruby 183
Two 183
function 183
men 183
tiv@@ 183
vi 183
ού@@ 183
уде@@ 183
6. 182
About 182
IEEE 182
PR 182
Ret@@ 182
UC@@ 182
bro@@ 182
lex 182
pres@@ 182
rix 182
Арх@@ 182
ктов 182
следо@@ 182
ством 182
45,@@ 181
Born 181
Fun@@ 181
Kal@@ 181
R.@@ 181
Songs 181
Sti@@ 181
ein 181
hol@@ 181
iter 181
ml 181
oy@@ 181
tal 181
мирович 181
напада@@ 181
Age 180
Am 180
Bay 180
EMI 180
Radi@@ 180
Rho@@ 180
Rob@@ 180
Sports 180
eca 180
not 180
ulg@@ 180
under@@ 180
Θ@@ 180
брово 180
дерев@@ 180
если 180
раун@@ 180
ссе@@ 180
ა@@ 180
30.@@ 179
CM@@ 179
Christmas 179
Da@@ 179
ER 179
Ec@@ 179
Fol@@ 179
Gom@@ 179
Human 179
Series 179
Ther@@ 179
come 179
dol@@ 179
ew@@ 179
ille 179
isi 179
low@@ 179
ίου 179
γ 179
Заслу@@ 179
гой 179
дах 179
3.5 178
AK@@ 178
Lat@@ 178
Side 178
Ton@@ 178
Wil@@ 178
da@@ 178
imus 178
iti 178
kan@@ 178
lati@@ 178
ret@@ 178
ski 178
uck 178
ée 178
ί@@ 178
Э@@ 178
вии 178
ждена 178
одно 178
њ@@ 178
Ann@@ 177
Bit@@ 177
CT 177
NA 177
Pil@@ 177
Stor@@ 177
Wide 177
Xi@@ 177
aul@@ 177
ente 177
head 177
onal@@ 177
wi@@ 177
ws 177
τζ@@ 177
сту 177
стя 177
44,@@ 176
Au@@ 176
Fall 176
Ky@@ 176
LP 176
Management 176
Morning 176
Technology 176
Tit@@ 176
aff@@ 176
apia 176
din@@ 176
else 176
esis 176
fil@@ 176
more 176
ικ@@ 176
ГУ 176
воль@@ 176
километров 176
і 176
49,@@ 175
Cros@@ 175
Dog 175
Fel@@ 175
Mr. 175
Sex@@ 175
Ster@@ 175
ate@@ 175
atic 175
lock 175
mic@@ 175
org@@ 175
sar@@ 175
spir@@ 175
top@@ 175
″ 175
Again 174
Child 174
Dr. 174
Modern 174
Sofia 174
ado@@ 174
alar@@ 174
dal@@ 174
duc@@ 174
fre@@ 174
ide 174
ili 174
ju@@ 174
ker@@ 174
lie 174
na@@ 174
pil@@ 174
star 174
wood 174
Вероя@@ 174
ември 174
ологии 174
потен@@ 174
сом@@ 174
199@@ 173
Clar@@ 173
Comp@@ 173
Dan@@ 173
EF@@ 173
Fiat 173
Impact 173
Kor@@ 173
Lor@@ 173
Men 173
Mod@@ 173
atin@@ 173
boy 173
cili@@ 173
ele 173
ff 173
field 173
ho 173
ial 173
ment@@ 173
mp@@ 173
mun@@ 173
ome@@ 173
osoma 173
pf@@ 173
phr@@ 173
tura 173
Ι 173
Act 172
Ere@@ 172
Max@@ 172
Net 172
Perf@@ 172
RCA 172
Sex 172
augh@@ 172
burg 172
elo 172
ez 172
für 172
meg@@ 172
private 172
ures 172
ï@@ 172
Ярослав@@ 172
ї@@ 172
501 171
Alo@@ 171
Brown 171
Store 171
Year 171
bol@@ 171
deon 171
ika 171
nat@@ 171
rem@@ 171
tre 171
ö@@ 171
Aph@@ 170
Bot@@ 170
CR 170
Od@@ 170
Pseudo@@ 170
Will 170
by@@ 170
hab@@ 170
nch@@ 170
osh 170
pec@@ 170
utt@@ 170
width 170
ying 170
zy@@ 170
Δήμος 170
мое 170
э@@ 170
196@@ 169
50,@@ 169
Ado@@ 169
Audi@@ 169
D.@@ 169
Martin 169
Mind 169
Set@@ 169
Vol 169
dem@@ 169
ego 169
imal 169
ket 169
nik 169
section 169
zen 169
ων 169
брехт 169
AF@@ 168
Chron@@ 168
David 168
Full 168
George 168
Hur@@ 168
Kin@@ 168
LED 168
Nav@@ 168
Part 168
Roll 168
Sl@@ 168
Sport 168
W. 168
ask@@ 168
fes@@ 168
hi 168
ink 168
stein 168
ː 168
Белару@@ 168
чета@@ 168
47,@@ 167
C.@@ 167
COM 167
Enterprise 167
GS 167
Pir@@ 167
Secret 167
Si 167
Wr@@ 167
aka 167
alba 167
bon@@ 167
cep@@ 167
esi@@ 167
ots 167
ę@@ 167
φ@@ 167
Ниже@@ 167
грам@@ 167
стихот@@ 167
Ball@@ 166
Here 166
ST 166
air 166
amo@@ 166
anti 166
clear 166
eles 166
g. 166
mann 166
mos@@ 166
pat@@ 166
play 166
px 166
tive 166
ute 166
чной 166
48,@@ 165
94@@ 165
Cloud 165
Ga@@ 165
Rap@@ 165
SV@@ 165
agn@@ 165
asi 165
ces 165
ding 165
equ@@ 165
iga 165
je@@ 165
let@@ 165
nas@@ 165
off 165
ole@@ 165
phila 165
phon@@ 165
super@@ 165
tam@@ 165
апри@@ 165
кто 165
поля 165
шем 165
ա@@ 165
Anti@@ 164
Fas@@ 164
Lit@@ 164
PL 164
Publ@@ 164
Run 164
Stop 164
Water@@ 164
Wit@@ 164
ao 164
cho 164
dea 164
dex 164
form@@ 164
gris@@ 164
ism 164
ux 164
κ@@ 164
мум 164
40,@@ 163
Bir@@ 163
Bou@@ 163
Cola 163
Final 163
Fri@@ 163
Jazz 163
Junior 163
Men@@ 163
Purple 163
Ultimate 163
ards 163
bac@@ 163
chia 163
iss 163
itas 163
jpg 163
print 163
ski@@ 163
uca 163
zo 163
µ@@ 163
Η 163
Василь@@ 163
площади 163
сокра@@ 163
500@@ 162
Air@@ 162
Collection 162
Dar@@ 162
EL@@ 162
Gold@@ 162
IL 162
Language 162
Ot@@ 162
Saf@@ 162
UE@@ 162
can 162
core 162
ein@@ 162
ely 162
emp@@ 162
ever 162
inia 162
japon@@ 162
ll 162
patr@@ 162
ska 162
ø@@ 162
ία 162
ε 162
Авст@@ 162
еха@@ 162
руки 162
стол@@ 162
чая 162
31.@@ 161
CNN 161
Han@@ 161
Mom@@ 161
Nes@@ 161
Number 161
Pod@@ 161
True 161
elec@@ 161
ende 161
ido 161
mad@@ 161
sap@@ 161
while 161
ά@@ 161
ης 161
Дмитри@@ 161
СКА 161
Фридри@@ 161
обучения 161
рур@@ 161
уезд 161
.org 160
Bus@@ 160
CP@@ 160
HC 160
No. 160
Over@@ 160
Sand@@ 160
aun@@ 160
edo 160
he 160
hel@@ 160
lus 160
ods 160
sig@@ 160
ull 160
® 160
ː@@ 160
των 160
Дмит@@ 160
Изве@@ 160
Bry@@ 159
Cyc@@ 159
Heli@@ 159
James 159
Py@@ 159
amo 159
box 159
ends 159
eter@@ 159
ote 159
Ио@@ 159
Amazon 158
Battle 158
Change 158
Gir@@ 158
ID 158
Reb@@ 158
Scarabaeidae 158
cape 158
etto 158
itus 158
jav@@ 158
jo@@ 158
lev@@ 158
ophy@@ 158
pard 158
pot@@ 158
ump@@ 158
yon 158
yon@@ 158
Τσ@@ 158
κ 158
λ 158
Arena 157
By 157
Cast@@ 157
Dark@@ 157
Drive 157
Ful@@ 157
Hot@@ 157
Mul@@ 157
SL 157
Wind 157
ants 157
eleg@@ 157
eon 157
iP@@ 157
oli@@ 157
Č@@ 157
нее 157
победил 157
California 156
Face 156
Far@@ 156
Hen@@ 156
Ner@@ 156
Sap@@ 156
Virgin 156
ais 156
cio 156
err@@ 156
inga 156
kom@@ 156
lut@@ 156
plus 156
ylus 156
Υ@@ 156
αρ@@ 156
ρος 156
τσ@@ 156
сцен@@ 156
чей 156
Ath@@ 155
Bed@@ 155
Body 155
Dir@@ 155
Dynam@@ 155
Hard 155
Nat@@ 155
Pet@@ 155
Player 155
T.@@ 155
Techn@@ 155
Vul@@ 155
Wars 155
acia 155
ady 155
lab@@ 155
lit@@ 155
medi@@ 155
min 155
ost 155
ror 155
tum 155
vir 155
war@@ 155
École 155
ó 155
το@@ 155
Auto 154
Chem@@ 154
Chr@@ 154
Gaz@@ 154
Historia 154
Ice 154
Luci@@ 154
O.@@ 154
Operation 154
SG 154
Sky@@ 154
ag 154
ancing 154
les@@ 154
mark 154
nit@@ 154
som@@ 154
достижения 154
развития 154
сом 154
швей@@ 154
CS 153
Civ@@ 153
Cri@@ 153
Free@@ 153
Hein@@ 153
Hyp@@ 153
IUCN 153
Kn@@ 153
Only 153
Sig@@ 153
Tem@@ 153
Years 153
atra 153
ji@@ 153
lers 153
mil@@ 153
multi@@ 153
nes 153
pos 153
proc@@ 153
val 153
Ο 153
η@@ 153
Псков@@ 153
тенан@@ 153
Beau@@ 152
Blu@@ 152
Double 152
Flash 152
Gold 152
IO@@ 152
Las 152
List 152
Michael 152
Nem@@ 152
Num@@ 152
Phone 152
Pra@@ 152
Seven 152
VO@@ 152
bit@@ 152
iki 152
lav@@ 152
old 152
radi@@ 152
right 152
ρο@@ 152
комп@@ 152
суд 152
Core 151
Fro@@ 151
Mun@@ 151
Pit@@ 151
Wel@@ 151
aux 151
brun@@ 151
cat 151
ear@@ 151
folia 151
mb@@ 151
oon 151
other@@ 151
thy@@ 151
ια 151
ито@@ 151
пом 151
цкий 151
BW@@ 150
Coca 150
Dig@@ 150
Direc@@ 150
Mail 150
Main 150
Online 150
She@@ 150
Water 150
http 150
poli@@ 150
ses 150
ακ@@ 150
кризи@@ 150
љ@@ 150
Af@@ 149
Hollywood 149
Imag@@ 149
Kit@@ 149
LM 149
Li 149
Make 149
Mi 149
Robert 149
Security 149
Special 149
Where 149
crist@@ 149
ix 149
minor 149
ont@@ 149
tin 149
urn 149
urs 149
zon@@ 149
zz@@ 149
Ѐ@@ 149
Начи@@ 149
лейтенан@@ 149
одна 149
япо@@ 149
Alc@@ 148
Der@@ 148
Devil 148
Nova 148
Off@@ 148
Pac@@ 148
Pur@@ 148
She 148
Sof@@ 148
Spir@@ 148
aqu@@ 148
az 148
dell 148
iana 148
ison 148
itor 148
lei 148
sive 148
where 148
коль@@ 148
Gener@@ 147
Ig@@ 147
Mit@@ 147
Tin@@ 147
ages 147
dius 147
fa 147
formis 147
olo 147
osis 147
pera 147
ther 147
thia 147
wil@@ 147
ών 147
поряд@@ 147
преподавал 147
--@@ 146
Bell@@ 146
Class 146
Cru@@ 146
Dest@@ 146
Metall@@ 146
Paramount 146
Rad@@ 146
Tang@@ 146
ange 146
dol 146
ech 146
eci@@ 146
gel@@ 146
hal@@ 146
mir@@ 146
Α 146
ίας 146
ερ@@ 146
ВКП 146
дево@@ 146
400@@ 145
Fur@@ 145
Limited 145
Lyc@@ 145
Pu@@ 145
William 145
aeidae 145
cit@@ 145
craft 145
dig@@ 145
gas@@ 145
ocol@@ 145
ores 145
org 145
vers@@ 145
ì 145
съюзническата 145
фут@@ 145
щик 145
BAS@@ 144
BT@@ 144
Chim@@ 144
Fer@@ 144
Gre@@ 144
Jones 144
Know 144
Sno@@ 144
Sug@@ 144
Van 144
WW@@ 144
arium 144
bri@@ 144
flu@@ 144
ith 144
qui@@ 144
sam@@ 144
tions 144
xx 144
š 144
Верх@@ 144
сут@@ 144
787 143
Alliance 143
Az@@ 143
China 143
Choice 143
Chrys@@ 143
G.@@ 143
GE 143
Honor 143
IL@@ 143
Netflix 143
Pos@@ 143
Produc@@ 143
Rock@@ 143
Sanc@@ 143
Still 143
Touch 143
Whit@@ 143
aft 143
cht@@ 143
dam@@ 143
kin@@ 143
lac@@ 143
umba 143
ć 143
έ@@ 143
неско@@ 143
нования 143
шта@@ 143
Ball 142
Columbia 142
Corn@@ 142
Federation 142
Kom@@ 142
Nas@@ 142
Peter 142
Wan@@ 142
any@@ 142
ays 142
dar@@ 142
ega 142
elli@@ 142
gul@@ 142
kel 142
lad@@ 142
mur@@ 142
night 142
onn@@ 142
ous@@ 142
ram@@ 142
tom 142
§ 142
Φ@@ 142
призва@@ 142
1.2 141
10000 141
46,@@ 141
After 141
Clu@@ 141
F1 141
Gam@@ 141
God@@ 141
Lif@@ 141
Lou@@ 141
Pul@@ 141
Rub@@ 141
assa 141
cum 141
idea 141
imb@@ 141
oli 141
ows 141
pap@@ 141
py@@ 141
syl@@ 141
τος 141
алистиче@@ 141
журнал 141
лине 141
метал@@ 141
сент@@ 141
ть 141
7. 140
Amar@@ 140
At 140
Bri@@ 140
Forbes 140
Laur@@ 140
Psych@@ 140
River 140
Sat@@ 140
Tetr@@ 140
Total 140
Yah@@ 140
affin@@ 140
chen 140
eon@@ 140
icon 140
itz 140
media 140
under 140
uss@@ 140
άν@@ 140
οι 140
измени@@ 140
20th 139
Au 139
Bay@@ 139
Bridge 139
Evil 139
Mari@@ 139
Motors 139
Ren@@ 139
Tot@@ 139
Vog@@ 139
af 139
arm@@ 139
book 139
data 139
lip@@ 139
prot@@ 139
rur@@ 139
ves 139
Владимирович 139
Малай@@ 139
образования 139
ה@@ 139
1.3 138
2023 138
Album 138
Cand@@ 138
Classic 138
Hi@@ 138
Lem@@ 138
Sn@@ 138
Ten@@ 138
There 138
ection 138
fur@@ 138
ider 138
onica 138
ox@@ 138
trach@@ 138
йской 138
путеше@@ 138
Design 137
English 137
Hali@@ 137
Ku@@ 137
aro@@ 137
hum@@ 137
irus 137
ix@@ 137
major 137
mes@@ 137
odes 137
qua 137
ron@@ 137
trop@@ 137
tut@@ 137
umb@@ 137
uts 137
yph@@ 137
ими 137
титул 137
Associ@@ 136
Beg@@ 136
Eg@@ 136
GO@@ 136
Garden 136
Louis 136
Miss 136
SN 136
Strateg@@ 136
Us 136
Without 136
ington 136
mis@@ 136
pas@@ 136
rus@@ 136
tata 136
tium 136
ύ@@ 136
ი@@ 136
Anim@@ 135
CH 135
Duke 135
Equ@@ 135
Euph@@ 135
LD 135
Lag@@ 135
Money 135
Movie 135
Pay@@ 135
Phys@@ 135
Tor 135
W.@@ 135
Walt 135
ban@@ 135
bat 135
lea 135
ques 135
res 135
tory 135
vid@@ 135
är@@ 135
чий 135
Car 134
Fran@@ 134
Glass 134
Rainbow 134
Say 134
States 134
Tokyo 134
ating 134
fe 134
ih@@ 134
jo 134
khe@@ 134
life 134
ony 134
rel@@ 134
seri@@ 134
squ@@ 134
using 134
wa@@ 134
ù@@ 134
στ@@ 134
στα 134
Лондо@@ 134
ксем@@ 134
Angels 133
CE 133
Cath@@ 133
Electronic 133
Friends 133
MIT 133
Oliv@@ 133
Prix 133
Rus@@ 133
Sic@@ 133
Vit@@ 133
You@@ 133
ature 133
eck 133
ev 133
hur@@ 133
imi 133
iva 133
ose 133
rei 133
uti@@ 133
wh@@ 133
za@@ 133
ç@@ 133
ą@@ 133
матур@@ 133
объ@@ 133
2030 132
CI 132
Est@@ 132
Our 132
Piz@@ 132
Sle@@ 132
Soci@@ 132
Son@@ 132
TR@@ 132
Thi@@ 132
Vil@@ 132
enor@@ 132
isp@@ 132
lin 132
lor@@ 132
mit 132
neg@@ 132
que@@ 132
roc@@ 132
ual 132
δ 132
οχώ@@ 132
Свер@@ 132
мости 132
обили 132
распо@@ 132
AI 131
Ast@@ 131
Augusta 131
Brit@@ 131
Call 131
Canada 131
Cis@@ 131
Din@@ 131
Guide 131
Lion 131
Lord 131
Prin@@ 131
Republic 131
SP 131
Scor@@ 131
Smo@@ 131
Spo@@ 131
Tes@@ 131
alc@@ 131
alt@@ 131
ano@@ 131
ario 131
dit 131
ert 131
gen 131
list 131
ort 131
othing 131
sey 131
sur 131
w.@@ 131
zu 131
сть 131
000@@ 130
2- 130
Charles 130
Comics 130
Dur@@ 130
Edge 130
Fort@@ 130
Gra@@ 130
IU@@ 130
Och@@ 130
Oxy@@ 130
Renault 130
Roy@@ 130
Tan@@ 130
aco 130
ands 130
ei@@ 130
iens 130
iri 130
new@@ 130
omor@@ 130
s. 130
ér@@ 130
÷ 130
Ω 130
ας 130
Вос@@ 130
ј 130
1.4 129
Acan@@ 129
App@@ 129
Da 129
Domin@@ 129
GR@@ 129
Get@@ 129
Index 129
Light@@ 129
Math@@ 129
Motor 129
PM 129
Peace 129
Rose 129
Too 129
Valley 129
ality 129
anda 129
anna 129
cam@@ 129
dem 129
emat@@ 129
ennis 129
ext@@ 129
ford 129
longi@@ 129
nh@@ 129
poly@@ 129
εν@@ 129
λι@@ 129
дети 129
ские 129
ских 129
тед 129
∞ 129
Advanced 128
Airbus 128
Atlantic 128
Discovery 128
Future 128
Hotel 128
Land@@ 128
Marie 128
Sax@@ 128
Social 128
afric@@ 128
azzo 128
break 128
eur@@ 128
fast 128
hir@@ 128
ner@@ 128
o.@@ 128
orr@@ 128
own 128
polis 128
quin@@ 128
tul@@ 128
Ј@@ 128
Алба@@ 128
включая 128
муниципа@@ 128
ѡ@@ 128
BD 127
Broadcasting 127
Cav@@ 127
DR 127
Division 127
IF 127
Lev@@ 127
Mary 127
O. 127
Rosa 127
Rot@@ 127
SF@@ 127
Um@@ 127
Wat@@ 127
Zone 127
ben@@ 127
cal 127
cia 127
erry 127
top 127
v. 127
ão 127
ör@@ 127
μ 127
Вюртем@@ 127
Centre 126
DL 126
Douglas 126
Eas@@ 126
Europ@@ 126
Hum@@ 126
Laborat@@ 126
Lis@@ 126
Mn@@ 126
Monster 126
Nar@@ 126
Pok@@ 126
RAF 126
Sing@@ 126
Sunday 126
Tales 126
ally 126
azi@@ 126
eter 126
sen 126
uni@@ 126
ville 126
ère 126
αλ@@ 126
να 126
Индии 126
администрации 126
спец@@ 126
сь 126
א@@ 126
64,@@ 125
Bil@@ 125
Bru@@ 125
Conn@@ 125
Emp@@ 125
Hit 125
SR 125
Telec@@ 125
acy 125
aire 125
anta 125
assi@@ 125
ough 125
ow 125
rag@@ 125
tical 125
trich@@ 125
uld 125
works 125
ī 125
Бель@@ 125
дации 125
Alli@@ 124
Another 124
KO 124
Kir@@ 124
Sir@@ 124
Spirit 124
Washington 124
arch 124
ements 124
ingi 124
pag@@ 124
ple 124
plic@@ 124
tronics 124
ventr@@ 124
ð@@ 124
ż@@ 124
σ 124
зой 124
сса@@ 124
цего@@ 124
App 123
Boh@@ 123
German@@ 123
Living 123
Nintendo 123
Singles 123
Sit@@ 123
amus 123
ather 123
cos@@ 123
double 123
ged 123
music 123
osc@@ 123
version 123
vor 123
ye@@ 123
ρί@@ 123
цкой 123
ר@@ 123
198@@ 122
4.0 122
Ass@@ 122
Aster@@ 122
Concer@@ 122
Development 122
Eye 122
Gn@@ 122
HF 122
Hav@@ 122
Log@@ 122
Mand@@ 122
Other 122
Pho@@ 122
SN@@ 122
Steel 122
Sup@@ 122
Up@@ 122
Viol@@ 122
Wa@@ 122
Women 122
ads 122
bun@@ 122
but@@ 122
che@@ 122
love 122
nius 122
odo@@ 122
person@@ 122
pia 122
ras@@ 122
thon 122
trol@@ 122
try 122
yond 122
υ@@ 122
Турции 122
поселение 122
тами 122
Ash@@ 121
Capital 121
Four 121
Int@@ 121
Long@@ 121
Nucle@@ 121
OR@@ 121
Pa 121
Petro@@ 121
Pink 121
Tach@@ 121
arts 121
emb@@ 121
enger 121
esch@@ 121
fel@@ 121
icon@@ 121
ique 121
mis 121
ords 121
pri@@ 121
pyr@@ 121
tas@@ 121
ube 121
ult 121
umma 121
win@@ 121
ής 121
РККА 121
мерикан@@ 121
рования 121
ב@@ 121
Beh@@ 120
Capr@@ 120
Chry@@ 120
Code 120
Fair@@ 120
Ker@@ 120
MT 120
Ni 120
Prince 120
Psy@@ 120
Rid@@ 120
UI 120
Vis@@ 120
Vor@@ 120
atri@@ 120
begin 120
colspan 120
fly 120
ges 120
ilio 120
log 120
off@@ 120
osaurus 120
ship 120
sm@@ 120
tle 120
win 120
ä 120
άς 120
форм 120
Army 119
Att@@ 119
Chap@@ 119
Hab@@ 119
Lepto@@ 119
Rotten 119
Today 119
View 119
Winter 119
aro 119
cau@@ 119
ej@@ 119
esc@@ 119
fa@@ 119
ider@@ 119
ister@@ 119
mes 119
nati@@ 119
pm 119
sang@@ 119
tha 119
tol@@ 119
vers 119
μπ@@ 119
доктора 119
заявил 119
начал 119
Ἀ@@ 119
CF@@ 118
CON@@ 118
Def@@ 118
Fame 118
Flam@@ 118
H.@@ 118
II. 118
Ing@@ 118
Kat@@ 118
OR 118
Place 118
Spider 118
Thomas 118
Volkswagen 118
alla 118
asa 118
ation@@ 118
aurus 118
chel@@ 118
cot@@ 118
ery 118
esp@@ 118
form 118
may@@ 118
mm@@ 118
ographic 118
point 118
pus@@ 118
set@@ 118
sz@@ 118
trans@@ 118
кие 118
нему 118
цкая 118
300@@ 117
CL 117
CN 117
Kur@@ 117
Services 117
Son 117
Texas 117
XT 117
ail 117
dan@@ 117
dom 117
idi 117
ier 117
itar 117
lop@@ 117
ols 117
oti 117
rap@@ 117
sius 117
sta 117
uh@@ 117
ιον 117
་ 117
Alice 116
Ami@@ 116
BR 116
Bub@@ 116
Bug@@ 116
Cass@@ 116
Communications 116
Fall@@ 116
Generation 116
Hero 116
Heroes 116
Rol@@ 116
Scot@@ 116
Siemens 116
Vari@@ 116
Vision 116
aya 116
bring@@ 116
case 116
glo@@ 116
ground 116
ind 116
itis 116
kal@@ 116
mia 116
ope 116
press 116
sei 116
tot@@ 116
муници@@ 116
уво@@ 116
Ay@@ 115
Extr@@ 115
LE 115
Nature 115
Off 115
Tch@@ 115
Yel@@ 115
aha 115
bis@@ 115
coc@@ 115
eder@@ 115
iny 115
istes 115
maxim@@ 115
pop 115
robus@@ 115
sin 115
ú@@ 115
насел@@ 115
получения 115
8. 114
AW@@ 114
Day@@ 114
FIFA 114
Happy 114
Prom@@ 114
Ras@@ 114
Saturday 114
Tiger 114
Weekly 114
action 114
ardi 114
aru 114
asia 114
ign 114
nd@@ 114
pi 114
serv@@ 114
uth 114
ware 114
wn 114
Μπ@@ 114
φ 114
депу@@ 114
пока 114
считал 114
ῶ@@ 114
197@@ 113
4.5 113
Adel@@ 113
Buil@@ 113
Dim@@ 113
Drag@@ 113
ET@@ 113
Illus@@ 113
Joe 113
Liter@@ 113
Low 113
Mam@@ 113
Nik@@ 113
Non@@ 113
UB 113
USD 113
Una 113
Voy@@ 113
ater@@ 113
cru@@ 113
def@@ 113
enti 113
hon@@ 113
las@@ 113
main 113
obus 113
star@@ 113
them@@ 113
uri 113
án 113
ɛ@@ 113
стей 113
Arm@@ 112
CM 112
Carl 112
Circle 112
FF@@ 112
Guardian 112
Ki@@ 112
Lee 112
Planet 112
Victoria 112
Vivi@@ 112
Wiz@@ 112
acon@@ 112
aly@@ 112
ark@@ 112
ault 112
chim@@ 112
cir@@ 112
counter 112
crip@@ 112
enes 112
ental 112
event@@ 112
igu@@ 112
ild 112
thor@@ 112
εκ 112
утра@@ 112
2.0@@ 111
Brad@@ 111
Cic@@ 111
Cli@@ 111
EM 111
Henry 111
LS 111
Lept@@ 111
Med@@ 111
Oh 111
Town 111
Unic@@ 111
Was 111
aks 111
alan@@ 111
alog@@ 111
bot@@ 111
count 111
dev@@ 111
enz@@ 111
eur 111
fera 111
fire 111
ket@@ 111
lec@@ 111
liber@@ 111
lon 111
net@@ 111
number 111
onau@@ 111
onds 111
ons@@ 111
stat@@ 111
that 111
ular 111
unda 111
vor@@ 111
фом 111
Cent@@ 110
Class@@ 110
Commun@@ 110
DR@@ 110
Dat@@ 110
Exper@@ 110
Fest 110
Hell@@ 110
NC 110
Note 110
Patr@@ 110
Phot@@ 110
Racing 110
Ses@@ 110
Temp@@ 110
Terr@@ 110
Watch 110
aye 110
bir@@ 110
elis 110
enas 110
ité 110
ks@@ 110
mati@@ 110
occident@@ 110
ps@@ 110
rod@@ 110
stone 110
sum 110
undo 110
Ѝ@@ 110
Всемир@@ 110
пах 110
проведения 110
110@@ 109
Apr@@ 109
Before 109
CT@@ 109
Cab@@ 109
Et@@ 109
Night@@ 109
PN 109
Swe@@ 109
Tab@@ 109
Test 109
Tour@@ 109
ades 109
ais@@ 109
asti@@ 109
get 109
kor@@ 109
ologies 109
pedia 109
qui 109
ού 109
σι@@ 109
леса 109
немато@@ 109
оно 109
шинство 109
מ@@ 109
AV 108
Hard@@ 108
Inst@@ 108
Jack 108
Library 108
Magn@@ 108
Map@@ 108
Ober@@ 108
Rep@@ 108
Rum@@ 108
Sign@@ 108
Source 108
Til@@ 108
UL@@ 108
actus 108
andra 108
bes@@ 108
bus@@ 108
dot@@ 108
els@@ 108
engu@@ 108
hood 108
len 108
oga 108
phone 108
wan@@ 108
ú 108
ć@@ 108
конец 108
нако 108
ълга@@ 108
ἐ@@ 108
1.6 107
BT 107
Bun@@ 107
Garr@@ 107
Hand@@ 107
Kings 107
Law 107
Moz@@ 107
Natur@@ 107
Pau@@ 107
SAR@@ 107
Smith 107
Spec@@ 107
Tree 107
alli 107
anger@@ 107
ayer 107
coron@@ 107
ete 107
hiz@@ 107
html 107
iro 107
isch 107
kov@@ 107
legi@@ 107
pod@@ 107
ş@@ 107
ασ@@ 107
мокра@@ 107
населения 107
числи@@ 107
ἀ@@ 107
2.2 106
Ca 106
Card@@ 106
Christian 106
Cit@@ 106
Coun@@ 106
Dame 106
Grande 106
HO@@ 106
Monte 106
Mountain 106
Orange 106
Orth@@ 106
PE 106
Poli@@ 106
UN 106
anes 106
aug@@ 106
code 106
ender 106
gs 106
ingu@@ 106
kat@@ 106
kn@@ 106
mari@@ 106
ophora 106
orph@@ 106
ovi@@ 106
princ@@ 106
sson 106
ything 106
ū 106
αγ@@ 106
действу@@ 106
ему 106
сторо@@ 106
хом 106
ћ 106
Archi@@ 105
Coll@@ 105
Four@@ 105
Glau@@ 105
Mach@@ 105
Nations 105
Rab@@ 105
Second 105
Spring 105
Ten 105
ander@@ 105
ante@@ 105
ave@@ 105
cri@@ 105
ece 105
fest 105
gol@@ 105
hem 105
imo 105
oty@@ 105
wei 105
î@@ 105
τα@@ 105
зами 105
неактив@@ 105
рожден@@ 105
195@@ 104
Bus 104
Cross 104
Dou@@ 104
Dra@@ 104
Fut@@ 104
Independent 104
Kan@@ 104
Mos@@ 104
N. 104
SF 104
Set 104
Studies 104
Tas@@ 104
Tomatoes 104
Unit 104
dop@@ 104
dur@@ 104
ects 104
eine 104
eno 104
indic@@ 104
og 104
stars 104
tel 104
thing 104
tube 104
umin@@ 104
ţ@@ 104
февру@@ 104
ћ@@ 104
0.5 103
Block 103
Boy@@ 103
Camp 103
Cold 103
Common 103
Dy@@ 103
Energy 103
FL 103
Faith 103
Fiction 103
Foc@@ 103
Inn@@ 103
Juli@@ 103
Nation 103
See 103
Show@@ 103
Station 103
aa 103
andi@@ 103
avo 103
axis 103
bet@@ 103
fo 103
gil@@ 103
nan@@ 103
pet@@ 103
quer@@ 103
rev@@ 103
ris@@ 103
sts 103
tab@@ 103
table 103
tori@@ 103
ways 103
wor@@ 103
αμ@@ 103
τσα 103
виде 103
19. 102
190@@ 102
AE 102
Aff@@ 102
Alfa 102
Chal@@ 102
DA@@ 102
Fed@@ 102
ON 102
Re 102
Speed 102
Toyota 102
Tut@@ 102
Walk 102
ango 102
berry 102
camp@@ 102
ec 102
ett 102
ham 102
nos@@ 102
oci@@ 102
omer@@ 102
onius 102
ox 102
plan@@ 102
real 102
tari 102
true 102
ατ@@ 102
бом 102
вича 102
колон@@ 102
отправи@@ 102
ე@@ 102
Bang 101
Berlin 101
Bom@@ 101
Bulgar@@ 101
Coast 101
Coc@@ 101
Dawn 101
Fantasy 101
Fic@@ 101
Harry 101
Information 101
Joseph 101
Key 101
Kil@@ 101
Meth@@ 101
Metro 101
Mother 101
Pent@@ 101
RI 101
Richard 101
Riv@@ 101
Sciences 101
Style 101
ame@@ 101
aming 101
cy 101
ective 101
ety 101
ion@@ 101
ision 101
iy@@ 101
onic 101
psych@@ 101
stein@@ 101
thus 101
ui 101
ution 101
ə 101
χειρ@@ 101
Россия 101
госп@@ 101
ל@@ 101
DI@@ 100
Enter@@ 100
Far 100
Galaxy 100
Gon@@ 100
Kl@@ 100
Mah@@ 100
Mars 100
Masters 100
Mg@@ 100
Mill@@ 100
Og@@ 100
Roma 100
Through 100
Train 100
U.@@ 100
Vid@@ 100
aker 100
argent@@ 100
bar 100
cell@@ 100
ches 100
ck 100
deg@@ 100
eck@@ 100
enne 100
enni@@ 100
eto 100
kus 100
lau@@ 100
lim@@ 100
live 100
mare 100
max 100
opti@@ 100
rain 100
ron 100
soc@@ 100
test 100
udo 100
ustr@@ 100
very 100
virus 100
Μα@@ 100
Индоне@@ 100
свер@@ 100
AO@@ 99
Castle 99
Cuc@@ 99
DF@@ 99
EF 99
Kol@@ 99
Orch@@ 99
PL@@ 99
Pix@@ 99
agu@@ 99
asis 99
ayi 99
char 99
dre@@ 99
eer 99
ef 99
enter 99
his 99
ino@@ 99
iza 99
margin@@ 99
pic 99
ı 99
πο@@ 99
σκ@@ 99
ие@@ 99
развед@@ 99
товари@@ 99
≈ 99
Africa 98
Batt@@ 98
Cyr@@ 98
Diamond 98
Five 98
Flo@@ 98
Gran@@ 98
Holy 98
IR@@ 98
MV 98
Multi@@ 98
Oper@@ 98
Sound@@ 98
Sten@@ 98
Tap@@ 98
Tax@@ 98
Tom 98
Viv@@ 98
Yo@@ 98
amer@@ 98
far@@ 98
ize 98
mem@@ 98
mid@@ 98
nith@@ 98
ogr@@ 98
omorph@@ 98
oug@@ 98
put 98
scope 98
server 98
tex@@ 98
ties 98
tif@@ 98
yo 98
αβ@@ 98
ρά@@ 98
Бито@@ 98
вский 98
потер@@ 98
резу@@ 98
ты 98
----@@ 97
Albums 97
Aul@@ 97
Ax@@ 97
Coch@@ 97
Cou@@ 97
Econom@@ 97
Freedom 97
Gy@@ 97
Jac@@ 97
Jam 97
Miss@@ 97
NASA 97
Next 97
Nic@@ 97
Suc@@ 97
Turner 97
UM 97
domin@@ 97
illing 97
pid@@ 97
plex 97
pot 97
ει@@ 97
октом@@ 97
ступ@@ 97
э 97
☉ 97
9. 96
Ame@@ 96
Cher@@ 96
Country 96
Dist@@ 96
ED 96
Emer@@ 96
Form@@ 96
Gol@@ 96
HL 96
Him@@ 96
Milli@@ 96
Mim@@ 96
Order 96
Poc@@ 96
Sto@@ 96
UR 96
agi@@ 96
apa 96
avia 96
ishi 96
kel@@ 96
like 96
lov@@ 96
nar@@ 96
uni 96
usi@@ 96
volution 96
ę 96
годо@@ 96
нст 96
ש@@ 96
BL@@ 95
Bac@@ 95
Bras@@ 95
Clo@@ 95
End@@ 95
Fem@@ 95
Grace 95
HA 95
Head@@ 95
Hil@@ 95
Orig@@ 95
PI 95
SB@@ 95
SK@@ 95
Se 95
Shadow 95
Sher@@ 95
Shin@@ 95
Stra@@ 95
Zero 95
att 95
away 95
cav@@ 95
eau 95
eless 95
fun@@ 95
gate 95
ku 95
lag@@ 95
lion 95
med@@ 95
obs@@ 95
omo 95
oro 95
prom@@ 95
ror@@ 95
tres 95
ush@@ 95
º@@ 95
ομ@@ 95
ках 95
ных 95
улуч@@ 95
რ@@ 95
BL 94
Ble@@ 94
Chicago 94
Cour@@ 94
Dry@@ 94
Engineering 94
England 94
Gab@@ 94
Her 94
His 94
Itali@@ 94
Jud@@ 94
Mov@@ 94
Six 94
Tat@@ 94
Theater 94
awa 94
chir@@ 94
dier 94
ency 94
ero@@ 94
eu 94
hip 94
ident 94
into 94
kir@@ 94
loss@@ 94
nier 94
oke 94
opar@@ 94
pher@@ 94
rac@@ 94
rent 94
tec@@ 94
ule 94
umia 94
word 94
ón 94
Καρ@@ 94
ίσ@@ 94
информации 94
ского 94
тот 94
є@@ 94
ѿ 94
ῆ@@ 94
├ 94
3- 93
Beach 93
Bern@@ 93
Bud@@ 93
Compos@@ 93
Ferr@@ 93
Key@@ 93
NAS@@ 93
Program 93
Satur@@ 93
Storm 93
Stur@@ 93
Wolf 93
adi 93
aj 93
atom@@ 93
bon 93
cryp@@ 93
dir@@ 93
endi@@ 93
eres 93
fish 93
hem@@ 93
mart 93
oney 93
rep@@ 93
was 93
yer 93
ý@@ 93
ье@@ 93
ი 93
1.8 92
Big@@ 92
Blin@@ 92
Capit@@ 92
Church 92
EX@@ 92
Fir@@ 92
Football 92
Forum 92
Hop@@ 92
Knight 92
Maxim@@ 92
Most 92
Museum 92
Sz@@ 92
Talk 92
Youth 92
andi 92
atis@@ 92
buc@@ 92
endo 92
front 92
lar 92
lic@@ 92
onna 92
p. 92
rog@@ 92
stop 92
ticul@@ 92
tuber@@ 92
unter 92
upa 92
viv@@ 92
és 92
ή@@ 92
διά 92
ον@@ 92
ου@@ 92
ρα@@ 92
где 92
3.1 91
AK 91
Ab 91
Bran@@ 91
Cho@@ 91
Forest 91
Joy 91
Rod@@ 91
Société 91
U.S. 91
Version 91
age@@ 91
ainst 91
arti@@ 91
bers 91
cant@@ 91
chap@@ 91
child 91
eron 91
essor 91
illar@@ 91
isc@@ 91
ities 91
lich@@ 91
liz@@ 91
ophi@@ 91
pit@@ 91
sav@@ 91
tionary 91
ues 91
unt 91
your 91
θ 91
ших 91
נ@@ 91
AH 90
Aircraft 90
Alpha 90
Around 90
Bomb@@ 90
Dal@@ 90
Fle@@ 90
Inc 90
Jer@@ 90
Jung@@ 90
Ka@@ 90
Mant@@ 90
Notre 90
PF 90
Quar@@ 90
active 90
adis 90
agin@@ 90
anza 90
atori@@ 90
aves 90
eas@@ 90
ells 90
erina 90
erra 90
flor@@ 90
font 90
has@@ 90
illy 90
kit 90
layer 90
ogen@@ 90
phi 90
pith@@ 90
stell@@ 90
teri@@ 90
tific@@ 90
tress 90
vern@@ 90
viol@@ 90
web 90
Ö@@ 90
àn 90
ê@@ 90
заму@@ 90
ность 90
7.5 89
Bio@@ 89
Community 89
Donn@@ 89
Eagle 89
Flight 89
Las@@ 89
Master@@ 89
Phan@@ 89
Pierre 89
Square 89
Stand 89
ald 89
alg@@ 89
atia 89
audi@@ 89
cher@@ 89
clar@@ 89
cum@@ 89
ean@@ 89
elop@@ 89
gener@@ 89
ices 89
ilk 89
ising 89
jan@@ 89
ken@@ 89
lus@@ 89
mand@@ 89
minut@@ 89
par 89
pon 89
pun@@ 89
reo 89
rock 89
tern@@ 89
vis@@ 89
xa 89
ô@@ 89
θε@@ 89
Александр 89
охот@@ 89
селе 89
шей 89
ὶ 89
AO 88
Anc@@ 88
Angeles 88
Bra@@ 88
EST 88
Exchange 88
Infin@@ 88
Kam@@ 88
Lake 88
Maj@@ 88
Neur@@ 88
Original 88
Raj@@ 88
Revol@@ 88
Sau@@ 88
aba 88
aia 88
bert 88
box@@ 88
cro@@ 88
ders 88
eper 88
first 88
gan@@ 88
gro@@ 88
liv@@ 88
nes@@ 88
num@@ 88
oder@@ 88
oe 88
oidea 88
ordin@@ 88
p.@@ 88
pers 88
rid@@ 88
senti@@ 88
uli 88
vita 88
wagen 88
трас@@ 88
ῖ@@ 88
.S. 87
1,0@@ 87
Cran@@ 87
DD 87
ED@@ 87
En 87
Ghost 87
Ham@@ 87
Justice 87
Kingdom 87
MVP 87
Vent@@ 87
Vita 87
Western 87
aking 87
area 87
big@@ 87
ception 87
dings 87
estruc@@ 87
illi 87
lon@@ 87
nica 87
oti@@ 87
paci@@ 87
sch 87
sta@@ 87
tan 87
uy@@ 87
æ 87
Γκ@@ 87
Κα@@ 87
ώ@@ 87
десят@@ 87
отме@@ 87
ѥ@@ 87
ლ@@ 87
Adi@@ 86
DL@@ 86
Eff@@ 86
Fair 86
Industries 86
Instrum@@ 86
Jet 86
Kap@@ 86
Lot@@ 86
Marcus 86
Rail@@ 86
Reichs@@ 86
Sali@@ 86
TT@@ 86
Tou@@ 86
Trag@@ 86
Tunes 86
Was@@ 86
abstr@@ 86
antes 86
any 86
enus 86
esto 86
fran@@ 86
load 86
mut@@ 86
noc@@ 86
oca 86
osaur@@ 86
otro@@ 86
plac@@ 86
rif@@ 86
river 86
sanc@@ 86
teria 86
trac@@ 86
ό 86
Ѫ@@ 86
Cant@@ 85
Case 85
Front 85
Hi 85
Hun@@ 85
Hus@@ 85
Iv@@ 85
Jane 85
Lav@@ 85
Lex@@ 85
Mercury 85
Panzer 85
Phoen@@ 85
Scr@@ 85
Seg@@ 85
Theory 85
Volks@@ 85
Zi@@ 85
ager 85
anot@@ 85
bal 85
dav@@ 85
eger 85
enth@@ 85
evo 85
facto 85
ien 85
kol@@ 85
later@@ 85
ned 85
obr@@ 85
onde 85
onder@@ 85
oud 85
phen@@ 85
space 85
sun@@ 85
tax@@ 85
teri 85
town 85
unk 85
ween 85
wen@@ 85
worth 85
ysis 85
να@@ 85
τον 85
Совет@@ 85
Caes@@ 84
Con 84
Docum@@ 84
E9E9E9 84
EG 84
Glo@@ 84
Hills 84
Horiz@@ 84
Ki 84
MO 84
Mama 84
Mé@@ 84
Report 84
Roger 84
Roll@@ 84
Some 84
Stand@@ 84
Tech@@ 84
Zen@@ 84
agon 84
alls 84
ancer 84
ances 84
aut@@ 84
bird 84
each 84
eds 84
ept@@ 84
eren 84
hion 84
itia 84
ka@@ 84
kard 84
ley@@ 84
model 84
ord 84
oso 84
ples 84
put@@ 84
rad@@ 84
ricane 84
sea 84
sh 84
source 84
stre@@ 84
struc@@ 84
systems 84
vet 84
vet@@ 84
water 84
wit@@ 84
ía 84
Израи@@ 84
РАН 84
кии 84
ны 84
сель@@ 84
ском 84
суда 84
≤ 84
194@@ 83
3.2 83
A2 83
Bad@@ 83
Base 83
Bass@@ 83
Cinc@@ 83
Hier@@ 83
K.@@ 83
Kid 83
Manager 83
Maz@@ 83
Niv@@ 83
PD 83
Scienti@@ 83
Sul@@ 83
Tony 83
Trou@@ 83
achi 83
ames 83
ben 83
ble@@ 83
doc@@ 83
dro@@ 83
ensi@@ 83
erg@@ 83
itali@@ 83
ling@@ 83
olls 83
ose@@ 83
pac@@ 83
rier 83
v.@@ 83
war 83
wing 83
xi 83
én@@ 83
мне 83
преж@@ 83
сса 83
4- 82
Aman@@ 82
FL@@ 82
Flying 82
Gri@@ 82
Hit@@ 82
KA 82
Kh@@ 82
Lind@@ 82
Lun@@ 82
NR@@ 82
Once 82
Pacific 82
Resp@@ 82
Shah 82
Silver 82
Tower 82
Vamp@@ 82
aim@@ 82
atur@@ 82
bula 82
div@@ 82
ebo@@ 82
enge 82
erk@@ 82
eva 82
gil 82
ident@@ 82
imi@@ 82
ingi@@ 82
iting 82
kers 82
ologie 82
ond 82
onlyinclude 82
orn 82
over@@ 82
rea 82
sv@@ 82
tima 82
tron@@ 82
uno 82
zy 82
ίδης 82
δι@@ 82
ιν@@ 82
ρον 82
σα 82
τι@@ 82
Октя@@ 82
ментов 82
нь 82
ровано 82
сс 82
Adap@@ 81
Anna 81
Clin@@ 81
Den@@ 81
Ex 81
Fili@@ 81
Fon@@ 81
Gh@@ 81
Ho 81
Lamb@@ 81
MT@@ 81
Nin@@ 81
Nob@@ 81
Oxford 81
Pier@@ 81
Ric@@ 81
Ross 81
Slav@@ 81
Stadium 81
Tex@@ 81
Wes@@ 81
a. 81
aine 81
anga 81
emon 81
esse 81
gall@@ 81
huria 81
iles 81
kis@@ 81
lik 81
luc@@ 81
mode 81
offic@@ 81
part 81
phot@@ 81
plum@@ 81
rim@@ 81
ventures 81
ward 81
ɪ@@ 81
ΡΙ@@ 81
ισ@@ 81
κλ@@ 81
зь 81
уса@@ 81
ո@@ 81
A4 80
Airways 80
Arte 80
BR@@ 80
Crim@@ 80
Dé@@ 80
Fast 80
Fres@@ 80
Friedrich 80
Instagram 80
Jan@@ 80
Lan@@ 80
Lil 80
May 80
Myster@@ 80
ND 80
Nam@@ 80
Nap@@ 80
Nine 80
Orchestra 80
Peugeot 80
Phy@@ 80
Sin 80
V.@@ 80
Vin@@ 80
Yam@@ 80
ational 80
bot 80
chan@@ 80
cost@@ 80
dio 80
endi 80
essing 80
este 80
flo@@ 80
flora 80
ges@@ 80
hard@@ 80
liche 80
para 80
sign@@ 80
sole 80
stream 80
toc@@ 80
uk 80
van@@ 80
zum 80
τ 80
имел 80
‚ 80
2.1 79
34.@@ 79
Angel@@ 79
BO 79
Bla@@ 79
Casa 79
Du 79
Fam@@ 79
Fleet 79
Gas@@ 79
Harmon@@ 79
Hat@@ 79
Health 79
High@@ 79
India 79
Late 79
Libr@@ 79
Nord 79
Organization 79
Real@@ 79
Single 79
Stat@@ 79
Sus@@ 79
Tu 79
angu@@ 79
bos@@ 79
cad@@ 79
fi 79
hat@@ 79
iki@@ 79
isco 79
kw@@ 79
lett 79
link 79
mont@@ 79
nu 79
oj@@ 79
omi 79
tari@@ 79
tier 79
work 79
year 79
yer@@ 79
zon 79
án@@ 79
Ȣ@@ 79
ɔ@@ 79
ΟΥ@@ 79
ФСР 79
изуче@@ 79
крей@@ 79
ד@@ 79
ה 79
の@@ 79
Australian 78
Beat 78
Cat 78
Council 78
Hope 78
Hung@@ 78
Lo 78
Ma 78
Mathemati@@ 78
Mix@@ 78
Phoenix 78
Premi@@ 78
Rand 78
Secre@@ 78
WH@@ 78
amis 78
aç@@ 78
ball 78
din 78
eil 78
fir@@ 78
ieve 78
ift 78
imler 78
ink@@ 78
jam@@ 78
mon 78
oba@@ 78
onium 78
oz 78
plo@@ 78
quad@@ 78
result 78
sed 78
tar 78
tem 78
thi 78
urg@@ 78
ven 78
wer 78
č 78
μα 78
ολ@@ 78
одно@@ 78
ший 78
187@@ 77
Aviation 77
Blan@@ 77
Charlie 77
Deb@@ 77
Doc@@ 77
Elizabeth 77
Emperor 77
Fan@@ 77
Gly@@ 77
IA@@ 77
Invest@@ 77
Karl 77
Kel@@ 77
Kind 77
Mass@@ 77
Nom@@ 77
PT@@ 77
Pan 77
Pass@@ 77
Plan 77
Romeo 77
Ry@@ 77
Teatro 77
Tell 77
Trig@@ 77
UM@@ 77
Work@@ 77
alo@@ 77
amor 77
auc@@ 77
bass@@ 77
black 77
brevi@@ 77
caud@@ 77
current 77
dos 77
ean 77
edia 77
elin 77
etz 77
fort 77
gy 77
hac@@ 77
icle 77
maj@@ 77
plication 77
sho@@ 77
stor@@ 77
tei 77
ud 77
ulu 77
weight 77
yro@@ 77
ř@@ 77
вза@@ 77
ные 77
ходил 77
1st 76
250@@ 76
Bull 76
Det@@ 76
Grap@@ 76
Jour@@ 76
Legacy 76
Nak@@ 76
Nest@@ 76
Plas@@ 76
Rou@@ 76
SR@@ 76
Tok@@ 76
Walter 76
Wood@@ 76
aki 76
bli@@ 76
cab@@ 76
ebe 76
edr@@ 76
elius 76
emi 76
eping 76
fili@@ 76
have 76
her 76
icro@@ 76
ids 76
imperi@@ 76
ischen 76
issa 76
ists 76
ition 76
juli@@ 76
lu 76
mili@@ 76
ocarp@@ 76
ological 76
only 76
orio 76
pent@@ 76
pour 76
press@@ 76
sert 76
spect@@ 76
square 76
tit@@ 76
whe@@ 76
ya@@ 76
ą 76
έ 76
δο@@ 76
Белору@@ 76
шими 76
є 76
5.5 75
Asia 75
Back@@ 75
Boston 75
Delta 75
Diam@@ 75
Food 75
Gamb@@ 75
Giovanni 75
KG 75
Ken@@ 75
MR 75
Maur@@ 75
Mode 75
Ny@@ 75
Philosoph@@ 75
Record 75
Roman@@ 75
Week 75
Wer@@ 75
Whe@@ 75
aber 75
ann 75
ats@@ 75
band 75
bec@@ 75
bio 75
cast 75
comp@@ 75
cou@@ 75
dion 75
dix 75
eling 75
ems 75
enf@@ 75
itz@@ 75
magn@@ 75
mak@@ 75
pedi@@ 75
ré@@ 75
sing@@ 75
tron 75
vat@@ 75
ł 75
Ά@@ 75
χει@@ 75
акаде@@ 75
гая 75
стах 75
Continental 74
Fantas@@ 74
Fat@@ 74
Gang 74
Gem@@ 74
Hand 74
Heavy 74
Honda 74
Hunter 74
Mind@@ 74
Mont@@ 74
Partn@@ 74
Professional 74
Revolution 74
Southern 74
Steph@@ 74
Wild@@ 74
amar@@ 74
atos 74
cos 74
date 74
excel@@ 74
fare 74
flam@@ 74
gut@@ 74
icia 74
ior 74
kara 74
lag 74
metal 74
orno 74
osum 74
pum@@ 74
rid 74
sat@@ 74
ules 74
ulum 74
ums 74
user 74
usion 74
vac@@ 74
xe 74
ów 74
λε@@ 74
ῦ 74
™ 74
35.@@ 73
Agr@@ 73
Band@@ 73
Dun@@ 73
Francisco 73
GO 73
Gli@@ 73
Gul@@ 73
Histoire 73
Kind@@ 73
Mich@@ 73
Neg@@ 73
Pag@@ 73
Pearl 73
Sty@@ 73
Swift 73
UV 73
Universe 73
Vie@@ 73
ait 73
anni 73
ares 73
atha 73
aux@@ 73
board 73
cc 73
chn@@ 73
did@@ 73
een 73
emy 73
etti@@ 73
fon@@ 73
ging 73
oster@@ 73
otom@@ 73
quadr@@ 73
regi@@ 73
rio 73
speci@@ 73
spl@@ 73
tag@@ 73
werk 73
werke 73
ān 73
απ@@ 73
κο@@ 73
ξ@@ 73
Скон@@ 73
протя@@ 73
Armstrong 72
Bag@@ 72
Biz@@ 72
Cey@@ 72
County 72
Esp@@ 72
Hay@@ 72
Jum@@ 72
LG@@ 72
Mr@@ 72
Mug@@ 72
Pour 72
Prize 72
Rights 72
SH 72
SO 72
Simon 72
Sport@@ 72
Stap@@ 72
They 72
Work 72
ale@@ 72
ample 72
anas 72
asse 72
aut 72
bei 72
bin 72
campus 72
ching 72
dica 72
e. 72
ering 72
ester 72
fron@@ 72
han@@ 72
ital 72
ld@@ 72
nav@@ 72
omb@@ 72
onne 72
park 72
pel 72
rant 72
rie 72
rug@@ 72
sex@@ 72
ternal 72
tes@@ 72
topo@@ 72
trig@@ 72
tual 72
usti@@ 72
wak@@ 72
ö 72
ě 72
Δ 72
Λι@@ 72
Μπο@@ 72
ις 72
τα 72
городи@@ 72
протива 72
ꙑ@@ 72
6.5 71
Ain 71
Between 71
Bill 71
Box@@ 71
C1 71
Cad@@ 71
Chang@@ 71
Drama 71
Identi@@ 71
Illustr@@ 71
Lanc@@ 71
Liberty 71
Mut@@ 71
Naz@@ 71
Pav@@ 71
Rio 71
Sv@@ 71
Text 71
Valent@@ 71
Vig@@ 71
Villa 71
abar@@ 71
abol@@ 71
acker 71
adem@@ 71
ails 71
ape 71
arina 71
aver 71
bs 71
dan 71
entum 71
gesch@@ 71
ications 71
icide 71
lave 71
resc@@ 71
rou@@ 71
schi@@ 71
show 71
typ@@ 71
ufac@@ 71
vs. 71
zo@@ 71
ß 71
άρ@@ 71
τη 71
ды 71
ья 71
0.1 70
192@@ 70
193@@ 70
BM 70
Bang@@ 70
Bec@@ 70
Bin@@ 70
Challenge 70
Colonia 70
Court 70
Dj@@ 70
EB@@ 70
EE 70
GI 70
Globe 70
Had@@ 70
ID@@ 70
Kas@@ 70
Lad@@ 70
Lyn@@ 70
Ou@@ 70
PN@@ 70
Pion@@ 70
SB 70
Sad@@ 70
Sour@@ 70
XV@@ 70
ablo 70
cript 70
europ@@ 70
igo 70
kit@@ 70
kun@@ 70
kur@@ 70
ky@@ 70
lun@@ 70
open 70
rey 70
shi@@ 70
tors 70
tru@@ 70
unds 70
va@@ 70
wel@@ 70
¬ 70
Ç@@ 70
él@@ 70
õ@@ 70
Καλ@@ 70
далеко 70
ры@@ 70
стато@@ 70
торов 70
2.4 69
Arab@@ 69
Asi@@ 69
Basil@@ 69
CB 69
Committee 69
Daniel 69
Down@@ 69
Dru@@ 69
Gallery 69
Imp@@ 69
Ind@@ 69
MD 69
Main@@ 69
Mayer 69
Medical 69
Mont 69
North@@ 69
OT@@ 69
Police 69
Publishing 69
Raw 69
Rog@@ 69
Ré@@ 69
S.A. 69
Saints 69
Small 69
Spin@@ 69
Spr@@ 69
Strat@@ 69
ading 69
ago@@ 69
allen 69
atten@@ 69
care 69
emia 69
eux 69
gem@@ 69
ication 69
imp@@ 69
ischer 69
kil@@ 69
list@@ 69
map 69
mir 69
object 69
ock@@ 69
ought 69
sab@@ 69
sep@@ 69
sio 69
system 69
thm 69
tran@@ 69
utes 69
yal@@ 69
λα@@ 69
πολι@@ 69
Валь@@ 69
Яв@@ 69
атам 69
афри@@ 69
пути 69
ългар@@ 69
ם 69
Afric@@ 68
Agency 68
Ant@@ 68
Area 68
CF 68
Carol@@ 68
Cycl@@ 68
DT 68
Di 68
Doctor 68
Elite 68
Euro 68
Git@@ 68
Hall@@ 68
Hid@@ 68
Institut 68
Kre@@ 68
Lang@@ 68
Marine 68
Pog@@ 68
Porsche 68
Port 68
Rush 68
Sant 68
Sou@@ 68
Stic@@ 68
Tam@@ 68
Trib@@ 68
Trust 68
UC 68
antha 68
atlan@@ 68
aud 68
bab@@ 68
cons@@ 68
def 68
ele@@ 68
eller 68
erei 68
espace 68
esti 68
fic 68
gun@@ 68
iche 68
iment 68
km. 68
lit 68
odor@@ 68
ongo@@ 68
ool 68
oss 68
prises 68
riv@@ 68
sons 68
sort 68
spec@@ 68
uga 68
vin 68
ελ@@ 68
εν 68
АТО 68
Его 68
дель@@ 68
премии 68
сах 68
цы 68
ր@@ 68
ὐ@@ 68
185@@ 67
Atlan@@ 67
Dad@@ 67
FK 67
Figh@@ 67
Geor@@ 67
Grav@@ 67
HR 67
Hend@@ 67
Imperial 67
Integr@@ 67
KO@@ 67
Latin 67
Legend 67
Mart@@ 67
Neue 67
Ost@@ 67
Pad@@ 67
Pand@@ 67
Rit@@ 67
Room 67
Top@@ 67
Trade 67
Whitney 67
acks 67
afe 67
ahi 67
aint 67
alis@@ 67
ander 67
apr@@ 67
arias 67
bach 67
bera 67
bium 67
cz@@ 67
dat@@ 67
dil@@ 67
ener 67
fall 67
fiel@@ 67
fig@@ 67
heim 67
ires 67
kle@@ 67
long 67
lower 67
mach@@ 67
pio 67
pis@@ 67
public@@ 67
quar@@ 67
ride 67
sing 67
tir@@ 67
title 67
ult@@ 67
vas@@ 67
vie 67
web@@ 67
yl 67
zur 67
ü 67
άρ 67
έρ@@ 67
туре@@ 67
философии 67
ნ@@ 67
្ 67
186@@ 66
3.3 66
Ba 66
Develop@@ 66
Diplo@@ 66
Dum@@ 66
EM@@ 66
Fine 66
Gel@@ 66
Guy 66
Has@@ 66
Holding 66
Jan 66
Kim@@ 66
Kle@@ 66
Nacional 66
Nord@@ 66
Ocean 66
RE 66
RN 66
Rac@@ 66
Rag@@ 66
Ris@@ 66
Tag 66
Testament 66
Tol@@ 66
Virginia 66
Wir@@ 66
abase 66
alp@@ 66
americana 66
atu@@ 66
but 66
cel 66
cous@@ 66
cut@@ 66
dé@@ 66
egel 66
ening 66
heter@@ 66
ichi 66
inter 66
master 66
opl@@ 66
ough@@ 66
pad@@ 66
sky 66
stan@@ 66
sula 66
thel@@ 66
tour 66
trin@@ 66
umi 66
ungs@@ 66
unter@@ 66
uses 66
versary 66
αι 66
Название 66
губернии 66
золо@@ 66
ковский 66
лях 66
помина@@ 66
сажи@@ 66
ште@@ 66
130@@ 65
Alexander 65
Bau@@ 65
Brook@@ 65
Bundes@@ 65
Crow@@ 65
Culture 65
Cum@@ 65
Environ@@ 65
Frag@@ 65
Gos@@ 65
Hop 65
Horse 65
Je 65
Johnson 65
KV@@ 65
Mark@@ 65
NBA 65
Page 65
Plant@@ 65
Private 65
Satell@@ 65
Scott 65
Tek@@ 65
UF@@ 65
abl@@ 65
abri@@ 65
anted 65
base 65
cis 65
curr@@ 65
dale 65
dans 65
ease 65
elt@@ 65
endron 65
eting 65
eyi 65
fle@@ 65
gor@@ 65
imm@@ 65
ionale 65
iste 65
jan 65
ments 65
oft 65
omin@@ 65
ophyl@@ 65
parti@@ 65
post 65
prop@@ 65
shar@@ 65
shire 65
sl@@ 65
sten 65
two 65
uss 65
versi@@ 65
wat@@ 65
yle 65
yna 65
άκ@@ 65
ρού@@ 65
зидиума 65
ё@@ 65
Abbey 64
Australia 64
BP 64
Bird 64
Cord@@ 64
DT@@ 64
Edward 64
FDA 64
Fav@@ 64
Flor@@ 64
Gim@@ 64
Hex@@ 64
Hydr@@ 64
Jimmy 64
Jug@@ 64
Kelly 64
Lich@@ 64
Lut@@ 64
Mine 64
Morgan 64
Music@@ 64
Natural 64
Roman 64
Teleg@@ 64
Tos@@ 64
Tul@@ 64
americ@@ 64
arte 64
aster@@ 64
atta 64
azz@@ 64
bie 64
cog@@ 64
cs 64
elles 64
enberg 64
fall@@ 64
force 64
ga@@ 64
geri 64
heart 64
hil@@ 64
ij@@ 64
jer@@ 64
kar 64
libr@@ 64
lowers 64
meridi@@ 64
middle 64
news 64
oh 64
opp@@ 64
ott 64
pre 64
ros 64
sion@@ 64
tak@@ 64
troph@@ 64
ves@@ 64
ár@@ 64
ı@@ 64
ǎ@@ 64
Ξ@@ 64
αυ@@ 64
ες 64
λά@@ 64
Географи@@ 64
бке 64
запре@@ 64
ию@@ 64
пят@@ 64
ствах 64
.C. 63
12. 63
2.6 63
After@@ 63
Atlas 63
BB@@ 63
Bass 63
Brid@@ 63
Brow@@ 63
Bung@@ 63
Cann@@ 63
Eastern 63
Financial 63
Friday 63
Gau@@ 63
Hed@@ 63
Heinrich 63
Ich@@ 63
Internationale 63
Luf@@ 63
Or 63
PT 63
Rand@@ 63
Short 63
Temple 63
Tennis 63
Together 63
Wilhelm 63
ador@@ 63
bou@@ 63
dest@@ 63
eki 63
ember 63
exec@@ 63
fica 63
free 63
gam@@ 63
group 63
him@@ 63
illo 63
ina@@ 63
iner@@ 63
isse 63
lang@@ 63
mai 63
next 63
oid 63
oniidae 63
pen 63
size 63
sul 63
talk 63
ungen 63
uo 63
ylon 63
Περ@@ 63
έν@@ 63
αρχος 63
γι@@ 63
ψ@@ 63
Он 63
августа 63
лли 63
ვ@@ 63
1.7 62
4.2 62
Anton@@ 62
Atl@@ 62
Avenue 62
Bes@@ 62
CEO 62
Crystal 62
Deutschland 62
Dub@@ 62
Ear@@ 62
Education 62
Europa 62
Ey@@ 62
Gran 62
HIV 62
Harvard 62
Human@@ 62
Intel@@ 62
Istanbul 62
Juni@@ 62
Korea 62
Link 62
Market 62
Rich@@ 62
Season 62
Shu@@ 62
Six@@ 62
Tru@@ 62
Wonder 62
Yor@@ 62
ador 62
ament@@ 62
asser 62
blan@@ 62
eman 62
even 62
frag@@ 62
gy@@ 62
ile@@ 62
iler 62
indica 62
itu@@ 62
lands 62
lang 62
nos 62
ono 62
order 62
oscop@@ 62
rat@@ 62
ret 62
rum 62
sag@@ 62
sche 62
sport 62
tch@@ 62
tech@@ 62
tico 62
tt@@ 62
upp@@ 62
ury 62
vent@@ 62
venture 62
yan 62
zel@@ 62
zia 62
Αγ@@ 62
ηλ@@ 62
австра@@ 62
вы@@ 62
дня 62
команду@@ 62
новский 62
чах 62
ע@@ 62
Bow@@ 61
Fund@@ 61
Indi@@ 61
Libre 61
Lotus 61
Manchester 61
Ne 61
PP 61
Paran@@ 61
Princip@@ 61
Reich@@ 61
Sent@@ 61
Sib@@ 61
Spi@@ 61
Symph@@ 61
Symphony 61
Tech 61
Tir@@ 61
Universit@@ 61
abe 61
amin@@ 61
anch@@ 61
apar@@ 61
atti 61
ause 61
aven@@ 61
aw 61
centr@@ 61
col 61
dent@@ 61
elly 61
endr@@ 61
engine 61
eval 61
hot@@ 61
ilo 61
ils 61
inning 61
insig@@ 61
ismo 61
jar@@ 61
lies 61
mexic@@ 61
mix@@ 61
natur@@ 61
pris 61
pseud@@ 61
rau@@ 61
rig@@ 61
roch@@ 61
sir@@ 61
tape 61
vig@@ 61
ē 61
испо@@ 61
ָ@@ 61
ת 61
Albert 60
Alex@@ 60
Alg@@ 60
Bav@@ 60
Burn@@ 60
Carlo 60
Ceb@@ 60
Creek 60
Deutsch@@ 60
Dunk@@ 60
EL 60
Encyclo@@ 60
Fron@@ 60
Ges@@ 60
Gig@@ 60
Green@@ 60
Grim@@ 60
Herald 60
Highway 60
Jus@@ 60
Mania 60
Middle 60
Mik@@ 60
Ministry 60
Mob@@ 60
Naval 60
Navy 60
Nick 60
Panz@@ 60
Raz@@ 60
Russia 60
Sed@@ 60
Stage 60
WC 60
Warri@@ 60
ación 60
adies 60
alen 60
avi 60
card 60
chen@@ 60
contr@@ 60
ecta 60
ector 60
enses 60
enter@@ 60
eral 60
fas@@ 60
fos@@ 60
glau@@ 60
hyper@@ 60
ifer 60
ikon 60
imin@@ 60
ingen 60
isia 60
isters 60
iz 60
ju 60
mar 60
och 60
one@@ 60
ply 60
polit@@ 60
pom@@ 60
port@@ 60
ria 60
room 60
seg@@ 60
sel 60
sters 60
tent 60
tional 60
tur 60
vie@@ 60
west 60
zen@@ 60
Ş@@ 60
Κάτω 60
Τσι@@ 60
зная 60
рую 60
უ@@ 60
1- 59
189@@ 59
Archit@@ 59
Austin 59
BAFTA 59
Chris 59
Command 59
Corps 59
Ground 59
Italy 59
Johnny 59
Level 59
Mb@@ 59
Mini 59
Mär@@ 59
NSDAP 59
Northern 59
Pow@@ 59
Que@@ 59
Rein@@ 59
Sco@@ 59
Taylor 59
These 59
Thom@@ 59
Thor@@ 59
aliz@@ 59
anne 59
auer 59
bom@@ 59
bour@@ 59
chester 59
einer 59
eka 59
gin 59
got@@ 59
ige 59
iko 59
ingo 59
izer 59
ked 59
limited 59
ls 59
nea 59
phia 59
sti 59
tat@@ 59
tum@@ 59
uer@@ 59
unger 59
öl@@ 59
þ@@ 59
ń@@ 59
γκ@@ 59
ύρ@@ 59
Бава@@ 59
время 59
гг 59
напря@@ 59
скус@@ 59
џ@@ 59
ѡ 59
ן 59
0.000 58
10. 58
17. 58
Administration 58
Anh@@ 58
Anti 58
Economic 58
Emb@@ 58
Fighter 58
Frank 58
Greg@@ 58
Hr@@ 58
Jack@@ 58
Jagd@@ 58
Jam@@ 58
Jay 58
Kad@@ 58
King@@ 58
Milit@@ 58
Mount 58
Peg@@ 58
Peri@@ 58
Porter 58
Prime 58
Rich 58
Samuel 58
Species 58
Trin@@ 58
WT@@ 58
Zh@@ 58
ables 58
ados 58
alifor@@ 58
arma 58
bel 58
bor 58
bora 58
bu 58
cent@@ 58
cha@@ 58
corpor@@ 58
dow@@ 58
eas 58
eld 58
etr@@ 58
format 58
ft@@ 58
gang@@ 58
gas 58
had 58
hav@@ 58
idaceae 58
mani@@ 58
nik@@ 58
ocar@@ 58
raph 58
reich@@ 58
rob@@ 58
serie 58
soph@@ 58
trag@@ 58
ulia 58
util@@ 58
zh@@ 58
Ś@@ 58
Άνω 58
ογ@@ 58
τιμ@@ 58
υρ@@ 58
мы 58
поселе@@ 58
развити@@ 58
смер@@ 58
მ@@ 58
11. 57
AZ 57
Amas@@ 57
Bar 57
Bloom@@ 57
Chan@@ 57
Element@@ 57
Eli@@ 57
Eri@@ 57
Et 57
Fra@@ 57
Hammer 57
Hep@@ 57
Histori@@ 57
Inv@@ 57
Kob@@ 57
L4 57
Maya 57
NY 57
Ostr@@ 57
Punk 57
Rain@@ 57
Rap 57
SQ@@ 57
Sha@@ 57
South@@ 57
Third 57
UB@@ 57
Victor 57
Wrest@@ 57
aps 57
auf 57
bol 57
cari@@ 57
ck@@ 57
dance 57
det 57
dh@@ 57
dij@@ 57
ede 57
eff@@ 57
entes 57
evi 57
fem@@ 57
file 57
film 57
grav@@ 57
hop@@ 57
ldwide 57
neb@@ 57
omel@@ 57
osh@@ 57
tation 57
then 57
usta 57
vic 57
¼ 57
Á@@ 57
Ε 57
ίων 57
βι@@ 57
ζ 57
ησι@@ 57
μι@@ 57
ούλ@@ 57
ρίου 57
τά@@ 57
Арген@@ 57
Северо 57
ких 57
ἰ@@ 57
2.3 56
36.@@ 56
Arthur 56
Batman 56
Bour@@ 56
Broad@@ 56
Centro 56
Commission 56
Contemporary 56
Fig@@ 56
Galax@@ 56
Gram@@ 56
Haus 56
How@@ 56
IGN 56
Institu@@ 56
Kos@@ 56
Kot@@ 56
Luna 56
Memorial 56
Mez@@ 56
Musical 56
Nissan 56
Oli@@ 56
Palace 56
Premier 56
Production 56
Round 56
Sang@@ 56
Sev@@ 56
Sierra 56
Sr@@ 56
Steve 56
Uno 56
Week@@ 56
Williams 56
Yo 56
ansa 56
arab@@ 56
ativ@@ 56
aven 56
bank 56
bru@@ 56
ces@@ 56
control 56
cros@@ 56
deo 56
ecia 56
ected 56
edy 56
fied 56
hier@@ 56
high 56
icky 56
igen@@ 56
iner 56
istry 56
itter 56
kap@@ 56
kei 56
kö@@ 56
ladi@@ 56
lose 56
map@@ 56
mos 56
opa 56
osom@@ 56
pir@@ 56
row@@ 56
som 56
spi@@ 56
thal@@ 56
vival 56
wind 56
wr@@ 56
Ü@@ 56
äl@@ 56
än@@ 56
ίκ@@ 56
ίτσα 56
αδ@@ 56
ορ@@ 56
το 56
Средне@@ 56
Ь 56
защити@@ 56
зоне 56
ленно 56
лле@@ 56
люди 56
пунктов 56
руко@@ 56
рь 56
ს@@ 56
Adam 55
Ah@@ 55
Avi@@ 55
Berliner 55
Board 55
Château 55
Count 55
Falls 55
Field 55
Gloria 55
Jagu@@ 55
Jr 55
Law@@ 55
Mia 55
Mér@@ 55
Ortho@@ 55
Race 55
Rat@@ 55
Rhein@@ 55
Sega 55
Wak@@ 55
Wid@@ 55
Wilson 55
Zeitung 55
aces 55
acht 55
aded 55
ald@@ 55
alled 55
ande 55
bury 55
capit@@ 55
coun@@ 55
ded 55
dri@@ 55
dum 55
edes 55
edit@@ 55
eler 55
essa 55
ever@@ 55
gram@@ 55
has 55
icos 55
integ@@ 55
isten 55
kam@@ 55
kan 55
kop@@ 55
law 55
length 55
lib@@ 55
mal 55
mel 55
nen 55
oc 55
oir 55
ois 55
olia 55
ont 55
pass@@ 55
power 55
rang 55
sar 55
stric@@ 55
verse 55
will 55
ân@@ 55
én 55
Αν@@ 55
Κι@@ 55
Παπ@@ 55
ην@@ 55
μαν@@ 55
Благодаря 55
Франц@@ 55
северо 55
угро@@ 55
ְ@@ 55
ּ@@ 55
ח@@ 55
ო@@ 55
Ale@@ 54
Andr@@ 54
Auth@@ 54
Bon 54
Boul@@ 54
CPU 54
Champions 54
Cla@@ 54
Conference 54
Foreign 54
Giov@@ 54
Gru@@ 54
Heritage 54
Industry 54
Jackson 54
Ji@@ 54
Julia 54
KS 54
Kri@@ 54
Lak@@ 54
Maf@@ 54
Mike 54
Mission 54
Nim@@ 54
Nos@@ 54
Ok@@ 54
Ord@@ 54
Papa 54
Progr@@ 54
Reise 54
SV 54
Sak@@ 54
Sant@@ 54
St 54
Vill@@ 54
Voc@@ 54
Wed@@ 54
asons 54
ativa 54
aze 54
cle@@ 54
colum@@ 54
dial 54
dir 54
echo 54
eng 54
ere@@ 54
fen@@ 54
gare 54
girl 54
hand@@ 54
hop 54
iday 54
iser 54
iter@@ 54
kins 54
leo 54
message 54
mission 54
mu 54
nel 54
olig@@ 54
plan 54
program 54
rat 54
sera 54
sy 54
tea 54
tiva 54
tropo@@ 54
vies 54
wick 54
ça 54
ín 54
ór@@ 54
ž 54
Παλαι@@ 54
Σαρ@@ 54
εί@@ 54
σης 54
σις 54
бы@@ 54
защитил 54
чиков 54
ն@@ 54
া@@ 54
⁄ 54
≥ 54
└ 54
Baz@@ 53
Canadian 53
Chin@@ 53
Cly@@ 53
Cow@@ 53
Dow@@ 53
EU 53
Ed 53
Epi@@ 53
Flu@@ 53
Fund 53
Hip 53
Intelligence 53
Jesus 53
Juan 53
Kent 53
Nag@@ 53
Performance 53
Pist@@ 53
Polic@@ 53
Sala 53
Stan@@ 53
Suzuki 53
Tra@@ 53
U. 53
Wind@@ 53
Within 53
Zy@@ 53
about 53
acter@@ 53
amba 53
ancia 53
angle 53
ason 53
bed@@ 53
ché 53
commun@@ 53
cylin@@ 53
dag@@ 53
det@@ 53
dow 53
ej 53
embr@@ 53
ensi 53
father 53
gr 53
haus 53
icio 53
ife 53
inst@@ 53
law@@ 53
lie@@ 53
mart@@ 53
met 53
mont 53
oda 53
odi 53
onen 53
ording 53
ore@@ 53
phyllum 53
red@@ 53
rive 53
script 53
sic@@ 53
solo 53
sou@@ 53
sten@@ 53
test@@ 53
tique 53
trad@@ 53
trav@@ 53
uj@@ 53
used 53
voc@@ 53
¡ 53
öt@@ 53
ΕΡ@@ 53
Θε@@ 53
ΙΙ 53
αι@@ 53
εκ@@ 53
μα@@ 53
οσ@@ 53
России 53
доче@@ 53
ходили 53
ִ@@ 53
כ@@ 53
ῦ@@ 53
18,7 52
188@@ 52
Alb@@ 52
Ali 52
August 52
Bak@@ 52
Cali@@ 52
Crown 52
Eric 52
Erk@@ 52
Eul@@ 52
Florida 52
Ha 52
Harper 52
Haz@@ 52
Hood 52
Ins@@ 52
List@@ 52
Mann 52
Metacritic 52
Moore 52
Neb@@ 52
Of@@ 52
Otto 52
Resol@@ 52
Snow 52
Sonic 52
Syr@@ 52
Training 52
Triple 52
Wiki@@ 52
acha 52
acu@@ 52
agen 52
aging 52
aise 52
ancy 52
ank 52
anos 52
appe 52
aries 52
atu 52
aver@@ 52
ball@@ 52
best 52
bid@@ 52
camp 52
cas 52
chem@@ 52
cial 52
eda 52
elt 52
entre 52
etas 52
eton 52
fication 52
gir@@ 52
gon@@ 52
iber 52
inv@@ 52
lap@@ 52
led@@ 52
mam@@ 52
ms@@ 52
offici@@ 52
oking 52
otic 52
por 52
quis@@ 52
rd 52
shell 52
tag 52
tsch@@ 52
tus@@ 52
uri@@ 52
watch 52
wol@@ 52
write 52
zer@@ 52
´ 52
üt@@ 52
ė 52
ɑ@@ 52
Μακεδονίας 52
άλ@@ 52
ιά 52
λλ@@ 52
взя@@ 52
времени 52
голов@@ 52
совхо@@ 52
ბ@@ 52
1.9 51
13. 51
Airport 51
Ajax 51
Americ@@ 51
Austral@@ 51
Bayer 51
Beatles 51
Belle 51
Bog@@ 51
Charlotte 51
Chic@@ 51
Ein 51
Elateridae 51
Finn@@ 51
Franc@@ 51
Gay 51
Industrial 51
Ja@@ 51
Kab@@ 51
Krist@@ 51
Lili@@ 51
Lud@@ 51
Margar@@ 51
Nig@@ 51
Nis@@ 51
Pf@@ 51
Pont 51
Sir 51
Vide@@ 51
Wing 51
Ya 51
Ye@@ 51
abi@@ 51
ability 51
ablan@@ 51
alist 51
alit@@ 51
aren@@ 51
balance 51
beat 51
blo@@ 51
break@@ 51
car 51
chal@@ 51
content 51
eba 51
ecr@@ 51
edition 51
ended 51
esty 51
hen@@ 51
i.@@ 51
icked 51
ited 51
kai 51
kia 51
mah@@ 51
mobile 51
orch@@ 51
pas 51
peru@@ 51
pros@@ 51
rap 51
ray@@ 51
salv@@ 51
soci@@ 51
tri 51
té 51
ui@@ 51
ved 51
vivo 51
wi 51
wiki 51
yar@@ 51
̯ 51
Γι@@ 51
έξ@@ 51
λί@@ 51
νη 51
ны@@ 51
фф 51
ческий 51
ѹ 51
ꙑ 51
180@@ 50
Alp@@ 50
And@@ 50
Are@@ 50
Brun@@ 50
Christ 50
Cooper 50
Defin@@ 50
Differ@@ 50
Emin@@ 50
Ernst 50
Eus@@ 50
Gang@@ 50
Jersey 50
Johann 50
Jun@@ 50
Kno@@ 50
Les@@ 50
Madonna 50
Major 50
March 50
Mex@@ 50
Minute 50
NY@@ 50
Oil 50
Param@@ 50
Path@@ 50
Personal 50
Price 50
Rally 50
Reich 50
Rib@@ 50
Sag@@ 50
Soccer 50
Solo 50
Tub@@ 50
Unter@@ 50
VP 50
Vas@@ 50
Village 50
Wik@@ 50
Yes@@ 50
abra 50
amour 50
asure 50
atura 50
city 50
due 50
emos 50
esh 50
example 50
eze 50
factor 50
folium 50
gom@@ 50
icial 50
igh 50
inal 50
kul@@ 50
lip 50
lod@@ 50
lot 50
otti 50
oxy@@ 50
ped@@ 50
phab@@ 50
ree 50
road 50
second 50
single 50
sm 50
sn@@ 50
taria 50
tempor@@ 50
tly 50
usia 50
wes@@ 50
wo 50
xima 50
zan@@ 50
ön@@ 50
Ž@@ 50
άσ@@ 50
έλ@@ 50
ιερ@@ 50
κι@@ 50
τρ@@ 50
Новая 50
лимпи@@ 50
собо@@ 50
រ@@ 50
Alt 49
Apol@@ 49
Bah@@ 49
Ben 49
Berkeley 49
Bibli@@ 49
Brut@@ 49
Chor@@ 49
Citroën 49
Cra@@ 49
Cus@@ 49
Dick 49
Dil@@ 49
Diplom@@ 49
Farm 49
Fest@@ 49
Film@@ 49
Formula 49
Gil@@ 49
Ich 49
Inf@@ 49
Lamp@@ 49
Lus@@ 49
Marco 49
Mario 49
Miller 49
PD@@ 49
Potter 49
Tod@@ 49
UP 49
Val 49
Walker 49
alum 49
angel@@ 49
anie 49
brasili@@ 49
building 49
cle 49
ead 49
enna 49
erst@@ 49
eus@@ 49
ffe 49
gli@@ 49
ig 49
inci 49
iso 49
lan 49
last@@ 49
lem 49
mata 49
nau@@ 49
ouv@@ 49
oy 49
pers@@ 49
pub@@ 49
scrip@@ 49
sk 49
tun@@ 49
vera 49
zar@@ 49
zone 49
ý 49
ė@@ 49
˚ 49
ΚΑ@@ 49
ίν@@ 49
νου 49
οκ@@ 49
ορο@@ 49
ρε@@ 49
όρ@@ 49
Э 49
голов 49
журнала 49
йский 49
сих 49
чь 49
ه@@ 49
≠ 49
0,000 48
Afr@@ 48
BI 48
Braz@@ 48
Castel@@ 48
Citi@@ 48
Clau@@ 48
Defense 48
Euphor@@ 48
Euro@@ 48
Francesco 48
Geschichte 48
ICC 48
Ide@@ 48
Inter 48
Kim 48
Lau@@ 48
Marina 48
Medicine 48
Miranda 48
Popular 48
Sonn@@ 48
Wayne 48
Welt 48
acias 48
aku 48
antum 48
apon 48
apor@@ 48
ators 48
belli 48
boul@@ 48
celer@@ 48
chor@@ 48
cht 48
dice 48
enda 48
eres@@ 48
etz@@ 48
ezi 48
fri@@ 48
igi@@ 48
led 48
neum@@ 48
nie 48
orium 48
say 48
seudo@@ 48
shop 48
song 48
stand 48
strateg@@ 48
tree 48
tris 48
uls 48
urt 48
uto 48
vog@@ 48
vol 48
zana 48
å 48
ès 48
ś 48
ΑΤ@@ 48
Κυ@@ 48
οί 48
ραν@@ 48
τικής 48
ων@@ 48
όν@@ 48
завер@@ 48
минут 48
прини@@ 48
ќ@@ 48
� 48
0.4 47
150@@ 47
3rd 47
Alber@@ 47
Balkan 47
Bob 47
Bros 47
Capitol 47
Commer@@ 47
Del 47
Dieu 47
Dul@@ 47
Irish 47
Jar@@ 47
Kid@@ 47
Klasse 47
Monde 47
NP 47
Neu@@ 47
Oro 47
Put@@ 47
Quint@@ 47
Sainte 47
Sund@@ 47
Survey 47
Tac@@ 47
Ve@@ 47
Ves@@ 47
Wag@@ 47
asio 47
azar@@ 47
back@@ 47
bil 47
border 47
bre 47
buch 47
bute 47
chev@@ 47
dov@@ 47
elds 47
ers@@ 47
ht 47
ight@@ 47
ios 47
isions 47
isis 47
izen 47
key@@ 47
language 47
mas 47
math 47
mind 47
nin 47
noi 47
ogy 47
oker 47
open@@ 47
opot@@ 47
procur@@ 47
rar@@ 47
ref@@ 47
rt 47
sand@@ 47
sci@@ 47
see 47
stic@@ 47
tain 47
tain@@ 47
tern 47
ét@@ 47
Δι@@ 47
Θ 47
Κ 47
Πολ@@ 47
Προ@@ 47
εις 47
ιαν@@ 47
κας 47
οπ@@ 47
οφ@@ 47
τερ@@ 47
χαλ@@ 47
ϊ@@ 47
замет@@ 47
сс@@ 47
эн@@ 47
ե@@ 47
ר 47
∆ 47
⋅ 47
18. 46
2.8 46
39.@@ 46
Adri@@ 46
African 46
Ail@@ 46
Anci@@ 46
Antonio 46
Argent@@ 46
Arist@@ 46
Authority 46
Berry 46
Bod@@ 46
Butter@@ 46
Buz@@ 46
Chef 46
Collins 46
Den 46
Euc@@ 46
It@@ 46
J.@@ 46
Kun@@ 46
Laura 46
Liz@@ 46
Marvel 46
Nelson 46
Panzer@@ 46
Pompe@@ 46
Princess 46
Railway 46
Shakespeare 46
Shel@@ 46
Speci@@ 46
Stein@@ 46
Stock 46
Ta 46
Tig@@ 46
Trans 46
Wolf@@ 46
Zeit 46
aar 46
abor@@ 46
agan 46
album 46
allo 46
alma 46
anner 46
azi 46
bad@@ 46
bes 46
cartes 46
cont@@ 46
dida 46
dies 46
e.org 46
eing 46
eland 46
enza 46
etry 46
fib@@ 46
fru@@ 46
gir 46
graph@@ 46
hex@@ 46
ht@@ 46
hyp@@ 46
ifolia 46
intermedi@@ 46
ird 46
isches 46
isha 46
isti 46
jur@@ 46
lav 46
lis@@ 46
look 46
lot@@ 46
mass@@ 46
method 46
modi@@ 46
motion 46
naz@@ 46
nis@@ 46
now@@ 46
oba 46
odes@@ 46
ogie 46
oku 46
omen@@ 46
omp@@ 46
ours 46
pop@@ 46
ports 46
publica 46
rak@@ 46
rose 46
schle@@ 46
sept@@ 46
simil@@ 46
situ 46
sola 46
status 46
sym@@ 46
tek 46
vu@@ 46
yu 46
zer 46
ñ@@ 46
ʃ@@ 46
αν 46
βα 46
θος 46
ξ 46
ρι 46
όσ@@ 46
имени 46
сиф 46
торго@@ 46
чь@@ 46
щий 46
0.2 45
1,5@@ 45
16. 45
37.@@ 45
8.5 45
Adv@@ 45
Alexand@@ 45
Alt@@ 45
Ans@@ 45
Aud@@ 45
Building 45
But 45
Califor@@ 45
Captain 45
Cau@@ 45
Department 45
Dus@@ 45
Early 45
Epis@@ 45
GN@@ 45
Game@@ 45
Gros@@ 45
Hospital 45
Igu@@ 45
Jur@@ 45
Ka 45
Kaz@@ 45
Lap@@ 45
Len@@ 45
Moder@@ 45
Ohio 45
Pes@@ 45
Pia 45
Pis@@ 45
Po 45
Rak@@ 45
Schil@@ 45
Sid@@ 45
Spor@@ 45
Telev@@ 45
Torino 45
UA 45
Verlag 45
Yer@@ 45
Zap@@ 45
abil@@ 45
alism 45
aller 45
amia 45
based 45
bet 45
blue 45
clav@@ 45
cosa 45
cus@@ 45
dian 45
eccl@@ 45
ending 45
escul@@ 45
foot 45
frame 45
game 45
igg@@ 45
igi 45
jug@@ 45
jun@@ 45
kill 45
kre@@ 45
learning 45
ledge 45
lida 45
lines 45
mando 45
marine 45
nec@@ 45
nova 45
oko 45
olim@@ 45
oll 45
ored 45
peti@@ 45
ppi 45
quir@@ 45
rek 45
search 45
stadt 45
stig@@ 45
tad@@ 45
tile 45
tina 45
toria 45
tos@@ 45
tril@@ 45
ular@@ 45
ump 45
vec@@ 45
yana@@ 45
ń 45
ș@@ 45
Λ 45
ΠΑ@@ 45
Παρ@@ 45
ική 45
ουσ@@ 45
ρυ@@ 45
σημει@@ 45
χώ@@ 45
версите@@ 45
жай@@ 45
жей 45
чная 45
что@@ 45
҃ 45
ի@@ 45
ḥ@@ 45
179@@ 44
2.7 44
Alex 44
Artem@@ 44
Asian 44
Atom@@ 44
Barry 44
Bis@@ 44
Brau@@ 44
Bristol 44
Caesar 44
Cambridge 44
Cec@@ 44
Comput@@ 44
Contr@@ 44
Dag@@ 44
Dave 44
Ein@@ 44
Era 44
Forces 44
Gior@@ 44
Government 44
Griff@@ 44
Id@@ 44
Iz@@ 44
Jov@@ 44
Lid@@ 44
Lig@@ 44
Linn@@ 44
Miles 44
Patri@@ 44
Port@@ 44
Russian 44
Sieg@@ 44
Start 44
Stil@@ 44
Sus 44
Theod@@ 44
Urban 44
Wien 44
Wright 44
alle 44
aman@@ 44
antas@@ 44
apping 44
arda 44
assault 44
ata@@ 44
bern@@ 44
boys 44
cu 44
dle 44
dou@@ 44
dule 44
ebook 44
einen 44
epis@@ 44
ffen 44
grande 44
gris 44
han 44
igher 44
lery 44
letin 44
lied 44
lim 44
lug 44
nas 44
nt 44
pau@@ 44
pend@@ 44
pes@@ 44
plas@@ 44
pper 44
rosa 44
sph@@ 44
ston 44
syn@@ 44
timo 44
tros 44
undi 44
urban@@ 44
wers 44
wie 44
xy 44
yeri 44
über 44
ț@@ 44
Αρ@@ 44
Θεσσαλ@@ 44
Τζ@@ 44
ατζ@@ 44
εσ@@ 44
силь@@ 44
средне@@ 44
ссо@@ 44
чих 44
щим 44
ն 44
ל 44
14. 43
38.@@ 43
Academ@@ 43
Berg@@ 43
Beta 43
Cardi@@ 43
Chuck 43
Cov@@ 43
Defence 43
Democ@@ 43
Fa@@ 43
Gan@@ 43
Glasgow 43
Guerr@@ 43
Hunt 43
Jas@@ 43
Jon 43
Laz@@ 43
Lec@@ 43
Miami 43
Michel 43
Military 43
Mog@@ 43
National@@ 43
Nep@@ 43
PO 43
Sach@@ 43
Scho@@ 43
Schul@@ 43
Tad@@ 43
Venus 43
Vice 43
Vu@@ 43
Wall@@ 43
adia 43
adu@@ 43
ambi@@ 43
ao@@ 43
ashi 43
bacteri@@ 43
ban 43
burn 43
call 43
causa 43
cina 43
cour@@ 43
deutsche 43
dum@@ 43
eci 43
ecto 43
ench@@ 43
estyle 43
evi@@ 43
friend 43
fum@@ 43
gic 43
haw@@ 43
iliz@@ 43
inn 43
ivi@@ 43
kt@@ 43
lik@@ 43
mig@@ 43
n. 43
nach 43
nationale 43
ondo 43
osi 43
polo 43
princip@@ 43
round 43
sax@@ 43
series 43
station 43
tap@@ 43
tela 43
tens 43
terns 43
times 43
unge 43
vag@@ 43
vention 43
wald 43
ás 43
ê 43
û@@ 43
ɛ 43
ʼ@@ 43
Έ@@ 43
Γ 43
Γεωργίου 43
Το 43
ιλ@@ 43
νι@@ 43
ουλ@@ 43
τσι 43
τσι@@ 43
Америки 43
Героя 43
благодаря 43
лл 43
лы@@ 43
льный 43
нику 43
правления 43
раско@@ 43
ւ@@ 43
ា@@ 43
Amer@@ 42
Architecture 42
Assembly 42
Brand@@ 42
Brian 42
Carlos 42
Chat@@ 42
Claudia 42
Contin@@ 42
Dut@@ 42
Edi@@ 42
Felix 42
Fen@@ 42
Floyd 42
Fort 42
François 42
French 42
Gill@@ 42
Glob@@ 42
Io@@ 42
Ital@@ 42
Japanese 42
Jim 42
Label 42
Lincoln 42
Ludwig 42
Mail@@ 42
Match 42
Mp@@ 42
Mud@@ 42
PI@@ 42
Pant@@ 42
Rick 42
Roi 42
Rud@@ 42
Rue 42
Schw@@ 42
Smack@@ 42
adap@@ 42
aler 42
anim@@ 42
arm 42
bak@@ 42
bas 42
cay@@ 42
chan 42
coin 42
d. 42
drive 42
ebra 42
edi 42
eline 42
eras 42
fier 42
hisp@@ 42
icana 42
ided 42
iff 42
ills 42
immer 42
inj@@ 42
instance 42
itation 42
lais 42
last 42
lumin@@ 42
march@@ 42
mic 42
n.@@ 42
nd 42
path@@ 42
phi@@ 42
popul@@ 42
quet 42
rad 42
rav@@ 42
rum@@ 42
sat 42
shi 42
stel@@ 42
sun 42
teen 42
tex 42
tras@@ 42
uria 42
usi 42
veri 42
ées 42
͡ 42
Γαλ@@ 42
Κου@@ 42
Μελ@@ 42
Νέας 42
ευ@@ 42
μος 42
υν@@ 42
υπέρ@@ 42
лы 42
мере 42
няя 42
оцени@@ 42
своего 42
ї 42
ә@@ 42
0.0 41
2.000 41
32.@@ 41
Ada 41
CIA 41
Cape 41
Champion 41
Chev@@ 41
Civil 41
Comic 41
Compan@@ 41
Dutch 41
Eve 41
Francis 41
Franz 41
Hans 41
Hispania 41
Ket@@ 41
Kro@@ 41
Leben 41
Lieb@@ 41
Lisa 41
Los@@ 41
Medal 41
Metropolitan 41
Nau@@ 41
Ped@@ 41
Roland 41
Roo@@ 41
Sam 41
Silver@@ 41
Sot@@ 41
Sé@@ 41
Vasco 41
Vegas 41
Werke 41
Wii 41
alber@@ 41
ana@@ 41
asso 41
ayo 41
bau@@ 41
bay@@ 41
bea 41
beg@@ 41
birds 41
bone 41
borough 41
cent 41
cla@@ 41
club 41
conn@@ 41
enci@@ 41
eor@@ 41
him 41
home 41
imba 41
index 41
ives 41
kas@@ 41
kos@@ 41
leaf 41
leb@@ 41
level 41
magazine 41
meth@@ 41
mom@@ 41
ogo 41
ograp@@ 41
olf 41
ongo 41
oque 41
ort@@ 41
otive 41
plant@@ 41
post@@ 41
rise 41
ross 41
sans 41
say@@ 41
schel 41
soft 41
spo@@ 41
tage 41
tax 41
temp@@ 41
tn@@ 41
umbr@@ 41
İ@@ 41
Ανα@@ 41
Ηπείρου 41
Νε@@ 41
άσης 41
άχ@@ 41
αθ@@ 41
ιος 41
λόγος 41
οχ@@ 41
όπ@@ 41
ώσεις 41
вская 41
для 41
оши@@ 41
серд@@ 41
сказал 41
смог 41
ый 41
ѥ 41
ა 41
დ@@ 41
‟ 41
大@@ 41
ꙗ@@ 41
15. 40
22. 40
Abo@@ 40
Andrew 40
Apostol@@ 40
Bo 40
Brom@@ 40
Bureau 40
Burg@@ 40
Bush 40
Chamber 40
Christ@@ 40
Clim@@ 40
DAP 40
Dan 40
Dod@@ 40
Ech@@ 40
Eis@@ 40
Elek@@ 40
Führ@@ 40
Gas 40
Georg 40
Gibson 40
Grey 40
Gur@@ 40
Hart 40
Holland 40
Jerry 40
Jes@@ 40
July 40
Lip@@ 40
Lorenzo 40
Marshall 40
Monum@@ 40
Notes 40
Olymp@@ 40
Penn@@ 40
Phar@@ 40
Roh@@ 40
SU 40
Sever@@ 40
Shak@@ 40
Studi@@ 40
Symb@@ 40
Their 40
Tow@@ 40
Traf@@ 40
Upper 40
Vall@@ 40
Vik@@ 40
WM 40
Wikipedia 40
adel@@ 40
agi 40
ained 40
allo@@ 40
assi 40
atures 40
bag@@ 40
cara 40
casa 40
cen@@ 40
chart 40
dead 40
document@@ 40
down@@ 40
dynam@@ 40
ehr@@ 40
ender@@ 40
estra 40
guitar 40
hist@@ 40
keting 40
male 40
mid 40
nak@@ 40
oder 40
ologi@@ 40
onas 40
oshi 40
parent 40
pei 40
perf@@ 40
persp@@ 40
place 40
pose 40
quali@@ 40
rand@@ 40
rati@@ 40
raz@@ 40
slo@@ 40
stock 40
tail 40
tice 40
too 40
triang@@ 40
tribu@@ 40
tz@@ 40
utions 40
vier 40
ving 40
vision 40
walk 40
yar 40
yor@@ 40
zip 40
É 40
â 40
ï 40
ő@@ 40
ɔ 40
Ιωάν@@ 40
Μικ@@ 40
γραμμής 40
οβα 40
ουν@@ 40
στασ@@ 40
υλ@@ 40
όβ@@ 40
όπουλος 40
УЕ@@ 40
кую 40
лый 40
шь 40
ѓ@@ 40
ג@@ 40
∈ 40
21. 39
33.@@ 39
Amsterdam 39
Barr@@ 39
Bill@@ 39
Birmingham 39
Bobby 39
Buch@@ 39
Chik@@ 39
Circuit 39
DNA 39
Dav@@ 39
Doppel@@ 39
Elle 39
Equi@@ 39
Eug@@ 39
Fos@@ 39
Fus@@ 39
Germany 39
Gramm@@ 39
Johannes 39
Kod@@ 39
Leon@@ 39
Lux@@ 39
Mec@@ 39
NH 39
Proj@@ 39
RD 39
Roth@@ 39
Rut@@ 39
Sens@@ 39
Seoul 39
Slo@@ 39
Stern@@ 39
Tah@@ 39
Technical 39
Telef@@ 39
Univers@@ 39
Wales 39
Wis@@ 39
Zw@@ 39
abis 39
aman 39
atory 39
auto@@ 39
avy@@ 39
bana 39
bau 39
berg@@ 39
big 39
born 39
burg@@ 39
chu@@ 39
clos@@ 39
dog 39
dot 39
dra@@ 39
element 39
esn@@ 39
ettes 39
française 39
gab@@ 39
general 39
gian 39
gun 39
hold 39
icop@@ 39
iku 39
inge 39
ions 39
iri@@ 39
izi@@ 39
laur@@ 39
leton 39
lide 39
lif@@ 39
mental 39
miles 39
niti@@ 39
nj@@ 39
oly@@ 39
opping 39
oting 39
otype 39
pool 39
pression 39
prise 39
priv@@ 39
roi 39
run 39
san 39
scher@@ 39
service 39
sex 39
standing 39
tav@@ 39
tent@@ 39
trong 39
ufa 39
umo 39
undtrack 39
unga 39
uz 39
vida 39
wich 39
ál@@ 39
ène 39
ères 39
éri@@ 39
Ρ 39
βί@@ 39
οδ@@ 39
τού@@ 39
Росси@@ 39
Так 39
гие 39
дета@@ 39
кими 39
пы@@ 39
сде@@ 39
сы 39
י 39
် 39
‐ 39
1,9@@ 38
Anthony 38
Art@@ 38
Assist@@ 38
Bach@@ 38
Catal@@ 38
Desp@@ 38
Hugo 38
Joh@@ 38
Kul@@ 38
Kw@@ 38
Kö@@ 38
Lewis 38
Lé@@ 38
Madrid 38
Mercur@@ 38
NATO 38
Nicolas 38
Offic@@ 38
Oh@@ 38
Palm@@ 38
Politi@@ 38
Premios 38
Rech@@ 38
Route 38
Row@@ 38
Sah@@ 38
Say@@ 38
Sheffield 38
Ski@@ 38
Thomson 38
Track 38
Transport 38
Tus@@ 38
Uri@@ 38
Vinc@@ 38
aje 38
alt 38
anco 38
anz 38
apo 38
artic@@ 38
aten 38
aton 38
bid 38
coll@@ 38
comment 38
cules 38
dera 38
dur 38
eira 38
elen@@ 38
elling 38
emer@@ 38
emo 38
ences 38
enny 38
enty 38
erie 38
estate 38
feri 38
gar 38
hard 38
hot 38
hut@@ 38
idar@@ 38
inclu@@ 38
jet 38
known 38
label 38
lich 38
lyr@@ 38
mang@@ 38
mond 38
mouth 38
orie 38
outh 38
oyer 38
pole@@ 38
sak@@ 38
schaft 38
[...]
