ใน 1217048
ที่ 1030700
และ 1003417
ของ 855105
เป็น 815534
มี 636089
การ 565469
ได้ 540455
" 485631
) 424909
( 418103
โดย 315240
. 295989
ว่า 288321
กับ 273641
ปี 273210
จะ 263482
จาก 262534
ซึ่ง 249279
ให้ 241506
ไม่ 229133
ไป 227555
พ.ศ. 227057
การ@@ 219395
มา 206979
ส@@ 206097
เมื่อ 200893
, 195835
ก@@ 193541
ม 186663
ส 186384
ม@@ 185853
น 185841
น@@ 176485
นี้ 175010
ล 172409
ล@@ 170538
พระ 163628
อยู่ 162308
หรือ 162154
ค.ศ. 160906
ใช้ 157360
ก 154125
- 153751
ความ@@ 151321
ด 150574
คือ 150556
์ 149942
บ@@ 148790
แต่ 148675
ร@@ 148609
ด@@ 148564
ก็ 147234
เขา 146432
ต@@ 142157
คน 141328
ป@@ 138036
ๆ 137029
วันที่ 136491
ด้วย 135172
ง 132548
ถูก 130040
ทาง 129836
ย@@ 129424
ว@@ 128739
แห่ง 128359
ผู้@@ 127468
เมือง 124543
ประเทศ 123536
ค@@ 123437
อ@@ 122191
ท@@ 121317
อย่าง 118467
ขึ้น 118344
ต 117080
พ@@ 114434
เพื่อ 113537
ได้รับ 113401
ยัง 112289
กัน 111199
นั้น 110591
ง@@ 109189
2 107140
จึง 105574
ช@@ 104643
ร 99805
ไทย 98942
ตัว 97314
1 95844
จ@@ 94306
ผู้ 93028
ถึง 93013
ร์ 92998
นา 91642
ะ 90507
บ 87920
สามารถ 87721
หนึ่ง 87175
ข@@ 87016
ซ@@ 86116
แล้ว 85067
ชื่อ 82293
ห@@ 81944
ดี 81500
ฟ@@ 80996
ย 80349
3 79811
25@@ 79684
สร้าง 78829
แบบ 78703
โ@@ 78501
ทำให้ 78025
า 77919
ว 77770
เป็น@@ 77693
พระ@@ 76684
เธอ 75795
ต่อ 75476
์@@ 75400
ทาง@@ 74670
มาก 74586
ทรง 74144
ออก 74137
เรื่อง 72872
อ 72450
ตาม 72167
จังหวัด 72130
ประ@@ 71701
ค 70572
เพลง 70194
เกิด 69701
เล@@ 69304
ต้อง 68847
วิ@@ 68737
ชาว 68532
() 68085
ลา 67960
แรก 67416
อร 67397
กา 67103
วัด 67007
ระหว่าง 66459
ต่อมา 65419
ทั้ง 64593
เก@@ 64252
นิ@@ 64064
เซ@@ 63693
แ@@ 63373
รา 63339
ลง 63086
ริ 63037
ส่วน 62934
ความ 62727
รี 62121
ส์ 61902
ทีม 61326
ทำ 60601
งาน 60455
อีก 60323
วัน 60319
อา@@ 60248
เน@@ 59884
กลุ่ม 59796
มา@@ 59042
เบ@@ 58914
เดือน 58706
สุ@@ 58671
ปัจจุบัน 58648
ถ@@ 58606
เช่น 58438
ย์ 58150
ฮ@@ 58073
4 57479
ไ@@ 57187
ใหญ่ 57139
ท 56911
สำหรับ 56907
ภาพ 56606
ยา 56568
: 55906
รา@@ 55714
พระองค์ 55698
หลาย 55690
ใหม่ 55649
หลัง 55037
ด้าน 54974
ช 54880
โลก 54056
ฟ 54049
พบ 53957
มี@@ 53911
้ 53680
ณ 53375
นัก@@ 52949
24@@ 52702
ช่วง 52502
เข้า 52466
ที่สุด 52289
บน 52076
ลิ@@ 51963
ผ@@ 51883
เริ่ม 51459
อำเภอ 51290
ซี 51280
เม@@ 51254
ี@@ 51205
ที่@@ 51135
เอ 50918
เรียก 50901
ตา 50639
กว่า 50593
เช@@ 50469
กล@@ 50457
โอ 50126
ครั้ง 50121
ป 49810
เส@@ 49683
เอ@@ 49626
กระ@@ 49622
ภาพยนตร์ 49552
นำ 49488
น้ำ 49035
ราช@@ 48934
เล่น 48836
มิ 48038
ภาษา 47954
้า 47875
5 47851
จัด 47701
เว@@ 46893
ร์@@ 46808
พระเจ้า 46346
นา@@ 46158
ราช 45764
ศ@@ 45732
สี 45464
โรงเรียน 45445
ใจ 45319
ต่าง 45251
เจ@@ 45050
จำนวน 44889
อา 44837
ไว้ 44792
่ง 44690
ตั้งแต่ 44651
ชาติ 44607
อน 44559
หล@@ 44513
เขต 44481
ที่จะ 44367
่ 44195
จน 43861
ี 43842
รอบ 43787
ลี 43576
เด 43576
รัฐ 43294
ิ@@ 43280
หม@@ 43229
สำคัญ 42919
มาจาก 42698
การแข่งขัน 42461
ลิ 42397
– 42204
เร@@ 42079
สอง 42038
; 41769
เพ@@ 41630
ซา 41382
ตัว@@ 41314
ระบบ 41255
กลาง 41110
พิ@@ 40989
ัง 40018
อั@@ 40001
ริ@@ 39975
ดา 39931
ระดับ 39922
พื้นที่ 39902
ทั้งหมด 39871
เ@@ 39664
โก 39657
จีน 39571
ติ 39512
สมัย 39501
อื่น 39242
ผ่าน 39100
เท@@ 39066
นาย 39050
อาจ 38608
มัน 38516
โร 38493
หน้า 38061
รวม 37960
ธ@@ 37959
สมเด็จ 37615
เด@@ 37570
ะ@@ 37562
สูง 37526
คำ 37467
ญี่ปุ่น 37359
ก่อน 37345
คา 37236
ทำ@@ 37023
้@@ 36870
ในประเทศ 36843
เวลา 36727
"@@ 36656
เร 36632
ศาสตร์ 36522
เคย 36487
บ้าน 36438
6 36429
เดิม 36424
ฉ@@ 36302
ยา@@ 36285
ประมาณ 36264
เจ้า 36254
กั@@ 36058
เหนือ 35964
หน@@ 35888
กา@@ 35876
ได้แก่ 35819
รับ 35796
อิ@@ 35707
ณ@@ 35486
ชาย 35349
ญ@@ 35333
ญ 35243
ิ 35113
การศึกษา 35097
ชนิด 35081
้ง 34915
นัก 34711
ุ 34655
สา@@ 34594
็@@ 34135
มหาวิทยาลัย 34118
เนื่องจาก 34041
สม@@ 33983
ู@@ 33907
คร@@ 33774
หา 33762
ตำแหน่ง 33607
โต 33541
เพราะ 33510
วง 33450
วิ 33448
อุ@@ 33337
เพียง 33322
กร 33186
ลักษณะ 33180
วงศ์ 33117
น์ 33005
แม@@ 32995
เต 32920
่า 32769
เต@@ 32714
อง 32648
้น 32501
่@@ 32480
เซ 32451
คล@@ 32420
คำ@@ 32186
ชุด 32184
เสียง 32179
รับ@@ 32172
หลัก 32136
บริษัท 32095
ลูก@@ 32093
บาง 32062
ีย@@ 32033
ต์ 32004
เห็น 31932
บริเวณ 31805
7 31693
เท 31640
ตำบล 31418
-@@ 31375
อัน 31322
โน 31284
กร@@ 31139
น้ำ@@ 31139
นิ 31124
เม 31006
ิน 30982
โร@@ 30948
อันดับ 30861
ซิ 30803
รั@@ 30758
ิน@@ 30736
อร์@@ 30714
ใต้ 30697
.@@ 30670
กรรม 30615
เฟ@@ 30525
(@@ 30444
วา 30428
เป@@ 30418
แก่ 30360
แสดง 30248
ประวัติ 30244
คน@@ 30171
ติ@@ 30138
10 30103
ู 30059
ชิ 29950
พล@@ 29930
ผล 29929
า@@ 29908
ฝ่าย 29885
ชีวิต 29884
หลังจาก 29859
ลา@@ 29782
& 29711
ฟุตบอล 29688
รูป 29470
อังกฤษ 29324
ส่วน@@ 29212
ระ 29099
จ 29063
นิยม 28997
ตั้งอยู่ 28976
กลับ 28883
ภาค 28781
อน@@ 28757
รัฐบาล 28683
เกม 28528
เรือ 28518
ระ@@ 28503
ส่ง 28497
ชา 28448
โค 28444
ดู 28384
/ 28307
ุ@@ 28141
อดีต 28113
ั@@ 28098
8 28030
สงคราม 28025
เดียวกัน 28010
รายการ 27976
เปิด 27957
โดย@@ 27937
เค@@ 27913
ซ 27722
เขียน 27698
่น@@ 27517
ผล@@ 27473
ยาว 27464
กีฬา 27431
ัก@@ 27418
บา@@ 27359
ทหาร 27237
ัก 27218
ชั้น 27179
รุ่น 27027
เดียว 26985
อัลบั้ม 26941
เก 26821
ช่วย 26783
เปลี่ยน 26764
กุ@@ 26679
่ง@@ 26673
ซ์ 26627
ฝ@@ 26572
แบ@@ 26572
แบ่ง 26572
ตั้ง 26462
อาหาร 26451
พา@@ 26438
ยู 26357
มิ@@ 26332
อง@@ 26324
กำลัง 26319
เข้า@@ 26211
ต้น 26191
ภายใน 26141
โม@@ 26084
ยุค 26009
ตน 25945
องค์ 25932
เครื่อง@@ 25903
่น 25848
สาย 25845
เจ้า@@ 25834
คา@@ 25824
อก 25806
วี 25781
อร์ 25750
ประกาศ 25723
ฝรั่งเศส 25678
สโมสร 25660
เกี่ยวกับ 25619
ศึกษา 25598
อด@@ 25586
แล@@ 25452
ทอง 25378
๊@@ 25358
พ 25337
” 25332
ดี@@ 25320
ท์ 25304
วา@@ 25289
ียง 25268
ปลา 25215
เป็นการ 24987
นี 24976
ปล@@ 24966
อนุ@@ 24945
วั@@ 24943
ร่วม 24904
อี 24888
ปรา@@ 24853
จา@@ 24745
ประกอบ 24742
จิ 24718
คณะ 24689
โอลิมปิก 24673
แทน 24571
ผลงาน 24550
บา 24527
ฮา 24526
จัด@@ 24518
รัก 24505
พรรค 24498
โด 24293
ดิ@@ 24286
หลวง 24235
ชน 24146
ทร@@ 24122
ฯ 24065
เข@@ 24055
“ 24038
รูปแบบ 23835
อม 23798
ดังกล่าว 23715
ธรรม 23713
บรร@@ 23709
9 23673
โค@@ 23667
น้อย 23663
วง@@ 23641
ชัน 23555
สาม 23510
ใน@@ 23508
หญิง 23489
ยุ@@ 23479
20 23478
  23469
กิ@@ 23468
เค 23437
ล้าน 23384
มหา@@ 23158
แห่งชาติ 23152
of 23060
เอง 23025
สกุล 23009
สุดท้าย 22974
ลีก 22914
มากกว่า 22834
ด์ 22724
ตา@@ 22716
สี@@ 22697
โรค 22675
บี 22656
ี่ 22556
มั@@ 22554
ครั้งแรก 22539
จนถึง 22440
ไม้ 22402
ข้อ@@ 22375
ที 22348
นอกจากนี้ 22320
รางวัล 22248
ัน@@ 22078
ดิ 21985
อด 21961
อายุ 21935
บิน 21848
ท่าน 21792
โล 21787
พวก 21719
เกาะ 21705
12 21692
สั@@ 21688
สาว 21663
ปา@@ 21610
ถนน 21608
หน้า@@ 21596
เข้าร่วม 21577
ฐานะ 21403
ส่วนใหญ่ 21336
โม 21335
ข้อมูล 21308
พล 21305
ตอน 21303
้ม 21302
ตร@@ 21296
15 21279
นั@@ 21261
ธ 21249
อย 21240
เรียน 21194
เกิดขึ้น 21179
อาศัย 21163
โด@@ 21001
มือ 20956
เจ 20932
จำ@@ 20894
เลือก 20850
โท 20825
รุ@@ 20721
ประเภท 20720
ภ@@ 20673
เดินทาง 20673
ียน 20655
ตัน 20610
ชนะ 20609
พัฒนา 20598
พวกเขา 20534
าน 20511
อบ@@ 20505
บริ@@ 20504
ิง 20476
ตี 20434
ก็ได้ 20425
เย@@ 20422
เมตร 20369
มหา 20356
30 20326
โอ@@ 20289
ตาม@@ 20275
ฤดูกาล 20256
ทุก 20215
บาท 20213
นคร 20207
สัตว์ 20200
ผลิต 20160
้า@@ 20158
ขนาด 20147
ละ@@ 20145
มีนาคม 20143
ับ 20124
พันธุ์ 20113
สิงหาคม 20098
16 20080
กองทัพ 20065
ลง@@ 20065
ที่อยู่ 20050
สมาชิก 20047
บั@@ 20043
่า@@ 20002
แม่น้ำ 19986
ฐาน 19950
อาคาร 19804
เงิน 19799
ตุลาคม 19787
ตร 19764
แสดง@@ 19746
ย้าย 19662
แนว 19644
ชน@@ 19572
ปรากฏ 19571
ออกมา 19561
ราชวงศ์ 19551
เข้ามา 19499
่อ 19477
กลายเป็น 19441
แน@@ 19418
ออกจาก 19414
บท 19383
ช่อง 19368
สู่ 19345
กันยายน 19312
สนับสนุน 19291
ตะวันตก 19280
วน 19263
งาน@@ 19217
จบ 19216
ทุก@@ 19216
' 19212
ประกอบด้วย 19196
บุรี 19165
ใด 19160
ยังมี 19147
เมษายน 19139
มกราคม 19132
แยก 19109
ธันวาคม 19074
สาขา 19074
สน@@ 19056
ศา@@ 19036
จักรพรรดิ 19018
แต่ละ 18987
), 18983
ประชากร 18966
บุคคล 18956
ออ 18944
พิเศษ 18941
ศาสนา 18925
พฤษภาคม 18899
สภา 18877
ต่างๆ 18853
สาร 18815
น. 18814
ทา 18773
เล็ก 18762
กำหนด 18742
เฮ@@ 18725
แท@@ 18722
ชา@@ 18720
หมายถึง 18709
ประชาชน 18707
กรกฎาคม 18699
แผ@@ 18654
หา@@ 18650
เสียชีวิต 18647
เรีย 18638
ขาย 18610
เอก 18599
มนุษย์ 18595
ประจำ 18578
ษ@@ 18569
รวมถึง 18562
รี@@ 18538
ดา@@ 18536
ทะเล 18510
11 18489
นก 18488
มัก 18440
ตะวันออก 18410
อากาศ 18361
ปา 18325
19 18319
โซ@@ 18290
สัน 18286
18 18277
ศรี 18272
ัน 18240
ชัย 18218
วัน@@ 18200
๋@@ 18179
นัด 18161
เพิ่ม 18159
่าน 18143
การเลือกตั้ง 18136
ทิศ@@ 18118
หนังสือ 18020
ล์ 18005
แม่ 18000
ลำ@@ 17997
โซ 17986
กรม@@ 17979
บู@@ 17976
อิน@@ 17973
ทั้งสอง 17968
พร@@ 17930
มิถุนายน 17922
ตะ@@ 17864
นาง 17841
ซิ@@ 17833
โก@@ 17806
เรีย@@ 17801
ปัญหา 17798
ทำงาน 17787
กรุง 17764
วะ 17756
นาม 17753
14 17744
พระราช@@ 17744
ซั@@ 17741
ตุ@@ 17725
โต@@ 17724
อะ 17716
ยู@@ 17676
คู่ 17644
ปั@@ 17618
จริง 17617
ขอ 17580
ลด 17555
นาน 17543
ตอน@@ 17531
เนีย 17531
เด็ก 17509
รร@@ 17501
พฤศจิกายน 17494
ทั่วไป 17483
หัว 17471
สิ่ง 17466
ประวัติศาสตร์ 17437
บุ@@ 17421
ทิ@@ 17385
แดง 17380
ใช้@@ 17358
มะ 17353
อีกครั้ง 17288
ละ 17275
ู่ 17272
ไอ 17245
สหรัฐอเมริกา 17238
เท่านั้น 17222
ชิ@@ 17216
ภูมิ@@ 17195
ศ 17168
ห์ 17151
ได้@@ 17134
ม. 17124
ทา@@ 17085
ป่า 17083
ซี@@ 17073
วิทยา 17057
พา 17046
จิ@@ 17026
สิ@@ 16973
สาร@@ 16965
แค@@ 16959
แก@@ 16924
ฉบับ 16919
เตอร์ 16903
ชั้น@@ 16891
แลนด์ 16887
กุมภาพันธ์ 16873
ละคร 16856
ยะ 16851
ลาย 16837
การปกครอง 16836
ยุโรป 16806
อิ 16788
ื@@ 16770
ธรรม@@ 16749
ซา@@ 16715
ภายใต้ 16649
ขา@@ 16624
คณะ@@ 16624
คุ@@ 16599
สถาน 16541
ตาย 16508
กฎหมาย 16507
อำนาจ 16454
ดังนี้ 16445
ออก@@ 16397
จุด@@ 16395
13 16385
ไฟ 16378
25 16349
แอ 16327
สังคม 16317
ซู 16287
ภา@@ 16237
ชื่อว่า 16178
ปลาย 16173
แข่งขัน 16151
การเมือง 16140
ค่า 16139
อบ 16097
ีย 16095
ดนตรี 16073
(; 16067
เครื่อง 16064
ราย 16063
อล 16020
ห 16006
พระราชทาน 15998
รักษา 15991
เหตุการณ์ 15960
ก่อตั้ง 15923
ที@@ 15895
บาง@@ 15869
17 15863
กิ 15863
มุ@@ 15835
สังกัด 15818
ออกอากาศ 15818
The 15817
รวมทั้ง 15809
จา 15787
จากนั้น 15768
ราชการ 15745
ตั้ง@@ 15742
เดอะ 15737
อาร์ 15725
กะ 15695
จำหน่าย 15689
็ก 15665
แต@@ 15660
สูงสุด 15658
เลย 15656
อย@@ 15650
ฤดูร้อน 15635
สุ 15610
เหตุ 15601
แซ@@ 15589
ร่วมกับ 15525
") 15524
ใบ 15517
ลั@@ 15499
อักษร 15492
วิทยาศาสตร์ 15488
อก@@ 15475
คณะกรรมการ 15473
เส้น 15443
สอน 15348
ถ้า 15330
มาร 15329
รบ 15306
จำกัด 15301
สู@@ 15292
ลูก 15289
ือ 15250
รู้ 15213
รู 15210
แต่@@ 15175
ปร@@ 15122
กอง@@ 15108
วาง 15100
การแสดง 15066
รอง 15052
ไม@@ 15027
สต@@ 15013
ึ@@ 15005
ไม่@@ 15003
ขาว 14965
เอส 14962
ดั@@ 14928
ยังคง 14915
เรา 14899
กรม 14860
เล 14858
24 14841
วิธี 14839
กลับมา 14822
พยายาม 14805
ดาว 14781
นต@@ 14773
ธิ@@ 14765
หาก 14763
การณ์ 14760
อาการ 14693
้อน 14662
แอ@@ 14621
สี่ 14620
บุตร 14618
กู 14607
เห@@ 14592
หน่วย 14575
ปี@@ 14533
สุด 14526
วร 14483
ฮิ 14470
ทร 14442
ประตู 14439
ปฏิ@@ 14435
ทุ@@ 14432
ด้าน@@ 14431
ี้@@ 14362
โบ 14358
ชี 14356
​ 14339
ำ@@ 14333
ชิง 14311
คล้าย 14302
เซอร์ 14302
้อง 14294
น่า@@ 14279
คิด 14269
ติด@@ 14264
21 14260
ตั@@ 14233
ไร 14230
จุด 14226
ทัพ 14193
ต้น@@ 14167
ตก@@ 14114
นักแสดง 14110
ดัง 14095
อาชีพ 14091
ทั@@ 14070
สำ@@ 14064
คอ 14018
นว@@ 14002
ของ@@ 13982
นับ 13970
เอเชีย 13960
ดู@@ 13956
โป@@ 13930
กิน 13897
หมู่ 13873
สาธารณรัฐ 13872
ปริ@@ 13857
ครู 13822
สัน@@ 13806
เข้าไป 13799
แชมป์ 13784
รัสเซีย 13777
หุ@@ 13759
เหมือน 13758
รอ 13755
รถ 13750
โล@@ 13750
กระทรวง@@ 13730
วัฒนธรรม 13725
ดอก 13709
วิน 13705
เหล่านี้ 13704
สัง@@ 13698
ขนาดใหญ่ 13694
ให้@@ 13676
รถ@@ 13662
สง@@ 13650
ญา@@ 13637
อินเดีย 13625
เจ้าชาย 13618
เป็นที่ 13597
พั@@ 13594
ดำรงตำแหน่ง 13592
ร้อง 13589
ปกครอง 13580
หัว@@ 13571
คะแนน 13570
แม้ 13567
ที่สอง 13544
ประธาน 13526
ยก@@ 13501
the 13496
แฟ@@ 13492
เป็นหนึ่ง 13478
โครงการ 13476
ำ 13473
อี@@ 13456
% 13449
กษัตริย์ 13447
เข้าสู่ 13430
ศักดิ์ 13423
สว@@ 13420
สหรัฐ 13389
คั@@ 13386
โย 13381
โรง@@ 13381
ทำการ 13346
ก่อสร้าง 13324
ึง 13310
ติด 13303
เลือด 13276
ัง@@ 13267
ตรง 13264
นะ 13247
แมน 13234
ตนเอง 13232
โจ@@ 13231
เป็นต้น 13221
ิด 13214
รัฐมนตรี 13200
เผ@@ 13198
ภายหลัง 13195
เสีย 13188
้อ@@ 13186
ลุ@@ 13159
gt 13156
22 13144
ยอด 13117
ครอบครัว 13080
โย@@ 13077
จนกระทั่ง 13072
ชี@@ 13070
รว@@ 13063
พื้น@@ 13062
lt 13051
ึก 13040
ภัย 13037
ชอบ 13036
้น@@ 13021
ฟ้า 13015
เริ่มต้น 13000
ใกล้ 12984
ดุ@@ 12979
กี 12968
นาง@@ 12948
คุณ 12941
หมาย 12930
สิทธิ์ 12924
ออกแบบ 12916
สถานี 12903
แรง 12901
แป@@ 12892
แสง 12876
รายชื่อ 12875
โปร@@ 12871
สถาบัน 12864
ท่า 12847
จำนวนมาก 12832
23 12827
สนาม 12808
สัญญา 12801
หน้าที่ 12790
จี 12779
กำกับ 12778
ีน 12771
เอา 12770
ดำ 12760
การพัฒนา 12745
มณฑล 12738
ว์ 12736
พัน 12732
เซลล์ 12712
วัง 12703
พอ 12684
ไฟฟ้า 12676
ราว 12675
ต่อไป 12671
ราม 12669
วิชา 12656
ภาค@@ 12644
ิล 12618
ระบุ 12613
กำเนิด 12608
สัม@@ 12605
สาย@@ 12594
ลำดับ 12588
ตระกูล 12572
ดินแดน 12551
่ม@@ 12535
บิดา 12532
เทพ 12490
เศรษฐกิจ 12449
อย่างไรก็ตาม 12446
ธิดา 12424
บท@@ 12410
ยก 12408
มหาวิทยาลัย@@ 12406
เจ้าหญิง 12404
ลู 12402
สวน 12379
มากขึ้น 12378
ดาว@@ 12339
โน@@ 12326
แม้ว่า 12324
เสด็จ 12323
ครอง 12320
อิน 12316
นคร@@ 12313
เชื่อ 12310
ธรรมชาติ 12302
วิทยาลัย 12298
แห@@ 12298
ฮั@@ 12294
คดี 12293
ร้าย 12291
็ก@@ 12287
งค@@ 12264
วิหาร 12261
ส่วนหนึ่ง 12260
บิ 12259
ดิน 12239
ค่า@@ 12236
จัดตั้ง 12218
กว@@ 12198
รุ 12187
หลังจากนั้น 12179
ชม 12174
เวอร์ 12172
ในขณะที่ 12169
ภิ@@ 12168
หิน 12165
s 12159
แต่งตั้ง 12158
มักจะ 12129
นอก 12126
ก่อ 12092
สมาคม 12083
คุณ@@ 12048
แปล 12032
ต้องการ 12024
พี 12013
ข้าม 12004
เฮ 12004
คลอง 11996
สะ@@ 11961
งา 11953
ยศ 11951
เอ็ม 11943
ตัวเอง 11930
ท้องถิ่น 11924
พระยา 11912
อเมริกัน 11903
เก็บ 11902
อุด@@ 11890
ิต 11844
กว้าง 11843
28 11820
หนัก 11791
่อน 11786
แผ่นดิน 11782
เพื่อให้ 11748
ภาพ@@ 11746
่ม 11736
นาย@@ 11731
อีกด้วย 11712
ียร์ 11712
ครั้งนี้ 11711
เดิน 11705
เกิน 11700
โดยเฉพาะ 11696
ระดับ@@ 11693
ณ์ 11689
26 11685
แก้ว 11675
แต่ง 11656
ปล่อย 11653
เหล@@ 11653
แตก 11636
ือ@@ 11625
แพ้ 11612
ดังนั้น 11608
พม่า 11607
ห้อง 11607
ศูนย์ 11589
แส@@ 11582
ทั้ง@@ 11580
ภาษา@@ 11580
ีย์ 11576
0 11567
แพ@@ 11567
ธุรกิจ 11561
ควบคุม 11557
อาจจะ 11555
จับ@@ 11546
นุ@@ 11530
แม่@@ 11495
เฉพาะ 11483
พรรค@@ 11471
ราย@@ 11467
วด 11445
ได 11439
สาน 11434
โทรทัศน์ 11391
ดูแล 11370
ิร์@@ 11362
ียว 11359
ต่อ@@ 11333
นต์ 11301
ไล@@ 11300
เหลือ 11299
27 11294
เยอรมนี 11289
พร 11266
ตรา 11255
ฆ@@ 11253
แร@@ 11251
จักรวรรดิ 11243
ศิลปะ 11235
ข่าว 11221
ัด 11187
มารดา 11172
29 11169
ภูมิภาค 11169
หร@@ 11164
เพ 11163
เยอรมัน 11163
บันทึก 11152
นายกรัฐมนตรี 11138
แดน 11130
อัล 11128
พอ@@ 11107
ยาน 11106
กิโลเมตร 11101
เก่า 11099
โฮ 11099
สั้น 11089
เกี่ยวข้อง 11087
พูด 11082
หว@@ 11079
อาณาจักร 11075
เน 11059
กัน@@ 11040
แนว@@ 11038
ประโยชน์ 11027
มีชื่อเสียง 11027
อล@@ 11022
ปก@@ 11020
สร@@ 11019
เทคโนโลยี 10997
แจ@@ 10987
บี@@ 10986
ยิง 10983
ศรี@@ 10982
สุข 10981
ปกติ 10978
ธาตุ 10959
ก่อ@@ 10946
ฉาย 10938
เลอ 10930
ศึก 10924
เชิง 10906
อื่นๆ 10891
แข@@ 10886
ศพ 10878
พืช 10876
ธิการ 10865
กุล 10857
๊ก 10851
จร 10841
สถานที่ 10837
เป็นทางการ 10830
ป้องกัน 10825
พิมพ์ 10822
ภูมิ 10819
โบราณ 10815
ไซ 10806
พร้อมกับ 10793
ถ่าย@@ 10792
ฤ@@ 10786
็น 10782
มากมาย 10751
ไท@@ 10748
็ด 10729
สิ่ง@@ 10728
ย่อย 10720
ศิลปิน 10694
จักร 10687
ดัน 10669
เลี้ยง 10661
ว่าการ 10659
อย่าง@@ 10652
ตัวละคร 10648
กอ 10645
ถึง@@ 10642
กรุงเทพมหานคร 10639
กุ 10624
หมู่บ้าน 10621
เลือกตั้ง 10603
ข้าง 10595
ค่าย 10543
ูน 10538
ตะ 10533
วี@@ 10523
เปิดตัว 10518
ไป@@ 10502
พร้อม 10500
สต์ 10491
กล่าว 10488
ข้าง@@ 10484
นี่ 10484
นักเรียน 10471
ใช่ 10446
P@@ 10419
ทำหน้าที่ 10412
คืน 10406
เง@@ 10406
ใส่ 10405
ชั่น 10403
สืบ@@ 10391
อิทธิพล 10388
ซิงเกิล 10381
จับ 10380
พิธี 10377
หลังจากที่ 10345
จันทร์ 10335
ดำเนิน 10330
ส่ง@@ 10325
โจมตี 10325
รัส 10321
ฏ@@ 10320
ประจำ@@ 10313
ไท 10302
หั@@ 10273
อุ 10254
าน@@ 10240
ึก@@ 10239
เป็นที่รู้จัก 10235
พลัง 10222
ดำเนินการ 10206
ไซ@@ 10187
อิตาลี 10178
ฌ@@ 10176
31 10159
ช่วยเหลือ 10158
ฐ 10158
ลับ 10156
ือน 10140
ใ@@ 10129
่อ@@ 10128
โช@@ 10123
วัย@@ 10095
เทียบ 10094
เสนอ 10085
ตัด 10076
ฟา 10060
S@@ 10050
นักร้อง 10038
สภาพ 10034
กาย 10013
ความสัมพันธ์ 10007
บัน@@ 10004
ความสามารถ 9994
แข็ง 9991
อู 9976
A 9974
จุ@@ 9954
ิล@@ 9951
ียน@@ 9922
พระนาง 9916
ตลาด 9909
เอ็@@ 9907
23@@ 9906
). 9899
รูป@@ 9899
ใบ@@ 9889
= 9885
T@@ 9884
นอ 9864
มอง@@ 9855
หย@@ 9848
ครั้ง@@ 9847
สเปน 9841
ไอ@@ 9832
่อง 9825
รู้จัก 9820
็อก 9819
ต่อต้าน 9818
กล่าวว่า 9803
คว@@ 9797
ขยาย 9796
ถือ 9796
พ่อ 9796
การผลิต 9794
สำเร็จ 9792
ช่วง@@ 9780
บริหาร 9772
ตลอด 9765
M@@ 9745
ตรง@@ 9727
เถ@@ 9725
สิทธิ 9716
แฮ@@ 9716
จิต@@ 9693
ตำรวจ 9685
้าย@@ 9677
ิม 9672
ควร 9671
ทำลาย 9667
วิจัย 9651
ตก 9646
สัญลักษณ์ 9643
มะ@@ 9638
ชาว@@ 9636
ับ@@ 9629
เทศ 9627
รับรางวัล 9625
ปาก 9607
กซ์ 9601
นี@@ 9589
สเต@@ 9588
อุป@@ 9588
เปล@@ 9585
ตำ@@ 9583
ื่อ@@ 9575
ส์@@ 9571
จน์ 9564
ขนาดเล็ก 9562
อัล@@ 9562
รุนแรง 9559
ผสม 9554
้ว@@ 9554
ล่าง 9548
ตั้งขึ้น 9543
กอง 9542
พระบรม@@ 9532
จัดการ 9526
ข้อ 9525
หนี 9502
สมาชิกสภาผู้แทนราษฎร 9496
็อง 9494
บอก 9479
ผู้นำ 9478
เพศ 9475
วาง@@ 9468
จู 9451
้อ 9447
ดิน@@ 9446
สัปดาห์ 9433
ตัวอย่าง 9422
สหราชอาณาจักร 9416
(" 9413
โครงสร้าง 9397
กำ@@ 9389
เหล็ก 9385
ต่างกัน 9376
บุญ 9363
ก์ 9343
ข 9338
ด้วยกัน 9320
ปิ@@ 9296
100 9288
ี่@@ 9286
แพทย์ 9265
ฝั่ง 9263
รายงาน 9263
พุทธ@@ 9248
ข้า@@ 9247
หลักสูตร 9237
ประธานาธิบดี 9228
ทศวรรษ 9215
ทำให้เกิด 9214
โคร@@ 9209
G@@ 9194
บดี 9185
่าง 9184
สาม@@ 9183
ธานี 9181
เหรียญ@@ 9147
ฟิ@@ 9142
ทหาร@@ 9136
กระจาย 9128
กรา@@ 9128
ต่างประเทศ 9125
ทราบ 9122
บางส่วน 9117
เชียงใหม่ 9103
บก 9095
้อย 9091
คู่@@ 9085
จี@@ 9085
สิบ 9084
ประสาท 9075
ฎ@@ 9056
ยึด 9055
แรง@@ 9044
มวย@@ 9043
พื้น 9034
ตรี 9027
กาล 9026
ดวง@@ 9013
เย 9009
โรงพยาบาล 8999
ท่า@@ 8992
ทุน 8991
บ้าน@@ 8984
เคร@@ 8983
พัก 8982
ประสบความสำเร็จ 8981
นักกีฬา 8974
สัตว์@@ 8974
ขณะที่ 8973
จำ 8973
ฝ่าย@@ 8970
เบอร์ 8960
วัตถุ 8951
ซุ@@ 8949
เท่า@@ 8948
โทษ 8947
ภาวะ 8936
ริน 8933
คุ 8929
รัชกาล 8922
หลักฐาน 8920
เส้นทาง 8901
โจ 8900
เป็นเวลา 8897
เวอร์@@ 8897
แหล่ง 8896
กรรม@@ 8892
ได้รับ@@ 8891
รัง 8889
รถไฟ 8887
นิกาย 8881
วิจารณ์ 8878
เป็นครั้งแรก 8874
", 8872
ชู 8867
มอ@@ 8860
ยอมรับ 8847
อุตสาหกรรม 8834
ประสงค์ 8820
ไร@@ 8820
ื่น 8819
ไว 8808
เนื้อ@@ 8806
ซื้อ 8804
ผิด 8798
มป@@ 8795
พิจารณา 8791
พระบาทสมเด็จพระ@@ 8788
C@@ 8781
สม 8780
มพ@@ 8776
อ่อน 8773
ไข@@ 8773
แด@@ 8772
ขับ@@ 8771
สากล 8762
มูล@@ 8756
เส้น@@ 8751
บำ@@ 8740
พลังงาน 8739
ชุมชน 8716
ฝึก@@ 8713
สยาม 8704
กองทัพ@@ 8703
องค์กร 8703
ักษ์ 8696
คริ@@ 8691
นานาชาติ 8691
ทั่วโลก 8687
บอ 8686
เพิ่มขึ้น 8680
ขาด 8679
เวียดนาม 8677
ที่ดิน 8662
เช่นกัน 8661
่าง@@ 8649
แล้ว@@ 8640
ยุ 8634
ื้อ@@ 8633
หมาย@@ 8629
สึ 8626
เชิญ 8621
นิว@@ 8618
จั@@ 8617
เจริญ 8610
ร่าง 8607
เจน 8606
เล่ม 8605
อาจารย์ 8604
ลิง 8591
หลัก@@ 8589
สมอง 8573
โท@@ 8572
คริสต์ 8571
แคว้น 8561
อาวุธ 8558
ร่างกาย 8554
โพ@@ 8542
มอน 8537
บริการ 8528
เรือน 8519
แค 8519
ห้อง@@ 8516
กิจกรรม 8511
รม 8508
เนอ 8504
เมีย 8487
กิจ 8478
อาทิตย์ 8478
ตัดสินใจ 8466
งค์ 8457
เอฟ 8455
บรม 8452
ยิ่ง@@ 8452
50 8448
ทัย 8444
ภา 8433
คริสต์ศตวรรษ 8432
เสีย@@ 8432
ภาษาอังกฤษ 8431
ธง 8430
ร็@@ 8425
เฉ@@ 8422
เพื่อน 8418
คาร์ 8402
ต่ำ 8393
่วง 8392
ลอ@@ 8387
กลาง@@ 8386
in 8379
ปฏิบัติการ 8374
ก. 8364
ขึ้น@@ 8345
and 8343
ขน@@ 8335
วิดีโอ 8330
แอน@@ 8326
ถือเป็น 8321
อเมริกา 8317
หัวหน้า 8314
ห่าง 8312
สำนักงาน 8308
รส 8302
บุ 8299
กะ@@ 8289
ใช้งาน 8287
เต็ม@@ 8278
จอห์น 8277
ห้า 8272
่ว 8268
็อ@@ 8264
แผ่น 8259
พระพุทธ@@ 8255
เฉพาะ@@ 8255
สถาน@@ 8248
้วย 8240
พื้นฐาน 8235
ซีรีส์ 8226
ียม 8223
การค้า 8219
ธิ 8216
ปิด 8194
เรื่องราว 8192
ุ่ม 8188
เสมอ 8186
สต 8184
การ์ตูน 8179
เขต@@ 8179
ผู@@ 8177
นท 8174
อธิบาย 8163
้าว 8147
ในที่สุด 8143
อาร์@@ 8142
ร่วมกัน 8141
คอน 8138
แถบ 8137
มอ 8132
ณา@@ 8128
วงการ 8126
นาที 8125
ทีวี 8124
นู 8122
เอาชนะ 8122
ขอ@@ 8121
อม@@ 8115
ภั@@ 8114
เล่า 8110
เกล@@ 8104
ญา 8096
ศาล 8088
สัย 8087
รัฐธรรมนูญ 8085
หมายเลข 8082
อยู่@@ 8082
วด@@ 8075
ซึ@@ 8074
บรม@@ 8062
เพียง@@ 8058
บัณฑิต 8056
่ว@@ 8055
เหน@@ 8053
โทร@@ 8050
ชุ@@ 8049
พยา@@ 8049
ยอดเยี่ยม 8045
้าน@@ 8036
พระมหากษัตริย์ 8033
ครอง@@ 8019
ลำ 8010
เครื่องบิน 8009
ภู@@ 8006
ไห@@ 7988
ทางการเมือง 7987
ือก@@ 7982
ื่อ 7979
ยน 7976
การทำงาน 7973
สื่อ 7971
ทฤษฎี 7967
ไม้@@ 7963
อะ@@ 7959
โอรส 7953
ท้อง@@ 7949
นาการ 7940
ค์ 7931
ฺ@@ 7929
ือก 7925
ล่า 7920
รัฐ@@ 7918
สา 7915
สุริ@@ 7915
หนัง 7909
ชีว@@ 7908
ทวีป@@ 7901
ไฟ@@ 7901
ถือว่า 7900
ีบ 7898
ศูนย์กลาง 7897
ี่ย@@ 7896
ศตวรรษ 7894
2016 7888
สมัคร 7888
สมบูรณ์ 7884
กษ@@ 7878
D@@ 7875
จง 7875
ครั@@ 7868
จักร@@ 7861
เปลี่ยน@@ 7855
กรณี 7852
กส์ 7845
ค้นพบ 7837
ฮ์ 7836
เห็น@@ 7835
ไร่ 7834
ขณะ 7832
เกล้า 7821
ฟี 7811
วิชาการ 7809
ย่อ 7807
ชาย@@ 7805
แนวคิด 7804
ตกลง 7801
นุ 7801
ให้บริการ 7800
สมรส 7799
ความเป็น@@ 7795
นโยบาย 7794
สมเด็จพระ@@ 7792
ใกล้เคียง 7787
ลาว 7782
N@@ 7777
คู 7767
ริก 7766
เหลือง 7761
ษ 7752
บางครั้ง 7751
กี@@ 7748
โกะ 7747
เวน 7745
สินค้า 7743
ปรับ 7741
เอ็น 7740
ตลอด@@ 7735
เต็ม 7732
ใจ@@ 7724
2012 7723
เหล่า 7718
ช้าง 7716
โฟ@@ 7716
ฐ@@ 7715
หวัง 7715
ทธ@@ 7713
พร้อม@@ 7712
ระยะ 7709
สมบัติ 7707
เยาวชน 7704
จอม@@ 7702
B@@ 7700
ยิ@@ 7699
้อม 7698
_ 7697
วิทยา@@ 7693
วาน 7689
มุ 7687
ปราสาท 7686
ไกล 7682
ขา 7679
จ่าย 7676
2014 7674
สิน@@ 7668
ระเบิด 7666
กรรมการ 7664
45 7655
รณ@@ 7650
ทาน 7645
ธ์ 7642
คัพ 7639
ถูก@@ 7637
ลึก 7637
ติก 7634
การเปลี่ยนแปลง 7615
พระนาม 7604
ยอด@@ 7592
แถ@@ 7586
แบ 7584
ง่าย 7579
มีความ@@ 7578
คัดเลือก 7565
โอกาส 7562
อร์ด 7536
ต่อเนื่อง 7532
2010 7528
วัย 7525
2018 7523
จด@@ 7521
สัมพันธ์ 7521
มีชื่อ 7520
สุด@@ 7517
หาย 7511
อุปกรณ์ 7509
กิจการ 7503
ืน 7500
โข@@ 7487
สถิติ 7450
F@@ 7447
เสร็จ 7445
ขุ@@ 7443
แย@@ 7443
คม 7442
ฆ่า 7438
เนื้อ 7438
2554 7424
40 7423
ติดต่อ 7419
ที่มา 7417
ชั@@ 7412
อนุญาต 7412
a 7410
ซาน 7408
่อย@@ 7406
ชก 7405
รวม@@ 7405
จน@@ 7402
กรี@@ 7398
เกียรติ 7391
ืด 7387
เกาหลี 7382
แค่ 7375
ความนิยม 7371
ซัน 7364
ปรับปรุง 7361
รี่ 7360
ใคร 7353
รก 7352
ออสเตรเลีย 7346
อัน@@ 7345
ศึกษา@@ 7343
แผน 7342
บริหาร@@ 7337
ที่เกิด 7325
าย 7324
ชีพ 7322
2020 7320
นำมา 7317
ลู@@ 7302
ยาน@@ 7299
เซีย 7298
พุ@@ 7296
y 7295
ทิ้ง 7294
ลม 7287
2550 7284
ผิว 7278
้ำ 7259
แข่ง 7251
R@@ 7247
ต์@@ 7237
แพร่@@ 7233
มอง 7232
พันธมิตร 7231
ซ้อน 7230
เผยแพร่ 7224
ลส์ 7222
ที่ตั้ง 7213
็ต 7211
บร@@ 7209
W@@ 7205
เขียว 7203
สัญญาณ 7200
ระเบ@@ 7189
สห@@ 7186
ราชอาณาจักร 7185
อำ@@ 7184
ไฮ@@ 7182
ั้น@@ 7179
เรียง 7179
วอ 7169
ร้อยละ 7166
มศึกษา 7162
ต่อสู้ 7158
บอล 7148
กรุง@@ 7143
ชิ้น 7142
อัต@@ 7139
เจ้าพระยา 7138
กลม 7135
หมด 7135
ทั่ว 7128
รักษ์ 7105
บังคับ 7102
็ง 7102
ูล 7096
เดี่ยว 7093
ฟา@@ 7089
เรือ@@ 7088
ลย์ 7087
เบ 7082
แต่ง@@ 7081
ู้ 7076
ประพันธ์ 7073
ฏ 7072
ท่องเที่ยว 7064
ทางหลวง 7055
ทูต 7053
พุทธ 7041
สปีชีส์ 7040
ล์@@ 7039
ทรง@@ 7035
สรร@@ 7033
โตะ 7033
แบบ@@ 7032
L@@ 7025
อัตรา 7024
ยุทธ@@ 7023
ยาก 7016
้วน 7010
บทบาท 7009
เคมี 7008
เนื้อหา 7008
ปะ@@ 7006
ศิ@@ 7005
ึ่ง@@ 7002
H@@ 7001
บาล 7001
เป็นสมาชิก 6999
การนำ 6978
การรักษา 6970
[[ 6962
ประ 6961
ประชาธิปไตย 6961
ศาส@@ 6961
กระบวนการ 6960
ตัดสิน 6954
ปืน 6948
สามั@@ 6946
สนาม@@ 6944
พระราชวัง 6937
ยาง 6937
ฉา@@ 6928
ึ่ง 6928
ต. 6926
เกาหลีใต้ 6919
ดัง@@ 6912
มาตรฐาน 6907
เน้น 6907
ตีพิมพ์ 6905
หลากหลาย 6905
ดะ 6904
นั่น 6904
ไว@@ 6900
หนอง 6899
เช่นเดียวกับ 6898
ตอบ@@ 6895
ม้า 6895
A@@ 6892
ไหล 6880
สังหาร 6878
โพ 6877
โรค@@ 6871
นิยาย 6867
C 6866
ชาวไทย 6864
สร้าง@@ 6863
มติ 6854
ินี 6850
กองกำลัง 6835
หยุด 6835
สะพาน 6820
ณี 6819
ศัพท์ 6814
กล่าวถึง 6812
ผ้า 6811
เงิน@@ 6811
2557 6810
แว@@ 6810
เจ้าของ 6801
เหย@@ 6800
คอมพิวเตอร์ 6798
ทั้งสิ้น 6795
ออฟ 6794
โป 6794
ไฮ 6792
ด้วย@@ 6787
กระทรวง 6786
เลีย 6786
ุก@@ 6785
จริ@@ 6783
ก่อนที่จะ 6782
B 6777
ถวาย 6776
ไข่ 6775
)@@ 6770
กลา@@ 6765
คัน 6757
พรร@@ 6756
เบล 6756
2553 6755
มงคล 6755
มาร@@ 6751
โรมัน 6745
2015 6732
แขวง 6730
เมน 6729
แอน 6724
ผู้หญิง 6719
ต่าง@@ 6717
หลา@@ 6709
สั่ง 6700
น่า 6696
กัมพูชา 6689
ตำนาน 6687
มุข 6687
บัว 6686
ลุ 6679
ซอ 6662
หัวใจ 6661
กฤ@@ 6656
ศาสนา@@ 6656
เกือบ 6656
มาน 6647
ศี@@ 6647
สถาปัตยกรรม 6644
รับบท 6631
การต่อสู้ 6625
ี้ย@@ 6624
ทรัพย์ 6621
เซ็น@@ 6621
ทอ 6612
ชื่อ@@ 6610
มหาสมุทร 6606
พันธ@@ 6605
ตู 6590
สเตอร์ 6590
เข้าแข่งขัน 6590
ระยะเวลา 6589
ลาด 6589
]] 6582
รัน 6581
การสอน 6580
เหรียญ 6577
้าน 6571
พี@@ 6567
เชื้อ@@ 6561
อร@@ 6556
เจดีย์ 6555
พฤ@@ 6553
เด่น 6552
พี่@@ 6548
เลน 6548
มวย 6544
ภาษ@@ 6543
นอกจาก 6539
00 6536
เชิง@@ 6528
นิตยสาร 6521
ลี่ 6520
สังเก@@ 6520
K@@ 6517
ช่วงเวลา 6516
ฟอร์@@ 6516
ราคา 6515
2017 6514
2561 6513
2551 6512
หม่อม@@ 6509
on 6505
จิต 6493
ียร 6482
่ำ 6481
O@@ 6473
us 6468
วิธีการ 6467
! 6465
มาถึง 6463
กรณ์ 6462
ิว 6459
ฟ์ 6457
รายได้ 6453
ประชุม 6451
2555 6444
ถือ@@ 6438
สำรวจ 6437
นส์ 6432
2549 6427
เหตุผล 6426
E@@ 6424
ฉาก 6422
นักศึกษา 6420
เวที 6419
โนะ 6417
แต่งงาน 6416
ร่วมมือ 6415
ขุน 6413
เติบโต 6413
บ้าง 6405
เทพ@@ 6405
32 6401
ในขณะนั้น 6399
แก 6393
อธิ@@ 6392
โดยทั่วไป 6388
วิศว@@ 6386
เดิน@@ 6386
2559 6383
หน่วยงาน 6379
2562 6374
ยอม 6374
ผู้ป่วย 6371
สน 6366
มวล@@ 6365
อ. 6360
คอย 6359
ย์@@ 6354
ฺ 6344
จอร์@@ 6342
อนิ@@ 6338
คำสั่ง 6336
ล่า@@ 6326
ออ@@ 6321
ิด@@ 6321
ดร. 6317
วาย 6317
2008 6312
สด 6305
เพลิง 6301
เพชร 6300
บล@@ 6299
ปฏิบัติ 6295
ระยะ@@ 6293
เกมส์ 6293
น้ำหนัก 6290
สถาปนา 6289
อุท@@ 6285
สำนัก@@ 6281
เสียง@@ 6280
ลี@@ 6279
อิสระ 6277
็ค 6276
ส่วนตัว 6270
สิน 6259
/@@ 6254
เบื้อง@@ 6252
ค้า 6251
สาเหตุ 6244
ศาล@@ 6240
สตรี 6229
(, 6228
เลข 6225
2013 6223
บุก 6223
เห 6222
เท่า 6211
6@@ 6210
E 6210
อะไร 6209
คง@@ 6208
่าย@@ 6205
มัน@@ 6197
มัติ 6195
เมืองหลวง 6189
วอลเลย์บอล 6185
formula 6184
ทั้งนี้ 6184
ขน 6182
ผม 6175
ลิก 6168
มิน@@ 6164
รอย 6160
กล่าว@@ 6159
เคน 6154
ซ้าย 6151
พิษ 6150
บัตร 6146
่าย 6140
มอบ 6138
อุโบสถ 6133
อุณหภูมิ 6131
เข้าใจ 6130
เมะ 6129
รหัส 6128
ียบ 6126
ร์ก 6116
แนะนำ 6115
ตย์ 6113
2560 6110
พรรษา 6104
สำนัก 6104
เอก@@ 6100
เกษตร@@ 6096
5@@ 6092
นอน 6089
สาธารณ@@ 6088
ความคิด 6079
หาง 6079
รัง@@ 6074
ฤทธิ์ 6074
ไชย 6069
คิ 6068
ดาร 6066
ยม 6060
พัฒ@@ 6050
รวดเร็ว 6047
ดำเนิน@@ 6045
เชื่อม 6042
4@@ 6041
กสมรส 6039
แฟน 6038
รู@@ 6036
ไลน์ 6031
ขึ้นไป 6025
ฝึก 6024
ุ่น 6024
43 6023
ตี@@ 6021
หลาย@@ 6019
ประสบ@@ 6014
 @@ 6013
ชัดเจน 6009
ปฏิบัติ@@ 6006
ดับ@@ 6005
แสน 6005
สงฆ์ 5998
งาม 5992
้าง 5992
สนใจ 5991
โดยที่ 5991
ผ่าน@@ 5988
อว@@ 5986
ร้อย 5985
งะ 5983
เกล้าเจ้าอยู่หัว 5979
กระทำ 5976
ถิ่น@@ 5972
กำลัง@@ 5969
ยาย 5966
มีส่วน 5962
ดอน 5956
ปริมาณ 5950
มหาราช 5950
2019 5945
ราบ 5945
ไวรัส 5943
แอฟริกา 5942
ซูเปอร์ 5941
ท่าอากาศยาน 5941
60 5938
สถานะ 5936
2011 5933
เปอร์ 5932
ส่งผล 5931
เย็น 5928
i 5926
บรรดา 5926
ล้ม@@ 5926
ตรวจ 5925
ลาด@@ 5925
ไต 5924
เดอร์ 5923
n 5921
าะ 5921
2552 5919
ประสิทธิภาพ 5915
แข็ง@@ 5915
เตอร์@@ 5912
เว 5911
้าย 5909
ที่สาม 5904
ชิงแชมป์ 5899
เคลื่อนไหว 5899
คราว 5897
ไบ@@ 5889
เดช 5886
เหลว 5886
นที่ 5882
เจ้าหน้าที่ 5877
ทั้งคู่ 5876
บัญญัติ 5874
ึง@@ 5873
พันธ์ 5862
ฑ@@ 5860
รู้สึก 5857
ทรั@@ 5856
มุม 5842
V@@ 5840
ปลูก 5837
สิ้นพระชนม์ 5835
แล 5835
จาร@@ 5833
จิตร@@ 5832
รัชสมัย 5830
คนใน 5829
พง@@ 5829
7@@ 5828
การเรียน 5828
สุขภาพ 5825
สมา@@ 5822
เจอ 5822
เจ้าฟ้า 5817
ต่อไปนี้ 5808
80 5804
ลอนดอน 5804
แกน 5802
ครึ่ง 5798
บัญ@@ 5790
ทุ่ง 5789
ตช์ 5787
ี่ยง 5787
ระหว่างประเทศ 5784
พระราชินี 5771
มัธยมศึกษา 5768
เพิ่มเติม 5768
ฝน 5766
ปลาย@@ 5764
ิก 5764
ปฏิเสธ 5761
พระพุทธรูป 5757
ธา@@ 5754
38 5752
ลัย 5752
S 5751
ห้าม 5751
อต 5750
เด็ก@@ 5750
36 5747
กระดูก 5745
หอ 5745
ถัง 5743
้ง@@ 5743
น้อง@@ 5742
ไก 5741
บู 5740
เชื้อสาย 5740
มือ@@ 5739
รัฐสภา 5737
งวง 5731
ช่อง@@ 5728
บิ@@ 5728
2558 5725
มู 5724
โปรแกรม 5722
ร. 5721
สิ้น@@ 5721
กลาย 5719
ก่อน@@ 5719
ขวา 5716
ความเร็ว 5714
ยิ่ง 5714
ส่งเสริม 5713
ปล้ำ 5710
ฟัง 5704
8@@ 5697
รอง@@ 5697
บาร์ 5694
ทุกคน 5693
แรม 5691
หรือไม่ 5690
การบริหาร 5688
ตี้ 5684
่อม 5683
2556 5682
โปรดเกล้าฯ 5681
ing 5680
ประชา@@ 5680
บวร 5672
ลดลง 5671
สมุ@@ 5670
9@@ 5661
คุ้ม@@ 5660
อิสริ@@ 5659
ัย 5657
ชาร์ต 5655
วร@@ 5655
เนื่อง@@ 5655
ลัทธิ 5654
ราะ 5651
วุ@@ 5649
ชั่ว@@ 5645
เวลา@@ 5645
เป็นต้น@@ 5643
เทียม 5641
ระบบ@@ 5639
แยก@@ 5638
ลำตัว 5629
สภา@@ 5628
พี่น้อง 5627
ชิน 5624
คิด@@ 5618
เทคนิค 5615
ประทาน 5613
เบีย 5613
แทร@@ 5612
ก็@@ 5611
ทราย 5611
x 5610
เลข@@ 5610
ยูไนเต็ด 5608
เฉลี่ย 5606
ไน 5604
พายุ@@ 5597
เชอ 5596
นำ@@ 5595
วร์ 5593
อวกาศ 5589
รักษา@@ 5585
สวรรคต 5585
เปลี่ยนแปลง 5583
ไต้@@ 5582
34 5581
สวรรค์ 5580
เรื่อง@@ 5580
น้ำตาล 5578
2@@ 5576
เกร@@ 5575
สำนักงาน@@ 5574
คริสต@@ 5569
ทะ 5568
ทะเบียน 5563
พิธี@@ 5557
การประ@@ 5552
เร็ว 5552
ขุนนาง 5542
ประสูติ 5541
33 5536
ชั่วโมง 5536
ปาง 5533
พุทธศักราช 5532
ศิ 5525
ูด 5518
สิ้นสุด 5517
แบ่ง@@ 5517
เอช 5516
ม์ 5506
มูล 5504
ฤดูหนาว 5503
เป้าหมาย 5500
๋ 5493
นทร์ 5492
หาร@@ 5486
จุ 5485
เหลี่ยม 5485
็บ 5485
ซะ 5484
ตอบ 5482
ลล์ 5480
กล 5478
พระราชโอรส 5477
ผิด@@ 5474
น้ำมัน 5471
ื่น@@ 5470
เป็นที่@@ 5470
น้อยกว่า 5468
ประทับ 5467
ื่อน@@ 5466
เวล 5459
ราชา@@ 5458
ผลกระทบ 5455
2009 5448
เอเช@@ 5448
ชาร์@@ 5446
เหมาะสม 5438
ถาม 5431
ไพ@@ 5431
นาม@@ 5425
อร์แลนด์ 5422
ท้าย 5421
ฟิลิปปินส์ 5417
ชัด 5415
ลาน 5415
ป่า@@ 5414
หัน@@ 5413
อ่าน 5413
เน็ต 5412
เวย์ 5412
เขตการปกครอง 5403
ร้องเพลง 5401
โรงเรียน@@ 5401
เซน 5399
คร 5397
อย่างยิ่ง 5395
มุ่ง@@ 5393
ร้อน 5390
ยื@@ 5388
พ่อ@@ 5386
นอก@@ 5385
หอ@@ 5384
คลื่น 5382
ปัจ@@ 5380
แชมป์โลก 5380
ถา@@ 5379
จ์ 5377
กัด 5376
ฟรี 5375
เกษตร 5374
กรณ@@ 5373
เท้า 5373
อินโดนีเซีย 5371
พระราชบัญญัติ 5369
มีอายุ 5368
แปล@@ 5360
บิล 5355
2563 5351
สิต 5350
รับผิดชอบ 5347
เวท 5347
โดยตรง 5347
ฟู 5342
ร์ค 5335
ดั้งเดิม 5331
วัคซีน 5331
ให้การ 5330
แน่น 5328
เซนติเมตร 5326
เชีย 5325
องค์การ@@ 5324
ฟัน 5323
มีบทบาท 5320
บาดเจ็บ 5316
เท่ากับ 5316
ภูเขา 5314
มีผล 5304
ดวง 5300
โช 5299
หญ@@ 5294
ทู 5291
บัญชาการ 5291
หก 5291
การแพทย์ 5288
41 5286
เอน@@ 5282
พัน@@ 5280
ถั@@ 5278
ภรรยา 5276
ส. 5276
์" 5276
แช 5274
แก้ 5273
2007 5270
เล็กน้อย 5270
ฮี 5264
คี@@ 5263
ความเชื่อ 5261
รูปร่าง 5260
ประดับ 5258
้อน@@ 5256
ละคร@@ 5254
ื้อ 5253
นด์ 5251
ความหมาย 5250
ศรีอยุธยา 5250
วุฒ@@ 5249
เดีย 5249
สิริ 5248
นอกจากนั้น 5246
ปีก่อน 5244
วิด 5243
ำเ@@ 5243
ทั่ว@@ 5240
ลาย@@ 5238
ตามลำดับ 5234
ตรวจสอบ 5232
ศ. 5231
ธุ@@ 5228
กระแส 5226
37 5225
ดอก@@ 5221
คง 5218
ลักษณ์ 5218
อพยพ 5218
ความรู้ 5217
กรุ@@ 5215
ปรากฏตัว 5215
ขั้นต@@ 5208
การประชุม 5201
ชาวบ้าน 5198
นติ@@ 5195
สิ 5191
T 5189
ลิน 5189
สล@@ 5183
โว 5177
จันท@@ 5173
br 5172
กอ@@ 5171
แจ้ง 5168
2006 5167
แมน@@ 5164
สัญ@@ 5163
ถิ่น 5161
เบิล 5161
เทน@@ 5157
คอนเสิร์ต 5156
เกียรติ@@ 5155
แทนที่ 5154
นักบุญ 5151
กบฏ 5149
สังคม@@ 5142
ยอ 5140
รับรอง 5140
เสริม 5140
สีแดง 5134
ออน 5130
เสนา@@ 5130
ทอด 5127
สูตร 5126
เดนมาร์ก 5124
ใช้เวลา 5122
ติน 5121
รวบรวม 5118
14@@ 5115
แอล 5114
ขั้@@ 5108
ตอนที่ 5108
บุรุษ 5103
มน@@ 5102
สตาร์ 5102
ถ่าย 5100
สรุป 5100
ทับ@@ 5099
การปฏิ@@ 5087
นัย 5087
หู 5087
เหตุ@@ 5086
ขนา@@ 5085
มาเลเซีย 5083
หมู่เกาะ 5083
ทดสอบ 5079
จอม 5078
เสริ@@ 5078
)" 5077
นซ์ 5069
ยืนยัน 5067
al 5062
แคนาดา 5061
้าง@@ 5061
ปู 5060
มู@@ 5058
จ้าง 5057
องค์การ 5056
อยุธยา 5055
ชนะเลิศ 5054
ซู@@ 5054
ัย@@ 5051
็อน 5051
็อป 5051
ออสเตรีย 5050
คอน@@ 5048
เนียม 5046
ซาร์ 5045
;@@ 5043
ขนส่ง 5043
แตกต่าง 5040
ครองราชย์ 5039
หนุ่ม 5037
เหมือน@@ 5035
มิส 5032
โคล@@ 5031
ขวัญ 5027
กรีก 5025
2548 5024
90 5024
ปริญญาตรี 5024
ไข้ 5024
ปริญญา@@ 5023
พฤติกรรม 5020
อันเป็น 5012
ฮ่องกง 5011
ยืน 5008
นาค 5007
คู@@ 5006
ขับ 5005
โปรตุเกส 4999
เรียก@@ 4997
ึ 4995
เลียน 4995
ทิศ 4993
สำเร็จการศึกษา 4992
พงษ์ 4988
ร็อก 4986
่อง@@ 4986
ฬ@@ 4985
นับถือ 4984
โน้@@ 4983
ภพ 4977
มีโอกาส 4972
ราก@@ 4972
นักฟุตบอล 4965
ก่อนที่ 4962
ทัน@@ 4962
หนา@@ 4962
M 4960
สะ 4959
นิวเคล@@ 4957
การเขียน 4955
ผู้คน 4954
เสี่ยง 4945
มิวสิก 4940
ไส@@ 4939
อาณาเขต 4928
อิเล็ก@@ 4926
จิน 4922
แซ 4921
แร 4921
ราชา 4920
ทัล 4919
มอบ@@ 4919
ครอบคลุม 4918
วาด 4918
ยกเลิก 4917
ฉลอง 4914
e@@ 4913
เป 4913
เวิ@@ 4910
โรง 4907
สงคราม@@ 4904
โบสถ์ 4903
ยั@@ 4900
บรรพ@@ 4899
เทีย@@ 4890
ร่วม@@ 4889
จอ 4887
ผลิตภัณฑ์ 4885
เนเธอร์แลนด์ 4880
แวร์ 4874
ชำ@@ 4873
พระองค์เจ้า 4873
an 4871
ผู้อ@@ 4871
ศัก@@ 4867
สืบ 4867
ประกาศ@@ 4866
เช่น@@ 4864
เปีย 4863
แก้@@ 4863
ไล่ 4859
13@@ 4856
F 4855
เครือข่าย 4855
ฆ 4853
บรรจุ 4844
ที่สูง 4843
ตั้งชื่อ 4842
อาทิ 4841
อ้างอิง 4841
สติ 4840
กลับ@@ 4839
ประถ@@ 4838
รอน 4838
ดำ@@ 4837
บุค@@ 4836
มายัง 4836
การประกวด 4834
ศาสตราจารย์ 4834
ญญา 4831
ทายาท 4831
แก้ไข 4831
โตเกียว 4826
ธร 4825
คอมมิวนิสต์ 4823
อนาคต 4821
ทิน 4820
ฎ 4818
เคราะห์ 4817
มิได้ 4816
บาย 4814
ภารกิจ 4814
โบราณ@@ 4813
ประจำปี 4812
สาธารณะ 4811
ทอ@@ 4810
เตรียม 4810
นบุรี 4806
อียิปต์ 4806
เซนต์ 4799
เพื่อ@@ 4799
ค่อย 4796
ทันที 4796
ทร์ 4792
ได@@ 4790
ลาก 4789
ทักษ@@ 4788
I 4782
ความรู้สึก 4782
ประเพณี 4780
รถยนต์ 4780
ื่@@ 4780
ลงมา 4776
วิท@@ 4775
ก่อนหน้า 4773
ท้อง 4770
ต่อกัน 4769
ติดกับ 4767
ผู้จัดการ 4766
นำไปสู่ 4764
ปาก@@ 4763
มวล 4763
พัก@@ 4757
วก 4753
200 4749
ลย@@ 4746
นนท์ 4745
รัตน@@ 4745
D 4744
อยาก 4742
จำลอง 4740
สลาย 4740
สนธิสัญญา 4738
ศิษ@@ 4735
ตามที่ 4732
จำเป็น 4729
ตัด@@ 4729
พน@@ 4729
70 4728
เลิ@@ 4728
้ว 4726
J@@ 4724
นอง 4723
อารมณ์ 4721
P 4713
เว็บไซต์ 4712
ทางการ 4709
ไค 4707
สู้ 4705
เผ่า 4705
ดัดแปลง 4702
ขยาย@@ 4700
นิก 4699
วิ่ง 4699
วิทยุ 4696
N 4695
ิร์น 4689
ปรับ@@ 4687
ศิลป์ 4686
เหมือนกับ 4681
ระบ@@ 4678
ค้า@@ 4676
ประหาร 4676
กลัว 4670
ตาราง 4668
ละครโทรทัศน์ 4667
ชาญ 4666
รัตน์ 4663
เป็นไป@@ 4660
ียง@@ 4659
ชัน@@ 4654
เธ@@ 4651
วาร 4647
สุน@@ 4647
กษา 4646
ปรัชญา 4643
I@@ 4640
จู@@ 4640
สิ่งมีชีวิต 4639
่ำ@@ 4639
สาขาวิชา 4638
ปลา@@ 4633
วิเคราะห์ 4631
เลี้ยง@@ 4622
ภัก@@ 4621
แฮ 4619
คม@@ 4616
ฟอ 4616
ียด 4610
10@@ 4609
ค่อนข้าง 4609
โปแลนด์ 4609
ขี@@ 4606
ฉัน 4606
เศรษฐ@@ 4606
ชิงชนะเลิศ 4605
เข้ากับ 4605
ความแตกต่าง 4604
ที่นั่ง 4601
สถานีโทรทัศน์ 4601
เดน 4600
ศิลป@@ 4599
ภ 4597
2564 4596
t 4594
ภาษาไทย 4594
คิ@@ 4593
เปรียบ@@ 4591
ต่ำ@@ 4590
มงกุ@@ 4589
มีอำนาจ 4589
หลัง@@ 4587
บทความ 4585
65 4583
ท้าว 4583
รวมกัน 4582
เสือ 4581
แกรนด์ 4578
อภิ@@ 4577
โชว์ 4577
ประดิษฐาน 4575
ก๊@@ 4574
จุลจอม@@ 4574
มะเร็ง 4574
ฝี@@ 4573
บวก 4565
ไล 4561
สหภาพโซเวียต 4560
c 4557
การควบคุม 4556
บังคับ@@ 4555
เปิด@@ 4554
๒@@ 4553
to 4550
ขึ้นอยู่กับ 4549
พิพิธภัณฑ์ 4548
นั่ง 4547
นิว 4547
วาล 4547
ลบ 4544
แผ่นดิน@@ 4543
ยกเว้น 4540
ฐาน@@ 4535
35 4534
เสด็จ@@ 4531
สถานการณ์ 4530
... 4527
ช่วย@@ 4527
ลาส@@ 4527
สิ้น 4526
บราซิล 4523
บัน 4523
ศักดิ์สิทธิ์ 4522
โพธิ@@ 4521
ไน@@ 4520
พิ 4519
สื่อสาร 4519
บัง@@ 4516
ศัตรู 4516
ต้า 4513
เอ็น@@ 4512
ดาบ 4511
ทะ@@ 4510
ข้าว@@ 4509
เนื้อที่ 4507
ก็ตาม 4504
ความเสียหาย 4504
ทัศน์ 4504
ุน 4501
โร่ 4500
เนื้อเรื่อง 4499
ี่ยว@@ 4498
เจ้าอาวาส 4496
หลายครั้ง 4492
สวยงาม 4490
เฟอร์ 4490
คุณสมบัติ 4488
ตะวันออกเฉียงใต้ 4485
15@@ 4483
ี่ยว 4481
่อย 4480
ยุติ 4478
ตะวันตกเฉียง@@ 4477
บันเทิง 4475
ตติ@@ 4474
ประเทศ@@ 4474
สตูดิโอ 4472
สมัคร@@ 4472
สวน@@ 4472
โภค 4471
ช้า 4469
หนังสือพิมพ์ 4469
ฮา@@ 4468
ษณ@@ 4466
หิ@@ 4464
คาม 4463
พิท@@ 4462
ประการ 4460
หมุน 4460
ณา 4459
ยศาสตร์ 4459
รู้@@ 4459
เคา 4454
ขณะ@@ 4450
คอ@@ 4450
หลวงพ่อ 4443
พรีเมียร์ 4441
บรา 4439
ยุทธการ 4439
รอย@@ 4434
d 4433
เลื่อน 4432
ตุ 4429
เลื@@ 4429
แท้จริง 4427
บอ@@ 4425
ขั้น 4423
ชิด 4421
วัตถุ@@ 4420
ทอง@@ 4418
มั่นคง 4418
กต์ 4417
กี่ 4417
แอร์ 4417
เบิร์ก 4414
องค์ประกอบ 4413
้วง 4413
ผิว@@ 4411
ภู 4410
เดีย@@ 4410
O 4409
ราน 4407
เอกสาร 4407
ต้นไม้ 4404
เที่ย@@ 4403
สวีเดน 4401
หลุยส์ 4398
เพื่อน@@ 4398
นัน 4397
กด@@ 4395
รณะ 4395
คอม 4392
คอร์ 4391
นิ้ว 4391
กฎ 4388
ติดตาม 4388
น้อง 4388
เทศบาลตำบล 4388
เศษ 4387
ไหว 4387
ผู้อำนวยการ 4386
วัด@@ 4386
เจ้าเมือง 4385
ชาติ@@ 4382
ปฏิกิริยา 4382
เทอร์@@ 4381
เปิดเผย 4381
ลัน 4378
แก๊@@ 4378
ฟิล@@ 4376
่าว@@ 4374
ติดเชื้อ 4373
มหาด@@ 4372
เมิน 4370
การทดลอง 4368
ตถ@@ 4364
แคล@@ 4360
2547 4358
กิ่ง 4358
ซุน 4358
เป็นผล 4358
หง@@ 4357
ที่หนึ่ง 4354
คาด 4351
+ 4349
มี่ 4349
นักเขียน 4348
มิตร 4347
สิงห์ 4346
เทียน 4346
ถ 4342
องค@@ 4342
อ้าง 4342
คาร์@@ 4341
12@@ 4339
ร้าน 4338
บัติ 4333
พูล 4332
ทธ 4329
ราง 4329
เคลื่อน 4328
ความสนใจ 4322
เป็นตัวแทน 4321
อนด์ 4320
สิ่งแวดล้อม 4319
เชื่อมต่อ 4319
หาย@@ 4318
สมุทร 4316
ทำได้ 4314
อริ 4308
ฟื้นฟู 4305
เรือง 4305
นอร์@@ 4304
แม้@@ 4302
เกณฑ์ 4300
ความสูง 4298
ระยะทาง 4297
งานวิจัย 4296
ปิด@@ 4294
ียส 4292
ฒ@@ 4290
รด 4290
3@@ 4288
รังสี 4288
รถไฟฟ้า 4286
จุฬาลงกรณ์ 4285
ความรัก 4284
เปรีย@@ 4283
โฆษณา 4279
นิติ@@ 4278
วย 4278
วาด@@ 4278
ร่วมใน 4276
คริสต์@@ 4274
เครื่องยนต์ 4274
กำหนดให้ 4273
ดารา@@ 4273
คัมภี@@ 4271
เอา@@ 4271
กรอบ 4270
แหล่ง@@ 4267
สภาพ@@ 4266
อิสลาม 4260
เสา 4260
ยูฟ่า 4257
ราชินีนาถ 4256
นับ@@ 4255
เยื่อ 4252
นม 4250
ภายนอก 4250
อาหรับ 4249
เชียง@@ 4247
ตัวอย่างเช่น 4241
มาตรา 4239
ไม 4239
เสนอ@@ 4237
คติ 4233
พาณิช@@ 4232
ยง 4232
นับตั้งแต่ 4230
เจริญ@@ 4230
ation 4229
ปุ@@ 4229
e 4228
มิติ 4227
กัง@@ 4223
ใส 4223
ก้า@@ 4222
แหลม 4222
75 4220
สเป@@ 4218
สวิ@@ 4216
เทว@@ 4215
หลวง@@ 4214
มัง 4212
ตรวจ@@ 4208
มั่น 4208
เคิล 4207
แปลง 4206
ชายฝั่ง 4202
น้อย@@ 4198
2000 4197
ตารางกิโลเมตร 4195
ตีน 4195
H 4194
กัส 4192
ทิ 4190
ราษฎร์ 4190
อป 4184
สิงคโปร์ 4181
ให้เกิด 4180
่าว 4180
มัธย@@ 4179
อิง 4178
ประชาชาติ 4176
idae 4175
ริม 4175
เคลื่อนที่ 4173
หมื่น 4172
ปารีส 4171
รุ่ง@@ 4171
คาด@@ 4168
ยกย่อง 4168
สนิท 4167
เขมร 4167
ไทย@@ 4165
็ม 4165
กรุงเทพ 4163
พายุ 4163
ดับ 4162
สระ 4159
พืช@@ 4158
เวิลด์ 4158
เอล 4158
้อง@@ 4154
y@@ 4151
เป็นที่ตั้ง 4151
ปีก 4150
ข้าว 4149
เจ็ด 4149
ปืน@@ 4147
ผู้ใช้ 4146
ษา 4146
เทศบาล 4145
สวัส@@ 4143
พูด@@ 4142
อันตราย 4142
เบน 4139
พิพา@@ 4137
วิถ@@ 4136
เศร@@ 4134
ภรณ์ 4133
คี 4131
ลักษ@@ 4131
แอนด์ 4129
เปอร์@@ 4126
ดยุก 4124
รัก@@ 4124
งคา@@ 4121
มีค่า 4119
แก่น 4119
สไต@@ 4118
ความขัดแย้ง 4117
ชัยชนะ 4117
ฟอร์ด 4115
องศา 4114
0,000 4112
2004 4112
ล้อม 4110
สูญเสีย 4110
เรียนรู้ 4108
มห@@ 4107
วางแผน 4107
ตะวันออกเฉียงเหนือ 4105
อิส@@ 4104
สีมา 4101
ให้เห็น 4101
ทัน 4100
ฟุ@@ 4099
ชะ@@ 4094
ป้อง 4088
ฝัน 4086
เมล@@ 4086
ที่ว่า 4084
พลเอก 4084
R 4080
มนตรี 4080
เป็นเรื่อง 4079
าม 4077
คณิตศาสตร์ 4075
เฉลิม@@ 4075
ได้มา 4074
พันธุ@@ 4073
ขบวน 4072
ฮังการี 4072
โดดเด่น 4071
ยุค@@ 4070
เป็นตัว 4069
พระพุทธ 4068
2021 4065
นิวยอร์ก 4064
ปัญญา 4064
พบ@@ 4064
2005 4063
ตลอดจน 4062
โฮ@@ 4062
เสาร์ 4059
ต้อง@@ 4057
ซี่ 4056
ดิ์ 4056
การปฏิวัติ 4053
อ่อน@@ 4053
ชวน 4050
G 4048
โซเวียต 4048
บุตรชาย 4044
บว@@ 4041
ฤกษ์ 4041
ข้อความ 4040
รายละเอียด 4040
แพ 4040
ความร้อน 4039
กรุณา 4036
ผิดปกติ 4035
ราชสำนัก 4034
o@@ 4033
มง 4033
แปซิฟิก 4033
สรรค์ 4032
นำมา@@ 4031
คนอื่น 4027
โห@@ 4025
ผนัง 4024
เอกชน 4023
500 4022
ช์ 4021
เทศบาล@@ 4020
พนัก@@ 4019
รงค์ 4016
สมัยใหม่ 4016
สงครามโลกครั้งที่สอง 4015
กรัม 4014
นครราชสีมา 4012
รับราชการ 4011
บุตร@@ 4007
ตอนเหนือ 4006
รุกราน 4006
วงดนตรี 4004
กระตุ้น 4001
ทองคำ 3998
ชล@@ 3995
1,@@ 3994
วรรณกรรม 3994
ษฐา 3992
เบิร์ต 3990
เติ@@ 3986
นิธิ 3984
สว่าง 3984
ฮัน 3983
ประดิษฐ์ 3981
สป@@ 3979
กรร@@ 3978
ยึดครอง 3978
บูชา 3977
เช่นนี้ 3973
รัช@@ 3972
ล้าง 3971
k 3970
de 3966
กล้ามเนื้อ 3966
โดน 3966
ขอบ 3965
ร์ด 3965
เพลง@@ 3965
กรด 3963
จัดอันดับ 3961
ฆา@@ 3960
รอด 3960
เอกราช 3960
ว่าด้วย 3957
วัฒน 3956
่วน 3956
วิญญาณ 3953
ราชบัลลังก์ 3952
ช่าง 3949
สายพันธุ์ 3949
เรียกร้อง 3949
เวียน 3948
ไร้ 3948
ชิต 3947
ดารา 3947
มีความหมาย 3947
อล์@@ 3946
ฮ 3946
เต้น 3946
เวิร์ด 3946
ปั้น 3943
p 3937
นิยาม 3935
ดอลลาร์สหรัฐ 3934
ทะเลสาบ 3934
เฉิน 3933
ผสม@@ 3931
ลงทุน 3931
คนเดียว 3930
อาณานิคม 3930
พย@@ 3927
เพช@@ 3927
๋ว 3925
สถานีรถไฟ 3920
สัมผัส 3920
คุณภาพ 3919
มรดก 3919
ว่า@@ 3918
L 3915
มนุษ@@ 3915
ธง@@ 3914
ือน@@ 3914
เหม@@ 3913
แรงงาน 3913
กลุ่ม@@ 3911
ที่ปรึกษา 3911
บัญชา 3909
แพท@@ 3907
มัส 3906
คณะสงฆ์ 3904
ชุมนุม 3904
ซอฟ@@ 3899
จัน 3898
มเห@@ 3898
เทศกาล 3896
การเงิน 3894
ักษณ์ 3892
ในสังกัด 3891
ซิง 3890
กี้ 3889
ประกอบ@@ 3889
มุส@@ 3889
อดุ@@ 3887
เม็กซิ@@ 3887
ผลการแข่งขัน 3884
เทา 3884
งบประมาณ 3883
รองรับ 3883
ผู้ชนะ 3882
ในนาม 3881
เจมส์ 3880
เซียน 3880
กุม 3878
นำแสดง 3878
เช 3878
เรื่อย 3878
แช@@ 3878
สั่ง@@ 3877
หลอด@@ 3876
เด็น 3876
ครบ 3875
ความจริง 3873
เก็บ@@ 3873
X 3868
นัน@@ 3868
กาใต้ 3867
กด 3865
ทวี@@ 3864
เข้ม@@ 3863
การทหาร 3862
ลเลียม 3860
หลุ@@ 3860
อย่างหนึ่ง 3860
ฯ@@ 3860
กำแพง 3858
เสื้อ 3858
ซอน 3857
ย่าน 3856
เมนต์ 3856
สวา@@ 3855
ถึงแก@@ 3853
สันนิษฐาน 3853
ประท@@ 3850
พระราชพิธี 3850
ไหล@@ 3848
[ 3847
ตล@@ 3846
ภาคใต้ 3845
ติธรรม 3844
เบล@@ 3844
ตรอน 3843
สิง@@ 3842
เหล่านั้น 3842
คำนวณ 3838
เอ็ด 3837
่วง@@ 3837
กระจ@@ 3836
ยิว 3836
็บ@@ 3836
สหภาพ 3830
ผู้โดยสาร 3829
บะ 3828
ลอง 3827
ให้ได้ 3827
คว้า@@ 3826
ระบาด 3824
2546 3823
ลอย 3823
แอล@@ 3823
พระที่นั่ง 3822
วัสดุ 3822
โจว 3822
ทรัพย์@@ 3821
ทู@@ 3821
สนามกีฬา 3819
อภิเษ@@ 3819
สะดวก 3818
ถัดมา 3809
นายก 3809
ด็@@ 3808
รองชนะเลิศ 3807
สงบ 3803
V 3801
ดื่@@ 3799
วล 3799
บวช 3796
ยาวนาน 3793
คัด@@ 3792
ชื่น@@ 3792
ศรั@@ 3791
คว้า 3790
เฝ@@ 3790
กระทั่ง 3788
ความปลอดภัย 3787
ที่วัด 3787
ฝู@@ 3782
พ่ายแพ้ 3782
นัส 3781
ปฐม 3781
m 3779
กว้างขวาง 3778
นำเสนอ 3778
สุวรรณ 3777
โปรด 3777
รวมไปถึง 3776
วินิจฉัย 3773
ศุ@@ 3772
พนม 3771
สะสม 3770
คะ 3769
ศ์ 3768
หาร 3768
กำจัด 3767
ทำประตู 3767
ถ่ายทำ 3762
อัส 3761
วิวัฒ@@ 3760
กฎ@@ 3758
เก่าแก่ 3758
2544 3754
ธนาคาร 3754
ข์ 3752
ตรี@@ 3752
มังกร 3752
Y@@ 3750
การคัดเลือก 3749
เครือ 3747
เวีย 3744
ตอบสนอง 3743
ั้ง 3743
h 3742
กลิ่น 3742
ริม@@ 3740
โส@@ 3740
2542 3739
ค้นหา 3738
สกี 3737
ร่วมงาน 3735
โลหะ 3734
โอน 3734
กุน 3732
็ด@@ 3730
สมุทร@@ 3728
] 3726
s@@ 3726
จิตร 3724
สอบ 3723
์ค 3721
ศิล@@ 3720
ยุบ 3717
แทน@@ 3716
ใต้ดิน 3716
เขตร@@ 3713
เพ็@@ 3707
เฟ 3707
พรหม 3704
ล้าน@@ 3704
วิชา@@ 3704
ความต้องการ 3703
| 3702
งู 3702
2539 3699
อ้างว่า 3698
สหพันธ์ 3697
er 3694
ขัด@@ 3694
คลุม 3694
ดาวเคราะห์ 3693
พ้น 3692
ฝา@@ 3691
แชมเป@@ 3689
in@@ 3680
เนิ@@ 3680
ชื่อเล่น 3678
ขอบ@@ 3677
มป์ 3672
ขวาง 3669
ค้น 3666
เกินไป 3666
การป้องกัน 3664
สะท@@ 3662
บาน 3661
t@@ 3657
ถ้ำ 3657
เกษ@@ 3652
กาย@@ 3650
เบร@@ 3644
สืบทอด 3639
เอ็ม@@ 3636
โบ@@ 3626
เอาไว้ 3623
หลบ@@ 3620
o 3611
โครง@@ 3610
2540 3609
หม่อ@@ 3602
ตาราง@@ 3595
2535 3590
เตร@@ 3589
48 3573
สิทธิ@@ 3566
!@@ 3564
สมัย@@ 3564
ังก@@ 3562
้ม@@ 3553
แหล@@ 3546
ตาร์ 3534
สื่อ@@ 3534
al@@ 3531
ตระ@@ 3527
ครอบ@@ 3522
เทศ@@ 3521
es 3519
ทธิ 3515
is 3484
บวนการ 3484
สร 3484
ปรากฏ@@ 3473
การ์@@ 3469
ประกวด 3452
um 3447
ธิบดี 3445
0@@ 3443
ืน@@ 3443
ส่ว@@ 3438
amp 3436
ยนต์ 3429
นาคม 3428
วรรณ@@ 3428
เชื้อ 3423
จัย 3417
เมือง@@ 3412
กาศ 3410
aceae 3409
1990 3407
ศักราช 3401
แกร@@ 3398
ป่วย 3387
จาก@@ 3386
WWE 3381
ัด@@ 3362
ราะ@@ 3355
ณฑ@@ 3351
หมา@@ 3344
น้@@ 3338
U@@ 3336
บัติ@@ 3332
พลัง@@ 3331
an@@ 3330
เลิก 3329
K 3319
ไข 3315
é 3312
u 3310
เบิร์@@ 3306
ขณะนั้น 3305
ate 3298
n@@ 3296
ร้อย@@ 3285
or 3278
กิจ@@ 3276
99 3272
ศูนย์@@ 3263
ญญา@@ 3254
ราม@@ 3252
ธี@@ 3251
ีก 3241
ยอม@@ 3235
หยุ@@ 3235
เวีย@@ 3235
b 3231
ชิง@@ 3228
พยาบาล 3218
Z@@ 3216
ลล@@ 3215
ือง 3215
บล 3211
มีชีวิต 3211
ิ่น 3211
มภ@@ 3208
ห์@@ 3201
ลด@@ 3199
ความสำเร็จ 3197
c@@ 3192
ดง 3189
d@@ 3179
คาร 3168
สำเร็จ@@ 3164
ศว@@ 3159
ia 3157
2002 3154
สถานี@@ 3151
มัธ@@ 3148
ชีวิ@@ 3147
เด็@@ 3136
ื้@@ 3131
รัม 3129
เชื่อ@@ 3128
ม่า 3126
ใกล้@@ 3123
2003 3112
สูญ@@ 3104
ทธิ์ 3101
ic 3092
ั่ง 3091
เภ@@ 3086
on@@ 3085
i@@ 3083
สถา@@ 3079
ac@@ 3074
55 3071
เศ@@ 3071
นาถ 3070
ณะ@@ 3068
300 3064
ine 3064
ฬ 3059
กง 3047
ธี 3040
รุง 3031
X@@ 3028
1980 3027
เพิ่ม@@ 3027
ทัศ@@ 3025
กระท@@ 3021
เคียง 3016
:@@ 3005
๑@@ 3003
อเมริ@@ 2996
ประส@@ 2992
p@@ 2986
เฉลิ@@ 2983
95 2972
าก 2970
กรุงเทพ@@ 2968
ดำร@@ 2962
นการ 2940
,@@ 2938
โปรด@@ 2935
ชัย@@ 2918
ทดลอง 2911
เษ@@ 2901
ed 2881
for 2873
ื่อน 2869
เร็@@ 2867
r 2863
r@@ 2860
Ch@@ 2858
ตัวแทน 2858
กิโล@@ 2857
ู่@@ 2852
่อน@@ 2851
section 2837
จักรพรร@@ 2833
อีก@@ 2830
64 2821
39 2820
th@@ 2818
๕@@ 2801
เติม 2798
พาน 2797
หม 2796
อย่างไร@@ 2792
ic@@ 2789
เกิด@@ 2787
วัติ 2786
จัง@@ 2780
ยึด@@ 2779
42 2778
2001 2777
นน@@ 2770
ละเอียด 2766
ขุน@@ 2765
ถุ@@ 2763
a@@ 2762
ภาย@@ 2762
คุม 2760
World 2757
98 2752
W 2748
ราษฎร 2742
วรรณ 2742
ฉ 2739
ออส@@ 2739
นิค 2728
ยาม 2727
or@@ 2722
องค์@@ 2714
ar@@ 2709
05 2703
ar 2702
44 2696
85 2693
g@@ 2691
วัฒ@@ 2681
สิก 2679
ูก 2668
เล็ก@@ 2655
รม@@ 2650
ผ่า@@ 2649
47 2641
่ว่า 2638
ั้ม 2637
ph@@ 2635
88 2631
01 2629
ยัน 2621
เปร@@ 2620
อักษ@@ 2618
at 2611
่งข@@ 2608
ประชาธิ@@ 2607
“@@ 2605
U 2603
ุม 2594
57 2593
ฤดู@@ 2589
84 2587
โลห@@ 2586
๑ 2584
om@@ 2579
ลด์ 2579
ดำรง@@ 2574
แพร่ 2573
สมั@@ 2572
49 2565
08 2564
f@@ 2563
93 2561
กระด@@ 2559
ร่าง@@ 2548
94 2547
ณะ 2544
ทะเล@@ 2544
72 2538
แอฟริ@@ 2538
2,@@ 2530
91 2529
บันท@@ 2523
76 2521
g 2521
ch@@ 2519
เคล@@ 2519
1992 2509
โลก@@ 2505
52 2503
จฉ@@ 2502
1996 2498
77 2493
ถัด@@ 2493
ันท@@ 2490
็น@@ 2490
สภาผู้แทนราษฎร 2486
เยี่ยม 2482
เมริ@@ 2479
20@@ 2477
96 2473
l 2472
02 2471
46 2468
วุธ 2468
1998 2466
เจ้าอยู่หัว 2461
วาส 2459
ot@@ 2455
53 2453
มาก@@ 2453
ูน@@ 2449
รณ์ 2448
ประโย@@ 2443
ดง@@ 2442
89 2440
จุล@@ 2439
03 2437
3,@@ 2437
ถน@@ 2431
k@@ 2430
oc@@ 2420
82 2417
ั้น 2417
1999 2416
51 2409
ฤษฎ@@ 2406
วัล 2405
ไช@@ 2404
1970 2397
’ 2395
° 2393
วัต@@ 2392
54 2387
​@@ 2386
81 2376
ol@@ 2374
04 2373
et 2370
กษ์ 2370
09 2369
มปิก 2369
ควบ@@ 2367
63 2364
92 2364
ะแน@@ 2363
ฬา 2357
แตก@@ 2357
In@@ 2354
66 2353
68 2353
56 2348
97 2348
en@@ 2348
นำไป@@ 2347
b@@ 2344
ษ์ 2342
06 2340
67 2335
ูก@@ 2334
เชื่อม@@ 2333
โดยสาร 2325
58 2319
os@@ 2319
ี่ยม 2319
1997 2313
07 2312
0.@@ 2310
จัก 2307
ร่ว@@ 2306
แวดล้อม 2301
1960 2299
อนา@@ 2297
en 2296
as@@ 2289
78 2288
ยัง@@ 2286
l@@ 2285
el 2284
el@@ 2283
ิว@@ 2281
J 2279
ษฎ@@ 2277
บูรณ์ 2265
h@@ 2264
79 2259
er@@ 2256
ไต@@ 2252
เลิศ 2251
400 2242
คะแน@@ 2239
73 2227
ศา 2221
สหรัฐ@@ 2218
ปฐ@@ 2216
— 2213
อย่างเช่น 2209
มร@@ 2199
ปไตย 2198
ยี 2196
Re@@ 2191
ี่ย 2191
๊ 2189
1,000 2188
ตอ@@ 2187
เสียหาย 2183
w 2182
บวน 2178
สูง@@ 2178
re@@ 2173
69 2171
ต้าน 2169
ีต 2169
62 2168
71 2166
บัลลังก์ 2164
โภ@@ 2164
ชื่อเสียง 2163
็ง@@ 2159
Sh@@ 2158
ity 2155
๒ 2155
Th@@ 2154
59 2152
83 2140
am@@ 2137
ฒ 2130
สมาชิก@@ 2123
74 2121
กำแพ@@ 2121
]@@ 2118
le 2113
ดุ 2110
one 2109
เสา@@ 2109
86 2108
m@@ 2108
ร้อง@@ 2108
เรียน@@ 2103
ณิ@@ 2101
1991 2097
นิด 2092
ัส 2088
1994 2087
An@@ 2087
สถาป@@ 2086
เนื่อง 2084
1.@@ 2078
x@@ 2072
สถ@@ 2070
เคลื่อน@@ 2070
61 2067
เกิล 2065
๐ 2060
หน่วย@@ 2053
นวย@@ 2046
สมาชิ@@ 2046
ซีน 2040
ลาม 2038
ปลอดภัย 2036
วรร@@ 2036
พระชน@@ 2035
ฟิลิ@@ 2030
วอล@@ 2025
อากาศยาน 2018
ent 2016
am 2009
2022 2004
v 1998
ad@@ 1996
University 1992
ฟื@@ 1992
1993 1989
พระชนม์ 1989
ul@@ 1987
ลเล@@ 1986
จำนวน@@ 1985
87 1983
้อย@@ 1983
จารย์ 1982
ธาน 1980
เกีย@@ 1980
ๆ@@ 1979
4,@@ 1974
เกาหลี@@ 1973
บัณฑ@@ 1971
ข่าย 1968
เบียน 1967
=@@ 1966
ติศาสตร์ 1964
1995 1963
Y 1962
tr@@ 1958
ag@@ 1950
มิว@@ 1948
at@@ 1944
f 1939
Love 1938
is@@ 1928
it@@ 1921
ธาน@@ 1920
Al@@ 1915
end 1905
บาท@@ 1903
แห่ง@@ 1903
op@@ 1888
เสน@@ 1886
j@@ 1882
1988 1880
ควา@@ 1873
อำนา@@ 1871
5.@@ 1868
International 1868
ญญ@@ 1865
Con@@ 1854
บริษั@@ 1854
1989 1847
ur@@ 1843
เหร@@ 1842
150 1836
มาย 1835
3.@@ 1832
Co@@ 1830
ศาสต@@ 1826
ter 1824
ภัณฑ์ 1822
po@@ 1815
th 1813
1945 1809
กระจา@@ 1807
๓ 1804
มาตร@@ 1803
z 1800
6.@@ 1796
'@@ 1787
4.@@ 1787
ธรร@@ 1786
2500 1783
ap@@ 1782
%@@ 1778
TV 1778
00@@ 1776
16@@ 1774
le@@ 1769
ราง@@ 1769
จัก@@ 1763
เป็@@ 1759
โฆษ@@ 1759
7.@@ 1757
lo@@ 1757
ใหญ@@ 1755
8.@@ 1751
,000 1749
it 1749
co@@ 1747
600 1746
ํ@@ 1746
รัส@@ 1743
เริ่ม@@ 1741
ve 1740
5,000 1729
คอม@@ 1728
มั่น@@ 1728
เที่ยว 1727
จอ@@ 1724
You 1722
ทด@@ 1719
๔@@ 1719
เว้น 1715
New 1713
ริยา 1711
II 1710
id@@ 1710
ปัญ@@ 1706
มหานคร 1704
ศัพ@@ 1699
v@@ 1692
กล้า@@ 1691
et@@ 1690
ให@@ 1684
บาด@@ 1680
5,@@ 1677
800 1675
Ar@@ 1675
มเป@@ 1667
1984 1666
to@@ 1665
ือง@@ 1664
ประก@@ 1652
as 1650
ous 1650
1950 1649
ฝรั@@ 1644
เต็@@ 1642
ec@@ 1638
w@@ 1638
เกี่ยว@@ 1631
แย้ง 1630
Ex@@ 1629
เหมา@@ 1629
ism 1628
2,000 1622
u@@ 1622
ใต้@@ 1622
ื่อย 1620
á 1618
รัต@@ 1617
z@@ 1614
ฮ่อง@@ 1612
ราษฎ@@ 1610
9.@@ 1605
ฟ่า 1605
ชุม@@ 1595
ทธิ@@ 1594
ary 1592
Best 1585
ังก์ 1585
เครือ@@ 1579
AS@@ 1578
เจ็บ 1576
ือบ 1573
๔ 1573
คล 1572
ch 1569
un@@ 1561
เสร็@@ 1561
1986 1558
ใส@@ 1558
๕ 1557
di@@ 1551
ครัว 1550
ana 1548
นายก@@ 1546
เทคโนโล@@ 1544
id 1540
li@@ 1540
ปรึกษา 1537
em@@ 1536
2.@@ 1535
ae 1531
”@@ 1528
Music 1526
ดน@@ 1519
มส์ 1519
1940 1518
? 1516
es@@ 1516
Q@@ 1514
ai 1498
Car@@ 1496
la 1490
ro@@ 1490
ด้ว@@ 1490
ชุม 1488
ปัจจุ@@ 1484
ตุลา@@ 1483
ers 1480
ขัดแย้ง 1480
6,@@ 1476
ti@@ 1476
School 1475
นวยการ 1473
ตะวันออก@@ 1471
ม่ 1470
หัส 1468
เหมาะ@@ 1460
1987 1458
ห้า@@ 1458
begin 1454
st@@ 1448
tic 1442
มัง@@ 1441
เผย 1441
He@@ 1432
กลั@@ 1430
ทัพ@@ 1430
1.5 1428
เทค@@ 1427
ขนาด@@ 1426
ิ่น@@ 1424
มาร์ก 1421
ดอลลา@@ 1415
นัง 1414
120 1411
1985 1406
ant 1406
ed@@ 1401
ั้@@ 1399
de@@ 1396
ical 1392
Z 1385
man 1385
Le@@ 1383
ระย@@ 1382
9,@@ 1378
os 1376
ตาล 1376
700 1375
10,000 1374
Mar@@ 1372
ab@@ 1371
AR@@ 1370
1972 1369
da 1366
si@@ 1365
1@@ 1364
ธนา@@ 1352
นิคม 1350
no 1343
age 1331
bi@@ 1331
พระมหา@@ 1326
ซอ@@ 1322
๐@@ 1321
ure 1315
ance 1311
Di@@ 1310
ือด 1310
com 1309
ฑ 1308
ite 1307
Com@@ 1305
ิป@@ 1304
ษฐ์ 1300
Tr@@ 1299
สงครามโลกครั้ง@@ 1299
ol 1298
7,@@ 1296
.ศ. 1290
National 1290
ณฑ์ 1289
im@@ 1288
1983 1283
000 1282
แพร@@ 1281
ค้น@@ 1280
ักษ@@ 1278
๓@@ 1274
ตว@@ 1271
2.5 1270
j 1267
ปรุง 1259
sh@@ 1257
te 1252
กลาย@@ 1251
3,000 1250
.. 1248
Ac@@ 1248
[@@ 1245
In 1240
ประวั@@ 1240
1930 1237
My 1235
1979 1234
1968 1233
IS@@ 1231
cor@@ 1227
by 1226
no@@ 1225
อินโด@@ 1224
ong 1222
ata 1221
1920 1218
1982 1216
# 1215
1981 1213
Award 1212
ay 1205
ad 1204
1976 1203
สันนิ@@ 1203
ฟิก 1202
ฤ 1202
* 1200
1964 1200
St@@ 1199
ory 1199
Br@@ 1197
Se@@ 1197
od@@ 1197
20.@@ 1196
ฬา@@ 1196
yl@@ 1194
se 1193
ty 1193
เลี้ย@@ 1185
1941 1182
il@@ 1180
1975 1179
ni@@ 1179
ie 1177
ฟุต@@ 1175
แผ่น@@ 1171
John 1170
ir@@ 1166
tion 1165
ang 1164
พฤติ@@ 1163
ep@@ 1159
๖ 1153
ak@@ 1152
1939 1148
Ne@@ 1143
จุฬา@@ 1143
1944 1142
og@@ 1142
8,@@ 1141
ma 1141
Mon@@ 1140
มิวนิ@@ 1138
ื่อง 1138
par@@ 1131
1978 1130
100,000 1127
Q 1127
รรม@@ 1127
๙ 1125
ō 1123
ยืน@@ 1122
250 1121
per@@ 1121
Awards 1119
− 1119
1974 1117
Ro@@ 1115
Championship 1114
with 1112
der 1108
สนิ@@ 1106
un 1103
AT@@ 1100
ne@@ 1100
Cr@@ 1099
Str@@ 1099
กระทบ 1096
สาห@@ 1095
Sp@@ 1094
เฉล@@ 1091
Cor@@ 1088
ā 1088
‘ 1088
ob@@ 1087
Be@@ 1082
?@@ 1080
Bo@@ 1080
De@@ 1080
CD 1075
Par@@ 1075
ular 1075
แคว@@ 1075
ฆ์ 1074
ina 1068
BC 1067
ng 1065
ยุโร@@ 1061
• 1059
ah 1056
st 1055
dis@@ 1052
ปป@@ 1049
ระหว่าง@@ 1048
22@@ 1046
อากาศ@@ 1046
บาล@@ 1045
ensis 1044
มณฑ@@ 1044
ase 1042
CO@@ 1038
เสิร์@@ 1037
× 1036
En@@ 1035
๗ 1032
สุข@@ 1030
ated 1029
Me 1028
ศั@@ 1028
0,@@ 1027
ang@@ 1026
10.@@ 1025
เผย@@ 1024
1969 1020
ตริ@@ 1020
คับ@@ 1019
ฌ 1019
1948 1018
oph@@ 1018
ci@@ 1017
สัตว@@ 1017
ดก 1016
tor 1014
1967 1012
ya 1010
1977 1008
กบ@@ 1003
000,000 1002
Mo@@ 1002
1971 1001
IN@@ 1001
ess 1000
1956 999
ใช@@ 994
ri@@ 992
โดด@@ 992
พว@@ 991
อาทิ@@ 991
Pr@@ 987
ื่อง@@ 986
pi@@ 985
ๅ@@ 984
Man 983
AC@@ 982
กิริยา 982
1942 981
King 980
Thailand 980
เที@@ 976
mo@@ 975
พิจาร@@ 975
สปี@@ 974
1973 973
Or@@ 973
หนาว 972
ื้อง@@ 972
ative 971
101 970
๘ 968
180 966
ics 966
us@@ 963
ัติ 963
se@@ 962
onlyinclude 961
ent@@ 959
ence 954
AN@@ 953
qu@@ 953
เกา@@ 953
18.@@ 952
ist 952
ü 952
It 949
ale 949
est 949
ing@@ 945
ราชย์ 944
พวก@@ 943
1918 942
Qu@@ 941
บิด@@ 940
Un@@ 936
ly 935
Entertainment 934
ton 934
ห์น 929
ํ 928
1936 925
30@@ 924
กลุ@@ 923
ology 917
yr@@ 917
แส 915
CA@@ 913
กำหนด@@ 911
end@@ 908
1962 906
ดีโอ 905
na 903
az@@ 902
AC 897
$ 896
Col@@ 894
Lo@@ 894
Team 894
are 892
ไซต์ 891
ษา@@ 890
ut@@ 889
900 886
ตย@@ 886
ati@@ 885
con@@ 885
ญาต 885
1943 884
1963 883
ak 883
ta 882
ter@@ 881
Ad@@ 880
ษั@@ 880
ator 879
20,000 878
1000 877
1949 876
av@@ 876
SE@@ 875
tive 874
IC@@ 872
ach@@ 872
130 870
1952 869
1947 868
Star 867
ww@@ 867
able 866
ฟื้น@@ 863
Te@@ 862
ea 862
ver@@ 862
Per@@ 861
ig@@ 859
III 858
One 858
ans 857
ov@@ 857
1938 855
ST@@ 854
ath@@ 854
1946 853
1965 851
TH@@ 850
Ph@@ 846
ö 846
1958 843
As@@ 843
sp@@ 843
หนังสือ@@ 843
car@@ 842
be 841
ศัย 839
่วย@@ 839
ー@@ 839
gen@@ 837
hi@@ 837
cell 833
1966 830
Am@@ 829
ó 829
ประสิทธิ@@ 829
United 828
17.@@ 827
ER@@ 826
Me@@ 826
all 825
สถาปั@@ 825
1954 822
1961 821
ica 821
son 821
All 820
ment 820
ong@@ 817
ินส์ 815
Group 813
pl@@ 812
พิมพ@@ 812
AB@@ 809
4,000 807
American 804
Black 804
br@@ 803
El@@ 802
ik@@ 802
str@@ 801
กระทรว@@ 801
สวรร@@ 800
19.@@ 799
ion 799
ปฏ@@ 799
22.@@ 798
Inter@@ 798
mon@@ 798
Battle 796
tri@@ 796
ษฐาน 796
Ma@@ 795
ard 795
ป้อง@@ 794
ot 793
Bar@@ 792
Pro@@ 792
ler 792
พยพ 791
ษฐ@@ 789
neur@@ 788
กว้าง@@ 788
Cy@@ 787
um@@ 787
eb@@ 783
ella 783
li 783
|@@ 780
12.@@ 779
13.@@ 779
อุตสาห@@ 778
Gu@@ 777
Time 777
สะด@@ 776
Girl 773
Man@@ 772
สนอง 771
1959 770
eg@@ 769
row 769
CO 768
No 768
anti@@ 768
ida 768
ka 766
AM@@ 764
ผู้อำ@@ 764
บรา@@ 763
Dis@@ 762
College 761
pr@@ 760
su@@ 758
~ 758
+@@ 754
Royal 752
110 751
ou@@ 750
มว@@ 749
1919 748
City 748
ES@@ 748
ell@@ 748
RA@@ 747
1900 745
1957 743
เกิน@@ 743
ทฤษฎ@@ 742
の@@ 742
160 740
ene 740
11.@@ 739
1912 738
16.@@ 737
ay@@ 737
re 736
หนัง@@ 736
Live 734
tic@@ 733
Min@@ 731
ts 731
BA 729
Center 729
ตน@@ 729
IM@@ 725
Gr@@ 724
RE@@ 723
so@@ 723
ect 722
ดอล@@ 722
จากนี้ 720
rec@@ 719
em 718
Wrestling 717
ari@@ 717
21.@@ 716
ra 715
ex@@ 713
อุต@@ 713
เยาว@@ 713
UN@@ 712
ซิล 712
1953 711
ber@@ 709
140 704
1933 701
BS 701
1955 698
Tri@@ 698
and@@ 698
Po@@ 695
Hy@@ 693
หรือ@@ 693
Day 692
1917 691
50,000 691
ise 691
era 689
TE@@ 688
hy@@ 687
í 687
สถิ@@ 687
ight 686
108 684
ade 683
RO@@ 682
Si@@ 682
q 682
RI@@ 681
War 681
ass@@ 681
กราน 681
ン@@ 681
te@@ 680
พรี@@ 680
La 679
ce 679
ge 679
ung 678
System 677
ah@@ 677
our 677
ตั้@@ 677
ยาว@@ 675
1937 673
For@@ 673
bo@@ 673
ill@@ 672
Life 669
om 669
ys@@ 669
http 666
system 666
หวัด 666
ธีการ 664
als 663
MA 661
ley 661
ma@@ 661
ne 660
ho@@ 659
order 659
พิพิธ@@ 659
ชนะ@@ 658
fer@@ 657
land 657
Do@@ 656
aw@@ 656
คต 656
Sch@@ 655
→ 655
40@@ 654
SA@@ 654
ting 653
Association 652
To@@ 652
ura 652
360 650
from 650
6,000 649
3.5 648
AL@@ 648
Mc@@ 648
To 648
atus 648
il 647
ell 646
colspan 645
1934 644
Super 644
350 641
do@@ 641
he@@ 641
Show 640
112 639
125 639
gi@@ 639
1932 637
Ab@@ 637
RI 637
ile 636
und@@ 636
com@@ 635
Su@@ 634
14.@@ 633
Institute 633
ara 632
1924 631
15.@@ 630
Pre@@ 630
è 630
king 629
1,500 628
Bur@@ 627
Bre@@ 626
di 626
30,000 625
OS 624
Pi@@ 624
1,0@@ 622
Mas@@ 621
1935 620
Mag@@ 620
ey 620
High 619
les 619
ons 618
AP@@ 617
Sc@@ 617
โฆ@@ 617
1928 616
26@@ 616
๖@@ 614
2.0 611
วัฒน@@ 610
8,000 609
เนี@@ 609
Ap@@ 607
Go@@ 607
So@@ 606
ขวั@@ 606
Sol@@ 603
sub@@ 603
1951 602
Park 602
Sub@@ 602
ant@@ 602
Academy 600
Ge@@ 600
ann@@ 600
Great 599
Fe@@ 598
Grand 598
Top 598
Bi@@ 597
On 597
gr@@ 597
ist@@ 597
สามาร@@ 597
EP 596
My@@ 596
CE@@ 595
ens 594
me 594
DC 593
House 593
Im@@ 593
Er@@ 592
ini 592
อ้าง@@ 592
โมง 592
AN 591
Film 591
Mac@@ 591
Science 590
St 590
pe@@ 590
ue 590
ตำแหน@@ 590
Li@@ 589
ok 589
ac 588
ran@@ 588
style 588
王@@ 588
film 587
eng@@ 586
Asia 585
William 585
ym@@ 585
cr@@ 584
AK@@ 583
Res@@ 583
ao 583
cer@@ 583
ian 583
ness 582
inal 581
yc@@ 581
James 580
มร 580
รรษ 580
pre@@ 579
à 579
Art 578
des 578
ick 578
ome 578
ys 578
0.5 577
Char@@ 576
act 576
105 574
Ver@@ 574
man@@ 574
ref 574
yn@@ 574
大@@ 574
Pol@@ 573
ner 573
วิทยาล@@ 573
Ste@@ 572
Mal@@ 570
PC 570
time 570
200,000 569
MO@@ 569
ev@@ 569
ung@@ 569
ศักดิ์@@ 569
เชิ@@ 569
Fr@@ 567
Hol@@ 567
col@@ 567
Trans@@ 566
500,000 565
Series 565
inter@@ 565
ธรรมนูญ 565
80@@ 564
Sur@@ 564
cu@@ 564
ng@@ 563
Red 562
trans@@ 562
1.2 561
Year 561
of@@ 561
vi@@ 560
ai@@ 559
1911 558
กุม@@ 558
Ran@@ 557
osis 556
sion 556
was 555
เ 555
Mor@@ 554
bu@@ 554
450 553
af@@ 553
135 552
Mer@@ 552
Party 552
au 552
ser@@ 552
บาด 552
CT 551
Cal@@ 551
1910 550
Song 549
We@@ 549
och@@ 549
โอลิ@@ 549
Big 548
Har@@ 548
ประสู@@ 547
Cl@@ 546
11,@@ 545
1914 545
ani 545
sc@@ 545
ack 544
ast@@ 544
แวด@@ 544
FC 543
្@@ 543
1922 542
Japan 542
AA 540
BO@@ 540
Her@@ 540
me@@ 540
den 538
ณห@@ 537
AG@@ 536
1908 535
111 534
23.@@ 534
Wor@@ 534
aj@@ 534
120@@ 533
ish@@ 533
ge@@ 532
ครั้@@ 532
RNA 531
Young 531
MS 530
Ser@@ 530
ino 530
per 530
ok@@ 529
เทิง 529
17@@ 528
10,@@ 527
Ag@@ 527
Michael 527
enc@@ 527
tex 527
ala 526
ir 525
Mel@@ 524
Records 524
PC@@ 523
Super@@ 522
bl@@ 522
ps 522
115 521
Op@@ 521
Night 520
Rock 520
atic 520
be@@ 520
EC@@ 519
Of 519
SS@@ 519
ations 519
ich@@ 519
Ho@@ 518
List 518
chi@@ 518
iz@@ 518
อารม@@ 518
Robert 517
uk@@ 517
Pl@@ 516
do 516
enti@@ 516
sive 516
tis 516
พิพิ@@ 516
1929 515
ality 515
ca 515
teams 515
IV 514
TO@@ 514
US@@ 514
ates 514
วินิ@@ 514
7,000 513
ER 513
NE@@ 513
Prot@@ 513
Thai 513
bul@@ 513
had 513
First 512
cle 512
118@@ 511
ave 511
nucle@@ 511
pro@@ 511
11@@ 510
1904 510
HD 510
Pe@@ 510
ted 510
tro@@ 508
ูด@@ 508
WA 507
ors 507
โปรดเกล้า@@ 507
CD@@ 506
Project 505
kh@@ 505
170 504
ner@@ 504
กาส 503
au@@ 502
ä 502
SA 501
eli@@ 501
ศึ@@ 501
Ang@@ 500
ens@@ 500
FI@@ 499
ee 499
oma 499
ost@@ 499
sa 499
codice 498
1921 497
ings 497
103 496
We 496
ake 496
Club 495
Hall 495
ano 495
line 495
way 495
form 494
if@@ 492
ash@@ 491
esis 491
ks 491
tor@@ 491
tu@@ 491
124@@ 490
inae 490
ker 490
oth@@ 490
นีเซีย 490
1925 489
220 489
acid 489
State 488
ish 488
Windows 487
วัส@@ 487
1926 486
ที่ย@@ 486
1.6 485
Bas@@ 485
116 484
Sal@@ 484
Sho@@ 484
ji 484
David 483
ข้อง 483
ei 482
–@@ 482
119@@ 481
US 481
โปรแ@@ 481
arr@@ 480
ti 480
ศัตร@@ 480
SO@@ 479
mat@@ 479
mus@@ 479
ore 479
กษา@@ 479
League 478
Sw@@ 478
White 478
der@@ 478
dr@@ 478
ra@@ 478
yp@@ 478
109 477
ama 477
เกล้า@@ 477
106 476
1931 476
Festival 476
Miss 476
ap 476
Is 475
Ta@@ 475
WWF 475
oid 475
ster@@ 475
-- 474
1906 474
Paul 474
im 473
los@@ 472
mar@@ 471
poly@@ 471
1923 470
Reg@@ 470
102 468
anth@@ 468
ั้ง@@ 468
for@@ 467
ox@@ 467
tra 466
เลือก@@ 466
ft 465
ดิโอ 465
มัก@@ 465
CH@@ 464
Mah@@ 464
q@@ 464
scope 464
you 464
Charles 463
Cre@@ 463
DE@@ 463
Network 463
Pan@@ 463
formes 463
out 463
115@@ 462
Can@@ 462
PA 462
ly@@ 462
mer@@ 462
General 461
แท้@@ 461
PS 460
ab 460
ement 460
ena 460
ha 460
ire 460
ten@@ 460
27@@ 459
Company 459
Cup 459
Des@@ 459
States 459
TNA 459
fe@@ 459
syndrome 459
tical 459
world 459
ane 458
od 458
Girls 457
TV@@ 457
sel@@ 457
อาณา@@ 457
side 456
127 455
George 455
alism 455
ind@@ 455
๙@@ 455
1927 454
7.5 454
Blue 454
LO@@ 454
Mus@@ 454
Sim@@ 454
Prince 453
ib@@ 453
su 453
4.5 452
๘@@ 452
ins 451
up 450
Dec@@ 449
LD 449
SP@@ 449
ili@@ 449
ock 449
Final 448
dy 448
ole 448
AD@@ 447
all@@ 447
not 447
ov 447
Bal@@ 446
Hal@@ 446
ON@@ 446
co 446
group 446
lu@@ 446
ou 446
ur 446
DS@@ 445
York 445
Be 444
Don 444
io 444
ki 444
1896 443
NXT 443
ide 443
Your 442
ain 442
Kar@@ 441
Mr 441
Tur@@ 441
acc@@ 441
320 440
Fl@@ 439
ek@@ 439
ke 439
Arts 438
IO@@ 438
Master 438
River 438
model 438
ture 438
ผ 438
1890 437
Gen@@ 437
ari 437
40,000 436
สมเด็จ@@ 436
1.8 435
Media 435
Society 435
1905 434
1915 434
DA 434
up@@ 434
ū 434
107 433
60@@ 433
ast 433
ทองค@@ 433
Queen 432
Vol@@ 432
117 431
adi@@ 431
ita 431
eh@@ 430
sch@@ 430
AI@@ 429
Ber@@ 429
cal@@ 429
ba@@ 428
ble 427
ye 427
28@@ 426
Dr@@ 426
SS 425
awa 425
oh@@ 425
*@@ 424
Bel@@ 424
ru@@ 424
IS 423
DNA 422
Research 422
bas@@ 422
von 422
ain@@ 421
ents 421
onal 421
recep@@ 421
‍ 421
Mi@@ 420
1907 419
Heart 419
Story 419
Up 419
15,000 418
Concer@@ 418
Ni@@ 418
du@@ 418
fl@@ 418
sol@@ 418
ชน์ 418
ยนต@@ 418
1.3 417
Little 417
NO@@ 417
Plat@@ 417
weight 417
1913 416
AT 416
At@@ 416
ali@@ 416
ผลิต@@ 416
12,@@ 415
750 415
MP@@ 415
Val@@ 415
ere 415
min@@ 415
non@@ 415
ธยา 415
Good 414
South 414
low 414
ora 414
ut 414
123 413
hi 413
ning 413
rom@@ 412
AD 411
Bl@@ 411
IB@@ 411
Tak@@ 411
ette 411
1916 410
Act 410
CC@@ 410
EST 410
No@@ 410
Ru@@ 410
ace@@ 410
ium 410
mag@@ 410
104 408
BT 408
Boy 408
Council 408
DS 408
Lin@@ 408
ating 408
name 408
une 408
PE@@ 407
day 407
que 407
5.5 406
Cas@@ 406
down 406
เหล่า@@ 405
China 404
ī 404
ยอร์@@ 404
IP 403
UTC 403
114 402
ice 402
res@@ 402
กล้าม@@ 402
เคราะ@@ 402
Cer@@ 401
Last 401
Technology 401
ath 401
ff@@ 401
พิวเตอร์ 401
… 401
AP 400
East 400
Gi@@ 400
eph@@ 400
go 400
sur@@ 400
ters 400
121 399
English 399
Who 399
ry 399
tin 399
อิตา@@ 399
CS@@ 398
Fac@@ 398
MS@@ 398
Sa@@ 398
Tre@@ 398
amb@@ 398
net 398
British 397
ars 397
back 397
hydro@@ 397
ns 397
yl 397
्@@ 397
Golden 396
Hello 396
IT@@ 396
Model 396
osa 396
สถ 396
หมู่@@ 396
Av@@ 395
Generation 395
alis 395
ud@@ 395
มง@@ 395
WCW 394
ess@@ 394
pp@@ 394
AS 393
Air 393
Chi@@ 393
ME@@ 393
cy@@ 393
ta@@ 393
เภท 393
Asian 392
Lee 392
London 392
True 392
dae 392
ds 392
cl@@ 391
ese 391
la@@ 391
ection 389
Shi@@ 388
field 388
เป้า@@ 388
AL 387
ISO 387
Kingdom 387
ace 387
ets 387
use 387
Hu@@ 386
ky 386
language 386
mi@@ 386
Gal@@ 385
Men 385
ax@@ 385
por@@ 385
za 385
เกส 385
DO@@ 384
RS 384
Women 384
ni 384
son@@ 384
tics 384
ผู้แทน@@ 384
1800 383
1870 382
Inc 382
ax 382
126 381
128 381
Bangkok 381
ada 381
her@@ 381
រ@@ 381
Dream 380
Open 380
that 380
the@@ 380
イ@@ 380
1860 379
Go 379
Mir@@ 379
Special 379
lin@@ 379
song 379
tional 379
Business 378
Dr 378
ales 378
eme 378
this 378
1889 377
Game 377
Hor@@ 377
Rec@@ 377
illa 377
lar@@ 377
1871 376
Program 376
Thomas 376
Ko@@ 375
ler@@ 375
Bor@@ 374
Home 374
Tag 374
ash 374
ato 374
ow@@ 374
33@@ 373
action 373
arch@@ 373
enth@@ 373
ko 373
๗@@ 373
CI@@ 372
Mat@@ 372
Sun@@ 372
ick@@ 372
ชัด@@ 372
ective 371
uc@@ 371
ach 370
key 370
ship 370
EN@@ 369
Peter 369
ep 369
ver 369
ú 369
พิว@@ 369
LE@@ 368
MP 368
People 368
ack@@ 368
their 368
ดาห์ 368
1901 367
AR 367
West 367
ational 367
eng 367
fr@@ 367
Je@@ 366
MI@@ 366
1.4 365
Le 365
Lu@@ 365
หน่าย 365
25,000 364
{ 364
£ 364
1,4@@ 363
113 363
ั 362
Green 361
Richard 361
SC 361
1880 360
ima 360
iss@@ 360
Bro@@ 359
DL 359
ber 359
est@@ 359
yg@@ 359
Chart 358
Pres@@ 358
Sar@@ 358
Tour 358
114@@ 357
330 357
Dance 357
Ul@@ 357
series 357
state 357
กำเ@@ 357
What 356
met@@ 356
กูล 356
Chem@@ 355
Elec@@ 355
Ros@@ 355
des@@ 355
du 355
pol@@ 355
1898 354
Tom@@ 354
Ty@@ 354
ame 354
els 354
inc@@ 354
สหภาพ@@ 354
240 353
PO@@ 353
ides 353
lam@@ 353
ological 353
35@@ 352
IC 352
hom@@ 352
igh@@ 352
118 351
Island 351
News 351
Out@@ 351
bit 351
1,8@@ 350
122 350
For 350
Sil@@ 350
Street 350
ling 350
Dragon 349
Por@@ 349
Sing@@ 349
emia 349
fi@@ 349
und 349
ฤษ 349
13,@@ 348
1909 348
Jo@@ 348
cin@@ 348
its 348
α 348
AM 347
FA 347
Hot 347
go@@ 347
ide@@ 347
van 347
­@@ 347
ug@@ 346
รู้ส@@ 346
14,@@ 345
America 345
Class 345
Gar@@ 345
Space 345
ency 345
ici@@ 345
set 345
ยส์ 345
Global 344
Princess 344
Union 344
ding 344
disease 344
red 344
1500 343
190 343
Kr@@ 343
Sea 343
Vi@@ 343
aka 343
team 343
ve@@ 343
สงค์ 343
if 342
1903 341
Cur@@ 341
Kh@@ 341
Season 341
Tokyo 341
bar@@ 341
116@@ 340
1902 340
op 340
ual 340
wa 340
113@@ 339
117@@ 339
FM 339
Is@@ 339
Met@@ 339
tra@@ 339
É 339
2.2 338
This 338
acy 338
cap@@ 338
center 338
eus 338
ty@@ 338
SM@@ 337
ography 337
SM 336
Video 336
ๅ 336
1,6@@ 335
210 335
Fre@@ 335
asi@@ 335
sin@@ 335
yo@@ 335
ยาท 335
Episode 334
Power 334
aki 334
art 334
ja 334
สาบ 334
Google 333
Management 333
Republic 333
1895 332
Anti@@ 332
Digital 332
HC 332
IV@@ 332
ple@@ 332
แหน@@ 332
2.4 331
CA 331
European 331
Ti@@ 331
ill 331
ister 331
Chinese 330
Es@@ 330
Pal@@ 330
Scre@@ 330
act@@ 330
tis@@ 330
1.1 329
230 329
Hel@@ 329
Nep@@ 329
eral 329
prin@@ 329
เต็ด 329
Han@@ 328
body 328
ocy@@ 328
test 328
ル@@ 328
San 327
atr@@ 327
ek 327
fication 327
put 327
tions 327
ç 327
ME 326
Sam@@ 326
ine@@ 326
low@@ 326
off 326
1,9@@ 325
29@@ 325
Pas@@ 325
Rem@@ 325
onic 325
tidae 325
tur@@ 325
天@@ 325
Duke 324
PP@@ 324
ola 324
pu@@ 324
子@@ 324
18@@ 323
70@@ 323
DVD 323
Mu@@ 323
berg 323
1888 322
34@@ 322
Star@@ 322
ard@@ 322
ha@@ 322
ney 322
they 322
129 321
1899 321
Bank 321
CP 321
edr@@ 321
ス@@ 321
1868 320
Central 320
Corporation 320
Health 320
Out 320
light 320
member 320
self 320
6.5 319
Foundation 319
Pat@@ 319
gu@@ 319
lia 319
1815 318
Bu@@ 318
Det@@ 318
MHz 318
Nor@@ 318
ki@@ 318
pH 318
pe 318
ster 318
ther@@ 318
124 317
Line 317
Sy@@ 317
Tor@@ 317
dia 317
int@@ 317
loc@@ 317
oni@@ 317
1893 316
Airport 316
Sup@@ 316
ogen@@ 316
ตูน 316
1.7 315
1830 315
1867 315
Billboard 315
Em@@ 315
Hz 315
Lady 315
PD 315
VI@@ 315
ae@@ 315
aur@@ 315
iv@@ 315
ς@@ 315
Book 314
iti@@ 314
meth@@ 314
…@@ 314
ラ@@ 314
1,5@@ 313
ō@@ 313
TS 312
Ter@@ 312
amine 312
ization 312
ona 312
Audi@@ 311
Del@@ 311
Education 311
Sel@@ 311
Wh@@ 311
aya 311
cus 311
ein 311
vol@@ 311
ค่อน@@ 311
1848 310
AE@@ 310
Channel 310
EX@@ 310
Ke@@ 310
Tro@@ 310
ebr@@ 310
let 310
1897 309
God 309
SH@@ 309
protein 309
we@@ 309
ผู้แทนราษฎร 309
001 308
AF 308
Empire 308
Mot@@ 308
Rom@@ 308
Service 308
del 308
ear@@ 308
quot 308
can@@ 307
ez@@ 307
over 307
tex@@ 307
cul@@ 306
ids 306
ke@@ 306
ye@@ 306
Dre@@ 305
Henry 305
Pop 305
hal@@ 305
pa 305
ula 305
Apple 304
Fi@@ 304
North 304
Rel@@ 304
ema 304
ori@@ 304
oy@@ 304
â 304
บัญญ@@ 304
ា@@ 304
TA 303
dor@@ 303
่วย 303
IA 302
Legend 302
Times 302
เว็บ@@ 302
Law 301
Order 301
Way 301
ail@@ 301
eth@@ 301
ike 301
medi@@ 301
ละเอ@@ 301
Dem@@ 300
Ever@@ 300
Fu@@ 300
Marvel 300
Mur@@ 300
ense 300
oto 300
วินิจฉ@@ 300
Games 299
ef@@ 299
อุณห@@ 299
280 298
Development 298
Du@@ 298
Fo@@ 298
Free 298
PG 298
Pen@@ 298
duc@@ 298
ony 298
ren@@ 298
sen@@ 298
กระตุ@@ 298
Cat@@ 297
GM 297
ID 297
MC 297
Produc@@ 297
Road 297
eo 297
lig@@ 297
odi@@ 297
é@@ 297
IG@@ 296
Luc@@ 296
PS@@ 296
SN@@ 296
align 296
lan@@ 296
lower 296
opsis 296
tes 296
24.@@ 295
Cel@@ 295
Lov@@ 295
band 295
icus 295
ms 295
my 295
oth 295
unc@@ 295
จักรวรร@@ 295
帝@@ 295
Arti@@ 294
Kn@@ 294
Light 294
eri@@ 294
eter 294
function 294
ken 294
· 294
BO 293
CH 293
Design 293
Radio 293
org 293
Album 292
Cam@@ 292
Family 292
Mark 292
Pap@@ 292
ST 292
Ther@@ 292
bre@@ 292
istic 292
my@@ 292
Beau@@ 291
Edition 291
anc@@ 291
clu@@ 291
ines 291
136 290
dec@@ 290
mal@@ 290
ประดิ@@ 290
LA 289
Mak@@ 289
Martin 289
Olympic 289
https 289
nor@@ 289
ode 289
sy@@ 289
พระองค์@@ 289
皇@@ 289
Band 288
Fire 288
NA 288
Television 288
aph@@ 288
ass 288
effect 288
si 288
1878 287
Leg@@ 287
aria 287
etic 287
hu@@ 287
ial 287
มงค@@ 287
็ 287
1885 286
2.1 286
Arch@@ 286
Emperor 286
Like 286
Mad@@ 286
Medi@@ 286
Tel@@ 286
ger 286
less 286
mas@@ 286
กษัตริ@@ 286
Fal@@ 285
Gl@@ 285
ket 285
1600 284
260 284
Force 284
MTV 284
Mid@@ 284
Ri@@ 284
amp@@ 284
anthus 284
har@@ 284
กษั@@ 284
Louis 283
Studio 283
Uni@@ 283
pul@@ 283
BBC 282
Back 282
Fin@@ 282
IP@@ 282
Lost 282
Public 282
Ret@@ 282
Sem@@ 282
Sm@@ 282
gen 282
iy@@ 282
lion 282
oo 282
our@@ 282
phosph@@ 282
1892 281
CP@@ 281
RC 281
SR 281
dium 281
mer 281
ori 281
war@@ 281
2,0@@ 280
Meg@@ 280
Poly@@ 280
Wrest@@ 280
inn@@ 280
pan@@ 280
sk@@ 280
ท่อง@@ 280
Journal 279
Pic@@ 279
Saint 279
ability 279
edi@@ 279
micro@@ 279
motor 279
145 278
1850 278
Ir@@ 278
Shin@@ 278
Stadium 278
Vir@@ 278
Yu@@ 278
elec@@ 278
ely 278
1,7@@ 277
1894 277
550 277
KO@@ 277
War@@ 277
oku 277
ome@@ 277
word 277
Kim 276
hibit@@ 276
psych@@ 276
Kam@@ 275
Play@@ 275
SAR@@ 275
ilia 275
Ha@@ 274
PN 274
Win@@ 274
tom@@ 274
141 273
15,@@ 273
17,@@ 273
175 273
Do 273
Mil@@ 273
Net@@ 273
tery 273
—@@ 273
1,3@@ 272
1840 272
As 272
Cap@@ 272
Cro@@ 272
Mem@@ 272
Old 272
Play 272
Raw 272
lock 272
pin@@ 272
sal 272
thi@@ 272
til@@ 272
มาณ 272
Dark 271
Ger@@ 271
Multi@@ 271
Pro 271
Syn@@ 271
Wal@@ 271
bur@@ 271
cre@@ 271
port 271
pos@@ 271
yo 271
Bir@@ 270
Death 270
GT@@ 270
RT 270
Ur@@ 270
core 270
ones 270
ret@@ 270
sul@@ 270
ē 270
Engineering 269
Hay@@ 269
Social 269
can 269
cur@@ 269
hyper@@ 269
kin 269
ny 269
onia 269
Long 268
Summer 268
alm@@ 268
hab@@ 268
ush@@ 268
1884 267
DF 267
ashi 267
first 267
format 267
ira 267
left 267
สัป@@ 267
い@@ 267
16,@@ 266
747 266
90@@ 266
ET 266
Earth 266
Mania 266
UK 266
Wil@@ 266
cat@@ 266
ins@@ 266
pal@@ 266
tan@@ 266
type 266
ulation 266
yan@@ 266
1886 265
Eng@@ 265
Joseph 265
Limited 265
Universal 265
ba 265
region 265
ton@@ 265
² 265
แนะ@@ 265
1861 264
2.3 264
650 264
Ka@@ 264
Three 264
background 264
ขึ@@ 264
人@@ 264
Div@@ 263
Let 263
Round 263
TP 263
ies 263
ith 263
occ@@ 263
李@@ 263
119 262
155 262
1862 262
Ben@@ 262
GB 262
kl@@ 262
1.0 261
1891 261
36@@ 261
ami 261
Ram@@ 260
class 260
hem@@ 260
ste@@ 260
tric 260
width 260
0.1 259
1789 259
Coun@@ 259
Oc@@ 259
UN 259
Wi@@ 259
lar 259
ume 259
1866 258
De 258
GP 258
SU@@ 258
Web@@ 258
fish 258
point 258
รรยา 258
’@@ 258
山@@ 258
Acc@@ 257
Ba@@ 257
Got@@ 257
Maria 257
SI 257
San@@ 257
Sor@@ 257
more 257
pus 257
therap@@ 257
3.0 256
New@@ 256
Tw@@ 256
arch 256
avy@@ 256
char@@ 256
ga 256
sem@@ 256
ven@@ 256
50@@ 255
Cin@@ 255
Li 255
Sum@@ 255
Sun 255
Voice 255
_@@ 255
block 255
elle 255
ody 255
165 254
Dar@@ 254
Ltd 254
TC 254
That 254
ories 254
・@@ 254
Can 253
France 253
High@@ 253
ans@@ 253
cas@@ 253
cop@@ 253
icul@@ 253
ku@@ 253
ณิช@@ 253
CC 252
EF 252
anus 252
entr@@ 252
ery 252
music 252
~@@ 252
Are 251
Co 251
Ed@@ 251
Gold 251
active 251
app@@ 251
tion@@ 251
well 251
1814 250
45@@ 250
Dol@@ 250
del@@ 250
ful 250
ital 250
prot@@ 250
sti@@ 250
ts@@ 250
AF@@ 249
All@@ 249
LC 249
Men@@ 249
Sports 249
Tan@@ 249
air 249
air@@ 249
bin@@ 249
next 249
sa@@ 249
sh 249
ute 249
） 249
3.1 248
DI 248
Fri@@ 248
Sciences 248
Secret 248
Yo@@ 248
ania 248
ect@@ 248
lidae 248
oz@@ 248
sw@@ 248
text 248
ิ่ม 248
144 247
1864 247
340 247
Ash@@ 247
Now 247
didae 247
jo 247
mor@@ 247
right 247
365 246
4.0 246
Car 246
Hon@@ 246
Human 246
Original 246
Pseud@@ 246
SI@@ 246
Stone 246
pop 246
tors 246
verse 246
າ@@ 246
133 245
Five 245
arg@@ 245
chi 245
dic@@ 245
ey@@ 245
factor 245
opo@@ 245
so 245
super@@ 245
trix 245
1863 244
CW 244
Four 244
GP@@ 244
Online 244
Pri@@ 244
RT@@ 244
ally 244
ko@@ 244
theory 244
Cop@@ 243
Open@@ 243
RA 243
Rap@@ 243
Single 243
TR@@ 243
based 243
gang@@ 243
hin@@ 243
ico 243
lat@@ 243
lateral 243
multi@@ 243
1887 242
380 242
Che@@ 242
Cos@@ 242
Federation 242
Mit@@ 242
memory 242
ord@@ 242
top 242
try 242
รวบ@@ 242
เร็ง 242
ト@@ 242
太@@ 242
1879 241
Internet 241
Ly@@ 241
Na@@ 241
Prim@@ 241
Pu@@ 241
xi@@ 241
County 240
Movie 240
Museum 240
Ob@@ 240
Os@@ 240
Tal@@ 240
Tar@@ 240
cular 240
ff 240
phy@@ 240
return 240
Nar@@ 239
OH 239
Under@@ 239
contributor 239
ro 239
โจม@@ 239
1200 238
131 238
1882 238
3.2 238
Dor@@ 238
Mol@@ 238
aci@@ 238
gic 238
oides 238
uti@@ 238
yst@@ 238
สถ์ 238
1875 237
1877 237
1881 237
Az@@ 237
End 237
Max 237
SE 237
log 237
radi@@ 237
อยุ@@ 237
185 236
1865 236
Baby 236
Kan@@ 236
Lord 236
Two 236
ants 236
ford 236
game 236
len@@ 236
odon 236
ond@@ 236
phot@@ 236
ten 236
timestamp 236
tus 236
1801 235
AX 235
Al 235
Football 235
When 235
fac@@ 235
mann 235
osp@@ 235
thumb 235
ク@@ 235
132 234
137 234
201 234
AI 234
Edward 234
GT 234
Hem@@ 234
atom@@ 234
ii 234
EN 233
Homo 233
La@@ 233
Not@@ 233
So 233
Treaty 233
index 233
star 233
tube 233
ward 233
ysis 233
Ali@@ 232
Da@@ 232
Jean 232
Microsoft 232
Sound 232
Station 232
^ 232
aff@@ 232
agn@@ 232
ature 232
ray 232
som@@ 232
23,@@ 231
Jr 231
Office 231
Over 231
Palace 231
SD 231
inf@@ 231
kin@@ 231
tom 231
คับ 231
0.2 230
Bot@@ 230
California 230
Gro@@ 230
Ig@@ 230
Sak@@ 230
The@@ 230
gener@@ 230
pent@@ 230
sal@@ 230
vs 230
ปลอด@@ 230
1790 229
256 229
270 229
Children 229
Double 229
gh@@ 229
head 229
pres@@ 229
sum@@ 229
ua 229
ub@@ 229
ul 229
ฉบ@@ 229
เดน@@ 229
26.@@ 228
737 228
Mary 228
ius 228
nd 228
tia 228
ลงกรณ์ 228
205 227
Ak@@ 227
BM@@ 227
Blood 227
IEEE 227
Roc@@ 227
Sav@@ 227
ith@@ 227
ros@@ 227
umi 227
中@@ 227
8.5 226
850 226
Dev@@ 226
Hero 226
Nov@@ 226
Off@@ 226
Ol@@ 226
Organization 226
USA 226
ams 226
ci 226
ider 226
log@@ 226
pression 226
tree 226
vo@@ 226
อิทธิ@@ 226
An 225
With 225
don 225
inum 225
otic 225
refle@@ 225
ッ@@ 225
25.@@ 224
CN@@ 224
CV@@ 224
FO@@ 224
Land 224
ail 224
amin@@ 224
front@@ 224
play 224
134 223
143 223
146 223
148 223
199 223
Johnson 223
Micro@@ 223
Moon 223
ati 223
face 223
ik 223
pel@@ 223
po 223
sen 223
uli@@ 223
urus 223
シ@@ 223
--@@ 222
Boys 222
Ci@@ 222
Control 222
IT 222
Medical 222
Nak@@ 222
ero 222
not@@ 222
opter@@ 222
username 222
ô 222
1883 221
2.7 221
Alexander 221
Kur@@ 221
NT 221
Tim@@ 221
Tower 221
aga 221
fer 221
mac@@ 221
new 221
tar@@ 221
tiv@@ 221
va 221
งคู่ 221
リ@@ 221
南@@ 221
ABC 220
Days 220
Dic@@ 220
Los 220
Ple@@ 220
Roman 220
Sweet 220
aster 220
estr@@ 220
istry 220
mi 220
mod@@ 220
old 220
plas@@ 220
reg@@ 220
rel@@ 220
­ 220
ì 220
1839 219
48@@ 219
IL@@ 219
Index 219
Ku@@ 219
Scott 219
alist 219
bri@@ 219
jpg 219
out@@ 219
tress 219
งบ@@ 219
งเกิล 219
154 218
1859 218
206 218
Cross 218
Stu@@ 218
ali 218
ison 218
20,@@ 217
27.@@ 217
75@@ 217
Bad 217
Bat@@ 217
Bul@@ 217
Centre 217
Cyc@@ 217
Ju@@ 217
Non@@ 217
Paris 217
ani@@ 217
code 217
den@@ 217
ects 217
get 217
iber 217
iki 217
tel@@ 217
una 217
val@@ 217
Committee 216
Ham@@ 216
Impact 216
Ji@@ 216
LS 216
color 216
ety 216
px 216
uy@@ 216
ze 216
ธัน@@ 216
1872 215
3000 215
Court 215
ES 215
Money 215
atidae 215
cha 215
esia 215
men@@ 215
wrest@@ 215
} 215
202 214
Gre@@ 214
IN 214
Temple 214
bone 214
chin@@ 214
cho@@ 214
esti@@ 214
inger 214
number 214
ose 214
pur@@ 214
ស@@ 214
37@@ 213
CM@@ 213
Far@@ 213
Seven 213
anda 213
aus@@ 213
bat@@ 213
ever 213
flu@@ 213
hr@@ 213
ri 213
168 212
1700 212
2.6 212
55@@ 212
Crown 212
ML 212
ON 212
aru 212
die 212
uri 212
very 212
1873 211
And 211
EM@@ 211
England 211
Fer@@ 211
Garden 211
OR 211
Tit@@ 211
\ 211
area 211
att@@ 211
clear 211
control 211
lis 211
syn@@ 211
်@@ 211
0.6 210
1820 210
208 210
Aqu@@ 210
Ban@@ 210
Beautiful 210
Ca@@ 210
Direc@@ 210
Down 210
EL@@ 210
Kiss 210
Ky@@ 210
ider@@ 210
kings 210
ā@@ 210
公@@ 210
后@@ 210
152 209
1806 209
183 209
222 209
AB 209
AO@@ 209
Chap@@ 209
Cru@@ 209
Kong 209
Nag@@ 209
Plan@@ 209
Wo@@ 209
acet@@ 209
ami@@ 209
ote 209
them 209
ule 209
ê 209
142 208
151 208
Alliance 208
India 208
Lor@@ 208
Match 208
On@@ 208
She@@ 208
ights 208
ika 208
tw@@ 208
ust 208
ทั่ง 208
รูปร@@ 208
19,@@ 207
225 207
3,0@@ 207
Fast 207
GA 207
GDP 207
If 207
Maj@@ 207
PL@@ 207
Ra@@ 207
Spe@@ 207
Sport 207
emp@@ 207
gly@@ 207
ment@@ 207
ventr@@ 207
ทั้@@ 207
ื 207
เวียด@@ 207
Studios 206
cher 206
eil@@ 206
life 206
1874 205
1876 205
2.8 205
310 205
Amp@@ 205
DE 205
Kir@@ 205
LE 205
Next 205
Rhy@@ 205
Universe 205
astr@@ 205
eri 205
sor@@ 205
thr@@ 205
win 205
Aut@@ 204
BE 204
EC 204
Fame 204
Lake 204
UT@@ 204
Zone 204
have 204
ny@@ 204
ties 204
พื@@ 204
1849 203
235 203
65@@ 203
Cl 203
Ga@@ 203
Get 203
Il@@ 203
Lab@@ 203
Magic 203
PR@@ 203
Som@@ 203
Yam@@ 203
ats 203
bor@@ 203
cs 203
ger@@ 203
mic 203
yu 203
ម@@ 203
宗@@ 203
Ann@@ 202
Blo@@ 202
CR@@ 202
God@@ 202
Honda 202
Jack 202
Nations 202
Performance 202
Ray 202
Sain@@ 202
tim@@ 202
1858 201
AV@@ 201
Again 201
Arena 201
Bet@@ 201
IF@@ 201
Iron 201
Pacific 201
comment 201
fol@@ 201
ito 201
ous@@ 201
process 201
uch@@ 201
國@@ 201
（@@ 201
1869 200
192 200
OR@@ 200
Rose 200
Sin@@ 200
emati@@ 200
ern@@ 200
gro@@ 200
iller 200
ops 200
phen@@ 200
จจะ 200
147 199
238 199
CS 199
Code 199
Pin@@ 199
Type 199
Wars 199
XX 199
chol@@ 199
ila 199
mel@@ 199
osph@@ 199
peri@@ 199
spec@@ 199
0.3 198
153 198
Air@@ 198
Bridge 198
Brown 198
Champion 198
Fel@@ 198
Junior 198
Kat@@ 198
Kids 198
Kor@@ 198
Mod@@ 198
Not 198
Shar@@ 198
SmackDown 198
con 198
ham@@ 198
ogr@@ 198
path@@ 198
ump@@ 198
vir@@ 198
we 198
เก่า@@ 198
420 197
History 197
Hong 197
MIT 197
dom@@ 197
elli 197
hum@@ 197
文@@ 197
172 196
173 196
1857 196
221 196
Bud@@ 196
CE 196
Ev@@ 196
Fas@@ 196
Happy 196
IR@@ 196
IU@@ 196
Mac 196
Post@@ 196
ault 196
bit@@ 196
ech@@ 196
gre@@ 196
ich 196
ip@@ 196
lip@@ 196
mental 196
otr@@ 196
wiki 196
š 196
ตัดสิน@@ 196
District 195
Fox 195
GO 195
HP 195
Hi@@ 195
Hom@@ 195
Hotel 195
Reb@@ 195
Wat@@ 195
art@@ 195
atory 195
data 195
ental 195
men 195
ulty 195
version 195
บุรุ@@ 195
ន@@ 195
、@@ 195
204 194
38@@ 194
39@@ 194
Bill 194
Cros@@ 194
DB 194
Language 194
Modern 194
Mos@@ 194
Toyota 194
UR@@ 194
ex 194
ishi 194
lem@@ 194
other@@ 194
space 194
ville 194
β 194
178 193
1793 193
Christian 193
Division 193
Pot@@ 193
Saf@@ 193
Smith 193
atum 193
ck 193
electr@@ 193
ves 193
！@@ 193
158 192
184 192
212 192
44@@ 192
99@@ 192
Army 192
Brothers 192
Church 192
Computer 192
EA 192
ED 192
VA 192
VO@@ 192
fo@@ 192
ih@@ 192
nu@@ 192
only 192
will 192
0.8 191
166 191
Commission 191
Comp@@ 191
HTML 191
Kal@@ 191
Lev@@ 191
Pur@@ 191
Woman 191
icle 191
law 191
mit@@ 191
mm 191
ror 191
‌ 191
2,9@@ 190
4.2 190
Chris 190
El 190
GO@@ 190
Mand@@ 190
Sen@@ 190
aer@@ 190
ays 190
her 190
ille 190
lin 190
umin@@ 190
æ 190
ฅ@@ 190
18,@@ 189
22,@@ 189
303 189
Ass@@ 189
CT@@ 189
From 189
Hir@@ 189
Jac@@ 189
Rob@@ 189
SP 189
Trav@@ 189
channel 189
ez 189
would 189
yn 189
138 188
193 188
301 188
IX 188
Jackson 188
Korea 188
Na 188
Xi@@ 188
alization 188
bot@@ 188
itch 188
lab@@ 188
long@@ 188
pen@@ 188
sey 188
station 188
เจ้าอยู่@@ 188
1.9 187
1792 187
315 187
430 187
BB 187
Box 187
Cu@@ 187
Ep@@ 187
Gam@@ 187
Knight 187
Operation 187
Ring 187
Run@@ 187
Standard 187
Vo@@ 187
bic@@ 187
eta 187
fin@@ 187
he 187
icon 187
ites 187
kr@@ 187
leg 187
opath@@ 187
row@@ 187
value 187
ดอลลาร์@@ 187
แปซิ@@ 187
三@@ 187
156 186
163 186
2,6@@ 186
46@@ 186
Agency 186
FF 186
Once 186
apo@@ 186
ground 186
iro 186
membran@@ 186
otro@@ 186
rot@@ 186
DV@@ 185
Data 185
Eur@@ 185
NH@@ 185
Over@@ 185
Sab@@ 185
Web 185
album 185
book 185
ean 185
lic 185
รรม 185
武@@ 185
0.4 184
157 184
BSD 184
Blu@@ 184
Boy@@ 184
Information 184
Lim@@ 184
Magazine 184
Mis@@ 184
Mul@@ 184
Radi@@ 184
Stage 184
Version 184
anger 184
eth 184
odon@@ 184
oke 184
ort 184
ots 184
prop@@ 184
wood 184
yth@@ 184
ア@@ 184
195 183
Die 183
MI 183
MT 183
MV 183
May@@ 183
Real 183
SF 183
Stars 183
WC 183
ader 183
bias 183
enn@@ 183
แ 183
元@@ 183
Blin@@ 182
Imperial 182
Vol 182
anterior 182
ello 182
uni@@ 182
urn 182
zen 182
‘@@ 182
1795 181
99.@@ 181
Bac@@ 181
CL@@ 181
Cle@@ 181
Heaven 181
Hill 181
Islands 181
KO 181
PM 181
PT@@ 181
Part 181
Spir@@ 181
ago 181
aker 181
ham 181
oa 181
oni 181
pyr@@ 181
rop@@ 181
single 181
top@@ 181
ush 181
สัมผ@@ 181
167 180
1854 180
265 180
Age 180
HO@@ 180
Harry 180
How 180
Mountain 180
Second 180
Soci@@ 180
Tom 180
box 180
don@@ 180
form@@ 180
mot@@ 180
ple 180
°@@ 180
แชมป์@@ 180
2,4@@ 179
47@@ 179
999 179
Bab@@ 179
Cir@@ 179
Dyn@@ 179
Gor@@ 179
Just 179
Mari@@ 179
Sle@@ 179
ady 179
alb@@ 179
bo 179
gl@@ 179
hol@@ 179
len 179
obi@@ 179
pha 179
polar@@ 179
umb@@ 179
ตกล@@ 179
เมียร์ 179
189 178
2,8@@ 178
309 178
Astr@@ 178
Government 178
HA 178
Mom@@ 178
Nam@@ 178
Steve 178
Theatre 178
Wall 178
gar@@ 178
idi@@ 178
mati@@ 178
mg 178
mut@@ 178
ocar@@ 178
ow 178
sus 178
神@@ 178
0.7 177
181 177
1831 177
214 177
216 177
Aer@@ 177
Arthur 177
Core 177
Ele@@ 177
Hab@@ 177
Hydro@@ 177
Indian 177
Mic@@ 177
NS@@ 177
Sir 177
Studies 177
Tu@@ 177
Water 177
Ze@@ 177
alus 177
amm@@ 177
case 177
ential 177
hor@@ 177
into 177
love 177
sin 177
203 176
LP 176
Let@@ 176
Pa@@ 176
Proc@@ 176
Revolution 176
Sky 176
bus 176
eum 176
ime 176
list 176
match 176
oli 176
ution 176
な@@ 176
1837 175
Economic 175
Eth@@ 175
FF@@ 175
Jones 175
bel@@ 175
oon 175
tig@@ 175
water 175
wo@@ 175
yi 175
ภาพยนต@@ 175
金@@ 175
179 174
191 174
196 174
3.3 174
Action 174
Championships 174
Don@@ 174
Eff@@ 174
Francis 174
GN@@ 174
German 174
Holy 174
IE@@ 174
Meth@@ 174
Red@@ 174
Var@@ 174
YouTube 174
bar 174
cel@@ 174
dem@@ 174
enz@@ 174
glu@@ 174
ket@@ 174
like 174
pedia 174
take 174
ダ@@ 174
1812 173
182 173
1845 173
2,7@@ 173
ATP 173
French 173
Good@@ 173
Head 173
Japanese 173
SW@@ 173
TE 173
cogni@@ 173
enia 173
kar@@ 173
ku 173
land@@ 173
ota 173
ural 173
wn 173
ទ@@ 173
国@@ 173
139 172
149 172
162 172
1851 172
Angel 172
Bay 172
Christmas 172
Dead 172
Duch@@ 172
Energy 172
Justice 172
Medicine 172
NET 172
Nature 172
Nissan 172
Rev@@ 172
Soul 172
WHO 172
Zh@@ 172
fa 172
isti@@ 172
nom@@ 172
ois 172
qui@@ 172
sens@@ 172
sil@@ 172
span 172
vari@@ 172
ปไต@@ 172
2023 171
480 171
App@@ 171
CIA 171
Dro@@ 171
MR 171
Never 171
UC@@ 171
ce@@ 171
ching 171
ert 171
ities 171
mal 171
search 171
sing 171
var 171
zone 171
‎ 171
161 170
1791 170
1856 170
251 170
Convention 170
Cour@@ 170
May 170
NT@@ 170
Rainbow 170
VI 170
complex 170
din@@ 170
emb@@ 170
eous 170
itation 170
ker@@ 170
ost 170
parentid 170
trac@@ 170
−@@ 170
1824 169
304 169
375 169
Ben 169
Express 169
Grammy 169
Mobile 169
Phys@@ 169
Rh@@ 169
az 169
equ@@ 169
inus 169
isi@@ 169
national 169
olo@@ 169
room 169
second 169
tre@@ 169
video 169
which 169
169 168
21,@@ 168
After 168
Come 168
Raj@@ 168
Right 168
Sand@@ 168
Tran@@ 168
Van@@ 168
Wel@@ 168
Will 168
Wit@@ 168
agon 168
agon@@ 168
power 168
wor@@ 168
}@@ 168
ñ 168
，@@ 168
1821 167
1852 167
215 167
28.@@ 167
370 167
Est@@ 167
Fran@@ 167
Fun@@ 167
JR 167
Lar@@ 167
Nav@@ 167
Om@@ 167
analysis 167
aw 167
bal@@ 167
cip@@ 167
eria 167
ew@@ 167
gal@@ 167
hion 167
hydr@@ 167
ichi 167
media 167
mu@@ 167
oper@@ 167
uk 167
ury 167
where 167
ø 167
カ@@ 167
177 166
Area 166
COVI@@ 166
Challenge 166
Champions 166
Joe 166
Most 166
Vel@@ 166
aun@@ 166
cape 166
ectus 166
ein@@ 166
eti@@ 166
free 166
house 166
ier 166
ock@@ 166
public 166
tem@@ 166
tro 166
朝@@ 166
AO 165
Bus@@ 165
Century 165
Fantasy 165
Full 165
Hen@@ 165
MB 165
PP 165
Press 165
SD@@ 165
Santa 165
Side 165
bot 165
iri 165
itz 165
oi 165
ser 165
tain@@ 165
25,@@ 164
29.@@ 164
Arm@@ 164
DR 164
Hospital 164
Hum@@ 164
Oh 164
SO 164
Square 164
ban@@ 164
cos@@ 164
dy@@ 164
has@@ 164
ister@@ 164
sk 164
then 164
urs 164
vers 164
wan 164
ze@@ 164
นแรง 164
西@@ 164
1828 163
194 163
209 163
DP 163
Der@@ 163
Doctor 163
Future 163
HS 163
Nan@@ 163
RN@@ 163
Stephen 163
aden@@ 163
ais@@ 163
anna 163
come 163
dol 163
eck 163
icial 163
mes@@ 163
post@@ 163
tas@@ 163
under@@ 163
uz@@ 163
ī@@ 163
明@@ 163
2,5@@ 162
36,@@ 162
410 162
Country 162
Fil@@ 162
Jazz 162
Room 162
ev 162
fied 162
net@@ 162
rol@@ 162
sky 162
ther 162
tho@@ 162
tle 162
were 162
ying 162
วัตถ@@ 162
Ay@@ 161
Bil@@ 161
Cha@@ 161
Elizabeth 161
Face 161
GE 161
Pit@@ 161
any 161
other 161
uki 161
171 160
174 160
305 160
Black@@ 160
Conn@@ 160
Dom@@ 160
Econom@@ 160
Eli@@ 160
Ful@@ 160
GS 160
March 160
Ton@@ 160
illi@@ 160
major 160
omy@@ 160
people 160
virus 160
ã 160
安@@ 160
1300 159
26,@@ 159
67@@ 159
Albums 159
Bay@@ 159
Disney 159
MO 159
Marie 159
Mind 159
Perf@@ 159
Point 159
Rum@@ 159
Songs 159
Squ@@ 159
Town 159
Vari@@ 159
ards 159
html 159
sec@@ 159
vel@@ 159
พฤษภา@@ 159
一@@ 159
新@@ 159
78@@ 158
Coll@@ 158
Figh@@ 158
Her 158
Mes@@ 158
Neur@@ 158
Only 158
PR 158
Peace 158
Prize 158
Sk@@ 158
augh@@ 158
comp@@ 158
def@@ 158
ela 158
esc@@ 158
ett 158
hynch@@ 158
oli@@ 158
rate 158
tal 158
vin@@ 158
マ@@ 158
1853 157
239 157
Bos@@ 157
CR 157
Daniel 157
His 157
Intel 157
Ker@@ 157
Liv@@ 157
Pon@@ 157
acle 157
cell@@ 157
che 157
extr@@ 157
lum 157
oscop@@ 157
oxid@@ 157
pas@@ 157
rock 157
វ@@ 157
ん@@ 157
176 156
1832 156
1841 156
Camp@@ 156
Dan@@ 156
Frank 156
Gener@@ 156
Hell 156
Karl 156
Kas@@ 156
Pictures 156
Pun@@ 156
Take 156
Triple 156
Ven@@ 156
allo@@ 156
boy 156
factory 156
kg 156
lob@@ 156
mp@@ 156
ond 156
onn@@ 156
orum 156
ough 156
over@@ 156
potential 156
shi@@ 156
sis 156
ulus 156
xy@@ 156
ド@@ 156
306 155
460 155
@ 155
Clar@@ 155
Fut@@ 155
Les 155
Place 155
Pop@@ 155
Ren@@ 155
You@@ 155
ado 155
ben@@ 155
dom 155
gas@@ 155
surface 155
uth 155
war 155
± 155
กาศ@@ 155
มาเล@@ 155
วอลเล@@ 155
か@@ 155
ジ@@ 155
平@@ 155
이@@ 155
243 154
Bec@@ 154
GC 154
Ki@@ 154
Maz@@ 154
Middle 154
More 154
Psych@@ 154
Tour@@ 154
bro@@ 154
iko 154
wave 154
レ@@ 154
城@@ 154
州@@ 154
159 153
211 153
217 153
308 153
Cast@@ 153
Child 153
Environ@@ 153
Fe 153
Mode 153
Natural 153
Pul@@ 153
Py@@ 153
Tree 153
Wild 153
Years 153
ag 153
aris 153
ayer 153
azy 153
eless 153
iTunes 153
map 153
position 153
superior 153
tal@@ 153
zi@@ 153
1803 152
1847 152
200@@ 152
Lam@@ 152
Land@@ 152
Our 152
Production 152
Sou@@ 152
Thr@@ 152
Youth 152
ix 152
kat@@ 152
1808 151
1825 151
Autom@@ 151
Department 151
Haw@@ 151
LG@@ 151
Liber@@ 151
Vic@@ 151
Visual 151
Vit@@ 151
ades 151
assi@@ 151
board 151
dri@@ 151
illy 151
method 151
olog@@ 151
orders 151
pa@@ 151
plication 151
sap@@ 151
stone 151
usion 151
 @@ 151
‎@@ 151
′ 151
1805 150
1835 150
246 150
Angeles 150
Ball@@ 150
Cathedral 150
Classi@@ 150
Eastern 150
Fab@@ 150
Rol@@ 150
Short 150
ages 150
eling 150
int 150
ony@@ 150
pes 150
ph 150
pic 150
table 150
zi 150
ฟริ@@ 150
学@@ 150
43@@ 149
5000 149
Bra@@ 149
Fol@@ 149
Know 149
Obj@@ 149
Pierre 149
Rain 149
Tes@@ 149
VII 149
atur@@ 149
imal 149
les@@ 149
mart 149
mon 149
plex 149
rit@@ 149
thm 149
trol@@ 149
uv@@ 149
yro@@ 149
ក@@ 149
海@@ 149
186 148
187 148
207 148
223 148
Am 148
Beg@@ 148
Broadcasting 148
Enter@@ 148
FIFA 148
Friends 148
Hur@@ 148
Machine 148
Motor 148
Rot@@ 148
Sph@@ 148
Vis@@ 148
bert 148
etta 148
gene 148
ident 148
mark 148
pat@@ 148
phon@@ 148
print 148
san@@ 148
wal@@ 148
work 148
1799 147
295 147
323 147
Acanth@@ 147
Ali 147
Conference 147
Fantas@@ 147
Field 147
Food 147
Phot@@ 147
Sec@@ 147
Stop 147
Works 147
agin@@ 147
ate@@ 147
chrom@@ 147
hiz@@ 147
ier@@ 147
ind 147
ji@@ 147
oshi 147
sim@@ 147
uma 147
your 147
าคม 147
1660 146
1826 146
Animation 146
Bell 146
By 146
Call 146
Castle 146
Director 146
Got 146
Gun@@ 146
Hit@@ 146
Kevin 146
Kit@@ 146
Lon@@ 146
ML@@ 146
Sony 146
Southern 146
Spring 146
back@@ 146
but 146
cal 146
eff@@ 146
lo 146
minor 146
ui 146
μ 146
ာ@@ 146
☆ 146
し@@ 146
之@@ 146
江@@ 146
1844 145
30.@@ 145
49@@ 145
ATA 145
AW@@ 145
Board 145
Bol@@ 145
Commun@@ 145
Fro@@ 145
Fur@@ 145
Johnny 145
LED 145
Pter@@ 145
SL@@ 145
Some@@ 145
Whe@@ 145
ador 145
asty 145
ele 145
family 145
network 145
onder@@ 145
pattern 145
rap@@ 145
through 145
uck 145
zo 145
เดียวกับ 145
164 144
255 144
Ai 144
Freedom 144
Gate 144
Here 144
Mess@@ 144
Name 144
Rhin@@ 144
Stre@@ 144
aku 144
alia 144
any@@ 144
eon 144
erry 144
ink 144
layer 144
lic@@ 144
mis@@ 144
nh@@ 144
racy 144
sam@@ 144
site 144
social 144
wh@@ 144
オ@@ 144
道@@ 144
1648 143
1813 143
Make 143
Rus@@ 143
Sus@@ 143
aha 143
asis 143
change 143
enter@@ 143
fly 143
ilis 143
load 143
mail 143
ometr@@ 143
oy 143
press 143
trop@@ 143
usa 143
ws 143
zu 143
ə 143
ロ@@ 143
1400 142
501 142
950 142
AG 142
African 142
Anim@@ 142
Bachelor 142
CV 142
Change 142
Common 142
Dur@@ 142
Spec@@ 142
Stand@@ 142
conver@@ 142
ign@@ 142
off@@ 142
organ@@ 142
rd 142
under 142
ust@@ 142
ł 142
ウ@@ 142
漢@@ 142
1822 141
227 141
29,@@ 141
302 141
57@@ 141
Apo@@ 141
Chicago 141
Flo@@ 141
Gol@@ 141
Hard@@ 141
Lamb@@ 141
Laur@@ 141
Sky@@ 141
Writ@@ 141
chem@@ 141
ech 141
gn@@ 141
hip 141
ists 141
leg@@ 141
med@@ 141
sea 141
sia 141
wa@@ 141
α@@ 141
มพู@@ 141
高@@ 141
1649 140
1842 140
24,@@ 140
252 140
290 140
37,@@ 140
56@@ 140
660 140
Bri@@ 140
Chron@@ 140
Classic 140
Congress 140
Heroes 140
Nic@@ 140
Washington 140
asc@@ 140
bs 140
ector 140
mil@@ 140
night 140
osus 140
two 140
white 140
xi 140
การี 140
ត@@ 140
ャ@@ 140
1603 139
1707 139
249 139
27,@@ 139
307 139
58@@ 139
AV 139
BL@@ 139
Cot@@ 139
Deep 139
Equ@@ 139
Eric 139
Forest 139
Kin@@ 139
Korean 139
Nat@@ 139
Number 139
Ry@@ 139
Sex@@ 139
Tem@@ 139
Van 139
Virgin 139
angle 139
aro 139
ellidae 139
ie@@ 139
link 139
ll 139
mic@@ 139
mun@@ 139
phase 139
pon 139
pot@@ 139
py@@ 139
ski 139
wer@@ 139
ǎ 139
　@@ 139
1783 138
1836 138
1846 138
1855 138
720 138
Albert 138
Din@@ 138
Fair@@ 138
Gang@@ 138
Gir@@ 138
INE 138
Player 138
Rid@@ 138
See 138
She 138
Silver 138
Sir@@ 138
Sn@@ 138
Zero 138
ather 138
bon 138
gia 138
his 138
level 138
oxy@@ 138
ron@@ 138
sion@@ 138
size 138
tu 138
197 137
28,@@ 137
Dou@@ 137
Han 137
Long@@ 137
Nik@@ 137
Pep@@ 137
Pil@@ 137
Rab@@ 137
SL 137
Sax@@ 137
Security 137
bin 137
ble@@ 137
dol@@ 137
fu@@ 137
imi 137
min 137
ocarp@@ 137
pic@@ 137
tica 137
ules 137
วัค@@ 137
劉@@ 137
東@@ 137
왕@@ 137
188 136
198 136
333 136
440 136
53@@ 136
59@@ 136
Andrew 136
Bowl 136
DD 136
DI@@ 136
Den@@ 136
Drama 136
Extr@@ 136
Fem@@ 136
Jud@@ 136
Nine 136
Rod@@ 136
Run 136
Sac@@ 136
Sap@@ 136
Scor@@ 136
Sig@@ 136
Sign@@ 136
UI 136
Wol@@ 136
XIII 136
aja 136
asa 136
aster@@ 136
centr@@ 136
ease 136
eu@@ 136
football 136
stri@@ 136
teri@@ 136
tory 136
verte@@ 136
ylo@@ 136
မ@@ 136
バ@@ 136
275 135
285 135
911 135
Adam 135
Bak@@ 135
Bon@@ 135
Cat 135
Count 135
Dun@@ 135
Edge 135
Hat@@ 135
IL 135
Ji 135
Lat@@ 135
Loc@@ 135
Mini 135
Monster 135
Rat@@ 135
UL@@ 135
Up@@ 135
Wa@@ 135
Wonder 135
aud@@ 135
bers 135
eki 135
gi 135
han 135
je@@ 135
oker 135
ols 135
oton@@ 135
school 135
tric@@ 135
vas@@ 135
works 135
1804 134
234 134
Administration 134
Advanced 134
But@@ 134
Earl 134
Ghost 134
Gold@@ 134
Hil@@ 134
SH 134
Tiger 134
Wan@@ 134
ado@@ 134
aling 134
box@@ 134
by@@ 134
cm 134
def 134
eller 134
itor 134
ods 134
oil 134
omer@@ 134
ondo 134
ords 134
orn 134
pri@@ 134
primary 134
rain 134
spir@@ 134
vesti@@ 134
ò 134
地@@ 134
1701 133
1796 133
1802 133
1810 133
218 133
AU 133
Away 133
EV@@ 133
Fi 133
HBO 133
Hip@@ 133
Oper@@ 133
Si 133
Slam 133
Ten@@ 133
UR 133
VC 133
WW@@ 133
Western 133
aft 133
ater 133
bi 133
flow 133
illus 133
itis 133
ize 133
ope 133
orph@@ 133
part 133
porting 133
visual 133
ฝ 133
日@@ 133
1794 132
264 132
286 132
30,@@ 132
34,@@ 132
AE 132
Associ@@ 132
Beh@@ 132
Camb@@ 132
Cli@@ 132
HD@@ 132
Hollywood 132
Khan 132
Kon@@ 132
Ocean 132
Pav@@ 132
Shu@@ 132
Wang 132
aba 132
ava 132
burg@@ 132
but@@ 132
fal@@ 132
fus@@ 132
mechan@@ 132
species 132
อีย@@ 132
「@@ 132
軍@@ 132
245 131
CEO 131
CG 131
Collection 131
DJ 131
Ear@@ 131
Emer@@ 131
Hand@@ 131
Thi@@ 131
Wu 131
activ@@ 131
age@@ 131
bil@@ 131
cycle 131
ending 131
iPhone 131
nig@@ 131
pith@@ 131
sac@@ 131
sue 131
tag@@ 131
สวี@@ 131
グ@@ 131
1843 130
228 130
244 130
253 130
Ari@@ 130
Cab@@ 130
Drive 130
Gas@@ 130
Hun@@ 130
Ok@@ 130
Six@@ 130
Sof@@ 130
Software 130
Theory 130
Voc@@ 130
ache 130
aim@@ 130
amo@@ 130
ands 130
ape@@ 130
arc@@ 130
bra 130
dian 130
ges 130
ido 130
iting 130
las@@ 130
mol 130
posterior 130
ses 130
ways 130
wel@@ 130
ˈ 130
ເ@@ 130
女@@ 130
1650 129
1798 129
1817 129
232 129
247 129
640 129
Amar@@ 129
CBS 129
Dynam@@ 129
Ing@@ 129
Jan 129
Jur@@ 129
Key 129
Library 129
Mike 129
Off 129
Popular 129
XX@@ 129
aea 129
ante 129
cho 129
dro@@ 129
gran@@ 129
ho 129
hou 129
ication 129
immun@@ 129
ka@@ 129
mos@@ 129
prim@@ 129
stein 129
sy 129
tha 129
trait 129
who 129
ガ@@ 129
226 128
241 128
258 128
36.@@ 128
Bit@@ 128
Federal 128
Fire@@ 128
Hunter 128
II@@ 128
Jer@@ 128
Mars 128
Orchestra 128
Sha@@ 128
Sher@@ 128
Speed 128
Swe@@ 128
Tam@@ 128
Tony 128
Warner 128
ains 128
arts 128
ces 128
ized 128
oxide 128
pap@@ 128
phyl@@ 128
plan@@ 128
show 128
sing@@ 128
stream 128
town 128
tre 128
ยาย@@ 128
た@@ 128
タ@@ 128
光@@ 128
68@@ 127
76@@ 127
88@@ 127
Africa 127
BN 127
Box@@ 127
Capital 127
Civil 127
Class@@ 127
Cul@@ 127
Culture 127
Dist@@ 127
EM 127
Fall 127
Front 127
Ice 127
Key@@ 127
Mission 127
Post 127
Rights 127
Shir@@ 127
ait 127
amen 127
da@@ 127
isa 127
lers 127
macro@@ 127
mission 127
upper 127
wing 127
≤ 127
대@@ 127
1100 126
1776 126
1807 126
1834 126
32,@@ 126
325 126
Brit@@ 126
Carl 126
Choice 126
Electronic 126
HT@@ 126
He 126
Jan@@ 126
Jim 126
Ken@@ 126
Law@@ 126
Plus 126
SQL 126
Viol@@ 126
Wind 126
ading 126
ald 126
ancing 126
ander@@ 126
grap@@ 126
has 126
lie 126
max 126
ont@@ 126
opus 126
revision 126
tam@@ 126
ternal 126
unds 126
ǐ 126
ฃ 126
ฦ@@ 126
ົ@@ 126
224 125
520 125
At 125
DL@@ 125
Democratic 125
Dest@@ 125
FDA 125
Fres@@ 125
Has@@ 125
Lic@@ 125
PE 125
Parad@@ 125
Son@@ 125
Supreme 125
Under 125
Where 125
avi@@ 125
ett@@ 125
gy 125
roc@@ 125
trial 125
戦@@ 125
237 124
242 124
Australian 124
Born 124
CI 124
Da 124
Deb@@ 124
Executive 124
Eyes 124
Him@@ 124
Hyper@@ 124
Ox@@ 124
Prom@@ 124
Shanghai 124
Spar@@ 124
adi 124
also 124
ising 124
mid@@ 124
neum@@ 124
oral 124
orr@@ 124
plo@@ 124
tual 124
yx 124
宋@@ 124
1809 123
35,@@ 123
787 123
85@@ 123
Columbia 123
DF@@ 123
DM 123
HF 123
Imag@@ 123
Laborat@@ 123
Lion 123
Pel@@ 123
Record 123
Sat@@ 123
Scar@@ 123
Sym@@ 123
Tru@@ 123
Yel@@ 123
agent 123
atin 123
brain 123
ef 123
inidae 123
jo@@ 123
mo 123
nia 123
สิงค@@ 123
@@ 123
311 122
About 122
Aur@@ 122
Authority 122
Beach 122
Bub@@ 122
Cryp@@ 122
ET@@ 122
Evil 122
Forever 122
ID@@ 122
Lac@@ 122
Memorial 122
PO 122
Show@@ 122
Winter 122
alt@@ 122
chr@@ 122
city 122
dit 122
esh@@ 122
fa@@ 122
graphy 122
gs 122
igher 122
ight@@ 122
kan@@ 122
mph 122
ographic 122
ped@@ 122
pi 122
sexual 122
view 122
year 122
yon@@ 122
る@@ 122
小@@ 122
1640 121
1838 121
294 121
54@@ 121
Australia 121
Community 121
Diamond 121
Dir@@ 121
Down@@ 121
Integr@@ 121
Lep@@ 121
Nucle@@ 121
Ras@@ 121
Simon 121
Tas@@ 121
Valley 121
aly@@ 121
ange 121
atri@@ 121
burg 121
cli@@ 121
coun@@ 121
formation 121
hic 121
ju@@ 121
nm 121
oly@@ 121
oride 121
own 121
reduc@@ 121
ry@@ 121
scale 121
tos 121
unk@@ 121
zh 121
π@@ 121
รวด@@ 121
້@@ 121
う@@ 121
1818 120
Architecture 120
Fair 120
Florida 120
IBM 120
IF 120
Kom@@ 120
Lanc@@ 120
Link 120
Mut@@ 120
Neg@@ 120
Power@@ 120
Report 120
There 120
Whit@@ 120
agr@@ 120
ation@@ 120
base 120
cc 120
che@@ 120
cle@@ 120
dynasty 120
ging 120
hist@@ 120
hur@@ 120
irus 120
lem 120
metabol@@ 120
otype 120
不@@ 120
----@@ 119
1819 119
213 119
262 119
74@@ 119
Assembly 119
Ax@@ 119
Beat 119
Buc@@ 119
Case 119
Fle@@ 119
Giovanni 119
Gra@@ 119
Gy@@ 119
Masters 119
Mill@@ 119
Planet 119
Say 119
Ster@@ 119
They 119
West@@ 119
Yu 119
algorith@@ 119
aqu@@ 119
bon@@ 119
cou@@ 119
doc@@ 119
dra@@ 119
een 119
fil@@ 119
ges@@ 119
last 119
lev@@ 119
lim@@ 119
magne@@ 119
nar 119
ons@@ 119
ox 119
person@@ 119
ree 119
river 119
xin 119
ć 119
€ 119
河@@ 119
白@@ 119
1797 118
219 118
272 118
38.@@ 118
AFC 118
Alan 118
Anne 118
Flash 118
Mich@@ 118
Store 118
View 118
Walter 118
af 118
ais 118
anic 118
ano@@ 118
arian 118
central 118
fre@@ 118
iens 118
oceph@@ 118
ogen 118
oria 118
ostr@@ 118
study 118
sym@@ 118
urn@@ 118
val 118
wikitext 118
ο@@ 118
ปรัช@@ 118
เวณ 118
ニ@@ 118
276 117
390 117
4000 117
540 117
64@@ 117
Bla@@ 117
DA@@ 117
Eas@@ 117
Era 117
Ford 117
Galaxy 117
Heter@@ 117
Kaz@@ 117
ROM 117
SK@@ 117
Scienti@@ 117
Services 117
Set 117
Tales 117
Unit 117
arium 117
ca@@ 117
care 117
eal 117
ekw@@ 117
erg@@ 117
fic 117
find 117
gio 117
ington 117
kins 117
nam@@ 117
nd@@ 117
nes 117
oll@@ 117
omb@@ 117
platform 117
sed 117
server 117
sm@@ 117
tin@@ 117
uld 117
zy@@ 117
ฃ@@ 117
家@@ 117
馬@@ 117
1833 116
229 116
268 116
278 116
39,@@ 116
Alice 116
Bob 116
Boh@@ 116
Bom@@ 116
Bun@@ 116
Ca 116
Cold 116
Crim@@ 116
Devil 116
Docum@@ 116
Hot@@ 116
King@@ 116
Main 116
Nation 116
Oxford 116
Philip 116
Russian 116
Williams 116
agus 116
aves 116
ball 116
bury 116
eman 116
ign 116
ingen 116
je 116
most 116
ord 116
ples 116
round 116
sho@@ 116
toon 116
tuber@@ 116
ures 116
vers@@ 116
wi@@ 116
สโม@@ 116
อัลบ@@ 116
เติบ@@ 116
ប@@ 116
生@@ 116
1642 115
269 115
Arc@@ 115
Ball 115
Canada 115
Democ@@ 115
Europe 115
Facebook 115
Gil@@ 115
Mont@@ 115
Mother 115
Net 115
PN@@ 115
Pir@@ 115
Princip@@ 115
Singh 115
Talk 115
Test 115
aging 115
andra 115
asure 115
cells 115
chen 115
date 115
mit 115
nal 115
pot 115
que@@ 115
range 115
rent 115
rey 115
tionary 115
unt 115
ware 115
wil@@ 115
に@@ 115
1644 114
Butter@@ 114
Clin@@ 114
Concep@@ 114
Dal@@ 114
Morning 114
Nu@@ 114
Pad@@ 114
Pseudo@@ 114
Sunday 114
UM@@ 114
Ye@@ 114
aen@@ 114
anger@@ 114
ceph@@ 114
col 114
eer 114
ening 114
hel@@ 114
ils 114
istics 114
jug@@ 114
onidae 114
temporal 114
thing 114
win@@ 114
yan 114
อังก@@ 114
1609 113
386 113
401 113
Amaz@@ 113
Auto 113
Band@@ 113
Dog@@ 113
ICA@@ 113
Johann 113
Jour@@ 113
Orange 113
Pharm@@ 113
Phil@@ 113
Province 113
Sl@@ 113
Sug@@ 113
Systems 113
Texas 113
XP 113
achi 113
ators 113
bat 113
cros@@ 113
dan 113
hat@@ 113
rem@@ 113
sort 113
tern 113
trum 113
unit 113
vis 113
་@@ 113
1772 112
2030 112
34.@@ 112
98@@ 112
AH 112
Brian 112
Flu@@ 112
Greatest 112
Hus@@ 112
Med@@ 112
Mun@@ 112
NBC 112
Pearl 112
Police 112
Suz@@ 112
Trich@@ 112
WT@@ 112
Walk 112
Wilson 112
cat 112
dig@@ 112
duction 112
eck@@ 112
eye 112
iny 112
mir@@ 112
olin 112
osper@@ 112
sar@@ 112
service 112
tain 112
tural 112
ß 112
ı 112
จำนว@@ 112
フ@@ 112
北@@ 112
的@@ 112
1620 111
1788 111
257 111
33.@@ 111
Antonio 111
CL 111
Centr@@ 111
Electric 111
Eye 111
Foreign 111
Ma 111
Mach@@ 111
Military 111
NH 111
NS 111
Style 111
Symphony 111
Trade 111
Zhang 111
alli@@ 111
chain 111
culture 111
ders 111
eas@@ 111
hex@@ 111
horn 111
induc@@ 111
itus 111
lip 111
long 111
mol@@ 111
nch@@ 111
parti@@ 111
uf@@ 111
uo 111
venture 111
ภอ 111
ນ@@ 111
1526 110
1688 110
37.@@ 110
620 110
66@@ 110
Ach@@ 110
Aster@@ 110
Bar 110
Cass@@ 110
Cou@@ 110
Dat@@ 110
MT@@ 110
Ngu@@ 110
Note 110
PI 110
Person@@ 110
Phoenix 110
SV 110
SV@@ 110
Server 110
Vision 110
aca 110
ancer 110
asy@@ 110
bus@@ 110
eld 110
eps 110
folia 110
gate 110
hu 110
human 110
ige 110
ition 110
oration 110
ras@@ 110
sle@@ 110
thal@@ 110
vector 110
web 110
yond 110
ราชิ@@ 110
หรับ 110
と@@ 110
德@@ 110
1453 109
1829 109
261 109
33,@@ 109
63@@ 109
Anime 109
Bau@@ 109
Broad@@ 109
CF@@ 109
Chamber 109
Comics 109
Hul@@ 109
Other 109
Resp@@ 109
Review 109
Tai@@ 109
Techn@@ 109
Together 109
Wood@@ 109
antum 109
coron@@ 109
eur@@ 109
ista 109
mes 109
mode 109
nec@@ 109
than 109
thor@@ 109
uchi 109
uli 109
vacc@@ 109
wan@@ 109
wen@@ 109
yd@@ 109
ຈ@@ 109
り@@ 109
仁@@ 109
233 108
266 108
279 108
35.@@ 108
BMW 108
Corn@@ 108
Dog 108
Eu@@ 108
Fat@@ 108
Franz 108
Infin@@ 108
Jum@@ 108
Kum@@ 108
Lif@@ 108
Ori@@ 108
Phyl@@ 108
Premi@@ 108
SN 108
Seg@@ 108
Third 108
Warriors 108
acea 108
bet@@ 108
cast 108
chen@@ 108
cy 108
din 108
each 108
esi@@ 108
fire 108
force 108
heart 108
iness 108
ion@@ 108
isch@@ 108
meg@@ 108
og 108
oning 108
ophy@@ 108
pil@@ 108
plat@@ 108
polis 108
spin@@ 108
versary 108
vor 108
wer 108
ything 108
デ@@ 108
世@@ 108
田@@ 108
長@@ 108
19@@ 107
318 107
Angels 107
Another 107
Cher@@ 107
Gallery 107
Hang@@ 107
Miss@@ 107
NBA 107
NFL 107
Pass@@ 107
Pink 107
Son 107
abor@@ 107
amus 107
blood 107
bos@@ 107
cav@@ 107
ild 107
kal@@ 107
kers 107
mus 107
nh 107
omi 107
oster@@ 107
ova 107
park 107
software 107
ticul@@ 107
uh@@ 107
uss@@ 107
worth 107
xy 107
キ@@ 107
1610 106
77@@ 106
79@@ 106
960 106
Bad@@ 106
CN 106
Cent@@ 106
FL 106
IUCN 106
Lag@@ 106
Magn@@ 106
Major 106
Mam@@ 106
Mik@@ 106
Samuel 106
Stap@@ 106
Victor 106
Victoria 106
Work 106
aire 106
aze 106
bac@@ 106
cep@@ 106
fier 106
fos@@ 106
ification 106
kan 106
local 106
lot 106
melan@@ 106
path 106
rati@@ 106
ring 106
squ@@ 106
tan 106
teen 106
ตราย 106
ปุ่น 106
ງ@@ 106
ុ@@ 106
1770 105
1827 105
283 105
298 105
39.@@ 105
470 105
And@@ 105
BW@@ 105
Blues 105
Chang@@ 105
Charlotte 105
Christ 105
EG 105
Hits 105
Kid 105
Pa 105
Petr@@ 105
Prix 105
Race 105
SF@@ 105
Ten 105
Tok@@ 105
Too 105
Yang 105
address 105
adu@@ 105
agi@@ 105
ame@@ 105
between 105
car 105
card 105
cit@@ 105
dynam@@ 105
elia 105
enberg 105
ference 105
gold 105
iOS 105
iden 105
orus 105
plate 105
pon@@ 105
sig@@ 105
sions 105
uru 105
versities 105
vo 105
vul@@ 105
モ@@ 105
和@@ 105
陽@@ 105
1787 104
248 104
Aff@@ 104
Anna 104
Anthony 104
Att@@ 104
Braun 104
Buddh@@ 104
ED@@ 104
Industrial 104
Jar@@ 104
Les@@ 104
Level 104
Mathemati@@ 104
Mix@@ 104
Mount 104
Myr@@ 104
Philosoph@@ 104
Psy@@ 104
Sam 104
Touch 104
actor 104
alized 104
aries 104
cryp@@ 104
das 104
flo@@ 104
general 104
hat 104
hood 104
ingu@@ 104
ision 104
istr@@ 104
lit@@ 104
machine 104
ole@@ 104
thus 104
ù 104
ยึ@@ 104
င@@ 104
1550 103
1823 103
236 103
263 103
321 103
Austria 103
Building 103
Ceph@@ 103
Chan 103
Di 103
Ec@@ 103
Guy 103
Hope 103
Medal 103
Nin@@ 103
President 103
Rub@@ 103
arm@@ 103
chlor@@ 103
cio 103
dea 103
ete 103
idal 103
ingi@@ 103
integr@@ 103
orient@@ 103
plic@@ 103
sert 103
start 103
toc@@ 103
uke 103
vis@@ 103
while 103
zer 103
1592 102
1683 102
254 102
289 102
510 102
560 102
BT@@ 102
Body 102
Cham@@ 102
Day@@ 102
Dig@@ 102
Domin@@ 102
Forum 102
Francisco 102
Frederick 102
Hav@@ 102
Northern 102
Pay@@ 102
Plant@@ 102
Private 102
RAM 102
Six 102
Sto@@ 102
adap@@ 102
brach@@ 102
count 102
emic 102
fir@@ 102
green 102
high 102
ino@@ 102
intr@@ 102
ked 102
main 102
mb@@ 102
prise 102
sign@@ 102
volution 102
zz@@ 102
張@@ 102
COM 101
Chor@@ 101
Coast 101
Comic 101
DOS 101
Gos@@ 101
KA 101
LM 101
Max@@ 101
Milli@@ 101
Plant 101
Sens@@ 101
Storm 101
Sul@@ 101
ango 101
ban 101
born 101
common 101
ends 101
ester@@ 101
esty 101
gam@@ 101
glut@@ 101
iidae 101
iki@@ 101
iss 101
lor@@ 101
oko 101
rier 101
ฮัง@@ 101
ễ 101
年@@ 101
1250 100
1350 100
1689 100
Ah@@ 100
Alfred 100
BL 100
Clo@@ 100
Dru@@ 100
Friday 100
Fund 100
Green@@ 100
Howard 100
Jack@@ 100
Jung@@ 100
Lang@@ 100
Lem@@ 100
Musical 100
Nas@@ 100
Shadow 100
Singapore 100
Tab@@ 100
Um@@ 100
coll@@ 100
depend@@ 100
differ@@ 100
ences 100
enger 100
engers 100
fic@@ 100
generation 100
ift 100
live 100
neg@@ 100
period 100
process@@ 100
pus@@ 100
rand@@ 100
sian 100
struc@@ 100
there 100
ube 100
ulata 100
Ö 100
å 100
ィ@@ 100
司@@ 100
32.@@ 99
324 99
404 99
530 99
Affairs 99
Bag@@ 99
Bru@@ 99
Cuc@@ 99
Gran@@ 99
Hans 99
Industry 99
Lou@@ 99
Moore 99
North@@ 99
Pau@@ 99
Phan@@ 99
Professor 99
Publ@@ 99
Pyth@@ 99
Ryan 99
Song@@ 99
aine 99
ament 99
bol@@ 99
cial 99
cir@@ 99
endron 99
idea 99
include 99
lac@@ 99
learning 99
she@@ 99
ump 99
ya@@ 99
ชุมนุ@@ 99
เดียว@@ 99
ေ@@ 99
ិ@@ 99
。@@ 99
く@@ 99
ム@@ 99
法@@ 99
花@@ 99
1598 98
1816 98
49,@@ 98
630 98
69@@ 98
Adap@@ 98
Bang 98
Christopher 98
Fine 98
Four@@ 98
Indi@@ 98
Joint 98
Movement 98
Ny@@ 98
Od@@ 98
Pent@@ 98
Pet@@ 98
Sex 98
Shane 98
Sz@@ 98
Tat@@ 98
Zo@@ 98
architecture 98
away 98
awn 98
bal 98
benz@@ 98
blue 98
colum@@ 98
conn@@ 98
current 98
energy 98
ept@@ 98
ester 98
grav@@ 98
hibition 98
hypoth@@ 98
junction 98
molec@@ 98
negative 98
petition 98
phi@@ 98
ric@@ 98
sit@@ 98
soci@@ 98
source 98
stimul@@ 98
tail 98
tari@@ 98
trav@@ 98
tun@@ 98
ux 98
vic 98
xx 98
yer 98
000@@ 97
1811 97
231 97
49.@@ 97
Alex 97
BR 97
Coc@@ 97
Dam@@ 97
Davis 97
Doc@@ 97
Dutch 97
Fort 97
ISBN 97
Independent 97
Merc@@ 97
Pan 97
Spirit 97
abase 97
aming 97
aul@@ 97
ches 97
chl@@ 97
coc@@ 97
cro@@ 97
ecti@@ 97
heter@@ 97
idel@@ 97
imb@@ 97
kel@@ 97
lands 97
otus 97
science 97
sun@@ 97
tian 97
vous 97
zo@@ 97
ë 97
ū@@ 97
คณิ@@ 97
យ@@ 97
ら@@ 97
サ@@ 97
君@@ 97
1780 96
610 96
760 96
Airlines 96
Cad@@ 96
Fav@@ 96
Germany 96
Gray 96
Guide 96
Hid@@ 96
Marine 96
Roger 96
Soviet 96
andi@@ 96
bird 96
ched 96
chil@@ 96
course 96
det@@ 96
double 96
ega 96
eh 96
enta 96
evol@@ 96
heim 96
illing 96
lied 96
mul@@ 96
omor@@ 96
onal@@ 96
optera 96
stage 96
vil@@ 96
whe@@ 96
á@@ 96
ă 96
β@@ 96
เปลี่ย@@ 96
宮@@ 96
福@@ 96
院@@ 96
1450 95
293 95
84@@ 95
87@@ 95
BD 95
BM 95
Bin@@ 95
Emp@@ 95
Fall@@ 95
Fir@@ 95
Hard 95
Jam 95
Ki 95
Log@@ 95
Myster@@ 95
Nur@@ 95
Orig@@ 95
RE 95
Revol@@ 95
SR@@ 95
Smo@@ 95
Stor@@ 95
Us 95
Vie@@ 95
Week 95
anga 95
dre@@ 95
engine 95
enni@@ 95
eper 95
etus 95
gas 95
growth 95
nuclear 95
quin@@ 95
synth@@ 95
ths 95
usi@@ 95
上@@ 95
成@@ 95
1540 94
1643 94
284 94
297 94
680 94
Ant@@ 94
Before 94
Cand@@ 94
Chel@@ 94
Heavy 94
Kw@@ 94
Low 94
MD 94
Madonna 94
Peri@@ 94
Ses@@ 94
Tap@@ 94
Terr@@ 94
Training 94
UE 94
Was@@ 94
XI 94
abe 94
ads 94
ances 94
apping 94
asia 94
ayan 94
bian 94
bridge 94
dog 94
err@@ 94
func@@ 94
ices 94
idge 94
isi 94
lit 94
lose 94
mad@@ 94
master 94
olls 94
plant 94
pter@@ 94
rid@@ 94
season 94
string 94
three 94
tile 94
used 94
uta 94
wall 94
won 94
อำเ@@ 94
ង@@ 94
《@@ 94
コ@@ 94
テ@@ 94
五@@ 94
정@@ 94
1521 93
1661 93
273 93
287 93
288 93
291 93
322 93
356 93
570 93
Ath@@ 93
Bern@@ 93
Bros 93
Camp 93
Circle 93
Contin@@ 93
Crystal 93
Form 93
Fort@@ 93
Gh@@ 93
Invest@@ 93
Kelly 93
Mass@@ 93
Otto 93
Rad@@ 93
Roy@@ 93
Sang@@ 93
Taylor 93
Track 93
Vamp@@ 93
WH@@ 93
Wr@@ 93
abilis 93
ank 93
eping 93
ished 93
itz@@ 93
led 93
nar@@ 93
olep@@ 93
phone 93
rat 93
ric 93
square 93
test@@ 93
tot@@ 93
unda 93
var@@ 93
č 93
ě 93
ナ@@ 93
パ@@ 93
方@@ 93
1492 92
1760 92
299 92
338 92
Allen 92
Brand 92
Command 92
Critics 92
Fighter 92
Flying 92
Hyp@@ 92
Inn@@ 92
Metal 92
Rep@@ 92
Sail@@ 92
Say@@ 92
Suc@@ 92
Ultimate 92
agram 92
aking 92
etes 92
hormon@@ 92
ilk 92
inferior 92
modi@@ 92
oka 92
osc@@ 92
prol@@ 92
spot 92
star@@ 92
tos@@ 92
vus 92
wak@@ 92
ราจารย์ 92
เจด@@ 92
ိ@@ 92
京@@ 92
真@@ 92
1781 91
281 91
335 91
406 91
Af@@ 91
Alo@@ 91
Anci@@ 91
Cambridge 91
Chen 91
Daily 91
Gly@@ 91
Kings 91
Las@@ 91
Lewis 91
Local 91
Pyr@@ 91
Tai 91
UEFA 91
Urban 91
VIII 91
Watch 91
acker 91
aeus 91
ason 91
cole 91
cut@@ 91
dle 91
domain 91
eros 91
flora 91
gu 91
iga 91
imo 91
ini@@ 91
now@@ 91
onian 91
oro 91
pressure 91
proc@@ 91
program 91
tius 91
yon 91
Đ@@ 91
士@@ 91
水@@ 91
1777 90
1778 90
Academ@@ 90
Bruce 90
Captain 90
Chief 90
Dra@@ 90
Factory 90
Fam@@ 90
Jam@@ 90
Jason 90
Jay 90
Jerry 90
Mario 90
Seoul 90
Tell 90
UNESCO 90
Vil@@ 90
chart 90
conduc@@ 90
design 90
dis 90
edia 90
enny 90
esa 90
gun 90
iger 90
ince 90
isions 90
lag 90
mass 90
ocol@@ 90
odes 90
olar 90
osh@@ 90
othing 90
ratio 90
shar@@ 90
speci@@ 90
suit 90
tran@@ 90
troph@@ 90
vi 90
vil 90
vin 90
ดัด@@ 90
း@@ 90
寺@@ 90
市@@ 90
春@@ 90
1651 89
1763 89
1784 89
Abbey 89
August 89
Bang@@ 89
Bod@@ 89
Comput@@ 89
FBI 89
GI 89
Glass 89
Jane 89
Kab@@ 89
MG 89
Miy@@ 89
Oriental 89
PL 89
Page 89
Upper 89
Wilhelm 89
Yi 89
ana@@ 89
arius 89
award 89
bacteri@@ 89
black 89
ebook 89
eci@@ 89
fur@@ 89
hon@@ 89
ks@@ 89
ky@@ 89
lan 89
ledge 89
los 89
metal 89
place 89
stars 89
×@@ 89
θ@@ 89
エ@@ 89
夜@@ 89
@@ 89
1775 88
1786 88
267 88
282 88
296 88
313 88
425 88
Alpha 88
Benz 88
Bernard 88
Bird 88
Clu@@ 88
Dark@@ 88
Honor 88
Institu@@ 88
Jacob 88
Kim@@ 88
Know@@ 88
Kurt 88
NP 88
Russia 88
Sah@@ 88
Steph@@ 88
Yak@@ 88
ark@@ 88
ator@@ 88
e- 88
eleg@@ 88
ember 88
ender 88
girl 88
indic@@ 88
ix@@ 88
languages 88
ls 88
medicine 88
news 88
ogy 88
pig@@ 88
tage 88
thy@@ 88
ucle@@ 88
udi@@ 88
ព@@ 88
័@@ 88
林@@ 88
1560 87
317 87
Aus@@ 87
Batt@@ 87
Bio@@ 87
DR@@ 87
Dave 87
Films 87
Flight 87
Hak@@ 87
Jeff 87
Lan@@ 87
Market 87
Pac@@ 87
Plas@@ 87
Professional 87
Superman 87
Tol@@ 87
Toy@@ 87
Trust 87
Water@@ 87
Work@@ 87
abl@@ 87
acter@@ 87
aman 87
atsu 87
attack 87
ayo 87
blo@@ 87
break 87
cri@@ 87
dat@@ 87
edge 87
etti 87
kor@@ 87
ments 87
na@@ 87
normal 87
oe 87
ont 87
organ 87
race 87
specific 87
standing 87
theor@@ 87
thetic 87
transfer@@ 87
tt@@ 87
ves@@ 87
ynam@@ 87
θ 87
ออสเตร@@ 87
√ 87
」 87
は@@ 87
メ@@ 87
月@@ 87
美@@ 87
1580 86
1740 86
326 86
Anderson 86
Anth@@ 86
Charlie 86
Comedy 86
Exchange 86
Geor@@ 86
Gran 86
IA@@ 86
Indonesia 86
Islamic 86
Juan 86
Luci@@ 86
Mega 86
Opera 86
Pach@@ 86
Patri@@ 86
Patrick 86
Premier 86
Prin@@ 86
Productions 86
Samsung 86
Tsu@@ 86
UP 86
Wing 86
ats@@ 86
avirus 86
bun@@ 86
dop@@ 86
etary 86
ited 86
org@@ 86
ply 86
press@@ 86
reaction 86
response 86
rh@@ 86
small 86
sts 86
tera 86
tier 86
titude 86
vit@@ 86
wat@@ 86
wo 86
{@@ 86
1750 85
259 85
490 85
Android 85
Avenue 85
BR@@ 85
Bou@@ 85
Chlor@@ 85
Deg@@ 85
Dong@@ 85
Emb@@ 85
Innov@@ 85
Jordan 85
Linux 85
Living 85
Nick 85
PT 85
Plan 85
Pom@@ 85
Rich@@ 85
USB 85
Without 85
XII 85
aj 85
ann 85
ave@@ 85
carri@@ 85
della 85
dus 85
endr@@ 85
ering 85
esta 85
friend 85
gar 85
icum 85
irat@@ 85
jus@@ 85
ken@@ 85
keting 85
lain 85
mia 85
oh 85
omo 85
open 85
osom@@ 85
ough@@ 85
phys@@ 85
princip@@ 85
ross 85
script 85
sense 85
smo@@ 85
sson 85
syl@@ 85
tern@@ 85
กำหน@@ 85
ជ@@ 85
が@@ 85
ま@@ 85
八@@ 85
四@@ 85
正@@ 85
華@@ 85
1666 84
1773 84
316 84
Andy 84
Archit@@ 84
Benjamin 84
Berlin 84
CM 84
EL 84
EP@@ 84
Ernst 84
Fig@@ 84
Gordon 84
Grey 84
Head@@ 84
Instrum@@ 84
Irish 84
Java 84
Kol@@ 84
Nob@@ 84
Organ@@ 84
Phase 84
Potter 84
Raymond 84
Romeo 84
SB 84
Saturday 84
Singles 84
Small 84
Vegas 84
XIV 84
Yos@@ 84
anta 84
anz@@ 84
auto@@ 84
chel@@ 84
dist@@ 84
emat@@ 84
ements 84
emer@@ 84
forest 84
four 84
frame 84
han@@ 84
high@@ 84
lies 84
ligh@@ 84
oll 84
plac@@ 84
rett 84
stati@@ 84
stop 84
systems 84
tak@@ 84
tent 84
trig@@ 84
ularis 84
via 84
ǔ 84
原@@ 84
趙@@ 84
100@@ 83
1520 83
1530 83
1774 83
1785 83
345 83
38,@@ 83
47.@@ 83
48.@@ 83
Billy 83
Cav@@ 83
Def@@ 83
Dream@@ 83
Du 83
Gabriel 83
Il 83
Inf@@ 83
Intelligence 83
Jun@@ 83
Liu 83
Matthew 83
Nintendo 83
Observat@@ 83
Ot@@ 83
Pier@@ 83
Political 83
Tim 83
VP 83
Vent@@ 83
Wed@@ 83
Xen@@ 83
Yah@@ 83
acial 83
ager 83
amide 83
arin 83
aus 83
aut@@ 83
child 83
crip@@ 83
death 83
dh@@ 83
dry 83
eding 83
flor@@ 83
fort 83
gency 83
gian 83
gon@@ 83
hard 83
hep@@ 83
ior 83
itar 83
km 83
liz@@ 83
painting 83
rac@@ 83
sex 83
tium 83
window 83
® 83
ו@@ 83
　 83
お@@ 83
0,0@@ 82
1568 82
1604 82
1625 82
1653 82
1765 82
1782 82
277 82
336 82
395 82
BK 82
Back@@ 82
Nicholas 82
PD@@ 82
Ra 82
Rand@@ 82
Roman@@ 82
Wales 82
a- 82
asi 82
aut 82
bau@@ 82
bom@@ 82
continental 82
ded 82
eine 82
eing 82
essor 82
let@@ 82
made 82
nchron@@ 82
ned 82
onda 82
ool 82
ordin@@ 82
orth@@ 82
oud 82
phus 82
positive 82
res 82
see 82
shi 82
sign 82
sound 82
utionary 82
vent@@ 82
พฤษ@@ 82
← 82
み@@ 82
忠@@ 82
～@@ 82
1605 81
1685 81
40,@@ 81
978 81
Au@@ 81
Bed@@ 81
Cow@@ 81
Esp@@ 81
Exper@@ 81
FL@@ 81
Ges@@ 81
Grap@@ 81
Jimmy 81
Jo 81
Jonathan 81
Kap@@ 81
Lawrence 81
Liter@@ 81
Musa 81
Poc@@ 81
Rio 81
Row@@ 81
Rut@@ 81
Text 81
Total 81
Vul@@ 81
bia 81
chron@@ 81
cord 81
cous@@ 81
digital 81
dison 81
ebo@@ 81
eland 81
ento 81
ibn 81
ily 81
lad@@ 81
linear 81
ophyl@@ 81
pher@@ 81
ping 81
resp@@ 81
sons 81
tens@@ 81
ï 81
Δ 81
ปราก@@ 81
周@@ 81
川@@ 81
氏@@ 81
秦@@ 81
#@@ 80
1515 80
1762 80
415 80
50,@@ 80
86@@ 80
April 80
Basil@@ 80
Block 80
Discovery 80
Donald 80
Greater 80
Guard 80
HIV 80
It@@ 80
Jesus 80
Jin@@ 80
Joh@@ 80
Kel@@ 80
Lau@@ 80
Leo 80
Lotus 80
Mi 80
NGC 80
Ner@@ 80
PI@@ 80
Parliament 80
Prime 80
Region 80
SMS 80
Snow 80
South@@ 80
Technical 80
Til@@ 80
Vienna 80
acre 80
acul@@ 80
best 80
contr@@ 80
door 80
eau 80
eli 80
enzyme 80
flag 80
gence 80
hand@@ 80
limited 80
must 80
nas@@ 80
pia 80
real 80
sha 80
suff@@ 80
vival 80
wang 80
ประเพ@@ 80
ု@@ 80
清@@ 80
1204 79
1680 79
1714 79
1766 79
319 79
343 79
354 79
512 79
Bell@@ 79
Cov@@ 79
Eagle 79
Grav@@ 79
Guar@@ 79
Hap@@ 79
Henri 79
Hig@@ 79
Map@@ 79
Mr@@ 79
Pag@@ 79
PlayStation 79
Railway 79
Sarah 79
Shah 79
Steel 79
Suzuki 79
Thor@@ 79
Tournament 79
UFC 79
Village 79
aa 79
ancy 79
bran@@ 79
ception 79
chor@@ 79
clus@@ 79
cont@@ 79
cut 79
cycl@@ 79
drome 79
eds 79
else 79
eni 79
event@@ 79
ful@@ 79
ged 79
gli@@ 79
him@@ 79
ht@@ 79
ili 79
inin 79
iti 79
kam@@ 79
mid 79
natural 79
ono 79
plus 79
pper 79
rie 79
sl@@ 79
tol@@ 79
·@@ 79
Á 79
γ 79
ย่อง 79
โปร์ 79
さ@@ 79
会@@ 79
1519 78
1606 78
271 78
292 78
94@@ 78
API 78
CON@@ 78
Chu 78
Communications 78
Cultural 78
Financial 78
Hills 78
Italian 78
June 78
Late 78
Leon@@ 78
Lot@@ 78
Matt 78
Pod@@ 78
Proj@@ 78
Regional 78
Top@@ 78
Venus 78
XV 78
Yas@@ 78
Zen@@ 78
\@@ 78
about 78
afe 78
cam@@ 78
ej@@ 78
eti 78
fall@@ 78
hard@@ 78
hen@@ 78
ieve 78
iment 78
joint 78
kel 78
line@@ 78
make 78
matter 78
new@@ 78
onds 78
pard 78
pm 78
quar@@ 78
receive 78
rel 78
rich@@ 78
rule 78
sep@@ 78
spe@@ 78
sph@@ 78
uka 78
unter 78
urg@@ 78
µ 78
í@@ 78
も@@ 78
ブ@@ 78
我@@ 78
陳@@ 78
龍@@ 78
1547 77
1570 77
1755 77
1768 77
332 77
337 77
580 77
Alex@@ 77
Austin 77
Baron 77
Bug@@ 77
Cover 77
Dep@@ 77
Der 77
Dim@@ 77
EU 77
Ed 77
Enterprise 77
Francesco 77
Greek 77
Guardian 77
HR 77
Ireland 77
Jacques 77
Jin 77
Malaysia 77
Metro 77
Metropolitan 77
Moh@@ 77
Or 77
Phy@@ 77
Rein@@ 77
Sci@@ 77
Shr@@ 77
Stat@@ 77
Strateg@@ 77
Weekly 77
dou@@ 77
ear 77
eting 77
fib@@ 77
flex@@ 77
image 77
ime@@ 77
iya 77
mand@@ 77
market 77
motion 77
operation 77
ports 77
production 77
relation 77
run@@ 77
singer 77
som 77
term 77
thal 77
tif@@ 77
uan 77
user 77
using 77
π 77
代@@ 77
義@@ 77
門@@ 77
1569 76
1585 76
Bah@@ 76
Barry 76
Boston 76
CF 76
Campus 76
Carter 76
Cloud 76
Commerce 76
Confeder@@ 76
Dallas 76
Ey@@ 76
Feder@@ 76
Friedrich 76
Gan@@ 76
Hop@@ 76
Human@@ 76
Hydr@@ 76
Jet 76
Maur@@ 76
Pass 76
Script 76
Sep@@ 76
Spanish 76
Today 76
UM 76
aro@@ 76
aur 76
aux 76
cover 76
ensi@@ 76
gig@@ 76
hold 76
izer 76
king@@ 76
oid@@ 76
ologue 76
ority 76
osh 76
parent 76
poem 76
ref@@ 76
some 76
structure 76
swe@@ 76
tend@@ 76
theast 76
track 76
ventures 76
zy 76
ó@@ 76
ກ@@ 76
き@@ 76
下@@ 76
少@@ 76
後@@ 76
無@@ 76
青@@ 76
1590 75
1687 75
1720 75
355 75
405 75
89@@ 75
DT@@ 75
Dawn 75
Dow@@ 75
Eg@@ 75
End@@ 75
Gau@@ 75
HMS 75
Ho 75
Lyn@@ 75
Mai 75
Manga 75
Miz@@ 75
Nev@@ 75
Nom@@ 75
Rock@@ 75
Sed@@ 75
Sid@@ 75
Through 75
Wir@@ 75
aco 75
alg@@ 75
anj@@ 75
ape 75
asons 75
aye 75
behavi@@ 75
continu@@ 75
element 75
eron 75
footballer 75
idaceae 75
jin 75
kai 75
known 75
lea 75
lide 75
ling@@ 75
management 75
movement 75
mur@@ 75
nik 75
olia 75
ored 75
osia 75
ours 75
pack@@ 75
professional 75
ption 75
put@@ 75
ron 75
rup@@ 75
sequ@@ 75
sequence 75
tac@@ 75
tific@@ 75
tone 75
tour@@ 75
when 75
ð 75
י@@ 75
  75
心@@ 75
星@@ 75
黃@@ 75
1630 74
1699 74
44,@@ 74
Aviation 74
Base 74
Books 74
Bow@@ 74
Carlos 74
DT 74
Ferdinand 74
GNU 74
Kil@@ 74
Mechan@@ 74
Min 74
Nem@@ 74
Port 74
Roy 74
Sean 74
Shak@@ 74
Still 74
Swiss 74
Vog@@ 74
Wes@@ 74
Wide 74
acher 74
company 74
development 74
dic 74
dur@@ 74
emon 74
gin 74
good 74
har 74
ij@@ 74
kon@@ 74
neutr@@ 74
odia 74
phin 74
player 74
rin 74
say 74
sch 74
sman 74
ticus 74
tum@@ 74
tz 74
undtrack 74
versi@@ 74
wind 74
yu@@ 74
ະ@@ 74
》 74
れ@@ 74
チ@@ 74
ュ@@ 74
主@@ 74
時@@ 74
都@@ 74
～ 74
1536 73
1565 73
1572 73
1758 73
1759 73
274 73
334 73
Adv@@ 73
Alg@@ 73
Bass 73
Bobby 73
Cann@@ 73
Clim@@ 73
Douglas 73
Gall@@ 73
Gur@@ 73
Hamilton 73
Haz@@ 73
Identi@@ 73
Jor@@ 73
Ken 73
Kno@@ 73
Lun@@ 73
MW 73
Orth@@ 73
Princ@@ 73
RCA 73
Ross 73
Sek@@ 73
Stic@@ 73
Tax@@ 73
Theater 73
Yor@@ 73
agar 73
alis@@ 73
aly 73
apon 73
berry 73
bie 73
bir@@ 73
break@@ 73
drug 73
educ@@ 73
eline 73
elt 73
esser 73
grandi@@ 73
igh 73
kn@@ 73
mos 73
non 73
oking 73
ovich 73
points 73
prec@@ 73
product 73
pros@@ 73
red@@ 73
san 73
stock 73
tai 73
unk 73
web@@ 73
สงค@@ 73
あ@@ 73
つ@@ 73
を@@ 73
唐@@ 73
校@@ 73
行@@ 73
1607 72
1615 72
1678 72
45.@@ 72
Big@@ 72
Bishop 72
By@@ 72
Canadian 72
Carolina 72
Catherine 72
Cus@@ 72
Dan 72
Defense 72
Hart 72
Jose@@ 72
Karen 72
Kot@@ 72
Lav@@ 72
Lit@@ 72
Mart@@ 72
Mb@@ 72
Nelson 72
Progr@@ 72
Programm@@ 72
Rib@@ 72
Ris@@ 72
Rome 72
Satur@@ 72
Scr@@ 72
Soc@@ 72
Stra@@ 72
Virginia 72
Warri@@ 72
XT 72
Xbox 72
Yok@@ 72
Zealand 72
agu@@ 72
aise 72
alum 72
amer@@ 72
amework 72
anum 72
being 72
bloc@@ 72
chia 72
dial 72
dial@@ 72
eder@@ 72
election 72
enter 72
esian 72
fon@@ 72
hai 72
inger@@ 72
las 72
lu 72
lus@@ 72
mania 72
noc@@ 72
nus 72
oidea 72
oir 72
onas 72
opp@@ 72
ornis 72
part@@ 72
pound 72
programming 72
standard 72
tab@@ 72
tar 72
union 72
yal@@ 72
yle 72
½ 72
î 72
คัญ 72
ทรัพ@@ 72
김@@ 72
97@@ 71
Atlantic 71
Aud@@ 71
Cinema 71
Claude 71
December 71
Far 71
Fif@@ 71
Forces 71
Gul@@ 71
Hog@@ 71
Jay@@ 71
Jon 71
Kath@@ 71
Kid@@ 71
Kun@@ 71
Lak@@ 71
Lind@@ 71
Lower 71
Mob@@ 71
Motor@@ 71
NY@@ 71
Netflix 71
Neu@@ 71
Num@@ 71
October 71
Posi@@ 71
Protection 71
Roll 71
acking 71
alogue 71
anne 71
been 71
cyc@@ 71
democ@@ 71
dres@@ 71
ece 71
ended 71
eness 71
ered 71
event 71
fel@@ 71
gan@@ 71
hyp@@ 71
iliz@@ 71
ilus 71
isia 71
location 71
lut@@ 71
mind 71
osaurus 71
page 71
perf@@ 71
pit@@ 71
project 71
qi 71
represent@@ 71
terminal 71
tum 71
ulu 71
vention 71
ì@@ 71
ရ@@ 71
ី 71
ズ@@ 71
十@@ 71
0.0 70
1623 70
1658 70
1713 70
312 70
400@@ 70
47,@@ 70
Asi@@ 70
Bour@@ 70
Britain 70
Chir@@ 70
Cog@@ 70
Continental 70
Daw@@ 70
Dean 70
Dendro@@ 70
Gon@@ 70
Grace 70
Heli@@ 70
Ich@@ 70
Juli@@ 70
Lorraine 70
NC 70
Neb@@ 70
Oro@@ 70
Oscar 70
Pand@@ 70
Rural 70
Sco@@ 70
Spain 70
Telec@@ 70
Train 70
Turner 70
USD 70
abr@@ 70
amoto 70
ares 70
bass@@ 70
bis@@ 70
chemical 70
ck@@ 70
combin@@ 70
consci@@ 70
dow 70
eda 70
edi 70
endi@@ 70
eni@@ 70
father 70
fle@@ 70
gel@@ 70
heat 70
ised 70
itt 70
kar 70
mond 70
nak@@ 70
nam 70
odo@@ 70
ograp@@ 70
onna 70
orb@@ 70
post 70
problem 70
ska 70
subs@@ 70
tax@@ 70
venti@@ 70
vot@@ 70
ə@@ 70
त@@ 70
တ@@ 70
。 70
ョ@@ 70
祖@@ 70
魔@@ 70
1555 69
1637 69
314 69
331 69
Around 69
Austral@@ 69
Batman 69
Brand@@ 69
Brid@@ 69
Dad@@ 69
Dav@@ 69
Diego 69
Gamb@@ 69
Guy@@ 69
Hin@@ 69
Hit 69
Ian 69
Las 69
Ludwig 69
Og@@ 69
Polic@@ 69
Programme 69
Publishing 69
Racing 69
Rho@@ 69
Sag@@ 69
Sas@@ 69
Source 69
Species 69
Start 69
Yosh@@ 69
access 69
aring 69
ause 69
beta 69
bol 69
cer 69
complete 69
density 69
depres@@ 69
direct 69
district 69
electric 69
eption 69
error 69
eze 69
fare 69
five 69
hair 69
host 69
hot 69
illar@@ 69
inga 69
ises 69
isha 69
ismo 69
iz 69
jav@@ 69
map@@ 69
mean 69
nation 69
okie 69
onom@@ 69
orial 69
polog@@ 69
regular 69
secondary 69
ston 69
symp@@ 69
thai 69
tron 69
vic@@ 69
wald 69
watch 69
wich 69
years 69
ē@@ 69
ư@@ 69
ː 69
วิจาร@@ 69
有@@ 69
인@@ 69
1618 68
1672 68
1779 68
Bo 68
Bron@@ 68
Call@@ 68
Chrom@@ 68
Chu@@ 68
Circuit 68
Dy@@ 68
EE 68
Es 68
Expl@@ 68
GR@@ 68
Gene 68
Gig@@ 68
Hed@@ 68
Igu@@ 68
KS 68
Main@@ 68
Mong@@ 68
Mov@@ 68
Mum@@ 68
Nec@@ 68
Neo 68
Netherlands 68
Nicolas 68
Norman 68
Reich@@ 68
Rick 68
Sau@@ 68
Tac@@ 68
Univers@@ 68
aks 68
anch@@ 68
atis@@ 68
bak@@ 68
bu 68
cross 68
dule 68
elly 68
fast 68
fe 68
foot 68
ga@@ 68
glob@@ 68
gol@@ 68
hao 68
hil 68
history 68
imm@@ 68
inia 68
ional 68
kW 68
lah 68
ldwide 68
nen 68
now 68
partic@@ 68
plasma 68
pole 68
pos 68
quer@@ 68
rt 68
sters 68
transfer 68
travel 68
tronics 68
ull 68
ult 68
wara 68
ylus 68
ơ 68
ผลิ@@ 68
ມ@@ 68
ວ@@ 68
ອ@@ 68
† 68
⊕ 68
」@@ 68
字@@ 68
孝@@ 68
阮@@ 68
1525 67
1556 67
1597 67
1628 67
1638 67
Anton@@ 67
Beijing 67
Bureau 67
CPU 67
Chic@@ 67
Chil@@ 67
Citi@@ 67
Coupe 67
Dod@@ 67
FS 67
Flor@@ 67
Fron@@ 67
How@@ 67
Kaw@@ 67
Kos@@ 67
Larry 67
Ni 67
Oil 67
Peg@@ 67
Student 67
TT@@ 67
UF@@ 67
Wak@@ 67
Well@@ 67
Wind@@ 67
ako 67
ando 67
asha 67
ask@@ 67
aurus 67
bind@@ 67
cardi@@ 67
cath@@ 67
cher@@ 67
country 67
drive 67
elo@@ 67
ement@@ 67
eton 67
final 67
fix@@ 67
ician 67
ills 67
information 67
ishing 67
lows 67
nu 67
oty@@ 67
pair 67
pet@@ 67
pora 67
quad@@ 67
ram@@ 67
rhy@@ 67
rian 67
rine 67
selection 67
teau 67
tec@@ 67
ven 67
ɪ 67
μ@@ 67
φ@@ 67
န@@ 67
ノ@@ 67
史@@ 67
군@@ 67
1559 66
1641 66
1665 66
Abu 66
Andr@@ 66
Atom@@ 66
Boeing 66
Cec@@ 66
Ere@@ 66
Explorer 66
Fed@@ 66
Fin 66
Forbes 66
Gri@@ 66
Inst@@ 66
Jew@@ 66
Kad@@ 66
Lad@@ 66
Lane 66
Lut@@ 66
Produ@@ 66
Rou@@ 66
Sant@@ 66
September 66
Terminal 66
Vladimir 66
Ya@@ 66
anyon 66
atha 66
bid@@ 66
canal 66
computer 66
dier 66
distance 66
esi 66
esses 66
ext@@ 66
following 66
glass 66
ht 66
hua 66
iday 66
inflam@@ 66
inj@@ 66
istan 66
ju 66
lex 66
mile 66
miss@@ 66
mu 66
open@@ 66
oting 66
pac@@ 66
political 66
pool 66
research 66
rou@@ 66
shop 66
theastern 66
ving 66
voc@@ 66
was@@ 66
west 66
wn@@ 66
yat@@ 66
へ@@ 66
九@@ 66
朱@@ 66
1571 65
1611 65
1667 65
AK 65
Arg@@ 65
Because 65
Cape 65
Chal@@ 65
Contemporary 65
Duc@@ 65
Elite 65
Grant 65
Hep@@ 65
Holland 65
Jas@@ 65
July 65
Leon 65
Margaret 65
Marqu@@ 65
Miller 65
Minister 65
Personal 65
Russell 65
Steven 65
Sti@@ 65
Survey 65
Taiwan 65
Tetr@@ 65
Tos@@ 65
Wayne 65
ables 65
apa 65
aud 65
ball@@ 65
bow 65
cia 65
culus 65
ems 65
ener@@ 65
enes 65
finished 65
forward 65
head@@ 65
icks 65
identi@@ 65
identity 65
iner@@ 65
inking 65
iver 65
jum@@ 65
kill 65
ld@@ 65
lec@@ 65
nit@@ 65
ocer@@ 65
oked 65
olith@@ 65
pain 65
pseud@@ 65
related 65
sang 65
sei 65
signal 65
tel 65
tering 65
trong 65
vid@@ 65
ymn@@ 65
÷ 65
ć@@ 65
ី@@ 65
េ@@ 65
書@@ 65
藏@@ 65
重@@ 65
音@@ 65
（ 65
1583 64
1612 64
1626 64
1629 64
1645 64
1722 64
1735 64
46.@@ 64
96@@ 64
Angel@@ 64
Artem@@ 64
Bryan 64
Card@@ 64
Chang 64
Chry@@ 64
Euc@@ 64
FK 64
Hi 64
Ivan 64
Len@@ 64
Lept@@ 64
Maurice 64
Muhammad 64
Nova 64
Oblast 64
Patr@@ 64
Phil 64
Rice 64
Serge@@ 64
Stock 64
Tang 64
These 64
Wood 64
abil@@ 64
acu@@ 64
aded 64
ago@@ 64
alam@@ 64
alt 64
ander 64
clusive 64
condi@@ 64
cru@@ 64
dem 64
dor 64
ean@@ 64
ells 64
ente 64
flav@@ 64
full 64
hand 64
ien 64
illo 64
inner 64
insula 64
jan 64
mono@@ 64
nat@@ 64
nos 64
object 64
pin 64
rise 64
road 64
stell@@ 64
sup@@ 64
tax 64
termin@@ 64
thre@@ 64
tial 64
tida 64
tras@@ 64
urai 64
Р@@ 64
ສ@@ 64
  64
プ@@ 64
昌@@ 64
사@@ 64
원@@ 64
1632 63
1662 63
1756 63
451 63
46,@@ 63
48,@@ 63
BB@@ 63
BP 63
Bis@@ 63
Capr@@ 63
Compos@@ 63
Corps 63
Defin@@ 63
Encyclo@@ 63
Ferr@@ 63
Free@@ 63
Gang 63
Gom@@ 63
Guang@@ 63
Heritage 63
Hop 63
Ind@@ 63
Joan 63
Kamp@@ 63
Manager 63
Nick@@ 63
Ober@@ 63
Real@@ 63
Rog@@ 63
Rush 63
Shim@@ 63
Sydney 63
Walker 63
activity 63
ahi 63
aji 63
angu@@ 63
ases 63
association 63
awards 63
bach 63
bodies 63
camp@@ 63
cha@@ 63
court 63
cription 63
curr@@ 63
cyclo@@ 63
dam@@ 63
dance 63
dei 63
dt 63
eb 63
ected 63
ecture 63
ei@@ 63
eter@@ 63
eur 63
graph@@ 63
great 63
igo 63
iker 63
ives 63
leyball 63
once 63
ores 63
pag@@ 63
phyllum 63
pun@@ 63
rag@@ 63
rid 63
scr@@ 63
she 63
ski@@ 63
special 63
sport 63
tit@@ 63
trach@@ 63
ud 63
wick 63
Ō 63
ฅ 63
ザ@@ 63
セ@@ 63
侯@@ 63
縣@@ 63
藤@@ 63
조@@ 63
1616 62
1670 62
1718 62
1724 62
1745 62
Ado@@ 62
Blan@@ 62
Bot 62
Brun@@ 62
Chevrolet 62
Chr@@ 62
Differ@@ 62
Early 62
Flam@@ 62
HK 62
Hand 62
Iz@@ 62
Light@@ 62
Nielsen 62
Night@@ 62
Oli@@ 62
Orlando 62
Phone 62
RN 62
Rah@@ 62
Rak@@ 62
Rif@@ 62
Saw@@ 62
Scot@@ 62
Second@@ 62
Sis@@ 62
Statis@@ 62
Tin@@ 62
UA 62
UK@@ 62
USS 62
Valent@@ 62
Vas@@ 62
Yan@@ 62
after 62
alan@@ 62
alists 62
amin 62
apr@@ 62
arms 62
ativ@@ 62
axis 62
bium 62
bound 62
cot@@ 62
dings 62
distribution 62
entum 62
eon@@ 62
eto 62
even 62
front 62
hot@@ 62
ically 62
icient 62
iders 62
ingham 62
iron 62
kov 62
lard 62
lon 62
mah@@ 62
may@@ 62
olor 62
onium 62
onym@@ 62
otis 62
phr@@ 62
ps@@ 62
repe@@ 62
rod@@ 62
sburg 62
sil 62
sta 62
toral 62
ums 62
uni 62
uno 62
unter@@ 62
vor@@ 62
wi 62
à@@ 62
ː@@ 62
ε@@ 62
ר@@ 62
ة@@ 62
ْ@@ 62
ช่ว@@ 62
ល@@ 62
ハ@@ 62
情@@ 62
昭@@ 62
經@@ 62
風@@ 62
1601 61
1704 61
1727 61
45,@@ 61
AIDS 61
Assist@@ 61
Bible 61
Brach@@ 61
Bus 61
Dame 61
Dennis 61
Deutsche 61
Educ@@ 61
Gard@@ 61
Georgia 61
Harmon@@ 61
Hob@@ 61
Josh 61
Mikha@@ 61
Motors 61
Pig@@ 61
Pra@@ 61
RD 61
Range 61
Sieg@@ 61
Spr@@ 61
Staff 61
Symp@@ 61
Syst@@ 61
Te 61
Traf@@ 61
Tul@@ 61
Wall@@ 61
abol@@ 61
agan 61
anti 61
artic@@ 61
aven 61
aven@@ 61
aza 61
bank 61
bec@@ 61
bis 61
boat 61
character 61
comput@@ 61
coordin@@ 61
corpor@@ 61
cue 61
dil@@ 61
eil 61
eins 61
engineering 61
executive 61
fall 61
file 61
fluor@@ 61
fro@@ 61
genus 61
hap@@ 61
idential 61
ief 61
igan 61
imp@@ 61
internal 61
international 61
kom@@ 61
lop@@ 61
mont 61
oki 61
pose 61
quadr@@ 61
rif@@ 61
sn@@ 61
status 61
trag@@ 61
ufac@@ 61
uku 61
û 61
ý 61
ž 61
ັ@@ 61
က@@ 61
こ@@ 61
ち@@ 61
て@@ 61
ビ@@ 61
康@@ 61
愛@@ 61
日本@@ 61
梁@@ 61
章@@ 61
英@@ 61
親@@ 61
성@@ 61
아@@ 61
1624 60
1627 60
1636 60
1702 60
1752 60
1753 60
1764 60
Abr@@ 60
Airways 60
Ann 60
Archi@@ 60
Aston 60
Ble@@ 60
Carl@@ 60
Chev@@ 60
Clark 60
Commer@@ 60
Fa@@ 60
Gas 60
Get@@ 60
Graham 60
Horiz@@ 60
IGN 60
Int@@ 60
Isab@@ 60
Kag@@ 60
Michel 60
Midd@@ 60
Mind@@ 60
NR@@ 60
Ng@@ 60
Oliver 60
Olympi@@ 60
Orch@@ 60
PF 60
Pale@@ 60
Raf@@ 60
Rain@@ 60
Renaissance 60
Rest@@ 60
Robin 60
Sad@@ 60
Sent@@ 60
Sty@@ 60
Thir@@ 60
Trinity 60
Trou@@ 60
Villa 60
Voy@@ 60
Wolf 60
abad 60
aliz@@ 60
ao@@ 60
ario 60
bab@@ 60
chan 60
clin@@ 60
content 60
division 60
dong 60
eno 60
ero@@ 60
esp@@ 60
far@@ 60
fasci@@ 60
fun@@ 60
geb@@ 60
hip@@ 60
ias 60
igu@@ 60
ip 60
ique 60
izo@@ 60
lang 60
linked 60
loss@@ 60
lus 60
mak@@ 60
multiple 60
online 60
person 60
sar 60
shire 60
skin 60
spr@@ 60
subst@@ 60
tes@@ 60
tri 60
true 60
ulin 60
urban 60
verl@@ 60
with@@ 60
yel@@ 60
zh@@ 60
ś 60
ω@@ 60
ศูน@@ 60
‌@@ 60
え@@ 60
っ@@ 60
ー 60
信@@ 60
古@@ 60
如@@ 60
妃@@ 60
赤@@ 60
越@@ 60
魏@@ 60
한@@ 60
10000 59
1697 59
1746 59
Andrea 59
Astronom@@ 59
Barr@@ 59
Baz@@ 59
Bh@@ 59
Cant@@ 59
Christ@@ 59
Cole 59
Cran@@ 59
Dus@@ 59
Fon@@ 59
Harvard 59
Herbert 59
Investig@@ 59
Jennifer 59
Ka 59
Kent 59
Mail 59
Mang@@ 59
Manuel 59
Mim@@ 59
Moder@@ 59
Mountains 59
NATO 59
NY 59
Natur@@ 59
Naval 59
Neil 59
Oxy@@ 59
Poli@@ 59
Pos@@ 59
Rail 59
Rey 59
Set@@ 59
Sound@@ 59
Tou@@ 59
UB 59
Ug@@ 59
Vik@@ 59
Wid@@ 59
ainst 59
anatom@@ 59
anner 59
asaki 59
avi 59
borough 59
cent 59
cible 59
cla@@ 59
club 59
cus@@ 59
dead 59
edition 59
edo 59
fen@@ 59
get@@ 59
hara 59
hid@@ 59
ied 59
ingo 59
ions 59
iria 59
lane 59
lines 59
many 59
myth@@ 59
nan 59
nic@@ 59
ophora 59
opping 59
otom@@ 59
placement 59
poli@@ 59
ran 59
refer@@ 59
result 59
score 59
set@@ 59
shell 59
shot 59
soft 59
tation 59
tiz@@ 59
ult@@ 59
umi@@ 59
wal 59
walk 59
what 59
wr@@ 59
young 59
ú@@ 59
ş 59
א@@ 59
र@@ 59
ạ 59
ミ@@ 59
將@@ 59
永@@ 59
玉@@ 59
陵@@ 59
경@@ 59
신@@ 59
Arab 58
Bloom@@ 58
Cath@@ 58
Chi 58
Con 58
Conservation 58
Dag@@ 58
Did@@ 58
EF@@ 58
Eve 58
Fan@@ 58
Gn@@ 58
Grande 58
Ground 58
Horse 58
Iv@@ 58
Jung 58
KK 58
Lati@@ 58
Lis@@ 58
Louise 58
Morris 58
Osaka 58
Parker 58
Ray@@ 58
Re 58
Robinson 58
Scottish 58
Slo@@ 58
Sonic 58
Termin@@ 58
Tow@@ 58
Trig@@ 58
Upon 58
aces 58
aching 58
alan 58
alty 58
amba 58
ames 58
antha 58
arp@@ 58
asp@@ 58
bes 58
bio@@ 58
chu@@ 58
church 58
circuit 58
dens@@ 58
direc@@ 58
endra 58
esh 58
esque 58
hav@@ 58
hin 58
iP@@ 58
ig 58
iles 58
inian 58
kw@@ 58
large 58
lich@@ 58
mas 58
ml 58
nes@@ 58
pass 58
play@@ 58
porter 58
pris@@ 58
protein@@ 58
resistance 58
review 58
ride 58
sak@@ 58
thly 58
tru@@ 58
working 58
« 58
Š 58
ɪ@@ 58
́@@ 58
ა@@ 58
ゴ@@ 58
園@@ 58
野@@ 58
1654 57
1711 57
1757 57
31.@@ 57
95@@ 57
Aeg@@ 57
Agriculture 57
Arnold 57
Ast@@ 57
Bish@@ 57
Bog@@ 57
Cau@@ 57
Ces@@ 57
Chik@@ 57
Corpor@@ 57
Fuj@@ 57
HL 57
Independ@@ 57
Joy 57
Justin 57
Kennedy 57
Lucas 57
Math@@ 57
Miami 57
Mine 57
Morgan 57
Navy 57
Officer 57
Part@@ 57
Perry 57
Price 57
Rhodes 57
Rich 57
Rob 57
Ron 57
Stand 57
Stuart 57
Sultan 57
Then 57
Transport 57
Tun@@ 57
UV 57
Was 57
adies 57
alls 57
amo 57
annon 57
aug@@ 57
both 57
down@@ 57
elling 57
engu@@ 57
eva 57
ffer 57
frequency 57
gir@@ 57
icon@@ 57
illi 57
inst@@ 57
isis 57
issa 57
isters 57
kok 57
lag@@ 57
lep@@ 57
mem@@ 57
morph@@ 57
opl@@ 57
osum 57
oti@@ 57
pers 57
proj@@ 57
qua 57
ques 57
retr@@ 57
sius 57
stat@@ 57
tah@@ 57
taya 57
tie 57
tour 57
traditional 57
vet 57
vision 57
without 57
yak@@ 57
ylon 57
ν@@ 57
ه@@ 57
ِ@@ 57
ລ@@ 57
•@@ 57
石@@ 57
黄@@ 57
1621 56
1652 56
1669 56
1690 56
1751 56
Bav@@ 56
Berry 56
Bruno 56
Cri@@ 56
Donn@@ 56
EB@@ 56
EMI 56
Finale 56
Gand@@ 56
Gary 56
Georg 56
Govern@@ 56
Harper 56
Historia 56
Hugh 56
Kak@@ 56
Kenneth 56
Kob@@ 56
Lec@@ 56
Lisa 56
Manchester 56
Maxim@@ 56
Mei 56
Papa 56
Roland 56
SG 56
Satell@@ 56
Sud@@ 56
Syl@@ 56
Tang@@ 56
Ted@@ 56
Vietnam 56
Vincent 56
Yar@@ 56
Yun@@ 56
Zer@@ 56
ale@@ 56
ampli@@ 56
anted 56
call 56
chan@@ 56
comm@@ 56
compon@@ 56
div@@ 56
early 56
elin 56
elo 56
enh@@ 56
enty 56
gan 56
gery 56
gon 56
icia 56
idi 56
isher 56
itu@@ 56
ive 56
kii 56
late 56
lave 56
lead 56
lik@@ 56
magnitude 56
median 56
message 56
modern 56
nos@@ 56
original 56
ott 56
oul 56
perten@@ 56
sum 56
swit@@ 56
tide 56
transport 56
unction 56
university 56
van@@ 56
yok@@ 56
yph@@ 56
َ 56
သ@@ 56
千@@ 56
定@@ 56
島@@ 56
省@@ 56
者@@ 56
1.0@@ 55
1633 55
1635 55
1664 55
1703 55
1712 55
1721 55
1754 55
1769 55
6000 55
Advis@@ 55
Beta 55
Bull 55
Cho@@ 55
Commonwealth 55
Format 55
GPS 55
Gel@@ 55
German@@ 55
Gib@@ 55
Had@@ 55
Hous@@ 55
Ish@@ 55
Ket@@ 55
Kod@@ 55
Latin 55
Leslie 55
Mar 55
Metro@@ 55
Monte 55
Moscow 55
OT@@ 55
Pati@@ 55
Pho@@ 55
Purple 55
SU 55
Scotland 55
Tech 55
Tech@@ 55
Tir@@ 55
Yuk@@ 55
acous@@ 55
aku@@ 55
blog@@ 55
cad@@ 55
cancer 55
compl@@ 55
conf@@ 55
counter@@ 55
deep 55
edra 55
ehouse 55
enne 55
gor@@ 55
him 55
home 55
ican 55
iji 55
imin@@ 55
inning 55
lug@@ 55
office 55
ograph@@ 55
ois@@ 55
one@@ 55
phy 55
playing 55
pp 55
ram 55
regul@@ 55
speed 55
tou@@ 55
tox@@ 55
ular@@ 55
uss 55
utt@@ 55
virtual 55
xe 55
ő 55
क@@ 55
ດ@@ 55
គ@@ 55
よ@@ 55
ン 55
事@@ 55
娘@@ 55
政@@ 55
￼@@ 55
1535 54
1595 54
1659 54
ARC 54
Adams 54
Adri@@ 54
Airbus 54
Ale@@ 54
Autonom@@ 54
BAS@@ 54
Buz@@ 54
Civ@@ 54
Cla@@ 54
Dais@@ 54
Denmark 54
Evangel@@ 54
Gru@@ 54
Hex@@ 54
Kane 54
LGBT 54
Langu@@ 54
Lap@@ 54
Laz@@ 54
Luke 54
MVP 54
Ohio 54
Ou@@ 54
Rolling 54
Ruby 54
Rud@@ 54
SK 54
Solo 54
Thompson 54
Veter@@ 54
Zel@@ 54
Zi@@ 54
acks 54
alo 54
anak@@ 54
atra 54
att 54
bass 54
boys 54
dale 54
dar@@ 54
degree 54
drop 54
eca 54
entation 54
ever@@ 54
functions 54
fusion 54
gy@@ 54
inn 54
isation 54
isc@@ 54
isch 54
iscus 54
iter 54
kh 54
kle@@ 54
know 54
leaf 54
lock@@ 54
may 54
middle 54
ming 54
mis 54
nav@@ 54
nis@@ 54
oder@@ 54
omin@@ 54
orium 54
pan 54
pass@@ 54
pep@@ 54
plane 54
propri@@ 54
protoc@@ 54
rection 54
sav@@ 54
serv@@ 54
seudo@@ 54
sir@@ 54
stic@@ 54
title 54
total 54
tral 54
triang@@ 54
tures 54
va@@ 54
voice 54
§ 54
δ@@ 54
ל@@ 54
มิถุ@@ 54
สวย@@ 54
เสธ 54
ພ@@ 54
™ 54
ギ@@ 54
機@@ 54
秋@@ 54
空@@ 54
羅@@ 54
見@@ 54
記@@ 54
郎@@ 54
面@@ 54
나@@ 54
자@@ 54
1,2 53
1596 53
1619 53
1634 53
1684 53
1747 53
201@@ 53
32@@ 53
Alli@@ 53
Alternative 53
Arab@@ 53
Ba 53
Baker 53
Catholic 53
Chand@@ 53
Christi@@ 53
Const@@ 53
Creek 53
Dipl@@ 53
Dum@@ 53
Dut@@ 53
Emma 53
Epi@@ 53
Gregory 53
Gulf 53
Hall@@ 53
Hik@@ 53
Hungarian 53
Imp@@ 53
Kis@@ 53
Lincoln 53
Lum@@ 53
Luna 53
Michelle 53
Ministry 53
ND 53
Nice 53
Pow@@ 53
Punk 53
Verte@@ 53
abi 53
against 53
ags 53
aq 53
bay 53
before 53
bility 53
bow@@ 53
burn 53
clo@@ 53
cons@@ 53
dir 53
einer 53
elli@@ 53
etto 53
exper@@ 53
fat@@ 53
government 53
graphi@@ 53
half 53
ict 53
ilar 53
inda 53
island 53
kir@@ 53
liber@@ 53
lowers 53
olla 53
ologist 53
orian 53
orn@@ 53
otyp@@ 53
peak 53
pec@@ 53
phil@@ 53
pping 53
proced@@ 53
pur 53
rant 53
rat@@ 53
rell 53
rog@@ 53
shan 53
short 53
solution 53
sun 53
thia 53
ucture 53
upp@@ 53
vern@@ 53
xa 53
yin 53
²@@ 53
ŋ@@ 53
คอมมิวนิ@@ 53
สนุน 53
დ@@ 53
რ@@ 53
≈ 53
♥ 53
二@@ 53
式@@ 53
景@@ 53
楊@@ 53
良@@ 53
리@@ 53
의@@ 53
1655 52
1736 52
1771 52
Activ@@ 52
Amazon 52
BAFTA 52
Bran@@ 52
CB 52
Carp@@ 52
Constitution 52
Eri@@ 52
Ga 52
Gaz@@ 52
Illus@@ 52
Italy 52
Jav@@ 52
Jessica 52
Julius 52
Kind 52
Kus@@ 52
Lands@@ 52
Lex@@ 52
Lod@@ 52
Marco 52
Myanmar 52
NASA 52
Nord@@ 52
Ric@@ 52
Sin 52
Sr@@ 52
Ut@@ 52
Willi@@ 52
acked 52
aign 52
aint 52
amer 52
anced 52
arm 52
atio 52
bor 52
border 52
building 52
cent@@ 52
children 52
community 52
cos 52
dice 52
essing 52
frac@@ 52
give 52
grac@@ 52
health 52
hen 52
hop 52
icky 52
idence 52
ifer@@ 52
ikawa 52
iler 52
kei 52
kov@@ 52
lam 52
leuc@@ 52
mine 52
money 52
nem@@ 52
nitr@@ 52
odor@@ 52
ologi@@ 52
port@@ 52
ppen 52
quot@@ 52
segment 52
spon@@ 52
times 52
traf@@ 52
tz@@ 52
ui@@ 52
urb@@ 52
utes 52
viv@@ 52
ycl@@ 52
yr 52
َ@@ 52
เวียต 52
ん 52
夏@@ 52
孫@@ 52
慶@@ 52
最@@ 52
會@@ 52
本@@ 52
治@@ 52
洪@@ 52
秀@@ 52
수@@ 52
종@@ 52
1517 51
190@@ 51
7000 51
Amer@@ 51
Apollo 51
App 51
Carey 51
Coch@@ 51
DDR 51
Dani@@ 51
Diana 51
Emmy 51
Eul@@ 51
Faith 51
Ferrari 51
Glo@@ 51
Golf 51
Hugo 51
Lob@@ 51
Lus@@ 51
Marc 51
Massachusetts 51
Mexico 51
Nich@@ 51
Ped@@ 51
Progres@@ 51
Quar@@ 51
Rac@@ 51
Randy 51
Roberts 51
Sa 51
Sanc@@ 51
Sev@@ 51
Shel@@ 51
Stud@@ 51
Sut@@ 51
Sv@@ 51
Tag@@ 51
UB@@ 51
Wik@@ 51
acia 51
affin@@ 51
alo@@ 51
behavior 51
carbon 51
cau@@ 51
chn@@ 51
classical 51
defin@@ 51
dez 51
dha 51
esch@@ 51
eu 51
eve 51
fas@@ 51
fo 51
food 51
fu 51
gul@@ 51
inclu@@ 51
intermedi@@ 51
lav 51
lav@@ 51
mar 51
mel 51
mir 51
olf 51
pay@@ 51
print@@ 51
rank 51
run 51
ses@@ 51
tay@@ 51
tique 51
too 51
trad@@ 51
tron@@ 51
vas 51
š@@ 51
ος 51
מ@@ 51
ຄ@@ 51
ệ 51
七@@ 51
东@@ 51
民@@ 51
部@@ 51
 51
1709 50
After@@ 50
Aug@@ 50
Bibli@@ 50
Boul@@ 50
Carlo 50
Chin@@ 50
Cycl@@ 50
East@@ 50
Emily 50
Eugene 50
Evans 50
Fili@@ 50
Fred 50
Ha 50
Holding 50
Hungary 50
Ide@@ 50
Legacy 50
Lib@@ 50
Mercury 50
Mk 50
Normal 50
Palm 50
Plaza 50
Rocky 50
Sri 50
UC 50
Woods 50
^@@ 50
absol@@ 50
agi 50
ague 50
amu 50
anza 50
apia 50
atia 50
aton 50
azzo 50
berger 50
boy@@ 50
celer@@ 50
choice 50
chu 50
combination 50
cost 50
did@@ 50
dio 50
dog@@ 50
dot 50
during 50
edes 50
ego 50
eler 50
endo 50
episode 50
ern 50
ests 50
got@@ 50
haz@@ 50
hibi@@ 50
igi 50
igns 50
indi@@ 50
irs 50
ism@@ 50
itas 50
japon@@ 50
kab@@ 50
key@@ 50
ley@@ 50
lif@@ 50
little 50
medium 50
members 50
mix@@ 50
nea 50
neb@@ 50
oga 50
otop@@ 50
ought 50
pad@@ 50
pei 50
qu 50
sag@@ 50
sex@@ 50
sibility 50
sional 50
skaya 50
sol 50
supr@@ 50
sv@@ 50
syst@@ 50
tap@@ 50
tea 50
third 50
thy 50
uj@@ 50
usal 50
ushi 50
uts 50
vent 50
wen 50
yne 50
ש@@ 50
म@@ 50
นิวยอร์@@ 50
สาท 50
អ@@ 50
› 50
区@@ 50
思@@ 50
惠@@ 50
松@@ 50
語@@ 50
1710 49
1748 49
381 49
Aaron 49
Administr@@ 49
Analy@@ 49
Anton 49
Burg@@ 49
Diff@@ 49
Eddie 49
Hawaii 49
Hey@@ 49
Hier@@ 49
Highway 49
Illustr@@ 49
Ja@@ 49
Jol@@ 49
Julian 49
Lay@@ 49
Luis 49
Moz@@ 49
Pref@@ 49
Rap 49
Reh@@ 49
Soy@@ 49
Speci@@ 49
Stanley 49
Sten@@ 49
Stewart 49
Temp@@ 49
Terry 49
Tet@@ 49
Tut@@ 49
Volkswagen 49
aan 49
aining 49
aircraft 49
alla 49
alog@@ 49
amura 49
arn 49
auer 49
auth@@ 49
autom@@ 49
beat 49
bed 49
carbon@@ 49
dark 49
dev@@ 49
dow@@ 49
due 49
ented 49
formal 49
govern@@ 49
grade 49
groups 49
iku 49
jiang 49
kia 49
kit 49
metropolit@@ 49
nis 49
pod@@ 49
pour 49
prov@@ 49
ret 49
ria 49
rig@@ 49
rik 49
rostr@@ 49
ru 49
senti@@ 49
sten@@ 49
tank 49
tii 49
trau@@ 49
ues 49
uri@@ 49
uria 49
uro 49
uter 49
uu 49
uz 49
wei 49
wit@@ 49
yes 49
yla 49
» 49
γ@@ 49
ฝรั่ง@@ 49
စ@@ 49
ṭ 49
†@@ 49
仙@@ 49
何@@ 49
御@@ 49
物@@ 49
聖@@ 49
順@@ 49
구@@ 49
장@@ 49
지@@ 49
후@@ 49
1708 48
1715 48
1742 48
1743 48
1767 48
64,@@ 48
93.@@ 48
AZ 48
Acro@@ 48
Agricul@@ 48
Ahmed 48
Andreas 48
Arth@@ 48
Beno@@ 48
Bever@@ 48
Butler 48
Chef 48
Cit@@ 48
Constitu@@ 48
Cooper 48
Danny 48
Elisabeth 48
Hart@@ 48
Hermann 48
Hong@@ 48
Hunt 48
Ins@@ 48
Jersey 48
Leonard 48
Los@@ 48
Lux@@ 48
Marina 48
Milan 48
Newcastle 48
Nokia 48
Param@@ 48
Path@@ 48
Population 48
Prov@@ 48
Rogers 48
Stein@@ 48
Tennis 48
Test@@ 48
Wallace 48
Walt 48
Wer@@ 48
Yo 48
alition 48
anian 48
anthro@@ 48
arti@@ 48
avo 48
band@@ 48
bine 48
borne 48
calcul@@ 48
correc@@ 48
ections 48
ede 48
elop@@ 48
embr@@ 48
eux 48
forming 48
icide 48
idem@@ 48
ieu 48
imi@@ 48
jer@@ 48
lair 48
lay@@ 48
macul@@ 48
minute 48
mouth 48
ms@@ 48
nership 48
onne 48
oug@@ 48
oun 48
party 48
pir@@ 48
quality 48
raf@@ 48
rest@@ 48
rose 48
society 48
story 48
temple 48
thi 48
ucci 48
uses 48
ved 48
western 48
อื่น@@ 48
ื่อนที่ 48
ຣ@@ 48
ả 48
動@@ 48
宣@@ 48
怪@@ 48
族@@ 48
木@@ 48
源@@ 48
火@@ 48
黒@@ 48
공@@ 48
주@@ 48
1719 47
1730 47
Alfa 47
Brom@@ 47
Crow@@ 47
Del 47
Dj@@ 47
Ernest 47
Foc@@ 47
Gab@@ 47
Gay 47
Gilbert 47
Grand@@ 47
Harold 47
Hell@@ 47
Illinois 47
Inform@@ 47
Isaac 47
Johannes 47
Julia 47
Kem@@ 47
Leb@@ 47
Nad@@ 47
Nam 47
Piz@@ 47
Polish 47
Prob@@ 47
Reichs@@ 47
Rudolf 47
Sonn@@ 47
Swedish 47
Ted 47
Tor 47
Un 47
Uran@@ 47
Us@@ 47
Zy@@ 47
ait@@ 47
ansen 47
cen@@ 47
cian 47
cler@@ 47
cum@@ 47
egr@@ 47
elds 47
enza 47
erk@@ 47
essed 47
eval 47
fi 47
fran@@ 47
glo@@ 47
grave 47
ladi@@ 47
lement 47
library 47
lio 47
look 47
obr@@ 47
olus 47
ording 47
orith@@ 47
phis 47
piece 47
ricane 47
sat@@ 47
step 47
sz@@ 47
thought 47
tified 47
trich@@ 47
unga 47
vie@@ 47
volume 47
ה@@ 47
แคนา@@ 47
ຊ@@ 47
利@@ 47
名@@ 47
奇@@ 47
師@@ 47
慈@@ 47
1728 46
8000 46
Amy 46
Barcelona 46
Berg@@ 46
Bes@@ 46
Canal 46
Caribbean 46
Constant@@ 46
Diam@@ 46
Emil 46
Gem@@ 46
Heinrich 46
Hos@@ 46
Intel@@ 46
Jen@@ 46
Joel 46
Kav@@ 46
Kl@@ 46
Laura 46
Liberal 46
Lip@@ 46
Lo 46
Lorenzo 46
Miles 46
Nacional 46
November 46
Pear@@ 46
Philippe 46
Phillips 46
Po 46
Quart@@ 46
Rig@@ 46
Secretary 46
Sno@@ 46
Sport@@ 46
Tex@@ 46
Via 46
Week@@ 46
Xu@@ 46
Yang@@ 46
Yes@@ 46
adr@@ 46
ample 46
appy 46
aser 46
associated 46
atives 46
azine 46
beau@@ 46
bee 46
bli@@ 46
comple@@ 46
contrast 46
dal 46
dal@@ 46
dell 46
different 46
dos 46
dot@@ 46
ec 46
edral 46
ership 46
este 46
eves 46
evich 46
expression 46
hir@@ 46
ications 46
ided 46
iled 46
inet 46
inform@@ 46
ires 46
lich 46
lier 46
mess@@ 46
met 46
mith@@ 46
numbers 46
oc 46
oda 46
ogo 46
olo 46
onica 46
orbit@@ 46
orch@@ 46
players 46
positi@@ 46
prom@@ 46
radio 46
rang 46
rich 46
round@@ 46
spl@@ 46
television 46
tension 46
upon 46
vote 46
yev 46
zum@@ 46
λ 46
λ@@ 46
σ@@ 46
ό@@ 46
ທ@@ 46
ァ@@ 46
台@@ 46
府@@ 46
戰@@ 46
曹@@ 46
楚@@ 46
汉@@ 46
泰@@ 46
立@@ 46
電@@ 46
국@@ 46
서@@ 46
씨@@ 46
；@@ 46
･@@ 46
$@@ 45
1622 45
1656 45
Adol@@ 45
Alb@@ 45
Arabic 45
Augustus 45
Belle 45
Caes@@ 45
Chase 45
Cob@@ 45
Cra@@ 45
Cum@@ 45
Defence 45
Drag@@ 45
Dres@@ 45
Euphor@@ 45
Fiction 45
Franklin 45
Fred@@ 45
Gli@@ 45
Globe 45
Hok@@ 45
Itali@@ 45
Kai 45
Khmer 45
Kok@@ 45
Liberty 45
Lil 45
Madison 45
Newton 45
Olympics 45
Parall@@ 45
Philadelphia 45
Pietro 45
Pix@@ 45
Sans@@ 45
Sierra 45
Spider 45
Susan 45
Tach@@ 45
Tib@@ 45
Tum@@ 45
UE@@ 45
Wag@@ 45
Wiz@@ 45
aber 45
again 45
airs 45
alit@@ 45
alle@@ 45
ante@@ 45
apar@@ 45
arding 45
around 45
aver@@ 45
bay@@ 45
called 45
capital 45
dan@@ 45
domin@@ 45
edy 45
eks 45
enge 45
far 45
fes@@ 45
gin@@ 45
guard 45
hak@@ 45
hall 45
heimer 45
icked 45
ilo 45
indica 45
ink@@ 45
isol@@ 45
isten 45
itude 45
mom@@ 45
organization 45
personal 45
plant@@ 45
possible 45
pren@@ 45
prof@@ 45
qui 45
rez 45
rights 45
spatial 45
sper@@ 45
stor@@ 45
tem 45
tly 45
tournament 45
versity 45
yang 45
zed 45
zu@@ 45
è@@ 45
มนี 45
สรุ@@ 45
ီ@@ 45
ボ@@ 45
全@@ 45
同@@ 45
吳@@ 45
园@@ 45
湖@@ 45
色@@ 45
소@@ 45
1761 44
199@@ 44
Abdul 44
Annie 44
BI 44
Bach@@ 44
Basketball 44
Bath@@ 44
But 44
CNN 44
Capit@@ 44
Collins 44
Das 44
Delta 44
Dil@@ 44
Fos@@ 44
Found@@ 44
Giuseppe 44
Gramm@@ 44
Greg@@ 44
Initiative 44
Isle 44
Italia 44
Kenny 44
Koch 44
Member 44
Music@@ 44
Muslim 44
Promotion 44
RAF 44
Represent@@ 44
Rit@@ 44
Riv@@ 44
SSR 44
Sever@@ 44
Su 44
Temper@@ 44
Tig@@ 44
Trophy 44
Vor@@ 44
adem@@ 44
agen 44
alog 44
anni 44
aper 44
application 44
atal 44
ater@@ 44
atis 44
atom 44
auss 44
bai 44
birth 44
ces@@ 44
cles 44
constant 44
could 44
dar 44
digit@@ 44
ede@@ 44
edit@@ 44
els@@ 44
emot@@ 44
emy 44
ener 44
ers@@ 44
escope 44
eses 44
events 44
failure 44
fam@@ 44
feld 44
games 44
gie 44
got 44
heur@@ 44
human@@ 44
iana 44
ishes 44
iter@@ 44
iva 44
jar@@ 44
kig@@ 44
kil@@ 44
lex@@ 44
lim 44
lingu@@ 44
marine 44
mass@@ 44
medical 44
miz@@ 44
nati@@ 44
obj@@ 44
official 44
oter 44
phi 44
polit@@ 44
ranking 44
real@@ 44
rest 44
same 44
sii 44
suc@@ 44
sur 44
target 44
these 44
training 44
tribu@@ 44
ude 44
unger 44
urg 44
yar@@ 44
zhou 44
®@@ 44
Å 44
ń 44
ʰ@@ 44
δ 44
ω 44
ی@@ 44
य@@ 44
स@@ 44
เศส 44
္@@ 44
ြ@@ 44
ភ@@ 44
℃ 44
≥ 44
○@@ 44
ケ@@ 44
嘉@@ 44
多@@ 44
夫@@ 44
廣@@ 44
徳@@ 44
敬@@ 44
是@@ 44
犬@@ 44
鉄@@ 44
동@@ 44
시@@ 44
1631 43
1705 43
2,3 43
9000 43
Adi@@ 43
Ain 43
Aph@@ 43
Berkeley 43
Carr@@ 43
Communist 43
Cyr@@ 43
Develop@@ 43
Dick 43
Dick@@ 43
Ein@@ 43
Einstein 43
Felix 43
Gat@@ 43
Glob@@ 43
Greg 43
Guerr@@ 43
Guil@@ 43
Hut@@ 43
Indiana 43
Institut 43
Kay@@ 43
Manhattan 43
Mann@@ 43
Master@@ 43
Nau@@ 43
Ostr@@ 43
Owen 43
Parti@@ 43
Penn@@ 43
Pennsylvania 43
Ralph 43
Rav@@ 43
Rico 43
Route 43
Secre@@ 43
Section 43
Spin@@ 43
Spo@@ 43
Sund@@ 43
Thomson 43
Tus@@ 43
Vau@@ 43
Wild@@ 43
Ya 43
abstr@@ 43
adj@@ 43
ahan 43
analy@@ 43
anom@@ 43
attribu@@ 43
avia 43
ayn@@ 43
bro 43
bute 43
chir@@ 43
chus 43
cic@@ 43
commun@@ 43
concept 43
concert 43
cost@@ 43
craft 43
dies 43
diff@@ 43
disc 43
dition 43
ead 43
ectiv@@ 43
eira 43
eled 43
elis 43
enko 43
erie 43
esse 43
etry 43
exchange 43
found 43
hii 43
hir 43
hul@@ 43
infin@@ 43
kes 43
kind 43
kur@@ 43
lap 43
loss 43
male 43
obs 43
olig@@ 43
ologies 43
onius 43
oque 43
par 43
ped 43
portation 43
prob@@ 43
required 43
rev@@ 43
ries 43
rio 43
ror@@ 43
rum 43
seg@@ 43
tav@@ 43
tification 43
uda 43
uer@@ 43
until 43
urt 43
vation 43
xes 43
zon@@ 43
А@@ 43
р@@ 43
อาวาส 43
ຳ@@ 43
ပ@@ 43
ះ@@ 43
ố 43
す@@ 43
仮@@ 43
宇@@ 43
里@@ 43
1686 42
1723 42
1737 42
Bry@@ 42
Bu 42
Bush 42
Cay@@ 42
Chim@@ 42
Cic@@ 42
Craig 42
Distribution 42
En 42
Et@@ 42
Form@@ 42
Formula 42
Georges 42
Glenn 42
Hip 42
Hod@@ 42
Industries 42
Ivan@@ 42
Lang 42
Lom@@ 42
Lup@@ 42
Marshall 42
Nah@@ 42
Nih@@ 42
Oh@@ 42
Phar@@ 42
Pist@@ 42
Pok@@ 42
Salv@@ 42
Stan@@ 42
Stur@@ 42
Tot@@ 42
Wen@@ 42
actions 42
ained 42
aland 42
alin 42
aller@@ 42
ange@@ 42
anim@@ 42
approach 42
assy 42
ata@@ 42
atu 42
autonom@@ 42
bing 42
chant 42
cili@@ 42
circum@@ 42
controlled 42
cot 42
emis@@ 42
expres@@ 42
figh@@ 42
fin 42
former 42
gau@@ 42
gem@@ 42
global 42
hier@@ 42
iche 42
ife 42
insky 42
ishment 42
kho@@ 42
kul@@ 42
material 42
nin 42
och 42
omen@@ 42
ows 42
popular 42
prime 42
release 42
ros 42
sel 42
sources 42
tigen 42
treatment 42
variable 42
woman 42
yas@@ 42
zen@@ 42
Ø 42
Δ@@ 42
َّ@@ 42
न@@ 42
สนับ@@ 42
ใ 42
ไ 42
∞ 42
≠ 42
め@@ 42
华@@ 42
合@@ 42
特@@ 42
相@@ 42
知@@ 42
郭@@ 42
鄭@@ 42
間@@ 42
릉@@ 42
1732 41
Aircraft 41
Antoine 41
Arist@@ 41
Buck@@ 41
Bundes@@ 41
Chan@@ 41
Critical 41
Dollar 41
Drake 41
Ellen 41
Fellow 41
Game@@ 41
Gior@@ 41
Gonz@@ 41
Griff@@ 41
Hag@@ 41
Hannah 41
Helen 41
Henn@@ 41
Historical 41
ICC 41
Initi@@ 41
Jag@@ 41
January 41
KV@@ 41
Kara 41
Khal@@ 41
Kou@@ 41
Kre@@ 41
Liz@@ 41
Malay@@ 41
Malcolm 41
Mama 41
Mart 41
Murray 41
Muz@@ 41
NCAA 41
Ow@@ 41
Philippines 41
Pope 41
Reserve 41
Ronald 41
Santiago 41
Se 41
Sit@@ 41
Tad@@ 41
Tin 41
VV@@ 41
Vill@@ 41
Wii 41
Wis@@ 41
Wright 41
acon@@ 41
adaptation 41
allen 41
apped 41
aver 41
capit@@ 41
char 41
cord@@ 41
council 41
cultural 41
determin@@ 41
director 41
diz@@ 41
elements 41
entry 41
etz@@ 41
four@@ 41
geome@@ 41
gres@@ 41
hp 41
hy 41
igg@@ 41
ina@@ 41
iner 41
inge 41
ische 41
khe@@ 41
knowledge 41
laws 41
ld 41
least 41
legi@@ 41
length 41
leo 41
mart@@ 41
mation 41
mill@@ 41
moun@@ 41
omys 41
onga 41
opti@@ 41
optim@@ 41
ore@@ 41
oru 41
ovi@@ 41
ozo@@ 41
pen 41
physical 41
ris 41
rix 41
saf@@ 41
scre@@ 41
silver 41
sm 41
stag@@ 41
states 41
sty@@ 41
summer 41
support 41
tag 41
thro@@ 41
together 41
toms 41
tres 41
tropical 41
uba 41
work@@ 41
ហ@@ 41
⊙ 41
ツ@@ 41
ベ@@ 41
死@@ 41
衛@@ 41
隆@@ 41
다@@ 41
1675 40
1716 40
1717 40
1725 40
1729 40
Abraham 40
Bob@@ 40
Bon 40
Broadway 40
Ce@@ 40
Chen@@ 40
Clem@@ 40
Colin 40
Comm@@ 40
Cong@@ 40
Dok@@ 40
Edwin 40
Fitz@@ 40
Franc@@ 40
Fried@@ 40
Front@@ 40
Grim@@ 40
Hali@@ 40
Hend@@ 40
Honor@@ 40
Houston 40
Jon@@ 40
Kang@@ 40
Koh@@ 40
Libre 40
Minute 40
NAT@@ 40
Nancy 40
Ne 40
Peak 40
Philippine 40
Port@@ 40
Priv@@ 40
Rosa 40
Ski@@ 40
Unic@@ 40
Va@@ 40
Venice 40
Vice 40
Vista 40
Warren 40
Zep@@ 40
aar 40
adis 40
aler 40
alled 40
alphab@@ 40
alth 40
apor@@ 40
bes@@ 40
business 40
camp 40
cis 40
classi@@ 40
connected 40
contact 40
dent@@ 40
did 40
dn 40
dose 40
dre 40
eles 40
example 40
films 40
fri@@ 40
gers 40
gr 40
gris 40
height 40
hl 40
how 40
ib 40
iff 40
illed 40
illon 40
inter 40
isp@@ 40
lay 40
lis@@ 40
magn@@ 40
mathemati@@ 40
mobile 40
oring 40
otes 40
outh 40
ovsky 40
population 40
quanti@@ 40
quez 40
refl@@ 40
ren 40
ried 40
shu@@ 40
sible 40
solar 40
sten 40
storage 40
strateg@@ 40
stric@@ 40
subj@@ 40
substanti@@ 40
them@@ 40
tice 40
toler@@ 40
transmission 40
universal 40
vertebr@@ 40
vol 40
water@@ 40
website 40
yar 40
Ç 40
ë@@ 40
Ω 40
ί@@ 40
รวจ 40
ធ@@ 40
♣ 40
け@@ 40
ル 40
前@@ 40
条@@ 40
歌@@ 40
理@@ 40
起@@ 40
通@@ 40
郡@@ 40
雲@@ 40
도@@ 40
라@@ 40
민@@ 40
1744 39
192@@ 39
198@@ 39
Alc@@ 39
Alt@@ 39
Amateur 39
Anat@@ 39
Andre@@ 39
Artic@@ 39
Asp@@ 39
Baptist 39
Cali@@ 39
Cameron 39
Chung 39
Cola 39
Cox 39
Dram@@ 39
Dud@@ 39
February 39
Fernando 39
Freder@@ 39
Fru@@ 39
Gram@@ 39
Hist@@ 39
Hou@@ 39
Hung@@ 39
Id@@ 39
Israel 39
Jus@@ 39
Lai 39
Lam 39
Liverpool 39
Maf@@ 39
Marsh@@ 39
Michigan 39
Miguel 39
Mt 39
Native 39
Non 39
Oliv@@ 39
Palm@@ 39
Pis@@ 39
Poland 39
Put@@ 39
Roll@@ 39
Senate 39
Spencer 39
Sweden 39
Ta 39
Utr@@ 39
Vid@@ 39
Vin@@ 39
Ward 39
Wy@@ 39
Xavier 39
Za@@ 39
abri@@ 39
afric@@ 39
alisation 39
allo 39
alp@@ 39
antes 39
app 39
archi@@ 39
arom@@ 39
atten@@ 39
awi 39
biot@@ 39
chester 39
cour@@ 39
cule 39
dep@@ 39
echt 39
eg 39
emi 39
ensen 39
epis@@ 39
fan 39
fit@@ 39
fres@@ 39
friend@@ 39
fuel 39
icket 39
idar@@ 39
independent 39
influ@@ 39
inv@@ 39
jan@@ 39
lins 39
liter@@ 39
lot@@ 39
maker 39
maxim@@ 39
neigh@@ 39
oci@@ 39
oj@@ 39
omorph@@ 39
osaur@@ 39
owski 39
oz 39
param@@ 39
peace 39
pit 39
pol 39
potenti@@ 39
present 39
promot@@ 39
rad 39
ratic 39
rea 39
resist@@ 39
ris@@ 39
rit 39
screen 39
simple 39
soph@@ 39
stret@@ 39
talk 39
tible 39
tries 39
trom@@ 39
uga 39
ulum 39
ups 39
vey 39
visible 39
warf 39
week 39
zer@@ 39
ğ 39
̍ 39
ρ@@ 39
ב@@ 39
بن 39
นิตย@@ 39
มนุ@@ 39
็กซิ@@ 39
ច@@ 39
ោ@@ 39
ំ@@ 39
‹ 39
せ@@ 39
ヒ@@ 39
仲@@ 39
恭@@ 39
沙@@ 39
社@@ 39
虎@@ 39
韓@@ 39
고@@ 39
기@@ 39
선@@ 39
제@@ 39
1668 38
1733 38
1749 38
Amsterdam 38
Anh@@ 38
Art@@ 38
Avi@@ 38
Bill@@ 38
Brah@@ 38
Brow@@ 38
Caesar 38
Campbell 38
Cha 38
Dau@@ 38
Dul@@ 38
Gill@@ 38
Hardy 38
Heb@@ 38
Historic 38
Jab@@ 38
Jamie 38
Jewish 38
Juni@@ 38
Kle@@ 38
Label 38
Labor 38
Lie@@ 38
Lig@@ 38
Lil@@ 38
Martin@@ 38
Nicol@@ 38
Nicole 38
Och@@ 38
Paran@@ 38
Peter@@ 38
Problem 38
Prof@@ 38
Raz@@ 38
Reich 38
Roh@@ 38
Santos 38
Schools 38
Senior 38
Soccer 38
Some 38
Spor@@ 38
Sullivan 38
Their 38
Trag@@ 38
Tu 38
Wend@@ 38
` 38
acr@@ 38
alie 38
amar@@ 38
areas 38
assen 38
atan 38
bora 38
coin 38
critical 38
dost@@ 38
ege 38
eka 38
enburg 38
enda 38
enf@@ 38
enna 38
fem@@ 38
flat 38
forcement 38
fron@@ 38
given 38
greater 38
horizontal 38
imus 38
ineer 38
inside 38
label 38
lau@@ 38
liqui@@ 38
magazine 38
mare 38
mata 38
mini 38
nation@@ 38
nature 38
nov@@ 38
novel 38
olan 38
olar@@ 38
oms 38
onau@@ 38
ood 38
oso 38
oss 38
paras@@ 38
pas 38
peti@@ 38
pio 38
played 38
plen@@ 38
ppen@@ 38
propor@@ 38
protection 38
province 38
punc@@ 38
reco@@ 38
rei 38
relative 38
royal 38
solo 38
stan@@ 38
thin 38
uch 38
wind@@ 38
within 38
xima 38
za@@ 38
İ 38
ʻ 38
م@@ 38
ូ@@ 38
ḥ 38
ネ@@ 38
ペ@@ 38
ヤ@@ 38
使@@ 38
場@@ 38
夢@@ 38
寧@@ 38
度@@ 38
殿@@ 38
玄@@ 38
界@@ 38
胡@@ 38
興@@ 38
貞@@ 38
超@@ 38
龙@@ 38
영@@ 38
 38
1577 37
1731 37
187@@ 37
Ail@@ 37
Americans 37
Athletic 37
Austrian 37
Bourbon 37
Brad@@ 37
Buffalo 37
Buil@@ 37
Charts 37
Cun@@ 37
Est 37
Fleet 37
Florence 37
Garr@@ 37
Greece 37
Gustav 37
Gymnasium 37
Harbor 37
Harris 37
Hau@@ 37
Internationale 37
Inv@@ 37
John@@ 37
Josef 37
Ling@@ 37
Marcus 37
Meh@@ 37
Mitchell 37
Morrison 37
Nig@@ 37
Nobel 37
Pant@@ 37
Poin@@ 37
Rail@@ 37
Ron@@ 37
Sand 37
Sant 37
Sham@@ 37
Sic@@ 37
Superior 37
Swift 37
Tan 37
Tob@@ 37
Trail 37
Ves@@ 37
Vinc@@ 37
WI 37
aders 37
adia 37
aff 37
alar@@ 37
alba 37
anol 37
anos 37
appar@@ 37
aret 37
asu 37
atern@@ 37
azz@@ 37
bell 37
blu@@ 37
cari@@ 37
carry 37
cel 37
charge 37
classification 37
conqu@@ 37
device 37
dii 37
echn@@ 37
eder 37
effects 37
ehr@@ 37
eir@@ 37
elius 37
elt@@ 37
entin 37
erc@@ 37
eries 37
etr@@ 37
ets@@ 37
evo 37
fan@@ 37
flight 37
foc@@ 37
fru@@ 37
garden 37
hill 37
ineers 37
initi@@ 37
interest 37
isco 37
jur@@ 37
kug@@ 37
later 37
letin 37
lida 37
lun@@ 37
mam@@ 37
metr@@ 37
minister 37
movie 37
nan@@ 37
obe 37
otive 37
ources 37
pandemic 37
pedi@@ 37
record 37
recur@@ 37
scher@@ 37
secret 37
session 37
storm 37
tad@@ 37
technology 37
thers 37
topo@@ 37
trade 37
uca 37
unge 37
valu@@ 37
want 37
wear 37
wise 37
zia 37
ǐ@@ 37
ǔ@@ 37
ν 37
χ@@ 37
С@@ 37
ј@@ 37
ر@@ 37
》@@ 37
ひ@@ 37
む@@ 37
や@@ 37
ェ@@ 37
佛@@ 37
力@@ 37
可@@ 37
子 37
臣@@ 37
葉@@ 37
阳@@ 37
雄@@ 37
문@@ 37
세@@ 37
우@@ 37
110@@ 36
Ahmad 36
Baptiste 36
Between 36
Bond 36
Buch@@ 36
Byr@@ 36
Cardi@@ 36
Carmen 36
Ced@@ 36
Clarke 36
Cler@@ 36
Compan@@ 36
Costa 36
Dak@@ 36
Dob@@ 36
Falls 36
Fern@@ 36
Fit@@ 36
Haj@@ 36
Hospit@@ 36
Hub@@ 36
Hug@@ 36
Hymen@@ 36
Jal@@ 36
Jos@@ 36
Lug@@ 36
Luigi 36
Madame 36
McCar@@ 36
Munich 36
Murphy 36
Nikolai 36
Organisation 36
Orleans 36
Paral@@ 36
Patricia 36
Rapha@@ 36
Reed 36
Site 36
Solomon 36
Sophie 36
Sour@@ 36
Status 36
Synchron@@ 36
Syr@@ 36
Territory 36
Ts@@ 36
Twitter 36
Von 36
Will@@ 36
Wolf@@ 36
acht 36
acting 36
actus 36
actylus 36
ael 36
ails 36
alli 36
amber 36
andi 36
anie 36
aning 36
arc 36
atures 36
bius 36
bles 36
bottom 36
cens@@ 36
climate 36
diction 36
ehr 36
eko 36
equilibri@@ 36
ested 36
formed 36
harmon@@ 36
hart 36
hit@@ 36
ifolia 36
inver@@ 36
isto 36
kum@@ 36
lake 36
led@@ 36
lee 36
lov@@ 36
lyc@@ 36
making 36
marketing 36
nt 36
oca 36
oner 36
osoma 36
otte 36
ovo 36
pal 36
partment 36
pend@@ 36
pid@@ 36
pler 36
received 36
recognition 36
rein@@ 36
report 36
sole 36
sou@@ 36
sports 36
sule 36
temperature 36
testing 36
theme 36
tul@@ 36
ulo 36
ussia 36
utions 36
vert 36
vie 36
vier 36
vies 36
yellow 36
zar@@ 36
Ā 36
ע@@ 36
လ@@ 36
ầ 36
█@@ 36
ど@@ 36
六@@ 36
内@@ 36
劇@@ 36
县@@ 36
建@@ 36
志@@ 36
村@@ 36
洋@@ 36
紅@@ 36
車@@ 36
阿@@ 36
飛@@ 36
상@@ 36
하@@ 36
1676 35
1734 35
1741 35
186@@ 35
Ami@@ 35
Bradley 35
Chat@@ 35
Chuck 35
Cook 35
Edmund 35
Edwards 35
Ensemble 35
Erik 35
Europa 35
Ex 35
Ez@@ 35
Frank@@ 35
Gabri@@ 35
Gle@@ 35
Guerrero 35
Gw@@ 35
Hudson 35
Ibn 35
Islam 35
Jes@@ 35
Just@@ 35
Kash@@ 35
Lamp@@ 35
Mahar@@ 35
Mark@@ 35
Micha@@ 35
Minnesota 35
Missouri 35
Nationale 35
Nis@@ 35
Olymp@@ 35
Pam@@ 35
Physi@@ 35
Saints 35
Salon 35
Shah@@ 35
Shan@@ 35
Suff@@ 35
Whitney 35
Wolfgang 35
abi@@ 35
acteri@@ 35
agne 35
alities 35
anas 35
anese 35
animal 35
argent@@ 35
atin@@ 35
atta 35
azi@@ 35
bad 35
borg 35
branch 35
clav@@ 35
conv@@ 35
cript 35
delta 35
dex 35
diam@@ 35
diffusion 35
drama 35
dru@@ 35
education 35
egel 35
ellus 35
enti 35
estone 35
evi 35
fera 35
fiction 35
fis@@ 35
foot@@ 35
heavy 35
hit 35
hn 35
iling 35
itter 35
iwa 35
lon@@ 35
lor 35
luc@@ 35
medal 35
mons 35
mov@@ 35
norm@@ 35
obus 35
ose@@ 35
oter@@ 35
performance 35
pron@@ 35
quel@@ 35
rab@@ 35
radical 35
resc@@ 35
rew 35
rul@@ 35
sau@@ 35
security 35
sie 35
sites 35
stan 35
studies 35
tainment 35
technique 35
teo 35
tered 35
terminus 35
tham 35
ungs@@ 35
unique 35
uto 35
write 35
«@@ 35
Ü 35
ε 35
я@@ 35
ष@@ 35
หนังส@@ 35
უ@@ 35
′@@ 35
ォ@@ 35
保@@ 35
傳@@ 35
化@@ 35
宝@@ 35
将@@ 35
常@@ 35
普@@ 35
百@@ 35
盛@@ 35
線@@ 35
草@@ 35
路@@ 35
长@@ 35
陈@@ 35
부@@ 35
스@@ 35
연@@ 35
윤@@ 35
1726 34
Admiral 34
Ambro@@ 34
Apostol@@ 34
Arn@@ 34
Auguste 34
Ave@@ 34
Budapest 34
Byzant@@ 34
Cao 34
Commander 34
Cres@@ 34
Cruz 34
Denis 34
Eugen@@ 34
Fisher 34
Fou@@ 34
Fritz 34
Gad@@ 34
Gardens 34
Guinea 34
Gut@@ 34
Helena 34
Hockey 34
Jackie 34
Jeremy 34
Jose 34
Jupiter 34
Klein 34
Kyle 34
Later 34
Lloyd 34
Mali@@ 34
Materi@@ 34
Mek@@ 34
Mug@@ 34
Nash 34
Naz@@ 34
Nog@@ 34
Notes 34
Ord@@ 34
Railroad 34
Rangers 34
Reser@@ 34
Rin@@ 34
Rouge 34
SB@@ 34
Sali@@ 34
Scho@@ 34
Schwar@@ 34
Semin@@ 34
Shaw 34
Slav@@ 34
Stanford 34
Tec@@ 34
Tennessee 34
Tigers 34
Trans 34
Tuc@@ 34
Tyler 34
Viv@@ 34
WM 34
Watson 34
acon 34
along@@ 34
amia 34
among 34
ampa 34
anon 34
anto 34
arum 34
ased 34
azi 34
azu 34
bad@@ 34
berto 34
bud@@ 34
casting 34
clim@@ 34
cn 34
coup 34
cred@@ 34
distr@@ 34
dius 34
eba 34
ench@@ 34
forms 34
fruit 34
gain 34
geh@@ 34
gender 34
gens 34
hib@@ 34
hik@@ 34
hop@@ 34
ifer 34
iku@@ 34
ilg@@ 34
inten@@ 34
iso 34
kari 34
kit@@ 34
lak@@ 34
lap@@ 34
leb@@ 34
letter 34
lou@@ 34
mach@@ 34
main@@ 34
majority 34
math 34
mother 34
navig@@ 34
neo 34
nith@@ 34
obi 34
oming 34
outs 34
ouv@@ 34
oya 34
por 34
prises 34
private 34
pro 34
quet 34
raph 34
rom 34
speech 34
spo@@ 34
stab@@ 34
stre@@ 34
supply 34
tari 34
temper@@ 34
tent@@ 34
tically 34
tir@@ 34
tower 34
tram@@ 34
trat@@ 34
trees 34
udo 34
uso 34
uster 34
vat@@ 34
visi@@ 34
voir 34
weather 34
wild 34
Æ 34
æ@@ 34
Č 34
ę 34
Ś 34
ˈ@@ 34
η@@ 34
บัลล@@ 34
อยู่กับ 34
ག@@ 34
ែ@@ 34
ṇ 34
ῖ@@ 34
ピ@@ 34
喜@@ 34
在@@ 34
徐@@ 34
波@@ 34
蘭@@ 34
貴@@ 34
集@@ 34
185@@ 33
195@@ 33
Atlas 33
Benn@@ 33
Brad 33
Brazil 33
Buff@@ 33
Christina 33
Chrys@@ 33
Clay 33
Cleveland 33
Conservat@@ 33
Contr@@ 33
Cord@@ 33
Dam 33
Delhi 33
Dunk@@ 33
Floyd 33
Fus@@ 33
Gav@@ 33
Hammer 33
Hamp@@ 33
Iran 33
Janet 33
Kansas 33
Kate 33
Kub@@ 33
Macedonia 33
Marc@@ 33
Metall@@ 33
Mohammad 33
Monum@@ 33
Mozart 33
Nile 33
Ost@@ 33
Pak@@ 33
Pat 33
Pedro 33
Philharmon@@ 33
Powell 33
Rag@@ 33
Republican 33
Resol@@ 33
Restaur@@ 33
Sach@@ 33
Schw@@ 33
Shakespeare 33
Sheikh 33
Tik@@ 33
Tommy 33
Toronto 33
Tribunal 33
Turkish 33
Viktor 33
Westminster 33
XVI 33
Zak@@ 33
abo@@ 33
aden 33
anan 33
assa 33
associ@@ 33
auri 33
beck 33
bound@@ 33
cester 33
chang@@ 33
clar@@ 33
compar@@ 33
cules 33
days 33
electronic 33
embran@@ 33
enth 33
environment 33
erin 33
every 33
evidence 33
extrem@@ 33
fact 33
fat 33
fest 33
frag@@ 33
gest@@ 33
hang 33
hes@@ 33
hui 33
icop@@ 33
igen@@ 33
igner 33
iser 33
itzer 33
jet 33
largest 33
lati@@ 33
law@@ 33
lei 33
lery 33
lumin@@ 33
mai 33
neu@@ 33
northern 33
ogle 33
oper 33
ophyllum 33
orama 33
ospel 33
otion 33
pain@@ 33
pale@@ 33
para 33
patr@@ 33
phila 33
priv@@ 33
reci@@ 33
ril 33
sai 33
sam 33
sley 33
spin 33
stand 33
statis@@ 33
subject 33
sus@@ 33
transformation 33
vac@@ 33
vehicle 33
vocal 33
ween 33
ö@@ 33
ŏ 33
ɑ@@ 33
ʔ 33
і@@ 33
श@@ 33
்@@ 33
ตะวัน@@ 33
ູ@@ 33
ར@@ 33
ნ@@ 33
ខ@@ 33
ế 33
♠ 33
で@@ 33
出@@ 33
土@@ 33
堂@@ 33
梅@@ 33
業@@ 33
萬@@ 33
言@@ 33
進@@ 33
齊@@ 33
무@@ 33
박@@ 33
비@@ 33
안@@ 33
화@@ 33
）@@ 33
1738 32
Adrian 32
Alexandra 32
Anj@@ 32
Aragon 32
Arizona 32
Athens 32
Beethoven 32
Bonn@@ 32
Boulevard 32
Brig@@ 32
Brook@@ 32
Bung@@ 32
CAF 32
Capitol 32
Career 32
Carol 32
Catal@@ 32
Category 32
Claire 32
Commission@@ 32
Dami@@ 32
Eb@@ 32
GmbH 32
Harvey 32
Holmes 32
Inn 32
Inter 32
Jap@@ 32
Jeffrey 32
Jerusalem 32
Joachim 32
Keith 32
Labour 32
Lan 32
Lao 32
Ley@@ 32
Lili@@ 32
Lud@@ 32
Mati@@ 32
Mohammed 32
Municipal 32
Paulo 32
Peti@@ 32
Petit 32
Phili@@ 32
Portuguese 32
Ridge 32
Roberto 32
SQ@@ 32
Sega 32
Smack@@ 32
Stil@@ 32
Tamb@@ 32
Theodore 32
Tri 32
Trump 32
Unix 32
Vita 32
Wein@@ 32
acias 32
agents 32
aid@@ 32
alone 32
amour 32
ancement 32
anes 32
angel@@ 32
anni@@ 32
anot@@ 32
another 32
aving 32
ben 32
bourne 32
buc@@ 32
communication 32
construc@@ 32
contract 32
dee 32
deg@@ 32
deli@@ 32
discre@@ 32
display 32
dov@@ 32
ebe 32
elles 32
erson 32
escens 32
expos@@ 32
floor 32
fur 32
gang 32
goal 32
icola 32
icro@@ 32
impact 32
iris 32
iv 32
ival@@ 32
just 32
kap@@ 32
kara 32
kard 32
kies 32
kol@@ 32
lars 32
million 32
mixed 32
moder@@ 32
move 32
nic 32
offic@@ 32
onstr@@ 32
ophi@@ 32
orit@@ 32
othy 32
poin@@ 32
point@@ 32
present@@ 32
presented 32
producer 32
quir@@ 32
rak@@ 32
relations 32
releas@@ 32
resid@@ 32
ships 32
sid@@ 32
sier 32
stadt 32
stein@@ 32
thel@@ 32
thir@@ 32
those 32
tico 32
tienne 32
uck@@ 32
uit 32
ustr@@ 32
utu 32
verty 32
vill@@ 32
wers 32
³ 32
ñ@@ 32
œ 32
ʃ@@ 32
ن@@ 32
ដ@@ 32
ណ@@ 32
▪ 32
今@@ 32
作@@ 32
吉@@ 32
基@@ 32
外@@ 32
寶@@ 32
尹@@ 32
株@@ 32
殺@@ 32
老@@ 32
許@@ 32
顯@@ 32
香@@ 32
마@@ 32
유@@ 32
， 32
1.5@@ 31
Aber@@ 31
Agu@@ 31
Anast@@ 31
Aran@@ 31
Argentina 31
Bald@@ 31
Ban 31
Barb@@ 31
Beat@@ 31
Beng@@ 31
Benz@@ 31
Betty 31
Brigade 31
Brooklyn 31
Canton 31
Cly@@ 31
Coul@@ 31
Cricket 31
Eisen@@ 31
Farm 31
Flora 31
Gros@@ 31
Gum@@ 31
Indon@@ 31
Iran@@ 31
Kah@@ 31
Kais@@ 31
Kaiser 31
Kingston 31
Krish@@ 31
Kul@@ 31
Linda 31
Mab@@ 31
Moun@@ 31
NAS@@ 31
Olivier 31
Pete 31
Pittsburgh 31
Ptolem@@ 31
Reading 31
Reform 31
Rip@@ 31
Rous@@ 31
Said 31
Sebastian 31
Sind@@ 31
Sol 31
Sub 31
Tah@@ 31
Tradi@@ 31
Turk@@ 31
Vand@@ 31
Vig@@ 31
Wilhel@@ 31
above 31
ados 31
after@@ 31
agency 31
aia 31
alcohol 31
animation 31
anor 31
aps 31
aran 31
argum@@ 31
arry 31
asing 31
balance 31
bed@@ 31
bera 31
bishop 31
blog 31
bou@@ 31
cession 31
china 31
cum 31
dimen@@ 31
disambiguation 31
eign@@ 31
ellen@@ 31
emin@@ 31
emo 31
ension 31
equal 31
eres 31
evi@@ 31
explo@@ 31
fs 31
gee 31
girls 31
host@@ 31
inclus@@ 31
ingi 31
ird 31
ision@@ 31
items 31
lands@@ 31
lang@@ 31
lib@@ 31
maj@@ 31
manager 31
maximum 31
military 31
milli@@ 31
nee 31
never 31
nik@@ 31
note 31
observ@@ 31
onym 31
option 31
pharm@@ 31
plan 31
plot 31
progres@@ 31
ques@@ 31
rail 31
rang@@ 31
rap 31
ras 31
reference 31
regional 31
rement 31
rep@@ 31
rus@@ 31
saw 31
scor@@ 31
sein 31
seri@@ 31
solid@@ 31
sung 31
things 31
til 31
tista 31
topl@@ 31
tured 31
ub 31
uman 31
unci@@ 31
uti 31
valid@@ 31
vet@@ 31
wake 31
wir@@ 31
wth 31
ü@@ 31
м@@ 31
ּ@@ 31
ي@@ 31
นานา@@ 31
สื@@ 31
โ 31
ບ@@ 31
ས@@ 31
ἀ@@ 31
″ 31
だ@@ 31
ソ@@ 31
伝@@ 31
典@@ 31
別@@ 31
吴@@ 31
商@@ 31
始@@ 31
崔@@ 31
懿@@ 31
流@@ 31
烈@@ 31
蕭@@ 31
189@@ 30
2,4 30
Abd 30
Alexandria 30
Ans@@ 30
Banks 30
Buk@@ 30
CAR 30
Carol@@ 30
Celtic 30
Chau@@ 30
Cho 30
Clau@@ 30
Commons 30
Crom@@ 30
Deutsch@@ 30
Doh@@ 30
Edgar 30
Egyp@@ 30
Egypt 30
Emir@@ 30
Euph@@ 30
Formation 30
Gim@@ 30
Gren@@ 30
Gug@@ 30
Hammer@@ 30
Hein@@ 30
Horn 30
Inh@@ 30
Iowa 30
Jah@@ 30
Jake 30
Jonas 30
Joy@@ 30
KG 30
Khar@@ 30
Lionel 30
Louisiana 30
Maryland 30
Mih@@ 30
Mog@@ 30
Myth@@ 30
Nab@@ 30
Nath@@ 30
Nim@@ 30
Pall@@ 30
Puerto 30
SPD 30
Simpson 30
Sper@@ 30
Tay@@ 30
Territ@@ 30
Turn@@ 30
Ukraine 30
Yaz@@ 30
Zor@@ 30
abu 30
acer@@ 30
ador@@ 30
aik@@ 30
alc@@ 30
alter@@ 30
alu@@ 30
aman@@ 30
ambi@@ 30
amino 30
anya 30
arab@@ 30
ark 30
austral@@ 30
bet 30
bill 30
bour@@ 30
brand 30
brun@@ 30
bt 30
cali@@ 30
cant@@ 30
coming 30
command 30
control@@ 30
counter 30
crit@@ 30
crow@@ 30
cu 30
deon 30
desc@@ 30
dion 30
dir@@ 30
enci@@ 30
endi 30
erine 30
ession 30
estra 30
estruc@@ 30
eten@@ 30
expon@@ 30
fill 30
frey 30
here 30
hips 30
hosts 30
iet 30
iman 30
inci 30
ios@@ 30
issue 30
itan 30
izi@@ 30
kinson 30
leges 30
lington 30
mant@@ 30
migration 30
minim@@ 30
minimum 30
natur@@ 30
oba 30
obile 30
onen 30
onnaire 30
oux 30
pert 30
pf@@ 30
pore 30
portrait 30
prepar@@ 30
quin 30
respon@@ 30
rim 30
sat 30
sciences 30
sic@@ 30
soul 30
steel 30
street 30
strong@@ 30
studio 30
super 30
sych@@ 30
teenth 30
tenance 30
than@@ 30
tori@@ 30
urs@@ 30
vid 30
vidence 30
views 30
wine 30
yk@@ 30
yol@@ 30
zin@@ 30
zip 30
zir@@ 30
Т@@ 30
е@@ 30
ان@@ 30
ण@@ 30
া@@ 30
นโย@@ 30
ဝ@@ 30
ị 30
ゆ@@ 30
勝@@ 30
善@@ 30
官@@ 30
弘@@ 30
急@@ 30
手@@ 30
斗@@ 30
来@@ 30
賢@@ 30
남@@ 30
전@@ 30
．@@ 30
184@@ 29
188@@ 29
196@@ 29
197@@ 29
3,4 29
Adolf 29
Alexand@@ 29
Barbara 29
Bass@@ 29
Birmingham 29
Canterbury 29
Caroline 29
Chamber@@ 29
Chelsea 29
Colorado 29
Design@@ 29
Dmi@@ 29
Dub@@ 29
Element@@ 29
Elli@@ 29
Emmanuel 29
Erich 29
Estr@@ 29
Fischer 29
Flag@@ 29
Geoff@@ 29
Harrison 29
Hispan@@ 29
Infr@@ 29
Instagram 29
Jak@@ 29
Jakob 29
Journ@@ 29
Khali@@ 29
Leh@@ 29
Lieutenant 29
Luxembourg 29
Mant@@ 29
Material 29
Mey@@ 29
Mill 29
NHL 29
Nap@@ 29
Nel@@ 29
Ost 29
Paramount 29
Que@@ 29
Quer@@ 29
Raw@@ 29
Religi@@ 29
Sot@@ 29
Stade 29
Todd 29
Tud@@ 29
Uz@@ 29
Weib@@ 29
Welsh 29
Zan@@ 29
ahr@@ 29
ahu 29
ald@@ 29
alier 29
alised 29
aller 29
alternative 29
anor@@ 29
asse 29
atar 29
aup@@ 29
books 29
bright 29
capac@@ 29
caus@@ 29
charts 29
collection 29
condition 29
crist@@ 29
culp@@ 29
cup 29
day@@ 29
deriv@@ 29
direction 29
ebra 29
econom@@ 29
emann 29
enton 29
enus 29
eran 29
estyle 29
etz 29
extension 29
fasc@@ 29
fields 29
galax@@ 29
gel 29
gle 29
gom@@ 29
heav@@ 29
heit 29
held 29
icas 29
ield 29
igi@@ 29
ilidae 29
imming 29
inas 29
inch 29
itual 29
jon 29
kes@@ 29
lights 29
marks 29
needed 29
nel 29
ners 29
nine 29
nova 29
ob 29
odes@@ 29
oft 29
ologie 29
ombie 29
oney 29
pped 29
property 29
proxim@@ 29
psy@@ 29
pula 29
reality 29
released 29
resol@@ 29
revol@@ 29
saga 29
sci@@ 29
soon 29
stad 29
store 29
such 29
tains 29
took 29
transition 29
tura 29
umbo 29
umen 29
wall@@ 29
wid@@ 29
written 29
yard 29
ystal 29
zan 29
õ 29
ș 29
ή@@ 29
ον@@ 29
Б@@ 29
أَ@@ 29
ز@@ 29
द@@ 29
สปีชี@@ 29
ຫ@@ 29
ོ@@ 29
ဒ@@ 29
ჷ@@ 29
ṣ 29
そ@@ 29
・ 29
万@@ 29
中国@@ 29
伊@@ 29
你@@ 29
姫@@ 29
张@@ 29
溪@@ 29
茶@@ 29
董@@ 29
蘇@@ 29
話@@ 29
阪@@ 29
鬼@@ 29
방@@ 29
현@@ 29
． 29
： 29
179@@ 28
3500 28
Ab 28
Actu@@ 28
Agr@@ 28
Alek@@ 28
Aman@@ 28
Andrews 28
Barn@@ 28
Barth@@ 28
Benedic@@ 28
Blake 28
Bomb@@ 28
Boris 28
Cam 28
Chanc@@ 28
Congo 28
Cub@@ 28
Darwin 28
Davies 28
Dek@@ 28
Den 28
Denver 28
Derby 28
Din 28
Domen@@ 28
Dw@@ 28
Ehr@@ 28
Fah@@ 28
Galil@@ 28
Grig@@ 28
Grou@@ 28
Harr@@ 28
Herman 28
Hoh@@ 28
Hughes 28
Io@@ 28
Jesse 28
Jules 28
Kay 28
Lepto@@ 28
Ler@@ 28
Lynn 28
Mall@@ 28
Manila 28
Marcel 28
Margar@@ 28
Maya 28
Melbourne 28
Merr@@ 28
Montgomery 28
Nathan 28
Nept@@ 28
Oklahoma 28
Oregon 28
Organiz@@ 28
Parks 28
Pek@@ 28
Person 28
Pf@@ 28
Portugal 28
Pub@@ 28
Register 28
Ring@@ 28
Roth@@ 28
Schmidt 28
Sik@@ 28
Silver@@ 28
Stevens 28
Sur 28
Tek@@ 28
Ud@@ 28
Vivi@@ 28
abo 28
amed 28
ande 28
ank@@ 28
ared 28
arina 28
article 28
artist 28
assi 28
awa@@ 28
caud@@ 28
chap@@ 28
combined 28
concep@@ 28
county 28
develop@@ 28
directed 28
dum@@ 28
effic@@ 28
ellectu@@ 28
eras 28
eties 28
etti@@ 28
examin@@ 28
extra@@ 28
ft@@ 28
gil 28
gium 28
grand 28
gros@@ 28
help 28
horse 28
hours 28
impul@@ 28
inen 28
injury 28
inski 28
inson 28
invasi@@ 28
iture 28
jam@@ 28
kaya 28
kham 28
kis@@ 28
lear@@ 28
lets 28
loy@@ 28
lub 28
lug 28
museum 28
musical 28
nad 28
ocul@@ 28
opol@@ 28
oyle 28
philosophy 28
power@@ 28
products 28
records 28
reich 28
rim@@ 28
roy 28
ruption 28
sang@@ 28
secre@@ 28
soni 28
spar@@ 28
systemati@@ 28
techni@@ 28
templ@@ 28
train 28
trin@@ 28
uvar@@ 28
women 28
writer 28
Ó 28
ä@@ 28
ç@@ 28
ą 28
ǒ 28
κ@@ 28
ς 28
τ@@ 28
к@@ 28
، 28
ال@@ 28
الْ@@ 28
ل@@ 28
وَ 28
प@@ 28
ປ@@ 28
ິ@@ 28
ო@@ 28
、 28
わ@@ 28
ポ@@ 28
ム 28
ヨ@@ 28
丹@@ 28
令@@ 28
工@@ 28
撃@@ 28
教@@ 28
曲@@ 28
电视@@ 28
節@@ 28
紀@@ 28
身@@ 28
风@@ 28
魚@@ 28
광@@ 28
루@@ 28
의 28
최@@ 28
치@@ 28
1739 27
4,5 27
Agnes 27
Akh@@ 27
Alberto 27
Ambi@@ 27
Angelo 27
Aub@@ 27
Austr@@ 27
Bi 27
Bronze 27
Bund 27
Champ@@ 27
Charl@@ 27
Clinton 27
Corona 27
Dh@@ 27
Dioc@@ 27
Direction 27
Euro 27
Faz@@ 27
Geneva 27
Glad@@ 27
Glasgow 27
Gog@@ 27
Gust@@ 27
Gusta@@ 27
Hans@@ 27
Harv@@ 27
Hassan 27
His@@ 27
Hopkins 27
Julie 27
Leonardo 27
Luc 27
Lynch 27
Mack@@ 27
Madrid 27
Mau@@ 27
Mia 27
Monter@@ 27
Muk@@ 27
Nati@@ 27
Nil@@ 27
Norwegian 27
Rach@@ 27
Rachel 27
Religion 27
Ricardo 27
Ril@@ 27
Rober@@ 27
Sey@@ 27
Silva 27
Sofia 27
Stan 27
Stro@@ 27
Supre@@ 27
Teams 27
Ulrich 27
Universit@@ 27
Val 27
Victor@@ 27
Yer@@ 27
across 27
actress 27
adjacent 27
aggreg@@ 27
agh 27
amac@@ 27
aper@@ 27
assault 27
aten 27
audi@@ 27
aux@@ 27
average 27
bey 27
blind@@ 27
cano 27
capacity 27
centre 27
challenge 27
cht 27
circ@@ 27
civil 27
close 27
compati@@ 27
countries 27
ecia 27
eke 27
ele@@ 27
elimin@@ 27
emper@@ 27
ently 27
etc 27
eters 27
factors 27
fantas@@ 27
features 27
female 27
ffe 27
graduate 27
hid 27
hil@@ 27
his@@ 27
hn@@ 27
ici 27
igr@@ 27
ikh 27
immer 27
inners 27
ios 27
kee 27
laim@@ 27
letes 27
lett 27
lice 27
mani 27
mec@@ 27
nas 27
national@@ 27
ney@@ 27
nez 27
nica 27
nier 27
oden 27
omen 27
oti 27
ott@@ 27
oven 27
oyo 27
paper 27
petr@@ 27
pra@@ 27
properties 27
pt 27
ray@@ 27
role 27
route 27
sche 27
scientific 27
seas 27
seu@@ 27
sexu@@ 27
sist@@ 27
sko@@ 27
slo@@ 27
spring 27
stable 27
steri@@ 27
still 27
sud@@ 27
sult@@ 27
tang@@ 27
tard 27
tata 27
tish@@ 27
titu@@ 27
tiva 27
tril@@ 27
uen@@ 27
umbr@@ 27
upa 27
vag@@ 27
vir 27
winner 27
yer@@ 27
yum 27
ù@@ 27
ı@@ 27
ʰ 27
͡@@ 27
В@@ 27
Г@@ 27
О@@ 27
л@@ 27
ְ@@ 27
ד@@ 27
คอนเสิร์@@ 27
່@@ 27
თ@@ 27
១ 27
ồ 27
ず@@ 27
ょ@@ 27
ワ@@ 27
中華@@ 27
乐@@ 27
団@@ 27
守@@ 27
承@@ 27
樂@@ 27
球@@ 27
羽@@ 27
自@@ 27
蔡@@ 27
袁@@ 27
銀@@ 27
鳥@@ 27
해@@ 27
1,4 26
194@@ 26
Ada 26
Aki@@ 26
Alaska 26
Aleksandr 26
Alexandre 26
Allan 26
Amph@@ 26
Atlan@@ 26
Aul@@ 26
Beck 26
Bennett 26
Brandenburg 26
CLC 26
Cemetery 26
Coh@@ 26
Construc@@ 26
Curtis 26
Detroit 26
Dial@@ 26
Dich@@ 26
Eagles 26
Engel@@ 26
Equi@@ 26
Esper@@ 26
Exec@@ 26
Expedition 26
Gag@@ 26
General@@ 26
Gerald 26
Guill@@ 26
Heights 26
Horn@@ 26
Hull 26
Jeanne 26
Jenn@@ 26
Jug@@ 26
Kop@@ 26
Kra@@ 26
Kron@@ 26
Lausanne 26
Leone 26
Luk@@ 26
Malta 26
Maritime 26
Mason 26
Maximilian 26
Memphis 26
Mustafa 26
National@@ 26
Nest@@ 26
Now@@ 26
Nun@@ 26
Palmer 26
Percy 26
Pes@@ 26
Pru@@ 26
Queens 26
Rhein@@ 26
Schen@@ 26
Scher@@ 26
Seb@@ 26
Shang@@ 26
Spi@@ 26
Stal@@ 26
Strat@@ 26
Sultan@@ 26
Teleg@@ 26
Ukrainian 26
Ve@@ 26
Vera 26
Vu@@ 26
Warsaw 26
Zam@@ 26
aired 26
aled 26
alumin@@ 26
always 26
ambo 26
ament@@ 26
anal@@ 26
andal 26
anensis 26
ariz@@ 26
aron 26
arya 26
asti@@ 26
ativa 26
attention 26
ayi 26
battle 26
baum 26
below 26
berg@@ 26
bile 26
cable 26
cac@@ 26
campus 26
canc@@ 26
cap 26
cities 26
concer@@ 26
created 26
deb@@ 26
dich@@ 26
districts 26
dul@@ 26
dur 26
ecker 26
economic 26
ecr@@ 26
electric@@ 26
eler@@ 26
elev@@ 26
ende 26
enders 26
endum 26
enses 26
erra 26
essel 26
eyes 26
fine 26
focus 26
fusi@@ 26
fut@@ 26
fy 26
gris@@ 26
haw@@ 26
hun@@ 26
hut@@ 26
idan 26
ident@@ 26
ilian 26
integ@@ 26
intelligence 26
isse 26
istem@@ 26
iyi 26
kowski 26
laz@@ 26
letters 26
lez 26
lil@@ 26
lost 26
marked 26
means 26
measure 26
meet 26
metro 26
miles 26
mix 26
mt@@ 26
mtDNA 26
ning@@ 26
nomin@@ 26
onde 26
oniidae 26
onto 26
pens@@ 26
pers@@ 26
physi@@ 26
pick 26
pies 26
pop@@ 26
ppe 26
ppo 26
primiti@@ 26
punk 26
rad@@ 26
rates 26
rem 26
rug@@ 26
schule 26
sels 26
services 26
shaped 26
share 26
sof@@ 26
stal@@ 26
strike 26
think 26
tiful 26
tim 26
tir 26
tn@@ 26
toria 26
treat 26
umo 26
units 26
vec@@ 26
vog@@ 26
wad@@ 26
zon 26
К@@ 26
ָ@@ 26
สิงหา@@ 26
อุโบ@@ 26
ຍ@@ 26
ີ@@ 26
ຸ@@ 26
ს@@ 26
い 26
じ@@ 26
ふ@@ 26
ゃ@@ 26
來@@ 26
嚴@@ 26
密@@ 26
左@@ 26
未@@ 26
爾@@ 26
若@@ 26
議@@ 26
近@@ 26
食@@ 26
黎@@ 26
포@@ 26
Abdullah 25
Afr@@ 25
Americ@@ 25
Ander@@ 25
Anders 25
Apol@@ 25
Auth@@ 25
Bask@@ 25
Both 25
Brus@@ 25
Chili 25
Connecticut 25
Conrad 25
Danish 25
Doug@@ 25
Duncan 25
Edinburgh 25
Este 25
Fen@@ 25
Fid@@ 25
Foster 25
Fund@@ 25
Giac@@ 25
Grove 25
Herr@@ 25
Islam@@ 25
Jagu@@ 25
Jubil@@ 25
Kes@@ 25
Koz@@ 25
Lambert 25
Leopold 25
Lop@@ 25
Loy@@ 25
Mans@@ 25
Mary@@ 25
Maxwell 25
Mex@@ 25
Mg@@ 25
Monuments 25
Mud@@ 25
Nina 25
Norway 25
Nueva 25
Orthodo@@ 25
Ottoman 25
Oy@@ 25
Paci@@ 25
Pomer@@ 25
Pou@@ 25
Rau@@ 25
Refer@@ 25
Regi@@ 25
Rue 25
Salvador 25
Sang 25
Schul@@ 25
Sib@@ 25
Siemens 25
Sob@@ 25
Sophia 25
Stefan 25
Tyr@@ 25
Vall@@ 25
Vati@@ 25
Wet@@ 25
Wiki@@ 25
ahn 25
akh 25
alle 25
anat@@ 25
annual 25
apo 25
apolis 25
apons 25
aque 25
arak 25
asan 25
asked 25
assemb@@ 25
attach@@ 25
aun 25
bach@@ 25
bei 25
bel 25
blan@@ 25
broadcast 25
capture 25
cas 25
cass@@ 25
chief 25
coff@@ 25
configur@@ 25
cover@@ 25
create 25
cz@@ 25
declar@@ 25
derived 25
dimension 25
dorf 25
ecca 25
edil@@ 25
egan 25
egia 25
eign 25
enant 25
endel@@ 25
ennes 25
enough 25
enz 25
essa 25
esto 25
ete@@ 25
eville 25
expansion 25
fair 25
fen 25
had@@ 25
hoa 25
icio 25
industry 25
inos 25
jud@@ 25
later@@ 25
legal 25
leton 25
liamentary 25
litz 25
living 25
mang@@ 25
mann@@ 25
materials 25
mini@@ 25
mountain 25
nau@@ 25
nie 25
num@@ 25
origin 25
parallel 25
pendi@@ 25
phab@@ 25
plants 25
qualified 25
read 25
religion 25
roof 25
running 25
sab@@ 25
seat 25
sed@@ 25
sto@@ 25
strong 25
teur 25
thu 25
tip 25
ual@@ 25
ushing 25
ution@@ 25
utz@@ 25
uya 25
values 25
veget@@ 25
viol@@ 25
wav@@ 25
xu 25
xu@@ 25
yet 25
ysi@@ 25
zel 25
¼ 25
ɛ 25
ʿ 25
Ω@@ 25
ός 25
या@@ 25
བ@@ 25
ည@@ 25
အ@@ 25
ზ@@ 25
ḥ@@ 25
∞@@ 25
ね@@ 25
ば@@ 25
伯@@ 25
先@@ 25
党@@ 25
呂@@ 25
宙@@ 25
屋@@ 25
恩@@ 25
拉@@ 25
拳@@ 25
智@@ 25
泉@@ 25
遊@@ 25
郡 25
開@@ 25
陸@@ 25
非@@ 25
騎@@ 25
보@@ 25
순@@ 25
어@@ 25
진@@ 25
충@@ 25
태@@ 25
@@ 25
！ 25
0,1 24
193@@ 24
AFTA 24
Abdul@@ 24
Abo@@ 24
Adel@@ 24
Afro@@ 24
Alber@@ 24
August@@ 24
Calli@@ 24
Constantinople 24
Deu@@ 24
Dom 24
Dublin 24
Duf@@ 24
Edi@@ 24
Elle 24
Engl@@ 24
Faus@@ 24
Fland@@ 24
Garcia 24
Gill 24
Gin@@ 24
Glas@@ 24
Hack@@ 24
Hann@@ 24
Hansen 24
Henri@@ 24
Individ@@ 24
Johan 24
KP 24
Kand@@ 24
Kau@@ 24
Kiy@@ 24
Krist@@ 24
Labr@@ 24
Laf@@ 24
Laos 24
Lich@@ 24
List@@ 24
Mercedes 24
Mexican 24
Michel@@ 24
Minister@@ 24
Monaco 24
Napoleon 24
Nes@@ 24
Notre 24
Oak 24
Of@@ 24
Paolo 24
Petro@@ 24
Pokal 24
Quin@@ 24
Reynolds 24
Richardson 24
Rodrigu@@ 24
Ruth 24
Seattle 24
Shab@@ 24
Stern@@ 24
Stockholm 24
Stol@@ 24
Swan@@ 24
Sylv@@ 24
Thel@@ 24
Trib@@ 24
Tub@@ 24
Vy@@ 24
Wad@@ 24
Wander@@ 24
Way@@ 24
Zar@@ 24
Zu 24
aban 24
abra 24
acor@@ 24
acts 24
aeidae 24
aid 24
alk@@ 24
amis 24
andro 24
arta 24
ations@@ 24
atos 24
aught 24
austr@@ 24
avail@@ 24
bid 24
broad@@ 24
cause 24
chem 24
cipit@@ 24
comedy 24
compos@@ 24
concre@@ 24
construction 24
dev 24
discrimin@@ 24
dispar@@ 24
dominant 24
done 24
echo 24
ecting 24
ej 24
encies 24
entes 24
eor@@ 24
erek 24
estan 24
eston 24
fax 24
feet 24
fiel@@ 24
figure 24
folk 24
freedom 24
fund@@ 24
gall@@ 24
grad@@ 24
hana 24
iden@@ 24
ignon 24
ilio 24
inde@@ 24
inher@@ 24
institu@@ 24
irk 24
ischer 24
ja@@ 24
jit@@ 24
justice 24
kas@@ 24
keep 24
kt@@ 24
leri 24
liv@@ 24
longi@@ 24
mari@@ 24
marriage 24
modern@@ 24
most@@ 24
ngh@@ 24
nothing 24
oes 24
ogie 24
oire 24
oman 24
omb 24
ongo 24
onial 24
orio 24
otti 24
ously 24
parish 24
perspective 24
pis@@ 24
pist@@ 24
planning 24
pom@@ 24
produc@@ 24
quit@@ 24
relativ@@ 24
reserve 24
risk 24
roll 24
sac 24
sand@@ 24
seek@@ 24
signature 24
sister 24
stand@@ 24
steam 24
tape 24
tary 24
tee 24
teri 24
terns 24
territory 24
torney 24
trus@@ 24
turn 24
tut@@ 24
ugu 24
vial 24
vivo 24
xis 24
ymnas@@ 24
½@@ 24
Î 24
ŭ 24
σ 24
СС@@ 24
н@@ 24
ക@@ 24
ธรรมนู@@ 24
ື@@ 24
ọ 24
Ἀ@@ 24
⁄ 24
∈ 24
█ 24
☆@@ 24
上海@@ 24
井@@ 24
儀@@ 24
初@@ 24
包@@ 24
北京@@ 24
區@@ 24
命@@ 24
回@@ 24
山 24
徽@@ 24
悪@@ 24
橋@@ 24
比@@ 24
気@@ 24
紫@@ 24
能@@ 24
臺@@ 24
術@@ 24
角@@ 24
赵@@ 24
雪@@ 24
鳳@@ 24
가@@ 24
양@@ 24
중@@ 24
천@@ 24
 24
：@@ 24
🇭 24
🇹@@ 24
130@@ 23
Aless@@ 23
Alfonso 23
Andro@@ 23
Antarc@@ 23
Arsenal 23
Baba 23
Background 23
Baltimore 23
Berg 23
Bora 23
Bret@@ 23
Brien 23
Britanni@@ 23
Brunswick 23
Chad 23
Challenger 23
Christine 23
Compu@@ 23
Construction 23
Dah@@ 23
Disco@@ 23
Ent@@ 23
FIBA 23
Federico 23
Finn@@ 23
Fra@@ 23
Fraser 23
Gaga 23
Gott@@ 23
Governor 23
Guillaume 23
Hind@@ 23
Ira@@ 23
Isabel 23
Its 23
Joshua 23
Judge 23
Karak@@ 23
Klaus 23
Kru@@ 23
Kut@@ 23
Lah@@ 23
Liga 23
Lomb@@ 23
Lucy 23
Luther 23
Magdal@@ 23
Meyer 23
Milano 23
Milton 23
Mohamed 23
Monte@@ 23
Montreal 23
Nord 23
Norte 23
Palais 23
Para 23
Pick@@ 23
Plot 23
Probl@@ 23
Queensland 23
Rally 23
Rang@@ 23
Roo@@ 23
Rosen@@ 23
Rotten 23
Salt 23
Sen 23
Sidney 23
Simone 23
Solanum 23
Springs 23
Symb@@ 23
Train@@ 23
Trin@@ 23
Turkey 23
Wells 23
aches 23
acles 23
acquired 23
actu@@ 23
akan 23
akia 23
amos 23
anny 23
apos@@ 23
ardin@@ 23
aren@@ 23
ariat 23
artificial 23
atura 23
auc@@ 23
aum@@ 23
ayed 23
azar 23
bean 23
bec 23
cend@@ 23
college 23
completed 23
consolid@@ 23
dating 23
department 23
dioc@@ 23
eco 23
egu@@ 23
emen 23
empire 23
erst@@ 23
escu 23
escul@@ 23
etle 23
ettes 23
experience 23
extinc@@ 23
eza 23
faces 23
fair@@ 23
fashion 23
festival 23
flying 23
formis 23
fully 23
grad 23
guez 23
gun@@ 23
hio 23
historical 23
hol 23
hotel 23
ible 23
icz 23
iger@@ 23
iken 23
imler 23
included 23
insia 23
inz@@ 23
isen 23
isson 23
iste 23
itr@@ 23
its@@ 23
jin@@ 23
kot@@ 23
lage 23
literature 23
lov 23
manuel 23
margin@@ 23
mens@@ 23
mili@@ 23
minutes 23
model@@ 23
motor@@ 23
much 23
music@@ 23
oku@@ 23
omel@@ 23
onis 23
opar@@ 23
opera 23
orca 23
orientation 23
oten 23
ovia 23
pand@@ 23
photo 23
placed 23
portun@@ 23
predic@@ 23
purpose 23
rah 23
rah@@ 23
regi@@ 23
relati@@ 23
relationship 23
reser@@ 23
sad@@ 23
sera 23
shin@@ 23
since 23
sine 23
spective 23
stead 23
strength 23
superfici@@ 23
tant 23
tech@@ 23
terior 23
tero 23
tioned 23
today 23
traverse 23
triple 23
turn@@ 23
tus@@ 23
uel 23
uko 23
ured 23
usha 23
vio 23
writing 23
П@@ 23
ө@@ 23
ק@@ 23
ع@@ 23
ق@@ 23
ग@@ 23
ड@@ 23
रा@@ 23
ल@@ 23
ຕ@@ 23
ི@@ 23
ი@@ 23
់@@ 23
ṃ 23
ṅ 23
ṣ@@ 23
ṭ@@ 23
ス 23
ゼ@@ 23
ホ@@ 23
ヴ@@ 23
了@@ 23
云@@ 23
人 23
侍@@ 23
兵@@ 23
友@@ 23
反@@ 23
妖@@ 23
季@@ 23
广@@ 23
所@@ 23
摩@@ 23
森@@ 23
爱@@ 23
狄@@ 23
王 23
直@@ 23
紋@@ 23
統@@ 23
鎮@@ 23
隊@@ 23
館@@ 23
麗@@ 23
강@@ 23
교@@ 23
명@@ 23
여@@ 23
예@@ 23
요@@ 23
홍@@ 23
Aar@@ 22
Aj@@ 22
Alabama 22
Alain 22
Anc@@ 22
Augsburg 22
Augusta 22
Bailey 22
Baseball 22
Basel 22
Bengal 22
Best@@ 22
Bid@@ 22
Biz@@ 22
Bulbo@@ 22
Cap 22
Casa 22
Colonel 22
Conseil 22
Czech 22
Dakota 22
Diplom@@ 22
Dop@@ 22
Dylan 22
Each 22
Eil@@ 22
Eis@@ 22
Esc@@ 22
Feld@@ 22
Film@@ 22
Frankfurt 22
Gou@@ 22
Hal 22
Hass@@ 22
Herald 22
Hindu 22
Ili@@ 22
Im 22
Interior 22
Je 22
Kant@@ 22
Kiz@@ 22
Kong@@ 22
Lenn@@ 22
Lopez 22
Lub@@ 22
Madagascar 22
Metacritic 22
Mn@@ 22
Mou@@ 22
Neill 22
Nos@@ 22
Pakistan 22
Partn@@ 22
Pascal 22
Phoen@@ 22
Pont@@ 22
Porter 22
Princeton 22
Provincial 22
Reci@@ 22
Representatives 22
Richards 22
Robertson 22
Romano 22
Saudi 22
Short@@ 22
Skul@@ 22
Soh@@ 22
Sonder@@ 22
Spre@@ 22
Stef@@ 22
Theodor 22
Thur@@ 22
Timor 22
Versailles 22
WTA 22
Wang@@ 22
Werner 22
While 22
Yab@@ 22
Zu@@ 22
Zw@@ 22
acha 22
affa@@ 22
affe 22
aged 22
alu 22
amen@@ 22
anal 22
ardo 22
arus 22
aspir@@ 22
asser 22
asses 22
aten@@ 22
atu@@ 22
auch@@ 22
av 22
basa 22
berland 22
better 22
big 22
bits 22
burgh 22
cock 22
communic@@ 22
concentration 22
conductor 22
covered 22
crisis 22
dhar@@ 22
dile 22
disput@@ 22
divisions 22
economy 22
eers 22
egen 22
encer 22
engl@@ 22
enzo 22
ere@@ 22
eshi 22
ew 22
experi@@ 22
femin@@ 22
fet@@ 22
gab@@ 22
gal 22
gaz@@ 22
goods 22
hac@@ 22
hour 22
igen 22
initial 22
iye 22
jk 22
job 22
loo 22
ls@@ 22
lying 22
manga 22
mat 22
med 22
mim@@ 22
missions 22
moral 22
musician 22
nations 22
need 22
nor 22
oks 22
old@@ 22
olling 22
omp@@ 22
oval 22
perform 22
phe 22
phrase 22
pler@@ 22
policy 22
publi@@ 22
radio@@ 22
rare 22
reas 22
roch@@ 22
rol 22
rot 22
sberg 22
scrip@@ 22
sedi@@ 22
separ@@ 22
sept@@ 22
seven 22
shared 22
shor@@ 22
shows 22
sio 22
stig@@ 22
sula 22
sura 22
tei 22
theatre 22
tilla 22
timate 22
ting@@ 22
typ@@ 22
unes 22
usti@@ 22
usu 22
verg@@ 22
wol@@ 22
wood@@ 22
wort 22
yam@@ 22
ystem 22
zel@@ 22
zur@@ 22
À 22
â@@ 22
Đ 22
ŋ 22
ων@@ 22
И@@ 22
г@@ 22
נ@@ 22
ת@@ 22
ب@@ 22
ح@@ 22
د@@ 22
ف@@ 22
ى@@ 22
च@@ 22
व@@ 22
ம@@ 22
คัมภ@@ 22
ราชินี@@ 22
ແ@@ 22
ད@@ 22
ན@@ 22
ུ@@ 22
ထ@@ 22
ჽ@@ 22
‍@@ 22
「 22
〜 22
ご@@ 22
ろ@@ 22
ゲ@@ 22
丁@@ 22
丘@@ 22
人民@@ 22
余@@ 22
勇@@ 22
印@@ 22
叉@@ 22
号@@ 22
塔@@ 22
封@@ 22
影@@ 22
戸@@ 22
柳@@ 22
母@@ 22
涼@@ 22
潮@@ 22
濟@@ 22
炎@@ 22
獣@@ 22
目@@ 22
端@@ 22
辛@@ 22
门@@ 22
陰@@ 22
韋@@ 22
21@@ 21
Afghanistan 21
Armenia 21
Au 21
Audi 21
Aw@@ 21
Bach 21
Baj@@ 21
Bam@@ 21
Barbar@@ 21
Belgium 21
Bib@@ 21
Boc@@ 21
Bologna 21
Boot 21
Brut@@ 21
Connor 21
Craw@@ 21
Diplo@@ 21
Dry@@ 21
Eva 21
Flem@@ 21
Frances 21
Funk@@ 21
Gest@@ 21
Gis@@ 21
Glen 21
Gloria 21
Haus@@ 21
Hof@@ 21
Hoff@@ 21
Hood 21
Kud@@ 21
Lieb@@ 21
Linn@@ 21
Lithu@@ 21
Loire 21
Lot 21
Lyc@@ 21
Lyon 21
Maw@@ 21
Mecklen@@ 21
Ment@@ 21
Mer 21
Mig@@ 21
Minh 21
Neue 21
Nevada 21
Noel 21
Occup@@ 21
Parque 21
Polo 21
Pont 21
Recon@@ 21
Regiment 21
Roche 21
Rug@@ 21
Sacram@@ 21
Schneider 21
Sheffield 21
Slov@@ 21
Sok@@ 21
Sprint 21
Stern 21
Tari@@ 21
Telek@@ 21
Trainer 21
Vide@@ 21
Within 21
XVII 21
Zin@@ 21
aat 21
abar@@ 21
absor@@ 21
adam@@ 21
ahl 21
aka@@ 21
alar 21
amas 21
ambul@@ 21
amel@@ 21
angers 21
angi 21
appro@@ 21
ara@@ 21
ardi 21
ardt 21
arro 21
asim@@ 21
asso 21
atrice 21
bag@@ 21
bois 21
bre 21
brevi@@ 21
brid@@ 21
build 21
cab@@ 21
chair 21
cham@@ 21
character@@ 21
cid@@ 21
cine 21
cke 21
clan 21
clos@@ 21
collec@@ 21
deck 21
derni@@ 21
deu@@ 21
doba 21
does 21
draft 21
ebel 21
ecta 21
eim 21
elf 21
elled 21
enga 21
eren 21
eres@@ 21
eson 21
evalu@@ 21
expected 21
farm 21
fig 21
filtr@@ 21
fixed 21
fried 21
genre 21
gorod 21
gue 21
hal 21
holt 21
ient 21
ifu 21
ih 21
imen 21
impl@@ 21
insec@@ 21
insk 21
instruc@@ 21
kus@@ 21
leading 21
liberal 21
lique 21
mab@@ 21
mate 21
meeting 21
nac@@ 21
nationale 21
near 21
nom 21
ocia 21
odo 21
olan@@ 21
onc@@ 21
opo 21
ort@@ 21
oslav 21
pak@@ 21
pino 21
pion@@ 21
poli 21
positions 21
previous 21
princ@@ 21
rech@@ 21
regres@@ 21
save 21
sir 21
spre@@ 21
staff 21
standards 21
statement 21
sth@@ 21
strat@@ 21
tell 21
tempor@@ 21
toile 21
trian 21
ually 21
umu 21
util@@ 21
variety 21
vertic@@ 21
vice 21
visu@@ 21
went 21
xim@@ 21
yat 21
zar 21
zur 21
ß@@ 21
đ 21
ʊ@@ 21
κ 21
ρο@@ 21
φ 21
Ф@@ 21
в@@ 21
и 21
й 21
но@@ 21
т@@ 21
э@@ 21
ا@@ 21
ِّ@@ 21
ܐ@@ 21
க@@ 21
క@@ 21
สนธิ@@ 21
ဇ@@ 21
့@@ 21
ွ@@ 21
ှ@@ 21
ấ 21
★ 21
】@@ 21
う 21
イ 21
也@@ 21
以@@ 21
分@@ 21
姬@@ 21
富@@ 21
尚@@ 21
尾@@ 21
局@@ 21
师@@ 21
恋@@ 21
战@@ 21
日 21
期@@ 21
桂@@ 21
楽@@ 21
燕@@ 21
獻@@ 21
甲@@ 21
男@@ 21
神 21
秘@@ 21
精@@ 21
糖@@ 21
经@@ 21
衣@@ 21
觀@@ 21
谷@@ 21
走@@ 21
道 21
関@@ 21
雨@@ 21
雷@@ 21
黨@@ 21
로@@ 21
리 21
에@@ 21
@@@ 20
Abel 20
Alban@@ 20
Albi@@ 20
Aller@@ 20
Amad@@ 20
Ana 20
Apr@@ 20
Are@@ 20
Armen@@ 20
Arte 20
Beatles 20
Blanc 20
Bristol 20
Burton 20
Cis@@ 20
Clay@@ 20
Cohen 20
Croatia 20
Deh@@ 20
Draft 20
Durham 20
Ech@@ 20
Eduard 20
Ek@@ 20
Eus@@ 20
Fati@@ 20
Fay@@ 20
Fest 20
Frances@@ 20
Gia 20
Glou@@ 20
Gottfried 20
Histoire 20
Hr@@ 20
Ibrahim 20
Interpre@@ 20
Kern@@ 20
Kho@@ 20
Kib@@ 20
Kind@@ 20
Kri@@ 20
Kro@@ 20
Lew@@ 20
Madeleine 20
Marathon 20
Martha 20
Matthias 20
Mec@@ 20
Mont 20
Montana 20
Nach@@ 20
Nation@@ 20
Nus@@ 20
Paula 20
Position 20
Qatar 20
Rita 20
Rom 20
Santo 20
Schle@@ 20
Schwarz@@ 20
Sloven@@ 20
Sov@@ 20
Spring@@ 20
Stadion 20
Stalin 20
Start@@ 20
Tav@@ 20
Teresa 20
Testament 20
Vega 20
Wav@@ 20
Windsor 20
XIX 20
administrative 20
adow 20
agara 20
aissance 20
alco@@ 20
alian 20
altern@@ 20
ambi 20
amor@@ 20
amount 20
assembly 20
astal 20
athan 20
aum 20
bek@@ 20
bour 20
calend@@ 20
category 20
chanc@@ 20
circular 20
cog@@ 20
conserv@@ 20
consol@@ 20
conversion 20
dat 20
dav@@ 20
depos@@ 20
distributed 20
diver@@ 20
dos@@ 20
eastern 20
enov@@ 20
equivalent 20
estar 20
eure 20
exhaus@@ 20
exp@@ 20
feature 20
ferro@@ 20
fight 20
figur@@ 20
font 20
forme 20
fundamental 20
hands 20
haus 20
highly 20
ighton 20
igny 20
ile@@ 20
imar@@ 20
immedi@@ 20
ingia 20
inner@@ 20
instrument 20
internet 20
invasion 20
ionale 20
issus 20
istes 20
istin 20
itaire 20
jar 20
journal 20
kay@@ 20
kett 20
kim@@ 20
kut@@ 20
lass 20
leader 20
leen 20
listed 20
maintenance 20
oblig@@ 20
olph 20
opa 20
operating 20
opil@@ 20
organisation 20
orta 20
osi 20
othe@@ 20
pav@@ 20
pes@@ 20
philus 20
porters 20
practice 20
published 20
quarter 20
quis@@ 20
rar@@ 20
rau@@ 20
reli@@ 20
restric@@ 20
revolution 20
ring@@ 20
robot 20
rules 20
sak 20
shore 20
sidi@@ 20
ste 20
superi@@ 20
supervis@@ 20
tam 20
tane 20
tat@@ 20
tela 20
thous@@ 20
tik 20
tik@@ 20
tili@@ 20
tine 20
touch@@ 20
traffic 20
uel@@ 20
uls 20
uren 20
utz 20
various 20
vera 20
vide 20
virtu@@ 20
wagen 20
whole 20
wing@@ 20
yna 20
zan@@ 20
Ú 20
č@@ 20
ʼ 20
̤ 20
ι@@ 20
ρ 20
ρα@@ 20
Л@@ 20
Н@@ 20
Х@@ 20
ш@@ 20
ת 20
ج@@ 20
غ@@ 20
ّ@@ 20
ना@@ 20
़@@ 20
ி@@ 20
ང@@ 20
ယ@@ 20
း 20
ျ@@ 20
べ@@ 20
世界@@ 20
久@@ 20
乱@@ 20
任@@ 20
修@@ 20
入@@ 20
剣@@ 20
剧@@ 20
口@@ 20
哲@@ 20
岳@@ 20
易@@ 20
爆@@ 20
獄@@ 20
甘@@ 20
祥@@ 20
肉@@ 20
臨@@ 20
莊@@ 20
語 20
護@@ 20
變@@ 20
達@@ 20
那@@ 20
鐵@@ 20
關@@ 20
麻@@ 20
齐@@ 20
산@@ 20
임@@ 20
헌@@ 20
호@@ 20
0.000 19
Academia 19
Alexis 19
Allah 19
Aristot@@ 19
Bertrand 19
Beth@@ 19
Brooks 19
Calvin 19
Chester 19
Chile 19
Christian@@ 19
Clif@@ 19
Cous@@ 19
Des 19
Dies@@ 19
Dubai 19
Europ@@ 19
Exist@@ 19
Frag@@ 19
Franco 19
Gibson 19
Git@@ 19
Gott 19
Herb@@ 19
Herschel 19
Hes@@ 19
Holocaus@@ 19
Hubert 19
Jefferson 19
Jorge 19
Kov@@ 19
Kuz@@ 19
Laurent 19
Lef@@ 19
Libr@@ 19
Logan 19
Marion 19
Mediterran@@ 19
Miranda 19
Monica 19
Moses 19
NCA@@ 19
Nixon 19
Niz@@ 19
Palestine 19
Parti 19
Punj@@ 19
Rai@@ 19
Rech@@ 19
Roi 19
Sala 19
Samp@@ 19
Schu@@ 19
Sist@@ 19
Somerset 19
Stir@@ 19
Sudan 19
Tam 19
Tibet 19
Tod@@ 19
Treat@@ 19
Venez@@ 19
Vie 19
Wur@@ 19
Zah@@ 19
Zimmer@@ 19
addi@@ 19
ahl@@ 19
ainer 19
alen 19
alum@@ 19
alya 19
ancient 19
anl@@ 19
approxim@@ 19
asal 19
authority 19
big@@ 19
buil@@ 19
camera 19
candidate 19
chal@@ 19
chard 19
cite 19
coal 19
cois 19
cola 19
compet@@ 19
conflict 19
coupe 19
dad 19
demonstr@@ 19
design@@ 19
destin@@ 19
dig 19
disco@@ 19
disper@@ 19
doubl@@ 19
draw 19
eas 19
efs 19
eld@@ 19
ellip@@ 19
enzy@@ 19
erh@@ 19
esha 19
esper@@ 19
essen 19
expect@@ 19
famili@@ 19
foreign 19
gion 19
giz@@ 19
going 19
gren 19
hiv@@ 19
ibu 19
icho 19
iel 19
ignant 19
imagin@@ 19
inces 19
infer@@ 19
inh 19
inser@@ 19
ismus 19
itte 19
iven 19
izen 19
jap@@ 19
jia 19
join@@ 19
kad@@ 19
kaz@@ 19
kt 19
kun@@ 19
laur@@ 19
lava 19
libr@@ 19
lie@@ 19
liner 19
liqu@@ 19
logo 19
logos 19
mani@@ 19
mans 19
mich@@ 19
millions 19
mud 19
mur 19
narr@@ 19
naval 19
near@@ 19
objects 19
obo 19
officer 19
ogne 19
olim@@ 19
oned 19
oue 19
oul@@ 19
ovina 19
pay 19
permanent 19
polo 19
portal 19
president 19
principal 19
professor 19
prote@@ 19
rain@@ 19
rating 19
raz@@ 19
recording 19
rek 19
rend@@ 19
resources 19
rico 19
rift 19
riz@@ 19
rov@@ 19
sean 19
seen 19
simil@@ 19
specif@@ 19
stitu@@ 19
student 19
sub 19
sul 19
tas 19
techniques 19
terr@@ 19
tivo 19
tribut@@ 19
trip 19
tur 19
ugu@@ 19
utar@@ 19
uth@@ 19
village 19
volcan@@ 19
wag@@ 19
wide 19
zee 19
¡ 19
ħ 19
ħ@@ 19
ś@@ 19
Ž 19
ɕ@@ 19
ɛ@@ 19
ˋ@@ 19
ˌ 19
̚@@ 19
̤@@ 19
Πτολεμα@@ 19
Σ@@ 19
У@@ 19
н 19
на@@ 19
ү@@ 19
ار@@ 19
ط@@ 19
مَ@@ 19
مْ 19
و 19
ِ 19
ܝ@@ 19
ப@@ 19
สตู@@ 19
ຽ@@ 19
დ 19
ჷ 19
ន 19
ួ@@ 19
ḍ 19
ṇ@@ 19
ậ 19
● 19
〜@@ 19
え 19
か 19
ぎ@@ 19
び@@ 19
る 19
ト 19
ㄧ@@ 19
交@@ 19
位@@ 19
体@@ 19
傑@@ 19
刘@@ 19
原 19
太平@@ 19
孙@@ 19
客@@ 19
寿@@ 19
尉@@ 19
尊@@ 19
巴@@ 19
念@@ 19
晉@@ 19
池@@ 19
浦@@ 19
演@@ 19
画@@ 19
科@@ 19
穆@@ 19
組@@ 19
縣 19
舞@@ 19
苏@@ 19
范@@ 19
蓮@@ 19
處@@ 19
蜀@@ 19
論@@ 19
諸@@ 19
豆@@ 19
遠@@ 19
雙@@ 19
계@@ 19
반@@ 19
오@@ 19
용@@ 19
일@@ 19
Aachen 18
Addi@@ 18
Afric@@ 18
Ais@@ 18
Alejandro 18
Alle@@ 18
Alto 18
Among 18
Apos@@ 18
Bangladesh 18
Beb@@ 18
Bella 18
Blat@@ 18
Branch 18
Bras@@ 18
Bris@@ 18
Burns 18
Castel@@ 18
Castro 18
Ce 18
Champagne 18
Chur@@ 18
Ciudad 18
Columb@@ 18
Crawford 18
Deutscher 18
Edel@@ 18
Fak@@ 18
Ferguson 18
Fiat 18
Freud 18
Geography 18
Germain 18
Graf 18
Haf@@ 18
Hai 18
Hamburg 18
Hamburger 18
Hill@@ 18
Homer 18
Infrastr@@ 18
Institut@@ 18
Kentucky 18
Kepler 18
Kik@@ 18
Kinder@@ 18
Kli@@ 18
Lara 18
Legislative 18
Leopol@@ 18
Lok@@ 18
Mainz 18
Many 18
Mez@@ 18
Minn@@ 18
Mississippi 18
Nikol@@ 18
Nouveau 18
Preston 18
Provence 18
Richmond 18
Roch@@ 18
Roosevelt 18
Rost@@ 18
Rugby 18
Schles@@ 18
Schum@@ 18
Serie 18
Silv@@ 18
Since 18
Springfield 18
Stock@@ 18
Switzerland 18
Teatro 18
Tel 18
Tomatoes 18
Toulouse 18
Urs@@ 18
Ush@@ 18
Vancouver 18
Verde 18
Wah@@ 18
Weber 18
Wellington 18
Wikipedia 18
Yale 18
Yorkshire 18
Zap@@ 18
abis 18
adan 18
administration 18
adult 18
agog@@ 18
ajo 18
akar@@ 18
akat@@ 18
akit@@ 18
alto 18
andt 18
animals 18
anno@@ 18
antage 18
appe@@ 18
appen 18
arbitr@@ 18
arist@@ 18
arren 18
augment@@ 18
bao 18
bap@@ 18
basis 18
bola 18
bra@@ 18
bron@@ 18
bund 18
certain@@ 18
charged 18
collap@@ 18
colon@@ 18
comic 18
commod@@ 18
connection 18
constitu@@ 18
constr@@ 18
cott 18
crimin@@ 18
cula 18
decision 18
demand 18
dica 18
diers 18
dimin@@ 18
dish 18
droit 18
dum 18
ebi 18
eces 18
ees 18
eig@@ 18
enario 18
encore 18
endre 18
ened 18
enin 18
enk@@ 18
enst@@ 18
experim@@ 18
exten@@ 18
fee 18
fili@@ 18
flag@@ 18
fung@@ 18
future 18
gec@@ 18
genes 18
goals 18
guide 18
guitar 18
gut 18
hay@@ 18
higher 18
hous@@ 18
iba 18
idai 18
igne 18
ikos 18
images 18
imba 18
implic@@ 18
integral 18
isches 18
isine 18
islands 18
kid@@ 18
kno@@ 18
last@@ 18
latitu@@ 18
leur 18
list@@ 18
lossum 18
meas@@ 18
mina 18
mont@@ 18
month 18
motiv@@ 18
nay 18
nig 18
nim@@ 18
novi@@ 18
numer@@ 18
onist 18
organized 18
orie 18
oted 18
paral@@ 18
patri@@ 18
pau@@ 18
pera 18
politics 18
polize@@ 18
portion 18
prefer@@ 18
provinces 18
publique 18
pura 18
question 18
representative 18
rob@@ 18
sans 18
say@@ 18
scene 18
schild 18
scho@@ 18
seats 18
semin@@ 18
serve 18
short@@ 18
should 18
simul@@ 18
singles 18
six 18
slow 18
southern 18
stant@@ 18
sug@@ 18
tenstein 18
thu@@ 18
tien 18
tiles 18
till@@ 18
tives 18
told 18
toward 18
ttem@@ 18
ug 18
uki@@ 18
umba 18
undi 18
urban@@ 18
uza 18
veloc@@ 18
vely 18
wns 18
wski 18
yen@@ 18
ympi@@ 18
ɔ@@ 18
ʒ@@ 18
ξ 18
ξ@@ 18
υ@@ 18
ψ@@ 18
Я 18
ва@@ 18
з@@ 18
к 18
ы@@ 18
اد@@ 18
الله 18
ذ@@ 18
ه 18
وَ@@ 18
ين@@ 18
ُ@@ 18
กำล@@ 18
ဟ@@ 18
ộ 18
ờ 18
ἄ@@ 18
≡ 18
♪ 18
ク 18
ヘ@@ 18
丸@@ 18
伏@@ 18
內@@ 18
刀@@ 18
則@@ 18
双@@ 18
城 18
変@@ 18
威@@ 18
孔@@ 18
宁@@ 18
居@@ 18
川 18
延@@ 18
憲@@ 18
文化@@ 18
桃@@ 18
梨@@ 18
派@@ 18
游@@ 18
為@@ 18
破@@ 18
社 18
罗@@ 18
聞@@ 18
胤@@ 18
血@@ 18
解@@ 18
遼@@ 18
闘@@ 18
靖@@ 18
頭@@ 18
頼@@ 18
니@@ 18
랑@@ 18
북@@ 18
아 18
야@@ 18
트@@ 18
 18
---- 17
Adelaide 17
Alp@@ 17
Alta 17
Arabia 17
Arsen@@ 17
Bahn 17
Bonaparte 17
Bosnia 17
Brazilian 17
Camille 17
Chairman 17
Claus@@ 17
Colomb@@ 17
Crist@@ 17
David@@ 17
Desp@@ 17
Dimi@@ 17
Due 17
Elek@@ 17
Ella 17
Ellis 17
Epis@@ 17
Er 17
Estadio 17
Even 17
Franken@@ 17
Galicia 17
Gesellschaft 17
Giants 17
Glen@@ 17
Gregor 17
Hampshire 17
Helsinki 17
Innsbruck 17
Jou@@ 17
Kati@@ 17
Konstantin 17
Kup@@ 17
Lac 17
Lach@@ 17
Laguna 17
Leib@@ 17
Leipzig 17
Lions 17
Luz@@ 17
Magnus 17
Mal 17
Mann 17
March@@ 17
Mend@@ 17
Mens@@ 17
Moul@@ 17
Muh@@ 17
Napole@@ 17
Omar 17
Pablo 17
Pion@@ 17
Places 17
Prague 17
Quir@@ 17
Riz@@ 17
Ruf@@ 17
Samb@@ 17
Samm@@ 17
Sara 17
Sie@@ 17
Stam@@ 17
Stell@@ 17
Sussex 17
Tall@@ 17
Tch@@ 17
Theo 17
Tunnel 17
Uch@@ 17
Viz@@ 17
Volks@@ 17
Yus@@ 17
Zul@@ 17
acqu@@ 17
advanced 17
afa 17
agues 17
aina 17
aines 17
allas 17
along 17
althy 17
amaz@@ 17
ampton 17
anap@@ 17
apes 17
araj@@ 17
ately 17
available 17
bana 17
basic 17
best@@ 17
bish@@ 17
bourg 17
brill@@ 17
castle 17
categ@@ 17
chs 17
circulation 17
civiliz@@ 17
clip 17
collectiv@@ 17
conc@@ 17
contemporary 17
cylin@@ 17
dam 17
difference 17
dyn@@ 17
ectives 17
eget@@ 17
eight 17
eln 17
ender@@ 17
enthal 17
eppe 17
erre 17
eser 17
etu 17
exec@@ 17
extra 17
eyi 17
fang 17
featuring 17
fif@@ 17
filled 17
follow 17
founding 17
franchise 17
gay 17
gew@@ 17
gives 17
gri@@ 17
haus@@ 17
hou@@ 17
idents 17
illac 17
imperial 17
implement@@ 17
including 17
inde 17
irt 17
ived 17
izi 17
jun@@ 17
kand@@ 17
kok@@ 17
kuh@@ 17
leave 17
lung 17
maf@@ 17
mam 17
marin 17
matr@@ 17
mers 17
methods 17
mig@@ 17
mining 17
mm@@ 17
oder 17
oine 17
oj 17
olet 17
omas 17
ombi@@ 17
omon 17
operate 17
oscuro 17
oshima 17
oto@@ 17
oton 17
ouch@@ 17
outside 17
pek@@ 17
persist@@ 17
pli@@ 17
poor 17
preser@@ 17
prince 17
prosp@@ 17
rama 17
rats 17
receiv@@ 17
replaced 17
sali@@ 17
satellite 17
sector 17
sent@@ 17
shape 17
show@@ 17
sim 17
six@@ 17
something 17
sour@@ 17
spi@@ 17
squad 17
step@@ 17
stories 17
substitu@@ 17
surviv@@ 17
tara 17
tenberg 17
themselves 17
thouse 17
torio 17
translation 17
usia 17
uten 17
vai 17
ved@@ 17
vertical 17
wait 17
wana 17
wes@@ 17
wig 17
wig@@ 17
windows 17
wings 17
xo@@ 17
yap@@ 17
zw@@ 17
ô@@ 17
Ł 17
ł@@ 17
ɔ 17
ʔ@@ 17
̍@@ 17
Λ 17
ον 17
το@@ 17
Д@@ 17
ка@@ 17
ни@@ 17
с@@ 17
ъ 17
ات@@ 17
الل@@ 17
تَ@@ 17
ता@@ 17
ดั้ง@@ 17
ຼ@@ 17
ྱ@@ 17
ဗ@@ 17
် 17
ლ@@ 17
៉@@ 17
Ḥ 17
‡ 17
Ⅲ@@ 17
【 17
ほ@@ 17
り 17
チ 17
中央@@ 17
亂@@ 17
于@@ 17
俊@@ 17
字 17
宜@@ 17
州 17
形@@ 17
房@@ 17
无@@ 17
曾@@ 17
月 17
桓@@ 17
注@@ 17
洛@@ 17
洞@@ 17
父@@ 17
禧@@ 17
落@@ 17
虫@@ 17
贵@@ 17
農@@ 17
追@@ 17
鄉@@ 17
고 17
노@@ 17
학@@ 17
황@@ 17
Admir@@ 16
Alberta 16
Alt 16
Ame@@ 16
Angela 16
Ard@@ 16
Atel@@ 16
Atlanta 16
Azerbaijan 16
Bart 16
Bartolom@@ 16
Bek@@ 16
Borough 16
Bulg@@ 16
Burn@@ 16
Copenh@@ 16
DAP 16
Deutschland 16
Dez@@ 16
Elena 16
Ern@@ 16
Erz@@ 16
Finland 16
Fren@@ 16
Graf@@ 16
Infantry 16
Isa@@ 16
Jews 16
Jim@@ 16
Jul@@ 16
Kaf@@ 16
Kunst@@ 16
Kurz 16
Lanka 16
Mambo 16
Marcos 16
Marx 16
McDonald 16
NSDAP 16
Nebraska 16
Nomin@@ 16
Obama 16
Ontario 16
Orient 16
Osman 16
Petersburg 16
Pey@@ 16
Pog@@ 16
Protest@@ 16
Prus@@ 16
Quang 16
Rat 16
Republik 16
Rest 16
Rhode 16
Rus 16
Send@@ 16
Sich@@ 16
Situation 16
Southampton 16
Squadron 16
Taxonom@@ 16
Telev@@ 16
Thanh 16
Tra@@ 16
Tube 16
Vend@@ 16
Vers@@ 16
Virgin@@ 16
Voivodeship 16
Wagner 16
Yug@@ 16
Zeus 16
Zur@@ 16
ablo 16
ached 16
achia 16
adas 16
aires 16
alien 16
alling 16
ambass@@ 16
anca 16
announced 16
anz 16
arte 16
atan@@ 16
aub@@ 16
aware 16
axe 16
basket 16
beg@@ 16
began 16
boro 16
brit@@ 16
brown 16
century 16
characters 16
chet 16
class@@ 16
committee 16
competi@@ 16
complet@@ 16
core@@ 16
cosa 16
crime 16
damage 16
devi@@ 16
dil 16
ebu 16
eger 16
egu 16
eiro 16
elen 16
episodes 16
ept 16
equival@@ 16
esen 16
exerc@@ 16
explic@@ 16
explor@@ 16
fav@@ 16
feld@@ 16
fit 16
folium 16
fred 16
gave 16
genous 16
gestion 16
gil@@ 16
gir 16
hab 16
hang@@ 16
hausen 16
heads 16
highest 16
holding 16
hr 16
ibil@@ 16
idental 16
ien@@ 16
ific@@ 16
ikon 16
illance 16
infr@@ 16
instruction 16
intern@@ 16
ire@@ 16
isses 16
itage 16
iyo 16
kata 16
khan 16
kio 16
kow@@ 16
kub@@ 16
league 16
lera 16
levels 16
lik 16
limit 16
lois 16
lowing 16
mad 16
manif@@ 16
manipul@@ 16
maz@@ 16
md@@ 16
mineral 16
morning 16
mortal@@ 16
mw@@ 16
named 16
nde 16
nhu 16
nin@@ 16
nuc@@ 16
nus@@ 16
obs@@ 16
olog 16
omu 16
onship 16
ovic 16
past 16
piano 16
pris 16
pup@@ 16
quil@@ 16
rach@@ 16
racing 16
reached 16
religious 16
safety 16
said 16
selected 16
selling 16
sent 16
sher@@ 16
sition 16
specific@@ 16
spect@@ 16
sta@@ 16
suppl@@ 16
suspension 16
suya 16
teaching 16
tek@@ 16
tend 16
terres@@ 16
tima 16
titled 16
tons 16
ubil@@ 16
umul@@ 16
unders 16
undo 16
unif@@ 16
unknown 16
uns 16
usi 16
usta 16
vered 16
visa 16
wand@@ 16
week@@ 16
words 16
yal 16
yen 16
zin 16
zt 16
»@@ 16
Ä 16
ð@@ 16
ò@@ 16
Ş 16
ư 16
ʃ 16
Θ 16
Π@@ 16
ζ@@ 16
η 16
τερ@@ 16
И 16
Ц@@ 16
и@@ 16
й@@ 16
на 16
х@@ 16
ћ@@ 16
ա@@ 16
ֵ@@ 16
ה 16
י 16
ا 16
ث@@ 16
ري@@ 16
ܐ 16
ज@@ 16
ट@@ 16
ब@@ 16
य 16
ா@@ 16
กรกฎ@@ 16
མ@@ 16
ခ@@ 16
ဘ@@ 16
ါ@@ 16
ံ@@ 16
ნ 16
ថ@@ 16
៊@@ 16
ṃ@@ 16
‹@@ 16
※ 16
♦ 16
ⴰ@@ 16
『@@ 16
の 16
ら 16
ィ 16
乾@@ 16
交通@@ 16
传@@ 16
佐@@ 16
佳@@ 16
傅@@ 16
功@@ 16
去@@ 16
婆@@ 16
崇@@ 16
布@@ 16
当@@ 16
彭@@ 16
復@@ 16
探@@ 16
早@@ 16
果@@ 16
極@@ 16
榮@@ 16
欢@@ 16
步@@ 16
毛@@ 16
洲@@ 16
淑@@ 16
港@@ 16
照@@ 16
瑞@@ 16
用@@ 16
留@@ 16
發@@ 16
祝@@ 16
程@@ 16
竜@@ 16
竹@@ 16
総@@ 16
總@@ 16
红@@ 16
船@@ 16
菜@@ 16
說@@ 16
説@@ 16
謎@@ 16
豊@@ 16
逆@@ 16
造@@ 16
遷@@ 16
鍾@@ 16
隋@@ 16
靈@@ 16
는 16
다 16
만@@ 16
심@@ 16
크@@ 16
파@@ 16
1,3 15
3,5 15
500@@ 15
Abbas 15
Alem@@ 15
Alter@@ 15
Andal@@ 15
Anti 15
Antiqu@@ 15
Aper@@ 15
Bail@@ 15
Bart@@ 15
Bayer 15
Bernardo 15
Biography 15
Brab@@ 15
Brenn@@ 15
Bulgaria 15
CDU 15
Campo 15
Cannes 15
Clara 15
Columbus 15
Corr@@ 15
Dies 15
Dieu 15
Dominique 15
Eigen@@ 15
Et 15
Ferdin@@ 15
Flores 15
Galerie 15
Gaulle 15
Giov@@ 15
Glau@@ 15
Hamil@@ 15
Hitler 15
However 15
Irene 15
Javier 15
Jess@@ 15
Joaqu@@ 15
Kras@@ 15
Leeds 15
Lenin 15
Lour@@ 15
Luxemb@@ 15
Mash@@ 15
Mayer 15
Megach@@ 15
Milit@@ 15
Mills 15
Moritz 15
Nazi 15
Negro 15
Nieder@@ 15
Oakland 15
Palma 15
Panama 15
Park@@ 15
Partner 15
Pompe@@ 15
Poz@@ 15
Qualif@@ 15
Rez@@ 15
Romania 15
Rosario 15
Rotterdam 15
Rup@@ 15
Sahara 15
Schi@@ 15
Schl@@ 15
Schne@@ 15
Sebasti@@ 15
Sergio 15
Sos@@ 15
Spann@@ 15
Stadi@@ 15
Stim@@ 15
Strom@@ 15
Them@@ 15
Torre 15
Tourn@@ 15
Tours 15
Trau@@ 15
Vicente 15
Wiener 15
Wisconsin 15
XVIII 15
Yol@@ 15
ablan@@ 15
ably 15
accept@@ 15
achiev@@ 15
achieved 15
adel@@ 15
adop@@ 15
agers 15
aille 15
akers 15
alifor@@ 15
alom 15
anci@@ 15
anime 15
appeared 15
arle 15
arly 15
arring 15
asser@@ 15
athlon 15
attle 15
atz@@ 15
auf@@ 15
azo 15
bas 15
beginning 15
birds 15
bomb@@ 15
bons 15
buch 15
ceremony 15
championship 15
cht@@ 15
collaboration 15
concentr@@ 15
conference 15
consist@@ 15
continued 15
convention 15
cup@@ 15
dag@@ 15
dah@@ 15
debut 15
defense 15
description 15
dida 15
diplom@@ 15
disciplin@@ 15
discovered 15
driver 15
dura 15
effectiv@@ 15
effective 15
eigen@@ 15
electoral 15
emin 15
enor@@ 15
enos 15
entier 15
erina 15
esti 15
estu@@ 15
eus@@ 15
extended 15
federal 15
fellow 15
finals 15
flam@@ 15
ford@@ 15
frequ@@ 15
friends 15
gek@@ 15
giving 15
gur@@ 15
hali@@ 15
having 15
hing 15
hiy@@ 15
humans 15
iced 15
ikia 15
imperi@@ 15
improv@@ 15
inat@@ 15
industrial 15
inho 15
innov@@ 15
insul@@ 15
interpret@@ 15
invol@@ 15
iral 15
iri@@ 15
issen 15
itu 15
izo 15
kal 15
kas 15
kk 15
kum 15
kus 15
laine 15
lider 15
links 15
lyn 15
mash@@ 15
meter 15
moment 15
monit@@ 15
names 15
naz@@ 15
nich@@ 15
oba@@ 15
often 15
onge 15
oqu@@ 15
oras 15
others 15
paid 15
parall@@ 15
parts 15
pel 15
pez 15
pieces 15
plu@@ 15
poses 15
premi@@ 15
progr@@ 15
protected 15
proved 15
provided 15
pu 15
publics 15
rage 15
really 15
reproduc@@ 15
rer 15
riv@@ 15
roads 15
roman@@ 15
salv@@ 15
sched@@ 15
schel 15
seau 15
second@@ 15
sever@@ 15
severe 15
similar 15
situ 15
skie 15
soc@@ 15
sola 15
stadi@@ 15
structures 15
surve@@ 15
taken 15
techn@@ 15
tet 15
theater 15
tiger 15
tney 15
tras 15
trophe 15
tropo@@ 15
typical 15
ulio 15
ungs 15
unya 15
use@@ 15
uva 15
wann 15
yana 15
yaz@@ 15
yor 15
º 15
¾ 15
Í 15
þ 15
ă@@ 15
ő@@ 15
ř 15
Κ@@ 15
μα@@ 15
З@@ 15
д@@ 15
ь@@ 15
א 15
إِ@@ 15
ت@@ 15
رَ@@ 15
س@@ 15
ي 15
वि@@ 15
া 15
ి@@ 15
ు@@ 15
คณิต@@ 15
ตะวันตก@@ 15
พฤศจิ@@ 15
฿@@ 15
ာ 15
მ@@ 15
ხ@@ 15
ჽ 15
២ 15
ᡳ@@ 15
ṛ 15
ἰ@@ 15
《 15
き 15
ぐ@@ 15
ざ@@ 15
づ@@ 15
ア 15
ㄨ@@ 15
书@@ 15
亮@@ 15
倉@@ 15
倫@@ 15
共和@@ 15
医@@ 15
半@@ 15
及@@ 15
哈@@ 15
嗣@@ 15
大學@@ 15
头@@ 15
夷@@ 15
奈@@ 15
學@@ 15
尔@@ 15
幻@@ 15
提@@ 15
支@@ 15
改@@ 15
望@@ 15
机@@ 15
杜@@ 15
格@@ 15
樹@@ 15
毒@@ 15
浪@@ 15
潘@@ 15
牙@@ 15
珠@@ 15
璋@@ 15
田 15
督@@ 15
系@@ 15
芳@@ 15
菩@@ 15
蜜@@ 15
语@@ 15
軍 15
連@@ 15
铁@@ 15
雍@@ 15
鹿@@ 15
黑@@ 15
거@@ 15
미@@ 15
애@@ 15
은@@ 15
이 15
재@@ 15
후 15
희@@ 15
􀂃 15
Alba 14
Altar@@ 14
Amat@@ 14
Armstrong 14
Bank@@ 14
Bapti@@ 14
Bund@@ 14
Cairo 14
Carroll 14
Cen@@ 14
Cey@@ 14
Churchill 14
Composition 14
Consejo 14
Copa 14
Description 14
Dorothy 14
During 14
Edit@@ 14
Eduardo 14
Emilio 14
Emin@@ 14
Escu@@ 14
Famili@@ 14
Farm@@ 14
Fic@@ 14
Francia 14
Geb@@ 14
Geograph@@ 14
Gerhard 14
Haupt@@ 14
Hoffmann 14
Hohen@@ 14
Iber@@ 14
Indians 14
Isid@@ 14
Jord@@ 14
Kenn@@ 14
Kip@@ 14
Kuh@@ 14
Leicester 14
Liver@@ 14
Mahmud 14
Mao 14
Marcel@@ 14
Monroe 14
Montenegro 14
Moreno 14
Moy@@ 14
Mundial 14
Must@@ 14
Niss@@ 14
Norfolk 14
Oro 14
Oz@@ 14
Palest@@ 14
Papua 14
Philipp@@ 14
Profes@@ 14
Ptol@@ 14
Quint@@ 14
Rek@@ 14
Republic@@ 14
Ritter 14
Roma 14
Salzburg 14
Samoa 14
Schil@@ 14
Seine 14
Sherman 14
Span@@ 14
Spiel@@ 14
Stadt 14
Stadt@@ 14
TRT 14
Tau@@ 14
Thom@@ 14
Thu@@ 14
Toledo 14
Torino 14
Turkana 14
Typ@@ 14
Uh@@ 14
Unter@@ 14
Urban@@ 14
Winston 14
Yuc@@ 14
Yusuf 14
Zab@@ 14
Zuc@@ 14
abila 14
according 14
accoun@@ 14
account 14
acion 14
added 14
adio 14
agriculture 14
aill@@ 14
aily 14
alliance 14
allow 14
anded 14
anh 14
ansa 14
arde 14
arma 14
astronom@@ 14
atch@@ 14
ateur 14
atori@@ 14
attr@@ 14
auch 14
auff@@ 14
awarded 14
ayla 14
bahn 14
bail@@ 14
batt@@ 14
because 14
bio 14
bog@@ 14
bring 14
brook 14
brother 14
brothers 14
bula 14
cards 14
changes 14
chers 14
chev@@ 14
child@@ 14
chum 14
circul@@ 14
closed 14
commit@@ 14
confer@@ 14
conform@@ 14
constituent 14
daughter 14
decor@@ 14
dek 14
det 14
doing 14
eaux 14
effici@@ 14
ejo 14
enas 14
encia 14
endem@@ 14
endorf 14
entino 14
erb@@ 14
espace 14
feu 14
ffen 14
ffs 14
fici@@ 14
fie 14
forces 14
forma 14
fort@@ 14
found@@ 14
gend 14
glau@@ 14
gru@@ 14
guar@@ 14
hall@@ 14
homo@@ 14
houses 14
icos 14
idas 14
idos 14
ifa 14
ift@@ 14
ilan 14
illet 14
individual 14
insig@@ 14
insur@@ 14
intervention 14
isho 14
isition 14
itself 14
jah@@ 14
jazz 14
jou@@ 14
jour@@ 14
lac 14
losing 14
makes 14
mea 14
meister 14
miner@@ 14
mund 14
nad@@ 14
nir 14
notes 14
ofer@@ 14
oles 14
olina 14
ollis 14
ologne 14
onte 14
organis@@ 14
oslav@@ 14
osu 14
oyer 14
partner 14
pero 14
philosoph@@ 14
phones 14
planes 14
plar 14
plays 14
plum@@ 14
police 14
porno@@ 14
prac@@ 14
prison@@ 14
public@@ 14
puls@@ 14
pum@@ 14
qualif@@ 14
qualification 14
raid 14
rand 14
rav@@ 14
reading 14
reduced 14
regions 14
registr@@ 14
restaurant 14
results 14
roqu@@ 14
roy@@ 14
sax@@ 14
scher 14
scol@@ 14
sculpture 14
sek 14
sept 14
sets 14
significant 14
simultan@@ 14
sit 14
sociation 14
split 14
stag 14
subsequ@@ 14
subur@@ 14
succession 14
tang 14
tens 14
tina 14
tings 14
tish 14
treat@@ 14
trio 14
tunnel 14
uros 14
users 14
usually 14
vig@@ 14
vive 14
vu 14
wah@@ 14
wed 14
wur@@ 14
xon 14
ż 14
ɡ@@ 14
Θ@@ 14
Τ@@ 14
ά@@ 14
ία 14
ει@@ 14
ρι@@ 14
χ 14
ών@@ 14
М@@ 14
а@@ 14
ба@@ 14
ви@@ 14
ми@@ 14
р 14
ре@@ 14
ская 14
ь 14
ִ@@ 14
ח@@ 14
ט@@ 14
ל 14
ام@@ 14
ص@@ 14
عبد 14
عَ@@ 14
لَ@@ 14
و@@ 14
ون@@ 14
ܠ@@ 14
ނ@@ 14
ध@@ 14
ਕ@@ 14
ਾ@@ 14
ਿ@@ 14
มนู@@ 14
ลอน@@ 14
โนโล@@ 14
ໍ@@ 14
ჶ@@ 14
រ 14
‑ 14
→@@ 14
⊕@@ 14
ⲁ@@ 14
こ 14
し 14
ぞ@@ 14
と 14
に 14
ぶ@@ 14
与@@ 14
义@@ 14
亭@@ 14
仔@@ 14
克@@ 14
兒@@ 14
列@@ 14
到@@ 14
匡@@ 14
博@@ 14
受@@ 14
右@@ 14
圣@@ 14
堯@@ 14
壽@@ 14
奉@@ 14
奖@@ 14
女 14
奴@@ 14
好@@ 14
嬪@@ 14
宗 14
尼@@ 14
岡@@ 14
崎@@ 14
干@@ 14
強@@ 14
征@@ 14
律@@ 14
恵@@ 14
慧@@ 14
手 14
指@@ 14
村 14
柴@@ 14
梦@@ 14
次@@ 14
民主@@ 14
浙@@ 14
渡@@ 14
湘@@ 14
烏@@ 14
版@@ 14
牛@@ 14
私@@ 14
等@@ 14
編@@ 14
节@@ 14
薛@@ 14
街@@ 14
要@@ 14
观@@ 14
計@@ 14
足@@ 14
載@@ 14
輝@@ 14
陆@@ 14
震@@ 14
霸@@ 14
韩@@ 14
香港@@ 14
魯@@ 14
鴻@@ 14
가 14
백@@ 14
삼@@ 14
을 14
2.0@@ 13
Acan@@ 13
Aks@@ 13
Alpes 13
Andor@@ 13
Arap@@ 13
Assemb@@ 13
Athletics 13
Auckland 13
Augus@@ 13
Aux@@ 13
Belarus 13
Bev@@ 13
Bih@@ 13
Bismarck 13
Blum@@ 13
Braz@@ 13
Buffy 13
Bundest@@ 13
Camer@@ 13
Castil@@ 13
Castillo 13
Chall@@ 13
Christoph 13
Cinc@@ 13
Cincinnati 13
Cristi@@ 13
Cuba 13
Distr@@ 13
Diz@@ 13
Eck@@ 13
Ein 13
Eliz@@ 13
Ero@@ 13
Ethiop@@ 13
Fabr@@ 13
Feh@@ 13
Felipe 13
Fey@@ 13
Frit@@ 13
Gibraltar 13
Grab@@ 13
Guz@@ 13
Haus 13
Heim@@ 13
Hispania 13
Humboldt 13
Ib@@ 13
Iraq 13
Jaime 13
Jard@@ 13
Joyce 13
Kazakhstan 13
Khu@@ 13
Kiev 13
Kirch@@ 13
Kish@@ 13
Klo@@ 13
Klu@@ 13
Kriegs@@ 13
Lancaster 13
Lehr@@ 13
Llan@@ 13
Luf@@ 13
Machi 13
Mehr@@ 13
Mili@@ 13
Mord@@ 13
Ms@@ 13
Much@@ 13
Nac@@ 13
Naples 13
Nassau 13
Nepal 13
Nh@@ 13
Niv@@ 13
Okinawa 13
Partido 13
Peters 13
Pfe@@ 13
Phan 13
Pug@@ 13
Renault 13
Rum 13
Salaam 13
Sech@@ 13
Serbia 13
Siv@@ 13
Sporting 13
Strasbourg 13
Thail@@ 13
Ub@@ 13
Uni 13
Utah 13
Valencia 13
Ve 13
Vladi@@ 13
Vos@@ 13
Wester@@ 13
Yugoslavia 13
Zwe@@ 13
abilities 13
achers 13
actors 13
aday 13
addition 13
adt 13
afor@@ 13
agreement 13
akawa 13
aked 13
alion 13
almost 13
ammer 13
andes 13
aner 13
annul@@ 13
antas@@ 13
appearance 13
appel 13
applications 13
architec@@ 13
army 13
arre 13
atmosph@@ 13
atte 13
audio 13
ayr@@ 13
azar@@ 13
bald 13
bang 13
bare 13
behind 13
believe 13
blin 13
boards 13
bonus 13
bos 13
brick 13
broken 13
bs@@ 13
canon 13
cartes 13
certain 13
certific@@ 13
cet 13
changed 13
chef 13
chose 13
clas@@ 13
classes 13
coach 13
color@@ 13
comes 13
commerce 13
commercial 13
commonly 13
composition 13
confirm@@ 13
considered 13
containing 13
continent 13
currently 13
dans 13
dao 13
dated 13
dera 13
difficile 13
document 13
douard 13
drei 13
eccl@@ 13
egem@@ 13
eim@@ 13
eit@@ 13
elas 13
elier 13
endor@@ 13
engen 13
engines 13
ensburg 13
ensive 13
entra 13
eos 13
epe 13
equi@@ 13
erne 13
esca 13
eski 13
etings 13
europ@@ 13
exc@@ 13
facto 13
feder@@ 13
fest@@ 13
follows 13
forced 13
fum@@ 13
fund 13
gard@@ 13
garde 13
gets 13
group@@ 13
hardt 13
hau@@ 13
hay 13
histori@@ 13
hus@@ 13
ibada 13
ickl@@ 13
idad 13
ika@@ 13
ilit@@ 13
illas 13
illustr@@ 13
infl@@ 13
intens@@ 13
invent@@ 13
iran 13
irat 13
irie 13
isl@@ 13
isme 13
issi@@ 13
itos 13
jas 13
join 13
juris@@ 13
kana 13
kea 13
kop@@ 13
kos@@ 13
lai 13
launch 13
learned 13
lein 13
leist@@ 13
liers 13
lux@@ 13
manufactur@@ 13
manus@@ 13
meng@@ 13
mites 13
mitted 13
mot 13
native 13
nick@@ 13
nio 13
oce 13
older 13
olm 13
ondo@@ 13
onz@@ 13
oran 13
organiz@@ 13
particip@@ 13
partition 13
photograp@@ 13
pie 13
powered 13
price 13
purchase 13
railway 13
rano 13
recht 13
remix 13
request 13
rip 13
roi 13
says 13
schaft 13
schw@@ 13
scienti@@ 13
sections 13
sell 13
senior 13
serving 13
sey@@ 13
shap@@ 13
sich@@ 13
siv@@ 13
siz@@ 13
skills 13
skir@@ 13
soccer 13
song@@ 13
spap@@ 13
stay 13
stel@@ 13
stitut@@ 13
symbol@@ 13
tabl@@ 13
takes 13
tests 13
tif 13
tradi@@ 13
transform@@ 13
tributed 13
trou@@ 13
tun 13
ulia 13
urity 13
vit 13
volun@@ 13
wash@@ 13
wick@@ 13
wife 13
workers 13
xen 13
yet@@ 13
zano 13
zim@@ 13
³@@ 13
´ 13
¹ 13
î@@ 13
ɴ 13
ˇ@@ 13
ˑ@@ 13
Φιλ@@ 13
αν@@ 13
ειν@@ 13
κλ@@ 13
κο@@ 13
Ш@@ 13
е 13
ци@@ 13
ч@@ 13
ַ@@ 13
ג@@ 13
ן@@ 13
פ@@ 13
الس@@ 13
خ@@ 13
قَ@@ 13
ك@@ 13
مِ@@ 13
وْ@@ 13
ى 13
ُ 13
ܘ@@ 13
ܪ@@ 13
ܫ@@ 13
ं 13
ङ@@ 13
र 13
ল@@ 13
ฦ 13
ิ่ม@@ 13
฿ 13
ໂ@@ 13
ໄ@@ 13
འ@@ 13
ེ@@ 13
ူ@@ 13
გ@@ 13
ឋ@@ 13
ឹ@@ 13
ៅ@@ 13
ḍ@@ 13
↑@@ 13
↔ 13
⟨@@ 13
』@@ 13
す 13
为@@ 13
便@@ 13
兴@@ 13
军@@ 13
刑@@ 13
劍@@ 13
品@@ 13
國際@@ 13
孟@@ 13
宏@@ 13
室@@ 13
容@@ 13
幸@@ 13
店@@ 13
待@@ 13
得@@ 13
必@@ 13
忍@@ 13
恐@@ 13
拓@@ 13
放@@ 13
斯@@ 13
旗@@ 13
映@@ 13
暗@@ 13
本 13
杨@@ 13
根@@ 13
桥@@ 13
殊@@ 13
段@@ 13
沖@@ 13
活@@ 13
淮@@ 13
深@@ 13
温@@ 13
灣@@ 13
熙@@ 13
申@@ 13
番@@ 13
登@@ 13
砂@@ 13
礼@@ 13
禮@@ 13
童@@ 13
純@@ 13
結@@ 13
襲@@ 13
象@@ 13
資@@ 13
邦@@ 13
郷@@ 13
鄧@@ 13
镇@@ 13
隠@@ 13
革命@@ 13
顔@@ 13
麟@@ 13
궁@@ 13
단@@ 13
말@@ 13
별@@ 13
송@@ 13
숙@@ 13
승@@ 13
평@@ 13
￼ 13
3,3 12
4.000 12
Afrika 12
Ago@@ 12
Agus@@ 12
Alf@@ 12
Alphon@@ 12
Als@@ 12
Amerika 12
Anto@@ 12
Ars@@ 12
Autob@@ 12
Baja 12
Banda 12
Berger 12
Blas@@ 12
Bremen 12
Croix 12
Dar 12
Delaware 12
Dieter 12
Domingo 12
Eber@@ 12
Edmon@@ 12
Eh@@ 12
Ej@@ 12
Energ@@ 12
Enrique 12
Entr@@ 12
Esk@@ 12
Eugen 12
Ferg@@ 12
Fis@@ 12
Frei@@ 12
Freiburg 12
Gilles 12
Groupe 12
Grund@@ 12
Guerra 12
Hasan 12
Hawai@@ 12
Hek@@ 12
Herzeg@@ 12
Holstein 12
Hy 12
Instituto 12
Ital@@ 12
Janu@@ 12
Karab@@ 12
Kard@@ 12
Kenya 12
Konrad 12
Kost@@ 12
Kunst 12
Maine 12
Manz@@ 12
Meter 12
Miner@@ 12
Mundo 12
Neum@@ 12
Parc 12
PhD 12
Pius 12
Polit@@ 12
Portland 12
Porto 12
Quadr@@ 12
Rath@@ 12
Reims 12
Reyes 12
Reyn@@ 12
Richter 12
Rodrigo 12
Ruh@@ 12
Santi@@ 12
Sask@@ 12
Serv@@ 12
Sog@@ 12
Sta@@ 12
Sus 12
Tali@@ 12
Team@@ 12
Thu 12
Toul@@ 12
Tradition 12
Ung@@ 12
Vak@@ 12
Vier@@ 12
Vietnam@@ 12
Winter@@ 12
Yen@@ 12
Yoh@@ 12
Yves 12
abled 12
aho 12
aje 12
akes 12
aki@@ 12
alay@@ 12
aldo 12
anges 12
annes 12
appropri@@ 12
argent 12
artists 12
asco 12
asta 12
atas 12
aters 12
athle@@ 12
atz 12
aue 12
aura 12
ausen 12
avis 12
bah@@ 12
bands 12
bara 12
beau 12
benef@@ 12
beyond 12
bien 12
bil 12
billion 12
built 12
caf@@ 12
campaign 12
cara 12
ceau 12
circu@@ 12
cker 12
consequ@@ 12
context 12
contin@@ 12
corona 12
correspond@@ 12
crew 12
czy@@ 12
dest@@ 12
deutsche 12
diagn@@ 12
dict@@ 12
dim 12
doctr@@ 12
domestic 12
dram@@ 12
duty 12
eber@@ 12
eberg 12
eci 12
eden@@ 12
editor 12
elen@@ 12
ellen 12
elos 12
emu 12
engineer 12
engo 12
ensch@@ 12
equipment 12
erland 12
escape 12
esqu@@ 12
eurs 12
every@@ 12
exist@@ 12
experimental 12
exter@@ 12
fah@@ 12
famous 12
featured 12
few 12
financial 12
finish 12
fj@@ 12
fortun@@ 12
foundation 12
further 12
gae 12
gea 12
geograph@@ 12
gri 12
gyp@@ 12
haps 12
hem 12
hero@@ 12
himself 12
hof 12
huo 12
iano 12
icana 12
ichen 12
icht 12
idor 12
iff@@ 12
ignan 12
iler@@ 12
imar 12
impres@@ 12
inden 12
independence 12
indi 12
ingly 12
inne 12
ischen 12
itat 12
iten 12
jen@@ 12
junior 12
kem@@ 12
lass@@ 12
libre 12
lichen 12
liga 12
lima 12
limit@@ 12
longer 12
looking 12
lum@@ 12
mano 12
manu@@ 12
medieval 12
mee 12
memor@@ 12
mere 12
metre 12
mg@@ 12
mobil@@ 12
models 12
monde 12
moving 12
mst@@ 12
namo 12
neau 12
nen@@ 12
nominated 12
nutri@@ 12
octo@@ 12
ofs 12
oise 12
olled 12
orange 12
oses 12
oslov@@ 12
otra 12
otz 12
owner 12
pense 12
petrol@@ 12
pital 12
places 12
pole@@ 12
popul@@ 12
preci@@ 12
pref@@ 12
prize 12
produced 12
proper@@ 12
proportion 12
provid@@ 12
publication 12
quilla 12
radar 12
rebel@@ 12
reform@@ 12
requi@@ 12
ril@@ 12
rique 12
rival 12
rounds 12
sanc@@ 12
separate 12
seri 12
sig 12
sini 12
sos@@ 12
spread 12
straight 12
successfully 12
suicide 12
suj@@ 12
tables 12
taire 12
taking 12
technical 12
ted@@ 12
tees 12
tek 12
thias 12
thon 12
tige 12
tracks 12
trail@@ 12
tronic 12
tsch@@ 12
uer 12
ulas 12
uled 12
ulg@@ 12
ulos 12
ume@@ 12
unde 12
underground 12
unia 12
univers@@ 12
upe 12
valley 12
vamp@@ 12
vania 12
verw@@ 12
visite 12
vita 12
vy@@ 12
wam@@ 12
weg 12
yab@@ 12
yans@@ 12
zes 12
±@@ 12
É@@ 12
Ô 12
Ø@@ 12
÷@@ 12
đ@@ 12
ė 12
ţ 12
ʌ@@ 12
ʾ 12
ʾ@@ 12
˚ 12
˥@@ 12
̀@@ 12
̪@@ 12
Γ 12
Ι@@ 12
Λ@@ 12
κα@@ 12
λι@@ 12
πο@@ 12
τ 12
όν@@ 12
Г 12
Е@@ 12
б@@ 12
не 12
я 12
ן 12
آ@@ 12
بَ@@ 12
ش@@ 12
فَ@@ 12
ق 12
لا@@ 12
محمد 12
ن 12
अ@@ 12
का@@ 12
मा@@ 12
ह@@ 12
ै 12
ਰ@@ 12
ੰ@@ 12
พื้@@ 12
ც@@ 12
ញ@@ 12
ឧ@@ 12
ắ 12
ῆ@@ 12
∆ 12
○ 12
♡@@ 12
⟩ 12
く 12
ぼ@@ 12
ズ 12
下 12
丞@@ 12
亚@@ 12
亥@@ 12
優@@ 12
兄@@ 12
其@@ 12
切@@ 12
制@@ 12
卓@@ 12
危@@ 12
叉 12
君 12
咲@@ 12
[...]
