de 1
, 1
. 0.9051892402875563
la 1
en 1
el 1
y 1
a 1
&quot; 1
que 1
del 1
los 1
se 1
un 1
por 1
con 1
una 1
) 0.9087615651671153
( 0.9085880724586197
las 1
su 1
es 1
al 1
o 1
como 1
para 1
ado 1
El 1
ó 1
En 1
as 1
fue 1
@-@ 0.3888620377984421
os 1
ar 1
La 1
ación 1
ada 1
más 1
: 1
no 1
ados 1
lo 1
sus 1
ía 1
ando 1
re@@ 1
era 1
; 1
an 0.5997303038109572
entre 1
dos 1
adas 1
in@@ 1
ales 1
aron 1
años 1
también 1
Los 1
aba 1
ón 1
des@@ 1
le 0.41337867771947795
son 1
aciones 1
año 1
este 1
hasta 1
parte 1
al@@ 1
c@@ 1
pero 1
sobre 1
ente 1
donde 1
í@@ 1
« 0.7592332307494304
» 0.7593534196921086
an@@ 1
ac@@ 1
P@@ 1
ha 1
ido 1
ante 1
to 0.13688084188242672
esta 1
ser 1
desde 1
con@@ 1
ción 1
e 1
ana 1
ano 1
antes 1
p@@ 1
A 1
Se 1
C@@ 1
ar@@ 1
es@@ 1
A@@ 1
durante 1
% 1
T@@ 1
ina 1
ta 1
S@@ 0.8681459110591687
ciudad 1
t@@ 1
á@@ 1
ia 1
ida 1
u@@ 1
ya 1
entes 1
encia 1
r@@ 1
&apos; 0.6294307793549891
or@@ 1
L@@ 0.9944050419541305
da 1
en@@ 0.9458953463138604
ad@@ 1
M@@ 1
j@@ 1
ario 1
Las 1
s@@ 0.783975008488687
ador 1
primera 1
idad 1
después 1
ica 1
había 1
as@@ 1
está 1
ista 1
or 0.614999408676537
ó@@ 1
qu@@ 1
v@@ 1
l@@ 1
d@@ 1
do 1
su@@ 1
fueron 1
1 0.8013537101170772
o@@ 1
on@@ 1
amente 1
eran 1
tiene 1
di@@ 1
án 1
per@@ 1
San 1
ab@@ 1
uno 1
/ 0.7825449403768084
cuando 1
n@@ 1
D@@ 0.8862033018813563
primer 1
Su 1
tr@@ 1
ec@@ 1
ico 1
2 0.836062548166995
f@@ 1
otros 1
nombre 1
est@@ 1
E@@ 1
g@@ 1
F@@ 0.9169950587378934
b@@ 1
tres 1
par@@ 1
arse 1
ti@@ 1
sin 1
ci@@ 1
er@@ 0.9077614744068345
mismo 1
población 1
ic@@ 1
vez 1
cu@@ 1
oc@@ 1
O@@ 1
V@@ 1
i@@ 1
B@@ 0.7684995690198794
car@@ 1
ex@@ 1
el@@ 1
ino 1
ch@@ 0.9328493571145061
gran 1
forma 1
R@@ 0.8567870626993239
cual 1
ones 1
H@@ 0.8466873135899243
co@@ 1
puede 1
&#93; 1
&#91; 1
Fue 1
G@@ 0.7879401703592697
e@@ 0.8596509943690372
aban 1
N@@ 0.9086753604090534
Con@@ 1
er 0.2427033282968461
ciones 1
ese 1
is@@ 1
familia 1
at@@ 1
encuentra 1
im@@ 1
3 0.8467420281299594
ían 1
ag@@ 1
muy 1
así 1
idos 1
lugar 1
de@@ 1
adores 1
vi@@ 1
ero 1
io 1
contra 1
it@@ 1
m@@ 1
sido 1
km 1
Es 1
endo 1
am@@ 1
equipo 1
Estados 1
amiento 1
siglo 1
Al@@ 1
junto 1
tiempo 1
- 0.6231325369302109
com@@ 1
Unidos 1
arios 1
ent@@ 1
embargo 1
tos 1
il@@ 1
z@@ 0.938709601418719
The 0.12225569049058937
grupo 1
estado 1
va 1
han 1
almente 1
s 0.3325382985854897
Ar@@ 1
4 0.8359465149693952
mayor 1
on 0.1355512549980148
mar@@ 1
ro@@ 1
bajo 1
em@@ 1
J@@ 1
istas 1
cada 1
ores 1
ir 1
icos 1
cor@@ 1
y@@ 1
esa 1
ión 1
todo 1
serie 1
ol@@ 1
br@@ 1
solo 1
i 0.9060418542752963
icas 1
jo 1
eron 1
inter@@ 1
po@@ 1
España 1
aria 1
pl@@ 1
ismo 1
Universidad 1
estaba 1
za 1
quien 1
ap@@ 1
De 1
a@@ 1
otras 1
ato 1
un@@ 0.662576317023152
Nacional 1
tras 1
pre@@ 1
siendo 1
También 1
anos 1
ur@@ 1
encias 1
ento 1
personas 1
rec@@ 1
ir@@ 1
municipio 1
aje 1
aunque 1
mientras 1
op@@ 1
ora 1
I@@ 1
todos 1
5 0.8488303066439307
tanto 1
Por 1
ot@@ 1
vida 1
nuevo 1
is 0.1056682687838806
Mar@@ 1
h@@ 0.7550703181409915
ita 1
Al 1
dis@@ 1
ul@@ 1
temporada 1
ven@@ 1
país 1
enta 1
tor@@ 1
om@@ 1
á 1
les 0.21636172198219156
6 0.8721213823399525
ella 1
et@@ 1
hacia 1
os@@ 1
mon@@ 1
gu@@ 1
In@@ 1
ú@@ 1
día 1
final 1
An@@ 1
ca 1
uso 1
tuvo 1
si 1
é@@ 1
Ch@@ 1
co 1
K@@ 0.5421417920796725
in 0.029788476727732664
gobierno 1
osa 1
le@@ 1
álbum 1
general 1
mayo 1
col@@ 1
us@@ 1
10 0.855552754058912
Juan 1
tenía 1
2010 1
af@@ 1
enero 1
cre@@ 1
marzo 1
Z@@ 0.8566969942606479
sub@@ 1
octubre 1
septiembre 1
Sin 1
bi@@ 1
historia 1
Car@@ 1
² 1
película 1
— 0.27140399694556755
julio 1
total 1
varios 1
us 0.6730955074907539
” 1
cuatro 1
“ 0.44335494682299714
ito 1
junio 1
ena 1
sur 0.5822889564576439
Historia 1
ías 1
él 1
re 1
región 1
&amp; 0.6129977612846826
diciembre 1
partido 1
idas 1
habitantes 1
abril 1
ra 1
Este 1
agosto 1
fr@@ 1
és 0.9222206420523053
José 1
te@@ 1
eros 1
obra 1
ver@@ 0.5341862477488136
especie 1
U@@ 1
número 1
entonces 1
ara 1
id@@ 1
z 1
debido 1
ed@@ 1
noviembre 1
av@@ 1
pi@@ 1
te 0.404852443531638
Durante 1
algunos 1
mundo 1
pueden 1
ri@@ 1
eta 1
río 1
7 0.8433576437788105
res@@ 1
eo 1
ura 1
luego 1
oso 1
dio 1
ja 1
idades 1
ter@@ 1
través 1
m 0.7125418528530532
das 0.3434413459192628
estos 1
ología 1
ig@@ 1
ín 1
principal 1
además 1
pas@@ 1
Según 1
az@@ 1
sistema 1
í 1
norte 1
cuenta 1
aría 1
20 0.9496923564157211
febrero 1
aj@@ 1
banda 1
presidente 1
Esta 1
entos 1
8 0.8187048737507606
agua 1
eg@@ 1
guerra 1
man@@ 1
I 0.7681451137247379
Cor@@ 1
of 0.02404898774705376
li@@ 0.9319369543276552
estas 1
México 1
ona 1
otro 1
u 0.7994645882143087
segundo 1
W@@ 0.4399216867721697
illa 1
cas@@ 1
inas 1
sal@@ 1
hizo 1
na 1
edad 1
partir 1
cer@@ 1
provincia 1
siguiente 1
x@@ 1
inos 1
trabajo 1
puesto 1
Re@@ 0.9640468386313343
tarde 1
ant@@ 1
ma 1
unos 1
tico 1
zona 1
ata 1
án@@ 1
ñ@@ 1
ellos 1
Com@@ 1
contr@@ 1
conocido 1
ares 1
canción 1
están 1
iz@@ 1
ob@@ 1
15 0.9586406686195145
tu@@ 1
Para 1
estr@@ 1
dec@@ 1
able 0.8389230198018155
segunda 1
rey 1
her@@ 1
tica 1
estadounidense 1
poco 1
largo 1
12 0.8339041281101622
nacional 1
Con 1
tienen 1
dentro 1
d 0.36471453621577676
Santa 1
2011 0.9036224991172235
imiento 1
hu@@ 1
Tr@@ 1
to@@ 1
Nueva 1
pos@@ 1
reg@@ 1
tur@@ 1
carrera 1
ni@@ 1
esto 1
Después 1
muerte 1
María 1
Un 1
si@@ 1
Además 1
pres@@ 1
versión 1
Y@@ 0.9900760122073062
centro 1
tar@@ 1
sol@@ 1
vol@@ 1
varias 1
menos 1
cha 1
Una 1
momento 1
des 0.07927722897655158
obras 1
– 0.1955809815256407
can@@ 1
9 0.7860255123049352
and@@ 1
én@@ 1
Guerra 1
género 1
ea 1
tipo 1
pr@@ 1
Per@@ 1
30 0.9827757203748744
Est@@ 1
Mundial 1
0 1
medio 1
Desde 1
tas 1
esp@@ 1
posición 1
casa 1
Tras 1
vo 1
español 1
época 1
muchos 1
gr@@ 0.9717425269369535
ten@@ 1
trans@@ 1
grandes 1
nueva 1
ancia 1
hay 1
producción 1
hijo 1
r 1
bien 1
pe@@ 1
comenzó 1
anas 1
lado 1
2012 0.871028780871798
último 1
título 1
pu@@ 1
ro 1
No 1
ello 1
mayoría 1
misma 1
otra 1
metros 1
hace 1
bar@@ 1
Bar@@ 1
según 1
ama 1
16 0.9702255696249619
En@@ 1
18 0.8782798037593754
2014 0.8569365052979399
días 1
importante 1
Mon@@ 1
cerca 1
2015 0.8713767587968568
alidad 1
ár@@ 1
música 1
padre 1
ru@@ 1
11 0.8549241655745101
Entre 1
Or@@ 1
2008 0.8672919440959215
et 0.06975095207233767
poder 1
é 0.311156312427176
ley 1
diferentes 1
manera 1
2016 0.8752550447977063
tom@@ 1
localidad 1
Madrid 1
frente 1
2013 0.8573722588182485
Col@@ 1
ándose 1
cat@@ 1
lo@@ 0.7302379975519141
caso 1
línea 1
Estado 1
Carlos 1
mejor 1
ov@@ 1
hecho 1
nivel 1
represent@@ 1
Qu@@ 1
Es@@ 1
Francia 1
2009 0.8349938710538214
st@@ 0.43074129662604316
primeros 1
14 0.952719825393598
cr@@ 1
tura 1
adora 1
the 0.010171565448241975
millones 1
política 1
min@@ 1
25 1
ev@@ 1
2007 0.8859330251345139
gen@@ 1
programa 1
arr@@ 1
13 0.9902115706465654
cl@@ 1
II 1
construcción 1
República 1
Argentina 1
pueblo 1
convirtió 1
2000 1
end@@ 1
nos 1
cal@@ 1
llamado 1
juego 1
ay@@ 1
tes 0.9845672325760563
ieron 1
17 1
Par@@ 1
esc@@ 1
ejemplo 1
bu@@ 1
atr@@ 1
enc@@ 1
k 0.4389657500163552
Am@@ 1
fi@@ 1
haber 1
eto 1
cargo 1
algunas 1
tan 1
du@@ 1
cinco 1
arias 1
distrito 1
t 0.2398918296991572
k@@ 0.37128198174954774
veces 1
Como 1
ío 1
hab@@ 1
ran@@ 1
atos 1
ala 1
sa 0.5515751221215158
mer@@ 1
2006 0.8561945234362112
ce 0.5587601780496898
super@@ 1
der@@ 1
tor 1
bre 1
eb@@ 1
todas 1
19 0.93837927882059
2018 0.8103379924396433
Gu@@ 1
capital 1
club 1
so@@ 1
ber@@ 0.9888251874791371
miembros 1
ín@@ 1
um@@ 0.7822080203379274
conocida 1
mo 1
cuales 1
década 1
finales 1
l 0.3156793961072491
desarrollo 1
ición 1
der 0.04130305391957601
habían 1
punto 1
ela 1
mujeres 1
4@@ 0.9386078826903826
consider@@ 1
ma@@ 1
Sal@@ 1
illo 1
inc@@ 1
partidos 1
hacer 1
ativa 1
Biografía 1
Luis 1
9@@ 1
leg@@ 1
C 0.9247664821677504
constitu@@ 1
cur@@ 1
orden 1
2017 0.8030068046753078
ga 1
pesar 1
base 1
rom@@ 1
º 1
director 1
por@@ 1
sión 1
actual 1
Di@@ 1
oro 1
24 1
B 0.9256155618017239
Ex@@ 1
ubicado 1
Cal@@ 1
rel@@ 1
estudio 1
5@@ 0.8849064417197477
ve 0.34589072640002727
se@@ 0.6281140828363587
ticas 1
siguientes 1
ería 1
toda 1
tores 1
ativo 1
ep@@ 1
Francisco 1
especies 1
ati@@ 1
principales 1
gan@@ 1
ens@@ 0.9621224535103989
od@@ 1
mu@@ 1
estudios 1
casi 1
n 0.39192018050171773
Cu@@ 1
Europa 1
miembro 1
ne@@ 1
ari@@ 1
Chile 1
aci@@ 1
Co@@ 1
det@@ 1
Copa 1
acción 1
osos 1
.@@ 1
inglés 1
condado 1
2019 0.79132135647937
llegó 1
éxito 1
fútbol 1
Ro@@ 1
proyecto 1
hombres 1
compr@@ 1
ver 1
área 1
acuerdo 1
Cuando 1
Campeonato 1
21 0.9803783071319981
um 0.3436761954666098
realiz@@ 1
man 0.4556612271167114
prim@@ 1
inf@@ 1
all@@ 1
puntos 1
no@@ 1
Mor@@ 1
present@@ 1
mediante 1
22 1
tener 1
og@@ 1
cab@@ 1
ño 1
países 1
cualquier 1
As@@ 1
so 0.6154323089300202
dia 1
c 0.4715213634907984
ér@@ 1
televisión 1
estilo 1
C. 1
Club 1
cambio 1
2005 0.8831251863354596
prom@@ 1
Le@@ 0.842767179429886
ad 0.975460397091552
_ 0.6990277627546235
mor@@ 1
mo@@ 0.9074152615014043
ist@@ 1
fuera 1
estación 1
ez 1
6@@ 0.928660047653621
Partido 1
tierra 1
hi@@ 1
mi@@ 1
ut@@ 1
cio 1
and 0.01671086852835219
mar 1
isla 1
int@@ 1
ell@@ 1
au@@ 0.8849015914258522
ali@@ 1
trat@@ 1
origen 1
bas@@ 1
lu@@ 1
libro 1
8@@ 0.9887331123652158
fic@@ 1
York 0.8056606607999949
23 1
formación 1
equipos 1
ing 0.09439217343437648
cin@@ 1
produc@@ 1
x 0.8133767657440171
esper@@ 1
anza 1
ular 1
il 0.1970700616120516
adi@@ 1
militar 1
papel 1
llev@@ 1
Man@@ 1
ense 1
porque 1
tras@@ 1
neg@@ 1
$ 0.9623682846442552
recibió 1
Pr@@ 1
ye 1
eras 1
one 0.20655915532084515
Val@@ 1
medi@@ 1
ej@@ 1
h 0.5333923645363894
jos 1
edificio 1
dr@@ 0.9593870534890934
7@@ 0.9296180256153231
isión 1
15@@ 1
del@@ 1
ni 1
Antonio 1
tal 1
integr@@ 1
Alemania 1
fil@@ 1
color 1
Pedro 1
grupos 1
oeste 1
relación 1
Sus 1
ña 1
patr@@ 1
Real 1
pro@@ 1
fin 1
anti@@ 1
alrededor 1
cion@@ 1
2020 0.7342435095767983
última 1
estuvo 1
El@@ 1
ing@@ 0.9472713283226926
enci@@ 1
Gran 1
edición 1
encuentran 1
2004 0.8433256793461918
celebr@@ 1
sem@@ 1
oficial 1
do@@ 1
alto 1
ambos 1
mat@@ 1
ajes 1
Pro@@ 1
proceso 1
arte 1
plan@@ 1
for@@ 0.7486410954787218
ser@@ 1
elo 1
ellas 1
principalmente 1
itos 1
elecciones 1
orio 1
28 1
público 1
superficie 1
ba@@ 1
Cas@@ 1
iglesia 1
canciones 1
División 1
lista 1
ol 1
General 1
ganó 1
principios 1
mucho 1
cel@@ 1
empresa 1
Br@@ 0.8104718872015751
servicio 1
ima 1
oper@@ 1
incluso 1
estaban 1
estar 1
Sh@@ 0.7461293131477842
territorio 1
Ver@@ 0.4531248796119817
alista 1
ect@@ 1
uc@@ 1
dic@@ 1
27 1
dieron 1
ang@@ 0.8047670179918783
disco 1
ase 1
meses 1
Gr@@ 0.9056471103777086
dice 1
sería 1
De@@ 1
importantes 1
sino 1
llamada 1
ici@@ 1
not@@ 1
Reino 1
dido 1
apar@@ 1
3@@ 0.8725102910149921
entr@@ 1
tivo 1
tel@@ 1
pel@@ 1
cá@@ 1
cabo 1
neces@@ 1
propio 1
pasó 1
político 1
América 1
seis 1
osas 1
at 0.06797025737055988
edi@@ 1
isi@@ 1
cru@@ 1
amp 0.5732957450290184
26 1
ática 1
Unión 1
internacional 1
O 0.9573486339547352
campo 1
sec@@ 1
ejército 1
Her@@ 1
ota 1
form@@ 1
finalmente 1
ónica 1
ge@@ 0.5171972048332751
llam@@ 1
término 1
muchas 1
aus@@ 0.5447627380371569
E 1
apo@@ 1
prot@@ 1
original 1
ton 0.5553428444749139
ate 0.23939033993205439
cas 1
má@@ 1
Primera 1
Liga 1
medios 1
eno 1
densidad 1
Norte 1
fer@@ 1
eño 1
cam@@ 1
lan@@ 1
musical 1
Segunda 1
pol@@ 1
of@@ 1
gi@@ 1
comp@@ 1
eso 1
oto 1
Buenos 1
icio 1
conjunto 1
100 0.8392625027559325
cho 0.9866667645505249
etas 1
parti@@ 1
eti@@ 1
ución 1
Ac@@ 1
agu@@ 1
cuerpo 1
iones 1
tir@@ 1
loc@@ 1
Can@@ 1
unas 1
separ@@ 1
debe 1
lar@@ 1
Aires 1
ua 1
John 0.6042132796724103
sede 1
ticos 1
grab@@ 1
siempre 1
én 1
departamento 1
port@@ 1
am 0.19847647874741028
Internacional 1
francés 1
mes 1
destac@@ 1
sin@@ 1
madre 1
camp@@ 1
movimiento 1
2003 0.8785282329709538
p 0.5581297910189633
obtuvo 1
derrot@@ 1
Aunque 1
sólo 1
ios 1
aut@@ 1
alización 1
° 1
ático 1
soci@@ 1
Manuel 1
ie 0.3034492543124175
observ@@ 1
resto 1
compañía 1
qued@@ 1
aliz@@ 1
posteriormente 1
mujer 1
agr@@ 1
Sur 1
cont@@ 1
media 1
ables 1
val@@ 1
hijos 1
azo 1
iv@@ 1
Iglesia 1
29 1
organiz@@ 1
ará 1
realizó 1
sen@@ 1
cional 1
ió 1
Italia 1
gener@@ 1
primero 1
categoría 1
den@@ 1
cultura 1
ques 0.9335335648400033
nombrado 1
igual 1
signific@@ 1
Esto 1
central 1
zo 1
aún 1
son@@ 1
añ@@ 1
Ma@@ 1
bo@@ 0.6793353021559395
tí@@ 1
especialmente 1
chas 1
Te@@ 1
liber@@ 1
nu@@ 1
ins@@ 1
ori@@ 1
ete 1
ef@@ 1
2001 0.817158190080463
cant@@ 1
don@@ 1
anterior 1
cos 1
tri@@ 0.9347070405358033
fuerzas 1
social 1
publicado 1
sí 1
ib@@ 1
hija 1
alta 1
ra@@ 1
local 0.9397253448985255
Ciudad 1
hoy 1
met@@ 1
Ju@@ 1
che 0.9488949544468513
Cr@@ 1
po 1
española 1
único 1
organización 1
sur@@ 0.8222083666770497
elimin@@ 1
illas 1
eng@@ 1
public@@ 1
señ@@ 1
enti@@ 1
cit@@ 1
mas@@ 1
miento 1
tiva 1
ubicada 1
declar@@ 1
2002 0.7971105444965947
batalla 1
Barcelona 1
amos 1
resultado 1
censo 1
aqu@@ 1
ud@@ 1
sim@@ 1
Instituto 1
período 1
hermano 1
dirección 1
control 1
mis@@ 1
Reg@@ 1
-@@ 1
Santiago 1
Su@@ 1
determin@@ 1
inici@@ 1
París 1
jugador 1
incluyendo 1
dió 1
X@@ 1
ocup@@ 1
esti@@ 1
tamente 1
anc@@ 1
profesional 1
dado 1
mal@@ 1
logr@@ 1
jas 1
estructura 1
eza 1
ion@@ 1
caus@@ 1
mur@@ 1
ác@@ 1
escuela 1
especi@@ 1
sencillo 1
Á@@ 1
Geografía 1
tema 1
conserv@@ 1
cul@@ 1
tan@@ 1
imientos 1
S 0.8336587424026053
oni@@ 1
Cam@@ 1
administr@@ 1
ae 1
aco 1
lanz@@ 1
investigación 1
qui@@ 1
aca 1
establec@@ 1
Po@@ 1
pul@@ 1
cost@@ 1
revista 1
entemente 1
oblig@@ 1
ago 1
hombre 1
Lu@@ 1
utiliz@@ 1
iles 1
ega 1
bor@@ 1
50 0.9091468113415136
visit@@ 1
modo 1
V 1
1990 0.9070246829243707
Mal@@ 1
fecha 1
pal@@ 1
torneo 1
llegar 1
defin@@ 1
paso 1
jug@@ 1
2021 0.7288725784766873
segu@@ 1
fin@@ 0.8917697107607677
ton@@ 1
N 1
ún@@ 1
0.@@ 1
sea 1
tir 1
tal@@ 1
dem@@ 1
habit@@ 1
Des@@ 1
! 0.7554242866842548
antiguo 1
cri@@ 1
Pas@@ 1
actividad 1
apoyo 1
Juegos 1
14@@ 0.7887338641700304
X 1
1999 0.8403893482139404
usa 1
bal@@ 1
extr@@ 1
formula 0.5882053820870933
datos 1
incorpor@@ 1
centr@@ 1
men@@ 1
francesa 1
g 0.4833783847889492
1.@@ 1
actualmente 1
ed 0.0766017735783141
llevó 1
nació 1
decir 1
Pol@@ 1
amientos 1
... 1
Hu@@ 1
encontr@@ 1
Perú 1
popular 1
pes@@ 1
mostr@@ 1
ahora 1
ah@@ 0.9707855463101539
modelo 1
espacio 1
comunidad 1
superior 1
D 0.8126897667756158
algo 1
ografía 1
ira 1
ema 1
pues 1
enfrent@@ 1
aya 1
Luego 1
servicios 1
abilidad 1
derecho 1
pat@@ 1
Miguel 1
bl@@ 0.6962669553776204
ativas 1
aparece 1
dar 1
atura 1
dur@@ 1
reci@@ 1
personal 1
ciudades 1
elegido 1
joven 1
pens@@ 1
problemas 1
fun@@ 1
participó 1
presión 1
real 1
Tor@@ 1
Gal@@ 1
Ber@@ 0.833600630048416
iendo 1
Bel@@ 0.9424710289505166
san@@ 1
situada 1
interior 1
autor 1
ór@@ 1
posible 1
Rec@@ 1
creación 1
ces 0.9668588646055585
cine 1
be 0.12064160664658859
fund@@ 1
clasific@@ 1
31 0.9867081622438251
dad 1
pen@@ 1
personaje 1
encarg@@ 1
direc@@ 1
información 1
aga 1
vieron 1
Si 1
Se@@ 0.6846781223318041
Centro 1
Gobierno 1
Fu@@ 1
lam@@ 1
primeras 1
ocur@@ 1
0,@@ 1
ta@@ 1
propia 1
tem@@ 1
única 1
dirig@@ 1
isiones 1
Museo 1
Unido 1
tic@@ 1
Pi@@ 1
capacidad 1
campeón 1
diseño 1
menor 1
cantante 1
puestos 1
Be@@ 0.5000526463826638
ón@@ 1
registr@@ 1
anunció 1
ola 1
termin@@ 1
logró 1
Río 1
expres@@ 1
resp@@ 1
aproximadamente 1
iciones 1
tivos 1
000 1
ret@@ 1
ere 0.8005847231363576
For@@ 0.9675361529592692
pa 1
Bal@@ 1
conc@@ 1
dijo 1
Consejo 1
culo 1
victoria 1
recuper@@ 1
mil@@ 1
igu@@ 1
ás@@ 1
actor 1
Premio 1
Escuela 1
prec@@ 1
w@@ 0.23870041366416248
emb@@ 1
ers 0.15424741638945982
situación 1
casos 1
úa 1
arm@@ 1
irse 1
nunca 1
ay 0.6638003276320168
1998 0.8470016901583878
Inglaterra 1
ach@@ 0.5600085650365311
Demografía 1
objetivo 1
calle 1
icia 1
publicó 1
Más 1
nuevos 1
III 1
vari@@ 1
natural 1
alismo 1
40 0.8975037711669728
Japón 1
pot@@ 1
sigue 1
encial 1
L 0.6387592789334602
temas 1
diseñ@@ 1
Brasil 1
Mat@@ 1
común 1
alemán 1
enda 1
Pero 1
acia 1
allí 1
ju@@ 1
suces@@ 1
Lo@@ 0.9867822139641628
volvió 1
idae 1
red@@ 1
ece 1
cantidad 1
Ab@@ 0.4417942796276449
Colombia 1
mad@@ 1
partes 1
tenían 1
principio 1
b 0.4425740852751012
China 1
vas 1
especial 1
conoce 1
tercer 1
ila 1
hor@@ 1
ord@@ 1
división 1
pequeño 1
var@@ 1
ier@@ 1
Ri@@ 1
acciones 1
trata 1
limit@@ 1
elementos 1
enas 1
Ejército 1
uni@@ 1
diversos 1
últimos 1
1980 1
decidió 1
có 0.43615035430852117
prop@@ 1
Londres 1
comun@@ 1
mano 1
Está 1
lin@@ 1
Mu@@ 1
escribió 1
espec@@ 1
costa 1
periodo 1
lat@@ 1
go 1
Ser@@ 1
fuerza 1
tar 1
mando 1
selección 1
campaña 1
asi@@ 1
R 0.7751633544417356
asoci@@ 1
altura 1
sum@@ 1
icios 1
Sol@@ 1
curso 1
Distribución 1
muestra 1
tam@@ 1
sus@@ 1
Mo@@ 0.8787482982236324
Pal@@ 1
erse 1
if@@ 0.9216972186478061
oma 1
derechos 1
disput@@ 1
grande 1
Fernando 1
situado 1
juegos 1
esposa 1
Vi@@ 1
tropas 1
sta 1
antigua 1
be@@ 0.25524999797108716
actividades 1
planta 1
1996 0.8697288463298443
M 0.8730400278154283
rea 1
Nor@@ 1
ind@@ 1
ativos 1
acompañ@@ 1
ill@@ 0.6528894780326246
Th@@ 0.4728234058984144
participación 1
ocho 1
Y 1
mand@@ 1
rit@@ 1
influ@@ 1
13@@ 0.7983334895417311
dir 1
prepar@@ 1
act@@ 1
domin@@ 1
St@@ 0.370070752360624
hom@@ 1
onal 1
ili@@ 1
presencia 1
cap@@ 1
Así 1
zonas 1
áreas 1
estudi@@ 1
incluye 1
v 0.8625745620271106
ite 0.48205485936759296
nuevas 1
ental 1
pos 1
ivo 1
def@@ 1
bol@@ 1
endi@@ 1
aja 1
libre 1
idi@@ 1
ast@@ 1
tuvieron 1
gol@@ 1
Censo 1
ende 0.7162109756712957
longitud 1
1997 0.8460253425669878
les@@ 1
und@@ 0.854049596650681
formas 1
clase 1
sitio 1
nor@@ 1
grado 1
vía 1
ne 0.25601655393011075
ética 1
él@@ 1
dicho 1
profesor 1
1995 0.8806999786708486
Carrera 1
actu@@ 1
edit@@ 1
parec@@ 1
acept@@ 1
fo 1
películas 1
atac@@ 1
mente 1
vent@@ 1
arlo 1
vos 1
compuesto 1
viv@@ 1
den 0.0619139055333285
tig@@ 1
contin@@ 1
comuna 1
icamente 1
vio 1
siete 1
bat@@ 1
1992 0.860135741358808
eses 1
Bor@@ 1
Cer@@ 1
ine 0.251741845581148
ál@@ 1
amb@@ 1
T 0.7718433355196388
pública 1
ü@@ 0.967864936640539
compar@@ 1
novela 1
causa 1
retir@@ 1
hac@@ 1
ayo 1
tercera 1
Esp@@ 1
yó 1
err@@ 1
jefe 1
tora 1
tro@@ 1
teatro 1
ge 0.46090215034249005
fal@@ 1
ific@@ 1
persona 1
imagen 1
escu@@ 1
fac@@ 1
inst@@ 1
referencia 1
sociedad 1
ayuda 1
2@@ 0.8821309305034817
Inter@@ 1
cuyo 1
person@@ 1
financi@@ 1
XIX 1
fall@@ 1
1994 0.8557898446451371
fabric@@ 1
California 1
sab@@ 1
tamaño 1
quienes 1
isa 1
mitad 1
eleg@@ 1
personajes 1
fuerte 1
noche 1
lucha 1
menudo 1
ue 0.6885601527701186
seg@@ 1
continu@@ 1
rev@@ 1
= 0.5491084551576871
ección 1
colabor@@ 1
Un@@ 0.7977602102327873
fot@@ 1
idente 1
similar 1
pun@@ 1
trabaj@@ 1
10@@ 0.8400014825771787
oca 1
perteneciente 1
edo 1
inaugur@@ 1
éndose 1
Estos 1
me@@ 0.6321093929881572
matrimonio 1
León 1
ª 1
podría 1
ter 0.20798692617306716
ren@@ 0.8067523883686603
niños 1
gracias 1
til@@ 1
pudo 1
luz 1
Mientras 1
tim@@ 1
me 0.546959529943505
XX 1
ini 0.9886928266860153
prueba 1
amp@@ 1
mercado 1
Central 1
dar@@ 1
di 0.8760757820919614
realizar 1
tales 1
ines 0.7577718604392656
pequeña 1
ocasiones 1
divi@@ 1
ba 1
12@@ 0.8369139577213199
go@@ 1
ai 0.676576500660834
car 1
quedó 1
ez@@ 1
1970 0.9906062013295808
mediados 1
Imperio 1
Posteriormente 1
voc@@ 1
aza 1
Em@@ 1
gas 1
diversas 1
restaur@@ 1
eles 1
presenta 1
ler@@ 1
complet@@ 1
Ti@@ 1
ización 1
interpret@@ 1
dej@@ 1
tero 1
García 1
libros 1
medida 1
bot@@ 1
acto 1
sobre@@ 1
actualidad 1
ú 1
ao 1
funcion@@ 1
edió 1
aprob@@ 1
apareció 1
aire 0.5235049033546021
1991 0.8255635674959843
ud 1
viol@@ 1
premio 1
Ros@@ 1
cuadr@@ 1
exist@@ 1
ka 0.7369276656940191
interés 1
función 1
th@@ 0.2190529870206369
educación 1
elev@@ 1
ológico 1
aña 1
idea 1
Actualmente 1
Mi@@ 1
lleva 1
Tiene 1
sir@@ 1
emp@@ 1
mencion@@ 1
alizado 1
yo 1
inform@@ 1
adquir@@ 1
razas 1
plantas 1
artistas 1
uta 1
diferencia 1
aplic@@ 1
Fútbol 1
Sud@@ 1
ministro 1
emos 1
identific@@ 1
flu@@ 1
alt@@ 1
acu@@ 1
gar@@ 1
trabajos 1
Venezuela 1
gt 0.4906420301796316
episodio 1
manos 1
ónico 1
Ha 1
mundial 1
David 0.9538528463220638
ania 1
secu@@ 1
P 0.8003061858244372
par 0.10313492307022991
Congreso 1
elec@@ 1
emente 1
cm 1
adop@@ 1
San@@ 1
etapa 1
aer@@ 1
liga 1
eri@@ 1
Bo@@ 0.7144983773461732
murió 1
diendo 1
horas 1
tro 1
mec@@ 1
Cruz 1
unió 1
lanzado 1
Roma 1
eció 1
particip@@ 1
ecu@@ 1
viaj@@ 1
Ger@@ 0.9600246001120892
zar 1
1993 0.8356275765631423
medalla 1
vir@@ 1
américa 1
obispo 1
Ne@@ 0.5909504457149555
sex@@ 1
jugó 1
profes@@ 1
gobernador 1
emiti@@ 1
Festival 1
dom@@ 1
fe@@ 0.5360626333282074
Dis@@ 1
bur@@ 1
f 0.5005847453916127
itas 1
mejores 1
canal 1
investig@@ 1
red 0.8913493309966986
sel@@ 1
invit@@ 1
energía 1
honor 1
revel@@ 1
ataque 1
geográfica 1
ger@@ 0.6731136689302536
Er@@ 0.39374081417903134
vid@@ 1
radi@@ 1
cuya 1
sit@@ 1
into 0.21342411776494644
ánica 1
Oficina 1
he@@ 0.5846462346889747
Rusia 1
fol@@ 1
Du@@ 1
gira 1
vig@@ 1
valor 1
relacion@@ 1
nombr@@ 1
Mc@@ 0.609520116649853
electr@@ 1
Pres@@ 1
60 0.9847800004489071
defensa 1
permite 1
sac@@ 1
ánico 1
presentó 1
emple@@ 1
ística 1
’ 0.08410587867265783
cabeza 1
características 1
aument@@ 1
lugares 1
ció 1
Q@@ 0.8176305905943233
ust@@ 1
fu@@ 1
liter@@ 1
contribu@@ 1
Del 1
mit@@ 1
plaza 1
dirigida 1
óm@@ 1
relaciones 1
influencia 1
kilómetros 1
actriz 1
baja 1
lt 0.4798484206501208
ayud@@ 1
amento 1
ás 1
per 0.5254894402751126
barrio 1
sh@@ 0.2792366094586722
formar 1
culos 1
Tur@@ 1
ampli@@ 1
fase 1
hum@@ 1
Fr@@ 1
significa 1
Academia 1
80 1
conven@@ 1
fir@@ 1
armas 1
eda 1
indic@@ 1
propiedad 1
frontera 1
manten@@ 1
Cl@@ 1
dor@@ 1
asc@@ 1
lig@@ 1
coloc@@ 1
Bu@@ 1
ey 0.7609033676642268
presid@@ 1
dol@@ 1
Ad@@ 0.7892550231833386
alm@@ 1
distancia 1
sig@@ 1
importancia 1
incluyen 1
bres 1
dejó 1
pró@@ 1
ónimo 1
ecto 1
Med@@ 1
formó 1
eca 1
gal@@ 1
1989 0.8425264934590099
Pe@@ 1
ch 0.31692278214310954
ras@@ 1
Casa 1
etc. 1
activ@@ 1
verano 1
Tierra 1
tierras 1
vers@@ 1
jugadores 1
material 1
torno 1
med@@ 1
2.@@ 1
Jorge 1
diez 1
vista 1
inició 1
trabajó 1
futbolista 1
camino 1
respecto 1
terminó 1
Mag@@ 1
pag@@ 1
auto@@ 1
ender 1
distribu@@ 1
sociales 1
frecu@@ 1
dicha 1
reduc@@ 1
suc@@ 1
sector 1
New 0.19320776037158602
ficas 1
Mer@@ 1
sil@@ 1
+ 0.9018187083146048
uras 1
aparec@@ 1
condiciones 1
embar@@ 1
generalmente 1
comercial 1
iva 1
aparición 1
mil 1
ede 1
ve@@ 1
conoc@@ 1
&#124; 0.8752656278772716
debut 1
tera 1
pan@@ 1
siones 1
esas 1
asist@@ 1
To@@ 1
Saint 0.45212289429747193
minutos 1
ho@@ 0.601717550555308
ale 0.26425616098952504
ard@@ 1
carácter 1
1960 0.958099742596127
entrada 1
calidad 1
lar 1
aguas 1
campeonato 1
combin@@ 1
dan 1
Chi@@ 1
aves 1
que@@ 1
refer@@ 1
blanco 1
sistemas 1
portes 1
illos 1
ext@@ 1
van 1
F 0.6830001772278701
escritor 1
onia 1
considerado 1
Ni@@ 1
acus@@ 1
crit@@ 1
locales 1
requ@@ 1
demostr@@ 1
pon@@ 1
conduc@@ 1
mm 1
autor@@ 1
mes@@ 1
organ@@ 1
goles 1
acceso 1
au 0.08189144112037758
pasado 1
combate 1
tesis 1
ak@@ 0.3630651143367589
bio 1
priv@@ 1
enso 1
unidades 1
acc@@ 0.8002205697899428
ace 1
ble 1
gobern@@ 1
ide@@ 1
parque 1
lanzó 1
dist@@ 1
ech@@ 1
rock 1
trabajar 1
Fil@@ 1
artista 1
ensa 1
eña 1
productos 1
marca 1
todavía 1
frag@@ 1
U 0.6499107141133569
ell 0.5194528116530002
semana 1
Mil@@ 1
seguridad 1
Algunos 1
uy@@ 1
ciona 1
porte 1
sentido 1
ment@@ 1
realidad 1
escrit@@ 1
anim@@ 1
militares 1
So@@ 0.9215764590520861
rem@@ 0.9959834876998531
consiguió 1
instal@@ 1
otorg@@ 1
municipal 1
Australia 0.9190897890116971
oy@@ 1
ístico 1
nuevamente 1
desarroll@@ 1
imo 1
fines 1
crear 1
ficos 1
Ur@@ 1
70 1
aro 1
gir@@ 1
mul@@ 1
abr@@ 1
200 0.9176890060312821
90 1
cic@@ 1
negoci@@ 1
sup@@ 1
nacionales 1
descrita 1
anta 1
radio 1
1988 0.8267300380697795
Ley 1
Mad@@ 1
ult@@ 1
Enrique 1
coordenadas 1
tra@@ 1
rá@@ 1
humanos 1
taron 1
alcanz@@ 1
tó 1
civil 1
Martín 1
ses@@ 1
creó 1
ard 0.4683788498703842
voz 1
India 0.9145487658777592
pin@@ 1
inspir@@ 1
mas 1
din@@ 1
lad@@ 1
líder 1
esos 1
refle@@ 1
cent@@ 1
americano 1
ram@@ 1
etes 1
Grupo 1
secre@@ 1
impres@@ 1
contrato 1
orden@@ 1
lleg@@ 1
comenz@@ 1
G 0.6463009337009453
cambi@@ 1
ates 0.36096277650100367
? 0.9941777993836985
restos 1
entales 1
versiones 1
lanzamiento 1
regul@@ 1
produjo 1
coc@@ 1
empezó 1
cad@@ 1
cambios 1
Seg@@ 1
ambas 1
ificación 1
empresas 1
ís@@ 1
ik@@ 0.4156114598751119
Pablo 1
atori@@ 1
ti 1
vac@@ 1
ph@@ 0.29203041669256224
educ@@ 1
iro 1
Asociación 1
realizado 1
cantón 1
escrito 1
italiano 1
Jesús 1
Puerto 1
Pre@@ 1
programas 1
teoría 1
traduc@@ 1
jóvenes 1
1985 0.8981039590526665
islas 1
Ci@@ 1
Costa 1
encontrar 1
ciencia 1
Sin@@ 1
1987 0.8643346312316189
uer@@ 1
cuarto 1
utiliza 1
ca@@ 1
velocidad 1
div@@ 1
1986 0.8676401698992057
Az@@ 1
IV 1
mayores 1
Ministerio 1
til 1
guar@@ 1
numerosos 1
fon@@ 1
tec@@ 1
jer@@ 1
exten@@ 1
modific@@ 1
ego 1
nav@@ 1
cultural 1
ban@@ 1
lider@@ 1
reo 1
ulares 1
vuelta 1
eco 1
ance 0.2814195173271893
Liber@@ 1
ler 0.3125040954454802
lido 1
Debido 1
obtener 1
formado 1
Pacífico 1
creado 1
comienza 1
Ir@@ 1
Por@@ 1
áticas 1
Descripción 1
iso 1
envi@@ 1
lengua 1
Ob@@ 1
cripción 1
mol@@ 1
vas@@ 1
Ben@@ 1
Finalmente 1
ov 0.9961317711795241
entreg@@ 1
cán@@ 1
cero 1
dific@@ 1
cristi@@ 1
bil@@ 1
uro 1
Castilla 1
especí@@ 1
ug@@ 1
amor 1
uales 1
plata 1
luch@@ 1
blo@@ 1
figura 1
origin@@ 1
denomin@@ 1
it 0.05865278972283553
Mur@@ 1
hermanos 1
favor 1
uto 1
existe 1
industria 1
ám@@ 1
fica 1
bul@@ 1
comunicación 1
padres 1
mó@@ 1
particular 1
tend@@ 1
bra 1
líneas 1
posee 1
1@@ 0.9850471885033623
concentr@@ 1
Ter@@ 1
resultados 1
ah 0.6058899822466479
Go@@ 1
ecimiento 1
ningún 1
Estas 1
cola 1
anía 1
utilizado 1
Pan@@ 1
marc@@ 1
Agu@@ 1
anot@@ 1
Presidente 1
intent@@ 1
pueblos 1
soldados 1
cli@@ 1
via 0.9946043463652929
tra 1
administración 1
ilio 1
Gar@@ 1
bo 1
perman@@ 1
1984 0.8487080318923519
endió 1
entas 1
cons@@ 1
Teatro 1
1982 0.9057659662781514
gente 1
blancos 1
pis@@ 1
bel@@ 0.744397500172955
anteriores 1
He@@ 0.5279434441932034
Bi@@ 0.735822781168176
elabor@@ 1
Dec@@ 1
África 1
López 1
dólares 1
texto 1
ias 1
Patr@@ 1
Mac@@ 0.960873523866833
cerr@@ 1
construido 1
estim@@ 1
misión 1
ingresos 1
1983 0.9004075427802254
internacionales 1
americana 1
histórico 1
Sch@@ 0.19931828891573763
Mel@@ 1
500 0.9246721274841204
Cat@@ 1
unidad 1
pequeños 1
considera 1
mi 1
oficiales 1
edades 1
falta 1
cuesti@@ 1
inicio 1
estat@@ 1
jugar 1
parece 1
Hay 1
acab@@ 1
posterior 1
ológica 1
az 1
evento 1
resid@@ 1
alizada 1
sección 1
vin@@ 1
Av@@ 1
contiene 1
eder@@ 1
Vill@@ 1
oras 1
evitar 1
Hab@@ 1
0@@ 0.7516111641606622
imp@@ 1
animales 1
elos 1
motor 1
podía 1
decor@@ 1
bar 0.9018420258067522
oria 1
ur 0.5529931667357336
situ@@ 1
Le 0.11498853890674961
vivi@@ 1
viaje 1
estu@@ 1
raza 1
entren@@ 1
retr@@ 1
gas@@ 1
Vol@@ 1
eas 1
reconoc@@ 1
adamente 1
avanz@@ 1
Pu@@ 1
bronce 1
Bur@@ 0.7321455835793907
doc@@ 1
mag@@ 1
traslad@@ 1
elección 1
gri@@ 1
Dios 1
argentino 1
británico 1
palabra 1
enes 1
poblacional 1
Sociedad 1
burgo 1
operación 1
favor@@ 1
ave 1
proporcion@@ 1
gio 1
onales 1
res 1
iti@@ 0.8538927094750061
rebel@@ 1
destin@@ 1
religi@@ 1
suelo 1
dibu@@ 1
ejempl@@ 1
azado 1
ros 1
candid@@ 1
aran 1
tipos 1
ual 1
Pl@@ 0.7967154396099713
madera 1
ecer 1
demás 1
óp@@ 1
arc@@ 1
Medi@@ 1
James 0.6514738250787875
conten@@ 1
bás@@ 1
presente 1
existen 1
proces@@ 1
ros@@ 1
serv@@ 1
Cre@@ 1
individu@@ 1
estro 1
lic@@ 1
sustitu@@ 1
bió 1
buena 1
efecto 1
conform@@ 1
gol 1
orient@@ 1
baj@@ 1
puso 1
ólogo 1
crítica 1
ner 0.35697200945512314
estados 1
salud 1
Sp@@ 0.5291329894136193
Men@@ 1
endas 1
cómo 1
economía 1
Valencia 1
vec@@ 1
pocos 1
piedra 1
tradicional 1
coment@@ 1
funciones 1
uel@@ 1
esqu@@ 1
tin@@ 1
eci@@ 1
Mol@@ 1
ost@@ 1
cuanto 1
encontraba 1
menes 1
16@@ 0.8095795992634522
políticas 1
existencia 1
izquierda 1
edificios 1
estra 1
Me@@ 0.49518131573825674
olí@@ 1
políticos 1
Otros 1
Trans@@ 1
arro@@ 1
arca 1
fís@@ 1
som@@ 1
Trayectoria 1
escri@@ 1
palabras 1
cara 1
Hor@@ 1
avi@@ 1
ani 0.8302326983462507
puerto 1
apa 1
fusión 1
sent@@ 1
nacido 1
35 0.9212750871155796
llegada 1
uz@@ 1
familias 1
representa 1
nov@@ 1
emas 1
1979 0.8544831548576632
temporadas 1
alcanzó 1
ninguna 1
Nav@@ 1
castillo 1
templo 1
resol@@ 1
occidental 1
FC 0.8141740997212626
Li@@ 0.7528126534956583
cer 1
mantuvo 1
visto 1
tran@@ 1
numerosas 1
Canadá 1
completo 1
tadas 1
regiones 1
tomó 1
inclu@@ 1
González 1
haciendo 1
Prim@@ 1
ng@@ 1
Comisión 1
económ@@ 1
1976 0.8796346010848837
atención 1
tradición 1
obten@@ 1
tima 1
Tem@@ 1
será 1
oficialmente 1
aquel 1
colección 1
Aut@@ 1
Felipe 1
actos 1
estrat@@ 1
vuel@@ 1
Jer@@ 1
Sar@@ 1
ip@@ 1
ganar 1
comerci@@ 1
crecimiento 1
hall@@ 1
Santo 1
anz@@ 1
Selección 1
Córdoba 1
uma 1
Olímpicos 1
colum@@ 1
policía 1
ice 0.5520446689583915
asa 1
españoles 1
Artes 1
Har@@ 0.6592832601917668
referirse 1
Bas@@ 0.9299377220985169
Sim@@ 1
ofrec@@ 1
pruebas 1
independiente 1
convoc@@ 1
áticos 1
adoras 1
1950 0.8237771338251721
ang 0.5695637726214383
ub@@ 1
alcanzar 1
William 0.5657446881137184
deriv@@ 1
sobr@@ 1
ético 1
Is@@ 1
casas 1
cionales 1
hicieron 1
ronda 1
cuar@@ 1
asent@@ 1
económica 1
clasificación 1
elas 1
Ren@@ 1
explic@@ 1
gió 1
pieza 1
destru@@ 1
H 0.8614281748885925
directamente 1
1978 0.8573942309439613
desc@@ 1
có@@ 1
ex 1
probablemente 1
vot@@ 1
distintos 1
verdad@@ 1
egr@@ 1
definiti@@ 1
1973 0.8720529545148881
arían 1
votos 1
artículo 1
abajo 1
ticamente 1
académ@@ 1
emperador 1
Paul 0.5915243115578421
ilo 1
Departamento 1
Robert 0.6579430818454989
continuó 1
1981 0.8112517468154515
práctica 1
ajo 1
entrenador 1
pasar 1
har@@ 0.667078284293175
cercan@@ 1
ani@@ 1
toma 1
proyectos 1
pe 0.7835252753445408
levant@@ 1
oa 1
derecha 1
negro 1
transporte 1
ancias 1
estudiantes 1
Oc@@ 1
ak 0.44004556019813496
allo 1
captur@@ 1
abandon@@ 1
obstante 1
casó 1
K 0.654542419094128
fuente 1
ejer@@ 1
Vida 1
alg@@ 1
uvo 1
previ@@ 1
eva 1
1,@@ 1
Don 1
atorio 1
neos 1
Provincia 1
dida 1
igo 1
tiempos 1
positi@@ 1
gl@@ 0.9444951164438476
oz 1
inv@@ 1
dinero 1
fam@@ 1
reser@@ 1
argum@@ 1
carretera 1
1975 0.7908152944053453
aliment@@ 1
dir@@ 1
adr@@ 1
asign@@ 1
fuentes 1
arque@@ 1
carga 1
arg@@ 1
Cap@@ 1
ped@@ 1
amigo 1
Camp@@ 1
tido 1
Ciencias 1
bles 1
hubo 1
A. 0.9748031104970276
tió 1
qué 1
pur@@ 0.8246487409303102
Tri@@ 0.8398069028385138
fondo 1
Virgen 1
algún 1
web 1
alar@@ 1
deb@@ 1
Rey 1
inal 1
eli@@ 1
lev@@ 1
declaró 1
ible 1
dades 1
consecu@@ 1
quin@@ 1
introduc@@ 1
pedi@@ 1
Diego 1
hú@@ 1
escena 1
realiza 1
estableció 1
finaliz@@ 1
ong 0.5343764994515718
gran@@ 1
imonio 1
autoridades 1
É@@ 0.6840654874324579
ficación 1
une 0.05327160914722933
doble 1
Comun@@ 1
stas 1
cir 1
pequeñas 1
plan 0.9340232285083612
Vil@@ 1
regresó 1
fundó 1
45 0.8380563819880296
Fernández 1
confirm@@ 1
Si@@ 1
uo 1
autores 1
Rodríguez 1
alguna 1
títulos 1
cial 1
produce 1
teri@@ 1
proy@@ 1
tenido 1
comunic@@ 1
Cur@@ 1
Mas@@ 0.9031497110741779
asegur@@ 1
desarrol@@ 1
atoria 1
ich 0.8605819596853197
lago 1
distribución 1
1977 0.8603250631350912
TV 0.6111575547828464
ismos 1
Str@@ 0.430710403907287
Orden 1
Hol@@ 0.7749007354597135
ces@@ 1
mantener 1
análisis 1
Elec@@ 1
decisión 1
nea 1
deci@@ 1
Distrito 1
ote 1
conf@@ 1
escrita 1
cop@@ 1
hermana 1
Bol@@ 1
objeto 1
ambi@@ 1
atribu@@ 1
icion@@ 1
lí@@ 1
Fl@@ 0.5790924414547424
aliza 1
George 0.5851708438782667
chil@@ 1
portugu@@ 1
efectos 1
valle 1
forme 1
distintas 1
publicación 1
dispar@@ 1
interpre@@ 1
Secre@@ 1
dirigido 1
cañ@@ 1
nada 1
naturaleza 1
reun@@ 1
ava 1
sovi@@ 1
comprom@@ 1
futuro 1
up@@ 0.51657913508637
cadena 1
originalmente 1
may@@ 1
anunci@@ 1
provoc@@ 1
verso 1
llega 1
Leg@@ 1
Min@@ 0.6863844300105791
dot@@ 1
1974 0.7925840799072328
berg 0.5322861629902977
siglos 1
32 0.8922669503951769
consecuencia 1
absol@@ 1
hab 1
conden@@ 1
Mont@@ 1
larga 1
3.@@ 1
Os@@ 1
aster@@ 1
ile 0.3102244865444324
cos@@ 1
construir 1
fundada 1
cal 1
ax@@ 1
nac@@ 1
ou@@ 0.28899052090089955
jur@@ 1
ebr@@ 1
enfermedad 1
problema 1
Ru@@ 1
literatura 1
aces 1
descubri@@ 1
Res@@ 0.9590349319617657
ubic@@ 1
benef@@ 1
correspon@@ 1
astr@@ 1
Hi@@ 1
Nuevo 1
cali@@ 1
desp@@ 1
ot 0.5128676937496494
Era 1
Alfonso 1
conde 1
libertad 1
prov@@ 1
capit@@ 1
ruso 1
Sab@@ 1
pobl@@ 1
siguió 1
ría 1
imágenes 1
aé@@ 1
larg@@ 1
Federación 1
recursos 1
Gi@@ 0.9119399938193045
cula 1
artículos 1
pintura 1
nomin@@ 1
iga 1
1972 0.7488337994322458
éc@@ 1
ais@@ 1
tomar 1
experiencia 1
sola 1
clima 1
Villa 1
ce@@ 1
encar@@ 1
enf@@ 1
aur@@ 1
técnica 1
lec@@ 1
variedad 1
fl@@ 0.49205985000580277
bastante 1
verde 1
cum@@ 1
exterior 1
pic@@ 1
concepto 1
rápidamente 1
anismo 1
mot@@ 1
iliz@@ 1
nombres 1
Cant@@ 1
edas 1
perdió 1
teras 1
arquitectura 1
psic@@ 1
escal@@ 1
permitió 1
1968 0.7728872013550155
deber@@ 1
mascul@@ 1
mal 0.9633815022814624
Del@@ 1
sonido 1
erte 0.6779906214756676
Educación 1
fundado 1
interes@@ 1
dea 1
Jean 0.5415398512260584
frac@@ 1
merc@@ 1
visión 1
isti@@ 1
mir@@ 1
reempl@@ 1
capitán 1
by 0.02421806871567744
Ten@@ 1
peso 1
vel@@ 1
actuación 1
Portugal 1
la@@ 0.6781436283176192
frut@@ 1
corte 1
Alberto 1
activo 1
encuentro 1
conoció 1
ográ@@ 1
conclu@@ 1
design@@ 1
salida 1
alla 1
rot@@ 1
corresponden 1
reino 1
inferior 1
nati@@ 1
eventos 1
timo 1
generación 1
ens 0.17812558746500634
ases@@ 1
fundación 1
gencia 1
ejas 1
operaciones 1
crisis 1
universidad 1
renov@@ 1
titular 1
XVIII 1
Ese 1
Lo 1
pendi@@ 1
uela 1
paci@@ 1
Pérez 1
independencia 1
semanas 1
Ángeles 1
ecta 1
tab@@ 1
World 0.23810032707842757
ision@@ 1
Direc@@ 1
Popular 1
ari 0.9862185655886326
escap@@ 1
conocidos 1
productor 1
clases 1
abor@@ 1
ine@@ 1
contaba 1
griego 1
eos 1
permi@@ 1
acer@@ 1
debajo 1
seleccion@@ 1
estadio 1
Lí@@ 1
razón 1
derrota 1
onal@@ 1
mod@@ 1
anes 1
Salvador 1
venta 1
máxima 1
Son 0.9446298449707285
rod@@ 1
ore 0.4633079524010563
fuego 1
indi@@ 1
gado 1
respuesta 1
confi@@ 1
Dos 1
Sa@@ 0.9439973006667204
ade 0.45456835046965927
Uruguay 1
reconocimiento 1
gestión 1
efectiv@@ 1
ámica 1
plic@@ 1
representación 1
puesta 1
iste 0.6347339273361084
firme 1
Lima 1
Valle 1
itario 1
salv@@ 1
Ag@@ 0.8342650307513347
altitud 1
istán 1
deten@@ 1
deben 1
Ven@@ 1
Fi@@ 1
cosas 1
bre@@ 0.47262455699517203
Radio 1
máximo 1
azar 1
vivo 1
bus@@ 1
ofic@@ 1
comercio 1
pá@@ 1
1969 0.7963354094183305
participar 1
llevar 1
1930 0.901383601157207
volun@@ 1
land 0.20608375207912447
antiguos 1
ki 0.7214144620246057
tería 1
Deb@@ 1
forz@@ 1
ualmente 1
Sevilla 1
idores 1
dirigió 1
piezas 1
afect@@ 1
Palacio 1
agreg@@ 1
ric@@ 1
adelante 1
histori@@ 1
ven 1
nueve 1
Rom@@ 0.8909686534746624
anda 1
completamente 1
pareja 1
ensis 1
Ol@@ 1
acerca 1
sor@@ 0.9515781733131385
rio 1
Rafael 1
cias 1
hid@@ 1
trasladó 1
sp@@ 0.2439843345296918
producto 1
omo 1
arla 1
hel@@ 1
ños 1
Pin@@ 1
puente 1
Civil 1
oci@@ 1
urban@@ 1
colaboración 1
flor@@ 1
Super@@ 1
fundador 1
aquellos 1
promedio 1
atus 1
Michael 0.6911645979577168
Din@@ 1
repar@@ 1
regreso 1
Asia 1
permit@@ 1
comenzaron 1
turas 1
composición 1
anteriormente 1
caballer@@ 1
empez@@ 1
apoy@@ 1
términos 1
udi@@ 1
tivas 1
concre@@ 1
1940 0.7860749007218872
ejecut@@ 1
rode@@ 1
municipios 1
Luc@@ 1
vic@@ 1
materiales 1
izo 1
museo 1
alum@@ 1
Parque 1
firma 1
añas 1
metro 1
omas 1
empres@@ 1
endido 1
gos 1
ilidad 1
diario 1
flores 1
XVI 1
plac@@ 1
templ@@ 1
ly 0.1544565032319415
respectivamente 1
liger@@ 1
ke 0.31584793055194327
1971 0.7236429504332246
llegaron 1
Mir@@ 1
amigos 1
candidato 1
alcalde 1
ciendo 1
video 0.715221534234114
oriental 1
temperatura 1
proteg@@ 1
conocer 1
Ó@@ 1
prensa 1
orial 1
pasa 1
confer@@ 1
pico 1
ich@@ 0.6785508425287787
je 0.9901355513367573
villa 1
Comité 1
entró 1
clar@@ 1
Ge@@ 0.41962180434267604
bal 1
oj@@ 1
Records 0.8873950126689885
ches 0.5936674391922188
conflicto 1
tado 1
Tar@@ 1
periodista 1
bras 1
musicales 1
2,@@ 1
objetos 1
constru@@ 1
introdu@@ 1
D. 1
juntos 1
inde@@ 1
nam@@ 1
titulado 1
orr@@ 1
juega 1
iba 1
ológicos 1
1945 0.5091379541001377
Plaza 1
conocimiento 1
Federal 1
Martínez 1
video@@ 1
ónoma 1
istió 1
torre 1
gar 1
mens@@ 1
Características 1
extremo 1
ond@@ 1
hora 1
ai@@ 0.9062812009749092
mismos 1
expl@@ 1
motivo 1
listas 1
zación 1
generales 1
pronto 1
hacen 1
propor@@ 1
1967 0.7697533376989879
dismin@@ 1
creada 1
alternati@@ 1
lag@@ 1
mos 1
von 0.031390153410709706
Eduardo 1
Constitución 1
uncia 1
Estadio 1
City 0.3058386499215126
modelos 1
continuación 1
posteriores 1
rojo 1
Rel@@ 1
Kar@@ 0.4671651651868348
unión 1
4.@@ 1
Municipio 1
volver 1
redu@@ 1
Hum@@ 1
extensión 1
menores 1
conquist@@ 1
Sol 1
enos 1
rest@@ 0.9298048660342064
ocu@@ 1
coron@@ 1
vino 1
óg@@ 1
rango 1
paz 1
niveles 1
noroeste 1
vivir 1
forman 1
ont@@ 1
Washington 0.6987783137257484
construyó 1
exit@@ 1
adul@@ 1
Do@@ 0.9070629385193354
1936 0.9712485511029956
ac 0.8308284990555826
calles 1
condu@@ 1
Colegio 1
atas 1
régimen 1
alo 1
oposición 1
Vel@@ 1
Asamblea 1
aprove@@ 1
pertenec@@ 1
Española 1
tis 1
dientes 1
incluido 1
universit@@ 1
33 0.9480214240452032
Austria 1
cuer@@ 1
75 0.928861768898741
ville 0.2753375312674881
crip@@ 1
Tour 0.877972980850233
pone 1
decide 1
protección 1
League 0.2943933530619831
ono 1
hojas 1
cay@@ 1
circun@@ 1
w 0.3549115512271843
art@@ 1
Plata 1
sala 1
premios 1
llama 1
institución 1
enz@@ 0.8565469929166909
sa@@ 0.6117148181085598
Mar 1
inicialmente 1
estrella 1
onen 1
frecuencia 1
aturas 1
basada 1
cierto 1
igos 1
Arte 1
asesin@@ 1
tempr@@ 1
senti@@ 1
ruta 1
sacer@@ 1
llegando 1
hal@@ 0.6325556003063246
pregun@@ 1
amar@@ 1
dici@@ 1
capac@@ 1
ganado 1
alemana 1
democ@@ 1
ern@@ 0.6605668511225246
rum@@ 1
Ecuador 1
acion 1
control@@ 1
dimen@@ 1
Alejandro 1
ítica 1
Charles 0.5131049904453387
compositor 1
AR@@ 1
contenido 1
ace@@ 1
jud@@ 1
veget@@ 1
hogar 1
producido 1
osis 1
regular 1
firmó 1
sín@@ 1
clubes 1
mont@@ 1
1964 0.7592322597902592
moder@@ 1
aviones 1
em 0.3440787041915376
contempor@@ 1
desaparec@@ 1
Cab@@ 1
die 0.01781012771606232
adecu@@ 1
fortal@@ 1
perf@@ 1
estadounidenses 1
estrenó 1
figuras 1
Derecho 1
allas 1
acional 1
económico 1
feder@@ 1
proced@@ 1
Ganó 1
Polonia 1
latinos 1
ríos 1
Sil@@ 1
vil 1
idioma 1
No@@ 1
ans@@ 0.719842117760713
íes 1
disputó 1
secretario 1
amist@@ 1
encontró 1
transmi@@ 1
terreno 1
impuls@@ 1
desarrolló 1
formato 1
Pen@@ 1
paral@@ 1
untos 1
médico 1
usar 1
onía 1
mut@@ 1
fich@@ 1
vis@@ 1
Sierra 1
agrup@@ 1
emia 1
explot@@ 1
maestro 1
ascenso 1
autom@@ 1
aud@@ 1
1966 0.7689611031206615
mej@@ 1
insec@@ 1
ún 1
Ant@@ 1
comandante 1
eños 1
Antes 1
Sig@@ 1
Cultura 1
diócesis 1
necesidad 1
ocupación 1
Junta 1
abil@@ 1
ger 0.5335317801917355
Categoría 1
buen 1
competición 1
rep@@ 1
tratamiento 1
británica 1
erra 1
Ella 1
CD 1
00 1
habría 1
resistencia 1
logo 1
mun@@ 1
Fundación 1
ades 0.8208500244347732
Lor@@ 1
Sur@@ 0.95064533094046
yac@@ 1
ancho 1
Jug@@ 1
och@@ 1
firm@@ 1
Tom@@ 1
seguir 1
recuer@@ 1
ty 0.2604826879161681
siguiendo 1
bol 1
ick 0.4783156359237615
alter@@ 1
quer@@ 1
instalaciones 1
suele 1
basado 1
Torneo 1
provincias 1
Bot@@ 1
posibilidad 1
vivió 1
gráfica 1
ectos 1
etos 1
institu@@ 1
iría 1
titud 1
lados 1
similares 1
reina 1
Daniel 1
estros 1
Cataluña 1
don 1
queda 1
hechos 1
Dem@@ 1
Bat@@ 1
Media 1
34 0.9467389841777094
mezcla 1
Ana 1
aplicación 1
Thomas 0.54109745662076
narr@@ 1
descubr@@ 1
relev@@ 1
críticas 1
intento 1
Isabel 1
detrás 1
amo 1
adura 1
mexicano 1
alistas 1
alizó 1
convertirse 1
Sec@@ 1
utilizar 1
1965 0.7380535280532341
mento 1
300 0.9305155584013058
dé@@ 0.16639580626228923
Kr@@ 0.5210286150366394
vuelve 1
id 0.3478535454470533
ográfico 1
dram@@ 1
multi@@ 1
enciales 1
Ho@@ 0.7140764943820285
ernos 1
recibe 1
contacto 1
tre 1
tecnología 1
explor@@ 1
ecido 1
compuesta 1
interpretó 1
tida 1
Mundo 1
recur@@ 1
3,@@ 1
1920 0.7783935504289531
je@@ 1
Uno 1
refu@@ 1
marcha 1
eh@@ 0.3301090881925409
ula 1
distin@@ 1
dev@@ 0.7491212743478358
age 0.09813588617075794
iden 1
Deportivo 1
instituciones 1
colores 1
Ram@@ 1
brasil@@ 1
prob@@ 1
tot@@ 1
tiv@@ 1
carta 1
método 1
enterr@@ 1
Ej@@ 1
territorios 1
grafía 1
idor 1
diente 1
undo 1
F. 1
gen 0.5321628941430906
Investig@@ 1
barr@@ 1
Israel 1
Mayor 1
cree 1
Hasta 1
aw@@ 0.40354155600613834
yen 1
jeros 1
llen@@ 1
duc@@ 1
resul@@ 1
rió 1
cé@@ 1
Cuba 1
humano 1
diplom@@ 1
sexual 1
metal 1
estaciones 1
aumento 1
bic@@ 1
arán 1
diferente 1
ejerc@@ 1
mus@@ 0.7781795401270216
riqu@@ 1
pista 1
Pon@@ 1
estren@@ 1
desarrollado 1
necesario 1
escuelas 1
Fer@@ 1
Guillermo 1
pintor 1
poeta 1
solamente 1
Cámara 1
vuelo 1
ent 0.06603208180834681
usu@@ 1
1962 0.7675136990609782
avent@@ 1
matem@@ 1
debía 1
deleg@@ 1
arquit@@ 1
disco@@ 1
edido 1
Paz 1
posiciones 1
publicada 1
arquitecto 1
propios 1
dando 1
memoria 1
olas 1
far@@ 1
añadi@@ 1
36 0.903562948081514
mac@@ 1
pidió 1
document@@ 1
capaz 1
carreras 1
Peter 0.6060364299021389
ucion@@ 1
naturales 1
propiet@@ 1
Andrés 1
periódico 1
tific@@ 1
décadas 1
amor@@ 1
ólico 1
niño 1
Estr@@ 1
capítul@@ 1
denominado 1
lit@@ 1
ans 0.12589065319435577
1963 0.7570020276191726
parroquia 1
teatr@@ 1
Guatemala 1
Pad@@ 1
legisl@@ 1
Berlín 1
ben 0.6059614879700206
1939 0.6966096847707928
Edad 1
Europeo 1
5.@@ 1
órdenes 1
ou 0.13353733728763462
Facultad 1
cir@@ 1
comienzo 1
mán 1
Revolución 1
convierte 1
ideas 1
nacional@@ 1
ital 1
mín@@ 1
uch@@ 0.7086434643224093
ográfica 1
japonés 1
hispanos 1
avión 1
bieron 1
colombi@@ 1
pais@@ 1
plat@@ 1
Cada 1
fan@@ 1
ejecu@@ 1
culas 1
Cel@@ 1
debutó 1
Ang@@ 0.5889567121298204
concep@@ 1
Ángel 1
W 0.6389698117995696
técnicas 1
38 0.9184819712917414
príncipe 1
escol@@ 1
alidades 1
hol@@ 0.642187031599497
difícil 1
dedic@@ 1
pendiente 1
ango 1
esclav@@ 1
tari@@ 1
fo@@ 0.7695314185841551
ten 0.08517802415850552
complejo 1
tratado 1
ener@@ 1
Julio 1
Arm@@ 1
competi@@ 1
construida 1
centros 1
Desarrollo 1
realizada 1
# 0.8677412920159387
ster 0.5185639758362648
alb@@ 1
ko 0.8201115024821429
fera 1
icana 1
eve 1
conv@@ 1
diputado 1
nave 1
¿ 1
comerciales 1
residiendo 1
jun@@ 1
Music 0.5741542807556893
palacio 1
pertenece 1
comple@@ 1
estudió 1
puerta 1
const@@ 1
Nu@@ 1
gráfico 1
Vicente 1
cuid@@ 1
inicial 1
let@@ 1
vincul@@ 1
Pat@@ 1
aso 1
Sánchez 1
ambiente 1
Castillo 1
aquí 1
poder@@ 1
edentes 1
eñ@@ 1
mov@@ 1
Especi@@ 1
tad 1
azul 1
prote@@ 1
exposición 1
Asimismo 1
ócr@@ 1
designado 1
Domingo 1
can 0.15828295357799554
simplemente 1
zas 1
vie@@ 1
fus@@ 1
alemanes 1
ilustr@@ 1
ford 0.47278457555012215
dig@@ 1
puestas 1
Ramón 1
caracteriz@@ 1
ísim@@ 1
conciertos 1
im 0.036774950004881485
At@@ 0.74105902362095
cambió 1
senc@@ 1
conseguir 1
católica 1
directo 1
once 0.6904502080008919
pros@@ 1
populares 1
ofrece 1
habla 1
Corea 1
pie 1
unda 1
Prot@@ 1
Bolivia 1
dominio 1
espectá@@ 1
42 0.944678630090055
secund@@ 1
medallas 1
1958 0.7577633145071936
sello 1
destaca 1
ul 1
bandas 1
acep@@ 1
Cristo 1
ras 1
cionalmente 1
Allí 1
ater@@ 1
estatal 1
pil@@ 1
Fre@@ 0.45201963881061547
64 0.8039277948019875
trabajadores 1
formes 1
Mus@@ 0.6472224172124683
Otras 1
deportiva 1
científicamente 1
ónicas 1
olo 1
Sir@@ 1
proclam@@ 1
chos 1
J. 0.8339530567618357
destacan 1
inmedi@@ 1
teniendo 1
oni 1
depor@@ 1
Grande 1
ogía 1
pérdida 1
altos 1
presidencia 1
pasando 1
bos 1
Sub@@ 0.899484550262429
ple@@ 0.9416703400286879
considerada 1
alej@@ 1
Naciones 1
Mes@@ 1
poli@@ 1
máqu@@ 1
pop 1
capilla 1
cil@@ 1
oides 1
busc@@ 1
cámara 1
deportista 1
duque 1
conver@@ 1
células 1
om 0.6175956433048402
Aragón 1
Form@@ 1
Ya 1
organizaciones 1
Vic@@ 1
comunidades 1
ieren 1
sufr@@ 1
señal@@ 1
llu@@ 1
poca 1
1944 0.5677406168397108
lem@@ 1
hubi@@ 1
árabe 1
producir 1
Tel@@ 1
Sem@@ 1
Im@@ 0.6883517266951736
leyes 1
bosques 1
apertura 1
manifest@@ 1
campos 1
ablemente 1
actores 1
ette 0.34806930150627013
rechaz@@ 1
caída 1
completa 1
colectiv@@ 1
micro@@ 1
eléctr@@ 1
ons 0.15342873894253883
experiment@@ 1
65 0.6868560496945462
vió 1
Brit@@ 1
Mari@@ 0.9506951127958612
ejo 1
Soviética 1
ánea 1
39 0.9357482280692737
cuenca 1
península 1
amplia 1
nacimiento 1
defens@@ 1
enseñ@@ 1
salió 1
Loc@@ 1
falleció 1
italiana 1
hon@@ 0.9226316796174002
oportunidad 1
Martin 0.6807875433686319
famoso 1
transform@@ 1
estructuras 1
valores 1
Lin@@ 1
1941 0.6075004535214978
estrellas 1
responsable 1
múltiples 1
vo@@ 0.6983556805037744
papa 1
series 0.2240792540891656
biendo 1
ecciones 1
movimientos 1
mentos 1
XVII 1
física 1
Ay@@ 1
americanos 1
golpe 1
hacía 1
edr@@ 1
1956 0.724171100242455
vil@@ 1
hábitat 1
q@@ 0.8694612658183873
Banco 1
Pel@@ 1
Richard 0.6528922276900101
ski 0.9413739402648666
milit@@ 1
lá@@ 1
áneo 1
Campe@@ 1
1948 0.7020880156150658
ant 0.07481726757456017
naveg@@ 1
números 1
clave 1
Hom@@ 1
1961 0.7255451378390226
histórica 1
indica 1
competencia 1
oh@@ 0.8296345107604028
ñas 1
Bl@@ 0.5654118242751912
vecinos 1
Nov@@ 1
edor 1
fe 0.825155280035025
bir 0.23140116743434963
recep@@ 1
Poco 1
48 0.8977748502978138
libr@@ 1
Profes@@ 1
cau@@ 1
consist@@ 1
tradi@@ 1
Flor@@ 1
Algunas 1
sti@@ 0.5402355139505053
Todos 1
hem@@ 1
telev@@ 1
mel@@ 0.7689914046446591
carr@@ 1
jus@@ 1
usi@@ 1
azgo 1
titu@@ 1
dez 1
montaña 1
ocupó 1
refiere 1
iente 1
elli 1
Sant@@ 1
Mis@@ 1
comend@@ 1
racia 1
conex@@ 1
m. 1
Der@@ 1
grabación 1
quiere 1
taría 1
Tro@@ 0.8431897850499962
indígenas 1
br 0.630795421777305
concierto 1
ferrovi@@ 1
usado 1
dico 1
orado 1
Produc@@ 1
sabe 1
cursos 1
técnico 1
lenguas 1
vías 1
tismo 1
nd@@ 1
abierto 1
peces 1
dejar 1
progres@@ 1
humana 1
odi@@ 1
poner 1
estre 1
record@@ 1
dica 1
escala 1
guerr@@ 1
formada 1
Maria 0.868716266152292
escenario 1
señor 1
anzas 1
lab@@ 1
embaj@@ 1
concurso 1
pudi@@ 1
suj@@ 1
cinemat@@ 1
ecos 1
core@@ 1
ional 1
castell@@ 1
intelig@@ 1
Roc@@ 1
escribir 1
tropical 1
delan@@ 1
contrario 1
sufrió 1
mem@@ 1
52 0.971078139968613
pier@@ 1
rios 1
compitió 1
result@@ 1
cargos 1
sangre 1
guitarra 1
umbr@@ 1
Justicia 1
ber 0.5042462879993974
republic@@ 1
enem@@ 1
aspecto 1
for 0.015564911536886807
ámbito 1
oz@@ 1
calific@@ 1
apel@@ 1
pendientes 1
vive 1
aparecen 1
franceses 1
cuarta 1
Isla 1
Victoria 1
Batalla 1
totalmente 1
prisión 1
poses@@ 1
fron@@ 1
Irlanda 1
permaneció 1
var 1
recibido 1
interpretación 1
400 0.8710304660448573
consiste 1
busca 1
tes@@ 1
Far@@ 0.8195919332265164
transfer@@ 1
44 0.8192779605991914
tiles 1
ectura 1
comput@@ 1
agrí@@ 1
expresión 1
medidas 1
Red 0.7866737727049322
código 1
utilizando 1
recién 1
alizar 1
Nuestra 1
Rica 1
anual 1
didas 1
judíos 1
núcleo 1
Me 1
ariamente 1
intención 1
puertas 1
agon@@ 1
migr@@ 1
torio 1
órmula 1
cier@@ 1
convirti@@ 1
alc@@ 1
apr@@ 1
noreste 1
human@@ 1
Él 1
dispositi@@ 1
manif@@ 1
pir@@ 1
ígenes 1
ífer@@ 1
lesias 1
plano 1
umin@@ 1
mos@@ 1
uli@@ 1
fá@@ 1
ordin@@ 1
integran@@ 1
37 0.8918325945381473
industri@@ 1
descendi@@ 1
fut@@ 1
denominada 1
límite 1
industrial 1
4,@@ 1
Gómez 1
gradu@@ 1
presa 1
cens@@ 1
episodios 1
resultó 1
Gener@@ 1
gel@@ 0.38994012345370527
descubierto 1
ñez 1
aceae 1
ong@@ 0.5543837573752546
sat@@ 1
adapt@@ 1
1959 0.7180077747490641
llamó 1
chi@@ 0.7842385649683329
Char@@ 0.5628621423614489
Premios 1
desempeñó 1
electoral 1
ocasión 1
solicit@@ 1
ataques 1
Tan@@ 1
nas 1
You 0.7988768779112057
sen 0.40547380540941164
quit@@ 1
colon@@ 1
condición 1
Dr. 0.9846914434594692
fuer@@ 1
Avenida 1
destruc@@ 1
ofreci@@ 1
1957 0.7367052159671165
extran@@ 1
mez@@ 1
enden 0.3183140463066935
tej@@ 1
podían 1
acial 1
Islas 1
altas 1
expedición 1
amarca 1
j 0.7894646122654398
fiesta 1
ológicas 1
Nació 1
rendi@@ 1
asociación 1
all 0.0907102834997444
eciendo 1
rech@@ 1
Aqu@@ 1
abri@@ 1
vención 1
1955 0.7589369337832267
Hist@@ 1
Bre@@ 0.5459376530359027
Dr@@ 0.6348752143721706
propuesta 1
romano 1
plant@@ 1
fa 1
Cro@@ 1
rus@@ 1
fas@@ 1
Granada 1
asiáticos 1
letras 1
culturales 1
pies 1
órico 1
55 0.9157302371423853
Park 0.38301956397259
cruz@@ 1
ónicos 1
encima 1
1943 0.6124142558792306
identidad 1
participantes 1
piloto 1
Oro 1
seguido 1
Lim@@ 1
dejando 1
Países 1
ísticas 1
Dor@@ 0.9635412078778273
construc@@ 1
period@@ 1
estudiar 1
Ul@@ 0.988826428662913
str@@ 0.22435717610269576
ben@@ 0.7935457847015593
Ricardo 1
comienzos 1
masa 1
bri@@ 1
ezas 1
Municipal 1
Egipto 1
Pir@@ 1
‘ 0.9007115984950016
Suecia 1
afir@@ 1
ét@@ 0.6877859060344693
asesinato 1
atur@@ 1
Wil@@ 0.6567521719929229
arqu@@ 1
mam@@ 1
corto 1
ices 0.7572546397215895
marco 1
hidro@@ 1
dicos 1
textos 1
únicamente 1
1942 0.6106611467401779
cus@@ 1
atri@@ 1
Región 1
reco@@ 1
abund@@ 1
ox@@ 1
dios 1
accidente 1
discos 1
encu@@ 1
Estación 1
dedi@@ 1
didos 1
urbano 1
émica 1
invierno 1
Estudios 1
proven@@ 1
ok@@ 0.40150933007826056
abogado 1
J 0.8668914353819308
ks 0.16845965489564874
Jac@@ 1
Alto 1
erras 1
ordenó 1
6.@@ 1
licenci@@ 1
obr@@ 1
prof@@ 0.8451871292718237
VI 1
escudo 1
recibir 1
enfer@@ 1
poblaciones 1
caracter@@ 1
regional 1
demasiado 1
utilizan 1
reconocido 1
apenas 1
asco 1
Esc@@ 1
encontrado 1
amenaz@@ 1
Grecia 1
disol@@ 1
ic 0.14217323578267058
Fon@@ 1
ís 1
denominación 1
últimas 1
41 0.9122851478545957
ey@@ 0.8328257697367193
IN@@ 1
5,@@ 1
íos 1
Oper@@ 1
ganador 1
ferrocarril 1
cot@@ 1
visita 1
ró@@ 1
Díaz 1
tecn@@ 1
renunci@@ 1
públicas 1
ash@@ 0.4861910104928022
Man 0.8199736147027323
nación 1
árboles 1
descri@@ 1
abl@@ 1
Atlético 1
ker 0.3316838577419406
ciales 1
46 0.9195216117986391
Rev@@ 1
argentina 1
quis@@ 1
mant@@ 1
Edi@@ 1
salir 1
íl@@ 1
ciudadanos 1
Antigu@@ 1
onda 1
Mario 1
pec@@ 1
vamente 1
vali@@ 1
afroamericanos 1
alber@@ 1
Texas 0.7028059229480856
alia 1
encabez@@ 1
Lar@@ 1
otom@@ 1
nia 1
especiales 1
Canal 1
etr@@ 1
vídeo 1
anci@@ 1
1946 0.6277181830990933
autoridad 1
hospital 1
plataforma 1
Nicolás 1
Aten@@ 1
profun@@ 1
UN@@ 1
labor 1
elle 0.09753554245309543
comunes 1
ali 0.8649530377658798
entrar 1
oría 1
CO@@ 1
natal 1
egos 1
Economía 1
Ali@@ 1
Social 1
propi@@ 1
ican 1
arle 1
bandera 1
fér@@ 1
femenino 1
ō 0.9885929050550398
Supre@@ 1
cierta 1
permiti@@ 1
vice@@ 1
exp@@ 0.9449291034518289
enl@@ 1
gus@@ 1
field 0.27314944201170904
ayudar 1
1952 0.7073129488424262
Señora 1
Dur@@ 1
fuertes 1
respon@@ 1
istir 1
1949 0.6748458750715645
claro 1
estimada 1
Hospital 1
quinto 1
7,@@ 1
involucr@@ 1
mann 0.3975654036638331
ahí 1
mix@@ 1
doce 1
coronel 1
acont@@ 1
Sistema 1
lenguaje 1
arco 1
Diput@@ 1
sureste 1
describe 1
ene 0.30633966556017067
procesos 1
convertido 1
uelta 1
coleóptero 1
reemplaz@@ 1
Parlamento 1
AC@@ 1
propias 1
só@@ 1
propiedades 1
destino 1
acion@@ 1
religión 1
ientes 1
diput@@ 1
Señ@@ 1
estándar 1
récord 1
Fall@@ 1
lograr 1
gin@@ 1
desplaz@@ 1
85 0.9833574397636
lav@@ 1
ides 0.5088689054288009
ire 0.3079281161927605
memor@@ 1
juven@@ 1
letra 1
vehículos 1
óric@@ 1
franqu@@ 1
usando 1
directa 1
juicio 1
activa 1
uelo 1
lara 1
land@@ 0.43957274394634865
pasajeros 1
tador 1
tia 1
Federico 1
1954 0.7043410534777234
reclam@@ 1
bajas 1
moderna 1
públicos 1
romana 1
Soci@@ 1
Ari@@ 1
reinado 1
pint@@ 1
tiende 1
Europea 1
ts 0.08435641390515543
semif@@ 1
tav@@ 1
entan 1
búsqueda 1
fenó@@ 1
1938 0.6548648659048691
conquista 1
Ing@@ 1
reunión 1
Dar@@ 0.6810916752769186
teniente 1
quím@@ 1
imos 1
regres@@ 1
du 0.023736719896421427
char@@ 0.6130325680022956
Suiza 1
erlo 1
1937 0.7292484554425576
violencia 1
ann@@ 0.30069940147152124
protagonista 1
Superior 1
retiró 1
1947 0.6675196533010953
Taxonomía 1
géneros 1
1953 0.722714079982028
catedral 1
filosofía 1
ós@@ 1
tradicionales 1
echos 1
aspectos 1
57 0.9713474897523533
grav@@ 1
dedor 1
equip@@ 1
Vir@@ 1
Bajo 1
corri@@ 1
copias 1
udo 1
corazón 1
profesionales 1
Gol@@ 1
tario 1
ingo 1
afric@@ 1
suficiente 1
trabajando 1
viene 1
put@@ 1
Hal@@ 0.6680231713094817
raíz 1
potencia 1
ges@@ 0.43760279908987987
tista 1
eria 1
Serie 1
convirtiéndose 1
org@@ 1
march@@ 1
suelen 1
entado 1
ventas 1
ojos 1
produ@@ 1
mina 1
baloncesto 1
Inici@@ 1
entorno 1
Nar@@ 1
amen@@ 1
éticos 1
contó 1
inicios 1
Ministro 1
Love 0.9145360920547075
mantiene 1
categorías 1
Ferro@@ 1
Roberto 1
Javier 1
compañeros 1
reforma 1
Rock 1
B. 0.5866174506022853
inales 1
clásico 1
Chicago 0.6969872636831196
Tre@@ 0.6371226077027843
ular@@ 1
li 0.6228212393666978
presentan 1
43 0.941923402864965
terr@@ 1
Compañía 1
oscur@@ 1
47 0.9195838393066091
teriores 1
Otro 1
relacionados 1
Cine 1
abrió 1
ide 0.6914871101564977
Fuerza 1
Organización 1
álbumes 1
American 0.13073086337000073
Cá@@ 1
amerindios 1
poesía 1
planeta 1
ús@@ 1
prohib@@ 1
ísticos 1
Florida 0.9115521738739548
bios 1
egio 1
Gen@@ 0.545663786686925
Zaragoza 1
ól@@ 1
corriente 1
95 0.9488559219679897
fundament@@ 1
documentos 1
fachada 1
cuerpos 1
dul@@ 1
adel@@ 1
bin@@ 0.9903275845804719
iy@@ 1
Paraguay 1
univers@@ 1
materia 1
abe 1
segundos 1
distingu@@ 1
automó@@ 1
arlos 1
sosten@@ 1
establecer 1
Bretaña 1
construy@@ 1
artes 1
tiz@@ 1
invasión 1
correc@@ 1
equ@@ 0.7812908320908387
Occidental 1
igió 1
ingenier@@ 1
ultades 1
est 0.01959653264853246
circul@@ 1
elemento 1
7.@@ 1
Lee 0.8960506261026195
Capit@@ 1
aven@@ 1
Pun@@ 1
Existen 1
parlament@@ 1
aquella 1
simple 1
envió 1
Sebastián 1
Henry 0.5606821419136903
Ed@@ 0.9132758096318937
bano 1
nas@@ 1
volumen 1
xim@@ 1
allá 1
impacto 1
civiles 1
écn@@ 1
agricultura 1
músico 1
propu@@ 1
Lic@@ 1
bosque 1
barco 1
51 0.9216430931544616
6,@@ 1
Aé@@ 1
empl@@ 1
cina 1
secundaria 1
Música 1
montañas 1
cuadro 1
coordin@@ 1
combati@@ 1
vesti@@ 1
yes 1
CA@@ 1
suroeste 1
protagoniz@@ 1
Hid@@ 1
Rosario 1
familiar 1
promoción 1
itar 1
sal 1
quiera 1
recorrido 1
catal@@ 1
conect@@ 1
patri@@ 1
escenas 1
cubier@@ 1
Corte 1
latín 1
toc@@ 1
2022 0.6858618179970043
descrito 1
Frente 1
ablo 1
grabado 1
cambiar 1
llevado 1
ial 1
Comunidad 1
Sam@@ 0.7694886170470051
inn@@ 0.400761462106109
localidades 1
cia 1
uf@@ 0.8969936127190298
página 1
neas 1
sirvió 1
prision@@ 1
héro@@ 1
ficción 1
corta 1
ence 0.17760594783718928
culturas 1
liz@@ 1
quería 1
iza 1
instrum@@ 1
duración 1
1931 0.8558873543054504
Son@@ 1
disponible 1
imen 1
evolución 1
Joseph 0.5220012649996204
tripul@@ 1
historiador 1
Santos 1
fru@@ 1
cumpli@@ 1
Smith 0.6682293279556879
armente 1
Trabaj@@ 1
europeos 1
eter@@ 1
monasterio 1
expansión 1
Uni@@ 1
desempeñ@@ 1
riesgo 1
muerto 1
Tal@@ 0.9521141011796131
rí@@ 1
isl@@ 1
mientos 1
suministr@@ 1
urgo 1
College 0.27587165067950364
over 0.10408258241209507
ane 0.43540385534818604
itud 1
preci@@ 1
dedicó 1
dedicado 1
M. 0.8229900379346252
Ayuntamiento 1
ster@@ 0.6191821704262315
Unidas 1
formando 1
EE 1
fran@@ 1
fondos 1
prove@@ 1
Dol@@ 1
incluida 1
Fin@@ 0.5817657613114388
aeropuerto 1
1933 0.6687059607217869
Moscú 1
ES@@ 1
Tres 1
consum@@ 1
residencia 1
49 0.9163154038967195
ónom@@ 1
Clas@@ 1
Nat@@ 1
igen 0.3878623685962602
aflu@@ 1
requi@@ 1
Bajos 1
privada 1
chino 1
editorial 1
Jo@@ 0.8406362941875966
Ste@@ 0.4887881700242204
audi@@ 1
diseñado 1
úr@@ 1
ff@@ 0.3824968618312132
mexicana 1
conocidas 1
Vie@@ 1
ciudad@@ 1
cep@@ 1
reales 1
Fe 1
Bau@@ 0.34431813901386005
egas 1
uj@@ 1
are 0.03503123423504954
bombar@@ 1
adero 1
prefer@@ 1
Plan@@ 1
acán 1
escul@@ 1
federal 1
ég@@ 0.6415433076162822
sub 1
Participó 1
oles 1
descu@@ 1
edes 1
Muchos 1
corpor@@ 1
ementerio 1
Sand@@ 0.818697767448125
contexto 1
ecas 1
decreto 1
aleg@@ 1
redes 1
Escu@@ 1
piano 1
árbol 1
Tab@@ 1
58 0.9697735191979835
habl@@ 1
Carmen 1
implic@@ 1
63 0.9592681425428174
ump@@ 0.722961642357405
XIII 1
Torre 1
sufici@@ 1
ejec@@ 1
ner@@ 0.7216631178900886
ys 0.49408321224447765
depen@@ 1
S. 0.9497469383482037
normalmente 1
tempor@@ 1
usuarios 1
th 0.14510953017492595
celebró 1
peri@@ 1
exclusiv@@ 1
terminar 1
Bah@@ 1
ender@@ 1
Domin@@ 1
llevaron 1
Cuenta 1
crítico 1
herrami@@ 1
haya 1
cóm@@ 1
cubierta 1
cultiv@@ 1
entrevista 1
ling@@ 1
efici@@ 1
ráp@@ 1
zos 1
66 0.9491498584062421
ilar 1
ulación 1
ele 0.7312546596589219
incluyó 1
n.@@ 1
Mot@@ 0.8063938262013324
respons@@ 1
presentación 1
Panamá 1
revolucion@@ 1
Bon@@ 1
We@@ 0.3951479326494324
54 0.9318219443384713
nombró 1
Nac@@ 1
Rosa 1
aprendi@@ 1
desarrollar 1
junta 1
Mé@@ 1
arra 1
utilizó 1
pion@@ 1
Junto 1
siguieron 1
Don@@ 0.8135757535952608
diferencias 1
Có@@ 1
circu@@ 1
53 0.9533059638420949
intelectu@@ 1
particularmente 1
deja 1
Inf@@ 1
uros 1
blan@@ 1
británicos 1
eléctrica 1
comarca 1
ífico 1
és@@ 1
mandato 1
presentado 1
planes 1
AS@@ 0.8210680117183065
fili@@ 1
arro 1
Maur@@ 1
itación 1
marcó 1
antiguas 1
prác@@ 1
viera 1
62 0.961966106772099
bir@@ 1
Otra 1
peti@@ 1
adolesc@@ 1
Wal@@ 0.5276791956157668
virtu@@ 1
ien 0.35779518478516087
compon@@ 1
uano 1
déc@@ 0.6382344134981736
ubicación 1
Mah@@ 0.7834251079783339
1934 0.7322129972144626
dedicada 1
ándole 1
pertenecían 1
logra 1
ish@@ 0.41995548381355047
dura 1
pocas 1
enses 1
1951 0.6950845614858729
reacción 1
evol@@ 1
Ha@@ 0.7569135847508155
llamados 1
Universit@@ 1
erías 1
ficamente 1
incluía 1
74 1
Castro 1
objetivos 1
grá@@ 1
orit@@ 1
artístico 1
trono 1
practic@@ 1
Bern@@ 1
Democrá@@ 1
Monte 1
publicaciones 1
actuales 1
Cuer@@ 1
equival@@ 1
¡ 1
festival 1
relativamente 1
ume 0.6722207440936933
historias 1
neo 1
anco 1
representante 1
producida 1
tramo 1
na@@ 1
crec@@ 1
ocasi@@ 1
Tol@@ 1
Arch@@ 0.7327503271542705
carse 1
tabla 1
pobreza 1
entidad 1
ocupa 1
corresponde 1
sol 1
Tam@@ 1
Gobern@@ 1
consumo 1
mpico 1
Il@@ 1
flota 1
activos 1
cú@@ 1
breve 1
religiosa 1
cercano 1
alog@@ 1
preten@@ 1
blanca 1
mud@@ 1
rut@@ 1
originales 1
transmisión 1
ém@@ 1
Oriental 1
revolución 1
homenaje 1
allos 1
externos 1
músicos 1
érico 1
alfab@@ 1
Bro@@ 0.6146100229390775
rol 1
Administración 1
popularidad 1
espacios 1
destacar 1
ova 1
comparti@@ 1
Ba@@ 1
8.@@ 1
Mejor 1
ā@@ 0.6215849424157932
Gir@@ 1
provincial 1
compl@@ 0.6764610123332694
crito 1
propósito 1
razones 1
sul@@ 1
impl@@ 1
poderes 1
difun@@ 1
investigaciones 1
ectu@@ 1
jorn@@ 1
alición 1
adía 1
dó@@ 1
icidad 1
Gor@@ 1
cord@@ 1
figur@@ 1
científico 1
constante 1
protagonizada 1
dil@@ 1
comedia 1
illera 1
uri 1
ándolo 1
ciclo 1
históricos 1
mañana 1
aproxim@@ 1
límites 1
precio 1
1935 0.7013540942127326
bienes 1
film@@ 0.8641041694131264
motivos 1
trac@@ 1
teros 1
Ú@@ 1
estad@@ 1
característica 1
St 0.5794449032779718
cabecera 1
desemb@@ 1
sali@@ 1
pose@@ 1
Pil@@ 1
expuls@@ 1
muestran 1
espos@@ 1
rup@@ 1
depend@@ 1
arreg@@ 1
ath@@ 0.32417808721171537
Ap@@ 0.5651263837188815
compañero 1
líderes 1
Bos@@ 1
School 0.18098474197564704
registro 1
sindic@@ 1
pati@@ 1
hí@@ 1
marido 1
EP 1
88 0.9941396924973649
1929 0.7183157156600479
conservación 1
carbon@@ 1
All 0.31217458607483933
críticos 1
adaptación 1
muertos 1
enviado 1
ediciones 1
implement@@ 1
opinión 1
cientos 1
afirmó 1
Bus@@ 1
podrían 1
formaron 1
revistas 1
abandonó 1
1932 0.7532826287880499
nes 0.5929388014927157
diámetro 1
experim@@ 1
Centr@@ 1
mejorar 1
asum@@ 1
ek 0.46202659105528326
chileno 1
arquía 1
jar 1
comand@@ 1
motores 1
82 0.97539044405139
sexu@@ 1
entrega 1
usión 1
tren 1
moderno 1
íritu 1
verse 0.8840807741715603
aí@@ 1
haci@@ 1
fábrica 1
viles 1
sober@@ 1
tron@@ 1
Fem@@ 1
misiones 1
Met@@ 1
zar@@ 1
identes 1
quedando 1
már@@ 1
femenina 1
Pap@@ 0.9589316708063635
Libr@@ 1
1918 0.5899189913549233
quién 1
árez 1
nacion@@ 1
dola 1
Ban@@ 0.7824799506113789
ferencia 1
Comer@@ 1
cuyos 1
europeo 1
guard@@ 1
Mos@@ 1
machos 1
VII 1
regresar 1
utilizada 1
bases 1
Tribunal 1
ofer@@ 1
barcos 1
espir@@ 1
Defensa 1
dinastía 1
instrumentos 1
éste 1
Agr@@ 1
pri@@ 0.6869341729641903
Mex@@ 1
acio 1
tag@@ 1
67 0.9575549573176626
Toledo 1
56 0.9563839955165833
Billboard 1
dote 1
consul@@ 1
naval 1
ri 1
Ca@@ 1
obteniendo 1
notable 1
digital 1
consegu@@ 1
iller@@ 1
tros 1
ajas 1
ocin@@ 1
víctimas 1
sectores 1
conse@@ 1
venc@@ 1
bon@@ 1
76 0.9672262200682378
Armada 1
elenco 1
93 1
Dom@@ 0.9605106091645365
ass@@ 0.16468650426936415
simb@@ 1
consagr@@ 1
dismo 1
Marina 1
inmediatamente 1
fres@@ 1
comportamiento 1
ingeniero 1
métodos 1
à 0.014521260051503717
conserva 1
ingres@@ 1
tienda 1
ical 0.1844995035501742
log@@ 0.7763153137359602
áng@@ 1
tex@@ 0.9967785898051347
ach 0.2742577685436449
Estudió 1
.. 1
rápido 1
99 0.9706504525336475
llan@@ 1
02 1
mita 1
corona 1
72 0.9453640997414726
establecido 1
excel@@ 1
istr@@ 1
César 1
audiencia 1
68 1
venezol@@ 1
20@@ 0.7673227786214477
š@@ 0.6911401312549129
asim@@ 1
afirma 1
jeron 1
Biblioteca 1
Oriente 1
Rob@@ 1
chó 1
Catedral 1
prácticamente 1
oral 1
óst@@ 1
98 1
aport@@ 1
Argent@@ 1
contrat@@ 1
opsis 1
los@@ 0.8790712771947905
victorias 1
perió@@ 1
dro@@ 0.9860473636397727
Navarra 1
tendr@@ 1
ígen@@ 1
artística 1
mismas 1
típ@@ 1
recib@@ 1
provocó 1
apreci@@ 1
inferiores 1
Constitu@@ 1
hip@@ 1
lut@@ 1
toral 1
Bélgica 1
1928 0.6910153103957403
Aeropuerto 1
documental 1
8,@@ 1
atrás 1
mp@@ 1
neur@@ 1
ái 1
realizaron 1
siguen 1
veinte 1
pinturas 1
ofensi@@ 1
lea 1
hierro 1
arch@@ 0.4665125572679579
radic@@ 1
sugi@@ 1
superiores 1
profundidad 1
ingreso 1
Royal 0.37888518511087604
Rum@@ 1
Louis 0.4115084112439966
chi 0.6846952707774274
informe 1
U. 1
gig@@ 1
uda 1
ximo 1
msnm 1
ologías 1
Tu@@ 1
explo@@ 0.9534942912907636
genes 1
increm@@ 1
Primer 1
extrem@@ 1
Campo 1
86 0.9728578159164151
ectiva 1
bail@@ 1
señal 1
May@@ 1
alles 1
aldo 1
ung@@ 0.25804922041039735
Apo@@ 1
polis 1
Eur@@ 1
dan@@ 1
pantalla 1
ets 0.18942379520068403
científicos 1
tasa 1
espectadores 1
Franco 1
Lug@@ 1
Gabriel 1
National 0.14231798008867746
onado 1
usos 1
edia 1
61 0.9354456402328617
australi@@ 1
Lorenzo 1
acta 1
igi@@ 1
excepción 1
pap@@ 0.9236252715605786
crist@@ 1
Nú@@ 1
evalu@@ 1
intentó 1
cron@@ 1
dy 0.6149617402372153
habitual 1
bah@@ 1
destacado 1
reto 1
77 0.9379169084319917
química 1
Barr@@ 1
08 0.9972583318157425
alimentos 1
84 1
cultivo 1
diferenci@@ 1
mill@@ 1
izquier@@ 1
descar@@ 1
caron 1
96 0.9541310667458897
someti@@ 1
73 0.948881674075259
encuentr@@ 1
Cru@@ 1
proc@@ 1
Tratado 1
compañías 1
78 0.9939915773798024
ion 0.31519783545512636
apun@@ 1
dat@@ 1
enseñanza 1
monte 1
ail@@ 0.6418662346249592
demanda 1
excepto 1
mejor@@ 1
doctor@@ 1
tráfico 1
empate 1
On@@ 1
instruc@@ 1
ciertos 1
costum@@ 1
Anti@@ 1
Movimiento 1
elo@@ 1
noticias 1
monumento 1
lus@@ 1
Internet 1
94 0.9864467495407258
ógrafo 1
procedi@@ 1
escritos 1
abier@@ 1
rosa 1
áce@@ 1
1000 1
viviendas 1
ingresó 1
actuaciones 1
grados 1
onas 1
91 0.9927980965281681
coloni@@ 1
matr@@ 1
* 0.19687893260204814
embr@@ 1
presentes 1
sép@@ 1
norte@@ 1
invent@@ 1
Hel@@ 0.6680358671919241
distritos 1
justo 1
úan 1
Cultural 1
amplio 1
79 0.9742508680232175
Ingenier@@ 1
ensi@@ 1
Joaquín 1
serían 1
uk@@ 0.48778976812812497
software 1
Jose@@ 1
program@@ 1
azos 1
esia 1
trayectoria 1
st 0.17182263403425194
galard@@ 1
XV 1
ír@@ 1
orqu@@ 1
King 0.36105534890425023
transport@@ 1
Carolina 0.8766612563696181
model@@ 1
visi@@ 1
legal 0.9148566766303605
caza 1
Sc@@ 0.5838416025147994
factores 1
miles 1
entó 1
quez 1
consolid@@ 1
negocios 1
botes 1
labor@@ 1
Doctor 1
Alcal@@ 1
permanente 1
empleo 1
1914 0.6642812359562531
Pic@@ 1
ha@@ 0.5498303010463541
eado 1
océ@@ 1
endr@@ 1
IS@@ 0.76290898699552
deportivo 1
kh@@ 0.36012190221075535
graduó 1
jardín 1
Condado 1
proviene 1
almacen@@ 1
Argum@@ 1
ement@@ 1
piel 1
cita 1
símbolo 1
teor@@ 1
finalizó 1
itali@@ 1
acces@@ 1
titulada 1
emer@@ 1
ólicos 1
treinta 1
enen 0.3010670149224698
termina 1
Black 0.5462153767716134
een 1
West 0.24159133733454294
ceremonia 1
Juli@@ 1
eler@@ 1
festiv@@ 1
justicia 1
sens@@ 1
batería 1
impos@@ 1
creci@@ 1
ejos 1
bón 1
71 0.9146766150442129
NBA 1
Sen@@ 0.7378168705314174
éxitos 1
otipo 1
guion 1
desaf@@ 1
inclin@@ 1
estreno 1
ulg@@ 1
posiblemente 1
Bellas 1
81 0.9406789550148041
bautiz@@ 1
XII 1
altar 1
1919 0.6018374019253139
ópera 1
Militar 1
interna 1
itaria 1
consta 1
92 1
describió 1
encontraban 1
familiares 1
solar 1
lia 1
Dest@@ 1
íp@@ 1
cumplir 1
consid@@ 1
global 1
culto 1
Hungría 1
realmente 1
asumió 1
Viena 1
Fuer@@ 1
Cir@@ 1
later@@ 1
accion@@ 1
irá 1
intervención 1
lov@@ 1
canadi@@ 1
Ignacio 1
óleo 1
sitios 1
sufri@@ 1
ubica 1
Street 0.35090938132755667
ilit@@ 1
Salud 1
did@@ 1
enemigo 1
informó 1
funcionamiento 1
Ah@@ 1
yn@@ 0.5186738035990676
escritura 1
viven 1
ampliamente 1
eje 1
tilla 1
ambigu@@ 1
exper@@ 1
desempe@@ 1
orquesta 1
Estudi@@ 1
59 0.9620685995331334
apos@@ 1
1910 0.7735900395785896
onte 1
disputa 1
rein@@ 1
tax@@ 1
asia 1
ure 0.15096188080664458
comb@@ 1
alim@@ 1
abandonar 1
pronunci@@ 1
olar 1
eri 0.960702621451336
versi@@ 1
ectiv@@ 1
geno 1
ocol@@ 1
discipl@@ 1
ína 1
Televisión 1
municipales 1
sion@@ 1
pant@@ 1
Pob@@ 1
Luna 1
intereses 1
Concepción 1
existi@@ 1
peligro 1
1924 0.6907207409870644
recientemente 1
fiestas 1
E. 0.9032012882955514
ardo 1
denunci@@ 1
colonia 1
efic@@ 1
participaron 1
llegado 1
1917 0.6590053285896796
consejo 1
bes@@ 0.6332944373397036
extranjero 1
Sel@@ 0.7696056466124074
primavera 1
representantes 1
japonesa 1
documento 1
Haw@@ 1
entar 1
modern@@ 1
isp@@ 1
ester@@ 1
ain 0.2729183087656814
Dentro 1
Not@@ 0.8381612479143872
umb@@ 1
cár@@ 1
iller 0.9322846771291079
riz@@ 1
ek@@ 0.22710130659592315
Cos@@ 1
Dan@@ 1
Habita 1
01 0.9850870719098622
sean 1
arriba 1
deste 1
deriva 1
ácido 1
ack 0.45686612108981467
buscar 1
basa 1
continuar 1
oridad 1
poblado 1
partí@@ 1
sá@@ 1
Tercera 1
ólogos 1
09 1
leta 1
élite 1
evidencia 1
versario 1
ron@@ 1
otr@@ 1
posibles 1
Fal@@ 0.9090695361735881
Noruega 1
Rico 1
ganando 1
ins 0.14386272066499695
Católica 1
biblioteca 1
Rem@@ 1
ivos 1
acias 1
estig@@ 1
Sobre 1
Guay@@ 1
agente 1
bita 1
Hy@@ 0.7387978498765824
Tomás 1
hembr@@ 1
Comenzó 1
ON@@ 1
excav@@ 1
export@@ 1
ino@@ 1
tu 1
Atlántico 1
gresa 1
retirada 1
amin@@ 1
ow@@ 0.2813626425646162
fama 1
International 0.23716755932866096
médic@@ 1
Reyes 1
Lis@@ 1
cristianos 1
9,@@ 1
oll@@ 0.6972262299226774
eonatos 1
pueda 1
guber@@ 1
lismo 1
írculo 1
Senado 1
Lev@@ 1
Agustín 1
lan 1
banc@@ 1
migran@@ 1
bó@@ 1
Aer@@ 1
E.@@ 1
viendo 1
órica 1
debió 1
mig@@ 1
idencia 1
canales 1
etapas 1
vein@@ 1
solic@@ 1
facilit@@ 1
organizado 1
Indi@@ 0.8456828152999876
Jack 0.8673531662744118
japon@@ 1
urb@@ 1
actuó 1
dulce 1
dictadura 1
iniciativa 1
permanec@@ 1
incluidos 1
acos 1
Ori@@ 1
vehículo 1
momentos 1
medicina 1
revi@@ 1
exig@@ 1
ain@@ 0.34535030246900406
lante 1
R. 0.9625852900015598
clásica 1
orios 1
componentes 1
Caballer@@ 1
clás@@ 1
lun@@ 1
petr@@ 1
150 0.8560431236624129
terrenos 1
empleados 1
Company 0.3927075740915363
bas 1
angu@@ 1
cápita 1
erre 1
esfuerzos 1
individual 0.7944212943018178
ástico 1
1925 0.7003200306206862
programación 1
ángulo 1
absor@@ 1
ativamente 1
CE@@ 1
solución 1
triunfo 1
departam@@ 1
mic@@ 1
enfrentó 1
papeles 1
deo 1
tit@@ 1
reciente 1
acabó 1
off 0.18882403268842363
87 0.9935303542716387
ise 0.1263286103593985
vit@@ 1
sc@@ 0.3328330350514408
cercana 1
igual@@ 1
Ruta 1
asesinado 1
sorpr@@ 1
600 0.9507756489842424
Neg@@ 1
Má@@ 1
fác@@ 1
establece 1
Torres 1
enfermedades 1
jugando 1
eja 1
1927 0.6912941910569442
sospe@@ 1
intens@@ 1
ear@@ 0.4519934562354992
Ale@@ 1
Montevideo 1
quil@@ 1
parroqui@@ 1
negra 1
incen@@ 1
temper@@ 1
struc@@ 0.8169462576211032
ation 0.02937654396127597
Seguridad 1
Cy@@ 0.8342627711717092
83 1
ji 0.7674315076932388
terror@@ 1
Bogotá 1
convento 1
Ucrania 1
alianza 1
ógica 1
emis@@ 1
dedores 1
cel 1
abierta 1
Ko@@ 0.4948329112671346
muer@@ 1
DVD 1
Enl@@ 1
trabaja 1
científica 1
jurí@@ 1
umba 1
ale@@ 1
pide 1
normal 1
izado 1
evos 1
cosa 1
06 1
rig@@ 1
Rus@@ 0.9920222311078291
austr@@ 1
Escocia 1
ép@@ 1
lob@@ 1
deporte 1
campe@@ 1
Cop@@ 1
cancel@@ 1
len@@ 0.4611345592858311
acteri@@ 1
margen 1
ástica 1
recopil@@ 1
saber 1
plante@@ 1
atraves@@ 1
órgano 1
europea 1
ultad 1
coin@@ 1
ilia 1
iano 1
guitarrista 1
fel@@ 1
Álvarez 1
Mendoza 1
ige 0.27220750424411144
AC 0.8230668280468151
tendencia 1
05 0.9869886776177882
1912 0.6957899813898795
Super 0.7681097352050389
iterráneo 1
suspen@@ 1
Plat@@ 0.6631354846115437
Sub 1
novelas 1
roc@@ 1
isleños 1
1922 0.6808895556145822
garanti@@ 1
rural 0.9424202185910769
jurisdic@@ 1
celebra 1
afirm@@ 1
import@@ 1
juez 1
Gonz@@ 1
quel@@ 1
art 0.21045245206985658
demos 1
fundamental 1
infantil 1
carne 1
lor@@ 1
ys@@ 0.4246922632622796
san 1
inglesa 1
ics 0.21747565214296158
evo 1
Medio 1
amarillo 1
bro 1
disc@@ 1
berto 1
pasaron 1
Reci@@ 1
69 0.9648278460051216
sch@@ 0.08664356995618099
religioso 1
Andalucía 1
89 0.9716285820255727
Kir@@ 0.7499538939189387
archiv@@ 1
estructur@@ 1
monum@@ 1
cual@@ 1
aller 0.7292927721614483
P. 0.9596866688185243
pref@@ 1
rama 1
ut 0.4231449061646208
crea 1
divide 1
incre@@ 1
Independencia 1
jero 1
ogr@@ 1
editor 1
alcal@@ 1
ok 0.5888673711981175
eral 1
artes@@ 1
rico 1
Cristi@@ 1
ick@@ 0.3022421580713129
dep@@ 1
9.@@ 0.9661680790195415
efe 1
repeti@@ 1
Ra@@ 0.8149896928861008
1926 0.662772609607491
eder 1
Ph@@ 0.37639570538249395
artiller@@ 1
Mary 0.5355244903485459
alar 1
imit@@ 1
leyen@@ 1
Lam@@ 1
Servicio 1
Tecn@@ 1
critic@@ 1
Star 0.6625760470249514
convertir@@ 1
umul@@ 1
AN@@ 1
03 1
pelig@@ 1
Rub@@ 1
alas 1
vern@@ 1
1923 0.6883254066435442
Galicia 1
innov@@ 1
SO@@ 1
País 1
Lista 1
oide 1
Alb@@ 1
ui 1
popul@@ 1
Zelanda 1
yr@@ 0.4491428406633482
ons@@ 0.6025977321051981
Alonso 1
Cul@@ 1
enorme 1
arz@@ 1
habil@@ 1
Han@@ 0.6002252008758008
créd@@ 1
frica 1
eger 1
07 0.974512071879176
Director 1
atro 1
char 1
porta 1
ung 0.06434875385982312
icaciones 1
Turqu@@ 1
áb@@ 1
herman@@ 1
Jaime 1
omina 1
ear 1
Vit@@ 1
tap@@ 1
ener 0.5683607091460623
ab 0.15000005116537043
ince 1
zant@@ 1
800 0.947102961496509
Brown 0.7305273152725165
Fun@@ 1
plaz@@ 1
Latino@@ 1
meno 1
probable 1
ándol@@ 1
Ig@@ 1
show 0.24360212785504615
expan@@ 1
Polic@@ 1
cil 1
va@@ 1
telenov@@ 1
caz@@ 1
configur@@ 1
Ke@@ 0.660769430324188
ví@@ 1
Ta@@ 0.8449477463906441
Alianza 1
Van 0.8929899892978983
menta 1
Oeste 1
grave 1
Publ@@ 1
97 0.9960515634854916
Alre@@ 1
Bul@@ 0.8176360950323046
irland@@ 1
encio 1
• 1
arri@@ 1
Jur@@ 1
animal 1
venir 1
israel@@ 1
certific@@ 1
acho 1
Negro 1
Í@@ 1
esfuer@@ 1
regionales 1
bier@@ 1
sar@@ 1
1900 0.6904866667106694
04 1
Todo 1
predomin@@ 1
ts@@ 0.22130713214674272
ney 0.4907085107414901
arma 1
fen@@ 0.903044892030732
natur@@ 0.9786949782595934
Pot@@ 1
otas 1
agü@@ 1
ō@@ 1
Arquit@@ 1
ame 0.5607551361746603
Hoy 1
itu@@ 1
osaur@@ 1
Regional 1
pez 1
graf@@ 1
Fe@@ 0.5034740543972204
well 0.09962908714265974
fici@@ 1
ús 1
Ferr@@ 1
ith 0.5300001410893191
conces@@ 1
atado 1
Miss 1
IC@@ 1
foc@@ 1
dispon@@ 1
oscuro 1
úbl@@ 1
úl@@ 1
Pierre 0.5154310192496525
real@@ 1
edras 1
ie@@ 0.4132498264575077
Fab@@ 1
encer 1
ki@@ 0.500622326703421
aun 1
incur@@ 1
ander@@ 0.8693550699506576
Reina 1
culp@@ 1
rar 1
dada 1
complic@@ 1
deu@@ 1
otes 1
conflic@@ 1
Hugo 1
pilot@@ 1
azón 1
ampa 1
cen@@ 1
Honduras 1
fusion@@ 1
pers@@ 1
ors 0.11647410238735839
Caracas 1
ble@@ 1
atal 1
uvent@@ 1
Radi@@ 1
reper@@ 1
1921 0.6426299541883206
borde 1
ador@@ 1
yn 0.7966395313639679
entrev@@ 1
ayos 1
bado 1
onio 1
olos 1
My 0.7875418707066759
aband@@ 1
renom@@ 1
acha 1
und 0.007968749112827514
históric@@ 1
Clar@@ 1
Socialista 1
trav@@ 0.4690718652731404
ão 1
XIV 1
Monum@@ 1
erland@@ 1
ori 1
Asturias 1
Red@@ 0.6342659241484117
persp@@ 1
top@@ 0.879325906282781
rac@@ 0.7600743562734502
bec@@ 1
judicial 1
Jard@@ 1
DC 1
SS 0.886649093500753
respectiv@@ 1
debut@@ 1
Jun@@ 1
ascend@@ 1
0.000 1
icias 1
SE@@ 0.9977296435595886
lin 0.6311533278958881
Riv@@ 1
tel 0.49685515840732264
continental 1
Gran@@ 1
Oli@@ 1
ei 0.5034310722099973
atl@@ 1
RA@@ 1
perteneci@@ 1
Guardia 1
Málaga 1
S.@@ 1
Pri@@ 0.6739691948370258
ray@@ 1
avance 1
Caribe 1
onde 1
United 0.09095302218303446
perio 1
remon@@ 1
Hur@@ 1
odos 1
Latina 1
empr@@ 1
tuy@@ 1
Aur@@ 1
Ham@@ 0.7000193267917557
trop@@ 1
oga 1
map@@ 1
Frank 0.7209160981455491
quem@@ 1
AM 1
gó@@ 1
territorial 1
icha 1
aki 0.9902339412234038
seres 1
agn@@ 0.9866480440890999
gia 0.43879046774762387
Víctor 1
Mark 0.5939024843439391
Tom 0.8188211826357042
Nic@@ 1
Jones 0.7159884415819383
São 1
data 0.5871934655254523
Blanca 1
ites 0.39612325651655617
islat@@ 1
ati 0.8465083889575665
ps 0.2476367355114044
usan 1
Var@@ 1
nó 0.8516938878544945
exhib@@ 1
q 0.7145225981999167
intern@@ 1
fom@@ 1
eira 1
Ná@@ 1
jard@@ 1
ui@@ 1
Sor@@ 0.9159495261095655
puer@@ 1
sk@@ 0.26338582333808785
Marcos 1
Iz@@ 1
a.@@ 1
metropolit@@ 1
ings 0.11186298616831594
icul@@ 1
ame@@ 1
acor@@ 1
rez 1
princ@@ 1
gru@@ 1
Cic@@ 1
Fund@@ 1
exces@@ 1
consci@@ 1
Marco 1
Pueblo 1
One 0.252761980261446
long@@ 0.7916822852397098
caud@@ 1
superfici@@ 1
ky 0.5683488203111908
Hen@@ 1
disponibles 1
Fran@@ 0.8497535017074539
ibilidad 1
Españ@@ 1
conoci@@ 1
AM@@ 1
Adri@@ 1
ós 1
SA 0.9160289416243867
aver@@ 1
wood 0.4033835708876211
Gl@@ 0.576546627852612
ington 0.5436144721259593
precipit@@ 1
uca 1
partic@@ 1
Provincial 1
fur@@ 1
vania 1
culmin@@ 1
ami 0.7912218795580576
ary 0.09668254963332341
pas 0.1349967002466916
RE@@ 1
als 0.024247832227079574
00@@ 0.8199642803746949
ocul@@ 1
destr@@ 1
Georgia 0.8747847202480646
convers@@ 1
musulman@@ 1
ats 0.20039906010430633
peru@@ 1
lim@@ 0.5884311593414845
moda 1
1913 0.683885276856218
etti 0.9640540022098611
Alta 1
Serv@@ 1
Ruiz 1
Valladolid 1
participa 1
diá@@ 1
raí@@ 1
tropicales 1
ingles@@ 1
formar@@ 1
Grand 0.31416811465280164
ole 0.4152462980408587
copa 1
exclus@@ 1
Hernández 1
US 0.1548146788217888
A.@@ 1
Scott 0.7880645587061861
alis@@ 0.7203195333013627
Jackson 0.8824472275660759
Chil@@ 1
publica 1
magnit@@ 1
pré@@ 0.29047894318087764
awa 0.8790616784114368
mati@@ 1
oto@@ 1
jam@@ 1
Castell@@ 1
Frances@@ 1
Bir@@ 0.6850833101651369
Paulo 1
Princip@@ 1
ública 1
uco 1
č@@ 0.6660480696296388
imagin@@ 1
Tak@@ 0.7618352154776291
fre@@ 0.3409098229648572
Teresa 1
capa 1
L. 0.9556412807735769
Metropolit@@ 1
laborat@@ 1
anch@@ 1
Confeder@@ 1
precis@@ 1
mide 1
enario 1
expos@@ 0.9023022919788259
La@@ 0.7577371928950923
corr@@ 1
color@@ 1
prolong@@ 1
belle@@ 1
Ev@@ 0.7359466177113547
Sau@@ 1
fotograf@@ 1
Hil@@ 0.7609593474225504
rival 1
ider@@ 1
Disney 1
ondo 1
ustr@@ 1
Filipin@@ 1
medieval 1
motiv@@ 1
Virginia 0.5448323330636125
xi@@ 1
Williams 0.7192567253820592
els 0.1373797851980462
fantas@@ 1
carril 1
Solo 1
odo 1
elt@@ 1
dest@@ 1
ry 0.3088640249599186
españ@@ 1
Franc@@ 1
excep@@ 1
post@@ 0.7634400006107226
XI 1
sos@@ 1
quilla 1
pan 1
ff 0.49186507043186584
IX 1
Baja 1
Big 0.6191735588767631
ecia 1
ante@@ 1
gres@@ 1
Flores 1
Mun@@ 1
Laur@@ 0.965400722670128
Times 0.6089404507108143
stein 0.43593306814861976
aíso 1
Cin@@ 1
bis@@ 1
Gre@@ 0.5654149372900097
inco 1
bil 1
irat@@ 1
Sum@@ 0.7748647631333425
echo 1
edra 1
Tuc@@ 1
compet@@ 1
yl@@ 0.3187684729076689
Entertainment 1
isc@@ 1
Cerro 1
Americ@@ 1
triun@@ 1
Liter@@ 1
acon@@ 1
gan 1
rob@@ 1
Op@@ 0.5138743004025993
Plan 1
Tokio 1
Blanco 1
Jus@@ 1
Corona 1
olog@@ 0.6350618742882487
bit@@ 1
doctor 1
adap@@ 1
zi 1
report@@ 1
ille 0.31737640338582096
perten@@ 1
incap@@ 1
bia 1
Guadalajara 1
anal@@ 1
fico 1
egu@@ 1
Leon@@ 1
diver@@ 1
Buc@@ 1
omb@@ 1
uv@@ 0.7148092343819666
debil@@ 1
Brig@@ 1
1911 0.6934864834329743
reas 1
otor@@ 1
Moreno 1
Greg@@ 1
pre 0.7669776710344516
imperial 1
onóm@@ 1
china 1
curs@@ 1
lis 0.7412853966140337
alda 1
euros 1
ER@@ 0.9451579660055851
ign@@ 0.3202828593670585
combustible 1
Pach@@ 1
bibli@@ 1
urugu@@ 1
1916 0.6997390148044852
rap@@ 0.38073568346224756
cuy@@ 1
relati@@ 1
Z 0.6848682918118112
Actu@@ 1
esis 0.7646803602379432
preser@@ 0.917127701095625
Bolívar 1
rar@@ 1
vá@@ 1
Refer@@ 1
ector 1
lida 1
primiti@@ 1
Vega 1
testimon@@ 1
zo@@ 1
hur@@ 0.8645071389180519
protagon@@ 1
libres 1
250 0.9798241565214727
oya 1
Final 0.9386457083179155
ques@@ 1
VIII 1
Equi@@ 1
Igu@@ 1
femin@@ 1
entra 1
1915 0.6706048517753121
alis 1
manus@@ 1
exter@@ 1
Fo@@ 0.6080907983355226
Vis@@ 1
Guar@@ 1
ling 0.23795264565040564
unción 1
colonial 1
protest@@ 1
intr@@ 1
bert 0.6048745318631613
Star@@ 0.6637901666901332
quier@@ 1
Guadal@@ 1
beb@@ 1
hi 0.6914715222147314
zada 1
Puente 1
sale 1
Burgos 1
evit@@ 1
nom@@ 0.641034788581159
I. 0.4888326026818543
Hall 0.35577161738843616
Bad@@ 0.936380014987063
hisp@@ 1
imas 1
esía 1
duda 1
House 0.2258939212250756
bera 1
Inde@@ 1
ars 0.2438900017331141
ity 0.0862772980546495
legi@@ 0.8568997620923862
sk 0.8375856064252271
egia 1
cip@@ 1
Iv@@ 1
avia 1
Max 0.8106775994637775
podr@@ 1
Mich@@ 1
Mariano 1
taria 1
enter@@ 0.8304392045061205
Eli@@ 1
AN 1
artís@@ 1
debate 1
Mod@@ 0.781695647990011
Murcia 1
etta 1
line@@ 1
jar@@ 1
him@@ 1
ais 0.3845460736589489
resc@@ 1
Gas@@ 0.9406335767494367
Pos@@ 1
ambia 1
ee 0.34089953651965194
ebra 1
Natur@@ 0.8329019071101772
Hollywood 1
edan 1
define 1
Reb@@ 1
ash 0.5348001420251441
see 0.2971660572993769
Bru@@ 0.8946899098732253
conce@@ 1
proxim@@ 1
rati@@ 0.7655565368930192
esco 1
our 0.18679356236568423
Mér@@ 1
ess 0.15828625304979305
Cádiz 1
Alem@@ 1
submar@@ 1
Young 0.6733347227236286
Et@@ 0.7793488449089451
compens@@ 1
pand@@ 1
portun@@ 1
ill 0.42313471643711875
sing@@ 0.9146737179777381
abog@@ 1
Center 0.3580621303005178
kin 0.685603097173778
dial@@ 1
vul@@ 1
condi@@ 1
tin 0.34285905634474906
Wor@@ 0.38236334029913877
enca 1
emo@@ 1
cular 1
Vasco 1
oj 1
adu@@ 1
Príncipe 1
prol@@ 1
aten@@ 1
ball@@ 0.678544656530678
doctr@@ 1
dirige 1
factor 1
Sac@@ 1
ett 0.40519162509934664
Salamanca 1
ze@@ 0.35099604509946264
emigr@@ 1
agres@@ 1
lateral 1
ariz@@ 1
Sí@@ 1
Catal@@ 1
ahu@@ 1
Alexander 0.5305789221911194
My@@ 0.7261258102262286
autonom@@ 1
monta@@ 1
FI@@ 0.910884998674521
ple 1
ADN 1
ort@@ 1
rat@@ 1
recog@@ 1
ight 0.3776676045359106
1908 0.6747823539350509
Ly@@ 0.6476580101452956
Joe 0.7818279101365332
AS 1
SA@@ 0.8248640009213046
virus 1
itz 0.4273492134135737
titul@@ 1
In 0.014524249278336052
Dic@@ 1
ih@@ 0.6444775470162052
anto 1
archi@@ 1
front@@ 1
Suc@@ 1
fos@@ 1
Ran@@ 0.7780904631459546
oqu@@ 1
gica 1
bril@@ 1
1905 0.6473898915882966
mari@@ 1
nar@@ 0.8556980546425617
extra@@ 1
hin@@ 0.5311501152653342
artic@@ 1
N.@@ 1
grad@@ 1
Chris 0.8974689616311897
Guinea 1
Live 0.820582756864549
Hon@@ 0.6035161152633143
divor@@ 1
Carr@@ 1
astronom@@ 1
Walter 0.7378937401828743
It 0.03540595070958227
ister@@ 1
ovia 1
untamiento 1
pes 0.8924263431831485
Audi@@ 1
s. 1
pera 1
H. 0.6900715637405129
White 0.41833995442761107
Ford 0.952450376106745
muestr@@ 1
neutr@@ 1
ist 0.020546188177725272
Boston 0.6322523982845321
surg@@ 1
Vo@@ 0.7732516561305318
equilibri@@ 1
inger 0.36387729660514645
ieve 1
elia 1
triz 1
Top 0.6644960571049349
umen 1
ábitat 1
usal@@ 1
ess@@ 0.15100427902672142
étr@@ 1
Puebla 1
ometr@@ 1
huy@@ 1
Augusto 1
europ@@ 1
Cristó@@ 1
ogen@@ 1
asi 1
UU 1
echa 1
Contr@@ 1
moral 1
digit@@ 1
yar 1
Hot 0.977898649616138
eves 1
fortific@@ 1
tion@@ 0.41579574338683845
temporal 1
Tim@@ 0.8356208735166295
ning@@ 1
indios 1
Alfredo 1
onom@@ 1
gn@@ 1
iner@@ 1
Colonia 1
Cortes 1
scar 1
calend@@ 1
ini@@ 1
polí@@ 1
Maz@@ 1
sever@@ 1
composit@@ 1
notables 1
ances 0.2753365797122833
abes 1
promo@@ 1
compos@@ 0.8352719879631627
hotel 1
asta 1
Cad@@ 1
Ku@@ 0.7425905623880976
iss@@ 0.3773511130650315
Johnson 0.6465064832243292
US@@ 0.5675116002355006
Tes@@ 1
air@@ 0.2749163765682669
Esteban 1
ropa 1
Na@@ 0.8458710142877675
Sav@@ 0.6923236644569079
Jar@@ 1
Jose 1
tadores 1
Naci@@ 1
Pa@@ 0.8459745343755598
ré@@ 0.09316283859249946
Football 0.382810845490964
War@@ 0.3988283414062723
rano 1
occ@@ 1
Fig@@ 1
AP@@ 0.9879071816198431
opa 1
Hay@@ 0.7802582188002092
canti@@ 1
erio 1
jazz 1
Extr@@ 1
ast 0.350462386677791
perí@@ 1
ika 0.688078184526768
Edward 0.5350143032860262
Peri@@ 1
Team 0.39238150337364247
alre@@ 1
Clu@@ 1
numer@@ 1
Tit@@ 0.7598922740922309
Div@@ 0.9710867493733949
OS 0.9521476350683744
Pau@@ 0.9545383868211823
Paral@@ 1
AD@@ 1
xa 1
Ríos 1
Ball@@ 0.836307562002989
Card@@ 1
tant@@ 1
libre@@ 1
tela 1
abria 1
gares 1
Som@@ 1
Lucas 1
he 0.017587603190581017
C.@@ 1
Ep@@ 1
fiscal 1
corrup@@ 1
error 1
Vietnam 1
bes 0.5645535801325313
mite 1
Arturo 1
Bri@@ 0.5923878078547885
boa 1
gratu@@ 1
TV@@ 1
aka 0.7121424918950191
Lig@@ 1
amba 1
PC 0.9773036001927562
calcul@@ 1
contamin@@ 1
Familia 1
Dev@@ 0.5662032417993426
Les 0.07180882828677335
carre@@ 1
manga 1
mer 0.20937260856287118
list@@ 0.6134886224838589
Show 0.7337128739082845
Pod@@ 1
ofici@@ 1
.com 1
graves 1
anal 1
Marie 0.4673140570366003
orn@@ 1
eces 1
ier 0.26697397790439115
tol@@ 1
Fox 0.9547756381318571
Blo@@ 1
berg@@ 0.9957088526372724
tori@@ 1
uerta 1
admir@@ 1
hos@@ 1
Bay@@ 0.7390165547953778
1906 0.6742950754316976
Columbia 0.6608238484329295
oy 1
1909 0.6934454792135631
Gab@@ 1
lio 1
Gustavo 1
.C. 1
Kat@@ 0.5343041311620834
… 0.34797697248541065
Astr@@ 1
nuclear 1
drama 0.7873888721845417
Progr@@ 1
alle 0.30276164592602167
Emilio 1
Kal@@ 0.4215117209895041
arena 1
Gro@@ 0.7325439690495144
compe@@ 1
acuer@@ 1
expedi@@ 1
way 0.1214133100356901
Pep@@ 1
hun@@ 1
Much@@ 1
meridi@@ 1
Juvent@@ 1
Universal 1
acas 1
Hill 0.46196445307744477
inclus@@ 1
plas@@ 1
kar@@ 0.385437469792702
Fron@@ 1
CI@@ 1
1907 0.6618831175857823
Raúl 1
ev 0.7708276121718054
TA 1
ley@@ 1
DE@@ 1
Lav@@ 1
mb@@ 0.8147741150720786
zu@@ 0.46797994392496695
liberal 1
Gutiérrez 1
descubier@@ 1
honor@@ 1
polic@@ 1
minister@@ 1
Gim@@ 1
materi@@ 1
set@@ 1
glob@@ 1
eren 0.23100776049972785
azi 1
Interior 1
Nom@@ 1
Sof@@ 1
ous 0.08690609975138254
Finlan@@ 1
digo 1
fis@@ 1
sky 0.6056461849432028
sito 1
Sergio 1
º@@ 1
cav@@ 1
amas 1
ko@@ 0.4425484334598815
obo 1
Pro 0.938401787291626
ibles 1
cho@@ 0.5717825042081008
gios 1
Ciud@@ 1
pula 1
itan 1
Ben 0.9194310551973612
limpi@@ 1
pet@@ 1
prest@@ 1
oses 1
ake 0.31783355712275513
café 1
nat@@ 1
Muñ@@ 1
Windows 0.8922810333091892
Tran@@ 1
oti@@ 1
Mul@@ 0.7517054686306486
Silva 1
xima 1
uña 1
tif@@ 1
extraordin@@ 1
Vé@@ 1
Metro 1
pad@@ 1
Anna 0.7616462877993659
impul@@ 1
ock 0.40713121445921313
lada 1
hospit@@ 1
Mic@@ 1
Township 0.8526878083859237
greso 1
Grandes 1
Merc@@ 1
Bernardo 1
ome 0.3957657795482054
Prom@@ 1
Emp@@ 1
Den@@ 0.6537034761628591
ves 0.1791554818467821
apia 1
todo@@ 1
Human@@ 1
1904 0.6805754173783596
gana 1
ólica 1
compati@@ 1
cog@@ 1
ath 0.3535618048516536
Illinois 0.67364684067646
Rol@@ 0.9127047539152935
reproduc@@ 1
aste 1
cac@@ 1
continua 1
intér@@ 1
Peña 1
University 0.07205659311323027
terrestre 1
ázquez 1
low 0.22145552711734748
trá@@ 1
Sus@@ 1
Mike 0.7872426243860586
Saj@@ 1
polog@@ 1
trof@@ 1
ory 0.23101503240049906
burg 0.3053045112341935
Bob 0.842232707542266
Albert 0.607508395838583
stru@@ 1
1890 0.7813830389801625
River 0.18443424223480442
inda 1
Janeiro 1
revis@@ 1
Mall@@ 1
rab@@ 1
Sala 1
Rodrigo 1
Adol@@ 1
umbo 1
Wilson 0.7768320213941999
abol@@ 1
gab@@ 1
infan@@ 1
Band@@ 1
avo 1
Bilbao 1
ij@@ 1
Pam@@ 1
urg@@ 0.697678598178809
compil@@ 1
Jiménez 1
dole 1
vor@@ 0.14035715458160403
ofía 1
ministr@@ 1
Boh@@ 1
Cabo 1
Ja@@ 1
Time 0.6962719347625154
las@@ 0.7136964530222513
Ramírez 1
Mit@@ 0.46440894802025423
ish 0.23073420726677443
Rivera 1
Margar@@ 1
Kor@@ 0.40948103127745444
rur@@ 1
ivi@@ 1
Ash@@ 0.6449797515530902
Santander 1
arina 1
terminal 1
Pensil@@ 1
anti 0.4237726199933123
jo@@ 0.5735431098581424
demand@@ 1
Design@@ 1
cro@@ 0.36199702057702693
Origin@@ 1
paron 1
700 0.9402798593932734
Oscar 1
auxili@@ 1
sic@@ 1
alma 1
rol@@ 1
vila 1
esen 0.7510480608784859
Represent@@ 1
satisfac@@ 1
120 0.8551535641655733
tili@@ 1
Guz@@ 1
uga 1
Christian 0.3135326011996483
comité 1
gem@@ 0.6352104335310058
tribu 1
mani@@ 1
oth@@ 0.3483322501128035
igan 1
Miami 1
Marcel@@ 1
servir 1
event@@ 1
inver@@ 1
gris 1
Wrestling 1
Kim 0.8778741306591886
Verde 1
1903 0.7002819243188372
Contin@@ 1
G. 0.8277235906450536
ush@@ 0.7234955184810071
Observat@@ 1
Kur@@ 0.39676404877099974
norm@@ 1
Art 0.23943351855501774
Edit@@ 1
centrales 1
Joan 1
PS@@ 1
Amaz@@ 1
Ak@@ 0.3262140535723237
cami@@ 1
occidentales 1
Tony 0.9330324257012059
brig@@ 1
aum@@ 1
ke@@ 0.2423995268117123
rostr@@ 1
adir 1
Gil@@ 0.9309777977670146
eter 0.31581511872341805
gul@@ 1
Arthur 0.6174648776135265
Cent@@ 1
Catalina 1
orca 1
tribut@@ 0.8297752908963342
Tai@@ 1
Arg@@ 1
Dam@@ 0.7303558782005364
FA 0.7544573292908463
Recon@@ 1
argent@@ 1
30@@ 0.6507372976678243
técn@@ 1
Life 0.40532325403400465
Herrera 1
Hir@@ 0.7203033338679855
tradu@@ 1
Nicaragua 1
BBC 0.6075374247542583
teo 1
Chap@@ 0.6912473000277706
ian 0.17809844138663197
alan@@ 1
Corn@@ 0.7321516117714972
PC@@ 1
Parti@@ 1
Rein@@ 1
franc@@ 1
pp@@ 0.3668851474624541
variante 1
ator 0.1618148958406483
Person@@ 0.952566105244135
Hern@@ 1
aspir@@ 1
AT@@ 0.8050171337138529
box@@ 0.8858237778177055
nde 1
individ@@ 1
Brian 1
UEFA 1
Mill@@ 1
tric@@ 1
bien@@ 1
ho 1
defender 1
predic@@ 1
Quer@@ 1
XXI 1
Tir@@ 1
itor 0.9258620195836025
sia 1
agón 1
noctur@@ 1
Revol@@ 1
Zamora 1
Ken@@ 1
Eugen@@ 1
Hitler 1
Steve 0.8157755196310209
recorr@@ 1
imb@@ 1
Q 0.6294318187258698
Valenci@@ 1
tram@@ 1
siles 1
orb@@ 1
cher 0.2013623681514001
Vall@@ 1
descend@@ 1
tidae 1
anga 1
iana 1
esca 1
Fac@@ 0.6937412870479998
paqu@@ 1
aparte 1
ax 0.9900659588080567
ife 1
comi@@ 1
1902 0.6874384142256501
clas@@ 1
Bill 0.5976879173496159
trib@@ 1
Jor@@ 1
jeres 1
ope 0.9291553226646934
cle@@ 0.46651361955962106
molé@@ 1
IM@@ 1
noble 1
Harry 0.8161247720875284
ulos 1
restric@@ 0.8779549873840947
veda 1
Sw@@ 0.4639198868828956
víc@@ 1
postul@@ 1
duras 1
tribus 1
Ohio 0.5748127128536098
Territ@@ 1
mpicos 1
1880 0.8309496742467927
correspond@@ 0.7280804790622886
indígen@@ 1
ym@@ 0.36053989955440885
Álvar@@ 1
Dich@@ 1
Kaz@@ 1
polici@@ 1
Mi 1
Guerrero 1
Aper@@ 1
bos@@ 1
Meg@@ 1
Us@@ 1
Kong 0.6861955522907163
tus 1
universal 1
oja 1
Libre 1
Imperial 1
Peter@@ 1
iz 1
fauna 1
Sá@@ 1
Carl 0.6323306301009983
ik 0.2967720944137285
Ga@@ 0.9416387861618853
Cum@@ 1
High 0.22328837520541364
Win@@ 0.4992669713887009
Vas@@ 1
Mak@@ 0.655568676294255
BA 0.9670528660300625
formal 1
dens@@ 1
perfec@@ 1
variable 1
Dir@@ 1
kr@@ 0.32973319250127936
laz@@ 1
Vid@@ 1
Mercedes 1
ste@@ 0.21802883436169032
considerable 1
selec@@ 1
tas@@ 0.622937877913321
filme 1
flora 1
hier@@ 0.9824449717180738
Isid@@ 1
nucle@@ 1
auto 1
Au@@ 0.3747542762791349
Félix 1
Cabr@@ 1
filtr@@ 1
ules 0.5569388130756769
asis 1
nú@@ 1
Mach@@ 0.9499044023525187
sson 1
Morales 1
recre@@ 1
Top@@ 1
ibil@@ 1
Mem@@ 0.7160164631529957
ím@@ 1
Quin@@ 1
lis@@ 1
― 1
lez 1
Papa 1
veter@@ 1
Activ@@ 1
oner 1
saga 1
lej@@ 1
telef@@ 1
asen 1
Sun@@ 0.6966295355979883
Taylor 0.7288630424776309
flam@@ 1
pist@@ 1
tribu@@ 1
empe@@ 1
Green 0.48785178526946027
Racing 1
Air 0.2593640192930013
plum@@ 1
1898 0.7207346393964899
Hotel 0.8696335715062581
Karl 0.4322240930956981
Af@@ 1
melod@@ 1
lares 1
compañ@@ 1
Situ@@ 1
Andes 1
vial 1
Palma 1
emin@@ 1
Cav@@ 0.8882331400278893
North 0.13231034295746924
Je@@ 0.5329037809960723
Dal@@ 0.843176313808245
Romero 1
acios 1
incendi@@ 1
arbus@@ 1
Lib@@ 0.8470569370324201
marqués 1
pér@@ 1
valor@@ 1
Adi@@ 1
médi@@ 1
Society 0.2922626793276543
femen@@ 1
ref@@ 0.6421269735396007
Llan@@ 1
1870 0.7559511593857853
divers@@ 1
ny@@ 0.8021288978331909
sey 0.6143013024421823
Ernesto 1
adver@@ 1
Ib@@ 1
Ty@@ 0.5977148122529915
Viz@@ 1
Mart@@ 1
miner@@ 1
quir@@ 1
heb@@ 1
tér@@ 1
unc@@ 0.26779183743340257
Pur@@ 0.8288504173323024
Alc@@ 1
confes@@ 1
conspir@@ 1
riv@@ 1
ami@@ 0.8835441306959962
crí@@ 1
Fel@@ 0.6356774462507063
alu@@ 1
Pak@@ 1
persec@@ 1
ck 0.4945580344071562
qui 0.03078450537497508
aden@@ 1
ril@@ 1
Gin@@ 1
gest@@ 0.3381609328488493
Medina 1
tis@@ 0.337873690901894
ignor@@ 1
oder 0.078766190329746
prestigi@@ 1
Jud@@ 0.7628773085298852
ji@@ 1
ham@@ 0.5627088357015134
exc@@ 1
ham 0.4754234920415518
Kan@@ 0.4511425313985381
atar 1
kl@@ 0.2725683826866875
Conserv@@ 1
demol@@ 1
side 0.12476855563054316
predec@@ 1
ométr@@ 1
Aran@@ 1
AL@@ 1
Trinidad 1
bacteri@@ 1
oph@@ 0.3105753401771471
Shi@@ 0.5522402277656362
tut@@ 1
Avi@@ 1
Blue 0.5763434262673788
Bé@@ 1
tad@@ 1
Island 0.27921388879056813
sang@@ 1
COVID 0.8101478894647021
imia 1
ze 0.2421093689406835
intend@@ 1
mol 1
Magdalena 1
zi@@ 0.28066127295177623
America 0.2355441614807366
1901 0.6381377854478371
Rab@@ 0.7628117849117834
Sinf@@ 1
ei@@ 1
fasc@@ 1
supervis@@ 1
Roger 0.8881283405873897
Davis 0.7291864352288177
ornam@@ 1
Occ@@ 1
Petr@@ 1
Rot@@ 0.6188661442667386
civiliz@@ 1
circular 1
T. 0.8305386005050918
visible 1
Cristina 1
ernes 1
promin@@ 1
CA 0.8596646631692079
PR@@ 1
DA 1
South 0.10304275741230393
Amar@@ 1
experi@@ 1
ken 0.12016181424325431
americ@@ 1
Cand@@ 1
V. 0.6556156653172905
Doc@@ 1
premi@@ 1
energ@@ 1
1895 0.7225086075045212
Ál@@ 1
Sk@@ 0.545362894802784
DE 1
MA 0.7936604682033472
Carre@@ 1
anime 1
unci@@ 1
inae 1
VI@@ 1
Kh@@ 0.3223173340490343
itual 1
Mand@@ 0.6619530669352856
Pes@@ 1
kg 0.7838729421411805
Tig@@ 1
West@@ 0.31885185682597167
Lan@@ 0.8980148244420851
ange 0.4698504904389068
evi@@ 1
Indonesia 1
lemente 1
play@@ 0.7823099791033845
entro 1
sam@@ 0.5603799993334925
filos@@ 1
fort 0.3589651167236731
win 0.17757002989305556
vocal 1
Hong 0.6433489017424963
Serbia 1
éd@@ 0.7916552518267334
set 0.12911984680387698
naz@@ 1
ters 0.13072434022285942
caí@@ 1
Fol@@ 0.5564167459083579
cán 1
erc@@ 1
Night 0.7838855052326259
W. 0.556403493643031
ves@@ 1
sant@@ 1
almac@@ 1
mexic@@ 1
hiper@@ 1
Series 0.4651610108257709
rir 1
Jersey 0.588010002800938
naci@@ 1
ū@@ 0.8604279083442542
musul@@ 1
Entr@@ 1
flan@@ 1
vide@@ 1
Shar@@ 0.6230200231500226
tiz 1
LA 0.8389216548639626
Apar@@ 1
Már@@ 1
Mec@@ 1
Depor@@ 1
osaurus 1
Hub@@ 1
Sho@@ 0.600601054227694
yp@@ 0.4057448703104949
aux 0.04511477110184995
Institu@@ 1
1899 0.6856342889988186
eth 0.5029489812806848
Reser@@ 1
Stone 0.9109145279380091
Ret@@ 0.8972480434661064
Miranda 1
Cec@@ 1
comienz@@ 1
pio 1
tern@@ 1
eres 1
ábit@@ 1
Ce@@ 1
mir 1
nica 1
11@@ 0.5982120219277512
Elena 1
lip 1
cano 1
Rod@@ 1
onga 1
Samuel 0.817551924765666
ä@@ 0.09513507609143507
out 0.05140746485985115
Arizona 0.8522104023173966
exclu@@ 1
Gan@@ 1
variantes 1
pac@@ 1
nobles 1
Emper@@ 1
Irak 1
Napole@@ 1
band@@ 0.7988091407286889
ean 0.48571213046435624
ap 0.30872389609495327
Rio 0.8261649871479315
Rugby 0.985665368179911
Maj@@ 0.8986414327397423
Ker@@ 0.4595844791377514
econom@@ 0.9575175831161401
Marvel 1
tara 1
Fern@@ 0.8990999530996387
much@@ 1
farm@@ 0.6262657602582498
jan 1
Cot@@ 0.8803802003942404
fle@@ 0.5541386197598992
zan 1
All@@ 0.4822321168390175
Nag@@ 0.689204131742001
Group 0.2450789709110087
Moder@@ 1
membran@@ 1
Dre@@ 0.41688960818086773
tribunal 1
Wol@@ 0.49753627708898546
Capital 1
ku@@ 0.3927140144447656
eus 1
acruz 1
Laguna 1
Claudio 1
hoja 1
ć 0.7360008547558209
WWE 1
Wat@@ 0.6421132829958294
Arti@@ 0.798057275390448
test@@ 0.8602679741279305
pron@@ 0.8658566869056292
1897 0.6797473524395384
Bou@@ 0.6105908269870985
Anton@@ 1
Jacques 0.5687055965230741
Chrysomelidae 1
LP 1
Obr@@ 1
ø@@ 0.6343614401105847
cien 1
sas 1
Monter@@ 1
restr@@ 1
pus@@ 1
Lake 0.3003073210440643
Bet@@ 0.8158631969405554
24@@ 0.5853002560105658
bana 1
confir@@ 1
inten@@ 0.728501070481781
Pop@@ 0.871994655454723
drome 1
manipul@@ 1
zap@@ 1
inser@@ 1
She@@ 0.6858581111470731
upe 1
Pav@@ 0.983698928535562
congreg@@ 1
homosexu@@ 1
1896 0.6746288671206785
buses 1
cari@@ 1
oli 1
Ever@@ 0.7554212892846103
nez 1
rug@@ 1
Ces@@ 1
NA 1
Benito 1
obst@@ 1
enn@@ 0.16813029652870812
Land@@ 0.17488887851213897
sof@@ 1
elles 0.17821131309773658
king 0.14504871916980852
recu@@ 1
Palm@@ 1
ideal 1
1860 0.7889805731102707
oli@@ 1
visual 1
esi@@ 1
idamente 1
Rad@@ 0.43879547818333187
enza 1
ny 0.5628043994826921
Lab@@ 1
magn@@ 1
Republic@@ 1
ison 0.3374762175243455
Bavi@@ 1
andal@@ 1
bus 0.44376145105320747
Boy@@ 0.9251576584608204
radical 1
Simon 0.645909843274214
ingu@@ 1
Bom@@ 0.8126952689424873
erg@@ 0.47196840259463907
IC 1
Premier 0.4904716013468567
Ambi@@ 1
Hier@@ 1
omer@@ 1
Alpes 1
kins 0.721999442120748
FIFA 1
depos@@ 1
1889 0.7349553246182375
Mayo 1
iko 1
atis@@ 1
penetr@@ 1
Lewis 0.7144431487052884
uz 1
Ped@@ 1
osp@@ 1
Gil 1
Cup 0.14906272654211075
eman 0.5336684107941223
sm@@ 0.6492901094512032
bord@@ 1
Massachusetts 0.5740680449523382
Kam@@ 0.46509065314077797
Ot@@ 0.8057765944321089
illy 0.6364505241933929
afr@@ 1
eer 0.7549132565489935
tre@@ 0.2255733985140269
the@@ 0.18758678660781858
mono@@ 1
ambre 1
Vargas 1
discre@@ 1
repres@@ 1
ache 0.36856921329769665
gam@@ 1
flot@@ 1
opl@@ 1
Bell@@ 1
bomba 1
Alej@@ 1
parlamento 1
enor@@ 1
ongo 1
Colorado 0.806489428357395
pura 1
anna 0.7671167832399193
Lord 0.4178729224110134
Claus@@ 1
ł@@ 0.4283845826751851
enco 1
dial 1
Lag@@ 0.8751597674332459
ci 0.23696015375374382
conclus@@ 1
1891 0.7504331117206992
alem@@ 1
sul 1
Cau@@ 1
Kon@@ 0.22339495684236607
Giovanni 1
SC 0.5426399334907046
Bes@@ 0.4876764899571914
Microsoft 1
épo@@ 1
TE@@ 1
ald@@ 1
acre 1
trag@@ 0.4453806390012358
Alex 1
Day 0.38789300803641336
wa 0.2273502211930943
ges 0.20260514644173144
andro 1
ting 0.07312813259025397
hay@@ 1
od 0.3730697468235345
deg@@ 1
platafor@@ 1
New@@ 0.4296698413630103
vér@@ 1
ester 0.4179687768228675
Let@@ 0.9632589382186294
UCI 1
use 0.07171208936514716
RO@@ 1
Yam@@ 1
frances@@ 1
andra 1
dal@@ 1
Sy@@ 0.36375036108457554
rectang@@ 1
17@@ 0.6844375100136845
intensi@@ 1
Comp@@ 1
Integr@@ 1
AA 0.7019566610203822
fort@@ 0.9967777357563677
olla 1
Esper@@ 1
AB@@ 0.8982490093670799
Bulgaria 1
diz@@ 1
lie 0.4387532729743477
10.@@ 0.7726760159653314
top 0.16126751734326417
Honor 1
ántico 1
Whit@@ 0.6002052528815682
´ 1
Elizabeth 0.5681744925373117
AP 1
Hip@@ 1
Terr@@ 0.9071546826433845
incluy@@ 1
Bran@@ 0.9141344019025427
mental 0.5424072727019367
bula 1
armen@@ 1
icon@@ 1
ein@@ 0.06382941654216277
Championship 0.22940056400779796
ograf@@ 1
imi@@ 1
privileg@@ 1
astre 1
rop@@ 1
1888 0.7593089677842578
ilus 1
edio 1
molec@@ 1
RI@@ 1
bet@@ 0.6049402533562283
play 0.12609147557477726
evacu@@ 1
Lac@@ 1
Hans 0.458204704179395
imperi@@ 1
expul@@ 1
Result@@ 1
aer 1
raz@@ 1
simples 1
inspec@@ 1
isional 1
ios@@ 1
ix 0.7685511228439225
enne 0.19057763222426194
gre@@ 0.3018885597899925
Yuc@@ 1
ly@@ 0.34912780503476437
ime 0.44651842243808876
antil 1
entreten@@ 1
Laura 1
Valent@@ 1
men 0.08006436727340922
bara 1
Coc@@ 1
tual 1
Bibli@@ 1
× 0.5857500309731728
atra 1
presti@@ 1
25@@ 0.4759160824295284
Bak@@ 0.723527487139171
Yo 1
Kn@@ 0.4418132252961335
glaci@@ 1
dos@@ 1
Union 0.16042867220205656
sí@@ 1
Van@@ 1
yar@@ 1
sé@@ 0.42134967573486776
pale@@ 1
Bartolom@@ 1
Association 0.18756369539692175
orro 1
gram@@ 1
blind@@ 1
Carl@@ 1
leer 1
aler@@ 1
agan 1
sistem@@ 1
iki 0.4627062124262199
ód@@ 1
Adam 0.7072908645024568
Mid@@ 0.5442018192595884
oxid@@ 1
CN@@ 1
Dist@@ 0.9509065954129065
Pek@@ 1
Little 0.5285770642609755
punk 1
Congo 1
heter@@ 1
clan 1
ther 0.3912210311513004
azar@@ 1
MS 0.7178066642887392
discrimin@@ 1
Blan@@ 1
aun@@ 0.41019002203780297
ren 1
responsables 1
tea 1
part@@ 0.3528981109301123
à@@ 1
AT 1
inga 1
François 0.4872917498927912
Log@@ 1
valid@@ 1
Villar@@ 1
Administr@@ 1
Liberal 0.9956193143511562
ted@@ 1
lieg@@ 1
mana 1
Sir 0.36842781741883845
ius 0.6003518728278007
Boys 1
Jan@@ 0.6707086730481028
tent@@ 0.5787813754390199
1893 0.6901368929832038
Sam 0.8291202417033162
cus 0.8300948053413708
Cord@@ 1
Fri@@ 0.5138433892786611
1500 0.9882783781726427
aug@@ 0.7405688477218078
mé@@ 0.3209140975193866
Vivi@@ 1
pian@@ 1
Got@@ 0.5749966991658771
Ki@@ 0.49513080283208905
Vent@@ 1
nos@@ 1
onial 1
enfr@@ 1
fiere 1
academ@@ 1
Marqu@@ 1
Legisl@@ 1
igh@@ 0.27005882488277366
Lem@@ 1
East 0.17420336336498646
omor@@ 1
anus 0.8924681721322189
oter@@ 1
lave 1
novi@@ 1
ague 0.9521445431866997
Da@@ 0.8518861361365163
teriormente 1
hes@@ 1
Sex@@ 1
tillo 1
bury 0.4767930100814804
Eric 0.8845262118312958
Ful@@ 0.7480366649989623
Ort@@ 1
artificial 1
Romano 1
asio 1
futbol@@ 1
ulo 1
ado@@ 1
habilit@@ 1
Awards 0.274592796393057
mis 0.4510223772922924
iento 1
propul@@ 1
lava 1
heim 0.3540970838840272
coinc@@ 1
olor 1
UC@@ 1
Duc@@ 1
Nintendo 1
Luci@@ 1
identi@@ 0.2771067430364368
iores 1
op 0.4065947108594414
astron@@ 1
att@@ 0.15348482371350794
Infan@@ 1
c. 1
ingen@@ 1
with 0.006730693811589365
diagn@@ 1
Olí@@ 1
difí@@ 1
Natural 1
nio 1
vé@@ 1
nar 1
nic@@ 1
aff@@ 0.19864591992072705
reform@@ 1
sis 1
1892 0.6826672109726865
Paraná 1
Eng@@ 0.4258384741327812
hero@@ 1
1800 1
electric@@ 1
Call@@ 1
S.A. 1
dam@@ 0.7632047732417206
1868 0.8459109421602216
isco 1
1885 0.6768664104354709
pa@@ 0.6678634061939432
oi 0.9193976043254231
isten 0.24494006104903276
Spe@@ 0.34358151937262515
isto 1
CD@@ 0.5783590921507981
Etim@@ 1
rugby 0.6499339837317859
LE@@ 1
iger@@ 1
MTV 1
iten 0.422810750217548
bi 0.5100858091527102
semin@@ 1
mic 1
lumin@@ 1
ano@@ 1
uti@@ 0.538195064336584
magné@@ 1
Bab@@ 0.6288958969607759
meteor@@ 1
Alan 0.8991900834107779
nec@@ 0.8168224534140225
orías 1
yan 0.6667707219005127
símb@@ 1
Ray 0.8866666902369946
magistr@@ 1
provin@@ 1
Bag@@ 0.829585908076214
Banda 1
26@@ 0.8267744408359459
Mam@@ 1
clav@@ 1
stant@@ 1
Friedrich 0.34309798796995494
vag@@ 1
1894 0.6755889005623099
1886 0.7348110626910521
lima 1
Lit@@ 0.6757624705670239
Lov@@ 1
ticul@@ 1
It@@ 1
Kit@@ 0.7396544905099979
Sony 1
ds 0.18256276991867978
we@@ 0.1155386843537446
ike 0.43135666306474796
RA 0.9673706044750678
flex@@ 1
pi 1
Sport 0.7905552984359676
But@@ 0.8874409851596979
rehabilit@@ 1
Game 0.5586718209161936
Quir@@ 1
onel 1
che@@ 0.5474412720736929
over@@ 0.15642838823907682
gor@@ 1
latitu@@ 1
ril 1
Beau@@ 0.586176747178379
tru@@ 1
bau@@ 0.40964068918376084
Brus@@ 1
lé@@ 0.6479159039592909
Atlanta 0.9302084908456406
Dun@@ 0.49563020166765837
Han 1
Play@@ 0.4555392879981815
conductor 1
Toronto 0.5332581965195392
row 0.24439819256108822
cerem@@ 1
orum 1
esté 1
moderni@@ 1
Hispan@@ 1
bomb@@ 0.8508085796773885
nit@@ 0.9267733132174026
kil@@ 0.9065746191432817
acr@@ 1
Wood@@ 0.6136467982289694
Corporation 0.49676970314038116
aud 0.4922646835195895
compi@@ 1
hot@@ 1
Jim 0.6651941604812939
Bras@@ 1
erie 0.4727255914349096
Kansas 0.6699691439666884
Arn@@ 1
Bec@@ 1
Sep@@ 1
YouTube 1
iliano 1
jin@@ 1
Ka@@ 0.7340161502493981
Ky@@ 0.6304443140049106
mont 0.4866845700445957
clu@@ 1
CS@@ 0.7036240232408439
egan 1
Lara 1
ósito 1
anja 1
And@@ 1
hici@@ 1
ítul@@ 1
Douglas 0.766116780855657
infr@@ 1
1884 0.7396795250735181
van@@ 0.965121568591537
film 0.047457316232858926
Jan 0.7619118975646875
veloc@@ 1
Anderson 0.799800492560242
Yugoslavia 1
g. 1
progr@@ 0.6075463054567173
alit@@ 1
af 0.8712503540967034
any@@ 0.32228380582395727
Tex@@ 0.7966458145232338
tural 0.7080871648355243
ert 0.10461848063358424
plen@@ 1
divid@@ 1
CF 1
{ 0.6088594535794559
Afgan@@ 1
vertical 1
campus 0.5889754285198214
ABC 0.909345147104435
ingen 0.22355522431882255
1879 0.7794195399229025
Fili@@ 0.8763855273896989
lac@@ 1
hard@@ 0.6635230254749582
expon@@ 1
Gri@@ 1
Sr. 1
Oxford 0.5764164500077273
Stephen 0.6488177174483177
Spider 1
circ@@ 1
eau 0.17309797841132493
Studios 0.8040987410659559
Beach 0.6250499886911198
mang@@ 1
propag@@ 1
Constantin@@ 1
urs@@ 1
algorit@@ 1
yc@@ 0.4005841495513195
discus@@ 0.8341053524133986
ald 0.5882818375655336
kov 1
Agricul@@ 1
Ric@@ 1
Jr 0.699761701744833
Ry@@ 0.8582193745813002
carp@@ 1
lip@@ 1
vulner@@ 1
Pit@@ 1
resist@@ 1
env@@ 1
900 1
Sant 1
terci@@ 1
sio 1
Ner@@ 1
Broadway 0.9510196485915361
Clara 1
Jes@@ 0.9599532911559745
concili@@ 1
onn@@ 0.19251150776778878
Minnesota 0.6217235369573294
1887 0.7101650261343383
infin@@ 1
opera 0.9334444401829912
URSS 1
nova 1
Armenia 1
zana 1
uel 0.9145980535627614
ū 1
ii 1
Lincoln 0.7628559756346418
Sun 0.5652298770176478
Crim@@ 1
Mik@@ 0.9044519098035082
AL 1
ero@@ 1
Salv@@ 1
Andrea 1
12,@@ 1
Francis 0.5404077604876866
God@@ 0.8183193808254218
Ast@@ 1
jer 1
enberg 0.4628289384678738
zano 1
dor 1
Biblia 1
Pet@@ 0.978089864420688
canc@@ 0.6802873783755906
fra@@ 1
live 0.21763932290674567
controvers@@ 1
Him@@ 1
ium 0.38809001420533007
Asi@@ 1
end 0.047149502444881426
divis@@ 1
sud@@ 1
Johann 0.356632610982115
ager 0.4003384247150996
FM 0.5101345497480709
erry 0.5551623856108073
mús@@ 1
entí@@ 1
Andrew 0.5651096232426519
aren@@ 1
olo@@ 0.8225579537932514
Particip@@ 1
anj@@ 1
britán@@ 1
etz@@ 0.37860698271294685
variables 1
On 0.03737096740222429
1850 0.760629131473918
abar@@ 1
interven@@ 1
ole@@ 1
hir@@ 1
Bil@@ 0.43632160158631733
Flora 1
Plant@@ 1
1881 0.7220019099753922
favorable 1
NE@@ 0.895043305915906
Arro@@ 1
roqu@@ 1
Quint@@ 1
1876 0.7435305349010608
ning 0.15509324494947663
arti@@ 0.7363636484306394
ism@@ 1
12.@@ 0.9116466514169148
alp@@ 1
Feder@@ 1
Indiana 0.7030611154608475
MP@@ 0.7696369402050426
procur@@ 1
bill@@ 1
curr@@ 0.7234912109814428
Patri@@ 0.9031446182180748
eng 0.529371577728662
ix@@ 1
ubil@@ 1
Wo@@ 0.48543063685147597
Eus@@ 1
Viol@@ 1
Alg@@ 1
Fort 0.409179799184328
dem 0.016111236503363224
Garr@@ 1
vertebr@@ 1
iny@@ 1
Itali@@ 1
integ@@ 1
espe@@ 1
Leonardo 1
1871 0.673452237360439
cable 1
Palestina 1
MI@@ 1
Ramos 1
úl 1
Road 0.2109170422143788
lot 0.3450650430176378
Alfred 0.6284037487923624
Azerba@@ 1
rad@@ 0.87065921530441
Gold@@ 0.46431646907399793
gi 0.9540476533333471
Alber@@ 1
alli@@ 0.3137550312058539
Nelson 0.9712378020814061
Kevin 0.8892613710376374
Miller 0.690425245643833
Zo@@ 1
its 0.01863039428629476
Monte@@ 1
Sher@@ 0.6198064896253769
ð@@ 1
10,@@ 1
Johnny 0.9901491602772354
Sicilia 1
Eva 1
alcohol 1
Hamb@@ 1
ate@@ 1
Tal 1
Ges@@ 0.36572081451850486
Num@@ 1
Michel 0.5799963442016698
PA 0.6267379280399467
eli 0.6655139415125573
Fut@@ 1
11.@@ 0.9001218228610443
tum@@ 1
Bruce 0.9299769613212173
Naval 0.8588311835920595
www.@@ 1
Nick 1
fia 1
implant@@ 1
videos 1
Video 0.8560898634700224
Manz@@ 1
Rose 0.7017912452066556
Gam@@ 0.9393598745969384
Ele@@ 0.9703420989534947
icus 1
gü@@ 1
sacrif@@ 1
1878 0.6779432461174006
Lat@@ 0.48881725132794623
ban 0.3279929572689215
Junior 0.6054238947540809
ome@@ 0.8885671433455318
Rally 1
Victor 0.6982824829287367
Warner 1
Rap@@ 0.6118102395411875
Howard 0.7041613155542821
neum@@ 1
Jimmy 0.9585484851098716
1882 0.7130887311406486
Evangel@@ 0.8566574225510039
fer 0.1934058923574117
olina 1
osc@@ 1
ifer@@ 1
torn@@ 1
seri@@ 1
lana 1
Alvar@@ 1
State 0.08982271246428623
Ecu@@ 1
Ef@@ 1
repos@@ 1
23@@ 0.6958844063194747
Long 0.42821412741588777
comedi@@ 1
cito 1
dav@@ 1
audio 1
Nik@@ 0.7500406494746699
examin@@ 0.7712154819040807
epis@@ 1
fes@@ 0.6744087138596269
Termin@@ 1
Rodol@@ 1
Cub@@ 1
worth 0.38741781517502544
tés 0.8897312098105303
1864 0.6932112432850367
Allen 0.7523685225836746
Semin@@ 1
quel 1
Bow@@ 0.6428689288348405
ashi 1
egal 1
mater@@ 1
ont 0.06513924626129068
Litu@@ 1
Tradi@@ 1
roy@@ 1
Gun@@ 0.7070005296380417
Hem@@ 0.9138534300637985
sedi@@ 1
27@@ 0.7890231009028746
integral 1
1883 0.7294085224037651
Estonia 1
Black@@ 0.599191548613603
Prus@@ 1
Conservat@@ 1
km. 1
sel 0.5516611396673505
alle@@ 0.7488838570959694
aman@@ 1
hib@@ 1
álisis 1
vin 0.6167246039295248
laya 1
sist@@ 1
Boy 0.9453358706014713
Juni@@ 0.8806182865518672
Andr@@ 1
let 0.2833163633466764
Chu@@ 1
Madonna 1
onto 0.7427948744868088
K. 0.7069092702433085
Arts 0.255946165325325
Anthony 0.7172084947455927
Base 1
Ali 0.5509807489643532
28@@ 0.8124439161966373
Herr@@ 0.7135745233562194
amm@@ 0.23486469111860891
ME@@ 0.9802476852863956
1865 0.6997051751095791
Lau@@ 0.610814741545656
nitr@@ 1
enzo 1
Ras@@ 0.881462930832446
sept@@ 1
apart@@ 1
AI@@ 0.7972328335572783
Cle@@ 0.7761998874463242
bé@@ 1
200@@ 0.6202894870270492
ack@@ 0.17848911227918077
mata 1
ies 0.09220459402476679
3000 1
experimental 1
urn@@ 0.4342211081461349
usual 0.7750396612738035
alias 1
1830 0.8779378309396695
Def@@ 1
iter@@ 1
1848 0.6578956074316951
Long@@ 0.7721159471284504
internet 1
.000 1
simul@@ 1
post 0.22654391180457348
pino 1
Bell 0.7794420376168083
emper@@ 1
establ@@ 1
INE 1
Vera 1
nad@@ 1
André 0.6955800782883619
Kepler 1
Les@@ 0.6372767538823886
rival@@ 1
ston 0.543362596879512
Paris 0.09660948992226995
ises 0.20441507905101064
uri@@ 1
CV 1
ew@@ 0.2133990438319073
war@@ 0.11325629353586886
Sat@@ 0.648315917294202
bits 1
bio@@ 1
abstr@@ 1
ases 0.4867199507580536
públ@@ 1
pent@@ 1
Fis@@ 1
Arena 0.9283542284597068
Donald 0.6953530154243311
1840 0.8563709413235449
Kin@@ 0.4136563337618798
key 0.26301176256743397
luc@@ 1
petrol@@ 1
compren@@ 1
Lady 0.529102077044439
Arc@@ 0.9641146506963867
Lang@@ 0.35896207856139795
mobili@@ 1
isis 1
1867 0.7042277549105008
Tap@@ 1
Comics 1
regi@@ 0.7447804396693254
Iber@@ 1
extra 0.9178421150332067
ispo 1
Aud@@ 1
dum 1
tible 1
hil@@ 1
legend@@ 1
London 0.10882264278077894
Mass@@ 0.7183193580706823
ally 0.04852782647722797
amblea 1
Ind@@ 1
Len@@ 0.9322556630631154
copal 1
Bay 0.2699876296234377
bom@@ 0.6368248405152414
mond 0.680769091780478
1873 0.7190074211618779
Cambridge 0.596502214812413
Leopol@@ 1
enia 1
XX@@ 1
AR 0.9624300753860134
dri@@ 0.3164906243278151
clandest@@ 1
Cus@@ 1
cup@@ 1
ficio 1
ATP 1
eller 0.2996993521051629
ns 0.1214596431299197
Epis@@ 1
fri@@ 0.7125749223755684
Ton@@ 0.615524938370169
oe 0.881065747876395
invas@@ 1
1861 0.6659653879770565
Arist@@ 1
hr@@ 0.3025280138725817
Cong@@ 1
terres@@ 1
oo 0.5760681173808665
tuber@@ 1
suy@@ 1
Morgan 0.8613461397382729
empar@@ 1
adi 0.7412513188165182
Go 0.8792856797047395
Democ@@ 0.6193852382585172
bac@@ 0.5078617400464411
promovi@@ 1
amer@@ 0.7895050538374779
cientí@@ 1
promot@@ 0.6411004031520554
yer@@ 1
bab@@ 0.8677081891230778
Zar@@ 1
Film 0.14120119834891692
toler@@ 1
CC@@ 0.7425815548504308
apas 1
1,5 0.9537374141594835
Gom@@ 1
Queen 0.35510398238491875
1875 0.7062434935784662
idar@@ 1
Moore 0.7674253274063402
cc 1
tamb@@ 1
afa 1
Cis@@ 1
Mej@@ 1
eu 0.3777687893307973
Pier@@ 0.9726999132475951
Is 0.6022498200595386
Pale@@ 1
1872 0.7189190790246184
ye@@ 0.4490077440275977
Google 0.9354685800904088
yer 0.24141936449173412
sult@@ 1
Tos@@ 1
more 0.036545400271960495
polit@@ 1
1869 0.7569453912661959
Uri@@ 1
vertic@@ 1
cend@@ 1
house 0.11704438118914669
Gru@@ 0.7477413215685503
polo 1
ée 0.02846646581760206
card@@ 1
40@@ 0.736278998762349
Orleans 1
Austr@@ 0.7689590339586877
Aus@@ 0.07732111760126557
PlayStation 1
Bac@@ 1
50@@ 0.7281226365711946
110 0.8029691738071428
tox@@ 1
Eurov@@ 1
dera 1
eur@@ 0.7023443849672677
ps@@ 1
Julia 1
Constant@@ 1
Jane 0.812141296524559
crimin@@ 1
Bank 0.3126553149162144
Hus@@ 0.6576244334257875
Eg@@ 0.8578012742627041
Up 0.7399710433825561
dney 1
Kom@@ 0.20394943366206578
Vari@@ 0.5514989062693828
Industrial 1
net 0.2784251361048335
seud@@ 1
Sag@@ 1
Houston 0.7154898899070509
conflu@@ 1
Conn@@ 0.6073864739963586
ae@@ 0.6968352829882767
ass 0.25969805637015586
eni 0.7728828366577726
induc@@ 0.6946093080060667
Pul@@ 0.8576586718175532
Pop 1
logos 1
Telec@@ 1
a. 0.41637336433526073
mér@@ 1
180 0.8577061955581797
bach 0.23830621904525381
1863 0.6737106581446592
Digital 1
1874 0.7014341439846173
Ryan 0.822284205440359
Your 0.8288499534518022
tribun@@ 1
Henri 0.5167240670810822
Fus@@ 1
3D 0.9687213921731712
iler 0.41529375136211455
IT@@ 0.869137152567566
consult@@ 0.675452373764875
itz@@ 0.35048638956855843
Vig@@ 1
Yo@@ 0.8786404223474108
Men 0.4174970714697422
ekw@@ 1
chin@@ 0.6510816713283336
News 0.43124192331166916
PS 0.5324234557536235
ator@@ 0.6355697276243352
Clark 0.7204906286047966
sible 1
any 0.08847590087728663
Green@@ 0.5689484641395922
difer@@ 1
vera 1
cler@@ 0.6958349802470822
Rib@@ 1
Kas@@ 0.3923221585570232
prin@@ 0.5535226278104389
Corpor@@ 1
uh@@ 0.45451120352344115
ère 0.10467125760864081
aus 0.023945209382706733
Wi@@ 0.46288839596999987
thr@@ 0.33120148609015554
pro 0.38807143113705966
SP@@ 0.5851283179041539
Fro@@ 0.8414681618448717
oslov@@ 1
oncesto 1
abad 0.7034320173196994
11,@@ 1
Matt 0.9407098634442874
Vin@@ 1
Conse@@ 1
umi 1
ube 1
ativ@@ 1
Sak@@ 0.6621537495323583
ept@@ 1
own 0.09179406571916922
Energ@@ 1
grup@@ 1
Kol@@ 0.2449955540295719
eden 0.6935214383376298
fest@@ 0.3958293651036734
13,@@ 1
alba 1
Harvard 0.725747712354716
Lind@@ 0.5976240684385332
O. 1
ž@@ 0.6861469274931726
afu@@ 1
Varso@@ 1
té 0.23881830730039538
ST@@ 0.6573933609503466
Ministr@@ 1
mensu@@ 1
utili@@ 1
achi 1
Cham@@ 0.9599150808309034
Ji@@ 0.7969582916221742
Pac@@ 1
1857 0.8283275810151937
Billy 0.8982454093483997
eu@@ 0.4369568847592907
1866 0.5590470022635147
estruc@@ 1
ister 0.3004000788263458
cuad@@ 1
inus 0.9197717959346307
Tul@@ 0.9667496376869634
mineral 1
Journal 0.4759450663926727
PE@@ 1
Maxim@@ 1
fiel 0.8702102211331185
ör@@ 0.19105378251666916
Open 0.2863122400654201
Cob@@ 1
ots 0.15913444210924033
130 0.8348755422827359
ware 0.885187357663301
core 0.4653275245993137
Cri@@ 1
facto 1
franco 1
hipot@@ 1
Charlie 0.9257022782070562
guitarr@@ 1
vs 1
arbitr@@ 1
Dob@@ 1
Construc@@ 1
disper@@ 1
meg@@ 1
ique 0.17187503518823832
trin@@ 1
BC 0.333708915353536
Bach@@ 1
anne 0.605274871175191
5.000 1
Detroit 0.7719543406567848
Bien@@ 1
Franklin 0.8653044423795287
git@@ 1
sterdam 1
1877 0.667839089183329
\ 0.9634119352514785
Rolling 1
eck 0.2981033420578055
yan@@ 0.5826803160313296
mara 1
opo@@ 0.6786783918416412
Ann@@ 0.45013365439359104
back 0.07536097615948366
Alt@@ 0.4826577217598782
caf@@ 1
1862 0.6409893260716127
Anne 0.44888160691913104
ológ@@ 1
Dan 0.8024112539367492
ranking 1
undos 1
apo 1
combus@@ 1
mania 1
rer 1
ech 0.6417496769177907
Amp@@ 1
Iowa 0.6682977185195567
munici@@ 1
ig 0.30750025211774434
hip 0.3364003119031143
Tac@@ 1
Girl 0.9007727921218445
alco@@ 1
Mov@@ 1
Sm@@ 0.6360397768424308
Kennedy 0.8097397868768967
Gordon 0.6952459262226741
Fir@@ 0.6991119260115264
Apple 0.883725640855442
Oliver 0.9762263100604457
Pom@@ 0.7985504742014986
ran 0.24939708723118117
mito 1
port 0.15872231739752715
I.@@ 1
IA 1
agus 1
gh@@ 0.4012937766877818
nh@@ 0.19843919708652283
opini@@ 1
sibil@@ 1
Compos@@ 1
faz 1
Dakota 1
we 0.15050382829807946
Corr@@ 1
Dep@@ 1
Grab@@ 0.6985440161011742
Od@@ 0.8313765234994236
å@@ 0.6800680226756646
Patrick 0.538135538754378
amo@@ 0.5034514638634042
Nigeria 0.9094245783828774
Piz@@ 1
accident@@ 1
quet 0.950440990243209
Yu@@ 0.9042403428541386
derr@@ 1
asso 1
Cast@@ 1
Creek 0.3663386268422483
bro@@ 0.24002939037966528
p. 1
ther@@ 0.18213895625199042
nik 0.6183516736620125
ibn 1
Zap@@ 1
Wh@@ 0.4381003282665345
ichi 1
locomot@@ 1
} 0.587881995820876
pav@@ 0.9048404897559591
fil 1
ops 0.38515990157573526
ocia 1
Autom@@ 0.6893048659569514
Lou@@ 0.5221957538605329
AE@@ 1
trol@@ 0.6034191613057774
N. 0.9670233061233947
ann 0.43530609711118606
domic@@ 1
Nak@@ 0.824109810376436
tumb@@ 1
alan 0.5737095341259814
Laborat@@ 1
hispan@@ 1
bé 1
Hun@@ 0.6316261909128941
Om@@ 0.7238414943437375
Cher@@ 0.7429633616801083
1810 1
up 0.03410943516140932
Industr@@ 1
lera 1
tic 0.09577436898282382
http 1
tina 1
1820 0.7843642736726403
macul@@ 1
brill@@ 1
tul@@ 1
DJ 0.8424254995231916
lap@@ 1
Sie@@ 1
protec@@ 1
Yan@@ 0.8433417421649718
Mut@@ 0.8507625442365195
subur@@ 0.651589576965745
Home 0.44770241171789144
Sang@@ 1
marqu@@ 0.7614380553423722
bru@@ 1
Nad@@ 0.8501941326159305
Sarah 0.7513393710589211
nen 0.18566323271182197
Hav@@ 0.3582662011490717
Montreal 0.7958458904767802
verg@@ 0.8280980547926876
están@@ 1
entino 1
Arz@@ 1
idel@@ 0.9489628309797105
Otto 0.5131742575603092
ft 0.12096170926975985
pus 1
Manhattan 1
Kelly 0.7923345024846755
Sporting 1
Autor@@ 1
Vegas 1
macho 1
novel@@ 0.589637585977497
Russell 0.7966150076757941
Las@@ 0.9788775609828413
TC 0.8640431018824415
Abu 1
Intel@@ 1
Jord@@ 1
wich 0.7007222256592981
ms 0.17409375096085553
Chin@@ 0.9500920073983767
orbitales 1
anca 1
odio 1
160 0.867717679172636
beta 1
Ví@@ 1
autobi@@ 1
ep 0.3431552962371721
Wisconsin 0.5607465208639676
omun@@ 1
Minas 1
indis@@ 1
evangel@@ 0.7194936154476508
ormente 1
ec 1
PP 1
29@@ 0.8225667496017806
UE 1
Network 0.5216566642739368
improvis@@ 1
Sou@@ 0.39839537940651243
Pis@@ 1
Ross 0.7475816596529191
Christopher 0.7823295524092204
gén@@ 0.676245693292893
mini@@ 1
old 0.09345980734479734
· 0.07004511403204162
oke 0.35686970782004
GT 1
1833 1
Arabia 1
1812 0.9027516442305954
ken@@ 0.2190112127908462
Old 0.3151723989100249
etto 1
maya 1
portal 1
Coch@@ 1
Pictures 1
sula 1
Singapur 1
DS 0.7216811603424429
iri 0.7294836707612119
NO@@ 0.7969813622923165
fit@@ 0.679526431953293
OT@@ 1
USA 0.22746099978233777
Tin@@ 1
examen 1
1821 1
vis 0.7025265928578339
Poc@@ 1
ux 0.3297019299652712
14,@@ 1
Die 0.01424227413438936
Dani@@ 1
D.@@ 1
tano 1
R.@@ 1
nig@@ 1
France 0.05777736486081753
yo@@ 0.45672377484032417
avera 1
zor@@ 1
brut@@ 1
Fur@@ 0.3811605156037934
Gloria 1
net@@ 0.32148180608266913
min 0.6108947086356045
Mr 1
Alba 1
ă@@ 0.6188895407863381
expect@@ 1
125 0.8786374157504809
vir 1
iment@@ 1
vamp@@ 1
arta 1
RC 0.6738265345261331
ask@@ 0.4418627842842504
eal 1
Hamilton 0.5556064438475374
Tw@@ 0.5220804170298207
maf@@ 1
Glob@@ 1
tibles 1
ferro@@ 1
ML@@ 0.6865117063479786
fa@@ 0.20583479390066162
Wilhelm 0.3260688391828917
margin@@ 1
ö@@ 0.10581151012662311
We 0.3529676953190978
ort 0.2827221735032356
Camb@@ 1
Kil@@ 0.4620064345520425
virtual 1
ody 0.46296909533424246
engo 1
Bosnia 1
igh 0.594082065057405
AD 0.588481830417509
send@@ 1
Institute 0.1799441738025662
vu@@ 1
sequ@@ 0.3394391222937908
1859 0.6873932430186621
agricul@@ 1
vierten 1
Fa@@ 1
Oro@@ 1
Grammy 1
Angel 1
alumin@@ 1
afro@@ 1
Nevada 1
René 0.9811270061144514
Ple@@ 0.7969297096470528
concer@@ 0.22521412481811268
Franz 0.4325600189744847
Jam@@ 0.8133744875524053
Will 0.860975328612106
tion 0.04675303954620753
80@@ 0.8072224230678129
reduce 0.7891910075630335
vers 0.07802677595485798
eas@@ 0.3111476189882561
taña 1
Crist@@ 1
Power 0.5155290659487798
Adel@@ 1
Song 0.38492848008069563
involuc@@ 1
Can 1
Carter 0.8546888998932697
engu@@ 1
chu@@ 1
galax@@ 1
ses 0.035728945301148146
Cass@@ 0.9027459989290618
ombi@@ 1
Lagos 1
Abr@@ 0.9028148329054178
Lon@@ 0.8859855718504072
16,@@ 1
tena 1
2,5 0.9837910638616091
rich 0.5948410157064582
Jason 0.8960926233593407
bs 0.21751894690916465
Neu@@ 0.288837443629312
ria 1
Sul@@ 0.6243399029766332
140 0.8483068517929928
Emer@@ 0.6385307426791964
iter 0.3795825028624282
Cour@@ 0.3390372321254992
Simpson 1
anth@@ 0.4549653334137954
Gau@@ 0.5549056109987088
anger 0.41936998802999653
Thi@@ 0.5049824643112657
judici@@ 1
Gén@@ 1
quot 1
Andy 0.8877882718350881
taba 1
tril@@ 1
crita 1
propaganda 1
Xi@@ 0.8041152327625373
Austin 0.7977913255564004
enga 1
Diana 1
Liv@@ 0.5855162579742719
ska 0.740620624651241
Det@@ 0.6132275288812439
rog@@ 1
ógraf@@ 1
Control 1
Magn@@ 1
ès 0.2645052434544188
alus 1
erle 1
350 0.9004420631884821
ócesis 1
ç@@ 0.20181385761495177
olia 1
Dav@@ 0.5689142271631419
Valley 0.28940089718505235
criminal 0.8133434520284161
Bla@@ 0.7826858105749646
³ 1
arist@@ 1
Athletic 0.8248014437873337
Macedonia 1
13.@@ 0.9471085163554477
lina 1
tw@@ 0.189860791021214
Who 0.8378969422788035
ámb@@ 1
amateur 0.808432702704599
áz@@ 1
uk 0.5560900534431185
simpli@@ 1
Web@@ 0.4238002902269443
tral 1
Lyon 0.6418490278589792
oth 0.3698654533927381
pios 1
uss@@ 0.24817948921888566
Do 0.6309587828732195
altern@@ 0.9018593837798077
ow 0.21656532362640496
triang@@ 1
ays 0.20070285883085767
noc@@ 1
time 0.02424908302965369
tha 0.6900449761509077
Tito 1
bola 1
optera 1
ural 1
a- 1
Biel@@ 1
emat@@ 1
1858 0.7606353681814204
rif@@ 0.6580731062255543
humor@@ 1
low@@ 0.2058309736884378
xi 1
Adams 0.7551105540046691
da@@ 0.6710758304227545
equi@@ 0.8468005802746225
oshi 1
Twitter 1
Nob@@ 1
brica 1
repe@@ 0.44269529019249415
Gur@@ 0.9287582916367971
roquia 1
1856 0.725332425953302
Geor@@ 0.47291038246362177
Imp@@ 1
vet@@ 0.5819708455993101
antigu@@ 1
lando 1
Kath@@ 0.42775083334008185
Martin@@ 1
Sto@@ 0.3904470662497729
Abraham 1
infl@@ 1
iev@@ 1
Bruno 1
British 0.07218138429349757
ents 0.05237137268631864
Paula 1
anticip@@ 1
suya 1
Out 0.6136807120567767
nan 1
Mati@@ 1
Lak@@ 0.5340544260917391
Aman@@ 1
sar 1
Trav@@ 0.6218231905091275
Test@@ 1
Sz@@ 0.5168046443978876
yi 0.5628876671200781
baron 1
pau@@ 1
Pseud@@ 1
fat@@ 0.9711156985068754
soc@@ 1
territori@@ 1
kan@@ 0.23987136066377437
Gabri@@ 1
ett@@ 0.22020026315580346
aul@@ 0.42175648937004123
orama 1
ker@@ 0.23422076879814435
Isaac 1
Nec@@ 1
Theatre 0.33589188945665177
Olimp@@ 1
Batman 1
gro@@ 0.18527962438327478
hy@@ 0.2520724613835455
Draft 0.8533321084185023
disciplin@@ 1
Fru@@ 1
Viv@@ 1
rat 0.2723378447257363
court 0.15532947158241778
éro@@ 0.6718286429217896
M.@@ 0.6769309723853103
Rick 1
Raw 1
SI@@ 1
atil@@ 1
1854 0.7475212355374932
Tec@@ 1
music@@ 1
Atle@@ 1
ault 0.38477795757179106
North@@ 0.3815960237558578
Cov@@ 1
Š@@ 0.6279052464726029
HD 0.8440084981213153
Flam@@ 1
eus@@ 1
1814 0.9249201903728201
Bad 0.45670055584179803
aj 0.8219607696559557
Camer@@ 1
also 0.013187076011725259
Walker 0.7109106288380743
Tob@@ 1
Alice 0.7213943918534916
prud@@ 1
Pay@@ 0.9842928072466469
1855 0.7441550865585803
Dig@@ 0.9250720405648551
Post 0.3484468892406584
inflam@@ 1
Ober@@ 0.1069807715074432
Biz@@ 1
Alaska 0.9349167371623225
aa 0.9342936821050072
Ray@@ 1
AF 0.6503140066058435
ag 0.37097555554885747
atem@@ 1
thi@@ 0.33116565591498276
Brooklyn 0.7990298602301777
Il 0.023749152810474315
usti@@ 1
Band 0.20767563391056498
dij@@ 1
CH@@ 0.5161283432856523
Airlines 0.9747072248018123
Fres@@ 0.8269421194440509
Bernard 0.5727179230771805
ngu@@ 1
Kiev 1
from 0.006437384369668999
IS 0.7228316346368089
Fle@@ 0.5740598648606113
Channel 0.5298452232648002
hard 0.2944524958564638
lers 0.18647457411941848
Lisa 1
Roy@@ 0.7015379665797282
lock 0.37436309810025364
VA 0.967457506781859
Dro@@ 0.555540416724712
raf@@ 1
aber@@ 1
Raf@@ 1
uza 1
Sara 1
ng 0.5807381439090409
timas 1
aristoc@@ 1
Jonathan 0.8757293099039357
protoc@@ 1
excentr@@ 1
Marc 0.7041601257828262
corresp@@ 1
Benjamin 0.6806329861112317
poli 1
Francesco 1
Micro@@ 1
Phil@@ 0.47258342272146675
Nam@@ 0.5131669051047101
Che@@ 0.6697973710827549
Sports 0.371577476666244
gesti@@ 1
Dance 0.7200436359513605
Cli@@ 0.9336810161865223
arum 1
shire 0.29935246219887984
Roy 0.7164713157737362
Liverpool 0.6517336105383654
Restaur@@ 0.8472517385541073
orte 1
tech@@ 1
Ñ@@ 1
ctu@@ 1
Harris 0.6893483213993961
Tim 0.7493957563038679
wal@@ 0.17794322330609721
Dave 0.7440437600911843
15,@@ 1
toman 1
Quebec 0.728189356519132
Polit@@ 1
Raj@@ 0.4243791899317836
o.@@ 1
IP 0.7612009297039062
but@@ 0.3840525122578525
ty@@ 0.19555878083650344
Imag@@ 1
ries@@ 1
Hog@@ 1
ectar@@ 1
ord 0.37013436137506106
tz 0.6158046246899602
consol@@ 1
fug@@ 1
stone 0.2193708910504684
opo 1
tez 1
14.@@ 0.9510951236402616
Carlo 1
CBS 0.7831144872636427
Palmar@@ 1
ticia 1
chester 0.4276529341211463
Fair@@ 0.5845742601126253
Gé@@ 1
Municipal@@ 1
5000 1
Amér@@ 1
1851 0.7540271937482781
boy 0.4391360404212464
Jon 1
ror 0.5907148447496035
ocar@@ 1
Dou@@ 0.44207608630402445
Naz@@ 0.7720247128480425
artifici@@ 1
Asoci@@ 1
Luxemb@@ 1
Parker 0.8904154933891083
CC 0.5909175018074289
subsidi@@ 0.9463515645166017
Press 0.4583337456012605
â@@ 0.2028746651826766
stan@@ 0.8952575842667158
eti 0.6993174155413172
1842 0.8870635000740351
Faus@@ 1
Ler@@ 1
Sali@@ 1
ady 0.36606577239616683
1835 0.8861749376950016
õ@@ 1
atu@@ 1
PI@@ 1
folia 1
Berg@@ 0.2740615498206491
onne 0.25077515014334045
UTC 1
Of 0.3651117467492776
len 0.14424958733385446
Wa@@ 0.5292630004177883
bili@@ 1
imprim@@ 1
Brand@@ 0.5705428815942454
bie 0.5325704031315024
Nan@@ 0.9707380949963743
Dead 0.9402059374974227
proce@@ 0.5476251449896773
Claude 0.5683246861549074
enaje 1
Wayne 0.876723823459805
Co 0.40815597216151206
depre@@ 1
Marshall 0.7610391531663077
EN@@ 1
Né@@ 1
Good@@ 0.6584393792634893
uba 1
Rich@@ 0.48127590848294766
Lec@@ 0.9655725856581585
Award 0.1320561446645365
bin 0.44797024469334285
Jacob 0.7142487299704914
insur@@ 0.6732977131937917
lug@@ 1
Robin 0.9412998727505107
risto 1
day 0.0554303828877029
sun@@ 0.43940418911331236
Hard@@ 0.6290314486447766
Dallas 0.7325824462134278
deli@@ 0.5057262776230483
rell 0.8812648883926539
Jeff 0.8464829208117686
fant@@ 1
Gav@@ 1
Angeles 0.19402892337105232
ective 0.1876454395734549
Gall@@ 1
To 0.19466178931291306
1825 1
uki 1
Cré@@ 1
Exper@@ 0.7365378194409195
geb@@ 0.12339976940422878
chen@@ 0.3098818290612455
Li 0.6639636089788639
Dy@@ 0.7330971763699986
omar 1
60@@ 0.7782624764713754
Angel@@ 1
bis 0.02252859623369045
Ax@@ 0.9334006517702097
Jos@@ 1
Sad@@ 0.7303215930747994
Organiz@@ 1
Rog@@ 1
AF@@ 0.8309712314711892
imal 0.5630465063805129
Di 1
Georges 0.5557163506572946
Um@@ 0.15949374625086898
101 0.7681314181352515
FO@@ 1
NASA 1
Polo 1
agi@@ 0.946734765226079
124@@ 0.8766755473455943
Wright 0.7419410719502102
ark@@ 0.21405230728324712
iss 0.5428888800273269
1853 0.756243436936963
PN@@ 1
horizontal 1
Zagreb 1
terri@@ 1
Bis@@ 0.8813465558573568
cim@@ 1
ogo 1
Brun@@ 0.5815996417695063
lem 0.5545496985466551
param@@ 0.670058855454607
Be 0.8331310464199568
enz 0.2288003737962146
ords 0.36877462869584676
ror@@ 1
Proc@@ 0.9744195840840995
augh@@ 0.43058073532331126
CE 0.543693029118771
Gibraltar 1
Linux 1
Women 0.18588901669581764
sep@@ 1
Golden 0.414050451792586
ili 0.5190065891343616
PO@@ 1
usias@@ 1
yg@@ 0.4446295602368689
Omar 1
hop 0.9415725307400152
ostr@@ 1
è@@ 0.1999457915234896
ë@@ 0.6650617117156579
stre@@ 0.2451952767065131
Bog@@ 0.6799633612460653
bina 1
Nobel 1
Pru@@ 1
tín 1
za@@ 1
Orlando 1
geometr@@ 1
Magazine 0.5516767528375325
eba 1
nes@@ 0.7384744032209152
iterr@@ 1
Bien 0.798537464441292
Nas@@ 0.7311964974848962
18@@ 0.6247482816341023
ted 0.031201451765756658
dés 1
Global 0.6314949127288942
aut 0.2456071574708233
Leo 0.8658494207313199
Nova 0.8494300138392974
atum 0.7100673459091391
Shin@@ 1
35@@ 0.7302745988795912
espect@@ 1
Barry 0.877735376424182
Lie@@ 0.6930718533664447
deser@@ 1
eiro 1
Mac 0.9649149216354956
Interpre@@ 1
contradic@@ 1
dis 0.7407978920316649
gs 0.20813164146936433
etc 0.5966505591493583
instrumental 1
Khan 0.4770638634298265
Mozart 1
ams 0.22256773152400483
air 0.11971696663351271
plut@@ 1
Shel@@ 0.8128896741359587
fab@@ 1
aper@@ 1
bias 1
Gand@@ 1
oba 0.9140906467423953
viz@@ 1
Inc 1
cide 1
IE@@ 1
Post@@ 0.4545838587779157
Rud@@ 0.6854271607083446
interrup@@ 1
Metal 0.8962317345313612
1845 0.7819326703610638
kiló@@ 1
Square 0.5520605131472912
Xavier 1
RS 0.670742927428641
ambul@@ 1
Best 0.17894019853913487
roman@@ 1
1847 0.7678314650030693
1834 0.8907906703747226
món 1
alif@@ 1
metr@@ 1
UK 0.1625901753409434
triple 1
ventr@@ 1
är@@ 0.1167552556063705
1852 0.7200058251695309
Baden 0.6104765277412643
Lep@@ 1
adic@@ 1
haber@@ 1
partici@@ 1
https 1
Nog@@ 1
iler@@ 1
agin@@ 1
gir 1
dif@@ 1
tz@@ 0.6682461669349985
persist@@ 1
empre 1
Good 0.6309434716214153
Vati@@ 1
egro 1
Heinrich 0.3129026327204325
aris 1
Soc@@ 1
Bud@@ 0.43374353233023827
Voc@@ 1
ely 0.06921458876540242
distingue 1
17,@@ 1
Grant 0.6666825298871801
Lob@@ 1
monit@@ 1
Dark 0.8532767090934895
omin@@ 1
Mom@@ 0.9399318406776265
Beatles 1
Air@@ 0.5197855966623076
last@@ 1
vierte 1
Circu@@ 1
Emma 1
Lom@@ 1
Museum 0.14735422190680503
arru@@ 1
idi 0.46872774412992163
Satur@@ 1
1849 0.6726209448369739
Acc@@ 0.5523832564746759
Games 0.21731505315216054
diam@@ 0.5516087331926608
itt 0.5161011900095922
Jordan 0.6359767969656847
BS 0.5720849971746148
Tas@@ 0.4341483189626803
Venus 1
Lawrence 0.6206699713111031
ref 0.5230424671139482
Mong@@ 0.6938502250436377
Alf@@ 1
ein 0.013183574246125299
feld 0.23066692058766397
porno@@ 1
line 0.055653428296510946
Docum@@ 1
diagnos@@ 0.8430748397569522
rique 1
MO@@ 0.8398367493658858
This 0.03056650237625969
sh 0.4918250161911172
kin@@ 0.3728494900195775
vi 0.5692224364145128
extranj@@ 1
wan@@ 0.3137460534945842
plasma 1
ī@@ 0.6476020793889582
Hul@@ 1
Shir@@ 0.8761502238752734
Ze@@ 0.332883054156306
hong@@ 1
Te 1
unca 1
Girls 0.6984127418570333
Kl@@ 0.20292086039723833
amaz@@ 1
iggins 1
ness 0.11545150440544748
Port 0.3508859339826078
mortal@@ 1
esi 0.2850801777634595
2.000 1
Say@@ 0.9817541449784546
Pand@@ 0.9790667241727907
males 0.4390198929523804
tier 0.23778820551204052
NBC 0.7371237728467566
201@@ 1
robus@@ 1
MC 0.7027397861524686
Jazz 0.5454481177148326
oven 1
Boeing 1
æ@@ 0.7157721204190725
umi@@ 1
Academy 0.16189758415301722
Bra@@ 0.6860527924459409
Charlotte 0.6231396799771393
Joh@@ 0.6040506183863813
dale 0.5201887920436816
intermedi@@ 1
1824 1
ilde 1
reh@@ 1
1836 0.8162567370271976
Gh@@ 0.529576109598794
dad@@ 1
McCar@@ 1
bit 0.30217907364453434
Zh@@ 0.7818259441437824
Gra@@ 0.4347811314180709
din 0.5183271414235219
Cé@@ 1
Eul@@ 1
Robinson 0.6961005345331078
Port@@ 1
Oliv@@ 1
Cooper 0.8140407437208746
Manchester 0.4211641303815959
Renault 1
Pér@@ 1
ovich 1
town 0.06325814729188063
tun@@ 0.46513027690469744
non 0.06533984528460422
Inform@@ 0.9812718680227625
Mau@@ 0.534770625639148
Hér@@ 1
Dul@@ 1
IP@@ 0.8613155658156247
vierno 1
even 0.09973599302283097
Rég@@ 1
Zel@@ 1
actr@@ 1
óptero 1
pertur@@ 1
atin@@ 1
360 0.923750901261575
Sid@@ 0.8889695827201646
Tot@@ 0.7286351375273629
Dod@@ 0.7179813538854748
Wit@@ 0.3745244184924809
Prin@@ 0.532501805056879
ois 0.3264801083950398
interrog@@ 1
trau@@ 1
riz 1
Albania 1
Thor@@ 0.6412858342847626
Sea 0.32183330718373965
maz@@ 1
mezc@@ 1
Chic@@ 1
Mez@@ 1
tier@@ 0.7779141520357061
Jamaica 1
venti@@ 0.5058035518235869
1823 1
haz@@ 0.9135302164865179
ingi@@ 1
lés 1
ues 0.15643896428991533
indu@@ 1
Point 0.4050319323464871
pit@@ 0.35232763801577255
criti@@ 1
ust 0.21572566832057957
vill@@ 0.7235637249668441
Telev@@ 1
chor@@ 0.442404751399994
Inst@@ 1
L.@@ 0.8520698955715009
Harrison 0.8172920583431053
Chal@@ 0.9411824428849445
gon@@ 1
16.@@ 1
1846 0.7275213221885515
Anim@@ 1
1837 0.7863656528252583
1839 0.8152361440676584
esh@@ 0.33416178535721075
HMS 0.7733652967923192
distr@@ 0.8779552417867573
tren@@ 1
ding 0.11313003791380666
princip@@ 0.4991914815662995
CO 0.8073998191531929
minim@@ 0.8775136363437528
Scar@@ 0.812077092678128
Hat@@ 0.6112094661009676
Lun@@ 1
kat@@ 0.2783958280503793
cy 0.40395643906226975
rid 0.6613757232697983
Max@@ 0.837486120646236
J.@@ 0.7836165531031228
Stu@@ 0.2844806435223253
Educ@@ 1
Kel@@ 0.4628308011402614
Java 0.992823933794911
ï@@ 0.1689713531076745
hex@@ 1
Alabama 0.5561534516848425
Cali@@ 1
Maurice 0.5674425833292578
Way 0.6933089554211712
Ec@@ 0.5593878121025117
Basil@@ 1
Philip 0.5185747187808981
UFC 1
ères 0.11910444979648888
aurus 1
Gary 0.736434765769114
ury 0.3599791335750884
Ach@@ 0.4046921859301966
ident@@ 0.9023652289815405
cach@@ 1
pedia 1
Steven 0.9534101985328429
aha 0.6050585468285968
landes 1
Play 0.6835232677862911
obi@@ 0.8422106380343793
Provin@@ 1
insig@@ 1
cher@@ 0.3462052231838332
inqui@@ 1
Malta 1
System 0.2641425979679644
file 0.8830570990765352
mom@@ 0.6399572748710931
problem@@ 1
aller@@ 0.9548243705141987
aye 0.5244120041280713
Fot@@ 0.7474911135749306
Wes@@ 0.3725554634493269
ment 0.04899308983614126
Honor@@ 0.9831707848321314
Homer 1
Montenegro 1
aine 0.172467837596254
della 1
blues 1
Down 0.8196033372582403
Hit@@ 0.688491532368552
Beg@@ 0.2886511795354486
Stanley 0.628974786218411
visu@@ 1
wald 0.33984973240792493
ated 0.018155263999358528
1844 0.7823968302866061
spec@@ 0.2192730088451251
urus 1
eme 0.18566058530785842
Gig@@ 1
gall@@ 1
1815 0.7038246579723331
Mix@@ 1
Princ@@ 1
teria 1
independ@@ 1
her 0.014795746303440539
Ed 0.9424623394339049
15.@@ 0.9489567389178074
bran@@ 0.6631162643778603
wick 0.5566685141834101
kur@@ 0.23199201663266214
Benedic@@ 1
Superman 1
liqu@@ 0.8021433093929148
Hin@@ 0.2739657084636055
rie 0.4617552274924692
Gü@@ 0.9345863553685957
bul 1
Cha@@ 0.9863157307921396
Patricia 1
Nev@@ 0.9711640278868322
yu 0.9784553661251442
Giuseppe 1
Sup@@ 0.40955849841591785
Garden 0.6493110784974743
Rep@@ 0.9814662403428032
Mant@@ 1
vor 0.051046666076276885
750 1
Iron 0.7376300885148447
numér@@ 1
Murray 0.6495675741789207
Perry 0.9379035235110781
Krasno@@ 1
Memorial 0.44622837224633266
Baz@@ 1
105 0.828581625326625
cardi@@ 1
Triple 1
Tag@@ 0.5613925041161018
acy 0.14416942633385338
Lad@@ 0.6421346546101208
té@@ 1
uria 1
Tier@@ 0.806066379839489
ovina 1
yl 0.3234676076167892
DO@@ 0.8407459971441202
roles 0.383014903980043
Kab@@ 0.48747628691322425
emo 1
vend@@ 0.6684949831826904
lum 0.5242660306946222
chen 0.0964603408654816
onder@@ 0.7757962702770201
Seattle 0.612421012626716
odon@@ 1
lav 0.8179578488379678
aque 0.5949647587189921
War 0.05930537591965163
EA 1
Moon 0.7142275939388267
ament@@ 1
Silv@@ 1
Great 0.16841409078256422
1811 1
1838 0.7716656323345573
Madison 0.8971015045859231
Rh@@ 0.4426816445717867
Fantas@@ 1
Jay 0.8199779086960367
Graham 0.6911979145861004
lard 0.520444957594476
EC@@ 0.9918180745776515
Town 0.24618219842221178
emerg@@ 0.5032622064108074
laur@@ 1
cump@@ 1
fum@@ 1
hockey 0.3548074456402316
Saf@@ 0.4946152765941427
ect 0.09971768865237306
ris 1
aseg@@ 1
ř@@ 0.547800937061254
Trump 0.6291179103573918
itis 1
ga@@ 1
What 0.49921942202936725
satis@@ 0.6718201512845625
SN@@ 0.7071845998808898
kov@@ 0.7090000527391097
Kent 0.6223724260859403
umo 1
120@@ 0.8440789720734181
trom@@ 1
1200 1
deter@@ 1
Munici@@ 1
Thompson 0.6278106473764189
com 0.7275651239689183
ws 0.1600862150710477
The@@ 0.21632161842777037
Tennessee 0.4434511710594533
Pens@@ 1
borough 0.37913407334965155
embre 1
Heart 0.6515829016022425
allar 1
EF 1
Nicolas 0.5710464294451901
1841 0.7644571673514506
atern@@ 1
sed@@ 1
Ibn 1
CIA 1
analiz@@ 1
Moh@@ 0.5659644633821128
ku 0.7079183494677304
our@@ 0.14263482023504065
nutri@@ 1
Atlas 1
incor@@ 1
Fiat 1
tos@@ 1
pig@@ 0.9730371780101307
Under@@ 0.5546831775459561
AG@@ 0.8497140235823264
Clinton 0.8211749635661049
dispos@@ 0.6102571134205675
Facebook 0.9074882843845916
isi 0.3309857189989426
prac@@ 0.5364325330590548
Campbell 0.6386133666925097
1822 1
hosp@@ 1
ider 0.21617416742811293
atmos@@ 1
€ 0.6997815929490765
aden 0.3552320450015118
tang@@ 1
dose 1
urs 0.15007650750802723
Science 0.2182474782741889
municipal@@ 1
F.@@ 1
Television 0.45693087445061265
omp@@ 1
Studio 0.5308862610111024
Orange 0.6759172337927687
aina 1
Division 0.09188934723891061
Cun@@ 0.9579424706253382
dra@@ 0.2249268191470107
Margaret 0.5409791484037396
Castel@@ 1
Ian 0.7487094215874176
Oklahoma 0.5525856377340147
Edgar 1
Bun@@ 0.539145576244083
Spin@@ 1
Yel@@ 0.7555058087673155
gil 1
írit@@ 1
ów 0.3785572584227565
imi 0.5458104599725744
ples 0.15291048198033344
Fen@@ 0.8211159101206772
ott 0.440703554487068
Copenh@@ 1
Hudson 0.8060553755627413
Sacram@@ 1
ols 0.17892367806056741
CON@@ 1
shows 0.18612377585440165
Turner 0.7699786675471945
1843 0.7731190954648152
thoph@@ 1
under@@ 0.07483743883219661
Och@@ 1
Japon@@ 1
Sever@@ 1
hep@@ 1
Ambro@@ 1
Jerry 0.8566010437170601
zu 0.011769296197563941
Stalin 1
apor@@ 1
Ech@@ 1
Stewart 0.6109237609997812
comport@@ 1
cut@@ 0.3133412365394014
Rand@@ 0.5637156139288078
onc@@ 0.5126411551838372
Chir@@ 0.9779408619703833
ough 0.2951545563406763
Aless@@ 1
Sot@@ 1
Civ@@ 1
As 0.04574674994391647
Vincent 0.5762154122565478
equili@@ 1
ulas 1
Madagascar 1
soy 1
Vor@@ 0.05371539861206925
LO@@ 1
Terry 0.8842474351515653
ks@@ 0.20714310840564312
tour 0.11637637460107807
cules 1
Gros@@ 0.7889922964411152
Porto 1
Bour@@ 0.484471630672954
sid@@ 0.6253121073483693
Opera 0.6014418007634255
Univers@@ 1
hou 0.7806377399527676
RT@@ 0.591432549178881
ail 0.2011628721889427
nch@@ 1
escape 0.5815024188650465
1808 0.9482812706483085
has@@ 0.45351207206225513
amia 1
1813 0.8312996884102523
Space 0.46357876314640095
ations 0.021414884390322405
Ludwig 0.3596226569316801
Melbourne 0.4076102990105568
sil 0.9812628766646461
Maryland 0.4455974673858849
Stadium 0.3232254304204038
Shakespeare 1
H.@@ 0.8828680975696467
aph@@ 0.41766634810796704
sten@@ 0.7312700715379953
ls 0.2510867412596635
Const@@ 0.9613824656118953
Arkansas 0.646631202386222
éri@@ 0.16761993420091426
Champ@@ 1
maj@@ 0.9095086254018651
solid@@ 1
itch 0.27540300417551794
Jefferson 0.9013023752410727
SM 0.7926978568351647
Eddie 0.9366343366735885
17.@@ 0.9448410284291918
Deleg@@ 1
Phoenix 0.8011302869441355
spir@@ 0.23588559624261082
aç@@ 0.48010100213102214
orn 0.5122333651512252
estes 1
Continental 1
Vista 1
Brothers 0.6161015867628852
gay 0.8317320920532055
Anth@@ 0.729364007781251
Cleveland 0.5669821533055895
Sas@@ 1
Lot@@ 0.6670018337493577
Baby 0.9449097154625598
Grim@@ 0.7666466072326954
ape@@ 1
divin@@ 1
Ses@@ 0.9024615325422245
Nikol@@ 1
Dami@@ 1
ović 0.7557695577629258
ulia 1
Dylan 1
oko 0.9542607313139748
Death 0.3656845144142785
Mog@@ 1
GB 0.5552505871613479
Honda 1
AG 0.3407878335790175
radar 0.9613575060027237
Pent@@ 0.999123448215375
topo@@ 1
reti@@ 0.6929917480218538
B.@@ 0.5799982361826552
Guy 0.6404800342350357
Sky 0.7254644892915569
450 0.8997926673476531
Eu@@ 0.8999537672756994
Fid@@ 1
ien@@ 0.5038987641496873
unya 1
uth 0.36309652041002166
Tib@@ 0.8595123952477592
Beng@@ 0.7690470660660503
Boc@@ 1
Euphor@@ 1
ader 0.2624231614129802
ry@@ 0.705022342322527
Challenger 1
panel 0.8783263833469056
Local 0.6003348953556364
Milit@@ 1
Hot@@ 0.590386143681216
tics 0.13825025650964495
orno 1
1600 1
Rat@@ 0.5908561196277735
ingham 0.49856158529687333
LC 0.6667141104441265
Dim@@ 0.8788406210485903
iti 0.656756565393155
tri 0.8590631742124739
TO@@ 0.9606770608290861
andi@@ 0.524886102349511
tof@@ 1
concurr@@ 1
uni 0.7288334684225569
semi 0.2849174619875271
lex@@ 1
Bob@@ 1
1826 0.882313476668815
Utah 0.651654007503898
Bush 0.6878335495759524
Donn@@ 0.7109885946304239
Sn@@ 0.7882704292810856
wi@@ 0.30133870828050563
Cook 0.7803682752118283
Ferrari 1
oid@@ 1
enny 0.6310930963132559
files 1
zz@@ 0.5599000407251128
Bed@@ 0.2905002841721329
claves 1
170 0.8471202234004072
ça 0.5665645109473821
Rid@@ 0.5690213881508093
anor@@ 1
sax@@ 1
BM@@ 0.7848976555059024
Kap@@ 0.3098369913278139
opin@@ 1
Clem@@ 0.8402820411818266
polar@@ 1
métr@@ 1
Cou@@ 0.5432642870089259
Sl@@ 0.6045343694068072
Byr@@ 0.7833150167273787
Art@@ 0.6909249405320798
sional 0.510552522642597
Ann 0.6151445455833621
Jen@@ 0.9096336304902609
homo@@ 1
Claudia 1
Bach 0.694503926783876
Lap@@ 0.9225162504576864
Sap@@ 0.9534264342366312
Cros@@ 0.5507572537923198
Pan 0.7370109561022687
Amad@@ 1
oux 0.5724968304358664
Budapest 0.8804295548257182
reli@@ 0.4068818896570589
otti 1
USS 0.6975038114460286
Baj@@ 1
igr@@ 1
Apr@@ 1
BO@@ 1
Norman 0.6141317107232809
Kim@@ 0.7978087689477934
Defin@@ 1
yd@@ 0.4661063510664196
Willi@@ 0.7868437263046466
Nancy 0.7847235787978051
oda 1
Sah@@ 0.7730860411683984
chan 1
tac@@ 0.45232789313810806
val 0.49102875287294107
Rock@@ 0.6392259388158323
cogni@@ 1
lon 0.5572272259965915
Evans 0.6935257959919212
acomp@@ 1
vik@@ 1
Ontario 0.3108383104208335
Cen@@ 1
Gaz@@ 0.7980389767527516
adia 1
Gilbert 0.7610402700952411
Sound 0.5739412599674203
Angola 1
Urban@@ 1
P.@@ 0.9895879460428035
Cór@@ 1
inge 0.43269388482194915
Disco@@ 1
Songs 0.5112312699861575
Delta 0.880504724618622
skaya 1
Kate 1
Barb@@ 1
eck@@ 0.17861248414832
atis 1
Express 0.5089874820222464
Dum@@ 0.6977043295398546
wan 0.5284527762250605
kel 0.24556270963954524
lex 1
lee 1
Last 0.626998167615617
judi@@ 1
sw@@ 0.11690305604710062
1829 0.8261825483311357
TS 0.7466801954015336
uck 0.34833759887253213
Resol@@ 1
macro@@ 1
atom@@ 0.48930166212439635
siti@@ 1
bern@@ 1
dre@@ 0.1557344859521695
Chart 0.6218775549690636
Pag@@ 1
Map@@ 0.8379708847767656
CP 0.77209961650018
Fred 0.645274678890445
DI 0.8610934627635687
Pra@@ 0.6922056793537074
trig@@ 0.8910798994308762
Cairo 1
RT 0.6460927123312672
Has@@ 0.492859857732985
EM@@ 1
Ok@@ 0.4737641305884375
Shang@@ 1
Vul@@ 0.846199038533839
1831 0.7472156171757931
Andre@@ 0.962899126205993
Dub@@ 1
18,@@ 1
Blu@@ 0.48113905494653264
codice 0.6132193298289845
Tun@@ 0.42216509344838726
ron 0.6805791667134763
GP@@ 0.9365133131033908
inaugural 0.8322165700504021
County 0.04631460692094819
bon 0.2798813848026283
Sha@@ 0.8236251824085571
Laz@@ 1
Marx 1
USD 0.9121375714081444
Mord@@ 1
Ernst 0.39989391317997663
n. 1
sy@@ 0.22673647369439665
1828 0.8019432996702366
Adolf 0.6137825843883761
Net@@ 0.4954557223168173
Reich 0.5106438416855227
Just@@ 1
Ron@@ 1
Venez@@ 1
Ster@@ 0.44675078635002313
Kos@@ 0.5272154062680607
ket 0.26082457893795197
Pant@@ 1
Latin 0.2644506656096179
Rav@@ 0.6474921317359544
Out@@ 0.3220523981346453
Bask@@ 1
Tales 1
ward 0.18191559417793676
Danny 0.9677009037811143
3.000 1
ocer@@ 1
zur@@ 0.7784020130222411
LGBT 1
Wur@@ 0.6752412011686876
miz@@ 1
Ley@@ 1
issa 0.91777545434896
Morris 0.6499270159703509
inia 1
Gel@@ 0.2945447970273451
20.@@ 0.9665826127674507
wo@@ 0.15639852781303257
Sing@@ 0.42439881382499833
1832 0.7017898795894019
Bond 1
Georg 0.33506629752166167
Herbert 0.5534790406429007
Musical 0.8853618443399558
oug@@ 0.3263873013853851
Da 0.21488747878652575
ishi 0.8441893366191554
PP@@ 0.9530831269213522
dal 0.9229632695263036
3,5 1
ndi@@ 1
alen 0.20266285560710479
He 0.009089354156344175
Bobby 0.8292536360387355
ave@@ 0.5070526569460273
ants 0.04350470133277599
rap 0.9492907114340333
Water@@ 0.4853441847577062
ures 0.15638594934625444
Bundesliga 0.5160333748650412
jed@@ 1
Research 0.19223762858910978
enko 0.884983554275966
osh@@ 0.8693818061206039
aft 0.21955672377721103
cela 0.4848185298711871
ulan 1
Baker 0.6411912810205419
Kentucky 0.4487055324277848
grec@@ 1
tiller@@ 1
Wagner 0.8475513793012408
elem@@ 1
tney 1
islam 1
GM 0.7600691293522426
Japan 0.11472514836933789
Ye@@ 0.7798455974608768
infer@@ 1
chim@@ 0.8258733780415989
ck@@ 0.2475299208129228
iria 1
ê@@ 0.24011500179953027
sch 0.14855309639032158
Xbox 1
daf@@ 1
releg@@ 0.6070855648635403
metabol@@ 1
For 0.06966474294183839
X. 1
That 0.22063625550231117
Yar@@ 1
Light 0.4500037845008541
Nebraska 0.8604125642224172
ina@@ 1
persu@@ 0.8159260332570277
Day@@ 0.699658566263063
lep@@ 1
18.@@ 0.9368009957908775
Ma 0.7300882512866006
Michelle 1
Zen@@ 1
Netflix 1
Palermo 1
Warren 0.6899860185619384
Steph@@ 0.6881560863800213
pé@@ 0.8290858821051256
Muhammad 0.6424902917610179
zam@@ 1
Drag@@ 0.9736088637938534
Get@@ 1
Gold 0.2910364073194926
ense@@ 0.5087905105652781
confront@@ 1
ecti@@ 1
oker 0.7222791452539795
An 0.08489242177996391
CP@@ 0.6581746848454754
s.@@ 1
Clo@@ 0.9202977510435957
dium 0.5435245592704903
Vancouver 0.6168076715487398
incer@@ 1
enten 0.18736532457017124
Nem@@ 1
Py@@ 0.7030296670579466
aniz@@ 1
Rou@@ 0.4072346228201317
36@@ 0.7797997431910701
Masters 0.6720923454210095
First 0.11612666984957092
EL@@ 1
ennes 0.23408392998413458
Helena 1
Kurt 0.7108147231389815
off@@ 0.0955183525369854
app@@ 0.15888612559175727
Back 0.6465142273809452
Neil 0.8009656041926649
46@@ 1
Force 0.1635948855339604
fé@@ 0.6912128436309997
oku 1
Cla@@ 0.7217655963580402
olan 0.14973261064363946
SE 0.8523325173230254
avi 0.8294257593600691
abi 0.8842728605720441
119@@ 0.8558196322968409
Tommy 0.8767748030072352
Resp@@ 1
34@@ 0.7631619437567573
Nick@@ 0.887497182870825
Pref@@ 0.9387570513265426
Wel@@ 0.3395244520392423
ínsula 1
Connecticut 0.4988042609644837
Grace 0.843152794593302
opti@@ 1
Phil 0.7666305570941826
F.C. 0.6831314879414623
cabec@@ 1
wen@@ 0.20037606091575358
GP 1
ovi@@ 0.6323041154908243
33@@ 0.7276561515009295
37@@ 0.7937866158599372
Arnold 0.6699520419009396
ka@@ 0.8115089206202403
Afr@@ 0.948011881868358
AV@@ 0.829345625659312
Dé@@ 0.20857818433514955
Roland 0.8963875046026549
Aj@@ 1
Boul@@ 0.6110344549393844
Ox@@ 0.7139894956699162
Dres@@ 0.8636910492082144
ret 0.41841469858041813
bot 0.34916769604686176
Dean 0.5582778900347486
May 0.04221279840104677
icho 1
19,@@ 1
SS@@ 0.5467755101812029
Tu 1
Zu@@ 0.5921713268744889
istan 0.45249525698239335
Arsenal 1
tens@@ 1
Tat@@ 0.5363890933306196
mach@@ 0.41325038291203375
IF@@ 0.8583397750555416
Gamb@@ 1
bek@@ 0.26305953358708517
Web 0.9190746533748192
bay@@ 0.5269266019573596
Dragon 0.8516992766249654
idge 0.35912527666030264
Hills 0.5518291471527668
Master 0.3078465452242297
SmackDown 1
Griff@@ 0.5936110223442383
oscop@@ 1
ever@@ 0.5370015866624273
IBM 0.917475322869465
Tud@@ 1
alli 0.8835665025124981
Atl@@ 1
Gul@@ 0.6063799108280765
Like 0.3490889014000671
hat@@ 0.41299757234973666
Sist@@ 1
20,@@ 1
Sob@@ 1
bad 0.4126118803983366
Line 0.20672920821050048
Hart@@ 0.4703584872753402
burn 0.4635797288209515
Story 0.6397620722777463
Avenue 0.26307614572997406
superi@@ 1
acres 0.743091977292007
agog@@ 0.7482337595163281
eh 0.4301584738562645
kan 0.4727619739744614
Larry 0.8368082636842211
diese 0.09536418538828705
Bug@@ 0.9238738309376834
odon 1
− 0.2934581923037554
Bella 1
ités 0.18097227064377489
pora 1
temp@@ 0.7901383357067538
p.@@ 0.9730002208007317
lende 1
Liz@@ 0.819778929908912
att 0.603424782252683
odo@@ 1
Dra@@ 0.851540567271643
Sky@@ 0.8569505462172056
Yor@@ 0.6403125942962844
Kun@@ 0.3338566894547929
afor@@ 1
Gard@@ 0.7421831840288743
ime@@ 1
facil@@ 1
Maine 0.531580558106633
Ny@@ 0.6346142905845172
sales 0.3735476869150063
múlti@@ 1
ARC 1
Shu@@ 0.8219837230424303
ement 0.027213386569027862
down 0.06357741266692107
ires 0.18080958293057559
illi@@ 0.35793204278472773
ionales 1
tt@@ 0.4160991327850752
aw 0.43439304643210946
Ath@@ 0.3433928436993438
spe@@ 0.15396190282439323
ME 0.8948238863428652
Newton 0.8540915498553155
Farm@@ 1
orig@@ 0.772497131383547
Matthew 0.6115339258877621
UNESCO 0.8447084154940321
portu@@ 1
Sri 0.4028209286941462
finanz@@ 1
dh@@ 0.33501821301659895
Harold 0.77314662410266
Bron@@ 0.5756853802002303
racial 0.549557360872541
SU@@ 1
nier 0.3200750806924249
Leon 1
bud@@ 0.8950765530899231
rej@@ 0.5016161461392296
DT 1
owski 0.6136139735984452
ES 1
Financi@@ 1
Normal 1
Tah@@ 1
bay 0.22093449903055437
zy@@ 0.3164069297529728
Had@@ 0.5635387133740004
imbo 1
š 0.691659991937717
Stars 0.5655848184350338
rist@@ 1
Walt 1
Capr@@ 1
gy 0.5059294211279922
uva 1
Dream 0.808004124664066
év@@ 0.18320637577629822
adém@@ 1
og 0.40827586283241873
unk@@ 0.22981487333184905
Gem@@ 0.3516784820721476
bach@@ 0.5164830429582737
Sug@@ 0.7915281547833657
Pompe@@ 1
Sonic 1
my 0.19849344182117692
Cay@@ 1
Laf@@ 0.8992699987478826
rett 0.7951869893610668
Building 0.41616388282721384
Program@@ 1
didae 1
Siberia 1
Ide@@ 0.687684976326909
berger 0.29774428010488185
mites 1
O.@@ 1
Antoine 0.5559309587734736
mia 1
agar 1
ilan 1
GT@@ 0.8794557232755793
hél@@ 1
Desarr@@ 1
zen 0.11761411625304613
Inv@@ 1
Ball 0.7054774779375808
ive 0.4216882844652608
avirus 1
Guy@@ 0.8512583019897859
Zi@@ 0.26933851990869007
1816 0.7757915516588263
partam@@ 1
Santi@@ 1
leo 1
Sebastian 0.8267892220426519
indo 1
erer 0.5613300962722023
Gon@@ 0.9964601932668163
45@@ 0.756219932117155
Films 0.5148373662432425
Wood 0.5355770777577945
borg 0.8078625640905414
1817 0.8383873888522919
clim@@ 0.5288770758787842
pers 0.3119959411253914
Fas@@ 0.5934325510802247
lands 0.15190490469821932
sand@@ 0.40516499231806574
Equ@@ 0.891286235924084
Jon@@ 1
oc 1
Baltimore 0.5200953662736967
Miles 1
wer@@ 0.0791383433722094
Pass@@ 0.3082824448499381
Raymond 0.5896809506430576
Tod@@ 1
MP 0.357415304891868
sho@@ 0.1579457042542524
Kot@@ 0.6748320771561607
Sean 0.9541644416095776
playoffs 0.7996928983008309
Run@@ 0.50361612755884
Eth@@ 0.36620309923481936
star@@ 0.26947056307681655
Hermann 0.43538159626408535
util@@ 0.805590689992933
Land 0.1484392846414781
Tan 1
Bail@@ 1
anaj@@ 1
ana@@ 1
bet 1
omi 1
Histori@@ 1
unter@@ 0.06054054033402203
Rita 1
Conference 0.21690329982885492
Rig@@ 1
Peg@@ 1
1819 0.8549223340540942
Bres@@ 1
han@@ 0.5191345766285985
tades 1
oka 0.8614539022012723
Nazar@@ 1
delta 1
dent@@ 1
Bit@@ 0.6336931460581
arom@@ 1
Bj@@ 1
xe 0.19613234348083275
T.@@ 1
Mitchell 0.6241302801015947
How@@ 0.5546963888312044
Jal@@ 1
Lane 0.5518549009801234
Roman@@ 0.4264883462225399
idal 1
ose 0.17287073124249133
Christ@@ 0.336215303545381
actus 1
Chan@@ 0.8646233674688453
ric 0.6360677965386015
115@@ 0.8310726629135943
Pietro 1
lati@@ 1
osoma 1
Stan@@ 0.5893974777915777
elly 0.676674930895961
Expl@@ 1
Guil@@ 1
cem@@ 0.6589146274692523
Soccer 0.7099186317419649
Herzeg@@ 1
ici 0.4303868484341674
Martha 1
Nos@@ 1
uld 0.5823259267642283
ago@@ 0.5747496805163068
Fire 0.455414549399645
come 0.13646292504432592
Family 0.25982936162883646
Mack@@ 0.7700593275247426
Susan 0.8310791786156494
Luigi 1
iche 0.2880317827600619
Nicol@@ 0.9362204784460626
hus@@ 1
alo@@ 1
Amy 1
Café 1
Aux@@ 1
MS@@ 0.5964618481820386
Multi@@ 0.7567519386618604
Leipzig 0.3723634459309266
kel@@ 0.23070681111827368
asp@@ 0.974163226744522
Hesse 1
118@@ 0.8788497209600471
dum@@ 1
idem@@ 0.8590707546479621
Bart 1
Lenn@@ 1
Sainte 0.4119854220669572
iral 1
UE@@ 1
hibi@@ 0.4530457364074131
Row@@ 0.5575329502751866
dop@@ 0.783118556850802
ains 0.07890420578121357
ô@@ 0.23231937584304485
pol 1
verb@@ 0.342830199657243
gie 0.9058277962707263
Europ@@ 0.2827708026210591
Ken 0.7538737386312596
João 1
sech@@ 0.6554404650302018
19.@@ 0.9077769034490719
Ez@@ 1
Lloyd 0.6498944947139728
Lus@@ 0.9641566711051456
Teh@@ 1
End 0.5207330334379233
Haz@@ 0.6591603925422623
éli@@ 0.39940830847805736
adier 0.7583464511809223
privil@@ 0.9550979826650594
buc@@ 1
insul@@ 1
21.@@ 0.958062843838263
uchi 1
Barbara 0.5006368359284362
Blues 0.584364565663215
pseud@@ 0.7124486721861554
decre@@ 0.43186278738374373
Law@@ 0.42302257503318086
Roosevelt 0.8007749318407659
kal@@ 0.18900340473532418
1809 0.8118131742727888
horizont@@ 1
ris@@ 0.20445530133445497
Int@@ 0.6347091848056522
hist@@ 0.6897632924806268
azzo 1
ful@@ 0.4679268786981865
38@@ 0.7099832847365205
album 0.02818696522795546
xico 1
hormon@@ 1
Ceb@@ 1
Joaqu@@ 1
Two 0.15167114999882014
Nin@@ 0.7491154781608536
nev@@ 1
Islam 0.5526280060574045
verd@@ 1
ery 0.1979845788542552
ior 1
ò@@ 1
country 0.07402650470437028
1827 0.8022698623301682
Fred@@ 1
Edwards 0.7776401373451256
II@@ 0.7137448904092298
Campus 0.8303803495125734
WA 0.75815946862366
zh@@ 1
Spor@@ 0.6925100797598849
Cross 0.28946358471667205
gris@@ 1
Mang@@ 0.5783191146976182
Marino 1
lau@@ 0.31986265961816035
asha 1
DI@@ 1
1.5 0.6089641924056413
Lamb@@ 1
Summer 0.1683903577678199
oval 1
Frederick 0.4113460667489634
ost 0.2593259513236863
you 0.1338319278409699
UC 1
apata 1
afe 0.6082366673471279
annon 0.5809815848783761
Helsinki 0.9591800643835107
ony@@ 0.4170398070586435
Zor@@ 1
horiz@@ 1
monstr@@ 1
Uz@@ 0.9606986868854136
2.0 0.9121796057635688
icky 1
Daily 0.5308156279509303
DP 0.43299695030469604
star 0.1911604704107022
Euc@@ 1
Ey@@ 0.9496757634392506
e.@@ 0.7967629228802404
Europe 0.0736222208574284
Progres@@ 0.9656437769026522
Samp@@ 1
pris@@ 0.3297128704519254
Tay@@ 1
confin@@ 1
eton 0.45034800342135756
Rodrigu@@ 1
aret 1
idan 1
Linda 1
Prince 0.19719678584383374
Plas@@ 1
ring 0.1818161371919182
Dick 0.724577477367851
uer 0.39017266052846855
102 0.7634674611663435
final@@ 1
ball 0.14217003305254236
135 0.8340847701410787
Brid@@ 0.6094617438356928
ael 1
paro@@ 1
Bros 1
Vide@@ 0.8691427650826418
Olga 1
icks 0.5168959756862638
ats@@ 0.33379444704687017
eb 0.4835172522563838
Daw@@ 0.7301374501970109
Rachel 1
ond 0.184433910391277
Rogers 0.7400959832986748
4000 1
ibe 1
eum 0.4163032566922699
α 0.21128297744208266
andi 0.8275514340001743
inde 0.2796430434559287
Fam@@ 0.5891961268943193
uru 0.6681770939363668
azz@@ 1
endi 1
Jas@@ 0.8669457202805825
Č@@ 0.6047626426191818
Denis 0.6321048342860046
Collins 0.6538672555927816
kon@@ 0.08638736108137512
Portugu@@ 1
web@@ 0.6448268104742034
Will@@ 0.48363721278518673
Project 0.34081476998269633
Woman 0.6910139160073172
toria 1
Yah@@ 1
ahn 0.34775791971327524
fach@@ 0.7590578775115928
Jov@@ 1
vector 1
zer 0.2443505470448606
residi@@ 1
Val 0.6113370975752447
128 0.8914552464940335
inski 1
DF 0.5004517767282379
Chelsea 0.8757424177847146
Cit@@ 0.7779059275668637
100.000 1
terior 1
ames 0.274661855463019
puls@@ 1
1.000 1
Ron 0.7899486921706251
mini 0.7358220936168708
Dj@@ 0.7147616559658243
Jennifer 1
tum 0.4458914486678341
entu@@ 1
Bass@@ 0.5324011527182931
aro@@ 0.43442609194603365
Motor@@ 0.42458068322724246
Ralph 0.7050736560928887
jal@@ 1
olig@@ 1
1818 0.7051524028992694
Romeo 1
uses 0.08315566882560514
gros@@ 0.3905428082947909
EC 0.7011638586482923
22.@@ 0.9037783274320069
Ord@@ 0.7246289072137544
orada 1
inn 0.35748538945164005
Centre 0.15869735723116254
Wang 0.6599390224514067
auss 0.9878575171454614
People 0.20309673163071462
UR@@ 1
Whe@@ 0.47193468789819065
Nah@@ 0.5763489766622806
bron@@ 1
Rangers 0.5939883004355755
Pueb@@ 1
muda 1
Bryan 1
ju 0.9019230133701629
IB@@ 0.9562372099699998
SI 0.9401400735856194
Afric@@ 1
Emilia 1
uke 1
Anton 0.5447927792687721
Rah@@ 0.5022522755192143
Slam 1
Sv@@ 0.9505304146231213
Gad@@ 1
Garcia 1
face 0.08717574877525115
EL 1
clo@@ 0.4135274743438639
Luke 0.721186256110008
vić 0.6515972351439849
nis 0.18423113022393606
Oreg@@ 1
aven 0.6080278587981407
20.000 1
Emir@@ 1
ordenadas 1
egem@@ 1
iris 1
iTunes 1
AB 0.6198565505242782
Oh 1
ture 0.07777989664177126
Dow@@ 0.48449350529188207
Personal 0.20175037643647997
Spar@@ 0.3959081507487506
ste 0.11420916533302941
Ich@@ 1
opter@@ 1
out@@ 0.06569175374124706
Singles 0.3751401690573407
Yos@@ 1
NFL 0.32781918927506787
Foundation 0.2136985566176647
GA 0.5631501798668128
ulu 0.46610316687705694
aid@@ 1
pren@@ 1
Kus@@ 0.761098241580517
Portland 0.5433668084935476
Wild 0.6087391965804493
ege 0.29250009043529984
Yak@@ 0.8942932487193395
70@@ 0.68252360673252
Bonn@@ 0.6638471812355369
47@@ 0.8925280304408431
Party 0.07955497767970662
öl@@ 0.1535580364218259
say@@ 0.606849089646763
Ronald 0.9198628380133553
Tang@@ 1
onz@@ 1
guil@@ 0.5606118387776029
say 0.25232866797386766
yen@@ 1
Aquit@@ 1
Que@@ 1
reality 0.5122734833587578
Philippe 0.36405418259938627
eld 0.26367851943194887
CM@@ 0.9229366318595834
opot@@ 1
Archi@@ 0.585521357788567
100@@ 0.7591732653366967
ISO 0.9386119909701901
Manila 0.995267141954128
1806 0.626056184573135
Prix 0.2048279078369093
TE 0.9670546135843282
cili@@ 1
Benn@@ 0.8298457980455524
ders 0.12207373687769349
humo 1
ollo 1
ather 0.240453844265671
Hunter 0.6275062400872777
Lomb@@ 1
ever 0.09971262550809389
Roberts 0.6652076788017253
advoc@@ 0.3549277048829783
wer 0.148691765712658
10.000 1
elig@@ 0.5985988924450775
PM 0.8451354653137126
Johannes 0.33368392340719527
ako 1
Ghana 0.6964302788289194
Mann@@ 0.4575559173138502
heavy 0.2355059315935954
UA 1
Ivan 0.6637862114399954
Darwin 1
wh@@ 0.11268269871320129
Software 0.6365304855519981
ayan 0.4615749220657168
oidea 1
Jr. 0.7513035906905484
clusi@@ 1
Birmingham 0.49661997864285873
FBI 0.931412624497823
Associ@@ 0.40876121755236433
Montana 0.7569711686739794
arab@@ 0.5084423069328916
ld@@ 0.7428682654285961
déj@@ 1
igny 0.7639960350381313
nik@@ 0.9970436718548504
Tanzania 1
Wolf 0.5500509114574689
ablan@@ 1
didad 1
acet@@ 1
Ernest 0.6509718473079095
cle 0.21230971437772878
kes 0.33662792185312385
1700 0.9622254951437563
Keith 0.7088405270800329
104 0.7668650664840525
Hag@@ 0.6215853449729535
Key@@ 0.5324945845001822
Shak@@ 0.922886474719033
Motor 0.41523998613502394
Ther@@ 0.20934904700206924
greg@@ 1
22@@ 0.6126642468394652
Gos@@ 0.6729849487240847
Vog@@ 0.47744497427523336
scrip@@ 0.7880132938708093
Cres@@ 1
valu@@ 0.4331514505243102
Dennis 0.7227589277965456
Pist@@ 1
Up@@ 0.5655910179662513
ET 1
PL@@ 0.834117794285455
Silver 0.5301565434066463
tice 0.6773723468486825
fluor@@ 1
Stre@@ 0.21635109292553015
sion 0.05056949726572832
anatom@@ 1
Stein@@ 0.21221604152427473
Gray 0.6429698875721291
int 0.3655270967117332
rid@@ 0.23233660045199617
aia 1
got@@ 0.3124774598135808
D.C. 0.44471137312986214
Diam@@ 1
recipi@@ 0.705541046917514
Ultimate 1
zin@@ 0.6329421631691642
ells 0.2623661646283847
Marcel 0.7080927715575133
astía 1
kir@@ 0.4222916574437223
By@@ 0.5493292759347452
Lour@@ 1
eland 0.3122291818913726
isha 0.6928095262806143
convic@@ 0.43021879729913276
offs 0.6017150560055724
Flash 1
Concer@@ 0.4939634294166663
gers 0.3420325720746626
ovo 0.7387715252696971
Andor@@ 1
Tet@@ 1
abra 1
adounid@@ 1
folk 0.4862652723060345
less 0.06728194280653933
aku 1
Fitz@@ 0.6060313571895547
Atlantic 0.27342583390961583
Rut@@ 0.8897009483026057
Wikipedia 1
Mans 0.984939814694663
Place 0.4462363931392663
atan 1
115 0.8185404870950134
Ré@@ 0.1551962780354257
108 0.7911749833124824
Dick@@ 0.655199718438929
head 0.06837217851190353
Hall@@ 0.501018414835474
Syl@@ 0.701374941065446
103 0.7932085750661403
Stor@@ 0.5346495599810055
NCAA 0.32036435205142544
NT@@ 1
CR@@ 0.7535247091177273
Paolo 1
Dram@@ 1
ezo 1
tak@@ 0.23492500123187277
lier 0.25202148242751554
tari 1
Fat@@ 0.9479258798150646
yev 1
AI 0.8760080025193538
uti 1
ander 0.45952338444150437
1,2 1
Tou@@ 0.41951465747213806
.S. 0.6941738834170028
Pati@@ 1
acul@@ 1
escu 0.8917694027580342
39@@ 0.731382818437924
lidae 1
Abel 1
Vier@@ 0.2304863389207652
Spencer 0.8222066724328618
TP 0.8428054298801101
£ 0.20180873480137357
Country 0.31059443615169025
by@@ 0.23920358282091223
Kirch@@ 0.35544508569188277
109 0.8088472921698602
Justin 0.8147873175350233
1789 0.7196230687550952
CAF 1
Vladimir 0.6741738089149456
nau@@ 1
21,@@ 1
Ves@@ 1
aru 1
lang@@ 0.19572452470623744
GI 1
Magic 0.7559906096446436
Jung 1
Four 0.30233582561578526
Murphy 0.706340817592877
abo 1
49@@ 0.7030042038841733
Von 0.07494722796180438
Forest 0.3130614831981676
Fort@@ 0.5656332754067012
stadt 0.12941856524270104
melan@@ 1
ils 0.048463962998173384
atamente 1
Helen 0.6854760370817837
Brad@@ 0.5098777279786436
Come 1
Leb@@ 0.4219997936435809
Bowl 0.3813288885445918
Bar 0.5266503981431003
Utr@@ 1
Vinc@@ 1
Urugu@@ 1
ursos 1
lengu@@ 1
Jesus 0.37005630096938585
Over@@ 0.26553728775600294
istes 0.16119778973045265
ë 0.8262505212409718
ode 0.280715588844714
Oslo 0.7908190404460459
Rin@@ 0.9657013907955905
aura 0.8415084103044385
sets 0.29988603393618785
Earth 0.23813488188649512
cera 1
Rural 0.43091140463196365
Sent@@ 1
Fuj@@ 1
Berkeley 0.69636611353935
220 0.769847351273027
Benjam@@ 1
opar@@ 1
So 0.12708542917960025
istem@@ 1
Camp 0.4526800488397497
leuc@@ 1
sign@@ 0.2113345325882424
zen@@ 0.2502644664971562
Nepal 0.7133544048340337
Ou@@ 0.37484321736194554
ingia 1
ö 0.6137694396875293
has 0.00876790307667577
Gior@@ 1
Zam@@ 1
CI 0.9740451323330357
Christi@@ 0.38250369714847626
Lanka 0.5434032266311836
Armstrong 0.859091857353886
sigui@@ 1
Tari@@ 1
one@@ 1
asse 0.19439326270379537
Kub@@ 1
ology 0.0565797027531968
Cari@@ 1
Glasgow 0.4783800339737281
Industri@@ 0.49291903034659706
Sed@@ 0.8118604700280697
Irene 1
Wer@@ 0.16020978619675358
uten 0.44281160403923203
Garc@@ 1
Knight 0.5281966818613065
Ted 0.8417661731301158
Book 0.27026657476700183
1.0@@ 1
lit 0.331047537902851
Cho@@ 1
Once 0.4319383820239077
Six@@ 0.7069782883959763
dance 0.2645257992725407
Productions 0.6696768779577998
Sib@@ 0.7610949967789158
Syn@@ 0.298629416299869
Tour@@ 0.1858551601777358
Lenin 1
Jessica 1
chap@@ 0.14757481872755251
August 0.026593624011543384
opus 0.9165449147271204
1790 0.681259345855608
IG@@ 0.8705074176480234
Miy@@ 1
hen@@ 0.3333675174643686
Alex@@ 0.728560601172468
uli 0.7980938153782078
HP 0.7698748032064696
amen 0.2536768026435797
1793 0.6269051014257148
Catherine 0.42364476814119234
but 0.010798763599677689
fes 1
Og@@ 0.7564463072194098
Gib@@ 0.770868748781817
aram@@ 1
SD 0.8109044424868886
Gram@@ 1
Dame 0.3582033926643171
22,@@ 1
Coll@@ 0.469006863068508
Lost 0.8173319844743568
Til@@ 0.723129639128841
Pomer@@ 0.9979532594305123
Cannes 0.9985888075288938
jan@@ 0.8473458973510194
Android 0.9339465458710774
Leonard 0.7270328067025669
Luz@@ 0.8573000447185879
lor 1
neu@@ 0.3260588343496335
240 0.8869138204699591
quen 1
Nur@@ 0.5309106368402945
usta 1
alls 0.2813732198967264
Ni 1
acter@@ 0.6874848499421266
aup@@ 0.6755148069207936
IO@@ 0.7601838858154251
Elli@@ 0.7174831250472846
U.@@ 0.6960509855605824
~ 0.6530169002549422
ous@@ 0.23472637212743203
Galil@@ 1
Anast@@ 1
anum 1
arme 1
ić 0.7129540007467017
bun@@ 0.4150191192237357
eville 0.6855843803546029
hilo 1
Rit@@ 0.7538445164723893
Finanz@@ 0.4041809376685647
23.@@ 0.8030560368295987
enburg 0.3030767853351534
manch@@ 1
Tad@@ 1
ights 0.21035807435510498
Stuart 0.6263731553226499
aver 0.5878854306113196
edonia 1
Concep@@ 0.971933796372994
Just 0.48034950043105307
Tru@@ 0.9208146808960134
Bin@@ 0.7758506201924881
Cole 0.8396995786232264
Pete 0.9086847694717651
Isab@@ 0.6487706832849568
Terminal 1
Champions 0.3680725343639864
1753 1
investi@@ 1
Poli@@ 0.699937804679268
seudo@@ 1
Rob 0.8551687488491645
ough@@ 0.21960285736089483
Sic@@ 0.5518388081969073
balance 0.6820654997649013
ebe 0.5690430804627779
ef 0.19407240687237556
odor@@ 1
2.5 0.6167520171557883
Buch@@ 0.16908436293392876
Wall 0.5488351615605607
MI 1
Car 0.6056927415456927
Asp@@ 0.625940982700137
Figh@@ 0.8826297122969295
Mountain 0.27830492606915264
ore@@ 1
26,@@ 1
Myr@@ 0.9384387610587325
Brah@@ 0.6935842120946099
singles 0.22848915767346722
G.@@ 0.8924724366597988
Gy@@ 0.7211045097710805
unt 0.31535020658061713
24,@@ 1
evich 1
Sanc@@ 0.884310325770032
tom 0.3772697914209954
Louise 0.5066638625791742
amoto 1
Gó@@ 1
Western 0.10322083860325665
Village 0.37557748420671877
Watson 0.708441087766309
auer 0.13232431959069108
Electric 0.5909453270553209
Bonaparte 1
Sé@@ 0.3981146279793087
Tower 0.47381627505389484
ER 0.8344932253945023
dog@@ 0.5764422625930474
Horiz@@ 1
aming 0.3980111729505078
Let 0.6327281975502911
insk 1
Hz 0.8964460302612361
mel 0.518014826527393
PN 0.7668948857197636
25,@@ 1
Parad@@ 0.9987877059577425
Hart 0.7543133298140579
Hend@@ 0.8745924245033536
bel 0.41147742853358266
Der 0.015597315587372922
sag@@ 0.5381636780920779
zy 0.7460807860165779
Charl@@ 0.47691315760941916
marketing 0.5562579033341846
rapid@@ 0.587327563442808
Mind@@ 0.7001227749297738
stor@@ 0.17344589492966306
agi 0.9654324705824365
eon@@ 1
ā 0.6319307190934778
GC 0.7418737208527246
acks 0.2583617095851778
Free 0.3265687846004161
far 0.15410854885248132
ambo 1
imin@@ 0.6729729523972543
Jab@@ 1
Put@@ 0.7845223428434102
mate 0.6525122610349262
isés 0.7434076434994117
zan@@ 1
ě@@ 0.5565484002664521
Priv@@ 0.650611597214428
4.000 1
icum 1
aman 0.5833751153650557
bat 0.24675100110806572
Toulouse 0.6288193564770349
Vu@@ 1
Cameron 0.7684051481022375
Latino 0.7407052951805976
Beethoven 1
Distr@@ 1
Zero 1
Scor@@ 0.670808804477735
Pacific 0.1612515756624383
107 0.8001953374250347
Aber@@ 0.5554677247070743
ensen 0.6725167736609868
use@@ 0.36255543156377706
emann 0.5810833476123688
illon 0.3293003167529154
chal@@ 0.8187331949918037
Off@@ 0.1517262311808711
Rotten 1
Betty 1
Freder@@ 0.7212207403958326
0,5 0.957462681230287
Craig 0.6886961241614398
Mega 1
Hig@@ 1
suscep@@ 1
Tyler 0.9632348545318188
onces@@ 1
Kum@@ 0.42033535360083485
icial 0.5941455397526066
Áng@@ 1
altitu@@ 1
anthus 1
zon@@ 1
odes 0.4853937249542915
Nord@@ 0.11888218677257953
robot 1
Suz@@ 0.7874111464199299
Artiller@@ 0.5196190314434276
icz 0.6757235059057324
born 0.023651463655804464
106 0.7534951923291648
fi 0.7024853571939823
ś@@ 0.5862006557377137
NS@@ 0.37467511794846675
kW 0.8060646430917797
High@@ 0.30323733549623094
Niv@@ 1
mon 0.45253036275997005
ardi 1
Erik 1
111 0.7944270168434109
trio 0.7737301109303005
arius 0.7619437143036201
Fra@@ 1
Wallace 0.69615176715867
Ago@@ 1
abras 1
pm 0.4971999547110918
Alo@@ 1
Big@@ 0.7085133176219683
19@@ 0.719387387955067
Josh 0.9546266692269644
Model 0.49526046173041594
FF 0.5100497609187319
IT 0.5540413748480828
Ble@@ 0.47123920759839394
Jules 0.6210550230858146
antha 1
Individ@@ 0.5850527996995893
Wrest@@ 1
Holstein 0.7236018208275338
1792 0.67914394481939
Are 0.8032402855294203
Uganda 0.7680715005452976
Mozambi@@ 1
yon@@ 0.5462560647123599
Math@@ 0.36415392800615237
Morrison 1
lech@@ 0.6168740122455139
quier 1
iya 1
† 0.0757890466624674
AE 0.9163138549154839
John@@ 0.5634842330634021
4,5 1
Barn@@ 0.5416398041403296
inho 1
adio 1
Blake 0.8935198097639362
thy 0.3159507848994759
revol@@ 0.2679473322101734
Kö@@ 0.3768980525154598
Total 0.8819166357061421
cast 0.13281085633939677
obj@@ 0.23471253511250284
óvenes 1
Eas@@ 0.49659864590871433
Hugh 0.5813759563313602
Obama 0.6805689882742579
Alternati@@ 1
ily 0.3460438704416206
tropo@@ 0.9522677093202734
anie 0.40328951548876996
gel 0.2895547109662543
Cyr@@ 0.8837032692366595
iel 1
esh 0.42404448470977635
Jin 1
ozo@@ 1
Reich@@ 0.19610893450469644
atha 0.7857357684979739
ombo 1
112 0.7936547886246956
114@@ 0.8224625594288055
Marc@@ 1
rag@@ 0.3140618664712314
Aaron 0.7696439739696485
Jin@@ 1
Nicholas 0.510374165270884
Dog@@ 0.653076363759538
Augusta 1
Sullivan 0.6944412219608505
plo@@ 0.6971994701531514
rim@@ 1
Now 0.42080243908450976
draft 0.3745970146174626
Get 0.8751640120770854
Jag@@ 0.5475507583323703
music 0.041900338348220205
né@@ 0.2580659554546969
90@@ 0.7264233345962019
vé 1
Ander@@ 0.3960437434603693
Senegal 1
andin@@ 1
Bod@@ 0.38746402399095853
Kosovo 0.8481790205029356
Yas@@ 0.9174280790721377
eor@@ 1
icon 0.5023603004277258
pard 0.6616510588452964
pha 0.5481447200990245
Aster@@ 0.6957052821148728
depres@@ 1
aux@@ 1
ute 0.1258871295833931
aker 0.1993106984006318
uerto 1
CS 0.4661131267046888
anat@@ 1
Hell@@ 0.7622075184006318
futbol 1
enton 0.634598550376847
117@@ 0.8329773364856817
Harvey 0.7123295541025488
ayn@@ 0.8270519769836975
CN 1
aton 0.6267356198891201
Wolfgang 0.4832077359094453
Match 0.880969783752462
Stan 1
anol 1
institut@@ 0.7818735427579535
enni@@ 0.30821731619082765
opp@@ 0.26565509424604483
Lucy 0.8872460989206422
HS 0.6288199572230071
Sti@@ 0.2405996357144783
1807 0.6832901726996758
1801 0.629513431964088
Shaw 0.763753217944015
Flu@@ 0.3489826290304535
Blood 0.7583436408707998
Business 0.25106913501736594
Heli@@ 1
Mug@@ 0.8259550741010647
23,@@ 1
Artem@@ 1
glu@@ 0.9731010797770981
Kre@@ 0.17513773947889277
Palmer 0.8180822455821444
ony 0.1637464179181144
éni@@ 0.6828994257211669
énez 1
vic 0.4328738806904546
ouv@@ 0.15312086809889539
Joel 1
Open@@ 0.6014758560365318
name 0.027172785886742493
test 0.14415944154931637
single 0.043087481552691945
Claire 0.8674870646604765
pter@@ 1
Greg 0.7585177998747799
Lynch 1
controversi@@ 0.4747132347078727
Spir@@ 0.5750118682324998
Reed 0.8175429163976993
ages 0.041680408510668725
ush 0.29922425030110805
yst@@ 0.2311283903205587
48@@ 0.790898410824821
wa@@ 0.19572147549098573
Schw@@ 0.1336539027408432
27,@@ 1
tle 0.26855586614169097
vat@@ 0.9104430541232229
édi@@ 0.3969441187810531
urt 0.35951873759862013
motor@@ 0.31012195457524944
Aleksandr 1
Nich@@ 0.5477355678777865
Bristol 0.49565985252674793
Field 0.244534636178471
dioc@@ 0.43601495657136774
Emily 0.8661093972988912
Mans@@ 0.7659356103915996
Owen 0.7846604004504486
Rac@@ 0.6504189874455594
oslav@@ 1
Carp@@ 0.9111264777600834
dov@@ 1
azi@@ 0.8913369454638641
RCA 1
Fav@@ 0.8472689511481506
eux 0.08164410417107495
Box@@ 0.5379316204254291
Johan 1
Chem@@ 0.23902501299346607
Aub@@ 0.5845137000875457
Four@@ 0.38654739955028183
herr@@ 0.3691332714889955
hir 0.6057402642701458
King@@ 0.5573583758475791
Ruth 0.7312770788705223
insist@@ 0.7468433936746781
aks 0.208839043444362
ucci 1
Hut@@ 0.5474167262784237
till@@ 1
320 0.9446224481848385
Guill@@ 1
Carol 0.9877917304048273
iff 0.46517326371606704
Dil@@ 0.9412894451973828
Hop@@ 0.579916498016627
Madame 1
sons 0.14387380934711785
bu 0.11098811452873696
dru@@ 0.3475102079998917
PE 1
ives 0.15097574509003825
yin 1
EP@@ 0.7977065803389126
mouth 0.2392518095238801
lington 0.4705534910882421
BMW 0.858011723073573
Major 0.18076225747835753
famili@@ 0.38961350361474006
Chevrolet 1
eka 0.7320044016938875
Hispania 1
Chad 1
dict@@ 0.6109003777890741
Monroe 1
NXT 1
Not 0.3659861564748197
conqu@@ 0.2718430301405605
dell 1
gli@@ 0.5563960139911766
ox 1
obje@@ 1
ater 0.23102587478516745
ray 0.42155180673515796
ș@@ 0.4197081638426639
lins 0.6790491771496633
ards 0.10220140229121391
Milan 0.36965102914238446
Boliv@@ 1
atu 0.8908558813002774
Feli@@ 1
Neb@@ 0.5173247841263522
Sis@@ 1
Hob@@ 0.5851855317177492
now@@ 0.22415433501551404
Identi@@ 0.8483241735297535
RAM 1
rang@@ 0.219039986919211
1794 0.685808106076164
fem@@ 0.6944807749280238
History 0.045312427068495156
Zur@@ 0.5919726162762761
ladi@@ 0.9297963507160519
Mess@@ 0.3010197772550857
Tel 0.8629191479527051
ī 0.6163348520132924
esin@@ 1
rier 0.2486028046286633
Mount 0.20561917653402828
ET@@ 0.9137650480220874
Queensland 0.2995678321236232
folkl@@ 1
2500 1
Music@@ 1
Stuttgart 0.4071010029844254
Ve@@ 0.7720513309820958
eston 0.5055442214666895
sha 0.843300558146263
FL 0.26313600070835536
Nab@@ 0.938495296883985
Ward 0.47543910345598206
try 0.1123379212792729
Scre@@ 0.5625831242579767
0s 0.09712395761976683
25.@@ 0.8013586233976662
1803 0.5785150256538574
Gibson 0.8667997368496385
Perf@@ 1
ata@@ 1
atio 1
ilis 1
lot@@ 0.9732632824183803
TR@@ 1
1300 1
Bull 0.7731994814896218
Springs 0.5859149857602441
Hey@@ 0.6322266414855074
Guardian 0.6493426900125633
cis 1
Mercur@@ 1
lama 0.952012708569597
1805 0.6726367260659459
aster 0.3036674271819363
bers 0.156253179928307
pay@@ 0.1318786600605371
Edge 1
Law 0.1581690689976514
Gustav 0.5288362278376457
European 0.06379150682986978
chan@@ 0.38237509532870984
eir@@ 1
dae 1
Bry@@ 0.7099479251414291
dé 1
Jol@@ 0.9507181839598398
Mohamed 0.9285639223896802
Squ@@ 0.49642520071694063
Chen 0.7716010616447962
bor 0.5195460165042186
App@@ 0.3156670211307323
réc@@ 0.33098645810596117
Giac@@ 1
Guerr@@ 1
Soul 0.7285751278552974
Marin@@ 0.7207086814000926
Zhang 0.7981403293623909
jana 1
tex 1
Balt@@ 1
Probl@@ 0.8885974628412563
elen 0.3561967228520565
ST 0.6939719662234984
gina 1
Ō@@ 0.7596854192894875
gau@@ 0.4798976728351111
fan 0.40661643021381644
Mason 0.6971398908661506
exhaus@@ 0.7542230896243615
Ž@@ 0.6526071582542807
IR@@ 0.7230562136338472
igen@@ 1
sei 0.1346886576353525
Ins@@ 0.472751321699328
Olimpi@@ 1
ficios 1
Tall@@ 0.7322697535969425
pp 1
PG 0.7767977667327808
oud 0.3072564963848228
Thr@@ 0.3031009327984021
190 0.8529570581399013
Tomatoes 1
essa 1
Ced@@ 0.9601703560912779
Emmy 0.8509479179625751
Ard@@ 0.6578202589101837
fusi@@ 0.8406318213312379
Autonom@@ 0.8470180370734777
uan 0.7341732833215753
Maya 1
Clarke 0.689446196559423
Kids 0.9730685252488667
Econom@@ 0.3223978948490032
idir 1
Holmes 0.7584734606923993
Karen 0.9774043542611599
Race 0.5456972813448294
pia 1
PR 0.5894579186970885
iner 0.31460679241989853
Hope 0.5944761302900124
Zeus 1
Salz@@ 0.5599956703126953
Glo@@ 0.7742408345808848
kinson 0.6631219320683812
Sud 0.18625087372681576
Relig@@ 1
anom@@ 1
ieu 0.6365806522384815
Pittsburgh 0.41167744353973884
Plus 0.3396501819132032
Alexandre 0.4805058292216002
Price 0.6957256150399423
Atlan@@ 0.7262617194580198
AFC 0.746887469646312
Hak@@ 0.5211542143536092
Kaw@@ 0.8673284657174137
More 0.29337160293182446
Seb@@ 1
disi@@ 1
1795 0.6635742339032382
Was@@ 0.4550016971397554
tho@@ 0.2552003022152652
Inter 0.7609341505310672
Mih@@ 0.9581123118175325
Denver 0.6120429070281789
Hughes 0.6269891747485338
Shim@@ 0.8473144288102528
Ris@@ 0.44224411616489784
28,@@ 1
Kane 1
sibles 1
Neur@@ 0.5484103769074908
Telef@@ 1
dier 0.2975561291492589
Sci@@ 0.8163232314411683
Infin@@ 1
Desp@@ 1
Gaza 1
Toyota 0.9008928747978615
neb@@ 1
́ 0.05053333700240399
Beh@@ 0.28678957090908236
automati@@ 0.5005868047626267
Isa@@ 1
Dí@@ 1
lov 1
ulus 0.643652372605677
Wu 0.7366265842057098
Battle 0.13964217733642875
Machine 0.7336908858244534
44@@ 0.7893707932422147
24.@@ 0.768492892197534
hara 1
Mexico 0.1313072490021331
kor@@ 0.164137996186906
Rudolf 0.41044759572427103
fugi@@ 1
Jum@@ 0.8792107383209304
Wells 0.6535216521733723
auc@@ 0.5306297951615934
Kō@@ 1
Alfa 1
Dioc@@ 0.4714360573907533
Gog@@ 1
Stef@@ 1
yat@@ 0.5954118199915617
Rhy@@ 0.49866605352319976
Innov@@ 0.7919665801341356
ulio 1
Hand@@ 0.13076443317579187
116@@ 0.8234436450542401
Panzer 1
1804 0.6627665996538259
Hardy 1
Roman 0.09575258453374608
ID 0.6703615017307832
Schleswig 0.6454793989901383
Julian 0.7239737991854241
Lanc@@ 0.44725550033740924
26.@@ 0.7998337933467778
Gis@@ 1
Lil@@ 0.8385433187503419
unga 1
Nach@@ 0.09494866888395566
0,000 0.19118677311092608
nu 0.6365452556907911
230 0.8674810310092426
Leh@@ 0.36413340252375404
Wak@@ 0.6346336409202454
aume 1
golf 0.6348924135261298
anor 1
nal 0.8436462220541925
oir 0.14956261989630953
dei 1
6.000 1
Osaka 0.9991782175859454
ande 0.2700271566149919
glo@@ 0.485245627174818
Drive 0.558916538935292
Sev@@ 0.6534314551214344
MHz 1
Gast@@ 0.4037647214725412
Organ@@ 0.5346823581305404
osus 1
emi 0.48513517242203663
kw@@ 0.2635324554480321
Head 0.3032002601463311
Phillips 0.6626631230942883
yu@@ 1
Pokémon 1
,@@ 1
Zul@@ 0.609666775060125
Pall@@ 0.9598847289752493
tat@@ 0.8840445238168053
otte 0.2833671402401824
Fan@@ 1
South@@ 0.31217706024219877
Adap@@ 0.9258315546452593
Pink 0.9670860044776656
uka 0.7608661788288635
water 0.047830870134078655
Ferdinand 0.34284442418540534
categ@@ 0.3994653253953155
very 0.035984308356297574
alaya 1
MB 1
Drake 1
utar@@ 1
Jesse 0.9299061842687066
Am 0.04273806011684441
alam@@ 1
sah@@ 0.6957095616982387
subs@@ 0.46264881335107827
Butler 0.6102612750714779
Grey 0.6642291192313539
AV 0.973452331550285
Ost@@ 0.1545140231403973
Potter 1
113@@ 0.8190057167060312
Wars 0.5204083188140428
undan 1
Yale 0.5892140587805458
Kiss 1
ink 0.2643233861648774
tie 0.2425390159379533
Poly@@ 0.3037873347394705
Wall@@ 0.32341684610268945
eber 0.8449205676910382
pod@@ 0.8628574679332751
Impact 0.8048780215714142
Hockey 0.2457614018675136
Wander@@ 0.4375540979476985
Futbol 1
Mania 1
ers@@ 0.2719873584005458
islam@@ 0.6435255629240756
under 0.020272171174564636
win@@ 0.27397249772942706
yro@@ 0.9603226173613123
Tang 0.7754131292088845
Ling@@ 1
Metacritic 1
114 0.8272855830850194
Kob@@ 0.5043233530028939
Randy 1
Lopez 1
ved@@ 1
Seven 0.48140441513994364
123 0.8413187691248373
1802 0.6147073767350274
Foster 0.7103606516068752
qua 0.1571336060444263
Abd 1
imar@@ 0.8706001578816487
lair 0.7914788716912777
lett 0.739050183463029
Ltd 0.38717351317448695
sy 0.46724570300227203
not 0.009411037788323705
Hed@@ 0.5760060653825995
Kid 1
CL@@ 0.8623812691485621
175 0.9021977525703205
Holocaus@@ 0.8577761908708148
127 0.8018053909932097
invasi@@ 1
From 0.06418577900171038
Diplom@@ 0.6655095983497715
1780 0.7745897752768641
Chuck 0.9184867168233035
29,@@ 1
Brunswick 0.6081558805525935
Raz@@ 0.9010669118038128
Germain 0.8066684590157278
blog 1
Office 0.17068391648463765
ovic 1
oki 1
Century 0.5063271750646879
Grove 0.7128130553316852
Canada 0.05670716976513755
1799 0.7114335189056235
Ring 0.5256833465620371
robot@@ 1
ross 0.6206879224390532
Elem@@ 1
roy 0.7447651082456808
Felix 0.6540081887725262
Milton 0.8687808969327513
93.@@ 1
Nati@@ 0.6767351786287634
Side 0.5718209813241623
dipl@@ 1
Eugene 0.782510255543134
Gest@@ 0.2581316132759643
turn@@ 0.6978149659956772
1791 0.7124932188900236
Volkswagen 1
Todd 0.7500995470379833
Hell 0.8437647892109655
entin 0.3413202247095935
Nig@@ 0.4449399469036627
Secret 0.6871431432334376
Boris 0.7315226186240849
è 0.8161612377963884
Sweet 0.8993055051918769
vall@@ 1
acon 0.7175694003681361
bridge 0.12773825104556397
Ear@@ 0.36528715785191024
With 0.07548654689968229
eber@@ 0.7731184526723622
Þ@@ 1
Chand@@ 0.5979679398862072
chur@@ 1
FK 0.5923136085590347
Yer@@ 1
box 0.20527069464111838
etz 0.42333011822118666
6000 1
Angelo 1
Swift 1
ellen@@ 0.27940097320945234
Jagu@@ 1
inti@@ 1
210 0.8386525842043138
Jo 0.9145750894997479
anche 1
insky 0.6299326733108933
Marcus 0.5694496096486898
ahl 0.26958928626464
arium 0.5473892845632489
Church 0.06288588287201617
Cohen 0.8177082141263039
MW 0.8011399968327693
wen 0.47862649782309463
Kyle 0.9608507059852226
eon 0.5251134918351159
65@@ 0.753435877082219
Richards 0.9355186651138463
Banglad@@ 1
Chev@@ 0.5207346980835881
Gregory 0.5846362493842271
Sph@@ 0.7683793859417458
vier@@ 0.21966492134892981
EMI 1
EN 1
Slo@@ 0.3592338895694184
ean@@ 0.5899427789607318
radio@@ 0.963995211453995
β 0.5314385916115247
tabl@@ 1
ML 0.7014966214103231
eps 0.2776278515670151
55@@ 0.7437127329346203
Zimbab@@ 1
Alman@@ 1
Moy@@ 1
1798 0.6270174266232017
Chim@@ 1
Review 0.39151812122082863
ē@@ 1
IV@@ 1
haw@@ 0.8192394392472865
Mars 0.4588739192659902
Southern 0.14092824088397007
roll 0.584248303478537
113 0.7891510199053247
away 0.07749607669572363
Challenge 0.4156973799401609
Edwin 0.8650218531349513
Neill 0.9537102375775843
WWF 1
ceden 1
yon 0.405203004524324
Stanford 0.6121716192416741
Bang 0.9591460855286358
Duke 0.2077226562709706
num@@ 0.2165307274303426
Banks 0.9118122367846133
HBO 1
ule 0.12364808609728953
124 0.835842589682564
NH@@ 0.5097542493557072
ayet@@ 1
inaug@@ 1
March@@ 1
Roh@@ 0.3075989292330326
Annie 0.8399704595443989
Dak@@ 0.9103698642727255
Alexis 1
You@@ 1
God 0.17727786425730338
Penn@@ 0.6731175016477073
Vik@@ 0.3461120380936768
ids 0.10416691186669863
Kno@@ 0.31933027413579934
Ish@@ 0.7874905725817261
tail@@ 0.679143891365251
Castil@@ 1
Los@@ 0.8268634771444769
eur 0.060532192923291456
Pearl 0.6673180348286525
mg 1
Chr@@ 0.4613908757115775
ý@@ 0.9793502304057888
Cran@@ 0.6616078394423786
Luk@@ 0.713774659621131
kar 0.43677947895721586
nan@@ 1
ør@@ 0.6909684730032956
Tsu@@ 1
Hard 0.9102351801524213
LG@@ 0.8891344754310119
sburg 0.29619217134165216
Morning 0.6887589890445475
Zab@@ 1
match 0.05019166068223428
1776 0.8258400445334275
ISBN 1
oh 0.9709011306874848
ru 0.7039182383275704
י@@ 1
Sail@@ 1
Gali@@ 1
Bang@@ 0.5136623019607566
cham@@ 0.6364359259243232
endra 0.37220126170444995
oney 0.6729360762930074
Temple 0.2708978603569492
alie 0.46627074693342546
Buck@@ 0.6092241044863737
Glenn 0.8799204700026934
Tok@@ 0.7486832917856441
Never 0.884343226630374
122 0.7756012816245001
Chase 0.8123033493894257
Fisher 0.7146923133290924
elius 0.6679426622598488
GE 0.8934140284801795
Tut@@ 0.9390965107323588
kers 0.19431467486929643
new 0.0167895246294585
Andal@@ 1
Yun@@ 1
Ł@@ 0.5007767423999013
Lé@@ 0.3181283962102512
contest@@ 0.4425143053574385
Wy@@ 0.5084254034401298
jin 1
Dark@@ 1
deon 1
F1 0.7909855707310668
Spr@@ 0.22867969424143536
Shō@@ 1
Batt@@ 0.5426759712117072
dre 0.31187174457781325
Are@@ 1
Sit@@ 0.6530744232038507
org 0.8873979184458637
ói 0.8631379527512163
1797 0.6853907488037987
Unic@@ 1
121 0.8138912396492949
Stur@@ 0.39469990271950334
Deutsche 0.22529521204274663
Gat@@ 0.5827554911536647
Ptol@@ 1
eson 0.7948432388847642
jet@@ 1
Berlin 0.0551188142866431
demasi@@ 1
Gang@@ 0.5735872986100545
Liberty 0.6758390881463106
isch 0.036957490440869205
kom@@ 0.09242543387535199
Nau@@ 0.9028779160713017
Gle@@ 0.3884104062360908
osper@@ 1
ornis 1
Kings 0.4767079446184357
lies 0.07377571526124117
Set@@ 0.9527574374064256
leton 0.4750155664137714
Shah 0.5575354446425258
Calais 1
ads 0.14490489856497657
Andreas 0.43739474845737364
Ere@@ 1
CT@@ 0.7389966535565419
dison 0.9979878808308685
CEO 0.34724669974190636
asti@@ 0.3804850109788985
260 0.9238039484438757
optim@@ 0.488368452784605
Anj@@ 1
alt 0.1379340426017706
ories 0.08915689089854283
atti 1
Jake 0.9345785796477647
idental 1
Ass@@ 0.35264303190624274
aches 0.1251776862625584
Pont 0.6238889603626396
Roth@@ 0.5432709895840726
obe 1
prime 0.3052919417696197
Kenneth 0.735617317525522
relativ@@ 1
Hampshire 0.42108341009537215
Nucle@@ 0.9098661337959993
Tax@@ 0.6679676414727076
1787 0.8213462121047841
Gw@@ 0.7924818070409437
Game@@ 0.6679654970228035
eler 0.19417866307342008
Mim@@ 1
NAS@@ 0.6505394700127456
Ng@@ 0.2907025115026865
abaj@@ 1
ful 0.0769349951735518
Thom@@ 0.8726796015345474
Heb@@ 0.3593027314137153
Ahmed 0.575726345311997
ands 0.08357461956617525
1,3 1
116 0.821359717531682
Three 0.1800899716136242
Over 0.2278045476546546
pata 1
Philadelphia 0.20508360958507457
Cath@@ 0.55773236753564
Montgomery 0.6431297511741374
Colin 0.7114856022488603
Richmond 0.42161424578935935
Oh@@ 0.6474844159645693
unge 0.49865669188438033
Hospit@@ 1
leva 1
Weekly 0.6611545357146095
elop@@ 1
Oz@@ 1
aea 0.8552496726101246
Za@@ 1
English 0.046539280998181866
Mobile 0.5813464711434059
Chor@@ 0.3329412669299373
Navy 0.11269131595132498
Rous@@ 0.9663470015725004
ę@@ 0.38020085465894193
azy 0.7783263629059445
Hill@@ 0.5730572551944084
edil@@ 0.6182771782118417
gens 0.387389342817354
uega 1
Bret@@ 0.6014685062931281
Mont 0.518341201750526
And 0.23653192949550209
Rag@@ 0.6383652940729793
rach@@ 0.6870307264381876
Mab@@ 0.9700272028485754
lu 0.31292111626189545
Somalia 1
phy@@ 0.30324385893716393
Einstein 1
Hos@@ 0.6184683532431559
IN 0.6100832350980775
atic 0.09148135968760954
cultur@@ 0.3863526936229476
rain 0.2303996195053678
CO2 1
oll 0.33003372596114205
43@@ 0.810143948698512
ky@@ 0.6302838472794976
Wend@@ 0.648406718516789
roqui@@ 1
She 0.019539525584935775
Alpha 0.6826609931860848
Service 0.11308174909554268
Liu 0.6120823825474774
grandi@@ 1
deres 1
650 0.872542970865553
dorf 0.20455620447100614
atsu 1
constat@@ 1
coll@@ 0.118158507310363
ull 0.7865889534776035
Eisen@@ 0.3423747454623865
aber 0.03371277747019239
155 0.9223989811467308
acle 0.37710080147146136
Kay@@ 0.657627453366227
Mercury 0.8198989804929997
gil@@ 1
CM 0.8829280004806523
asaki 1
chel@@ 1
126 0.7915371783101832
ety 0.247057337921361
Gallery 0.3213893878757394
anic 0.8592442138287937
Hoh@@ 0.3168234856655029
Jim@@ 1
unanim@@ 0.6297912403772569
Basketball 0.32535099285927327
ative 0.03327263839690562
Cog@@ 0.9690023494151603
Money 0.8581717667623203
ape 0.6781557997670893
ision 0.19883201519391855
traf@@ 0.41322017979816894
aise 0.1403917126732231
amer 0.4573847576830823
Ligue 0.25281414622950044
Crom@@ 1
boro 0.718776830943044
Brow@@ 0.6921186171099382
Galaxy 0.9367596041635122
mph 0.904024035925017
A1 0.8290661662096239
ò 0.5280144474317909
eten 0.08635956313712004
rik 0.5924666147567759
éx@@ 1
Miner@@ 0.5752352422557276
Page 0.6869022022213813
Sut@@ 0.6300795945680737
Bio@@ 1
Human 0.2772209009295909
fax 0.5117547225466396
iji 1
Paramount 1
Raw@@ 0.9198710399052279
Yu 0.8746010908646175
traj@@ 0.9410177611133486
Instrum@@ 0.34932699148381136
aran@@ 1
eil@@ 0.3054057499752673
urn 0.3801678252408723
fice 1
Kenny 0.9033147783456886
Grec@@ 1
Intel 0.9608419003683933
Weber 0.6997448998167368
ede@@ 0.917570942981659
Weimar 0.8517323811989783
für 0.006945670774787307
550 0.8393534176278514
Dus@@ 0.8371763458539893
Castle 0.2082755833401125
Beth@@ 0.5314086074271207
einer 0.013081419417856163
Famili@@ 0.7688278940344445
Loy@@ 0.8303858013147426
50.000 1
ree 0.22216243688492754
quer 0.26515921698060607
Vol 1
iger 0.08345871648707975
27.@@ 0.7154172419090761
Kle@@ 0.19139782663448912
Pear@@ 0.6570885294833166
0,0@@ 1
Josef 0.34713243621207934
Werner 0.4513206925363014
light 0.07376867780416976
Domen@@ 1
acea 1
Chan 0.9354279823176102
flav@@ 0.5686519975788653
Cuc@@ 1
Kul@@ 0.3943686799452594
SV 0.27534799147346717
Guang@@ 0.6787138938104613
if 0.041404365329808554
280 0.8757252290576206
Days 0.5885901758290033
Hod@@ 0.5785726891544293
Off 0.691154622310292
oon 0.23551499430884273
AX 0.9258987658617255
gae 1
ock@@ 0.178381672888955
Sten@@ 1
ID@@ 1
untam@@ 1
Labr@@ 1
Schum@@ 0.677982603385667
isia 1
ving 0.11349335306230125
Flo@@ 0.44368673431422173
gun@@ 0.3234763605088575
Wellington 0.5623239272928043
Carol@@ 0.863809166275784
Chry@@ 1
Stefan 0.536716870121723
Midd@@ 0.4162108713625972
NT 0.7680479758600499
Blin@@ 0.754260429215167
Hamp@@ 0.5401034372579138
ová 1
lao 1
1400 0.9475817979685736
Ivan@@ 0.9282234754518564
Sega 1
estan 0.8995331332272127
sche 0.11402491631515085
vente 0.6674034210704732
Jack@@ 0.4671900678061307
Motors 0.8197013079667244
Lud@@ 0.6081770311488945
Springfield 0.8472606959819731
± 1
Meyer 0.5968354553928794
Dag@@ 0.5433611765965268
Namibia 1
bed@@ 0.12942351454094486
Bill@@ 0.5936867564508251
Prof@@ 0.24630098093467956
117 0.7506158735929468
get@@ 0.14619086884189475
works 0.04950351894952628
Premi@@ 0.40875492892413606
fast 0.10300152046420336
Tub@@ 1
Churchill 0.7719900926991293
volcan@@ 0.6273051050735717
Nassau 0.7669058058148249
UL@@ 1
aires 0.04961295372167858
AO@@ 0.7103576162528863
Yemen 1
vid 1
bli@@ 0.4078192039105334
itia 1
Chron@@ 0.3289675847661644
Cola 1
Malcolm 0.8451280809581587
get 0.08321770435600775
Soy@@ 1
Baptiste 0.5735885598847579
osh 0.6851033116186044
khe@@ 0.5219821492538439
Marne 0.689922946166485
eni@@ 0.8728896793830648
CH 0.9242224834454914
330 0.9336506809296753
Bonif@@ 1
ä 0.5963493465304714
Powell 0.7081753280061526
Kad@@ 0.41205937817645943
mus 0.3850674361895811
Allan 0.6880735093054484
Classic 0.4328966173142073
SO 1
Julie 0.7179289558247723
Chrys@@ 0.8893579487375315
UT@@ 1
Cincinnati 0.475255360115145
Bridge 0.19514106353310456
salles 1
Storm 0.532100879358596
Tokyo 0.22814137944221916
o. 1
Deep 0.6682880226036195
Roll 0.8244622538972055
dom 0.21872160415609204
escor@@ 0.5037293151210365
itable 0.23602481506884473
Logan 0.9127395663947652
Aviv 0.9166735137302229
Autob@@ 0.6167165750780569
bei 0.011458403041100476
Cox 0.7993420473742455
Ellen 0.7405802780297965
Mann 0.2044169598078706
Angela 0.9605728717539246
Bennett 0.6268285429609802
ead 0.44526698996275155
mark 0.14075518844639776
1783 0.7512861627350065
Scot@@ 0.2788113587771685
Olympi@@ 0.3045915992887852
Fantasy 0.734202642693758
plex 0.3371221270193694
pic 0.33943923777834356
Notre 0.3374858255318697
Poz@@ 0.9423099348908693
Aug@@ 0.41144034203315955
stock 0.2138249192730644
Sul 1
Connor 0.7490717448944121
Dmi@@ 0.9003575108804717
1.500 1
Works 0.28469671886564074
elin 0.49678485842903536
tions 0.02300524544192851
Run 0.5374165589035657
usiana 1
Fritz 0.4336878133532253
Evil 1
anny 0.8903542669120798
chez 0.1278470064544105
xon 0.6741558313711989
KO 0.7773805516230781
Via 0.8951984428204551
1775 0.7433275435164168
kadi 1
modi@@ 0.1445507719440598
132 0.8989797937089854
Nathan 0.7036233469745721
sera 0.1543352895067748
Festiv@@ 0.9096582345364201
Schwar@@ 0.3459034828191134
oza 1
1796 0.6280771607005782
Müller 0.44005261638773396
Mayer 0.8883045746001446
SM@@ 0.6266258243226054
Nina 1
my@@ 0.14236777514326243
GNU 1
manufac@@ 0.6534086195904424
war 0.0065511407407544495
Suzuki 1
Curtis 0.7413117165610795
ind 0.34242333574185
RI 0.723395487264313
Box 0.4793588978124866
SR 0.20206725081310828
éctr@@ 1
500@@ 1
AO 1
Laurent 0.4558320093669476
Adrian 0.807913729792843
Religi@@ 0.4067303738892562
Leslie 0.7248519943460385
270 0.8909064661750432
his@@ 1
refl@@ 0.16045558615180736
DM 0.6109569355609178
Sao 1
lote 1
TNA 1
mex@@ 1
inger@@ 0.3460104199543781
view 0.09801821926275807
Nicole 0.9859522928302065
Hunt 0.6065767874379029
Parlament@@ 0.6452621459369645
anni 1
RAF 0.4368373097245761
oul 0.41241586403393193
Orchestra 0.30268029932625384
1770 0.8124570341802583
Laos 1
HC 0.44199555083158043
Jamie 0.841331629307393
Sco@@ 0.9406807186681432
uss 0.1713169361839305
Hou@@ 0.6533902325348226
supr@@ 0.9091948898631615
arts 0.1251217534679114
onica 1
68@@ 0.7869906333155641
arda 1
Lex@@ 0.5275628514864008
Yang 0.6345961539008513
ayer 0.3542200349955661
Freud 1
1,6 1
Hein@@ 0.4597114496570956
Children 0.30623445528308874
Delhi 0.41265831491679944
Mali@@ 0.7935514058027651
Trin@@ 0.5532607107090682
Gill@@ 0.7039841121701174
SG 0.43525292009503896
bank 0.11982541875352738
enh@@ 0.12268941726895642
funk 0.6075436594840399
30,@@ 1
Fos@@ 0.5606343052440308
Gö@@ 0.28414533931843605
acher 0.22324940453563455
nus 0.726300446232787
Tra@@ 0.764588084094619
Wii 1
Fried@@ 0.37979780251261214
ו@@ 1
lon@@ 0.4404974041539729
uya 1
Petit 0.6018341327440431
Homo 1
75@@ 0.6745303913504256
orbit@@ 1
28.@@ 0.7196626282441322
Gay 0.9009728941067081
Kingston 0.6853806833581655
TH@@ 0.5556233754272282
Wonder 1
SL@@ 0.6846308301321269
Sach@@ 0.3133141273852606
had@@ 0.8040944547915702
shu@@ 0.3921487904228648
juli@@ 1
Salt 0.6577656230150327
Burns 0.8081940568993904
Porter 0.7594396529081267
IL@@ 0.8241106817139843
pH 1
ude 0.6666204941366314
Bever@@ 0.7180467179280521
Theater 0.18874757528449743
ə@@ 0.8511048230947316
CR 0.5316611822061572
Westminster 0.6209022370586171
produz@@ 0.3693503477740967
Discovery 0.774106093668272
Fou@@ 0.7995242963912352
Samoa 1
Ji 1
chir@@ 0.49725280534788086
eit@@ 0.3612926884630051
Grav@@ 0.6839584680781314
Albums 0.3850890069816769
Reyn@@ 1
clus@@ 0.3985230622369814
adil@@ 0.7312809036281207
cible 0.8125527927291814
1750 0.8458608986065088
Myster@@ 0.8472174137204207
Krist@@ 0.5133490821032354
fet@@ 1
mak@@ 0.14070389810612724
uman 0.8798752647383727
145 0.8013429628688444
beria 1
When 0.046722943580700976
quar@@ 0.18675551660235712
sibl@@ 0.4855114696055943
DB 0.6510183328637047
respond@@ 0.3056240998549489
1788 0.7337199275377805
Collection 0.4987983781042984
Special 0.20311127727451025
Action 0.37765736108339015
octo@@ 1
eget@@ 0.9943231911100902
oun 0.38694963327914433
Nim@@ 1
dit 0.07348492617983549
ois@@ 0.4008495171880064
Albi@@ 0.9535145470401493
reb@@ 0.7814618485910713
CF@@ 0.5490342617595819
Silver@@ 0.9193088929653863
Tep@@ 1
Va@@ 0.7493703857437886
ppo 0.9075944327541428
Sund@@ 0.4955182303680918
How 0.49258605312824927
Standard 0.32186943873244395
Fin 0.8507361916114189
ral@@ 1
IF 0.6446666901337433
intel@@ 0.5489329985629743
SH@@ 0.6117987410611215
ôme 0.36719829010829746
fib@@ 0.9920252773307805
Sax@@ 0.30604703886224405
Cow@@ 0.4164146292509384
inen 0.21000894969862444
Spring 0.3812281500703957
edi 0.4098470061267016
Emmanuel 0.6218985467238805
aim@@ 0.18831194816505648
Coca 1
LE 1
Floyd 0.8574036123830313
Kay 0.6894447956623896
Marion 0.7134043414331133
Magnus 0.9061315592668052
Sle@@ 0.6344570778134743
Nashville 0.56017222750127
nam 0.1865889372233834
Shan@@ 0.6356418920837565
assa 1
Id@@ 0.5409407843729
Hoff@@ 0.501795385612453
Koh@@ 0.24302791109065777
igg@@ 0.8350969033365779
AH 1
CAR 0.7149235610150351
Porsche 0.8793996762621513
enna 0.7717899904315001
EM 0.5995170555467421
1100 0.9902553446754083
Gaga 1
wn 0.10245058383410614
Frag@@ 0.7383450126849388
acker 0.355352576875948
vie 0.0815687490318281
Rai@@ 0.7712632712709365
umes 0.34168365568174996
Eri@@ 0.5970436315858765
mit 0.004223320138472004
118 0.7835675091089519
Lut@@ 0.666160570218705
Anatolia 1
Benz 0.8682717211565097
Juventus 1
Christmas 0.2552497102825747
Yok@@ 0.7841484132228569
Jav@@ 0.6631814769866906
Memphis 0.6725649756240024
watch 0.42542665363486504
Barbar@@ 1
Ellis 0.6859818666058614
Bremen 0.4217558957473031
ern 0.03337759188595246
Data 0.5608885343248965
SL 0.7002469686592001
1785 0.7748212481435587
shi 0.7710674889124016
7,5 0.8432624402999698
Zan@@ 1
Modern 0.2698322437192284
Autor 0.45126283834583975
1782 0.7881706875653212
Chang@@ 0.5202826311022634
Next 0.5473486502928893
CB 0.82648698369893
Chi 0.5312528552996654
venture 0.24965669638993906
Coast 0.16436836224356158
Public 0.12174564624100684
Wan@@ 0.7303488871538476
canon 0.7364593020805974
Caroline 0.41849036021291375
Klein 0.5606797686942634
erine 0.7308110317853399
max 0.9586800092946595
Sey@@ 0.6558544496026509
irus 1
enter 0.1329422845058022
ib 0.6523364487072207
matern@@ 0.4696159882901674
hit 0.10729102371772699
inher@@ 0.2902376790815389
57@@ 0.7864112714220429
Herman 0.8230912824527317
Dw@@ 0.6696839726973667
Year 0.12360507160337038
Sophie 0.5052763015961242
won 0.02381324176270628
Jeremy 0.8198293289535011
right 0.05300036043502796
École 0.2631132609055834
dol 1
Lub@@ 0.6061639432995899
spi@@ 0.2748439672183486
380 0.9730095847344801
Schmidt 0.46789733290261254
hat 0.03139860106641252
1,4 1
Burton 0.725106988786384
dova 1
Gug@@ 0.975099511228545
Tamb@@ 1
pesa 1
SF@@ 0.6305330622644366
Harper 0.7679699883915793
MT 0.8508726447733507
Sr@@ 0.7384450827928211
Empire 0.09158826881396803
Limited 0.3540790478859072
Tif@@ 1
Saw@@ 0.7225122951383244
iliana 1
tamin@@ 1
Yol@@ 1
General@@ 0.22521473567551728
cover 0.10471524570096735
ellidae 1
Comenz@@ 1
Swe@@ 0.5243506935317389
pin 0.4448984503067448
trad@@ 0.17726840224254142
Liberia 1
Warriors 0.7687715038449041
vet 0.48328061676384165
@ 1
Auguste 0.5089877080151312
Some@@ 0.4361884124745855
gano 1
Brach@@ 1
dy@@ 0.3512302243124173
susp@@ 0.2132011331557955
ucle@@ 1
UR 1
Lyn@@ 0.7018164071529513
ith@@ 0.31381155435417774
jpg 1
thor@@ 0.2530687650429449
Paragu@@ 1
Ex 0.8325888838270855
jiang 0.7096461102954427
Voiv@@ 1
rich@@ 0.08973086907296923
berry 0.5223277830169991
Send@@ 0.7088056196633593
world 0.03768702232551276
Heidelberg 0.49661963988688856
Vy@@ 0.8480892616126244
hiz@@ 0.6281104136261461
strat@@ 0.3579560395220343
trit@@ 0.5499715829876507
sir 0.8434101169410879
Tav@@ 1
hap@@ 0.5255442158714017
Brom@@ 0.6811874315284281
Colomb@@ 1
Planet 0.7556926436330321
brid@@ 0.3301979319776775
pole 0.3140509253030245
Falls 0.3699845565686382
Nun@@ 0.7660999369286947
atia 0.9320757016975794
Spo@@ 0.5231377775181035
toon 0.6457287004739962
Bald@@ 0.653216599274815
iyi 0.5690307617125003
205 1
1778 0.7971208728969347
lich@@ 0.12734470905368037
night 0.09297936697628416
Mend@@ 1
U.S. 0.04366391756896697
ulata 1
Kut@@ 0.7127872450044315
Trust 0.2921561168288451
Yorkshire 0.38550362361515045
RN 1
cock 0.7525482875229037
enger 0.30940902416530613
Punk 1
table 0.1124727925014739
Bradley 0.705231503120593
Or 0.4552540363048833
yx 0.9955857122542668
Dau@@ 0.4188146045474667
Orch@@ 0.4270989998518755
kus 0.3098468224024551
Kid@@ 0.6950073288503003
1,8 1
76@@ 0.9469402001611765
Dru@@ 0.31288932942477354
eph@@ 0.20346556187646495
elis 0.7406245746548519
manufactur@@ 0.13274132602455602
arre 0.48869949967642706
cy@@ 0.22276765904443516
Beck 0.7675548958003516
Davies 0.6344787170929815
inidae 1
Bayern 0.2629360844479985
Shane 1
kol@@ 0.20389608921495744
vain@@ 1
Wild@@ 0.23019692325630456
Five 0.2951315382542453
tors 0.06452763434312096
Ami@@ 0.7999341940937622
hang@@ 0.37954527685105277
Auto 0.5093798468347867
MVP 0.8620454106532633
NGC 0.22010011063721469
bid@@ 0.5072513060690003
kab@@ 0.3085834361679347
cht 0.10137537344729933
kam@@ 0.3772853149405805
wil@@ 0.13466856378540626
Foc@@ 0.9991265699206882
BB 0.657880510346647
Horn@@ 0.5529234517555263
Duncan 0.6622046796790468
30.@@ 0.772179624353127
54@@ 0.8734259052954784
Roch@@ 0.49538950753462785
agen 0.10076663837682683
129 0.8018029873832448
asser 0.4483463741664875
Chel@@ 0.5684631242816087
Main@@ 0.3488470631895943
Non@@ 0.5554669332405286
Station 0.10766302405649612
Bier@@ 1
Julius 0.3913660439019489
30.000 1
Sok@@ 0.7010367377731339
convo@@ 0.5149530454886654
Holland 0.44895111598964543
Michel@@ 1
emati@@ 0.28594071795747417
remix 0.9082986699369123
Neum@@ 0.6257559075946676
Ghost 0.856981751752053
PF 1
pert 0.5665538048355916
soul 0.49508541780553905
mada 1
Queens 0.6521702214665762
3.5 0.584945008401488
Bird 0.5870679773481121
ait@@ 1
Lod@@ 0.470023007267852
pen 0.27269410220935564
maxim@@ 0.7869713765920497
Dud@@ 0.6788137150072094
chac@@ 1
agre@@ 0.32061309432053836
itr@@ 0.6821055208734039
leb@@ 0.17348219559551414
Inc. 0.2196559523631954
Micha@@ 0.6097510848284597
OR@@ 0.6665258805222974
Golf 0.45528536427010263
Sign@@ 0.2909389557906835
sl@@ 0.11729319466194231
BL 0.6061176362501168
Comput@@ 1
Lup@@ 1
Pat 0.6091364792131397
SP 0.6383686340004237
pon 0.5014690220269324
1777 0.7977452090617788
eth@@ 0.08807828502695159
→ 0.4943200822471168
Pow@@ 0.37955693889799247
Wein@@ 0.23787098708123156
Edmund 0.5793547934959307
Take 0.792238425338102
Maf@@ 0.8281984850517581
acht 0.07000525860375964
kham 0.7422373486448156
met 0.05484875080497623
DR@@ 0.7452380022554728
Nord 0.09637161947904614
Lancaster 0.7368665669707539
pur 0.2510858040707882
Grig@@ 0.8985396465955666
Sain@@ 0.9451844478975532
Kag@@ 0.9736487018526755
arde 0.6722227249855638
Diamond 0.6027455905319884
Princeton 0.6030919298461916
emon 1
filipino 1
odios 1
Vamp@@ 0.9628603372391311
Kak@@ 0.7105191052149091
enea 1
End@@ 0.2434752384449313
Lah@@ 0.4991196869674341
ouvre 0.27069178678956746
mith@@ 0.5835360567804665
Again 0.6765119243554647
Simone 1
Fischer 0.5008827040869563
els@@ 0.19098371878166198
PI 0.8614415672338283
Rau@@ 0.4431134192817014
Wimbledon 0.6857900718337419
gate 0.28455110016046353
Fall 0.20110643948422813
RE 1
Forbes 0.675026579675155
Happy 0.7481035833922036
onna 0.7178886023000624
Percy 0.9160243716965478
Reynolds 0.6958490047517895
Phyl@@ 0.9228866973093869
Sonn@@ 0.24708531532315278
western 0.07167442940934594
Peugeot 1
Cann@@ 0.6928536125581783
Aleks@@ 1
ustos 1
Age 0.29604122466742455
Ril@@ 0.7851614292328148
inson 0.8532075292489392
Pyr@@ 0.40299223066794426
ardin@@ 0.642004861506427
Hannah 0.904804133950576
UP 0.8068967683549716
ecca 0.856416824280693
Systems 0.3252212697428497
ité 0.031208220164965383
Regi@@ 1
ław 0.4623428980547115
sz@@ 0.3152069776067168
west 0.043879123032780736
yak@@ 0.43723950033081477
Management 0.19845444175571597
BT@@ 0.832580867304081
Reh@@ 0.5565092824923571
Dorothy 0.7813070130394695
29.@@ 0.7003320195457745
Milwaukee 0.5551278793768297
Call 0.6500469453250974
Hau@@ 0.37123577866981605
area 0.02263581636932493
Alexand@@ 0.4876217012144058
mid@@ 0.13840129891826175
340 1
Canadian 0.07566139178745845
Veter@@ 0.7164255086246872
ː 1
1786 0.7673101088556498
echt 0.36968551964824803
1784 0.6567470986049498
Humboldt 0.9328950050812284
Obj@@ 0.33202206991102207
normal@@ 0.5495997486275389
big@@ 0.6191566115776327
Enter@@ 0.662837037158321
eg 0.2861966104580592
SD@@ 0.5599093848518782
deh@@ 0.5331802036874416
oteca 1
Carey 0.8661784523367178
119 0.8129052093931729
German@@ 0.33766624058077516
Kai 0.9570836482733932
Prime 0.1830173290077746
fonso 1
leen 0.878340441987877
FIBA 0.9733234864514251
Whitney 0.8362515393278931
Hannover 0.35723012468941623
Petro@@ 1
ffe 0.21598746471167213
pot 0.24721298290253366
eki 0.791789774127557
lain 0.3308143972253833
adem@@ 0.46214278516691915
Future 0.47064952915268127
Nash 0.9669499414908046
0.1 0.9577508358647115
Tours 0.7067474406989052
olph 0.6045426316726401
enti 0.8981739660153857
Ö@@ 0.134874246691967
Brooks 0.6458831036084174
bag@@ 0.7346792006674996
Aar@@ 0.896975141660513
fix@@ 0.20993676895707852
Epi@@ 1
Tag 0.18350041141912038
lès 0.9759016201946729
Friends 0.5174101730762224
Virgin 0.41553406807027427
anner 0.37831349075861437
5,5 1
Jam 1
ecr@@ 0.5983632339034262
cester 0.48152780957400454
Berry 0.6718157584502726
lín 1
Gerald 0.6794286539639305
Kis@@ 0.6912212572404965
ighton 0.4780649954487446
än@@ 0.08403189988694162
ods 0.09982692578939806
Manga 1
Nept@@ 1
Boulevard 0.5388733868599573
DOS 1
yor@@ 1
Hopkins 0.6917150508955853
Ostr@@ 0.5085627009360545
35,@@ 1
36,@@ 1
Noel 1
iser 0.13846846539880805
Verd@@ 0.5933891389615656
minton 0.6884808637299358
1640 1
Jay@@ 0.6293034910601354
Hap@@ 0.8959211805231284
Ts@@ 1
Chang 0.8113908391088954
casting 0.27420734191560747
sley 0.48327882642022496
850 0.9832185663548889
iman 0.8986193047846506
nis@@ 0.35336481528213737
56@@ 0.7518394883777039
IL 0.5019795892125593
Rang@@ 0.5152404247902603
obs 0.25036299328819545
Wehrmacht 0.6124776080704001
flag@@ 0.4747434091263389
If 0.10817719964496365
Buz@@ 0.8007984152937329
ween 1
Gene 0.6526629965249638
sten 0.043140974350467966
agh 0.5404728887611971
Luftwaffe 0.7534934703272257
Mey@@ 0.5589644978147366
​ 0.4733737525223674
Dad@@ 0.8981987854358955
1774 0.771421627264312
Sex 0.7120140460812208
Michigan 0.12712164661462796
Pradesh 0.4222224069823524
atz@@ 0.40532128915258203
Olivier 0.5760783661088698
Techn@@ 0.1678549664699549
Crystal 0.6826016438744121
Sinc@@ 0.8495446337740487
HF 0.5028558752615879
elt 0.08160677771314122
mani 1
ED@@ 0.7317740663393671
stream 0.1507584645227189
8.000 1
tical 0.061431415124610166
gues 0.194802622665159
Here 0.32929212140261854
hiv@@ 1
Andrews 0.6304251640324772
Abdul 0.6655251880343432
Harr@@ 0.5317234285723489
Tiger 0.5705239240533445
spin 0.505626895756563
Christina 0.9396696018579308
GO@@ 0.6178151291123407
aze 0.5788857038094619
1781 0.7837057561347025
Cassini 0.7750210820326947
NS 0.3651609341805052
gorod 1
Airways 0.8342254679269616
Aul@@ 1
Idaho 0.6260861291155351
165 0.820563417039858
Council 0.050125457551024134
Jenn@@ 0.7391019221289525
ason 0.33532372632460017
sap@@ 0.6591014893761417
MIT 0.8300791215316905
Pter@@ 0.9507323283783902
KA 0.722112759163275
Lok@@ 0.39638702117735836
Aff@@ 0.22337375885040087
Jonas 0.939466345683551
igne 0.38402651085845835
taine 0.33426348949935314
Lop@@ 1
transpor@@ 0.8098385817796352
Na 0.5669236892175352
Kri@@ 0.42268759903635683
1520 1
sberg 0.31575751328057955
ship 0.03059738758348799
53@@ 0.7868153303902025
Stevens 0.561179732746395
Fed@@ 0.9514585244560461
Us 0.6284353760916029
Winter 0.16895979557540328
ality 0.07924596112068813
uren 0.24706930892244894
wait 0.49298370932667995
Lum@@ 0.7405270615529921
Airbus 1
Lip@@ 0.7049511733657765
Mús@@ 1
States 0.019691059630880903
Away 0.9708667626755783
EV@@ 1
`@@ 1
Forever 1
sko@@ 0.8090485865109754
Sahara 1
oder@@ 1
58@@ 0.7710615922762158
tive 0.03688133444112739
1.2 0.644472651805057
Bid@@ 0.8386433400196717
133 0.8564138434800127
Hac@@ 1
Étienne 0.47394762174305366
ische 0.01726431081369383
sini 1
Species 0.5109127569922504
mons 0.49038109218514947
Sieg@@ 0.18858877020919654
CPU 1
tem 0.25165065219724886
Leeds 0.4214339150853518
yna 1
Ein@@ 0.034173123486871945
illi 0.35346900848651347
Development 0.1326270929560845
Ho 0.7462019072108123
Mao 0.952053054716721
PD 0.4261170798121825
Under 0.1337627473719707
tenberg 0.40897959023592395
tez@@ 1
Christine 0.5814898595666816
Mek@@ 0.7464717273964963
0,1 1
Edition 0.4619565263755275
Ten 0.3174641441045679
lus 0.43451110236925194
otis 1
outs 0.23286995954442632
DR 0.3996431205655097
esse 0.08630556339055896
hausen 0.21771565378710103
Steel 0.5543327269058059
phus 0.67224340928554
juris@@ 0.40127248161241064
isch@@ 0.07258064848090216
Rhodes 0.7409558529947725
Spec@@ 0.36622902864979606
Janet 0.8899628837327845
ild 0.3033556175946496
emot@@ 0.4181665736130905
was 0.0009710244928300901
yth@@ 0.4809387567852587
Dimi@@ 0.8945811944551035
Cat 0.7304677173858001
Ted@@ 0.8924931117516613
aen@@ 1
FS 0.8655871427445933
rix 1
Got 0.9031473742971637
Rug@@ 1
Toy@@ 0.8356186456833717
than 0.015854981660150112
MiG 1
Ek@@ 0.5807345198185462
Power@@ 0.6637855862630333
ã@@ 1
ult 0.4039920109342892
WTA 0.721789899805686
tenstein 0.7807206974711857
Act 0.07282571513036759
gun 0.15344795926669594
Amazon 0.5936693222748961
0.5 0.7438464032696244
IGN 0.5134312511669175
Dream@@ 0.9598461012755196
Brad 0.8274840433160288
Frank@@ 0.409283113772157
oyo 1
Cryp@@ 0.8854754742540353
invol@@ 0.10358202594908078
ll 0.43828172437242346
nin@@ 0.19552225435205767
MG 0.7661194156723281
000.000 1
Born 0.1673354496297742
Portu@@ 0.9372475693501512
got 0.11556253492698362
Vend@@ 0.67118690066581
rin 0.7016390547964718
Alain 0.49435266443272324
oshima 1
33,@@ 1
Hof@@ 0.18305678501953945
awn 0.44584242164081495
Clif@@ 0.6070868672524229
Essex 0.5222916256532609
Yosh@@ 1
hp 1
Dog 0.6635859857093819
Robertson 0.6272299377925522
kal 0.5838855067746554
DS@@ 0.5147754773612301
Lynn 0.7115947264540916
Nixon 0.7745467365206569
Coh@@ 1
DV@@ 0.5535880550507958
publican 1
zon 0.8341007730738152
cat 0.4725461970596522
egel 0.2570843080217627
life 0.019976977509278532
Heaven 0.724129428063666
Zambia 1
Technology 0.17040262380181087
Bois 0.5719696029828555
2,4 1
CT 0.5476230714817091
bea 1
-- 0.5425057468397433
BM 0.9455785286395365
eting 0.45317842733091795
igi 1
ping 0.14751780145315366
Mou@@ 0.5426974806813769
Miz@@ 0.8410746801774084
bourne 0.6821550841566205
detr@@ 1
trix 0.34705441274713705
7000 1
Euro@@ 0.6129962564117196
cape 0.2184635316678762
sport 0.12883604908041396
Jackie 0.8656819153419557
Pascal 0.7202327963853256
onidae 1
oss 0.30925663333426484
Newcastle 0.4216507954335689
Our 0.3286944681757233
ism 0.030045907494148972
Blu 0.8604794827049248
Chester 0.5744379838770595
dimin@@ 0.30071932042676236
heimer 0.47426579262204155
jon 0.5525091413176769
Canadi@@ 0.5550722282633157
Stade 0.4499441054521103
1767 1
^ 1
2,3 1
ph 0.38602206186271604
yne 0.8107792952423497
Du 0.22230516262477176
Ibrahim 0.8286215032091135
Movie 0.6237576848323177
Kok@@ 0.578554194733208
ansen 0.7794768049969913
East@@ 0.5963787516058258
Erich 0.5554858097292661
Today 0.20232897370127229
wing 0.05476610405295346
Glad@@ 0.6800181089598164
lé 0.48121083811976006
eke 0.5379942622167576
Alliance 0.2459415273931197
Barcel@@ 0.7306646951027381
Richardson 0.626418876115128
oyle 0.7394901926251276
Elis@@ 1
Kru@@ 0.5771548955170912
Xen@@ 1
lah@@ 1
Did@@ 0.8601277322362764
Communauté 0.5708271258751294
Nielsen 0.8586820620385376
anan 0.562182092004802
eine 0.005610860804771304
mine 0.16397943799831818
Maxwell 0.780654804273561
Victor@@ 0.3251222960829766
Pug@@ 0.9726459746733055
Sidney 0.7867302546502353
bad@@ 0.2319648002823543
cid@@ 1
host@@ 0.35582936674305937
inum 0.42845548624740176
Chau@@ 0.6355262507769079
Peak 0.5303391676594005
oport@@ 1
chev@@ 0.3282629866654128
phyl@@ 0.7889032434879453
Belle 0.6030300781098544
Canterbury 0.5890398368715541
Night@@ 0.7904745898781985
sein 0.02528581694425038
Watch 0.6649634262248076
ipo 1
mart 0.43930667202833723
rov@@ 1
usiano 1
Fire@@ 0.6617121542943539
kaz@@ 0.7518387212712632
Eduard 0.54330943543831
Instagram 1
Joyce 0.8669029401194952
ampi@@ 1
f. 0.8387820541272155
onis 1
enj@@ 1
PT 0.9080572785010248
ibar 1
kett 0.7490639498755927
Palace 0.26288462407969176
č 0.6227273123603358
Mills 0.4807584304122833
152 0.7685287071266377
Roll@@ 0.5240874137606362
ROM 1
aji 0.4895949820178227
Miss@@ 0.3457770398608121
64@@ 0.7908105139566248
etus 0.7006580129965765
Nes@@ 0.6480375074650186
Sydney 0.12479990891267834
Ahmad 0.6367908960610523
Greene 0.7823397668039789
inci 0.8635918726237591
lich 0.023744241041777386
ya@@ 0.6686938478025818
Alberta 0.35153046691811235
Lang 0.6370665157462583
Dawn 0.8228997353003961
Rush 0.8049141888839507
assi 1
wak@@ 0.23212025936479763
Fit@@ 0.7189256588418381
Justice 0.1424446084442149
pom@@ 0.3739251269393016
1779 0.7802747410324393
Sherman 0.7650194629638979
Woods 0.5950541460161735
ICA@@ 1
col 0.6365377850610803
8000 1
59@@ 0.760942524978925
Nath@@ 0.6467350635117233
Tus@@ 0.5661728252052681
eim 0.476282569476688
131 0.7732024301088231
144 0.7911334592297717
case 0.052371186835470145
agon 0.3064566600056325
unds 0.09347391835384879
UM@@ 0.9824973385018847
auri 1
Châ@@ 0.6120775546336189
Beautiful 0.9053537347017332
Chur@@ 0.7788070044382993
Rak@@ 0.37991484578036844
lib@@ 0.31978555678100995
hua 0.8313424037653646
Six 0.2681218167941005
anzo 1
Zer@@ 0.38871430829154674
sions 0.06390183355753143
beck 0.42358149251402205
sville 0.5552769013954769
Computer 0.3576418634880948
6,5 1
Bailey 0.6151687058372206
Drama 0.43072095762828816
Norfolk 0.39606939188413626
hai 0.08222075871146174
obi 0.9458958870313295
Devil 0.707771713439676
Mr@@ 0.22974486661287433
225 0.8539139518684233
meng@@ 1
Deg@@ 0.5967565644703259
Gusta@@ 0.7090340309626301
biot@@ 0.7144317234502617
kug@@ 1
tur 0.15532779155297904
Anat@@ 0.6679679244885149
ausen 0.2863654398169928
Astronom@@ 0.5270529711884736
enton@@ 1
Nazi 0.2823434045952103
Sty@@ 1
lum@@ 0.7453618799101631
CNN 0.9358172960324606
Joshua 0.7408445785054261
Tum@@ 0.718785093787211
Ice 0.3690048605686736
Nap@@ 0.8190704787126312
bak@@ 0.258687907337435
yr 0.6395503744419346
ène 0.11459613343819346
egen 0.11692431952414618
eyes 0.3695192649303848
ć@@ 0.6010534878930942
ket@@ 0.20057570541732614
Elisabeth 0.3366147515912688
RN@@ 0.6766512344783231
amus 0.9586572277731726
arp@@ 0.959908289373477
EX@@ 1
iri@@ 1
ED 0.897101387714507
cz@@ 0.4804088721572669
GS 0.5944899246550248
Clay 0.7171498426133036
iers 0.40668607140671276
67@@ 0.7455433624037382
Court 0.06117477400704005
[...]
