. 53988816
, 39980294
der 33238094
und 25699435
die 21091207
in 19931411
&quot; 17849450
@-@ 13896996
von 12317855
den 10972580
) 9862494
( 9853715
er 9624159
des 9196149
im 8689811
mit 8039844
wurde 6895326
dem 6730333
ist 6579461
das 6254351
als 6220929
Die 6186032
auf 5663400
zu 5661147
ein 5546439
für 5455196
eine 5330405
an 5280947
sich 4950735
war 4790685
en 4279532
aus 3976374
auch 3535851
ten 3460949
bis 3428960
am 3402052
nach 3317793
es 3291202
: 3217303
bei 3202198
“ 3201910
„ 3181527
te 3130845
ung 3052179
Der 3041904
er@@ 3005259
einer 2875923
ver@@ 2872935
sie 2833220
zum 2810263
t 2703990
en@@ 2668669
um 2337522
ischen 2322027
– 2271555
durch 2263932
einem 2240234
Im 2181156
einen 2147512
werden 2134984
nicht 2116366
Das 2109941
s@@ 2107534
sind 2106098
sch@@ 2087798
Sch@@ 2032743
; 1982774
In 1966053
wird 1965763
Ver@@ 1946783
zur 1943599
über 1919716
t@@ 1902912
s 1861162
ein@@ 1853693
ungen 1849792
z@@ 1818698
oder 1793400
ische 1788673
wurden 1772057
be@@ 1713075
S@@ 1681925
aus@@ 1674781
k@@ 1627122
dass 1584626
/ 1579432
W@@ 1577546
- 1569731
Er 1563168
de 1556506
K@@ 1551316
L@@ 1540027
unter 1539591
H@@ 1524829
ungs@@ 1517868
ab@@ 1517683
Jahr 1508959
B@@ 1494591
st@@ 1483816
F@@ 1446836
auf@@ 1434670
n@@ 1421798
ter 1420823
G@@ 1415660
el@@ 1380163
R@@ 1367214
l@@ 1364909
An@@ 1361444
D@@ 1355106
wie 1334867
ge@@ 1324308
el 1323908
ä@@ 1310743
vor 1305106
e 1301375
an@@ 1295408
T@@ 1283880
liche 1272513
e@@ 1263705
lichen 1262015
f@@ 1261709
Er@@ 1254703
sowie 1251507
vom 1245994
Z@@ 1244457
lich 1238434
seiner 1219334
Ab@@ 1211644
Nach 1208716
m@@ 1199449
al@@ 1198266
noch 1198079
Aus@@ 1195068
Vor@@ 1186526
n 1184306
über@@ 1174402
nur 1172185
hatte 1166721
P@@ 1147361
seine 1139634
ch@@ 1138406
ab 1134143
M@@ 1122348
ent@@ 1119403
un@@ 1117466
aber 1109854
Jahre 1107549
St@@ 1098583
m 1098372
vor@@ 1074801
Sie 1071112
zwei 1070728
waren 1050474
b@@ 1037048
isch 1036348
w@@ 1029352
hat 1020345
ern 1017444
E@@ 996556
g@@ 994437
* 990943
ende 990344
re@@ 972972
eines 968597
enden 965337
N@@ 962947
d@@ 962185
um@@ 957455
zwischen 956251
sein 948976
Jahren 945211
Am 933188
A@@ 929020
in@@ 921983
gegen 903103
unter@@ 896258
ar@@ 895141
i@@ 894232
dieser 893309
Ein@@ 891439
et 876142
ens 870921
es@@ 870016
ert 868484
r@@ 867062
Es 866103
ischer 857698
h@@ 854744
ter@@ 852392
V@@ 841075
of 836132
or@@ 829362
ken 822431
ersten 820758
z 816485
on@@ 816386
Be@@ 809766
Zeit 800951
J@@ 800568
us 796318
Re@@ 793133
le@@ 788689
at 785371
seit 781783
jedoch 780636
tr@@ 778101
man 776949
Stadt 775376
p@@ 773725
O@@ 770649
enen 768279
so 754105
d 747079
j@@ 739821
etwa 739016
drei 738602
ige 729838
ö@@ 717426
ler 708111
sten 706163
wieder 704787
Geschichte 700741
Ober@@ 698427
ag@@ 698319
ger@@ 695888
igen 692892
eren 690233
ten@@ 689267
mehr 687998
ens@@ 687870
Bau@@ 686955
on 686198
is@@ 685988
k 682001
Als 679400
ie 677593
Leben 675963
ke 674689
seinem 671910
1 668391
Unter@@ 668086
gen@@ 667811
it@@ 667092
ig@@ 666764
ber@@ 664085
Auf@@ 663084
au@@ 662730
gel@@ 662151
ers 661331
liegt 658225
seinen 646695
später 643788
Von 643585
beim 642835
Bei 641614
eg@@ 641050
da 639573
au 637840
ene 637287
l 636807
ts@@ 633759
Al@@ 632556
iert 629816
ik@@ 626514
gesch@@ 625502
th@@ 625088
ü@@ 624482
g 623865
et@@ 623662
Ende 623513
diese 621065
Ge@@ 619990
1. 619814
chen 618709
ihre 618624
eb@@ 617196
le 614766
st 614473
ung@@ 614236
elle 613095
erte 613049
C@@ 607790
ien 606588
and 605665
ang@@ 604749
ere 604301
kann 603500
Über@@ 602725
2 601766
tes 599529
är@@ 597579
schaft 596698
ur@@ 592190
wo 591814
eh@@ 591182
ch 590650
as@@ 589851
ol@@ 588509
kam 588248
end 587794
Land@@ 584657
konnte 583547
us@@ 583321
geb@@ 581122
erste 579884
Mit 579783
ak@@ 579027
Gemeinde 576331
Tr@@ 573677
se 565509
ihm 565301
al 565102
gew@@ 564867
ti@@ 564858
ek@@ 559678
ier@@ 559177
August 554700
em@@ 554407
ner 554303
In@@ 552661
Mai 552350
März 548458
haben 547901
ellen 547545
Januar 546720
Teil 542454
heute 541359
I@@ 541128
Oktober 541013
str@@ 539794
di@@ 537894
licher 533601
der@@ 532856
ation 532514
ben 532371
u@@ 531012
dann 530675
ihrer 527743
Mar@@ 527062
ges@@ 525704
&amp; 521488
her@@ 521444
bereits 521227
dessen 520095
dort 519698
’ 519538
ot@@ 516228
o@@ 516150
September 515383
† 513786
erung 513083
stand 512975
alle 510843
April 509910
il@@ 508613
ierte 508536
ar 507995
Juni 507018
kon@@ 506576
mann 505624
Universität 505348
gab 504314
Juli 502827
i 500641
sen 500207
ale 499880
ge 499105
ach@@ 498982
sp@@ 498910
is 498898
ihn 497287
Kirche 495652
anderen 495522
at@@ 494138
während 493342
Dezember 492753
land 492398
US 490662
erhielt 490256
em 490107
Gr@@ 485691
o 485103
gen 485098
id@@ 481944
a 481399
vier 481089
Ein 478915
end@@ 478827
November 477250
Saison 476826
Ber@@ 475359
km 475133
zeit 475119
berg 474615
ne 473469
ihr 472868
beiden 472437
ing 471730
men 471424
Le@@ 471201
Diese 471110
y 470835
am@@ 470330
3 468881
nen 468639
Se@@ 468200
os 467570
Fre@@ 465287
se@@ 464054
% 463008
Seit 456607
fer@@ 456085
U@@ 454340
Di@@ 454091
Platz 452989
Deutschland 452107
können 451910
it 451799
gibt 451454
ts 451203
Str@@ 451093
ir@@ 450576
diesem 449637
ell@@ 449403
Haupt@@ 447641
len 447280
Ar@@ 447183
ed@@ 445570
wer@@ 445250
Berlin 443607
mer@@ 442950
Jahrhundert 442300
isten 440296
li@@ 439165
de@@ 438963
ell 436766
as 435271
Br@@ 434368
Nach@@ 432765
Um@@ 431908
iz@@ 431027
Mitglied 428457
Februar 428124
eten 427665
gr@@ 425742
Fl@@ 425735
Kon@@ 425452
r 424924
br@@ 424352
Eine 424215
be 423303
Ne@@ 423239
ing@@ 422392
os@@ 420563
nahm 419623
and@@ 419265
eng@@ 419258
im@@ 417538
b 417079
ker 416248
ingen 415553
nung 415308
deutschen 414442
che 414145
ach 413028
ins 412620
acht 411046
y@@ 408308
deren 408121
si@@ 405461
Bundes@@ 405265
Auch 404365
zurück 403289
f 401073
damit 400831
Stadt@@ 399993
ste 399940
eln 398291
Für 397861
Ch@@ 397778
Sp@@ 396621
ent 395535
Kom@@ 393929
zunächst 391572
ul@@ 390266
iger 389706
trat 389353
ör@@ 389329
enn@@ 388644
4 388194
aten 387868
tet 387684
Auf 387431
statt 387364
h 386719
ihren 386444
bekannt 386027
steht 384862
Familie 384587
if@@ 383521
tigen 383439
zusammen 383156
keine 382691
Kr@@ 382621
_ 381714
ationen 380798
ne@@ 379988
befindet 379359
beg@@ 378223
or 378043
sehr 376945
Ort 376614
lo@@ 375046
weitere 372664
schen 370757
Namen 370541
ser@@ 369680
Kar@@ 368591
v@@ 368460
fen 368273
ad@@ 368193
pf@@ 368137
gest@@ 367571
nach@@ 366831
begann 366412
om@@ 366171
ler@@ 366060
bar 365690
än@@ 364291
und@@ 364252
Film 362997
Sohn 362870
bau 362580
ist@@ 362139
te@@ 361932
Süd@@ 361680
wegen 360955
bl@@ 360828
He@@ 360762
sh@@ 360708
kt 360040
kom@@ 359911
teil 359905
denen 359076
worden 358583
est@@ 357255
spielte 357125
äl@@ 356028
sch 355817
gewann 354740
a@@ 354417
zug@@ 354291
ich@@ 353791
straße 352187
bzw. 351669
allem 350799
ft 350701
ebenfalls 350578
Nord@@ 350547
Personen 349828
Reg@@ 349731
ess@@ 349662
burg 349639
El@@ 349258
stadt 348844
ri@@ 347405
erten 347098
2010 346758
anderem 345367
werk 345304
2011 345033
sk@@ 344416
Her@@ 344353
Grund@@ 343949
enz@@ 343638
sti@@ 342814
Me@@ 342043
ums 341745
ün@@ 341682
ging 341209
all@@ 340041
durch@@ 339092
was 338916
ah@@ 337142
führte 335938
immer 335923
me 335820
ß@@ 332398
Fahr@@ 332194
Gesch@@ 331625
inn@@ 330950
ro@@ 329902
me@@ 329824
-@@ 329809
B 328797
Un@@ 328000
den@@ 327854
kl@@ 326986
tion 326230
u 325909
isch@@ 325494
kommen 325252
selbst 325015
ohne 324764
ern@@ 324562
hal@@ 323974
c@@ 323574
2015 322222
neuen 321813
2009 321140
zen 320794
2012 320754
elt 320702
enten 320695
Ger@@ 320472
dabei 320295
auer 320131
2. 319868
We@@ 319737
Mittel@@ 319699
2008 319677
onen 318528
2014 318138
uch@@ 318133
dr@@ 317032
lt 316938
gehörte 316906
2013 316452
gt 316091
ologie 315625
Ur@@ 315062
enz 314961
Pr@@ 314680
ut@@ 314506
bach 314405
Qu@@ 314336
zi@@ 313908
geh@@ 313615
formula 313314
af@@ 312643
Während 312321
tung 312260
zu@@ 312240
19. 312076
hier 311664
ia 311397
&apos; 311387
Nieder@@ 311054
deutscher 310978
ste@@ 309757
ph@@ 309252
Meter 309022
5 308279
cht 307994
2016 307951
els 307927
ken@@ 306995
neue 306819
sen@@ 306762
fl@@ 306512
arbeitete 306409
Schw@@ 305824
Jahrhunderts 305790
erstmals 305691
2007 305507
Mon@@ 304281
ieren 303148
Spiel@@ 303100
fand 303042
Landes@@ 302742
re 302704
sche 302269
ger 301961
ff@@ 301482
ich 301450
pr@@ 301450
heit 300696
Or@@ 300509
Ab 299963
bezeichnet 298434
äch@@ 297238
A 296821
sei 296105
En@@ 295901
New 295260
Schul@@ 295256
fünf 295214
Groß@@ 294480
2017 294062
20 293107
ep@@ 292089
Seine 291866
The 291161
ierten 290166
ord@@ 290054
fer 290014
St. 289948
2006 289842
qu@@ 289577
gehört 289318
Name 289261
ise 288943
ine 288296
15@@ 287859
alen 286690
10 286063
erin 286002
erst 285685
schule 285312
Titel 284856
op@@ 283976
Deutschen 282882
ru@@ 282799
fr@@ 282220
the 282026
schon 281984
Bi@@ 281820
len@@ 281021
zweiten 280753
Pro@@ 280574
Kl@@ 280571
mi@@ 280519
kr@@ 280380
ierung 279109
ho@@ 278845
ür@@ 278814
ati@@ 278756
ß 278503
ener 278429
2018 278257
Wasser@@ 278005
2019 277566
Band 277390
sondern 276863
einige 276795
Gruppe 276724
icht 276680
tete 276367
Zu 275824
ster 275431
seines 275292
enf@@ 274953
Sein 274847
Th@@ 274784
Bar@@ 274730
mal 274628
ender 274286
besch@@ 273613
tig 273600
sel@@ 273541
ations@@ 273358
So 272981
ier 272944
führt 272853
weise 272793
zurück@@ 272654
14@@ 272114
Par@@ 272098
Pl@@ 272025
6 271322
Liste 271192
stein 270882
ßen 270682
ähr@@ 270359
bel@@ 269643
schaften 269437
weiter 269254
Lebens@@ 268930
iten 268868
rund 268032
stellung 267905
Ak@@ 267668
ihrem 267355
Hoch@@ 267052
Ges@@ 267029
neben 266687
studierte 266482
hatten 266034
ie@@ 266010
eck@@ 265482
zeit@@ 264603
Karriere 264567
Menschen 264552
itz 264182
Friedrich 263799
2005 263589
For@@ 262917
Wer@@ 262766
erk@@ 262608
mehrere 262506
Inter@@ 262017
fe@@ 261918
National@@ 261511
ni@@ 260997
öl@@ 260835
3. 260677
ap@@ 260265
feld 260224
anz@@ 260123
ze@@ 259954
andere 259527
amp 259504
p 259496
mar@@ 258648
besteht 258509
la 258392
ka 258371
tischen 257948
20. 257787
Ex@@ 256993
iti@@ 256769
fe 256462
gi@@ 256398
deutsche 255980
agen 255816
pl@@ 255776
letzten 255742
Bl@@ 255667
cher 255303
dieses 254773
gebiet 254757
großen 254635
Anfang 254476
dre@@ 253991
2000 253833
Durch 253776
ok@@ 253747
B. 253476
verl@@ 253173
genannt 253131
Ang@@ 252642
Tod 252558
v 252184
Musik@@ 252055
dar@@ 251531
ick@@ 251505
inger 251364
Art 250806
mit@@ 250617
18. 250545
1945 250309
Kol@@ 249049
wenn 248567
sollte 248540
blieb 248366
men@@ 248212
Hand@@ 248156
West@@ 248014
nis 247897
mal@@ 247858
ran@@ 247589
Kilometer 247198
ef@@ 247043
bi@@ 246843
tern 246555
Am@@ 246542
bes@@ 246466
große 246353
Staats@@ 246334
tätig 246197
mer 245540
Bel@@ 245336
15 245217
alt@@ 245137
tionen 245057
4@@ 245046
gewählt 244955
U 244560
2004 244550
erfolgte 244490
diesen 244468
Da 244329
teil@@ 244098
ang 244076
ass@@ 244020
Ost@@ 243975
we@@ 243964
folgenden 243696
lang 243586
fahr@@ 243280
wechselte 242836
Unternehmen 242826
ig 242207
ur 242195
gek@@ 241780
isches 241402
2020 241369
allerdings 241327
bau@@ 241203
ze 241199
Gebiet 240528
eben 240231
ete 239991
Johann 239651
schw@@ 238354
tige 238338
5@@ 238142
wobei 237666
13@@ 237139
Einwohner 236303
egen 235995
soll 235984
ks 235769
innen 235763
Straße 234830
verw@@ 234033
alten 233617
etz@@ 233543
ate 233482
Mitte 233426
best@@ 233132
per@@ 232922
gegründet 232874
8 232769
w 232751
il 231676
Frau 231220
Neu@@ 230545
bahn 230297
Fr@@ 230247
he@@ 230211
Berg@@ 229680
hin@@ 229600
je 229350
Volks@@ 228925
lagen 228780
Li@@ 228714
Nachdem 228712
ik 228320
7 228238
allen 228185
platz 228169
ließ 228037
lich@@ 228032
15. 227797
esch@@ 227537
Bo@@ 227449
erreichte 227429
gang 227103
Mannschaft 227096
age 227032
ann@@ 226977
Mor@@ 226956
Verein 226897
ei 226787
ersch@@ 226688
G 226493
geg@@ 226118
Zweiten 226088
enti@@ 225973
Karl 225736
heim 225541
Region 225450
übernahm 225331
nun 224741
sechs 224570
musste 224539
4. 224500
äh@@ 224472
jeweils 224355
ismus 224301
unde 224025
Mit@@ 223869
z. 223785
ech@@ 222817
weiteren 222451
Gebäude 222292
ker@@ 222172
x@@ 222069
ina 221853
schließlich 221316
scher 221260
ität 221088
viele 220986
Gen@@ 220981
Pf@@ 219755
for@@ 219689
to@@ 219540
Kre@@ 219529
tel@@ 219373
tel 218951
stellt 218496
zog 218093
30 218058
par@@ 217910
sol@@ 217782
Vater 217696
Rück@@ 217672
Bis 217625
mel@@ 217208
16. 216874
17. 216788
ons@@ 216529
ans 216457
og@@ 216368
itz@@ 216138
6@@ 216045
finden 215802
Mo@@ 215363
2003 215187
Ma@@ 215090
2001 215021
ug@@ 215001
USA 214999
so@@ 214991
üt@@ 214771
üh@@ 214326
I. 214162
Norden 213995
zwe@@ 213798
Kor@@ 213427
wal@@ 213374
a. 212937
Man@@ 212706
az@@ 212701
Nor@@ 212395
Ru@@ 211827
dern 211707
Buch@@ 211188
haus 210895
assen 210830
Bereich 210510
cht@@ 210492
Lehr@@ 210312
neu 210299
0 210291
land@@ 210050
rich@@ 209899
2002 209880
An 209582
ib@@ 209075
Tor@@ 208986
ster@@ 208952
kan@@ 208926
fre@@ 208887
tre@@ 208869
3@@ 208637
insgesamt 208492
Form 208485
welche 208070
aufgrund 207995
u. 207948
stellte 207935
erhalten 207848
5. 207247
meister 207174
stellen 207154
D 207137
istischen 206958
Flug@@ 206927
100 206680
ac@@ 206651
schafts@@ 206616
ons 206595
Y@@ 206414
O 206369
Film@@ 206313
University 206253
erst@@ 206101
Dort 206084
18 205998
oc@@ 205976
lag 205832
bar@@ 205369
dete 205190
Ad@@ 205088
ow@@ 204903
tor 204730
spielen 204628
ände 204579
darauf 204552
setzte 204488
ben@@ 204383
ob@@ 204270
gestellt 204153
verwendet 204094
Tochter 203969
lin@@ 203879
Dabei 203804
entstand 203678
7@@ 203565
verschiedenen 203512
ette 203465
Kunst@@ 203366
Album 203292
Reich@@ 203253
16 203111
gebaut 202884
2021 202853
war@@ 202814
ant 202792
one 202769
FC 202731
ma@@ 202672
halten 202607
Ste@@ 202157
dazu 202147
ks@@ 202008
Haus 201890
bo@@ 201622
schloss 201609
Land 201449
C 201267
selben 200994
König 200944
Süden 200887
Wilhelm 200689
lang@@ 200622
De@@ 200609
Bau 200537
vi@@ 200461
II. 200424
Gew@@ 200272
trag@@ 200202
her 200188
sehen 200161
Amt 200118
Tre@@ 199728
hr@@ 199719
München 199649
13. 199539
14. 199520
tiert 198793
spr@@ 198450
6. 198263
Prozent 198121
fest@@ 198036
folgender 197972
kel 197954
erschien 197707
S 197655
Kinder 197623
Wien 197408
erneut 197379
recht 197308
8@@ 197245
Per@@ 196949
tlich 196926
Werk 196772
gleich@@ 196761
ache 196116
ober@@ 196040
Rahmen 195483
Millionen 195294
ekt 195089
ett 194971
Hin@@ 194957
nieder@@ 194604
1999 194290
eter 194249
spiel 194240
Fach@@ 194149
tur@@ 194147
gem@@ 193964
Weltkrieg 193889
Mal 193734
Zw@@ 193421
zw@@ 193209
Car@@ 192996
Dies 192971
esen 192933
Arbeit 192796
Entwicklung 192664
Stand 192523
Stein@@ 192473
reich@@ 192436
John 192315
Einsatz 192094
gilt 192024
V 191997
meist 191955
des@@ 191923
äf@@ 191891
insbesondere 191868
Kultur@@ 191714
bed@@ 191604
Orts@@ 191553
12 191522
Mas@@ 191500
errichtet 191300
ber 191276
Lage 191210
Neben 191162
sin@@ 191097
feh@@ 191071
Dieser 190993
chte 190695
Rolle 190567
alt 190560
eig@@ 190285
Heinrich 190274
12. 190272
konnten 190215
seite 190187
Ä@@ 190101
Dar@@ 190050
ente 190027
kommt 189716
12@@ 189675
are 189510
Bevölkerung 189102
oh@@ 188963
stieg 188939
schrieb 188797
tritt 188774
14 188729
Richtung 188648
Provinz 188617
I 188596
8. 188379
nh@@ 188208
lu@@ 188184
Dorf 188128
gut 188103
icht@@ 188056
dung 188023
ton 187870
Osten 187644
Wal@@ 187531
geschichte 187502
Kur@@ 187310
lassen 187203
gruppe 187191
1990 187163
7. 186972
Jugend@@ 186563
lag@@ 186386
Zeit@@ 186041
aff@@ 185803
Ko@@ 185692
Westen 185683
oren 185591
achen 185445
Staaten 185395
Au@@ 185388
starb 185287
wes@@ 185252
fast 185226
kor@@ 185225
the@@ 185133
davon 185085
Dre@@ 185019
ant@@ 184914
erg@@ 184854
kirche 184790
9. 184740
kur@@ 184729
tions@@ 184571
ow 184404
wen@@ 184350
Frankreich 184297
Haup@@ 184244
all 184236
äng@@ 183924
kar@@ 183792
folgte 183755
liegen 183715
eigenen 183404
Sport@@ 183304
tische 183172
wach@@ 183161
sich@@ 182942
Ro@@ 182857
nten 182792
ic@@ 182694
eingesetzt 182610
bestand 182550
Frauen 182500
uf@@ 182420
9 182377
Te@@ 182282
halb 181617
na 181476
Hans 181349
9@@ 181243
dies 181238
Mal@@ 181184
uer@@ 181126
ad 181077
rat 180888
gegeben 180608
Gesellschaft 180596
leben 180520
bek@@ 180485
50 180435
weit 180289
innerhalb 180230
unden 180155
Beginn 179943
Schule 179712
nungen 179669
kte 179641
ill@@ 179510
mon@@ 179431
uk@@ 179336
oft 179257
genommen 179247
Tri@@ 179223
altung 179153
1998 179148
York 179121
Bedeutung 178992
habe 178738
L 178667
Aus 178505
Seite 178291
zug 178217
ausge@@ 177832
Partei 177731
Peter 177593
damals 177535
Paris 177522
nt 177225
Arbeits@@ 176847
Beispiel 176803
c 176665
kung 176582
Außerdem 176447
zweite 176212
igkeit 176130
Natur@@ 176126
Paul 175660
Bre@@ 175625
zehn 175599
bere@@ 175543
utz@@ 175494
Kriegs@@ 175396
chen@@ 175369
also 175270
geben 175145
Teil@@ 175120
Jahres 175090
Folge 175054
Um 174873
10. 174494
Ent@@ 174295
Con@@ 174201
erh@@ 174135
darunter 174131
nahmen 174098
nte 173960
vier@@ 173878
geht 173654
eller 173583
man@@ 173578
Landkreis 173524
Bur@@ 173381
stark 173261
Ö@@ 173220
zt 173092
av@@ 173091
Durch@@ 173073
13 172956
Zur 172873
Vier@@ 172854
essen 172680
Har@@ 172468
anischen 172445
Pol@@ 172417
ehemaligen 172410
ön@@ 172293
Co@@ 172257
issen 172144
zeug@@ 172111
pp@@ 172068
iker 171971
Gar@@ 171890
Musik 171874
Regierung 171832
handelt 171764
weg 171656
Höhe 171644
findet 171623
tor@@ 171587
Welt@@ 171501
lange 171211
ett@@ 171184
11. 171150
ez@@ 170915
od@@ 170909
War@@ 170873
Unter 170836
enh@@ 170813
bre@@ 170290
eck 170102
ori@@ 170055
art 169967
heutigen 169552
kurz 169534
Min@@ 169260
to 169152
det 169121
ade 169105
woh@@ 168778
pel@@ 168664
nahme 168265
po@@ 168214
tri@@ 168170
1994 168089
liches 168089
iden 167800
ester 167420
oll@@ 167406
weil 167389
amerikanischen 167147
los 167125
verein@@ 167079
Bürger@@ 166973
Verwaltungs@@ 166954
ast@@ 166835
fte 166475
ele 166078
stehen 166045
fall 166032
Lang@@ 166022
gegenüber 165932
pen@@ 165930
einge@@ 165849
1996 165638
äm@@ 165612
Mus@@ 165583
ta 165528
tig@@ 165495
kre@@ 165456
Wahl@@ 165351
mern 165261
of@@ 165085
wir@@ 165041
25 164521
Plat@@ 164481
1997 164443
Team 164403
Österreich 164345
1992 164269
= 164119
Rechts@@ 164079
zus@@ 163942
ehen 163753
Serie 163751
veröffentlicht 163672
ät 163465
Schl@@ 163461
Spiel 163433
att@@ 163286
Besch@@ 163272
Kle@@ 163241
zeich@@ 163215
see 163149
Einzel@@ 163127
Im@@ 162942
zahlreiche 162848
Fest@@ 162831
Best@@ 162728
amm@@ 162437
Po@@ 162393
Off@@ 162313
lungen 162248
17 162041
mus@@ 162041
Tur@@ 161961
süd@@ 161950
französischen 161933
ca. 161879
ütz@@ 161861
sowohl 161841
Ser@@ 161634
west@@ 161553
Sh@@ 161539
ren@@ 161534
Hel@@ 161517
Pi@@ 161455
asse 161452
trä@@ 161395
wieder@@ 161354
Burg 161203
voll@@ 161169
hand@@ 161132
ner@@ 161042
lage 161040
tigte 160919
fin@@ 160910
ind@@ 160896
Fernseh@@ 160744
Welt 160568
geboren 160524
ans@@ 160500
Erst@@ 160325
Kreis 160304
net 160250
son 160162
he 159786
leb@@ 159725
muss 159691
Zum 159681
ile 159648
zudem 159555
arbeiten 159551
Kreuz@@ 159383
x 159254
off@@ 159236
unk@@ 159151
Si@@ 159060
1995 158764
Krieg 158753
1991 158651
The@@ 158570
san@@ 158522
&#91; 158336
danach 158198
tan@@ 158152
Lo@@ 158150
&#93; 158082
ps 158013
K 157959
verschiedene 157912
kel@@ 157905
id 157847
Sek@@ 157738
rit@@ 157613
zer 157408
isen 157272
ück@@ 157034
30. 157013
Gl@@ 156894
Bor@@ 156869
tur 156784
äre 156673
aden 156548
Sal@@ 156528
Ri@@ 156510
anti@@ 156495
Liga 156494
treten 156373
Sitz 156285
tä@@ 156282
Kal@@ 156239
1993 156079
besuchte 156040
su@@ 155910
üb@@ 155721
deten 155657
Insel 155611
Gi@@ 155492
lern 155481
ehr@@ 155286
bt 155188
gemeinsam 155180
tisch 155167
40 155166
tion@@ 155035
Sol@@ 154948
führung 154910
19 154868
21. 154847
bereich 154476
besonders 154157
zen@@ 154047
Sen@@ 154041
lichkeit 153995
Alter 153895
dorf 153885
gemein@@ 153871
per 153626
Gemeinden 153433
lig@@ 153314
Professor 153148
ec@@ 153099
äs@@ 153071
mittel@@ 152973
Mot@@ 152948
Gel@@ 152916
Fe@@ 152899
amen 152797
Spe@@ 152741
gleichen 152569
E 152491
machte 152337
form 152292
no@@ 152272
inter@@ 152253
ute 152222
doch 152159
zeigt 152092
ichen 151887
Vertrag 151882
Maria 151830
einander 151817
hin 151806
up@@ 151642
Mod@@ 151620
beispielsweise 151610
Bal@@ 151479
zuvor 151375
nehmen 151361
R 151350
Spieler 151295
ana 151141
sieben 151133
Kirchen@@ 151105
Konz@@ 151023
Hamburg 151015
Ph@@ 150794
Haus@@ 150455
1989 150369
Por@@ 150313
weg@@ 150247
Zwe@@ 150205
ark@@ 150180
aben 150075
meisten 149938
elten 149866
tigt 149785
London 149769
ort 149630
kamen 149621
ennung 149512
Mutter 149503
führ@@ 149030
Sommer 149017
möglich 148876
Sti@@ 148866
tw@@ 148815
son@@ 148795
Mer@@ 148741
reg@@ 148691
ates 148616
Sa@@ 148470
ot 148469
folge 148227
gesetzt 148009
teilweise 147965
ordnung 147829
hinaus 147825
setzung 147779
vers@@ 147776
ard 147733
Mann 147508
ck@@ 147373
ät@@ 147272
Reichs@@ 147227
arbeitet 147167
aller 146921
Schweiz 146880
Kan@@ 146871
Kat@@ 146713
Werke 146604
wahl 146505
ged@@ 146468
tragen 146395
ki@@ 146326
gelang 146262
befinden 146190
ichten 146173
mals 146102
Gegen@@ 145802
Europa 145799
Gesamt@@ 145553
ew@@ 145288
isi@@ 145272
ote 145150
X@@ 145132
endet 145125
hö@@ 144972
größ@@ 144904
Stre@@ 144838
Militär@@ 144743
General@@ 144737
Zi@@ 144702
lauf@@ 144650
Dr@@ 144565
kh@@ 144301
neh@@ 144261
25. 144252
é 144189
stein@@ 144163
neten 144162
ko@@ 144144
gehören 144137
DDR 144053
auen 144038
verb@@ 144010
ihnen 143916
Vereinigten 143689
Georg 143642
statt@@ 143609
versch@@ 143484
Alt@@ 143394
genutzt 143382
26. 143216
lan@@ 142980
Schloss 142953
amt 142871
istische 142730
11 142695
König@@ 142648
Pal@@ 142623
ator 142581
Grün@@ 142455
League 142396
Arten 142375
Europ@@ 142330
igung 142290
bil@@ 142265
Strecke 142214
22. 141945
Hof@@ 141908
veröffentlichte 141895
absolvierte 141628
inen 141625
äu@@ 141540
Woh@@ 141508
daher 141494
di 141477
Spielen 141167
pol@@ 141112
Rad@@ 141050
Armee 140892
eigene 140864
bedeut@@ 140862
16@@ 140658
Pre@@ 140620
Mitglieder 140455
isti@@ 140425
wald 140354
un 140213
Ze@@ 140193
berger 140116
ite 140116
Franz 140070
Studium 139908
Bes@@ 139897
alb@@ 139894
folgende 139871
aktion 139789
Betrieb 139731
Danach 139724
Kas@@ 139713
Prot@@ 139635
tik 139578
Mari@@ 139549
ve 139519
nachdem 139453
est 139313
prä@@ 139308
spieler 139237
Ausbildung 139185
kehrte 138900
etwas 138873
aut 138847
fahren 138788
F 138711
gel 138706
Hal@@ 138659
gründete 138630
anische 138629
Reihe 138625
ül@@ 138530
kleinen 138481
ed 138480
läng@@ 138456
28. 138430
24. 138423
fäl@@ 138322
ilen 138122
enberg 138020
punkt 138005
ub@@ 137904
As@@ 137823
gl@@ 137794
Bri@@ 137616
iss@@ 137587
Saint 137552
ters 137436
Deutsche 137362
satz 137299
leg@@ 137282
Bruder 137174
Ros@@ 137170
23. 136901
Tag 136817
wor@@ 136782
fläche 136690
ecken 136579
ätze 136524
aufgenommen 136431
err@@ 136345
ja 136328
tsch@@ 136278
Gest@@ 136267
Stu@@ 136161
rä@@ 136109
Mag@@ 135982
hielt 135974
Ludwig 135926
Weitere 135895
Gemeinde@@ 135829
Luft@@ 135822
weisen 135805
del 135737
entstanden 135706
raum 135704
Politiker 135687
gesetz@@ 135651
form@@ 135516
1972 135435
tu@@ 135423
kein 135266
letz@@ 135207
1933 135177
beide 135106
Ersten 135055
1988 134959
häufig 134584
einigen 134491
ino 134468
geführt 134465
deutlich 134428
Hier 134421
La 134417
ra 134395
alte 134252
Op@@ 134216
Zwischen 134213
Spi@@ 134140
ven 134095
27. 133856
ut 133851
burger 133798
arbeit@@ 133731
sicht 133691
kleine 133679
ili@@ 133497
letzte 133404
Bed@@ 133310
mehr@@ 133279
Hol@@ 133234
Olympischen 133190
hol@@ 133179
schrift 133160
erreicht 133105
Ben@@ 132996
Michael 132886
anten 132810
Plan@@ 132741
buch 132494
els@@ 132464
vol@@ 132436
Beg@@ 132295
Gemein@@ 132272
Bahnhof 132263
Stand@@ 132186
Bereits 132171
hinter 132107
legte 132060
Ha@@ 132056
Museum 132047
get@@ 132026
haf@@ 131944
Eing@@ 131856
gehen 131806
tro@@ 131685
ume 131642
struk@@ 131473
führen 131464
somit 131461
assung 131434
chten 131391
24 131341
wär@@ 131284
Bot@@ 131271
lässt 131247
spiele 131172
1980 131155
präs@@ 131075
zwar 131075
lau@@ 130951
aw@@ 130902
Buch 130843
Char@@ 130663
ander@@ 130642
Cor@@ 130567
Stelle 130424
gelegt 130340
ard@@ 130319
Klasse 130122
Lin@@ 130086
Wirtschafts@@ 130068
vielen 129959
W 129933
Nähe 129915
außerdem 129846
1987 129714
Den 129551
29. 129433
² 129394
kle@@ 129385
lebte 129381
werke 129377
schied 129323
atur 129290
ins@@ 129231
ursprünglich 129090
.@@ 129078
uh@@ 129076
iv@@ 129060
Linie 129054
1970 129039
Zug@@ 129037
stammt 128986
ernannt 128982
wand@@ 128909
County 128877
Pri@@ 128867
min@@ 128844
ären 128783
lers 128731
Su@@ 128695
Über 128638
Geschäfts@@ 128624
Vol@@ 128547
yl@@ 128515
Berliner 128372
T 128280
diente 128245
ennen 128199
Trans@@ 128138
21 128041
elte 127983
bü@@ 127875
bet@@ 127825
emp@@ 127770
ähn@@ 127739
mehreren 127693
Ziel 127679
zer@@ 127630
ling 127565
kul@@ 127524
entr@@ 127484
direkt 127406
1939 127361
ng@@ 127308
ser 127290
M 127253
ba@@ 127198
heiten 127178
Thomas 127118
Den@@ 126984
grün@@ 126829
stelle 126829
ße 126828
verkehr 126762
Kirch@@ 126713
reichen 126703
Finale 126683
Wor@@ 126678
ese 126648
Fußball@@ 126596
langen 126591
bruch 126562
dafür 126549
uss 126450
Rot@@ 126431
ag 126427
Zudem 126354
ma 126321
tigkeit 126235
leit@@ 126220
nah@@ 126177
At@@ 126027
kal@@ 125888
stre@@ 125853
zeug 125799
Siehe 125729
Straßen@@ 125725
bas@@ 125690
Far@@ 125614
1938 125591
gemeinde 125526
Techn@@ 125485
uss@@ 125462
Staat@@ 125457
eder@@ 125437
Col@@ 125433
gewesen 125403
film 125379
enst@@ 125370
Wieder@@ 125344
ak 125319
Ir@@ 125298
südlich 125293
Wasser 125265
1986 125257
ätzen 125197
Robert 125050
anschließend 125007
erwähnt 124924
1974 124821
leh@@ 124795
Präsident 124774
aft 124749
ure 124738
Bezeichnung 124655
heit@@ 124598
bew@@ 124589
Geb@@ 124552
pro 124547
einz@@ 124455
folgt 124426
š@@ 124372
Em@@ 124311
heraus@@ 124206
Et@@ 124197
pi@@ 124041
lung 123973
AG 123968
31. 123946
á@@ 123905
stellungen 123704
weniger 123633
1984 123571
är 123487
Erfolg 123432
San 123389
dritten 123380
Arbeit@@ 123290
ck 123283
1975 123212
tin 123096
rech@@ 123073
Gu@@ 123048
ki 122899
Martin 122891
Gründung 122880
1985 122795
Einwohnern 122680
les 122606
Preis 122601
Ihre 122553
recht@@ 122512
entwickelte 122504
zentr@@ 122491
Wohn@@ 122400
Spiele 122369
60 122297
Holz@@ 122272
folg@@ 122244
zusammen@@ 122235
National 122226
Kin@@ 122067
Chr. 122064
verheiratet 122060
leist@@ 122011
Rund@@ 121933
ichte 121903
dienst 121884
lossen 121866
ogen 121723
ann 121699
ai 121667
heiratete 121631
1944 121570
ick 121548
auff@@ 121530
mo@@ 121466
sozial@@ 121408
Spr@@ 121239
Mün@@ 121236
größte 121207
ücken 121166
alität 121112
kri@@ 121108
politischen 121092
Kreis@@ 121036
Dem@@ 121022
10@@ 121014
häng@@ 120996
Gem@@ 120915
erster 120911
mm 120899
ov@@ 120896
kun@@ 120834
th 120704
regi@@ 120686
bezirk 120684
ff 120609
Nachfolger 120509
Vi@@ 120447
ex@@ 120416
tigung 120410
sitz 120371
sw@@ 120200
Höh@@ 120158
sig@@ 120076
ol 120056
Grab@@ 119997
1978 119926
Produktion 119839
Finanz@@ 119838
ihres 119799
bez@@ 119761
Prof@@ 119710
spezi@@ 119707
1968 119692
uren 119645
Heil@@ 119563
ano 119543
Innen@@ 119539
Eis@@ 119427
annt 119394
größten 119363
Schweizer 119330
Dis@@ 119268
cm 119255
erei 119062
So@@ 119059
Gold@@ 118946
öh@@ 118913
Drit@@ 118831
nord@@ 118830
fanden 118779
Sprache 118673
aub@@ 118547
amerikanischer 118507
berg@@ 118507
Tour@@ 118461
Dieses 118457
Com@@ 118421
iche 118343
1969 118305
nördlich 118215
leicht 118079
gericht 118074
grund@@ 118028
mas@@ 117863
Lu@@ 117824
eti@@ 117822
Kam@@ 117809
anz 117809
mu@@ 117763
1979 117748
führer 117724
ifen 117677
äger 117627
Mel@@ 117623
1973 117595
Bas@@ 117544
sor@@ 117529
1983 117468
fahrt 117438
ister 117426
Herr@@ 117373
sche@@ 117331
ht 117328
1971 117325
erfolg@@ 117323
ats 117302
hausen 117302
Winter@@ 117301
les@@ 117221
Euro 117134
let@@ 117088
Regierungs@@ 117077
ley 117063
200 117054
1982 117028
Frei@@ 117006
jahr 116973
Weg 116967
gleich 116870
betrieb 116859
führten 116851
Grenz@@ 116849
International 116837
trag 116708
jüng@@ 116686
ahl 116667
los@@ 116649
hoch@@ 116643
tal 116581
bildet 116501
West 116439
funk@@ 116390
brachte 116374
Stad@@ 116271
Beim 116219
gebildet 116111
heim@@ 116109
met@@ 116002
1976 115944
Familienname 115915
Kap@@ 115868
Köln 115842
digung 115814
nete 115793
angeb@@ 115716
schwar@@ 115651
Verbindung 115647
befand 115557
Institut 115522
Grund 115513
Wol@@ 115429
Not@@ 115263
welches 115235
positi@@ 115178
Tal@@ 115143
Damit 115126
oni@@ 115089
Kapit@@ 115074
sa@@ 115004
ih@@ 114960
zahl 114952
Besitz 114846
ganz 114750
ras@@ 114693
1960 114679
City 114670
träge 114662
Leg@@ 114639
22 114613
legen 114604
Kloster 114592
schi@@ 114535
ef 114523
Johannes 114510
Kinder@@ 114495
verband 114424
Teile 114381
herr@@ 114348
ien@@ 114266
umfasst 114218
stoff@@ 114207
Dreh@@ 114058
N 114007
Raum 113854
Meister 113661
viel@@ 113641
Sozial@@ 113573
ku@@ 113545
Frankfurt 113501
! 113449
Carl 113425
Truppen 113403
betr@@ 113399
iges 113248
Es@@ 113247
wil@@ 113239
spi@@ 113117
ehemalige 113075
wan@@ 113045
Wil@@ 112982
Anschließend 112913
1950 112852
üc@@ 112792
dient 112772
gaben 112698
1946 112659
mt 112627
nimmt 112616
minister 112545
ologischen 112529
Staffel 112521
setzt 112469
1981 112345
fen@@ 112326
ms 112271
England 112256
teten 112255
Kaiser 112244
Erd@@ 112172
leich@@ 112156
Ni@@ 112154
Tage 112150
entwickelt 112099
Joseph 112092
fasst 112018
Wahl 111960
Rek@@ 111923
Rang 111890
schle@@ 111798
ess 111661
Bischof 111642
einmal 111593
teilung 111565
Dor@@ 111538
Nr. 111534
Ag@@ 111519
Italien 111408
ko 111281
spiel@@ 111211
Leitung 111089
Bil@@ 111065
spielt 111055
dar 110984
Minister@@ 110923
v. 110896
Fol@@ 110870
ats@@ 110798
wagen 110768
Amts@@ 110765
ffen 110730
Hälfte 110687
23 110626
Rennen 110569
fern 110499
Red@@ 110495
Forschungs@@ 110488
hohen 110481
System 110381
Ehr@@ 110280
ide 110202
sdorf 110184
Otto 110099
Wald@@ 110087
Politik 110067
fiel 110044
amp@@ 110043
damaligen 109937
ös@@ 109927
enheit 109685
Zuge 109668
schaft@@ 109611
Sieg 109588
baren 109573
Studi@@ 109572
benannt 109500
nahe 109409
1964 109407
1977 109085
staat@@ 109063
wenig 109047
teile 109036
Grenze 108910
Sieg@@ 108910
Feld@@ 108901
1967 108849
Pil@@ 108828
ebenso 108714
britischen 108673
dis@@ 108670
hof 108667
Landes 108611
verz@@ 108606
Ihr 108568
pre@@ 108566
französische 108558
Ernst 108557
angen 108523
GmbH 108483
mut@@ 108401
Außen@@ 108368
belegte 108349
ekte 108316
net@@ 108293
keiten 108276
Länge 108270
lichkeiten 108260
mitt@@ 108249
H 108230
Ortsteil 107960
Arbeiten 107850
wuchs 107844
verkehr@@ 107825
far@@ 107786
weiter@@ 107740
Runde 107690
Kunst 107665
Du@@ 107649
Bad 107572
ke@@ 107545
Tab@@ 107506
oben 107486
fes@@ 107412
jährigen 107370
hier@@ 107367
enburg 107358
Kn@@ 107301
nutz@@ 107194
ob 107172
500 107130
Sand@@ 107122
Zusammen@@ 107075
geber 107071
ther@@ 107054
dau@@ 107003
Tro@@ 106974
Wein@@ 106935
Gre@@ 106908
beträgt 106868
Kun@@ 106862
P 106862
tar@@ 106815
om 106773
fal@@ 106699
ahn 106648
sogar 106627
lief 106610
betre@@ 106608
ane 106574
Leipzig 106557
sion 106542
kol@@ 106528
bevor 106505
entfernt 106494
heits@@ 106493
schaf@@ 106460
Ehe 106393
Tour 106326
eff@@ 106310
igt 106295
Begriff 106284
leitete 106159
1965 106154
Mat@@ 106150
Nationalmannschaft 106097
plan@@ 106053
iken 105993
ack@@ 105992
besitzt 105975
Prä@@ 105916
kten 105912
linie 105896
Kanton 105756
All@@ 105750
frei@@ 105750
End@@ 105744
Division 105719
lauf 105666
zeichnet 105557
alter 105518
standen 105517
Stil 105509
machen 105378
1966 105353
Leiter 105308
Wes@@ 105294
Herrschaft 105293
Dom@@ 105289
por@@ 105285
dec@@ 105172
Kommun@@ 105072
80 105028
See 105023
Men@@ 104989
Aufgrund 104954
einzige 104924
iste 104854
Zentrum 104798
verein 104777
weist 104750
do@@ 104728
schutz 104724
dig 104642
bild 104598
Fel@@ 104560
östlich 104510
weiterhin 104495
ast 104437
deutsch 104349
aktiv 104268
Zus@@ 104196
städ@@ 104062
ets 104044
späteren 103961
1963 103951
1961 103943
erseits 103894
ausgezeichnet 103874
schn@@ 103867
Sä@@ 103742
Fall 103718
Christian 103692
taus@@ 103684
lebt 103550
Ach@@ 103509
ellen@@ 103428
tierte 103396
ir 103395
verk@@ 103382
walt 103381
achten 103337
1952 103301
Republik 103297
platz@@ 103232
1962 103203
üsse 103198
endorf 103142
aum 103118
V. 103104
westlich 103072
1956 103047
reiche 103035
flü@@ 103021
richt 102996
Werk@@ 102909
1940 102881
trieb@@ 102879
Theater 102854
ah 102834
Rom@@ 102823
Bayern 102733
ath@@ 102564
frühen 102561
Koh@@ 102432
bert 102409
Sachsen 102365
1948 102281
iß@@ 102253
park 102240
wohl 102170
änger 102168
lus@@ 102113
ahl@@ 102104
° 102083
wiesen 102005
Sk@@ 101952
gebracht 101944
Mil@@ 101921
Park 101905
kämp@@ 101860
Männer 101859
verbunden 101828
Hil@@ 101810
äuß@@ 101784
2@@ 101783
Später 101774
liefer@@ 101765
annte 101757
ee 101709
Polen 101681
Os@@ 101671
Wie 101645
schul@@ 101563
schnit@@ 101552
gefunden 101540
bringen 101519
eher 101488
zentrum 101462
1949 101432
ister@@ 101403
Fläche 101363
Firma 101347
Wit@@ 101283
setzen 101274
tungs@@ 101270
II 101220
ys@@ 101184
pe 101143
politische 101119
Zahl 101003
würde 100971
uten 100915
Schwer@@ 100913
bisher 100875
mis@@ 100826
rot@@ 100772
kommen@@ 100765
Dorf@@ 100731
klasse 100719
To@@ 100673
Lau@@ 100664
Blü@@ 100663
tem 100596
Fri@@ 100587
gebi@@ 100559
internationalen 100558
1941 100510
entlichen 100473
erzielte 100455
lar@@ 100398
Fil@@ 100352
evangel@@ 100292
aut@@ 100276
dem@@ 100244
Neben@@ 100241
enthält 100198
San@@ 100145
90 100133
müssen 100127
fest 100116
schluss 100104
1942 100023
bürger@@ 100000
1943 99987
Met@@ 99967
ou@@ 99952
teilt 99888
Dienst@@ 99884
Erst 99840
chi@@ 99824
Fer@@ 99820
Geographie 99818
ud@@ 99791
Des@@ 99743
mannschaft 99728
Heimat@@ 99690
Hilfe 99645
do 99629
lad@@ 99503
elen 99481
verlor 99431
Klein@@ 99418
1958 99362
Mc@@ 99334
Bus@@ 99307
Doppel@@ 99261
aun@@ 99211
iter 99191
Wi@@ 99159
Do@@ 99130
änder@@ 99103
lediglich 99102
Wiener 99101
aj@@ 99055
Literatur 98990
schl@@ 98850
tag 98834
sä@@ 98829
0er 98774
Pap@@ 98757
har@@ 98741
Akademie 98683
tere 98662
Sub@@ 98592
eme 98578
ev@@ 98560
Syst@@ 98515
dig@@ 98496
wechsel@@ 98493
ges 98435
Kultur 98378
ück 98306
fel@@ 98298
ay 98171
zählt 97943
Gast@@ 97905
wi@@ 97899
deut@@ 97898
zeichen 97895
Flu@@ 97887
grenz@@ 97843
klass@@ 97841
Ul@@ 97833
bald 97829
schriften 97788
lebten 97699
welt@@ 97691
Bahn 97666
Sommer@@ 97649
siert 97567
ha 97566
wissenschaft@@ 97558
David 97477
Got@@ 97476
1959 97398
zeugen 97395
Sonn@@ 97341
bare 97279
General 97261
onn@@ 97198
Vor 97184
Wirtschaft 97178
Funktion 97176
Beschreibung 97078
Mol@@ 97072
folgten 97072
ari@@ 96997
betrieb@@ 96996
bekann@@ 96984
produz@@ 96981
William 96956
ante 96954
du 96928
Meisterschaft 96831
Halb@@ 96824
spek@@ 96793
Weltmeisterschaft 96783
Bahn@@ 96738
College 96695
Gattung 96677
Schiff@@ 96541
wür@@ 96506
ange@@ 96484
beteiligt 96468
ek 96467
Für@@ 96444
ica 96440
qualifiz@@ 96369
sollten 96361
Alexander 96322
estr@@ 96274
bilden 96250
Ban@@ 96237
70 96199
Version 96196
ologische 96196
era 96111
Schlacht 96105
no 96059
Res@@ 96054
Pe@@ 96052
Aut@@ 95879
35 95863
Abschluss 95844
egel 95832
Lö@@ 95779
Inn@@ 95774
digt 95768
Don@@ 95762
öffentlichen 95745
1947 95738
Hinter@@ 95683
1957 95666
ini 95606
öch@@ 95566
Hoh@@ 95537
Pas@@ 95510
europ@@ 95482
Regel 95446
äuf@@ 95440
umen 95426
Verwendung 95276
westlichen 95251
Vorsitzender 95205
bs 95192
neu@@ 95128
macht 95110
Schiff 95108
ys 95096
liga 94965
lat@@ 94952
Richard 94944
Bürgermeister 94935
Uhr 94928
SV 94927
Son@@ 94737
kauf@@ 94736
amerikanische 94725
eigen@@ 94707
system 94621
wert 94590
wirkte 94532
0@@ 94517
Hor@@ 94405
Sam@@ 94385
ahr@@ 94364
kreis 94329
ack 94255
mor@@ 94227
ersetzt 94203
enk@@ 94195
hohe 94174
1918 94019
leitung 94018
wollte 93986
techn@@ 93954
1953 93904
arten 93888
ebt 93873
1934 93821
gebäude 93782
Dec@@ 93771
viel 93765
je@@ 93728
üst@@ 93697
1955 93673
1936 93650
neun 93647
1954 93643
č@@ 93640
III. 93606
erreichen 93528
eleg@@ 93512
Go@@ 93509
Mi@@ 93505
ost@@ 93420
Zeitpunkt 93412
Produ@@ 93393
ors 93385
Mitarbeiter 93373
gabe 93357
1920 93302
trägt 93287
Prin@@ 93284
isierung 93261
Gut@@ 93229
organ@@ 93152
Hier@@ 93144
ret@@ 93138
Eng@@ 93127
ali@@ 93056
Bei@@ 93046
1919 92999
Schn@@ 92987
Oper@@ 92942
steh@@ 92917
ice 92909
Is@@ 92879
Rhein@@ 92814
Büh@@ 92805
keit 92760
schutz@@ 92738
allgem@@ 92699
Ap@@ 92694
gar@@ 92676
ae 92606
Sto@@ 92505
Politi@@ 92448
res@@ 92428
lte 92398
sa 92382
fall@@ 92364
zahlreichen 92234
Feuer@@ 92172
Privat@@ 92110
trug 92082
Industri@@ 92053
Pass@@ 92017
fallen 91965
eit@@ 91949
Man 91921
Hochschule 91877
io 91788
studi@@ 91764
yr@@ 91750
ative 91738
heraus 91677
gesellschaft 91644
Gruppen 91611
gegen@@ 91610
wo@@ 91582
Anh@@ 91502
erer 91474
Künstler 91408
Cup 91380
lö@@ 91312
Dollar 91311
riff 91309
nie 91300
nächsten 91231
hervor@@ 91223
Spielzeit 91152
Position 91118
32 91104
verläuft 91090
bot 91069
mann@@ 91063
geschlossen 91011
ege 90939
wenige 90894
Heim@@ 90869
tum 90850
… 90802
besten 90801
typ@@ 90796
ften 90790
hauptsächlich 90785
ings 90768
Union 90752
Med@@ 90746
Steuer@@ 90624
ograf@@ 90616
eröffnet 90579
Ker@@ 90520
siehe 90509
Män@@ 90484
Heute 90482
wa 90475
etzung 90455
School 90445
knapp 90437
Erz@@ 90432
emen 90361
Mehr@@ 90286
ebenen 90241
eben@@ 90215
gez@@ 90209
betrug 90136
weit@@ 90135
setz@@ 90122
beendete 90072
Hermann 90041
ers@@ 90011
sollen 90000
Ho@@ 89972
Juni@@ 89914
edr@@ 89896
45 89874
ue 89866
keinen 89841
Sonder@@ 89825
Führ@@ 89822
Meister@@ 89727
Bek@@ 89724
bereit@@ 89724
runde 89690
meister@@ 89660
ützen 89619
lerin 89597
ematik 89585
‘ 89541
Roman 89503
Rom 89489
serie 89486
Jean 89469
Vertreter 89435
Stadtteil 89401
ver 89398
Gener@@ 89360
Anzahl 89342
Pan@@ 89340
Baden 89321
1937 89277
gesamte 89263
Kop@@ 89262
we 89259
Projekt 89189
Bü@@ 89179
richtung 89152
Cas@@ 89116
fu@@ 89094
Jur@@ 89047
ti 89037
ai@@ 89034
bem@@ 89012
Geh@@ 89010
Christ@@ 89009
gehalten 88971
Verfügung 88915
ografie 88903
schlag 88853
änden 88788
Metern 88772
früher 88753
erfolgreich 88749
une 88686
entiert 88664
inden 88648
Han@@ 88631
kt@@ 88631
Trainer 88630
name 88621
asi@@ 88555
ehemaliger 88545
wich@@ 88504
China 88427
Max 88387
inge 88386
wasser@@ 88333
Cal@@ 88323
Cr@@ 88301
Fern@@ 88296
gehörten 88277
militär@@ 88246
bietet 88205
1951 88203
für@@ 88143
Tätigkeit 88115
Web@@ 88112
1935 88034
Organisation 87983
hi@@ 87978
Gegensatz 87977
Sy@@ 87973
sam 87971
Selbst@@ 87932
j 87897
Handlung 87889
öff@@ 87838
28 87822
mussten 87807
Rein@@ 87764
äd@@ 87755
ven@@ 87742
Verkehr 87739
Unterstützung 87696
Eltern 87676
bildung 87650
steig@@ 87650
+ 87610
Anlage 87591
glich 87578
Schutz@@ 87534
Bere@@ 87500
jah@@ 87452
digen 87448
ziehen 87417
zeigen 87380
ause 87353
werk@@ 87337
ey 87317
vermutlich 87315
dienst@@ 87299
art@@ 87282
Tex@@ 87259
iler 87258
darüber 87107
Hu@@ 87100
ativen 87042
früh@@ 87030
1930 87019
Burg@@ 87017
Gas@@ 87001
Gal@@ 86994
sicher@@ 86983
ea 86981
James 86962
ha@@ 86962
formen 86894
ständige 86873
liegenden 86848
ener@@ 86809
este 86704
Verk@@ 86657
Kath@@ 86623
for 86592
fü@@ 86568
Verein@@ 86559
27 86522
ages 86486
aktu@@ 86425
sam@@ 86416
Gleich@@ 86328
za 86319
Stamm@@ 86211
World 86209
Dresden 86196
Hir@@ 86158
amm 86118
daraufhin 86111
Rich@@ 86093
Berg 86081
gre@@ 86042
George 86018
Betriebs@@ 85996
jähr@@ 85977
eckt 85902
klärung 85857
dadurch 85847
etzen 85837
ci@@ 85792
wehr 85790
kultur@@ 85781
sion@@ 85754
bu@@ 85727
Gymnasium 85705
vollständig 85698
sionen 85697
ühr@@ 85667
Rä@@ 85591
ion 85568
Mark@@ 85538
gezogen 85515
titel 85505
Soldaten 85335
leiter 85327
tliche 85299
van 85282
Verw@@ 85251
tak@@ 85199
Schüler 85155
begrün@@ 85140
ichts@@ 85117
tn@@ 85084
einzelnen 84881
Bad@@ 84846
regelmäßig 84845
Verlag 84837
win@@ 84829
tive 84760
ater 84746
Rol@@ 84688
Bat@@ 84674
ahn@@ 84636
etern 84630
förder@@ 84603
anderer 84596
gleichzeitig 84593
Anti@@ 84546
üf@@ 84536
Wir@@ 84526
Stiftung 84514
ata 84500
Hauptstadt 84492
endete 84486
mach@@ 84469
etzt 84466
sta@@ 84461
kün@@ 84433
schwer@@ 84408
sech@@ 84405
vertr@@ 84398
endes 84373
sprech@@ 84356
ense@@ 84335
ika 84271
weis@@ 84268
Jugend 84257
Wahr@@ 84257
Gloc@@ 84247
eg 84202
Renn@@ 84179
sprach@@ 84166
Nachbar@@ 84154
proz@@ 84154
Je@@ 84149
Dienst 84146
Rö@@ 84138
persön@@ 84103
Fot@@ 84067
ands 84015
stätte 83977
Reich 83972
Kauf@@ 83923
nern 83904
Anschluss 83900
ore 83876
Hof 83831
stär@@ 83822
verließ 83809
erwarb 83789
anlage 83785
zeiten 83767
Mannschaften 83766
Alle 83754
geschütz@@ 83739
wertung 83732
nisse 83710
arr@@ 83689
angs@@ 83688
indem 83670
Fluss 83612
Verlauf 83536
Spitz@@ 83535
Weltmeisterschaften 83468
ong 83457
26 83428
á 83426
Fal@@ 83420
Parti@@ 83419
ust 83409
eli@@ 83363
Bundesliga 83338
d. 83314
überwiegend 83288
Win@@ 83269
wiederum 83239
ō 83232
denn 83218
etes 83194
gespielt 83161
Einfluss 83143
1914 83141
ologe 83126
Dr. 83121
Bu@@ 83119
zuletzt 83092
Bro@@ 83054
Q@@ 83018
kw@@ 83018
Artikel 83011
Roh@@ 82988
übernommen 82937
Kurz@@ 82838
1928 82793
estell@@ 82788
uer 82765
Main 82726
will 82700
ents 82649
sur 82622
sogenannten 82534
tag@@ 82452
ass 82405
keits@@ 82384
fort 82348
entsprech@@ 82255
mod@@ 82191
Sprach@@ 82175
ump@@ 82164
Val@@ 82087
dor@@ 82071
frei 82016
änge 82004
igten 81997
Lig@@ 81973
ager 81966
Ton@@ 81892
berech@@ 81880
gemacht 81810
Pa@@ 81782
Zusammenhang 81782
existi@@ 81753
by 81751
Friedhof 81672
1929 81641
River 81606
Zwei 81586
Hannover 81580
mindestens 81548
östlichen 81523
Bru@@ 81508
Direktor 81500
Lit@@ 81480
Verwaltung 81461
Eins@@ 81460
ei@@ 81441
ingt 81410
zig 81367
Lag@@ 81333
pass@@ 81326
isse 81304
Österreich@@ 81289
hinter@@ 81274
verloren 81237
ausschließlich 81212
Fran@@ 81167
Dazu 81096
ara 81092
0.000 81077
Ol@@ 81057
Zusch@@ 81054
Ki@@ 81046
Zusammenarbeit 81025
Auftrag 81014
ossen 81014
lig 80999
ämp@@ 80933
dan@@ 80927
üm@@ 80909
got@@ 80898
abe 80885
ns 80842
ebene 80841
Zeitschrift 80805
Radi@@ 80776
1932 80743
Schlag@@ 80734
eth@@ 80715
Japan 80703
star@@ 80683
äuser 80683
gesamten 80629
tier@@ 80628
Club 80627
ium 80590
gingen 80491
wissenschaften 80478
Basis 80457
namen 80454
Jahres@@ 80440
Walter 80439
baute 80402
galt 80397
inst@@ 80382
Lied 80352
position 80314
Schauspieler 80313
verwaltung 80311
ikan@@ 80260
ski 80230
Minuten 80220
oth@@ 80212
mittel 80211
Ster@@ 80193
bestehen 80189
oph@@ 80189
aler 80185
Nord 80178
Wappen 80177
verkauft 80115
« 80115
Evangel@@ 80060
turen 80033
uti@@ 80032
hab@@ 80030
historischen 80007
ł@@ 80002
lehr@@ 79986
Darüber 79985
Vertr@@ 79967
versi@@ 79955
igte 79951
hält 79884
zweit@@ 79857
sozi@@ 79825
jeder 79818
proj@@ 79812
sah 79789
alle@@ 79774
res 79764
Monate 79760
zerstört 79759
Titel@@ 79742
seien 79722
1900 79711
» 79704
zogen 79702
leitet 79628
kaum 79605
lten 79588
schlä@@ 79567
Charles 79485
ther 79429
bekannten 79401
ingungen 79398
beteil@@ 79384
American 79380
Indi@@ 79378
Graf 79364
Milli@@ 79360
Papst 79359
fuhr 79337
ton@@ 79307
Jo@@ 79261
ider 79259
ca 79240
ales 79216
politik 79196
ausen 79152
Seiten 79139
ätz@@ 79124
Anna 79117
identi@@ 79113
Instrum@@ 79101
Orte 79057
pos@@ 79020
Bildung 78995
ländischen 78995
heutige 78991
Zeitung 78948
Poliz@@ 78930
Mach@@ 78839
Schle@@ 78832
scheid@@ 78806
Ung@@ 78803
rag@@ 78764
startete 78741
besondere 78736
ausgetragen 78693
Ther@@ 78691
Auff@@ 78685
zeuge 78685
betrieben 78684
ock@@ 78681
Feh@@ 78638
Kant@@ 78621
Abteilung 78604
Handels@@ 78598
Wei@@ 78555
nam@@ 78544
Umgebung 78534
Gru@@ 78512
Josef 78471
Eisen@@ 78431
entlang 78422
enzen 78414
Ländern 78356
Mess@@ 78314
tigten 78314
europäischen 78269
Russland 78260
erfolgt 78202
ständ@@ 78200
ehrt 78185
Dam@@ 78170
großer 78103
Post@@ 78070
75 78059
entwick@@ 78054
Kapelle 78020
flo@@ 78007
tradition@@ 77988
eler 77976
Ehren@@ 77963
schen@@ 77918
heißt 77912
sches 77900
under@@ 77900
halt 77897
berufen 77859
dür@@ 77815
tiger 77781
Kritik 77762
acht@@ 77761
400 77739
Hör@@ 77737
Einige 77687
lands 77624
Ern@@ 77563
ließen 77562
gefähr@@ 77546
bezeich@@ 77543
Seg@@ 77527
durchgeführt 77496
1970er 77490
entwicklung 77473
SC 77432
entdeckt 77431
Gerichts@@ 77412
ffe 77393
Mis@@ 77391
chter 77256
etten 77228
Geg@@ 77226
Autor 77185
Insgesamt 77161
Haf@@ 77121
Viel@@ 77120
gruppen 77109
Cl@@ 77099
Brücke 77090
Recht 77064
Wel@@ 77028
katholischen 77021
beig@@ 77010
Thema 76966
Autom@@ 76957
kn@@ 76904
national@@ 76903
arch@@ 76899
Emp@@ 76885
egel@@ 76858
Anw@@ 76818
sport@@ 76814
zy@@ 76807
groß@@ 76795
Stuttgart 76750
kat@@ 76710
1925 76700
preis 76679
verfüg@@ 76675
Schwe@@ 76674
X 76655
Le 76650
stel@@ 76633
höh@@ 76614
stimm@@ 76532
Bezirk 76523
welcher 76522
gef@@ 76464
unternehmen 76453
Zentr@@ 76420
Sach@@ 76376
erstes 76338
Fußball 76335
entum 76323
Turm 76287
jährlich 76254
Zeich@@ 76230
Kup@@ 76220
ra@@ 76209
Mark 76200
Chem@@ 76143
kö@@ 76134
acher 76115
Darstellung 76089
Zürich 76069
idi@@ 76057
Gesetz@@ 76003
Dek@@ 75977
tungen 75965
zwölf 75930
alg@@ 75924
Bet@@ 75875
besser@@ 75860
auten 75815
ay@@ 75815
Assist@@ 75796
erbaut 75765
zusätzlich 75761
TV 75756
sied@@ 75750
südlichen 75728
ville 75728
port@@ 75722
eler@@ 75704
Gebäu@@ 75701
einf@@ 75688
Zentral@@ 75679
isiert 75661
kus 75610
bauten 75594
zieht 75592
1980er 75589
ball@@ 75554
wirk@@ 75519
bildete 75517
aner 75507
300 75485
Bild 75479
Tier@@ 75473
österreichischen 75446
ment@@ 75430
elektr@@ 75425
Verfahren 75413
Jung@@ 75395
beginnt 75394
sions@@ 75390
SPD 75349
verbind@@ 75305
aren 75291
geschrieben 75279
Hintergrund 75266
graf@@ 75258
1924 75257
Flü@@ 75226
Verkehrs@@ 75226
erischen 75221
wahrscheinlich 75208
Bahnstrecke 75150
alm@@ 75131
Silber@@ 75113
Obwohl 75109
ator@@ 75073
Vom 75065
weiterer 75062
hel@@ 75034
lam@@ 74997
1927 74962
stoff 74950
nischen 74929
lungs@@ 74926
Daneben 74915
Beh@@ 74854
yn@@ 74844
Heraus@@ 74795
ufen 74739
Punkte 74670
teils 74644
aussch@@ 74641
Kenn@@ 74636
ehör@@ 74629
stammen 74610
prak@@ 74535
bür@@ 74524
Nordosten 74488
frag@@ 74473
sth@@ 74466
Besatz@@ 74432
Bezirks@@ 74404
trieben 74403
äus@@ 74403
Laufbahn 74365
Eisenbahn@@ 74359
uz@@ 74312
auch@@ 74305
‚ 74294
haltung 74227
1@@ 74211
kes 74209
engl@@ 74186
pe@@ 74186
Département 74155
Pfarr@@ 74151
Zu@@ 74142
schnitt 74114
fah@@ 74020
tnisse 74006
en- 73932
sodass 73908
0,@@ 73898
ym@@ 73895
tenen 73888
wichtig@@ 73859
ligen 73847
1910 73801
Sor@@ 73799
alismus 73701
ücke 73692
pen 73680
Schutz 73679
Wochen 73526
deshalb 73522
arischen 73492
izi@@ 73460
1,@@ 73445
Herzog@@ 73421
wel@@ 73421
ahlen 73397
gs 73354
Doch 73348
schiff 73329
Stück 73314
änz@@ 73265
Spre@@ 73260
lit@@ 73258
wand 73241
tt@@ 73237
Eigen@@ 73223
rechts 73143
Award 73120
erzi@@ 73114
Dach@@ 73093
Siedlung 73083
Sin@@ 73061
oten 73061
kür@@ 73041
Funk@@ 73028
turm 73024
hen 73019
Weit@@ 73002
pa@@ 72993
verliehen 72982
altet 72973
Markt 72951
rechte 72910
chs 72909
tal@@ 72903
russischen 72861
Kandid@@ 72798
Wo@@ 72769
Ander@@ 72760
kungen 72737
1960er 72696
flug@@ 72601
ehe 72572
Ti@@ 72551
selten 72542
Sel@@ 72429
United 72419
wehr@@ 72400
öm@@ 72326
weite 72303
gewinnen 72293
anischer 72286
Denkmal@@ 72245
Lehrer 72215
weitgehend 72208
natür@@ 72194
Gö@@ 72187
unkt 72176
esti@@ 72170
Pres@@ 72160
änd@@ 72151
Projek@@ 72150
Gol@@ 72149
1931 72084
verfahren 72075
Pfer@@ 72068
bro@@ 72064
ena 72035
anl@@ 72008
Nutz@@ 72004
reich 72004
Herbst 71998
ani 71998
1921 71979
ligisten 71931
Südwesten 71929
1990er 71925
Königreich 71884
Gesund@@ 71874
A. 71855
Ac@@ 71843
Sü@@ 71813
bekam 71809
nische 71720
relativ 71696
freien 71689
dritte 71682
Halle 71681
Fußballspieler 71678
schein@@ 71634
größere 71605
Dör@@ 71587
Krieg@@ 71546
erschienen 71522
tim@@ 71508
Single 71500
forschung 71475
ya 71470
eu@@ 71449
ministerium 71447
tiv@@ 71439
ange 71410
Song 71388
Seiten@@ 71346
Mein@@ 71337
Ortschaft 71257
pan@@ 71255
trieb 71243
tiz@@ 71240
Bild@@ 71221
toren 71209
fas@@ 71207
Fisch@@ 71199
Tit@@ 71193
Angaben 71182
Rech@@ 71168
abl@@ 71133
ule 71122
schwer 71104
Lat@@ 71091
ce 71091
Zweit@@ 71087
zul@@ 71083
li 71054
enes 71053
finanzi@@ 71052
Vari@@ 71044
Grand 71033
italienischen 71027
Ant@@ 71016
Tag@@ 70972
Weltkriegs 70967
Ren@@ 70950
luss 70931
Allerdings 70928
vertreten 70924
1923 70915
Sat@@ 70873
Schi@@ 70872
Saison@@ 70868
Pat@@ 70849
laut 70849
29 70841
Schwar@@ 70825
gelegenen 70818
kriti@@ 70815
Daten 70734
1926 70705
Wach@@ 70689
wäh@@ 70663
Kö@@ 70586
bay@@ 70583
christ@@ 70579
fach@@ 70577
ā@@ 70573
hard 70559
Fahrzeuge 70541
weltweit 70517
Parte@@ 70507
Umb@@ 70480
Sammlung 70476
nehmer 70448
engag@@ 70437
Abgeord@@ 70384
del@@ 70374
ester@@ 70352
adi@@ 70350
Les@@ 70345
Engl@@ 70340
Sitz@@ 70321
oper@@ 70294
gebr@@ 70291
lieg@@ 70257
Führung 70237
65 70234
Brand@@ 70220
tief@@ 70220
atoren 70097
Samm@@ 70065
arti@@ 70064
? 70046
barkeit 70043
Tor 70042
leih@@ 70041
gol@@ 70035
Laufe 70027
Großen 70011
hoch 69967
onie 69951
alisi@@ 69930
sieht 69928
atr@@ 69908
1912 69891
Stunden 69889
Herkunft 69887
Wand@@ 69887
Proz@@ 69860
zäh@@ 69860
Chor@@ 69855
Il@@ 69845
medaille 69834
Open 69811
ecke 69807
Schreib@@ 69803
Mau@@ 69801
Super@@ 69800
Stimmen 69770
33 69760
deutsch@@ 69706
Leit@@ 69644
Nordwesten 69636
vorhanden 69632
nd@@ 69628
samm@@ 69626
Kategorie 69614
Sim@@ 69611
Star@@ 69590
geprägt 69584
vierten 69577
Teilnehmer 69563
dert 69559
kop@@ 69551
Wind@@ 69541
Tan@@ 69519
näch@@ 69514
erheb@@ 69510
Auswahl 69485
Gebi@@ 69480
Körper@@ 69475
digte 69471
Kampf 69461
och@@ 69433
Anteil 69431
Beide 69425
Forschung 69420
Spanien 69419
tz@@ 69404
Anf@@ 69398
liz@@ 69370
Netz@@ 69347
größeren 69343
Sau@@ 69314
Moder@@ 69258
eit 69254
Syn@@ 69244
nördlichen 69230
entsprechend 69222
gehend 69202
ford 69196
fül@@ 69196
Bevölkerungs@@ 69182
bal@@ 69179
annten 69166
stück 69152
Blat@@ 69129
emeinde 69109
Louis 69097
Schriftsteller 69083
Rudolf 69076
1922 69071
esse 69044
stände 69025
Staat 68982
schnell 68909
inzwischen 68905
Südosten 68902
Festival 68895
Leh@@ 68877
Hochschul@@ 68858
derung 68858
englischen 68819
Programm 68818
kräfte 68796
schie@@ 68785
anlagen 68762
ase 68757
Kind 68715
rechten 68680
Sar@@ 68679
breit@@ 68675
Hy@@ 68648
tlichen 68635
uch 68585
Möglichkeit 68582
gemeinschaft 68581
ala 68565
grenze 68556
ierungen 68555
aill@@ 68521
arbeit 68517
Stur@@ 68515
ap 68479
Ty@@ 68469
Rel@@ 68462
hergestellt 68418
lin 68417
formi@@ 68399
eil@@ 68394
fil@@ 68382
regierung 68372
usses 68343
pas@@ 68342
Philosophie 68337
ement 68322
Lieb@@ 68285
Kircheng@@ 68276
gangs@@ 68274
hu@@ 68252
istisch 68230
ock 68213
höchsten 68209
Württemberg 68181
sprung 68163
Voll@@ 68152
Maler 68148
weiht 68136
cher@@ 68130
Weise 68128
Produktions@@ 68108
kunde 68101
Größe 68100
rück@@ 68097
liter@@ 68089
hren 68061
wahlen 68042
herrsch@@ 68023
inn 68003
zel 67989
besteh@@ 67976
urg 67972
genannten 67969
verfügt 67916
geworden 67912
Mos@@ 67899
beruf@@ 67895
hör@@ 67880
sek@@ 67879
sogenannte 67875
fi@@ 67867
Veröffentlichung 67818
36 67802
eng 67762
Pop@@ 67708
Früh@@ 67689
Sz@@ 67686
tnis 67662
igkeiten 67636
verg@@ 67629
34 67620
ändern 67619
Wolfgang 67612
pro@@ 67601
steller 67597
Z 67594
Sozi@@ 67588
weis 67561
traf 67555
stell@@ 67540
sberg 67523
ance 67506
Albert 67504
onal@@ 67497
dagegen 67494
kommun@@ 67475
Familien 67472
kompl@@ 67432
Bir@@ 67371
eingestellt 67334
Typ 67329
beschrieben 67325
Punkten 67306
hl 67301
Regie 67292
Juden 67261
la@@ 67249
31 67237
äne 67236
brücke 67227
ř@@ 67198
Großbritannien 67195
64 67193
Inh@@ 67155
entspr@@ 67106
Gelände 67099
Tä@@ 67099
äger@@ 67090
Städte 67080
mung 67060
Folgen 67054
Mand@@ 67042
osen 67027
Hom@@ 66961
geleitet 66938
Theater@@ 66915
geteilt 66843
Ergebnis 66802
Schä@@ 66793
ond@@ 66781
bein@@ 66763
Schön@@ 66755
zur@@ 66749
ars 66746
uc@@ 66708
eri@@ 66698
lernte 66696
edi@@ 66688
Abschnitt 66656
Tore 66645
bank 66632
Stif@@ 66582
Kais@@ 66568
atz@@ 66565
verstär@@ 66552
gesehen 66548
Ehefrau 66546
Modell 66541
Verbind@@ 66534
Rum@@ 66524
produziert 66522
gegliedert 66489
yp@@ 66473
Krieges 66467
außerhalb 66462
ona 66415
Stell@@ 66410
eden 66402
lim@@ 66362
Aufgaben 66344
ichtete 66339
Namens@@ 66327
mig 66322
sm@@ 66321
för@@ 66252
nungs@@ 66213
fiz@@ 66188
ichts 66182
veranst@@ 66151
bekannte 66146
Sche@@ 66127
jeweiligen 66115
Gle@@ 66107
Bewegung 66085
isierte 66081
wichtige 66080
uli@@ 66052
Bol@@ 66034
priv@@ 66032
ses 66008
früheren 66000
zeh@@ 65997
ucht 65993
Ins@@ 65979
nitz 65977
Verbreitung 65961
wirtschaft 65952
Medi@@ 65945
Konflik@@ 65944
film@@ 65925
prin@@ 65916
Bern@@ 65912
Vertei@@ 65901
rol@@ 65890
jungen 65888
Deb@@ 65878
orium 65829
Bay@@ 65817
ises 65808
Del@@ 65749
Nutzung 65749
enthalten 65744
mb@@ 65724
Begriff@@ 65700
inger@@ 65698
anden 65689
arbeitung 65674
urt 65659
Ter@@ 65634
Bod@@ 65603
kran@@ 65577
off 65552
Mont@@ 65510
familie 65509
istik 65502
künstler@@ 65488
Wirken 65475
Reis@@ 65436
onlyinclude 65435
gefang@@ 65419
chester 65410
Boden 65373
Pen@@ 65354
windigkeit 65354
stag 65342
1913 65329
iner 65321
ines 65312
licht 65309
é@@ 65301
Kern@@ 65265
darin 65245
Ke@@ 65236
ils 65232
Ball@@ 65205
Organis@@ 65184
Wissenschaft@@ 65153
ständigen 65122
lie@@ 65111
Frage 65108
ide@@ 65105
ünden 65092
Qualifikation 65088
Erfolge 65075
Wur@@ 65046
Fle@@ 65037
blieben 65021
Ob@@ 65008
Royal 64994
stil@@ 64964
use 64940
eingeführt 64938
elt@@ 64920
On@@ 64914
vertrag 64913
Turnier 64912
eger 64912
Brun@@ 64905
Herzog 64768
atischen 64691
mehrfach 64665
bild@@ 64661
Straf@@ 64658
ella 64604
liste 64590
fass@@ 64587
fließt 64571
maß@@ 64556
Fund@@ 64540
Tar@@ 64504
nichts 64497
notwen@@ 64470
legung 64459
hervor 64447
versammlung 64426
Tür@@ 64389
bestritt 64363
chinen 64332
möglichen 64329
theit 64301
zählen 64295
Merkmale 64293
enth@@ 64245
Salz@@ 64231
könnte 64216
du@@ 64210
Kraft@@ 64202
Hü@@ 64194
wissenschaftlichen 64192
wies 64168
h. 64167
Los 64140
erungs@@ 64132
Geden@@ 64117
folgen 64117
sicht@@ 64111
Hessen 64101
internationale 64087
38 64081
Regel@@ 64062
Vog@@ 64048
ider@@ 64011
Grafen 64010
Inseln 64006
olog@@ 64006
Eb@@ 63991
Motor 63949
ling@@ 63942
sucht 63938
än 63938
app@@ 63895
Freund@@ 63892
wäre 63882
satz@@ 63876
Wert 63871
Person@@ 63848
Tak@@ 63848
Tal 63848
Restaur@@ 63825
gewicht 63823
onalen 63811
histor@@ 63806
Ungarn 63761
jährige 63760
Kopf 63756
nor@@ 63744
pal@@ 63736
ikanischen 63735
Vergleich 63733
Bä@@ 63706
bun@@ 63701
umfang@@ 63701
durchschnit@@ 63694
Schwester 63684
mitglied 63682
Frauen@@ 63660
Bö@@ 63654
trotz 63645
aufgeführt 63615
iss 63606
utnant 63583
Fir@@ 63566
hingegen 63540
unterstützt 63529
gerade 63500
Provin@@ 63498
rau@@ 63496
Island 63489
neuer 63488
blich 63487
1911 63478
afr@@ 63477
Det@@ 63472
ähnlich 63427
lech@@ 63403
dienen 63391
Schne@@ 63332
nes 63291
Orgel 63288
bedeutet 63285
ommen 63274
gang@@ 63263
gegründeten 63245
leid@@ 63238
SS 63237
beweg@@ 63180
äten 63177
kurz@@ 63162
Hand 63157
sprechen 63157
aufge@@ 63156
buch@@ 63121
ahlung 63111
Landschafts@@ 63109
gleichnamigen 63086
rechts@@ 63086
Bremen 63079
fällt 63078
offiziell 63072
aur@@ 63016
Bundesstaat 62985
ischem 62975
Nur 62972
entscheid@@ 62970
Süd 62968
Schweden 62965
ums@@ 62965
Washington 62946
Luf@@ 62918
echt 62916
strecke 62906
Pau@@ 62872
mark 62851
besuch@@ 62843
Frühjahr 62813
stand@@ 62773
mot@@ 62762
theater 62759
ath 62750
Motor@@ 62737
urs 62733
Kompon@@ 62717
1000 62709
Jahrzeh@@ 62699
42 62684
erlau@@ 62683
Dich@@ 62670
Markt@@ 62644
aufgelöst 62638
lege 62620
hätte 62611
zugleich 62589
links 62550
Herren 62545
sig 62539
setzungen 62525
bei@@ 62511
39 62508
dur@@ 62507
sz@@ 62506
präsident 62500
Familien@@ 62494
zeigte 62494
burg@@ 62486
Sum@@ 62477
wahr@@ 62457
ziert 62455
sitz@@ 62424
S. 62423
Architektur 62407
zent 62407
band 62388
ation@@ 62369
Kindern 62365
Weiß@@ 62329
rad@@ 62314
mes 62307
Vaters 62276
genden 62253
elf 62252
Wald 62198
mäch@@ 62190
äische 62159
1907 62153
orte 62138
Aussch@@ 62127
erhielten 62112
ls 62106
bahn@@ 62104
atur@@ 62087
esischen 62080
benö@@ 62041
Westfalen 62033
Fün@@ 62032
Grundlage 62021
verantwortlich 61939
konz@@ 61911
1905 61899
Ereign@@ 61876
rati@@ 61846
Verb@@ 61776
Regional@@ 61775
ou 61774
Kir@@ 61752
Wagen 61749
port 61696
.-@@ 61691
versu@@ 61684
bur@@ 61680
lingen 61671
Unabhäng@@ 61669
katholische 61643
Ing@@ 61631
alis@@ 61608
Fried@@ 61599
Viz@@ 61590
dän@@ 61582
fort@@ 61582
Wall@@ 61562
offen@@ 61557
Quellen 61555
wärts 61555
fik@@ 61553
Themen 61552
dies@@ 61549
Herz@@ 61519
2022 61518
Bank 61511
Letz@@ 61510
Klass@@ 61507
absol@@ 61496
schrif@@ 61496
Rückkehr 61468
ächlich 61461
orien 61457
chine 61452
Vorder@@ 61451
Eth@@ 61401
vern@@ 61377
umbenannt 61375
Berufs@@ 61369
Hö@@ 61368
fünf@@ 61362
Schulen 61360
nik 61359
Russ@@ 61357
ativ 61347
rän@@ 61343
eres@@ 61336
verhäl@@ 61334
fs 61321
dige 61320
nis@@ 61306
angehör@@ 61305
obwohl 61300
rem@@ 61289
flächen 61281
punkte 61278
sprache 61270
Zy@@ 61248
atz 61220
iben 61220
Ok@@ 61219
Aug@@ 61205
namens 61194
Jazz 61172
Präs@@ 61157
männ@@ 61149
höchste 61138
Dro@@ 61137
Lim@@ 61124
1917 61117
entspricht 61116
× 61111
werde 61076
eingesch@@ 61046
verlassen 61012
Chef@@ 61010
Gebir@@ 61000
Französ@@ 60970
44 60966
bewegung 60962
Ec@@ 60959
wissenschaft 60951
Allgem@@ 60938
Dol@@ 60927
ø@@ 60926
Landwirtschaft 60917
Deutsch 60893
Zuf@@ 60891
plätze 60824
sten@@ 60812
lieder@@ 60806
Sil@@ 60784
haus@@ 60783
alit@@ 60737
Lor@@ 60736
Tem@@ 60724
anerk@@ 60696
Neb@@ 60694
worfen 60664
Schon 60654
Teams 60649
Sowjetunion 60627
erb@@ 60607
1.@@ 60596
Weih@@ 60586
fri@@ 60573
niedr@@ 60561
wenigen 60561
Aufbau 60554
Slo@@ 60539
ahlt 60538
ris@@ 60528
türk@@ 60528
1908 60518
Austr@@ 60505
teilen 60504
til@@ 60493
mt@@ 60442
55 60440
Adolf 60422
alog@@ 60415
Aufgabe 60401
Obj@@ 60361
Teilen 60350
Mac@@ 60335
vergleich@@ 60318
möglich@@ 60282
Fi@@ 60276
neues 60273
tene 60242
Tiere 60236
itung 60218
Chi@@ 60167
entliche 60164
istr@@ 60162
ly 60160
ont 60137
Nov@@ 60122
Kaiser@@ 60101
ille 60089
unterschied@@ 60085
Söhne 60084
Ost 60065
Stil@@ 60053
Ebene 60039
esp@@ 60021
musik 60014
Noch 60009
aum@@ 59984
loc@@ 59968
Heiligen 59954
mün@@ 59914
mensch@@ 59899
fang 59898
Opfer 59892
Moskau 59891
Tsch@@ 59852
Marie 59849
solche 59849
Grä@@ 59848
erweitert 59847
sar@@ 59845
erwar@@ 59837
Winter 59826
Viele 59790
Besuch@@ 59765
abil@@ 59755
Wettbewerb 59751
weiß 59734
älteste 59734
treffen 59730
mat@@ 59727
ecken@@ 59720
ó@@ 59665
besonder@@ 59661
dahin 59655
wirtschaftlichen 59646
Sinne 59640
Wort 59615
riffen 59610
Bür@@ 59609
WM 59596
enten@@ 59587
Jes@@ 59580
Düsseldorf 59571
appen 59569
könig@@ 59563
37 59528
tags@@ 59518
erenden 59516
ama 59491
Ide@@ 59482
dens@@ 59474
verwen@@ 59470
Wander@@ 59450
Präsidenten 59449
äusern 59447
Tot@@ 59427
Technik 59416
Rat 59400
weiteres 59389
kas@@ 59381
zeichnete 59371
linken 59358
Werdegang 59349
ünde 59342
punk@@ 59333
Band@@ 59323
wichtigsten 59315
Lokom@@ 59263
lehrer 59252
dunk@@ 59246
Jus@@ 59223
ogr@@ 59214
Leistung 59210
Ann@@ 59199
stammte 59192
Straß@@ 59191
Eich@@ 59189
Bom@@ 59184
serv@@ 59175
co@@ 59171
Gedi@@ 59133
bec@@ 59108
48 59087
izier 59087
Güter@@ 59074
Patr@@ 59074
Länder@@ 59031
Ham@@ 59003
Frank 58994
Erb@@ 58987
Rem@@ 58952
usst 58921
Demokrati@@ 58905
versuchte 58901
asti@@ 58888
Objekte 58875
ütte 58873
sheim 58870
Schiffe 58860
gäng@@ 58856
bleiben 58838
britische 58830
legt 58827
zusätz@@ 58826
defin@@ 58823
Wegen 58811
Distrikt 58751
EU 58743
gegangen 58740
groß 58726
reform 58716
Bahnh@@ 58715
entlich 58710
eld 58706
í 58703
ong@@ 58701
bestimmt 58625
Lie@@ 58613
Pok@@ 58578
Andreas 58573
Person 58554
gebiete 58540
Abl@@ 58539
Mes@@ 58535
chem@@ 58528
unterrich@@ 58516
orf 58489
Aufstieg 58449
inne 58449
gewiesen 58435
lek@@ 58432
andelt 58426
Hektar 58396
Fuß@@ 58392
Müller 58377
kirchen 58377
4,@@ 58373
abr@@ 58363
Gründen 58351
schreib@@ 58334
füh@@ 58330
Station 58329
Völ@@ 58220
zum@@ 58203
its 58192
erforder@@ 58190
Tel@@ 58186
grund 58180
istin 58179
junge 58169
Bos@@ 58158
eingerichtet 58140
kehr@@ 58119
ta@@ 58106
1906 58105
tan 58097
í@@ 58091
Medien 58080
ov 58076
kanad@@ 58075
begren@@ 58073
versucht 58058
jüdischen 58055
Air 58054
old 58050
CDU 58049
Psych@@ 58043
wid@@ 58036
zuk@@ 58025
beauftrag@@ 58013
iden@@ 57987
GB 57965
chin@@ 57930
Laut 57927
Musiker 57902
seh@@ 57855
Brandenburg 57847
außer@@ 57825
ünd@@ 57824
kg 57798
Halbfinale 57784
Inform@@ 57780
erungen 57772
preußischen 57763
PS 57732
telfinale 57723
Einführung 57710
loss@@ 57695
Exper@@ 57676
sil@@ 57668
2,@@ 57667
wirtschaftliche 57654
nier 57629
Gesetz 57613
ain@@ 57610
beeinfl@@ 57609
Wenn 57593
zeitig 57591
Fürst@@ 57590
Interesse 57563
kraft 57553
1950er 57552
öst@@ 57549
wissenschaftliche 57533
tent@@ 57524
las 57520
oberen 57501
Licht@@ 57500
unterstütz@@ 57463
Hab@@ 57436
mittels 57415
Dem 57409
entierte 57376
Publik@@ 57375
ennt 57360
La@@ 57346
not@@ 57346
Ergebnisse 57335
Mär@@ 57269
ic 57268
erhöh@@ 57266
fang@@ 57257
Konstruk@@ 57242
Literatur@@ 57203
otte 57185
issen@@ 57182
IV. 57173
min 57171
drit@@ 57129
mes@@ 57129
unten 57102
ish@@ 57084
römisch 57066
Lind@@ 57046
Ritter@@ 57040
gu@@ 57039
lanz@@ 57038
blätter 57026
stitu@@ 57007
Niederlage 56985
plat@@ 56978
zte 56946
dargestellt 56944
erklärt 56944
meisterschaft 56942
ug 56917
sieg@@ 56901
thi@@ 56888
ständig 56882
Werner 56878
gesetz 56873
religiö@@ 56871
co 56861
Polizei 56858
besaß 56857
Weltkrieges 56854
De 56853
Weiteren 56796
Damp@@ 56791
ain 56781
Jahr@@ 56754
&#124; 56747
Bundest@@ 56727
Beruf@@ 56711
amb@@ 56700
beschäftigt 56694
Kel@@ 56683
gelegene 56674
mittelalter@@ 56674
verlegt 56654
Weiter@@ 56623
tif@@ 56597
ügen 56589
Bonn 56585
etz 56581
aue 56577
ky 56565
Architekten 56555
Abitur 56551
ebenda 56551
programm 56540
ora 56529
tis@@ 56521
Pfe@@ 56517
52 56516
Zentimeter 56508
Gut 56503
lass 56501
chn@@ 56500
erscheint 56481
Philipp 56476
teilte 56433
prof@@ 56415
ugen 56413
Der@@ 56411
Kloster@@ 56388
SG 56386
1909 56383
angeboten 56362
wodurch 56327
alisiert 56281
stan@@ 56251
kin@@ 56242
Kraft 56234
ust@@ 56218
traten 56212
Europäischen 56201
Gold 56186
kampf 56169
ty@@ 56160
Ortes 56151
linge 56121
losen 56088
Graf@@ 56084
Weg@@ 56078
3,@@ 56069
Fin@@ 56065
46 56054
ihe 56043
Nah@@ 55994
Saar@@ 55991
then 55987
bin@@ 55980
og 55972
nien 55957
verbreitet 55951
esh@@ 55937
Exempl@@ 55928
Zul@@ 55920
eb 55882
album 55863
gemäß 55820
ada 55787
oz@@ 55780
Records 55773
Australien 55762
aufen 55747
syst@@ 55740
rig 55738
gezeigt 55722
Fass@@ 55717
phase 55713
lige 55675
1904 55673
äft 55672
entin 55671
eden@@ 55629
tischer 55614
Olympi@@ 55587
Wirkung 55583
Sied@@ 55553
annen 55551
Ly@@ 55526
Fritz 55524
behör@@ 55517
Bildungs@@ 55511
Münch@@ 55505
5,@@ 55487
ologen 55487
ängen 55486
nominiert 55467
Punkt 55466
Auszeichnungen 55446
Energi@@ 55438
J. 55426
wasser 55421
Rock 55415
ebr@@ 55408
Anton 55397
Hamburger 55389
kleiner 55388
glieder@@ 55373
zuerst 55366
allein 55353
ord 55333
Muse@@ 55323
Nahr@@ 55307
Gü@@ 55303
Bücher 55302
schlag@@ 55272
ehr 55270
stur@@ 55236
Kons@@ 55235
deh@@ 55235
fungi@@ 55202
anges@@ 55189
dt 55182
krieg 55160
stim@@ 55151
häuf@@ 55137
don@@ 55110
Histor@@ 55108
Persön@@ 55108
usi@@ 55104
Chor 55102
gende 55092
troffen 55086
reibung 55081
tieren 55075
beschäf@@ 55070
shof 55062
ches 55061
Zer@@ 55041
Kathol@@ 55030
gelöst 55028
Dokum@@ 55026
amerika 55024
sab@@ 55012
Ingen@@ 54990
pu@@ 54960
ppe 54957
Raum@@ 54956
unmittelbar 54942
Train@@ 54939
förm@@ 54939
stür@@ 54927
Company 54924
fung 54918
Ged@@ 54903
nationalen 54895
mp@@ 54894
Verband 54891
römischen 54884
fluss 54874
forsch@@ 54874
mühle 54870
nä@@ 54854
Nacht 54849
trainer 54845
selbst@@ 54840
41 54806
1915 54795
Sprachen 54791
sburg 54781
Spar@@ 54777
liert 54744
lokal@@ 54744
Gesell@@ 54727
ikations@@ 54727
ührung 54713
Wies@@ 54710
Rhein 54708
musikal@@ 54698
ita 54697
länd@@ 54696
Tu@@ 54688
medi@@ 54681
Elisabeth 54679
95 54678
Heimat 54669
angesch@@ 54651
Nummer 54647
Lok@@ 54615
Zerstör@@ 54596
sichtlich 54591
dh@@ 54584
egrün@@ 54582
beobach@@ 54577
ari 54566
ty 54544
Temper@@ 54537
üch@@ 54524
agt 54511
trit@@ 54494
Alfred 54470
südöstlich 54436
CD 54395
voll 54377
Mur@@ 54355
Reb@@ 54351
ball 54350
Kurz 54346
Turni@@ 54336
jüd@@ 54318
Eff@@ 54311
breit 54285
ac 54272
Liebe 54268
Asi@@ 54260
nit@@ 54257
sal@@ 54254
erhal@@ 54238
85 54237
Erste 54234
äß@@ 54228
station 54205
historische 54174
französischer 54164
zahlen 54162
alli@@ 54124
südwestlich 54123
Flughafen 54118
Häuser 54110
völ@@ 54103
bleibt 54096
Kriti@@ 54086
eres 54086
ular@@ 54080
handlungen 54077
finanz@@ 54024
Kanada 54016
ässig@@ 54013
Kü@@ 54007
kräf@@ 54004
testen 54003
Studien 53993
abger@@ 53978
Des 53973
bung 53963
Gemeinder@@ 53955
enges@@ 53938
brau@@ 53931
Preußen 53920
lose 53919
linien 53900
Veranst@@ 53892
erfolgreich@@ 53869
bestimmten 53863
Lauf 53846
gelten 53840
verläng@@ 53816
Debüt 53799
würden 53781
flu@@ 53778
mus 53777
Ed@@ 53775
Math@@ 53775
sto@@ 53774
unterschiedlichen 53773
Behör@@ 53759
tats@@ 53737
q@@ 53730
ür 53717
Reih@@ 53710
beste 53701
Förder@@ 53672
Tages@@ 53670
Folge@@ 53663
Internationalen 53639
rom@@ 53626
geschaffen 53619
änen 53619
Regisseur 53610
Autob@@ 53601
Standort 53552
ani@@ 53552
sierte 53550
ßer@@ 53545
Leistungen 53542
ose 53531
geschlagen 53523
Zwischen@@ 53517
Start 53512
Henry 53508
rec@@ 53489
schau 53482
Ausgabe 53469
ode 53460
lik@@ 53449
Krankhe@@ 53442
Ü@@ 53441
sk 53433
Typ@@ 53419
zweimal 53387
Rath@@ 53383
57 53370
derungen 53353
Kab@@ 53344
51 53295
Kranken@@ 53288
schließen 53288
Angeles 53271
mechan@@ 53265
fein@@ 53250
ole 53248
Sport 53247
geord@@ 53237
pflich@@ 53230
Leb@@ 53225
Künst@@ 53223
Spor@@ 53223
stuf@@ 53219
itsch 53203
Parlament 53180
Rau@@ 53155
politi@@ 53147
tenberg 53141
esische 53123
150 53115
1903 53091
Text 53086
weib@@ 53077
demokrati@@ 53073
latein@@ 53071
ola 53065
Daten@@ 53049
redu@@ 53038
Refer@@ 53033
Fernsehen 53018
arf 53011
rang 53002
Itali@@ 52988
Alter@@ 52974
Kron@@ 52957
ande 52948
belegt 52919
edelt 52910
Aufnahme 52894
vari@@ 52894
Quelle 52890
theorie 52884
Stim@@ 52878
digkeit 52870
eins 52817
dire@@ 52808
produktion 52801
afe 52799
Ba@@ 52788
Autor@@ 52785
alist 52780
konzentr@@ 52766
ässer@@ 52762
Richter 52759
bus@@ 52747
Schauspielerin 52732
Nürnberg 52725
bewer@@ 52720
State 52717
andt 52716
Sig@@ 52700
Ot@@ 52686
ius 52679
Trotz 52678
medizin@@ 52663
Schwarz@@ 52652
bieten 52646
kurze 52639
use@@ 52621
blick 52620
spielten 52599
Bun@@ 52590
yer 52582
afrika 52570
bildungs@@ 52567
polnischen 52558
ammlung 52529
Bildh@@ 52527
stamm@@ 52517
verkaufte 52502
Sign@@ 52492
tei 52486
wirtschafts@@ 52485
zipi@@ 52482
Villa 52464
Erzbischof 52458
1916 52457
Sow@@ 52450
ffer 52446
Durchmesser 52442
zugeordnet 52438
alien 52397
Punk@@ 52388
ost 52384
Stol@@ 52374
Gün@@ 52364
Situation 52338
othek@@ 52328
Daniel 52318
veröffentlich@@ 52298
gewonnen 52226
verli@@ 52215
entschied 52207
kriegs@@ 52200
zunehmend 52187
umfass@@ 52180
öß@@ 52169
nordwestlich 52159
verfasste 52157
Ferdinand 52155
Kanz@@ 52155
formation 52155
Mitglied@@ 52127
nig 52127
vertrat 52127
ome 52113
Can@@ 52105
spruch 52098
erklärte 52084
Pfarrer 52073
publi@@ 52064
ail@@ 52058
zählte 52037
jetzt 52028
Hall@@ 52027
47 52015
ausger@@ 52010
Fort@@ 51998
Klin@@ 51991
timm@@ 51990
43 51981
inner@@ 51981
Autoren 51966
Denk@@ 51957
Wettbewer@@ 51957
schließt 51954
63 51953
Auflösung 51953
Parlament@@ 51949
ary 51946
Sänger 51937
Griech@@ 51930
mando 51922
zugs@@ 51912
Fakultät 51901
nordöstlich 51892
schwe@@ 51867
Frü@@ 51866
Vorsitz@@ 51853
Terr@@ 51851
Münster 51822
Zivil@@ 51816
gh@@ 51816
Probleme 51806
Christoph 51794
wesen 51790
bezeichnete 51781
Erschein@@ 51772
oss 51753
tis 51740
Künstler@@ 51730
Kirchen 51711
Pfarrkirche 51710
Films 51709
errichtete 51707
nom@@ 51685
1902 51676
Top 51649
erstreckt 51645
Informationen 51623
genau 51621
Trieb@@ 51608
Erde 51603
Radio 51598
wei@@ 51589
bestimmte 51568
Glas@@ 51560
hebung 51552
Est@@ 51551
angelegt 51544
ato 51540
ign@@ 51539
Elek@@ 51536
Wilhel@@ 51513
Bach 51505
otiven 51504
freig@@ 51490
Vir@@ 51483
Besonder@@ 51452
etab@@ 51425
Wild@@ 51423
§ 51409
Bewohner 51396
berüh@@ 51390
49 51376
Gründungs@@ 51356
übertragen 51345
Som@@ 51344
Beziehungen 51335
Fenster 51335
Ausstellung 51307
garten 51289
getrennt 51280
Kommission 51267
nchen 51253
Sicherheits@@ 51225
Regiment 51212
Freund 51211
Mittelalter 51203
Säng@@ 51187
dic@@ 51186
Dies@@ 51184
selb@@ 51177
ovi@@ 51174
Betre@@ 51150
promoviert 51084
plan 51065
ichtet 51051
AS@@ 50999
ächen 50998
AR@@ 50995
Ju@@ 50956
mord@@ 50956
Kosten 50952
zip 50911
ört@@ 50903
Än@@ 50900
endung 50896
Stat@@ 50895
merks@@ 50885
Gustav 50882
dienste 50866
Öffentlichkeit 50860
schieden 50844
Böh@@ 50830
Straßen 50799
handelte 50776
tert 50776
sorg@@ 50775
beschrän@@ 50767
grenzt 50763
stets 50754
ok 50734
ganze 50732
Seit@@ 50719
Filme 50712
1901 50682
Religi@@ 50662
ders 50643
tau@@ 50643
verteidi@@ 50634
South 50631
Lauf@@ 50624
Fo@@ 50621
ash@@ 50612
Freiburg 50604
stra@@ 50596
reicht 50590
Schauspiel@@ 50583
Kämp@@ 50575
zeugt 50562
sl@@ 50525
bewoh@@ 50505
organisation 50495
außer 50491
kirch@@ 50480
m. 50475
Kli@@ 50467
pres@@ 50462
mäßig 50461
Einheit 50448
Formen 50442
gestaltet 50429
ble@@ 50411
jap@@ 50394
House 50387
bezir@@ 50365
Sta@@ 50364
00 50344
Geld 50328
6,@@ 50325
geschoss 50316
Bew@@ 50299
timmung 50287
Sak@@ 50266
jede 50261
ith 50251
starken 50237
Wiederauf@@ 50236
mäß@@ 50236
daran 50218
angeg@@ 50215
benen 50209
sem@@ 50208
No@@ 50181
legi@@ 50176
identen 50172
54 50170
pendi@@ 50166
mun@@ 50161
schafter 50161
Ra@@ 50135
Veränder@@ 50129
Ich 50123
kör@@ 50099
trifft 50083
werken 50074
71 50035
domin@@ 50034
eigentlich 50025
zustellen 50009
kraft@@ 49995
Ortste@@ 49991
vermut@@ 49989
Wehr@@ 49979
Brüder 49957
iten@@ 49950
My@@ 49948
ikation 49946
Bon@@ 49942
zes 49923
Wett@@ 49921
Stern@@ 49909
griech@@ 49905
Haushal@@ 49898
modernen 49886
Eigenschaften 49881
sit@@ 49880
Wen@@ 49872
Lad@@ 49869
Besitz@@ 49868
pfel 49863
ritt 49833
Music 49831
spät@@ 49829
Wür@@ 49825
erfül@@ 49821
Lar@@ 49818
Bach@@ 49814
gend 49786
Königs 49779
Herstellung 49767
Tir@@ 49755
zung 49745
Wet@@ 49731
Länder 49720
ebe 49717
Kamp@@ 49706
Revolution 49703
Besetzung 49698
indi@@ 49689
1848 49677
Mädchen 49673
änder 49665
Pfalz 49661
äss@@ 49655
heren 49649
08 49647
museum 49643
Territ@@ 49639
ernen 49620
Mön@@ 49612
utsch@@ 49574
öffentliche 49547
Teilnahme 49520
Stein 49503
mission 49496
Society 49484
emati@@ 49468
ibt 49461
holte 49446
Beteil@@ 49434
haupt 49432
Farb@@ 49416
ds 49415
66 49410
besitzen 49407
Mah@@ 49384
96 49372
Dadurch 49365
Spitze 49359
sichts@@ 49347
kmäler 49343
brach 49338
ermittel@@ 49338
heb@@ 49327
kapit@@ 49315
leistung 49293
74 49291
umfasste 49291
aufgestellt 49283
ehmig@@ 49254
ere@@ 49250
koh@@ 49241
Anwendung 49237
terer 49219
Net@@ 49210
seitdem 49187
1899 49184
ald 49181
gegründete 49173
zuständig 49158
Infrastruktur 49147
japanischen 49144
verbesser@@ 49141
Alben 49132
kompon@@ 49130
ün 49116
brun@@ 49108
sex@@ 49101
seit@@ 49092
onien 49083
bel 49058
tz 49049
abge@@ 49034
ey@@ 49034
kenn@@ 49014
wettbewer@@ 49014
Bürger 49009
Vil@@ 48990
Wirk@@ 48984
Mann@@ 48931
Eber@@ 48930
Umw@@ 48899
iser 48897
bahnen 48876
uppen 48876
enbach 48868
Geografie 48836
Theologie 48833
North 48831
wechsel 48823
Deutschlands 48821
kontrol@@ 48821
Platz@@ 48810
Streit@@ 48808
anspr@@ 48804
ve@@ 48803
elles 48802
mündet 48788
oren@@ 48788
Medizin@@ 48785
Ram@@ 48783
ungs- 48773
slo@@ 48757
länder 48740
Kos@@ 48736
Mög@@ 48734
bahnhof 48727
Geor@@ 48721
nen@@ 48721
fol@@ 48717
unterhalb 48715
falls 48711
7,@@ 48707
ets@@ 48698
Forsch@@ 48684
Arch@@ 48682
bind@@ 48676
Fein@@ 48658
Auseinander@@ 48626
Rap@@ 48622
geborene 48607
besi@@ 48602
Cam@@ 48585
wirkt 48575
bauen 48571
anne 48561
Cre@@ 48549
ader 48542
Tradition 48539
wak@@ 48530
Gran@@ 48525
spann@@ 48519
Orgel@@ 48510
Angehör@@ 48501
arische 48486
ask@@ 48461
scheiden 48455
weiten 48441
oll 48412
tra 48402
600 48400
entweder 48396
ura 48393
zuf@@ 48390
nahezu 48383
Küste 48368
Erk@@ 48366
62 48363
genöss@@ 48358
Gebiete 48346
Qualif@@ 48344
800 48333
fle@@ 48322
idung 48300
publik@@ 48293
Ris@@ 48291
III 48275
Zeh@@ 48266
Kabin@@ 48258
Mad@@ 48236
erkennen 48228
Kombin@@ 48223
kern 48218
egr@@ 48212
itig 48211
verstarb 48200
ensburg 48192
Bilder 48178
spricht 48175
94 48171
änglich 48157
engen 48155
geleg@@ 48143
mittlerweile 48136
Institut@@ 48135
Gebr@@ 48133
Mitgliedern 48129
ensch@@ 48128
Fili@@ 48123
begonnen 48108
abgesch@@ 48102
Sing@@ 48096
kap@@ 48095
Befeh@@ 48091
1898 48087
km@@ 48087
abhäng@@ 48086
stanz 48061
emein@@ 48030
Hen@@ 48026
Prim@@ 48014
82 48004
ensi@@ 47996
besetzt 47993
Gefang@@ 47985
entschieden 47985
itt 47972
oni 47970
Ev@@ 47961
Art@@ 47950
wesentlich 47943
schied@@ 47928
Indien 47885
wart 47874
93 47870
beit@@ 47870
Produk@@ 47844
Rez@@ 47837
sag@@ 47819
Szene 47804
kennen 47800
Blu@@ 47797
wäl@@ 47793
lere 47792
fälle 47768
Drei 47754
empf@@ 47754
C. 47713
äts@@ 47713
Wohnh@@ 47709
russ@@ 47700
kamp@@ 47692
ards 47688
integri@@ 47682
Git@@ 47677
markt 47656
Nachrich@@ 47655
Dan@@ 47645
Adels@@ 47643
Kalifornien 47637
Nam@@ 47629
endeten 47622
ither 47611
kreuz@@ 47611
alisierung 47609
gener@@ 47608
58 47607
älteren 47607
aufgebaut 47594
una 47591
Lib@@ 47584
klein@@ 47580
73 47578
1890 47558
freie 47550
ofs 47547
Kampf@@ 47541
German@@ 47522
Entstehung 47516
sieb@@ 47502
ucht@@ 47497
Vide@@ 47494
vorsitz@@ 47489
Hockey 47487
Lehre 47473
angegeben 47460
ausgestattet 47452
Vereins 47451
int@@ 47439
53 47438
Vereine 47431
hunder@@ 47404
Sym@@ 47402
Friedens@@ 47401
ursprünglichen 47395
Ath@@ 47385
assi@@ 47384
begannen 47384
hätten 47359
Bah@@ 47347
eland 47346
Zusammen 47336
abteilung 47336
Stahl@@ 47331
Jan 47323
angel@@ 47302
Materi@@ 47296
unteren 47282
Geheim@@ 47256
kreises 47254
Geld@@ 47253
Betrieb@@ 47252
ücksich@@ 47244
Universitäts@@ 47239
Gefäng@@ 47230
opp@@ 47220
trol@@ 47220
verbrachte 47220
Kri@@ 47203
Spann@@ 47197
sy@@ 47193
Figuren 47190
Einheiten 47161
bul@@ 47158
Körper 47136
echnik 47128
Pot@@ 47121
erne@@ 47099
stellten 47098
fahrer 47096
sport 47084
gemeinsamen 47064
Formel 47051
gar 47043
ierungs@@ 47043
bor@@ 47024
gebir@@ 47005
Konzept 47001
kreuz 47000
bit@@ 46994
jur@@ 46983
holt 46982
61 46976
öz@@ 46965
sel 46964
jedes 46959
iller 46957
zerst@@ 46955
ua 46953
zweiter 46945
lager 46940
abgeschlossen 46934
mir 46927
regel@@ 46926
Hall 46925
urg@@ 46920
Kro@@ 46919
ax@@ 46903
Vereins@@ 46881
hinzu 46879
Bezug 46871
aupt@@ 46857
präg@@ 46856
Besuch 46852
Tagen 46851
Stellung 46831
lichem 46828
Santa 46818
Rüc@@ 46804
karriere 46786
licherweise 46785
Eigent@@ 46784
Hart@@ 46760
Status 46751
digungs@@ 46742
Parteien 46734
88 46730
Kontakt 46726
partei 46709
stätten 46709
Gro@@ 46705
Wahlkreis 46696
ō@@ 46681
krieg@@ 46674
Zeiten 46662
67 46656
afen 46655
üs@@ 46634
Ursprüng@@ 46625
ft@@ 46619
späten 46613
jedem 46602
Av@@ 46598
Druck 46588
dortigen 46574
Aufnahmen 46533
Stadion 46519
Rechte 46511
oy@@ 46509
Städten 46496
Jud@@ 46477
kleinere 46469
Chicago 46464
spätere 46464
eröffnete 46449
ehren@@ 46433
fried@@ 46433
ill 46426
Pierre 46418
Mass@@ 46401
beschri@@ 46397
fäh@@ 46387
aup@@ 46385
Kammer@@ 46381
onym 46374
läs@@ 46372
Daraufhin 46365
erne 46365
Schriften 46362
schuf 46360
91 46347
wuch@@ 46340
Schil@@ 46331
Landtag 46329
denkmale 46317
stän@@ 46313
hü@@ 46312
Schwan@@ 46304
meisterschaften 46304
Untersuchungen 46281
Große 46276
Schö@@ 46268
1895 46254
Sur@@ 46242
arg@@ 46238
üssel@@ 46227
alles 46224
befördert 46218
ip@@ 46214
hor@@ 46201
löste 46198
Geist@@ 46184
Sem@@ 46182
Meer 46162
Fu@@ 46160
ime 46139
stehenden 46137
Basel 46133
stern 46126
Zunächst 46117
akt 46115
Heidelberg 46107
spe@@ 46101
Poly@@ 46085
M. 46070
ädagog@@ 46070
esi@@ 46067
Strom@@ 46061
sächsischen 46061
1896 46059
99 46054
Weltr@@ 46039
Ku@@ 46035
mark@@ 46026
Theorie 46025
Rat@@ 46016
vertret@@ 46002
Gau@@ 45999
wur@@ 45993
äte 45986
politisch 45983
ž@@ 45968
bus 45950
entstand@@ 45949
tschech@@ 45949
Neubau 45948
Umwelt@@ 45925
did@@ 45906
Gewer@@ 45903
Vorgäng@@ 45901
psych@@ 45898
Daher 45895
üge 45891
76 45886
stab@@ 45884
con@@ 45879
81 45869
Sab@@ 45869
Fäh@@ 45838
Züge 45834
thode 45828
Meisterschaften 45826
gehör@@ 45826
direktor 45824
boten 45816
affen 45803
verte@@ 45803
Amtszeit 45801
Entscheidung 45800
Todes@@ 45799
spanischen 45796
Association 45792
Sankt 45788
Einwohnerzahl 45783
Prag 45777
ida 45775
Tode 45770
ierter 45756
verschiedener 45755
kosten 45753
Mio. 45748
befes@@ 45738
wakei 45725
1870 45719
erhoben 45718
druc@@ 45708
Hotel 45704
Medizin 45703
uth 45699
Š@@ 45692
NS 45685
Rand 45683
eau 45678
völlig 45674
Original@@ 45661
werte 45661
dokum@@ 45659
lei 45657
geplant 45648
angek@@ 45636
98 45635
ike 45621
schlug 45611
Miner@@ 45606
Heinz 45602
läufer 45602
wieg@@ 45596
griechischen 45592
emann 45589
ieur 45589
üstung 45588
Mannschafts@@ 45583
einzigen 45579
frü@@ 45565
mess@@ 45560
liefert 45536
05 45529
gewäh@@ 45526
kurzen 45513
Boh@@ 45508
fertigt 45504
Rec@@ 45493
Lieder 45474
Magaz@@ 45474
edern 45469
Baur@@ 45468
Werken 45466
beschä@@ 45457
77 45446
wider@@ 45436
ungs 45435
Sieger 45413
Ausland 45412
vorwiegend 45393
Kreuz 45391
Tom@@ 45378
Gericht 45367
High 45366
belieb@@ 45355
Macht 45346
72 45329
Förderung 45322
Prozess 45320
üssen 45316
Archi@@ 45293
1871 45290
Alten@@ 45286
Boden@@ 45277
ism@@ 45272
tiven 45271
Nachbargemeinden 45268
Angriff 45267
beziehungsweise 45248
ötet 45246
1897 45239
Verhältnis 45231
Uni@@ 45220
pfen 45214
ösung 45210
fassung 45197
zusammeng@@ 45186
Will@@ 45175
richtungen 45168
Millimeter 45157
ständen 45154
schätz@@ 45146
Mexiko 45144
sing@@ 45142
achsen 45128
austral@@ 45123
Organ@@ 45117
entdec@@ 45117
wirken 45110
sagen 45088
Petr@@ 45087
isl@@ 45085
red@@ 45078
Sw@@ 45057
unterschiedliche 45040
Him@@ 45031
benutzt 45022
gebil@@ 45007
Lich@@ 44992
si 44978
79 44958
56 44954
DP 44953
Luc@@ 44940
venti@@ 44940
Jakob 44937
itzer 44929
Deutsch@@ 44928
ländische 44927
Entw@@ 44923
04 44910
lar 44904
gute 44900
Institute 44884
20@@ 44883
ban@@ 44882
erter 44880
SE@@ 44879
sive 44867
Abgeordneter 44863
bislang 44859
ela 44833
freund@@ 44830
Physi@@ 44827
Rus@@ 44818
its@@ 44815
atum 44814
ij@@ 44804
Unternehmens@@ 44788
Sul@@ 44781
Nordrhein 44780
dy 44777
ickt 44776
car@@ 44774
vorhand@@ 44723
Fru@@ 44721
Versorg@@ 44664
Herren@@ 44663
üssel 44660
Gott 44644
Mich@@ 44640
Tas@@ 44626
Ebenfalls 44616
.000 44612
küste 44597
ife 44593
volle 44593
verbreit@@ 44592
ott@@ 44585
Beruf 44563
que 44556
Beziehung 44549
werks 44542
liegende 44534
Ägyp@@ 44523
Holz 44516
Ep@@ 44506
Gleichzeitig 44480
esten 44467
Einrichtungen 44458
besitz@@ 44429
forder@@ 44418
verändert 44415
mau@@ 44408
gern 44406
Flor@@ 44402
Elemente 44385
Ble@@ 44379
Archä@@ 44350
Fas@@ 44346
auses 44340
rh@@ 44337
verschw@@ 44335
born 44321
Hein@@ 44311
Figur 44309
tiv 44301
gekommen 44299
ältesten 44297
stands@@ 44279
Mainz 44275
Einrichtung 44266
Reise 44261
akademie 44252
ao 44252
eignet 44248
übrigen 44240
Boot 44238
Abs 44234
Schleswig 44226
efe 44185
Charts 44168
Fak@@ 44155
versehen 44147
Schnit@@ 44145
beschreibt 44137
ilfe 44131
Städ@@ 44128
besser 44125
stärk@@ 44112
Marine 44109
Zustand 44109
Tief@@ 44093
British 44053
schweren 44038
worben 44021
Ras@@ 44015
Hub@@ 44014
All 44010
züge 43998
altete 43996
ppen 43994
erische 43992
fährt 43986
Gruppen@@ 43983
Eg@@ 43965
Dav@@ 43961
86 43958
uter 43957
Komponist 43943
leger 43941
Natur 43939
Fragen 43938
Universitäten 43938
Sehenswürdigkeiten 43933
aktiv@@ 43909
Hot@@ 43890
gesprochen 43889
lecht 43888
erie 43886
getr@@ 43886
Schwerpunkt 43878
Komman@@ 43876
Bistum 43863
hil@@ 43859
Öl@@ 43839
va 43820
Has@@ 43811
graben 43795
apo@@ 43780
Einsatz@@ 43774
Sc@@ 43772
österreichischer 43768
Ähn@@ 43760
Breite 43751
aturen 43738
Tonnen 43731
otz@@ 43731
Arrondissement 43724
à 43719
rek@@ 43711
zuführen 43707
stellungs@@ 43705
üng@@ 43702
Zeitraum 43701
Är@@ 43695
Songs 43691
erinnert 43691
ox@@ 43667
Tie@@ 43654
fassen 43640
Wissenschaften 43639
det@@ 43611
loss 43601
suchen 43599
ez 43539
thoden 43536
Menschen@@ 43523
Studien@@ 43523
wollen 43493
Kommand@@ 43488
Quadrat@@ 43480
Trag@@ 43474
Beam@@ 43461
Start@@ 43453
zentrale 43452
dro@@ 43416
esetzt 43402
78 43398
06 43389
bedeutend@@ 43388
regis@@ 43386
hoher 43384
eign@@ 43378
ißen 43378
Ausstattung 43372
furt 43355
starke 43353
entw@@ 43349
altungs@@ 43343
Kurfür@@ 43329
gering@@ 43313
vorgesehen 43311
Erzäh@@ 43296
laut@@ 43296
ausgel@@ 43290
nieder 43286
Fluss@@ 43275
Franz@@ 43270
zufolge 43270
elli 43261
Misch@@ 43259
Kno@@ 43258
Elektr@@ 43257
ändler 43256
moder@@ 43248
Grafschaft 43242
trop@@ 43233
isen@@ 43231
ame 43228
Handel 43222
Kul@@ 43214
Zahl@@ 43209
2.@@ 43197
Ufer 43192
anc@@ 43185
Bundesrepublik 43181
mögen 43180
aktiven 43179
steine 43178
Gottes@@ 43175
Kie@@ 43168
Klaus 43168
itigen 43165
inde 43161
nannte 43150
erhält 43146
Lake 43140
tens 43130
Vereinigung 43121
astr@@ 43114
fak@@ 43112
gericht@@ 43112
ungefähr 43104
einschließlich 43097
ment 43094
aute 43083
könne 43072
stuhl 43071
stoffe 43059
verurteilt 43055
09 43051
leich 43024
Arts 43019
erweit@@ 43006
iern 43004
Bud@@ 42985
äfte 42979
geb 42972
besetz@@ 42960
Kost@@ 42959
achte 42957
Ring@@ 42955
xe 42949
großes 42937
ello 42919
parallel 42913
Nicht 42901
Ran@@ 42894
agon@@ 42894
atische 42887
Academy 42879
kunft 42874
shaus 42863
nörd@@ 42861
mög@@ 42860
Zugang 42859
Test@@ 42858
68 42856
Entwicklungs@@ 42853
ziger 42842
07 42830
anzu@@ 42828
Mehrheit 42827
Tschech@@ 42818
ulen 42816
grab@@ 42809
inf@@ 42809
Journ@@ 42798
Veranstaltungen 42789
stammen@@ 42785
Maß@@ 42783
Idee 42774
aja 42772
schaffte 42767
Wahlen 42731
Aktivitäten 42695
promovierte 42694
ě@@ 42692
wir 42672
Jap@@ 42670
Kamer@@ 42651
Lebens 42645
entlassen 42641
isation 42629
Monaten 42613
international 42564
1893 42549
fielen 42536
Ausnahme 42534
Minister 42534
Raj@@ 42529
weder 42524
org@@ 42522
84 42519
Jahrhunder@@ 42516
Ruh@@ 42510
1,5 42504
Bischof@@ 42492
Hersteller 42490
Eig@@ 42488
äb@@ 42459
vater 42447
ödie 42438
sein@@ 42434
hand 42428
J 42415
El 42413
Theodor 42399
Entfer@@ 42397
bes 42388
oba@@ 42386
Oper 42379
8,@@ 42378
Braunschweig 42375
gewer@@ 42362
amt@@ 42357
Liz@@ 42348
Gemeindegebiet 42347
Dänemark 42338
Klosters 42326
Pos@@ 42323
Bak@@ 42321
produk@@ 42302
einzelne 42300
Zukun@@ 42296
sexu@@ 42295
besieg@@ 42285
isierten 42278
berichtet 42275
ire 42269
Bernhard 42264
zone 42258
Rheinland 42256
unterscheiden 42247
erreichten 42245
plex 42224
kathol@@ 42220
Wun@@ 42214
konom@@ 42213
verkauf@@ 42210
Final@@ 42207
Flügel@@ 42199
ith@@ 42192
Mak@@ 42188
reichs 42185
minister@@ 42158
Inhalt 42151
nationale 42143
Mir@@ 42140
Gegner 42139
Chr@@ 42138
verpflichtet 42128
abrik 42106
schwier@@ 42102
lem@@ 42100
Regionen 42096
landen 42095
Kurt 42087
wechselt 42087
öffentlich 42078
äußer@@ 42075
Großteil 42069
möglicherweise 42056
1850 42045
Europameisterschaft 42043
Freih@@ 42032
ursprüng@@ 42023
direk@@ 42020
öfe 42007
lande 42003
chern 42001
Brau@@ 41998
Erwäh@@ 41989
anschließ@@ 41982
norweg@@ 41970
urkundlich 41970
Bisch@@ 41960
Struktur 41959
Bekann@@ 41945
brü@@ 41933
92 41922
lierte 41914
Bezir@@ 41913
italien@@ 41878
lis 41877
Weibchen 41876
denden 41873
Türkei 41864
Priv@@ 41844
Phil@@ 41834
59 41817
heil@@ 41807
Töch@@ 41802
kam@@ 41790
betrachtet 41788
Bayerischen 41784
führenden 41769
siedlung 41769
schluss@@ 41765
schaffen 41747
nationaler 41734
Halbinsel 41733
ängt 41733
warf 41732
Infanterie 41724
Schach@@ 41724
³ 41721
periode 41716
sage 41715
versetzt 41715
amkeit 41714
ros@@ 41707
stif@@ 41707
Ruhest@@ 41700
1892 41694
bestätigt 41694
Maur@@ 41692
ießen 41689
kir@@ 41686
Fuß 41684
ima 41683
ganzen 41680
Fällen 41679
Gef@@ 41679
denkmal@@ 41676
Roten 41671
produ@@ 41671
Gott@@ 41667
deutschsprachigen 41664
Initiative 41660
Hard@@ 41656
nennt 41642
Tats@@ 41641
Kongress 41635
dati@@ 41630
dierte 41623
1880 41611
aktionen 41609
tab@@ 41608
eigenes 41582
Aff@@ 41575
Ord@@ 41569
met 41566
zeitweise 41554
Landschaft 41538
Zug 41535
ga 41520
oden 41518
field 41516
Kä@@ 41506
Kommunal@@ 41485
Errichtung 41483
Besitzer 41468
Bern 41463
tik@@ 41461
Tau@@ 41455
Europameisterschaften 41444
geblich 41442
gelegentlich 41432
Amerikan@@ 41421
ater@@ 41413
Fen@@ 41407
technischen 41401
Maßnahmen 41399
öhn@@ 41399
breite 41397
Premier@@ 41396
Vo@@ 41384
Bem@@ 41372
vorher 41363
hy@@ 41361
rest@@ 41358
arab@@ 41354
Struk@@ 41350
regelmäß@@ 41342
ni 41339
ückt 41336
derzeit 41318
Ziel@@ 41316
Label 41305
läuf@@ 41304
iefert 41300
gestell@@ 41295
ässer 41290
Auftrit@@ 41289
damalige 41280
bedingt 41279
gesellschaft@@ 41264
Belgien 41261
Schmidt 41259
Kiel 41257
wirkungen 41246
Ordnung 41242
disch 41241
länge 41239
02 41231
Na@@ 41224
Königin 41223
Ulrich 41220
Bibliothek 41216
Pad@@ 41212
verstor@@ 41212
Preuß@@ 41204
Rezeption 41197
imal 41189
jahren 41188
holz 41179
stieg@@ 41179
fach 41172
Gegen 41170
Hum@@ 41166
Energie 41163
außen 41163
breiten 41159
up 41137
Star 41128
Erzieh@@ 41126
itäts@@ 41123
tors 41106
trags@@ 41102
Vis@@ 41097
Essen 41092
ident@@ 41090
beruh@@ 41078
Wag@@ 41072
SA 41068
iko 41047
Bestandteil 41046
Woiwod@@ 41045
enstein 41044
angew@@ 41041
Len@@ 41005
Gouverneur 41001
tern@@ 41001
Versuch 40985
train@@ 40985
sprach 40979
Linien 40958
einfach 40953
Kind@@ 40951
rift 40925
Ludwig@@ 40921
Gor@@ 40920
blatt 40919
Waff@@ 40914
weich@@ 40912
Volk@@ 40910
Kontr@@ 40896
zieh@@ 40886
kopf 40882
Ehem@@ 40877
Wissenschaft 40877
schot@@ 40876
Veröffentlich@@ 40869
Hafen 40864
Neue 40863
öder@@ 40859
gestellten 40847
Mul@@ 40834
sum@@ 40833
Tun@@ 40829
angebr@@ 40812
bri@@ 40812
anna 40799
Hit@@ 40791
1885 40787
Dir@@ 40786
Konzer@@ 40781
Hilfs@@ 40780
abgel@@ 40776
zweif@@ 40773
manns 40766
lem 40756
hauses 40733
Posi@@ 40722
eim@@ 40718
gänger 40717
weig@@ 40708
schwedischen 40707
Nag@@ 40698
anzen 40689
Diplom@@ 40687
weiß@@ 40674
Baus@@ 40652
Klub 40643
Center 40629
ira 40622
miteinander 40621
Untersuchung 40615
Spezial@@ 40612
Lam@@ 40602
wort 40602
stes 40601
röm@@ 40600
üssig@@ 40571
wert@@ 40566
Leistungs@@ 40561
ekten 40557
Silber 40556
Gebur@@ 40545
Mittel 40541
Studenten 40538
1894 40527
Ritter 40522
änk@@ 40479
Bog@@ 40466
gemeinsame 40434
Bran@@ 40433
erlangte 40430
witz 40428
Bronzemedaille 40419
aller@@ 40413
odi@@ 40411
anfangs 40405
Salzburg 40400
Göttingen 40378
Group 40375
Imp@@ 40365
Metal 40364
ernannte 40364
ief 40360
1888 40347
unabhäng@@ 40338
wahl@@ 40338
lehre 40330
verhaf@@ 40321
Woche 40314
irat 40312
IS@@ 40285
Sendung 40283
Las@@ 40280
schlossen 40275
enhaus 40273
befanden 40266
zunehmen 40265
öße 40262
veränder@@ 40259
Mail@@ 40255
sozialen 40245
lieben 40241
verbindet 40233
theor@@ 40226
Archit@@ 40222
spezif@@ 40222
Wa@@ 40218
ital 40218
Pom@@ 40189
seln 40180
offiziellen 40177
Bul@@ 40143
barer 40141
intensi@@ 40139
Finn@@ 40134
ümer 40115
indest 40114
wer 40109
1889 40101
win 40101
yn 40099
Lot@@ 40095
heiligen 40087
Entscheid@@ 40079
Fertig@@ 40070
1874 40068
Mens@@ 40061
Inner@@ 40057
Küst@@ 40054
anst@@ 40050
Alli@@ 40048
Institu@@ 40046
ändert 40040
Pflanzen 40037
Parall@@ 40033
ermöglicht 40031
fläch@@ 40011
Kriegsende 39996
Science 39988
regul@@ 39985
Gun@@ 39958
Verfassung 39958
erende 39955
tierten 39951
Urs@@ 39934
schulen 39926
dorfer 39925
Aber 39921
andten 39906
natur@@ 39898
stücke 39884
enland 39874
87 39870
Zeichen 39870
enstraße 39857
braun 39851
sekretär 39849
spre@@ 39849
zuz@@ 39843
Football 39841
Vize@@ 39837
normal@@ 39836
Schriftstel@@ 39826
Lü@@ 39817
ehem@@ 39816
H. 39806
cha 39803
Domin@@ 39797
benannte 39797
Generation 39792
deur 39789
angesehen 39785
1930er 39776
ögel 39776
89 39775
fünften 39773
Funktionen 39745
tenden 39740
ift 39737
neg@@ 39735
Thi@@ 39732
1891 39728
Hauses 39727
Pflanzen@@ 39724
ren 39717
Alle@@ 39705
ologisch 39700
ory 39697
Material 39695
druck 39684
ly@@ 39684
weih@@ 39680
öhe 39670
Satz 39666
zweig@@ 39663
Variante 39662
onale 39662
Jazz@@ 39659
zahl@@ 39659
wom@@ 39658
Holstein 39651
itten 39651
Bab@@ 39649
behaup@@ 39648
orn 39642
Flag@@ 39638
lass@@ 39636
Gerhard 39634
popul@@ 39634
ütze 39628
agn@@ 39613
Voraus@@ 39608
yst@@ 39607
mittleren 39602
preuß@@ 39602
D. 39600
endungen 39589
Arthur 39584
Druck@@ 39579
Höch@@ 39573
ausgestr@@ 39566
Chemie 39563
Sicherheit 39554
Gegend 39550
denkmal 39548
Kontrolle 39541
mauer 39538
früh 39531
sagte 39526
Julius 39512
Brasilien 39503
klassischen 39498
bringt 39491
litz 39488
Hav@@ 39478
asen 39476
eil 39472
Küh@@ 39470
riffe 39465
welt 39462
fran@@ 39461
benachbarten 39454
rochen 39453
organis@@ 39451
01 39442
Ortschaften 39440
Preis@@ 39437
usch@@ 39432
iter@@ 39428
op 39415
Log@@ 39404
bewahr@@ 39399
rot 39394
Mutter@@ 39390
erschien@@ 39385
ico 39368
errich@@ 39356
Jac@@ 39348
versorgung 39346
ossen@@ 39333
Kil@@ 39331
gewöhn@@ 39324
vierte 39320
ologi@@ 39319
endgültig 39310
kammer 39306
Diskus@@ 39304
Wör@@ 39292
oslo@@ 39292
ū@@ 39290
Show 39288
Dann 39287
Tran@@ 39286
Arbeiter@@ 39259
å@@ 39253
pa 39248
charakter@@ 39224
mehrerer 39221
Ukraine 39220
darf 39218
Israel 39213
unge 39213
dost@@ 39186
Gewerk@@ 39183
were 39178
och 39165
noten 39163
miss@@ 39157
fiziert 39152
Filmen 39118
Verkehr@@ 39107
Phase 39099
000 39097
low 39096
zin@@ 39096
Stud@@ 39090
Gri@@ 39087
Internationale 39080
Aufenth@@ 39079
Sender 39067
lossenen 39067
Medien@@ 39062
cke 39061
Geleg@@ 39057
bö@@ 39048
Simon 39046
verbandes 39045
Verhäl@@ 39032
Argent@@ 39028
angenommen 39022
Arzt 39011
entsteht 39009
chinesischen 39008
belg@@ 39005
Grab 38998
ting 38998
Smith 38991
ba 38979
Höhen@@ 38978
entation 38975
widmete 38973
sicher 38971
tar 38965
artige 38948
mag@@ 38947
Bundessta@@ 38946
nö@@ 38939
vergeben 38931
räum@@ 38924
Dres@@ 38918
sowjetischen 38918
sert 38914
Produkte 38912
ul 38903
forderte 38898
landes@@ 38897
Wechsel 38895
Gitarr@@ 38887
kapelle 38881
zentralen 38880
Erkenn@@ 38869
Hoff@@ 38861
portugi@@ 38852
Weltcup 38849
Texte 38846
Verletz@@ 38845
bestehenden 38845
Arn@@ 38838
1860 38837
Rab@@ 38837
unabhängig 38835
scheiterte 38817
Nationalsozialismus 38815
Joachim 38809
ont@@ 38809
bestimm@@ 38805
bisherigen 38795
fertiggestellt 38768
mitglieder 38757
person@@ 38751
kus@@ 38748
angeord@@ 38740
industrie 38737
Volkszählung 38731
getragen 38722
Siedlungs@@ 38721
erwäh@@ 38721
Dru@@ 38719
our 38715
klär@@ 38714
oto 38698
geschicht@@ 38696
haup@@ 38691
Bit@@ 38689
Back@@ 38681
bot@@ 38680
Recht@@ 38672
zeitung 38666
NSDAP 38665
Eduard 38663
akteur 38663
schwed@@ 38663
Sav@@ 38658
kontin@@ 38658
hieß 38650
steigen 38643
Unternehmens 38639
Rh@@ 38623
plante 38620
ausbildung 38613
Black 38598
stellvertretender 38585
aspi@@ 38577
ogen@@ 38568
scheint 38553
1879 38551
verhindern 38515
Pel@@ 38509
Interpre@@ 38508
Eishockey@@ 38506
Brenn@@ 38500
Brü@@ 38484
Lan@@ 38479
ebel 38478
Frankfurter 38472
Kader 38468
Pir@@ 38453
tech@@ 38444
mitteln 38419
ye 38417
russische 38415
kilom@@ 38412
ausgeführt 38411
Patienten 38410
Bec@@ 38409
gelangte 38402
1866 38400
offizielle 38399
Orden 38393
bat@@ 38386
tour@@ 38386
traf@@ 38384
errichten 38377
Pfarrei 38376
istischer 38361
AC 38355
Cur@@ 38345
Spieltag 38343
handlung 38343
1500 38325
Rev@@ 38320
shausen 38319
fordert 38314
befind@@ 38313
log@@ 38303
existiert 38296
eter@@ 38295
kow 38290
sper@@ 38284
ny 38271
aul@@ 38267
cu@@ 38266
Schließlich 38257
Gebieten 38252
vers 38251
geriet 38250
kleineren 38249
Rechtsan@@ 38241
Praxis 38219
kurrenz 38212
unterlag 38207
stru@@ 38193
Groß 38191
Pin@@ 38191
entstehen 38187
sofort 38180
ommen@@ 38178
wurf 38166
Industrie 38158
Mu@@ 38153
gehoben 38148
Historiker 38147
äub@@ 38132
hagen 38120
gü@@ 38119
raten 38118
abel 38117
station@@ 38116
herzog@@ 38113
diger 38112
Bass@@ 38110
Einen 38109
trans@@ 38089
oslaw@@ 38088
tiges 38079
wen 38076
Portugal 38068
maßnahmen 38054
Rak@@ 38051
entfer@@ 38050
italienische 38049
Lager 38043
Feld 38037
Beispiele 38036
verurs@@ 38035
Widerstand 38034
eht 38027
üd@@ 38026
guten 38023
Live 38010
bog@@ 38002
nissen 38002
ingen@@ 38001
Auflage 37998
Naturschutzgebiet 37998
erhin 37989
inc@@ 37968
Bay 37959
Vel@@ 37948
feierte 37946
emb@@ 37940
VI@@ 37937
Pod@@ 37930
fasste 37930
Tenn@@ 37925
ergibt 37917
xen 37917
Ful@@ 37914
fähigkeit 37914
manch@@ 37914
aten@@ 37908
Bez@@ 37885
bilder 37880
anger@@ 37878
Paar 37876
bah@@ 37844
eihe 37832
kreis@@ 37816
Gemälde 37808
Konrad 37805
Personen@@ 37798
wirtschaftlich 37797
Krankenhaus 37784
ero 37784
reihe 37770
Charakter 37751
kiert 37745
prüfung 37725
österreichische 37724
britischer 37709
rö@@ 37707
Zusätzlich 37703
Fischer 37699
250 37698
frage 37695
Geburt@@ 37694
untergebracht 37692
körper@@ 37689
klassi@@ 37688
Besonders 37687
Engagement 37685
1875 37677
Repräsentantenhaus 37672
Amateur@@ 37670
ju@@ 37668
ichert 37657
Zust@@ 37644
brücken 37643
imm@@ 37636
rates 37623
Ih@@ 37613
stad@@ 37611
een 37610
tend@@ 37607
Publikum 37605
Super 37596
Anlagen 37594
forderungen 37587
Verhalten 37585
Jan@@ 37584
fabrik 37582
gänge 37580
gesell@@ 37575
law@@ 37570
83 37530
69 37521
Part@@ 37504
Joh@@ 37479
englische 37474
halb@@ 37468
Mühle 37432
Main@@ 37431
Geschäf@@ 37428
weißen 37419
wit@@ 37419
amer@@ 37415
Oberliga 37412
Verantwor@@ 37381
zumeist 37381
Krimin@@ 37354
schiff@@ 37342
Kölner 37341
jeden 37341
ede 37330
spitze 37314
Ero@@ 37313
gül@@ 37309
grä@@ 37306
Plan 37302
organisiert 37296
nun@@ 37290
Milit@@ 37283
Behandlung 37282
Vorbild 37268
Diszipl@@ 37265
komple@@ 37255
eien 37252
gerech@@ 37251
nummer 37247
erinn@@ 37241
9,@@ 37234
Ausdruck 37233
bezogen 37229
Mühl@@ 37222
Kontak@@ 37219
eingel@@ 37210
mar 37210
Peter@@ 37205
debütierte 37200
Verfassungs@@ 37199
Liber@@ 37196
Roman@@ 37191
weiterung 37191
Entdec@@ 37189
gau 37169
Arab@@ 37168
Statisti@@ 37166
Eisenbahn 37162
Ner@@ 37159
mak@@ 37146
Neuen 37141
beck 37141
äuft 37133
äude 37124
ustr@@ 37110
richter 37099
aug@@ 37087
Bibli@@ 37083
klar 37062
rel@@ 37050
Rest 37049
Ski@@ 37035
ence 37022
fördert 37021
1887 37015
dru@@ 37014
Eröffnung 37008
Party 37003
Mitarbeit@@ 37002
gik 37000
Gir@@ 36999
Leichtathle@@ 36999
enso 36998
einheit 36987
zylin@@ 36984
1867 36982
schreibt 36981
Angebot 36959
Jag@@ 36959
Gemeinschaft 36938
icher 36935
Erfahrungen 36934
Č@@ 36931
Schles@@ 36928
Dokument@@ 36917
Journal@@ 36912
Rob@@ 36906
Altar@@ 36889
Operation 36887
Vf@@ 36885
Studio 36880
such@@ 36879
umgebaut 36873
spä@@ 36864
Bib@@ 36862
1886 36859
Entwurf 36855
cho@@ 36840
Dist@@ 36829
Oster@@ 36821
ungst@@ 36819
schä@@ 36815
Lab@@ 36796
illy 36792
Klima 36787
Nomin@@ 36784
bevorzug@@ 36783
by@@ 36755
kais@@ 36753
Krist@@ 36749
Internet 36735
Benedi@@ 36733
polize@@ 36732
bacher 36727
Abr@@ 36720
atik 36695
anstalt 36694
Ah@@ 36692
awa 36690
Alb@@ 36685
Nati@@ 36676
iz 36655
Mik@@ 36642
fun@@ 36635
1920@@ 36627
King 36622
Deutscher 36607
material 36603
müs@@ 36600
Play@@ 36583
Ori@@ 36565
Tim@@ 36565
eme@@ 36560
Rio 36534
val@@ 36533
120 36528
bibliothek 36519
gerichtet 36519
sand@@ 36509
03 36496
Chef 36489
dach 36466
kön@@ 36454
Brand 36449
enge 36443
Wat@@ 36440
W. 36404
fes 36370
Francisco 36356
Reser@@ 36348
emer@@ 36344
bran@@ 36336
Tat@@ 36315
Send@@ 36304
Mang@@ 36292
iger@@ 36267
bli@@ 36259
Pul@@ 36244
Bund 36237
az 36235
Aktiv@@ 36231
Vergang@@ 36231
rats@@ 36227
1872 36226
Friedrich@@ 36225
Sech@@ 36225
dün@@ 36220
ies 36215
Maschinen@@ 36204
mil@@ 36202
brach@@ 36199
Wolf 36175
aux 36175
Ans@@ 36172
Wolf@@ 36144
bestä@@ 36137
owski 36137
97 36136
arden 36133
motor 36128
nden 36124
1884 36123
Neub@@ 36115
bien 36114
Pokal 36100
felder 36096
Mathemati@@ 36094
platte 36073
Laur@@ 36060
enc@@ 36035
Erich 36033
Río 36030
jo@@ 36027
Box@@ 36022
österreich 36017
Religion 36015
ali 36013
Mitt@@ 36011
1873 35991
Metall@@ 35983
Mun@@ 35974
mö@@ 35956
Tanz@@ 35952
eo 35946
langer 35935
sub@@ 35930
1868 35929
ört 35912
Jak@@ 35905
ech 35896
Edward 35883
künst@@ 35882
prot@@ 35872
Sper@@ 35863
arina 35857
Corn@@ 35855
oppel 35854
reit@@ 35851
Ig@@ 35823
Blut@@ 35822
low@@ 35822
ographie 35819
Kontin@@ 35802
klin@@ 35798
Post 35797
Temp@@ 35796
José 35794
bist@@ 35792
ket@@ 35791
figur@@ 35787
uppe 35765
Hon@@ 35759
Software 35734
Künste 35729
adt 35729
Reste 35725
... 35700
elerin 35694
elektron@@ 35686
ender@@ 35683
Franzis@@ 35681
Semin@@ 35668
akter@@ 35668
ian 35635
eber@@ 35633
Direk@@ 35623
aille 35607
seg@@ 35573
feld@@ 35572
Differ@@ 35562
ult@@ 35557
teren 35556
Panzer@@ 35532
hte 35522
trolle 35505
ring@@ 35502
Kob@@ 35493
Quer@@ 35478
Compu@@ 35457
Nar@@ 35450
Adam 35429
Kassel 35422
hig 35412
altungen 35401
onstr@@ 35391
1881 35385
DE@@ 35382
1882 35380
Defin@@ 35352
funk 35331
aden@@ 35329
Loh@@ 35325
Don 35318
Phys@@ 35295
2,5 35291
rein 35275
Gä@@ 35268
PD 35261
Auszeich@@ 35256
gä@@ 35253
dium 35247
enfeld 35231
States 35216
grad 35205
Hau@@ 35202
Herbert 35202
iums 35193
Würzburg 35185
FI@@ 35179
automati@@ 35171
unmittel@@ 35170
anda 35147
schne@@ 35125
10.000 35122
rein@@ 35090
tom@@ 35089
Brut@@ 35076
Dat@@ 35012
aktive 35012
ilig 35007
tem@@ 35003
Eur@@ 34999
liber@@ 34974
É@@ 34954
bauer 34949
Maxim@@ 34944
inal 34938
bach@@ 34900
ständi@@ 34893
ensis 34889
Magdeburg 34865
1883 34859
ics 34845
ott 34844
ais 34840
Asp@@ 34838
zunehmen@@ 34835
atten 34832
1878 34829
interes@@ 34825
Ky@@ 34820
fried 34815
Hun@@ 34813
bisch@@ 34803
Forst@@ 34802
Ka@@ 34792
Route 34767
radi@@ 34756
litt 34754
Bronze 34726
Artiller@@ 34702
schließ@@ 34674
folgen@@ 34661
Premi@@ 34652
zi 34651
Wech@@ 34643
Soh@@ 34635
Street 34617
lug@@ 34610
Waffen 34608
Architek@@ 34593
heimer 34585
Nik@@ 34582
Hus@@ 34574
Probl@@ 34560
tho@@ 34560
nd 34546
rum@@ 34542
moderne 34519
Dau@@ 34518
Skul@@ 34503
Vogel@@ 34499
Trau@@ 34490
sson 34482
Lev@@ 34481
illa 34473
Mikro@@ 34472
Individ@@ 34462
1876 34461
Schrift@@ 34450
fir@@ 34442
Verband@@ 34431
ney 34418
Ta@@ 34408
Neur@@ 34392
1861 34391
sowje@@ 34388
e.@@ 34379
ES@@ 34376
ystem 34372
Jer@@ 34280
Video 34280
ej@@ 34262
örd@@ 34243
pil@@ 34240
gig 34231
go 34224
Proj@@ 34222
ellschaft 34215
Neum@@ 34214
prochen 34214
anders 34210
Problem 34206
ema 34197
Flugzeug@@ 34185
famili@@ 34177
Mob@@ 34173
firma 34161
ity 34158
uen 34158
adel@@ 34148
Chron@@ 34124
ition 34112
Pon@@ 34101
Rah@@ 34082
dner 34081
via 34071
bern 34042
mand@@ 34036
pet@@ 34029
Venedi@@ 34021
po 34016
teri@@ 34003
Rand@@ 34000
arm@@ 33996
gebung 33991
fig@@ 33968
bischof 33948
Synchron@@ 33946
ements 33940
Schaff@@ 33931
mel 33925
bs@@ 33917
Anhalt 33911
kab@@ 33903
mos@@ 33898
Viol@@ 33888
eils 33882
ago@@ 33879
let 33869
Margar@@ 33859
pom@@ 33855
erreich@@ 33851
dik@@ 33844
Mül@@ 33840
1869 33801
atte 33779
Ries@@ 33770
Hem@@ 33764
SP@@ 33757
Vit@@ 33726
DR 33723
France 33709
hr 33708
Fort 33693
Massen@@ 33693
Aachen 33689
dop@@ 33683
Niedersachsen 33673
E. 33657
1864 33636
riff@@ 33629
Red 33614
Jagd@@ 33612
way 33574
itze 33572
Volk 33569
Arz@@ 33566
Stefan 33562
od 33561
ainer 33555
fund@@ 33547
Deleg@@ 33525
bad 33507
Dur@@ 33496
Jürgen 33492
Afrika 33488
kin 33475
ächs@@ 33471
Mary 33461
Leon@@ 33456
olo@@ 33444
höch@@ 33435
Adel@@ 33402
1865 33395
las@@ 33395
wah@@ 33395
kost@@ 33377
ätzlich 33340
pers 33339
attet 33337
Miss@@ 33334
700 33323
Ö 33322
eim 33310
Dev@@ 33309
Programm@@ 33297
scheid 33297
äufig 33292
Tübingen 33290
wang 33282
Regis@@ 33277
Pu@@ 33274
Team@@ 33256
ees 33228
tivi@@ 33218
uv@@ 33210
Chin@@ 33179
mati@@ 33177
1815 33175
3.@@ 33173
Albrecht 33172
Jed@@ 33170
ließ@@ 33154
tener 33154
1862 33153
ots 33150
Div@@ 33129
1877 33116
angeleg@@ 33114
Kanal 33107
tner 33105
Zo@@ 33094
ée 33090
Online 33080
Verd@@ 33080
Prix 33037
Wich@@ 33036
1849 33031
Design 33020
sho@@ 33012
gem 33008
Famili@@ 32994
n. 32994
Nat@@ 32993
Texas 32986
eber 32983
ags 32975
flan@@ 32959
Selb@@ 32953
western 32938
Neustadt 32920
Antonio 32911
DF@@ 32911
gab@@ 32904
Bör@@ 32896
ental 32889
text 32888
Cot@@ 32879
Glau@@ 32873
Thüringen 32872
Graz 32868
Kran@@ 32855
Amsterdam 32841
VP 32832
Vul@@ 32820
Mecklenburg 32817
Regionalliga 32815
insel 32796
baden 32765
appe 32761
ells 32759
üfung 32754
ington 32746
iber 32735
Epis@@ 32730
ames 32704
án 32702
agne 32694
DF 32684
jen@@ 32679
utz 32668
restaur@@ 32663
achtet 32661
mut 32647
ppen@@ 32642
Toch@@ 32632
Dür@@ 32616
strateg@@ 32616
Hä@@ 32603
5.000 32561
halle 32561
phys@@ 32561
erklär@@ 32548
G. 32545
uchs 32541
Partner 32532
Feder@@ 32514
imin@@ 32509
nee 32502
ams 32498
tür@@ 32493
Auto 32490
kW 32488
lo 32464
altar 32423
US@@ 32417
sequ@@ 32401
ear@@ 32394
Wehrmacht 32357
uni@@ 32352
Lee 32351
Ele@@ 32341
gün@@ 32316
kan 32315
ham 32304
isses 32251
Komit@@ 32246
Oh@@ 32242
Müh@@ 32235
verm@@ 32234
autor 32233
erweise 32232
Fres@@ 32216
Mom@@ 32207
ix 32206
uns 32206
verpflich@@ 32193
Karlsruhe 32191
Num@@ 32188
Rud@@ 32183
arre 32183
zust@@ 32173
stedt 32156
e- 32130
Standard 32117
Darmstadt 32116
− 32103
einander@@ 32088
Management 32066
af 32047
ulation 32008
Frank@@ 32007
ji 32007
Ari@@ 31987
eberg 31984
massi@@ 31960
App@@ 31953
Staff@@ 31953
metr@@ 31952
archit@@ 31946
ć 31939
Kongr@@ 31928
Sho@@ 31908
Hugo 31902
Liv@@ 31902
Spek@@ 31899
Rod@@ 31897
KZ 31876
chung 31856
Lon@@ 31849
Co. 31827
wol@@ 31785
com@@ 31763
version 31762
gas@@ 31709
ro 31691
ograph@@ 31667
ink@@ 31666
eta 31660
mol@@ 31654
nec@@ 31650
Cy@@ 31644
Gul@@ 31644
Tom 31638
extr@@ 31637
Mechan@@ 31635
Synagog@@ 31630
ermöglich@@ 31623
ings@@ 31618
ame@@ 31608
Zur@@ 31605
Pro 31604
30@@ 31592
akadem@@ 31592
Hill 31590
Id@@ 31582
verhin@@ 31550
esses 31541
Cer@@ 31521
operation 31513
Mission 31503
Dyn@@ 31485
Da@@ 31461
bün@@ 31456
Minute 31432
Mö@@ 31419
AS 31415
Orch@@ 31397
Exist@@ 31395
tus 31390
Stern 31377
IC@@ 31368
mf@@ 31356
orr@@ 31352
Kug@@ 31350
itäten 31350
enter 31338
Tol@@ 31320
Oscar 31315
transpor@@ 31315
kad@@ 31291
bund 31287
e. 31286
Clu@@ 31258
Promotion 31246
fügt 31244
lock@@ 31221
Baron 31218
lob@@ 31214
individu@@ 31208
other@@ 31194
Al 31192
Pseud@@ 31177
baum 31169
stat@@ 31144
Frag@@ 31136
1863 31124
Klein 31114
landes 31104
Augsburg 31102
gestr@@ 31093
mw@@ 31087
Arti@@ 31083
Peri@@ 31081
digit@@ 31067
da@@ 31057
quad@@ 31053
Best 31052
kale 31052
Trin@@ 31048
eum 31030
Master 31006
Front 31002
ati 31002
Revol@@ 31001
Din@@ 30997
Az@@ 30990
funden 30980
UN@@ 30972
analy@@ 30958
ymnasi@@ 30957
1800 30955
F. 30951
stil 30948
Dun@@ 30919
Kilom@@ 30913
öd@@ 30893
fließ@@ 30890
enne 30889
ätter 30889
R. 30884
Major 30868
Brig@@ 30866
kal 30857
dam@@ 30854
Awards 30851
Van 30843
ants 30829
Astr@@ 30824
Ret@@ 30823
Ensemble 30814
Prinz 30797
kombin@@ 30765
tens@@ 30764
reste 30755
enste 30735
ry 30724
Gör@@ 30719
Eh@@ 30716
fli@@ 30713
Aster@@ 30711
front 30711
Psy@@ 30701
wa@@ 30697
q 30687
Wirt@@ 30665
ron@@ 30646
zel@@ 30643
mund 30630
anger 30616
aven 30616
tes@@ 30613
sertation 30608
Expedition 30606
ical 30582
umb@@ 30573
Pic@@ 30519
Thr@@ 30516
essin 30499
probl@@ 30491
Rock@@ 30487
Fäl@@ 30486
ER@@ 30484
gro@@ 30459
vog@@ 30457
prim@@ 30437
Dial@@ 30434
1856 30424
haber 30421
ska 30409
tam@@ 30406
Co 30404
s. 30398
Force 30393
Gros@@ 30361
idae 30354
Bou@@ 30342
tic 30322
alter@@ 30321
Protest@@ 30315
Eck@@ 30285
einfl@@ 30260
osa 30247
Loc@@ 30231
chien 30230
Cat@@ 30222
Tradi@@ 30220
Kard@@ 30219
Frau@@ 30218
erho@@ 30184
Was@@ 30176
adr@@ 30176
ukrain@@ 30159
Pyr@@ 30156
nde 30150
emie 30147
Boston 30129
tort 30110
horn 30104
Roc@@ 30102
tend 30098
Mart@@ 30096
sal 30096
ín 30092
md@@ 30088
bin 30064
ado 30055
Johann@@ 30049
med@@ 30043
aillon 30030
Je 30022
Vik@@ 30022
big 30021
Konfer@@ 30009
Arm@@ 30005
kum@@ 29997
gesti@@ 29992
apie 29984
gut@@ 29984
geprä@@ 29978
ations 29968
Acker@@ 29955
ison 29953
Cap@@ 29931
ends 29925
lands@@ 29918
chem 29912
Mannheim 29903
atori@@ 29899
Luxemb@@ 29867
mont 29858
arien 29853
CS@@ 29849
usion 29842
Dortmund 29824
inien 29824
Helmut 29820
Meg@@ 29814
Sich@@ 29793
Mind@@ 29769
Ven@@ 29763
Astronom@@ 29762
Systems 29742
Koordin@@ 29738
ibe 29733
peri@@ 29733
w. 29722
chi 29716
Olymp@@ 29713
Register 29709
Play 29697
Run@@ 29692
ilien 29687
1840 29683
well 29670
anze 29663
rom 29663
NGC 29653
region 29651
ild 29615
Lem@@ 29610
Gatt@@ 29608
ila 29604
itation 29603
ury 29599
west 29588
obil@@ 29586
yl 29586
Anth@@ 29551
Rostock 29551
Agr@@ 29539
Bra@@ 29539
pel 29534
preu@@ 29530
Öff@@ 29518
jug@@ 29511
seits 29508
Les 29507
Fro@@ 29490
echn@@ 29476
Service 29473
auto@@ 29466
Hitler 29465
Camp@@ 29464
alis 29460
anus 29430
Form@@ 29423
Breslau 29421
Sebastian 29418
Fun@@ 29408
Barbara 29378
woll@@ 29373
enthal 29364
islam@@ 29360
liger 29351
hielten 29349
Widerst@@ 29345
Nachfol@@ 29342
eri 29336
profession@@ 29327
beit 29324
orden 29323
Jena 29315
Singles 29294
ding 29279
Barcelona 29278
1859 29277
SA@@ 29238
Pand@@ 29231
IN@@ 29221
jahr@@ 29218
Big 29214
ischen@@ 29209
eß 29200
Sus@@ 29198
Diplo@@ 29188
NHL 29185
ution@@ 29179
tic@@ 29175
Mem@@ 29174
khe@@ 29171
öp@@ 29164
aceae 29155
Amerika 29152
Vers@@ 29147
rats 29140
sbach 29138
Williams 29125
Roth@@ 29124
Jones 29121
brasili@@ 29104
Kav@@ 29098
Olden@@ 29071
Leip@@ 29016
private 29016
Tokio 29012
You 28988
1806 28986
gelang@@ 28973
Pow@@ 28972
OS 28966
maximal 28931
rt 28920
wirt@@ 28913
Matthias 28911
glau@@ 28902
Leopold 28899
Himm@@ 28885
ais@@ 28875
out 28872
weiler 28872
ilde 28868
eus 28859
isten@@ 28857
dich@@ 28851
zählung 28849
skir@@ 28846
Lübeck 28831
Jack 28822
Profes@@ 28817
Aur@@ 28812
Int@@ 28804
But@@ 28790
iff 28778
partner 28760
otive 28748
Jug@@ 28733
ib 28731
list@@ 28730
Nikolaus 28728
wood 28725
Columbia 28715
offs 28703
CA@@ 28686
wig 28669
Hay@@ 28651
uld 28635
ham@@ 28620
tier 28612
East 28595
tels 28594
Cu@@ 28591
ades 28590
französ@@ 28577
Vill@@ 28573
Inv@@ 28571
astie 28570
üne 28569
Hag@@ 28555
Geograph@@ 28549
umin@@ 28546
ente@@ 28545
Rit@@ 28542
aria 28536
verd@@ 28532
Schwarz 28531
pon@@ 28526
Mount 28519
Madrid 28509
ake 28502
ito 28490
Corps 28487
ion@@ 28486
ides 28483
alar@@ 28475
eburg 28472
ów 28428
ón 28424
stor@@ 28391
New@@ 28387
ny@@ 28351
FA 28323
stattung 28316
ems 28315
ine@@ 28313
IC 28304
gal@@ 28303
Kern 28292
Var@@ 28285
yg@@ 28271
aph@@ 28261
ausgest@@ 28259
Hohen@@ 28210
Fall@@ 28205
Rü@@ 28203
under 28191
parks 28187
gens 28182
Emil 28169
Bachelor 28167
trum 28162
Fur@@ 28153
Initi@@ 28141
aga 28138
Ring 28119
thal 28101
Inf@@ 28099
Flam@@ 28090
Presse 28082
Jar@@ 28064
sur@@ 28059
Joe 28049
diverse 28046
team 28044
ri 28040
professor 28030
atus 28020
rup@@ 27993
Brown 27982
Wagner 27971
osph@@ 27968
Juan 27932
run@@ 27932
asser 27930
igen@@ 27918
Edel@@ 27901
1855 27888
Stock@@ 27883
1857 27866
Bruch@@ 27834
1854 27827
bol@@ 27799
rik 27799
Albums 27797
1830 27789
Lein@@ 27762
essel 27744
00@@ 27735
eth 27730
IT@@ 27729
parti@@ 27728
pul@@ 27689
P. 27686
troph@@ 27681
Gat@@ 27678
bol 27678
aka 27660
statisti@@ 27647
ganz@@ 27646
Series 27634
Kör@@ 27621
initi@@ 27621
Sl@@ 27616
syn@@ 27602
differ@@ 27596
Dig@@ 27590
Virginia 27588
Arnold 27557
öne 27543
HC 27539
ī@@ 27535
Philosoph@@ 27533
onne 27528
Potsdam 27508
aters 27494
Gottfried 27490
sky 27488
Blo@@ 27487
oma 27482
inus 27481
Meyer 27479
Research 27461
Sir 27460
Strateg@@ 27442
4.@@ 27437
Pek@@ 27430
ög@@ 27426
ão 27425
stellvertret@@ 27419
3000 27413
agr@@ 27397
vo@@ 27395
Bam@@ 27390
European 27377
Navy 27375
Kad@@ 27370
1858 27368
Distrik@@ 27347
biet 27342
zo 27327
Taf@@ 27302
spar@@ 27299
Now@@ 27298
mee 27298
EM 27293
NS@@ 27289
1852 27278
Harry 27278
Jose@@ 27265
bron@@ 27265
Hex@@ 27249
elek@@ 27238
sene 27235
1803 27232
Eind@@ 27231
retär 27216
Integr@@ 27209
sul@@ 27204
etc. 27183
Sold@@ 27182
ächst 27182
put@@ 27178
Telef@@ 27173
Petersburg 27167
Lord 27162
Atlan@@ 27159
Kön@@ 27154
fo@@ 27149
Leib@@ 27140
sang 27138
Love 27130
François 27126
aber@@ 27119
ws 27119
ail 27118
hell@@ 27113
Dieter 27099
angs 27093
sat@@ 27085
Sou@@ 27082
Luz@@ 27080
SSR 27076
fün@@ 27071
able 27069
ous 27066
gli@@ 27050
ple@@ 27044
olen 27037
IV 27025
imb@@ 27020
israel@@ 27020
zin 27017
Monuments 27014
Stro@@ 27010
May@@ 27007
bir@@ 27007
eten@@ 27007
üler@@ 27001
symbol@@ 26999
eilt 26985
g. 26973
Roll@@ 26961
uvor 26959
ardin@@ 26953
Tunnel 26949
RA@@ 26938
real 26933
eich@@ 26928
Florida 26926
Paz@@ 26913
eint 26912
Pav@@ 26899
scher@@ 26890
vention 26887
öf@@ 26883
ania 26882
Yor@@ 26872
Carolina 26863
Nas@@ 26839
Earl 26836
Myth@@ 26833
Blan@@ 26830
One 26828
Bank@@ 26821
ffs 26813
ori 26805
Sex@@ 26794
amerikan@@ 26783
archie 26782
tin@@ 26781
ikal@@ 26779
air@@ 26765
Championship 26759
Innsbruck 26755
Rhy@@ 26742
Mund@@ 26739
iki 26737
Dim@@ 26736
Armen@@ 26724
pot@@ 26723
DVD 26703
ava 26702
materi@@ 26689
endel@@ 26686
fin 26681
athlon 26670
ä 26669
White 26658
dit@@ 26655
frau 26634
schlus@@ 26634
Gil@@ 26622
kum 26611
ova 26611
aku@@ 26607
par 26605
ago 26569
Schneider 26565
Hur@@ 26552
reib@@ 26550
anien 26531
owa 26518
Samuel 26513
att 26486
enstr@@ 26475
ikon 26471
Western 26459
ize 26455
Marin@@ 26452
Schauspi@@ 26452
Park@@ 26450
Schu@@ 26443
Transport 26440
Fab@@ 26435
zusamm@@ 26435
Pet@@ 26432
1845 26427
erfol@@ 26419
agi@@ 26369
Jacques 26360
ameister@@ 26359
Ten@@ 26343
Wales 26328
1818 26325
Original 26319
rand 26315
Analyse 26306
Shi@@ 26294
tun 26283
Disk@@ 26275
su 26270
lein 26265
Felix 26248
gers 26217
ère 26207
iv 26177
gri@@ 26158
gyp@@ 26158
Scott 26150
atin 26133
endi@@ 26133
Anne 26126
ning 26121
Meth@@ 26115
Ken@@ 26113
Dal@@ 26104
Kh@@ 26104
klar@@ 26088
1851 26069
ank@@ 26063
ammer 26048
ßer 26047
Grim@@ 26038
erstr@@ 26038
stag@@ 26024
ʿ@@ 26010
dist@@ 25999
cker 25988
owo 25984
ă@@ 25953
philosoph@@ 25941
iro 25940
cor@@ 25938
sohn 25935
Horst 25928
izen 25917
Jacob 25913
män@@ 25892
Bis@@ 25888
Massachusetts 25880
rang@@ 25878
auspi@@ 25869
äß 25859
Gra@@ 25851
etr@@ 25844
Angeb@@ 25831
AD@@ 25818
ms@@ 25817
AC@@ 25804
aar 25801
Reh@@ 25791
kerung 25791
sons 25782
hardt 25778
uo 25777
tain@@ 25774
1813 25773
Rub@@ 25772
dat@@ 25761
imar@@ 25759
Zuc@@ 25756
Bergen 25753
Giovanni 25742
uy@@ 25730
char@@ 25725
kers 25719
ves 25716
1847 25709
Inst@@ 25701
autor@@ 25688
enfalls 25673
Extr@@ 25665
brand@@ 25665
major 25665
bers 25664
sü@@ 25659
pur@@ 25644
Central 25641
historiques 25637
AM@@ 25635
Pennsylvania 25632
pak@@ 25632
Castle 25631
Spir@@ 25626
geordnet 25618
Erfahr@@ 25614
bo 25607
Klu@@ 25590
L. 25589
iments 25585
test@@ 25580
unds 25577
Army 25570
pri@@ 25570
Rang@@ 25568
king 25544
ave 25542
fru@@ 25532
Nav@@ 25525
Kopen@@ 25524
therap@@ 25520
1816 25519
Dietrich 25513
modern@@ 25511
Trier 25503
Festiv@@ 25498
Lex@@ 25494
Budapest 25491
Symp@@ 25491
verantwor@@ 25476
col@@ 25475
Rosen@@ 25473
dia 25467
1846 25464
Bist@@ 25457
republik 25449
Einwohner@@ 25447
Doktor@@ 25446
Anders 25403
1853 25400
Bill 25389
äche 25378
zar@@ 25372
ring 25345
pap@@ 25337
Cro@@ 25318
kos@@ 25306
Pak@@ 25305
110 25297
Cos@@ 25292
als@@ 25291
rad 25278
acker 25271
sis 25271
etti 25265
kanal 25254
T. 25240
EP 25239
geograph@@ 25237
aki 25227
17@@ 25220
Dag@@ 25216
avier 25214
filme 25210
Verbre@@ 25203
Atel@@ 25192
Blas@@ 25179
Kub@@ 25173
ieur@@ 25155
trom@@ 25150
Gang@@ 25144
don 25119
Ry@@ 25114
aya 25112
rah@@ 25110
Cel@@ 25109
wirtschaft@@ 25105
CD@@ 25094
NR@@ 25093
Span@@ 25092
sun@@ 25088
Leo 25081
Mut@@ 25070
æ@@ 25063
ę@@ 25057
iga 25045
ota 25043
Bag@@ 25040
eder 25029
institu@@ 25028
Wid@@ 25027
fs@@ 25025
lan 25022
St 25008
antwor@@ 24997
Biel@@ 24990
ays 24989
alls 24988
Om@@ 24986
view 24981
Vas@@ 24976
pag@@ 24975
elem@@ 24958
Cou@@ 24931
ec 24924
tha 24915
Verte@@ 24898
š 24898
Linz 24864
10,@@ 24863
Pflanz@@ 24862
lia 24860
São 24857
High@@ 24852
Bronz@@ 24825
sau@@ 24821
Johnson 24812
Fa@@ 24806
hart 24787
losses 24770
Entwickl@@ 24768
Victoria 24766
gan@@ 24759
ares 24755
omen 24741
graph@@ 24738
zustän@@ 24728
graf 24726
Bruno 24710
kup@@ 24692
ý 24683
bestim@@ 24673
André 24660
def@@ 24652
alog 24633
endor@@ 24630
bezieh@@ 24618
ci 24617
aly@@ 24598
eröff@@ 24596
ners 24590
angen@@ 24585
Front@@ 24584
oly@@ 24574
yd@@ 24574
etta 24571
Invest@@ 24570
Chir@@ 24564
Maz@@ 24554
Moritz 24549
Charlotte 24530
Stor@@ 24522
partem@@ 24511
Istanbul 24501
Weimar 24493
häl@@ 24488
Maj@@ 24487
gn@@ 24484
müh@@ 24480
Ca@@ 24475
Song@@ 24474
ș@@ 24465
systemati@@ 24456
Wester@@ 24437
wag@@ 24436
Patri@@ 24427
tol@@ 24424
Fut@@ 24419
Dé@@ 24407
ight 24406
Ford 24401
Weber 24370
diver@@ 24358
Ox@@ 24346
Cour@@ 24339
1814 24338
Cob@@ 24327
Kateg@@ 24323
Kit@@ 24314
Königsberg 24313
Young 24310
enger 24306
Schen@@ 24298
Moh@@ 24294
Highway 24290
Apostol@@ 24279
basis 24270
Ind@@ 24269
tex@@ 24251
Line 24249
mex@@ 24221
mang@@ 24217
teur 24208
Philipp@@ 24201
Tam@@ 24197
ockey 24195
Phot@@ 24191
Sprint 24190
Ž@@ 24187
Emer@@ 24172
Bret@@ 24163
ici@@ 24161
Weltmeister@@ 24153
interpre@@ 24147
AT@@ 24144
ble 24144
Chrom@@ 24141
pert 24125
sym@@ 24111
AN@@ 24101
yc@@ 24098
Jerusalem 24097
ladi@@ 24091
Quart@@ 24086
folg 24080
hi 24077
Mike 24075
aud 24064
gien 24060
ruh@@ 24050
quelle 24034
Sof@@ 24027
ū 24015
ardt 24008
chron@@ 23990
Ohio 23955
mente 23951
aster 23946
Sicher@@ 23944
omb@@ 23936
trach@@ 23931
Davis 23913
eral 23904
tien 23903
post@@ 23899
180 23898
Symb@@ 23878
eget@@ 23865
RE@@ 23858
meter 23841
Hi@@ 23839
Ball 23826
engel@@ 23820
sar 23818
Gab@@ 23816
egen@@ 23811
windig@@ 23807
Rou@@ 23806
DM 23794
fred 23788
Kür@@ 23780
abor@@ 23780
aufhin 23779
Kot@@ 23777
Michel 23772
Hat@@ 23770
Lis@@ 23762
ivi@@ 23760
isa 23741
Lob@@ 23738
Basketball 23734
diplom@@ 23728
ret 23712
ort@@ 23703
igh@@ 23696
Clem@@ 23676
Green 23673
Quar@@ 23672
komit@@ 23670
Af@@ 23661
ram@@ 23658
ores 23645
inas 23642
urger 23634
Hans@@ 23624
Dom 23605
Maximilian 23598
Danz@@ 23593
provin@@ 23593
Heid@@ 23590
Blum@@ 23589
1843 23588
Manager 23584
olle 23580
Eli@@ 23579
Haw@@ 23573
Games 23571
Marx 23569
3,5 23567
ér@@ 23551
First 23544
Engel@@ 23539
1844 23536
Sm@@ 23536
Satell@@ 23535
systems 23529
ativ@@ 23528
etti@@ 23525
gio 23521
rey 23518
Zimmer@@ 23517
Real@@ 23510
ula 23509
Pop 23505
Stam@@ 23493
aro 23486
CO@@ 23484
Code 23481
utes 23480
Dy@@ 23467
einzel@@ 23460
eton 23450
Chile 23442
Horn@@ 23404
ax 23403
strö@@ 23398
bat 23385
plo@@ 23385
5.@@ 23382
Studios 23381
SK 23379
$ 23377
rien 23365
phil@@ 23364
sin 23351
Bezeich@@ 23348
1832 23337
utzt 23331
borg 23322
Stockholm 23321
1835 23309
orthodo@@ 23300
Thor@@ 23295
ensen 23293
Galerie 23282
Henn@@ 23275
Hey@@ 23263
kov@@ 23263
1842 23253
din@@ 23243
Tax@@ 23236
Champions 23233
SS@@ 23204
enr@@ 23204
ó 23201
Luk@@ 23198
Franken@@ 23197
Blue 23195
Council 23195
Zir@@ 23195
lende 23179
Jesus 23177
Renaissance 23170
misch 23167
mitgli@@ 23159
Leich@@ 23152
Beb@@ 23149
Ax@@ 23146
niers 23143
sah@@ 23140
ony@@ 23138
Francis 23135
alom 23131
thin 23123
Eish@@ 23122
Nich@@ 23100
Y 23093
Top@@ 23088
gemeinden 23086
Beau@@ 23079
ido 23061
Reserve 23045
Life 23039
Parlam@@ 23033
Victor 23030
vil@@ 23012
ests 23009
ones 23008
Them@@ 23006
oper 23004
our@@ 22992
beginn@@ 22990
Pra@@ 22966
eke 22958
Buc@@ 22952
Aqu@@ 22947
provis@@ 22947
isburg 22946
hav@@ 22928
ush@@ 22920
opo@@ 22918
Elektron@@ 22916
uba 22914
Kass@@ 22908
# 22907
neter 22899
mi 22897
oid 22892
hom@@ 22885
ingu@@ 22882
Oblast 22876
Scher@@ 22876
ifer 22867
Portu@@ 22862
1837 22861
dis 22860
Bulg@@ 22836
ession 22826
ref 22821
Committee 22801
lie 22801
Keller 22798
teste 22797
Multi@@ 22796
sey 22794
Carlos 22791
gebor@@ 22776
üste 22772
kund@@ 22769
Koch 22760
IN 22736
Henri 22727
12,@@ 22726
” 22718
Bass 22716
zipl@@ 22716
Ostr@@ 22714
Roger 22712
Fon@@ 22698
Bob 22697
ux 22689
tro 22687
40@@ 22675
Alban@@ 22664
Ket@@ 22663
wan 22651
Gang 22644
Mr@@ 22639
5000 22637
isol@@ 22621
Formation 22615
lü@@ 22613
endgül@@ 22606
Blues 22604
Infan@@ 22584
pore 22575
Kus@@ 22561
gelö@@ 22558
Wissen@@ 22553
Sit@@ 22547
California 22537
rich 22536
Bier@@ 22534
Oxford 22525
vel@@ 22521
Ple@@ 22513
Schal@@ 22509
Thür@@ 22509
Dram@@ 22502
Atom@@ 22490
iat 22490
Lav@@ 22487
Bev@@ 22485
any 22481
tru@@ 22481
KG 22473
Patrick 22470
ú@@ 22470
Illinois 22464
eu 22464
Christi 22460
inspir@@ 22459
ew 22457
Trom@@ 22453
1810 22432
Ben 22426
Lands@@ 22426
berge 22425
ecker 22421
Toronto 22417
Nu@@ 22415
spir@@ 22401
By@@ 22391
Brigade 22387
RT@@ 22386
fertig@@ 22377
vis@@ 22377
ate@@ 22363
Hed@@ 22358
dah@@ 22345
imen 22343
brand 22339
Öffent@@ 22338
1838 22334
Fos@@ 22331
Alber@@ 22330
1841 22326
900 22317
ören 22313
thr@@ 22308
Rose 22287
alp@@ 22286
temper@@ 22286
tos 22280
24@@ 22278
Iran 22262
Centre 22245
Sydney 22245
ë@@ 22237
idem@@ 22221
Braun@@ 22204
1839 22203
grub@@ 22202
ätte 22198
Amp@@ 22185
Kali@@ 22184
Max@@ 22179
ymnasium 22172
Akadem@@ 22165
line 22161
ex 22153
ziti@@ 22152
August@@ 22151
protest@@ 22150
Oc@@ 22136
Riv@@ 22133
instrum@@ 22132
Naturschutz@@ 22115
Was 22112
Alt 22107
these 22105
lied 22103
Q 22102
Town 22098
Road 22084
Wind 22079
Arena 22073
quot@@ 22071
Kaf@@ 22070
Fron@@ 22066
gleichnam@@ 22065
Schum@@ 22063
Unterstütz@@ 22062
Galax@@ 22059
Van@@ 22050
oty@@ 22049
Point 22046
Rep@@ 22044
Prom@@ 22042
Clar@@ 22030
oli 22018
Kau@@ 22001
mig@@ 21998
AB@@ 21994
Charl@@ 21991
Spä@@ 21989
Corporation 21979
trophe 21979
bisher@@ 21970
behin@@ 21969
1808 21968
UEFA 21964
Jura 21960
zahlreich@@ 21959
Computer 21949
Rin@@ 21949
eto 21943
124@@ 21942
Hell@@ 21941
ères 21926
immer@@ 21910
1836 21908
offizi@@ 21905
irat@@ 21892
aker 21891
160 21863
last@@ 21852
Sun@@ 21848
onia 21837
Key@@ 21836
1834 21827
uck 21813
D.C. 21794
Rest@@ 21788
Philadelphia 21785
Alex@@ 21780
alia 21780
Chris 21764
ährt 21763
chum 21759
Ali@@ 21755
rain 21747
USD 21744
1821 21725
tra@@ 21706
Parks 21694
Stephan 21692
Gh@@ 21684
ision 21684
1820 21675
Bestand@@ 21674
Intel@@ 21665
Taylor 21654
ains 21648
ön 21644
blo@@ 21639
Me 21632
hang 21631
Wilson 21625
és 21625
orn@@ 21608
chr@@ 21603
SO@@ 21590
astronom@@ 21586
Port 21585
mah@@ 21580
archi@@ 21579
othe@@ 21568
Church 21557
Zar@@ 21538
alan@@ 21537
lit 21532
Untersuch@@ 21522
tot@@ 21518
Test 21512
send@@ 21504
Jubil@@ 21503
obj@@ 21497
mond 21485
deutschsprach@@ 21482
Heb@@ 21480
edt 21479
Ud@@ 21476
respon@@ 21470
uri 21467
Steve 21450
bury 21440
sim@@ 21438
PC 21436
Autonom@@ 21431
Griff@@ 21429
wohner 21428
My 21427
Hollywood 21420
tell 21383
Drama 21367
ander 21350
Dän@@ 21341
Jackson 21324
Orchestra 21324
Sher@@ 21314
iens 21312
ive 21312
cio 21311
konfer@@ 21309
Hyp@@ 21305
ident 21305
IS 21296
avi@@ 21281
nü@@ 21277
uk 21270
rhein 21269
bandes 21258
gö@@ 21240
mo 21236
urn@@ 21231
magaz@@ 21230
entit@@ 21220
ace 21218
gres@@ 21218
Times 21216
Audi@@ 21213
saison 21212
Lou@@ 21203
Lac@@ 21200
Nation@@ 21198
Wah@@ 21198
mobili@@ 21197
eman 21195
CH@@ 21194
Kok@@ 21169
onz@@ 21139
Ay@@ 21130
Kru@@ 21130
ous@@ 21127
hn@@ 21122
schri@@ 21112
130 21110
ATP 21107
100.000 21093
Sophie 21091
COVID 21087
Zone 21085
dav@@ 21077
Whit@@ 21071
mathemati@@ 21066
Ci@@ 21065
Ped@@ 21061
xi@@ 21061
Coun@@ 21057
Had@@ 21052
urgie 21047
unger 21041
füg@@ 21036
hem 21018
eles 21015
ami 21013
hung 21003
Windows 21002
X. 20999
FK 20993
Sciences 20977
1831 20944
Antar@@ 20941
mers 20927
ails 20926
Donn@@ 20919
sächs@@ 20919
oo 20915
enl@@ 20909
hep@@ 20904
Ga@@ 20902
Christi@@ 20900
1828 20880
Goethe 20878
beschreib@@ 20873
Juli@@ 20856
if 20855
jo 20855
NO@@ 20851
11,@@ 20844
resul@@ 20844
bi 20833
Lewis 20826
tenstein 20808
Cambridge 20799
Luftwaffe 20796
Identi@@ 20791
tari@@ 20782
IM@@ 20779
AL@@ 20774
Unterneh@@ 20770
vit@@ 20766
Media 20754
Sax@@ 20742
beleg@@ 20742
deg@@ 20740
Training 20734
go@@ 20718
ßen@@ 20718
Wend@@ 20708
UN 20700
k. 20697
urs@@ 20695
1812 20694
Pur@@ 20688
Rav@@ 20669
Jersey 20666
has@@ 20646
Osman@@ 20626
worth 20626
MS 20624
1200 20614
tili@@ 20605
kins 20601
din 20594
Oliver 20591
ungsweise 20589
Stan@@ 20581
wall 20579
pers@@ 20570
hau@@ 20543
Illustr@@ 20540
Gam@@ 20538
row 20526
Douglas 20521
now@@ 20520
küm@@ 20519
real@@ 20513
Mid@@ 20499
Fah@@ 20494
cir@@ 20487
Human@@ 20484
DC 20481
Women 20475
1817 20469
Benjamin 20469
140 20468
Challenger 20465
tori@@ 20451
Ever@@ 20449
dungs@@ 20448
rieben 20444
Tony 20442
Kult@@ 20429
aire 20427
orie 20420
ators 20418
Bras@@ 20397
num@@ 20397
pat@@ 20397
Basket@@ 20394
Soc@@ 20393
iment 20391
Ses@@ 20381
ami@@ 20377
â@@ 20373
frequ@@ 20370
industri@@ 20370
stadi@@ 20363
Anton@@ 20352
ls@@ 20348
swe@@ 20342
Gos@@ 20340
DJ 20332
Monum@@ 20332
Nic@@ 20326
1833 20324
illon 20324
traße 20316
Cros@@ 20312
vent@@ 20301
illi 20288
Naz@@ 20280
portal 20256
universit@@ 20247
fur@@ 20245
Seh@@ 20242
iner@@ 20240
streng@@ 20235
Serge@@ 20225
Program@@ 20220
Let@@ 20219
6.@@ 20214
Ash@@ 20209
oi 20198
Stars 20194
itu@@ 20191
alition 20190
ish 20186
ilit@@ 20181
sour@@ 20161
chil@@ 20151
tation 20145
cho 20136
arl@@ 20127
K. 20121
Format 20110
ement@@ 20110
ttem@@ 20108
mm@@ 20100
eur 20099
Put@@ 20097
Sib@@ 20097
DS 20090
ouver@@ 20090
dram@@ 20089
Wh@@ 20086
Vic@@ 20079
ð@@ 20056
orum 20055
imp@@ 20046
gend@@ 20007
Schließ@@ 20006
vas@@ 20004
1825 19997
opa 19993
Haut 19988
git@@ 19974
Ass@@ 19972
Journal 19962
Cast@@ 19960
AN 19958
entes 19958
Hür@@ 19945
HL 19926
Univers@@ 19920
Bauer 19908
Nob@@ 19893
pend@@ 19892
bad@@ 19887
kow@@ 19884
spor@@ 19880
Dunk@@ 19879
fusion@@ 19875
Real 19852
assist@@ 19850
abrik@@ 19849
13,@@ 19846
Bonn@@ 19845
half 19841
partner@@ 19837
Franc@@ 19830
ī 19828
nch@@ 19820
DV@@ 19818
fan@@ 19814
Dep@@ 19811
Shar@@ 19810
Gall@@ 19784
Eva 19764
olo 19755
20.000 19753
Hung@@ 19753
Dame 19750
mith@@ 19738
eur@@ 19729
Cop@@ 19728
Alternative 19715
aster@@ 19715
Luci@@ 19703
Gn@@ 19684
Plas@@ 19680
BB 19678
Ferr@@ 19673
Val 19670
atten@@ 19667
1809 19645
shire 19642
Dik@@ 19640
qui@@ 19634
oms 19630
án@@ 19617
Fac@@ 19614
neur@@ 19612
aun 19611
oe 19608
11@@ 19595
DB 19591
Ji@@ 19588
ili 19549
Grupp@@ 19543
0,5 19541
Niv@@ 19538
Krak@@ 19522
esia 19505
Zah@@ 19487
Nikol@@ 19478
Aer@@ 19476
Result@@ 19471
oti@@ 19470
25@@ 19455
Sup@@ 19452
Hydro@@ 19445
han 19441
oa 19439
Mix@@ 19437
Information 19436
1807 19424
Hoffmann 19413
Adol@@ 19400
Sinf@@ 19398
aud@@ 19397
krist@@ 19392
Neg@@ 19388
Nassau 19384
Bour@@ 19378
350 19374
stock 19368
inform@@ 19363
ą@@ 19360
Dah@@ 19349
Beispi@@ 19345
Bron@@ 19341
1824 19337
icz 19336
Bedeut@@ 19333
my@@ 19332
lav 19330
mine 19327
Mario 19314
resse 19307
treff@@ 19303
Steph@@ 19299
ept 19298
Andrew 19288
Valley 19287
Fellow 19283
andlung 19279
Kuh@@ 19273
AP@@ 19269
Stadi@@ 19269
jan 19264
perf@@ 19262
argent@@ 19260
Hop@@ 19254
quartier 19237
Dou@@ 19236
1826 19232
onte 19228
Sec@@ 19227
1798 19219
Boy@@ 19217
Flora 19216
bring@@ 19210
Faus@@ 19201
Gur@@ 19183
Konservat@@ 19180
Andr@@ 19170
uma 19167
udi@@ 19159
aches 19153
Hammer@@ 19142
heu@@ 19142
ele@@ 19141
band@@ 19124
Marc 19123
1829 19111
rat@@ 19110
Draft 19106
geleit@@ 19103
Eugen 19096
200@@ 19091
anci@@ 19087
prom@@ 19087
Marathon 19086
ár@@ 19080
Edition 19078
islat@@ 19078
Py@@ 19071
Hann@@ 19061
Basil@@ 19052
1822 19045
iy@@ 19042
Programme 19032
dien 19023
VA 19005
Gabriel 18993
Norweg@@ 18992
9.@@ 18990
Sep@@ 18990
phy@@ 18986
Hak@@ 18979
Bell@@ 18950
kis@@ 18935
Chap@@ 18920
wech@@ 18915
Apos@@ 18900
gi 18897
Eu@@ 18894
Hamilton 18891
MA 18886
ament@@ 18884
bloc@@ 18882
ST@@ 18881
cal@@ 18871
AB 18868
Musical 18866
Bac@@ 18848
Alexand@@ 18838
America 18835
Doktor 18835
physi@@ 18832
neutr@@ 18817
Manuel 18816
Zun@@ 18813
ped@@ 18805
festival 18797
hn 18797
Express 18779
26@@ 18778
50@@ 18778
Amer@@ 18777
mens@@ 18776
Adler 18772
na@@ 18767
iven 18766
Great 18762
aison 18756
Nation 18749
ites 18739
reser@@ 18736
Wood@@ 18735
cr@@ 18729
Tw@@ 18703
otyp@@ 18700
IT 18693
1802 18692
Pfar@@ 18691
ekt@@ 18689
Meh@@ 18672
1819 18665
präsent@@ 18658
Golden 18652
1811 18644
lösung 18636
→ 18634
bis@@ 18628
rate 18626
cin@@ 18620
BA 18610
7.@@ 18588
schild 18584
RT 18583
phon@@ 18579
gas 18570
Mig@@ 18557
Act 18542
vo 18534
A.@@ 18531
€ 18519
Ek@@ 18518
Stir@@ 18510
rig@@ 18504
Sound 18499
Hit 18487
pot 18486
sius 18479
can@@ 18478
event@@ 18478
Mill@@ 18472
Nec@@ 18468
lub 18461
Railway 18458
Oli@@ 18456
tell@@ 18450
oth 18443
management 18442
Bow@@ 18436
Alternati@@ 18432
ank 18432
Ex 18422
Carlo 18418
Barth@@ 18415
ede@@ 18408
sul 18408
over 18403
Claude 18398
ids 18395
iefer@@ 18394
Ali 18383
ink 18381
125 18366
sak@@ 18366
Islam@@ 18346
debü@@ 18342
18@@ 18339
Benz@@ 18335
essor 18324
ph 18324
Out@@ 18318
vent 18311
ö 18311
Beach 18303
omer@@ 18302
ätten 18299
Fest 18297
gros@@ 18282
falz 18281
Bres@@ 18273
RS 18266
bru@@ 18263
Premier 18255
öt@@ 18249
sters 18245
vin@@ 18245
Angel@@ 18242
part@@ 18228
semin@@ 18228
1827 18223
Saf@@ 18219
osp@@ 18215
may@@ 18212
Waf@@ 18204
porter 18201
UNESCO 18200
Time 18196
Nad@@ 18186
dan 18186
Analy@@ 18179
1801 18169
kend@@ 18143
ords 18142
pin@@ 18134
Argum@@ 18132
Nicol@@ 18127
dynam@@ 18124
Monte 18119
Micha@@ 18116
DNA 18114
1805 18100
Andre@@ 18096
division 18096
itor 18094
urkund@@ 18093
trau@@ 18083
Prince 18076
TE@@ 18067
som@@ 18056
Elizabeth 18053
lau 18050
Metro@@ 18038
etto 18035
27@@ 18032
alie 18026
1804 18015
club 18015
Eric 18013
NBA 18010
Stic@@ 17996
Historic 17990
elius 17990
Day 17983
Black@@ 17980
NATO 17977
lip@@ 17973
Zentim@@ 17969
nes@@ 17969
Mosk@@ 17967
Sens@@ 17967
Pass 17964
tek@@ 17963
ński 17958
german@@ 17957
Blin@@ 17956
Tennis 17950
Schrö@@ 17945
ubil@@ 17931
Creek 17925
Roland 17924
Little 17922
1793 17918
Harvard 17916
EG 17914
Pier@@ 17910
ör 17908
Nürn@@ 17901
Bin@@ 17900
winner 17897
ś@@ 17897
Golf 17894
inter 17878
pedi@@ 17878
Tap@@ 17874
Wik@@ 17866
site 17862
rol 17858
Flo@@ 17851
kil@@ 17847
gan 17843
ky@@ 17823
mens 17823
Lyon 17815
ull 17815
Rosa 17809
pack@@ 17809
FF@@ 17808
ense 17791
Ort@@ 17783
della 17782
It 17775
Ny@@ 17773
Hob@@ 17770
esa 17766
Pub@@ 17765
8.@@ 17759
reak@@ 17757
tia 17751
Sud@@ 17750
1,2 17749
rak@@ 17746
vat@@ 17743
She@@ 17742
LP 17737
court 17732
renom@@ 17731
ston 17718
pper 17714
Manchester 17710
diglich 17710
Lud@@ 17705
arren 17703
dot@@ 17694
Gum@@ 17693
It@@ 17691
imit@@ 17677
scheit@@ 17669
194@@ 17665
Barr@@ 17665
Hong@@ 17661
ario 17660
sign@@ 17655
ho 17649
nommen 17648
hydr@@ 17646
ube 17646
tit@@ 17645
rekt@@ 17642
grup@@ 17640
utt@@ 17640
Cav@@ 17614
Wed@@ 17614
law 17614
kub@@ 17612
Eröff@@ 17611
Georges 17611
besa@@ 17601
Scor@@ 17592
ope 17591
seig@@ 17587
Michigan 17585
eser@@ 17584
Janeiro 17583
Mam@@ 17582
tron@@ 17581
PC@@ 17580
Witt@@ 17580
Foundation 17571
cl@@ 17571
ols 17568
lins 17566
arius 17563
lus 17562
feder@@ 17560
Andrea 17546
atom@@ 17544
por 17543
icus 17537
not 17531
Personal 17529
duk@@ 17527
adem@@ 17516
omo 17514
ickl@@ 17513
Testament 17507
attr@@ 17507
Falls 17499
iment@@ 17490
messer 17480
ès 17480
Maschin@@ 17457
1823 17454
inski 17447
Vin@@ 17445
1600 17444
ista 17439
Fig@@ 17435
jan@@ 17415
BBC 17402
Donald 17401
onom@@ 17401
Miller 17399
Alg@@ 17385
revol@@ 17359
esk@@ 17358
dit 17356
Wis@@ 17342
14,@@ 17335
stati@@ 17326
positive 17323
trix 17323
Gan@@ 17320
Dop@@ 17316
energ@@ 17315
28@@ 17302
Law@@ 17300
amo 17295
sende 17292
obach@@ 17289
ovice 17286
Palais 17285
Wap@@ 17282
Zür@@ 17281
lock 17274
Model 17268
trich@@ 17262
lanzen 17261
Township 17258
Alex 17250
Sand 17243
edo 17241
Hospital 17235
60@@ 17230
Conn@@ 17226
ops 17221
Isra@@ 17219
ias 17214
azar@@ 17213
ried 17213
Fiction 17207
ular 17207
obi@@ 17198
Europe 17195
Anthony 17192
deck 17192
ariat 17186
tüm@@ 17183
Country 17180
Costa 17178
stig@@ 17176
Kum@@ 17174
tica 17173
Business 17172
Nacional 17163
TA 17163
ps@@ 17161
non 17159
ero@@ 17158
arte 17139
Bernard 17135
ual 17131
Anim@@ 17125
Termin@@ 17116
10.@@ 17112
anner 17112
ries@@ 17105
büt@@ 17103
Deut@@ 17098
Holland 17098
adier 17097
Allen 17095
stabil@@ 17094
such 17094
ostr@@ 17091
Racing 17087
Napoleon 17086
vin 17077
OR@@ 17074
Lady 17071
Elem@@ 17066
ever@@ 17065
ron 17060
ministers 17056
asser@@ 17050
human@@ 17049
Air@@ 17045
engel 17041
Over@@ 17036
Kim 17027
osom@@ 17026
test 17016
union 17012
Forum 17003
fotograf@@ 16998
Honor@@ 16996
District 16992
XV@@ 16992
eli 16992
PS@@ 16983
Fav@@ 16975
Od@@ 16972
War 16967
semb@@ 16962
1700 16955
Hut@@ 16948
Boc@@ 16946
Luther 16943
amer 16942
pt 16940
Minnesota 16936
Stephen 16934
ieder 16929
Jim 16927
samen 16923
time 16922
ini@@ 16910
vir@@ 16907
Verfass@@ 16900
rist@@ 16882
Luis 16881
seur 16877
kmale 16870
ogo 16860
ü 16857
uelle 16848
lard 16847
Marcus 16841
Suc@@ 16839
ness 16829
HK 16819
wich 16816
Bridge 16813
Afrik@@ 16810
BC 16807
stands 16806
Tari@@ 16799
ík 16791
Rog@@ 16789
plant@@ 16784
ige@@ 16783
br 16769
inos 16769
Innov@@ 16768
omp@@ 16768
Episode 16764
ehir@@ 16761
koordin@@ 16758
erry 16757
orb@@ 16757
Louise 16756
Port@@ 16746
ku 16743
Philos@@ 16739
ology 16734
23@@ 16722
charts 16716
Aires 16715
tas@@ 16715
Mant@@ 16710
bek 16709
Kes@@ 16704
minton 16697
kop 16692
ye@@ 16688
prop@@ 16687
tiz 16667
Leopol@@ 16662
God@@ 16660
Power 16658
Vie@@ 16653
Green@@ 16648
Grande 16642
Thailand 16642
maximale 16642
meng@@ 16626
arium 16625
more 16625
äischen 16607
Long 16603
patr@@ 16591
onius 16590
refer@@ 16587
Jen@@ 16585
fa@@ 16585
Free 16577
Til@@ 16575
ensus 16575
zant@@ 16566
Oslo 16563
Buenos 16562
Philharmon@@ 16557
Tum@@ 16547
Turin 16547
Dog@@ 16544
Horn 16542
Becker 16538
Marqu@@ 16533
pok@@ 16533
andinav@@ 16514
Pit@@ 16505
ual@@ 16505
Lus@@ 16489
Islam 16484
modi@@ 16481
Konstantin@@ 16479
istan 16474
Airport 16469
ffer@@ 16463
neb@@ 16460
Yam@@ 16453
Pedro 16451
adi 16446
ør@@ 16442
Conrad 16432
Well@@ 16428
male 16423
Euro@@ 16418
ME@@ 16415
Lak@@ 16408
Hang@@ 16403
Julia 16386
1794 16383
aven@@ 16383
regional 16383
Cli@@ 16375
Och@@ 16374
itter 16370
ý@@ 16369
arm 16367
Long@@ 16361
Sam 16347
Harmon@@ 16337
pol 16335
120@@ 16319
yan@@ 16318
Wy@@ 16316
Queen 16308
Bus 16298
4,5 16297
asa 16297
wind@@ 16296
verheirat@@ 16294
investi@@ 16288
Nick@@ 16286
Düssel@@ 16285
Boul@@ 16284
IO@@ 16269
promin@@ 16269
mem@@ 16266
ebo@@ 16262
hur@@ 16262
ois 16254
atra 16252
chef 16251
Senator 16247
same 16247
č 16244
beli@@ 16238
with 16237
nich@@ 16235
Pion@@ 16233
etts 16232
dex 16230
journ@@ 16226
Alice 16223
orian 16211
anal@@ 16208
ban 16199
benachbar@@ 16191
codice 16190
Mord@@ 16189
prob@@ 16180
Turn@@ 16176
apo 16169
Tul@@ 16166
Stutt@@ 16161
Theatre 16160
FF 16158
Kari@@ 16156
ummer 16154
pos 16153
lug 16150
signi@@ 16149
vik@@ 16147
dol@@ 16143
Humboldt 16142
René 16142
axis 16142
Kong@@ 16139
Mans@@ 16139
ues 16139
eds 16134
80@@ 16133
detail@@ 16133
ric@@ 16123
Entsteh@@ 16112
NFL 16108
bon@@ 16101
experiment@@ 16101
Howard 16092
own 16084
Paulo 16072
CE@@ 16070
show 16068
BMW 16067
ley@@ 16065
poly@@ 16064
Helsinki 16057
air 16055
polis 16050
öl 16049
video 16047
SW@@ 16034
Cle@@ 16028
annes 16016
1790 16007
kent@@ 16007
unc@@ 16006
dri@@ 16005
Nak@@ 16003
Cab@@ 16002
eser 15998
arz@@ 15997
onyme 15994
separ@@ 15988
Ré@@ 15986
intel@@ 15981
aqu@@ 15976
analyse 15959
k.@@ 15953
sher@@ 15937
Mé@@ 15936
Game 15935
Francesco 15919
harmon@@ 15917
emper@@ 15914
Brian 15913
Ray 15912
Schrif@@ 15912
Phar@@ 15904
Lap@@ 15898
1792 15894
biet@@ 15883
reine 15881
amente 15880
ault 15876
Glasgow 15865
ský 15859
cup 15855
stütz@@ 15853
Telek@@ 15841
Hain@@ 15839
CA 15824
ET@@ 15824
Mercedes 15817
key 15817
bos@@ 15809
Cad@@ 15794
ław 15794
Liter@@ 15789
Reform 15787
thiop@@ 15778
1.000 15771
get 15768
olith@@ 15768
rid 15765
dom@@ 15756
zwöl@@ 15756
AF 15747
revolution 15747
Sag@@ 15719
Stadium 15718
Gregor 15717
Peru 15704
lum 15704
aat 15702
Montreal 15698
thal@@ 15696
Lamp@@ 15685
onds 15682
vul@@ 15681
dei 15669
tir@@ 15669
aer 15665
Georgia 15648
illi@@ 15644
Eul@@ 15639
Loire 15639
170 15638
1789 15632
Path@@ 15628
ude 15626
siv@@ 15615
Indon@@ 15606
1797 15604
Ross 15604
Block 15600
aci@@ 15598
ept@@ 15594
bra@@ 15573
Stal@@ 15570
zit@@ 15566
North@@ 15564
ash 15563
DE 15555
Jas@@ 15551
gru@@ 15549
Cent@@ 15547
ka@@ 15543
tre 15541
oux 15526
Stap@@ 15525
Sports 15524
0.@@ 15518
2.000 15517
aha 15517
acc@@ 15506
Arg@@ 15505
Partn@@ 15503
Sog@@ 15492
Dic@@ 15487
chel@@ 15481
esi 15473
MP@@ 15472
Dick@@ 15461
iff@@ 15458
Los@@ 15456
Gordon 15454
österreich@@ 15442
mobil@@ 15440
\ 15429
sc@@ 15426
Nationale 15423
Fabr@@ 15422
Junior 15421
lieder 15420
Stanley 15416
Observat@@ 15410
Alan 15405
tional 15395
iler@@ 15394
Ric@@ 15392
efs 15390
Raf@@ 15383
age@@ 15365
azi@@ 15365
bom@@ 15365
origin@@ 15363
nheim 15359
Mong@@ 15356
amik 15354
omin@@ 15350
Admiral 15349
shu@@ 15349
Australian 15344
sec@@ 15342
poem 15330
aver 15327
müc@@ 15327
Cous@@ 15324
optim@@ 15321
zun@@ 15318
Cru@@ 15311
Las 15310
No 15302
ival@@ 15298
Fame 15297
Ler@@ 15293
Nau@@ 15290
ellip@@ 15286
atu@@ 15281
Santiago 15270
dir@@ 15268
Bar 15267
enor@@ 15265
cus 15263
idi 15258
AI@@ 15251
Ruf@@ 15251
nam 15250
Index 15246
Neus@@ 15232
Ontario 15213
was@@ 15212
BM@@ 15209
illo 15206
hol 15200
Abraham 15191
Mäd@@ 15191
programme 15189
Panzer 15188
Jah@@ 15181
én@@ 15180
RA 15174
IP 15169
dos 15165
lieb 15159
terie 15154
Tim 15151
lio 15143
NE@@ 15137
LE@@ 15133
Edinburgh 15131
Suff@@ 15130
ome@@ 15128
elen@@ 15122
119@@ 15117
onnen 15117
Hamb@@ 15114
eira 15113
Hyper@@ 15111
Austria 15110
aro@@ 15091
PA 15090
Sarah 15089
til 15089
Diego 15088
ouvern@@ 15058
acks 15057
Philip 15051
estad@@ 15043
Gy@@ 15042
leg 15041
lon 15039
Manche 15037
nomin@@ 15036
Marco 15035
Maurice 15032
itas 15030
Beth@@ 15026
Param@@ 15016
enko 15013
Christopher 15011
old@@ 15005
Entertainment 15004
Lip@@ 15003
core 14999
Lug@@ 14997
Administr@@ 14993
Bug@@ 14988
ado@@ 14988
tom 14988
Colorado 14987
Cha@@ 14986
phe 14983
Afr@@ 14979
itr@@ 14961
bie 14960
Dynam@@ 14956
Eil@@ 14954
tü@@ 14948
Hits 14938
Hass@@ 14935
marine 14931
imi 14927
Fast 14926
Old 14924
Lah@@ 14922
ep 14922
chir@@ 14921
enta 14917
16,@@ 14913
Missouri 14912
fres@@ 14912
back 14908
rif@@ 14901
quar@@ 14898
Hind@@ 14891
Continental 14886
rü@@ 14879
sula 14873
geometr@@ 14868
ento 14862
Dob@@ 14860
DA 14852
Sun 14846
box@@ 14842
verse 14837
Technology 14827
programm@@ 14821
motor@@ 14818
kes@@ 14803
Pius 14802
Pep@@ 14798
ji@@ 14794
app 14791
ological 14779
7,5 14778
Hos@@ 14773
Pati@@ 14773
Ferrari 14761
toire 14761
RI@@ 14758
Lov@@ 14757
Bob@@ 14749
Duke 14745
inten@@ 14742
Gren@@ 14736
Tou@@ 14734
Mountains 14733
105 14732
mül@@ 14730
weile 14725
auss 14722
Fred 14720
Nikolai 14720
EC 14715
aba 14714
Public 14711
asi 14709
aine 14707
Night 14706
Sir@@ 14704
Mr. 14690
Adams 14688
perte 14687
Tos@@ 14683
try 14675
ettin 14664
ED@@ 14662
Cir@@ 14660
Vincent 14658
dirig@@ 14651
rop@@ 14649
Borussia 14648
aft@@ 14646
UK 14644
ads 14643
armen@@ 14642
Johnny 14639
Space 14633
Campus 14630
ović 14629
post 14627
ond 14623
Death 14620
hafen 14609
Ł@@ 14608
ward 14607
15,@@ 14606
Deg@@ 14606
ind 14599
manche 14598
Dum@@ 14596
Aber@@ 14590
Sed@@ 14582
cer@@ 14579
erlang@@ 14570
ension 14567
esta 14563
Antarc@@ 14562
kov 14562
U.S. 14561
Freder@@ 14560
till@@ 14560
Kün@@ 14559
Airlines 14538
nar@@ 14531
Order 14520
onder@@ 14520
stuh@@ 14511
1799 14506
HP 14506
igr@@ 14505
live 14501
Spring@@ 14500
jewe@@ 14498
fug@@ 14495
mid 14489
einte 14486
eni 14485
Court 14480
Dani@@ 14479
Clark 14478
Ale@@ 14477
cz@@ 14475
Alp@@ 14468
Lausanne 14467
Sno@@ 14456
Lec@@ 14449
ustri@@ 14448
Fem@@ 14447
sens 14445
DO@@ 14443
Cul@@ 14435
oko 14434
program@@ 14434
Giuseppe 14429
olf 14424
gesam@@ 14417
Jimmy 14410
Biographie 14409
Board 14406
Law 14403
Chief 14399
Anti 14396
Lach@@ 14396
Moore 14392
Repräsent@@ 14390
Anderson 14384
ware 14374
Hydr@@ 14367
con 14367
Solo 14366
arri@@ 14352
SR 14343
ț@@ 14331
Kansas 14328
any@@ 14322
iles 14320
manuel 14319
Rost@@ 14318
Us@@ 14316
Mayer 14314
lois 14304
chwitz 14300
cas@@ 14299
101 14297
eld@@ 14295
abri@@ 14284
nat@@ 14276
Hammer 14272
ante@@ 14269
anon 14259
ando 14255
Stock 14254
USS 14254
verschi@@ 14252
heirat@@ 14248
Belgrad 14247
Grav@@ 14246
lat 14239
sle@@ 14225
Vati@@ 14223
LA 14214
Cham@@ 14210
ix@@ 14207
Glo@@ 14200
450 14197
Thom@@ 14193
poli@@ 14187
Nes@@ 14183
Ou@@ 14168
Panz@@ 14168
rap@@ 14168
Alf@@ 14167
ref@@ 14166
Ja@@ 14165
Pacific 14164
ashi 14164
11.@@ 14162
bias 14158
För@@ 14156
otr@@ 14156
Pist@@ 14148
750 14136
Sv@@ 14136
mst@@ 14135
Big@@ 14130
Wisconsin 14128
tun@@ 14127
May 14121
verschieden@@ 14120
B.@@ 14119
Just@@ 14109
ç@@ 14108
Christine 14107
Billy 14102
ths 14091
ynam@@ 14091
Detroit 14090
aks 14089
Cin@@ 14083
eal 14083
oria 14071
Tall@@ 14070
Cass@@ 14068
Memorial 14067
finale 14065
anch@@ 14061
Chal@@ 14060
1795 14059
ui 14057
Garde 14055
eno 14053
ór@@ 14046
tions 14043
hold 14037
Cla@@ 14034
line@@ 14033
Benz 14028
Work@@ 14028
amo@@ 14028
oph 14028
70@@ 14019
Gül@@ 14014
BS 14012
Conference 14004
blu@@ 13995
Cher@@ 13969
herz@@ 13968
cup@@ 13966
Gür@@ 13965
zy 13958
wann 13955
Dan 13953
itat 13952
Lux@@ 13947
lier 13945
Bla@@ 13939
Melbourne 13939
17,@@ 13938
è@@ 13924
atis@@ 13918
ows 13906
École 13905
Palm@@ 13904
División 13898
Martin@@ 13898
Charlie 13896
Acc@@ 13890
uck@@ 13888
Isab@@ 13887
ror@@ 13881
Is 13877
zir@@ 13864
sogen@@ 13862
Home 13858
ae@@ 13853
status 13851
pati@@ 13839
proch@@ 13839
Bj@@ 13825
Adap@@ 13822
Mitgli@@ 13821
UCI 13814
­ 13810
gespi@@ 13806
CS 13794
DI 13794
amba 13788
plas@@ 13771
Benn@@ 13769
nhof 13749
Hubert 13741
Cross 13740
Mili@@ 13736
Söh@@ 13734
Wild 13729
him@@ 13726
ce@@ 13721
3.000 13719
Irak 13718
kind 13708
dimen@@ 13705
cel@@ 13704
aye 13699
Demok@@ 13697
Laborat@@ 13694
out@@ 13686
relev@@ 13684
1,3 13682
amin@@ 13677
Dance 13675
1796 13674
msh@@ 13674
gelen@@ 13673
Du 13669
antes 13666
Gis@@ 13662
Rugby 13661
exter@@ 13659
Down@@ 13655
Gard@@ 13652
50.000 13651
Vancouver 13651
Türk@@ 13650
30.000 13638
Elec@@ 13638
Are@@ 13634
oro 13627
Kem@@ 13624
Laus@@ 13621
Dün@@ 13619
bra 13616
1300 13615
Brit@@ 13614
Nicolas 13612
virtu@@ 13612
fron@@ 13607
4000 13595
eor@@ 13594
rede 13592
romanti@@ 13588
Adri@@ 13586
gene 13583
Roch@@ 13582
Tep@@ 13569
Ō@@ 13569
plant 13568
ising 13564
Sultan 13561
usa 13557
IF 13552
Fox 13549
inae 13549
yo 13548
nig@@ 13537
Master@@ 13529
ption 13529
Bruce 13527
Gemäl@@ 13527
Mountain 13519
Peg@@ 13510
1791 13504
Kaz@@ 13500
Marcel 13499
Siemens 13493
elia 13493
sö@@ 13489
Sok@@ 13484
ango 13484
ques 13483
masse 13480
Holocaus@@ 13472
él@@ 13472
Doh@@ 13469
Fair@@ 13466
Phili@@ 13461
che@@ 13454
Comp@@ 13451
lev@@ 13451
gür@@ 13449
ingham 13446
intend@@ 13446
Indiana 13445
ng 13444
Auguste 13443
eppe 13434
stone 13433
PE@@ 13431
S.@@ 13430
upp@@ 13428
And@@ 13426
views 13420
Bell 13408
idar@@ 13407
1784 13403
insk 13400
last 13400
Scho@@ 13393
HMS 13387
Chan@@ 13383
iller@@ 13380
uf 13377
igu@@ 13375
Nom@@ 13374
Mont 13373
onal 13369
kas 13364
tius 13360
graphie 13356
multi@@ 13354
Communauté 13352
nia 13348
AE@@ 13347
Mississippi 13341
Nan@@ 13335
ebe@@ 13333
agu@@ 13330
Cruz 13323
RC 13323
star 13322
Atlanta 13315
aße 13315
118@@ 13313
GT@@ 13311
AP 13308
tu 13302
demok@@ 13297
Philippe 13295
Range 13293
AA 13286
Beck 13283
Fra@@ 13281
Bish@@ 13280
pus 13280
utige 13279
anth@@ 13273
oli@@ 13272
Jane 13271
ammen 13269
1780 13266
Che@@ 13265
Roy 13259
Holding 13253
Sac@@ 13234
garanti@@ 13234
akt@@ 13231
Barn@@ 13230
These 13229
say 13229
Cricket 13228
oy 13225
Area 13217
AG@@ 13216
evi@@ 13214
Arizona 13209
Last 13209
Augus@@ 13207
Kra@@ 13202
ambi@@ 13199
anti 13196
drama 13196
Pakistan 13195
oug@@ 13192
Gramm@@ 13188
alternati@@ 13187
üler 13180
Roy@@ 13178
Erik 13174
andes 13174
Aller@@ 13172
ated 13168
Braun 13166
pression 13165
Up@@ 13158
phab@@ 13153
Magazine 13150
Ergeb@@ 13149
hes 13145
Vall@@ 13141
Porsche 13140
Normandie 13139
pler 13136
yk@@ 13135
ymnas@@ 13134
Farm@@ 13130
ims 13129
Sad@@ 13125
Horiz@@ 13122
Württem@@ 13120
ibn 13120
Special 13116
vić 13116
dal@@ 13111
enny 13109
top@@ 13107
TC 13106
fon@@ 13106
sidi@@ 13104
yr 13102
Mey@@ 13099
sens@@ 13099
Québec 13091
ż@@ 13090
aver@@ 13089
SD 13088
Copa 13087
laf 13087
Mog@@ 13084
Railroad 13083
HF 13081
Not 13080
RO@@ 13079
Server 13072
Kevin 13070
Sap@@ 13070
Motors 13067
SM 13067
after 13064
CI@@ 13061
Pun@@ 13056
Berger 13052
endem@@ 13041
Gas 13036
lave 13033
pologie 13031
anga 13030
Labor 13028
1,6 13027
Municipio 13021
AT 13020
Alger@@ 13016
Gabri@@ 13015
Glad@@ 13012
ansen 13009
glo@@ 13003
eda 13000
cy 12998
icks 12998
sist@@ 12996
iri 12995
1785 12992
Dublin 12992
Southern 12990
115@@ 12989
ry@@ 12985
Afro@@ 12983
Under@@ 12981
exp@@ 12980
Ast@@ 12973
Sie@@ 12968
Apol@@ 12965
bud@@ 12965
ihr@@ 12959
situation 12959
tum@@ 12959
1750 12958
illing 12954
Willi@@ 12949
Leichtath@@ 12948
wick 12936
minim@@ 12935
Trav@@ 12930
fa 12929
tradi@@ 12927
itus 12926
Commonwealth 12924
Music@@ 12923
imi@@ 12920
Soci@@ 12917
grav@@ 12916
Tes@@ 12913
Tower 12913
1787 12905
xes 12899
tran@@ 12895
Vent@@ 12893
elder 12890
Department 12888
imo 12888
brief 12887
Opera 12886
Stone 12883
Water@@ 12874
wski 12870
ionale 12854
′ 12853
Lom@@ 12848
Office 12847
Chlor@@ 12846
Bé@@ 12842
Kō@@ 12841
Liverpool 12841
Box 12840
quer@@ 12830
morph@@ 12829
Masters 12827
Stewart 12808
nad 12808
beispi@@ 12805
Tennessee 12802
aa 12800
oker 12800
elin 12796
lor@@ 12790
denk@@ 12786
35@@ 12785
XX@@ 12784
Lt@@ 12783
Challenge 12780
flex@@ 12779
Cover 12774
Associ@@ 12771
Tang@@ 12771
Magnus 12761
abstr@@ 12761
kamer@@ 12755
Afghanistan 12754
Gött@@ 12753
ega 12753
üst 12753
Maine 12750
mul@@ 12746
side 12746
verur@@ 12745
MW 12742
Robin 12741
29@@ 12729
Syr@@ 12726
arch 12723
Squ@@ 12722
embr@@ 12722
set 12711
agno@@ 12708
Riga 12706
uster 12704
MI@@ 12698
Lincoln 12696
ally 12689
Good@@ 12688
Viktor 12687
Café 12686
Edmund 12679
AM 12673
Hop 12672
agan 12672
History 12665
Mall@@ 12664
mans 12662
Margaret 12659
Vek@@ 12658
Ve@@ 12653
Sid@@ 12647
1400 12645
lion 12641
tage 12636
Sierra 12635
Agnes 12634
Jam@@ 12634
appar@@ 12633
Fan@@ 12628
uno 12627
zial@@ 12626
orith@@ 12625
azzo 12618
Khan 12617
AZ 12606
final@@ 12605
studio 12602
Microsoft 12599
Car 12598
Greg@@ 12598
sv@@ 12597
roch@@ 12593
Connecticut 12592
Nick 12590
zz@@ 12588
Singapur 12587
iti 12585
ensive 12574
molek@@ 12569
elsweise 12566
undtrack 12566
µ@@ 12566
Henri@@ 12559
fonds 12554
parlament@@ 12548
Köl@@ 12538
sko@@ 12537
Lloyd 12533
Lüb@@ 12529
ress@@ 12529
deb@@ 12522
oke 12522
Wall 12521
esis 12520
Global 12519
Pach@@ 12514
Emma 12511
auth@@ 12511
Gom@@ 12505
ová 12502
Antoine 12498
Fund 12498
resp@@ 12497
Brom@@ 12493
enname 12491
cre@@ 12478
jus@@ 12478
bak@@ 12475
Manga 12470
Performance 12470
quer 12469
Miami 12465
Jordan 12458
Australia 12452
Sainte 12446
rab@@ 12446
Aar@@ 12444
Bologna 12440
aer@@ 12440
spur 12438
ses@@ 12430
Esp@@ 12425
Syl@@ 12425
inz@@ 12422
hydro@@ 12418
Up 12417
Napole@@ 12416
Ment@@ 12415
dev@@ 12408
igny 12407
Social 12402
ń@@ 12400
Magdalena 12399
okol@@ 12394
Rho@@ 12388
eption 12377
Clo@@ 12375
Boris 12369
Konstantin 12363
maxim@@ 12363
AD 12357
ross 12351
Via 12346
ean@@ 12345
ilo 12343
3D 12342
DS@@ 12340
On 12338
Place 12338
Sofia 12338
Sas@@ 12326
Tod@@ 12325
versorg@@ 12319
zim@@ 12316
tri 12311
Nelson 12309
ů@@ 12308
Mü@@ 12306
Edgar 12302
eer 12302
elis 12302
Clara 12300
obs 12299
AL 12298
mid@@ 12293
Anat@@ 12290
Mex@@ 12290
dek@@ 12289
ometr@@ 12288
Hip@@ 12284
Roma 12280
eran 12273
cap@@ 12271
adu@@ 12268
1786 12264
Shanghai 12264
tec@@ 12263
1,4 12246
cia 12243
than 12238
ić 12236
M.@@ 12229
olph 12222
Tob@@ 12221
Nä@@ 12220
ía 12220
GT 12217
Harris 12216
Forest 12212
Dave 12211
Bayer 12208
Puerto 12208
chl@@ 12208
o. 12205
Studies 12204
stud@@ 12204
explo@@ 12198
rekor@@ 12190
now 12189
eure 12185
Denis 12184
jar@@ 12183
fj@@ 12180
sober@@ 12177
hing@@ 12168
thers 12168
Ruth 12167
ographi@@ 12167
CC 12164
Taiwan 12161
ichi 12155
national 12155
sus 12144
repar@@ 12140
tras@@ 12136
aik@@ 12132
piel 12130
namo 12119
otes 12119
rie 12114
1788 12109
TS 12106
E.@@ 12099
stan 12094
1,8 12090
20,@@ 12088
Cec@@ 12088
iefs 12086
aman@@ 12081
ament 12078
Nig@@ 12077
Konf@@ 12076
f. 12075
enza 12053
Lawrence 12051
opti@@ 12048
nu@@ 12043
Canada 12029
220 12026
tie 12024
sions 12020
Carl@@ 12009
Hip 12007
depor@@ 12006
CC@@ 12003
KA 12000
akter 11993
IUCN 11988
abs@@ 11988
rass@@ 11987
pp 11986
Porto 11983
sum 11982
Ralph 11981
Franklin 11979
ady 11979
SF@@ 11974
Map@@ 11972
lab@@ 11971
Captain 11967
Klo@@ 11966
pent@@ 11964
Lil@@ 11961
bal 11958
trin@@ 11958
org 11956
uls 11951
Cath@@ 11946
Ech@@ 11946
ogie 11945
augh@@ 11931
EN 11927
1783 11925
Hot 11922
Stade 11918
ely 11916
Hep@@ 11900
Mans 11900
Å@@ 11897
Departamento 11894
dom 11887
amin 11884
keting 11883
IF@@ 11880
Pac@@ 11880
Frit@@ 11879
Laura 11876
ulu 11875
garde 11870
Russell 11865
ev 11855
Sant@@ 11853
orph@@ 11852
Sever@@ 11849
Disney 11848
alier 11847
parlam@@ 11847
Comics 11841
erra 11841
Chil@@ 11837
114@@ 11830
Grap@@ 11830
lies 11830
1770 11822
Heidel@@ 11821
argum@@ 11821
Trophy 11807
diagnos@@ 11801
Il 11800
Gon@@ 11798
house 11798
leyball 11791
Iowa 11786
mom@@ 11777
Lucas 11776
lot 11776
kuli@@ 11775
dere 11769
Sob@@ 11768
Rotterdam 11767
derin 11767
Gly@@ 11762
gin 11761
int 11758
Nun@@ 11757
Uh@@ 11755
Vietnam 11751
press@@ 11750
eh 11749
Zap@@ 11746
Gli@@ 11742
Will 11730
Morgan 11729
Frederick 11724
vek@@ 11719
Orleans 11717
Mic@@ 11715
Sn@@ 11714
zeu@@ 11714
1772 11712
ough 11712
hem@@ 11710
ald@@ 11699
Wikipedia 11697
Miss 11694
adas 11691
yi 11682
Vinc@@ 11681
Rid@@ 11679
ID 11674
Utr@@ 11668
jed@@ 11666
onym@@ 11665
15.000 11659
SB 11659
Leist@@ 11658
Ann 11657
ikos 11656
ñ@@ 11646
flotte 11637
Dub@@ 11636
Hend@@ 11635
osaur@@ 11634
38@@ 11632
Mode 11630
MC 11629
IB@@ 11628
Hz 11619
rock 11614
Ç@@ 11614
Kongo 11610
Caroline 11607
Fit@@ 11607
N. 11606
aco 11601
How@@ 11600
kü@@ 11600
oter 11598
Nova 11596
feu@@ 11595
orit@@ 11595
Amaz@@ 11593
ás@@ 11579
Renault 11575
Chanc@@ 11571
Aud@@ 11569
yen 11569
Cum@@ 11568
Jonathan 11568
18,@@ 11567
Cun@@ 11567
erre@@ 11564
Jung 11563
· 11553
fot@@ 11552
BK 11543
Uruguay 11543
transport 11543
Farm 11542
jana 11542
aca 11522
Bowl 11521
Herb@@ 11520
from 11519
Johan 11515
én 11514
102 11511
Freib@@ 11510
myth@@ 11509
Haute 11507
adap@@ 11505
Nem@@ 11502
web@@ 11494
igner 11490
kehr 11488
SE 11487
pass 11487
symp@@ 11486
ouv@@ 11479
Lenn@@ 11477
Polit@@ 11476
Metz 11473
Sey@@ 11473
Trich@@ 11473
360 11464
Lang 11460
bit 11459
block 11457
1775 11455
Centr@@ 11454
Marseille 11454
gia 11449
Zel@@ 11446
Harr@@ 11442
Lisa 11442
Origin@@ 11441
negative 11433
Champ@@ 11432
Broadway 11427
seurs 11423
yth@@ 11423
enst 11419
FIFA 11416
Fland@@ 11409
bon 11409
Quint@@ 11408
Maf@@ 11405
hum@@ 11402
Rib@@ 11396
geti@@ 11395
meth@@ 11394
Rup@@ 11392
HD 11389
kno@@ 11389
Mum@@ 11382
Avenue 11365
O. 11356
tle 11356
porte 11349
town 11348
Pent@@ 11336
CT@@ 11328
ymologie 11326
Aub@@ 11313
Hid@@ 11313
online 11309
News 11308
idel@@ 11308
19,@@ 11305
nik@@ 11305
.com 11301
GC 11298
eux 11286
Kim@@ 11284
Match 11282
matr@@ 11280
vie@@ 11277
Wais@@ 11273
Houston 11270
KO 11265
Kelly 11265
amide 11263
ket 11262
tad@@ 11261
elo 11260
aris 11255
Sph@@ 11254
Michel@@ 11252
austr@@ 11252
anum 11248
elli@@ 11248
scheinlich 11245
Engineering 11242
uta 11242
izer 11240
potenti@@ 11237
Miguel 11236
Plant@@ 11232
baller 11228
ugu@@ 11226
Deh@@ 11225
ê@@ 11223
ential 11220
104 11217
var 11217
End 11216
Kennedy 11203
oga 11201
Ey@@ 11200
spon@@ 11198
dale 11194
Amph@@ 11183
ordin@@ 11182
Hack@@ 11168
atio 11167
nel 11157
Peti@@ 11154
Tad@@ 11154
Story 11147
atlan@@ 11146
raf@@ 11146
Nations 11144
Jack@@ 11143
tium 11140
rei 11139
isser 11138
ody 11137
German 11136
bor 11134
itte 11134
Pietro 11133
Spo@@ 11130
VI 11128
Fernando 11126
communes 11126
row@@ 11124
Andy 11118
play 11115
Nest@@ 11114
Maryland 11111
mad@@ 11109
Mars 11104
Raymond 11100
Walker 11098
irk 11098
Peak 11097
sau 11097
wat@@ 11095
Á@@ 11092
1782 11090
117@@ 11088
Imag@@ 11087
II@@ 11082
Rig@@ 11082
etik 11082
Alpes 11081
Resp@@ 11081
Situ@@ 11075
Student 11075
135 11072
ingrad 11070
Heli@@ 11067
1776 11065
iers 11061
ub 11060
Zin@@ 11056
Xi@@ 11049
isi 11045
Go 11037
Kak@@ 11036
airo 11036
ii 11036
Graham 11035
schel 11033
Canadian 11032
Senior 11029
aliz@@ 11027
ISO 11026
entale 11025
AK 11024
Hanno@@ 11020
ever 11019
teams 11018
umi 11018
Veter@@ 11010
6.000 10998
vis 10989
endr@@ 10985
cul@@ 10976
sees 10969
Korea 10967
Boys 10963
Baby 10959
kowski 10958
Hills 10956
antik 10956
subj@@ 10955
Ś@@ 10953
suchung 10942
Campbell 10941
Ukrain@@ 10937
Cant@@ 10930
ting@@ 10929
lov@@ 10927
var@@ 10927
dius 10924
Magn@@ 10923
osis 10919
Amateur 10911
Evans 10910
mir@@ 10909
Element@@ 10908
4.000 10903
oka 10895
dest@@ 10894
tons 10893
fft 10888
Empire 10883
opath@@ 10879
ï@@ 10876
115 10873
ique 10870
uktur 10870
Duc@@ 10864
Nab@@ 10862
Rhône 10862
leer 10861
legend@@ 10859
Peters 10858
MO@@ 10855
Base 10854
Hul@@ 10848
üt 10845
mas 10843
Lieutenant 10841
anim@@ 10839
Niz@@ 10838
pith@@ 10838
tus@@ 10838
ehemal@@ 10836
Iz@@ 10829
Tig@@ 10829
ouverneur 10828
reh@@ 10828
Pag@@ 10827
128 10825
partement 10825
DR@@ 10817
acy 10816
Dallas 10810
anos 10806
Sant 10799
1777 10798
Tamb@@ 10794
ture 10788
Row@@ 10784
Malta 10783
5,5 10781
ophi@@ 10781
Ernest 10779
Kentucky 10779
Gaz@@ 10778
ups 10778
oshi 10774
Stuart 10769
Shir@@ 10768
Comic 10767
Development 10766
kot@@ 10763
Lep@@ 10761
uts 10759
burn 10753
ution 10753
paz@@ 10750
IP@@ 10748
gy 10742
Tin@@ 10740
Progr@@ 10739
Northern 10729
eph@@ 10728
ifer@@ 10724
Cann@@ 10722
allo 10720
Wr@@ 10715
mos 10713
Community 10711
liedert 10709
Pay@@ 10708
elde 10708
Boeing 10703
Quadr@@ 10699
mass@@ 10697
propag@@ 10691
33@@ 10688
urn 10686
fix@@ 10681
polog@@ 10680
Apple 10677
red 10677
rod@@ 10673
nice 10671
Carr@@ 10666
Madonna 10663
emin@@ 10661
nic@@ 10658
Lub@@ 10655
Alo@@ 10653
Islands 10651
Parker 10646
Nev@@ 10644
Dez@@ 10643
parte 10639
parall@@ 10638
sold@@ 10631
lac@@ 10630
Google 10627
Murray 10626
Lamb@@ 10625
Li 10625
icum 10625
ER 10624
YouTube 10623
aw 10623
ograp@@ 10621
sing 10619
ries 10617
öffentlich@@ 10611
ados 10607
Tai@@ 10605
eti 10605
Brooklyn 10602
aç@@ 10601
itis 10593
Turner 10590
igh 10588
Ear@@ 10583
normale 10578
Geometr@@ 10577
Lod@@ 10576
EL@@ 10571
Thompson 10571
ė 10569
Beng@@ 10563
Clau@@ 10561
odo@@ 10557
Cus@@ 10552
distr@@ 10552
Austin 10548
part 10548
ect 10547
Places 10537
Wan@@ 10536
bevor@@ 10535
Luftw@@ 10532
Jos@@ 10530
25.000 10528
Sex 10528
respond@@ 10527
Yu@@ 10522
kurren@@ 10522
Buddh@@ 10519
Bill@@ 10518
ennes 10514
anthro@@ 10511
1778 10510
Franco 10506
Network 10503
Universit@@ 10501
kar 10498
Bart@@ 10496
alla 10496
lava 10496
Year 10494
Administration 10493
Def@@ 10493
atives 10493
rell 10492
Anime 10489
Pharm@@ 10489
AK@@ 10486
John@@ 10482
Slam 10482
Design@@ 10471
Julian 10471
Hawaii 10463
Zen@@ 10458
103 10455
Gary 10454
öffent@@ 10453
rhy@@ 10448
Scot@@ 10446
internationales 10446
108 10445
Light 10444
Hod@@ 10441
Zagreb 10440
down 10436
öster@@ 10432
PG 10422
Pes@@ 10421
• 10421
Ame@@ 10418
Magde@@ 10418
board 10417
oks 10417
Urban 10408
style 10405
Dj@@ 10403
1773 10399
lux@@ 10379
niveau 10378
ünst@@ 10376
Coll@@ 10373
nica 10373
Billboard 10368
Pam@@ 10365
pin 10359
anes 10358
thel@@ 10357
Punk 10353
hir@@ 10353
Ves@@ 10351
Lun@@ 10349
Italia 10348
polar@@ 10348
nchron@@ 10347
za@@ 10340
uro 10337
1763 10334
Level 10332
Sah@@ 10329
Guy 10327
vi 10327
SP 10326
GP@@ 10325
ony 10325
Out 10324
Monte@@ 10323
Camp 10320
6,5 10319
Cooper 10317
Ryan 10308
CO 10305
Say@@ 10304
240 10289
María 10278
Arc@@ 10276
Hr@@ 10274
Independent 10273
Elite 10271
eria 10271
hou 10270
ə@@ 10269
ML@@ 10265
anie 10264
Seoul 10260
Silva 10260
BR@@ 10258
val 10254
viol@@ 10252
We 10250
admir@@ 10249
Bordeaux 10248
Byr@@ 10247
dier 10247
Gene 10246
MTV 10244
Comedy 10243
ā 10236
presse 10235
eon 10231
ering 10231
Braunschwe@@ 10228
ud 10223
1774 10217
AF@@ 10212
mikro@@ 10212
branche 10211
Est 10207
SN@@ 10206
Services 10202
uri@@ 10201
but 10198
neurs 10198
Ere@@ 10195
isp@@ 10194
plus 10193
vet@@ 10193
apar@@ 10190
Luigi 10189
Berkeley 10188
Sri 10187
day 10184
pard 10182
Histori@@ 10180
1100 10179
Hansen 10171
dör@@ 10171
pier@@ 10171
Sais@@ 10169
param@@ 10167
Ces@@ 10161
Cleveland 10160
Katalog 10159
Kah@@ 10158
Birmingham 10155
inde@@ 10154
NA 10153
cur@@ 10150
Grant 10147
aj 10145
Pis@@ 10142
evo 10140
tika 10139
Kut@@ 10138
andal 10137
1760 10132
Oregon 10132
Bois 10131
erland 10131
Matt 10130
Thai 10129
Jonas 10128
Coast 10124
40.000 10123
Rag@@ 10122
Mail 10119
Edi@@ 10117
Rue 10113
Alabama 10108
Bismarck 10101
Wrestling 10100
Laf@@ 10094
Nancy 10093
C.@@ 10092
1,1 10088
Carter 10082
kler 10082
Ard@@ 10080
ras 10080
adies 10079
nad@@ 10078
a- 10077
ways 10077
Vision 10075
Robinson 10069
Dennis 10067
EN@@ 10067
hard@@ 10062
Classic 10055
gie 10051
Be 10048
ecklen@@ 10046
Dus@@ 10044
Louisiana 10042
106 10041
AV@@ 10041
apos@@ 10037
ité 10034
Book 10033
GM 10029
KK 10026
ký 10025
Seattle 10024
ios 10022
SD@@ 10020
1781 10019
Warner 10019
Primera 10016
but@@ 10013
Vegas 10012
Action 10010
IG@@ 10010
lop@@ 10006
igo 10005
Saw@@ 10004
Gmina 10003
alam@@ 10001
chrom@@ 10000
Catherine 9989
Salvador 9989
aise 9989
Eddie 9988
asso 9988
Eurovision 9987
Championships 9985
Venezuela 9984
Shō@@ 9982
ulus 9981
Brah@@ 9974
fo 9974
Daw@@ 9972
Darm@@ 9970
lington 9970
1740 9968
Java 9966
Shin@@ 9965
Fid@@ 9964
MS@@ 9962
Commission 9958
jet 9957
zo@@ 9957
K.@@ 9956
volumen 9953
quit@@ 9952
Martha 9950
gradu@@ 9947
autom@@ 9946
dir 9940
Down 9938
Salon 9938
Iv@@ 9933
Knight 9919
act@@ 9908
yer@@ 9908
Comm@@ 9907
MG 9906
personal 9903
czy@@ 9899
Boy 9898
formal 9897
£ 9896
Town@@ 9894
I.@@ 9893
Morris 9893
Head 9891
Tech@@ 9889
34@@ 9888
uli 9888
anno@@ 9886
cat@@ 9873
strik@@ 9873
Orth@@ 9867
mant@@ 9867
Mine 9865
TV@@ 9865
ning@@ 9862
rou@@ 9858
FM 9856
Tō@@ 9856
my 9856
EP@@ 9854
12.@@ 9853
Admir@@ 9851
Wright 9848
unt 9848
Resol@@ 9847
90@@ 9846
Your 9845
Abu 9843
mac@@ 9843
idge 9841
Nos@@ 9838
oner 9837
Alberto 9830
AR 9828
Brothers 9826
format 9825
HS 9824
Hard 9824
116@@ 9816
Modern 9816
ô@@ 9816
Fitz@@ 9815
FL 9811
anj@@ 9811
24,@@ 9810
Sund@@ 9810
Apo@@ 9808
Ut@@ 9805
lis@@ 9797
107 9796
CO2 9796
Kai 9796
seri@@ 9795
auftrag@@ 9792
dul 9792
hip 9792
Bub@@ 9791
Vamp@@ 9785
Diam@@ 9784
MP 9780
ces 9780
stad 9775
biot@@ 9774
Medical 9767
Mack@@ 9762
escu 9758
label 9758
uni 9756
200.000 9754
kut@@ 9754
lleg@@ 9752
Const@@ 9748
Sea 9747
1,7 9739
Pall@@ 9739
Barbar@@ 9735
administr@@ 9734
Dow@@ 9732
Manhattan 9730
atri@@ 9730
1779 9727
tas 9721
lot@@ 9714
Og@@ 9711
fos@@ 9709
Claudia 9704
ran 9704
Malaysia 9703
ód@@ 9703
Alaska 9701
eva 9700
Direc@@ 9697
tics 9696
PO 9695
borough 9694
Elis@@ 9691
roquia 9691
ough@@ 9689
Linux 9688
eni@@ 9685
anik 9682
zh@@ 9679
AU 9676
Field 9676
amas 9670
Trump 9668
mouth 9668
van@@ 9668
Jules 9660
head 9656
Gilbert 9651
Scar@@ 9651
Phoenix 9648
25,@@ 9647
Orange 9647
2,4 9643
sts 9639
Scre@@ 9637
.. 9632
111 9630
Château 9624
beb@@ 9624
õ@@ 9622
Carol@@ 9620
Digital 9620
eros 9620
Brow@@ 9609
arme 9609
ult 9601
39@@ 9599
BE 9599
Fantasy 9598
Gig@@ 9598
telef@@ 9594
Jason 9591
Dmi@@ 9590
lex@@ 9590
Académie 9587
1730 9586
Concer@@ 9586
sort 9585
jer@@ 9583
Harold 9582
0,2 9581
Kent 9581
Universal 9580
neum@@ 9576
Tok@@ 9574
Yo@@ 9572
ruption 9570
Regional 9569
ebil@@ 9569
rev@@ 9568
Buk@@ 9565
gor@@ 9565
plasti@@ 9560
oz 9559
Zh@@ 9557
magne@@ 9557
Indian 9556
mü@@ 9551
½ 9548
0,1 9547
Gug@@ 9544
lik 9542
ador 9541
2500 9539
ambia 9539
Card@@ 9538
Teh@@ 9537
Ian 9536
brut@@ 9529
Type 9528
quarti@@ 9528
yo@@ 9527
Inn 9521
ace@@ 9521
anta 9520
Jon@@ 9518
Baker 9517
î@@ 9516
Sky 9515
Dil@@ 9510
rosa 9505
109 9502
com 9502
Fantas@@ 9499
ishi 9499
Lima 9498
RAF 9495
Santos 9495
Phil 9493
Norman 9489
transfer@@ 9488
Bristol 9486
ery 9485
ods 9479
Tib@@ 9477
sh 9476
Bretagne 9470
Rai@@ 9469
Cic@@ 9466
Nigeria 9464
alo 9458
Cow@@ 9454
Joint 9454
Cran@@ 9452
hil 9449
Mozart 9447
Bien@@ 9445
Tel 9445
Chev@@ 9444
jon 9444
evol@@ 9442
ros 9440
Bobby 9439
113@@ 9435
1715 9423
Labour 9422
design 9418
Survey 9413
letin 9412
card 9411
Joan 9410
Roberto 9406
McCar@@ 9405
forte 9404
atis 9403
Roll 9402
230 9401
Santo 9396
philosophie 9396
ás 9395
ale@@ 9393
sta 9393
Rach@@ 9392
Dark 9391
aves 9387
1648 9384
Call@@ 9382
innov@@ 9379
eville 9377
Sky@@ 9376
issa 9374
ape@@ 9373
over@@ 9371
Grammy 9370
Wayne 9370
Rangers 9366
nati@@ 9366
Saudi 9365
PR 9362
Project 9360
vid@@ 9358
galerie 9355
Muhammad 9350
Brab@@ 9349
TH@@ 9348
0,3 9339
Mac 9338
ML 9335
Helena 9334
Tet@@ 9331
ating 9327
alphab@@ 9322
autonom@@ 9319
Cyc@@ 9315
Coc@@ 9312
manager 9312
Mohammed 9311
Moun@@ 9309
PL@@ 9307
AV 9306
Kaw@@ 9305
atura 9304
hen@@ 9303
bibli@@ 9301
inner 9301
uz 9299
Dok@@ 9295
2,3 9290
obile 9290
Capit@@ 9286
Tommy 9286
CN@@ 9281
Sot@@ 9280
FO@@ 9278
dow 9273
Hist@@ 9260
brig@@ 9260
Jord@@ 9259
RNA 9258
Pont 9255
Second 9255
ilia 9255
Ener@@ 9254
1768 9249
nius 9244
Baltimore 9242
112 9233
Garden 9233
Gib@@ 9229
otti 9228
ient 9227
Vietnam@@ 9222
greg@@ 9219
manu@@ 9219
ifu@@ 9215
6000 9208
Hugh 9205
relati@@ 9205
Agu@@ 9204
Barry 9203
Nil@@ 9197
into 9191
sad@@ 9189
1765 9184
Dick 9182
alif@@ 9173
vik 9167
Brid@@ 9165
Cord@@ 9165
ray 9161
hir 9159
Lut@@ 9157
{ 9147
1720 9145
Valent@@ 9145
italien 9144
650 9143
ego 9143
uerst 9143
yan 9141
Parad@@ 9139
fee 9133
rin 9133
she@@ 9128
Web 9124
PN@@ 9123
Marshall 9119
ments 9119
thor@@ 9117
22,@@ 9114
Jeff 9112
spor 9112
ě 9111
Bulgar@@ 9106
Christ 9103
Bask@@ 9100
Delta 9100
Ten 9099
interne 9098
Dra@@ 9093
Four@@ 9093
aff 9093
Toulouse 9092
Matthew 9087
pens@@ 9087
D.@@ 9082
Brad@@ 9081
Herzeg@@ 9079
ship 9067
Cannes 9066
Steven 9064
Pittsburgh 9062
IL@@ 9061
Claus@@ 9060
oul 9056
1753 9053
Lili@@ 9053
portation 9051
Eastern 9046
Dul@@ 9045
regiment 9045
Alexandria 9044
Did@@ 9042
bine 9041
1756 9040
ő@@ 9040
Ehe@@ 9039
Jun@@ 9039
As 9037
Zep@@ 9037
strum@@ 9037
Atlas 9034
Spin@@ 9032
Portland 9025
LC 9024
Progres@@ 9020
1771 9018
36@@ 9016
2,2 9014
haut 9005
ń 9005
PO@@ 9004
Rut@@ 9002
GA 9001
organ 9001
Bio@@ 9000
IE@@ 8997
Four 8996
Dod@@ 8994
21,@@ 8993
rid@@ 8991
Metropolitan 8989
Lig 8988
Lorenzo 8988
ø 8988
Uran@@ 8981
ignon 8981
dez 8980
SI@@ 8977
aton 8976
onner 8974
320 8971
Library 8971
nem 8968
alin 8967
volution 8966
Cov@@ 8965
Sound@@ 8964
atir@@ 8961
Metro 8960
emiti@@ 8959
ophy@@ 8958
Baptist 8957
Notre 8956
ram 8954
23,@@ 8953
territori@@ 8946
App 8944
SV@@ 8944
tempor@@ 8942
Sevilla 8941
Medal 8939
Bangkok 8937
Europameister@@ 8937
190 8934
Cit@@ 8933
Mez@@ 8931
kateg@@ 8930
Christina 8927
SI 8925
CV 8924
1769 8918
Leonard 8915
A1 8912
Ark@@ 8912
Aristot@@ 8911
Stockh@@ 8910
mon 8910
Do 8900
Oklahoma 8899
Lé@@ 8898
expres@@ 8885
writer 8884
Girl 8882
Village 8882
37@@ 8881
chan@@ 8881
1742 8880
obus 8878
eka 8877
fro@@ 8874
arde 8873
Hill@@ 8871
emat@@ 8869
Shel@@ 8867
GS 8864
Set@@ 8863
Whe@@ 8862
monum@@ 8858
stal@@ 8853
andi@@ 8851
rose 8840
Double 8837
Valencia 8836
flor@@ 8829
Kings 8828
Obr@@ 8827
CP 8825
Kosovo 8824
Mitchell 8823
ė@@ 8819
Press 8812
dell 8810
1766 8809
Han 8809
Nass@@ 8806
front@@ 8803
Augusta 8801
aiss@@ 8799
hus@@ 8799
Satur@@ 8798
Châ@@ 8797
Giac@@ 8792
hist@@ 8791
Yan@@ 8788
Aless@@ 8785
ju 8783
sych@@ 8782
Cz@@ 8778
ici 8776
Namibia 8773
Leon 8768
yon@@ 8768
Duf@@ 8766
Illus@@ 8766
Track 8763
114 8762
iw@@ 8759
Doc@@ 8758
Hudson 8758
Va@@ 8758
26,@@ 8756
Atlantic 8751
Provence 8751
Amat@@ 8749
550 8748
201@@ 8743
ampa 8740
Scottish 8738
Tut@@ 8737
Teatro 8735
210 8733
Electric 8731
variante 8729
Ken 8728
sn@@ 8726
onde 8724
Olga 8720
Yale 8720
Pog@@ 8719
WTA 8716
xi 8716
phen@@ 8714
nith@@ 8712
Madison 8709
rier 8708
can 8707
Buck@@ 8700
insky 8700
1764 8697
Auvergne 8696
apa 8689
— 8689
Bald@@ 8688
anas 8686
nationales 8686
wind 8685
Ronald 8683
alre@@ 8680
ensemble 8677
inga 8674
quet 8673
8.000 8671
thias 8668
Fat@@ 8667
Verfüg@@ 8663
Corona 8661
Vig@@ 8657
ABC 8648
Ice 8646
tres 8646
Jerry 8645
Roberts 8644
jk 8643
Channel 8642
45@@ 8640
sachsen 8640
English 8637
Balkan 8634
load 8634
ching 8632
1650 8621
arin 8618
People 8609
Stoc@@ 8608
Ley@@ 8606
Ray@@ 8606
Romeo 8603
residi@@ 8603
exist@@ 8601
Wood 8600
equ@@ 8595
Linn@@ 8592
Federation 8588
Soul 8588
pes 8588
ights 8587
Baj@@ 8586
Prize 8581
ał@@ 8580
Sony 8577
Tyr@@ 8576
uki 8576
Lic@@ 8575
27,@@ 8570
oba 8567
Seb@@ 8561
films 8559
Bull 8552
obi 8550
CH 8549
1767 8544
Tru@@ 8542
ana@@ 8539
Shakespeare 8538
lip 8537
1758 8532
Jew@@ 8532
Population 8531
1755 8528
vr@@ 8526
arts 8525
bourg 8524
reform@@ 8524
Karlsru@@ 8522
Beatles 8520
sow@@ 8520
0,6 8518
esel 8506
urugu@@ 8504
Pig@@ 8503
Player 8503
Off 8502
Hunter 8499
Laurent 8499
Moses 8499
xy@@ 8499
roman@@ 8498
Société 8496
flag@@ 8494
irs 8494
mani@@ 8493
ieu 8488
CF 8485
orch@@ 8483
sty@@ 8482
R.@@ 8479
WA 8477
Angela 8476
Lew@@ 8476
Sci@@ 8476
ety 8474
ppo 8474
Nur@@ 8470
Jor@@ 8469
milit@@ 8468
glob@@ 8467
san 8462
AE 8459
Sang@@ 8459
orio 8459
Vau@@ 8457
festivals 8450
Karls@@ 8448
ris 8448
Coh@@ 8445
oir 8445
hai 8439
Silv@@ 8438
ettbewer@@ 8437
García 8436
Julie 8435
venez@@ 8435
Mek@@ 8426
fis@@ 8425
massive 8425
urt@@ 8423
Emir@@ 8422
Hamp@@ 8422
isters 8421
113 8420
Monaco 8418
Hampshire 8416
´ 8415
state 8407
Nicholas 8406
Get@@ 8404
Plus 8402
Venez@@ 8400
phosph@@ 8400
1680 8397
Drag@@ 8396
orient@@ 8394
175 8390
nan 8390
Kay@@ 8389
Ú@@ 8389
roc@@ 8386
EM@@ 8384
andro 8384
lav@@ 8383
ôme 8383
ality 8380
dik 8378
Show@@ 8377
BR 8372
nov@@ 8367
ted 8367
Fakult@@ 8362
Wang 8360
Pant@@ 8359
code 8353
Ambi@@ 8350
naz@@ 8343
Nouvelle 8341
Viktoria 8339
lib@@ 8339
Jr 8335
CP@@ 8331
veget@@ 8329
enni@@ 8326
African 8325
Na 8317
pi 8313
cal 8312
maz@@ 8311
lien 8310
zia 8308
1762 8301
Dud@@ 8300
lyr@@ 8300
achi 8297
122 8292
ʻ@@ 8291
Inc 8290
olls 8288
arn 8287
TO@@ 8286
Collins 8284
ál@@ 8284
Open@@ 8283
Alem@@ 8282
NASA 8281
istes 8270
irken 8269
enj@@ 8267
Adv@@ 8266
Honda 8266
117 8264
Final 8264
Lombar@@ 8263
Bonif@@ 8260
roman 8259
Ecuador 8257
Tac@@ 8255
Helen 8249
Sophia 8248
Wallace 8247
dal 8246
Castel@@ 8242
1525 8241
ift@@ 8240
Nina 8239
Aviv 8238
inum 8238
Montevideo 8236
Vand@@ 8236
ore@@ 8235
heter@@ 8234
phus 8234
Of 8231
13.@@ 8226
Ellen 8223
BL 8221
Gad@@ 8221
List 8215
Terry 8214
Midd@@ 8213
gran@@ 8211
Warren 8209
Orthodo@@ 8208
kreich 8206
mart@@ 8205
gis@@ 8204
Mou@@ 8202
Marne 8200
French 8196
Ambro@@ 8195
Health 8191
260 8188
Wak@@ 8188
0,8 8184
Jay 8183
rau 8183
Natural 8182
nio 8182
ino@@ 8180
rand@@ 8179
Amad@@ 8178
count 8177
Pays 8176
ires 8176
Jav@@ 8175
PR@@ 8174
shops 8172
vá@@ 8172
Haz@@ 8169
Gior@@ 8168
dial@@ 8162
estyle 8160
Colonel 8158
Mexico 8156
unda 8155
Alexandra 8152
elly 8152
ports 8152
Pablo 8151
Celle 8148
brief@@ 8147
Augustus 8146
boy 8141
Malm@@ 8136
Men 8136
left 8135
pedition 8135
Gonz@@ 8134
ré@@ 8132
ather 8127
IX 8125
imler 8124
500.000 8123
Bomb@@ 8120
rett 8120
aku 8119
8,5 8117
Harrison 8117
bridge 8116
ski@@ 8116
topo@@ 8108
deu@@ 8107
Strat@@ 8104
Sez@@ 8103
Amar@@ 8101
ignor@@ 8101
azz@@ 8097
Dakota 8095
Thur@@ 8093
Lif@@ 8090
Utah 8088
hak@@ 8088
Two 8086
Hog@@ 8085
tax@@ 8085
esser 8084
SB@@ 8083
eper 8082
Loy@@ 8081
Advis@@ 8080
Canal 8080
Heart 8078
Jorge 8078
nin 8077
Dean 8075
UK@@ 8072
onas 8072
auss@@ 8071
Faz@@ 8069
Adrian 8068
rival@@ 8067
ono 8065
Ivan 8062
Sark@@ 8060
ň@@ 8059
1752 8053
Hart 8053
SR@@ 8047
Kis@@ 8046
Buffalo 8041
Montana 8039
SL@@ 8037
1745 8036
Century 8036
Dead 8036
Energy 8034
ò 8031
SH@@ 8029
midt 8029
kett 8024
olin 8024
hang@@ 8023
Tiger 8022
Arist@@ 8020
22@@ 8016
Back 8014
bac@@ 8013
Jon 8012
Keith 8012
oso 8006
Globe 8003
Paolo 7996
Note 7995
nas@@ 7995
Sug@@ 7994
person 7994
Iber@@ 7993
Diana 7985
sy 7985
LO@@ 7984
BO@@ 7982
Emmy 7978
Kand@@ 7974
song 7974
Good 7973
industrielle 7966
Germain 7963
AW@@ 7959
alisation 7957
wad@@ 7956
Gran 7952
L.@@ 7952
Review 7952
dö@@ 7952
igi@@ 7952
adj@@ 7951
div@@ 7951
itch 7951
icklung 7950
okrati@@ 7950
spiritu@@ 7950
Baptiste 7940
1757 7935
Kong 7931
Tus@@ 7931
miner@@ 7925
March@@ 7923
Day@@ 7921
ories 7920
Commander 7917
IA 7917
furter 7916
mandat 7915
lima 7914
psychi@@ 7906
To 7902
1759 7896
dy@@ 7896
Tokyo 7893
rer 7891
trav@@ 7891
signal 7890
126 7889
tina 7888
atie 7887
Terminal 7883
Ron@@ 7881
gender 7881
ác@@ 7879
Suz@@ 7878
124 7877
lett 7877
Nath@@ 7876
tane 7876
Isle 7875
tropole 7868
ping 7864
Marc@@ 7862
ave@@ 7862
enter@@ 7862
Mobile 7858
Fire 7857
Grig@@ 7857
brigade 7857
alternative 7856
antas@@ 7856
experim@@ 7855
Lay@@ 7854
No. 7847
EC@@ 7844
Gray 7844
oj@@ 7841
ovo 7839
14.@@ 7838
start 7836
omorph@@ 7834
Ghana 7833
Sik@@ 7831
Nim@@ 7827
ror 7826
ming 7823
León 7822
Non 7820
tav@@ 7820
éc@@ 7820
Bever@@ 7818
280 7817
123 7815
28,@@ 7814
Osaka 7813
tunnel 7809
cell@@ 7802
Yok@@ 7801
eston 7800
Princeton 7799
Miles 7798
Pictures 7796
Rico 7796
127 7795
Vy@@ 7795
Obl@@ 7794
mittler@@ 7794
problem 7794
Cook 7790
olog 7789
1754 7787
enton 7783
Executive 7782
SM@@ 7778
eca 7775
Ed 7773
ć@@ 7773
tos@@ 7772
Beat 7770
alias 7770
ES 7767
SF 7763
brid@@ 7763
Future 7760
Laz@@ 7760
Micro@@ 7758
endum 7757
atic 7755
Link 7753
NH@@ 7749
bing 7748
Jama@@ 7746
otom@@ 7743
pur 7741
Econom@@ 7739
KP 7737
Poc@@ 7734
orth@@ 7730
Vermont 7729
1751 7728
Gand@@ 7727
Gerald 7726
ă 7725
Vid@@ 7724
hiz@@ 7724
Taxonom@@ 7721
dings 7718
Bush 7712
derg@@ 7712
Education 7711
Gou@@ 7711
autobi@@ 7708
Census 7707
1748 7697
AO@@ 7697
KS 7696
Herman 7695
alli 7695
Rug@@ 7692
Family 7689
jam@@ 7687
opol@@ 7683
Butler 7682
Edwin 7680
sels 7680
MHz 7679
alifor@@ 7678
Rafael 7677
ça 7677
yar@@ 7675
lah 7664
Paula 7663
South@@ 7662
ș 7662
occ@@ 7661
humor@@ 7660
water 7660
Sut@@ 7658
Venus 7656
a.@@ 7654
ethe 7647
pole 7647
orik 7644
ael 7642
thy 7642
7.000 7638
Silver 7630
alem@@ 7630
Angel 7628
Limited 7627
grap@@ 7626
ural 7625
Bang@@ 7622
VII 7622
omon 7622
Five 7621
new@@ 7618
Beethoven 7616
Carmen 7611
visu@@ 7610
Bernh@@ 7608
ga@@ 7608
Rac@@ 7605
ilg@@ 7605
1717 7603
Naval 7603
ial 7602
rus@@ 7600
Bond 7599
terr@@ 7598
ellan 7597
rio 7596
lès 7593
Di 7588
Pix@@ 7588
Brach@@ 7587
aan 7586
Coch@@ 7584
Control 7584
Roosevelt 7584
phone 7583
Gram@@ 7581
expan@@ 7580
vak@@ 7579
cos 7574
Stanford 7570
ég@@ 7570
121 7568
Gag@@ 7568
Penn@@ 7568
éri@@ 7568
270 7562
enders 7562
kit@@ 7559
Cape 7558
Kamb@@ 7558
Pie@@ 7557
dé@@ 7555
homosexu@@ 7555
quasi 7555
Gusta@@ 7553
Sans@@ 7552
″ 7552
ills 7550
Lanka 7548
Trust 7548
1761 7547
gren 7543
stopp@@ 7543
α 7543
0,4 7538
Neil 7538
Africa 7536
facto 7534
ißt 7532
Pick@@ 7529
ST 7529
Cand@@ 7527
zis@@ 7527
Marion 7522
Isa@@ 7521
Director 7519
Irene 7518
Audi 7513
IBM 7512
TE 7512
UV 7509
media 7508
rent 7506
Île 7506
Albre@@ 7503
Perry 7501
TP 7496
VO@@ 7495
path@@ 7488
chers 7486
Cycl@@ 7485
Lanc@@ 7484
Tuc@@ 7483
Isaac 7482
Marsh@@ 7478
22.@@ 7477
mobile 7477
engen@@ 7472
clubs 7470
meg@@ 7468
116 7467
iva 7467
Symphony 7466
2,6 7465
Myr@@ 7464
Rain@@ 7464
Alliance 7462
Villen@@ 7462
kli@@ 7461
Hap@@ 7460
uru 7459
Regi@@ 7457
1732 7455
.S. 7453
Wad@@ 7453
anol 7453
49@@ 7451
souver@@ 7451
Enter@@ 7450
Dak@@ 7447
DT@@ 7446
aret@@ 7446
school 7442
ockey@@ 7438
sus@@ 7438
fund 7435
endant 7434
1741 7433
Larry 7433
Côte 7429
Lions 7427
bil 7427
zan 7427
Pots@@ 7425
Marina 7423
Armstrong 7421
dio 7421
top 7420
1747 7418
CR 7413
tical 7413
1710 7409
Piz@@ 7408
favor@@ 7406
oute 7406
Ward 7405
ld@@ 7400
Square 7393
ezu 7392
å 7387
quanti@@ 7383
Newton 7381
quien 7379
CEO 7377
Palmer 7377
que@@ 7376
üm 7375
1744 7374
hut@@ 7374
ylo@@ 7372
Rogers 7369
han@@ 7368
Eas@@ 7366
Danny 7365
ency 7365
limi@@ 7365
GE 7362
taine 7361
Civ@@ 7359
Zor@@ 7358
Mih@@ 7355
év@@ 7352
publik 7351
Command 7349
Mecklen@@ 7349
initiative 7348
pyr@@ 7348
2,8 7344
situ@@ 7343
atta 7341
ait 7340
arum 7340
doc@@ 7338
Class@@ 7336
ej 7336
DL@@ 7334
1660 7333
oman 7332
tron 7330
wall@@ 7328
propor@@ 7325
Jol@@ 7322
This 7321
toler@@ 7321
ayer 7320
Hes@@ 7319
Guang@@ 7316
Guar@@ 7315
Gamb@@ 7312
Swiss 7308
Theo 7308
Hou@@ 7305
uan 7304
oon 7303
äler 7299
Ron 7298
mart 7298
Can 7296
Tah@@ 7295
endi 7294
oder@@ 7294
anny 7293
lear@@ 7292
Butter@@ 7290
Ng@@ 7283
lak@@ 7279
Ich@@ 7278
H.@@ 7277
Beat@@ 7270
Power@@ 7267
peru@@ 7266
188@@ 7263
Étienne 7260
patri@@ 7259
Shim@@ 7258
Universidad 7258
1746 7257
bern@@ 7255
ú 7255
Baz@@ 7253
DI@@ 7253
Heter@@ 7253
Ankara 7252
Caesar 7245
ities 7245
lu 7241
Sis@@ 7239
47@@ 7237
Susan 7235
has 7235
very 7229
orange 7227
Guillaume 7226
junior 7225
Edwards 7224
29,@@ 7222
ND 7221
grade 7219
Capr@@ 7217
Monster 7215
1,9 7213
pha 7208
Human 7206
ène 7206
β 7203
yon 7201
Watson 7199
ungef@@ 7199
Orient 7197
cast 7196
145 7195
Castro 7195
1735 7194
Slav@@ 7192
ül 7190
anza 7188
Ib@@ 7186
çon 7186
emi 7185
jas 7185
dow@@ 7183
videos 7182
UR 7181
Sé@@ 7180
osh@@ 7180
sbr@@ 7180
Jefferson 7179
Fred@@ 7178
Spencer 7178
partie 7178
berto 7174
issi@@ 7174
umben@@ 7174
1550 7173
chor@@ 7167
Officer 7162
ures 7162
1743 7161
Comté 7160
Commun@@ 7155
avi 7154
Pan 7152
Elli@@ 7151
Panama 7151
Tow@@ 7150
hex@@ 7148
Johannes@@ 7145
uchi 7144
bu 7141
moment 7141
Dimi@@ 7140
annon 7140
Westfal@@ 7138
dü@@ 7138
à@@ 7131
Non@@ 7130
Apollo 7129
benz@@ 7129
üme 7126
hon@@ 7123
Soccer 7121
amar@@ 7119
tat@@ 7117
sax@@ 7116
SU 7114
Sali@@ 7111
1714 7109
Sudan 7108
rog@@ 7106
oring 7105
texte 7105
femin@@ 7104
Toyota 7097
1736 7096
HT@@ 7092
ayo 7092
Mini 7090
stages 7089
Hek@@ 7088
IL 7088
übr@@ 7087
Planet 7083
Mim@@ 7081
Nin@@ 7080
tista 7079
Leningrad 7078
Irish 7076
Private 7075
Bureau 7073
glieder 7071
Theod@@ 7070
abol@@ 7069
sung 7067
bonne 7065
intr@@ 7065
16.@@ 7063
Nintendo 7063
bab@@ 7063
Athletic 7061
Facebook 7061
ark 7058
AO 7054
ophysi@@ 7053
Palermo 7052
Voc@@ 7052
Nevada 7050
urus 7050
Gog@@ 7049
allo@@ 7049
Six@@ 7048
osaurus 7048
uel@@ 7048
Professional 7038
Head@@ 7037
Pers@@ 7036
Way 7036
Fiat 7033
118 7031
Run 7031
vio 7031
says 7030
Baseball 7026
luc@@ 7025
Jeanne 7023
1738 7020
dee 7019
Guatemala 7017
impl@@ 7016
jiang 7015
omi 7015
330 7014
Stalin 7012
CB 7007
ogne 7007
emente 7006
cester 7005
Franche 6998
Ottawa 6998
Television 6996
Stef@@ 6995
vic 6992
J.@@ 6991
polit@@ 6991
Domen@@ 6990
Germany 6989
Hospit@@ 6989
leton 6989
Six 6986
eling 6984
Bapti@@ 6981
box 6981
Orléans 6980
GP 6979
elec@@ 6979
loy@@ 6977
Rolling 6973
Allan 6972
1749 6971
Girls 6969
Heavy 6965
isel 6965
Coul@@ 6962
He 6961
nev@@ 6961
2,7 6960
ettes 6959
Alexandre 6958
ties 6958
Ibn 6955
Brus@@ 6952
Au 6951
Atlético 6948
act 6948
onist 6947
qua 6947
9,5 6944
Salv@@ 6943
380 6941
1713 6937
Edmon@@ 6936
Wimbledon 6934
1737 6931
P.@@ 6931
1721 6930
Hughes 6930
yse 6930
kinson 6929
Tetr@@ 6928
Hispan@@ 6926
Austral@@ 6925
oki 6925
orca 6925
ł 6924
Zak@@ 6921
1733 6920
esc@@ 6913
abad 6912
ose@@ 6912
ists 6908
ano@@ 6906
González 6905
cli@@ 6903
Nathan 6902
Yos@@ 6899
bay 6898
1620 6897
cs 6896
bro 6894
steam 6894
Luke 6893
eci@@ 6893
appel 6891
1725 6889
Cinema 6889
1701 6888
Alain 6885
Sanc@@ 6885
Circuit 6883
1618 6882
Gallery 6879
Ø@@ 6876
pon 6875
Olivier 6874
WT@@ 6874
Moon 6873
Caes@@ 6871
MB 6871
Quin@@ 6871
SU@@ 6870
Auth@@ 6869
Dami@@ 6869
elo@@ 6869
1250 6868
dor 6866
Rap 6863
liner 6863
Water 6862
sang@@ 6862
1724 6861
Angelo 6861
Stevens 6861
Chrys@@ 6860
hat@@ 6859
Holmes 6856
Delhi 6855
emot@@ 6850
Democ@@ 6845
chol@@ 6843
usine 6841
visi@@ 6841
dad 6837
Ż@@ 6837
set@@ 6835
CIA 6834
Kras@@ 6833
Turk@@ 6832
850 6829
Aaron 6829
Fed@@ 6828
Derby 6827
ē@@ 6827
Kov@@ 6825
Servic@@ 6825
ingo 6823
ondo 6822
Yel@@ 6820
spl@@ 6819
Madag@@ 6818
1718 6817
Gw@@ 6816
Clinton 6814
Vera 6812
oku 6812
abi 6811
Linda 6809
oyer 6809
Gill@@ 6808
obr@@ 6808
super@@ 6807
Kate 6806
1630 6804
apolis 6804
Queensland 6803
21.@@ 6800
Richmond 6799
anatom@@ 6799
zon@@ 6799
asc@@ 6795
otro@@ 6795
Aquitaine 6793
Brest 6792
ON@@ 6792
ench@@ 6791
sorte 6791
Conservat@@ 6790
onc@@ 6788
lor 6786
avia 6785
Arsenal 6784
Estr@@ 6784
Murphy 6784
Kay 6783
Eugen@@ 6782
Alpha 6781
tian 6780
Crow@@ 6779
oter@@ 6775
Oliv@@ 6772
Guil@@ 6771
Nel@@ 6771
expon@@ 6768
ende@@ 6766
SL 6762
fi 6762
Re 6761
Advanced 6758
CR@@ 6758
Colin 6757
Doctor 6757
Produc@@ 6757
xon 6757
FBI 6756
Lane 6756
eas 6756
LG@@ 6753
ete@@ 6753
ois@@ 6752
SMS 6751
py@@ 6751
Sara 6749
1723 6743
Airways 6743
Ce@@ 6743
rest 6740
Partido 6737
Cincinnati 6736
ision@@ 6736
ardo 6734
Capital 6728
Nür@@ 6726
dion 6725
Arkansas 6724
155 6723
athon 6723
exempl@@ 6723
horiz@@ 6723
UR@@ 6722
Stra@@ 6721
Three 6721
1734 6720
17.@@ 6719
gau@@ 6719
Madame 6718
radio@@ 6718
zburg 6718
öss@@ 6718
irie 6717
univers@@ 6717
usse 6716
Ptolem@@ 6715
ako 6715
Deep 6713
Nicole 6710
1690 6704
Publ@@ 6701
main@@ 6701
oire 6701
Anast@@ 6700
Proc@@ 6700
eval 6695
aland 6692
ying 6692
ih 6689
rob@@ 6688
Gin@@ 6686
ree 6684
Chang@@ 6681
pit 6680
uj@@ 6680
Cemetery 6677
Ş@@ 6676
Dream 6674
Fes@@ 6674
forz@@ 6674
wick@@ 6674
Movie 6673
1722 6672
Bourgogne 6672
that 6669
sell 6668
V8 6666
enda 6664
okie 6658
tura 6657
kai 6656
Shu@@ 6654
uke 6653
1688 6652
F.@@ 6649
132 6648
Perf@@ 6647
Just 6646
thy@@ 6646
ples 6645
1670 6642
isha 6637
ET 6635
skie 6631
Lambert 6630
entu@@ 6630
teh@@ 6629
zon 6627
Belarus 6626
sole 6622
1683 6621
1739 6621
Asia 6621
Foc@@ 6616
Reims 6616
nav@@ 6616
Springs 6610
gegrün@@ 6610
1712 6607
onga 6606
uses 6606
1719 6604
Kenneth 6602
omor@@ 6601
1540 6600
Prov@@ 6596
ernes 6596
ymn@@ 6595
Set 6594
dule 6594
15.@@ 6591
1727 6591
GO@@ 6591
Kag@@ 6591
Rail 6591
Angola 6589
culus 6587
pum@@ 6587
1530 6585
Ridge 6583
55@@ 6579
Justin 6579
kur 6572
ric 6571
1634 6569
Race 6567
asaki 6567
Rick 6564
1728 6562
waf@@ 6560
Öz@@ 6560
CI 6559
atti 6559
ylon 6558
Orlando 6553
affe 6553
tiller@@ 6553
Batt@@ 6550
atha 6550
Niger 6546
pan 6546
trop 6546
Sind@@ 6543
Sullivan 6539
oxid@@ 6539
Rodríguez 6538
López 6537
l. 6537
oun 6537
♂ 6537
WWE 6536
Summer 6535
Emb@@ 6533
Temple 6531
bier@@ 6530
sio 6530
ime@@ 6528
Equ@@ 6527
AFC 6526
David@@ 6522
Trade 6521
GO 6519
gin@@ 6518
Aj@@ 6517
Kamerun 6515
onis 6515
Dort@@ 6514
Vers 6509
1711 6508
Guy@@ 6506
Tü@@ 6506
Vos@@ 6506
8000 6504
ë 6504
ós 6504
King@@ 6501
light 6499
lement 6497
ées 6497
Who 6496
ui@@ 6496
Abbey 6495
ature 6494
elling 6493
aurus 6491
001 6489
ISBN 6485
India 6485
Montenegro 6485
andra 6485
EA 6484
1689 6483
19@@ 6483
PP@@ 6483
PT@@ 6483
relative 6483
187@@ 6482
ole@@ 6481
vie 6481
RE 6478
oud 6478
how 6476
institut@@ 6476
BP 6471
Lac 6470
olm 6469
mg 6468
schließend 6468
1716 6465
oblig@@ 6462
1520 6461
Gregory 6458
Koz@@ 6458
Io@@ 6457
aissance 6457
Phillips 6456
oran@@ 6456
Eri@@ 6452
Lotus 6452
Ruta 6452
18.@@ 6448
tac@@ 6442
acet@@ 6441
ycl@@ 6439
48@@ 6436
João 6435
129 6434
bio 6433
ector 6433
2023 6432
definiti@@ 6432
Aman@@ 6431
vic@@ 6430
Miy@@ 6427
Denver 6425
G.@@ 6425
ivil@@ 6423
Eus@@ 6422
face 6421
Infrastr@@ 6417
Salt 6415
FS 6412
That 6409
you 6406
1640 6404
1729 6403
3,2 6403
rel 6403
Jür@@ 6397
otik 6397
Sten@@ 6394
icky 6394
Newcastle 6391
lon@@ 6390
Avi@@ 6389
1709 6388
ardi 6388
Congress 6385
165 6384
cum 6383
mbH 6381
gold 6380
Grace 6379
3,3 6378
Jupiter 6377
verschied@@ 6377
Grand@@ 6376
ational 6376
voir 6374
Bird 6372
Productions 6372
tives 6367
aq 6363
bia 6363
Sud 6362
elds 6362
68@@ 6360
deon 6360
Leonardo 6359
aeus 6359
kana 6356
1632 6353
phot@@ 6353
1705 6352
asp@@ 6352
What 6347
less 6345
Garr@@ 6343
Saône 6343
estig@@ 6343
Fou@@ 6341
fut@@ 6341
Hug@@ 6340
route 6339
AI 6338
nus 6337
Champion 6336
Lum@@ 6334
kong@@ 6334
Epi@@ 6333
Ma 6333
Gav@@ 6332
Sha@@ 6331
amoto 6330
Valle 6329
Rica 6328
Wrest@@ 6328
life 6328
Data 6324
cen@@ 6324
aming 6323
Low 6322
MT@@ 6321
César 6320
Byzant@@ 6319
Claire 6319
china 6318
Esper@@ 6316
ibl@@ 6313
Palace 6311
mj@@ 6311
even 6309
CM@@ 6308
Police 6308
gorod 6308
LS 6306
oide 6306
eas@@ 6305
Mér@@ 6303
his 6303
Myster@@ 6301
PP 6298
Weib@@ 6298
1450 6297
Infr@@ 6297
outs 6297
ape 6295
1731 6293
Sowjet@@ 6292
1635 6288
Forces 6288
Ted 6288
46@@ 6285
ugen@@ 6285
damal@@ 6284
tice 6281
Columbus 6280
Harvey 6280
archiv@@ 6279
onna 6279
VC 6276
irus 6276
open@@ 6276
trang 6276
Flem@@ 6273
1.0@@ 6271
ground 6271
unk 6271
ège 6270
Chau@@ 6269
lara 6269
Security 6268
tap@@ 6265
Yas@@ 6264
atu 6264
orus 6260
obil 6256
1685 6255
Chat@@ 6255
otz 6254
Commons 6252
Montréal 6252
Glob@@ 6250
Ril@@ 6249
1672 6246
Parish 6246
Cau@@ 6245
Ville 6243
aur 6243
Craig 6242
edi 6241
addi@@ 6239
pool 6237
Lille 6236
nick@@ 6235
1678 6233
137 6231
2,1 6229
Inter 6228
Pascal 6226
Pérez 6226
Bry@@ 6225
Teleg@@ 6224
essing 6222
3,6 6221
zan@@ 6221
± 6221
NT@@ 6220
è 6220
1726 6217
NT 6217
Ferdin@@ 6214
dition 6214
aching 6213
eks 6212
Jennifer 6211
Nac@@ 6210
ving 6209
inj@@ 6207
Spec@@ 6206
ening 6206
Ligue 6205
Versailles 6205
instrument 6205
BAS@@ 6201
ān 6199
ayn@@ 6198
uti 6198
Lancaster 6197
atisti@@ 6196
Swe@@ 6194
Fine 6193
Lup@@ 6193
thang 6193
eso 6190
Chic@@ 6183
Magdal@@ 6181
tennis 6178
oration 6171
ile@@ 6170
Aph@@ 6169
emas 6166
oslav 6166
ém@@ 6166
Hope 6165
Toledo 6165
embran@@ 6165
element 6164
éph@@ 6164
Petit 6163
March 6159
Nis@@ 6159
Euph@@ 6158
Source 6157
Nap@@ 6155
dek 6155
Hok@@ 6153
zhou 6153
Youth 6151
imbab@@ 6151
uit 6150
igi 6147
zam@@ 6147
dre 6146
nar 6146
After@@ 6145
Sean 6144
pour 6143
adop@@ 6139
For 6137
sent@@ 6136
1697 6134
1707 6134
aldo 6134
1704 6133
Simone 6133
Zealand 6132
lec@@ 6132
23.@@ 6130
DL 6130
Leeds 6129
audi@@ 6129
65@@ 6127
Ish@@ 6127
studios 6127
sala 6125
1699 6118
pH 6115
138 6113
Eugène 6112
mek@@ 6112
urban@@ 6110
119 6107
Paraguay 6106
uga 6105
1708 6104
Contr@@ 6104
plans 6099
kuti@@ 6098
ň 6098
Owen 6097
Daily 6096
ME 6092
Mar 6092
dite 6091
iders 6090
Rita 6089
Trinity 6089
Convention 6088
Banglad@@ 6086
WH@@ 6086
ongo 6086
Jagu@@ 6083
erre 6083
stream 6083
Sle@@ 6082
Works 6082
ensatz 6082
Alberta 6079
unat@@ 6078
eters 6077
1350 6075
Einstein 6075
44@@ 6074
SK@@ 6071
illegal 6071
inda 6071
recher@@ 6071
sier 6070
Rob 6068
egem@@ 6066
1570 6063
131 6059
Chelsea 6059
Eugene 6057
Military 6056
Wells 6056
fant@@ 6055
isto 6053
oman@@ 6052
termin@@ 6052
Grey 6051
Att@@ 6050
VV@@ 6047
wh@@ 6046
IR@@ 6045
Aux@@ 6044
tney 6044
lain 6043
Alfa 6039
Cohen 6039
Sr@@ 6038
sil 6038
Ling@@ 6037
Trinidad 6037
ľ@@ 6037
deleg@@ 6036
Industrial 6035
Page 6035
Biz@@ 6034
ces@@ 6034
tari 6028
Perth 6024
Aw@@ 6020
Blood 6020
mission@@ 6019
premi@@ 6018
20.@@ 6017
uel 6017
189@@ 6016
Champagne 6016
Foster 6015
trat@@ 6014
stars 6013
revi@@ 6012
Boulevard 6007
Cra@@ 6005
Earth 6004
Nature 6003
Part 6003
lic@@ 6002
Abd 6001
ilian 6001
Arro@@ 6000
Federal 5998
Secretary 5996
ease 5994
ampton 5992
1702 5990
jav@@ 5987
rem 5986
Bonaparte 5983
aru 5982
hing 5982
wn@@ 5982
onales 5980
profes@@ 5979
MV 5975
jud@@ 5975
other 5975
Nashville 5973
Robertson 5969
spons@@ 5969
Pyth@@ 5968
roy 5967
arro 5965
Or 5964
Diff@@ 5963
squ@@ 5961
Cloud 5959
Jo 5959
ysis 5959
NCAA 5957
estudi@@ 5956
blin 5955
MR 5954
Volkswagen 5954
Blanc 5952
sley 5951
anapolis 5949
eff 5949
ozo@@ 5948
Amerik@@ 5945
Commer@@ 5945
yes 5945
Agency 5941
Building 5940
tribu@@ 5934
1560 5932
Abel 5932
Fis@@ 5929
Let 5927
Aeg@@ 5924
Jose 5923
estes 5923
ful 5923
1580 5922
Tach@@ 5922
Clif@@ 5921
asis 5920
1622 5919
O.@@ 5919
element@@ 5918
Rous@@ 5917
7000 5916
obs@@ 5916
stantin 5916
Mason 5915
PlayStation 5915
IV@@ 5914
Pompe@@ 5913
Iron 5910
Writ@@ 5910
CE 5908
Freud 5908
Dw@@ 5907
eus@@ 5907
Ör@@ 5906
Anj@@ 5903
Hong 5901
Sekre@@ 5900
Scotland 5899
Córdoba 5898
EF@@ 5898
Tif@@ 5898
3,4 5896
Maked@@ 5891
Tours 5891
oshima 5890
Cri@@ 5881
timent 5881
ships 5880
Quir@@ 5878
ily 5871
rico 5871
Adelaide 5869
put 5869
340 5868
chard 5868
Tub@@ 5867
Ted@@ 5865
Franç@@ 5864
Airbus 5863
Ye@@ 5863
Lucy 5862
Phy@@ 5858
Bav@@ 5856
Clarke 5856
ism 5856
jun@@ 5856
qui 5854
wn 5854
neo 5853
Cole 5852
nj@@ 5851
andi 5848
Battle 5846
Clin@@ 5846
Rocky 5845
entan 5844
lee 5843
villa 5841
iel 5840
odor@@ 5840
Tek@@ 5839
Krasno@@ 5838
Steel 5836
rd 5836
Norfolk 5835
Barb@@ 5832
Fay@@ 5832
Pete 5829
zor@@ 5829
Burn@@ 5824
Class 5823
atal 5823
pun@@ 5823
Fe 5819
Rachel 5816
Duch@@ 5815
Muh@@ 5813
UC@@ 5813
Weltkri@@ 5812
quel@@ 5812
aps 5809
Mais 5804
Memphis 5803
ire@@ 5803
75@@ 5802
Geoff@@ 5802
afro@@ 5801
Liu 5800
né 5799
aea 5798
former 5798
nu 5797
Bennett 5796
vs 5796
alk@@ 5792
Tay@@ 5791
exper@@ 5791
vice 5790
Guinea 5789
azar 5789
God 5786
entino 5786
avo 5783
lou@@ 5782
bank@@ 5780
1590 5778
1703 5775
anto 5775
aining 5773
Municipal 5770
Rapha@@ 5767
Cameron 5763
EB@@ 5763
Leslie 5762
Maritime 5761
Trig@@ 5760
iver 5760
BM 5758
CF@@ 5756
Lid@@ 5756
Montpellier 5751
Yorkshire 5751
adia 5750
lenen 5750
ru 5747
oney 5746
Cly@@ 5745
Jab@@ 5745
orama 5744
Milwaukee 5743
T.@@ 5742
this 5741
136 5739
Viv@@ 5738
Hunt 5737
abes 5737
Most 5734
mg@@ 5734
nem@@ 5734
Staf@@ 5733
bunden 5733
BW@@ 5732
Unic@@ 5732
azi 5730
elop@@ 5728
Chen 5726
Hell 5726
Jenn@@ 5725
nek 5725
Ireland 5722
1610 5719
Seven 5715
fig 5715
uca 5715
Drive 5713
152 5711
Homo 5709
Curtis 5708
alc@@ 5708
kard 5707
CM 5706
Cho@@ 5705
anges 5705
zem@@ 5705
atmosph@@ 5704
Children 5703
Side 5703
Hopkins 5702
ís 5699
1631 5698
Ow@@ 5698
Fernández 5697
Si 5696
ague 5695
Ain 5692
Mati@@ 5692
kamera 5691
obe 5690
144 5688
anyon 5687
Emily 5686
statue 5684
Ahmed 5682
Son 5680
Mali@@ 5679
Annie 5677
Vienna 5676
3500 5675
pek@@ 5669
225 5668
Mud@@ 5668
Richards 5668
142 5667
pas 5667
Kid@@ 5666
1654 5665
N.@@ 5665
Zhang 5664
Tales 5663
Paz 5659
Arth@@ 5658
Ana 5657
onica 5657
Sheffield 5654
agog@@ 5654
new 5654
1675 5652
berland 5650
kies 5650
rac@@ 5650
Canadi@@ 5647
Lost 5646
icon 5646
1625 5642
DA@@ 5640
Storm 5640
onium 5640
vel 5637
1661 5636
Emmanuel 5636
ighton 5634
Petro@@ 5633
chlor@@ 5633
shi 5633
Léon 5628
trik 5628
Born 5626
Gloria 5625
133 5624
adul@@ 5622
Magic 5619
bius 5619
cover 5619
kari@@ 5619
Fire@@ 5618
abilen 5618
minute 5617
Westminster 5616
Tibet 5615
tür 5615
iting 5614
kah@@ 5610
Esc@@ 5609
Justice 5609
cop@@ 5609
Prof. 5608
origines 5608
1.500 5606
fax 5604
Pear@@ 5602
Shaw 5602
seek@@ 5602
Tigers 5601
1684 5600
EF 5597
Xen@@ 5596
oven 5594
divers@@ 5593
leur 5592
Julien 5591
Lyn@@ 5586
agi 5586
software 5586
Iran@@ 5582
wig@@ 5582
Smo@@ 5581
Gust@@ 5577
benach@@ 5577
Böl@@ 5576
Timor 5575
Roche 5573
43@@ 5572
Age 5572
185 5571
Corpor@@ 5569
Trail 5569
Compos@@ 5567
Za@@ 5566
oda 5563
Happy 5562
A2 5561
Churchill 5561
cock 5561
,@@ 5558
BO 5557
Liberal 5557
Machine 5557
ason 5556
CAF 5555
Enterprise 5553
Nebraska 5553
seen 5553
EL 5552
big@@ 5552
} 5546
invol@@ 5545
134 5544
aza 5544
Å 5544
Crim@@ 5543
Musée 5543
n.@@ 5543
Call 5541
Arsen@@ 5540
Herschel 5538
Montgomery 5538
Ricardo 5538
gon@@ 5538
19.@@ 5537
Betty 5536
186@@ 5532
enfr@@ 5532
standards 5532
zil@@ 5530
essa 5529
Serv@@ 5527
ulin 5526
Belle 5525
1687 5523
atsu 5520
uil 5520
aia 5517
Emil@@ 5514
foss@@ 5512
1629 5511
versit@@ 5508
Ami@@ 5506
Mf@@ 5506
entos 5506
ives 5506
unga 5506
Großbritanni@@ 5505
Nazi 5502
CV@@ 5501
Que@@ 5499
Chand@@ 5498
jen 5494
Senegal 5491
steri@@ 5490
Powell 5489
Yang 5486
güt@@ 5485
Maya 5480
mali@@ 5479
2.0 5478
Woman 5478
1656 5477
nay 5477
His@@ 5472
sek 5472
duc@@ 5471
oh 5471
197@@ 5469
Hannah 5469
enti 5469
paras@@ 5469
Sask@@ 5468
rank 5468
1603 5466
othek 5465
stic@@ 5465
eves 5464
Ph.@@ 5462
brook 5462
uto 5462
Government 5459
Elena 5452
progres@@ 5451
maj@@ 5450
Ahmad 5447
dov@@ 5447
orno 5447
Pér@@ 5445
ean 5445
sea 5443
wild 5442
olan 5441
1686 5440
Greg 5438
ornam@@ 5435
sekon@@ 5435
1628 5432
integr@@ 5431
ina@@ 5430
Dark@@ 5429
Andrews 5428
Mug@@ 5428
Pho@@ 5428
itali@@ 5426
radio 5426
arta 5423
38,@@ 5421
ders@@ 5420
ellos 5419
Chel@@ 5418
Hauts 5417
BB@@ 5415
Vita 5414
anni 5413
141 5412
liest 5412
Vend@@ 5411
Cog@@ 5410
destr@@ 5410
Emilia 5409
mari@@ 5409
Dubai 5407
problem@@ 5405
icia 5404
atos 5402
ensa 5400
ndi@@ 5399
hic 5398
AX 5396
Alba 5395
numer@@ 5395
Spirit 5393
osi 5391
Karen 5389
198@@ 5387
Glen 5386
enem@@ 5386
computer 5384
480 5383
shop 5383
kod@@ 5382
Civil 5381
Rhode 5380
illera 5378
1621 5376
1652 5376
Tra@@ 5374
pora 5373
Hali@@ 5372
Pat 5371
CBS 5367
Compagnie 5367
sph@@ 5367
Nept@@ 5364
works 5363
Kw@@ 5361
President 5357
sports 5357
ombe 5356
OH 5355
PI 5355
Dipl@@ 5354
ional 5352
Brooks 5351
tico 5349
Voice 5347
mental 5347
1598 5346
journalist 5346
Unit 5345
1626 5344
Reed 5342
cha@@ 5342
illar@@ 5342
Cap 5341
Sidney 5341
1664 5339
igan 5338
Frédéric 5337
idas 5337
Price 5336
S.A. 5336
uka 5336
va@@ 5334
Bourbon 5333
mons 5333
erson 5332
Casa 5329
atia 5329
1623 5327
relevant 5327
Ili@@ 5326
Theodore 5325
Nielsen 5321
Fam@@ 5320
Imperial 5320
Bid@@ 5319
odon@@ 5316
Hô@@ 5315
Program 5315
öne@@ 5315
dul@@ 5311
iligen 5310
1572 5309
Canterbury 5309
Fisher 5309
enzo 5307
Bertr@@ 5301
Borough 5301
Harbor 5301
atch@@ 5301
Haj@@ 5298
ush 5297
Esk@@ 5296
Pey@@ 5294
qualif@@ 5294
Darwin 5292
Jul@@ 5291
Wellington 5291
lair 5291
mab@@ 5291
actus 5289
Spring 5288
ves@@ 5286
oc 5284
VIII 5280
ices 5279
xa 5278
Freedom 5277
Castell@@ 5275
ext@@ 5274
yers 5274
Jessica 5273
ulos 5272
urai 5272
Bryan 5271
Mills 5271
igg@@ 5271
Kingston 5270
1667 5268
Arte 5268
edy 5266
Rip@@ 5263
ño 5263
plateau 5262
Pearl 5261
1668 5260
ead 5260
Poin@@ 5257
Scienti@@ 5257
420 5252
Intel 5250
ülen 5248
max 5247
dil 5246
odon 5246
Netflix 5243
196@@ 5240
Arron@@ 5240
Report 5240
Suzuki 5237
Essex 5233
ambul@@ 5232
Blake 5229
fordshire 5229
model@@ 5228
Campo 5227
Tüb@@ 5224
Gibraltar 5223
1642 5222
EV@@ 5222
Kenny 5221
Nantes 5221
1624 5219
Alto 5219
arms 5217
Henderson 5216
Marino 5216
1666 5215
Ellis 5214
Glenn 5211
Nog@@ 5211
illac 5211
Croix 5209
Polic@@ 5209
spo@@ 5209
1676 5207
tory 5204
Joel 5203
Nih@@ 5203
Asian 5202
iet 5201
patron 5200
Third 5199
ects 5199
Assembly 5198
195 5197
icul@@ 5194
Xavier 5193
Eduardo 5191
Rég@@ 5188
offer 5188
Delaware 5186
Food 5186
ieh@@ 5186
1633 5185
Nepal 5185
Uganda 5183
sit 5182
temp@@ 5182
Rail@@ 5180
grad@@ 5179
Gibson 5178
Sánchez 5178
eir@@ 5178
Milton 5177
Sonic 5177
Leone 5176
Hern@@ 5172
1536 5171
pros@@ 5171
umi@@ 5170
-- 5168
stadium 5168
ansa 5167
digital 5167
1526 5165
FL@@ 5164
Percy 5163
Tech 5162
Als@@ 5161
Malcolm 5161
loo 5158
Scr@@ 5155
enorme 5155
1665 5154
Isabel 5150
Jesse 5150
opot@@ 5150
telle 5149
mec@@ 5148
Trab@@ 5147
Impact 5146
köl@@ 5145
Newport 5143
Uc@@ 5142
49,@@ 5141
stage 5140
cas 5139
iji 5139
provo@@ 5137
MT 5136
opter@@ 5134
ext 5132
ieurs 5131
gate 5129
dol 5128
wed@@ 5127
ecca 5124
Diamond 5123
suff@@ 5122
LM 5121
got 5120
Critics 5119
sac 5118
Émile 5117
mina 5116
143 5115
Like 5115
Patricia 5115
engu@@ 5115
ll 5115
tir 5115
Rodrigu@@ 5114
201 5110
Duncan 5110
1644 5109
gam@@ 5109
mik@@ 5109
oid@@ 5108
terror@@ 5108
Pyrénées 5106
ved@@ 5104
Android 5103
anca 5103
privileg@@ 5103
Traf@@ 5101
bai 5101
Over 5099
And 5092
UM 5092
enas 5092
Teresa 5091
wing 5091
standard 5089
Tsu@@ 5088
Industries 5087
Burton 5085
1609 5084
CT 5084
Davies 5082
Wu 5082
arom@@ 5081
147 5080
olet 5079
Guay@@ 5078
work 5078
Light@@ 5076
Sebasti@@ 5074
Pru@@ 5073
Collection 5072
pher@@ 5072
1555 5071
erschi@@ 5071
Animation 5070
eps 5068
30,@@ 5066
SO 5066
gren@@ 5065
hyper@@ 5064
ox 5064
quis@@ 5063
adet 5061
Broad@@ 5057
oise 5057
Simpson 5053
fell 5053
MIT 5052
Peace 5052
gig@@ 5052
Abit@@ 5051
Aviation 5051
olling 5051
phin 5050
Guard 5049
MI 5049
aines 5047
Metropolit@@ 5046
Plymouth 5044
1636 5043
aren@@ 5043
Windsor 5042
Galil@@ 5041
Circle 5038
1645 5037
Tud@@ 5035
1651 5034
Nucle@@ 5034
Centro 5031
gall@@ 5031
nos 5030
vière 5030
Yak@@ 5028
eson 5028
Corr@@ 5027
Lyc@@ 5026
151 5025
Shakespe@@ 5025
boys 5025
away 5024
1612 5023
Jum@@ 5021
~ 5021
vus 5020
Now 5019
156 5018
1643 5018
Kod@@ 5018
ź 5018
Hardy 5017
ril 5017
gun 5016
Martín 5015
agus 5012
nm 5012
Democratic 5011
yle 5011
Mab@@ 5007
Round 5006
bands 5006
vot@@ 5006
440 5004
Olympic 5002
ufac@@ 5002
TR@@ 5001
hie 4999
Days 4998
nies 4997
Del 4996
1653 4995
cis 4994
euve 4993
otop@@ 4993
Pseudo@@ 4992
dra@@ 4992
uth@@ 4992
onau@@ 4991
arist@@ 4989
aste 4989
edia 4989
Flying 4988
ì 4987
Crawford 4986
titu@@ 4986
fu 4985
1637 4983
ika@@ 4983
1547 4982
1655 4982
Dut@@ 4981
ful@@ 4980
Domingo 4979
Palm 4978
rant 4978
Fraser 4977
Zan@@ 4974
stitut@@ 4974
Manila 4973
Hesse 4972
1619 4971
lay 4971
esh 4968
Vivi@@ 4967
Bo 4966
Chester 4966
éli@@ 4964
Speed 4963
Legislative 4961
acha 4961
nas 4961
Fair 4960
mis 4959
ple 4955
motiv@@ 4954
Heritage 4952
yal@@ 4951
Aper@@ 4950
Obama 4950
UTC 4950
mere 4950
Guardian 4949
oides 4949
perten@@ 4949
América 4948
SH 4948
Tav@@ 4948
Woods 4948
199@@ 4947
Thomson 4946
anche 4946
Pou@@ 4945
33,@@ 4943
Bart 4942
ación 4942
Guide 4940
Tell 4940
Ó@@ 4940
Büt@@ 4939
Exchange 4938
Abd@@ 4937
enia 4936
offensive 4936
DOS 4935
Mali 4931
1559 4930
rea 4930
oval 4927
s.@@ 4927
Rey 4925
open 4924
fic 4923
Supreme 4922
itar 4922
1605 4920
1662 4919
iggins 4917
1627 4916
aman 4913
ël 4913
liers 4912
icket 4911
iso 4911
tox@@ 4911
Beta 4908
CL 4908
yna 4908
olik 4907
tras 4906
vil 4906
Full 4905
Miz@@ 4903
service 4902
Ced@@ 4898
Toy@@ 4898
Twitter 4898
Martínez 4897
Staff 4896
Museo 4893
elos 4893
ewa 4893
melod@@ 4893
lap@@ 4892
gios 4891
Todd 4890
185@@ 4887
Monter@@ 4887
agh 4887
thi 4887
Carol 4884
sements 4884
pit@@ 4883
Alonso 4881
Silver@@ 4880
Zeitr@@ 4880
erek 4880
phyl@@ 4880
Bailey 4879
flot@@ 4879
finals 4878
Plaza 4877
vey 4877
45,@@ 4876
Raw@@ 4876
36,@@ 4873
Prob@@ 4873
Rights 4873
1649 4872
modernes 4872
dres@@ 4869
sha 4869
spin@@ 4867
Fus@@ 4866
dison 4863
trus@@ 4863
Calais 4861
Urban@@ 4860
Poz@@ 4859
Shak@@ 4857
abu 4857
Medicine 4853
146 4852
Apr@@ 4851
Pont@@ 4849
hp 4849
uda 4849
1521 4847
gun@@ 4846
agon 4844
tile 4844
1669 4841
erland@@ 4841
Segunda 4840
tamin@@ 4840
Fren@@ 4839
oğlu 4838
venture 4838
1638 4835
Aston 4835
Brook@@ 4835
ables 4835
ḫ@@ 4833
Luc 4832
car 4832
improv@@ 4830
Crom@@ 4828
Vu@@ 4828
eiro 4828
shel@@ 4828
refle@@ 4826
rum 4825
Authority 4824
run 4824
Aul@@ 4822
Know@@ 4821
ví@@ 4821
48,@@ 4820
Andro@@ 4818
toria 4818
Lop@@ 4817
Théâtre 4817
group 4817
lí@@ 4817
entry 4814
pping 4811
1556 4809
Mill 4809
RN 4809
har 4809
Fleet 4808
fat 4808
user 4805
Grenoble 4803
Kib@@ 4801
alus 4801
agin@@ 4799
Shan@@ 4798
Us 4798
1604 4797
portr@@ 4796
Eagle 4795
bey 4795
tric@@ 4794
Sergio 4793
205 4792
Inc. 4792
Plata 4792
1658 4791
Middle 4791
Rouen 4790
Prior 4789
Riz@@ 4789
yu 4789
47,@@ 4788
lower 4788
1535 4785
normal 4785
Beeth@@ 4784
RI 4784
resid@@ 4783
1616 4782
Clermont 4782
assi 4782
horizontal 4781
dle 4780
Monroe 4778
yat@@ 4778
35,@@ 4777
Walk 4776
ahi 4776
agers 4775
sekre@@ 4775
downs 4774
Auckland 4772
Thé@@ 4772
pra@@ 4771
Mec@@ 4769
Zam@@ 4769
kategor@@ 4768
modern 4767
omy@@ 4767
Brisbane 4766
historique 4766
1585 4765
sol 4765
Chu@@ 4764
139 4763
Richardson 4761
Triple 4761
Queens 4758
astern 4757
Berry 4754
separate 4753
Swan@@ 4752
outh 4749
ign 4747
ATA 4746
dn 4746
sou@@ 4746
310 4745
Dad@@ 4745
Fond@@ 4745
William@@ 4745
ICA@@ 4742
nek@@ 4741
tradition 4741
print 4740
quin@@ 4739
lina 4737
pic@@ 4735
Ocean 4733
More 4732
Bronzemed@@ 4730
option 4730
gon 4729
rise 4729
Federico 4728
NAS@@ 4727
iny 4726
Apar@@ 4724
oca 4724
bet 4720
dou@@ 4718
Common 4717
Connor 4717
ocy@@ 4717
Palma 4716
tribut@@ 4715
Gate 4714
Jet 4714
Raz@@ 4714
154 4713
eki 4709
Muk@@ 4705
Montre@@ 4702
RAM 4702
Ho 4701
sous 4700
Also 4699
Forbes 4697
Nissan 4697
Are 4696
370 4695
indu@@ 4695
153 4692
hyp@@ 4690
Sylv@@ 4685
Torre 4685
music 4685
Honduras 4683
Christian@@ 4680
berry 4679
minut@@ 4679
asse@@ 4677
odes 4677
Blu 4675
1641 4670
Comun@@ 4670
diff@@ 4670
Batman 4666
Pink 4663
ection 4662
opus 4662
Granada 4661
Flash 4660
Porter 4660
34,@@ 4657
Kou@@ 4656
Zero 4656
Clay@@ 4655
vill@@ 4655
Cay@@ 4653
158 4652
Amy 4652
Chen@@ 4652
Dragon 4651
yne 4651
CL@@ 4650
Torres 4650
Anci@@ 4649
alo@@ 4649
oul@@ 4649
166 4646
XX 4645
osh 4644
ž 4644
Of@@ 4642
pler@@ 4640
list 4639
Andal@@ 4637
hib@@ 4637
162 4636
ombi@@ 4636
Gim@@ 4635
administrative 4635
1597 4634
aler@@ 4634
Mov@@ 4633
Season 4633
eting 4631
immun@@ 4631
leges 4631
hot@@ 4627
64@@ 4625
Anto@@ 4624
GPS 4622
cos@@ 4621
ähr 4621
Oro@@ 4619
Phan@@ 4619
Sos@@ 4617
Get 4616
Choice 4615
Key 4612
tera 4612
AIDS 4610
Tyler 4610
Wash@@ 4610
ña 4609
Hud@@ 4603
enos 4603
ş@@ 4603
Jup@@ 4602
teurs 4602
UB 4600
fat@@ 4600
O2 4599
ences 4599
inin 4599
Dorothy 4598
Academia 4597
luch@@ 4597
Chim@@ 4595
door 4595
iliz 4595
Glou@@ 4594
NP 4594
ân@@ 4594
Equi@@ 4593
Financial 4593
boro 4592
fundament@@ 4589
Bang 4588
lars 4585
1611 4584
dyn@@ 4583
eze 4582
168 4581
Artem@@ 4581
ocer@@ 4581
Kiss 4579
biens 4578
enzie 4576
Phyl@@ 4575
chia 4575
Kip@@ 4574
Liberty 4574
Lour@@ 4574
thm 4573
Mer 4571
nos@@ 4570
ucci 4570
53@@ 4569
Homer 4569
HIV 4568
1568 4567
pharm@@ 4567
sug@@ 4567
fic@@ 4565
Springfield 4563
ca@@ 4563
digkeiten 4563
WHO 4561
Yar@@ 4560
Reynolds 4558
Crystal 4557
1659 4556
chu@@ 4555
etas 4554
44,@@ 4553
sia 4553
1583 4552
Papua 4552
Discovery 4549
HA 4549
Sahara 4548
Sev@@ 4548
asia 4547
flam@@ 4547
163 4546
Environ@@ 4546
Voy@@ 4546
Pradesh 4545
BT@@ 4542
Dylan 4540
bande 4539
You@@ 4538
kem@@ 4538
pist@@ 4537
Bros. 4536
256 4535
istry 4534
eras 4533
robus@@ 4531
46,@@ 4530
française 4530
egal 4527
sep@@ 4526
1569 4524
Instituto 4524
dha 4523
arias 4522
eaux 4522
Cler@@ 4521
absor@@ 4519
erde 4519
Rotten 4518
mara 4514
Yves 4513
Guadalajara 4511
onic 4511
thon 4509
extrem@@ 4507
NBC 4506
Xbox 4506
oya 4505
Galatasaray 4504
sibil@@ 4504
afor@@ 4503
thouse 4503
1615 4500
57@@ 4500
fan 4500
mage 4500
Chapelle 4499
Sporting 4496
designer 4496
rit 4495
seau 4495
Chan 4494
azy 4494
430 4493
Christoph@@ 4493
Hassan 4493
Göl@@ 4492
Pendant 4491
alber@@ 4491
arca 4491
led@@ 4491
Manit@@ 4490
Yun@@ 4490
say@@ 4488
Sco@@ 4486
ò@@ 4484
ective 4483
eron 4483
Ibrahim 4482
Moselle 4482
Bath@@ 4481
elsen 4481
emey@@ 4479
primiti@@ 4479
Winston 4478
lex 4478
Tamil 4476
éry 4476
Potter 4475
bayr@@ 4475
Yuk@@ 4473
esti 4472
DT 4471
manif@@ 4471
1565 4468
Bradley 4467
1595 4466
1607 4466
singer 4466
unction 4466
Singh 4465
56@@ 4462
BL@@ 4462
Entr@@ 4462
GR@@ 4462
Myanmar 4462
gec@@ 4462
Bey@@ 4461
Camille 4461
Defense 4461
mur@@ 4457
ible 4456
linear 4453
Lot 4452
Má@@ 4452
Buz@@ 4449
Dominique 4449
Take 4449
Train 4449
Monica 4448
elier 4448
54@@ 4447
Short 4447
rov@@ 4445
leader 4443
Peugeot 4442
Ais@@ 4441
Maxwell 4439
asco 4439
Walt 4436
extra 4435
Eagles 4433
Buff@@ 4431
Ports@@ 4431
Affairs 4429
Sultan@@ 4428
ait@@ 4428
chet 4428
km2 4428
Upper 4427
290 4426
iman 4426
148 4423
MD 4423
ingi@@ 4423
müd@@ 4423
Carp@@ 4421
tros 4421
Vice 4420
39,@@ 4417
lov 4417
olympi@@ 4417
añ@@ 4416
non@@ 4416
Dest@@ 4413
Chuck 4412
Omar 4412
aume 4410
1601 4408
161 4407
Trou@@ 4407
coun@@ 4407
H2O 4406
Jou@@ 4404
ispi@@ 4404
Vicente 4403
1571 4402
dea 4402
sini 4402
HO@@ 4401
Stan 4401
shore 4401
ovic 4400
dam 4396
Johannesburg 4395
rian 4394
Ago@@ 4392
Gérard 4392
bow 4392
lingu@@ 4392
184@@ 4389
ambo 4388
pio 4387
202 4386
950 4386
Yosh@@ 4386
senior 4386
Cerro 4385
UT@@ 4383
ip 4382
jin 4382
quez 4382
Colomb@@ 4380
ignan 4379
wi 4377
udo 4374
usi 4374
trac@@ 4373
master 4372
1592 4371
Chamb@@ 4371
torio 4371
1606 4370
235 4370
perman@@ 4370
SAR@@ 4369
esty 4369
igne 4369
Oh 4368
1515 4365
Desp@@ 4364
erina 4364
Ukr@@ 4363
struc@@ 4363
nak@@ 4362
eut 4360
mail 4358
liv@@ 4357
58@@ 4355
cy@@ 4352
unders 4352
atrice 4350
imperi@@ 4349
aser 4347
aham@@ 4346
176 4345
Claudio 4344
U. 4343
Alfredo 4342
♀ 4341
anic 4335
Giants 4334
Moz@@ 4334
idan 4334
resist@@ 4334
Lynn 4333
Mustafa 4333
Small 4333
orial 4333
Madeleine 4332
dans 4332
Félix 4331
bourne 4330
rug@@ 4330
b. 4329
inho 4329
Adi@@ 4328
sup@@ 4327
cle 4324
enga 4324
Florence 4321
212 4319
ält 4319
KO@@ 4318
adam@@ 4317
tain 4317
hou@@ 4316
Gilles 4313
fac@@ 4312
Friends 4311
Benedic@@ 4310
assa 4310
Celtic 4309
Jamie 4309
Suisse 4309
té 4308
Jr. 4307
ateur 4306
tang@@ 4306
Gill 4300
Jackie 4300
chant 4300
boy@@ 4298
lows 4297
pios 4297
psy@@ 4297
192 4296
Norman@@ 4295
tex 4295
Ital@@ 4294
215 4293
tek 4293
Milan 4291
TT@@ 4290
etus 4289
Æ@@ 4289
alaya 4287
cott 4287
157 4286
37,@@ 4286
Night@@ 4286
pop 4286
Garcia 4285
1596 4284
poli 4284
Aircraft 4277
vas 4277
shan 4276
Books 4275
asy@@ 4274
Alfonso 4272
305 4270
Dh@@ 4270
opsis 4270
Enrique 4269
Kart@@ 4269
Zab@@ 4269
Durham 4268
borne 4267
Poli@@ 4266
estre 4266
Sweet 4265
Repräsentant@@ 4264
opar@@ 4263
211 4260
Trans 4260
p. 4260
albums 4259
kerungs@@ 4259
aban 4258
Nazar@@ 4257
akes 4256
center 4256
iki@@ 4256
164 4255
Lenin 4254
dog@@ 4253
Deportivo 4252
Josh 4252
Polo 4252
Joshua 4250
32,@@ 4248
1492 4244
WC 4244
Bismar@@ 4243
Marguerite 4242
aim@@ 4242
iya 4242
acia 4241
relief 4240
Princip@@ 4238
ect@@ 4238
figür@@ 4238
Cox 4236
hul@@ 4236
Rhin 4235
iterran@@ 4235
LE 4234
Édouard 4234
server 4231
ulia 4229
ilis 4228
original 4228
Frances 4227
gil 4227
1577 4226
67@@ 4224
estim@@ 4223
U.@@ 4222
Samb@@ 4220
Chevrolet 4219
lets 4219
flora 4218
bas 4217
193 4216
pian@@ 4216
Whitney 4215
Floyd 4214
ancer 4213
partam@@ 4213
Intelligence 4210
entier 4210
geni 4209
Chry@@ 4208
KV@@ 4207
donn@@ 4206
203 4204
Sa 4204
Christmas 4202
sult@@ 4202
Foreign 4201
Somme 4201
167 4198
Sá@@ 4198
auc@@ 4198
dil@@ 4198
Ork@@ 4197
Cardiff 4196
BT 4194
allas 4193
Inde@@ 4192
Clay 4190
From 4190
hua 4190
send 4189
Orig@@ 4188
konser@@ 4188
othy 4180
Edit@@ 4179
oting 4179
24.@@ 4178
Mohamed 4176
icle 4176
Michelle 4175
yph@@ 4175
Sain@@ 4173
kok@@ 4172
angu@@ 4169
estan 4168
peti@@ 4168
Alexis 4167
Under 4166
Room 4164
1519 4162
valu@@ 4162
gus@@ 4160
182 4159
infrastr@@ 4159
Cyr@@ 4158
inson 4157
illas 4156
ticus 4156
275 4154
wissen@@ 4154
vert 4153
Mercury 4151
carbon@@ 4151
Sussex 4150
Bertrand 4149
Know 4149
order 4149
áz@@ 4149
Burns 4148
hun@@ 4148
Our 4147
Ajax 4146
Store 4144
cro@@ 4144
walk 4144
inia 4140
PM 4137
Zeus 4137
East@@ 4136
Independ@@ 4136
Mi 4136
thing 4135
Medina 4134
Glen@@ 4133
ét@@ 4131
Bloom@@ 4130
ù 4130
Kid 4129
tard 4129
stock@@ 4128
prov@@ 4127
99@@ 4125
Giov@@ 4125
jum@@ 4125
atan 4124
bian 4124
cri@@ 4124
ja@@ 4124
Chase 4123
Chi 4123
Southampton 4123
ading 4123
adis 4122
opl@@ 4120
engo 4119
172 4118
prol@@ 4118
Electronic 4116
dic 4116
diz@@ 4116
rail@@ 4116
Haiti 4115
169 4113
cus@@ 4112
medium 4112
shor@@ 4112
Contemporary 4111
Fuj@@ 4111
âte@@ 4111
How 4109
301 4108
Britanni@@ 4107
Chur@@ 4107
Oise 4106
Secret 4105
50,@@ 4104
seres 4104
Vladimir 4103
child 4102
later@@ 4101
Rennes 4100
Bella 4099
Joyce 4099
Év@@ 4099
Publishing 4098
Kingdom 4097
Sehens@@ 4097
idor 4097
With 4096
Jov@@ 4093
Nep@@ 4090
Leicester 4087
point 4087
Gil 4086
Muz@@ 4086
chan 4086
sprint 4086
upe 4086
Hig@@ 4085
shows 4084
kuh@@ 4083
Karab@@ 4081
Latin 4081
ḥ@@ 4081
Dong@@ 4080
restr@@ 4079
173 4077
Nicaragua 4077
Un 4077
Brunswick 4076
Ferro@@ 4076
Short@@ 4076
Pé@@ 4075
chum@@ 4075
Living@@ 4074
Po 4074
umbr@@ 4074
177 4073
éra 4072
Make 4071
Nit@@ 4070
ő 4069
Fey@@ 4068
UE@@ 4068
med 4067
xy 4065
Garonne 4064
Infin@@ 4063
Javier 4063
Grove 4062
Galaxy 4061
195@@ 4060
CAR 4059
Lionel 4057
Citi@@ 4056
link 4056
Preston 4055
Wing 4054
Compan@@ 4053
Kids 4048
erine 4048
leen 4048
Horse 4047
voi 4047
acle 4046
olan@@ 4044
Lati@@ 4043
Rice 4043
vidence 4043
arkad@@ 4042
sac@@ 4042
isson 4041
won 4041
uela 4040
Cré@@ 4039
ayan 4039
tham 4039
him 4037
still 4033
date 4032
cola 4028
enus 4028
illus 4028
Edo 4027
bour 4027
Body 4026
178 4025
Lef@@ 4023
hu 4023
Jeremy 4021
arc@@ 4020
gues 4020
leng@@ 4020
Harper 4019
milli@@ 4018
Cub@@ 4017
McDonald 4017
Wyoming 4017
camp 4016
olas 4016
Rain 4015
.C. 4013
Lion 4013
159 4010
alleg@@ 4010
kim@@ 4009
lah@@ 4007
206 4006
LED 4006
chim 4006
world 4006
mez@@ 4003
Alc@@ 4002
bombar@@ 4002
cer 4002
stant@@ 4002
permanent 4001
Amazon 3999
Vich@@ 3999
ías 3997
Dais@@ 3996
Wide 3996
gir@@ 3996
Din 3995
annis 3994
ID@@ 3993
illustr@@ 3993
Economic 3992
class 3991
boards 3990
Camer@@ 3989
gul@@ 3989
awi 3988
Sinc@@ 3985
originale 3984
eurs 3983
ų 3983
Bas 3982
cial 3982
Provincial 3981
188 3979
uso 3978
218 3977
Conservation 3973
Beno@@ 3972
veh@@ 3971
74@@ 3970
Luna 3970
sat 3970
Govern@@ 3969
Đ@@ 3969
Neill 3968
subs@@ 3967
tima 3966
183 3965
25.@@ 3965
Carroll 3963
Idaho 3962
Sul 3962
chiff@@ 3961
dag@@ 3959
esper@@ 3956
Moul@@ 3955
Squadron 3955
171 3953
Zuk@@ 3953
had 3951
sud@@ 3951
Ü 3951
Jin@@ 3950
anan 3950
bag@@ 3949
materials 3949
vation 3948
eses 3947
oras 3947
demonstr@@ 3946
Ail@@ 3945
Bund@@ 3945
dub@@ 3945
Drake 3944
Greene 3941
Laos 3941
İ@@ 3941
tests 3940
Afgh@@ 3939
Athle@@ 3939
burgh 3939
ool 3939
Antiqu@@ 3937
Hous@@ 3934
Hull 3932
andal@@ 3931
espe@@ 3931
Somerset 3928
anor 3928
fluor@@ 3928
978 3927
Su 3927
aret 3927
Estadio 3926
Oz@@ 3926
Crown 3925
Game@@ 3925
iba 3924
Aix 3923
brill@@ 3922
Chang 3921
Somalia 3921
Bezieh@@ 3919
cep@@ 3919
NCA@@ 3918
bekistan 3918
imus 3918
tural 3918
training 3914
Ella 3913
When 3913
bow@@ 3913
umba 3913
365 3911
Watch 3909
BD 3908
oral 3908
184 3907
Samp@@ 3907
aron 3907
examen 3907
149 3906
uman 3906
gy@@ 3905
HD@@ 3903
Morrison 3903
gium 3901
ours 3899
Navarra 3898
they 3897
A4 3896
Boz@@ 3896
Jeffrey 3896
eza 3896
lieu 3896
Brien 3893
Swift 3893
Dog 3892
sville 3892
Merc@@ 3891
Pug@@ 3891
Neo 3890
Christophe 3888
chang@@ 3888
RN@@ 3887
wili 3884
érie 3884
Génér@@ 3882
cot 3882
iku 3882
period@@ 3882
mili@@ 3881
avirus 3876
crip@@ 3876
trig@@ 3876
DD 3874
Oakland 3874
Te 3874
map@@ 3874
rá@@ 3874
Trib@@ 3873
hibi@@ 3873
76@@ 3872
2030 3871
Miranda 3870
osus 3870
Jake 3868
Nash 3868
Ov@@ 3868
mat 3868
Frances@@ 3867
sale 3867
66@@ 3865
Aran@@ 3865
Cat 3865
Gó@@ 3865
Investig@@ 3865
Case 3864
Este 3863
má@@ 3863
quin 3861
tax 3861
Wars 3859
tiers 3859
êt 3859
‰ 3858
Hood 3857
aze 3857
ř 3857
His 3856
come 3856
information 3856
Joy 3855
Angels 3854
Aquit@@ 3853
ilio 3852
uelta 3851
ól@@ 3851
bos 3850
Ts@@ 3849
raph 3849
som 3849
W.@@ 3848
thus 3848
tim 3848
100@@ 3846
Öster@@ 3846
Capitol 3845
Emilio 3845
Euc@@ 3845
ances 3845
kham 3844
Chamber@@ 3843
cape 3843
ulo 3843
sman 3841
Banks 3840
acu@@ 3840
horizont@@ 3840
Mahar@@ 3839
antha 3839
yar 3837
onda 3835
sav@@ 3835
tique 3835
abb@@ 3834
amor@@ 3833
Uni 3832
eco 3831
kisi@@ 3829
UM@@ 3827
generation 3826
Tang 3825
Maw@@ 3824
Sult@@ 3824
[...]
