, 40383438
. 38805456
в 23407460
и 16231082
@-@ 9276523
на 9012566
) 8384807
( 8361292
— 7948827
« 7199178
» 7195185
с 6605360
В 5822247
года 4643830
&quot; 4295802
году 3503865
по 3425673
к 3334410
не 3146852
из 2842356
: 2446409
ной 2389784
был 2347262
у 2342884
по@@ 2159881
а 2102853
ных 2101209
от 2089159
что 2073403
не@@ 2039693
ли 2006999
ской 1996786
за 1968060
но 1967506
у@@ 1957934
ла 1934850
л 1931139
ского 1918123
ного 1905428
на@@ 1897541
ный 1869689
ные 1827478
ы 1823678
его 1730272
т 1727873
за@@ 1720962
для 1708347
при@@ 1690945
ки 1686634
с@@ 1677323
про@@ 1670986
е 1660492
в@@ 1656953
как 1653744
ский 1628246
вы@@ 1622048
; 1590221
ль@@ 1589139
до 1574294
ная 1569295
ка 1568635
й 1566396
он 1545159
м 1544725
о 1509099
ли@@ 1484526
д@@ 1385117
А@@ 1376673
ре@@ 1375757
та 1374653
ным 1369670
о@@ 1359412
ном 1358742
ро@@ 1355010
до@@ 1346163
т@@ 1307305
н 1295506
я 1294833
пере@@ 1290606
к@@ 1278355
со@@ 1274850
С@@ 1259683
ш@@ 1228651
О@@ 1214018
но@@ 1206038
м@@ 1195749
ни@@ 1193731
ное 1184502
С 1155969
ль 1154301
ко@@ 1144313
ра@@ 1144030
ке 1136520
также 1132669
ю 1120459
э@@ 1105023
ка@@ 1101589
ва@@ 1100981
ри@@ 1093605
от@@ 1090286
х 1088156
ле@@ 1083099
и@@ 1071566
ская 1066196
том 1064572
ло@@ 1055744
была 1044685
были 1038844
во@@ 1029638
ских 1027684
р 1023085
во 1008536
то@@ 1007745
ти@@ 1005952
л@@ 1005183
ви@@ 1003787
г 999827
го@@ 995561
ском 988320
ма@@ 987077
з@@ 986921
ж@@ 983564
было 979426
й@@ 976573
б@@ 973522
У@@ 969520
мо@@ 966318
ве@@ 966114
д 954255
время 953158
а@@ 949813
п@@ 944624
ет 937946
ны 937500
ди@@ 936380
1 925472
ты 917428
И@@ 910620
та@@ 909923
де@@ 904334
ло 903074
са 900813
да 899772
лись 897058
ную 895034
или 894901
н@@ 893431
же 889105
те@@ 880607
Э@@ 878911
то 876561
се@@ 876452
си@@ 869012
при 862860
ть 855134
ми@@ 851807
те 842608
я@@ 841217
ра 836124
ба@@ 835359
ми 833241
́ 829146
ру@@ 815181
2 815114
ров 813021
лся 811715
ния 807591
раз@@ 802670
ку 799630
г@@ 795578
ма 794045
х@@ 792775
ме@@ 788092
под@@ 779620
ными 778883
В@@ 778009
Г@@ 776615
ний 770924
де 770150
ют 756360
ков 754818
го 754465
П@@ 753226
лась 751886
бо@@ 751045
ф@@ 749876
после 746740
тов 744431
бе@@ 743303
р@@ 741819
ром 740423
ние 736690
да@@ 731883
ч@@ 729199
К@@ 726131
па@@ 725513
нии 725165
га@@ 712670
ь@@ 706507
чи@@ 705656
са@@ 703212
На 699814
су@@ 699371
га 697511
жи@@ 696683
ку@@ 688155
ла@@ 685759
Ка@@ 685691
По@@ 684576
ы@@ 678565
их 677101
ские 671221
ги@@ 670005
Т@@ 666130
ва 662912
под 655254
По 649031
М@@ 647120
3 645575
области 634561
ить 633489
ь 630536
ко 629061
Ко@@ 627899
лось 627551
ды 624949
ё@@ 623294
вой 622612
е@@ 621535
пи@@ 620192
ля 617124
/ 616565
об@@ 612466
ан@@ 610488
% 609914
ется 608656
ст@@ 607651
ста@@ 605801
ду@@ 605228
ское 605086
ать 604518
ля@@ 603482
пе@@ 600625
Б@@ 598598
ность 597914
где 596875
она 596438
ции 595104
сто@@ 594216
Ма@@ 593541
её 593368
км 592557
кой 592398
ле 590689
лет 585643
который 584417
че@@ 580893
Д@@ 573497
ским 570888
А 570139
того 569729
Р@@ 569093
со 560642
4 559293
це@@ 557427
После 556700
ин@@ 554758
пре@@ 553444
му 551777
же@@ 548982
нов 548700
ности 545284
вер@@ 543684
ше@@ 542009
стал 541161
год 540449
это 539877
сти@@ 539640
нию 535747
ки@@ 534069
ча@@ 528447
ства 527492
хо@@ 524377
более 521708
России 514420
зо@@ 510255
ге@@ 507318
ей 507252
За@@ 504930
цы 504259
ни 501994
ши@@ 501862
из@@ 500193
лей 497089
Ш@@ 496503
ю@@ 493912
би@@ 491756
ком 488708
5 487315
пу@@ 485668
ников 483910
скую 481650
цию 481615
вал 481141
Со@@ 477442
является 477348
так 477055
кон@@ 475960
ха@@ 474190
му@@ 471998
человек 469253
К 466868
них 465767
ник 465493
мы 465142
Н@@ 464599
состав 464536
рас@@ 463832
Л@@ 461633
з 459246
Ф@@ 455487
ней 454059
ц@@ 453663
ре 448298
ту@@ 447758
льной 446926
&amp; 446722
зи@@ 446047
вых 445730
ем 443849
На@@ 442579
ления 439786
ня@@ 438780
ме 436523
ры@@ 436301
нием 434187
ры 433972
рии 433240
дом 432796
которые 432763
воз@@ 432132
6 432030
ство 429134
только 427296
льного 426943
10 426346
льный 424934
города 424329
ат@@ 421545
Се@@ 421318
мен@@ 419844
ту 419805
Х@@ 419390
льных 419309
вать 418346
гу@@ 414040
ника 412087
Са@@ 411015
жа@@ 409634
бы@@ 409379
ша@@ 406969
СССР 403387
пол@@ 403023
ри 402460
Ли@@ 400017
И 396891
бу@@ 396278
войны 395790
ст 395175
стве 394047
вали 392840
ются 391179
бы 389528
ев 383946
ья 383916
Е@@ 383000
этого 381858
ду 380534
Ми@@ 379779
они 379764
Ку@@ 379711
этом 379626
годах 379250
Не@@ 378475
лу@@ 376329
дов 376326
7 375130
б 374924
ран@@ 374841
8 374352
ному 369329
ар@@ 368220
се 368127
ря@@ 367687
района 366976
ление 365985
ция 364690
США 363950
ники 363861
льно 363582
ца 363181
История 362848
п 359262
против 358811
между 358479
ско@@ 358194
вая 358077
лю@@ 358014
Про@@ 356987
Биография 354393
лов 353840
ну@@ 353284
него 352479
составе 352310
лен@@ 351882
лом 351214
сти 348346
стра@@ 347906
ти 347784
жен@@ 347481
части 347207
При@@ 347205
ью 346936
ье 346694
когда 345877
зна@@ 345778
ен@@ 345566
Он 344866
Бо@@ 343465
Го@@ 343356
мая 343165
цев 343105
Ба@@ 341964
тан@@ 339432
вого 338994
вые 337680
Де@@ 337617
реки 337602
Ю@@ 336197
Ар@@ 336139
ор@@ 335964
Я@@ 335528
сть 334127
ций 333930
фи@@ 333881
ги 333746
сы 333316
рен@@ 332530
Ро@@ 330947
стро@@ 330215
ц 329732
род@@ 329711
Ле@@ 329441
З@@ 329158
которых 328888
Мо@@ 328261
20 328257
Ре@@ 328059
ками 327998
Та@@ 327598
годы 326199
чтобы 325195
ци@@ 324807
вания 324296
той 324082
15 323650
льные 322624
января 322155
чи 320358
ди 318839
Ч@@ 318570
все 317317
около 317259
Су@@ 316595
ман@@ 314190
Ра@@ 313720
место 311959
обще@@ 311751
сло@@ 311381
откры@@ 310989
им 310529
12 310432
9 309713
районе 309500
пред@@ 309180
мира 308550
июля 306885
ак@@ 304499
лы 303708
сов 303686
века 303205
оста@@ 303027
фе@@ 302368
скому 301847
бер@@ 300333
населения 299779
аль@@ 298720
М 298067
ках 296628
Си@@ 295907
лё@@ 295357
нения 294946
ч 294630
пер@@ 293834
хи@@ 292002
несколько 291908
через 290804
сте@@ 290727
декабря 290401
ещё 290159
ска@@ 289705
Ме@@ 289609
уже 288900
ще@@ 288767
получил 288594
2010 288462
ён 287352
которой 286717
ческой 286074
часть 285755
марта 285207
чем 285195
которая 284694
вание 284200
фа@@ 284035
ха 283895
августа 283351
кар@@ 282854
мы@@ 282301
над 281548
сентября 281172
вает 280698
Ки@@ 280428
ста 280014
октября 279817
территории 279666
полу@@ 279166
апреля 278588
вы 278520
ником 278425
пло@@ 277447
своей 277427
кан@@ 277226
Бе@@ 276795
ж 276733
Бу@@ 276183
тра@@ 275921
30 275564
Ви@@ 274560
вала 274495
июня 274408
два 274320
ством 274104
бра@@ 274061
Па@@ 273678
может 273202
До@@ 273183
ван@@ 272256
поло@@ 272103
№ 271477
Га@@ 271468
пла@@ 270901
один 270806
ческих 270450
О 269187
Мар@@ 268527
ш 267611
гра@@ 267295
.@@ 267261
ит@@ 267224
ему 266129
ке@@ 266100
гор@@ 266088
ях 265301
вен@@ 265267
18 264998
Ц@@ 263573
рия 263380
других 263283
тре@@ 263104
затем 262906
ком@@ 262536
ёт 262380
стов 262083
ющий 262033
жения 261764
ве 261302
гла@@ 261184
ос@@ 260374
ним 260344
качестве 259741
11 259381
ноября 258798
У 258771
Ла@@ 257693
Да@@ 257488
Население 257393
нами 257356
группы 256732
Ж@@ 256593
ро 256565
лен 256515
вым 256404
вод@@ 255864
жение 255836
обра@@ 255221
находится 254714
лин@@ 254018
льная 253954
нов@@ 253691
район 253195
16 252809
вместе 252172
Ве@@ 251333
ур@@ 250198
февраля 248693
ческого 248600
ющих 248302
П 248301
14 248240
лет@@ 247757
высо@@ 246665
теле@@ 245627
ск@@ 245201
25 244977
_ 244913
Ру@@ 244885
щ@@ 244171
Однако 243825
тив@@ 243603
Му@@ 243258
евич 242245
фо@@ 241793
однако 241670
среди 241658
вом 241182
сом 240827
участие 240677
чной 239941
ба 239815
которого 239624
Кар@@ 239484
составляет 238237
лан@@ 238083
Н 237559
&#93; 237539
&#91; 237321
сы@@ 236636
13 236512
работал 235532
име@@ 234938
нение 234834
си 234777
ностью 234541
городе 233911
ров@@ 233585
всех 233417
город 233268
ями 233163
- 232963
тро@@ 232282
Лу@@ 232089
г. 231871
период 231725
вра@@ 231468
17 231236
использо@@ 231155
числе 231129
ск 231048
кла@@ 230687
Ха@@ 230436
лу 229951
вый 229133
представ@@ 229028
двух 228797
итель@@ 228677
ниях 228671
То@@ 228165
стан@@ 227619
свою 227511
ге 227223
цией 226979
начале 226386
скими 226143
Пе@@ 226141
три 225767
обо@@ 225686
мом 225016
зу@@ 224574
соб@@ 224330
быть 223993
ер@@ 223941
зе@@ 223891
вич 223869
ших 223580
стала 223576
три@@ 223332
годов 223014
Ва@@ 222873
мер@@ 222276
этой 221471
жизни 221410
ска 221305
кого 221303
Ан@@ 221258
себя 221012
уч@@ 219698
ческий 219596
ня 219483
ден@@ 219344
ате@@ 219291
йской 218834
ться 217883
авто@@ 217300
прав@@ 216713
эн@@ 216657
армии 215582
своего 215278
нее 215180
название 214901
тер@@ 214634
есть 214259
ких 214102
пар@@ 214018
данным 213728
За 213367
отде@@ 213246
Во@@ 212947
рин@@ 212758
времени 212559
льным 212293
способ@@ 212276
свя@@ 212210
тель@@ 211182
лем 210950
19 210685
мм 210297
тия 210025
I 210016
Че@@ 209963
эк@@ 209612
без 209269
всего 209112
При 208629
жа 207930
ско 206819
стар@@ 206687
кра@@ 206617
Это 206529
чных 206376
боль@@ 206184
имени 206000
конце 205938
там 205891
работы 205814
село 205648
фор@@ 205627
Ди@@ 204753
па 204714
деревня 204292
ход@@ 204263
человека 204159
можно 204073
рами 203752
ёр@@ 203652
мой 203018
2011 202759
щи@@ 202643
зы@@ 202497
ды@@ 202463
Ри@@ 202244
раз 202176
йского 201927
Во 201818
чего 201628
шей 201612
ческие 201543
ок@@ 201251
ший 200997
ющие 200696
2012 200629
ну 200541
кие 200364
истории 200111
гре@@ 199728
Аль@@ 199513
кре@@ 199385
гу 199170
тах 198825
он@@ 198730
кры@@ 198527
мест@@ 198236
призна@@ 198221
лич@@ 198143
пор@@ 197894
няя 197672
Но@@ 197599
formula 197491
сла@@ 197450
много 197304
24 197196
вается 197102
ал@@ 196618
2008 196558
ев@@ 196247
5@@ 195843
Ни@@ 195616
ков@@ 195449
2014 195350
2009 195228
им@@ 194976
ата@@ 194905
первый 194691
тами 194522
пле@@ 194312
мов 194147
ств 193938
0@@ 193779
кор@@ 193719
чно 193718
gt 193517
тем 193253
ща@@ 193132
лов@@ 193058
чен@@ 192767
тор@@ 192681
Также 192373
ству 192366
22 191982
II 191953
имеет 191947
льное 191875
бор@@ 191874
этот 191778
цен@@ 191775
сси@@ 191395
21 191282
Гу@@ 190963
рова@@ 190719
стре@@ 190584
ится 190547
связи 190122
шего 190015
Вы@@ 189390
вший 189226
Кон@@ 189106
гру@@ 188853
Пер@@ 188846
це 188746
2007 188331
lt 187938
ман 187814
ство@@ 187517
тся 187360
встре@@ 187260
состоя@@ 187061
2013 186885
2015 186619
Те@@ 186382
ган@@ 186301
вался 186231
об 186192
4@@ 185998
зан@@ 185864
ис@@ 185349
ске 184921
вое 184489
второй 184064
э 184054
° 183754
пра@@ 183380
ча 183191
вин@@ 182740
чу@@ 182596
Ло@@ 182519
2006 182247
ниями 181832
совет@@ 181665
От@@ 181331
зы 180838
род 180767
Ду@@ 180578
ша 180565
Хо@@ 180362
зем@@ 180271
2002 180002
город@@ 179913
гов 179404
Г 179368
мя@@ 179147
ру 179086
ера 178980
лена 178958
част@@ 178947
рабо@@ 178447
спи@@ 178412
выпу@@ 178381
23 178104
электро@@ 177837
Бер@@ 177599
поли@@ 177590
начала 177371
ян@@ 177363
шие 177353
кий 177346
стали 177340
чный 176914
переписи 176883
рей@@ 176232
став@@ 176099
ет@@ 176008
лы@@ 175966
Его 175938
сон 175838
своих 175779
2016 175435
отме@@ 175435
2000 175397
рав@@ 175161
производ@@ 174924
бро@@ 174912
вар@@ 174665
образом 174658
ф 174499
само@@ 174372
другие 174043
жи 173900
ходе 173446
сельского 173213
Лю@@ 173190
шен@@ 172968
ше 172351
ху@@ 172067
кро@@ 171985
явля@@ 171897
дер@@ 171769
вос@@ 171745
Ту@@ 171707
Ор@@ 171528
100 171517
Пи@@ 171392
результате 171020
28 170914
ённых 170611
26 170602
сты 170035
собой 169895
котором 169839
вели@@ 169713
Фе@@ 169567
каз@@ 169495
фильм 169285
одной 169233
Би@@ 169047
дви@@ 168903
ющего 168898
участ@@ 168840
кли@@ 168771
актив@@ 168472
мар@@ 168451
Д 168084
27 167945
Ин@@ 167894
ав@@ 167742
образ@@ 167711
центра 167612
сотруд@@ 167391
ям 167150
течение 166891
… 166879
нен@@ 166684
тин@@ 166545
сен@@ 166537
истори@@ 166099
дан@@ 165968
роль 165961
тен@@ 165953
одним 165942
лишь 165939
Ти@@ 165920
² 165802
ген@@ 165709
национа@@ 165631
точ@@ 165587
ых 165303
ким 165089
коро@@ 165053
чного 165034
Украины 164921
6@@ 164374
Для 164298
стом 164286
C 164156
язы@@ 163850
ван 163779
сь 163074
очень 163069
поселения 162905
ты@@ 162834
нах 162515
сня@@ 162347
2017 161987
ждения 161831
су 161570
льном 161431
дней 161157
день 161082
кру@@ 160976
ней@@ 160915
ющей 160888
прове@@ 160653
страны 160506
ственной 160412
область 160394
Ста@@ 160124
ствует 160109
сту@@ 160054
юго 159927
итель 159850
сле@@ 159818
Ал@@ 159760
Российской 159641
вались 159640
сборной 159469
3@@ 159410
2005 159222
физи@@ 158762
The 158576
шения 158354
вую 158078
Об@@ 157778
Ша@@ 157761
ница 157710
Пре@@ 157497
вают 157463
ственных 157253
7@@ 157011
ез@@ 156797
сил 156636
смерти 156488
северо 156472
ита@@ 156160
лия 155858
спо@@ 155802
Александр 155792
щения 155738
ниче@@ 155708
ственного 155668
2018 155510
2004 155202
Согласно 155157
бере@@ 154821
мат@@ 154796
начал 154796
являются 154450
ссо@@ 154261
ато@@ 154152
низ@@ 153908
бан@@ 153849
округа 153691
Б 153547
чер@@ 153388
бе 153245
дар@@ 153155
назначен 153045
кое 152988
дия 152733
дра@@ 152644
графи@@ 152589
много@@ 152164
щих 152126
вших 152059
эта@@ 151835
учё@@ 151709
дии 151185
кур@@ 151127
ниям 150922
рой 150623
1941 150615
уда@@ 150584
дами 150276
фа 150252
Ча@@ 150193
мет@@ 150053
2001 149936
свой 149591
йский 149506
кам 149404
29 149189
нам 149013
даже 148993
ан 148882
команды 148866
рах 148828
чные 148809
рон@@ 148752
метров 148457
ителя 148401
кая 148172
Республики 148134
вз@@ 148031
поль@@ 147947
сс 147934
Ф 147679
грани@@ 147672
жд@@ 147610
разме@@ 147508
1990 147329
первой 147251
иться 147144
еди@@ 146687
2019 146676
ун@@ 146403
центр 146350
ясь 146123
рус@@ 146108
приня@@ 146105
ем@@ 146006
американ@@ 145752
сель@@ 145683
дру@@ 145632
могут 145378
основ@@ 145355
50 145067
созда@@ 145047
работа@@ 144925
чная 144857
церкви 144826
Л 144777
ати@@ 144770
ряд 144656
8@@ 144623
ённые 144608
тя@@ 144518
’ 144474
кино@@ 144422
Фи@@ 144410
един@@ 144378
сни@@ 144356
разде@@ 144201
согла@@ 144194
круп@@ 144156
партии 144103
нем 144008
стороны 143957
ву@@ 143944
цами 143751
тру@@ 143663
ева 143573
нова 143515
рода 143317
льную 142987
ён@@ 142819
шим 142792
сер@@ 142766
извест@@ 142730
две 142654
гово@@ 142442
ски 142395
пода@@ 142385
гар@@ 142359
изда@@ 142329
наук 142321
кова 142208
университета 141904
мор@@ 141825
зии 141791
проек@@ 141526
свои 141407
суще@@ 141243
Из 140963
вой@@ 140927
компании 140899
этих 140724
Пу@@ 140393
жил 140273
дения 140253
клуб 140201
чение 140199
называ@@ 140122
немец@@ 139967
над@@ 139935
поэ@@ 139920
будет 139916
од@@ 139531
ровать 139486
восто@@ 139158
сме@@ 138927
занима@@ 138904
музыка@@ 138553
впервые 138394
логи@@ 138219
ённый 138141
1944 138092
ход 138032
дела@@ 137866
менее 137856
лли@@ 137710
лек@@ 137678
31 137647
ителем 137439
География 137408
вет@@ 137380
чей 137001
ствен@@ 136955
ые 136942
ющим 136893
специаль@@ 136740
Но 136638
установ@@ 136637
моло@@ 136516
сты@@ 136392
переда@@ 136388
цу 136318
Кри@@ 136102
например 135451
водо@@ 135265
щен@@ 135025
Бар@@ 134968
ём 134866
француз@@ 134833
родился 134797
шли 134785
ственный 134704
лой 134686
обы@@ 134353
выми 134348
тот 134270
бу 134202
мо 134130
Кроме 134020
цо@@ 133845
Сер@@ 133767
семье 133666
0 133664
9@@ 133591
чемпионате 133497
нет 133383
ви 133342
ницы 133277
щий 133139
техниче@@ 133090
лл 132937
жении 132873
гом 132631
сезона 132601
анти@@ 132579
ходит 132497
дво@@ 132491
Ги@@ 132424
Ке@@ 132241
Франции 132086
важ@@ 132073
сса 132072
ый 132001
40 131959
Т 131955
пря@@ 131916
послед@@ 131889
испол@@ 131746
которое 131575
группа 131538
либо 131515
Гор@@ 131449
вед@@ 131441
образования 131381
чения 131355
возвра@@ 131340
лю 131013
рования 130970
Совета 130927
дет@@ 130879
Ге@@ 130832
Европы 130662
лей@@ 130613
ть@@ 130534
тов@@ 130533
2020 130478
тил 130404
берегу 130359
жда@@ 130350
ровал 130299
количество 130249
! 130232
Мак@@ 130203
луч@@ 130172
расска@@ 130064
жителей 130038
лены 129788
тор 129214
ят 129211
яв@@ 129177
шение 129090
зов 129084
перед 129041
Кор@@ 129034
заня@@ 128989
пара@@ 128955
15@@ 128954
если 128858
рован 128647
женщин 128625
1999 128503
бое@@ 128497
все@@ 128367
тных 128333
тур@@ 128296
цкий 128244
бли@@ 128226
выпол@@ 128199
вского 128043
никами 127981
вича 127904
села 127901
син@@ 127872
br 127846
Дже@@ 127804
ья@@ 127767
– 127766
ителей 127540
вид 127508
Ген@@ 127240
верну@@ 127218
системы 127043
лением 126992
1945 126963
че 126938
14@@ 126880
шла 126869
щение 126782
ер 126715
одного 126712
нович 126664
аться 126605
часто 126393
рий 126214
тон 125979
вана 125957
зе 125877
шая 125789
нок 125773
распростра@@ 125644
гии 125514
опреде@@ 125346
Родился 125148
всё 125115
ваться 125071
школы 124984
источ@@ 124970
работ@@ 124880
1943 124846
обнару@@ 124763
ору@@ 124737
пы 124727
гон@@ 124589
Входит 124549
воло@@ 124414
тной 124375
плат@@ 124343
окончил 124251
селе 124119
куль@@ 123825
зер@@ 123627
тар@@ 123569
цов 123543
дой 123455
нь 123421
дей@@ 123299
альбом 123244
дне@@ 123238
станции 123071
атов 123054
план@@ 123024
управления 123024
образо@@ 123011
шёл 122949
ческое 122831
2003 122796
диа@@ 122679
тё@@ 122668
жена 122592
Германии 122560
Раз@@ 122488
ныне 122311
художе@@ 122192
прода@@ 121880
почти 121816
До 121713
мати@@ 121541
организации 121424
нин@@ 121379
детей 121348
ющая 121261
вский 121221
Санкт 121210
ват@@ 121109
кими 121104
чил 121044
оп@@ 120802
вновь 120796
сред@@ 120736
тный 120699
закон@@ 120642
типа 120489
эти 120381
заклю@@ 120255
Кры@@ 120243
гро@@ 120200
каза@@ 120130
мир@@ 120030
власти 120004
уз@@ 120003
вя@@ 119951
хотя 119939
слу@@ 119920
тый 119917
культуры 119908
ждение 119831
тие 119799
ступ@@ 119796
сам 119782
значитель@@ 119762
широ@@ 119755
игры 119751
мон@@ 119713
нер@@ 119597
представля@@ 119566
жизнь 119473
тер 119334
Федерации 119185
дах 119138
уче@@ 119089
Од@@ 119042
Как 119021
честь 118919
пове@@ 118838
крас@@ 118671
Вер@@ 118666
ССР 118623
чемпионата 118603
Москве 118583
стоя@@ 118550
назва@@ 118470
Фран@@ 118392
площадь 118353
больше 118246
лено 118203
игра@@ 118197
имя 117910
класси@@ 117876
льского 117784
Она 117666
губернии 117580
общества 117522
пен@@ 117499
мен 117431
настоящее 117377
проце@@ 117375
коло@@ 117358
значения 117214
воен@@ 117121
частности 117110
направ@@ 117100
ческая 117077
ляется 117003
рез@@ 116949
йн 116948
дж@@ 116872
людей 116721
M@@ 116683
нос@@ 116676
ток 116527
лями 116507
ству@@ 116448
одно@@ 116440
сса@@ 116393
льской 116373
ены 116292
доро@@ 116268
официаль@@ 116197
кин 116146
британ@@ 116132
посе@@ 116120
социаль@@ 116049
принима@@ 116029
Кур@@ 116014
хра@@ 115983
Р 115834
вол@@ 115761
окру@@ 115703
нём 115667
вид@@ 115618
науч@@ 115585
право@@ 115570
ланд@@ 115564
хи 115549
популяр@@ 115526
лении 115516
клуба 115472
генерал 115436
организо@@ 115343
лях 115323
собствен@@ 115273
миче@@ 115264
многих 115182
ши 115091
вил 114992
автомоби@@ 114862
13@@ 114726
пан@@ 114682
чё@@ 114673
прожи@@ 114601
стало 114516
мента@@ 114487
1980 114238
10@@ 114180
оказа@@ 114169
стиче@@ 114162
рок 114054
сохрани@@ 113785
соеди@@ 113720
выс@@ 113491
12@@ 113299
рован@@ 113269
ся 113236
деятельность 113107
момент 113048
1991 113014
щая 112965
самолё@@ 112906
смо@@ 112819
1992 112675
Эн@@ 112664
би 112594
степени 112472
членом 112448
ян 112282
цар@@ 112241
дь@@ 112178
“ 112175
Глав@@ 112161
жены 112045
наиболее 111987
собра@@ 111944
хоро@@ 111941
основном 111917
англи@@ 111783
работу 111760
льский 111742
мировой 111699
различных 111627
филь@@ 111605
сезоне 111596
профессиона@@ 111588
Восто@@ 111337
опера@@ 111318
права 111313
нови@@ 111304
требо@@ 111295
ад@@ 111219
стер@@ 111203
Ман@@ 110986
дивизии 110978
XIX 110882
нес@@ 110843
S@@ 110841
ностей 110784
виде@@ 110747
Вол@@ 110742
кто@@ 110688
завер@@ 110656
хода 110440
цкого 110409
шко@@ 110369
руковод@@ 110324
должность 110318
Воз@@ 110311
побе@@ 110301
входит 110299
ью@@ 110271
1942 110204
проводи@@ 110151
Великой 110074
первого 110072
совета 109946
мости 109928
матче 109909
использу@@ 109890
Ново@@ 109854
Ши@@ 109793
стат@@ 109770
кри@@ 109733
вле@@ 109729
рию 109703
бри@@ 109552
спе@@ 109486
Крас@@ 109466
поме@@ 109465
народ@@ 109352
вре@@ 109254
+ 109182
стью 109065
принял 108988
тора 108950
1960 108940
нескольких 108937
Отечественной 108924
вшие 108917
содержа@@ 108897
шу@@ 108875
анд@@ 108872
здесь 108807
дал 108708
комму@@ 108661
сп@@ 108579
лат@@ 108560
чески 108529
таких 108520
Пет@@ 108519
1970 108485
запа@@ 108340
мин@@ 108309
кин@@ 108290
Бы@@ 108184
своим 108169
Свя@@ 108113
Гер@@ 108095
Все@@ 108065
ыва@@ 108029
лению 108026
вской 108025
тысяч 107956
дин@@ 107923
шее 107913
бал@@ 107872
лых 107859
Из@@ 107788
Так 107766
вили 107752
лах 107713
экономиче@@ 107705
создан@@ 107636
щие 107559
Ше@@ 107540
бле@@ 107302
ствуют 107252
нача@@ 107220
бой 107219
ед@@ 107154
своё 107078
гло@@ 107077
дости@@ 107046
емых 106908
новых 106862
лег@@ 106856
моря 106842
бин@@ 106828
дены 106816
существо@@ 106783
действия 106729
держа@@ 106665
украин@@ 106594
програм@@ 106553
рование 106498
P@@ 106321
личе@@ 106239
ранее 106138
шед@@ 106138
Я 106074
примерно 106071
верх@@ 106005
отсут@@ 105996
месте 105906
новой 105903
советский 105896
счита@@ 105892
лин 105855
рует 105838
пис@@ 105704
линии 105622
войск 105589
ствовал 105553
жен 105540
спа@@ 105444
щего 105345
ули@@ 105270
веду@@ 105167
фак@@ 105085
Фа@@ 105072
дро@@ 104972
„ 104925
помо@@ 104892
фильма 104834
логии 104722
первым 104713
Север@@ 104560
вшись 104515
1998 104413
участвовал 104386
дома 104371
яр@@ 104310
чу 104309
строитель@@ 104279
роди@@ 104208
персона@@ 104142
рай@@ 103937
мини@@ 103878
тного 103789
сов@@ 103736
назна@@ 103694
иде@@ 103481
лла 103461
формы 103267
Пере@@ 103226
самого 103208
трёх 103197
чь 103094
серии 103030
названием 102955
ора 102882
год@@ 102864
чном 102861
число 102792
000 102778
Александ@@ 102589
све@@ 102504
обла@@ 102462
образование 102459
пат@@ 102416
дивизи@@ 102415
Союза 102372
1930 102339
1994 102338
зи 102270
полка 102206
Нью 102165
награ@@ 102060
тон@@ 102041
вало 102023
бит@@ 102019
новый 102018
ита 101961
отправ@@ 101952
Ак@@ 101937
зыва@@ 101891
1997 101871
цион@@ 101848
лер 101829
of 101819
которую 101778
возрасте 101776
причи@@ 101719
кс 101695
золо@@ 101674
которым 101671
сс@@ 101632
Пав@@ 101596
Владимир 101500
1996 101404
III 101306
позже 101306
воды 101233
1995 101166
меня@@ 101109
Николай 101072
получила 101026
2021 101022
виде 100999
жением 100846
освобо@@ 100824
вышел 100773
60 100627
владе@@ 100437
учеб@@ 100354
фото@@ 100350
мать 100339
слож@@ 100319
убе@@ 100280
Мин@@ 100155
тура 100118
голо@@ 100034
полностью 100014
сын 99976
1920 99779
нове@@ 99779
тно 99762
ек@@ 99558
нил 99516
Бело@@ 99474
ново@@ 99454
следу@@ 99346
городской 99320
тиче@@ 99269
шую 99264
деятельности 99212
игр 99179
люб@@ 99161
мах 99152
отли@@ 99137
Под@@ 99086
ходя@@ 99052
деревни 99031
мощ@@ 98956
ден 98952
чёр@@ 98902
вернулся 98797
провод@@ 98779
современ@@ 98746
попа@@ 98696
международ@@ 98675
зада@@ 98654
коллек@@ 98567
объя@@ 98515
1993 98488
D@@ 98455
Центра@@ 98396
исследовате@@ 98160
ённого 98137
показа@@ 98113
рей 98040
уничто@@ 97903
гг 97721
случае 97704
административ@@ 97468
ственно 97427
крити@@ 97363
ённой 97257
ил 97252
член 97249
закры@@ 97236
первых 97214
дат@@ 97188
XX 97170
общи@@ 97156
2@@ 97140
см 97094
продолжа@@ 97045
ходи@@ 97034
без@@ 96975
йская 96928
независи@@ 96897
япон@@ 96768
Чер@@ 96672
валась 96595
др 96532
зат@@ 96510
лии 96425
вое@@ 96411
пись@@ 96361
выра@@ 96316
городского 96314
многие 96309
Вели@@ 96264
млн 96127
Второй 96098
Был 96064
нару@@ 96026
поч@@ 95996
альбома 95945
коми@@ 95937
лами 95932
железнодорож@@ 95922
тек@@ 95919
гер@@ 95894
мужчин 95825
&apos; 95824
стей 95816
выступа@@ 95811
Росси@@ 95780
Хи@@ 95710
тых 95710
провёл 95701
жений 95699
спек@@ 95678
н. 95518
уезда 95506
живо@@ 95456
ётся 95406
рак@@ 95399
прекра@@ 95316
пов 95122
вне@@ 95119
Когда 95071
ъ@@ 95054
утвер@@ 95045
Они 95032
вии 95032
щей 94987
муж@@ 94895
чат@@ 94882
1989 94857
играл 94847
четыре 94826
места 94819
лок 94776
империи 94718
опублико@@ 94708
пос@@ 94703
прави@@ 94571
необходи@@ 94503
Международ@@ 94453
кино 94402
решение 94350
крат@@ 94288
доб@@ 94271
руководством 94265
себе 94207
1950 94093
ься 94003
тные 93890
древ@@ 93876
нового 93846
вов 93814
хов 93591
деся@@ 93561
эй@@ 93546
глу@@ 93521
тии 93496
Олимпийских 93428
некоторые 93406
рий@@ 93295
тому 93288
гну@@ 93222
ствия 93216
жан@@ 93199
жде@@ 93172
1940 93119
плани@@ 93116
ен 93093
дол@@ 93065
некоторых 92961
Кла@@ 92936
движения 92902
произ@@ 92835
ара 92831
кол@@ 92787
держ@@ 92763
связан@@ 92749
писал 92668
помощью 92595
шки 92564
ительно 92484
буду@@ 92442
Влади@@ 92239
население 92174
выде@@ 92152
песни 92134
противо@@ 92095
реали@@ 92009
основе 91965
атом 91799
йти 91750
дает 91714
Андре@@ 91673
стен@@ 91665
Ком@@ 91662
= 91629
ствие 91613
ено 91597
веке 91532
Пред@@ 91455
восстанов@@ 91326
треть@@ 91284
ред@@ 91249
лова 91227
дам 91223
видов 91183
Среди 91081
чки 91066
мя 91044
уго@@ 91032
хов@@ 91032
церковь 91017
зма 90990
развития 90965
рам 90894
ана 90891
поскольку 90888
ите@@ 90887
нар@@ 90853
политиче@@ 90752
сельсовета 90694
Тре@@ 90693
она@@ 90680
итальян@@ 90650
культур@@ 90544
совер@@ 90486
йских 90443
Мат@@ 90403
государственного 90378
Мон@@ 90253
ванием 90238
особ@@ 90210
Иван 90159
работ 90148
ву 90137
кую 90067
удалось 89970
Зе@@ 89870
включая 89802
рамках 89749
лый 89677
тогда 89667
док 89652
лина 89619
сами 89577
ити@@ 89576
мето@@ 89556
длин@@ 89505
искус@@ 89495
федера@@ 89457
бло@@ 89453
циях 89426
нер 89397
Кан@@ 89369
лые 89277
дли@@ 89227
вшей 89217
дороги 89182
вшего 89151
вопро@@ 89142
мана 89139
центра@@ 89103
s 89041
генера@@ 88910
уро@@ 88854
одна 88830
языка 88798
1918 88791
чка 88769
F@@ 88736
возмож@@ 88734
взя@@ 88704
C@@ 88687
T@@ 88633
ху 88621
играх 88607
заме@@ 88566
острова 88510
Основ@@ 88492
ё 88454
Юж@@ 88430
1939 88422
версии 88365
имеют 88302
росси@@ 88266
академии 88185
пя@@ 88066
Затем 88056
стри@@ 88040
окончания 87849
объеди@@ 87845
йн@@ 87816
зар@@ 87802
чным 87781
другой 87717
компания 87612
ссии 87507
изобра@@ 87505
деревне 87465
G@@ 87403
корот@@ 87395
предло@@ 87393
вода 87360
рев@@ 87352
реб@@ 87285
такие 87248
ины 87187
ними 87186
внеш@@ 87155
следо@@ 87125
учре@@ 87079
оборо@@ 86986
Государ@@ 86966
съ@@ 86961
концер@@ 86917
самых 86915
дел 86889
бар@@ 86749
коле@@ 86717
ще 86677
Ай@@ 86669
поле 86668
конца 86616
обе@@ 86588
йском 86579
обычно 86578
наход@@ 86573
зда@@ 86526
Эр@@ 86495
голов@@ 86407
поез@@ 86359
тирова@@ 86355
R@@ 86291
института 86266
глав@@ 86241
положение 86132
войска 86109
льными 86081
руется 86052
расши@@ 85961
Никола@@ 85928
фици@@ 85922
благодаря 85898
тех 85857
медицин@@ 85850
Е 85845
компози@@ 85832
река 85692
мии 85663
Ио@@ 85529
чает 85475
ника@@ 85437
совершен@@ 85372
Дэ@@ 85332
L@@ 85318
Дру@@ 85306
тыс. 85267
зу 85261
? 85258
подоб@@ 85239
сообще@@ 85198
рая 85092
ковой 85065
союз@@ 84955
стер 84893
университете 84876
горо@@ 84828
влия@@ 84825
ственным 84728
Мор@@ 84715
шка 84696
май@@ 84679
Фё@@ 84582
объек@@ 84569
сли 84566
70 84550
тай@@ 84544
европей@@ 84513
здание 84500
чается 84448
фон 84447
сбор@@ 84441
геро@@ 84437
ставля@@ 84424
дели@@ 84398
пы@@ 84391
хе@@ 84367
фестива@@ 84280
поэтому 84265
ческом 84180
фон@@ 84175
селе@@ 84157
уни@@ 84143
шо@@ 84100
ье@@ 84014
настоя@@ 83907
200 83830
ктора 83785
Кре@@ 83775
сли@@ 83765
защит@@ 83760
школу 83678
присут@@ 83647
мире 83617
выступал 83608
дена 83608
тая 83603
рос@@ 83595
град@@ 83582
вла@@ 83580
мент 83580
чик 83543
Тер@@ 83508
опы@@ 83438
ители 83437
работе 83435
цкой 83353
школе 83352
став 83283
большой 83260
ющее 83252
побед@@ 83244
ся@@ 83243
жу@@ 83239
роли 83232
сторо@@ 83224
Кара@@ 83190
постро@@ 83119
меха@@ 83107
Сан@@ 83054
перешёл 83053
дать 83032
реда@@ 83026
ут@@ 82992
тона 82916
пригла@@ 82908
моно@@ 82851
зва@@ 82850
ландии 82798
вод 82796
кат@@ 82772
Рус@@ 82696
участво@@ 82696
юще@@ 82680
80 82662
вшая 82528
провинции 82519
радио@@ 82476
пози@@ 82458
самым 82310
W@@ 82294
сре@@ 82249
ссе@@ 82241
лож@@ 82114
коль@@ 82105
Хар@@ 82026
национальной 81990
Шу@@ 81968
N@@ 81949
жей 81936
Красно@@ 81931
дате@@ 81907
чены 81899
включа@@ 81893
Москов@@ 81884
вании 81849
нат 81785
запад@@ 81740
Первый 81688
клю@@ 81681
главным 81673
мате@@ 81671
кина 81655
ваются 81654
тической 81650
чное 81639
З 81608
пыта@@ 81607
сан@@ 81573
постав@@ 81484
края 81459
туре 81403
насел@@ 81401
меж@@ 81397
позиции 81397
Иванович 81377
языке 81338
Гар@@ 81285
зации 81217
мир 81205
ался 81197
королев@@ 81177
округ 81173
симво@@ 81166
ца@@ 81152
разработ@@ 81142
1917 81131
правитель@@ 81076
Запад@@ 81039
команда 81023
хом 80976
обви@@ 80936
согласно 80925
нике 80924
интер@@ 80916
памят@@ 80899
постоян@@ 80886
искусства 80847
0,@@ 80845
спор@@ 80842
ступа@@ 80810
B@@ 80792
земли 80773
авиа@@ 80752
нин 80703
составля@@ 80689
тная 80678
поддерж@@ 80674
ственные 80608
производства 80581
скры@@ 80548
35 80436
поселение 80407
Мэ@@ 80397
шта@@ 80386
най@@ 80361
сной 80312
хар@@ 80183
впоследствии 80154
должен 80132
миро@@ 80089
частью 80068
тина 80047
тол@@ 80006
Дж@@ 79958
промышлен@@ 79928
сторон@@ 79911
новые 79892
кти@@ 79845
струк@@ 79805
российский 79790
герцо@@ 79777
фер@@ 79766
вати@@ 79757
кло@@ 79746
происходит 79680
благо@@ 79658
област@@ 79516
Зем@@ 79389
сентябре 79352
мия 79348
ас@@ 79343
Гра@@ 79319
гия 79304
парти@@ 79298
сия 79186
граждан@@ 79106
кита@@ 79068
мнению 79051
вызва@@ 79032
язык 79008
сем@@ 78841
форма@@ 78838
Михаил 78810
полк 78800
создания 78708
ответ@@ 78618
стви@@ 78553
стран 78552
получи@@ 78547
тые 78526
1988 78525
серебря@@ 78517
нему 78510
юж@@ 78497
Вен@@ 78495
ент@@ 78487
служи@@ 78431
уби@@ 78421
звание 78329
еся 78290
мета@@ 78280
ческим 78277
мае 78269
Пар@@ 78258
волости 78236
спорта 78189
тий 78185
всей 78167
завод 78166
карьеру 78161
Ху@@ 78129
форми@@ 78040
− 78020
другими 78011
сам@@ 78001
смер@@ 77973
Верховного 77960
бо 77893
Алексе@@ 77870
состоит 77800
воро@@ 77792
лки 77778
неё 77770
избран 77767
январе 77743
литератур@@ 77725
составляло 77720
Чу@@ 77709
рения 77678
отношения 77636
рова 77632
данных 77619
театра 77601
должности 77542
выстав@@ 77541
рим@@ 77487
постанов@@ 77431
особенно 77361
целью 77333
профессор 77309
the 77263
имел 77203
ото@@ 77144
нитель@@ 77130
подготов@@ 77123
Май@@ 77100
поддержи@@ 77085
недо@@ 77061
Джо@@ 77053
води@@ 77031
капита@@ 77031
метал@@ 77022
фина@@ 77001
марте 76894
ым 76843
деятель 76763
Ниж@@ 76700
счит@@ 76700
тин 76700
Сергей 76663
кто 76522
чел 76491
ус 76449
образова@@ 76406
вскоре 76318
стана 76270
коммуны 76216
каз 76207
нении 76176
аэро@@ 76141
бур@@ 76131
именно 76131
температура 76082
сыграл 76017
комплек@@ 75985
Москва 75976
игро@@ 75920
поро@@ 75890
станция 75856
неболь@@ 75832
расположен 75830
сохра@@ 75812
выступ@@ 75811
близ@@ 75799
дня 75782
сро@@ 75705
дер 75642
посёлок 75584
ваны 75554
октябре 75546
короля 75541
занял 75507
поз@@ 75506
РФ 75490
продолж@@ 75488
РСФСР 75473
фильме 75464
государства 75462
слав@@ 75458
первом 75447
августе 75418
рес@@ 75388
Сан 75380
дре@@ 75380
мость 75329
декабре 75260
исследо@@ 75254
проект 75253
тки 75240
так@@ 75233
Италии 75215
следующие 75198
снова 75150
рядом 75115
институт 75112
остав@@ 75089
семьи 75041
возможно 75025
альбо@@ 75022
хан@@ 75018
види@@ 75013
аре@@ 74985
математи@@ 74977
Кра@@ 74952
священ@@ 74932
лица 74923
вше@@ 74830
тран@@ 74822
шин@@ 74795
A 74752
запре@@ 74752
дел@@ 74726
возможность 74704
семейства 74649
заве@@ 74648
приобре@@ 74631
относится 74603
нюю 74602
иг@@ 74600
шло 74556
тур 74550
образу@@ 74535
технологи@@ 74533
ене@@ 74519
ктором 74473
лий 74417
Бра@@ 74412
право 74404
массо@@ 74403
противника 74401
располага@@ 74357
ал 74341
евре@@ 74299
служ@@ 74270
дри@@ 74256
ктор 74229
этим 74208
станов@@ 74199
микро@@ 74192
умер 74109
служил 74073
Этот 74050
ковского 74002
русской 73987
пехот@@ 73969
чита@@ 73949
90 73930
команду 73923
расстоянии 73921
хро@@ 73917
подчи@@ 73880
пе 73859
кси@@ 73835
опис@@ 73806
щена 73806
первые 73771
45 73717
гри@@ 73712
пти@@ 73700
женщины 73629
челове@@ 73571
Бур@@ 73504
1938 73496
Все 73454
футболь@@ 73449
дан 73431
находился 73431
неф@@ 73417
север@@ 73360
емые 73339
ковых 73331
правления 73305
1937 73302
двумя 73297
контракт 73286
выигра@@ 73271
книги 73234
зм 73226
востоку 73217
пит@@ 73188
отца 73145
поня@@ 73116
повы@@ 73115
вида 73040
действи@@ 73014
мся 72970
управля@@ 72959
сборную 72901
Несмотря 72875
печат@@ 72868
вате@@ 72863
E@@ 72793
зах@@ 72785
представляет 72773
вве@@ 72765
йские 72726
вила 72709
проис@@ 72675
сю@@ 72671
долларов 72657
лям 72584
1986 72581
фикации 72577
чен 72575
середине 72484
службу 72465
ски@@ 72425
Жи@@ 72413
уровнем 72400
состав@@ 72396
кле@@ 72379
Александра 72359
июле 72354
йся 72341
нал 72256
церков@@ 72239
осуществ@@ 72227
школа 72173
премии 72160
тела 72103
Располо@@ 72068
корпуса 72050
емый 72022
Гру@@ 71973
значение 71972
силы 71970
спортив@@ 71950
западу 71923
мской 71897
лес@@ 71877
Ря@@ 71843
1987 71822
дина@@ 71791
A@@ 71788
региона@@ 71777
вка 71772
лод@@ 71772
риа@@ 71768
молод@@ 71757
двор@@ 71745
цей 71734
кладбище 71685
1919 71627
испан@@ 71624
операции 71587
проекта 71559
бело@@ 71497
орга@@ 71470
цве@@ 71456
Джа@@ 71454
разви@@ 71450
государ@@ 71367
гой 71323
Ос@@ 71311
1985 71292
1946 71264
празд@@ 71230
отец 71227
столи@@ 71194
применя@@ 71190
поте@@ 71089
совет 71076
многочислен@@ 71042
Рабо@@ 71041
Описание 71030
Ленин@@ 70989
жной 70986
домаш@@ 70971
дебютировал 70947
жили 70907
публи@@ 70892
Тур@@ 70890
осно@@ 70819
шах@@ 70811
своём 70806
Поли@@ 70793
гвардей@@ 70776
оборудо@@ 70752
службы 70747
расположен@@ 70646
успе@@ 70646
ано 70623
эту 70564
разных 70547
1@@ 70535
подо@@ 70512
выда@@ 70501
ёт@@ 70489
москов@@ 70482
32 70477
Сте@@ 70475
валось 70475
Зна@@ 70468
преде@@ 70462
университет 70381
первую 70288
пор 70260
ходят 70244
известно 70242
камен@@ 70240
Ир@@ 70230
система 70225
казыва@@ 70198
июне 70185
внутрен@@ 70173
дов@@ 70141
сра@@ 70119
рово@@ 70058
нений 70035
Если 70003
&#124; 69984
Верх@@ 69979
примене@@ 69948
работать 69946
Кубка 69925
ём@@ 69911
определ@@ 69908
ологи@@ 69849
Сто@@ 69801
1965 69772
друг 69760
цом 69756
мер 69732
поступил 69685
кня@@ 69670
запис@@ 69661
Ис@@ 69622
любо@@ 69565
помощи 69558
коне@@ 69552
погиб@@ 69547
воору@@ 69420
бург@@ 69401
арти@@ 69348
апреле 69326
таким 69323
нико@@ 69303
Иль@@ 69245
гла 69225
вто@@ 69214
Гре@@ 69207
используется 69192
другим 69184
Фор@@ 69180
становится 69166
цем 69139
ниж@@ 69112
чин@@ 69052
Тем 69050
писа@@ 69003
титул 69003
рио@@ 68971
Национа@@ 68933
центром 68914
ноябре 68913
дон@@ 68910
H@@ 68858
подвер@@ 68825
дополнитель@@ 68798
позволи@@ 68772
ковский 68753
оби@@ 68744
отра@@ 68737
поста@@ 68734
сво@@ 68723
ственная 68715
лон@@ 68699
исполня@@ 68697
русский 68663
территориаль@@ 68657
вно 68637
цам 68633
т. 68630
сен 68626
ссе 68585
колхо@@ 68574
гг. 68536
1984 68531
Через 68474
месяца 68473
даль@@ 68465
сум@@ 68464
Мари@@ 68462
должны 68437
экономи@@ 68396
штат 68366
ственное 68337
посвя@@ 68336
куп@@ 68213
жо@@ 68204
1979 68143
пять 68111
наблю@@ 68100
пути 68096
стату@@ 68063
16@@ 68021
реаль@@ 68011
ждён 67972
лью 67941
Великобритании 67911
нить 67889
Гри@@ 67885
раб@@ 67876
1966 67873
нё@@ 67835
разру@@ 67835
транспор@@ 67817
Московской 67780
иногда 67778
ам@@ 67738
V@@ 67692
Серге@@ 67671
сыгра@@ 67655
русского 67626
V 67582
подтвер@@ 67529
тым 67488
джа@@ 67484
1968 67459
ата 67431
цвет@@ 67424
1975 67407
us 67354
Пор@@ 67350
Ран@@ 67339
сона 67248
сад@@ 67214
1926 67207
ордена 67187
русские 67154
утвержда@@ 67140
ряда 67124
500 67078
Джон 67003
феврале 66935
1948 66850
аны 66823
рассматри@@ 66792
кроме 66763
числен@@ 66711
ителями 66676
ённая 66675
государственный 66628
дерев@@ 66623
бре@@ 66620
эта 66602
развед@@ 66598
проходи@@ 66578
всегда 66560
K@@ 66549
обороны 66525
приве@@ 66512
бронзо@@ 66510
ляр@@ 66489
архите@@ 66486
получа@@ 66464
евна 66450
востоке 66439
вор@@ 66427
Ам@@ 66402
проте@@ 66393
здания 66372
дочь 66352
духов@@ 66335
зам@@ 66316
лений 66297
остро@@ 66269
нику 66245
Вар@@ 66232
чай@@ 66226
отве@@ 66215
тат@@ 66173
1963 66163
цо 66159
итоге 66154
рели@@ 66150
комитета 66144
1973 66137
забил 66133
меся@@ 66129
Рес@@ 66118
пли@@ 66114
училище 66106
протяжении 66087
лле@@ 66050
нина 66035
1976 66031
второго 65982
вышла 65980
войне 65964
практически 65934
щены 65887
гах 65884
менты 65844
класса 65843
ката@@ 65811
Воро@@ 65774
грам@@ 65745
отличие 65713
бира@@ 65703
стой 65695
начало 65678
Дон@@ 65673
1959 65649
туры 65638
кир@@ 65631
дил 65624
Москвы 65622
готов@@ 65600
ане 65562
продол@@ 65539
правительства 65530
рил 65487
1972 65486
матчей 65484
четвёр@@ 65462
этому 65427
a 65340
Пра@@ 65325
чился 65324
тяжё@@ 65275
ляет 65251
похо@@ 65245
аль 65217
Пол@@ 65196
фу@@ 65194
четы@@ 65179
рина 65170
пом 65161
ментов 65133
ню 65131
сах 65092
дере@@ 65090
хе 65085
впа@@ 65062
располо@@ 65029
фронта 65009
писи 65000
президента 64992
вшим 64946
чную 64940
мского 64911
эт@@ 64907
1971 64851
1958 64818
покры@@ 64814
1956 64797
расположена 64773
стин@@ 64755
риаль@@ 64707
Украин@@ 64705
Поль@@ 64653
район@@ 64644
Климат 64635
систе@@ 64635
меры 64626
составляли 64598
мени@@ 64596
слав 64578
уча@@ 64548
1982 64547
лли 64537
информа@@ 64521
эпизо@@ 64512
ску 64491
стами 64439
рин 64400
вёл 64399
торгов@@ 64364
мас@@ 64359
вшийся 64344
пу 64334
сезон 64296
музыкан@@ 64288
X 64257
действо@@ 64254
жено 64236
ограни@@ 64233
клу@@ 64219
состоянию 64216
граф 64196
сына 64169
йна 64141
порт 64133
всем 64126
кам@@ 64100
ково 64072
жению 64020
меда@@ 63983
гидро@@ 63978
холод@@ 63968
1974 63934
сдела@@ 63928
мента 63883
Рай@@ 63880
ул 63849
стране 63844
двух@@ 63840
воду 63808
щим 63781
женный 63759
1929 63750
состава 63731
ид@@ 63702
сразу 63643
рен 63642
членов 63630
общей 63602
карьера 63578
вместо 63560
али@@ 63547
куда 63545
держи@@ 63522
оне 63506
1983 63481
1978 63447
Член 63429
изо@@ 63427
реша@@ 63423
государствен@@ 63413
управ@@ 63409
авиацион@@ 63399
организа@@ 63379
программы 63343
являлся 63308
сту 63304
льности 63299
бов 63259
1981 63244
награждён 63232
мин 63231
словам 63227
рэ@@ 63226
контро@@ 63199
фин@@ 63194
времен@@ 63189
улица 63152
Воло@@ 63144
военного 63132
охра@@ 63124
1967 63121
результатам 63104
стандар@@ 63027
центре 62927
архи@@ 62912
позднее 62904
Филип@@ 62886
надц@@ 62838
рик 62834
свобод@@ 62834
улицы 62830
большое 62779
издате@@ 62765
демокра@@ 62761
вах 62746
гене@@ 62737
воздуш@@ 62712
прото@@ 62691
1954 62666
конец 62658
1964 62652
люди 62638
Хе@@ 62623
сел@@ 62617
1957 62601
рованных 62599
дель@@ 62596
выполня@@ 62594
Уэ@@ 62589
цах 62581
жных 62578
маршру@@ 62572
вер 62560
кну@@ 62555
дение 62479
ниц 62474
IV 62419
дор 62419
Тор@@ 62380
четвер@@ 62357
Фо@@ 62333
ган 62319
зин@@ 62309
1962 62253
Чи@@ 62235
клад@@ 62224
64 62223
автор 62210
тических 62196
взаимо@@ 62172
ог@@ 62149
команду@@ 62130
1949 62124
дий 62107
гли 62104
безопасности 62096
свидетель@@ 62094
милли@@ 62077
мед@@ 62051
регуляр@@ 62035
неде@@ 61984
Золо@@ 61961
внимание 61961
завода 61945
град 61935
Англии 61920
очередь 61829
дав@@ 61819
сте 61809
измене@@ 61795
Японии 61784
слова 61772
дено 61731
турнира 61726
мог 61715
XVIII 61712
ющими 61694
журнала 61670
Тру@@ 61647
чий 61635
обеспечи@@ 61608
1936 61563
ее 61551
нали@@ 61542
65 61539
вшихся 61513
чена 61509
случа@@ 61491
1961 61478
результ@@ 61466
Кана@@ 61443
сельское 61367
ждении 61337
мало@@ 61296
жела@@ 61285
Первой 61231
религиоз@@ 61144
творче@@ 61142
лан 61126
нан@@ 61093
произо@@ 61090
край@@ 61072
защи@@ 61048
Аб@@ 61039
вали@@ 61034
нор@@ 61023
академи@@ 60986
1977 60957
вари@@ 60953
восточной 60947
брь 60916
тность 60905
газе@@ 60892
реги@@ 60888
преподавате@@ 60881
главе 60878
нима@@ 60870
главного 60859
пост 60857
ческую 60793
ёл 60791
западе 60736
уез@@ 60732
соору@@ 60730
Кам@@ 60729
графа 60719
исследования 60719
западной 60714
Кол@@ 60689
оло@@ 60676
бран@@ 60629
тем@@ 60622
спустя 60620
рение 60603
военных 60590
дву@@ 60559
написал 60545
футбо@@ 60536
старо@@ 60523
юр@@ 60514
рон 60508
летом 60506
Послед@@ 60505
мей@@ 60505
лёг@@ 60481
Ры@@ 60469
строительство 60465
Код 60448
вано 60442
лиги 60430
B 60426
1947 60390
лети@@ 60384
Ленинград@@ 60378
Стар@@ 60345
соответствии 60345
превра@@ 60307
кали@@ 60282
получили 60274
одновременно 60271
ченко 60255
вши@@ 60220
Дан@@ 60209
ятся 60198
лагер@@ 60191
пору@@ 60138
Таким 60136
жать 60108
зоне 60084
мена 60068
льства 60053
музе@@ 60052
граф@@ 60030
мел@@ 59995
гото@@ 59964
кисло@@ 59954
одном 59939
строй@@ 59925
1969 59924
бес@@ 59871
Бен@@ 59817
штаба 59815
стрел@@ 59793
практи@@ 59780
1935 59777
ум 59745
Щ@@ 59742
вну@@ 59737
мину@@ 59724
Бел@@ 59700
чался 59693
Сол@@ 59671
начальник 59668
мых 59619
сельсовет 59616
33 59607
вклю@@ 59600
американский 59585
объ@@ 59567
хозяй@@ 59561
действу@@ 59540
номе@@ 59522
ванию 59452
Позже 59408
жает 59405
шан@@ 59381
АО 59363
лья@@ 59363
уэ@@ 59350
срав@@ 59343
научных 59335
строительства 59311
действ@@ 59279
доку@@ 59266
упомина@@ 59232
четырёх 59216
площади 59186
нео@@ 59185
интере@@ 59176
-@@ 59164
населённых 59160
развитие 59157
зен@@ 59137
щении 59051
кни@@ 59049
цик@@ 59037
хорошо 59031
сто 59030
Россия 59010
роман@@ 59007
шоу 58978
есте@@ 58958
зрения 58943
футболист 58903
реш@@ 58865
Йор@@ 58844
O@@ 58821
гами 58821
преду@@ 58753
стол@@ 58749
принадлежа@@ 58740
разв@@ 58733
Авто@@ 58709
ьи 58698
соответственно 58691
емой 58689
говори@@ 58679
свобо@@ 58665
рё@@ 58653
Северной 58650
ена 58648
собира@@ 58644
новым 58642
статус 58628
одино@@ 58625
ведён 58613
Лин@@ 58604
цвета 58564
руко@@ 58563
дебю@@ 58535
начали 58535
Прав@@ 58531
Испании 58524
выше 58515
Бри@@ 58488
Ев@@ 58485
Це@@ 58384
Лат@@ 58369
дя@@ 58369
революции 58364
сай@@ 58354
движение 58353
чении 58335
фе 58289
проходит 58277
ум@@ 58277
сей 58272
командо@@ 58261
полож@@ 58260
насчит@@ 58259
турнире 58251
36 58243
кома 58237
ати 58219
начальника 58213
млад@@ 58212
цент@@ 58205
шими 58197
продю@@ 58189
дивизия 58186
Ива@@ 58172
ительной 58168
решения 58164
влияние 58143
ционных 58119
студен@@ 58082
флота 58066
финансо@@ 58063
ционной 58011
смотре@@ 58007
Мария 57990
льд 57979
жё@@ 57936
точки 57926
основате@@ 57914
заявил 57896
бой@@ 57885
мыс@@ 57859
графии 57858
мастер@@ 57839
водного 57834
множество 57791
сор@@ 57755
основан@@ 57753
1924 57741
S 57728
семь 57704
боевых 57701
одно 57692
Нор@@ 57689
финале 57687
сочи@@ 57678
мян@@ 57656
торго@@ 57612
пока 57598
копи@@ 57567
восста@@ 57565
выиграл 57552
зом 57550
правительство 57540
вече@@ 57527
предо@@ 57522
ссия 57501
Советского 57498
пассажи@@ 57489
34 57482
сол@@ 57452
сим@@ 57448
циона@@ 57441
Сла@@ 57440
пробле@@ 57435
йки 57428
мест 57409
метро@@ 57409
показате@@ 57397
дали 57387
Израи@@ 57385
ющихся 57338
рю@@ 57322
ровали 57306
1921 57283
торов 57278
Не 57250
километров 57237
фло@@ 57190
хся 57185
тыся@@ 57183
сокра@@ 57168
бор 57143
шел 57143
исто@@ 57088
моби@@ 57032
Сюжет 56993
Син@@ 56979
Всего 56975
мона@@ 56970
завое@@ 56968
Нача@@ 56961
Бре@@ 56949
главный 56905
периода 56902
лка 56851
зву@@ 56848
список 56844
Народ@@ 56842
хозяйства 56840
ывает 56834
считается 56819
традицион@@ 56799
озера 56793
назы@@ 56792
38 56768
темпера@@ 56738
никам 56712
сне@@ 56691
потеря@@ 56678
Три@@ 56663
орденом 56630
деву@@ 56614
стил 56575
тики 56553
эле@@ 56553
стать 56552
нато@@ 56543
37 56533
in 56524
храни@@ 56509
нского 56491
пон@@ 56477
Евро@@ 56474
находятся 56469
Карьера 56461
христиан@@ 56454
принци@@ 56446
химиче@@ 56409
относительно 56402
чено 56373
y 56332
ленные 56326
большинство 56312
известный 56308
1922 56289
предполага@@ 56288
группу 56281
реке 56250
музыки 56218
медали 56216
шем 56214
Петро@@ 56154
щается 56112
Тро@@ 56074
Длина 56054
захват@@ 56047
Королев@@ 55998
земе@@ 55974
условиях 55966
имели 55961
Э 55941
ровки 55941
свет@@ 55930
присоедини@@ 55929
Ленина 55922
1953 55880
российской 55875
рована 55860
двигате@@ 55852
понима@@ 55849
I@@ 55836
чек 55830
ктов 55814
одну 55801
развити@@ 55793
оригина@@ 55786
Алексей 55774
жем 55748
правило 55741
баш@@ 55730
ново 55724
Киев@@ 55711
рь@@ 55711
Эта 55683
военной 55678
группе 55666
скло@@ 55639
ран 55596
несмотря 55589
300 55566
создан 55536
Эд@@ 55535
количе@@ 55532
1928 55528
днев@@ 55509
Оль@@ 55508
которому 55481
вариан@@ 55478
ёв 55473
реши@@ 55470
75 55439
категории 55417
самой 55406
записи 55385
Бори@@ 55377
преступ@@ 55344
экспери@@ 55344
прин@@ 55342
тился 55329
Харь@@ 55316
совместно 55298
самостоятель@@ 55292
Анто@@ 55287
пункт 55282
Сим@@ 55275
скри@@ 55268
кафед@@ 55266
состоялась 55265
пита@@ 55225
дворов 55220
использовать 55213
реше@@ 55212
победу 55187
Афри@@ 55185
лев@@ 55182
лым 55154
достаточно 55150
дела 55130
Окончил 55129
известен 55128
различные 55087
Список 55085
нена 55083
1955 55073
контра@@ 55063
полити@@ 55061
Эти 55037
крестьян@@ 55028
вось@@ 55007
дей 54963
лог 54951
воль@@ 54933
узна@@ 54933
1934 54925
ённым 54905
кресть@@ 54892
Вя@@ 54877
могли 54875
требу@@ 54861
зывает 54850
выбра@@ 54844
замен@@ 54812
различ@@ 54791
Занимает 54786
обеспе@@ 54786
Совет@@ 54781
1952 54762
чиков 54758
хокке@@ 54737
альный 54730
муниципа@@ 54727
днее 54718
Вскоре 54689
деревян@@ 54668
джи@@ 54661
твор@@ 54622
действие 54610
большин@@ 54602
оно 54594
научно 54593
Сти@@ 54582
трудо@@ 54580
гори@@ 54540
уме@@ 54531
Дне@@ 54519
вру@@ 54515
сь@@ 54502
характер@@ 54492
форме 54461
против@@ 54451
основной 54450
матч 54423
команд 54412
мым 54412
жества 54407
сильно 54395
Ст@@ 54387
занимался 54386
код 54375
теории 54357
Бан@@ 54355
1932 54324
Европе 54303
Гро@@ 54281
окра@@ 54274
последовате@@ 54257
циями 54256
названия 54245
отноше@@ 54245
1933 54218
соответ@@ 54183
прямой 54175
няется 54169
стра 54144
тера 54137
ец 54126
тным 54125
лая 54098
тического 54094
учился 54084
Деревня 54083
лам 54070
вдо@@ 54069
мина@@ 54062
наи@@ 54048
маши@@ 54036
Андрей 54031
укра@@ 54026
фир@@ 54016
ште@@ 54015
владель@@ 54004
Бор@@ 53973
Полу@@ 53971
информации 53970
ща 53961
Нар@@ 53960
студи@@ 53899
исследований 53898
тика 53880
чила 53869
месяцев 53859
чар@@ 53859
уровне 53844
министра 53784
целом 53767
Нов@@ 53757
зон@@ 53745
посёлка 53730
дальнейшем 53715
журнали@@ 53708
чие 53706
находи@@ 53692
ука@@ 53680
песен 53679
1931 53643
лович 53635
Хан@@ 53628
туре@@ 53617
бассейн 53594
1923 53593
кораб@@ 53592
такой 53587
преж@@ 53586
чением 53584
документа@@ 53581
угро@@ 53580
Некоторые 53572
русских 53569
шен 53551
писан 53547
Лей@@ 53538
вия 53533
потому 53532
Обще@@ 53525
рождения 53498
услови@@ 53490
участок 53484
острове 53479
лиге 53476
жить 53475
оз@@ 53475
Её 53471
ционного 53454
кт 53452
музы@@ 53451
аб@@ 53416
мами 53385
пунктов 53380
вице 53367
успеш@@ 53354
брат 53348
летия 53343
штата 53335
первен@@ 53334
ствами 53309
значительно 53295
Тай@@ 53294
щу@@ 53268
автоно@@ 53267
позволя@@ 53259
педагоги@@ 53254
42 53252
объяв@@ 53232
de 53223
игре 53217
принимал 53215
Московского 53198
вокруг 53196
заведу@@ 53193
состоялся 53193
ато 53189
йским 53182
площад@@ 53124
рабат@@ 53112
Гон@@ 53077
двину@@ 53074
39 53072
лян@@ 53045
губер@@ 52969
стр 52923
числа 52922
включает 52901
работает 52887
Красной 52873
представителей 52872
специали@@ 52847
прини@@ 52824
супру@@ 52801
звёз@@ 52787
44 52775
муниципалите@@ 52739
смог 52732
эр@@ 52730
быстро 52703
инте@@ 52693
Название 52617
ющую 52605
кавале@@ 52591
убий@@ 52589
вли@@ 52585
действий 52582
факультет 52581
руют 52532
Ю 52530
атив@@ 52517
транс@@ 52517
муниципального 52469
Василий 52466
выборах 52457
ствах 52448
промышленности 52408
путеше@@ 52372
Вин@@ 52341
неж@@ 52333
ющиеся 52296
побереж@@ 52281
судь@@ 52280
участник 52256
скульп@@ 52246
мую 52235
поля 52234
i 52225
Азии 52217
компа@@ 52207
дене@@ 52201
электри@@ 52185
дно 52180
нной 52179
казывает 52141
производство 52116
Пен@@ 52100
команде 52080
науки 52077
молодёж@@ 52071
военно 52021
тором 52021
мужчины 52002
моде@@ 51990
чув@@ 51988
странах 51948
летних 51921
Александрович 51886
гат@@ 51884
ната 51874
Кали@@ 51857
Чар@@ 51844
песня 51832
ссы 51826
Административный 51821
воздуха 51819
заво@@ 51787
титу@@ 51786
тяже@@ 51778
1951 51765
продук@@ 51757
чемпиона@@ 51756
Баш@@ 51753
ницей 51747
мень@@ 51737
гли@@ 51733
зал 51728
ожи@@ 51728
сков 51728
Гла@@ 51726
хо 51712
чемпионат 51710
Николаевич 51705
прош@@ 51689
нем@@ 51688
экра@@ 51688
нау@@ 51673
президент 51671
явления 51663
Рас@@ 51636
тические 51619
коммер@@ 51618
око@@ 51606
доль@@ 51598
Дей@@ 51594
административного 51594
1927 51583
чал 51570
Вто@@ 51555
нский 51553
мые 51540
Име@@ 51525
счёт 51523
системе 51515
емо@@ 51512
жный 51503
Ах@@ 51457
бом 51456
друго@@ 51453
Сло@@ 51451
лучших 51449
сё@@ 51426
досто@@ 51408
Южной 51406
орке@@ 51380
дороге 51371
ходил 51370
мно@@ 51366
рованы 51360
Иоан@@ 51351
штур@@ 51348
Высо@@ 51343
искусств 51336
просто 51307
соответству@@ 51295
бен@@ 51289
ровка 51283
Сара@@ 51275
опер@@ 51261
Род@@ 51250
вро@@ 51220
Памя@@ 51209
кана@@ 51202
Джи@@ 51198
дже@@ 51192
ап@@ 51164
фф 51159
доме 51145
мере 51142
ност@@ 51126
первое 51111
границы 51106
попы@@ 51106
щее 51098
войсками 51093
1925 51075
девя@@ 51039
дочери 51006
серьёз@@ 51000
суда 50996
суб@@ 50989
последний 50987
уси@@ 50985
экипа@@ 50977
первая 50974
сначала 50971
Академии 50943
жет 50928
следует 50908
знамени@@ 50837
оцен@@ 50835
вок 50834
никах 50825
ящи@@ 50793
преимущественно 50770
тое 50750
рией 50717
комби@@ 50715
энер@@ 50684
явление 50661
Даль@@ 50658
Вос@@ 50648
предлага@@ 50630
жиз@@ 50621
стера 50621
удар@@ 50609
верси@@ 50606
1914 50590
эль 50579
зан 50574
Же@@ 50559
Автор 50550
Под 50531
каждый 50531
официально 50522
посвящ@@ 50518
подня@@ 50488
вин 50467
Коро@@ 50455
музей 50448
нице 50441
сек@@ 50433
Джон@@ 50426
произведения 50402
соста@@ 50388
матча 50374
Стро@@ 50370
медаль 50361
работа 50350
отношении 50348
емого 50342
Цент@@ 50301
and 50284
Президен@@ 50237
берг 50229
тическая 50229
бат@@ 50211
пье@@ 50190
своими 50188
изи@@ 50173
женщи@@ 50167
стан 50143
тен 50044
ционный 50042
армия 50041
долго 50040
заместитель 50037
ниже 50025
следующий 50016
регионе 50010
эн 50003
подразде@@ 49984
структуре 49984
Дани@@ 49974
данные 49972
гате@@ 49932
Нико@@ 49928
заболе@@ 49920
работала 49895
Бли@@ 49850
старший 49842
броне@@ 49839
веща@@ 49808
тю@@ 49802
ждена 49798
уста@@ 49792
ритель@@ 49784
перево@@ 49772
Здесь 49771
Умер 49750
боро@@ 49741
историю 49730
Алек@@ 49726
всю 49722
распреде@@ 49688
бомбарди@@ 49679
гит@@ 49658
совмест@@ 49657
книг 49647
улице 49607
солдат 49605
лиде@@ 49604
числе@@ 49597
сторону 49595
запи@@ 49548
базе 49530
театра@@ 49529
храм 49528
изготов@@ 49510
Кита@@ 49470
силь@@ 49441
сва@@ 49436
XVII 49389
Помимо 49356
стка 49355
Боль@@ 49303
графия 49298
Казан@@ 49278
власть 49240
включ@@ 49236
реестра 49232
герман@@ 49143
тив 49141
большую 49135
монасты@@ 49121
предыду@@ 49117
рал 49116
активно 49086
позволяет 49082
железной 49041
определя@@ 49007
море 48975
занимал 48956
еты 48953
зя@@ 48937
Виктор 48928
чет@@ 48928
округе 48926
заключ@@ 48922
призва@@ 48913
психо@@ 48911
Пос@@ 48900
amp 48897
Президиума 48892
c 48888
юриди@@ 48887
вами 48862
юри@@ 48829
ыми 48828
половине 48808
дь 48783
военный 48768
визи@@ 48766
жав@@ 48761
провин@@ 48758
нены 48738
вшиеся 48735
возник@@ 48730
кен@@ 48726
лета 48716
часов 48692
Петербург@@ 48683
инстру@@ 48666
артилле@@ 48603
щи 48590
Хотя 48588
трав@@ 48569
эффектив@@ 48541
общего 48536
фамилия 48536
государственной 48534
сфер@@ 48518
Дмитрий 48450
1905 48439
ленных 48431
олимпи@@ 48425
решил 48401
веще@@ 48399
рее 48394
долго@@ 48382
потреб@@ 48367
Бай@@ 48355
.. 48345
литературы 48284
прия@@ 48268
льство 48253
груп@@ 48242
d@@ 48240
евского 48234
студии 48201
средств 48191
рейтин@@ 48178
умень@@ 48178
щем 48164
бригады 48140
Сы@@ 48131
пяти 48107
Бак@@ 48098
Лан@@ 48092
одноим@@ 48087
ительный 48077
восток 48073
общество 48067
кг 48054
городов 48024
тюрь@@ 48016
гео@@ 47994
Кру@@ 47989
кции 47975
будут 47973
дело 47961
стороне 47955
арен@@ 47937
4,@@ 47932
добав@@ 47925
Кир@@ 47912
глубо@@ 47885
48 47882
существует 47876
происхождения 47846
пяти@@ 47846
Село 47805
фом 47782
прежде 47760
голосо@@ 47708
ёр 47699
консу@@ 47697
J@@ 47649
Коло@@ 47633
купи@@ 47632
чить 47620
отдела 47615
формирова@@ 47604
46 47591
лья 47581
нич@@ 47581
актё@@ 47571
фрон@@ 47559
сельскохозяй@@ 47548
умер@@ 47541
желез@@ 47537
эска@@ 47527
сть@@ 47503
лите@@ 47502
ради@@ 47499
книге 47476
обнов@@ 47470
директор 47444
тренер 47433
e@@ 47413
Ско@@ 47400
районного 47396
региона 47393
доби@@ 47371
раза 47355
41 47352
фре@@ 47344
Чемпи@@ 47338
ковые 47327
мал@@ 47323
мого 47323
Луч@@ 47317
резер@@ 47310
следующем 47309
собо@@ 47302
храма 47246
гол 47240
вной 47203
привле@@ 47162
числи@@ 47160
уровня 47145
вера 47141
буд@@ 47110
бед@@ 47098
ковая 47067
Мол@@ 47058
лого 47052
ари 47020
шек 47014
административно 47013
длиной 47006
чика 46991
средней 46988
онов 46985
нало@@ 46983
Лит@@ 46978
средне@@ 46971
гражда@@ 46935
степень 46929
прибы@@ 46915
линей@@ 46890
окончате@@ 46880
тное 46866
замет@@ 46860
втором 46857
соци@@ 46852
52 46851
55 46821
обозна@@ 46817
ую 46809
новский 46794
Чемпионат 46793
люби@@ 46784
вооруж@@ 46771
газеты 46770
проживало 46758
местного 46753
большая 46743
процесс 46739
ссов 46723
чия 46721
управление 46715
части@@ 46714
пру@@ 46690
сказал 46688
звания 46684
Фу@@ 46683
Кли@@ 46681
зелё@@ 46669
турни@@ 46658
гов@@ 46647
огром@@ 46644
Рим@@ 46635
Воен@@ 46634
техники 46631
ленный 46614
форма 46610
Вла@@ 46596
кому 46584
жу 46568
зако@@ 46550
жды 46548
рублей 46545
бого@@ 46544
католиче@@ 46539
Суще@@ 46535
фильмов 46533
оши@@ 46492
дении 46490
зей 46475
00 46446
рана 46432
строе@@ 46421
путь 46410
Бал@@ 46408
нас 46386
музея 46361
защиты 46356
вести 46347
пи 46345
война 46338
Ара@@ 46316
нен 46313
итогам 46312
гин@@ 46269
основных 46264
Федера@@ 46259
каж@@ 46256
образован 46256
Наиболее 46236
Мер@@ 46189
возможности 46187
ана@@ 46181
артиллерий@@ 46172
вому 46168
пункты 46166
сериала 46150
полага@@ 46145
модели 46137
измени@@ 46136
мон 46087
зрите@@ 46077
долж@@ 46073
эф@@ 46064
on 46062
вступил 46031
ждений 46017
международных 45984
последние 45984
Сар@@ 45978
зависимости 45977
партий@@ 45977
Выс@@ 45964
ску@@ 45954
командира 45945
чин 45916
тех@@ 45911
высту@@ 45907
служа@@ 45907
художник 45900
арми@@ 45896
помощь 45891
сии 45878
офи@@ 45867
тера@@ 45857
отделения 45842
пересе@@ 45836
сили 45829
жал 45827
коллед@@ 45815
шает 45802
жерт@@ 45781
средства 45765
географи@@ 45763
дата 45760
щено 45757
падает 45753
охран@@ 45752
пто@@ 45752
вошёл 45739
сюже@@ 45724
должна 45700
ГУ 45697
политической 45690
возра@@ 45674
довольно 45665
паро@@ 45664
населе@@ 45653
семей@@ 45648
гер 45620
мени 45615
известных 45611
бассей@@ 45579
рал@@ 45573
версия 45569
напря@@ 45561
доступ@@ 45555
наси@@ 45543
1915 45539
Куз@@ 45537
раст@@ 45532
самом 45530
Бель@@ 45515
опас@@ 45513
Зи@@ 45506
исключ@@ 45501
испыта@@ 45501
кварти@@ 45489
Гос@@ 45479
ленной 45479
подписал 45442
улуч@@ 45438
крупных 45425
Мал@@ 45416
пуска@@ 45414
полномо@@ 45405
высота 45391
поселе@@ 45380
Жу@@ 45378
вёр@@ 45375
смен@@ 45374
расположены 45371
боях 45349
далеко 45337
местных 45333
Петербурге 45331
сно 45331
выбор@@ 45312
нистиче@@ 45291
5,@@ 45284
чет 45273
Пан@@ 45255
теперь 45255
хот@@ 45234
истреб@@ 45232
начина@@ 45223
комиссии 45211
нией 45199
осу@@ 45195
председатель 45165
жила 45163
космиче@@ 45154
G 45148
хол@@ 45112
Науч@@ 45088
Ян@@ 45084
3,@@ 45056
достига@@ 45043
тации 45028
пользо@@ 45020
400 45012
неуда@@ 45007
революцион@@ 44998
ЦК 44995
сце@@ 44987
ённое 44979
Пётр 44972
Семья 44952
председателем 44942
карьеры 44938
сообща@@ 44929
тан 44929
останов@@ 44927
партия 44921
жского 44916
Первая 44910
уст@@ 44904
рованной 44895
значи@@ 44889
руп@@ 44887
Кро@@ 44854
поле@@ 44852
Роди@@ 44834
аври@@ 44811
Большо@@ 44805
Святого 44796
дорога 44786
частей 44766
путём 44762
пенси@@ 44759
ин 44752
форму@@ 44740
выступил 44723
Васильевич 44712
ностях 44711
труд@@ 44686
сегод@@ 44680
евский 44675
театр 44671
осуществля@@ 44670
устро@@ 44664
упо@@ 44654
трёх@@ 44652
суд 44651
пись 44639
НИ@@ 44638
центральной 44638
кара@@ 44635
чности 44620
вки 44608
Сред@@ 44591
чемпионом 44581
сиг@@ 44578
дор@@ 44570
43 44553
колле@@ 44549
суме@@ 44496
гле@@ 44494
тей 44484
дови@@ 44473
след@@ 44473
дин 44467
портре@@ 44464
корпус 44453
футболу 44441
Юрий 44433
фигу@@ 44427
Впервые 44421
пока@@ 44416
вошли 44413
тический 44410
Коман@@ 44407
Черно@@ 44391
сения 44360
окон@@ 44355
товари@@ 44311
лизации 44288
йт 44272
учи@@ 44272
предме@@ 44270
звез@@ 44264
указа@@ 44246
чле@@ 44220
компанией 44219
добы@@ 44214
чина 44208
пов@@ 44196
среднем 44183
шу 44180
ани@@ 44169
тури@@ 44168
групп 44156
бай@@ 44140
Х 44139
Василь@@ 44133
еписко@@ 44118
потом 44114
брига@@ 44112
сети 44102
покину@@ 44093
никогда 44081
обязате@@ 44078
магази@@ 44064
национального 44061
стиле 44049
запу@@ 44035
мый 44015
Слу@@ 43996
47 43992
Объ@@ 43991
оне@@ 43985
Ган@@ 43965
езда 43965
Мен@@ 43958
миллионов 43950
КПСС 43945
севере 43944
уве@@ 43939
зано 43935
Ура@@ 43930
креп@@ 43921
использования 43919
нач@@ 43895
ворота 43894
шесть 43841
плений 43832
говорит 43814
животных 43800
юге 43790
Вместе 43784
Кал@@ 43783
чемпион@@ 43776
Финлян@@ 43773
Остро@@ 43756
Вален@@ 43745
финал 43732
­ 43725
Один 43722
засе@@ 43722
щик 43719
рованный 43717
бывший 43693
полков@@ 43688
ресур@@ 43675
дра 43659
форму 43657
L 43646
обслужи@@ 43644
изуча@@ 43643
альной 43642
летний 43641
чь@@ 43626
казом 43603
худож@@ 43603
оса@@ 43584
мель@@ 43576
цкая 43560
R 43557
растений 43556
рис 43540
десяти@@ 43537
наслед@@ 43537
именем 43533
швед@@ 43533
чными 43531
D 43521
входила 43520
Пло@@ 43477
получить 43472
председателя 43472
туру 43449
приняли 43446
лизо@@ 43393
республики 43388
скла@@ 43378
иска@@ 43375
Михайлович 43371
Хор@@ 43367
Ок@@ 43361
основан 43355
иностранных 43340
фар@@ 43322
Павел 43313
сексу@@ 43295
дважды 43293
эксплуата@@ 43290
малень@@ 43286
дес@@ 43285
пило@@ 43273
редко 43265
Фер@@ 43247
гло 43244
уг@@ 43240
уезд 43239
систем 43228
произошло 43209
ря 43199
нили 43195
езд 43193
дальней@@ 43189
рес 43163
M 43159
Эк@@ 43145
построен 43143
инди@@ 43125
вив 43122
Нидер@@ 43121
концеп@@ 43116
тка 43110
Тю@@ 43109
Джей@@ 43107
команд@@ 43106
щиков 43103
направлении 43097
увеличи@@ 43089
лес 43088
ницу 43077
родилась 43075
разли@@ 43060
православ@@ 43036
скре@@ 43025
слов 43022
своему 43018
временем 43012
присвоено 43008
Париже 43006
выпуска@@ 43000
знач@@ 42979
Йо@@ 42977
ляции 42976
игра 42951
режи@@ 42935
стром 42929
Смолен@@ 42917
коммуна 42910
крупней@@ 42902
принято 42879
борьбы 42875
депутатов 42871
сообщи@@ 42858
изменения 42857
предназна@@ 42857
XVI 42845
маль@@ 42832
заяв@@ 42823
конструкции 42815
Рей@@ 42793
Указом 42775
U@@ 42771
оке@@ 42771
фла@@ 42750
участия 42744
нец 42737
рабочих 42732
министр 42713
мото@@ 42711
льность 42710
мыш@@ 42699
вай@@ 42667
счётом 42656
ровала 42645
Площадь 42636
высоко@@ 42636
участников 42625
мино@@ 42621
осадков 42604
Тар@@ 42601
командир 42599
проведения 42587
рито@@ 42577
современной 42573
усло@@ 42570
Эй@@ 42569
мина 42561
выхода 42557
свер@@ 42539
Ли 42529
гля@@ 42529
7,@@ 42509
поддержку 42507
вплоть 42498
Америки 42496
мусуль@@ 42486
сделать 42481
командованием 42469
автор@@ 42461
рубе@@ 42445
F 42433
дорович 42421
приблизительно 42414
нных 42386
почто@@ 42376
работали 42367
премьер 42366
Например 42361
00@@ 42351
князя 42334
началось 42334
тием 42332
инициати@@ 42298
вам 42292
стади@@ 42283
метри@@ 42280
высоте 42276
Первые 42251
бывшего 42242
ительство 42233
написан@@ 42230
сколько 42218
Моло@@ 42211
пут@@ 42207
мп@@ 42199
ительные 42148
следующих 42146
борьбе 42142
c@@ 42131
скоро@@ 42129
t 42128
началась 42125
51 42122
призёр 42101
скан@@ 42097
окончании 42089
57 42065
150 42063
54 42060
хозяйств 42057
выпущен 42055
рованные 42055
гда@@ 42047
анали@@ 42045
ительного 42037
мани@@ 42031
1912 42029
директором 42024
взгля@@ 41994
входят 41992
фи 41991
тепло@@ 41986
фы 41985
стров 41973
1,@@ 41938
остров 41924
Большой 41914
кости 41901
журна@@ 41899
монастыря 41897
данный 41891
составляла 41891
матери 41886
58 41871
ходов 41834
возглавил 41829
любов@@ 41828
жие 41809
богат@@ 41800
финала 41791
законодате@@ 41788
матчах 41786
чере@@ 41786
сделал 41742
оба 41738
морской 41732
1913 41721
упоминается 41720
домо@@ 41717
судеб@@ 41692
кает 41690
нологи@@ 41682
переве@@ 41678
императора 41670
кон 41669
бии 41665
увиде@@ 41652
рази@@ 41638
6,@@ 41635
секре@@ 41634
прошёл 41632
Австралии 41624
низации 41624
гие 41623
зре@@ 41618
Армии 41583
теоре@@ 41581
собы@@ 41580
диссертацию 41572
держал 41568
сопротив@@ 41557
избе@@ 41555
широко 41536
Рос@@ 41529
Николая 41526
перегово@@ 41508
материа@@ 41503
повто@@ 41494
АССР 41486
ющийся 41483
жёл@@ 41442
1910 41434
От 41433
Али@@ 41429
ани 41396
протекает 41396
некоторое 41392
волю@@ 41390
президентом 41375
лист 41367
леген@@ 41363
Казах@@ 41360
Карл 41345
Пал@@ 41332
директора 41332
произведений 41323
низи@@ 41318
ступи@@ 41304
Ас@@ 41296
Средняя 41292
метра 41278
построен@@ 41274
эти@@ 41266
Бру@@ 41262
тую 41245
Кэ@@ 41237
Сибир@@ 41228
заслу@@ 41211
проблемы 41207
дано 41203
Ещё 41202
дипло@@ 41188
аппара@@ 41186
песню 41177
лизи@@ 41165
жесто@@ 41099
сер 41088
пределах 41084
заняла 41074
король 41065
новую 41060
правом 41048
втор@@ 41022
хам@@ 41005
институте 40999
зая@@ 40992
атмосфер@@ 40991
Ци@@ 40986
писатель 40985
нению 40976
емая 40975
Летом 40966
жители 40963
вина 40947
сных 40935
переехал 40915
расположено 40899
воспит@@ 40896
друга 40894
вшейся 40859
лиц 40857
взры@@ 40852
они@@ 40849
структура 40838
повре@@ 40827
Джор@@ 40814
мат 40810
Андже@@ 40806
советской 40803
Пари@@ 40800
режиссёра 40797
тт 40795
вез@@ 40791
история 40775
Брю@@ 40767
лега@@ 40764
фран@@ 40756
общ@@ 40717
минут 40707
южной 40705
жской 40696
хан 40688
вская 40592
занимает 40588
в. 40585
террито@@ 40585
ческими 40583
армию 40581
ссу 40575
вока@@ 40569
создание 40566
ляют 40563
представители 40563
функции 40554
гры@@ 40537
62 40527
кового 40526
сан 40520
Находится 40514
ряд@@ 40513
Робер@@ 40510
нования 40490
автобу@@ 40487
моти@@ 40477
Дмитри@@ 40475
альных 40465
ун 40450
ген 40448
помощ@@ 40428
генерала 40401
превы@@ 40398
Дю@@ 40397
пери@@ 40382
оказыва@@ 40381
Среднегодо@@ 40368
постоянно 40361
весь 40351
фра@@ 40348
силу 40336
оказался 40329
Индии 40327
сочета@@ 40327
ьев 40325
Й@@ 40323
тили 40316
мён 40312
университе@@ 40310
тече@@ 40303
набра@@ 40294
чемпион 40289
мероприя@@ 40259
Само@@ 40255
ственном 40255
советских 40253
остат@@ 40251
вдоль 40246
вопрос 40220
начальником 40216
тить 40215
Их 40214
здоров@@ 40214
зия 40201
53 40200
x 40188
епархии 40188
новое 40172
тип 40169
главной 40154
кер 40148
театре 40148
назад 40145
Уча@@ 40118
Герой 40113
ходы 40108
85 40085
моз@@ 40083
1916 40068
умеренно 40059
вероятно 40042
нова@@ 40035
появился 40029
ходить 40028
пото@@ 40021
топо@@ 40004
штат@@ 39990
изме@@ 39986
систему 39975
X@@ 39967
исклю@@ 39963
Генера@@ 39954
пришлось 39947
жного 39937
фил@@ 39921
кторов 39917
распростран@@ 39903
ровано 39903
АН 39892
Похоронен 39885
ево 39871
49 39868
пят@@ 39866
Тогда 39861
роз@@ 39858
выборов 39850
имеется 39845
зим@@ 39831
раун@@ 39812
дают 39810
группой 39802
запад 39791
насле@@ 39787
Особ@@ 39785
доли@@ 39784
играть 39784
ологии 39782
деле 39773
Является 39755
сопер@@ 39741
Бат@@ 39740
лаборато@@ 39713
обита@@ 39712
сде@@ 39701
заверши@@ 39681
ительных 39677
озеро 39677
ряде 39668
эпо@@ 39665
хло@@ 39657
енью 39646
дание 39644
природ@@ 39633
2,@@ 39631
Z@@ 39624
поверхности 39605
Интер@@ 39597
создании 39596
отделение 39594
ционные 39579
ственную 39575
бази@@ 39567
две@@ 39556
плен@@ 39548
магни@@ 39546
логия 39545
рек 39529
следования 39523
дили 39502
началом 39499
мало 39491
Пла@@ 39481
даны 39406
парк 39399
книга 39383
круг 39377
семья 39370
цер@@ 39366
ничего 39334
спектак@@ 39329
профессора 39326
появились 39320
ристи@@ 39297
строй 39294
бю@@ 39285
находились 39285
і@@ 39282
мной 39266
успешно 39259
Премь@@ 39257
лию 39252
зло@@ 39231
боя 39224
Поч@@ 39207
кно@@ 39168
Современ@@ 39166
брата 39166
Откры@@ 39139
гам 39139
форм 39131
окружа@@ 39126
ительность 39101
выступи@@ 39093
употреб@@ 39093
Впоследствии 39083
хор@@ 39076
соревнова@@ 39074
борь@@ 39072
ровского 39064
коно@@ 39062
польского 39050
Хай@@ 39041
леги@@ 39028
каче@@ 39027
$ 39007
появилась 38996
простран@@ 38993
основании 38979
леса 38962
жные 38961
трени@@ 38950
дека@@ 38945
стской 38944
гвардии 38940
французский 38932
лесо@@ 38925
Васи@@ 38918
художника 38907
событий 38890
картины 38864
стя@@ 38859
народа 38853
которыми 38846
социации 38843
Стра@@ 38840
o 38838
стран@@ 38838
очеред@@ 38833
биологи@@ 38825
Макси@@ 38809
пользовате@@ 38809
эр 38807
укреп@@ 38799
век 38798
новая 38787
уры 38775
тского 38773
Мед@@ 38768
льда 38767
Пя@@ 38764
ваний 38757
дя 38742
режиссёр 38728
Исто@@ 38723
нской 38715
дж 38703
Город 38687
фикация 38680
отря@@ 38670
функ@@ 38669
E 38665
бил 38660
Западной 38654
имела 38647
Восточной 38620
95 38618
стаби@@ 38615
фили@@ 38614
дания 38609
Министерства 38608
библиоте@@ 38604
труда 38598
северной 38591
догово@@ 38589
ремон@@ 38578
йный 38577
цы@@ 38574
НК 38568
союза 38568
кандидат@@ 38563
Чёр@@ 38555
АТ@@ 38544
блю@@ 38539
Дар@@ 38533
большим 38528
Льво@@ 38524
Шар@@ 38515
рат 38479
досту@@ 38471
нка 38467
комплекс 38464
иты 38459
63 38445
стые 38438
полковник 38415
пусти@@ 38415
максима@@ 38401
Университе@@ 38398
каждой 38398
новому 38395
гале@@ 38389
Офици@@ 38386
наступ@@ 38384
шин 38381
Марии 38363
экономики 38345
спу@@ 38341
конкур@@ 38334
приток 38314
языков 38314
виду 38313
называют 38307
клубе 38306
родо@@ 38304
реи 38294
главных 38287
КО@@ 38276
стоит 38270
эй 38234
полови@@ 38230
руд@@ 38227
народов 38222
Кубок 38181
сельский 38174
проходил 38171
Северо 38153
T 38151
дений 38147
ляются 38144
Поло@@ 38107
почёт@@ 38088
ковый 38078
местности 38063
мили@@ 38061
стрелковой 38056
ЭС 38053
секретарь 38053
памятник 38033
неактив@@ 38032
игру 38024
исполнитель@@ 38018
книгу 38006
доктор 37999
зала 37997
района@@ 37997
ведения 37987
зами 37986
образовате@@ 37976
пожа@@ 37976
предприятия 37963
политики 37950
ны@@ 37941
мбо@@ 37936
основа@@ 37925
хождение 37919
напа@@ 37916
Гали@@ 37913
Тол@@ 37908
турнир 37905
щён 37905
вшегося 37899
заводе 37898
современного 37881
механиз@@ 37880
um 37869
тоже 37865
ванных 37861
Многие 37856
необ@@ 37856
чаются 37827
сила 37825
76 37808
кса 37807
парт@@ 37800
большого 37799
бург 37796
подви@@ 37791
кад@@ 37788
Борис 37780
профессо@@ 37775
льному 37747
N 37726
чёт@@ 37714
исче@@ 37705
Кин@@ 37697
баро@@ 37695
Ван@@ 37692
создал 37691
концу 37685
обучения 37681
Американ@@ 37674
били@@ 37672
роман 37662
Азербайджа@@ 37658
факультета 37657
Уилья@@ 37649
моне@@ 37636
новил 37635
дворян@@ 37629
покинул 37627
ните@@ 37612
Основные 37590
двой@@ 37583
земле 37569
создана 37564
правил 37561
памяти 37542
данной 37540
Фри@@ 37529
посо@@ 37527
слава 37526
зимой 37525
Благодаря 37518
плав@@ 37505
ступила 37501
победы 37497
тво@@ 37474
крей@@ 37473
состоял 37473
Йорк 37466
том@@ 37449
Об 37448
пес@@ 37420
регули@@ 37415
фабри@@ 37415
джа 37414
войну 37412
Белоруссии 37389
актёр 37389
Фло@@ 37385
канала 37373
начинает 37367
нением 37364
немецкий 37350
церемо@@ 37349
выпуск@@ 37345
измен@@ 37328
56 37321
отправился 37310
Пуш@@ 37287
возглав@@ 37274
y@@ 37266
стых 37260
Спи@@ 37258
окрест@@ 37256
шер@@ 37246
бол@@ 37241
дета@@ 37227
испы@@ 37225
льская 37225
заместителем 37215
Динамо 37208
отряд 37202
построена 37183
Владимира 37159
члены 37158
длитель@@ 37150
гая 37134
рису@@ 37132
НК@@ 37128
гне@@ 37117
ровался 37115
чис@@ 37088
потом@@ 37076
третий 37076
вен 37069
внутри 37069
находилась 37066
открыт 37063
Ден@@ 37057
автором 37032
трас@@ 37031
Национальный 37027
ченных 37026
аналоги@@ 37007
тари@@ 36993
весьма 36990
Петербург 36988
зависи@@ 36988
уровень 36962
1900 36960
сеть 36941
ходом 36940
сосед@@ 36939
тренером 36939
мит@@ 36937
лай@@ 36935
момента 36932
стру@@ 36931
лейб@@ 36929
номина@@ 36924
пора@@ 36919
лично 36898
степен@@ 36886
ие@@ 36885
Виль@@ 36880
виды 36853
сейчас 36853
82 36847
сви@@ 36844
территория 36840
тской 36830
слом 36809
фика@@ 36806
жай@@ 36799
араб@@ 36797
разо@@ 36789
коп@@ 36773
тном 36771
упраздн@@ 36766
имуще@@ 36749
издания 36728
встречается 36725
отношений 36719
лом@@ 36717
гося 36710
основания 36697
шена 36694
вынужден 36693
Мекси@@ 36681
Мит@@ 36675
рем 36667
входил 36656
морского 36656
слова@@ 36651
носит 36649
разработан@@ 36636
каждого 36635
O 36625
изм 36625
цвет 36621
шеви@@ 36616
бою 36613
P 36601
эпи@@ 36588
8,@@ 36581
това@@ 36563
сова 36560
вме@@ 36547
меди@@ 36544
армей@@ 36542
Москву 36533
монастырь 36533
шены 36531
иностран@@ 36519
отвер@@ 36513
шос@@ 36510
охот@@ 36499
пытался 36496
щен 36490
художников 36487
использование 36474
распоря@@ 36472
тила 36472
времена 36446
Эсто@@ 36445
округу 36443
лежа@@ 36433
вошла 36424
Лондоне 36416
1911 36408
передачи 36393
сопровожда@@ 36389
66 36387
Государственной 36386
другом 36376
ограниче@@ 36372
поряд@@ 36371
территорию 36370
1000 36362
Кле@@ 36362
известна 36358
1907 36357
используются 36352
органи@@ 36352
Там 36348
югу 36341
потер@@ 36339
ровской 36335
агент@@ 36334
ступил 36325
особен@@ 36310
автомати@@ 36304
серд@@ 36304
премию 36297
устра@@ 36276
Леони@@ 36259
Вильгель@@ 36257
внутренних 36252
това 36236
1906 36235
замени@@ 36232
зки 36226
жество 36218
d 36215
зная 36215
рих 36211
ёнными 36206
ник@@ 36199
m 36194
Доб@@ 36190
начинается 36187
льском 36174
дель 36173
стане 36172
моги@@ 36164
присво@@ 36164
ау@@ 36161
млрд 36161
привело 36145
мам 36141
n 36133
Тан@@ 36113
ровский 36111
бах 36098
оружия 36078
кано@@ 36077
Сей@@ 36061
чит 36047
тности 36044
шил 36037
Кни@@ 36035
Героя 36017
e 36015
лье@@ 36015
ссы@@ 36008
провер@@ 36003
учения 35990
ссив@@ 35983
особо@@ 35975
арх@@ 35970
торы 35970
конструк@@ 35948
выя@@ 35927
неоднократно 35925
районов 35919
новского 35909
Британ@@ 35898
рам@@ 35886
переме@@ 35879
энергии 35863
мое 35860
женился 35848
рекомен@@ 35847
чив 35840
отда@@ 35837
относи@@ 35833
гель@@ 35825
МВ@@ 35814
сел 35806
сад 35795
мол@@ 35790
прав 35787
Польши 35782
епископ 35778
скон@@ 35755
избра@@ 35751
фов 35731
состоянии 35720
публике 35717
Евгений 35710
стрем@@ 35707
фамили@@ 35703
Ну@@ 35689
подвод@@ 35669
общины 35654
ального 35648
мович 35646
большей 35641
бата@@ 35639
Казахстана 35637
сон@@ 35633
слишком 35632
попал 35630
лага@@ 35627
предложил 35622
дского 35619
полно@@ 35616
брать@@ 35615
нос 35607
паралле@@ 35607
ёж@@ 35603
индивиду@@ 35593
1908 35590
найти 35575
Эль@@ 35571
туда 35571
Валь@@ 35558
российских 35556
обсу@@ 35553
допол@@ 35550
61 35543
ванной 35538
интервью 35536
спут@@ 35532
подготовки 35531
психи@@ 35531
экспер@@ 35528
Бол@@ 35520
лейтенан@@ 35519
Звез@@ 35512
фило@@ 35498
сх@@ 35488
кан 35481
72 35477
составил 35464
американской 35461
вонача@@ 35460
причём 35449
армян@@ 35447
67 35430
приме@@ 35430
сбо@@ 35430
альные 35421
парламен@@ 35401
присоеди@@ 35401
мисси@@ 35400
полё@@ 35395
облада@@ 35389
Новый 35385
лейтенант 35374
Комму@@ 35370
рэн@@ 35365
объектов 35362
прив@@ 35362
Начи@@ 35358
сар@@ 35354
обладате@@ 35344
лучшим 35330
гает 35329
опу@@ 35317
сингл 35302
горы 35299
ене 35298
Кири@@ 35294
Ад@@ 35286
русском 35284
хии 35284
Позднее 35282
оном 35281
нес 35274
устанавли@@ 35272
Майк@@ 35268
сий 35265
инженер@@ 35264
ени 35261
Музы@@ 35251
поверх@@ 35249
стить 35248
ох@@ 35242
a@@ 35239
объё@@ 35236
называется 35231
небольшой 35221
Тихо@@ 35216
оры 35205
Петрович 35200
74 35191
писала 35191
назвал 35187
Самар@@ 35179
меня 35173
чают 35162
наблюда@@ 35160
скончался 35153
табли@@ 35153
военные 35151
демонстри@@ 35125
Украине 35124
руются 35124
обуча@@ 35122
ВВС 35115
Поэтому 35112
знаком@@ 35110
кер@@ 35110
Расстояние 35108
Анна 35107
доброво@@ 35103
Ала@@ 35099
журнал 35099
тения 35093
домов 35076
относятся 35074
шению 35069
1,5 35063
воин@@ 35056
Дол@@ 35040
Экономика 35035
Петра 35029
нической 35024
специализи@@ 35015
няет 35001
рян@@ 35001
кии 34987
содержит 34976
означает 34974
государств 34973
семина@@ 34973
модер@@ 34972
грамо@@ 34953
пл@@ 34947
рос 34946
меньше 34928
Кен@@ 34920
Первоначально 34892
Эм@@ 34883
пах 34878
Ник@@ 34877
корпу@@ 34870
Побед@@ 34869
шаяся 34869
b@@ 34854
происхо@@ 34845
сест@@ 34842
Иванов@@ 34840
чению 34829
фактически 34826
Пау@@ 34825
цио@@ 34824
Данные 34806
издание 34806
трет@@ 34804
исполните@@ 34800
снаб@@ 34790
Иг@@ 34775
забо@@ 34758
Росто@@ 34745
писания 34734
масшта@@ 34726
свет 34726
соревнованиях 34722
бить 34718
Отец 34714
связь 34698
Кавказ@@ 34694
пунк@@ 34691
ночь 34683
философии 34682
мене@@ 34677
коричне@@ 34666
самый 34654
лиза@@ 34642
нических 34641
VI 34638
раство@@ 34627
мато@@ 34625
заниматься 34624
корреспон@@ 34620
ительности 34603
кораблей 34590
меру 34588
Румы@@ 34587
численность 34585
ковым 34584
ар 34582
кафедры 34582
гита@@ 34580
газо@@ 34578
древне@@ 34571
ровна 34571
организация 34568
голов 34562
археологи@@ 34560
ковод@@ 34551
уде@@ 34519
фронт 34518
граде 34513
остался 34505
характер 34498
Ла 34496
синте@@ 34480
Работал 34465
ано@@ 34465
ул@@ 34464
австри@@ 34457
лон 34454
ллы 34451
переимено@@ 34438
s@@ 34435
ковской 34433
Ц 34422
рекла@@ 34422
состояние 34421
зоны 34416
водство 34414
шь 34404
наме@@ 34389
объявил 34382
лик@@ 34362
удосто@@ 34357
гно@@ 34332
Шот@@ 34330
Старо@@ 34329
постепенно 34322
Роберт 34319
кило@@ 34317
дный 34309
товой 34294
видео 34293
президент@@ 34286
старше 34280
мимо 34269
вероя@@ 34268
час 34263
снима@@ 34256
провозгла@@ 34245
Фон@@ 34236
сове@@ 34232
Маль@@ 34227
рович 34212
командиром 34210
квали@@ 34207
мс 34205
архитектуры 34203
объедин@@ 34189
план 34189
российского 34182
второе 34176
Лос 34155
городах 34147
био@@ 34146
Джу@@ 34142
большие 34140
сцен@@ 34131
события 34124
Бро@@ 34109
йское 34109
порядка 34100
оны 34098
команди@@ 34097
исла@@ 34089
Фильм 34081
ауди@@ 34081
Олимпи@@ 34077
клубом 34045
материалов 34041
народного 34041
международного 34038
наро@@ 34035
иллю@@ 34031
военно@@ 34003
гря@@ 33993
вей 33991
очков 33985
ьё@@ 33980
топли@@ 33979
возвы@@ 33976
71 33972
9,@@ 33968
Института 33964
бка 33963
сей@@ 33962
лист@@ 33930
чики 33924
чность 33910
этапе 33910
стон 33906
81 33905
брат@@ 33897
спорт@@ 33880
1904 33875
началу 33869
отдельных 33855
Фла@@ 33852
Выступа@@ 33850
Ие@@ 33849
совой 33823
нический 33822
яко@@ 33822
свой@@ 33813
гун@@ 33812
метр 33791
берт 33786
современных 33780
принят 33772
20@@ 33771
политических 33771
отставку 33768
бук@@ 33756
рованного 33751
необходимо 33750
тонн 33735
криста@@ 33734
лье 33734
подъ@@ 33731
курс 33728
последо@@ 33724
вклад 33706
игры@@ 33691
индекс 33691
Вре@@ 33686
пер 33681
ально 33675
начиная 33667
73 33664
будучи 33643
получения 33643
агре@@ 33640
шении 33635
96 33632
Новой 33625
архитектур@@ 33624
пас@@ 33623
драмати@@ 33598
2022 33588
игроком 33582
сравнению 33570
нис 33568
организаций 33565
сформирова@@ 33559
абсолютный 33556
Чет@@ 33540
лине 33536
выска@@ 33529
отказа@@ 33520
телем 33517
перевод@@ 33506
Екатери@@ 33499
ква@@ 33496
ими 33495
ченные 33487
шить 33485
создать 33476
такого 33456
шина 33456
йдя 33449
земле@@ 33409
пры@@ 33407
колон@@ 33399
льских 33393
града 33392
чины 33391
нуж@@ 33390
компьютер@@ 33386
стики 33381
Кай@@ 33376
Кер@@ 33364
золотой 33361
бассейна 33360
результат 33351
претен@@ 33347
новка 33340
игроков 33333
Тран@@ 33310
предше@@ 33309
игрок 33298
поль 33295
вопросам 33292
частично 33276
ядер@@ 33269
Вене@@ 33262
актриса 33255
чрез@@ 33240
Географи@@ 33237
Герма@@ 33237
отряда 33228
группи@@ 33221
защитил 33221
миру 33221
Скон@@ 33217
устрой@@ 33207
68 33202
насе@@ 33197
ванный 33196
Кат@@ 33194
Трои@@ 33193
Новая 33188
ходили 33185
сведения 33177
каза 33175
результаты 33160
Зу@@ 33158
дить 33156
неу@@ 33152
напомина@@ 33149
слово 33135
контроль 33123
объекта 33119
канал 33109
баскет@@ 33105
нала 33097
59 33090
Граждан@@ 33088
государственном 33086
77 33077
соз@@ 33074
лез@@ 33069
горе@@ 33058
замуж 33057
вило 33048
семей 33048
завоевал 33042
линия 33039
дек@@ 33030
джи 33028
непосредственно 33024
император@@ 33016
высокой 33013
смешан@@ 33011
выпущен@@ 33009
обеспечения 32999
Жа@@ 32992
88 32983
мери@@ 32973
образ 32973
яд@@ 32972
пишет 32968
p 32965
располагается 32958
98 32950
щает 32950
началь@@ 32946
тивно 32946
рить 32940
Анти@@ 32933
уреат 32886
местах 32878
битве 32874
ющи@@ 32859
фанта@@ 32847
Европей@@ 32845
ент 32844
эффек@@ 32834
Гал@@ 32823
льское 32813
мигра@@ 32810
модель 32808
маги@@ 32806
ехал 32799
бок 32787
упа@@ 32784
ствовали 32778
гать 32777
Архан@@ 32776
асси@@ 32774
Викто@@ 32770
парка 32767
ьями 32765
ing 32764
препода@@ 32757
мский 32747
лоша@@ 32743
рика 32743
чаще 32735
недостато@@ 32730
Узбе@@ 32729
Участник 32729
лён 32721
решением 32705
1909 32697
Сен 32687
космо@@ 32683
99 32678
режиссё@@ 32670
веков 32664
стой@@ 32657
Семё@@ 32631
продолжил 32629
командой 32624
отказался 32623
Орга@@ 32610
Зо@@ 32593
Заслуженный 32591
дит 32566
пато@@ 32566
союз 32564
диалек@@ 32558
ори@@ 32553
Специ@@ 32552
минимум 32552
перееха@@ 32552
оце@@ 32544
86 32536
еще 32529
подпис@@ 32529
иметь 32528
корабля 32528
ывается 32524
исторических 32519
лить 32519
рь 32509
удостоен 32481
машины 32469
заказ@@ 32467
терро@@ 32442
фаль@@ 32427
нического 32419
удо@@ 32419
совершил 32411
Ат@@ 32401
Пара@@ 32401
Сам@@ 32395
контак@@ 32394
иту@@ 32391
министер@@ 32385
километрах 32365
капитан 32357
лур@@ 32357
женных 32315
Конститу@@ 32314
льд@@ 32312
стого 32295
родствен@@ 32291
Пат@@ 32289
каса@@ 32284
дово@@ 32282
Октябрь@@ 32280
проблем 32276
знания 32260
яй@@ 32258
назван 32253
попыт@@ 32246
поражение 32246
тную 32245
святой 32244
высшей 32236
термин 32215
k 32213
данного 32195
сою@@ 32192
станови@@ 32184
дети 32183
78 32180
Джона 32172
is 32168
деяте@@ 32165
случаях 32160
теат@@ 32154
Григорь@@ 32131
зарегистри@@ 32116
континентальный 32116
тропи@@ 32115
тата@@ 32107
реку 32094
Бразилии 32093
стоимо@@ 32089
оккупа@@ 32088
ждению 32084
Группа 32079
конститу@@ 32076
шести 32075
ока@@ 32074
островов 32073
выпуск 32064
шири@@ 32062
Стани@@ 32056
жом 32055
дни 32050
предста@@ 32042
напада@@ 32041
последнего 32024
84 32021
er 32020
нера 32020
руки 32016
возглавлял 32008
слы@@ 32004
энерге@@ 31994
Ари@@ 31993
штаб 31988
уголов@@ 31984
американского 31982
рю 31980
рёх@@ 31978
прошли 31965
евреев 31957
конференции 31957
северу 31944
приводит 31942
прось@@ 31941
проигра@@ 31940
обработ@@ 31925
польский 31916
едино@@ 31904
ребён@@ 31901
столько 31894
сул@@ 31893
канад@@ 31884
направлен 31867
положительно 31851
ступле@@ 31841
сыном 31839
эро@@ 31826
обучение 31824
рации 31824
солне@@ 31811
нила 31807
левом 31804
вторым 31788
боло@@ 31778
потенци@@ 31760
характеризуется 31750
дного 31743
длина 31741
дати@@ 31732
реак@@ 31729
лик 31727
корабль 31726
чили 31717
органов 31716
Дер@@ 31713
эфи@@ 31709
хирур@@ 31689
больших 31684
эваку@@ 31682
беспо@@ 31676
лял 31668
тео@@ 31658
Тат@@ 31655
манов 31655
митрополи@@ 31644
структуры 31640
установлены 31639
встречаются 31638
Константин 31635
дию 31634
процессе 31625
живу@@ 31621
следующим 31608
доктора 31592
левой 31590
положения 31589
орде@@ 31587
дон 31566
КП@@ 31554
батальона 31542
ченный 31538
Большая 31524
юни@@ 31518
сда@@ 31512
чо@@ 31510
посеща@@ 31495
кандид@@ 31494
бюро 31492
раско@@ 31483
полиции 31475
фикси@@ 31473
Михаила 31472
Белару@@ 31466
деньги 31460
царя 31459
пами 31458
руководство 31451
ровая 31440
эпохи 31439
фини@@ 31438
Дом 31435
оре 31434
усили@@ 31434
ничества 31433
мастер 31431
порта 31425
Пес@@ 31424
Проис@@ 31418
изнача@@ 31412
предостав@@ 31411
голосов 31402
уво@@ 31397
Карла 31392
ходу 31378
зона 31375
атой 31373
деятель@@ 31367
Следу@@ 31365
сериал 31361
принадлежит 31351
далее 31324
вшее 31311
единственный 31310
память 31308
Яков@@ 31301
93 31299
изобре@@ 31299
оче@@ 31294
бет 31287
Уже 31286
щать 31278
лять 31273
экспеди@@ 31253
экземпля@@ 31252
хле@@ 31246
сомо@@ 31235
аген@@ 31212
моди@@ 31212
политический 31211
отлич@@ 31207
кость 31201
94 31200
связано 31194
восстания 31188
вел 31185
вском 31179
грузо@@ 31158
опи@@ 31157
ВО 31154
тивный 31152
79 31150
91 31149
зана 31149
финанси@@ 31148
продолжал 31143
латин@@ 31131
шением 31123
расстре@@ 31121
тский 31114
цу@@ 31111
лое 31107
бир@@ 31102
Совет 31099
ближай@@ 31098
Перед 31085
Греции 31083
Мини@@ 31078
комплекса 31078
Болга@@ 31071
зон 31070
гор 31067
отправи@@ 31066
успех 31065
оцени@@ 31061
писате@@ 31060
майор 31051
Шо@@ 31043
госп@@ 31041
вся@@ 31040
Бого@@ 31034
имен@@ 31031
кс@@ 31024
Соедин@@ 31023
традиции 31019
крепости 31014
регион 31009
душ@@ 31005
научной 30998
цеп@@ 30993
основана 30992
Швеции 30989
ённом 30987
тически 30982
призё@@ 30979
Миха@@ 30975
Балти@@ 30971
дар 30966
сом@@ 30966
желе@@ 30959
Еги@@ 30954
Труда 30953
оформ@@ 30952
участи@@ 30948
като@@ 30940
1897 30925
государственных 30924
ьше 30918
двадц@@ 30914
срок 30914
Ур@@ 30909
Ивана 30904
тёп@@ 30902
Камен@@ 30898
болез@@ 30884
контроли@@ 30881
мун@@ 30847
ставляет 30846
исключением 30841
тит@@ 30824
вит@@ 30802
сные 30789
92 30780
мок 30776
составила 30776
основал 30768
произве@@ 30762
Сверд@@ 30754
статьи 30748
хоронен 30736
Олимпиа@@ 30735
K 30729
возника@@ 30726
o@@ 30718
Сын 30715
журнале 30704
ьер@@ 30704
средневе@@ 30698
мело@@ 30696
нный 30694
Тал@@ 30692
обре@@ 30690
бина 30687
сборная 30684
жат 30679
ждая 30677
представлены 30675
романа 30665
тренера 30656
технологии 30654
строения 30650
мет 30643
литературе 30640
говой 30626
жит 30621
f@@ 30613
известны 30613
республикан@@ 30605
кризи@@ 30593
аку@@ 30587
тери@@ 30580
погиб 30572
примечате@@ 30571
Степа@@ 30548
арестован 30540
природы 30536
лец 30535
спортсме@@ 30531
консервато@@ 30530
возраста 30527
t@@ 30522
вариант 30520
скорость 30520
крепо@@ 30514
Первым 30510
пр 30506
Ита@@ 30499
69 30498
принять 30494
съём@@ 30490
выступает 30489
чку 30474
Сент 30468
судов 30463
кона 30450
относ@@ 30450
Награды 30444
тана 30443
Украина 30440
именова@@ 30436
норма@@ 30427
шается 30424
лее 30418
рец 30413
поедин@@ 30412
p@@ 30401
Жан 30397
дной 30393
Уол@@ 30390
замок 30385
дора 30378
сена 30370
дорож@@ 30364
Хер@@ 30348
характе@@ 30348
рекор@@ 30345
описание 30342
поя@@ 30342
карьер@@ 30341
пользу 30335
лера 30331
резо@@ 30314
кампании 30310
чих 30309
пребы@@ 30301
Цер@@ 30294
Покров@@ 30293
пресси@@ 30284
тировал 30266
Елиза@@ 30265
ваго@@ 30255
паль@@ 30254
Лен@@ 30253
татар@@ 30248
восточ@@ 30246
философ@@ 30244
квадра@@ 30233
кот@@ 30230
раунде 30221
транспорта 30213
g@@ 30206
пулем@@ 30205
нави@@ 30204
чая 30200
известного 30198
сси 30193
бурга 30191
ничество 30188
600 30185
Кё@@ 30184
сериале 30183
ственности 30174
Всемир@@ 30170
перемен@@ 30168
кологи@@ 30153
Джеймс 30147
ловской 30144
йс 30135
офицеров 30135
Дмит@@ 30128
Хол@@ 30127
пев@@ 30125
элементов 30119
десан@@ 30114
Псков@@ 30113
нд 30100
Миро@@ 30089
бель 30087
одеж@@ 30080
изма 30071
Русской 30068
провед@@ 30067
гол@@ 30055
середины 30055
тр@@ 30046
английский 30042
десят@@ 30029
рит 30026
лём 30023
объединения 30017
стрелкового 30017
муниципальное 30013
Им@@ 30012
проду@@ 30009
щика 30000
уника@@ 29987
Ката@@ 29986
емым 29981
Национальной 29965
какой 29963
сосредо@@ 29963
династии 29962
юг 29956
120 29950
экспедиции 29950
одо@@ 29938
Шан@@ 29929
Нат@@ 29927
получает 29924
Большинство 29905
аресто@@ 29896
младший 29896
Распростра@@ 29894
силами 29890
тыми 29888
канале 29886
Ярослав@@ 29879
Петербур@@ 29866
Тео@@ 29860
кап@@ 29857
особенности 29857
рея 29857
компаний 29854
лато@@ 29854
рын@@ 29851
Более 29850
студентов 29844
прито@@ 29843
Прин@@ 29840
87 29833
обязанности 29833
предприятий 29830
ракет@@ 29826
увеличе@@ 29824
Китая 29822
Пале@@ 29822
цком 29818
болезни 29812
чело@@ 29812
ностями 29805
щаяся 29803
ъ 29801
крупнейших 29799
Известные 29797
сцене 29796
Куль@@ 29794
немецких 29789
b 29783
напис@@ 29779
Уильям 29775
администрации 29775
сно@@ 29770
гражданской 29766
авиации 29758
мися 29747
зывы 29743
бума@@ 29742
дила 29742
бизне@@ 29735
Церковь 29734
разные 29732
мяг@@ 29727
n@@ 29723
воспомина@@ 29719
дет 29709
говор@@ 29704
отече@@ 29704
бом@@ 29697
Татар@@ 29673
Вал@@ 29643
всему 29641
зывал 29641
радио 29620
зало@@ 29617
Ау@@ 29609
медици@@ 29608
предваритель@@ 29603
Венгрии 29598
ленд 29598
греб@@ 29596
собора 29596
Том@@ 29595
Лон@@ 29585
биографи@@ 29584
звезды 29581
ответ 29577
сих 29575
направления 29570
близ 29568
прие@@ 29567
Владимирович 29566
отношение 29555
сматри@@ 29555
бер 29550
Советской 29547
x@@ 29545
созыва 29543
свыше 29541
руководитель 29538
последних 29532
дных 29530
избиратель@@ 29530
пуль@@ 29522
трен@@ 29511
мед 29509
щими 29508
сный 29504
изде@@ 29503
лиш@@ 29497
ительное 29487
мульт@@ 29473
материал@@ 29469
хозяйственный 29468
стратеги@@ 29465
гимна@@ 29462
ловский 29452
es 29446
дево@@ 29444
Геор@@ 29439
довой 29439
89 29429
Америке 29422
Поскольку 29420
входили 29416
Абсолю@@ 29414
игрока 29413
Георги@@ 29410
каби@@ 29410
характери@@ 29402
Именно 29400
считает 29400
фронте 29390
завод@@ 29387
дипломати@@ 29385
православной 29371
публика 29369
князь 29365
жан 29363
Кубке 29360
участием 29360
магистра@@ 29359
Арген@@ 29355
1890 29345
наде@@ 29345
голу@@ 29328
Азербай@@ 29315
зой 29311
формирования 29303
произведён 29297
преподавал 29287
турой 29283
переименован 29281
Авст@@ 29280
талан@@ 29274
программе 29272
цин@@ 29271
никнове@@ 29267
птиц 29262
Сво@@ 29259
циям 29255
посёлке 29240
бурге 29233
наци@@ 29233
наряду 29231
стрель@@ 29226
щ 29223
появляется 29220
Ада@@ 29209
получив 29208
ию@@ 29207
ито 29202
шему 29198
основным 29193
серия 29192
01 29190
Систе@@ 29187
Социалистического 29186
ств@@ 29181
давно 29180
сорев@@ 29173
писали 29172
руководил 29172
тело 29172
специальности 29167
носи@@ 29166
достижения 29153
нынеш@@ 29145
элементы 29136
реа@@ 29134
масте@@ 29126
демон@@ 29109
ментом 29107
Дет@@ 29103
Доро@@ 29101
сухо@@ 29077
посла@@ 29068
премь@@ 29055
СМИ 29052
плен 29037
РАН 29035
музыку 29032
уров@@ 29025
Стре@@ 29022
× 29017
астроно@@ 29014
ентов 29013
мне 29013
фигур@@ 29008
месторо@@ 29004
полице@@ 28991
усадь@@ 28985
входи@@ 28984
надцать 28982
командовал 28977
вок@@ 28973
97 28972
пункта 28966
мост 28964
совхо@@ 28959
фаши@@ 28957
02 28952
инжене@@ 28952
следовате@@ 28950
здании 28949
главы 28947
произведе@@ 28945
Анатолий 28936
депутатом 28917
венгер@@ 28914
Константи@@ 28908
лето@@ 28907
Воору@@ 28899
чом 28899
фри@@ 28895
зато@@ 28894
льник 28876
юся 28875
Новосибир@@ 28868
дка 28862
писателей 28857
Ль@@ 28855
Игорь 28854
83 28853
ала 28849
жин@@ 28847
следование 28843
познакоми@@ 28821
сезо@@ 28818
интересо@@ 28817
Тра@@ 28808
установлен 28808
констру@@ 28800
Со 28794
роваться 28789
статей 28787
факульте@@ 28772
изуче@@ 28771
первоначально 28767
ступили 28763
известным 28761
Париж 28758
Исполь@@ 28756
взял 28752
вест@@ 28746
хозяйство 28737
Первое 28732
акаде@@ 28723
Арме@@ 28722
ительства 28721
самы@@ 28721
Records 28717
коллекти@@ 28698
трак@@ 28693
дове@@ 28691
этно@@ 28689
власт@@ 28685
зав@@ 28684
педаго@@ 28683
безу@@ 28677
композиции 28666
опа@@ 28665
вело@@ 28663
координа@@ 28655
переселе@@ 28655
et 28651
хана 28642
дие 28640
существования 28639
квар@@ 28637
тяну@@ 28635
ствовать 28634
опубликовал 28631
Верхов@@ 28620
ia 28617
ленно 28617
осна@@ 28614
Португа@@ 28592
чит@@ 28587
морских 28579
утра@@ 28576
Председате@@ 28568
мова 28564
принадле@@ 28563
гонь 28561
Сал@@ 28558
неза@@ 28557
Франция 28548
дзе 28541
городом 28538
бак@@ 28536
даёт 28519
Почтовый 28509
Право@@ 28509
вец 28488
Средне@@ 28487
конкре@@ 28484
ланд 28481
Атлан@@ 28471
1903 28457
Швейца@@ 28454
синг@@ 28452
ите 28436
Сталин@@ 28428
чиком 28422
училища 28415
XV 28401
дт 28400
юноше@@ 28395
дочер@@ 28393
должно 28371
телевизион@@ 28364
номер 28358
Бон@@ 28326
еве 28305
мини 28296
наступление 28296
тей@@ 28294
ВД 28283
ходится 28274
устройства 28269
гран@@ 28260
знак 28257
тате@@ 28250
страда@@ 28236
сформи@@ 28230
шно 28230
Союз 28223
1902 28216
СП@@ 28211
бн 28210
Юго 28180
прояв@@ 28178
има 28177
Кос@@ 28170
стоян@@ 28170
to 28163
гин 28163
хозя@@ 28162
освя@@ 28156
доктор@@ 28151
африкан@@ 28147
дири@@ 28145
статистиче@@ 28145
бек 28133
назначения 28133
Теат@@ 28132
дисципли@@ 28129
вес@@ 28126
пола 28124
зация 28115
считал 28114
писателя 28105
кав@@ 28100
2,5 28092
уру 28070
жная 28054
корпора@@ 28049
ографи@@ 28049
Тимо@@ 28013
лицен@@ 28007
техни@@ 27990
Пру@@ 27985
Гоме@@ 27976
зя 27970
Турции 27957
бели 27955
мемо@@ 27914
Иса@@ 27900
Инди@@ 27893
Y@@ 27889
Анато@@ 27886
Брай@@ 27877
евка 27865
ствии 27846
разгро@@ 27833
литов@@ 27831
уре@@ 27825
Вну@@ 27816
лько 27802
текст 27794
старто@@ 27792
дации 27774
дут 27768
нца 27761
убит@@ 27756
клон@@ 27755
победил 27751
характеристи@@ 27751
рестав@@ 27748
ас 27736
250 27729
отмен@@ 27722
Дра@@ 27707
монар@@ 27696
функциони@@ 27687
оли@@ 27649
Германия 27645
инженер 27644
паци@@ 27628
фраг@@ 27625
актри@@ 27624
Сам 27609
чинов@@ 27606
Литера@@ 27588
пада 27581
ООН 27574
U 27565
славян@@ 27549
замест@@ 27529
Ино@@ 27526
кров@@ 27521
шни 27516
идеи 27507
тс 27493
карти@@ 27491
мнение 27450
вей@@ 27421
продукции 27419
говор 27387
юн@@ 27378
XIV 27356
Ниже@@ 27356
Мир@@ 27347
бригада 27342
РККА 27322
дея@@ 27321
стояние 27303
брю@@ 27302
Абду@@ 27300
прибли@@ 27299
газ@@ 27294
Соло@@ 27277
лана 27258
ВКП 27247
сада 27247
стика 27239
компью@@ 27235
смот@@ 27222
успеха 27216
количества 27200
достав@@ 27199
катастро@@ 27197
обстоя@@ 27195
оператив@@ 27190
i@@ 27189
прово@@ 27185
обеща@@ 27184
автора 27176
пари@@ 27152
активи@@ 27150
казал 27147
жно 27129
публика@@ 27126
стая 27122
дова 27109
обще 27109
рена 27103
обу@@ 27089
впечат@@ 27082
сит 27074
диссерта@@ 27065
спец@@ 27063
Ер@@ 27055
нужно 27034
мышлен@@ 27028
08 27020
наказа@@ 27019
отлича@@ 27019
условия 27017
нег@@ 27007
устойчи@@ 26992
гон 26980
енко 26970
строен@@ 26968
Резу@@ 26958
удовлетво@@ 26952
сержан@@ 26946
бел@@ 26935
социалистиче@@ 26933
Марк 26904
сок 26901
кови@@ 26900
Произ@@ 26896
Пь@@ 26890
дю@@ 26887
вит 26884
Телефон@@ 26876
VII 26870
Уст@@ 26869
дент 26857
Коми@@ 26837
кович 26834
Администра@@ 26829
нят 26829
непре@@ 26811
ктор@@ 26810
Военно 26807
гда 26806
Клуб@@ 26797
an 26792
бюдже@@ 26773
Ана@@ 26772
ента@@ 26760
носите@@ 26756
степ@@ 26755
сборник 26743
Мур@@ 26739
1901 26738
установи@@ 26733
трам@@ 26732
Император@@ 26725
бота@@ 26719
рун@@ 26717
Михайлов@@ 26713
Благо@@ 26701
Приме@@ 26700
жени@@ 26689
край 26669
После@@ 26652
XIII 26651
джан@@ 26651
шал 26649
Дви@@ 26595
подроб@@ 26592
кнове@@ 26575
библиотека 26561
стя 26551
циони@@ 26548
иск@@ 26547
тта 26546
сереб@@ 26522
звезда 26521
Гам@@ 26520
методи@@ 26501
интерес 26491
новременно 26480
ци 26475
крае@@ 26469
институ@@ 26468
манд@@ 26462
Гол@@ 26459
Сай@@ 26445
Патри@@ 26442
тради@@ 26437
моду@@ 26432
цифро@@ 26429
Оста@@ 26421
закон 26419
зор@@ 26415
формат@@ 26411
избира@@ 26410
мигран@@ 26399
Сю@@ 26392
вес 26386
Григорий 26384
Томас 26384
перио@@ 26378
вследствие 26360
абсолю@@ 26341
скор@@ 26336
Архи@@ 26332
звуча@@ 26320
пале@@ 26313
Вале@@ 26303
Вой@@ 26301
Француз@@ 26294
форд 26292
могла 26291
убийства 26287
историк 26285
конкурен@@ 26284
Ву@@ 26266
щую 26265
тели 26264
Сити 26259
хотел 26257
чате@@ 26255
лечения 26252
испо@@ 26234
сет@@ 26225
лев 26212
Проек@@ 26210
але 26195
фер 26190
ансамб@@ 26184
вои@@ 26174
цели 26169
Департа@@ 26153
Доне@@ 26153
еже@@ 26150
тюр@@ 26149
схе@@ 26144
Обла@@ 26143
разработки 26141
XII 26133
декора@@ 26130
появи@@ 26128
Тех@@ 26124
ума 26111
кви 26107
гет@@ 26098
Георгий 26090
жар@@ 26071
800 26065
рее@@ 26056
Бю@@ 26039
сели@@ 26037
периоди@@ 26018
фун@@ 26004
света 26002
тение 25999
инвести@@ 25994
мю@@ 25992
зова 25987
азербайджан@@ 25979
льт@@ 25972
Хри@@ 25970
чеб@@ 25968
интен@@ 25934
дистанции 25933
Боб@@ 25926
ства@@ 25917
Англи@@ 25912
разно@@ 25908
аспиран@@ 25890
Аре@@ 25881
мпи@@ 25879
Спа@@ 25872
Древ@@ 25871
пропа@@ 25868
супер@@ 25868
рост 25865
дз@@ 25855
тел 25848
лови@@ 25840
Жан@@ 25813
Моги@@ 25811
Истори@@ 25793
мно 25793
никова 25792
стила 25784
дки 25779
видео@@ 25770
кинемато@@ 25753
Цар@@ 25752
щин@@ 25750
фу 25735
фрак@@ 25733
Краснояр@@ 25724
гей@@ 25718
Пит@@ 25709
скорости 25701
z@@ 25700
Игра@@ 25699
мар 25683
фан@@ 25682
поражения 25681
07 25675
тик 25675
изра@@ 25670
инфра@@ 25654
лага 25649
дина 25633
Бей@@ 25631
Меди@@ 25624
ьо@@ 25623
свето@@ 25608
корен@@ 25603
30@@ 25584
лил 25578
палат@@ 25569
бин 25563
05 25558
терна@@ 25531
прогре@@ 25530
кост@@ 25514
ведение 25505
k@@ 25499
размер 25480
уса 25475
удоб@@ 25460
кол 25456
Тома@@ 25445
чества 25445
03 25440
сама 25436
выбо@@ 25421
несколь@@ 25419
вета 25413
тира@@ 25412
зор 25404
рас 25403
рую 25391
лона 25384
бит 25374
нк@@ 25369
еле@@ 25367
Черни@@ 25362
ранен 25355
центри@@ 25350
мора@@ 25347
мур@@ 25344
Стат@@ 25329
владения 25326
Констан@@ 25300
Ради@@ 25290
построе@@ 25256
двора 25253
деление 25244
1896 25215
глава 25212
марки 25208
Гран@@ 25194
партизан@@ 25184
1880 25177
Али 25161
ежегод@@ 25145
урав@@ 25139
Норве@@ 25133
типи@@ 25133
лище 25129
ющем 25129
ери 25126
противоре@@ 25123
вень 25091
непосред@@ 25084
Гей@@ 25083
Сиби@@ 25071
комитет 25066
банка 25058
ВС 25049
анг@@ 25048
Иркут@@ 25011
водохрани@@ 24979
Зак@@ 24974
Оли@@ 24958
Спор@@ 24952
после@@ 24938
1899 24937
метод 24933
Стру@@ 24924
Бере@@ 24915
близо@@ 24912
1898 24887
бъ@@ 24882
озна@@ 24878
оте@@ 24869
архиеписко@@ 24861
пограни@@ 24858
ай@@ 24852
пии 24842
флот 24822
уточ@@ 24821
нг 24819
Оде@@ 24816
иници@@ 24805
твер@@ 24790
приказ@@ 24780
Между 24778
Мест@@ 24765
лед@@ 24762
ведом@@ 24749
обшир@@ 24740
ключе@@ 24737
многи@@ 24734
09 24713
фро@@ 24713
резиден@@ 24712
лото 24701
Сле@@ 24682
зь 24679
организато@@ 24673
лева 24658
губернатора 24650
СК@@ 24643
Соб@@ 24627
оставил 24627
Профе@@ 24621
зер 24610
ситуации 24609
сход@@ 24605
пки 24600
лища 24590
ежегодно 24587
компонен@@ 24580
конгре@@ 24580
водит 24563
стихотво@@ 24528
гастро@@ 24517
предприятие 24516
убит 24511
чеш@@ 24506
доказате@@ 24505
листа 24505
Супер@@ 24495
Представ@@ 24489
ОО@@ 24483
носители 24478
поля@@ 24472
свое@@ 24466
06 24459
ИК 24444
тат 24444
чемпи@@ 24444
Ян 24428
Пон@@ 24412
Доктор 24407
изображения 24407
лога 24407
опере@@ 24405
Гран 24393
реч@@ 24389
Компа@@ 24388
брон@@ 24385
циклопе@@ 24377
равни@@ 24374
Худо@@ 24346
запове@@ 24345
кажд@@ 24345
u 24340
ситуа@@ 24330
задачи 24328
1870 24324
Елена 24321
прак@@ 24319
стки 24311
лово 24301
лока@@ 24301
ске@@ 24297
1860 24290
способности 24285
ави@@ 24279
неш@@ 24277
КП 24268
низация 24264
доход 24248
йо@@ 24236
Сре@@ 24231
русали@@ 24226
препят@@ 24217
север 24212
предприя@@ 24199
октя@@ 24192
фунда@@ 24192
позна@@ 24178
Джордж 24144
Харак@@ 24114
Мона@@ 24105
Транспорт 24100
видно 24096
1.@@ 24095
атри@@ 24088
ито@@ 24085
временно 24079
Окон@@ 24073
аре 24066
W 24060
договор 24055
серий@@ 24051
устройство 24051
нарко@@ 24038
дала 24037
услу@@ 24036
духо@@ 24031
1895 24030
неме@@ 24027
ват 24025
л. 24024
покуп@@ 24024
португа@@ 24023
програ@@ 24014
хин@@ 24001
счё@@ 23994
схо@@ 23988
тни 23981
нации 23980
Константино@@ 23958
Сева@@ 23956
чемпио@@ 23948
фай@@ 23942
цилин@@ 23942
консер@@ 23941
Стан@@ 23928
вис 23885
зин 23876
Ази@@ 23866
страции 23862
целе@@ 23862
Бир@@ 23859
атор 23858
вынуж@@ 23855
on@@ 23848
преодо@@ 23845
лян 23823
Желез@@ 23817
отстав@@ 23816
баталь@@ 23798
кола 23794
en 23776
ДР 23765
Вит@@ 23740
австрали@@ 23736
Свет@@ 23735
Мей@@ 23734
щина 23733
восп@@ 23728
оба@@ 23728
принце@@ 23714
гар 23706
ужа@@ 23698
сценари@@ 23693
епископа 23669
жден 23646
ино@@ 23646
жертво@@ 23645
апосто@@ 23641
руб@@ 23636
черно@@ 23634
обратно 23632
разнообраз@@ 23632
Обо@@ 23617
множе@@ 23603
вед 23587
Институт 23572
рекорд 23567
мра@@ 23554
знание 23545
нит 23543
фект 23539
парламента 23526
Уил@@ 23525
плана 23525
ционно 23503
ic@@ 23483
Рожде@@ 23470
Киев 23465
качества 23437
дна 23431
Сою@@ 23423
лика 23412
Фар@@ 23406
Демо@@ 23400
акти@@ 23389
Луи 23388
Юр@@ 23374
IX 23366
пад@@ 23356
здраво@@ 23351
годо@@ 23346
итер 23346
кура@@ 23343
разве@@ 23343
сч@@ 23343
большо@@ 23338
равно@@ 23331
ина 23329
хими@@ 23323
каме@@ 23322
пом@@ 23321
лам@@ 23314
Жен@@ 23306
рецен@@ 23301
предложение 23296
Ван 23295
мона 23288
преимуще@@ 23287
бокс@@ 23286
заслуги 23276
Бос@@ 23272
нане@@ 23259
герба 23230
конкурса 23220
погре@@ 23207
Ска@@ 23206
надеж@@ 23202
византи@@ 23199
Управ@@ 23193
Вита@@ 23184
соби@@ 23173
постройки 23163
In@@ 23150
праз@@ 23142
ar 23140
шины 23130
стен 23113
Бит@@ 23105
al@@ 23100
героя 23090
Шах@@ 23087
очер@@ 23087
решено 23083
БА 23079
гал 23071
дире@@ 23064
экс@@ 23059
04 23044
петро@@ 23040
печ@@ 23036
СС 23034
укре@@ 23034
сестра 23033
гна@@ 23017
христи@@ 23016
Мака@@ 23013
учение 23013
офицер@@ 23002
картина 22986
1859 22965
еро@@ 22960
вертика@@ 22956
диапа@@ 22947
Сбор@@ 22944
слуш@@ 22929
слов@@ 22921
вард 22910
ология 22893
цент 22885
ента 22879
акт@@ 22848
вни@@ 22842
пони@@ 22838
Олег 22824
минера@@ 22816
противополож@@ 22813
протя@@ 22812
бух@@ 22808
рато@@ 22806
литера@@ 22805
батальон 22793
лит@@ 22787
печата@@ 22786
информация 22776
враже@@ 22772
Анд@@ 22771
# 22768
обли@@ 22768
NGC 22765
дик@@ 22764
ливо@@ 22763
рово 22763
Сту@@ 22756
сут@@ 22755
полез@@ 22743
рак 22741
единица 22722
красо@@ 22718
сфе@@ 22714
Без@@ 22706
VIII 22695
герой 22682
ресто@@ 22670
ила 22666
Калу@@ 22663
пля@@ 22663
краси@@ 22655
иденти@@ 22652
пси@@ 22639
доров@@ 22630
тена 22618
Музей 22610
Таш@@ 22608
откло@@ 22603
пуск@@ 22603
пой 22602
1892 22599
оценки 22594
Сем@@ 22585
редактор 22580
ост@@ 22571
Теле@@ 22561
Бала@@ 22557
гай@@ 22555
ок 22552
хин 22544
цир@@ 22532
поче@@ 22531
закона 22525
символ 22525
щате@@ 22520
национали@@ 22511
свойства 22510
хва@@ 22501
яния 22499
сче@@ 22487
факт 22479
секретар@@ 22477
деб@@ 22475
ФК 22473
Оле@@ 22467
Около 22463
стах 22453
Ш 22446
спас@@ 22440
рока 22429
психологи@@ 22420
див 22402
l 22398
дера 22398
гиган@@ 22389
Роман 22388
блоки@@ 22386
популя@@ 22378
етна@@ 22353
моста 22335
брак 22325
Колум@@ 22324
лис 22321
мата 22305
зали@@ 22303
24@@ 22298
брака 22298
кари@@ 22295
зад@@ 22292
подразделения 22289
шев 22289
коме@@ 22286
библиотеки 22267
достиг 22267
Образование 22263
хова 22256
сив@@ 22247
New 22231
дц@@ 22231
благотво@@ 22225
фт 22215
канди@@ 22209
ура 22199
опе@@ 22185
жив 22167
осве@@ 22161
тал 22159
низма 22150
Сви@@ 22148
флан@@ 22147
рит@@ 22145
лс 22129
парата 22122
внима@@ 22119
жки 22111
оти@@ 22110
гола 22109
адми@@ 22105
динами@@ 22101
el 22098
нета 22078
молеку@@ 22072
пел 22061
либера@@ 22044
били 22036
Югосла@@ 22022
ориенти@@ 22000
Казахстан 21997
1885 21992
жда 21992
лар@@ 21977
Кав@@ 21967
обязан@@ 21958
Категория 21956
рита 21951
спорт 21945
корре@@ 21935
чём 21929
композитор 21928
Вил@@ 21919
функциона@@ 21917
атаки 21898
пуска 21897
спон@@ 21884
пара 21874
Жо@@ 21859
Яку@@ 21856
рар@@ 21849
700 21825
соли@@ 21807
деви@@ 21802
кого@@ 21791
Свобо@@ 21790
император 21781
вита@@ 21776
ктура 21770
евро 21754
снаря@@ 21741
Китай 21738
максимум 21726
наличие 21724
h 21716
Награ@@ 21696
покров@@ 21696
профи@@ 21688
... 21678
дом@@ 21675
Бара@@ 21659
матри@@ 21658
уско@@ 21657
шотланд@@ 21652
Але@@ 21649
ситуация 21642
темати@@ 21621
H 21616
предотвра@@ 21615
Един@@ 21612
дес 21598
la 21595
вели 21594
Джер@@ 21593
Чехослова@@ 21581
нки 21579
Billboard 21567
домини@@ 21562
огра@@ 21562
Кло@@ 21560
Варшав@@ 21535
130 21524
костю@@ 21519
концентра@@ 21516
ари@@ 21511
Роб@@ 21509
шко 21509
1894 21505
рев 21504
Тем@@ 21502
Ави@@ 21497
Санта 21492
анализа 21487
установки 21484
гарни@@ 21479
4.@@ 21459
Так@@ 21459
* 21458
1889 21453
Глу@@ 21453
Кня@@ 21451
проф@@ 21445
радика@@ 21443
щины 21435
чан 21434
шев@@ 21432
диагно@@ 21416
симфо@@ 21416
империя 21411
спози@@ 21410
суль@@ 21399
вна 21390
орган 21385
опти@@ 21382
колони@@ 21377
гора 21372
импера@@ 21371
Re@@ 21367
машин@@ 21361
фли@@ 21361
1893 21357
минима@@ 21353
Сино@@ 21348
корей@@ 21346
3.@@ 21332
дат 21331
сток 21323
рат@@ 21313
Занима@@ 21306
дъ@@ 21304
стеро@@ 21291
йка 21287
спомина@@ 21286
Клу@@ 21284
Калифор@@ 21282
11@@ 21277
поря@@ 21270
изображение 21256
Институ@@ 21233
мал 21232
дух 21224
престол 21212
францу@@ 21204
реди@@ 21202
тно@@ 21200
отрас@@ 21193
Мюн@@ 21187
припис@@ 21174
Дебю@@ 21170
Св 21159
унд@@ 21156
уна 21154
al 21153
отрицате@@ 21150
idae 21141
галакти@@ 21133
поко@@ 21131
1878 21130
1891 21129
верто@@ 21127
социали@@ 21113
кой@@ 21110
Music 21105
преми@@ 21099
преда@@ 21087
яне 21087
отбо@@ 21086
перси@@ 21084
заря@@ 21082
l@@ 21080
квалифика@@ 21078
пур@@ 21077
Евге@@ 21075
вери@@ 21075
циан@@ 21073
направление 21049
Авгу@@ 21046
департамента 21038
интернет 21034
типо@@ 21015
коали@@ 21013
парат 21011
Ричар@@ 21009
лекар@@ 21003
ура@@ 20994
World 20993
ed 20972
живопис@@ 20957
сино@@ 20950
ирланд@@ 20939
разу 20937
статисти@@ 20934
Ё@@ 20930
ит 20929
алгори@@ 20928
вата 20928
прозви@@ 20922
безопас@@ 20913
ac@@ 20910
убийство 20905
публико@@ 20883
брази@@ 20870
изгна@@ 20864
доста@@ 20854
стоят 20849
часа 20837
лос 20836
тура@@ 20826
номинации 20825
проя@@ 20809
at 20804
ити 20797
Наи@@ 20790
пан 20790
точно 20775
деми@@ 20768
кардина@@ 20766
XI 20761
гим@@ 20761
мерно 20756
Извест@@ 20733
ак 20730
Испо@@ 20717
ори 20714
йл 20710
син 20703
чень 20699
режима 20697
v@@ 20688
Богороди@@ 20688
5.@@ 20685
Михай@@ 20683
построено 20678
грузин@@ 20666
ню@@ 20660
бла@@ 20656
яна 20653
Пле@@ 20638
кция 20627
ликвиди@@ 20617
звуко@@ 20611
Фин@@ 20607
пин@@ 20606
категори@@ 20602
бей@@ 20599
епархи@@ 20589
увели@@ 20586
2.@@ 20584
огне@@ 20583
припа@@ 20570
кварта@@ 20566
Любо@@ 20562
рист 20537
коли@@ 20511
Фридрих 20509
Сезон 20482
Кристи@@ 20475
23@@ 20471
азиат@@ 20470
вет 20469
Екате@@ 20458
Мил@@ 20457
поколения 20453
Два 20448
Нан@@ 20444
Ля@@ 20442
увелич@@ 20442
пост@@ 20439
ография 20436
намере@@ 20430
текста 20410
обя@@ 20409
арт 20391
1886 20378
Монго@@ 20374
иза 20347
проекти@@ 20344
1864 20342
1862 20310
рус 20297
110 20289
гат 20285
Ч 20276
губерния 20262
er@@ 20257
зеф 20249
Уи@@ 20247
труп@@ 20236
защитник 20231
чан@@ 20229
Сен@@ 20226
дана 20221
Хал@@ 20219
кос@@ 20218
Уни@@ 20211
ТВ 20208
щер@@ 20204
жка 20202
атак@@ 20197
Италия 20190
бора 20186
Валерий 20181
Юнайтед 20179
кафе@@ 20179
1887 20178
гера 20165
Оре@@ 20143
лата 20143
удар 20143
уд@@ 20141
машино@@ 20139
ува@@ 20128
дворец 20119
добро@@ 20116
сение 20113
ёз@@ 20111
Лондон 20106
or 20102
ята 20093
Ричард 20087
1877 20076
заим@@ 20076
редак@@ 20063
Ch@@ 20006
or@@ 19990
j@@ 19979
Кей@@ 19978
1812 19943
тата 19943
лак@@ 19939
Хен@@ 19934
1861 19932
секретаря 19926
еха@@ 19902
1500 19885
теку@@ 19883
Пис@@ 19877
читате@@ 19877
см@@ 19873
Конгре@@ 19867
спокой@@ 19859
Фридри@@ 19856
личности 19854
бои 19853
трибу@@ 19853
тра 19850
бун@@ 19848
топ@@ 19839
стин 19838
in@@ 19824
веро@@ 19824
вален@@ 19823
Ав@@ 19815
Числе@@ 19798
Отде@@ 19792
12,@@ 19786
княже@@ 19782
el@@ 19781
Дво@@ 19775
сна 19772
Физи@@ 19766
розо@@ 19742
рата 19737
комите@@ 19730
дого 19726
1884 19724
св 19719
Мартин 19690
законо@@ 19685
1863 19680
вку@@ 19669
фос@@ 19661
ванге@@ 19648
Уч@@ 19645
m@@ 19638
лекате@@ 19624
мбу@@ 19610
намест@@ 19609
освобод@@ 19606
Windows 19598
гено@@ 19594
инду@@ 19591
контин@@ 19590
разби@@ 19588
шено 19567
виз@@ 19565
r@@ 19549
Пин@@ 19545
Клю@@ 19543
лекции 19543
мигри@@ 19541
ос 19541
пати@@ 19539
Хосе 19533
Мета@@ 19530
ae 19524
ид 19522
поп 19516
океан@@ 19499
См@@ 19492
рецеп@@ 19491
Парти@@ 19485
Мно@@ 19459
питания 19455
You 19446
истин@@ 19431
деж@@ 19428
сервато@@ 19426
вир@@ 19416
en@@ 19415
боле@@ 19415
кала 19412
публикации 19411
меч@@ 19410
h@@ 19388
преоблада@@ 19376
зен 19371
почита@@ 19358
Турк@@ 19355
норве@@ 19351
лингви@@ 19343
зави@@ 19330
кул@@ 19324
сед@@ 19323
7.@@ 19312
боли@@ 19312
бизнес 19304
Нау@@ 19297
1888 19290
g 19283
позво@@ 19275
Андер@@ 19274
конфликта 19270
Демокра@@ 19265
приз@@ 19261
секун@@ 19252
депутат 19247
олог 19246
зани 19240
растения 19232
швейцар@@ 19231
Пот@@ 19226
Ната@@ 19225
тиви@@ 19220
пропове@@ 19219
зуется 19210
вете 19195
имена 19194
вена 19184
гана 19183
r 19172
циф@@ 19162
кат 19156
католи@@ 19152
заму@@ 19150
сопрово@@ 19150
тря@@ 19145
ману@@ 19140
договора 19139
сками 19127
Инте@@ 19126
кай@@ 19121
политика 19104
опро@@ 19100
двигателя 19094
Вай@@ 19072
доне@@ 19069
незакон@@ 19069
чо 19069
мах@@ 19061
Три 19046
чах 19043
Гай@@ 19040
Яро@@ 19025
лосо@@ 19019
кия 19018
оправ@@ 19016
Бек@@ 19000
6.@@ 18987
бав@@ 18958
жден@@ 18956
журналист 18954
Калифорния 18953
труд 18952
клет@@ 18942
Кот@@ 18931
КНР 18926
ад 18926
пет@@ 18922
Творчество 18919
Екатерина 18917
патриар@@ 18907
пространства 18895
Еди@@ 18894
инструмента@@ 18859
линг 18857
див@@ 18854
Рейн@@ 18848
рона 18848
17,@@ 18842
Комитета 18836
след 18823
Брон@@ 18820
уми@@ 18810
астро@@ 18803
гур@@ 18803
низа@@ 18793
гаран@@ 18780
кал 18772
двор 18771
мети@@ 18771
ара@@ 18769
Барсе@@ 18765
ционе@@ 18761
поста 18757
сент@@ 18746
Запа@@ 18741
Бран@@ 18737
материал 18736
часов@@ 18734
демо@@ 18727
1879 18719
зонта@@ 18716
рд 18698
бра 18696
специалист 18695
сл 18694
лати@@ 18686
ут 18685
сис 18682
1873 18655
южно@@ 18643
мони@@ 18640
лате@@ 18634
номини@@ 18633
финан@@ 18624
гал@@ 18620
Осман@@ 18618
произведение 18612
терми@@ 18608
Диа@@ 18598
дуар@@ 18598
правила 18584
Ама@@ 18581
Th@@ 18576
обстре@@ 18572
кате@@ 18567
атам 18564
1882 18562
Лар@@ 18550
z 18531
Уор@@ 18526
рация 18521
инспе@@ 18519
Яко@@ 18517
3,5 18514
сена@@ 18500
Тей@@ 18493
буква@@ 18489
Софи@@ 18484
помина@@ 18484
Лео@@ 18475
quot 18458
Каза@@ 18446
шпи@@ 18445
кален@@ 18433
Мате@@ 18428
бас 18421
годи@@ 18412
Лиг@@ 18404
10,@@ 18400
дир 18400
прило@@ 18394
гнез@@ 18389
200@@ 18387
Он@@ 18387
посё@@ 18385
Зим@@ 18381
Игна@@ 18378
яние 18375
нено 18361
изобраз@@ 18360
политик 18360
чник 18333
Антонио 18329
карто@@ 18312
него@@ 18305
бан 18304
Мари 18302
пова 18299
Афгани@@ 18279
специфи@@ 18272
префек@@ 18257
метра@@ 18256
Таджи@@ 18252
Де 18250
творчество 18238
Мя@@ 18237
шили 18232
андар@@ 18229
Дор@@ 18225
лер@@ 18204
Публи@@ 18194
драматур@@ 18180
залива 18180
Съ@@ 18177
ката 18172
обстанов@@ 18158
³ 18150
чук 18149
авторите@@ 18137
ar@@ 18135
Уай@@ 18134
1881 18131
зо 18124
анализ 18113
Al@@ 18110
тенден@@ 18110
режим 18106
лас 18088
персо@@ 18083
1871 18079
Мах@@ 18065
11,@@ 18063
организ@@ 18049
рала 18048
Вест@@ 18042
стро 18042
рите@@ 18038
достато@@ 18037
пин 18035
Осно@@ 18032
1876 18019
док@@ 18011
вс@@ 18007
8.@@ 18005
докла@@ 18002
Джо 17998
пропаган@@ 17994
молит@@ 17986
водил 17985
АР 17975
плодо@@ 17974
Йе@@ 17972
интерпре@@ 17971
ВМ@@ 17963
Лет@@ 17948
Tr@@ 17939
Джен@@ 17927
мара 17913
Тен@@ 17884
дс 17883
конструкция 17881
ch@@ 17878
Пол 17862
вар 17858
An@@ 17856
Среди@@ 17821
Фут@@ 17812
водоро@@ 17810
секу@@ 17804
комен@@ 17798
европе@@ 17797
ордина@@ 17786
филосо@@ 17777
номера 17769
нев@@ 17757
справед@@ 17757
Великобритания 17751
интегра@@ 17748
изло@@ 17736
Ол@@ 17712
защ@@ 17707
Архите@@ 17706
Министерство 17705
нужда@@ 17698
дете@@ 17690
импе@@ 17686
место@@ 17683
фонд 17680
ваш@@ 17678
бру@@ 17645
кут@@ 17645
Мла@@ 17640
1883 17631
Оскар 17629
антро@@ 17625
относя@@ 17612
псевдо@@ 17610
пуск 17609
Македо@@ 17605
поход 17597
Sh@@ 17582
разновид@@ 17579
интерес@@ 17577
певица 17577
равно 17567
посредством 17555
Ред@@ 17554
Вет@@ 17550
Сат@@ 17547
Слова@@ 17546
12.@@ 17541
мило@@ 17537
лектро@@ 17534
порта@@ 17511
an@@ 17507
идея 17502
ране 17500
Музе@@ 17478
Мет@@ 17472
160 17465
Чикаго 17463
Ори@@ 17458
провинция 17453
Кем@@ 17447
рым 17447
предпоч@@ 17445
Гур@@ 17443
писана 17430
1865 17425
визу@@ 17420
посред@@ 17413
Като@@ 17409
аз@@ 17401
ширина 17390
колонии 17384
Сак@@ 17380
кар 17366
пожар@@ 17361
зра@@ 17358
плати@@ 17358
am 17354
Cr@@ 17353
сег@@ 17345
нав@@ 17344
бек@@ 17342
пространство 17339
лун@@ 17327
наименование 17322
9.@@ 17321
Библи@@ 17320
Участ@@ 17312
зени@@ 17304
говорят 17303
Вир@@ 17299
Гви@@ 17289
лат 17287
пейза@@ 17282
1867 17279
обез@@ 17279
аро@@ 17277
манитар@@ 17276
Стю@@ 17273
вещества 17273
теория 17265
арте@@ 17262
Яв@@ 17257
реакции 17252
сак@@ 17249
мян 17247
торпе@@ 17243
Ar@@ 17241
кампа@@ 17234
писе@@ 17228
Соци@@ 17217
Рим 17211
ph@@ 17206
w@@ 17202
рано 17198
лого@@ 17192
конфликт 17186
позиция 17167
мб@@ 17166
служба 17149
10.@@ 17147
Хей@@ 17146
полузащитник 17144
историко 17137
Сиг@@ 17135
случай 17121
гни@@ 17108
прокуро@@ 17104
императри@@ 17087
Дал@@ 17085
чев 17081
13,@@ 17072
НР 17054
служе@@ 17053
мексикан@@ 17050
1868 17046
семейство 17044
телефон@@ 17034
1850 17026
благоприя@@ 17022
140 17017
распо@@ 17002
сериа@@ 17001
родители 16993
теро@@ 16992
носят 16988
менти@@ 16981
om@@ 16973
Ней@@ 16971
народ 16971
море@@ 16956
Рио 16951
180 16937
кред@@ 16937
крепост@@ 16936
р. 16935
дома@@ 16931
ол@@ 16924
локо@@ 16918
25@@ 16917
кори@@ 16899
ференци@@ 16894
1869 16886
инфек@@ 16886
профе@@ 16842
Токио 16836
лив 16836
площа@@ 16836
голе@@ 16833
признание 16832
мор 16827
религи@@ 16817
принадлеж@@ 16806
дизай@@ 16805
хия 16805
марк@@ 16802
египет@@ 16796
it@@ 16786
конфлик@@ 16781
Гло@@ 16779
Геро@@ 16760
Хам@@ 16746
1866 16741
1830 16739
вести@@ 16727
комеди@@ 16716
1848 16709
аристокра@@ 16704
точка 16700
озву@@ 16693
пен 16693
йско 16690
кана 16687
u@@ 16683
подзем@@ 16683
Уру@@ 16679
хен@@ 16678
вере@@ 16668
Смит 16643
волей@@ 16639
St@@ 16622
Иде@@ 16622
0,5 16601
окси@@ 16587
дона 16575
отне@@ 16572
сражения 16571
Group 16561
рио 16557
характеристики 16552
протестан@@ 16541
говора 16540
чайно 16525
Con@@ 16516
Фреде@@ 16516
Z 16504
имо@@ 16492
Велико@@ 16490
клави@@ 16472
ради 16472
УЕФА 16471
губернатор 16470
Фила@@ 16469
et@@ 16467
фю@@ 16466
коди@@ 16457
кандидат 16452
основано 16439
Сала@@ 16430
банд@@ 16421
сайта 16414
аван@@ 16406
морф@@ 16398
Отече@@ 16396
слабо@@ 16394
линг@@ 16392
пети@@ 16385
епархия 16379
СД@@ 16375
1856 16355
ранже@@ 16355
Лай@@ 16351
as@@ 16349
Кари@@ 16347
клетки 16347
хай@@ 16336
Парк 16325
1872 16300
учред@@ 16299
for 16297
княз@@ 16297
Университета 16296
Мю@@ 16292
свиде@@ 16266
анима@@ 16264
вара 16263
тация 16253
ot@@ 16250
универса@@ 16249
роб@@ 16232
товар@@ 16225
Хро@@ 16219
вато@@ 16205
Анаста@@ 16202
ica 16185
поляр@@ 16176
община 16148
f 16147
одоб@@ 16128
Q@@ 16127
Тек@@ 16125
1875 16124
Корне@@ 16119
балан@@ 16096
отри@@ 16091
архе@@ 16085
наре@@ 16073
Кристо@@ 16064
нист 16064
ьера 16054
бен 16053
ринг 16044
Академи@@ 16041
насти@@ 16040
свое 16033
тна 16031
Чили 16015
нон 15996
риту@@ 15996
возраст@@ 15989
стиму@@ 15987
прину@@ 15964
патри@@ 15962
ol@@ 15961
операция 15961
приклю@@ 15961
сани@@ 15959
курор@@ 15933
Буда@@ 15916
бакала@@ 15914
Кала@@ 15911
Най@@ 15911
бия 15901
мону@@ 15892
бог@@ 15883
лекту@@ 15868
кове 15865
господ@@ 15854
лея 15838
зеро 15823
гиз@@ 15821
28@@ 15820
написана 15803
le 15800
отдел 15774
администра@@ 15768
дуард 15763
разуме@@ 15762
блок 15755
повлия@@ 15746
нами@@ 15737
следствие 15732
1874 15731
der 15720
Наполе@@ 15720
Берлин@@ 15713
XXI 15711
нападения 15697
1840 15696
земно@@ 15696
Y 15694
Тере@@ 15685
AS@@ 15684
Мала@@ 15661
ряду 15661
парламент 15657
зина 15655
бара@@ 15652
лидер 15643
Австри@@ 15641
кал@@ 15640
владение 15633
танка 15629
зеле@@ 15620
Пана@@ 15615
лизма 15587
Режи@@ 15578
Бул@@ 15577
План@@ 15570
пиано 15568
Кова@@ 15561
циви@@ 15556
Манче@@ 15547
департамент 15540
International 15534
125 15530
могу@@ 15526
прести@@ 15518
Спе@@ 15482
лз 15481
май 15476
публици@@ 15472
жба 15471
Рели@@ 15465
дент@@ 15463
ers 15460
ниси@@ 15449
ир@@ 15441
Флорен@@ 15435
купа@@ 15434
ис 15425
as 15414
моря@@ 15408
юно@@ 15402
Каме@@ 15399
риан@@ 15391
санд@@ 15387
континента@@ 15384
стадион 15374
гови@@ 15372
як 15371
гимнази@@ 15366
Вашинг@@ 15353
Коб@@ 15349
бус 15328
осе@@ 15327
цера 15324
концерт 15318
сят 15312
хит 15302
пол 15300
хон@@ 15292
кет 15288
сма@@ 15286
начи@@ 15282
транспорт 15279
йска 15277
Опера@@ 15261
Давид 15260
Максим 15260
Гот@@ 15252
дис@@ 15250
иран@@ 15250
делега@@ 15245
Река 15238
Мел@@ 15232
фей 15230
сиф 15226
3000 15221
критик 15219
остана@@ 15213
лд 15210
ad@@ 15206
акции 15206
псевдони@@ 15205
Спо@@ 15200
писание 15190
изго@@ 15189
кван@@ 15180
Смо@@ 15173
просве@@ 15172
Сток@@ 15167
Известно 15166
ване 15164
СА@@ 15148
кау@@ 15139
is@@ 15130
внезап@@ 15129
Подоб@@ 15115
забе@@ 15106
Рафа@@ 15105
офицер 15093
тар 15080
Дон 15076
26@@ 15072
чество 15070
адап@@ 15066
сми@@ 15059
расстоя@@ 15055
дорф 15048
нари@@ 15041
Успе@@ 15038
27@@ 15017
― 14996
Фернан@@ 14992
дим 14991
гент@@ 14972
втори@@ 14963
Божи@@ 14952
коман@@ 14950
кистан 14944
референ@@ 14939
Цвет@@ 14935
ьо 14930
Иванов 14926
фур@@ 14918
предстоя@@ 14908
ine 14906
мле@@ 14902
конферен@@ 14901
раке@@ 14900
кани 14883
тока 14869
тел@@ 14839
емы@@ 14837
​ 14830
победа 14824
ида 14823
набор 14815
Антон 14809
включена 14805
разрешение 14800
сайт 14798
Дире@@ 14795
Франк@@ 14785
Све@@ 14766
рами@@ 14766
хран@@ 14750
ссиона@@ 14748
Awards 14736
Стати@@ 14729
Тони 14725
J 14724
хал@@ 14718
тино 14713
вене@@ 14712
случайно 14707
предпочита@@ 14706
льян@@ 14704
каде@@ 14703
at@@ 14700
спан@@ 14695
Марти@@ 14694
рови@@ 14682
пия 14667
Берлин 14664
жур@@ 14658
морфо@@ 14649
фен@@ 14641
туристи@@ 14639
Car@@ 14636
Нем@@ 14622
oc@@ 14620
чко 14618
Марга@@ 14613
TV 14609
фео@@ 14607
1858 14605
виру@@ 14581
орден 14579
Ирина 14572
кора@@ 14571
Co@@ 14554
вица 14554
означа@@ 14545
взаим@@ 14540
хард 14527
чков 14527
лано 14524
ета 14515
иконо@@ 14511
Христи@@ 14510
Министер@@ 14507
• 14506
носа 14500
DVD 14497
То 14494
Акаде@@ 14490
кас 14482
Сул@@ 14480
ориента@@ 14474
серти@@ 14473
ВИ@@ 14471
AR@@ 14464
Спар@@ 14450
зай@@ 14445
независимо 14438
помещения 14431
Никола 14424
кримина@@ 14419
Дона@@ 14416
Love 14408
база 14387
Юли@@ 14383
Док@@ 14370
хим 14361
архиепископ 14359
нидер@@ 14352
ФИ@@ 14346
14,@@ 14338
Пед@@ 14338
инжен@@ 14311
350 14307
неодно@@ 14301
услуги 14301
Хра@@ 14293
навод@@ 14289
поведение 14261
1800 14260
граница 14258
лке 14254
дис 14247
вян@@ 14242
лие 14232
ей@@ 14230
Вашингтон 14224
Византи@@ 14189
пещер@@ 14171
сдел@@ 14169
д. 14168
желание 14162
мба@@ 14157
es@@ 14154
хищ@@ 14152
лизация 14151
105 14137
Григо@@ 14137
INSEE 14136
палу@@ 14135
Груп@@ 14132
АС@@ 14110
конкурс 14109
водят 14108
вие 14105
избирате@@ 14104
мага@@ 14097
губ@@ 14095
задача 14085
Реги@@ 14082
приви@@ 14063
Каро@@ 14059
метео@@ 14043
Меж@@ 14039
зар 14035
тис 14035
бя@@ 14031
Мето@@ 14030
сценарий 14022
става 14014
сати@@ 14006
депутат@@ 14002
упразд@@ 13999
лига 13995
ВМС 13994
Вод@@ 13988
апре@@ 13988
сина 13984
1857 13974
лили 13971
хара 13964
ког@@ 13961
11.@@ 13960
дино@@ 13951
сцена@@ 13942
заре@@ 13931
подчер@@ 13922
Импера@@ 13921
термо@@ 13920
посет@@ 13917
совете 13915
ana 13913
сна@@ 13911
Парла@@ 13905
Рот@@ 13879
конструи@@ 13879
ландия 13869
пал 13861
техника 13861
подход 13846
сколь@@ 13845
Перу 13843
лар 13837
социация 13832
охла@@ 13824
ада@@ 13818
диск 13806
th@@ 13797
Sp@@ 13793
18,@@ 13785
Касти@@ 13764
хит@@ 13762
осман@@ 13748
папа 13726
двиг 13717
Комите@@ 13701
инци@@ 13697
помощник 13697
Ex@@ 13696
Фро@@ 13696
движ@@ 13696
Hot 13692
Да 13690
прием@@ 13689
клуб@@ 13688
офице@@ 13688
дец 13687
зали 13683
Герман@@ 13682
изве@@ 13674
4,5 13667
диску@@ 13664
стина 13651
цла@@ 13644
март 13632
Луис 13628
Дек@@ 13619
os@@ 13592
кух@@ 13590
стати@@ 13584
растение 13581
Иван@@ 13576
пка 13574
1855 13569
Христо@@ 13562
гроб@@ 13556
драв@@ 13548
успехи 13546
170 13535
Кю@@ 13523
фин 13510
второ@@ 13500
Com@@ 13495
теж@@ 13495
нера@@ 13492
лд@@ 13470
матика 13467
Стефа@@ 13466
пци@@ 13465
тара 13459
OS 13454
900 13451
Генерал 13447
17@@ 13434
теч@@ 13432
цена 13430
жанра 13424
нар 13402
индуст@@ 13386
Entertainment 13381
Канада 13373
вити@@ 13373
славя@@ 13369
1849 13360
Дис@@ 13358
Спартак 13358
1829 13356
Me 13347
лабо@@ 13343
традиционно 13333
CD 13326
бита 13325
гата 13324
КС 13317
митрополит 13315
бар 13308
отличия 13303
Тон@@ 13297
тема 13292
атели 13278
фера 13277
с. 13256
жер@@ 13254
функция 13254
Бла@@ 13241
ru 13235
ve 13195
фор 13171
Бой@@ 13170
80@@ 13168
Фели@@ 13157
сите@@ 13156
id@@ 13154
codice 13152
ter 13150
ЕС 13145
Бун@@ 13142
op@@ 13141
индустри@@ 13133
Хуан 13128
рене@@ 13115
ремонт 13113
De@@ 13107
лакти@@ 13092
гс 13085
Распо@@ 13084
режисс@@ 13074
правед@@ 13068
разнообрази@@ 13060
Уа@@ 13047
РС@@ 13040
Times 13027
департа@@ 13018
тинг 13011
La 13001
страна 12995
15,@@ 12994
усилия 12992
ch 12991
машина 12987
вечер@@ 12985
ренно 12985
Бела@@ 12983
Том 12978
нан 12973
40@@ 12960
стойчи@@ 12956
1854 12952
Ата@@ 12951
главно@@ 12951
чувств@@ 12950
пехо@@ 12936
ation 12932
изя@@ 12922
1853 12916
Поз@@ 12916
Вселе@@ 12897
.-@@ 12889
йд 12889
Сици@@ 12885
клад 12880
госпо@@ 12878
one 12876
ta 12866
ясно 12865
тира 12851
тим 12847
горе 12821
фия 12813
Qu@@ 12808
Ог@@ 12804
тивен 12776
НЕ@@ 12775
Le@@ 12765
стия 12760
северо@@ 12728
Жене@@ 12723
Англия 12722
доче@@ 12715
едва 12694
Мати@@ 12680
газ 12674
Испа@@ 12673
Шве@@ 12659
сие 12652
Форму@@ 12647
am@@ 12636
орбит@@ 12632
Виктория 12627
ител@@ 12621
лаго@@ 12620
16,@@ 12611
член@@ 12609
ur@@ 12599
Тради@@ 12595
50@@ 12594
сражение 12584
забра@@ 12583
казате@@ 12581
нати@@ 12577
летие 12570
принц 12545
Мех@@ 12543
разруш@@ 12541
Be@@ 12538
онлайн 12533
5000 12527
Q 12520
Япония 12515
просвет@@ 12505
Маро@@ 12496
горь@@ 12495
фоку@@ 12493
ad 12489
принцип 12485
it 12484
w 12483
da 12482
навли@@ 12480
хово 12467
общин@@ 12466
души 12463
ключ@@ 12449
1852 12447
Квин@@ 12443
Неа@@ 12438
мла@@ 12438
1820 12422
перь 12421
ap@@ 12417
1842 12400
Димит@@ 12400
ie 12397
ul@@ 12396
люс 12392
Пове@@ 12383
дев 12378
созы@@ 12363
качество 12342
страте@@ 12317
Австра@@ 12316
Край@@ 12316
оча@@ 12315
тях 12310
доба@@ 12301
маться 12297
os 12289
ti@@ 12286
Франциско 12285
1834 12264
v 12263
IS@@ 12262
Люксем@@ 12243
Саму@@ 12240
пример 12240
февра@@ 12232
одобре@@ 12222
наши 12217
слой 12212
лице 12205
граду@@ 12202
Microsoft 12196
расте@@ 12193
XX@@ 12185
нс 12185
бке 12183
Испания 12182
иска 12182
доров 12180
мили 12175
социа@@ 12161
Company 12154
возгла@@ 12147
водосбор@@ 12143
35@@ 12139
101 12138
1814 12130
Ж 12118
Алжи@@ 12114
хау@@ 12113
хре@@ 12108
мология 12102
Образо@@ 12099
1,2 12097
115@@ 12085
ina 12085
лост@@ 12082
вий 12075
ов@@ 12072
блу@@ 12069
One 12062
le@@ 12057
уд 12055
размно@@ 12033
гард 12032
Гю@@ 12021
1831 12019
наб@@ 12013
ec@@ 12012
мож@@ 12003
хла@@ 12003
Mar@@ 11988
председате@@ 11987
цин 11983
зови@@ 11977
inae 11976
ata 11963
певец 11943
кор 11942
Индоне@@ 11937
ni@@ 11934
ам 11915
Фили@@ 11903
Андро@@ 11900
марка 11897
импер@@ 11896
Апосто@@ 11895
1838 11893
Ун@@ 11886
Лондо@@ 11885
Вра@@ 11874
склю@@ 11872
отсе@@ 11870
венство 11858
Алба@@ 11836
студент@@ 11814
ent 11808
Швар@@ 11792
Моск@@ 11783
имену@@ 11777
НАТО 11761
Монте@@ 11760
1836 11759
благород@@ 11744
124@@ 11741
публику@@ 11741
повтор@@ 11740
My 11730
кен 11725
дже 11715
Леона@@ 11706
скус@@ 11701
льо 11691
шо 11690
вул@@ 11687
фабрика 11682
Am@@ 11676
En@@ 11651
ЦСКА 11642
des 11636
деле@@ 11629
1813 11623
ag@@ 11619
племен@@ 11608
преди@@ 11601
западно@@ 11600
1846 11595
AM@@ 11589
Берн@@ 11581
Вероятно 11580
албан@@ 11574
эксплу@@ 11571
Str@@ 11563
Япо@@ 11562
трудно 11556
ate 11551
Аг@@ 11550
Амери@@ 11550
декла@@ 11535
450 11533
age 11529
мити@@ 11519
половина 11516
дели 11505
мур 11501
ел 11494
архипе@@ 11481
ллю@@ 11480
He@@ 11472
прими@@ 11463
лита 11454
фган@@ 11450
била 11438
st@@ 11423
Браун 11423
чат 11422
ститу@@ 11418
Фре@@ 11391
1851 11388
чета 11375
em@@ 11368
Уин@@ 11366
ферен@@ 11361
хт 11350
38@@ 11348
Mon@@ 11347
1802 11346
лем@@ 11345
гр 11344
1839 11337
бей 11336
na 11328
пр@@ 11326
стот@@ 11319
пое@@ 11309
напра@@ 11303
сков@@ 11289
изви@@ 11268
135 11259
сар 11255
лечение 11254
1847 11253
хар 11253
Социалистиче@@ 11252
топ 11250
1837 11247
бани 11242
Шек@@ 11237
менно 11232
нев 11231
проник@@ 11229
т.@@ 11228
шков 11227
Произве@@ 11219
1828 11217
сценарист 11208
19,@@ 11204
август 11203
лищ@@ 11201
ази@@ 11200
дебют 11193
ред 11193
Преображен@@ 11192
бара 11190
СП 11178
дера@@ 11174
разу@@ 11174
.com 11172
поток 11160
бон 11156
ор 11152
Шарло@@ 11136
Водо@@ 11135
полиция 11133
гара 11130
102 11129
Епи@@ 11125
декс 11125
29@@ 11119
сибир@@ 11113
Br@@ 11100
залив 11096
Роман@@ 11094
man 11079
случаи 11058
1826 11049
Ново 11048
драма 11047
1845 11044
така 11043
Аф@@ 11034
бя 11028
Рек@@ 11026
критика 11020
сово 11017
плу@@ 11014
Франци@@ 11007
Адам 11002
ma 10999
подно@@ 10996
тет 10995
рания 10994
сара@@ 10990
зел 10988
ливо 10980
Un@@ 10979
уса@@ 10966
блиоте@@ 10955
дене 10955
кос 10932
само 10931
Di@@ 10926
подходя@@ 10918
гиня 10910
матери@@ 10907
Анри 10906
серь@@ 10903
академия 10900
ed@@ 10886
115 10875
зас 10875
партн@@ 10865
шав@@ 10843
най 10832
графство 10829
жина 10829
литература 10794
мпе@@ 10792
реду@@ 10792
вмест@@ 10784
il@@ 10774
сет 10763
Санд@@ 10760
пера@@ 10758
коре@@ 10755
lo@@ 10753
Col@@ 10748
7,5 10739
1844 10738
Air 10737
Синга@@ 10734
хер@@ 10726
Мило@@ 10724
турне 10718
городи@@ 10710
Австро 10687
гражданин 10685
se 10683
вино 10681
Известен 10677
километра 10677
престо@@ 10672
осад@@ 10671
публикан@@ 10651
лна 10647
тово 10628
регу@@ 10610
1835 10609
1796 10606
Ени@@ 10604
Мек@@ 10600
дизайн 10598
Cor@@ 10593
фред 10574
Адри@@ 10573
тя 10572
Родо@@ 10569
остан@@ 10561
GC 10558
Основан 10557
лум@@ 10544
ES@@ 10538
лит 10536
│ 10536
диза@@ 10526
тания 10524
адмирал 10516
футбол 10512
ква 10511
вулка@@ 10501
рие 10496
Боли@@ 10494
Pr@@ 10489
минист@@ 10489
надле@@ 10485
спира@@ 10485
RA@@ 10481
1806 10468
1832 10465
Австралия 10464
звук 10460
видеокли@@ 10453
марки@@ 10453
1200 10446
ro@@ 10441
1825 10436
20,@@ 10436
евро@@ 10431
li@@ 10425
дем 10422
архитек@@ 10411
отстра@@ 10411
Тя@@ 10406
Хил@@ 10399
тали@@ 10399
1815 10389
чна 10373
фол@@ 10365
ini 10361
пости@@ 10351
стие 10343
Две 10336
1817 10326
Мори@@ 10324
Ro@@ 10321
язви@@ 10312
un@@ 10310
Бог 10310
слабо 10310
Кристиан 10308
re@@ 10299
поколение 10299
осуще@@ 10296
пур 10285
104 10266
Август 10264
1841 10259
Египет 10256
зания 10255
въ@@ 10254
220 10253
ensis 10228
рид 10224
проби@@ 10207
tr@@ 10201
рота 10194
гот@@ 10189
атаку@@ 10188
прости@@ 10174
22@@ 10167
ели 10156
шан 10147
1810 10146
стани@@ 10146
керами@@ 10140
і 10125
In 10120
1843 10101
Mo@@ 10099
It 10093
Bo@@ 10087
Black 10079
мл@@ 10079
1833 10077
po@@ 10074
Цве@@ 10073
1821 10065
Пей@@ 10059
ремо@@ 10047
чувства 10044
1805 10041
Над 10040
od@@ 10032
вани 10026
льм 10016
трене@@ 10015
108 10000
бета 9998
деш 9996
109 9990
мунд 9988
Коста 9985
престола 9985
парта@@ 9978
толе@@ 9976
изоли@@ 9975
Георг 9965
АТО 9954
Си 9954
цикло@@ 9947
леп@@ 9917
нелега@@ 9915
яну@@ 9915
CA@@ 9914
конвен@@ 9911
свободно 9899
акт 9893
спря@@ 9893
климат 9892
Над@@ 9876
Чо@@ 9874
Дя@@ 9873
нодорож@@ 9872
Мора@@ 9869
Se@@ 9865
York 9858
Inter@@ 9841
гство 9837
оконча@@ 9827
Live 9823
Веро@@ 9823
Ne@@ 9822
103 9790
насо@@ 9781
стато@@ 9773
by 9772
мос 9766
обща@@ 9757
Венг@@ 9756
уе@@ 9750
ралле@@ 9734
Стефан 9732
носе@@ 9728
попу@@ 9727
входа 9721
1795 9717
мей 9717
34@@ 9713
упраж@@ 9712
1807 9708
лень@@ 9685
шест@@ 9683
1809 9677
ято 9674
гуа 9666
ic 9649
Par@@ 9647
122 9646
ат 9641
45@@ 9628
om 9624
Блан@@ 9624
All 9623
37@@ 9622
рено 9622
бол 9621
Or@@ 9612
Франц 9612
106 9611
ty 9598
ai 9595
герои 9584
рица 9581
Петер@@ 9565
мала 9565
шево 9558
112 9543
im@@ 9543
отка@@ 9534
има@@ 9517
Pro@@ 9515
Ан 9510
1811 9507
арда 9505
оценка 9500
югослав@@ 9497
автомобили 9496
120@@ 9479
PlayStation 9477
гина@@ 9476
ници@@ 9473
128 9462
швей@@ 9461
Life 9449
te 9446
onlyinclude 9440
популяри@@ 9439
Gr@@ 9438
36@@ 9432
American 9424
000@@ 9423
Сало@@ 9423
ab@@ 9422
сни 9402
Индия 9400
вло@@ 9389
1,3 9382
1827 9381
вай 9371
107 9364
вал@@ 9362
Lo@@ 9360
Архе@@ 9355
рополи@@ 9352
хер 9344
чева 9343
Великобрита@@ 9342
км2 9327
плато 9324
to@@ 9318
Живо@@ 9318
di@@ 9300
Обе@@ 9300
метрах 9297
Ge@@ 9280
Октя@@ 9263
145 9262
подобно 9260
Либе@@ 9257
джу@@ 9249
Маргаре@@ 9247
1816 9220
что@@ 9207
BBC 9206
употре@@ 9206
1808 9205
ляне 9204
ka 9200
дале@@ 9200
1793 9193
вале@@ 9190
Time 9187
Франческо 9184
кото@@ 9181
ir@@ 9177
ФА 9176
подготовка 9172
Вис@@ 9170
биз@@ 9167
цио 9161
33@@ 9156
Белору@@ 9147
und 9143
пови@@ 9140
ьор@@ 9129
Лау@@ 9127
ваку@@ 9123
защита 9123
ant 9120
360 9116
администрация 9107
1,6 9105
1824 9093
Австрия 9093
YouTube 9086
Мадри@@ 9083
зена 9083
защити@@ 9076
Сел@@ 9069
AC@@ 9053
Rock 9046
фек@@ 9040
→ 9033
Корея 9028
средство 9025
скоро 9014
us@@ 9010
ето 9008
рест@@ 9005
Ad@@ 9004
1792 8993
ity 8991
Marvel 8985
сфера 8977
хор 8973
гас 8972
119@@ 8971
Кост@@ 8971
111 8968
бана 8960
хтен@@ 8958
КА 8955
48@@ 8951
5,5 8948
ance 8939
нара@@ 8929
дисци@@ 8926
ale 8917
Te@@ 8914
est 8912
документ 8911
Ной@@ 8905
Ac@@ 8901
стота 8863
рите 8862
100@@ 8854
ea 8838
цер 8829
чисто 8827
60@@ 8821
Саксо@@ 8819
евреи 8819
Северо@@ 8815
Бог@@ 8812
имено@@ 8806
0.@@ 8801
жия 8798
преки 8792
1803 8785
240 8785
Карлос 8785
повторно 8784
24,@@ 8781
1823 8778
обособ@@ 8768
монт 8761
PC 8757
1790 8751
бат 8750
маг@@ 8745
поги@@ 8744
шир@@ 8734
Америка 8729
Еле@@ 8722
ял 8722
зидент@@ 8720
брь@@ 8718
разделена 8715
важно 8707
свети@@ 8690
152 8675
сбург 8668
едо@@ 8665
Малай@@ 8664
Марко 8663
Зиг@@ 8662
ell 8656
племена 8647
сус 8640
HD 8636
изби@@ 8631
25,@@ 8627
опера 8621
София 8620
1818 8616
1797 8611
Google 8610
1822 8609
царство 8606
Ся@@ 8603
останки 8600
1,8 8590
Или@@ 8587
революцио@@ 8584
Независи@@ 8583
1784 8582
дово 8578
og@@ 8567
ref 8563
1819 8559
нст 8551
кис 8546
менена 8537
1780 8536
ученик 8535
Ma@@ 8533
кара 8530
ri@@ 8527
пояс 8525
Попу@@ 8520
нау 8520
” 8518
127 8515
Колумбия 8515
публики 8511
114 8486
Пала@@ 8483
Ы@@ 8473
Нобе@@ 8464
1801 8461
рино 8461
Лом@@ 8454
ов 8453
750 8446
трети 8440
AT@@ 8435
Фердина@@ 8435
1,4 8427
пота@@ 8427
птица 8422
Брат 8418
депу@@ 8403
Петров 8392
Локомотив 8388
стор 8380
лм 8379
приш@@ 8363
чак 8361
1804 8353
Corporation 8350
хри@@ 8344
брони@@ 8341
align 8336
еро 8334
поли 8332
зани@@ 8329
COVID 8324
MTV 8318
Ели@@ 8318
Швеция 8309
револю@@ 8300
продукт 8296
ak@@ 8293
190 8292
Постро@@ 8280
философи@@ 8274
фирма 8271
кономиче@@ 8260
118@@ 8254
116 8250
id 8249
Турция 8238
124 8233
лива 8228
CO@@ 8226
дума 8223
Швейцария 8216
co@@ 8206
рка 8201
IN@@ 8196
em 8194
зате@@ 8193
комедия 8192
нападение 8170
пей@@ 8168
сберг 8168
Club 8162
di 8149
39@@ 8144
приложения 8138
Много 8137
оно@@ 8134
1799 8130
Гай 8119
гане 8117
son 8116
si@@ 8109
Уо@@ 8105
ER@@ 8104
ter@@ 8102
прияте@@ 8102
1782 8091
126 8088
á@@ 8088
двигатели 8083
Прод@@ 8078
наше@@ 8077
резуль@@ 8073
3D 8070
идентифици@@ 8067
сцена 8060
глас 8051
революция 8049
DC 8038
губерна@@ 8038
j 8034
мото 8029
Каролина 8028
произведен 8020
Apple 8017
лип@@ 8016
{ 8011
Флорида 8009
113 8006
Иран 8003
Конго 8000
Иск@@ 7990
qu@@ 7974
мито@@ 7971
мит 7956
1794 7954
Попов 7952
1798 7946
Studios 7938
117 7931
инструмент 7923
невро@@ 7914
vi@@ 7901
Airlines 7899
смя@@ 7893
ig@@ 7890
Зам@@ 7887
бул 7871
FI@@ 7867
Семей@@ 7862
день@@ 7861
Те 7859
практика 7853
проб@@ 7843
1.0@@ 7840
Red 7839
114@@ 7836
ite 7832
6,5 7829
yr@@ 7828
Do@@ 7822
155 7815
Man 7814
гвар@@ 7814
ard 7805
Nintendo 7786
случая 7783
Ph@@ 7781
рад 7776
ella 7769
Cre@@ 7768
RE@@ 7768
68@@ 7766
26,@@ 7764
реакция 7753
1783 7745
23,@@ 7742
ес 7740
22,@@ 7737
йно 7737
550 7734
27,@@ 7731
230 7729
55@@ 7721
Open 7720
Виз@@ 7718
1600 7716
ak 7713
освобожда@@ 7712
No 7689
сним@@ 7686
Хон@@ 7684
WWE 7683
65@@ 7682
хора 7676
For@@ 7673
Кате@@ 7659
Boeing 7658
Fe@@ 7658
Церков@@ 7654
210 7649
Sony 7649
пена 7646
гария 7641
мил 7639
ol 7638
Ver@@ 7610
пал@@ 7608
AC 7604
un 7602
Top 7587
70@@ 7578
лимпи@@ 7574
подар@@ 7574
Зав@@ 7573
Вел@@ 7571
ts 7570
вза@@ 7566
Европа 7561
4000 7557
Me@@ 7550
СС@@ 7549
мь@@ 7540
пилот 7537
Административно 7536
121 7535
123 7535
СМ@@ 7535
117@@ 7507
ver@@ 7506
era 7503
висо@@ 7502
столица 7496
· 7493
Games 7492
eb@@ 7491
Бразилия 7488
нация 7483
Per@@ 7476
poem 7466
Мада@@ 7463
Дит@@ 7455
Linux 7452
нея 7452
li 7448
46@@ 7446
македон@@ 7445
ler 7443
Award 7441
ci@@ 7438
Sol@@ 7437
Анге@@ 7437
mo@@ 7436
Tour 7434
ton 7433
конфли@@ 7430
кипа@@ 7426
28,@@ 7424
USD 7418
320 7414
47@@ 7400
IM@@ 7397
MA 7397
av@@ 7386
um@@ 7384
Й 7376
ight 7371
кампания 7370
Dis@@ 7368
лят 7367
Касте@@ 7365
Bank 7360
0,1 7359
скуль@@ 7339
подкреп@@ 7337
no 7324
варя 7324
держит 7323
ay 7319
El@@ 7311
ориен@@ 7304
гава 7303
HMS 7295
паша 7294
Украи@@ 7292
1770 7289
Media 7288
re 7277
Йозеф 7277
понен@@ 7277
1,7 7268
Рейн 7268
21,@@ 7266
116@@ 7265
ator 7250
SA@@ 7249
Star 7248
ce 7248
Уз@@ 7246
кратно 7241
Твор@@ 7229
no@@ 7222
физика 7222
рез 7218
are 7212
2,4 7208
Super 7199
Rolling 7195
1789 7194
Фил@@ 7193
ov@@ 7184
наследство 7178
Game 7169
Вирджи@@ 7167
нах@@ 7162
Radio 7155
Фол@@ 7147
ens 7142
Man@@ 7140
Cl@@ 7137
1791 7133
18@@ 7123
2,3 7121
154 7119
кава 7118
федерация 7108
фектив@@ 7100
конференция 7099
линко@@ 7097
ent@@ 7095
включен 7094
степенно 7084
хослова@@ 7084
ons 7081
чени 7079
поне@@ 7078
катего@@ 7077
1700 7076
Брази@@ 7075
йе@@ 7073
As@@ 7069
175 7061
113@@ 7049
Максимили@@ 7046
Близ@@ 7031
теми 7030
Лим@@ 7024
Hol@@ 7012
sh@@ 7012
118 6998
Дуна@@ 6995
конку@@ 6974
еги@@ 6972
134 6971
44@@ 6971
1,1 6970
131 6970
132 6968
Фердинанд 6967
IP 6963
Sch@@ 6963
ob@@ 6961
между@@ 6960
хайм 6957
De 6954
Балкан@@ 6951
зова@@ 6947
отбора 6946
награда 6943
Sim@@ 6940
1775 6932
Цари@@ 6927
Дре@@ 6923
исторически 6920
рани 6920
ut@@ 6916
Pol@@ 6912
дят 6911
Stone 6906
per@@ 6906
ot 6894
отраз@@ 6890
положен 6886
So@@ 6884
Трен@@ 6882
Мадрид 6880
традиция 6875
CD@@ 6866
ik@@ 6859
ous 6856
океан 6840
City 6837
650 6831
ans 6831
AD@@ 6828
зиди@@ 6821
фигура 6818
co 6815
чуж@@ 6812
ber@@ 6809
AN@@ 6798
тук 6796
News 6789
Le 6786
памя@@ 6786
165 6775
теше@@ 6774
ly 6771
129 6768
СКА 6768
наимено@@ 6765
SP@@ 6757
Бавария 6754
colspan 6753
Армения 6749
de@@ 6744
NE@@ 6741
pi@@ 6740
рум 6738
ел@@ 6733
Хот@@ 6721
1774 6720
деля 6719
риал@@ 6717
0,3 6706
зап@@ 6705
eg@@ 6703
IC@@ 6702
Li@@ 6700
Po@@ 6687
280 6678
ing@@ 6676
SA 6675
Браун@@ 6668
BA 6667
ne 6667
RI@@ 6666
Локо@@ 6658
1787 6643
29,@@ 6639
EP 6627
IB@@ 6619
регистри@@ 6618
сектор 6618
ема 6615
нта 6612
atus 6606
Освобо@@ 6605
ST@@ 6586
атака 6584
фал@@ 6582
диалект 6581
середи@@ 6580
0,2 6573
IT@@ 6573
духа 6563
безо@@ 6560
полуостров 6559
небе@@ 6558
MS 6556
Теодор 6551
стена 6548
Blue 6537
CG 6526
bi@@ 6517
pl@@ 6513
2,2 6511
Co 6503
Die 6503
SS 6499
отбор 6499
US@@ 6493
Радо@@ 6492
рожден@@ 6486
Bre@@ 6482
Бава@@ 6479
National 6475
Ste@@ 6474
59@@ 6473
Наполеон 6463
Луиза 6457
многократно 6457
Disney 6456
Mc@@ 6456
Vol@@ 6456
маршал 6455
ach@@ 6452
8,5 6449
http 6445
Sc@@ 6444
Mac@@ 6443
Лига 6432
огла@@ 6424
133 6423
43@@ 6420
Bl@@ 6417
хок@@ 6405
Mor@@ 6404
рида 6396
млн. 6393
вис@@ 6386
Team 6371
ra 6371
ings 6369
фюр@@ 6365
снение 6363
1788 6352
зв@@ 6352
Bar@@ 6351
Анг@@ 6347
136 6343
144 6339
9,5 6338
style 6337
Tri@@ 6329
260 6325
SE@@ 6318
НС 6310
Ел@@ 6305
карта 6301
шру@@ 6301
ML@@ 6298
фен 6282
3,6 6281
Min@@ 6277
137 6274
бре 6264
~ 6255
les 6254
1785 6252
141 6240
ics 6230
зале@@ 6223
Азия 6220
наука 6220
Оу@@ 6214
клон 6214
гел 6206
Mercedes 6194
UK 6184
лек 6183
2500 6181
Is 6175
1764 6172
270 6170
119 6159
ru@@ 6158
рел 6154
Сли@@ 6153
BC 6146
380 6145
AT 6144
land 6143
ранг 6142
Ford 6131
58@@ 6128
плавате@@ 6127
q 6119
90@@ 6117
ure 6117
Night 6116
MP@@ 6115
ks 6115
2,6 6102
Can@@ 6091
ki 6086
рали 6086
Xbox 6083
县 6079
0,6 6076
цате@@ 6066
1781 6058
th 6051
US 6049
проти@@ 6048
Свер@@ 6040
лиза 6040
слад@@ 6039
Hy@@ 6038
ore 6038
My@@ 6034
ok@@ 6032
Ню@@ 6020
Journal 6016
On 6016
201 6010
СР 6007
alis 6006
201@@ 6000
вят 5997
Заслу@@ 5994
110@@ 5992
Саксония 5991
ne@@ 5984
www.@@ 5980
1778 5979
Er@@ 5975
AP@@ 5969
взи@@ 5962
15.@@ 5958
Коле@@ 5955
Your 5954
барди@@ 5951
par@@ 5947
A.@@ 5924
ико@@ 5922
School 5921
гент 5913
автом@@ 5912
даго@@ 5910
ā@@ 5908
Pictures 5903
142 5897
Ag@@ 5893
Pi@@ 5888
ker 5888
Формула 5888
ca 5881
149 5880
Gu@@ 5880
мерикан@@ 5880
династи@@ 5878
Хел@@ 5876
br@@ 5875
Pro 5865
тени 5864
AG 5860
DE@@ 5857
SO@@ 5854
q@@ 5854
2,7 5852
330 5847
формата 5847
ys 5844
AB@@ 5843
56@@ 5842
Su@@ 5842
se@@ 5841
два@@ 5838
ti 5836
виг 5835
146 5831
49@@ 5826
приложение 5820
ati@@ 5815
Big 5814
Bi@@ 5813
do 5802
ley 5802
SS@@ 5798
53@@ 5793
Sonic 5788
Street 5783
вестник 5783
To@@ 5782
Адриа@@ 5780
лите 5769
tra 5764
ó@@ 5762
1300 5743
зидиума 5742
Inc 5741
Френ@@ 5741
ue 5737
Of 5734
Go@@ 5733
67@@ 5730
ence 5728
14.@@ 5724
UN@@ 5724
138 5718
du 5715
3,2 5711
als 5707
консул 5704
стове 5701
RO@@ 5694
AN 5689
эксп@@ 5678
Star@@ 5677
ото 5670
ise 5666
148 5665
AS 5661
визия 5659
Wor@@ 5658
2,8 5657
ino 5656
макси@@ 5652
0,8 5650
1776 5644
be 5640
шава 5635
139 5634
квартал 5628
1773 5622
151 5617
aceae 5601
лива@@ 5599
ә@@ 5599
госу@@ 5598
спери@@ 5595
фрид 5590
Fox 5589
so@@ 5584
ade 5580
ke 5579
НАС@@ 5576
ion 5567
Hal@@ 5563
даря 5561
ist 5560
20.@@ 5558
aw@@ 5555
РК@@ 5553
} 5550
Гене@@ 5547
‘ 5545
ps 5543
ick 5535
ters 5535
FM 5531
ah 5529
Швей@@ 5526
н.@@ 5523
гау 5519
UFC 5517
президен@@ 5513
den 5512
патриарх 5511
War@@ 5510
147 5509
Best 5505
варе 5498
среда 5494
com@@ 5490
区 5490
143 5488
ess 5485
лайн 5484
with 5483
pr@@ 5482
ge 5476
Норвегия 5476
1772 5469
IC 5469
карь@@ 5453
РО 5450
долина 5445
do@@ 5442
System 5441
,@@ 5439
6000 5439
AL@@ 5438
1786 5436
тре 5431
ja 5427
α 5424
Bur@@ 5422
Res@@ 5420
ack 5412
причина 5409
Up 5405
me 5404
203 5402
3,3 5399
me@@ 5399
ave 5398
1779 5396
Out 5395
185 5394
Grand 5394
2,1 5391
Tur@@ 5388
ick@@ 5387
нически 5386
156 5385
почи@@ 5385
name 5383
Fl@@ 5382
0,4 5377
13.@@ 5374
Op@@ 5374
1,9 5370
Африка 5369
щите 5362
VI@@ 5358
ия 5358
256 5355
Art 5351
воде@@ 5351
копия 5350
хаузен 5342
Хайн@@ 5338
Comics 5337
ical 5335
Pe@@ 5328
Super@@ 5328
CH@@ 5327
1768 5326
MI@@ 5315
ath@@ 5314
225 5309
1100 5307
im 5303
io 5303
DS 5302
sp@@ 5302
64@@ 5292
Хит@@ 5290
Video 5287
Her@@ 5285
st 5282
Mus@@ 5280
bl@@ 5280
спира 5276
сериал@@ 5274
нио 5268
ys@@ 5264
No@@ 5262
ology 5262
153 5261
te@@ 5260
é 5259
Конрад 5259
PS 5252
17.@@ 5248
Go 5242
отно@@ 5242
All@@ 5241
63@@ 5239
ist@@ 5239
Ханс 5236
oph@@ 5224
категория 5220
реж@@ 5218
1777 5217
\ 5211
писатели 5211
ya 5210
Дания 5208
ou@@ 5196
Ирландия 5196
Android 5194
лиан@@ 5192
end@@ 5189
специ@@ 5180
206 5176
Studio 5170
Dr@@ 5169
ə@@ 5168
бите 5168
30,@@ 5163
атова 5159
отво@@ 5157
Warner 5154
88@@ 5152
Sw@@ 5152
Поб@@ 5149
We 5146
IBM 5141
az@@ 5138
1400 5131
Баден 5131
Ab@@ 5120
22.@@ 5116
con@@ 5116
Христос 5114
Day 5107
1763 5105
205 5105
ell@@ 5099
лва 5089
ting 5082
za 5080
1762 5079
167 5077
Sun 5077
pe@@ 5077
3,4 5072
Im@@ 5072
Mer@@ 5069
ATP 5059
and@@ 5058
тев 5058
222 5057
ire 5055
ner 5048
University 5046
ones 5045
архитектура 5045
AA 5043
1760 5042
дове 5036
168 5034
Songs 5034
повя@@ 5029
162 5028
bo@@ 5028
ma@@ 5026
ABC 5021
RS 5018
кала@@ 5016
sa 5015
Don 5004
color 5003
hi@@ 5001
tic 4997
атмо@@ 4991
Rec@@ 4987
авгу@@ 4987
химия 4982
ч. 4981
Ltd 4980
Gen@@ 4973
ax 4969
Cy@@ 4965
зно 4954
19.@@ 4953
мотив 4948
Network 4947
Vi@@ 4946
UTC 4943
венту@@ 4940
S.@@ 4937
щица 4935
TE@@ 4934
стент 4933
ant@@ 4928
Mag@@ 4925
sch@@ 4925
гори 4919
Es@@ 4913
тове 4910
NO@@ 4909
ill@@ 4908
Ap@@ 4907
159 4904
33,@@ 4904
57@@ 4902
173 4897
результат@@ 4891
une 4890
бассе@@ 4889
Sho@@ 4885
цки 4877
é@@ 4875
здра@@ 4872
202 4865
ex@@ 4862
ѣ@@ 4862
вения 4858
Boy 4856
философия 4856
America 4854
сор 4854
gr@@ 4851
Benz 4843
King 4843
172 4840
75@@ 4834
Мюнхен 4832
хен 4830
yl@@ 4820
Open@@ 4815
To 4810
свобода 4810
We@@ 4808
произвед@@ 4808
300@@ 4806
Magazine 4804
Por@@ 4800
ken 4798
итуа@@ 4795
1740 4790
Beatles 4790
ep@@ 4790
per 4790
163 4788
ey 4784
Press 4778
ect 4773
su@@ 4769
Mel@@ 4766
https 4766
Chart 4762
династия 4761
β 4759
Space 4758
Pan@@ 4757
21.@@ 4755
und@@ 4753
Intel 4750
Ser@@ 4746
огро@@ 4746
tic@@ 4745
Луций 4741
Изда@@ 4739
18.@@ 4733
ary 4730
John 4727
WTA 4726
етнам 4725
чете 4722
74@@ 4721
Mot@@ 4721
166 4719
Des@@ 4719
чни 4709
il 4703
tu@@ 4701
Косово 4701
General 4697
Be 4696
ho@@ 4694
Гео@@ 4693
204 4690
1771 4689
340 4681
China 4680
for@@ 4679
16.@@ 4676
нове 4674
йни 4671
кит@@ 4663
161 4662
Trans@@ 4660
ab 4657
плоть 4655
вено 4654
1750 4647
Digital 4646
LC 4645
ake 4644
end 4643
158 4641
Sega 4633
tor 4631
157 4628
Cal@@ 4625
кула 4624
164 4620
ang@@ 4620
IP@@ 4618
IR@@ 4615
ora 4612
сажи@@ 4611
Хю@@ 4609
½ 4608
all 4604
гвай 4604
Metacritic 4594
Del@@ 4591
yp@@ 4588
ens@@ 4581
ura 4581
ur 4578
Har@@ 4577
SM 4573
Народно 4572
House 4571
ong 4565
ISBN 4564
Tel@@ 4559
CE@@ 4556
алистиче@@ 4548
ari@@ 4546
миш@@ 4546
Симе@@ 4545
Series 4544
ory 4535
Fr@@ 4521
Global 4520
буди@@ 4520
ok 4513
ano 4511
гимназия 4510
ела 4508
± 4506
Осве@@ 4501
36,@@ 4500
тези 4500
176 4499
211 4496
Прага 4496
Cas@@ 4480
Ho@@ 4478
ile 4478
Gam@@ 4475
Mat@@ 4475
PS@@ 4471
tion 4466
30.@@ 4465
Rem@@ 4463
Ros@@ 4463
AI@@ 4462
Ri@@ 4462
набро@@ 4460
Play@@ 4455
mi@@ 4455
š@@ 4455
ena 4452
Поп@@ 4446
25.@@ 4445
стихот@@ 4442
Show 4440
High 4437
Bal@@ 4435
шат 4435
RT@@ 4431
Почто@@ 4431
Daily 4429
die 4426
AM 4422
Pre@@ 4418
1730 4417
бище 4414
195 4413
AL 4412
del 4407
Universal 4406
ISO 4405
be@@ 4404
новь 4404
дация 4397
Post 4396
192 4395
48,@@ 4395
ow@@ 4395
ł@@ 4391
Facebook 4390
low 4390
23.@@ 4389
Sur@@ 4387
чево 4379
Av@@ 4377
1765 4374
af@@ 4374
178 4370
MC 4369
FC 4362
Чика@@ 4362
310 4357
трона 4357
Game@@ 4352
Венеция 4350
мирович 4350
Wrestling 4346
гласно 4346
загла@@ 4341
Сил@@ 4340
35,@@ 4339
This 4338
212 4335
850 4321
47,@@ 4318
средо@@ 4317
MS@@ 4315
беле@@ 4315
Power 4309
близки 4309
A. 4308
Ber@@ 4308
54@@ 4304
1769 4303
дол 4302
que 4300
174 4299
ev@@ 4298
la@@ 4298
гради@@ 4298
Bel@@ 4296
Ь@@ 4296
Park 4291
183 4289
专@@ 4288
Mas@@ 4285
Rotten 4284
GP@@ 4281
78@@ 4279
1648 4278
CA 4277
Film 4276
Country 4275
from 4275
Fo@@ 4274
бата 4266
182 4264
Чем@@ 4263
Хаб@@ 4260
tri@@ 4258
215 4256
бестсел@@ 4256
able 4255
ated 4253
001 4251
420 4241
определена 4240
TA 4237
dr@@ 4236
CI@@ 4230
305 4228
White 4227
Бя@@ 4225
171 4222
ex 4221
основа 4219
ї@@ 4219
El 4218
Укра@@ 4217
ватия 4215
169 4214
ni 4213
left 4212
1710 4210
Center 4204
Югославия 4203
66@@ 4196
32@@ 4195
text 4195
Португалия 4194
193 4193
Line 4193
няко@@ 4190
What 4188
background 4188
Pl@@ 4184
І@@ 4184
ette 4183
графиня 4177
ff@@ 4171
28.@@ 4169
AR 4169
ash 4168
ek@@ 4168
38,@@ 4164
mar@@ 4164
gi@@ 4161
Band 4160
oth@@ 4160
ib@@ 4157
der@@ 4147
янов 4146
Eur@@ 4145
if@@ 4145
Prot@@ 4142
235 4140
Dance 4140
osa 4138
27.@@ 4133
Tomatoes 4132
Val@@ 4127
Mir@@ 4126
оси@@ 4125
Ni@@ 4118
BS 4116
куро@@ 4115
CP 4114
United 4112
разрабо@@ 4110
lu@@ 4109
1767 4102
Свето@@ 4100
208 4096
dia 4096
Дел@@ 4096
маха@@ 4094
истре@@ 4092
Express 4090
Община 4089
dy 4085
col@@ 4078
DJ 4076
od 4074
26.@@ 4073
Championship 4072
ay@@ 4072
Ен@@ 4072
cor@@ 4071
бря 4070
king 4067
ir 4065
177 4062
Ul@@ 4058
фурт 4057
uc@@ 4056
49,@@ 4055
Eng@@ 4055
Science 4055
Reg@@ 4053
a.@@ 4050
Кул@@ 4048
69@@ 4043
нати 4041
пролет@@ 4040
стически 4040
ates 4035
ei 4026
Зал@@ 4020
лени 4019
orum 4017
статистика 4017
соф@@ 4014
ess@@ 4011
1660 4007
£ 4006
34,@@ 4004
24.@@ 4001
Final 3999
au 3999
Royal 3996
чини 3996
46,@@ 3993
yc@@ 3993
ko@@ 3989
CBS 3988
DA 3987
NBC 3987
Forbes 3984
Dead 3979
sk@@ 3978
1758 3974
str@@ 3973
ala 3969
ү@@ 3968
way 3966
1720 3963
188 3963
Si@@ 3963
жна 3962
ice 3958
ara 3956
tor@@ 3956
Fre@@ 3954
Само 3950
enti@@ 3948
ors 3944
€ 3944
1766 3943
ations 3943
iz@@ 3940
29.@@ 3939
au@@ 3935
Sal@@ 3933
1654 3931
370 3931
муску@@ 3930
CC 3929
Филип 3925
410 3924
бик 3923
лта 3922
cu@@ 3918
ere 3918
RT 3915
Racing 3915
Gi@@ 3914
290 3913
лектри@@ 3912
ленбург 3912
Kar@@ 3907
1727 3905
ola 3903
Aer@@ 3902
si 3901
ME 3900
illa 3893
ML 3892
1676 3891
Bad 3889
196 3884
1761 3879
186 3874
удов@@ 3874
наследник 3872
гато 3871
1756 3869
von 3869
CO 3866
Ferrari 3862
Hel@@ 3857
† 3854
Fantasy 3852
Software 3851
net 3851
CC@@ 3849
спеди@@ 3849
ac 3847
184 3843
скет@@ 3843
Tor@@ 3840
ain 3837
ain@@ 3836
пизо@@ 3831
Cup 3827
TV@@ 3826
ning 3826
ill 3825
─ 3823
MO@@ 3819
out 3819
181 3815
217 3813
ните 3813
eh@@ 3811
icus 3811
Sk@@ 3809
Ti@@ 3809
yn@@ 3809
187 3807
Festival 3806
ast 3804
1708 3803
брехт 3803
ge@@ 3800
вя 3799
214 3798
ace@@ 3793
ales 3789
ida 3789
AP 3785
врата 3782
Дина@@ 3780
купа 3778
Mi@@ 3776
TS 3776
дирек@@ 3776
Boys 3772
Les 3772
ike 3771
скар 3770
RC 3769
ta@@ 3769
TO@@ 3767
Home 3766
time 3765
32,@@ 3764
Albums 3762
Death 3762
ьор 3762
ten@@ 3756
480 3753
British 3753
ita 3753
приблиз@@ 3752
лича 3748
Can 3744
ds 3743
ra@@ 3739
ä@@ 3739
aj@@ 3737
BMW 3736
IS 3736
207 3734
France 3734
Македония 3734
Чехия 3730
189 3728
Ultimate 3726
Metal 3724
1722 3723
1650 3716
бив@@ 3716
Like 3714
row@@ 3714
our 3711
изли@@ 3708
Mac 3704
1755 3702
Meg@@ 3700
Vo@@ 3699
198 3698
232 3697
2.0 3693
Dark 3693
Ever@@ 3693
масо@@ 3693
1721 3692
псе@@ 3692
фут@@ 3692
191 3690
Nor@@ 3689
à 3689
Toyota 3688
фаза 3686
els 3682
Little 3681
center 3681
Heart 3678
PO@@ 3677
ang 3676
1719 3669
1620 3667
ets 3664
Cam@@ 3663
Gal@@ 3660
301 3657
ro 3655
ber 3653
рове 3653
Air@@ 3647
est@@ 3647
парла@@ 3647
1735 3646
Foundation 3646
немато@@ 3645
199 3644
PP@@ 3644
сове 3644
179 3639
GM 3637
Sil@@ 3636
забав@@ 3636
238 3635
Майка 3634
cr@@ 3630
ass@@ 3624
Pink 3623
ep 3619
Dream 3617
NCAA 3617
194 3613
man@@ 3611
45,@@ 3610
Java 3609
меро@@ 3609
254 3608
Белград 3608
1757 3607
che 3607
ha 3606
275 3605
варя@@ 3602
Girl 3601
440 3589
окли@@ 3589
стве@@ 3589
ada 3588
1741 3587
430 3583
мести 3581
1759 3578
min@@ 3577
150@@ 3572
sub@@ 3572
PA 3571
Sound 3571
Нова 3570
County 3566
1745 3561
War 3561
ME@@ 3557
tis 3554
Sun@@ 3547
зни 3547
216 3545
car@@ 3545
Ня@@ 3544
CR@@ 3542
Electric 3541
ba@@ 3538
Limited 3534
209 3533
ach 3531
1640 3526
Renault 3523
IGN 3521
ee 3520
ym@@ 3517
That 3515
ez@@ 3515
ah@@ 3514
1704 3513
255 3512
ser@@ 3511
Mark 3508
AV@@ 3507
ero 3501
проф 3501
1680 3500
8000 3498
West 3498
44,@@ 3497
375 3492
mon@@ 3490
е. 3490
Cer@@ 3489
213 3487
TP 3487
IT 3485
For 3484
рич 3484
що@@ 3482
245 3481
Два@@ 3477
шинство 3475
ars 3474
Guardian 3473
San 3470
op 3470
факта 3470
1743 3469
Kr@@ 3469
eo 3468
76@@ 3466
IA 3466
lin@@ 3466
197 3463
Lin@@ 3463
vo 3463
Em@@ 3459
Singles 3459
1723 3457
ani 3457
LE@@ 3455
маса 3453
ьон@@ 3452
Arts 3451
Light 3450
M. 3450
DE 3444
ko 3444
Do 3443
ө@@ 3443
SI@@ 3441
Japan 3439
Project 3439
ium 3439
ops 3434
go 3430
19@@ 3429
ari 3428
span 3428
ë@@ 3423
Dol@@ 3417
Research 3415
1747 3414
Hu@@ 3411
CS@@ 3410
SC 3408
iv@@ 3407
чели 3407
Queen 3404
шия 3400
Ул@@ 3396
460 3394
VA 3392
tica 3392
ა@@ 3392
Elec@@ 3391
LA 3391
Vir@@ 3388
Play 3382
ord@@ 3381
Fi@@ 3380
1748 3379
New@@ 3379
USS 3378
218 3377
ef@@ 3376
va 3376
pa 3375
tus 3374
mer@@ 3373
Way 3371
1744 3370
Mit@@ 3369
Dec@@ 3366
ek 3365
Sa@@ 3364
Индонезия 3364
1678 3363
ins 3360
ry 3359
aria 3358
сали@@ 3355
Mal@@ 3354
Net@@ 3354
Down 3351
1628 3349
242 3348
сил@@ 3348
ua 3347
нали 3345
пак 3342
1754 3333
Good 3333
Bor@@ 3331
Bros 3330
224 3329
ish 3328
London 3325
ID 3324
1742 3323
7000 3323
FO@@ 3322
Бранденбург 3322
ann@@ 3318
Cur@@ 3313
50,@@ 3309
77@@ 3309
gen@@ 3308
pel@@ 3308
tes 3305
Productions 3300
ich@@ 3299
самолета 3298
Leg@@ 3296
Airways 3295
Sub@@ 3295
Win@@ 3295
I.@@ 3292
ничи 3292
Char@@ 3290
Channel 3287
igh@@ 3286
AG@@ 3285
гория 3285
37,@@ 3282
ong@@ 3282
Road 3280
737 3278
GE 3276
Hor@@ 3276
стено@@ 3276
P. 3274
1630 3272
221 3272
Young 3272
ble 3272
1711 3268
AB 3267
At@@ 3266
Met@@ 3264
Дерев@@ 3261
ai@@ 3258
йнт 3258
Гвинея 3257
RA 3255
ran@@ 3255
iTunes 3254
ung@@ 3254
Lar@@ 3246
uk@@ 3245
Wh@@ 3243
Fil@@ 3241
Green 3240
252 3239
1701 3238
ели@@ 3237
Association 3236
милия 3235
своя 3232
3500 3230
Ban@@ 3230
ment 3222
Ы 3222
1670 3219
Back 3216
1667 3214
Bas@@ 3214
po 3212
подкре@@ 3210
PG 3209
365 3204
Rev@@ 3204
978 3193
Who 3191
ona 3191
застра@@ 3188
Last 3186
234 3181
ines 3180
du@@ 3178
Pri@@ 3177
ae@@ 3174
PE@@ 3171
енен 3171
Samsung 3170
1753 3169
1724 3168
Sports 3165
жете 3164
ителен 3164
1736 3163
Girls 3160
row 3160
DO@@ 3159
eli@@ 3159
field 3157
ish@@ 3157
қ@@ 3157
39,@@ 3156
Мексико 3156
Na@@ 3154
юго@@ 3154
HS 3153
Ke@@ 3152
1550 3151
Weekly 3148
219 3147
ი@@ 3147
1715 3146
241 3146
ap 3143
ash@@ 3137
Bu@@ 3136
1739 3134
Brothers 3133
ius 3133
265 3132
325 3132
Преобра@@ 3132
GT 3131
oh@@ 3130
LP 3129
223 3128
1703 3127
Russia 3127
ця@@ 3127
Cat@@ 3125
mat@@ 3125
ut 3125
he@@ 3124
Вюртем@@ 3124
1618 3123
Edition 3122
CS 3120
Du@@ 3117
Nov@@ 3115
ock 3115
99@@ 3112
Systems 3112
pp@@ 3112
тег@@ 3111
либе@@ 3110
227 3109
č@@ 3108
anus 3107
tro 3107
1627 3104
1737 3104
PC@@ 3104
Sky 3097
anti@@ 3097
ula 3096
Cos@@ 3095
влади@@ 3094
228 3093
Mad@@ 3089
play 3087
Нос@@ 3087
League 3086
eus 3086
API 3085
Classic 3084
зви@@ 3084
GT@@ 3082
ama 3081
верса@@ 3081
elle 3080
air 3079
226 3078
251 3077
Ju@@ 3076
NA 3076
Raw 3075
ou 3071
1702 3070
DOS 3070
депут@@ 3070
нама@@ 3070
aur@@ 3068
Tw@@ 3067
тика@@ 3067
1746 3066
Let 3064
1734 3062
ili@@ 3061
ast@@ 3060
Force 3059
M.@@ 3058
фести@@ 3058
ляз@@ 3053
all@@ 3052
1725 3048
can@@ 3046
Loc@@ 3043
Society 3043
политически 3043
osaurus 3042
каф@@ 3041
cus 3039
Song 3038
хове 3037
ler@@ 3035
ug@@ 3035
Baby 3034
Sy@@ 3034
eng@@ 3033
как@@ 3030
ace 3026
Ali@@ 3025
II@@ 3024
day 3024
pe 3024
yg@@ 3024
98@@ 3023
AE@@ 3020
1709 3019
Columbia 3017
Deep 3012
85@@ 3010
AF 3010
das 3008
tro@@ 3008
Преми@@ 3008
1717 3004
Cap@@ 3004
1690 3003
470 3003
Dre@@ 3003
236 3000
303 3000
Fire 3000
239 2999
Micro@@ 2998
AD 2996
South 2995
ome 2993
LO@@ 2990
т.е. 2989
Sky@@ 2988
роля 2988
иму@@ 2984
bar@@ 2983
0,0@@ 2982
1649 2982
екс@@ 2981
E.@@ 2979
oni 2976
ains 2973
itch 2972
ye 2970
ts@@ 2968
DF 2967
Machine 2967
HT@@ 2965
Red@@ 2963
og 2962
учи 2962
самолет 2961
1610 2960
Shi@@ 2960
рёх 2960
Netflix 2959
HP 2957
ness 2955
1705 2953
1707 2952
Fi 2952
USA 2952
243 2951
229 2950
Los 2950
su 2950
железо@@ 2947
ver 2945
10000 2941
Gl@@ 2941
86@@ 2936
Europe 2936
цбург 2935
чета@@ 2935
Figh@@ 2934
Book 2931
ents 2928
84@@ 2926
1570 2925
D.@@ 2925
Roc@@ 2925
so 2925
1751 2924
ski 2924
231 2923
263 2922
Paul 2922
Вюртемберг 2920
500@@ 2918
BM@@ 2918
Aut@@ 2916
D. 2914
St 2914
EN@@ 2911
sa@@ 2911
ki@@ 2910
Plat@@ 2908
tur@@ 2908
244 2907
седа@@ 2906
1672 2903
264 2902
Оби@@ 2900
con 2899
‑ 2898
237 2897
ie@@ 2897
мна 2897
Black@@ 2896
First 2895
its 2893
1718 2891
Арх@@ 2890
Sab@@ 2888
Tal@@ 2887
1689 2886
MP 2885
ten 2885
1699 2880
1752 2878
over 2875
ali@@ 2874
Pal@@ 2873
Mid@@ 2872
Bir@@ 2867
La@@ 2867
Ty@@ 2866
eta 2865
Drive 2864
Get 2863
1520 2862
ON@@ 2860
oo 2860
tom@@ 2859
iOS 2857
tal 2857
Mobile 2856
Tro@@ 2855
Wal@@ 2855
kin 2851
zi@@ 2850
TC 2848
гне 2848
285 2847
Da@@ 2846
ba 2846
Direc@@ 2844
eri 2844
ori@@ 2844
262 2842
Tre@@ 2842
sc@@ 2842
1655 2840
1712 2840
Airbus 2840
oma 2839
ger 2838
540 2836
Bul@@ 2835
tu 2835
amb@@ 2833
253 2828
Fin@@ 2827
233 2826
520 2824
Bro@@ 2824
ii 2824
рибо@@ 2824
ny@@ 2823
lan@@ 2821
Ir@@ 2820
390 2819
Tom@@ 2819
chi@@ 2818
PR 2817
скохозяй@@ 2816
1733 2815
ловина 2815
пред 2814
затвора 2811
1714 2810
284 2807
1738 2806
eme 2801
ene 2801
fo@@ 2801
революционер 2800
mor@@ 2798
затво@@ 2796
Land 2795
400@@ 2793
á 2792
ense 2789
Ca@@ 2786
1732 2785
1728 2783
79@@ 2782
sol@@ 2782
ено@@ 2782
ass 2781
cer@@ 2781
Pap@@ 2780
iss@@ 2780
ези@@ 2780
246 2779
Great 2774
302 2773
ven@@ 2773
Server 2770
C.@@ 2769
266 2768
List 2768
R.@@ 2767
лове 2767
Nokia 2766
UCI 2766
lar@@ 2766
1688 2765
Hall 2765
Sum@@ 2765
North 2762
286 2761
esis 2761
ung 2759
пата 2759
ft 2758
inus 2757
Ran@@ 2756
ern@@ 2755
Eth@@ 2752
ety 2752
1658 2750
ima 2746
Катарина 2746
530 2745
Ru@@ 2744
ard@@ 2744
стате@@ 2744
257 2743
312 2742
Golden 2742
ky 2742
306 2738
зана@@ 2738
копа@@ 2737
Cu@@ 2736
мни 2736
Lu@@ 2735
SL@@ 2734
1716 2730
Out@@ 2728
1713 2727
1726 2726
EA 2725
1629 2724
ms 2724
GmbH 2723
ve@@ 2723
Симеон 2722
Free 2720
1686 2719
ota 2718
Pop 2717
Capital 2716
Mak@@ 2715
Pin@@ 2715
Юго@@ 2715
пун@@ 2715
1580 2714
Gar@@ 2713
NH@@ 2708
width 2707
Света 2707
HBO 2703
SQL 2703
IG@@ 2702
ights 2702
Ger@@ 2697
308 2696
ative 2696
ze@@ 2696
V8 2692
282 2691
Television 2690
Je@@ 2689
Rel@@ 2689
Rom@@ 2689
248 2688
Kor@@ 2688
Medi@@ 2687
2.0@@ 2685
Honda 2684
272 2683
1603 2682
приема 2682
ST 2680
ati 2680
berg 2676
ster 2676
софи@@ 2676
NS 2675
1623 2673
249 2673
ov 2673
сравнение 2672
1634 2671
.н. 2668
NT 2668
560 2666
SL 2665
UR@@ 2665
Myr@@ 2664
1656 2663
music 2663
onia 2663
Deutsche 2662
Is@@ 2662
SD@@ 2661
Type 2661
atr@@ 2661
зна 2661
Gold 2660
1731 2658
Ko@@ 2656
нски 2656
Century 2654
пис 2653
ket 2651
Moon 2648
Astr@@ 2647
ies 2647
STS 2644
стар 2643
of@@ 2642
269 2641
640 2641
1625 2639
Luc@@ 2638
Nissan 2637
ame 2636
Сирия 2636
Not@@ 2635
State 2633
asi@@ 2633
ī@@ 2631
1590 2630
′ 2630
Motors 2629
засел@@ 2629
мите 2629
полета 2629
tari 2628
type 2628
Голе@@ 2627
ole 2626
College 2625
Между@@ 2625
1560 2624
Ang@@ 2623
295 2622
IE@@ 2622
Arc@@ 2619
Ga@@ 2618
ico 2618
Vari@@ 2617
ich 2617
Wi@@ 2616
ody 2616
Погре@@ 2616
Sport 2614
Under@@ 2614
2023 2613
1642 2610
1645 2610
Are 2610
Lov@@ 2610
шот@@ 2610
ER 2609
AX 2607
Blo@@ 2606
line 2604
Now 2602
And 2601
повод 2601
1697 2599
Spe@@ 2599
1749 2598
87@@ 2597
Blu@@ 2597
aft 2597
Zo@@ 2596
сас 2596
Museum 2595
ane 2595
610 2594
History 2594
PR@@ 2594
1729 2591
ost@@ 2590
512 2589
God 2589
304 2588
Model 2586
sus 2584
247 2583
Ob@@ 2583
Pas@@ 2583
Kom@@ 2579
Motor@@ 2579
ian 2579
inger 2579
gu@@ 2578
BAFTA 2577
art@@ 2574
mann 2572
oni@@ 2572
нито 2572
Ангел 2571
C. 2570
Dragon 2570
fl@@ 2570
och@@ 2569
F1 2567
нини 2567
тори 2567
Fac@@ 2566
§ 2565
David 2564
ato 2562
EC@@ 2559
Der 2557
Ter@@ 2557
Two 2556
1685 2555
less 2554
NT@@ 2550
Square 2550
Vel@@ 2550
B.@@ 2548
Union 2548
Dev@@ 2547
Twitter 2547
288 2546
Plant 2546
Review 2546
1683 2545
месе@@ 2542
технически 2542
пома@@ 2540
307 2539
boy 2539
258 2538
Fal@@ 2538
Works 2537
int@@ 2537
NS@@ 2536
обеди@@ 2536
1621 2535
Radi@@ 2535
Hill 2534
ე@@ 2534
People 2533
WWF 2533
BO 2532
1632 2530
Blood 2530
ath 2530
274 2529
1675 2528
офици@@ 2527
Kon@@ 2526
fer@@ 2526
Institute 2525
1612 2524
GA 2524
Hollywood 2523
1637 2521
Island 2520
USB 2520
European 2518
Ur@@ 2516
T.@@ 2515
пет 2513
aus@@ 2512
199@@ 2511
315 2511
Service 2510
bu@@ 2510
стата 2510
1609 2509
Sof@@ 2508
ly@@ 2506
СШ@@ 2506
sion 2502
IF@@ 2501
Techn@@ 2501
мис@@ 2501
1651 2500
309 2500
1598 2499
1638 2495
Angel 2495
276 2494
311 2494
SH@@ 2493
Ci@@ 2491
Arch@@ 2490
1668 2488
amp@@ 2488
Electronic 2487
1626 2486
95@@ 2484
ische 2483
GNU 2482
Pres@@ 2482
министра@@ 2481
Porsche 2479
com 2479
Йохан 2479
Computer 2478
wa 2478
DP 2477
art 2477
1611 2476
1644 2475
490 2474
Ben@@ 2474
Mes@@ 2474
ely 2474
ement 2474
opter@@ 2474
Not 2471
opsis 2471
Wo@@ 2470
cl@@ 2470
ета@@ 2470
1250 2469
A1 2466
Jo@@ 2466
Paris 2466
SE 2466
bat 2466
Technology 2464
up@@ 2463
Dem@@ 2462
tics 2462
Fiat 2460
1661 2458
21@@ 2457
port 2454
V. 2452
fr@@ 2451
326 2449
SN@@ 2449
273 2447
Dream@@ 2447
arg@@ 2447
321 2446
Martin 2444
ž@@ 2444
верен 2444
япо@@ 2441
Online 2440
Am 2439
ling 2439
sel@@ 2439
Syn@@ 2437
Dr 2436
WA 2436
Alice 2435
ema 2435
1605 2434
chem 2434
405 2433
the@@ 2433
More 2432
жава 2432
прите@@ 2432
FA 2431
oto 2431
Gro@@ 2430
ishi 2429
259 2427
ack@@ 2427
1635 2422
pro@@ 2422
star 2422
било 2422
ture 2420
Scre@@ 2417
CP@@ 2416
wood 2416
тенан@@ 2416
ust 2414
267 2411
ud@@ 2411
950 2409
Cl 2409
eri@@ 2409
1643 2406
1666 2405
Human 2405
East 2404
active 2402
ats 2402
ke@@ 2402
пропаганда 2400
747 2399
Хаджи@@ 2399
268 2397
Sl@@ 2396
Вюр@@ 2396
1615 2395
ѣ 2393
1. 2392
1652 2390
630 2390
Ra@@ 2390
mer 2390
oth 2390
1540 2389
храна 2389
720 2387
Films 2387
Gun@@ 2387
271 2386
Mk 2386
bus 2386
праж@@ 2386
1665 2385
BO@@ 2382
Nik@@ 2382
key 2382
дем@@ 2379
Wii 2378
277 2377
pos@@ 2377
матур@@ 2377
1530 2376
Stu@@ 2375
cal@@ 2375
ey@@ 2375
Cel@@ 2374
Dor@@ 2373
ax@@ 2373
Academy 2372
Audi 2371
Pop@@ 2371
CL@@ 2370
Rap@@ 2370
ce@@ 2369
333 2366
Form@@ 2364
ants 2364
Web@@ 2363
местообита@@ 2363
1653 2362
ї 2361
283 2360
Atlantic 2360
Как@@ 2359
up 2358
89@@ 2357
Office 2352
í@@ 2352
side 2351
64,@@ 2349
Earth 2349
Fu@@ 2348
SI 2348
aster 2348
Magic 2345
bo 2345
DM 2344
279 2343
1616 2341
tel@@ 2341
1633 2340
SM@@ 2340
ney 2340
Floyd 2339
Master 2339
лния 2338
1572 2337
Volkswagen 2336
Pacific 2334
Mol@@ 2333
With 2333
Business 2332
aris 2332
West@@ 2331
гаш@@ 2330
Washington 2329
цел 2329
From 2328
Year 2327
кио 2327
261 2326
DS@@ 2326
Instagram 2326
í 2325
inc@@ 2323
1619 2321
Internet 2321
Store 2321
1624 2320
Bon@@ 2319
278 2316
медицина 2316
сента 2316
fe@@ 2314
292 2313
ech@@ 2313
Агнес 2313
1622 2312
dic@@ 2312
Never 2311
So 2311
TH@@ 2308
пише@@ 2308
oidea 2307
1585 2306
house 2306
Family 2305
ams 2305
406 2303
SR 2303
urus 2303
Web 2302
ici@@ 2302
Management 2301
293 2300
DV@@ 2300
aph@@ 2299
ides 2298
324 2297
IN 2296
æ@@ 2295
джик 2295
Story 2294
322 2293
335 2293
Fall 2293
130@@ 2292
Railway 2291
sen 2291
ted 2290
345 2289
Sin@@ 2289
Al 2287
Wil@@ 2287
yn 2286
425 2285
314 2284
нично 2283
Chrys@@ 2282
вски 2282
Collection 2280
ume 2280
1569 2279
GP 2279
289 2278
Ba@@ 2277
1659 2275
313 2274
Spec@@ 2273
Russian 2272
ror 2272
vo@@ 2272
І 2271
анга@@ 2271
пече@@ 2271
Box 2269
ela 2267
ez 2267
Rad@@ 2265
беля@@ 2265
ga 2264
Iron 2263
287 2262
1687 2260
281 2259
Mem@@ 2259
Chem@@ 2257
Cin@@ 2257
ny 2257
Ev@@ 2256
620 2255
Албания 2255
добра 2253
смес@@ 2253
Max 2252
Mic@@ 2252
Standard 2250
oides 2250
ories 2249
you 2249
299 2248
Over 2248
OH 2247
Paramount 2246
Stre@@ 2246
Uni@@ 2246
eth 2246
Ь 2245
atum 2241
----@@ 2240
für 2240
Haw@@ 2239
bat@@ 2239
kar@@ 2238
298 2237
Central 2237
190@@ 2236
Sm@@ 2236
драта 2236
680 2235
AF@@ 2234
Kir@@ 2232
inn@@ 2232
mag@@ 2232
mod@@ 2232
570 2231
her@@ 2231
580 2229
Площа@@ 2229
1641 2228
Canada 2228
Just 2227
DR@@ 2226
Point 2226
O.@@ 2225
cin@@ 2225
Климент 2225
ego 2224
1662 2223
right 2222
ғ@@ 2222
Evil 2221
Virgin 2221
eum 2221
mac@@ 2220
Dro@@ 2219
amm@@ 2219
sy@@ 2219
равнина 2217
Добру@@ 2216
1595 2215
Pic@@ 2215
1606 2214
ლ@@ 2214
Fire@@ 2212
маке@@ 2211
къ@@ 2210
k.@@ 2209
lat@@ 2209
lin 2209
Party 2207
Sec@@ 2207
e.@@ 2207
SmackDown 2206
316 2205
Mu@@ 2205
etta 2202
1664 2201
331 2201
Old 2201
Pep@@ 2199
ito 2199
Chi@@ 2198
1565 2197
1684 2197
296 2197
510 2197
H.@@ 2196
aga 2195
Metro 2194
ith 2194
AK@@ 2193
Bom@@ 2193
ix 2193
1669 2190
Off@@ 2189
323 2186
iga 2184
地区 2184
HL 2183
Hotel 2183
1636 2180
tig@@ 2180
├ 2180
1631 2179
Bell 2178
uch@@ 2177
Power@@ 2175
San@@ 2174
dings 2174
Син 2174
Fun@@ 2173
356 2172
EL@@ 2172
Pit@@ 2172
гани 2172
Š@@ 2170
son@@ 2169
198@@ 2168
s.@@ 2167
Blu 2166
ase 2166
покри@@ 2165
stein 2163
зат 2163
TE 2162
ji 2162
Liv@@ 2160
Tim@@ 2160
je 2158
Arti@@ 2156
Sav@@ 2156
40,@@ 2155
DI 2155
IO@@ 2154
1350 2153
kh@@ 2153
til@@ 2153
Вероя@@ 2153
ա@@ 2153
Mr 2152
1547 2150
Ha@@ 2148
Ak@@ 2147
Special 2147
Dom@@ 2144
1450 2143
Hell 2142
L.@@ 2141
sal@@ 2140
å@@ 2140
Douglas 2139
ew@@ 2139
Kiss 2137
1571 2136
CT 2136
ыду@@ 2136
End 2135
1607 2134
GPS 2134
Run@@ 2134
Kn@@ 2133
Script 2132
Sel@@ 2132
Ta@@ 2132
Alfa 2130
Long 2130
Michael 2129
O2 2129
Siemens 2128
tom 2128
Lil 2127
May@@ 2127
660 2126
Motor 2125
Ly@@ 2124
Take 2121
1577 2120
ik 2120
Lim@@ 2119
arum 2117
Фамилия 2117
BSD 2116
ES 2115
1604 2114
cas@@ 2112
кратко 2112
bor@@ 2110
336 2109
Soul 2109
сред 2106
318 2105
rec@@ 2105
sti@@ 2105
IV@@ 2104
icon 2104
живот 2104
LE 2102
Cru@@ 2100
1601 2099
294 2099
енер@@ 2099
char@@ 2098
291 2097
денбург 2096
кули 2095
1555 2094
Public 2094
ado 2094
Pen@@ 2093
ub@@ 2093
William 2092
Comic 2091
Mur@@ 2090
old 2090
1596 2089
ali 2089
332 2088
CN@@ 2088
Mod@@ 2088
317 2087
Prix 2087
James 2086
mes 2086
Car 2084
Chron@@ 2082
go@@ 2082
Homo 2081
por@@ 2081
Bet@@ 2079
CI 2079
pal@@ 2079
sur@@ 2078
Wall 2077
Ep@@ 2076
pH 2076
ty@@ 2076
Hom@@ 2075
fa 2075
Fol@@ 2073
Today 2073
297 2072
Blues 2072
Money 2072
ail@@ 2072
down 2072
MG 2070
355 2068
light 2066
Pa@@ 2065
ader 2065
ols 2065
ждан@@ 2065
ждане 2063
Ton@@ 2062
E. 2061
Masters 2061
venture 2061
401 2059
Gold@@ 2059
alus 2058
ray 2056
iPhone 2055
Lab@@ 2053
vir@@ 2053
Real 2052
ze 2051
343 2049
The@@ 2049
CE 2047
ind@@ 2047
ots 2047
Sam@@ 2045
opus 2045
van 2043
anth@@ 2040
az 2040
1492 2039
потен@@ 2039
@ 2038
Shar@@ 2038
Tokyo 2036
cur@@ 2035
don 2035
Men 2032
386 2030
G.@@ 2030
alm@@ 2030
enc@@ 2028
гове 2027
ă@@ 2026
Hed@@ 2025
NET 2025
SN 2024
cel@@ 2024
ha@@ 2024
uz@@ 2024
Come 2023
Morning 2022
mi 2020
Lib@@ 2019
mas@@ 2019
Lost 2017
нага 2015
ковски 2014
ami 2013
1592 2012
381 2012
As 2012
tan@@ 2011
Cro@@ 2009
319 2008
When 2008
acle 2008
ider 2006
501 2005
ff 2005
музи@@ 2005
1525 2004
cul@@ 2004
Mega 2003
Oc@@ 2003
T. 2003
DB 2002
occ@@ 2001
Run 2000
добро 2000
Ig@@ 1999
Ple@@ 1999
1568 1998
1559 1995
Az@@ 1995
Cha@@ 1995
Opera 1994
-- 1993
ful 1993
Fighter 1991
uck 1988
ube 1987
eon 1985
Han@@ 1984
estr@@ 1983
сау 1983
dis@@ 1982
edi@@ 1982
los@@ 1982
Jean 1981
денти@@ 1981
Far@@ 1980
Bab@@ 1979
Hav@@ 1977
`@@ 1977
optera 1977
Словения 1977
sen@@ 1975
lis 1974
Қ@@ 1974
Stars 1973
mm 1973
Design 1970
Age 1967
зад 1967
OR@@ 1966
Tan@@ 1966
1521 1965
ng@@ 1963
He 1962
P.@@ 1962
9000 1961
Auto 1960
Mil@@ 1960
Control 1958
ö@@ 1957
Cle@@ 1956
важна 1956
Щ 1955
Cryp@@ 1954
ache 1954
ier 1954
Судан 1954
Hon@@ 1952
Wild 1952
PN 1951
Плов@@ 1951
зае@@ 1951
западно 1951
1536 1950
Plus 1949
des@@ 1949
Малайзия 1949
י@@ 1949
If 1948
jpg 1948
É@@ 1948
337 1947
Chevrolet 1947
EMI 1946
Os@@ 1946
Top@@ 1946
aurus 1946
lia 1946
гани@@ 1946
EC 1945
вди@@ 1945
Bos@@ 1944
CL 1944
Il@@ 1944
Sound@@ 1944
1526 1943
una 1942
att@@ 1941
we@@ 1940
ET 1939
Modern 1939
Sar@@ 1939
FS 1938
ender 1937
^ 1936
Over@@ 1935
osp@@ 1935
George 1934
вите 1934
250@@ 1933
ans@@ 1933
Autom@@ 1932
ao 1932
ier@@ 1932
ip@@ 1932
tia 1932
Rh@@ 1931
338 1929
Sex 1929
96@@ 1928
kr@@ 1928
395 1927
ova 1927
Дим@@ 1926
On@@ 1925
Sea 1925
atic 1925
ello 1925
сьма 1924
ІІ 1923
бни 1923
Ball@@ 1921
2. 1920
Battle 1920
Camp@@ 1920
Secret 1919
tive 1917
works 1917
334 1914
южно 1914
Cir@@ 1913
icum 1913
Audi@@ 1912
404 1911
Industries 1911
don@@ 1911
Est@@ 1910
NASA 1910
Romeo 1910
Sor@@ 1908
LS 1907
ś@@ 1907
354 1905
Animation 1905
Challenge 1905
wo@@ 1905
Album 1904
war@@ 1904
sin@@ 1903
table 1903
well 1903
отбра@@ 1903
tis@@ 1902
reg@@ 1901
Poly@@ 1900
cap@@ 1900
Amazon 1899
Nick@@ 1899
Fair@@ 1898
sey 1898
Vog@@ 1897
Angeles 1896
F.@@ 1896
Max@@ 1896
Services 1896
Theatre 1896
itz 1896
dit 1895
tar@@ 1895
Chicago 1894
iP@@ 1894
Стой@@ 1893
Galaxy 1892
SW@@ 1892
nik 1892
lam@@ 1890
loc@@ 1889
FF 1888
Hard 1888
vs 1888
Some@@ 1886
цеговина 1885
jo 1884
18,7 1883
Here 1883
Robert 1883
hy@@ 1881
Jazz 1878
რ@@ 1878
1583 1877
ira 1877
my 1876
тец 1876
Reb@@ 1874
Wol@@ 1874
1556 1870
Kin@@ 1869
Jav@@ 1868
Kids 1868
обили 1868
км@@ 1867
Batt@@ 1866
tidae 1866
ו@@ 1866
Days 1864
EM@@ 1864
Mis@@ 1864
mu@@ 1864
Don@@ 1863
ē@@ 1863
415 1862
Om@@ 1862
Tit@@ 1862
Vic@@ 1862
определен 1861
head 1860
ison 1860
ws 1860
Head 1859
Rob@@ 1859
Zep@@ 1859
isi@@ 1859
IL@@ 1858
pic 1858
Action 1856
HC 1855
pha 1854
Солу@@ 1854
Watch 1852
bre@@ 1852
uli@@ 1852
world 1851
Vision 1850
let 1850
Jam 1848
SR@@ 1848
box 1848
изво@@ 1847
ila 1846
ä 1846
леку@@ 1846
DI@@ 1845
Zero 1844
mit@@ 1844
BR@@ 1843
CH 1843
Van 1843
azy 1843
back 1843
RCA 1841
Lady 1839
section 1839
важен 1839
960 1838
Jum@@ 1838
Pyth@@ 1838
офор@@ 1838
elli 1837
pu@@ 1836
Lotus 1835
Mario 1835
Associ@@ 1834
GO@@ 1834
Ray 1833
yd@@ 1833
ysis 1833
Got 1832
anc@@ 1832
hu@@ 1832
ante 1830
atis 1830
Mars 1828
pa@@ 1827
дите 1827
Chr@@ 1826
гнат 1826
HTML 1824
97@@ 1823
Again 1823
Metall@@ 1822
Steel 1822
XP 1822
Arena 1821
Sn@@ 1819
oa 1819
ual 1819
zi 1819
ista 1818
leg@@ 1818
trum 1818
wi@@ 1818
win 1818
ител 1818
Dur@@ 1817
Energy 1817
Tek@@ 1817
ani@@ 1817
fer 1815
Spider 1814
kl@@ 1814
1535 1813
cher 1813
1597 1812
Ice 1812
сира 1812
760 1811
2030 1810
епи@@ 1810
ump@@ 1809
Peter 1808
Walt 1807
thumb 1806
911 1805
arr@@ 1805
olog@@ 1805
Summer 1804
юли 1804
Future 1803
chi 1803
94@@ 1802
Sem@@ 1802
men 1802
pol@@ 1801
N.@@ 1799
Rus@@ 1799
Let@@ 1796
len@@ 1796
rom@@ 1795
затвор 1795
Gre@@ 1794
Rhy@@ 1792
ady 1792
Ther@@ 1791
ays 1789
res@@ 1789
red 1788
ister 1787
3.0 1786
ford 1786
PL@@ 1785
Data 1784
Development 1782
удовлет@@ 1780
Div@@ 1779
Gor@@ 1779
Kal@@ 1776
oft 1776
Trav@@ 1775
Dog@@ 1774
‰ 1774
Dam@@ 1773
aus 1773
Ret@@ 1772
DR 1770
Maz@@ 1770
val@@ 1770
Forever 1769
ever 1769
Saint 1768
How 1767
An 1766
ality 1766
Охри@@ 1766
Ща@@ 1765
Bell@@ 1764
Heroes 1762
aun@@ 1762
low@@ 1762
ā 1762
州 1761
451 1760
enn@@ 1759
Maria 1758
Free@@ 1757
hr@@ 1757
Bol@@ 1755
Hur@@ 1754
Williams 1754
core 1754
наги 1754
Infin@@ 1753
lo 1752
iti@@ 1751
Independent 1750
del@@ 1750
Western 1749
Ed@@ 1748
Lif@@ 1748
ll 1748
Amaz@@ 1747
raph 1747
Mind 1744
NAS@@ 1744
Beach 1743
ania 1743
Ass@@ 1742
Asia 1741
Plan@@ 1741
ologies 1741
Ol@@ 1740
Teleg@@ 1740
ée 1740
Dark@@ 1739
бря@@ 1738
cha 1737
vol@@ 1737
Extr@@ 1736
рур@@ 1736
Ram@@ 1735
Sweet 1735
adi@@ 1735
≈ 1735
use 1734
Cros@@ 1733
Empire 1733
NP 1733
ision 1733
ide 1732
idea 1732
Йоа@@ 1732
Acc@@ 1731
Pent@@ 1730
ust@@ 1729
Bus@@ 1727
Hi@@ 1727
pf@@ 1727
Bot@@ 1726
Lat@@ 1726
Nav@@ 1726
Tak@@ 1726
Il 1725
isa 1725
Като 1725
IEEE 1723
ground 1723
Imag@@ 1722
Will 1722
Gaz@@ 1721
Nature 1721
Phys@@ 1721
Fri@@ 1719
set 1719
Tar@@ 1718
Ven@@ 1718
Call 1717
Flash 1717
Four 1717
She 1717
HD@@ 1714
Thomas 1713
FL@@ 1712
Hand@@ 1712
Van@@ 1712
Son@@ 1711
khe@@ 1711
Ky@@ 1710
ster@@ 1710
DD 1709
Trophy 1709
1453 1708
правител@@ 1707
Ker@@ 1706
Bay 1705
Mode 1705
Saf@@ 1705
olo@@ 1705
ul 1705
Perf@@ 1704
arts 1703
very 1703
сиона@@ 1703
River 1702
hi 1701
Under 1700
Us 1700
Silver 1699
1515 1698
Roll 1698
ends 1698
Sen@@ 1697
тога@@ 1696
1204 1695
Movie 1695
ident 1695
ille 1695
isti@@ 1695
pre@@ 1695
ku@@ 1692
Pon@@ 1691
iden 1691
Republic 1689
зиден@@ 1689
Dar@@ 1687
MVP 1687
tronics 1687
гъ@@ 1687
Na 1686
not 1683
пари 1683
Hot@@ 1682
Choice 1681
Fe 1681
Only 1681
тичен 1681
NXT 1680
aro 1680
Roy@@ 1679
Stop 1679
geh@@ 1679
Brown 1678
tions 1678
Sunday 1677
Ec@@ 1676
Net 1675
hin@@ 1674
1.0 1673
RAM 1673
scope 1673
ј@@ 1673
кото 1672
UT@@ 1668
under@@ 1668
Das 1667
Guide 1667
Лите@@ 1667
cho 1666
ns 1666
197@@ 1663
ческо 1662
Prim@@ 1661
ington 1661
Pix@@ 1660
Ster@@ 1657
cape 1657
top 1656
Rock@@ 1655
ods 1655
our@@ 1654
Cop@@ 1653
he 1653
MI 1652
hor@@ 1652
ush 1652
1517 1651
Good@@ 1651
night 1651
ux 1651
Dog 1649
Smith 1649
ska 1649
we 1648
лато 1648
хата 1648
Apo@@ 1647
Око@@ 1647
майка 1647
Dir@@ 1645
Госу@@ 1645
Pil@@ 1644
Planet 1644
SB@@ 1644
odon 1643
Know 1642
ide@@ 1642
ism 1642
sur 1642
A2 1641
CM@@ 1641
tin@@ 1641
Fas@@ 1640
Visual 1640
pot 1640
йски 1640
Sand@@ 1639
odi@@ 1639
ə 1639
Med@@ 1638
elo@@ 1638
bur@@ 1637
can 1637
Него@@ 1637
Town 1635
ika 1635
Sph@@ 1634
чне@@ 1634
Dynam@@ 1633
act@@ 1633
lock 1633
tical 1633
194@@ 1632
Side 1631
off 1631
льям 1631
френ@@ 1631
Christmas 1629
ў@@ 1628
Voice 1627
BAS@@ 1625
fi@@ 1625
pes 1625
Anth@@ 1624
Kat@@ 1624
Sle@@ 1623
AW@@ 1621
PL 1621
Sciences 1621
html 1621
zy@@ 1621
Garden 1619
ū@@ 1619
Publ@@ 1618
Trust 1618
augh@@ 1618
lers 1618
ori 1618
onidae 1617
Comp@@ 1615
xe 1615
Rosa 1614
SP 1614
ger@@ 1614
Generation 1613
anger 1613
bel@@ 1611
tw@@ 1611
ond@@ 1610
nom@@ 1608
series 1608
еми 1608
унгар@@ 1607
ites 1606
sil@@ 1605
Населе@@ 1605
вси@@ 1604
ech 1603
Woman 1601
Cad@@ 1600
MD 1599
ø@@ 1598
EX@@ 1597
är@@ 1597
точен 1596
aen@@ 1595
COM 1593
CR 1593
Core 1593
Purple 1593
gar@@ 1591
GS 1590
Ze@@ 1590
lum 1590
Centre 1589
Aus@@ 1588
Pul@@ 1588
Bit@@ 1587
ote 1586
tim@@ 1586
wer@@ 1586
ი 1586
AI 1584
ç@@ 1584
Kur@@ 1583
CT@@ 1582
кономи@@ 1582
ele 1580
31.@@ 1579
egr@@ 1579
продуци@@ 1579
ო@@ 1579
Inc. 1578
Mary 1577
Nu@@ 1577
acks 1577
xx 1577
Mul@@ 1576
любов 1576
Alliance 1575
Post@@ 1574
not@@ 1574
196@@ 1573
MT@@ 1573
ink 1573
S. 1571
mel@@ 1571
Heaven 1569
ң 1569
air@@ 1568
gh@@ 1568
deon 1567
Pseud@@ 1565
har@@ 1564
Jet 1563
Publishing 1563
Got@@ 1561
Fam@@ 1560
SD 1560
Si 1560
ski@@ 1560
AO@@ 1559
TR@@ 1558
sson 1558
Three 1557
Unix 1557
dium 1557
uss@@ 1557
шва 1557
1519 1556
ures 1556
живота 1556
Che@@ 1555
SMS 1554
Women 1554
den@@ 1554
нична 1554
Happy 1553
Aviation 1552
Fle@@ 1551
Lam@@ 1551
pop 1551
Sig@@ 1550
group 1550
vers 1549
1.1 1548
ръ@@ 1548
пие@@ 1546
BP 1545
ological 1545
BB 1544
Lep@@ 1544
γ 1544
Anim@@ 1543
onic 1543
Dod@@ 1542
Avenue 1541
Natural 1541
aha 1541
дружество 1541
Tales 1539
men@@ 1539
sz@@ 1539
ther@@ 1539
vet 1539
ther 1537
Moscow 1536
ō@@ 1536
Ado@@ 1535
Dic@@ 1535
EP@@ 1535
Next 1535
Sup@@ 1535
trol@@ 1535
yi 1535
BE 1533
GB 1533
Peugeot 1533
ˈ@@ 1533
горь 1533
Eyes 1531
Fall@@ 1529
Financial 1528
PM 1528
Production 1528
македо@@ 1528
ATA 1527
Ring 1524
Sac@@ 1523
ett 1523
nu@@ 1523
action 1522
бити@@ 1522
скали 1522
Diamond 1521
ng 1521
esta 1519
eti@@ 1519
Dat@@ 1518
Tech 1518
Tower 1518
ail 1518
ein 1517
yo@@ 1517
отго@@ 1517
px 1515
мически 1515
B. 1514
ava 1514
ally 1511
iller 1511
Č@@ 1511
Pot@@ 1510
iss 1507
pan@@ 1506
английски 1505
Ath@@ 1504
Canadian 1504
Eff@@ 1504
India 1504
Invest@@ 1504
маркграф 1504
серта@@ 1504
Od@@ 1503
body 1502
if 1502
more 1502
Santa 1501
Texas 1500
мум 1500
Total 1499
obi@@ 1499
Christian 1498
R. 1498
cast 1498
ebr@@ 1498
ton@@ 1497
enta 1496
ham 1496
pin@@ 1496
under 1496
999 1495
3. 1494
Lit@@ 1494
Pat@@ 1494
arch@@ 1494
oria 1494
sim@@ 1494
Hits 1493
Liber@@ 1493
посто@@ 1493
Louis 1492
ser 1492
Con 1491
193@@ 1490
Mess@@ 1489
Ren@@ 1489
EN 1488
fin@@ 1488
mark 1487
188@@ 1486
Soci@@ 1486
смет@@ 1486
Division 1485
Gir@@ 1485
KO@@ 1485
полет 1485
BI 1484
Enter@@ 1484
Nam@@ 1484
ę@@ 1484
BD 1483
web 1483
App@@ 1482
Богородица 1482
After 1481
Hello 1481
Hum@@ 1481
Lon@@ 1480
aja 1480
otus 1480
апри@@ 1480
UC@@ 1479
bun@@ 1479
U.@@ 1478
Vol 1478
CN 1477
трите 1477
Att@@ 1476
Books 1476
bis@@ 1476
face 1475
Adv@@ 1474
ks@@ 1474
oy@@ 1474
ě@@ 1474
ime 1473
Tran@@ 1472
Charles 1471
Mach@@ 1471
cre@@ 1471
alia 1470
Edge 1469
Kepler 1469
Trig@@ 1469
aci@@ 1469
san@@ 1469
ush@@ 1469
ough 1467
ulus 1467
ands 1466
Conn@@ 1465
Beat 1464
ET@@ 1464
Greatest 1464
Berlin 1463
Tem@@ 1463
ein@@ 1461
Pir@@ 1459
Dig@@ 1458
Comedy 1457
ony 1457
tera 1457
Ash@@ 1456
нъ@@ 1456
Bull 1455
Off 1455
int 1455
mal@@ 1455
mus@@ 1455
yan@@ 1455
ature 1454
ci 1454
Engineering 1453
ship 1453
Revolution 1452
рени 1452
CF@@ 1451
Land@@ 1451
Village 1451
Junior 1450
Vent@@ 1450
Away 1449
Department 1449
Lou@@ 1449
non 1449
Child 1447
Ъ 1447
Ann@@ 1446
ear@@ 1446
нира 1446
oi 1445
esti@@ 1443
craft 1442
aya 1441
ery 1441
аспи@@ 1441
вни 1441
дете 1440
яни 1440
Station 1439
ag 1439
Beautiful 1438
KO 1438
Mail 1438
Ей@@ 1438
Aircraft 1437
Mercury 1437
You@@ 1437
dae 1437
ert 1437
GI 1436
lidae 1436
mo 1436
MT 1435
SV@@ 1435
Vista 1435
J.@@ 1434
Football 1432
Heavy 1432
urs 1432
della 1431
Hero 1430
didae 1430
omy@@ 1430
Communications 1429
Show@@ 1429
Squ@@ 1429
Thr@@ 1428
енбург 1428
CF 1426
LG@@ 1426
awa 1426
ido 1426
Continental 1425
AV 1424
Gra@@ 1424
dis 1424
mic@@ 1424
erry 1423
sky 1423
Mari@@ 1422
Ori@@ 1422
EF 1421
Laborat@@ 1421
Alpha 1420
unk@@ 1420
.org 1419
Trib@@ 1418
ind 1418
ost 1418
wn 1418
ң@@ 1418
Da 1417
FDA 1417
Men@@ 1417
met@@ 1417
California 1416
ese 1416
iki 1416
stream 1416
app@@ 1414
Lee 1411
Rain 1411
Cloud 1410
почва 1410
G. 1409
bis 1409
--@@ 1408
Spirit 1408
Вся@@ 1408
sions 1407
arius 1406
cm 1405
west 1403
Lor@@ 1402
Pay@@ 1402
Sym@@ 1402
alb@@ 1402
ს@@ 1402
GO 1401
қ 1400
HO@@ 1399
SO 1399
tin 1399
worth 1399
α@@ 1399
W.@@ 1398
sive 1398
L. 1397
Oil 1397
form@@ 1397
bra 1395
Cent@@ 1394
ети@@ 1394
195@@ 1393
Econom@@ 1393
nia 1393
1,0@@ 1392
Wat@@ 1392
Yam@@ 1392
act 1392
oll@@ 1392
ó 1392
Kod@@ 1390
ties 1390
Emer@@ 1389
ses 1389
Ble@@ 1387
1.5 1386
uv@@ 1386
Proc@@ 1385
zu 1385
CW 1384
bal@@ 1384
opo@@ 1383
ute 1383
Dan@@ 1382
Valley 1382
cy 1382
fol@@ 1382
Hop 1381
Ka@@ 1381
Record 1381
Din@@ 1380
Telec@@ 1380
Fer@@ 1379
Mail@@ 1379
阳@@ 1379
Hard@@ 1378
Mut@@ 1378
ords 1378
CO2 1377
Som@@ 1377
Australian 1376
Rainbow 1376
Talk 1376
land@@ 1376
U.S. 1375
Shadow 1374
Ki@@ 1373
formes 1373
that 1373
180@@ 1372
Children 1372
Nine 1372
ld@@ 1371
elec@@ 1370
ine@@ 1370
othing 1370
qui@@ 1370
e.org 1369
EM 1368
LM 1368
ck 1368
един 1368
ұ@@ 1368
At 1367
Au@@ 1366
anda 1366
жени 1365
Devil 1363
Aur@@ 1361
Hip 1361
ett@@ 1361
oz@@ 1361
Cour@@ 1360
Cul@@ 1360
North@@ 1360
Wel@@ 1360
Concer@@ 1358
Parad@@ 1358
Satur@@ 1358
Fro@@ 1356
PN@@ 1356
SB 1355
come 1355
Lex@@ 1354
Psych@@ 1354
Sau@@ 1354
ARC 1353
ega 1353
.S. 1352
ads 1352
ple@@ 1352
Phot@@ 1351
Prize 1351
Security 1351
Wars 1351
aka 1351
pers 1351
view 1351
гите 1351
H2O 1350
Make 1350
Rose 1350
ything 1350
треш@@ 1350
Mos@@ 1349
Eagle 1348
SG 1348
There 1348
mit 1348
20th 1347
cat@@ 1346
var@@ 1346
Mania 1345
CNN 1344
Kingdom 1344
SF@@ 1344
ection 1344
I. 1343
Patr@@ 1343
ческа 1343
ami@@ 1342
att 1342
vor 1342
‎ 1342
Pac@@ 1341
aer@@ 1341
изва@@ 1341
ular 1339
uy@@ 1339
DA@@ 1338
Explorer 1338
bian 1337
nh@@ 1337
ways 1336
gl@@ 1335
lig@@ 1335
plex 1335
tory 1335
ead 1334
Night@@ 1333
Wit@@ 1333
ces 1333
Cinema 1332
fire 1332
self 1330
CM 1329
Say 1329
Arg@@ 1327
ischen 1327
otr@@ 1326
Full 1325
Mini 1325
â@@ 1325
є@@ 1325
Mountain 1324
Richard 1324
ect@@ 1324
Five 1322
ente 1322
ros@@ 1321
ste@@ 1321
ange 1320
ham@@ 1320
Sir@@ 1319
Pun@@ 1318
Social 1318
Zone 1318
pul@@ 1318
Bra@@ 1317
Delta 1317
Stor@@ 1317
vin@@ 1317
Христо 1317
Holding 1316
Smo@@ 1316
Spir@@ 1316
ago 1316
ding 1315
icle 1315
ornis 1315
Fut@@ 1314
iy@@ 1314
peri@@ 1314
uma 1314
смотря 1314
Ball 1313
EB@@ 1313
Wa@@ 1313
Right 1312
ult 1312
192@@ 1311
Up@@ 1310
Георгиев 1310
Boston 1309
Hip@@ 1309
V.@@ 1309
gen 1309
афри@@ 1309
OR 1308
SU@@ 1307
Tom 1307
fly 1306
DF@@ 1305
eria 1305
yst@@ 1305
BR 1304
Kong 1304
nes 1304
tre 1304
ü@@ 1304
Gallery 1302
ose 1302
Roll@@ 1301
web@@ 1301
факуль@@ 1301
Tu@@ 1300
Lake 1299
Terr@@ 1299
mot@@ 1297
About 1296
Jay 1296
lem@@ 1296
Alexander 1295
Face 1295
Orchestra 1295
Rot@@ 1295
ards 1295
astr@@ 1295
dier 1295
дори 1295
ying 1294
Димитров 1294
Sz@@ 1293
TT@@ 1293
ri 1293
Class@@ 1292
дола@@ 1292
изне@@ 1292
SK 1291
Eas@@ 1290
cat 1290
Box@@ 1289
Orange 1289
God@@ 1288
zy 1288
Act 1287
bul@@ 1287
ins@@ 1287
Freedom 1286
sor@@ 1286
unds 1286
Aqu@@ 1285
Report 1285
pon 1285
Shu@@ 1284
Years 1284
org@@ 1284
тото 1284
Prom@@ 1283
esty 1283
уто 1283
Factory 1282
cop@@ 1282
thr@@ 1282
версите@@ 1282
Youth 1281
4. 1278
las 1278
PI 1277
own 1277
ow 1276
xi@@ 1276
H. 1275
pri@@ 1275
Seven 1274
inter@@ 1274
Discovery 1273
idi@@ 1273
ves 1273
dom@@ 1272
uld 1272
седате@@ 1272
ado@@ 1271
Bridge 1270
Def@@ 1270
ask@@ 1270
ë 1270
Nation 1269
itar 1269
Торино 1269
SF 1268
WCW 1268
Kit@@ 1267
.е. 1266
CV 1266
Mom@@ 1265
Rho@@ 1265
Too 1265
Vis@@ 1265
English 1264
life 1264
онова 1264
Born 1263
Hil@@ 1263
ages 1263
án 1263
da@@ 1262
data 1262
Ku@@ 1261
AE 1260
IL 1260
редо@@ 1260
Eye 1259
eps 1259
FIFA 1258
Bri@@ 1256
Hit@@ 1256
Horiz@@ 1256
Bla@@ 1255
Pos@@ 1255
ating 1255
lev@@ 1255
onn@@ 1255
rit@@ 1255
Jack 1254
inf@@ 1254
Rol@@ 1253
Scor@@ 1253
Spar@@ 1253
je@@ 1253
tra@@ 1253
CV@@ 1251
2.5 1250
Meth@@ 1250
Pu@@ 1250
Yel@@ 1250
Hak@@ 1249
Part 1249
Tas@@ 1249
Theater 1249
bi 1249
pus 1249
нето 1249
Laur@@ 1248
ects 1248
yo 1248
ec 1247
hynch@@ 1247
tho@@ 1247
ă 1247
Henry 1245
stone 1245
неско@@ 1245
Touch 1244
aux 1244
ostr@@ 1243
Link 1242
Lac@@ 1241
Advanced 1240
imal 1240
Miss 1239
unc@@ 1239
ices 1238
ren@@ 1238
real 1237
ville 1237
Australia 1236
Code 1236
Storm 1236
ker@@ 1236
ome@@ 1236
Bac@@ 1235
NR@@ 1235
bot 1235
ont@@ 1234
uth 1234
南@@ 1234
州@@ 1234
Pokémon 1233
ą@@ 1233
Double 1231
IF 1231
Wrest@@ 1231
Capitol 1230
She@@ 1230
Southern 1230
Where 1230
Илия 1230
израз@@ 1230
Beau@@ 1229
Friends 1229
сите 1229
Cross 1228
пристани@@ 1228
Prince 1227
osaur@@ 1226
tel 1226
yond 1226
Tour@@ 1225
ective 1225
kon@@ 1225
ylo@@ 1225
зира 1225
Class 1224
маси@@ 1224
Kan@@ 1223
Our 1223
Pur@@ 1223
RI 1222
emp@@ 1222
ბ@@ 1222
Herald 1221
long@@ 1221
Oh 1220
abase 1219
ör@@ 1218
Dist@@ 1217
E9E9E9 1217
Whit@@ 1217
ando 1216
los 1216
Cand@@ 1215
Rum@@ 1215
bit 1214
джиев 1213
ather 1211
eck 1211
onder@@ 1211
osus 1211
K.@@ 1210
Sat@@ 1210
Water 1210
anum 1210
ault 1209
ão 1209
Bat@@ 1208
Gener@@ 1208
Lic@@ 1208
mart 1208
0.000 1206
UL@@ 1206
Ал 1206
Der@@ 1205
PP 1205
sec@@ 1205
ː 1205
dig@@ 1204
sts 1204
Multi@@ 1203
PO 1203
Rights 1203
Var@@ 1202
kw@@ 1202
ope 1202
Vul@@ 1201
zen 1201
ō 1200
Biz@@ 1199
Enterprise 1199
Ten@@ 1199
atio 1199
uf@@ 1199
atra 1198
osh 1198
yth@@ 1198
аси@@ 1197
Xi@@ 1196
ox@@ 1196
Ari@@ 1195
Pass@@ 1195
ED@@ 1193
Lev@@ 1193
Main@@ 1192
Room 1192
sport 1192
местообитание 1192
chin@@ 1191
wal@@ 1191
entr@@ 1190
phone 1190
Cli@@ 1188
Ele@@ 1188
ў 1188
BL@@ 1187
Pist@@ 1187
mil@@ 1187
Anime 1186
inum 1186
itas 1186
Георги 1186
Eu@@ 1185
Ex 1185
Speed 1185
ails 1185
bank 1185
C1 1184
zo 1184
Nak@@ 1183
Sug@@ 1183
his 1183
App 1182
Fort@@ 1182
NC 1182
Nar@@ 1182
alt@@ 1182
form 1182
Band@@ 1181
PT@@ 1181
Place 1181
out@@ 1181
ox 1181
Ast@@ 1180
Name 1180
Six 1180
By 1179
ron 1179
Cola 1178
Ten 1178
1.2 1177
ih@@ 1177
ú@@ 1177
Adi@@ 1176
yx 1176
мяна 1176
ვ@@ 1176
Ocean 1175
SK@@ 1175
Far 1174
abr@@ 1174
Bub@@ 1172
bas@@ 1172
свеще@@ 1171
Crim@@ 1170
ICA@@ 1170
Scar@@ 1170
omo 1170
tal@@ 1170
учител@@ 1170
icul@@ 1169
max 1169
комп@@ 1169
Pan 1168
thi@@ 1168
esa 1167
UM 1166
Yah@@ 1166
Hem@@ 1165
Joseph 1165
gn@@ 1165
Foc@@ 1164
d. 1164
eph@@ 1164
liz@@ 1164
ons@@ 1164
rel@@ 1164
Anti@@ 1161
Fab@@ 1161
View 1161
ento 1161
ry@@ 1161
Cat 1158
Fair 1158
Phili@@ 1158
Rub@@ 1158
ades 1158
Partn@@ 1157
esp@@ 1157
log@@ 1157
æ 1157
pro 1156
лята 1156
Arm@@ 1155
Blin@@ 1155
acy 1155
itor 1155
thing 1154
vic@@ 1154
ais@@ 1153
Cit@@ 1152
Coll@@ 1152
Kam@@ 1151
etus 1151
pen@@ 1151
Kings 1150
Beh@@ 1149
Saturday 1149
Poc@@ 1148
dor@@ 1148
pedi@@ 1148
tier 1147
º@@ 1147
sis 1146
тинген 1146
новен 1145
book 1144
ches 1144
trix 1144
MIT 1143
ward 1143
KA 1142
bird 1142
Federation 1141
aff@@ 1141
her 1141
lex 1141
pres@@ 1141
ć 1141
2.1 1140
Pearl 1140
Note 1139
Source 1139
vi 1139
EST 1138
High@@ 1138
aire 1138
aves 1138
orium 1138
Legend 1137
See 1137
Still 1137
ket@@ 1137
scale 1137
vel@@ 1137
Bang 1136
Living 1136
tube 1136
деец 1136
Phone 1135
FF@@ 1134
UI 1134
hal@@ 1134
Bud@@ 1133
Mah@@ 1133
Log@@ 1132
Player 1132
ca@@ 1132
FL 1131
Marie 1131
Tree 1131
Victoria 1131
Coun@@ 1130
Hunter 1130
aks 1130
gs 1130
мач 1130
Hyp@@ 1129
cli@@ 1129
eder@@ 1129
нако 1129
4.0 1128
Army 1128
ON 1128
eu@@ 1128
thly 1128
тично 1128
Was@@ 1127
ye@@ 1127
реле@@ 1127
худо@@ 1126
א@@ 1126
But@@ 1125
CAR 1125
Joe 1125
enia 1125
mp@@ 1125
ксем@@ 1125
Ghost 1124
Universe 1124
обх@@ 1124
т.н. 1124
787 1123
vit@@ 1122
Elite 1121
Sing@@ 1121
Train 1121
š 1121
Health 1120
Hen@@ 1120
ainst 1120
tion@@ 1120
安@@ 1120
illi@@ 1119
тите 1119
3.5 1118
Long@@ 1118
Wind 1118
pp 1118
sum@@ 1118
sw@@ 1118
Py@@ 1117
Scienti@@ 1117
chr@@ 1117
Back@@ 1116
lip@@ 1116
Gol@@ 1115
Indi@@ 1115
Dun@@ 1114
Fest 1114
phus 1114
Thi@@ 1113
Hi 1112
Obj@@ 1112
hip 1112
ә 1112
VC 1111
ate@@ 1111
via 1111
резу@@ 1111
Spr@@ 1110
star@@ 1110
urn 1110
aea 1109
ign@@ 1109
kat@@ 1108
porter 1108
ury 1108
Mother 1106
тъ@@ 1106
Alli@@ 1105
Nucle@@ 1105
imler 1105
Стара 1105
af 1104
eca 1104
ნ@@ 1103
gi 1102
Злат@@ 1101
my@@ 1100
Den@@ 1099
Ing@@ 1098
eine 1098
into 1098
ware 1098
Citroën 1097
DT@@ 1097
ells 1097
na@@ 1097
Ax@@ 1096
Fel@@ 1096
.C. 1095
Beg@@ 1095
Oper@@ 1095
Peace 1095
esia 1095
new 1095
sig@@ 1095
VO@@ 1094
Tennis 1093
Wan@@ 1093
amo@@ 1093
value 1093
Maj@@ 1092
Yo@@ 1092
Original 1091
ilus 1090
Flo@@ 1089
Moz@@ 1089
ý@@ 1089
Jones 1088
esi@@ 1088
Heter@@ 1087
Nin@@ 1087
Tes@@ 1087
Vit@@ 1087
Vor@@ 1087
din@@ 1087
phy@@ 1087
ix@@ 1086
mf@@ 1086
owski 1086
тури 1086
EG 1085
Nova 1085
Week 1085
tre@@ 1085
volution 1085
хори@@ 1085
Index 1084
Johnson 1084
True 1084
Zeitung 1084
5. 1083
BL 1083
Magn@@ 1083
Sign@@ 1083
Studies 1083
Tech@@ 1083
duc@@ 1083
Produc@@ 1082
Stage 1082
ju@@ 1082
сата 1082
Monster 1081
bri@@ 1081
cho@@ 1081
org 1081
mail 1080
Hyper@@ 1079
UM@@ 1079
ban@@ 1079
net@@ 1079
rot@@ 1079
თ@@ 1079
where 1078
UP 1077
ational 1077
eless 1076
mol@@ 1076
ono 1076
бира 1076
RAF 1075
xy 1075
ais 1074
lie 1074
news 1074
aming 1073
ev 1073
ources 1073
Fir@@ 1072
Sport@@ 1072
fic 1072
загу@@ 1072
MO 1071
WC 1071
folia 1071
Wild@@ 1070
o.@@ 1070
point 1070
Chap@@ 1069
Gate 1069
Kas@@ 1069
bol@@ 1069
icz 1069
Bug@@ 1068
Map@@ 1068
pur@@ 1068
try 1068
was 1068
Phil@@ 1067
Yor@@ 1067
illy 1067
Francisco 1066
Tap@@ 1066
agon@@ 1066
iva 1066
Лове@@ 1066
Flam@@ 1065
get 1065
ord 1065
Coc@@ 1064
ores 1064
wor@@ 1063
ален 1063
ҡ@@ 1063
Green@@ 1062
Wr@@ 1062
ort 1061
PE 1060
eer 1060
emb@@ 1060
rain 1060
0,000 1058
Mov@@ 1058
istr@@ 1058
ments 1058
ð@@ 1058
mun@@ 1057
tek 1057
дава 1057
ologie 1056
ids 1055
ż@@ 1055
Mand@@ 1054
ef 1054
media 1054
Body 1053
dol@@ 1053
Race 1052
UF@@ 1052
etti 1052
Bun@@ 1051
ROM 1051
ври 1051
Centr@@ 1050
Lem@@ 1050
arium 1050
oon 1050
езе@@ 1050
MV 1049
iro 1049
orus 1049
Light@@ 1048
Whe@@ 1048
start 1048
клас 1048
enz@@ 1047
oke 1047
Dawn 1046
tura 1046
поет 1046
Morgan 1045
Rail 1045
ged 1045
ho 1045
lit@@ 1045
Gran@@ 1044
Jour@@ 1043
Master@@ 1043
ret@@ 1043
Circle 1042
Day@@ 1042
Domin@@ 1042
Fran@@ 1042
ball 1042
ku 1042
зите 1042
стои 1042
Hit 1041
Jackson 1041
Jagu@@ 1041
mus 1041
qua 1041
Kl@@ 1040
map@@ 1040
Bio@@ 1039
Castle 1039
Key@@ 1039
iti 1039
nis 1039
Mam@@ 1038
AK 1037
Avi@@ 1037
Lis@@ 1037
asa 1037
Industry 1036
ilis 1036
hab@@ 1035
kins 1035
pon@@ 1035
Sto@@ 1034
eck@@ 1034
other 1034
Donn@@ 1033
S.A. 1033
oceph@@ 1033
индиви@@ 1033
Las@@ 1032
Sex@@ 1032
Viol@@ 1032
действа 1032
BB@@ 1031
ign 1030
sit@@ 1030
ér@@ 1030
Fantas@@ 1029
medi@@ 1029
Boy@@ 1028
ires 1028
Hell@@ 1027
Illustr@@ 1027
Season 1027
Education 1026
any 1026
cs 1026
Crystal 1025
icial 1025
ities 1025
vis 1025
ID@@ 1024
Jac@@ 1024
ango 1024
hion 1024
weight 1024
Drag@@ 1023
Order 1023
Orig@@ 1023
anz@@ 1023
azi@@ 1023
lon 1023
odes 1023
йто 1023
Ear@@ 1022
Flying 1022
HR 1022
ony@@ 1021
Atlas 1020
aco 1020
ple 1020
Ful@@ 1019
Civ@@ 1017
Coast 1017
onen 1017
layer 1016
Херман 1016
aro@@ 1015
sm@@ 1015
uta 1015
Library 1014
Down@@ 1013
Italia 1013
cy@@ 1013
nig@@ 1013
adr@@ 1012
eli 1012
kard 1012
unter 1012
BT@@ 1011
Coca 1011
Common 1011
PhD 1011
res 1011
Fron@@ 1010
185@@ 1009
Revol@@ 1009
gal@@ 1009
õ@@ 1009
A4 1008
Premier 1008
Triple 1008
ר@@ 1008
Kid 1007
Mob@@ 1007
bia 1007
fe 1007
Natur@@ 1006
Soc@@ 1006
мъ@@ 1006
Broadcasting 1005
Dy@@ 1005
fu@@ 1004
Crown 1003
Dest@@ 1003
Information 1003
LD 1003
Tou@@ 1003
kom@@ 1003
ental 1002
tem@@ 1002
β@@ 1002
IA@@ 1001
Pter@@ 1001
bit@@ 1001
jo@@ 1001
Another 1000
Clar@@ 1000
PT 1000
Wolf 1000
esc@@ 1000
като 1000
Latin 999
Style 999
ous@@ 999
pedia 999
town 999
Second 998
Pel@@ 997
RE 997
aca 997
illus 997
ion@@ 997
ӏ@@ 997
Language 996
Shin@@ 996
dem@@ 996
eni 996
ild 996
Liter@@ 995
pic@@ 995
2- 994
Brit@@ 994
ater 994
Base 993
Gibson 993
acc@@ 993
mis@@ 992
pil@@ 992
ticus 992
вече 992
מ@@ 992
Mill@@ 991
endron 991
kin@@ 991
ocer@@ 991
tum 991
gre@@ 990
hom@@ 989
″ 989
Key 988
PD@@ 988
vil@@ 988
BT 987
BW@@ 987
EF@@ 987
Emp@@ 987
Li 987
Musical 987
Northern 987
Sanc@@ 987
dem 987
Eg@@ 986
apo@@ 986
Has@@ 985
Jr 985
Kol@@ 985
word 985
Bru@@ 984
Det@@ 984
Ses@@ 984
Week@@ 984
uk 984
Dou@@ 983
GR@@ 983
् 983
Cold 982
arc@@ 982
eller 982
‒ 982
Carl 981
Globe 981
Punk 981
ario 981
Bau@@ 980
Ji@@ 980
States 980
chil@@ 980
вени 980
pat@@ 979
Andr@@ 978
Jud@@ 978
Lord 978
fen@@ 978
Pom@@ 977
fre@@ 977
туга@@ 977
Scott 976
archiv@@ 976
ned 976
vor@@ 976
ր@@ 976
DL 975
ner@@ 975
Math@@ 974
by@@ 974
cep@@ 974
ité 974
фрай@@ 974
ize 973
usa 973
Hammer 972
Industrial 972
gro@@ 972
Jesus 971
uri 971
Fem@@ 970
SU 970
lag 970
this 970
Vita 969
aa 969
nic@@ 969
Lamb@@ 968
Tab@@ 968
chen 968
ency 968
lies 968
Ö@@ 968
Exper@@ 967
aru 967
Slam 966
asis 966
bin@@ 966
ა 966
Xen@@ 964
fa@@ 964
ges 964
÷ 964
Bil@@ 963
ems 963
gio 963
onds 963
EV@@ 962
Re 962
Instrum@@ 961
Mathemati@@ 961
Ry@@ 961
XT 961
enger 961
2.2 960
Bus 960
frame 960
metal 960
osis 960
CEO 959
O. 959
var 959
Bad@@ 958
Call@@ 958
SAR@@ 958
buch 958
nam@@ 958
tan 958
π 958
реца 958
GN@@ 957
Roland 957
ode 957
DL@@ 956
zo@@ 956
Alternative 955
Taylor 955
зони 955
HF 954
Ruby 954
zur 954
Af@@ 953
Syst@@ 953
ule 953
Set 952
Sno@@ 952
oh 952
187@@ 951
H2@@ 951
Ox@@ 951
Was 951
jet 951
rem@@ 951
ric@@ 951
Eastern 950
away 950
err@@ 950
tual 950
Ric@@ 949
lands 949
nor@@ 949
Church 948
ici 948
win@@ 948
гва 948
link 947
Δ@@ 947
Horse 946
PI@@ 946
Walk 946
ilia 946
mos@@ 946
orn 946
Citi@@ 945
top@@ 945
vers@@ 945
цего@@ 944
Pra@@ 943
Sap@@ 943
elia 943
imi 943
isco 943
189@@ 942
Nat@@ 942
Temp@@ 942
uti@@ 942
живе@@ 942
Joy 941
nith@@ 941
Kh@@ 940
Tiger 940
aker 940
Winter 939
itation 939
odon@@ 938
sk 938
Cri@@ 937
Num@@ 937
rup@@ 937
ulata 937
Хенри 937
чата 937
yl 936
брово 936
Equ@@ 935
Faith 935
agn@@ 935
муници@@ 935
Work 934
asp@@ 934
дружина 934
Swe@@ 933
ów 933
Варна 933
arm@@ 932
tle 932
South@@ 930
wil@@ 930
Whitney 929
Te 928
ú 928
Glo@@ 927
Low 927
nus 927
ל@@ 927
Plaza 926
isch@@ 926
Writ@@ 925
begin 925
kan@@ 925
˚ 925
Lion 924
dy@@ 924
urn@@ 924
Chang@@ 923
cal 923
By@@ 922
Ham@@ 922
Hong 922
Port 922
ques 922
vul@@ 922
Lan@@ 921
Trou@@ 921
һ@@ 921
Psy@@ 920
Son 920
ka@@ 920
sap@@ 920
ҙ@@ 920
Maxim@@ 919
ering 919
ieve 919
master 919
ologue 919
rent 919
May 918
Sv@@ 918
Той 918
En 917
any@@ 917
Glass 916
Professional 916
eling 916
pour 916
чва 916
Big@@ 915
Impact 915
dei 915
eter 915
Water@@ 914
Макар 914
agus 913
bal 913
австра@@ 913
Geschichte 912
Simon 912
dex 912
ellus 912
other@@ 912
ε 912
Fed@@ 911
Program 911
él@@ 911
Aph@@ 910
Bou@@ 910
Vil@@ 910
бойни 910
лишком 910
Around 909
Ober@@ 909
Work@@ 909
bury 909
iny 909
vari@@ 909
Левски 909
უ@@ 909
Activ@@ 908
Eli@@ 908
agon 907
ald 907
ats@@ 907
Hein@@ 906
His 906
ancing 906
omor@@ 906
ходи 905
Um@@ 904
bach 904
dol 904
py@@ 904
186@@ 903
Dal@@ 903
Rush 903
arch 903
dom 903
zz@@ 903
λ 903
Deb@@ 902
Her 902
Seg@@ 902
Board 901
Nas@@ 901
WW@@ 901
card 901
ool 901
sons 901
Urban 900
ón 900
ש@@ 900
Pharm@@ 899
Daniel 898
Tol@@ 898
olls 898
server 898
184@@ 897
კ@@ 897
watch 896
ī 896
Flu@@ 895
Ot@@ 895
Spo@@ 895
val 895
ventures 895
шинг@@ 895
Commun@@ 894
NY@@ 894
kal@@ 894
tiv@@ 894
eman 893
дебе@@ 893
ո@@ 893
Cab@@ 892
bro@@ 892
les@@ 892
KV@@ 891
Ras@@ 891
crip@@ 891
mb@@ 891
江@@ 891
Culture 890
Wes@@ 890
eki 890
ump 890
└ 890
enne 889
Jane 888
bil@@ 888
és 888
Contemporary 887
Inst@@ 887
Stadium 887
Without 887
asc@@ 887
tec@@ 887
ския 887
Brach@@ 886
Major 886
edia 886
imo 886
ique 886
kor@@ 886
amer 885
ann 885
cc 885
iger 885
ji@@ 885
kings 885
UK@@ 884
онат 884
Transport 883
alls 883
force 883
hat@@ 883
Bob 882
Law 882
Spring 882
Zen@@ 882
let@@ 882
ment@@ 882
ui 882
xi 882
Tex@@ 881
iser 881
kit 881
Manager 880
მ@@ 880
End@@ 879
Food 879
Stand@@ 879
UR 879
Dim@@ 878
fal@@ 878
like 878
ogr@@ 878
Ind@@ 877
Jan@@ 877
UA 877
dec@@ 877
live 877
sia 877
Buc@@ 876
Mass@@ 876
Nord@@ 876
war 876
INE 875
Myster@@ 875
bert 875
Beth@@ 874
Conference 874
Jer@@ 874
Tam@@ 874
fish 874
даде 874
шите 874
Imp@@ 873
Version 873
ographic 873
werk 873
Hat@@ 872
Sou@@ 872
sem@@ 872
wan@@ 872
KS 871
toon 871
покин@@ 871
Rep@@ 870
Valent@@ 870
berry 870
ń@@ 870
Fur@@ 869
Mont@@ 869
eds 869
лира 869
Other 868
p.@@ 868
Голя@@ 868
Танзания 868
Agr@@ 867
Challenger 867
esti 867
uh@@ 867
окупа@@ 867
დ@@ 867
Victor 866
тима 866
Pet@@ 865
Société 865
oir 865
pard 865
prim@@ 865
брой 865
Kil@@ 863
gia 863
iens 863
onna 863
Harmon@@ 862
Hun@@ 862
ls 862
mati@@ 862
Adam 861
Kad@@ 861
Mich@@ 861
Non 861
dea 861
Fig@@ 860
Stra@@ 860
WH@@ 860
Rab@@ 859
Rand@@ 859
Ye@@ 859
oy 859
Пие@@ 859
kers 858
water 858
Africa 857
ank 857
Cot@@ 856
Prime 856
Wiz@@ 856
Butter@@ 855
Cic@@ 855
Flight 855
Gri@@ 855
Through 855
Forest 854
Frank 854
Intel@@ 854
Plan 854
fac@@ 854
lec@@ 854
ris 854
山@@ 854
郡 854
Championships 853
Clo@@ 853
Mg@@ 853
Nap@@ 853
δ 853
вила@@ 853
десе@@ 853
Lanc@@ 852
cz@@ 852
ансам@@ 852
Angels 851
Unit 851
bs 851
ising 851
Nacional 850
Ni 850
UE@@ 850
wer 850
AZ 849
Riv@@ 849
ave@@ 849
nov@@ 849
ben 848
class 848
tha 848
WT@@ 847
din 847
Скоро 847
Art@@ 846
Medical 846
par 846
заги@@ 846
Un 845
eno 845
ismo 845
ports 845
HK 844
запла@@ 844
sh 843
ungen 843
Mayer 842
acia 842
oper@@ 842
година 842
ב@@ 842
etes 841
eva 841
мре@@ 841
Field 840
西@@ 840
Lun@@ 839
Stat@@ 839
eur 839
Change 838
Community 838
ED 838
Tournament 838
kel 838
Велико 838
ark@@ 837
ation@@ 837
band 837
eng 837
Gang 836
Guil@@ 836
Cass@@ 835
Mé@@ 835
Sep@@ 835
Marine 834
Miss@@ 834
UN 834
elin 834
6. 833
Film@@ 833
Mission 833
cell@@ 833
Ach@@ 832
Doc@@ 832
Gran 832
SH 832
iz 832
Α@@ 832
Kre@@ 831
SV 831
Tok@@ 831
ift 831
tress 831
yer 831
Cooper 830
Irish 830
bus@@ 830
ö 830
Ale@@ 829
HA 829
Warri@@ 829
lett 829
tos 829
olor 828
лъ@@ 828
Fund 827
Tin@@ 827
ceph@@ 827
een 827
irus 827
ките 827
Sam 826
Stand 826
Vin@@ 826
gy 826
Strat@@ 825
doc@@ 825
ej@@ 825
eti 825
fic@@ 825
imb@@ 825
sing 825
ère 825
Europa 824
Kot@@ 824
kan 824
府 824
1,4@@ 823
EL 823
cum 823
зъ@@ 823
Mi 822
TNA 822
nier 822
AU 821
Develop@@ 821
ador 821
bot@@ 821
fest 821
zer 821
BM 820
Doctor 820
Nan@@ 820
Pierre 820
Together 820
anthus 820
esi 820
Bird 819
Fres@@ 819
Block 818
Bros. 818
Dru@@ 818
БКП 818
Hand 817
Non@@ 817
tex 817
unt 817
новски 817
ows 816
pas@@ 816
Gy@@ 815
Kap@@ 815
Performance 815
Rap 815
Scr@@ 815
ingu@@ 815
lab@@ 815
omi 815
ond 815
sat 815
Neur@@ 814
Pok@@ 814
Rid@@ 814
aki 814
aul@@ 814
bu 814
qui 814
syl@@ 814
Encyclo@@ 813
ig 813
Front 812
Indian 812
Theory 812
ders 812
pper 812
Charts 811
Commer@@ 811
Phan@@ 811
ator@@ 811
els@@ 811
esh 811
rier 811
ларов 811
Building 810
ape 810
Cou@@ 809
Hop@@ 809
eil 809
ras@@ 809
окол@@ 809
Cyc@@ 808
Liberty 808
Pau@@ 808
Shanghai 808
Test 808
ember 808
rus@@ 808
Council 807
Mix@@ 807
Ner@@ 807
ecr@@ 807
edo 807
film 807
lus 807
olus 807
DT 806
Petr@@ 806
Trich@@ 806
height 806
oder@@ 806
version 806
Cav@@ 805
avi@@ 805
love 805
nem@@ 805
Бито@@ 805
Karl 804
Knight 804
Lt@@ 804
PD 804
Single 804
Temple 804
Before 803
Pyr@@ 803
Rac@@ 803
ason 803
ete 803
plic@@ 803
tron 803
asure 802
They 801
VP 801
oud 801
plus 801
sch 801
∙ 801
Gul@@ 800
Wood@@ 800
esse 800
illac 800
kel@@ 800
Hab@@ 799
Music@@ 799
Phoenix 799
Plas@@ 799
eth@@ 799
Ед@@ 799
CB 798
Sco@@ 798
Zi@@ 798
asy@@ 798
Grammy 797
J. 797
achi 797
cial 797
tors 797
деца 797
Den 796
Forum 796
Him@@ 796
pra@@ 796
ř@@ 796
Fat@@ 795
isch 795
נ@@ 795
1,5@@ 794
Hope 794
Lad@@ 794
ames 794
oli 794
ott 794
ps@@ 794
è 794
大@@ 794
Aeg@@ 793
fall 793
ingo 793
prises 793
space 793
ה@@ 792
pot@@ 791
spir@@ 791
ł 791
жата 791
← 791
Imperial 790
Jimmy 790
Mind@@ 790
Sher@@ 790
agr@@ 790
chen@@ 790
culus 790
lad@@ 790
Стоянов 790
emy 789
ider@@ 789
тиран 789
Scot@@ 788
atom@@ 788
поне 788
3.1 787
Mike 787
England 786
NH 786
Premi@@ 786
Sci@@ 786
station 786
Hospital 785
acker 785
anger@@ 785
enge 785
phon@@ 785
rich@@ 785
rock 785
Archi@@ 784
Illus@@ 784
ector 784
mec@@ 784
rey 784
w.@@ 784
Ек@@ 784
закри@@ 784
щат@@ 784
Grace 783
MR 783
Railroad 783
nd@@ 783
now@@ 783
rop@@ 782
án@@ 782
1st 781
Dut@@ 781
Gil@@ 781
Las 781
Sten@@ 781
child 781
ylus 781
Chan@@ 780
Fiction 780
Formula 780
eu 780
iidae 780
Gas@@ 779
Gem@@ 779
Main 779
aku 779
ht@@ 779
Et@@ 778
actylus 778
ogy 778
week 778
н.в. 778
Exchange 777
Sti@@ 777
udi@@ 777
wa@@ 777
ν 777
Pier@@ 775
Se 775
борда 775
Arthur 774
Milli@@ 774
Dag@@ 773
Environ@@ 773
Some 773
gic 772
uni@@ 772
Cus@@ 771
eld 771
onom@@ 771
ufac@@ 771
Dé@@ 770
Professor 770
state 770
tric@@ 770
ничка 770
Princess 769
olo 769
ulu 768
Johnny 767
lim 767
min 767
Lau@@ 766
MB 766
izer 766
ording 766
sl@@ 766
Austin 765
Tos@@ 765
eros 765
ester 765
nit@@ 765
phi 765
utions 765
Wonder 764
burg 764
ills 764
lion 764
Ι@@ 764
Flora 763
anna 763
Sus@@ 762
off@@ 762
rif@@ 762
sy 762
Á@@ 762
приятел@@ 762
ს 762
Hydro@@ 761
ading 761
estruc@@ 761
one@@ 761
ár@@ 761
Bay@@ 760
Euc@@ 760
Jan 760
cit@@ 760
eto 760
Euro 759
Tac@@ 759
Tow@@ 759
Wer@@ 759
ili 759
room 759
капа@@ 759
Integr@@ 758
Private 758
oti@@ 758
Gh@@ 757
Sak@@ 757
Русе 757
anta 756
eper 756
бере 756
Les@@ 755
ough@@ 755
AO 754
Broad@@ 754
Tony 754
mont 754
proc@@ 754
Nom@@ 753
aut 753
bers 753
nik@@ 753
sta 753
ues 753
wen@@ 753
Bristol 752
Corn@@ 752
UB@@ 752
Chev@@ 751
Pass 751
Small 751
Tat@@ 751
cent@@ 751
idi 751
Изра@@ 751
ե@@ 751
Holy 750
Nec@@ 750
N. 749
Palace 749
Rog@@ 749
ischer 749
mir@@ 749
̯ 749
Path@@ 748
Rally 748
ahi 748
интерв@@ 748
1.6 747
Chris 747
Harper 747
Head@@ 747
amer@@ 747
ebo@@ 747
nen 747
onica 747
à@@ 747
Aff@@ 746
Sierra 746
your 746
BN 745
Baz@@ 745
Captain 745
Neg@@ 745
ben@@ 745
eles 745
ith@@ 745
Legacy 743
Sinc@@ 743
Amp@@ 742
Rio 742
Spi@@ 742
oug@@ 742
ums 742
Justice 741
LED 741
Or 741
elo 741
ilk 741
load 741
sar@@ 741
wing 741
F. 740
Stap@@ 740
Tell 740
systems 740
Bill 739
ij@@ 739
én@@ 739
Hap@@ 738
Neue 738
Pav@@ 738
cos@@ 738
work 738
Bar 737
Bon 737
som@@ 737
tam@@ 737
än@@ 737
Lag@@ 736
Late 736
dre@@ 736
heim 736
inal 736
legi@@ 736
lower 736
chus 735
hol@@ 735
lim@@ 735
sha 735
обща 735
Asian 734
Walter 734
endi 734
iko 734
iri 734
itz@@ 734
Gas 733
Hay@@ 733
Pod@@ 733
ayer 733
fil@@ 733
illing 733
micro@@ 733
sters 733
vin 733
ФСР 733
Ain 732
eler 732
isters 732
oe 732
sed 732
Bak@@ 731
Eric 731
McDonald 731
Voy@@ 731
lair 731
prin@@ 731
Fine 730
Ski@@ 730
jas 730
lan 730
Capr@@ 729
Co. 729
Gamb@@ 729
ocy@@ 729
ô@@ 729
Gau@@ 728
Histoire 728
Pach@@ 728
chester 728
isi 728
Inf@@ 727
King@@ 727
ram@@ 727
Ph.@@ 726
amework 726
anti 726
vol 726
Anna 725
Ki 725
Symphony 725
dar@@ 725
ancer 724
tern@@ 724
ution 724
wh@@ 724
è@@ 724
Dyn@@ 723
Via 723
селище 723
isha 722
press 722
ron@@ 722
Police 721
asse 721
gun 721
1,8@@ 720
Fame 720
Grav@@ 720
Lind@@ 720
Memorial 720
Syl@@ 720
angu@@ 720
flu@@ 720
Virginia 719
beat 719
hic 719
park 719
179@@ 718
Bow@@ 718
Brow@@ 718
Guy 718
Verlag 718
bon@@ 718
dus 718
ingen 718
mare 718
usion 718
ански 718
лети 718
1,6@@ 717
Mn@@ 717
Olymp@@ 717
SQ@@ 717
oku 717
sul@@ 717
1,3@@ 716
Nau@@ 716
Pascal 716
aeus 716
Ca 715
Cath@@ 715
Duke 715
1,7@@ 714
1- 714
Bloom@@ 714
Michel 714
Stic@@ 714
Tru@@ 714
ectus 714
imus 714
мове 714
Buz@@ 713
UC 713
aton 713
emati@@ 713
odo@@ 713
wel@@ 713
чани 713
After@@ 712
Ce@@ 712
Ken@@ 712
Korea 712
March 712
OT@@ 712
ean 712
kus 712
Canal 711
Inv@@ 711
Sens@@ 711
iting 711
Cham@@ 710
Jung@@ 710
Mine 710
Steve 710
Unic@@ 710
hem 710
vic 710
щане 710
Hall@@ 709
Rain@@ 709
auf 709
enberg 709
yr 709
стокра@@ 709
Cow@@ 708
Nob@@ 708
abilis 708
cel 708
ê@@ 708
ş@@ 708
Deutschland 707
Pf@@ 707
dan 707
free 707
Carl@@ 706
Person@@ 706
Sent@@ 706
Tob@@ 706
tres 706
Ny@@ 705
Pand@@ 705
Ray@@ 705
atsu 705
avo 705
sche 705
tut@@ 705
Tot@@ 704
aqu@@ 704
plat@@ 704
wei 704
Golf 703
Vide@@ 703
aut@@ 703
eau 703
ŋ 703
Sin 702
ball@@ 702
math 702
nav@@ 702
rang 702
uo 702
ците 702
Belle 701
Champions 701
Gang@@ 701
Nielsen 701
dur 701
oll 701
ĕ@@ 701
Ay@@ 700
Construction 700
JR 700
hon@@ 700
itus 700
lang 700
tima 700
but 699
etto 699
icide 699
pec@@ 699
shop 699
ü 699
ω 699
нска 699
Cum@@ 698
Di 698
Jordan 698
aar 698
Vik@@ 697
Will@@ 697
Wir@@ 697
ichi 697
Antonio 696
bow 696
eci@@ 696
properties 696
¼ 696
обору@@ 696
Oxford 695
Tik@@ 695
ease 695
okie 695
sam@@ 695
uls 695
ό@@ 695
1.3 694
Heli@@ 694
NBA 694
bir@@ 694
gate 694
kur@@ 694
edy 693
icon@@ 693
ird 693
vec@@ 693
enni@@ 692
oid 692
phyl@@ 692
ules 692
Hir@@ 691
Rod@@ 691
acea 691
dans 691
nar@@ 691
och 691
que@@ 691
σ 691
басе@@ 691
Bed@@ 690
Philosoph@@ 690
system 690
Aud@@ 689
Metro@@ 689
Zealand 689
lio 689
post 689
Track 688
aw 688
eton 688
vis@@ 688
vival 688
lib@@ 687
s. 687
Христов 687
aba 686
aders 686
ano@@ 686
eas@@ 686
® 686
жни 686
Europ@@ 685
Nem@@ 685
PF 685
ager 685
idal 685
rap@@ 685
Albert 684
Brian 684
Kno@@ 684
Orth@@ 684
Suc@@ 684
atur@@ 684
esh@@ 684
trav@@ 684
öl@@ 684
have 683
ises 683
omys 683
Ç@@ 683
Historia 682
Nord 682
Quer@@ 682
Trade 682
Йордан 682
7. 681
Ins@@ 681
Monde 681
stell@@ 681
ն@@ 681
Bowl 680
Christi@@ 680
Chry@@ 680
Sag@@ 680
bar 680
iday 680
宁@@ 680
AH 679
Chrom@@ 679
Hydr@@ 679
oli@@ 679
ths 679
Ё 679
Музи@@ 679
Kaz@@ 678
ital 678
opp@@ 678
чрез 678
Edward 677
Ok@@ 677
Tag 677
Vie@@ 677
cio 677
ening 677
hiz@@ 677
pas 677
test 677
Николов 677
8. 676
Number 676
bie 676
bra@@ 676
ements 676
enter 676
lip 676
til 676
Archit@@ 675
Bran@@ 675
Friedrich 675
Ma 675
Mun@@ 675
Third 675
egel 675
plan@@ 675
ע@@ 675
გ@@ 675
Aster@@ 674
How@@ 674
iliz@@ 674
ples 674
single 674
тивна 674
Gig@@ 673
engers 673
len 673
ος 673
etc 671
event@@ 671
gin@@ 671
japon@@ 670
vid@@ 670
Phyl@@ 669
ini@@ 669
mic 669
sac@@ 669
Most 668
Polo 668
Round 668
a. 668
gel@@ 668
oter 668
wo 668
Euro@@ 667
Market 667
Sid@@ 667
Yo 667
ancia 667
ява 667
9. 666
Lincoln 666
ς 666
Neb@@ 665
Satell@@ 665
ece 665
phil@@ 665
uss 665
Get@@ 664
Itali@@ 664
Mik@@ 664
dur@@ 664
polit@@ 664
Snow 663
Tun@@ 663
cri@@ 663
kol@@ 663
ought 663
pi 663
rod@@ 663
ако 663
Ant@@ 662
Oxy@@ 662
Rat@@ 662
alg@@ 662
ardi 662
upp@@ 662
ación 661
aud@@ 661
eni@@ 661
has 661
тед 661
Acanth@@ 660
Christ@@ 660
Viv@@ 660
agen 660
aine 660
dell 660
trop@@ 660
It@@ 659
Polic@@ 659
board 659
oker 659
thm 659
Kun@@ 658
Quar@@ 658
Trans 658
ial 658
rd 658
river 658
Cambridge 657
Ey@@ 657
Vegas 657
ight@@ 657
ils 657
tol@@ 657
ï@@ 657
ː@@ 657
Agency 656
Germany 656
Grey 656
Mart@@ 656
RN@@ 656
Six@@ 656
Tul@@ 656
oro 656
tram@@ 656
име 656
Garr@@ 655
arti@@ 655
atidae 655
bon 655
37.@@ 654
fle@@ 654
got@@ 654
mon 654
ӑ@@ 654
0.0 653
Dra@@ 653
EE 653
Ka 653
Soccer 653
ayo 653
eber 653
ists 653
mes@@ 653
Luci@@ 652
чело 652
Cycl@@ 651
Dad@@ 651
Resp@@ 651
Wiki@@ 651
Wright 651
ock@@ 651
Boh@@ 650
erra 650
onal@@ 650
атем 650
Dan 649
Kind 649
Strateg@@ 649
ej 649
sult@@ 649
č 649
Тодор 649
Cant@@ 648
oga 648
ogo 648
Emb@@ 647
Esp@@ 647
Lang@@ 647
adies 647
alis@@ 647
alli@@ 647
dro@@ 647
isches 647
ocol@@ 647
Alan 646
Elizabeth 646
Hans 646
Lot@@ 646
Rail@@ 646
Rich 646
liche 646
osper@@ 646
å 646
Atom@@ 645
Berg@@ 645
Vamp@@ 645
amo 645
former 645
ky@@ 645
Monte 644
aj 644
far@@ 644
ken@@ 644
oking 644
soni 644
sv@@ 644
城@@ 644
Mechan@@ 643
Ε@@ 643
θ 643
Rou@@ 642
Short 642
idel@@ 642
major 642
ternal 642
umb@@ 642
вобо@@ 642
итога@@ 642
34.@@ 641
Buil@@ 641
gan@@ 641
Пловдив 641
Alex 640
asi 640
bil 640
isis 640
nat@@ 640
vus 640
Ню 640
излож@@ 640
Israel 639
ability 639
bet@@ 639
μ 639
Пёт@@ 639
ската 639
Commander 638
Pad@@ 638
ige 638
lov@@ 638
ogie 638
rie 638
L4 637
Luf@@ 637
Sev@@ 637
aud 637
gol@@ 637
plo@@ 637
tain@@ 637
Neu@@ 636
Real@@ 636
Sax@@ 636
ablo 636
ait 636
elt 636
onau@@ 636
голя@@ 636
Alp@@ 635
Elek@@ 635
Ground 635
letin 635
зеку@@ 635
0.5 634
Grap@@ 634
Lav@@ 634
Phy@@ 634
age@@ 634
fes@@ 634
grap@@ 634
lau@@ 634
yan 634
ien 633
юни 633
Billy 632
ede 632
K. 631
Liz@@ 631
gon 631
ives 631
ont 631
ο 631
кови 631
3- 630
Cast@@ 630
Kel@@ 630
RN 630
Vu@@ 630
Yu@@ 630
chem@@ 630
eur@@ 630
tar 630
статут 630
Chili 629
Fru@@ 629
Gru@@ 629
Kos@@ 629
aug@@ 629
elly 629
зва 629
Fast 628
Juan 628
ame@@ 628
new@@ 628
uni 628
Chase 627
Gesellschaft 627
Human@@ 627
ashi 627
iff 627
radi@@ 627
исля@@ 627
Airport 626
Case 626
aze 626
pos 626
École 626
ý 626
φ 626
Middle 625
Roman 625
auer 625
cam@@ 625
rix 625
uca 625
ungs@@ 625
uno 625
über 625
седми@@ 625
José 624
Morris 624
alen 624
erg@@ 624
mad@@ 624
1.4 623
Anci@@ 623
Andrew 623
Bath@@ 623
Cher@@ 623
Fav@@ 623
dow 623
ucci 623
ven 623
Comput@@ 622
Foreign 622
Start 622
dal@@ 622
fo 622
Nes@@ 621
Nick 621
Ré@@ 621
date 621
fast 621
iles 621
itude 621
onas 621
spec@@ 621
ston 621
tot@@ 621
Blan@@ 620
ching 620
unk 620
za@@ 620
Florida 619
Grande 619
Peg@@ 619
oc 619
tional 619
Clu@@ 618
amen 618
assi@@ 618
bium 618
will 618
Du 617
Warriors 617
Wind@@ 617
aly@@ 617
este 617
vas@@ 617
вци 617
ה 617
Bibli@@ 616
Frag@@ 616
Hus@@ 616
alist 616
bac@@ 616
otes 616
Bes@@ 615
Nag@@ 615
Rhin@@ 615
Tor 615
eze 615
pter@@ 615
4.5 614
Ernst 614
Wide 614
hel@@ 614
hum@@ 614
CON@@ 613
Defense 613
Jam@@ 613
Prin@@ 613
isp@@ 613
power 613
xa 613
Anti 612
Zel@@ 612
andra 612
font 612
igen@@ 612
mania 612
melan@@ 612
yon 612
стите 612
But 611
Once 611
hood 611
є 611
Davis 610
Ukraine 610
eleg@@ 610
uck@@ 610
º 610
Σ@@ 610
の@@ 610
Sach@@ 609
Toy@@ 609
amin@@ 609
antum 609
buc@@ 609
lus@@ 609
ré@@ 609
tz 609
Economic 608
Rein@@ 608
Suzuki 608
show 608
Did@@ 607
Sir 607
ult@@ 607
едно@@ 607
τ@@ 606
Chamber 605
Command 605
Miller 605
alog@@ 605
istry 605
rol@@ 605
0.1 604
Fon@@ 604
Kim 604
ances 604
ende 604
ography 604
tron@@ 604
vie 604
ტ@@ 604
族@@ 604
Crow@@ 603
enf@@ 603
ד@@ 603
Madonna 602
Trag@@ 602
Volks@@ 602
ldwide 602
mut@@ 602
дарение 602
Kelly 601
Stein@@ 601
chia 601
● 601
Diam@@ 600
alism 600
bro 600
ymn@@ 600
Hudson 599
Jur@@ 599
Nic@@ 599
Pour 599
Solo 599
cle 599
orn@@ 599
oter@@ 599
Plant@@ 598
tif@@ 598
осъ@@ 598
Area 597
Beta 597
Docum@@ 597
einer 597
phila 597
thus 597
umin@@ 597
zen@@ 597
Iv@@ 596
Jim 596
polis 596
äl@@ 596
Mr@@ 595
gig@@ 595
tac@@ 595
tico 595
trans@@ 595
versary 595
чите 595
ն 595
Austr@@ 594
Level 594
UE 594
building 594
ern 594
flav@@ 594
ges@@ 594
nes@@ 594
ularis 594
ствено 594
Gab@@ 593
emat@@ 593
ication 593
lose 593
mith@@ 593
wind 593
ничен 593
пите 593
Asi@@ 592
ded 592
flora 592
mar 592
nch@@ 592
verse 592
,000 591
Len@@ 591
lor@@ 591
ply 591
ricane 591
tique 591
î@@ 591
Ο@@ 591
1,9@@ 590
NY 590
Song@@ 590
Wid@@ 590
ствен 590
Alex@@ 589
Thor@@ 589
ju 589
ling@@ 589
ud 589
BK 588
Commons 588
Federal 588
Milit@@ 588
aster@@ 588
asti@@ 588
kill 588
san 588
Authority 587
Dum@@ 587
prise 587
tas@@ 587
¹ 587
ński 587
Drama 586
Gel@@ 586
Lept@@ 586
Medicine 586
Operation 586
car 586
otive 586
rant 586
van@@ 586
γ@@ 586
чов 586
Committee 585
endi@@ 585
mos 585
ophora 585
фелд 585
་ 585
38.@@ 584
Bass 584
Chinese 584
Wilhelm 584
def@@ 584
eting 584
onis 584
ophy@@ 584
rat 584
thor@@ 584
平@@ 584
Bahn 583
Sant@@ 583
Voc@@ 583
alo@@ 583
che@@ 583
return 583
soft 583
Arte 582
lar 582
list 582
Arab@@ 581
Highway 581
anne 581
aver 581
enes 581
imp@@ 581
vent@@ 581
ября 581
Palm 580
Wilson 580
пие 580
ქ@@ 580
Brand@@ 579
Cub@@ 579
Marc 579
Species 579
Sr@@ 579
Yan@@ 579
punc@@ 579
ved 579
Court 578
Shel@@ 578
aise 578
bes@@ 578
kn@@ 578
Jack@@ 577
antes 577
ept@@ 577
ero@@ 577
horn 577
rid 577
Differ@@ 576
afe 576
aç@@ 576
eka 576
ications 576
ked 576
ovo 576
part 576
werke 576
Academ@@ 575
Flor@@ 575
Marshall 575
NCA@@ 575
cos 575
kun@@ 575
see 575
Ü@@ 575
Carlos 574
DNA 574
andi 574
bab@@ 574
bin 574
eral 574
ext@@ 574
limited 574
wall 574
Горна 574
Int@@ 573
alla 573
dam@@ 573
eux 573
formis 573
inga 573
omer@@ 573
serv@@ 573
чита 573
Diego 572
Lane 572
alc@@ 572
ck@@ 572
ister@@ 572
lav@@ 572
lot 572
omb@@ 572
Alo@@ 571
Fif@@ 571
has@@ 571
kei 571
kov@@ 571
super@@ 571
Mama 570
Mount 570
heart 570
neg@@ 570
Å 570
ān 570
Bin@@ 569
Carlo 569
Chor@@ 569
Convention 569
acher 569
tered 569
ía 569
окупи@@ 569
Ein@@ 568
Johann 568
Venus 568
fi 568
lic@@ 568
oj@@ 568
vie@@ 568
Bern@@ 567
Dave 567
Hul@@ 567
code 567
ehouse 567
ffen 567
flor@@ 567
inn 567
orient@@ 567
undtrack 567
лни 567
Camp 566
Tetr@@ 566
Wing 566
asia 566
mission 566
rell 566
долу 566
Og@@ 565
edr@@ 565
mak@@ 565
sten 565
tab@@ 565
thouse 565
Fischer 564
Mud@@ 564
ombi@@ 564
virus 564
Asp@@ 563
Roger 563
cro@@ 563
illo 563
law 563
plan 563
true 563
Ә@@ 563
Ja@@ 562
Nos@@ 562
aur 562
inia 562
запаз@@ 562
шата 562
Manchester 561
Organization 561
oss 561
rise 561
syn@@ 561
wski 561
ylon 561
1.8 560
Princip@@ 560
anga 560
case 560
escens 560
han 560
ocarp@@ 560
ogen@@ 560
poly@@ 560
quar@@ 560
sum 560
Ou@@ 559
aking 559
gam@@ 559
inde@@ 559
neum@@ 559
stand 559
street 559
2.3 558
Thomson 558
Univers@@ 558
Ya 558
aded 558
adi 558
amba 558
asons 558
bius 558
cant@@ 558
tium 558
toc@@ 558
ʰ@@ 558
4- 557
Alle@@ 557
Compos@@ 557
Hung@@ 557
Innov@@ 557
Jun@@ 557
Philip 557
agu@@ 557
allen 557
dii 557
eland 557
tt@@ 557
Silver@@ 556
equ@@ 556
eter@@ 556
itis 556
model 556
Georgia 555
Ide@@ 555
Inter 555
dog 555
port@@ 555
Въ@@ 555
2,5@@ 554
Lap@@ 554
mani 554
pping 554
Sad@@ 553
gener@@ 553
lied 553
osum 553
tionary 553
ì 553
етата 553
нараст@@ 553
Ceph@@ 552
Vinc@@ 552
iana 552
unge 552
ę 552
Charlie 551
Harry 551
ND 551
Sali@@ 551
Sul@@ 551
ansa 551
dev@@ 551
говори 551
лно 551
Ah@@ 550
Hills 550
Institut 550
Neo 550
Team@@ 550
fort 550
leri 550
sid@@ 550
Bod@@ 549
Chir@@ 549
Dutch 549
olla 549
Abr@@ 548
Amar@@ 548
Aston 548
Concep@@ 548
ause 548
music@@ 548
vies 548
Бургас 548
Васил 548
African 547
Barr@@ 547
Franz 547
Wy@@ 547
anos 547
atti 547
cia 547
had 547
las@@ 547
≤ 547
Del 546
Finn@@ 546
Honor 546
Inn@@ 546
Institu@@ 546
Je 546
Lisa 546
Maf@@ 546
anza 546
sie 546
ą 546
ŋ@@ 546
Au 545
Brand 545
Identi@@ 545
Monum@@ 545
Within 545
graf@@ 545
quer@@ 545
yu 545
zer@@ 545
Nations 544
antas@@ 544
icked 544
iki@@ 544
nd 544
uza 544
варят 544
Byr@@ 543
KG 543
Quart@@ 543
cryp@@ 543
etz@@ 543
open 543
tn@@ 543
views 543
Law@@ 542
Lyn@@ 542
Nice 542
Tang@@ 542
elles 542
eron 542
natur@@ 542
nu 542
sho@@ 542
zum 542
стари 542
Early 541
Kim@@ 541
Kle@@ 541
October 541
Prof@@ 541
Telev@@ 541
oso 541
them 541
ć@@ 541
Evangel@@ 540
Franc@@ 540
Gn@@ 540
Mim@@ 540
iter 540
tii 540
Carolina 539
These 539
aint 539
ble@@ 539
dé@@ 539
ences 539
Champion 538
Lo 538
Way@@ 538
aber 538
ledge 538
mal 538
August 537
mand@@ 537
oko 537
oz 537
rh@@ 537
tific@@ 537
wagen 537
δ@@ 537
German 536
Leh@@ 536
Rund@@ 536
Sed@@ 536
Spin@@ 536
Stur@@ 536
eco 536
med@@ 536
tak@@ 536
Brid@@ 535
East@@ 535
Tax@@ 535
Ve@@ 535
lard 535
tures 535
пус@@ 535
Bomb@@ 534
Card@@ 534
Coupe 534
Orch@@ 534
Raz@@ 534
Villa 534
fied 534
ries 534
unter@@ 534
[...]
