. 0.8958164775504385
، 1
في 1
من 1
على 1
( 1
) 1
ب@@ 1
إلى 1
ل@@ 1
وال@@ 1
&quot; 0.4030996746301251
ي@@ 1
لل@@ 1
و@@ 1
الم@@ 1
أ@@ 1
ك@@ 1
أن 1
عام 1
هو 1
ه 1
و 1
ي 1
ت@@ 1
ه@@ 1
التي 1
مع 1
الت@@ 1
: 1
ف@@ 1
عن 1
أو 1
ين 1
الأ@@ 1
ها 1
ال@@ 1
ية 1
وي@@ 1
ح@@ 1
ة 1
غ@@ 1
كان 1
ما 1
وت@@ 1
د@@ 1
ش@@ 1
م@@ 1
إ@@ 1
ع@@ 1
ز@@ 1
الح@@ 1
ط@@ 1
ق@@ 1
م 1
هي 1
ج@@ 1
ت 1
سي@@ 1
بعد 1
الع@@ 1
ات 1
س@@ 1
ًا 1
المتحدة 1
ون 1
ص@@ 1
بين 1
بي@@ 1
وم@@ 1
لي@@ 1
« 1
» 1
الك@@ 1
ن@@ 1
ان 1
الق@@ 1
الذي 1
الس@@ 1
ر@@ 1
الج@@ 1
ث@@ 1
ذلك 1
في@@ 1
هذه 1
س 1
ري@@ 1
الف@@ 1
ك 1
هم 1
وا@@ 1
ع 1
ب 1
تم 1
لا 1
الن@@ 1
وأ@@ 1
ى 1
دي@@ 1
هذا 1
- 1
رو@@ 1
مي@@ 1
ف 1
وب@@ 1
الب@@ 1
رة 1
ان@@ 1
ق 1
ا 1
الص@@ 1
كانت 1
خ@@ 1
ر 1
حيث 1
را@@ 1
ولد 1
لة 1
لا@@ 1
والم@@ 1
ين@@ 1
ض@@ 1
@-@ 0.15500926481461183
عة 1
مة 1
قبل 1
د 1
الش@@ 1
الإ@@ 1
وقد 1
ته 1
ل 1
خلال 1
ور@@ 1
الولايات 1
ن 1
ار@@ 1
ح 1
ز 1
لو@@ 1
بن 1
ار 1
دي 1
ست@@ 1
كما 1
ير 1
ون@@ 1
دة 1
كل 1
الخ@@ 1
تر@@ 1
ول@@ 1
ذ@@ 1
وفي 1
تش@@ 1
قد 1
لم 1
سنة 1
ال 1
وق@@ 1
له 1
الد@@ 1
الر@@ 1
اً 1
است@@ 1
تي@@ 1
مع@@ 1
مثل 1
ني@@ 1
بة 1
يات 1
غير 1
من@@ 1
مو@@ 1
اب@@ 1
يا 1
تح@@ 1
وس@@ 1
وهو 1
عدد 1
لي 1
وج@@ 1
ور 1
وك@@ 1
مت@@ 1
كرة 1
رات 1
/ 1
حتى 1
اء 1
ج 1
سي 1
ّ@@ 1
مح@@ 1
تها 1
تم@@ 1
بر@@ 1
ط 1
تق@@ 1
ام@@ 1
المع@@ 1
لات 1
أكثر 1
ثم 1
كي@@ 1
غ 1
ام 1
ما@@ 1
يد 1
يل 1
أن@@ 1
حة 1
فر@@ 1
بي 1
الط@@ 1
ات@@ 1
لاعب 1
المح@@ 1
بعض 1
المملكة 1
اني 1
الغ@@ 1
أي 1
اد@@ 1
ود 1
ث 1
تو@@ 1
تف@@ 1
مر@@ 1
أمريكي 1
وا 1
يمكن 1
بن@@ 1
أنه 1
قة 1
تع@@ 1
جي@@ 1
اله@@ 1
وهي 1
زي@@ 1
نا@@ 1
بو@@ 1
الي@@ 1
لها 1
ُ@@ 1
– 0.6325240357253097
ول 1
تج@@ 1
فة 1
بشكل 1
ش 1
رية 1
ص 1
بع@@ 1
% 0.9787249310647463
قي@@ 1
وع@@ 1
مدينة 1
اف@@ 1
قدم 1
يت@@ 1
با@@ 1
وف@@ 1
عبد 1
بال@@ 1
ير@@ 1
ا@@ 1
اد 1
آ@@ 1
به 1
؛ 1
ري 1
أس@@ 1
بية 1
وكان 1
اع@@ 1
العديد 1
ني 1
مس@@ 1
لية 1
بها 1
تي 1
تص@@ 1
هي@@ 1
, 0.015073193999715363
اس@@ 1
يتم 1
وص@@ 1
يُ@@ 1
تك@@ 1
ود@@ 1
1 0.7356162496732087
حي@@ 1
يين 1
الاست@@ 1
أخرى 1
مل@@ 1
المن@@ 1
ند@@ 1
دية 1
إي@@ 1
مان 1
اب 1
اي@@ 1
نادي 1
المست@@ 1
سل@@ 1
مركز 1
شي@@ 1
والتي 1
ارة 1
أول 1
الز@@ 1
مجلس 1
القرن 1
وح@@ 1
فيها 1
بح@@ 1
حسب 1
مي 1
بد@@ 1
ظ@@ 1
تحت 1
ومن 1
مارس 1
بل@@ 1
مق@@ 1
عم@@ 1
عي 1
بار@@ 1
انية 1
الأول 1
عد@@ 1
عندما 1
هناك 1
عشر 1
2 0.7220746172896813
مج@@ 1
كي 1
لعب 1
ولكن 1
مار@@ 1
ائ@@ 1
بسبب 1
العالم 1
عل@@ 1
محمد 1
يق@@ 1
وية 1
مست@@ 1
عية 1
3 0.8566210469326978
مية 1
مص@@ 1
الذين 1
منها 1
يو@@ 1
تا@@ 1
وي 1
َ@@ 1
حول 1
المت@@ 1
منذ 1
يكون 1
الث@@ 1
الة 1
الله 1
تين 1
تن@@ 1
الأولى 1
أحد 1
منطقة 1
عات 1
تخ@@ 1
نة 1
وتوفي 1
العام 1
جميع 1
لت 1
عند 1
ض 1
تكون 1
دا@@ 1
ادة 1
سب@@ 1
َّ@@ 1
مش@@ 1
ائية 1
رت 1
رين 1
يع@@ 1
أيضًا 1
هما 1
نية 1
يه 1
ّ 1
مرة 1
وإ@@ 1
اه@@ 1
نسمة 1
دا 1
جامعة 1
مه@@ 1
الية 1
جن@@ 1
الو@@ 1
تب@@ 1
ِ@@ 1
2004 1
دون 1
وم 1
تُ@@ 1
بات 1
مجموعة 1
مك@@ 1
ئ@@ 1
الي 1
المص@@ 1
سك@@ 1
اش@@ 1
مات 1
اس 1
دو@@ 1
اك@@ 1
در@@ 1
سية 1
عمل 1
الحرب 1
بت@@ 1
لت@@ 1
الأمريكية 1
تس@@ 1
يك@@ 1
وس 1
أل@@ 1
السي@@ 1
مايو 1
ارات 1
4 0.8496021850900496
يت 1
علي 1
يس 1
اق@@ 1
الل@@ 1
يوم 1
تلك 1
كت@@ 1
يناير 1
مد@@ 1
بري@@ 1
ده 1
شركة 1
فبراير 1
قية 1
سن@@ 1
سم@@ 1
سون 1
لح@@ 1
العمل 1
يم 1
مان@@ 1
أبريل 1
ولا 1
5 0.9550222109660901
أكتوبر 1
أنها 1
أر@@ 1
بدأ 1
فقد 1
ورة 1
إلا 1
خ 1
نا 1
سو@@ 1
كار@@ 1
&#93; 1
رب@@ 1
تد@@ 1
الثاني 1
المج@@ 1
مر 1
عدة 1
فية 1
&#91; 1
از@@ 1
المر@@ 1
وري 1
بـ 1
علم 1
الض@@ 1
راء 1
اط@@ 1
سة 1
يونيو 1
ٍ 1
يوليو 1
سياسي 1
ديسمبر 1
لإ@@ 1
اج@@ 1
عضو 1
المس@@ 1
طة 1
سبتمبر 1
يقع 1
يني 1
خط@@ 1
لكرة 1
تا 1
لك@@ 1
6 0.9515007522382496
العربية 1
مما 1
فيه 1
اح@@ 1
ء 1
فا@@ 1
برو@@ 1
وجود 1
وز@@ 1
نس@@ 1
لف@@ 1
عليه 1
المدينة 1
نوفمبر 1
القدم 1
فإن 1
رئيس 1
نو@@ 1
ولاية 1
طر@@ 1
المق@@ 1
مت 1
إن 1
أغسطس 1
والأ@@ 1
وه@@ 1
أم@@ 1
نج@@ 1
بط@@ 1
اته 1
10 0.9366641652258006
ضد 1
فو@@ 1
إن@@ 1
كة 1
برا@@ 1
كس 1
نظام 1
طريق 1
ائي 1
أك@@ 1
َ 1
كل@@ 1
الان@@ 1
فقط 1
شر@@ 1
كر 1
الأخرى 1
ذات 1
إذا 1
دت 1
لق@@ 1
الوقت 1
بإ@@ 1
.@@ 1
جو@@ 1
دات 1
دين 1
أما 1
وط@@ 1
إحدى 1
وض@@ 1
غي@@ 1
مث@@ 1
يًا 1
أكبر 1
8 1
را 1
اري 1
باسم 1
نفس 1
المنطقة 1
مؤ@@ 1
وش@@ 1
يش@@ 1
قر@@ 1
بما 1
يون 1
وات 1
عر@@ 1
ذ 1
حالة 1
الحزب 1
حر@@ 1
التح@@ 1
قام 1
نف@@ 1
ولي@@ 1
نق@@ 1
استخدام 1
7 0.9461616077243605
البي@@ 1
الآ@@ 1
أ 1
جهة 1
زة 1
ةً 1
إل@@ 1
كم 1
أي@@ 1
وكانت 1
عليها 1
مون 1
ترا@@ 1
وذلك 1
آخر 1
كان@@ 1
بل 1
حين 1
المؤ@@ 1
الذ@@ 1
الرغم 1
عبر 1
دو 1
جي 1
لكن 1
والذي 1
فت@@ 1
كبير 1
أيضا 1
رب 1
مين 1
جون 1
ولة 1
حوالي 1
داخل 1
ئة 1
20 1
درجة 1
اسم 1
المش@@ 1
الرسمي 1
سر 1
عملية 1
بر 1
ؤ@@ 1
الثانية 1
او@@ 1
اف 1
كو@@ 1
واحد 1
كية 1
كر@@ 1
اص@@ 1
مقاطعة 1
أخ@@ 1
ينا 1
الحكومة 1
سن 1
يو 1
مُ@@ 1
ولا@@ 1
واحدة 1
9 1
15 1
تاريخ 1
ثة 1
ديد 1
ضمن 1
شارك 1
از 1
بالت@@ 1
بالإضافة 1
لأ@@ 1
مب@@ 1
يح@@ 1
أص@@ 1
لين 1
المي@@ 1
عادة 1
مواليد 1
أد@@ 1
رج@@ 1
12 0.9950395373488731
جة 1
قي 1
ونادي 1
يم@@ 1
جنوب 1
وار@@ 1
الفي@@ 1
رون 1
دار 1
فت 1
دد 1
نوع 1
فترة 1
وغ@@ 1
ست 1
المه@@ 1
نش@@ 1
العامة 1
حص@@ 1
عت 1
فيلم 1
يقدر 1
دور 1
الوطني 1
ُ 1
أثناء 1
بور@@ 1
الأس@@ 1
سر@@ 1
ئ 1
; 0.1701927488575577
فري@@ 1
ّة 1
الفر@@ 1
ينتمي 1
المغربية 1
اض@@ 1
تت@@ 1
خر@@ 1
التق@@ 1
للسكان 1
مون@@ 1
والإ@@ 1
لف 1
ابن 1
نظ@@ 1
تقع 1
در 1
بلغ 1
ـ@@ 1
كون@@ 1
تضم 1
النا@@ 1
بينما 1
بت 1
تز@@ 1
سم 1
19 1
ابة 1
ضة 1
تون 1
الدولة 1
فق@@ 1
قال 1
ثر 1
عي@@ 1
العالمية 1
يف 1
انا 1
11 1
ادي 1
منتخب 1
بق@@ 1
لسنة 1
انتخب 1
عد 1
مغ@@ 1
وان@@ 1
الاتحاد 1
يست@@ 1
كبيرة 1
أح@@ 1
طل@@ 1
تل@@ 1
عين 1
عرض 1
30 1
اليوم 1
فرنسا 1
نسبة 1
نحو 1
نشط 1
أجل 1
فل@@ 1
لو 1
2010 0.8245593729776804
اة 1
ابات 1
بأن 1
مل 1
وة 1
وقت 1
التعليم 1
ومع 1
الملك 1
ارية 1
14 1
حزب 1
بناء 1
حي 1
إقليم 1
سان 1
جه@@ 1
سنوات 1
16 1
قات 1
بلا@@ 1
الخاصة 1
طي@@ 1
الإحصاء 1
اخت@@ 1
الرا@@ 1
شكل 1
للأ@@ 1
مصر 1
نى 1
وب 1
هـ 1
ورية 1
أصبح 1
حصل 1
18 1
25 1
مه 1
فر 1
فات 1
حد 1
اتها 1
راً 1
مها 1
سين@@ 1
موسم 1
اللا@@ 1
مض@@ 1
أث@@ 1
كات 1
بات@@ 1
بش@@ 1
ذكر 1
معظم 1
خص@@ 1
ولم 1
المنا@@ 1
الحياة 1
تل 1
17 1
والسكنى 1
طلب 1
أش@@ 1
الات 1
ادية 1
المغ@@ 1
الفترة 1
لاً 1
الجيش 1
ولدت 1
بطولة 1
حزبياً 1
13 1
شا@@ 1
هار@@ 1
الأم@@ 1
الوطنية 1
ته@@ 1
قد@@ 1
دًا 1
إنتاج 1
بول@@ 1
شار@@ 1
2013 0.9608313616577706
مف@@ 1
ثلاثة 1
أُ@@ 1
ادات 1
قص@@ 1
دور@@ 1
عمر 1
5@@ 1
كتب 1
فيما 1
الرو@@ 1
عدم 1
الأر@@ 1
حية 1
بني 1
مز@@ 1
صي@@ 1
اع 1
درا@@ 1
للإ@@ 1
حد@@ 1
عه 1
نهاية 1
ظهر 1
ليل 1
لاح@@ 1
المُ@@ 1
المف@@ 1
المط@@ 1
قب@@ 1
21 1
هة 1
الدين 1
دير 1
شه@@ 1
يبلغ 1
ولي 1
الأرض 1
لك 1
وف 1
أبو 1
نز@@ 1
اث@@ 1
ينات 1
بار 1
خرج 1
التاريخ 1
عب@@ 1
وبعد 1
هر 1
&amp; 0.44541916971803336
واست@@ 1
رف 1
تر 1
آيت 1
دار@@ 1
زي 1
كا 1
بريطاني 1
موا@@ 1
24 1
2009 0.8916752059932201
وتح@@ 1
داء 1
يه@@ 1
تهم 1
دولة 1
جر@@ 1
تست@@ 1
دان 1
مليون 1
يل@@ 1
ينية 1
4@@ 1
تو 1
يز@@ 1
زيادة 1
نه@@ 1
دها 1
وتع@@ 1
2007 0.9406582324192163
نص@@ 1
الفيلم 1
أف@@ 1
ألمانيا 1
شمال 1
2008 0.8789172995472998
الدوري 1
أحمد 1
بالم@@ 1
صل 1
وني 1
كري@@ 1
وث@@ 1
وت 1
دائ@@ 1
عها 1
6@@ 1
أغ@@ 1
لان 1
خاصة 1
والح@@ 1
تض@@ 1
الحر@@ 1
التع@@ 1
وار 1
يجب 1
مختلفة 1
قل 1
كلي@@ 1
3@@ 1
الآن 1
بدأت 1
ليس 1
كتاب 1
اللغة 1
لان@@ 1
سا@@ 1
7@@ 1
دع@@ 1
بين@@ 1
كلية 1
خت@@ 1
سكانها 1
أق@@ 1
2016 0.8521983659953078
وفي@@ 1
الأمريكي 1
قت 1
مال@@ 1
وعلى 1
22 1
التر@@ 1
الثالث 1
لعام 1
تغ@@ 1
وما 1
توفي 1
23 1
المركز 1
لب 1
يوجد 1
جان@@ 1
شع@@ 1
خي@@ 1
فريق 1
كأس 1
السكان 1
صة 1
نفسه 1
ائل 1
جر 1
2006 0.9041148498354554
لمدة 1
حركة 1
لال 1
سكانه 1
يس@@ 1
أه@@ 1
تأ@@ 1
8@@ 1
للا@@ 1
شر 1
إذ 1
لين@@ 1
ندية 1
يب 1
ينة 1
مور@@ 1
البر@@ 1
ذا 1
كون 1
بأ@@ 1
جديدة 1
جائزة 1
هد 1
السل@@ 1
ونية 1
قط@@ 1
امة 1
2011 0.7254565807495963
ً 1
المخ@@ 1
سبب 1
كو 1
زل 1
برنامج 1
الشيخ 1
لم@@ 1
ورا@@ 1
صح@@ 1
سين 1
اغ@@ 1
بجماعة 1
النظام 1
سط@@ 1
لدى 1
أنواع 1
فين 1
مط@@ 1
وخ@@ 1
البرو@@ 1
إدارة 1
أيضاً 1
قل@@ 1
يف@@ 1
سع@@ 1
اق 1
ِّ@@ 1
سكان 1
جانب 1
قرية 1
قانون 1
الدوّار 1
أفضل 1
لمشيخة 1
دُوَّار 1
وكذلك 1
بان@@ 1
ومن@@ 1
القوات 1
الرئيس 1
أوروبا 1
الكويكب 1
انة 1
البل@@ 1
نقل 1
ره 1
الموا@@ 1
وري@@ 1
27 1
مباراة 1
باء 1
مجال 1
28 1
2012 0.7401297669883921
واء 1
منه 1
ويل 1
ساب@@ 1
شخص 1
ء@@ 1
كث@@ 1
روا@@ 1
محافظة 1
مدرسة 1
داً 1
الأطفال 1
با 1
أمريكية 1
سل 1
أصبحت 1
تط@@ 1
انت@@ 1
منصب 1
ارت 1
كندا 1
القانون 1
باب 1
26 1
الري@@ 1
دراسة 1
يون@@ 1
وضع 1
الرئيسي 1
المناطق 1
سبيل 1
منظمة 1
9@@ 1
ئات 1
البلاد 1
ندي 1
الجديدة 1
النساء 1
وتم 1
قه 1
ْ@@ 1
نين 1
نشر 1
عالم 1
2000 0.9196792073458107
المرا@@ 1
للح@@ 1
صر 1
يان 1
الشمالية 1
يك 1
كام@@ 1
عرف 1
عم 1
مسيرته 1
اسية 1
القديمة 1
الشركة 1
الدولي 1
لهم 1
والد@@ 1
الدولية 1
النق@@ 1
مخ@@ 1
ماء 1
شرق 1
_ 0.7571067228803999
يع 1
ضي@@ 1
وبة 1
سلسلة 1
عض@@ 1
أع@@ 1
فض@@ 1
رها 1
يلي 1
رار 1
اي 1
الخط@@ 1
غري@@ 1
ثلاث 1
الدي@@ 1
البحر 1
بواسطة 1
الكثير 1
الغربية 1
أعمال 1
بص@@ 1
ربية 1
كن 1
وله 1
أقل 1
2015 0.702151989444069
جار 1
بداية 1
موقع 1
قائمة 1
افة 1
قائ@@ 1
نيويورك 1
دف@@ 1
الناس 1
أو@@ 1
ضع 1
2014 0.6836117847959309
خد@@ 1
فور@@ 1
العربي 1
حل 1
2005 0.9053255525474149
عاماً 1
رس@@ 1
تش 1
شك@@ 1
الدول 1
الاخت@@ 1
مستوى 1
اوية 1
عق@@ 1
يز 1
29 1
حات 1
َّة 1
ند 1
أعلى 1
اره 1
الاسم 1
طي 1
وحدة 1
فوق 1
الإنسان 1
الأعمال 1
فاز 1
سام 1
والع@@ 1
قو@@ 1
بس@@ 1
اخ@@ 1
ائر 1
كانوا 1
دولار 1
-@@ 1
جين 1
تتبع 1
الأح@@ 1
شو@@ 1
عص@@ 1
مرك@@ 1
جو 1
الهند 1
دائرة 1
الأد@@ 1
الطاقة 1
بير@@ 1
تور@@ 1
يلعب 1
سان@@ 1
التف@@ 1
اليد 1
طول 1
كريكت 1
ياً 1
الأمر 1
وجه 1
المثال 1
المياه 1
حياته 1
المجلس 1
بول 1
وع 1
قيق 1
الدفاع 1
وتق@@ 1
قوة 1
فار@@ 1
ملك 1
دخل 1
شهر 1
وزارة 1
الاجتماعية 1
ذية 1
لاند 1
لأن 1
داد 1
تار@@ 1
كور@@ 1
انيا 1
فن 1
صف@@ 1
13@@ 1
والت@@ 1
دين@@ 1
وان 1
المجتمع 1
وهذا 1
يكن 1
زية 1
باستخدام 1
وسي@@ 1
جية 1
حت@@ 1
شي 1
زا 1
الرئيسية 1
إعادة 1
ضية 1
العشرين 1
لوا 1
ترك 1
نتيجة 1
اما 1
القر@@ 1
دل@@ 1
كين 1
يرا 1
دعم 1
هام 1
انتقل 1
كول@@ 1
تصنيف 1
جا@@ 1
العسكرية 1
فق 1
ٌ 1
عب 1
الجنوبية 1
بالإ@@ 1
غة 1
ممثل 1
أمريكا 1
المرأة 1
وين@@ 1
وظ@@ 1
المز@@ 1
الأكثر 1
منهم 1
ريك@@ 1
السياسية 1
اذ@@ 1
الكتاب 1
لكل 1
جوائز 1
المد@@ 1
بيل 1
سوي@@ 1
مرا@@ 1
اله 1
قوات 1
جمهورية 1
خارج 1
&apos; 0.13402639387336154
الفرنسية 1
الدم 1
جل 1
للو@@ 1
ارب 1
القي@@ 1
رقم 1
ربة 1
طية 1
عش@@ 1
قامت 1
باً 1
= 0.9092562961604522
وفاة 1
الأص@@ 1
سب 1
أند@@ 1
وسط 1
كار 1
هر@@ 1
حدث 1
الصين 1
وفر 1
دل 1
سات 1
رام 1
لذلك 1
امي 1
رو 1
ترو@@ 1
الشرقية 1
2003 0.9736887000820943
2020 0.7177439732827676
الجديد 1
لهذا 1
توا@@ 1
دون@@ 1
مًا 1
يعتبر 1
جمع 1
تقديم 1
الألعاب 1
حالات 1
أمام 1
المك@@ 1
رق@@ 1
علا@@ 1
ناء 1
مسي@@ 1
ألف 1
جورج 1
بالنسبة 1
فن@@ 1
قسم 1
ستر 1
2017 0.6392965492784818
ميل 1
طبي@@ 1
حرب 1
كين@@ 1
14@@ 0.9912459834084812
حياة 1
القط@@ 1
وادي 1
السعودية 1
الجن@@ 1
٪ 1
المث@@ 1
سام@@ 1
أة 1
يني@@ 1
فل 1
المعلومات 1
جمعية 1
اللي@@ 1
يري 1
فضل 1
تعتبر 1
كن@@ 1
يخ@@ 1
دم 1
أول@@ 1
كات@@ 1
ارد 1
أولاد 1
العق@@ 1
أدى 1
الحكم 1
اح 1
وال 1
الجما@@ 1
تستخدم 1
غرب 1
السابق 1
قا 1
الت 1
البريطانية 1
الحركة 1
ظه@@ 1
كذلك 1
متر 1
ِ 1
جزء 1
ائد 1
بأنه 1
جه 1
جرا@@ 1
أشهر 1
به@@ 1
روس 1
فه 1
قبة 1
لندن 1
خو@@ 1
شري@@ 1
جان 1
أربعة 1
فا 1
الإسلامية 1
التالية 1
فع@@ 1
نان@@ 1
خط 1
حض@@ 1
غرا@@ 1
بعدها 1
ريا 1
الات@@ 1
إنشاء 1
بيت 1
أور@@ 1
تطوير 1
زم 1
نت 1
ظر 1
واق@@ 1
الشرق 1
بيع 1
عائلة 1
صف 1
واح@@ 1
هدف 1
ذك@@ 1
نهر 1
فيا 1
الأل@@ 1
البا@@ 1
وصل 1
أصل 1
أستراليا 1
جيمس 1
عبارة 1
ينيات 1
31 1
بعة 1
مكان 1
كندي 1
تقدم 1
حكم 1
خلا@@ 1
أهم 1
دري@@ 1
لتح@@ 1
لام 1
وى 1
التالي 1
وبالتالي 1
طات 1
يستخدم 1
قرا@@ 1
الصح@@ 1
حم@@ 1
يقوم 1
التش@@ 1
العليا 1
بير 1
العراق 1
راد 1
الصحة 1
عمليات 1
رًا 1
إس 1
هيئة 1
ريك 1
2002 0.8578047976386788
السنة 1
كويكبات 1
المواد 1
سجل 1
تعداد 1
2018 0.5623731954709842
عُ@@ 1
.. 1
ممثلة 1
عًا 1
يرات 1
جم 1
لون 1
... 1
اوي 1
بع 1
مرض 1
المض@@ 1
مشروع 1
رجل 1
الجزء 1
دوار 1
اعد 1
قاعدة 1
اية 1
العاصمة 1
عنه 1
ودي@@ 1
لًا 1
الجامعة 1
الخلايا 1
رك 1
علاج 1
دن 1
يج@@ 1
نت@@ 1
حكومة 1
ة@@ 1
ربي 1
تعل@@ 1
أفريقيا 1
هل 1
الجمعية 1
جزيرة 1
جري@@ 1
بغ@@ 1
يق 1
بس 1
أت 1
أعضاء 1
البح@@ 1
أمر 1
خل@@ 1
روا 1
تري@@ 1
جل@@ 1
ران 1
التص@@ 1
100 0.7903977447845193
اتهم 1
قصة 1
تبا@@ 1
بيا 1
مذ@@ 1
أنش@@ 1
ايا 1
الاس@@ 1
الشه@@ 1
حق@@ 1
قرار 1
2019 0.5865389070768553
الماء 1
ريد 1
فص@@ 1
منع 1
توجد 1
صغيرة 1
2001 0.8232931758431312
القرية 1
لأول 1
تعلم 1
ظ 1
الحديث 1
عهد 1
بالق@@ 1
غر@@ 1
إليه 1
العلمي 1
تحدث 1
الأي@@ 1
ويمكن 1
ءة 1
إص@@ 1
التاسع 1
الشع@@ 1
تشمل 1
مناطق 1
تحديد 1
كوم@@ 1
برت 1
مجلة 1
أنحاء 1
الشخصية 1
يعمل 1
المختلفة 1
رح@@ 1
وأن 1
الفرنسي 1
الجزائر 1
أهل 1
وفق 1
العلوم 1
يار 1
والي 1
الديمقراطي 1
معركة 1
الدرا@@ 1
عقد 1
وسياسي 1
وزير 1
وز 1
التابعة 1
باط 1
البحرية 1
الرابع 1
الحالات 1
تعمل 1
اض 1
المجموعة 1
العصر 1
جيش 1
مرحلة 1
انس@@ 1
ولية 1
بالأ@@ 1
النوع 1
درس 1
ظم 1
الشر@@ 1
جديد 1
سطح 1
ريف 1
لق 1
الإي@@ 1
الموقع 1
D@@ 0.1742395032345656
كرا@@ 1
روب 1
قين 1
ناد@@ 1
فران@@ 1
المدرسة 1
بان 1
كز 1
ومح@@ 1
فع 1
فيروس 1
ودة 1
ويليام 1
يوم@@ 1
مخت@@ 1
لوك 1
الخاص 1
أخذ 1
الأخيرة 1
حقوق 1
لاف 1
ثلاث@@ 1
البط@@ 1
عيد 1
سلا@@ 1
التجارية 1
مانية 1
وَ@@ 1
لاح 1
رير 1
طف@@ 1
سا 1
مختلف 1
إسبانيا 1
كاتب 1
انه 1
توضيح 1
حدي@@ 1
ورت 1
فرا@@ 1
ضر@@ 1
إضافة 1
عن@@ 1
الألمانية 1
الدراسات 1
هن 1
ريات 1
المحلية 1
10@@ 1
اتي 1
الظ@@ 1
ارًا 1
قيمة 1
الاجتماعي 1
لوس 1
تية 1
روسيا 1
إيطاليا 1
اليابان 1
سج@@ 1
تمثل 1
رض 1
معدل 1
لويس 1
انات 1
جز@@ 1
تاج 1
أنهم 1
تقوم 1
يكا 1
الشمس 1
وفقًا 1
ديل 1
الخارجية 1
شخصية 1
ستخدم 1
ونة 1
ارا 1
العملية 1
فان 1
بط 1
اضي 1
ملا@@ 1
أفلام 1
البعض 1
الها 1
العظمى 1
ضم 1
الأشخاص 1
سيا 1
تب 1
ادل 1
امية 1
اه 1
احة 1
دورة 1
زيد 1
البار@@ 1
معه 1
اتحاد 1
تأثير 1
اط 1
البحث 1
يؤدي 1
وسائل 1
طن 1
مصطلح 1
ـ 1
بك@@ 1
نطاق 1
عائ@@ 1
وغيرها 1
مَ@@ 1
المتح@@ 1
الفريق 1
إليها 1
جات 1
فورد 1
والث@@ 1
مساعدة 1
العلاج 1
ظهرت 1
صور 1
ظهور 1
الهجوم 1
أس 1
رك@@ 1
الوسط 1
المغرب 1
يرة 1
دى 1
طور 1
جام@@ 1
آل 1
يّة 1
اك 1
والده 1
عاد 1
دول 1
ولى 1
له@@ 1
جري 1
تصل 1
حت 1
ورد 1
امل 1
العالمي 1
العض@@ 1
لغ@@ 1
النواب 1
نظرية 1
طريقة 1
وتر@@ 1
هام@@ 1
الحديثة 1
الأراضي 1
ولها 1
سيس 1
الشمال 1
فين@@ 1
وحتى 1
سيدي 1
شة 1
مسؤ@@ 1
الأساسية 1
سو 1
1999 0.817851767424265
الملكية 1
ماس@@ 1
دول@@ 1
الإص@@ 1
ةٍ 1
الكبير 1
صدر 1
50 0.8563070348071958
0@@ 1
خدمات 1
الور@@ 1
يؤ@@ 1
رجال 1
أج@@ 1
باريس 1
العمر 1
الأمير 1
الثورة 1
انتق@@ 1
قر 1
الجسم 1
ماك@@ 1
نات 1
اء@@ 1
يش 1
الجنوب 1
جب@@ 1
مار 1
معسكر 1
القص@@ 1
قاد@@ 1
الحصول 1
امات 1
تحتوي 1
ئي 1
وصف 1
وقف 1
أم 1
اسي 1
تمكن 1
مؤسسة 1
يعد 1
سابقاً 1
أيام 1
متوسط 1
جمي@@ 1
بالك@@ 1
الكنيسة 1
حق 1
تقد 1
لديها 1
تان 1
أوك@@ 1
رش@@ 1
فرقة 1
أواخر 1
ظة 1
فقة 1
دوري 1
الأوروبي 1
الانتخابات 1
تمل 1
غر 1
تمت 1
فها 1
ستون 1
فيات 1
12@@ 1
الام@@ 1
الحيوانات 1
شبكة 1
حك@@ 1
كثير 1
آسيا 1
المشا@@ 1
عامي 1
الجزيرة 1
رض@@ 1
بوت@@ 1
نور@@ 1
عامة 1
طرق 1
خار@@ 1
15@@ 0.7241275225320665
سير 1
سمى 1
الدرجة 1
الميلاد 1
مام 1
الجوية 1
بد 1
مين@@ 1
غل 1
خدمة 1
أوب@@ 1
حسن 1
1998 0.865053478723578
روبرت 1
عا 1
سوف 1
قيم 1
فرة 1
جب 1
أبي 1
ئية 1
0 0.6051280612084401
الداخلية 1
الكبرى 1
مسلسل 1
الحالة 1
الإمبراطورية 1
جرة 1
لاء 1
رأس 1
مد 1
يوس 1
معهد 1
أحي@@ 1
الأولمبية 1
ماً 1
انت 1
وك 1
1990 0.8132186997317832
مؤس@@ 1
2@@ 0.9962340641026045
قها 1
ثي@@ 1
صب 1
ابه 1
جبل 1
تحقيق 1
كلا@@ 1
سري@@ 1
لما 1
ارتفاع 1
المرحلة 1
السلطة 1
يمي 1
الوصول 1
البيانات 1
ستخد@@ 1
زين 1
المعد@@ 1
اج 1
إسرائيل 1
بج@@ 1
سلو@@ 1
لس 1
علماء 1
قض@@ 1
جون@@ 1
رواية 1
حصلت 1
شخص@@ 1
حاليا 1
طلا@@ 1
واسع 1
لجنة 1
بًا 1
عنها 1
وص 1
افي 1
طلق 1
استخد@@ 1
ناف@@ 1
1996 0.905333680881132
خاص 1
رائ@@ 1
السياسي 1
الطب 1
تدري@@ 1
اعات 1
تصميم 1
مير@@ 1
الأمم 1
عط@@ 1
ديا 1
زات 1
قق 1
مقابل 1
1992 0.9270299020748601
خلالها 1
الطبية 1
فيل 1
لقد 1
عالية 1
يط 1
تعد 1
كرو@@ 1
الوسطى 1
بالقرب 1
الإنترنت 1
الرئ@@ 1
ذهب 1
التن@@ 1
قناة 1
المسي@@ 1
بوب 1
جد 1
طويلة 1
تقد@@ 1
فون 1
العرب 1
بوا@@ 1
صناعة 1
جهاز 1
الحدود 1
أفراد 1
عامًا 1
مال 1
أوائل 1
تشار@@ 1
سوريا 1
لل 1
1997 0.8841332807685451
الإسلام 1
الصحية 1
بلدية 1
لكنه 1
الإن@@ 1
الوزراء 1
العظ@@ 1
لـ 1
أمين 1
الموسم 1
P@@ 0.13531402317223393
L@@ 0.1365977321807712
مكان@@ 1
وقال 1
ادت 1
قيادة 1
ها@@ 1
الأك@@ 1
ليون 1
قاً 1
ظل 1
الطبيعية 1
مى 1
حب 1
هب 1
مول@@ 1
الجام@@ 1
بو 1
وليس 1
الأط@@ 1
باب@@ 1
تيجة 1
تاريخ@@ 1
هنري 1
ائب 1
يدة 1
إر@@ 1
البداية 1
الإنجليزية 1
أعلن 1
الهي@@ 1
نصف 1
النه@@ 1
جنس 1
قلي@@ 1
الألماني 1
البطولة 1
بلو@@ 1
وُ@@ 1
الأكبر 1
نقطة 1
شبه 1
ستة 1
خل 1
الحض@@ 1
ثي 1
الشكل 1
تقل 1
مات@@ 1
باح 1
الأمن 1
الأن@@ 1
كتب@@ 1
النادي 1
يص@@ 1
الطريق 1
شيء 1
بحلول 1
سابق 1
المسيحية 1
رياض@@ 1
موا 1
إنجلترا 1
الأق@@ 1
قري@@ 1
للم@@ 1
الشعب 1
دارة 1
تركي@@ 1
عشرة 1
يشير 1
جمع@@ 1
لقب 1
بأنها 1
كتابة 1
السابقة 1
المصرية 1
اول@@ 1
جور@@ 1
formula 0.5089561007126544
الخامس 1
لر 1
gt 0.565791068781445
معهم 1
كوك@@ 1
دفع 1
عام@@ 1
عداد 1
المرض 1
المسلمين 1
مباشرة 1
قرر 1
غو 1
تعرض 1
والك@@ 1
رف@@ 1
والص@@ 1
باس@@ 1
ورات 1
فاق 1
منح 1
1991 0.8944085117343938
عمل@@ 1
البريطاني 1
بهم 1
مطار 1
الموجودة 1
الإج@@ 1
نغ@@ 1
افية 1
اليمن 1
سوق 1
الحرارة 1
1994 0.8794487913746175
نائ@@ 1
نفسها 1
ادرة 1
وفاته 1
حجم 1
العلا@@ 1
ادر 1
انو 1
خفض 1
مارك 1
ستر@@ 1
مدر@@ 1
الأحيان 1
الجمهوري 1
المرك@@ 1
كاليفورنيا 1
جما@@ 1
والش@@ 1
كامل 1
العلاقات 1
المدارس 1
الدينية 1
تشير 1
تون@@ 1
وّ@@ 1
ومي@@ 1
وني@@ 1
كريست@@ 1
يتبع 1
الصنا@@ 1
لندي 1
فئة 1
lt 0.5678313646605833
شاركت 1
200@@ 1
ذو 1
بون@@ 1
قًا 1
وست@@ 1
اللعب 1
40 0.8031564584768491
وق 1
تميز 1
البرلمان 1
لغة 1
1995 0.8571820932157299
بيد 1
M@@ 0.1317231131688852
وو@@ 1
نان 1
كلمة 1
الصغيرة 1
وزي@@ 1
اعة 1
يحدث 1
رغم 1
برامج 1
غير@@ 1
لى 1
وجد 1
هات 1
الرجال 1
ونات 1
وهناك 1
السوفي@@ 1
جنسية 1
المكان 1
السك@@ 1
ألعاب 1
الثالثة 1
عرض@@ 1
القلب 1
خمسة 1
لاست@@ 1
مدة 1
لوب 1
1980 0.908152209755854
إبراهيم 1
قت@@ 1
1993 0.8995457907115496
شركات 1
النظر 1
العلمية 1
H@@ 0.14484837614039225
الغربي 1
ناحية 1
طرف 1
سيتي 1
سون@@ 1
جاء 1
الشركات 1
اعي 1
العزيز 1
الاقتصادية 1
بالع@@ 1
قتل 1
النباتات 1
العمال 1
الخي@@ 1
ولوجيا 1
1989 0.956065139625271
غان 1
الصيفية 1
بذلك 1
الشرطة 1
يعرف 1
ثية 1
بخ@@ 1
اللو@@ 1
تنظيم 1
هدف@@ 1
؟ 1
دث 1
دز 1
تلا@@ 1
للت@@ 1
سكي 1
ويات 1
ولكنه 1
تشكل 1
of 0.00876781995913238
نع 1
ويُ@@ 1
انتخابات 1
اللجنة 1
توماس 1
وث 1
سلة 1
ديفيد 1
يته 1
لهذه 1
يكي 1
لاحق 1
بحث 1
ولين 1
ماني 1
مساحة 1
الأسرة 1
لن@@ 1
اند 1
الأش@@ 1
الزي@@ 1
باح@@ 1
الأوروبية 1
الجهاز 1
بالح@@ 1
هاب 1
الجمهورية 1
خان 1
ضل@@ 1
طاقة 1
أسرة 1
اند@@ 1
1988 0.9946415528601629
خطط 1
لفة 1
الإشارة 1
اهرة 1
اعية 1
الشعبية 1
بحيث 1
عمال 1
وتش@@ 1
يران 1
حه 1
مدى 1
C@@ 0.1403124597126441
بريطانيا 1
سانت 1
بغداد 1
منتصف 1
الطريقة 1
داخ@@ 1
تنا@@ 1
رسم@@ 1
ائق 1
سلام 1
ؤون 1
العلماء 1
إجراء 1
تشكيل 1
الشي@@ 1
زن 1
معينة 1
أعلنت 1
لن 1
يخ 1
الإل@@ 1
خدم 1
كيف 1
جن 1
إي 1
عل 1
الأغ@@ 1
فهو 1
تين@@ 1
المدن 1
سوس 1
1984 1
أهمية 1
فصل 1
مرات 1
لصالح 1
السادس 1
يعني 1
ولت 1
بنسبة 1
سما@@ 1
تسمى 1
الخامسة 1
فهي 1
الإنتاج 1
فلسطين 1
تبلغ 1
ليات 1
الموج@@ 1
قبل@@ 1
تظهر 1
راع 1
واة 1
قان@@ 1
وط 1
الكبيرة 1
لِ@@ 1
N@@ 0.15241815474652426
نها 1
1986 1
العلم 1
يسمى 1
تحمل 1
قيد 1
المسؤ@@ 1
تؤ@@ 1
مني 1
بعنوان 1
جار@@ 1
تأسيس 1
فير 1
تس 1
مشار@@ 1
تولى 1
وعية 1
املة 1
politician 1
الشباب 1
تنفيذ 1
تعرف 1
بلدة 1
التغي@@ 1
تشارلز 1
كت 1
الأحداث 1
هان 1
الثقافة 1
ذي 1
يرًا 1
اسمه 1
حدود 1
راف 1
فهم 1
مهمة 1
اسة 1
ارع 1
الوظ@@ 1
جنب 1
صورة 1
للع@@ 1
أساس 1
نح@@ 1
هول@@ 1
مته 1
محطة 1
بلاد 1
منة 1
غار@@ 1
أشكال 1
الآخر 1
بذ@@ 1
جعل 1
هؤلاء 1
ماري 1
فكرة 1
الواقع 1
الأسر 1
1982 1
التابع 1
S@@ 0.09635561891838179
يقول 1
صحيفة 1
ايد 1
عمر@@ 1
فان@@ 1
يناهز 1
نقاط 1
دراسات 1
يعود 1
1979 1
الوق@@ 1
ضات 1
القديم 1
المعروف 1
عز@@ 1
يظهر 1
أغنية 1
عان 1
1987 1
ألف@@ 1
طوير 1
يها 1
فرد 1
البرنامج 1
تأسست 1
المحيط 1
منص@@ 1
دان@@ 1
باد@@ 1
المالية 1
وكاتب 1
مرتب@@ 1
يَّة 1
المباراة 1
الإسلامي 1
وبين 1
الا 1
ودية 1
نوا@@ 1
1948 1
المحكمة 1
بِ@@ 1
شعر 1
1985 1
الضر@@ 1
علاقة 1
1945 0.8466342143655828
بارات 1
تَ@@ 1
المصري 1
المتع@@ 1
أحداث 1
سال 1
طرة 1
السلام 1
بعين 1
5.@@ 1
طر 1
الرق@@ 1
مقاط@@ 1
امه 1
واج@@ 1
متعددة 1
بم@@ 1
غالبًا 1
شارة 1
منية 1
الأقل 1
المادة 1
قاء 1
كوب@@ 1
واض@@ 1
السوي@@ 1
ستان 1
المخت@@ 1
نم@@ 1
واسعة 1
مهم 1
لد 1
مارة 1
دخ@@ 1
هير@@ 1
مز 1
الم 1
موت 1
ّل 1
وريا 1
البيضاء 1
مبي@@ 1
s 0.06791999258966101
زمة 1
يحتوي 1
للش@@ 1
1970 0.8851333571771536
توفير 1
مجموعات 1
اش 1
وكي 1
الخدمة 1
فس@@ 1
الهواء 1
F@@ 0.12654110428557067
الجه@@ 1
َّ 1
G@@ 0.12139152421066317
ينغ 1
إدار@@ 1
نه 1
الاح@@ 1
بدون 1
إم 1
رد 1
قائد 1
افع 1
زياء 1
T@@ 0.11336961405397118
الشرقي 1
تونس 1
مِ@@ 1
بنفس 1
أهداف 1
أعم@@ 1
الأنواع 1
معلومات 1
الأبيض 1
يصل 1
امين 1
ومة 1
وين 1
واله@@ 1
الحيو@@ 1
سرطان 1
ويل@@ 1
فتح 1
قدر@@ 1
صار 1
الإعلام 1
شف 1
متها 1
ونسبة 1
واشنطن 1
قامة 1
الطلاب 1
افات 1
الأحمر 1
1967 1
التاريخية 1
البشرية 1
ورا 1
تكن 1
الحالي 1
ولوجية 1
ريين 1
القوة 1
وير 1
وحمل 1
ضي 1
المدر@@ 1
سُ@@ 1
ألي@@ 1
موق@@ 1
1983 1
ائه 1
زواج 1
وسط@@ 1
جا 1
مير 1
التقليدية 1
الأمراض 1
بال 1
بَ@@ 1
والق@@ 1
الـ 1
المجال 1
التلفزي@@ 1
تمي@@ 1
ديو 1
نظر 1
B@@ 0.1112646178973764
لأنه 1
باللغة 1
فير@@ 1
الشري@@ 1
تصبح 1
يوسف 1
جراءات 1
المستوى 1
الفنية 1
فول@@ 1
حال@@ 1
ائم 1
غا 1
لندا 1
وهم 1
الإدارة 1
جزر 1
عظ@@ 1
حس@@ 1
فيد 1
نُ@@ 1
الثانوية 1
كبي@@ 1
أربع 1
ناب@@ 1
النهاية 1
غل@@ 1
نساء 1
تعليم 1
ملكة 1
الأخير 1
لبريطانيا 1
رر 1
نسخة 1
عى 1
عمان 1
ستي@@ 1
اعتم@@ 1
محاولة 1
1981 1
الدراسة 1
اعتب@@ 1
تحول 1
وأن@@ 1
المنش@@ 1
تأث@@ 1
قاب@@ 1
الشخص 1
المتوسط 1
الرس@@ 1
السنوات 1
عديدة 1
التهاب 1
دهم 1
إيران 1
الغرب 1
عَ@@ 1
وأيرلندا 1
الحكومية 1
وائية 1
كه@@ 1
جاك@@ 1
مج 1
البشر 1
حسين 1
سياسة 1
! 0.5133916184097218
ابي 1
النظ@@ 1
زر@@ 1
بنية 1
نيات 1
واي 1
الب 1
القاهرة 1
القصة 1
لور@@ 1
شيو@@ 1
رئي@@ 1
بقيادة 1
قُ@@ 1
الثامن 1
ازات 1
هية 1
صد@@ 1
مسل@@ 1
R@@ 0.12150376340302857
الكون@@ 1
بشأن 1
بيانات 1
ابية 1
ضغط 1
الترا@@ 1
مدن 1
الرعاية 1
تغيير 1
العل@@ 1
طروادة 1
دمشق 1
السلطان 1
تركيا 1
ثقافة 1
الاع@@ 1
ائع 1
كنيسة 1
الذه@@ 1
ستين 1
الماضي 1
إطلاق 1
جير@@ 1
الجنسية 1
الاقتصاد 1
ديدة 1
ملة 1
بعضها 1
دوا 1
نر 1
الرواية 1
الف 1
واع@@ 1
الأه@@ 1
البيئة 1
الكويت 1
+ 0.8643501841068022
روي@@ 1
بالس@@ 1
ومؤ@@ 1
زو 1
سواء 1
ينه 1
مياه 1
الفضاء 1
داف@@ 1
السياسة 1
قياس 1
للغاية 1
سار@@ 1
الاحترافية 1
قوى 1
المل@@ 1
بسي@@ 1
A@@ 0.1276269247114713
الصي@@ 1
وافق 1
فيف 1
السري@@ 1
شار 1
اكتشف 1
60 0.8811327463199242
تزال 1
الكل@@ 1
لَ@@ 1
لائ@@ 1
تلفزي@@ 1
رى 1
عار@@ 1
هاج@@ 1
لز 1
مثال 1
يمي@@ 1
ارها 1
دني 1
الأخ@@ 1
النفس 1
شاعر 1
مم@@ 1
التج@@ 1
أست@@ 1
هن@@ 1
1974 1
بيه 1
قيقة 1
الخدمات 1
جع 1
سوم 1
سميث 1
نز 1
نيو 1
رفض 1
1975 0.9816481442099714
الجرا@@ 1
زر 1
يتعلق 1
الكتب 1
1978 1
جعل@@ 1
دبليو 1
ثورة 1
سعيد 1
مكتب 1
1976 1
جدا 1
أَ@@ 1
كه 1
يمت@@ 1
يمكن@@ 1
فيلد 1
اللون 1
قط 1
فرو@@ 1
سياسية 1
تابعة 1
أط@@ 1
المتعلقة 1
ويتم 1
الطفل 1
تبط 1
مم 1
الكلية 1
السابع 1
حل@@ 1
الخص@@ 1
الملا@@ 1
انتقال 1
بون 1
ربع 1
الأوسط 1
شهادة 1
ونغ 1
التجارة 1
اون@@ 1
توق@@ 1
اليهود 1
أوس@@ 1
قطع 1
الثامنة 1
بالإنجليزية 1
ارضة 1
خلايا 1
عرا@@ 1
مالي 1
نار@@ 1
الروسية 1
نشاء 1
توقع 1
1973 1
البلدان 1
ائها 1
الأفراد 1
سمي 1
الموض@@ 1
درجات 1
فعل 1
والف@@ 1
لته 1
ليين 1
انضم 1
كيمي@@ 1
ندا 1
وذ@@ 1
مدير 1
الطبيعي 1
إند@@ 1
الموسيقى 1
شغل 1
فرق 1
المنظمة 1
بهذا 1
ثين 1
ديم 1
التعاون 1
الرومانية 1
نتائج 1
نمو 1
كتلة 1
اجات 1
قطاع 1
يكية 1
الأمريكيين 1
الطائرة 1
ليست 1
الأعلى 1
والعشرين 1
السين@@ 1
زب@@ 1
التركي@@ 1
نام@@ 1
حال 1
زع@@ 1
سياس@@ 1
ترح 1
لاحقًا 1
ولكنها 1
بدا@@ 1
ضى 1
طب 1
عصر 1
لول 1
ارس 1
هج@@ 1
1@@ 1
ديات 1
قاع@@ 1
متر@@ 1
او 1
أجهزة 1
الأكاديمية 1
الساعة 1
باست@@ 1
المسل@@ 1
ميع 1
نقص 1
وض 1
عالم@@ 1
عليهم 1
فائ@@ 1
السر@@ 1
الجز@@ 1
مملكة 1
يزيد 1
جوا@@ 1
الباح@@ 1
دواوير 1
الأردن 1
صلة 1
تبة 1
1972 0.9484775364563547
يول@@ 1
قب 1
هان@@ 1
طائرة 1
الوج@@ 1
الولاية 1
الزواج 1
المشروع 1
حملة 1
أمراض 1
راب 1
القدرة 1
التون@@ 1
الرحمن 1
العمليات 1
اهر 1
وانتخب 1
الشعر 1
درو@@ 1
قول 1
عتبر 1
العثمانية 1
رز 1
ضاء 1
حرارة 1
أساس@@ 1
الرياضية 1
السوق 1
المرضى 1
ذكر@@ 1
أسب@@ 1
خطر 1
طالب 1
حدوث 1
الأعضاء 1
البرازيل 1
الضغط 1
تهر 1
ميد 1
باشا 1
تسجيل 1
يرية 1
المعروفة 1
مجتمع 1
لبنان 1
عكس 1
موسيقى 1
الفن 1
برة 1
الجنسي 1
المكسيك 1
الطرق 1
أجزاء 1
تبر@@ 1
صر@@ 1
ينها 1
البص@@ 1
الكث@@ 1
ملح@@ 1
الكت@@ 1
ثاني 1
سكو 1
إنها 1
منظ@@ 1
ْ 1
1968 0.9629580594633056
الآثار 1
التز@@ 1
ده@@ 1
مسجد 1
كتابه 1
معد@@ 1
التك@@ 1
مشتر@@ 1
النس@@ 1
ادئ 1
الأث@@ 1
جبال 1
لش@@ 1
1960 0.8386567204897082
الثلا@@ 1
يَ@@ 1
1977 1
عمله 1
توى 1
تتضمن 1
تقنية 1
ران@@ 1
والن@@ 1
خمس 1
الأفلام 1
البع@@ 1
الرح@@ 1
وقعت 1
1971 0.9674998043709717
تطور 1
اقة 1
منت 1
مالية 1
بلوماس@@ 1
كام 1
يونايتد 1
جذ@@ 1
مفهوم 1
ذج 1
نظيم 1
النوادي 1
فته 1
اذ 1
ويع@@ 1
يخت@@ 1
عادةً 1
هند@@ 1
E@@ 0.13694104269849908
الإير@@ 1
وراق 1
80 0.9030819297582053
روف 1
إنج@@ 1
لون@@ 1
العص@@ 1
ليا 1
وبي 1
سيد 1
آثار 1
تتكون 1
نمية 1
تمث@@ 1
العسكري 1
000 1
صالح 1
ورو 1
ياس 1
إيه 1
متح@@ 1
رغ@@ 1
قع 1
طاق@@ 1
صاحب 1
فرض 1
متا@@ 1
المشار@@ 1
تقريبًا 1
التأ@@ 1
ترض 1
الهدف 1
الأف@@ 1
الدكتور 1
ريق 1
ارض 1
يزال 1
أنط@@ 1
سه@@ 1
1969 1
بطريقة 1
ضخ@@ 1
ميات 1
1964 1
بالن@@ 1
كاب@@ 1
السيد 1
ّر 1
إم@@ 1
النووي 1
رَ@@ 1
مو 1
البري@@ 1
سلم 1
مشاركة 1
اول 1
” 0.31761742131751813
المسلسل 1
حصاء 1
المعهد 1
وه 1
تدريب 1
صد 1
الجانب 1
نيين 1
السورية 1
the 0.0036600017856945836
رؤ@@ 1
المنزل 1
مويل 1
وأصبح 1
عاً 1
الوحيد 1
بالف@@ 1
تطبيق 1
سد 1
اؤ@@ 1
العدد 1
نو 1
راض 1
بوس@@ 1
وعندما 1
يض@@ 1
ائف 1
الهول@@ 1
تذ@@ 1
الروا@@ 1
جيل 1
غي 1
سلط@@ 1
موظ@@ 1
ثت 1
ودي 1
O@@ 0.14707868295120163
اكتشاف 1
0.@@ 1
إصدار 1
والمع@@ 1
كب 1
إنه 1
وممثل 1
المقد@@ 1
الأول@@ 1
ساعة 1
الا@@ 1
المهنية 1
تول@@ 1
خيص 1
وكي@@ 1
انظر 1
1963 1
16@@ 0.8327394558660411
y 0.020845528600234097
الصينية 1
معرفة 1
ذه@@ 1
ريتشارد 1
قصيرة 1
وره 1
الحالية 1
بمع@@ 1
تث@@ 1
مبار@@ 1
ابع 1
شب@@ 1
جابة 1
ربط 1
ابقة 1
جاب@@ 1
نواب 1
بموجب 1
تعود 1
أسباب 1
مود 1
تعتمد 1
ملت 1
وغير 1
سور 1
زت 1
عمار 1
حياتها 1
ضافة 1
1950 0.870767686202029
اتية 1
ددة 1
آخرين 1
السيطرة 1
طه 1
مقارنة 1
سلطة 1
البرا@@ 1
صنع 1
لاب 1
القدس 1
الأساسي 1
هير 1
اثنين 1
كلا 1
توس@@ 1
لديه 1
إير@@ 1
النار 1
النقطة 1
قوق 1
مجرد 1
امرأة 1
شرف 1
حماية 1
ونصف 1
ابل 1
عود 1
اختبار 1
أكد 1
الار@@ 1
200 0.7931836034061788
الأدب 1
العصور 1
برغ 1
مصدر 1
مقد@@ 1
وائ@@ 1
ساهم 1
اكتش@@ 1
محامي 1
إس@@ 1
سبق 1
القرآن 1
واد 1
شن 1
الأصل 1
كتاب@@ 1
فإنه 1
نس 1
ءات 1
قصر 1
فو 1
تسبب 1
جرى 1
ربما 1
وحد@@ 1
الحيوية 1
الآخرين 1
غيل 1
الأسب@@ 1
فًا 1
الإغريق 1
ترف 1
الهند@@ 1
بدلاً 1
والس@@ 1
اعت@@ 1
الفت@@ 1
تكنولوجيا 1
ريض 1
الإسك@@ 1
الإصابة 1
صول 1
الفل@@ 1
1962 1
اهتمام 1
انتهاء 1
الثقافية 1
خة 1
أسط@@ 1
الحص@@ 1
500 0.8652949227650725
الجنس 1
هنا 1
المحور 1
أنظمة 1
ماسة 1
قلة 1
A 0.10993617463991226
آنذاك 1
المركزية 1
كيلومتر 1
الليبر@@ 1
تز 1
فرنسية 1
تاب@@ 1
تشر 1
عاصمة 1
شت@@ 1
مالك 1
صدي@@ 1
يث 1
ماية 1
العائلات 1
وبات 1
1965 1
الثلاثة 1
ذر@@ 1
الرسمية 1
ائدة 1
جد@@ 1
ونا 1
تد 1
&#124; 0.704617583466923
ويبلغ 1
إل 1
المبكرة 1
شية 1
الذكور 1
ومية 1
1956 1
النقل 1
قى 1
البناء 1
الفض@@ 1
الفرقة 1
إست@@ 1
اختيار 1
وصلت 1
تة 1
هور 1
اطة 1
الأسود 1
عزلة 1
لار@@ 1
بك 1
وقع 1
شح 1
تسل@@ 1
تاح 1
صل@@ 1
70 0.8866495443900193
روض 1
يفة 1
ينو 1
اليابانية 1
حقق 1
القض@@ 1
* 0.4237583390982095
القوى 1
توزيع 1
رعاية 1
فلا@@ 1
انها 1
خطوط 1
بتاريخ 1
العالي 1
تحليل 1
توج@@ 1
شخاص 1
قدي@@ 1
لقة 1
مواقع 1
المشاركة 1
الإنجليزي 1
خفضة 1
السبب 1
العنف 1
بري 1
يسمح 1
ادا 1
زها 1
يعتقد 1
الاقتصادي 1
وفقا 1
كش@@ 1
مادة 1
ارك 1
مليار 1
ائزة 1
المنتخب 1
بحاث 1
والغ@@ 1
أسترالي 1
فح@@ 1
قيام 1
الدور 1
انج@@ 1
وخاصة 1
زال 1
اور 0.8104614415602517
مدرب 1
متحف 1
مرت 1
مهرجان 1
روز 1
بنا@@ 1
المهاج@@ 1
ريح 1
حكوم@@ 1
إما 1
القائمة 1
مربع 1
بلغ@@ 1
لديهم 1
التطبي@@ 1
المؤتمر 1
مثلة 1
ارير 1
السلة 1
المصطلح 1
35 0.8824914369806466
مصادر 1
تفع 1
صنا@@ 1
السلطات 1
الصناعية 1
الممكن 1
تصوير 1
تكوين 1
قدرة 1
الشيوخ 1
العائلة 1
وج 1
المحلي 1
امن 1
لكنها 1
النمو 1
1958 1
الجغرا@@ 1
اللبن@@ 1
افر 1
مؤتمر 1
مرور 1
المعل@@ 1
الشمالي 1
ريم 1
مدار 1
آسفي 1
السكاني 1
دخول 1
طع 1
صات 1
روما 1
ابت@@ 1
ملعب 1
أسس 1
حز@@ 1
ريس 1
الدر@@ 1
العرض 1
نسي@@ 1
تج 1
السودان 1
انًا 1
جوزيف 1
• 1
مس 1
خذ 1
يتكون 1
يغ@@ 1
أسر@@ 1
وتم@@ 1
كومة 1
سليمان 1
نيك@@ 1
تقييم 1
فتا@@ 1
الحقوق 1
1966 0.9702125367735754
التشري@@ 1
العلاقة 1
يرو 1
المدنية 1
خر 1
متز@@ 1
ليب 1
ومات 1
سها 1
كُ@@ 1
90 0.8673474589334806
السط@@ 1
ريب 1
انتشار 1
لز@@ 1
ذاعة 1
مواد 1
الزوج@@ 1
بسرعة 1
تعزيز 1
روع 1
أت@@ 1
اجتماع@@ 1
الفلسطينية 1
الوز@@ 1
النهائي 1
لس@@ 1
الفلسط@@ 1
كثيرة 1
ستخدام 1
cricketer 1
ثق@@ 1
نائب 1
1961 1
تمتع 1
ليف 1
موز 1
خز@@ 1
إصابة 1
رفع 1
جم@@ 1
كير 1
يبدو 1
ديه 1
الته@@ 1
صغير 1
المال 1
ورها 1
والأر@@ 1
أبناء 1
كيم 1
سري 1
ئين 1
حدد 1
ابعة 1
نون 1
صوت 1
يان@@ 1
راتيجية 1
نموذج 1
مستويات 1
الديمقراطية 1
بيتر 1
ناطي@@ 1
التقلي@@ 1
ترا 1
والاست@@ 1
ريبة 1
اسمها 1
لبة 1
بعاد 1
وراء 1
المسجد 1
سيم 1
المعركة 1
كوك 1
كد 1
إدوارد 1
تعرض@@ 1
سيل 1
كوريا 1
ومج@@ 1
الـ@@ 1
اليب 1
إض@@ 1
التدري@@ 1
قِ@@ 1
التغ@@ 1
The 0.018599504325659516
وكالة 1
الكه@@ 1
أنَّ 1
مائي 1
ذت 1
لاع 1
تقري@@ 1
خارجية 1
أعماله 1
W@@ 0.10262423158988228
الفق@@ 1
ارتف@@ 1
بينها 1
شعار 1
فصيلة 1
تجاوز 1
جيا 1
تعليم@@ 1
أطلق 1
مدريد 1
مساح@@ 1
المصادر 1
الفرق 1
قَ@@ 1
إطار 1
أسماء 1
ساء 1
الأجن@@ 1
برلين 1
سيناريو 1
مستشفى 1
اده 1
هاي@@ 1
مسافة 1
ونيا 1
كورونا 1
أبرز 1
ناش@@ 1
اعتق@@ 1
خالد 1
العهد 1
in 0.005684606949092623
الكيمي@@ 1
اها 1
عامل 1
منح@@ 1
الزراعة 1
القيادة 1
الدع@@ 1
النج@@ 1
تعريف 1
الذاتية 1
لفترة 1
1944 0.7930232503476906
فيس 1
محمود 1
وبعض 1
اكرة 1
برية 1
قبيلة 1
فض 1
الولادة 1
تعني 1
إلي 1
وهذه 1
سعى 1
1949 1
يتها 1
سه 1
موض@@ 1
ّن 1
1947 1
سوى 1
جاه 1
هات@@ 1
الخليج 1
دقيقة 1
ائن 1
أمير 1
اهد 1
المزيد 1
قف 1
زوجته 1
اصط@@ 1
وتُ@@ 1
تغي@@ 1
معل@@ 1
جدًا 1
الشبكة 1
نشا@@ 1
اعتماد 1
ولو 1
ليلة 1
1946 0.967669212449738
معالجة 1
ندس 1
خاص@@ 1
لمحافظة 1
أرض 1
بورغ 1
بز@@ 1
العام@@ 1
تشي@@ 1
دس 1
عملت 1
يمثل 1
تحدي@@ 1
الجنوبي 1
المعم@@ 1
قرى 1
الطعام 1
الاستقلال 1
السو@@ 1
2.@@ 1
بوي@@ 1
المب@@ 1
بهدف 1
ويا 1
الجوي 1
حالياً 1
خوان 1
التعداد 1
بالر@@ 1
جراء 1
ذر 1
صار@@ 1
اجتماعية 1
جين@@ 1
لعبة 1
بجامعة 1
اختي@@ 1
فرع 1
الروسي 1
بُ@@ 1
أنجلوس 1
اصيل 1
توحة 1
يد@@ 1
المؤسسات 1
أقدم 1
لاس 1
المجموعات 1
موسى 1
دج 1
لفات 1
رسل 1
حاج@@ 1
الضوء 1
ينز 1
التط@@ 1
ميزة 1
الإمام 1
القرا@@ 1
هد@@ 1
1940 0.8594131309645184
جماعة 1
بمدينة 1
علوم 1
للحصول 1
التصميم 1
جاج 1
حمل 1
أكاديمية 1
اليمنية 1
تحرير 1
مراكش 1
الحد 1
حقي@@ 1
1941 0.8290627453110131
دودة 1
صلاح 1
قام@@ 1
الملكي 1
الهيئة 1
خراج 1
النووية 1
الوا@@ 1
رابطة 1
سف@@ 1
واق 1
اعل 1
الست@@ 1
بصورة 1
بوم@@ 1
قيل 1
هار 1
افترا@@ 1
الأصلية 1
الطبقة 1
عون 1
1939 0.8776817768199469
انس 1
تعيين 1
للص@@ 1
سمح 1
مائ@@ 1
المستخدمة 1
نك 1
شرات 1
خلف 1
هاء 1
لوان 1
أسلوب 1
التحكم 1
تمرار 1
ساع@@ 1
الصحي 1
لكي 1
شارع 1
وجدت 1
للعمل 1
1959 1
1957 1
“ 0.0826667678817246
أدت 1
ترك@@ 1
الشخصيات 1
الأسط@@ 1
ثات 1
الإمبراطور 1
كوي@@ 1
اللح@@ 1
الإم@@ 1
سور@@ 1
1955 1
تال 1
شرة 1
الوحدة 1
البرامج 1
قطر 1
نشرت 1
قضية 1
ونظ@@ 1
التصني@@ 1
جغرافيا 1
الإمارات 1
ففي 1
المناخ 1
عسكرية 1
كاف@@ 1
غم 1
القدر 1
رته 1
footballer 1
الهندية 1
غلاق 1
ومي 1
تحاد 1
كيلو@@ 1
برج 1
تاون 1
32 0.8563970379757905
يعتمد 1
المؤقت 1
نات@@ 1
هجوم 1
اسب 1
انتهت 1
رأ@@ 1
اطر 1
قوانين 1
تقدي@@ 1
دام 1
راسة 1
طان 1
وشارك 1
للج@@ 1
الوضع 1
بنى 1
الاستخدام 1
ضر 1
أثر 1
النفط 1
إح@@ 1
بحسب 1
القرار 1
القسم 1
الني@@ 1
باع 1
طلاب 1
ومع@@ 1
بيب 1
توفر 1
زيمة 1
اءات 1
العثور 1
النظرية 1
رمز 1
طق 1
1954 1
التركية 1
السياس@@ 1
سباق 1
نط@@ 1
الحاكم 1
التنفي@@ 1
مور 1
تختلف 1
زه 1
الرابعة 1
تدخل 1
اكت@@ 1
مناف@@ 1
الخلي@@ 1
اكمة 1
1952 1
K@@ 0.09115478155868754
تجاه 1
امز 1
روة 1
شن@@ 1
مدي@@ 1
وبلغ 1
الح 1
عدام 1
سرعة 1
وح 1
كيفية 1
الحال 1
للمر@@ 1
الكوي@@ 1
رسون 1
رويج 1
الرجل 1
لاعبة 1
اضية 1
المريض 1
بيئة 1
رضية 1
بلغت 1
حاول 1
غلا@@ 1
وتو 1
يعيش 1
اليونانية 1
زوجها 1
استخدم 1
النبي 1
بينهم 1
صن@@ 1
اتخ@@ 1
إث@@ 1
لوك@@ 1
توم@@ 1
كشف 1
يحمل 1
الهندسة 1
الصوت 1
تقرير 1
غور@@ 1
فيت 1
كمية 1
النز@@ 1
زان 1
تجمع 1
المطلق 1
منز@@ 1
آن 1
الأهلية 1
غض@@ 1
اليين 1
فاء 1
اليون@@ 1
إخراج 1
تلق@@ 1
رحلة 1
النشاط 1
يتح@@ 1
ولات 1
قلب 1
محددة 1
المسلحة 1
الإنسانية 1
الحمل 1
بنت 1
برلمان 1
فور 1
معين 1
آخرون 1
زراعة 1
ألك@@ 1
ذوي 1
فأ@@ 1
قلعة 1
فاف 1
الاتصال 1
رئيس@@ 1
المعرفة 1
يمية 1
اقتص@@ 1
رخ 1
شرا@@ 1
إحصائيات 1
رسالة 1
روي 1
الكندي 1
للق@@ 1
غز@@ 1
الطائرات 1
لمح@@ 1
أطل@@ 1
الطبيعة 1
الكر@@ 1
تعيش 1
زون 1
تاريخية 1
حاد@@ 1
طلاق 1
الدقيقة 1
اريا 1
قرب 1
واضح 1
طيع 1
ماد@@ 1
اعتبار 1
باكستان 1
جاح 1
ّم 1
طنين 1
عناصر 1
أون@@ 1
القمر 1
الدماغ 1
براطورية 1
المشتري 1
بيض 1
تغير 1
خلاف 1
ومنها 1
واجه@@ 1
زوج@@ 1
V@@ 0.10908137607685234
للاست@@ 1
البيئية 1
يمة 1
بالفعل 1
كيل 1
والخ@@ 1
1943 0.8314755276553604
التصوير 1
تؤدي 1
اص 1
الإسباني 1
جزءًا 1
الفصل 1
احتف@@ 1
الإقلي@@ 1
امها 1
وارد 1
نج 1
الطيران 1
الك 1
عبة 1
شياء 1
الدعم 1
قدر 1
الأصلي 1
بور 1
تمد 1
وعين 1
تسم@@ 1
العد@@ 1
شائ@@ 1
مهاج@@ 1
لاحظ 1
ائرات 1
تشغيل 1
الياب@@ 1
الإيطالي 1
ثانية 1
ياب@@ 1
John 0.24242535742107577
حمل@@ 1
مسر@@ 1
أراضي 1
الأم 1
المرتبة 1
أيرلندا 1
التكن@@ 1
بحر 1
سندر 1
and 0.005899733604415356
نشأ 1
حاليًا 1
طوله 1
السفل@@ 1
العش@@ 1
انخفاض 1
لادي 1
ويت 1
الفنون 1
وبد@@ 1
إيجاب@@ 1
الطر@@ 1
عاد@@ 1
1953 1
متنوعة 1
أبر@@ 1
الفار@@ 1
الحفاظ 1
منزل 1
فَ@@ 1
الأسلحة 1
مكافحة 1
العب@@ 1
ُّ@@ 1
كانون 1
فرنسي 1
أصول 1
طري@@ 1
لط@@ 1
المثليين 1
دته 1
ماك 1
شرطة 1
أغاني 1
الخط 1
تطبي@@ 1
تلال 1
دوية 1
علاقات 1
لأنها 1
يطلق 1
ركة 1
رؤية 1
ضعف 1
إج@@ 1
آر@@ 1
كتي@@ 1
تجارة 1
خرى 1
طبقة 1
السكانية 1
هرباء 1
ولون 1
براون 1
لتون 1
اسوب 1
النهائية 1
البلدة 1
السفر 1
العناصر 1
خطة 1
1942 0.8160567489420686
الأز@@ 1
اللغات 1
المعاد@@ 1
النص@@ 1
1951 1
اكم 1
عج@@ 1
راج@@ 1
ة.@@ 1
آلاف 1
السوفيتي 1
شير 1
معاهدة 1
هج 1
ابين 1
رس 1
سك 1
مح 1
طانية 1
الأج@@ 1
الرقم 1
بلة 1
الكيميائية 1
اور@@ 1
مقاب@@ 1
45 0.7276950842097941
قليل 1
بعضهم 1
ترج@@ 1
يصبح 1
ناس@@ 1
هيل 1
انق@@ 1
ماث@@ 1
x 0.26412682001905824
هذ@@ 1
درالية 1
فاق@@ 1
لاحقة 1
I@@ 0.15571220732631022
القيام 1
قدمت 1
دنية 1
65 0.8335746404845337
آي 1
جاك 1
شو 1
عنوان 1
رخ@@ 1
مارتن 1
كاس@@ 1
فيديو 1
حلب 1
المسرح 1
تفاعل 1
وممثلة 1
التخ@@ 1
ذين 1
زوجة 1
ويست@@ 1
بهذه 1
يّ 1
تعلق 1
ساك@@ 1
أغلب 1
ضيف 1
ّف 1
باه 1
دود 1
معروف 1
الخلية 1
الناحية 1
مواجهة 1
أساسي 1
الآسي@@ 1
بدء 1
تناول 1
الزراعية 1
حضر 1
عبين 1
خلق 1
فعل@@ 1
مناصب 1
هُ 1
الأولية 1
الاحتلال 1
تنظ@@ 1
كمال 1
مقر 1
الكار@@ 1
والج@@ 1
وليد 1
قوا@@ 1
مماث@@ 1
الانتق@@ 1
يقصد 1
غار 1
C 0.25452016368386354
نجاح@@ 1
ّي 1
ترجمة 1
ابنة 1
سوية 1
اللعبة 1
وسجل 1
شهد 1
البرلمانية 1
راي 1
مجموع@@ 1
أمي@@ 1
إد@@ 1
ولعب 1
الجليد 1
المرجعية 1
جاه@@ 1
كير@@ 1
ندرية 1
أعط@@ 1
الاب@@ 1
النتائج 1
تاي@@ 1
الصحي@@ 1
1936 0.9503104913271114
اربة 1
ثنائي 1
بالج@@ 1
محرك 1
مول 1
ثمار 1
العوامل 1
القبائل 1
بمثابة 1
نف 1
تحويل 1
التأثير 1
طين 1
لب@@ 1
محكمة 1
أطفال 1
أنّ 1
والمج@@ 1
عاما 1
بالكامل 1
كاملة 1
ويب 1
وصول 1
سرا@@ 1
شعب@@ 1
التمييز 1
ألماني 1
شف@@ 1
البيض 1
الواقعة 1
وحصل 1
العاش@@ 1
تلقى 1
النسخة 1
انتخابية 1
انته@@ 1
بالغ@@ 1
فاءة 1
فري 1
التعل@@ 1
الذاتي 1
ستاذ 1
جت 1
للسيدات 1
الدن@@ 1
بكثير 1
كارل 1
أداء 1
ملاح@@ 1
موجودة 1
حساب 1
الوث@@ 1
رئاسة 1
ولقد 1
ؤ 1
امت 1
ويعتبر 1
بقية 1
بيان 1
شباط 1
حيات 1
الجوائز 1
القاد@@ 1
300 0.959986214648552
لوي 1
محر@@ 1
اهدة 1
الفني 1
إلغاء 1
الأحياء 1
3.@@ 1
البك@@ 1
صع@@ 1
لقى 1
تقلي@@ 1
لفية 1
وجه@@ 1
الإر@@ 1
فلس@@ 1
تمثيل 1
فلكية 1
البول@@ 1
اليا 1
مقاومة 1
a 0.006013078414152486
عاز@@ 1
الفرد 1
شارات 1
الأدوية 1
ًّا 1
الكلاسي@@ 1
القانونية 1
لإقليم 1
والرا@@ 1
ينت@@ 1
مارسة 1
مجالات 1
الإسرائيلية 1
حاكم 1
المواقع 1
الإسرائيلي 1
التدريب 1
العين 1
الهيدرو@@ 1
تجربة 1
لقي 1
موس 1
المهمة 1
انع 1
الاشترا@@ 1
القرى 1
مانيا 1
الوريوس 1
السعودي 1
جونز 1
أخر 1
الإناث 1
فريقيا 1
الغر@@ 1
خت 1
روح 1
كتور 1
سلطان 1
يرون 1
أكيد 1
واصل 1
الخارج 1
خور 1
شراف 1
والتح@@ 1
الموارد 1
بيروت 1
حلقة 1
العقد 1
ورئ@@ 1
الإسبانية 1
مدارس 1
روز@@ 1
الأبحاث 1
الزمن 1
1920 0.8034723854021749
الرياض@@ 1
متلازمة 1
وتية 1
الكويكبات 1
بض 1
دليل 1
راتي@@ 1
طوال 1
مبنى 1
السع@@ 1
داني@@ 1
الإست@@ 1
لشركة 1
ّه 1
شيكاغو 1
المذ@@ 1
سائ@@ 1
موج@@ 1
الإض@@ 1
عضوًا 1
الملحق 1
الأند@@ 1
جزاء 1
حام@@ 1
المؤسسة 1
تيني 1
لص@@ 1
اليهودية 1
الصور 1
انوية 1
كيا 1
المباد@@ 1
استمر 1
هولة 1
يث@@ 1
ّد 1
فقال 1
الفيديو 1
النطاق 1
1.@@ 0.8750895064455774
البشري 1
النش@@ 1
33 0.8930605602160788
ينيا 1
الطبي@@ 1
ينغ@@ 1
إنس@@ 1
الساح@@ 1
ممارسة 1
بولاية 1
جدي@@ 1
وتن@@ 1
استخدامها 1
تان@@ 1
تفسير 1
علام 1
المنتجات 1
المشتركة 1
رم 1
75 0.8743368953966089
السفن 1
كلين 1
جمال 1
الكاثوليكية 1
لذا 1
الخض@@ 1
فشل 1
فوز 1
ظروف 1
مصطفى 1
جداً 1
أصغر 1
الأعراض 1
الغذائية 1
مرد 1
ملايين 1
نظم 1
التصويت 1
مراكز 1
الاتح@@ 1
سلالة 1
سعود 1
وحدات 1
معروفة 1
مشاكل 1
201@@ 1
دَ@@ 1
منت@@ 1
ميز@@ 1
الدو@@ 1
ومست@@ 1
وقام 1
طويل 1
هندسة 1
استمرت 1
شاء 1
المجاورة 1
ديان 1
كنت 1
مسرحية 1
انتخ@@ 1
باعتب@@ 1
مايكل 1
سار 1
ذة 1
اليونان 1
سفر 1
روم 1
مشيخات 1
ساب 1
اتفاقية 1
السويد 1
قوية 1
كبار 1
والط@@ 1
توس 1
راجع 1
نظرًا 1
القصي@@ 1
جسم 1
درب 1
قائق 1
الورا@@ 1
طبيعة 1
لفاء 1
سرية 1
زمن 1
صرف 1
بلا 1
باي 1
تحسين 1
معها 1
مباريات 1
إيط@@ 1
الدستور 1
ابنه 1
عاش 1
البلد 1
الفرنسي@@ 1
سيما 1
ائح 1
us 0.101537790241159
ندق 1
سلاح 1
عبد@@ 1
S 0.3285979472239483
حًا 1
رفض@@ 1
خض@@ 1
حج@@ 1
شعبية 1
طلبات 1
زار 1
فكان 1
أض@@ 1
ائلة 1
خاض 1
20@@ 1
سارة 1
كويكب 1
البرية 1
فيل@@ 1
ولايات 1
طان@@ 1
ناق@@ 1
مديرية 1
بعينيات 1
قواعد 1
محل 1
سرا 1
ولاعب 1
الموت 1
ضح 1
نزالا 1
وائل 1
الجان@@ 1
الكتابة 1
تينات 1
مصري 1
انتش@@ 1
رأس@@ 1
وبر 1
دريك 1
نسجة 1
تأسس 1
أري@@ 1
دوى 1
السلا@@ 1
منش@@ 1
وإن@@ 1
وسيلة 1
الجزي@@ 1
الجمع@@ 1
فتح@@ 1
احتي@@ 1
كولومبيا 1
يقة 1
عند@@ 1
متع@@ 1
عطاء 1
قوم 1
وذك@@ 1
يح 1
الجري@@ 1
رال 1
طار 1
جونسون 1
نوات 1
تيك 1
الساحل 1
انيين 1
مكسي@@ 1
i 0.10457458227961607
تأليف 1
نشاط 1
الأغنية 1
المسيحيين 1
تبدأ 1
نع@@ 1
يّ@@ 1
خري@@ 1
الاحتف@@ 1
الشام 1
الأور@@ 1
تكساس 1
حيل 1
طاء 1
لندية 1
فز 1
رش 1
سبور@@ 1
التحرير 1
ويلز 1
اشة 1
J@@ 0.11111699676679503
تزوج 1
كمة 1
نما@@ 1
يْ@@ 1
تسمية 1
تقسيم 1
مراقبة 1
وعدد 1
1930 0.768287341731601
ةِ 1
اضطراب 1
اعتراف 1
باق 1
وسع 1
رتبة 1
وبي@@ 1
شل 1
بولندا 1
ليكون 1
موضوع 1
ميت 1
الإنج@@ 1
الطيور 1
دولية 1
كالي@@ 1
ّا 1
أنفسهم 1
سيطرة 1
قبائل 1
مبر@@ 1
يعانون 1
المركزي 1
وأصبحت 1
المنافسة 1
تام@@ 1
حمض 1
ساحة 1
بلية 1
كا@@ 1
البرتغال 1
النجوم 1
نوب@@ 1
يدي 1
الحق 1
سجين 1
إسباني 1
وإلى 1
تقليل 1
ماريا 1
مرو@@ 1
الجزائ@@ 1
سس 1
الحي@@ 1
العرق@@ 1
فيلي@@ 1
البحرين 1
الإعلان 1
حايا 1
حدة 1
الأرجنتين 1
داب 1
دراسته 1
السينما 1
بـ@@ 1
النخ@@ 1
وفة 1
الخلا@@ 1
درو 1
المتحف 1
خلف@@ 1
رئيسي 1
محترف 1
الحديد 1
الوحيدة 1
مشاركًا 1
روسات 1
كاث@@ 1
التطور 1
المحافظ@@ 1
1938 0.8073267438394228
اتل 1
سبة 1
وتي 1
اليم 1
وفا 1
ّى 1
الداخلي 1
صلا@@ 1
ماي@@ 1
1933 0.8717758964390183
ابيع 1
وسطة 1
on 0.01582327107168713
افظ 1
مداره 1
الجلد 1
لله@@ 1
بكر 1
مواسم 1
والد 1
حف@@ 1
التنمية 1
العثماني 1
سال@@ 1
كست@@ 1
بقي 1
وإن 1
وتعتبر 1
تضمن 1
سبعة 1
علامة 1
ألة 1
واخت@@ 1
العودة 1
ومنذ 1
الرياضي 1
1937 0.8884862899472126
الحجم 1
المنظمات 1
تشرين 1
رُ@@ 1
الأسماك 1
المبار@@ 1
الده@@ 1
القيمة 1
جها 1
الأخلا@@ 1
الجزائرية 1
مراجع 1
القناة 1
قليلة 1
جائ@@ 1
الفعل 1
طالب@@ 1
واحد@@ 1
ميم 1
وزن 1
تخرج 1
كباقي 1
مشكلة 1
انتقلت 1
يرى 1
العالية 1
توني 1
واجه 1
ازي 1
المساعدة 1
القتال 1
تمامًا 1
وخلال 1
التحق 1
الحجر 1
الشعبي 1
اللغ@@ 1
عظم 1
نيا 1
تصر 1
المجتمعات 1
الحاجة 1
الكهربائية 1
الانق@@ 1
التمثيل 1
فرانك 1
الدورة 1
براط@@ 1
ضمان 1
وش 1
ينيين 1
البريطان@@ 1
سيمات 1
أز@@ 1
الته 1
ظاه@@ 1
السما@@ 1
الصحافة 1
ق.@@ 1
يمر 1
الإطلاق 1
للأطفال 1
للسي@@ 1
وإداريًا 1
عزل 1
نانين 1
راس 1
نجم 1
ئك 1
ناس 1
ولوجي 1
تتميز 1
ميد@@ 1
واجد 1
الاتصالات 1
يب@@ 1
بث@@ 1
ومغ@@ 1
جح 1
الجنرال 1
جريدة 1
مستقلة 1
رصده 1
حُ@@ 1
اضطرابات 1
للمرة 1
الدار 1
طرا@@ 1
للط@@ 1
199@@ 1
القصر 1
عمره 1
ائة 1
فرط 1
ائط 1
السرطان 1
السيارات 1
وجي@@ 1
يلا 1
نيوزيلندا 1
والدها 1
عهم 1
غزو 1
هرة 1
تاء 1
دوا@@ 1
سعد 1
صاص 1
لاغرانج 1
الثقافي 1
ــ@@ 1
الجامعات 1
المقاومة 1
العراقية 1
موسي@@ 1
المرتبطة 1
روج 1
تسمح 1
التقنية 1
الهندي 1
بحرية 1
اقترا@@ 1
القضاء 1
منا 1
كول 1
عوامل 1
سيارة 1
بوا 1
1918 0.804279099314474
اصر 1
الناتج 1
يبدأ 1
حزاب 1
والر@@ 1
الكريم 1
الأساس 1
نَ@@ 1
أرا@@ 1
ثناء 1
مكتبة 1
الأصليين 1
السجن 1
وتر 1
الكاتب 1
يقدم 1
أوغ@@ 1
إجمالي 1
34 0.8527413174617323
إف 1
الروماني 1
الإلكترونية 1
درة 1
آر 1
تبع@@ 1
ديك@@ 1
سلطنة 1
مساع@@ 1
وعمل 1
تعديل 1
جاد 1
سوا 1
بعدما 1
ثان@@ 1
علن 1
يراً 1
de 0.003293993241752924
الحمض 1
الحرة 1
جزء@@ 1
شهدت 1
ويكون 1
طفل 1
الحم@@ 1
وات@@ 1
فوف 1
1935 0.9175557365529271
أصدر 1
الفلسفة 1
الحملة 1
صيف 1
لمدارات 1
نمو@@ 1
واش@@ 1
لتحديد 1
احية 1
المبنى 1
صنف 1
يتين 1
لمداره 1
التعين 1
ثى 1
مارسات 1
ّت 1
ذن 1
ارتبا@@ 1
الجة 1
فيليب 1
التواصل 1
MPO@@ 1
تتم 1
نيل 1
هى 1
الجنود 1
ميز 1
ينما 1
إمكانية 1
أحد@@ 1
تدفق 1
وتوفيت 1
التشريعية 1
القوانين 1
يضم 1
الحسن 1
طًا 1
وأخ@@ 1
إسماعيل 1
المسا@@ 1
دعى 1
السوري 1
باقي 1
قوب 1
يمات 1
ينت 1
الصورة 1
شد 1
مئ@@ 1
أمة 1
الدكتوراه 1
شرو@@ 1
عار 1
زيارة 1
غرفة 1
حاب 1
اللاتينية 1
بالرغم 1
تتأ@@ 1
الوزن 1
غول@@ 1
القومية 1
يشمل 1
الاشتراكية 1
سيكون 1
فاس 1
الكائنات 1
البنية 1
لفت 1
الظروف 1
العراقي 1
زنط@@ 1
عقب 1
حلول 1
الحدي@@ 1
قبول 1
الكربون 1
التعبير 1
المحيطة 1
يتع@@ 1
المستخدم 1
وظيفة 1
رتها 1
24@@ 1
اسبة 1
تخصصة 1
علية 1
سكوت 1
سفينة 1
القضايا 1
المار@@ 1
القومي 1
المنز@@ 1
المقدس 1
مسرح 1
الحين 1
رسم 1
كلو@@ 1
استق@@ 1
قيت 1
الجر@@ 1
الحمراء 1
رئيسية 1
هولندا 1
والمؤ@@ 1
طبق 1
4.@@ 1
يتي 1
لونة 1
المستقبل 1
للعلوم 1
وبدأ 1
جزي@@ 1
وته 1
يسون 1
عاص@@ 1
مسة 1
وهي@@ 1
1931 1
استعمال 1
ونش@@ 1
الرابطة 1
نجاح 1
إعلان 1
مظ@@ 1
وهكذا 1
ويوجد 1
36 0.8160842576639477
وعلم 1
تقنيات 1
وفية 1
ابهة 1
العصبية 1
تشي 1
وأر@@ 1
عاش@@ 1
أصحاب 1
الرك@@ 1
تخص@@ 1
دخال 1
عمو@@ 1
السنو@@ 1
الحديدية 1
ساعد 1
كثافة 1
موسم@@ 1
مرية 1
العملا@@ 1
تقريبا 1
1929 0.914909062735567
الغاز 1
مراحل 1
1934 0.9024498664547592
إلكترو@@ 1
بقى 1
نجد 1
حظ@@ 1
تبادل 1
الأنظمة 1
التركيز 1
ضابط 1
مؤلف@@ 1
البكتيريا 1
حَ@@ 1
ضع@@ 1
وارئ 1
ابتة 1
صحفي 1
دف 1
راز 1
يتضمن 1
استح@@ 1
الحقيقي 1
كجزء 1
ليصبح 1
نوعة 1
ذه 1
قصير 1
طها 1
يوب 1
الأربعة 1
الخارجي 1
بعي@@ 1
أنا 1
أفري@@ 1
كافة 1
الفح@@ 1
بح 1
واريخ 1
الحكومي 1
هول 1
البلا@@ 1
بعض@@ 1
غان@@ 1
معاد@@ 1
يعيش@@ 1
ينبغي 1
ميناء 1
القاعدة 1
تمتلك 1
توم 1
النمسا 1
ثا 1
اولات 1
ستان@@ 1
المستشفى 1
نشر@@ 1
وعض@@ 1
ساو@@ 1
الفنان 1
ثمانية 1
طبيب 1
تجارية 1
دُ@@ 1
الاغ@@ 1
بض@@ 1
وبية 1
38 0.827956531147181
التشخ@@ 1
تعامل 1
هلاك 1
كوفيد 1
الخل@@ 1
المدى 1
الوحدات 1
الكلمة 1
ءً 1
الطبي 1
ستيف@@ 1
يجعل 1
ترتيب 1
ضت 1
ملي@@ 1
آي@@ 1
أوق@@ 1
الثمان@@ 1
منى 1
الإيطالية 1
37 0.8937850562092746
أكسيد 1
نوا 1
القطاع 1
ونيسيا 1
زرق 1
خلفية 1
وروب@@ 1
مجة 1
النفسي 1
بالذ@@ 1
أبو@@ 1
تاين 1
تخصص 1
صيب 1
درج 1
شقي@@ 1
إزالة 1
التسمية 1
الطب@@ 1
اولة 1
باستثناء 1
كيين 1
أولا@@ 1
اصل 1
ندر 1
وأيضا 1
اللاعب 1
طرح 1
D 0.2947621244274408
الحي 1
ذها 1
أكاد@@ 1
المدني 1
تعي@@ 1
حر 1
سليم 1
المتك@@ 1
علومات 1
وبا 1
48 0.8601607078769562
لاك 1
نصر 1
تلعب 1
حرية 1
ً@@ 1
ئت 1
الاحتي@@ 1
الد 1
المكون@@ 1
يقرب 1
الأجهزة 1
بوم 1
وتقع 1
القد@@ 1
غية 1
مائية 1
معايير 1
2م 1
B 0.20749313761650254
المقاط@@ 1
غون 1
الابتد@@ 1
لبية 1
مبيوتر 1
كسي@@ 1
ادها 1
خش@@ 1
تتراوح 1
القوا@@ 1
المطاف 1
اظ 1
وسيع 1
1922 0.9777498499200671
سلات 1
استخدامه 1
الملكة 1
كوس@@ 1
ألبوم 1
أماكن 1
400 0.8496260281328616
تدور 1
وتشمل 1
المقاطعة 1
تري 1
كوين 1
بحيرة 1
سول 1
طوي@@ 1
الرئي@@ 1
42 0.8522593602769415
توب@@ 1
حن 1
رق 1
اقتصاد 1
درالي 1
حو 1
التعليمية 1
شخصيات 1
ابق 1
خصائص 1
ضرورة 1
النهر 1
ولذلك 1
ارف 1
سائر 1
التعامل 1
عوام 1
الإدار@@ 1
المسرحية 1
معظ@@ 1
وجود@@ 1
برش@@ 1
الأسباب 1
الكرة 1
المحافظة 1
تناف@@ 1
شعب 1
مكة 1
الجبل 1
ثن@@ 1
جامع 1
لعبت 1
ريال 1
الأفريقية 1
55 0.9039366506338414
فار 1
ويًا 1
يستطيع 1
الرأس 1
ائفة 1
ماد 1
وجهة 1
وغالب@@ 1
الحقيقة 1
ائيات 1
ياباني 1
وجامعة 1
الصد@@ 1
بطل 1
ريه 1
عسكري 1
قليم 1
ناف 1
an 0.01610216508247258
الثلاث 1
ناصر 1
نتج 1
دونالد 1
غب 1
تبع 1
البطولات 1
فاظ 1
ارين 1
ميس 1
الهجرة 1
عثمان 1
وغيرهم 1
النصف 1
تكلفة 1
تنق@@ 1
خص 1
طبق@@ 1
اسكت@@ 1
تعاون 1
ملاكم 1
منتج 1
اتا 1
الصغير 1
المتا@@ 1
هيرة 1
الحية 1
الكامل 1
المباني 1
كس@@ 1
الحقي@@ 1
توي 1
قوس 1
الناش@@ 1
1928 0.8616098824375964
P 0.3661575476520887
المسيرة 1
بيلة 1
وتف@@ 1
يكرو@@ 1
الهر@@ 1
1919 0.7932289629438176
الرؤ@@ 1
النات@@ 1
عمه 1
الحادي 1
والتعليم 1
ثون 1
جيد 1
الأماكن 1
السفينة 1
القائد 1
باد 1
فيين 1
موسيقي 1
رقام 1
مجموع 1
تهدف 1
العصبي 1
الصراع 1
انتخاب 1
ايير 1
قاط@@ 1
القلعة 1
شرح 1
علاق@@ 1
برات 1
جلة 1
يمز 1
كبيرًا 1
أعداد 1
مقتل 1
الأصول 1
المؤس@@ 1
الدموية 1
er 0.019581870341236696
البرتغ@@ 1
الج 1
عامين 1
قاد 1
داة 1
أظهرت 1
اطي 1
مباشر 1
الحرية 1
حيوانات 1
كونه 1
الثق@@ 1
الجمهور 1
يحيى 1
ستيفن 1
اقتصادية 1
أعراض 1
نوف@@ 1
الدائرة 1
لبعض 1
الشيوعي 1
كلة 1
اقات 1
المري@@ 1
للأمم 1
المتج@@ 1
يص 1
يوان 1
يرا@@ 1
أنشطة 1
الفوز 1
سَ@@ 1
ناية 1
يدعى 1
السريع 1
ينتج 1
الصحراء 1
صفات 1
ويد 1
n 0.09061434272112508
واستمر 1
اتجاه 1
التوا@@ 1
والعلوم 1
شاه@@ 1
الحاد@@ 1
اجة 1
قضايا 1
الأدبية 1
الطف@@ 1
استبد@@ 1
الأهداف 1
تصاب 1
مزي@@ 1
1924 0.8969441453417356
رون@@ 1
موسكو 1
تصنيع 1
خوسيه 1
الأطل@@ 1
الرحلة 1
عوا 1
وآ@@ 1
ريان 1
ضربة 1
جنة 1
نهائي 1
هُ@@ 1
T 0.31447187145911143
أبطال 1
الطلب 1
كم@@ 1
أجريت 1
الجبهة 1
التجارب 1
تصدر 1
1932 0.8770005443400696
بقاء 1
وند 1
إضافية 1
تتح@@ 1
ساعات 1
موند 1
39 0.824703687468984
بيًا 1
فازت 1
ملية 1
آب@@ 1
طت 1
رسمية 1
فه@@ 1
النموذج 1
O 0.2587468482279179
الواحد 1
ائعة 1
الأداء 1
الحماية 1
جرت 1
فعال 1
يكون@@ 1
بشدة 1
كونها 1
يلية 1
منتجات 1
اعلات 1
بينهما 1
مؤلف 1
اللازمة 1
خية 1
سيطر 1
شمل 1
دخلت 1
أقصى 1
الشاعر 1
إنتا@@ 1
1م 1
لد@@ 1
أستاذ 1
الموسيقية 1
خف@@ 1
قوم@@ 1
السلسلة 1
الفئة 1
بارك 1
بدي@@ 1
باي@@ 1
زيم 1
لتها 1
E 0.3199986844863271
مراج@@ 1
اشترا@@ 1
البابا 1
فيز 1
الغذاء 1
فلم 1
مجمع 1
ءت 1
الإدارية 1
تيب 1
كَ@@ 1
تملة 1
d 0.0592512672645569
t 0.05016504140443955
المائية 1
المنتج 1
نائي 1
مساه@@ 1
الرياضيات 1
صدرت 1
التسع@@ 1
تشار 1
حا 1
ديف 1
لجميع 1
1921 0.9178700330359073
الأسنان 1
عمة 1
ويم 1
برز 1
الأرث@@ 1
نائية 1
الحب 1
للك@@ 1
أصدرت 1
دست@@ 1
سكا 1
نوبل 1
وخ 1
ويين 1
الجدول 1
1923 0.9362325638024203
التل@@ 1
باعتبارها 1
الأمي@@ 1
النفسية 1
ضا 1
باك 1
راض@@ 1
والمست@@ 1
انتهى 1
زب 1
وتص@@ 1
تنفي@@ 1
64 0.6875183292746928
ظات 1
فيفة 1
خليج 1
دعي 1
الدست@@ 1
وبر@@ 1
أمر@@ 1
باع@@ 1
فرانسيسكو 1
للفنون 1
انض@@ 1
ثه 1
فارقة 1
الإلكتروني 1
واضحة 1
وبذلك 1
نب 1
25@@ 1
العموم 1
عرب 1
مقرا@@ 1
الأنشطة 1
جز 1
وسام 1
وسي 1
مركب 1
يره 1
البقاء 1
بلج@@ 1
حها 1
وسية 1
يأتي 1
بكل 1
تدمير 1
تقدير 1
التعلم 1
يتي@@ 1
اخ 1
يرجع 1
خوا@@ 1
آذ@@ 1
تنتج 1
وحيد 1
1917 0.827591827934294
جاز 1
الاجتماع 1
الدخول 1
ونها 1
اثر 1
كلها 1
كوا@@ 1
نقاذ 1
الأسترالي 1
الفيروس 1
النحو 1
سقوط 1
مري 1
الأمثلة 1
علمية 1
مناق@@ 1
يلة 1
اجستير 1
استطاع 1
الغالب 1
بيك 1
كاست@@ 1
للمست@@ 1
السج@@ 1
القديس 1
للغ@@ 1
جودة 1
قطعة 1
ثقافية 1
واقع 1
سوء 1
منفص@@ 1
التنفيذي 1
الكي@@ 1
1000 1
جول@@ 1
التنظ@@ 1
فارس 1
مناسبة 1
R 0.28662026860811507
أقيمت 1
85 0.938784844583973
فلسط@@ 1
مط 1
صبح 1
متلك@@ 1
المباشر 1
لاز@@ 1
لث 1
عملها 1
ريت 1
سبا@@ 1
إلي@@ 1
ساحل 1
وعدم 1
كتش@@ 1
ونيو 1
خلي@@ 1
فاهيم 1
وظائف 1
القانوني 1
أبد@@ 1
الاقترا@@ 1
ترتبط 1
ساد 1
ثًا 1
بوط 1
توقف 1
سيين 1
ادم 1
ملائ@@ 1
اتفاق@@ 1
البالغ@@ 1
قيب 1
أدب 1
التجاري 1
17@@ 1
بنفس@@ 1
أجن@@ 1
تاج@@ 1
سمة 1
شان@@ 1
عيسى 1
ونه 1
حاق 1
فما 1
تن 1
نسب 1
جوز 1
دبي 1
سلامة 1
شغ@@ 1
الكروية 1
عراق 1
ميلة 1
الشب@@ 1
وقة 1
الأخضر 1
لع@@ 1
يتم@@ 1
الكاث@@ 1
95 0.9305779187232932
افتتاح 1
باول 1
دوم@@ 1
سيف 1
1925 0.8843583744049992
قيه 1
العلوي 1
الاش@@ 1
جير 1
واقف 1
خلص 1
ويح@@ 1
دران 1
طا 1
لقت 1
ائز 1
الصف@@ 1
الفرا@@ 1
ضوء 1
فيلا@@ 1
ريز 1
ليو 1
ستن 1
البيت 1
الشمسية 1
دستور 1
49 0.9281962695087469
تاب 1
آرثر 1
دال@@ 1
غذ@@ 1
كيني@@ 1
41 0.8343540546921488
وكات@@ 1
نًا 1
لوحة 1
نبات@@ 1
عيم 1
1927 0.8712235424895027
مساعد 1
ميخائيل 1
وربما 1
جيم 1
صحيح 1
بناءً 1
حمد 1
داث 1
جنوب@@ 1
جات@@ 1
العاملة 1
بيين 1
فاي@@ 1
مرتين 1
مسار 1
اللقب 1
لج@@ 1
يقو@@ 1
الاد@@ 1
فقدان 1
born 0.15011642815949733
خليفة 1
ورك 1
بق 1
جع@@ 1
النح@@ 1
مخص@@ 1
الوطن 1
{ 1
الإعلا@@ 1
بيري 1
الموس@@ 1
زيل 1
غالبا 1
قصص 1
تمي 1
الغ 1
دفاع 1
الحس@@ 1
فى 1
غرس 1
داف 1
جُ@@ 1
خان@@ 1
حلق@@ 1
198@@ 1
رسول 1
هِ 1
1914 0.7725462579005145
فظ 1
اردو 1
تداء 1
ارض@@ 1
تراوح 1
بنك 1
شيئ@@ 1
براء 1
سات@@ 1
زوج 1
سبي@@ 1
سلحة 1
فلا 1
مكن 1
منط@@ 1
قنا@@ 1
الحج@@ 1
توي@@ 1
رح 1
رسوم 1
M 0.30776993962697685
رن 1
رين@@ 1
وأيض@@ 1
ساف@@ 1
حف 1
بدلا 1
معتم@@ 1
غام@@ 1
باش@@ 1
d@@ 0.06243619073115505
ترجم 1
فِ@@ 1
وائي 1
1926 0.8338393976387481
سول@@ 1
ساح@@ 1
ابر 1
طل 1
عباس 1
اكي 1
متاز 1
فاد@@ 1
كوس 1
اتصال 1
ونت 1
باك@@ 1
رِ@@ 1
لاه@@ 1
يكو 1
بلي@@ 1
الأمريك@@ 1
شا 1
44 0.6861191955312023
فلوري@@ 1
ليون@@ 1
شال 1
تابع 1
طيف 1
1912 0.8430592421166
صيل 1
7.@@ 0.9594387671337842
صالات 1
v 0.30005961856651714
ريو 1
علامات 1
تات 1
لاق 1
ميني@@ 1
46 0.799948562984869
ٌ@@ 1
الحسين 1
الشيو@@ 1
وزراء 1
6.@@ 0.9141349458780235
47 0.8417827901033934
لبن@@ 1
داول 1
لاد 1
الاعتق@@ 1
I 0.09694057379827102
التاريخ@@ 1
المجمو@@ 1
معرض 1
p 0.14665691229616723
تاد 1
ويك@@ 1
عود@@ 1
فلور@@ 1
ترنت 1
52 0.7740283693966279
جزئ@@ 1
الساد@@ 1
هوم 1
ضرب 1
لاية 1
إز@@ 1
شاع@@ 1
بلد 1
بوس 1
تمام 1
خبر@@ 1
لنا 1
مقدار 1
L 0.20781509561560174
متعدد 1
الحكوم@@ 1
موز@@ 1
العمل@@ 1
رئ@@ 1
William 0.30834095878181333
رت@@ 1
يور@@ 1
53 0.9021588354494743
نك@@ 1
الذك@@ 1
قصى 1
جهزة 1
سبع 1
عادت 1
صندوق 1
y@@ 0.08345097001771623
سمع@@ 1
196@@ 1
مب 1
is 0.010558427448446366
ثقاف@@ 1
غرق 1
قان 1
وام 1
e 0.05050452849331068
بجانب 1
e@@ 0.0531556936341798
صُ@@ 1
نجوم 1
باخت@@ 1
s@@ 0.03702003459391074
150 0.9495281040119652
رود 1
مقبر@@ 1
U@@ 0.12088924574877034
جوان@@ 1
نص 1
son 0.041841955596999804
قار@@ 1
عقاب 1
قضاء 1
متص@@ 1
مخط@@ 1
صيلة 1
غوا@@ 1
197@@ 1
57 0.8263138307793764
زرا@@ 1
كلارك 1
بورن 1
دري 1
محتر@@ 1
البق@@ 1
المعر@@ 1
اني@@ 1
تينية 1
00 0.6779059425720191
56 0.9268540156726596
أمريك@@ 1
فاس@@ 1
فش@@ 1
ولاد 1
شاف 1
لج 1
مشرو@@ 1
شعر@@ 1
o 0.039557138142803434
بشر@@ 1
ارنة 1
ثابت 1
54 0.8480989769121663
دوق 1
مثلا 1
المقابل 1
جس@@ 1
مند@@ 1
موقف 1
F 0.28183513732228727
66 0.8565724206817974
تمع 1
صال 1
بوت 1
جيم@@ 1
سالم 1
فضاء 1
ابن@@ 1
43 0.7974074416708121
تنام 1
كاري 1
اكل 1
84 0.9884212752649271
ملو@@ 1
اجتماع 1
المسر@@ 1
} 1
الموسيق@@ 1
بالش@@ 1
سند@@ 1
احتج@@ 1
c@@ 0.05824819391783611
شعاع 1
زيز 1
اتفاق 1
لغات 1
51 0.7865617441473239
Y@@ 0.1292068418335852
نظمة 1
c 0.09153507180916183
اث 1
دما@@ 1
1910 0.8004073653916496
دب@@ 1
72 0.8980162587914131
حدو@@ 1
9.@@ 1
James 0.3119917063001174
8.@@ 0.9655105178843447
تصني@@ 1
ريل 1
عمرو 1
بوب@@ 1
H 0.42800372112370827
13.@@ 1
اسات 1
تداد 1
يلي@@ 1
صاد@@ 1
ائص 1
18@@ 1
99 0.9114145029789765
1915 0.8714216077353746
صاح@@ 1
الْ@@ 1
رمضان 1
شات 1
الزرا@@ 1
غالباً 1
67 0.8860413854577973
فرن@@ 1
ناث 1
فنون 1
58 0.8322898393123767
سلا 1
طراز 1
وسلا@@ 1
صحي@@ 1
غالب@@ 1
62 0.8357280287662618
العث@@ 1
تمام@@ 1
عر 1
رضي 1
الملح@@ 1
خام@@ 1
خم 1
محافظ@@ 1
صنعاء 1
71 0.8907185474686429
X@@ 0.24937564899172893
العائ@@ 1
ويلي@@ 1
النف@@ 1
صور@@ 1
ing 0.019227341194763214
الشخص@@ 1
تقي@@ 1
86 0.9025049538387648
مناز@@ 1
باتات 1
نور 1
وست 1
النمس@@ 1
رج 1
96 0.891501112052126
ثالث 1
نفو@@ 1
88 0.8752038070212174
الأفري@@ 1
00@@ 0.9542983008905324
آد@@ 1
شام 1
es 0.01593937119930556
شاه 1
63 0.8001795152791178
زاد 1
خصوص@@ 1
سكر 1
وران 1
حضور 1
نجلي@@ 1
انستان 1
2021 0.18599122686784136
بند@@ 1
عال 1
b 0.13190097014281893
فاض 1
ڤ@@ 1
77 0.8643052846572653
فقت 1
X 0.2958461554414365
1916 0.8543261955063702
تصف 1
1913 0.7972882946090534
الواق@@ 1
ناً 1
آدم 1
مارات 1
ناز@@ 1
انح@@ 1
تمر 1
حصول 1
amp 0.12270308696481823
اوس 1
قبال 1
رمز@@ 1
موضع 1
عراض 1
ورن 1
بلس 1
تعال@@ 1
الوا 1
ولكن@@ 1
93 0.8778257636863694
رع@@ 1
انف@@ 1
195@@ 1
زف 1
1908 0.8554399252949391
30@@ 0.9533249324387507
ولف 1
ٍ@@ 1
ميون@@ 1
واف 1
81 0.8711888567360911
فيصل 1
دن@@ 1
فرت 1
ابا 1
نال 1
اعل@@ 1
اليه@@ 1
61 0.8316667124622036
05 0.9650430661586611
79 0.8783367474839209
لاحات 1
600 0.918821167407341
فون@@ 1
um 0.06036556861526664
مستقل 1
جرائم 1
وبل@@ 1
القادر 1
فال@@ 1
73 0.8406706327435913
الإنس@@ 1
وول@@ 1
ليد 1
ناول 1
L4 1
إِ@@ 1
الس 1
عاية 1
معبد 1
ينس 1
82 0.816587732765616
59 0.8796177810840408
t@@ 0.03966097096982665
الاق@@ 1
يانا 1
زيرة 1
76 0.8179103103032735
68 0.8510936133906946
حجر 1
احتم@@ 1
متن 1
دام@@ 1
تبر 1
98 0.8677124183124076
استقلال 1
عنصر 1
باغ@@ 1
سى 1
شت 1
19@@ 1
78 0.8578689234406874
74 0.7948215927031768
ابت 1
اعدة 1
علان 1
p@@ 0.04616302178718724
باف@@ 1
ينا@@ 1
الغذ@@ 1
بابا 1
ورم 1
شيخ 1
إدو@@ 1
فات@@ 1
ليك 1
ماج@@ 1
69 0.9177949244426489
سانتا 1
0,000 1
1911 0.7828151564018871
واج 1
جَ@@ 1
حيد 1
تدل 1
سلي@@ 1
طبقات 1
° 0.3046064483605901
83 0.9453621829044314
حديث 1
G 0.24132103140964647
1905 0.7811573823614413
k 0.06310936295428708
ئر 1
افتتا@@ 1
حفظ 1
القل@@ 1
تق 1
خصوصا 1
برا 1
عضاء 1
Z@@ 0.07067155028413936
اوا 1
تور 1
كال 1
مجد@@ 1
حان 1
ذور 1
مالا 1
12.@@ 1
َّا 1
قاسم 1
الكهرب@@ 1
نخ@@ 1
91 0.8298326632946563
معر@@ 1
b@@ 0.04909210990587614
ضبط 1
وور@@ 1
متم@@ 1
الدما@@ 1
جعفر 1
دعا 1
دوس 1
1909 0.8564536320740542
شب 1
87 0.8819076430859096
ديش 1
شمس 1
تِ@@ 1
ساس@@ 1
ستا 1
لفزي@@ 1
نْ 1
متف@@ 1
عث@@ 1
درا 1
بْ@@ 1
جذب 1
ندوق 1
الطي@@ 1
قابل 1
92 0.8389559296928798
ضائع 1
o@@ 0.060250148613224294
مثلاً 1
250 1
a@@ 0.08763324471206084
اتب 1
بام@@ 1
المنظ@@ 1
قرط@@ 1
راج 1
زن@@ 1
ونس 1
n@@ 0.04382164486971306
r 0.14492585726907906
الحاج 1
بروس 1
بران@@ 1
اسم@@ 1
طقة 1
89 0.8666954669801756
94 0.7960459378716498
ارو 1
حافظ@@ 1
روية 1
عامر 1
al 0.02201467708495626
ذب 1
الين@@ 1
أوروب@@ 1
N 0.26986516111133524
1906 0.8066474141486363
خطاب 1
زاب@@ 1
جامعات 1
ولوج@@ 1
بدل 1
قاط 1
اضط@@ 1
George 0.25913125344872323
آلات 1
800 0.8544777534212561
وطات 1
وأص@@ 1
سعو@@ 1
دوب@@ 1
حرف 1
الوسط@@ 1
الأوروب@@ 1
حافظ 1
المحي@@ 1
حوا@@ 1
الأستر@@ 1
اجد 1
راضي 1
فال 1
لُ@@ 1
آب 1
رْ@@ 1
شان 1
نْ@@ 1
المباش@@ 1
جناح 1
لند@@ 1
97 0.8826617966189904
نفس@@ 1
04 0.9070353178825714
إسرائ@@ 1
1907 0.7779176955222069
استن@@ 1
01 0.8015336849196435
08 0.76714613486121
ثار 1
— 0.02228378631322519
حصار 1
ia 0.08025935434006459
1900 0.6291831925356235
استغ@@ 1
برى 1
رول 1
سوع 1
منصور 1
الفضل 1
فريق@@ 1
لعب@@ 1
توف@@ 1
رسائل 1
مطلع 1
متوا@@ 1
x@@ 0.130854920481184
i@@ 0.06436215193013814
تمعات 1
وغير@@ 1
Re@@ 0.08861664938919148
ton 0.10031505647113013
اختلاف 1
مسا@@ 1
1904 0.7994234083761302
194@@ 1
صلات 1
مطالب@@ 1
02 0.7989996779647155
قصد 1
03 0.9070983632456917
صرا@@ 1
David 0.26084263683033726
m 0.061043710537986545
ed 0.017446290705023487
شق@@ 1
لاست 1
al@@ 0.04196352464902897
el 0.00863463939752934
اغو 1
خروج 1
َا 1
ساس 1
آخ@@ 1
الوط@@ 1
استط@@ 1
09 0.807934381393876
V 0.21723777723378684
موجود 1
ماس 1
موية 1
http 1
خرا@@ 1
بلوم 1
افت 1
كًا 1
لح 1
11@@ 0.8239394399037889
id 0.179710168088002
علي@@ 1
دث@@ 1
وقوع 1
وعد@@ 1
سمت 1
لغت 1
وَّ@@ 1
26@@ 1
جدول 1
انون 1
1,@@ 0.4562937295514375
اريو 1
قطار 1
داع 1
نام 1
وفد 1
ربا 1
g 0.10172330820549319
g@@ 0.043806758123968
بز 1
www.@@ 1
تاجر 1
to 0.003705324188094462
تنا 1
07 0.7962725519438597
1- 1
العسك@@ 1
غور 1
سمية 1
جينيا 1
عسك@@ 1
\ 1
1901 0.8221418620479305
تخت@@ 1
Robert 0.24930391492420947
جاع 1
قم 1
واب@@ 1
درست 1
مسلم 1
التأث@@ 1
دنا 1
الحار@@ 1
عاب@@ 1
120 0.9568829635867687
حذ@@ 1
1903 0.798241932189342
ادو 1
ذاك 1
آل@@ 1
لدي@@ 1
عادل 1
رضا 1
مؤرخ 1
جنا@@ 1
داود 1
دِ@@ 1
حنا 1
شام@@ 1
إسب@@ 1
جال 1
كتوراه 1
‌ 1
رومان@@ 1
شور 1
طرت 1
دال 1
مستقبل 1
نجليزية 1
درت 1
28@@ 1
di@@ 0.06631670205405608
شائع 1
موئ@@ 1
2- 1
جغرا@@ 1
سخ@@ 1
1898 0.8569473216248175
3,@@ 0.5510108454124246
فاط@@ 1
تناسب 1
06 0.7681889040834905
1902 0.7826689071574028
man 0.06154814824580295
in@@ 0.029357116337053433
فوج@@ 1
وعات 1
مقالات 1
روح@@ 1
شَ@@ 1
.com 1
193@@ 1
آنا 1
سنت 1
كولوم@@ 1
يأ@@ 1
وانات 1
التاس@@ 1
l@@ 0.0390078916392165
زائ@@ 1
10.@@ 1
حلة 1
عمومًا 1
تصور 1
23@@ 1
احتمال 1
جواز 1
محور 1
الاحترا@@ 1
قات@@ 1
حيين 1
ac@@ 0.05985820112035635
× 0.8031572013697793
ستير 1
حن@@ 1
m@@ 0.048341197425983
امنة 1
وطن 1
انضمام 1
طفال 1
واس@@ 1
شرط 1
عْ@@ 1
المرج@@ 1
رص@@ 1
ى@@ 1
دراست@@ 1
دراج 1
لْ@@ 1
دش@@ 1
an@@ 0.036991263897987736
27@@ 1
نيسة 1
Al@@ 0.06841196844743075
700 0.9602248722583312
بشر 1
براطور 1
u 0.06277274313442381
NGC 1
1890 0.7937599787839247
سوم@@ 1
1899 0.8267252692979038
f@@ 0.036327561788472816
داد@@ 1
50@@ 1
et 0.007447995421463701
en 0.004018165094953556
² 0.23358255516237297
قسم@@ 1
قصور 1
29@@ 1
دفن 1
Q@@ 0.20289599123902372
الخصوص 1
خون 1
ائمة 1
سوا@@ 1
المناف@@ 1
سكان@@ 1
1896 0.8201621547265107
سرائ@@ 1
Charles 0.21597621420071636
جوم 1
الإلكترو@@ 1
Mc@@ 0.15136614268878848
بمو@@ 1
السف@@ 1
بطال 1
السلط@@ 1
عشرين 1
المكسي@@ 1
مناس@@ 1
نجليزي 1
40@@ 1
ar 0.0282599236232843
جام 1
on@@ 0.045601328952327796
صَ@@ 1
نب@@ 1
جند@@ 1
اعت 1
موم 1
استف@@ 1
ph@@ 0.08467910094319718
1897 0.8045166302161458
بدر 1
تلو@@ 1
ازت 1
بادل 1
عالمي 1
f 0.12141466588619146
عاب 1
سلمان 1
en@@ 0.026012322820167376
or 0.018724986362129374
معام@@ 1
موجو@@ 1
11.@@ 1
حاصل 1
Mar@@ 0.07223489136852985
الفلس@@ 1
80@@ 1
Thomas 0.22812100255924905
فلو@@ 1
غيرة 1
لينا 1
ناة 1
تات@@ 1
ريقة 1
افت@@ 1
1895 0.7900372129948314
وامل 1
الاز@@ 1
عِ@@ 1
قرون 1
ابو 1
نصب 1
ref 1
الإسب@@ 1
توث@@ 1
رجان 1
1892 0.8675918240690306
انتظار 1
طب@@ 1
احترا@@ 1
بياً 1
رل 1
شور@@ 1
اتذ@@ 1
الخار@@ 1
حدى 1
or@@ 0.04260327993031357
ربت 1
توت@@ 1
Ch@@ 0.05672506648636561
تار 1
باز 1
ar@@ 0.03689943889059552
بعد@@ 1
حاض@@ 1
بوج@@ 1
· 0.12261108553953126
هيم 1
الولا@@ 1
انج 1
h 0.06649506010367534
l 0.03342800099081508
تسلسل 1
سوس@@ 1
طارق 1
k@@ 0.038038776964699594
r@@ 0.036546206143323115
احمد 1
W 0.26833589274705294
الجمه@@ 1
زيف 1
سنان 1
as 0.006503552298029492
j@@ 0.046148621020174606
لَّ@@ 1
يشن 1
3000 1
K 0.20264021771825003
ine 0.05250070328144546
تجاو@@ 1
ol@@ 0.05789024982582634
حرم 1
تباد@@ 1
1889 0.8193077901532393
انقلاب 1
اوت 1
لفظ 1
المدار@@ 1
مغربي 1
حار@@ 1
3- 1
ائس 1
ويورك 1
باس 1
اين 1
35@@ 1
عدل 1
واس 1
American 0.06965442883161786
سطنط@@ 1
5000 1
است 1
متعل@@ 1
1885 0.8176097527734015
ation 0.020047337612073494
نوان 1
العرا@@ 1
1894 0.824403140184684
الو 1
ائرة 1
’ 0.01993251750214762
خوار@@ 1
1891 0.831702046958242
وْ@@ 1
ائنات 1
داية 1
النمو@@ 1
اظ@@ 1
v@@ 0.041582836558297386
لفت@@ 1
روفة 1
اورة 1
رز@@ 1
قادر 1
مكاف@@ 1
1893 0.7988312458601831
الاجتماع@@ 1
w@@ 0.04303387749057838
امر 1
مناص@@ 1
مقب@@ 1
خصوصاً 1
at 0.00933809420358959
1888 0.8386574132678616
طاني 1
4,@@ 0.4802300834512832
C. 0.2909451467442194
U 0.1533581018847422
روابط 1
سْ@@ 1
1880 0.7524780730773867
سطة 1
حسن@@ 1
اون 1
وء 1
أمم 1
1884 0.8817689488460753
ابتد@@ 1
راس@@ 1
قلت 1
ie 0.04273050799206776
بريل 1
كذا 1
دوس@@ 1
h@@ 0.03732900579604086
بطة 1
امام 1
ماب@@ 1
اوت@@ 1
192@@ 1
ic@@ 0.06418637296514167
ريتش@@ 1
om@@ 0.06527050212109606
اتح@@ 1
مْ 1
باط@@ 1
انتداب 1
انتظام 1
جوان 1
اقب 1
دوران 1
1886 0.8346621419191251
واب 1
1870 0.6968013260064617
1887 0.8427603234795137
داس 1
مروان 1
1500 1
actor 0.3875687328520645
راشد 1
مدع@@ 1
ناد 1
1878 0.8351484983784812
جنوبي 1
اعترا@@ 1
عمران 1
سلسل@@ 1
5,@@ 0.49085519511898085
طبع@@ 1
مقدم 1
1882 0.8723283668201298
New 0.04342190679040913
la 0.002663384902489821
نِ@@ 1
بنو 1
نار 1
لع 1
طار@@ 1
1881 0.8495910959900588
جرات 1
العاب@@ 1
سرد 1
ماكن 1
اجتم@@ 1
ڭ@@ 1
جريت 1
يحي@@ 1
بالغ 1
غال@@ 1
وسلم 1
2,@@ 0.413848529107954
An@@ 0.04767273147866402
وو 1
داع@@ 1
دوم 1
التمي@@ 1
صفر 1
el@@ 0.03262527629733589
عبور 1
صوب@@ 1
مراد 1
1.5 1
سند 1
اِ@@ 1
خال@@ 1
رد@@ 1
E. 0.47982237375364
القاسم 1
فاع 1
Ar@@ 0.05992189398397037
مراء 1
Sh@@ 0.08316356725111712
ley 0.0942333007100039
1861 0.8282047730420534
نسب@@ 1
ی@@ 1
إحص@@ 1
Car@@ 0.08528239410402495
رفت 1
1883 0.8576657733617075
1876 0.8369099654836409
شق 1
وارث 1
W. 0.5101968949312292
محاص@@ 1
قز@@ 1
ربون 1
Henry 0.24876249403660994
سِ@@ 1
تاً 1
خَ@@ 1
ate 0.028944816304629965
محدود 1
1860 0.7320603019010391
لمان 1
تخلص 1
الإسرائ@@ 1
1871 0.7544965352563707
غت 1
تمت@@ 1
عيل 1
er@@ 0.02410721572032335
اسا 1
خام 1
اُ@@ 1
1879 0.8191445340459006
دبل@@ 1
استع@@ 1
مقدون@@ 1
for 0.006251091768441867
جور 1
60@@ 1
حامل 1
جلد 1
بست@@ 1
شعور 1
34@@ 1
الثة 1
بحي@@ 1
إبرا@@ 1
le 0.005808701682318758
as@@ 0.035591957424775486
القدي@@ 1
طبا@@ 1
نَ 1
# 0.28728237748287944
ad@@ 0.03495220398316744
فوائد 1
Michael 0.1984127566822736
لائل 1
مهورية 1
Le@@ 0.07606892622365645
مام@@ 1
ch@@ 0.02511149982479473
تبت 1
قلال 1
قوط 1
جابر 1
مرق@@ 1
Richard 0.23157810856785907
ter 0.03604611281974427
خسر@@ 1
علاء 1
ضل 1
روان 1
عموما 1
$ 0.08916333969156397
ot@@ 0.05454271010842711
أستر@@ 1
الشمس@@ 1
z@@ 0.032142394245287254
مناسب 1
ساد@@ 1
باغ 1
180 0.98120506405094
بب 1
روت 1
نر@@ 1
In@@ 0.05548984262629987
نادر 1
1867 0.7830880921561529
الأرجن@@ 1
خبر 1
6,@@ 0.4762084482338406
مسعود 1
وتوفي@@ 1
زو@@ 1
منظور 1
بائ@@ 1
2.5 1
جس 1
الإسلا@@ 1
33@@ 1
واز 1
am@@ 0.04141279530423685
عرب@@ 1
مقام 1
الديمقرا@@ 1
1877 0.7853774565816701
L. 0.533947223839777
شج@@ 1
عذ@@ 1
Con@@ 0.05958926941242422
العالم@@ 1
نفا@@ 1
am 0.02280968258185087
Paul 0.13955119379300915
اختلا@@ 1
جلال 1
1873 0.780324009741005
شامل 1
تام 1
محسن 1
جال@@ 1
قاتل 1
تخب 1
1848 0.7036010273181805
آباد 1
اعر 1
لص 1
Bar@@ 0.08284537835489227
شاط 1
معز@@ 1
14.@@ 1
900 0.9719866720329086
et@@ 0.049880584403919515
فرق@@ 1
ana 0.06269752574651927
os@@ 0.06543705033577761
th@@ 0.03695019448965254
37@@ 1
جبر 1
روش 1
160 1
1875 0.7616049555499724
صدا@@ 1
1866 0.6378012375091962
1865 0.7250092931202017
قبر 1
1864 0.7078881574694583
طور@@ 1
190@@ 1
روش@@ 1
1868 0.7579255934844902
قمر 1
7,@@ 0.46754856776603926
ae 0.1606873644273141
إمكان@@ 1
130 0.922066346812988
صفحات 1
فراز 1
حمز@@ 1
صادق 1
110 0.853361158919391
Smith 0.2589802809362717
بغي 1
نشطة 1
ic 0.05296540185645025
الاقتص@@ 1
نوم@@ 1
اوم@@ 1
football 0.11389534702224444
شوا@@ 1
شيك@@ 1
خفض@@ 1
مشر@@ 1
Y 0.31697142394295585
توازن 1
is@@ 0.03630363817015928
جلا@@ 1
4- 1
لمد@@ 1
1872 0.7523029804450005
Br@@ 0.07454645530407404
عمار@@ 1
1869 0.7866118379887295
مسئ@@ 1
Co@@ 0.08177930226515676
قبرص 1
والسك@@ 1
جاس@@ 1
نازل 1
وِ@@ 1
لفظ@@ 1
رقص 1
شخ@@ 1
خوف 1
قس@@ 1
u@@ 0.04251856865456208
رجب 1
1874 0.7335513658423838
ers 0.020800199527306846
اتم 1
استقبال 1
تال@@ 1
روبن 1
الث 1
جزائر 1
زونا 1
وفان 1
S. 0.35074466027791934
id@@ 0.05414481315113669
لار 1
AS@@ 0.3111005253310783
خدمت 1
توزي@@ 1
سد@@ 1
اصة 1
قائم 1
IS@@ 0.321124133488277
احترام 1
z 0.054496822925180634
at@@ 0.03593103012370419
خول 1
بيرة 1
جوع 1
مرا 1
خور@@ 1
لترا 1
re@@ 0.012027852723330268
بابل 1
وجا 1
1863 0.68222122128131
عبر@@ 1
ab@@ 0.027735423157180545
124@@ 1
R. 0.4103202535234854
لازمة 1
اين@@ 1
II 0.0668290976698629
it@@ 0.03675861649855089
8,@@ 0.492180303977399
بنا 1
شل@@ 1
تجرب@@ 1
الزب@@ 1
قسطنط@@ 1
برس 1
شمالي 1
مقر@@ 1
B. 0.20260210912656554
1857 0.8270942180419482
os 0.02291224143098263
داعش 1
38@@ 1
90@@ 1
جسم@@ 1
الإغ@@ 1
ey 0.1157255809183088
oc@@ 0.05106105758430452
برو 1
خيرة 1
1850 0.6565430679129421
AC@@ 0.3353662703717889
انخ@@ 1
مَا 1
le@@ 0.04091411391986827
مقت@@ 1
1862 0.6458694709549592
فوج 1
350 0.9777393742040439
الإيط@@ 1
تكن@@ 1
co@@ 0.03716730748679758
125 0.924181207335836
^ 1
بروز 1
es@@ 0.02920435862260747
قطب 1
حيدة 1
عرو@@ 1
مطبو@@ 1
Cor@@ 0.08170099580728546
Th@@ 0.05961951502470852
ختم 1
كتورا@@ 1
1859 0.7341888577614984
9,@@ 0.46941453671859806
22@@ 1
حدات 1
D. 0.2707313798339533
رن@@ 1
140 0.8955046869509411
series 0.06601087155669569
י@@ 1
CD@@ 0.4585833188741141
ur@@ 0.03883621910415137
De@@ 0.08746659142952035
ag@@ 0.032787972560116646
جلو@@ 1
موضوعات 1
der 0.002830416607606223
ne 0.03315285574374085
وَ 1
CO@@ 0.41356435190048363
يرلندا 1
Di@@ 0.07104361192196769
ul@@ 0.039947839039751444
تجات 1
ورس 1
كى 1
حصر 1
عَلَ@@ 1
فوق@@ 1
خوف@@ 1
اختلافات 1
,000 0.8493937853608289
مسائل 1
شنا@@ 1
طرابات 1
قبض@@ 1
لبر@@ 1
4000 1
ent 0.017684593017459792
دستان 1
بورو 1
Joseph 0.17206899456013083
Edward 0.2847322536858776
مشق 1
نم 1
ti@@ 0.035407190084967496
حفا@@ 1
ed@@ 0.05014801868596477
1856 0.7568964501723595
70@@ 1
خادم 1
? 0.14962447668905043
Mor@@ 0.08436772264094142
واع 1
رخص@@ 1
36@@ 1
st@@ 0.024528456430422896
سنا 1
خات@@ 1
1849 0.7862596795789302
39@@ 1
Australian 0.1766580770292879
باز@@ 1
دِ 1
مساجد 1
مثال@@ 1
ter@@ 0.04510493272060201
1840 0.7039038338084291
افظ@@ 1
سوت@@ 1
2022 0.21031186121914885
lo@@ 0.03878816123410405
Frank 0.30110837496401194
ــــ@@ 1
1854 0.7585315350248881
مجر@@ 1
ورز 1
1830 0.7048260118172319
1858 0.7521393269540316
name 0.05413005683406559
ina 0.05449816293465387
Peter 0.14443349471313474
by 0.005060245401354511
زلز@@ 1
im@@ 0.03162883779924018
po@@ 0.0390476821388621
ورش 1
ضاب@@ 1
100@@ 1
محافظ 1
Col@@ 0.07282541817128577
قرار@@ 1
مباب@@ 1
45@@ 1
CA@@ 0.3080057824895586
Z 0.3018244875678049
101 0.8069882456957419
tr@@ 0.024371876871563405
ler 0.04856978532140987
الداخ@@ 1
1800 0.7109687550143501
حاء 1
ناظ@@ 1
tri@@ 0.07691625095726437
فخر 1
مخالف@@ 1
one 0.0146779656975157
AD@@ 0.4973752836649835
AR@@ 0.24635462493265084
ap@@ 0.03964403120823824
امر@@ 1
فتو@@ 1
مثيل 1
da 0.02986648664736086
حلف 1
قرب@@ 1
450 1
قرض 1
ell 0.07192941894806307
موسوم 1
li@@ 0.034938995586653865
te 0.01469178590531304
پ@@ 1
250@@ 1
اللَّ@@ 1
طانيا 1
ale 0.03637902638926255
ro@@ 0.036187024679810165
ممل@@ 1
em@@ 0.034226502155924876
افس@@ 1
كنساس 1
sen 0.1061938115346168
AM@@ 0.391958702810171
Tr@@ 0.04332815863574757
طبع 1
محم@@ 1
الجنوب@@ 1
اوب@@ 1
حامد 1
قبر@@ 1
188@@ 1
حوال@@ 1
الأولمب@@ 1
ata 0.09640766113093237
ob@@ 0.06160374777194062
ו@@ 1
نبو@@ 1
15.@@ 1
مصنف@@ 1
El@@ 0.06878570752783274
فاص@@ 1
وليكية 1
Se@@ 0.06352221306849067
صلح 1
اَ@@ 1
زمان 1
St@@ 0.03908454953624776
it 0.008968983477418131
سطس 1
ea 0.1179263574494264
ch 0.04069082243095508
189@@ 1
عضو@@ 1
AT@@ 0.3958268698102024
120@@ 0.9228697203501179
Brown 0.25820387834273806
1851 0.7104379510714027
360 0.9391467420109822
صلاح@@ 1
درس@@ 1
آن@@ 1
زور 1
غط 1
Cl@@ 0.14999584529418739
J 0.2093998632593568
1853 0.7253557905770021
ئل 1
170 0.9699657961695001
ev@@ 0.07084186630482374
اتنا 1
ner 0.05475475291316331
− 0.3865412711934105
1200 1
Ro@@ 0.07444700949475103
عنو@@ 1
كيلي@@ 1
0.000 0.5897080043281419
3.5 1
op@@ 0.0441373135748041
مخلو@@ 1
خطر@@ 1
دلال 1
65@@ 1
خاطر 1
Cr@@ 0.09789380293730998
ensis 0.23151696007169068
5,000 0.6759374507181309
Martin 0.15130643990324658
16.@@ 0.9944615794336666
أعل@@ 1
1847 0.7378385967266358
وفات 1
1835 0.8017112042811345
حوص@@ 1
فط@@ 1
10000 1
المتعل@@ 1
1839 0.8170435976155154
بحت 1
1852 0.6927299881202607
1837 0.7867703501592258
جواب 1
Scott 0.28895356950583
ec@@ 0.03880761362312132
1845 0.7380170398682195
SO@@ 0.5109300269572153
ائر@@ 1
1832 0.8187659552945857
IC@@ 0.3376958017349189
w 0.06823559018223135
1855 0.644938905472743
ؤلاء 1
كاون@@ 1
il@@ 0.03404565114559879
لاسي@@ 1
ا- 1
SS 0.3023795369500023
Er@@ 0.044829912454726575
ir@@ 0.03611334992786842
105 0.8367207830319338
AC 0.2619493363226894
راش@@ 1
اطق 1
مدد 1
Lee 0.22080487254352787
17.@@ 0.9928397753046355
55@@ 1
Bur@@ 0.10028399723573199
آ 1
1820 0.5978398113662483
codice 0.6978437431744794
موال@@ 1
1844 0.7735304386765091
راست@@ 1
187@@ 1
46@@ 1
طالبان 1
اطب 1
1834 0.8080714316399132
Mark 0.20718551579391287
جرم 1
1846 0.7020728071654548
مرح@@ 1
ST@@ 0.4756808660518874
G. 0.36487165848269154
Par@@ 0.05560826380052241
آش@@ 1
baseball 0.4187147919728755
Q 0.2883881673409224
Qu@@ 0.05653382897387607
اشا 1
سود 1
Pr@@ 0.06169511765104281
idae 0.12122661458487652
Tom 0.27588183826555746
ov@@ 0.0743557183437243
1843 0.787235419231993
184@@ 1
Joe 0.3005864733089765
ick 0.09046194425440739
اتِ 1
فاض@@ 1
مسو@@ 1
1815 0.6847742456287947
Bill 0.27419511713618266
فاروق 1
تِ 1
ah 0.07792222444616824
بِ 1
عزم 1
ma 0.060355274900896885
ica 0.06337787028375891
23.@@ 1
Per@@ 0.06275040901520065
se 0.005632960571468091
قار 1
Be@@ 0.04182070423304704
واخر 1
حتم@@ 1
ظلم 1
نقش 1
1.2 1
ist 0.008476323630012765
ab 0.049793407768732825
Jack 0.2510487579068967
ri@@ 0.04212487180063471
ta 0.04131534614469657
bi@@ 0.04058541730561612
اسلا@@ 1
10,000 0.7772394647319245
1838 0.738800030018902
عموماً 1
Alexander 0.20148739169517169
La 0.010736272468990978
Lo@@ 0.08028986379678339
چ@@ 1
un@@ 0.015073786910814247
مِ 1
1842 0.7285318487351926
AL@@ 0.47704476422717873
Daniel 0.2303166728423318
ولس 1
اومة 1
نسل@@ 1
1812 0.6543933384412001
اوس@@ 1
منظم 1
زد 1
AN@@ 0.3425284748804821
ad 0.04915713811634472
آز@@ 1
صوف@@ 1
1836 0.7237724721238736
ni@@ 0.04628826018688247
انص@@ 1
انتظ@@ 1
مقص@@ 1
مشغ@@ 1
2500 1
محفو@@ 1
ice 0.07520512406227016
48@@ 1
1821 0.7597950552637417
Ad@@ 0.08095501702936926
eb@@ 0.05042565820954152
‘ 0.1856803581484317
115@@ 0.9437117228083868
ella 0.09511119048619088
فس 1
1841 0.718233766317683
Williams 0.23988014895690823
ترجم@@ 1
علما 1
البرل@@ 1
لازم 1
47@@ 1
Na@@ 0.311218453421993
رسومات 1
ER@@ 0.31277323702253745
0,@@ 0.17095236475323705
Am@@ 0.05679402358874406
ard 0.05351194013043517
per 0.05373532907837566
شاف@@ 1
لِ 1
ملا 1
75@@ 1
حضرات 1
نامج 1
ماجد 1
186@@ 1
se@@ 0.029321791548647294
مولا 1
1833 0.7566275279090885
اصمة 1
220 0.9697855545862213
Jim 0.3652329999882552
https 1
to@@ 0.04081188941217961
نعت 1
25.@@ 1
جج 1
عوض 1
19.@@ 1
He@@ 0.06342089705939787
اعتراض 1
لتا 1
CH@@ 0.39918731855307393
20.@@ 0.9475563852997141
SP@@ 0.37787944336194046
th 0.03548700521813298
خراسان 1
1831 0.737007649124309
TV 0.08417978358852309
24.@@ 1
IM@@ 0.41516666943905517
ay 0.051082509953952165
وسف 1
na 0.04371172426755717
135 0.9364226859179567
ens 0.027113591812103908
سفر@@ 1
Bob 0.3196859789896283
us@@ 0.034053252097384634
ly 0.024885661274872375
محرم 1
José 0.1475775917863784
Johnson 0.23082592757484055
ناك 1
Ac@@ 0.08462291090894407
18.@@ 0.9161913586718006
Mo@@ 0.06837490960484727
غالب 1
لور 1
128 0.9908718462735422
Gr@@ 0.04860053438571386
age 0.017455315035361237
بالتر@@ 1
بندر 1
قيمت 1
49@@ 0.849915299619224
Bo@@ 0.06510303726411858
240 1
Mike 0.29496706585536675
ity 0.030307815621236432
فائز 1
32@@ 1
Com@@ 0.054407466806355644
تائج 1
100,000 0.9833169406280824
22.@@ 1
Jones 0.21235478991972698
Str@@ 0.058663986192581556
ک@@ 0.9240805586704941
de@@ 0.02286424133924718
نسن 1
68@@ 1
Arthur 0.24087947851646874
od@@ 0.050991406687155384
Cal@@ 0.09034534135935196
og@@ 0.06154936013461514
21.@@ 1
6000 1
des 0.002830418518150906
26.@@ 1
27.@@ 1
نِ 1
SA 0.26782043969836317
sh@@ 0.027360344125989526
102 0.8308253000488727
Canadian 0.1473070662838708
University 0.028470465744250016
Mon@@ 0.050139041218276593
حضرت 1
وسعت 1
Chris 0.293853536358101
Ex@@ 0.05094676140120019
حروف 1
Walter 0.24558274184952364
ra 0.03791608526121252
بمب@@ 1
Mac@@ 0.10371368669747152
SA@@ 0.2684351390970115
av@@ 0.03927639403507514
اغوا 1
ترال 1
نوح 1
وجام@@ 1
117@@ 1
1810 0.7156194476004027
انسان 1
57@@ 1
ans 0.021914462900280915
1826 0.7775002607496799
1814 0.6305925582883694
شم@@ 1
MA 0.32701866033469656
ve 0.015212693689975012
شم 1
67@@ 1
Sch@@ 0.023022385342377223
ابرا@@ 1
2.0 0.9422804867465554
نسخ@@ 1
نقاد 1
RA@@ 0.29054751289582736
شروع 1
… 0.1244398801650448
si@@ 0.035544876389747466
دماغ 1
زبر@@ 1
وانين 1
گ@@ 1
1825 0.724219089568103
ir 0.04405159701692566
53@@ 1
DNA 0.43553194431888176
ak@@ 0.036096269600780446
ence 0.03868486344144848
750 0.8164991870613671
ay@@ 0.05294050177956196
اتر 1
ol 0.06040022168736456
118@@ 0.873010092140243
مقبول 1
0.5 1
Taylor 0.28122036252574617
be 0.008609314597471739
محق@@ 1
4.5 1
ty 0.041188202598633594
آغا 1
قدرت 1
104 0.8303849076807287
خوذ 1
ملازم 1
نعم@@ 1
صنعت 1
320 1
Wil@@ 0.11998348631506832
World 0.03287986785438483
103 0.8608616278982534
109 0.8851981046589887
For@@ 0.06401111732591554
28.@@ 1
ai 0.05420217398567822
زمان@@ 1
56@@ 1
بند 1
yl@@ 0.09623801110970827
1829 0.7146874002854119
As@@ 0.07106034917553039
ant 0.013512395394310376
تناز@@ 1
ES@@ 0.23823951903223672
az@@ 0.05626312750332487
q@@ 0.14319113931216582
Andrew 0.28483878178104693
وإدار@@ 1
basketball 0.23797590300162627
ig@@ 0.03275655828433642
il 0.009358045419158295
اندر 1
1828 0.6971664602251452
1824 0.7249419496360533
99@@ 1
are 0.007543428458601795
115 0.864598815439275
Ph@@ 0.09755070433940867
صنع@@ 1
44@@ 0.9954917330296533
66@@ 1
AP@@ 0.3033412857308282
MS 0.3166242370241346
غرض 1
190 1
SE@@ 0.25421541924941443
White 0.13259000352333844
114@@ 0.9482334871907049
COVID 0.3063390445343352
امور 1
1600 0.8441110136145813
107 0.8981745400898065
قح@@ 1
قرآن 1
Wilson 0.2587913123620193
ضلع 1
مشي 1
Li@@ 0.0808201213303135
ci@@ 0.037066297857261725
with 0.0032363347393514954
210 1
Ne@@ 0.04819475314997891
111 0.8910684082097163
1819 0.7873248952416438
Gar@@ 0.10529878993295337
all 0.016492856474570505
امان 1
روان@@ 1
1822 0.7546610882539652
ارتق@@ 1
اطلاع 1
OS 0.2867901559667271
US@@ 0.17565950417874693
no@@ 0.04817858389877633
Francis 0.2582252262770863
ance 0.027983344397016444
مصط@@ 1
Or@@ 0.05036471045545585
فرانس 1
1.3 1
58@@ 1
نسل 1
113@@ 1
qu@@ 0.023343321540871067
mo@@ 0.036234543032952024
جوش 1
اطلا@@ 1
106 0.8247148857215865
108 0.7936972123090322
7.5 1
Steve 0.2727785849831894
ase 0.09028962222894998
المطلب 1
أنفس@@ 1
1.6 1
بتا@@ 1
حقائق 1
سرو@@ 1
محمد@@ 1
→ 0.7829631653853497
Fl@@ 0.06651434165439754
Ger@@ 0.0722550475976466
Sp@@ 0.054680326891966016
les 0.004353196131329637
Donald 0.34459530562254737
Samuel 0.30623294723359906
ep@@ 0.055398498783091894
ker 0.05856664590201145
PA 0.29847174307764635
شفى 1
1808 0.7076846296790779
230 1
ah@@ 0.0551854118733331
ford 0.07178574460780153
vi@@ 0.03588742476938517
1806 0.6123201988889116
un 0.0032377965446544602
~ 0.6823105920022631
116@@ 0.9710337609211299
RNA 0.686661162882508
WWE 0.5718725895410224
Allen 0.3563870364632048
رِ 1
En@@ 0.04863725868988743
افراد 0.8830661681177365
قوان@@ 1
cher 0.06993815402520455
الملك@@ 1
نظر@@ 1
1827 0.7233363775069143
ing@@ 0.03979306760719545
section 0.11548085961693394
der@@ 0.039734460999784046
ya 0.02657204370203996
AB@@ 0.3481013928055244
ce 0.019271741023817145
ik@@ 0.03785881952155223
land 0.02610252506111465
AS 0.27163265268355913
Davis 0.2574364623922544
ou@@ 0.03362647742634156
ظفر 1
1.1 1
1804 0.7747307339888562
ology 0.06019488700054624
30.@@ 1
5.5 1
التجار@@ 1
مختار 1
والا 1
1789 0.6992447772926046
29.@@ 1
Albert 0.18828108900805202
III 0.08200220015363341
do@@ 0.058225946413548474
era 0.023286835936819957
إلغ@@ 1
بخار@@ 1
ائيل 1
Ab@@ 0.02802411049457791
ke 0.03980661053080503
und 0.002025326004608342
بولا 1
78@@ 1
IN@@ 0.2227005213699787
131 1
1818 0.6414535941180249
ak 0.04650112615807032
di 0.059807139766650474
par@@ 0.02040888752451688
ھ@@ 1
175 1
0.1 1
Man@@ 0.05054099403794834
ts 0.014947817171484693
1.4 1
119@@ 0.673657317949095
CD 0.13652507626530824
CS@@ 0.2944255875850407
استاد 1
بالا 1
UN@@ 0.23755490926812065
Al 0.07614870033819157
ary 0.024854740752474225
com@@ 0.03183015401281458
185@@ 1
Lewis 0.26331597785650984
سفار@@ 1
330 1
eg@@ 0.03285458408044484
ممتاز 1
1823 0.6980467374620237
Don 0.16979953797685288
br@@ 0.024830023296032913
oph@@ 0.10861674793224366
طلح 1
قاف@@ 1
270 1
א@@ 1
فاضل 1
1813 0.5840206515677201
59@@ 1
‍ 1
ver@@ 0.01107826975565337
امتحان 1
لمب@@ 1
54@@ 1
day 0.035381130166301705
الجب@@ 1
121 0.9575420259971698
88@@ 1
ism 0.049771603202025186
j 0.11777308518191755
ous 0.026526438960244356
شمول@@ 1
ano 0.03613826172228128
مناظ@@ 1
Hol@@ 0.0791151040643316
International 0.050869305318773095
افرا@@ 1
1300 1
Gu@@ 0.04890896020231818
Harry 0.24903187937052296
Ma@@ 0.05541737859030903
Miller 0.2974672346863053
Stephen 0.26834878972195203
per@@ 0.020908379728502968
um@@ 0.02498929685818171
المشتر@@ 1
1790 0.6470442123211081
Sal@@ 0.06256764218602616
ר@@ 1
1809 0.6729246954259975
My@@ 0.1881039659435462
ator 0.05180707084940955
be@@ 0.016264827498967366
hockey 0.24678873627370235
القان@@ 1
جلوس 1
مرو 1
٬ 1
1,000 0.48048995879875017
43@@ 0.966636900188214
اجن@@ 1
عقل 1
11,@@ 0.46141536844497627
Ros@@ 0.08579378052913679
محفوظ 1
st 0.034951361864073424
مطلق 1
MP@@ 0.3206973748417507
PS 0.2537663015181177
ot 0.054428171567243076
1811 0.6863117968878244
Ap@@ 0.10173762288312284
Ray 0.33922258021488233
Anderson 0.3170217159540409
عزت 1
Ver@@ 0.01895541913433085
1798 0.7128163785584223
2,000 0.6009864568484357
Har@@ 0.06212467371037588
1700 0.8236918070694722
1816 0.6064289403939793
550 0.9925004227422894
74@@ 1
ارد@@ 1
اوق@@ 1
مبر 1
132 1
King 0.07073147641294626
رابط@@ 1
قاس@@ 1
7000 1
زند@@ 1
ستم 1
منتق@@ 1
مغرب 1
69@@ 1
حج 1
112 0.7632620234268844
1807 0.6721172377850861
280 1
Brian 0.2906671211474919
Fre@@ 0.06150411835273784
أيض@@ 1
صاف 1
عارف 1
نما 1
1.8 1
from 0.003771130713070486
123 0.8982637025475928
Fred 0.4601220830848417
ex@@ 0.018995757580634855
عس@@ 1
كريك@@ 1
† 0.07744898016902622
145 0.9947399589187064
95@@ 1
α 0.18214245774937857
1801 0.6140627337986542
ە@@ 1
اسما@@ 1
Howard 0.29014696780446025
Me@@ 0.044688689924780804
ati@@ 0.03806110281550959
122 0.8494787917666313
8000 1
ATP 0.4897576222013219
Nor@@ 0.06243986306045398
PC@@ 0.31425723410314826
ara 0.05727217622823996
ber@@ 0.029025974995014282
113 0.8503100516340047
63@@ 1
98@@ 1
IP 0.4093186228280366
Young 0.1631649967618379
117 0.8732615301182542
1776 0.8927796419193983
1792 0.6371384800325229
20,000 0.878659079536934
Ag@@ 0.08581225932158729
re 0.02117323200465182
260 1
ut@@ 0.0369085430238215
اضاف@@ 1
تدار 1
1400 1
Alan 0.32528273634943516
af@@ 0.03424537054589465
AT 0.3587757137948055
Her@@ 0.051152502983313704
q 0.15333714419447186
اجز@@ 1
Hall 0.0864146110695813
So@@ 0.06680027429227622
جماع@@ 1
36.@@ 1
do 0.024255743147930883
ent@@ 0.017205907956165997
CC@@ 0.3151819262687729
NO@@ 0.3792161672539632
musician 0.43687122814596513
33.@@ 1
מ@@ 1
اثنا 1
عائد 1
مسلح 1
A. 0.0869982521238935
1,0@@ 0.9550250428370464
1799 0.7393484515566244
1817 0.6139291768914391
2.2 1
CT@@ 0.8002783866448506
Mer@@ 0.06857512414045627
SM 0.5073418968042409
end 0.019413638373189348
ins 0.02836183381803372
قلم 1
AP 0.3374988099252427
Frederick 0.3283090192259963
RE@@ 0.2675533501492723
pl@@ 0.02206228519325445
Clark 0.31093639214768054
Mat@@ 0.08344084672799269
ite 0.02780622523286335
onlyinclude 0.298413638900772
فورا 1
شاد 1
فوت 1
نزول 1
Gordon 0.3118444213088864
mar@@ 0.023213698391386366
mon@@ 0.02916346974932732
10,@@ 0.4081062304764134
116 0.8816242097217323
Des@@ 0.08739583844839244
راجا 1
Wal@@ 0.08499840538661216
ack 0.08544999655002214
actress 0.31113764601026866
ant@@ 0.038832904482309805
21@@ 1
77@@ 1
text 0.16848122353622547
Pro@@ 0.04733890057778685
bo@@ 0.029091236760868215
ge 0.02730708571842267
خدا@@ 1
صوم@@ 1
64@@ 1
sa 0.015889533211035145
مسافر 1
2030 1
York 0.02691826315041876
ada 0.015309630215975222
فاتح 1
مشرف 1
ممالك 1
124 0.8508173802628891
34.@@ 1
PC 0.23330140557925858
ma@@ 0.045319110630827254
car@@ 0.02845650201382088
tic 0.04580913959111669
ys@@ 0.08206104349930396
CI@@ 0.3089015578788087
Ge@@ 0.04434603936235558
Jackson 0.18225303473762222
ti 0.0711649922895732
طاق 1
مانا 1
British 0.03753687961061247
CP@@ 0.44644584949333316
Rec@@ 0.08497654147890306
1795 0.6364975045762193
1803 0.5460265823349647
Ber@@ 0.03969950062592279
Reg@@ 0.05243926634744688
eman 0.17238286227163874
114 0.8057994326392579
om 0.07571823973748436
مخد@@ 1
1783 0.8250079839607918
SS@@ 0.37869230613771665
ps 0.0523819441515717
رحم@@ 1
155 0.9524651994633542
180@@ 1
K. 0.2721124993153079
127 0.7766432278343915
Kevin 0.32427469366017003
ne@@ 0.02971677953738074
1.7 1
CA 0.24338539147132057
den 0.0036322514512216425
ics 0.04174940903724446
RO@@ 0.32524286051050344
You 0.10104588127593334
ell@@ 0.035796042616905915
ical 0.031050693044247717
144 1
We@@ 0.060750859218105094
im 0.004602248613502123
ی 1
13,@@ 0.44094965720725965
Ste@@ 0.07273049328412955
TE@@ 0.31520165868178374
126 0.8138008597256341
1805 0.611511654473392
79@@ 1
Carlos 0.13643503254534428
زبان 1
650 0.8851776072585752
1793 0.5078730332750132
340 1
J. 0.09611392466028597
ach@@ 0.027785036538098166
sp@@ 0.024663548435958554
CE@@ 0.2596987944128835
DE@@ 0.2806210506945842
Patrick 0.22929263358388743
Te@@ 0.06310518442579544
con@@ 0.015757889909683853
مدت 1
Jean 0.049640679940177325
National 0.024154982447495442
بود 1
か@@ 1
Green 0.133817922018617
Ir@@ 0.09600321050501362
OH 1
Ryan 0.3209128687260057
Thompson 0.3594185769244907
احتجاج 1
Go@@ 0.07111927283668854
class 0.07651314881466754
دأ 1
صدار@@ 1
MI@@ 0.38258166076903727
Walker 0.3322045086207443
2.4 1
NH@@ 0.5014650166240257
Po@@ 0.05042281761315775
Wi@@ 0.18844846387573483
field 0.03735765544286934
tion 0.02216394232984511
مارا 1
Arch@@ 0.10707747930755306
able 0.01657901091988273
vin 0.22823783206346449
مشيخة 1
مناظر 1
6.5 1
Hor@@ 0.09432584529800075
نجات 1
76@@ 1
Bruce 0.3243537735114066
English 0.04945456422476911
IP@@ 0.4457561331619288
ome 0.09711204935456395
زخ@@ 1
1780 0.7166668542523743
35.@@ 1
Eric 0.2766923614021262
pr@@ 0.024333553652086393
129 0.9069080819563572
Bi@@ 0.05270644796308442
ira 0.10808247856880755
ym@@ 0.09475399218470514
زائد 1
85@@ 1
In 0.003352791859758338
Mal@@ 0.05041728847720669
gr@@ 0.020784559690664742
133 1
a.@@ 0.40209433052923854
IS 0.33188506861865397
Pol@@ 0.06140649273087463
kins 0.210499726115485
ذوق 1
كيرو@@ 1
.org 1
ב@@ 1
152 0.9640172879925822
Alfred 0.21924219173629728
معاملات 1
منفرد 1
12,@@ 0.3737584066215159
1788 0.7733169135911143
Mel@@ 0.08570050631398217
Moore 0.28416753067127487
Robinson 0.35589209959937435
ath@@ 0.04904165848751954
ino 0.03645743040199703
ka 0.04043099567526813
ns 0.04768424738608328
136 1
Black 0.08705707468319623
ME@@ 0.33956742437173143
berg 0.04523883915702385
138 1
Dan 0.31130676070602126
IV 0.1060462366031898
ates 0.024473865853675135
ory 0.05646597436284362
ov 0.06597589828859197
امتح@@ 1
1775 0.7486546799346573
1791 0.6455894547148799
IC 0.2854569524486993
Roy 0.3264751536714032
225 1
AA 0.20609628013064551
Im@@ 0.07627798022637436
html 1
te@@ 0.024121835332321415
نقص@@ 1
Juan 0.08601645254690628
pi@@ 0.03443909285804201
ini 0.05045965899215494
اورا@@ 1
86@@ 1
Sim@@ 0.08684574520742536
man@@ 0.026591809478202465
منظر 1
1100 1
1802 0.5490964726008601
انعقاد 1
حاضر 1
عطا 1
حجاج 1
134 1
AI@@ 0.2753175097005999
au 0.0053558635464450235
ca 0.04725007853805178
hi@@ 0.04308474061535355
s.@@ 0.8506438257781882
اعداد 1
منسوب 1
H2O 1
Love 0.11339958591141053
جنت 1
Bro@@ 0.08581855984370691
Hill 0.10349707160499202
Kr@@ 0.05220512199475611
dy 0.09196104343971213
kh@@ 0.05659856499035242
الأحي@@ 1
1784 0.7342834894551139
CC 0.27031306860341275
eh@@ 0.03393628790399121
LE@@ 0.38615051647820986
net 0.10540086716542937
رسن 1
لال@@ 1
-- 0.6495870100116082
1.0 1
300@@ 1
Mar 0.4614862543743432
صورت 1
نن 1
201 1
Dis@@ 0.07474213907758295
Zone 0.3453603903893348
ks 0.02092059547017991
اعمال 1
118 0.7922260935397731
119 0.886265744363006
Du@@ 0.08013447012849541
Gary 0.36557967006234177
Pat@@ 0.11370887502480127
atus 0.13739881642303028
box@@ 0.20197049481342677
برز@@ 1
معاش@@ 1
3,000 0.599803223653192
Harris 0.30229405401525195
ade 0.0394818238206873
su@@ 0.023353947225982857
1796 0.6125564285794787
io 0.04420460666896953
me@@ 0.03210376993157933
za 0.04523707684111912
ميخ@@ 1
38.@@ 1
39.@@ 1
O2 1
est 0.002644698868902566
89@@ 1
Billy 0.32174600150982524
ess 0.032612306817152596
án 0.04470587251913803
نيوزي@@ 1
130@@ 1
Wright 0.33364108396364134
yr@@ 0.07517775796799342
الرحمان 1
AN 0.2783582822446887
At@@ 0.07554667336471241
he@@ 0.032128055195288545
str@@ 0.02683333527698392
ה@@ 1
14,@@ 0.41773988787632144
1797 0.6069678289049636
Dave 0.31902110708634346
e.@@ 0.5046024002107207
اخذ 1
154 1
Campbell 0.3286458938587589
Russell 0.3015112281885968
go@@ 0.07513169647028513
style 0.05249906094717636
tis 0.11930772849138026
ל@@ 1
تلامذ@@ 1
380 0.9562503828716771
De 0.03449715837277485
سرب@@ 1
1794 0.537320200861195
Tony 0.20295247163883456
yn@@ 0.07811685046406684
حالي@@ 1
سوان@@ 1
tive 0.04352914514414167
فرز@@ 1
معص@@ 1
2.3 1
235 1
Hy@@ 0.1105337838612468
Louis 0.05914038168251888
Sand@@ 0.10255121569249984
ida 0.040399440433571694
so@@ 0.02727548626094329
184 1
Ross 0.283674600069025
لاش 1
Cas@@ 0.05807010598854182
Inter@@ 0.04729668055684616
Fe@@ 0.08329184456596794
Ser@@ 0.050239030824771186
ita 0.049688437487348865
ong 0.040252399036241754
ons 0.01672117624975703
تلا 1
ومت 1
146 1
Sol@@ 0.06203473698748668
MP 0.219695745424607
PE@@ 0.3668726399222191
ang@@ 0.02431319049564614
em 0.031668295497849865
سالم@@ 1
Lawrence 0.28324216895642906
32.@@ 1
Charlie 0.317947087494366
EC@@ 0.4687464414993827
Far@@ 0.08591130348673849
ho@@ 0.03385768477016512
مائل 1
Fr@@ 0.054668185987238944
dr@@ 0.026332704755514563
end@@ 0.02314272111030146
ise 0.020021451963253344
oma 0.10772324158375145
فرعون 1
Alex 0.25995765543094773
Ian 0.36795591146027556
School 0.024820645428851647
Su@@ 0.05294045365759295
ib@@ 0.05759220426610447
ure 0.022908659411881614
تاث@@ 1
ناز 1
142 1
143 1
1787 0.6936090544783038
8.5 1
96@@ 1
97@@ 1
BS 0.2582312153784956
ora 0.05555303729855395
000@@ 0.9298929519648267
Sam 0.22384665049079228
model 0.09821444440415009
á@@ 0.031867660959977416
001 0.9892688078842892
Benjamin 0.2768329602188993
Luis 0.13605970971354922
ok@@ 0.04497543052312452
سوار 1
137 0.915494326981929
202 1
211 1
Baker 0.34600806791871624
Herbert 0.29942211029098387
Sa@@ 0.0722377786050499
ings 0.019602613317301648
مرشد 1
0.2 1
165 0.8457669669664147
Un@@ 0.03668643910247462
161 1
185 0.9923444629267661
87@@ 1
Boy@@ 0.22845828904173182
ire 0.0358706728282887
ساؤ@@ 1
193 1
37.@@ 1
TS 0.3842741145193271
ari@@ 0.04147002270768408
ene 0.03541836532427429
mann 0.045410709034730073
tor 0.03836436621219209
اولاد 1
206 1
CN@@ 0.3091354331716215
Dr@@ 0.06706012722744424
gen@@ 0.02358683983743757
no 0.009136872112716788
tic@@ 0.05147036840892659
مختصر 1
153 1
205 0.953097095374198
30,000 0.9627595171609192
850 0.9736738234404874
Douglas 0.2159585918443481
HD 0.3247564585707957
unc@@ 0.06360439046660399
رور@@ 1
157 1
1763 0.8365821510442016
179@@ 1
Craig 0.47281878018708035
Ed 0.4221786048245976
Jo@@ 0.09818739051696503
Kar@@ 0.039239970545584285
Pe@@ 0.06239909595924712
Stewart 0.2978134318220714
بلح@@ 1
فرار 1
148 1
1785 0.7124586237085732
FI@@ 0.16128897165980494
NE@@ 0.25759631673371425
Rob@@ 0.15629742135057598
public 0.030288381081773827
yl 0.1555830329795334
● 1
168 1
Group 0.062022472444790866
Hay@@ 0.14563733699368045
50,000 0.7708803297049707
Bell 0.23958769771321065
Mas@@ 0.062211404755045545
als 0.004227982720286691
ש@@ 1
16,@@ 0.46614595803002795
Andy 0.3219416244074434
Carl 0.13661854615083163
Graham 0.31885828007724604
Tim 0.29380505189713324
ated 0.008814212372546744
كترو@@ 1
171 1
Ly@@ 0.11668060783505982
ass@@ 0.02210914938777434
ney 0.07566599381115578
β 0.4254800542768408
اصطلاح 1
151 0.9781973643291836
BC 0.11518008986661786
شراب 1
عثمان@@ 1
1.9 1
17,@@ 0.4479536854530749
Le 0.007512408115781884
Shar@@ 0.14586914010756905
dis@@ 0.011640766924187005
format 0.1461524720416347
ge@@ 0.01567303544349949
May 0.02388937984119703
رحم 1
مخلوق 1
176 1
Lu@@ 0.060008265303994314
Marshall 0.30108896651534317
To@@ 0.06821947829114121
tu@@ 0.03439229766929476
é 0.006309159924999289
1786 0.7372375835248239
3500 1
49.@@ 1
Can@@ 0.06344778363238394
Es@@ 0.05407735110549227
Kelly 0.2693113903484144
LC 0.3231633780655024
ane 0.05104435097981652
ian 0.03839319782874423
تحفظ 1
139 0.9975198682453456
CP 0.38003969013350536
CR@@ 0.4601299277627539
Evans 0.3401404295731688
Val@@ 0.05532893092968512
ang 0.037502557019479285
co 0.028262384326492387
زوال 1
سارا 1
0.3 0.9858896782008216
181 1
ith 0.07991812014966937
ā@@ 0.07486566048141322
84@@ 1
Cy@@ 0.11425452131432062
RI@@ 0.24465243349002944
ald 0.1639276776079251
خاتون 1
AM 0.19032446094736677
DA 0.26845886879438224
Simon 0.15498172039946387
Anthony 0.2108170911996138
RS 0.2732364114032352
147 0.9491823892705217
1781 0.7563719379075179
Zealand 0.09616819149761206
تأس@@ 1
تورا@@ 1
166 1
256 0.9675705208662428
PO@@ 0.3879251582543643
Roger 0.19044837967818026
align 0.1859732788022014
over@@ 0.04363720864592044
1770 0.6778469671621022
MS@@ 0.3281359337511001
ani 0.05036623546252349
mer 0.04006131050887091
pp@@ 0.075588465577454
انِ 1
ثلا@@ 1
--@@ 1
1774 0.7334626278297599
col@@ 0.021814514697990846
ys 0.05689054643118445
167 1
195 1
Christopher 0.2614673582476317
LA 0.18409179824039731
ations 0.010519363962344598
del 0.0032486536400379014
lin@@ 0.04417556115244429
ock 0.07857485665103547
ry 0.0507494827369977
wood 0.06346081478648072
شرائط 1
156 0.9412534068203122
2.6 1
48.@@ 1
94@@ 1
IT@@ 0.2619893299702101
gi@@ 0.02815323349397425
sch@@ 0.012769780674107544
von 0.0025771444386816725
192 1
199 1
Cer@@ 0.08769031943286548
P. 0.12816498938495693
Sc@@ 0.07415144020724487
ile 0.02183218291940897
غزل 1
0.4 1
158 1
2.1 0.9746613258093617
9000 1
Jason 0.30280607101405566
Ri@@ 0.051108524217148545
au@@ 0.020881354032189502
ff@@ 0.0434019864233879
vol@@ 0.04329797861638248
إ 1
173 1
Larry 0.41621815226513437
Mag@@ 0.06071770622843484
Mil@@ 0.07564107122179163
Adams 0.2622870319552087
and@@ 0.024847633285274243
du 0.0026233646948389273
النو@@ 1
سرور 1
212 1
310 1
Do@@ 0.06703758088416134
ISO 0.5199137070937161
Ken 0.39804466488412976
Manuel 0.14710668956127343
My 0.11144051331664949
cr@@ 0.026356606113573565
ist@@ 0.031123588468220352
فرانسي@@ 1
169 1
208 1
film 0.013152467526928455
ura 0.055238406258088686
well 0.014906649457292701
مند 1
١@@ 1
163 1
Adam 0.16918799622021005
BA 0.18654555809143378
PS@@ 0.21297173970244834
our 0.03201198984361421
sc@@ 0.045285372020221405
آم@@ 1
141 0.82603562829049
2.7 1
20,@@ 0.5412888700684259
4,000 0.6987721188766679
DS 0.23591247277605543
How@@ 0.2918240009260253
ann@@ 0.031816369828232535
ま@@ 1
1,4@@ 1
15,@@ 0.4115357328580676
204 1
737 1
Hugh 0.36991748038377115
Jimmy 0.2553948031128874
if@@ 0.03428061857567931
ion 0.03946128586778454
DF 0.2760411774947929
TO@@ 0.41986674982774164
159 1
Ca@@ 0.170652745150983
217 1
Gal@@ 0.05828437871242882
Norman 0.2795163545206791
Vi@@ 0.06241846770933259
ama 0.047019575896002946
ow@@ 0.0371761263162143
rey 0.07474878039594868
い@@ 1
186 1
365 1
420 1
Morgan 0.24136641398119354
3.2 1
Ron 0.4184266588377554
sh 0.19386114268936294
win 0.03918937112808457
290 1
Jonathan 0.30111006874147606
Mitchell 0.31799167125978084
Willi@@ 0.34849105878774095
sson 0.20804289536182613
time 0.008739831830103892
جلا 1
Conn@@ 0.1763085040651581
Is@@ 0.06009572603369509
Jeff 0.30192037049018805
ight 0.06252194378669094
sw@@ 0.055993292879167815
لباس 1
215 0.999695099881376
DO@@ 0.33720040331056556
Dennis 0.3968785272612015
ER 0.4867588763309533
ain 0.03505201697615026
ens@@ 0.019602240983741432
Kir@@ 0.09633664939512272
Nelson 0.2465985364119454
ole 0.06163718536541437
tor@@ 0.02608513521281525
بلن 1
2.8 1
Antonio 0.09777462404166964
Christian 0.05876493731624662
Tak@@ 0.10960410904646609
osa 0.06057302981528308
ur 0.030616331213531276
נ@@ 1
غلام 1
1750 0.6572552285097819
Keith 0.3844571612460895
M. 0.08300505583847279
type 0.05294257780186849
نوج@@ 1
209 1
301 0.982265858169721
Ru@@ 0.06187775681260566
cor@@ 0.027795660616304323
ies 0.026471779224621874
اعلان 1
194 1
216 1
West 0.029791272270324368
ensen 0.3967199906061848
pe@@ 0.026241933298549805
value 0.1349891124816369
vo@@ 0.05897996260808915
الشعب@@ 1
مثبت 1
172 1
Hal@@ 0.06481424450761623
Hir@@ 0.1294035133966366
Murray 0.2588159658150086
background 0.16318135147176174
177 1
ABC 0.21667063582446736
alis 0.14987543735340164
si 0.03275771975417372
مقدس 1
196 1
ISBN 1
Ward 0.3045008626233815
ha 0.022180735837888845
し@@ 1
179 1
Bor@@ 0.05027720527549153
FA 0.13327977114968131
RA 0.22163734854515513
Terry 0.35756971787037284
ek@@ 0.028416379412950023
ger 0.03968358924948797
ko 0.06396894049606011
سی@@ 0.6383188092157837
ضرو@@ 1
191 1
200,000 0.9742261191050444
203 0.9562766109040675
207 1
Ben 0.15068468072121188
FC 0.04465036727674253
New@@ 0.09566514281912843
Os@@ 0.08051464310030922
TP 0.4495629692283736
bl@@ 0.02217531891446972
inter@@ 0.014341075047807477
tin 0.05402535571449536
000,000 1
Bel@@ 0.029563690152095267
Matt 0.2572683423069021
TNA 1
hy@@ 0.08610470394997122
ro 0.06744256628599656
اصد 1
た@@ 1
1777 0.6474135825008261
1779 0.7082660165589185
AR 0.2493454014759428
iz@@ 0.0246355985168594
lu@@ 0.035246335090871425
ru@@ 0.02583412054211919
tes 0.01705399097350084
ue 0.026421900029482227
± 0.7998771315097802
بازار 1
さ@@ 1
Dick 0.3595343719027597
Miguel 0.1691816182024353
ala 0.04273292635785951
row 0.05996940292573355
تمبر 1
164 0.9980754819563776
480 0.9684066491816016
Ed@@ 0.085698264489731
El 0.007475982606710031
Min@@ 0.04147117400083606
Morris 0.2835799913056546
Pl@@ 0.041839831311323905
ess@@ 0.024771927679956823
ver 0.0463717983366294
3.3 1
500@@ 1
8,000 0.7936497396128662
Lind@@ 0.16742560768473522
London 0.030409845096720314
Vol@@ 0.056374225661488704
ette 0.029142134994588245
int 0.1973921493324822
mi@@ 0.03052126098821034
ser@@ 0.025131161273447895
آغ@@ 1
ماؤ@@ 1
178 1
SH@@ 0.46722947477580923
ez 0.05909898907497949
mer@@ 0.022408201372068892
23,@@ 0.5725581655127132
Hamilton 0.16989576537143877
Tim@@ 0.12680572772492052
كش 1
ill@@ 0.02292226951343374
ta@@ 0.04576899734115449
انقلا@@ 1
1772 0.6527219758257606
182 0.9320093104841853
183 1
One 0.0351219273796457
SD@@ 0.4633416850377806
ales 0.0142067291704201
chi@@ 0.06561629069551761
fr@@ 0.023082116074029584
up@@ 0.03109747568880997
149 0.9108908275129999
19,@@ 0.4982950874287674
221 1
370 0.9532834129672664
DC 0.13270874141516173
Fin@@ 0.05665962742378798
Stanley 0.23560723053232577
Turner 0.2987832957630787
ach 0.03016810571655198
aw@@ 0.030337173142987367
ment 0.01946005008171627
und@@ 0.029868316447258767
1778 0.6109223612769226
222 0.9599202759622513
228 1
232 1
787 1
AD 0.17736356913552087
عشق 1
0.8 1
275 1
Bas@@ 0.04909038771570168
Day 0.08272242216117588
South 0.02059809814472739
مضمون 1
0.6 1
162 0.8848485275205903
3.1 1
4.2 1
47.@@ 1
Edwards 0.36475206958126904
Hu@@ 0.060874717158077206
II@@ 0.3370169309834777
aceae 0.08679926819755351
begin 0.18645787922412252
ents 0.017311726444287856
new 0.011797242350499589
oke 0.10730197796872368
ra@@ 0.03019792407834592
ve@@ 0.04899326247965985
٢@@ 1
Tre@@ 0.05834154177474139
contributor 0.8238149894587334
timestamp 1
خوا 1
علی 1
174 1
soccer 0.30077829235779213
username 1
اديمية 1
田@@ 0.26001157822549287
0.7 1
BM@@ 0.31028811196709366
CM@@ 0.4438440186140558
ore 0.02904791453957936
طرز 1
1782 0.5757206723557138
18,@@ 0.43892580078052496
243 1
Bre@@ 0.0457857393130745
Hel@@ 0.07137564774277726
Ho@@ 0.04974121417817262
IEEE 1
IF@@ 0.3633077846632895
Ig@@ 0.15973658586468595
Warren 0.29036856746016587
fo@@ 0.05609175306470894
ison 0.06917707914280817
tro@@ 0.04151752417332332
درد 1
طروا@@ 1
189 1
198 1
Griff@@ 0.25772161144454
IBM 0.38556705511978984
Prot@@ 0.08555212056346301
STS 1
Si@@ 0.058626317867349564
ac 0.05338051823395939
ele 0.06938214407592756
me 0.020293257020993747
pe 0.041929823075604014
188 0.9811540816971552
281 1
400@@ 1
Pi@@ 0.040840043593260905
Tommy 0.3632518507319942
comment 0.4550784484408764
enti@@ 0.02788472018563013
ett 0.059233721005333494
lis 0.0994694821109165
ה 1
اندا@@ 1
218 1
238 1
HTML 1
ick@@ 0.03665431179458863
آند@@ 1
1,5@@ 0.9589403126937617
110@@ 1
Bobby 0.33457766048160753
Me 0.10082405175377085
Ralph 0.33167481277417304
SI@@ 0.3355014524640042
Wor@@ 0.055296879554309876
ki 0.043857897151663744
آس@@ 1
حالت 1
187 1
AF 0.1989298180014697
Black@@ 0.14419956822034066
Lin@@ 0.08143340211144305
US 0.021036349239105818
ement 0.0124935317435396
ili@@ 0.03936753315637198
متعلق 1
AB 0.2955141048845974
AE@@ 0.30578272801903705
Francisco 0.06009395018153348
Man 0.06724108216236292
اقت 1
المرتب@@ 1
سراج 1
فوراً 1
213 1
Jac@@ 0.11373690072390755
Red 0.06129639925598788
Sur@@ 0.06172104760531214
VA 0.2861213954459251
Cook 0.2969040404591851
Raymond 0.2585376195668209
we 0.04223417373758367
متبادل 1
Bu@@ 0.06960869627125699
Lar@@ 0.0946588627921485
SC 0.10723824897614748
SN 0.877280702756512
United 0.011774805193567843
aj@@ 0.03490808640292649
du@@ 0.02809384723902318
ium 0.08921667804940801
ston 0.13203994138811706
الشرق@@ 1
224 1
Em@@ 0.06016447679558824
Matthew 0.2592557591082421
die 0.00123602733471024
mond 0.16428635531521837
uc@@ 0.040501657278543435
was 0.0008289417779167494
تصوف 1
توان@@ 1
1769 0.7462103038527605
H2@@ 1
IE@@ 0.32475239555428104
Journal 0.1240068344140325
NS@@ 0.20190540804615337
Park 0.03139049851416288
TE 0.44192068958910435
ao 0.056183940919113155
ish@@ 0.040017590834693174
A.@@ 0.12981560026877012
Cam@@ 0.0653516813295354
Mah@@ 0.07149679661675638
Mr 0.3255016435451859
ash@@ 0.040275120896565035
ena 0.03741304660335944
ott 0.16371699322136696
van 0.06033135408870246
ئن 1
الن 1
جانا 1
214 0.9610051803124336
46.@@ 1
6,000 0.6728268952259268
All 0.03077716552102459
As 0.01782308366586542
Dou@@ 0.13821178751834773
Hum@@ 0.12239381924709786
Jordan 0.20803027139972893
Ol@@ 0.06962563316079204
Ram@@ 0.07647945147322345
San@@ 0.06295558334271091
Trans@@ 0.05075216903701631
org 0.5344553386025966
sol@@ 0.021015361099684632
223 1
Johnny 0.21527564784230713
Max 0.10563940300814309
est@@ 0.017688034888497465
thi@@ 0.10096765200003545
AL 0.2600535894830578
GA 0.26127631372230864
ML@@ 0.18742810414592526
Mol@@ 0.06569910434407683
No@@ 0.07062523025672394
Roberts 0.3088242529202089
ai@@ 0.05371624798131075
ative 0.022472934694740303
ly@@ 0.07018001916701626
ola 0.06287221263629328
out 0.009877304373112128
ung 0.0077320858688573555
500,000 0.7828119632430174
Gen@@ 0.04694317512198361
Ham@@ 0.08259218849102756
Les 0.010959759745477169
Mur@@ 0.07228185279705432
NA 0.2454942130334097
cu@@ 0.02185377809849504
توضي@@ 1
,@@ 0.6534389019669758
242 1
27,@@ 0.5725007426438312
40,000 0.9447845949298649
Bennett 0.40835533445381816
Cl 1
Oliver 0.24095467920143532
if 0.028009695690271452
iro 0.11594948491128558
la@@ 0.03766744956603532
oto 0.0766177372707524
rett 0.3245768260988206
رنز 1
وسر 1
Bernard 0.1676798499438321
Carter 0.22942856300306796
EC 0.311974451620264
ff 0.062308885422726897
ja 0.038239916214106016
nes 0.05567464339601224
حرام 1
197 1
Ba@@ 0.08912443912449194
que 0.0015275634943109789
دفتر 1
.000 0.3577359378494938
IL 0.3781087611894365
aria 0.04701906430646662
aths 0.26069082327546883
مزار 1
262 1
Ash@@ 0.09643639143032431
Ben@@ 0.05682389682092719
John@@ 0.2878633841734431
ler@@ 0.0332493998537734
ning 0.035158087986615176
1765 0.716049682660278
255 1
Eddie 0.32397451492211676
Ful@@ 0.14479004697030484
cin@@ 0.05536339484982355
lan@@ 0.03634321867452653
sk@@ 0.03215406275651047
we@@ 0.024616340432230273
や@@ 1
21,@@ 0.5375674250008999
26,@@ 0.5458121808674848
460 1
IO@@ 0.3604761375298363
Maria 0.06185608005695
Pre@@ 0.04699083800381926
immer 0.06608440005389911
التار@@ 1
باقر 1
رجوع 1
Donn@@ 0.25435330062301065
Leonard 0.34378227537444317
Murphy 0.32511866003471024
kinson 0.35838091810872086
ord@@ 0.033970283476564174
ors 0.01382375062340186
ten@@ 0.01559224914001106
tra 0.04991166751747005
ڨ@@ 1
ひ@@ 1
100.000 0.7111894767390813
22,@@ 0.5138642958103611
3D 0.22046149777762272
Bl@@ 0.04054023365322807
ek 0.042746539427863293
اصول 1
ٱ@@ 1
241 1
Cooper 0.25194578339644647
Dar@@ 0.05407944653795317
Elli@@ 0.3372585455041377
Gard@@ 0.2883620772690845
Parker 0.2514373439795933
Wallace 0.34132564928659703
Wood 0.21755246154504904
ori@@ 0.0354843109861317
ō 0.07429318618013601
ھا 1
CO 0.25362746992731733
Chap@@ 0.10281546596026439
Ernest 0.2887765259272121
Franklin 0.20376120489348232
GP@@ 0.3335861382129606
Haw@@ 0.10481367570489773
Price 0.3700866575190596
ace 0.03939449633921958
ters 0.023185775096472204
ן 1
سماعيل 1
き 1
245 1
251 1
284 1
325 1
Lam@@ 0.11651230502097927
Tom@@ 0.08810892416569481
Tri@@ 0.0405692396835942
dia 0.06808441278851635
£ 0.09576264273137959
ד@@ 1
تشدد 1
1768 0.6379712791415878
239 1
24,@@ 0.5041244393835045
99.@@ 0.8941718143924604
Dean 0.2146800171118462
MC 0.21582967939127923
colspan 0.17239939584614147
lin 0.07022156011563108
اهز 1
فرائ@@ 1
226 1
Gray 0.2833476836652185
IG@@ 0.39275957267590017
Web@@ 0.11512401881120855
ani@@ 0.06728885087295086
bu@@ 0.030480751739524577
ington 0.06270747198091972
pro@@ 0.02611938144268157
ran@@ 0.023979466306820692
that 0.0017274789100692552
ting 0.01394765933779015
way 0.017595431806113435
احت 1
् 0.0028014383737327724
し 1
1,6@@ 0.9264111527655016
264 1
440 0.8888778124485008
Brand@@ 0.16382458428819804
Cameron 0.36048375448641545
Ni@@ 0.05284678985041921
elle 0.007853889779981428
مقرر 1
1,8@@ 0.9442836346245238
Barry 0.25054303593221716
Gi@@ 0.045302088644373815
HA 0.619717961329643
Han@@ 0.06303116382657252
Jerry 0.2803138100670084
MO@@ 0.24873285836596054
Op@@ 0.06155135903412302
Sar@@ 0.05315920597320779
ber 0.036038367637521974
ect 0.03437566410142307
li 0.04926551391548749
singer 0.08324183588327252
ע@@ 1
اخبار 1
ناظم 1
257 1
All@@ 0.08227711360040242
BO@@ 0.35694655716077767
Ker@@ 0.0783475917783226
Mary 0.05581506605114184
Philip 0.1641915128390233
Res@@ 0.04690856310027806
ez@@ 0.043147216946965945
oth 0.09972336596225533
son@@ 0.03591328056634794
width 0.2594737721123478
yc@@ 0.08160687374004238
دبا@@ 1
1760 0.5927192057519344
252 1
Con 0.08885601294922299
DP 0.18029060148118914
Jer@@ 0.11872040332070322
Life 0.06000141427191097
RT@@ 0.19902010484100174
Ul@@ 0.06894118492070496
all@@ 0.023136436202269885
ari 0.04995031351110135
yn 0.08415803349354557
اخلا@@ 1
ڤ 1
430 0.9249064321054823
Fox 0.12234061148666771
Grant 0.19612784092413263
Jay 0.257310059242577
McDonald 0.5007250721607747
Men@@ 0.0691226888559481
SN@@ 0.22603788144910006
ath 0.05030426068904323
of@@ 0.04475182613693501
خلفاء 1
150@@ 1
1773 0.6074941134259776
410 0.9470089704857755
Award 0.03901002476975445
Little 0.09629281926652603
Music 0.03679821078059888
Neil 0.28745080710991155
System 0.08522246155145817
TV@@ 0.18690504511334818
Wayne 0.23875635302738157
ii 0.20035577224389756
lar@@ 0.038151804224819855
wiki 1
شنطن 1
می@@ 0.552963413705203
وی@@ 0.7448525661347186
227 1
285 1
313 1
375 0.9032162785626288
CN 0.606020451185765
CS 0.2266134343329682
Co 0.11619475354881018
Kenneth 0.4095176489883072
eb 0.19910397427404083
دی@@ 1
A1 0.46654496542178925
Ak@@ 0.04748470012455941
Foster 0.37319146530519465
Laur@@ 0.10653297270110162
Micro@@ 0.2881575988014267
NET 0.8645577078481792
Nick 0.1991876746921215
SI 0.3751119046612791
Sam@@ 0.059763960682609786
TA 0.15616061375041726
ally 0.01106095489374897
center 0.04971844118647524
illa 0.047901887984200406
lard 0.16623260228734069
1596 1
247 1
249 1
30,@@ 0.6847318308150759
Connor 0.4379685533407465
House 0.027946566329141363
It 0.004682951435062752
Tel@@ 0.08486115013367125
Time 0.09516657271713917
ela 0.05723741676854511
for@@ 0.014068148897120067
ht@@ 0.792136192992973
ish 0.03321780067873867
jpg 1
oney 0.3658780693136953
up 0.008606274540945296
1740 0.627248752249246
Aaron 0.35554358758241666
Lev@@ 0.09753630215081004
News 0.09720763897559011
RI 0.4261869970329619
WA 0.29481144679312915
oa 0.09461399545526693
ven@@ 0.027069375834151924
286 1
390 1
AG@@ 0.26273032913834976
Ang@@ 0.03646284020979281
Byr@@ 0.25856764833298895
Collins 0.26056780568292043
Wat@@ 0.10437543926583066
arr@@ 0.028974163083292762
king 0.0252595811230674
نسر 1
CF@@ 0.3354319159913836
Char@@ 0.038903146704849054
Fi@@ 0.0669845322906124
Gil@@ 0.12502559990382978
Gre@@ 0.06392074198914922
don 0.06400885682729096
ei 0.053633268246520614
parentid 1
الخام@@ 1
رام@@ 1
فی 1
محض 1
مصنف 1
25,@@ 0.47194379264238956
3.0 0.6824741455192179
Dun@@ 0.0926253916917737
Gene 0.43672987781306205
Jar@@ 0.1585463977565241
Pedro 0.09989624696449696
ham 0.07292749907655159
ide 0.051684399625827965
low 0.030879456501357906
min@@ 0.019569650276383146
tics 0.04789895256947989
معلوم 1
← 1
253 1
272 1
AG 0.1142591543310032
González 0.23814477810347628
Google 0.19231843764504783
Pear@@ 0.3679619559078829
Rogers 0.28721241951928933
Watson 0.3109164677185819
back 0.017917936295979764
cer@@ 0.031816612437308794
ima 0.05910257408490061
محقق 1
1756 0.6883111268653737
640 1
Harold 0.2756889151700856
Long 0.08724955113218215
On 0.00765240282304058
Steph@@ 0.23767918168989333
anti@@ 0.03044305191434295
bar@@ 0.019699498987728457
cal@@ 0.040549642678039406
its 0.0038953189533491835
ox@@ 0.10150374689915143
ula 0.10919687215117911
1,7@@ 0.9286103653306436
254 1
Blue 0.08660332591163653
Edwin 0.441363428431287
FM 0.09833928711462996
SH 0.4982752356220872
Stone 0.13746328798382934
Sw@@ 0.06601549504349415
ato 0.037011564290790916
اسد 1
244 1
263 1
BR@@ 0.49758970629016575
Brooks 0.4193189410900208
Dec@@ 0.06090437070962764
Mic@@ 0.1687961897204297
Mus@@ 0.04012076819976247
Sub@@ 0.05455489378052222
eng@@ 0.02336197560595053
eri 0.08347700773041329
ō@@ 0.1029955042805107
ת 1
ادب 1
229 1
Fernando 0.14355422382326558
H. 0.08159168667557475
Ko@@ 0.047011907791893515
LO@@ 0.30149347202926874
Press 0.122201221165727
Windows 0.1114339072467479
iv@@ 0.040555765113120854
لی@@ 0.628580171522863
な@@ 1
269 1
Clar@@ 0.11675941030776515
DS@@ 0.35363191525329957
Danny 0.3119922987306291
Lloyd 0.24143904873892788
Met@@ 0.08332571390214978
anus 0.1496843847296716
233 1
248 1
Cre@@ 0.0503368390297681
Curtis 0.41491706968347114
Gilbert 0.24348424112513864
Pierre 0.0513830052658003
Sullivan 0.30831305147356997
Vincent 0.17904387625020401
anc@@ 0.03701704313609322
ave 0.06187361844492077
don@@ 0.03785634091430221
oth@@ 0.047411810894278435
ular 0.03513967003038535
نگ@@ 1
の@@ 1
265 0.9547031112970016
273 1
Austin 0.18677390952789222
Ke@@ 0.06366029463807626
Mes@@ 0.08932457889415393
Todd 0.37222295768098773
amp@@ 0.034950429320398234
eli@@ 0.056916794908040094
inae 0.21094902537679375
مباح@@ 1
٠@@ 1
あ@@ 1
1,9@@ 0.9288459789770775
Cur@@ 0.04952734777054761
DR@@ 0.45501773493940795
Don@@ 0.06118753967072319
García 0.17430489645152433
HT@@ 0.5138032970400616
Harrison 0.22674667794761588
VI@@ 0.17539370955041933
ans@@ 0.03843317603845544
augh@@ 0.11602036240044138
cap@@ 0.0330366366030863
ce@@ 0.04680939452239881
line 0.016248345623937538
ou 0.008172089808505286
1689 0.7901973095410825
1755 0.6577910193261493
302 0.9925815717882072
333 1
ML 0.35012802463289905
Phillips 0.31925622391537345
ito 0.047341474451376854
ves 0.023731471098334223
́ 0.025562625782086502
اقسام 1
274 1
305 0.8004399360063019
AF@@ 0.211010220688442
Cu@@ 0.06620413016055489
Del@@ 0.05794449576381744
IA 0.233620648326323
Pan@@ 0.04873132119751573
Rand@@ 0.17149122748149045
Washington 0.035832390849128586
aka 0.08474345748693021
uk@@ 0.04180616961938355
ye 0.03257197311931538
yp@@ 0.06197731316338847
تحال 1
1759 0.6815567970276256
Wh@@ 0.09695267355169569
cl@@ 0.021172584836073333
osis 0.10389205507520878
sy@@ 0.07641225402360964
the@@ 0.03088774674019992
tia 0.09627160640876067
1758 0.6150948415967941
1771 0.6178538282062164
306 1
March 0.015589413390218899
ady 0.0948586866692447
har@@ 0.028143705474346515
oh@@ 0.04988390078902052
onn@@ 0.03612742297098991
ա@@ 1
باعث 1
15,000 0.6921404372248048
237 1
258 1
45.@@ 0.9938699063023033
EP 0.08866477688610498
Earl 0.13914075189765004
Harvey 0.30656258241288514
Mir@@ 0.06747597004211316
Mu@@ 0.055266952981682625
PR@@ 0.25795957338323894
adi@@ 0.04016182920263487
ba@@ 0.02776064772410756
kin 0.07534731039785478
ling 0.026671068587985427
براير 1
1766 0.6465010510970935
950 0.919893818250047
CO2 0.6437419056220439
Duncan 0.38983695795038287
Prince 0.07519718656128292
RC 0.15039065096339282
Tro@@ 0.050626392724379875
ado 0.00523109302971068
ali@@ 0.029525567110783753
anth@@ 0.10623508383213079
ax 0.12482213960032565
over 0.007952717731989238
ub@@ 0.05396805015666986
جائز 1
وائز 1
واسط@@ 1
1660 0.5715993103152677
1764 0.6033693170398571
1920@@ 0.16777749251676868
234 0.9702273798009643
7,000 0.6885046687705705
Art 0.03167517287160853
Bryan 0.3613435429665368
Die 0.0033750955681714446
Karl 0.06005230576381728
PP@@ 0.29427450654148424
Research 0.06454015877873008
Shel@@ 0.20591683102823027
sin@@ 0.03752458329502965
ther@@ 0.040519199778077525
yg@@ 0.1155958983747084
ón 0.018259429264211362
י 1
1762 0.6025982554024901
283 1
470 0.9061674716794322
540 0.9804607939953498
747 0.9616023329997339
Av@@ 0.05686606380195386
Az@@ 0.07538764453258942
College 0.02046386115303029
DM 0.330489461807904
Richardson 0.40803272133645146
Ronald 0.33378083454435875
Shaw 0.32349992107064296
Star 0.05984365445495616
port 0.034880376825960936
sel@@ 0.03197991923515522
é@@ 0.00801136103722773
ó@@ 0.025520319646988282
1,3@@ 0.8261267068369916
323 1
Hunter 0.23520889792932415
Pal@@ 0.03834687473434332
Perry 0.2532397404155485
Row@@ 0.19600594699566296
Stuart 0.2519840565420233
so 0.009374424493923861
ری@@ 0.5366763709039735
1757 0.6721473778950255
246 1
288 1
CT 0.3518338849154548
City 0.015556958824423097
Pat 0.35684329052437697
Power 0.11600999644322232
Tor@@ 0.03509345543543434
esis 0.07811024179395008
بخش 1
مستند 1
1517 1
Allan 0.35586371521289345
Association 0.030816660163527482
Bla@@ 0.17333613939903952
DVD 0.09193482872778422
Dre@@ 0.061811602249752524
Ford 0.1015851073852896
ID 0.3041602367399842
LS 0.5083168624210866
Mul@@ 0.08835919545870267
Por@@ 0.04418412048514497
TC 0.1789184043944538
Trav@@ 0.14295841759939418
arg@@ 0.057728641296615486
ech@@ 0.04290567453765837
ok 0.052430218722847956
ona 0.03461561681448489
out@@ 0.02554332156857243
ָ@@ 1
خراب 1
∈ 1
276 1
Bal@@ 0.03049844958635235
Ellis 0.3752757268709794
HP 0.2969317344372736
She@@ 0.09961552060161724
Tur@@ 0.03771259523552083
ap 0.04586507505873109
essman 0.2193702673970826
gu@@ 0.018036161517876938
ier 0.03181696343209671
pa 0.05925962850721191
vor 0.014887162331815737
ּ@@ 1
اطراف 1
حفاظ@@ 1
قاز@@ 1
1492 1
303 0.8036609485410481
Clarke 0.3035674229711769
Ha@@ 0.05396461127546541
Jacob 0.17153806549324102
Marcus 0.2692594628568731
Rodríguez 0.23194822537362242
Sil@@ 0.06738989387303884
Society 0.04030172133200983
cas@@ 0.023438257675988908
her@@ 0.014687511255090177
key 0.05084130103979405
och@@ 0.0585755159983393
تراجم 1
1350 1
660 1
B.@@ 0.1697732530393857
Pas@@ 0.04413895793813261
Rose 0.12338178433074766
Service 0.05902899631392404
eth 0.0714283740057091
ni 0.030603229935809505
pal@@ 0.041105617742416965
ئم 1
صحت 1
فورس 1
Center 0.03865346129701862
Martínez 0.27346652664843185
her 0.004237717157265467
à 0.0011708081201704356
امراض 1
′ 0.4415639630294209
‹ 1
297 1
720 1
Arnold 0.20922103844673007
CE 0.1331263467898503
CL@@ 0.3836753997664864
Davies 0.352990232836677
Justin 0.29769676722359795
Mason 0.2999327584104488
RT 0.19297772238707092
Steven 0.24275302161650764
Ter@@ 0.0599398372109088
Vir@@ 0.0959749996988655
Whit@@ 0.0901554855674469
ain@@ 0.029583285428869364
dez 0.161919810922545
ms 0.037886462633392806
pha 0.22536100724971808
une 0.0023248483862861385
بمث@@ 1
داست@@ 1
نفاذ 1
25,000 0.6185665239214467
293 1
296 1
312 1
Bailey 0.39044099139729915
Corn@@ 0.0881464365049799
GB 0.1599217160123201
can@@ 0.028815116901199204
edi@@ 0.04498254463898754
els 0.01405471447379749
ong@@ 0.033359640327254476
system 0.018756009689623824
فرمان 1
231 0.864643046578967
28,@@ 0.47795609495299923
321 1
Gold@@ 0.08112149686416813
Hughes 0.2720087525534061
Live 0.0850025178181848
North 0.018009249320764347
T. 0.10842526133000435
Victor 0.1205732322499508
bul@@ 0.038490725056511126
ef@@ 0.03173875499018763
od 0.05640034101759008
ut 0.036837082741070545
عبدالرحمن 1
282 1
36,@@ 0.5923840996255572
Club 0.02413123092029265
DI 0.2468101234569183
Ever@@ 0.10514887639411451
Science 0.06198694718903899
Spencer 0.2945339548869575
UC@@ 0.21402478680875886
air@@ 0.030738625601839407
annon 0.1970611706392282
eri@@ 0.04869013989852755
ji 0.06268175041511713
مولانا 1
1714 0.758573725540926
2,0@@ 0.8896843888521355
267 1
277 1
324 1
520 0.9230319412840757
610 1
Butler 0.26866604809709604
List 0.05065326690541914
Media 0.07746488130116441
Robertson 0.37720522030177456
ici@@ 0.03686028655484551
ng 0.13132880540384095
say 0.09223068708381196
va 0.023263885467603305
ملاز@@ 1
268 1
501 0.7254066560140252
630 1
BBC 0.07238646957154597
Bow@@ 0.11109598479046234
IR@@ 0.3020619366250249
Silva 0.26269262985468184
ids 0.050187023724968506
mat@@ 0.028057817824577082
ness 0.030186019135953673
sey 0.07843582568016748
use 0.011041396084550284
پس 1
1250 0.853041739426975
1720 0.5932838353813659
Rick 0.24977333041359695
Rob 0.31419319531561046
XX 0.09031337685211599
ba 0.04344953269162161
ero 0.028667129204025615
leyball 0.24737528849541246
pu@@ 0.028322828931545006
بقول 1
ین 0.9321735505638399
﴾ 1
Daw@@ 0.24095068783700654
Mari@@ 0.050168921702742286
Mi@@ 0.04703215509744023
ern@@ 0.03096349244915358
non 0.017172255340487177
tel@@ 0.028191181794150484
ον 0.3252763566520139
الفرنس@@ 1
خوس@@ 1
﴿ 1
219 0.8509578218495664
278 1
322 1
560 0.9789535590007042
680 1
Hernández 0.47426113223045774
Porter 0.3767883816016661
data 0.052524884130527395
ning@@ 0.2670748436245585
occ@@ 0.24317372809042373
1742 0.68769132602157
236 0.9845550476063372
33,@@ 0.5739234802638036
@ 0.5268942747419256
AI 0.3003714193175126
EM@@ 0.3135807665609102
IB@@ 0.31092640513934966
Is 0.10763562115265192
López 0.1891246109063897
Rus@@ 0.0768336020201295
Ti@@ 0.04299371840281767
ail@@ 0.04726087489126079
ax@@ 0.05175448751399093
fil@@ 0.04579484390212854
jo 0.0391089313839593
1718 0.7754327006512898
1754 0.6399682079127181
287 1
Cox 0.3777370850524472
Sher@@ 0.1020694040718081
Vo@@ 0.07748055446480968
br 0.03472795110967962
cy@@ 0.1222671285170821
fer@@ 0.016865375176060064
inc@@ 0.021152599463986527
pos@@ 0.019061630241731745
sa@@ 0.028147738534369568
vir@@ 0.07268240337300398
كويك@@ 1
1550 0.6690605506332911
1610 0.7183829722138608
1648 0.5457948091943013
1650 0.5582039858309675
1745 0.621925985657255
4.0 0.7318640952540931
Eugene 0.3322607825206504
Knight 0.1908358471495218
Mills 0.2888200584973791
SL@@ 0.33564399395945643
SM@@ 0.30248669548181456
Super 0.060515495676617
Ther@@ 0.0749165662271017
bit 0.07527509130039041
cc 0.44028470670376785
eo 0.036668175025566796
ere 0.01699643849594365
ich@@ 0.02971963537491024
ko@@ 0.048807021488508844
right 0.028839729552854333
tur@@ 0.015823910197471442
val@@ 0.03610071946701783
› 1
1767 0.5637245260498712
266 1
570 1
GE 0.3838117103688497
Gl@@ 0.05125186577057241
Health 0.08262824752258925
Microsoft 0.14001381837565421
Pérez 0.22191678226265762
Ren@@ 0.06138446767109278
SD 0.2852414358068034
Sy@@ 0.05218437077092594
aga 0.06646404341296099
amb@@ 0.035346256871911404
ard@@ 0.029500913088075634
ody 0.09393722635454514
onia 0.07571854399298028
tan@@ 0.02980434726508919
writer 0.04528083559358175
yer 0.044118581575061044
ος 0.06601720087679873
آف 1
الر 1
اوائل 1
1730 0.5607298370393484
29,@@ 0.48425547694578236
338 1
Air 0.03247115851392744
Eng@@ 0.06414435535453598
Entertainment 0.09054730812673141
History 0.019025058243461613
Hod@@ 0.2685795430200371
Lane 0.17197039607145234
Mario 0.14891670078735425
Medi@@ 0.07808195700920136
Nov@@ 0.06481772049965084
Star@@ 0.06238630857645868
WHO 0.8809924344266173
eter 0.03682209143034976
lig@@ 0.03541075610860513
oo 0.10003162795700223
oy@@ 0.04341415076452785
ם 1
اصحاب 1
ثبوت 1
1688 0.6932668175194927
1741 0.6806734838825341
1761 0.5959623194030571
315 0.9469758221817418
A2 0.5491795145830596
Blo@@ 0.10481624606177646
FDA 0.674119543872661
Gibson 0.3338572750892068
Page 0.31110264473332216
This 0.00761498351082581
UR@@ 0.3501988852559494
USB 0.6334861731759349
aur@@ 0.04965055085773965
fe@@ 0.01435719992061438
isa 0.07866398522888071
lam@@ 0.039591623249620275
this 0.004748823013324269
عجائب 1
10.000 0.35861979955455275
304 0.914404322454049
Cun@@ 0.23596703773331137
ES 0.32707377676415456
St. 0.021477679992487727
enc@@ 0.024256479013134716
ger@@ 0.017859910833147315
hu@@ 0.02590234819651317
ila 0.06166446800169433
sen@@ 0.02208417322849105
tions 0.011504657295253833
α@@ 0.10735925488520456
تلفظ 1
Company 0.03061510806930463
ME 0.2547422281776722
No 0.040982705969377316
Plat@@ 0.05132771410899664
hi 0.06370517803819375
mus@@ 0.03659022337632663
ts@@ 0.018805150699855937
ח@@ 1
ק@@ 1
تسلط 1
مداخ@@ 1
1748 0.6394685275523234
317 1
Blu@@ 0.13287983480791327
Brien 0.3749951148841099
CR 0.2563394108709486
Carroll 0.4188929606622951
Fol@@ 0.0698904482780611
LP 0.14474198415237863
NXT 0.7311205715092631
ars 0.02359667333465136
fl@@ 0.019471561885054257
por@@ 0.025581674329101238
rom@@ 0.037917701426448944
1707 0.6840904508273565
307 0.9634101675695601
America 0.029682369589841287
Dev@@ 0.05746807786714047
Henderson 0.3534208037891482
Network 0.09936628389662652
SR 0.09826168304613739
State 0.015196826055248101
Super@@ 0.05479097574676679
ets 0.013762314856264652
kin@@ 0.08740171075041127
off 0.014942293418499257
res@@ 0.011559062565386276
بی@@ 0.39767376957570333
34,@@ 0.559702793084916
490 1
AK@@ 0.303403735178693
Cap@@ 0.07072067231443059
Royal 0.026578431178819386
Sel@@ 0.055122839696690754
Van 0.06891779126610273
ashi 0.16423340136240325
athle@@ 0.1276649017089492
dium 0.15199148453713407
ill 0.04037344370629755
loc@@ 0.027651919000674537
ty@@ 0.042725191934331115
ə@@ 0.39227791373819954
مصنو@@ 1
1640 0.5559972413575619
271 1
Eli@@ 0.11283330640109926
Kent 0.15164627959591542
Night 0.09446946858720807
P.@@ 0.2512420359936972
RN@@ 0.38470041077075656
Red@@ 0.05152003166370488
Reed 0.2963202876964778
Sho@@ 0.07431115648782195
bert 0.05483322001397354
ines 0.017996906887939333
sub@@ 0.012465791948611115
محبوب 1
مطلب 1
1620 0.6051064427047637
35,@@ 0.5902218565322997
Business 0.09520682150265027
Colin 0.3026045067748574
Fisher 0.2960800456542266
GS 0.3395437133421321
Institute 0.035744019799685924
Sean 0.268743888368825
Ty@@ 0.06963097564017169
Win@@ 0.05669737940010525
art 0.01666136259270218
cases 0.061429314652989384
icus 0.1653730027390336
ide@@ 0.055481192031041196
ille 0.02880375986878454
net@@ 0.06231947647526832
web@@ 0.1983737292915507
بابر 1
261 0.9484979238735355
299 1
620 1
C.@@ 0.1382319311402252
HS 0.2271629513841626
High 0.02595205266291584
Isaac 0.23214767175304202
Jamie 0.376161426185826
Kay 0.321331093511573
Kennedy 0.13965517412805897
Mem@@ 0.07999410996160497
Poly@@ 0.12483660640768991
Show 0.07146457985665913
aki 0.0778829304169662
color 0.051042486366120854
ds 0.027137122488145028
eira 0.1896691647001762
ind@@ 0.02782537466818037
ther 0.05424188791275172
tw@@ 0.03843395925178717
مرتب 1
نافذ 1
----@@ 1
EL@@ 0.29934562070344695
EN@@ 0.26586231580314584
FO@@ 0.23375214853148732
FS 0.448923158737951
Greg 0.2713283226036906
Hunt 0.2753839447002425
Pay@@ 0.18826366543979398
Reynolds 0.3465097785003444
ex 0.04955482215823356
hydro@@ 0.07933235421435975
ika 0.06596105910353132
inger 0.03522979810864393
my@@ 0.06729306919366827
oni@@ 0.04269190291223587
ud@@ 0.03408810177914944
ä@@ 0.012330595644738268
ای@@ 0.4291771836676166
0s 0.03814774755674193
AO@@ 0.3082612370522277
Bir@@ 0.057164867188720436
Clif@@ 0.32466017737940206
Foundation 0.0692885012014346
Hart 0.2537952178224947
Il@@ 0.06464288648393662
Je@@ 0.06099315774512671
NT 0.3285749733297997
Neill 0.3738985606967749
Net@@ 0.13158940190318938
Owen 0.2796287915991568
ack@@ 0.02944165770958292
met@@ 0.030500666636745385
oshi 0.21135416710267274
pre@@ 0.01116873161965018
return 0.0409295871427073
tim@@ 0.030518410670941434
انفرا@@ 1
انو@@ 1
خوب@@ 1
فارغ 1
298 1
311 0.9229783633476524
395 1
Cli@@ 0.18066329621564248
Crawford 0.3905314547291594
Emer@@ 0.11965708996199599
MT@@ 0.397521949044273
PG 0.2868426802120317
Rub@@ 0.12955913776027528
ast@@ 0.02482815127304608
ides 0.028537300851297315
ster 0.024516478750665482
tom@@ 0.03153526961133048
نواز 1
37,@@ 0.6102168185513775
960 1
Best 0.039921976614667606
Lucas 0.19420410883380843
Mad@@ 0.04266877921510314
Pa@@ 0.07796554924457719
Ted 0.26874298646362293
ema 0.0564185697127971
erek 0.18620301827032154
ese 0.015685012896032302
sion 0.01684527006538038
š@@ 0.044412443176918635
دست 1
ー@@ 1
1603 0.6741703844443783
Education 0.047499062304366756
F. 0.07424941748636092
LED 0.6143035532070897
S.@@ 0.10264802852385593
Wells 0.24555294584829163
acteri@@ 0.5147832135397736
ali 0.045489637904296075
char@@ 0.03404551629317849
ding 0.026635230315174674
ein 0.003028084810712837
eria 0.1186570030643042
ie@@ 0.0323550115994444
lan 0.08850631790469699
lock 0.07522347647967514
mag@@ 0.03764023260481969
السكان@@ 1
425 0.9800030997949247
AX 0.3782464297080352
André 0.10645289855672911
Bul@@ 0.06020186813169936
Cle@@ 0.11686787745857562
ED@@ 0.36278910869195097
IT 0.19016548866415509
July 0.013029538414960778
Kim 0.08738066846569198
Leslie 0.31408900215747676
Maur@@ 0.09190511666097609
NS 0.18886599540371468
PD 0.2219800122985697
PT@@ 0.35049092045073654
Ran@@ 0.06907844321539802
acy 0.03460240554256352
ae@@ 0.11124155959416027
ame 0.04267952520677192
ister 0.0514326486667201
1644 0.6553242747800544
1715 0.5267818537856367
294 1
295 0.8143518124528186
39,@@ 0.6883097716367588
Big 0.051142096820937136
Fran@@ 0.06592882530391754
Law@@ 0.12326690021648921
RAM 0.4262710662807839
Rom@@ 0.033384042845179436
TH@@ 0.24696253303021548
War 0.01435127093327765
War@@ 0.037826299256869776
ast 0.03350373316638524
ee 0.030600729969118994
ten 0.004103779531181513
ung@@ 0.017328792814238058
ws 0.03879417118466429
ר 1
الاول 1
فی@@ 0.9760325196816177
259 0.9731086698073895
337 1
512 0.9412203881584789
Cec@@ 0.18764906468722892
Fer@@ 0.05415727638735703
IX 0.13223177949776346
Jan 0.10346400754242147
Maurice 0.12526528335438042
awa 0.06910293998845352
tis@@ 0.038521742776254704
مظفر 1
1749 0.6553162835078785
1752 0.6017562136325265
Anna 0.07240281403137927
Deb@@ 0.07382803989148912
Dor@@ 0.04713988175958599
Fraser 0.33811510540102496
Fu@@ 0.060736619562988384
IL@@ 0.3527405329359034
ON@@ 0.1532356662500583
Oscar 0.1355596361834347
Simpson 0.2564438147844536
TT@@ 0.6037952563520196
ache 0.046212441320723115
des@@ 0.009002056893640836
dic@@ 0.02992509599583614
ester 0.05283091846464838
ik 0.03226722495412508
lia 0.08801923407740161
more 0.006077955197163471
ng@@ 0.03891891613313237
ture 0.02436219224369542
مندر 1
1701 0.6294566899882701
279 0.9850632015060335
291 1
309 0.9037905382564726
Golden 0.08487081745719359
IN 0.24601457190354273
Jud@@ 0.08220417846071722
LGBT 0.274858976855249
den@@ 0.017392777471581945
wan 0.13082441053093313
web 0.09071805781116725
ú@@ 0.04180048835100991
ִ@@ 1
اسلوب 1
بحال 1
ED 0.45945883347838734
Gun@@ 0.10233584894453053
Hil@@ 0.05971313329558897
Nav@@ 0.07225564771213329
Pap@@ 0.0561616301753821
SL 0.3068574636274243
Tal@@ 0.051555736783853674
ating 0.011254466344989947
atr@@ 0.029552728112283193
enn@@ 0.02080301217915867
ha@@ 0.035840801647076405
sal@@ 0.02407518299919086
tica 0.050011469992854954
دوست 1
صحاف@@ 1
289 1
316 0.998194077852575
336 1
5.000 0.29160825465486817
AV@@ 0.20756854211088083
Armstrong 0.2589385646837566
Brad 0.40358112247067657
Bradley 0.3160595647083158
DE 0.17795606601128264
Hart@@ 0.12348026552103093
Pres@@ 0.03493058128643883
San 0.011709290734926497
Tam@@ 0.08900697334336378
ash 0.045555370428236125
ation@@ 0.11865452407227256
iss@@ 0.03448996846321263
rell 0.16699851898491666
і@@ 0.29888585394733785
البشر@@ 1
قبائ@@ 1
مردم 1
1743 0.6302302256733731
319 0.9841951469419798
Anne 0.07327066621130411
Bry@@ 0.24499538493856826
DR 0.2001042634010472
Nat@@ 0.08557298126302186
Nicholas 0.16982805681354898
Rod@@ 0.11613684953340132
Sav@@ 0.060914393100626546
Thomson 0.3676283790540664
ace@@ 0.06016563168176319
ago 0.04575359520830273
cul@@ 0.03579107429631986
fer 0.02893720895732554
rec@@ 0.013715727940908558
very 0.013895894971534033
ville 0.011179773142914023
ְ@@ 1
大@@ 0.01421742954527473
山@@ 0.05305617818224732
331 1
Ari@@ 0.09019432724584685
Gerald 0.31745122625527344
Hen@@ 0.08435565702076275
Law 0.05736886137522521
Pro 0.08396998218551416
Rel@@ 0.04482176928879101
Times 0.04812979636552036
Will 0.14498126011003296
bot@@ 0.049571729874973124
ense 0.03754969569552571
inn@@ 0.022347257410072527
mu@@ 0.03087622212060478
tical 0.031002444332204334
الكويك@@ 1
عصمت 1
ゆ@@ 1
ら 1
31.@@ 0.8445514208258601
404 0.9554429934516679
978 0.9884318097150971
Chuck 0.3247684565036161
Cohen 0.2958624573223604
EP@@ 0.26276710927570124
Gregory 0.21699852400437858
Gro@@ 0.06548589056883547
Phil 0.18839673723895917
Torres 0.2598556799226772
Ur@@ 0.02744519826740605
aph@@ 0.0969164040259547
can 0.007279518728842398
eck 0.04866781786888771
he 0.0016663132741738592
into 0.005190052029455235
ip@@ 0.06551308969269744
micro@@ 0.07218226285043132
ough@@ 0.07112412830222292
ל 1
مخالف 1
お@@ 1
1735 0.5991191586093431
292 0.9842012910447292
354 1
760 1
An 0.02203673770676704
Chi@@ 0.03812758413694564
Cross 0.08129198125791083
Mos@@ 0.05793407646747224
SE 0.20559862012315425
UM@@ 0.47655784425754366
atum 0.13627028007190403
bers 0.055891969274425045
ine@@ 0.06267359602786128
ome@@ 0.12042165048920159
org@@ 0.07653935084024477
tar@@ 0.022777955437869646
via 0.026793168546294936
1630 0.5444048083398423
1746 0.60723677305563
Ali 0.0785528857940761
Good@@ 0.12299205042272629
LE 0.42342596204209954
Malcolm 0.3279864275953313
Project 0.09628070208957863
Randy 0.39773194359199243
V. 0.06951218609297193
Wrestling 0.1275208447125029
air 0.024444865883212465
elli 0.06149912354806598
uk 0.09695012282565892
vers 0.01401014572586787
مطالع@@ 1
つ@@ 1
510 0.9470590027566721
Andrews 0.2916819018393016
Fern@@ 0.09615407694996624
Guy 0.14394521705688404
María 0.05796493271021521
PI@@ 0.37024775608816207
Rafael 0.16881222478353097
Rice 0.2893202134702065
Sing@@ 0.10279534199762724
Sun@@ 0.06972246936830022
UT@@ 0.4010310670043331
acid 0.13655093757305628
alism 0.05223851840623048
ass 0.04008657993820501
face 0.025589704996059212
go 0.02494106611576867
oides 0.1615736319132593
سوخ 1
مزاج 1
پ 1
い 1
1744 0.5980248467571203
1751 0.5766054292964408
355 0.9686714213350757
Cole 0.24713222370016125
Eth@@ 0.09620784976204179
FL@@ 0.4000592662536895
HC 0.18156828734824917
Kn@@ 0.05318332893845822
Na 0.2641355480950476
Nik@@ 0.10196341952124126
PI 0.3733339251860192
States 0.009758224590160413
Wo@@ 0.06586600331792808
ius 0.07231015776454164
op 0.05098237417324848
ros@@ 0.06064073871504676
نسبت 1
子 0.03194919736664144
1450 0.7072244667103028
530 0.7996768674022313
580 0.9161392413694195
Burns 0.32125962025484034
David@@ 0.3311676016374388
Leon 0.2453879804422899
Meth@@ 0.12096978063129446
Powell 0.2737779770871206
Sm@@ 0.09778855651752053
XX@@ 0.18995698486020532
chi 0.03997592225324718
eme 0.03991153837007931
ey@@ 0.03908644435685409
folia 0.3267453480038137
ft 0.02025305897792478
lat@@ 0.0246167471242589
reg@@ 0.0155167428972283
み@@ 1
1624 0.7216880257755485
332 1
345 0.9354550646982718
93.@@ 0.7360460365936974
DI@@ 0.36850650727347184
DL 0.4140839285772847
Linux 0.20714204096516953
Otto 0.08173696357540768
Rem@@ 0.061904976574271395
Shi@@ 0.05674951141611054
Sánchez 0.21945582336880892
bor@@ 0.02807822565011411
cur@@ 0.020378637076581937
ew@@ 0.031086770642376065
fa@@ 0.035085761098826496
los@@ 0.04953260727473624
trans@@ 0.011703815560609315
ul 0.055256178105314815
گان 1
と@@ 1
も@@ 1
20.000 0.46694900833406827
Burton 0.2972795404246956
CI 0.27028512502659985
Dav@@ 0.09522030262201416
Ricardo 0.22353231452312244
act@@ 0.0597814720062385
eta 0.03377498742121457
ken 0.013027475860845726
ki@@ 0.034611676745533684
401 0.7427170556171421
April 0.00850411317343833
August 0.008180446880682802
Elec@@ 0.06079569717856751
Ferguson 0.380816159911877
Holmes 0.24599446309000444
Inc. 0.09761238912235613
Stu@@ 0.05824523422662468
avirus 0.34932423021066744
bre@@ 0.016359072137387246
che 0.013623239407309546
ection 0.03442131788517043
xon 0.2586334860668898
π 0.2827129896590627
פ@@ 1
محدث 1
318 0.9153540961098361
32,@@ 0.5622904058676125
AK 0.34273048439554876
Carl@@ 0.172384702686088
Claude 0.10174508092154959
For 0.01702722665712444
Rap@@ 0.08071846051552424
SW@@ 0.23822721560215127
Wes@@ 0.07579429523171921
ati 0.057782666683786295
fi@@ 0.017647223630033872
gar@@ 0.02565965518513465
ku@@ 0.042586678967047945
my 0.050420596844364195
آس 1
Great 0.035600828809257926
Nak@@ 0.12210150318166917
Nathan 0.2656516618012598
Office 0.060875920549660095
PP 0.27469369296011714
Rock 0.04766986602621641
Tar@@ 0.04144505330545228
U.S. 0.01913262535365153
Women 0.035176751769238346
ania 0.05254817146044205
bas@@ 0.0201401902385742
enzie 0.3053035059590546
mayor 0.029597821451177796
othy 0.37873991661658
ova 0.06422126448086043
tz 0.10688856279210374
ابو@@ 1
شوق 1
فرنس@@ 1
فورنيا 1
متناز@@ 1
معمول 1
نواع 1
だ 1
1,500 0.478453088923443
1680 0.4956534248649502
Der@@ 0.06011719878402731
FF 0.1531233082929845
Hansen 0.3680035100531012
Ltd 0.13328443214529065
Mann 0.08018661679295733
Marc 0.11885354681263124
NBC 0.13694185884618643
PR 0.19047337354386662
To 0.03601981040143487
Up 0.10206679721101189
Virginia 0.0394638824029133
act 0.024558637296034403
ency 0.03659413839611691
ico 0.020267077952244972
oni 0.053485228439675334
you 0.03567190973939213
É@@ 0.020521292885259054
1649 0.6462578356722465
1753 0.42003542276419165
Cham@@ 0.13223079660140197
Li 0.11622101852185024
NP 0.4274277154970087
Nag@@ 0.07069295905436213
Oli@@ 0.14696097939126135
Paris 0.013645390133221174
Ra@@ 0.050578856050156905
Robin 0.15907553150275955
SF@@ 0.25219629531989474
Santos 0.17234296553775863
Tyler 0.2714252024203658
asp@@ 0.23069530820014936
atic 0.03460348531220012
eus 0.11066072098858766
hand@@ 0.02582666714579703
inf@@ 0.024776412264884893
omy@@ 0.3824289155515166
pard 0.19672984302049265
phen@@ 0.11740846541894392
ris 0.20209598564688308
syndrome 0.24154458782122845
ug@@ 0.02715639719444739
توبر 1
دولت 1
1702 0.624250305846056
1710 0.5011848538335226
1721 0.5956573330889536
C1 0.4844207132921402
COM 0.47230668301549106
Corporation 0.05978709499775109
Kyle 0.31219828907559277
Management 0.0870302113421596
Percy 0.3704977167868371
Power@@ 0.29297648537038884
Ril@@ 0.3223965833843753
ality 0.03650221083362897
att 0.14012686133407623
aya 0.03732167895088262
gs 0.038797718858776524
has 0.002575814249516768
icks 0.131705146303502
uli@@ 0.06087325267648414
una 0.0023171417550611395
worth 0.05130213796639528
γ 0.5481188032706423
1521 0.7157032116725175
1580 0.5712135116446985
1616 0.7101475405962137
1713 0.5611431245286723
2,5@@ 0.9064027962383006
326 0.9605092494738673
386 0.9312389291954062
999 0.8592328001673014
Bet@@ 0.08223115972000976
Dick@@ 0.17335183022324213
Ep@@ 0.08979703355227422
Fil@@ 0.04702117050332229
Green@@ 0.07932525903241106
Leo 0.14882900951575925
Milton 0.2803066323787841
NT@@ 0.25651522015363887
PD@@ 0.4276334580047698
Pete 0.24690983286991186
Tan@@ 0.05483430934415087
cus 0.0909696250385071
iki 0.051998484560668363
ins@@ 0.021645504330353577
not 0.0033015544035432122
pedi@@ 0.11237254777380369
1683 0.5914354091859549
1733 0.5873445954679303
314 0.8931358947850516
Buc@@ 0.0768235278296336
Gabriel 0.11119823961955624
Jen@@ 0.18505480806341387
Jesse 0.2896245303735889
Joel 0.31090100507001184
Kenny 0.3107069470612081
Open 0.04156279286029986
PL@@ 0.21303614809791313
Pier@@ 0.12579411685048222
Ramírez 0.455904354074368
Rich 0.32196077943240603
SR@@ 0.3433161022500663
Woods 0.27030212836405626
agan 0.10837084738347677
erry 0.06806429094917624
iss 0.09475949000866996
wer 0.04045634801403158
én@@ 0.023001265867670036
ַ@@ 1
تنازع 1
1570 0.5631115904398323
1605 0.6654693575876496
1727 0.5426142517627868
2023 0.3643604257900993
Ander@@ 0.1173725859534406
Au@@ 0.03491050067086308
Dur@@ 0.061868368512882084
Fac@@ 0.06064729780064998
God@@ 0.09625774473905145
Greene 0.3452441042268601
Hog@@ 0.19865156364630077
Proc@@ 0.16195307060979405
cha 0.031201123111211787
leton 0.1638405103251445
ost@@ 0.044143975732666915
revision 0.5927245173896037
ski 0.03714363944407108
urus 0.26459723427327414
כ@@ 1
ס@@ 1
قوت 1
中@@ 0.019886969872644142
415 0.9631656788514044
BB@@ 0.4181972891906295
But@@ 0.09826468405524441
CH 0.31933152696037104
DV@@ 0.2418072098756188
Ing@@ 0.0663593267333645
Morrison 0.28738804492495307
PE 0.41230240310249655
Ras@@ 0.10909968958738786
Systems 0.13605691230145076
Union 0.018108764793544802
eder@@ 0.05568079347189348
ga 0.03748579255885206
his 0.001265969015511566
orum 0.13030976775080785
ri 0.059068729292888145
دادا 1
عقائد 1
381 1
911 0.6310753723567814
Awards 0.03130265830358766
Cel@@ 0.06797866756410509
Cul@@ 0.09153670606417177
Den@@ 0.05314301405531036
Edgar 0.21529673582456565
FL 0.08161719725928226
France 0.00909474976839218
Gor@@ 0.054899934407108775
Gra@@ 0.079465274266322
Hip@@ 0.19149016627133342
Pic@@ 0.06461160497623265
Stevens 0.23609342607703568
aa 0.1441126082752301
action 0.017946051339412933
artist 0.04499140579362064
bel@@ 0.01826187998382463
ck 0.04627754932838931
enton 0.1813492799797686
hom@@ 0.028184345328699782
mb@@ 0.06378127709167312
ological 0.02461557167060445
نقصان 1
٩@@ 1
き@@ 1
こ 1
1737 0.5641767733985715
1739 0.5571467431396538
2,4@@ 0.9923398596699259
CF 0.15508781171029115
Cat@@ 0.04554186326973066
Duke 0.07042237942587627
ET 0.2489897884769684
Lynn 0.3007859577227683
Marie 0.036979704164156336
OR 0.5162099900750604
ST 0.2068089586517853
Ta@@ 0.0507181703037116
Web 0.19538132657059243
ake 0.02634307444014954
anna 0.07726392377340816
app@@ 0.03602911437158074
cre@@ 0.014521639875945767
ello 0.03454592567222142
igh@@ 0.030399063895574185
iko 0.09799986723894628
kar@@ 0.03125216396519259
mas@@ 0.02236825800659935
men@@ 0.015014579076877565
wikitext 1
צ@@ 1
اتار 1
1662 0.6358078777499545
BI 0.2501174938177275
French 0.016064295761783483
GP 0.20941709804083597
Grand 0.02144177645258025
Hard@@ 0.1033100873838608
Lor@@ 0.0554176143266101
Pil@@ 0.05613343049934106
Sin@@ 0.04473604954813274
Warner 0.12186252553409317
ail 0.040964918686338135
bri@@ 0.04695576391635923
für 0.002529570578872795
leg@@ 0.019093655239122913
mal@@ 0.021447605713333425
scale 0.0729161827440435
sil@@ 0.03473416094876598
war@@ 0.015023606908812201
سخت 1
す@@ 1
0.0 0.4833862937844628
1590 0.5802264459849221
1672 0.5675322742236435
1731 0.6160640380912407
2,6@@ 0.9408863270274627
2,7@@ 0.9319740072856597
308 0.6637390173797548
334 0.9605031607058122
405 0.7457810410223092
A4 0.6932348176991471
Dam@@ 0.060033540617839554
GM 0.156805462208231
GR@@ 0.4449008697290802
Hugo 0.12175882460604659
Liv@@ 0.0876630062029902
Lynch 0.3252095530192193
Palmer 0.22588677972584537
Pen@@ 0.035038844910325904
Preston 0.2864809248301246
Saint 0.009781085693244382
Street 0.01981357523806805
bur@@ 0.0206724273518999
firm@@ 0.1961017030790987
left 0.013968373035172028
mor@@ 0.019609444466453012
onas 0.24133321351300963
اعظم 1
کان 1
1453 0.8846548764120545
Alberto 0.13743956730530366
Data 0.2060464016927876
GT@@ 0.1887214863760872
Gom@@ 0.17247342060763632
Montgomery 0.2106749802815386
Pau@@ 0.06922809182732262
Rot@@ 0.05648094780311825
WCW 0.7160123255638543
Yam@@ 0.11362175268214893
ability 0.022980251425396298
anne 0.08089069179666948
arch@@ 0.024482167824796456
asi@@ 0.031352184246470786
del@@ 0.022223381101641165
enberg 0.053955661637659705
eth@@ 0.035806057357963106
inn 0.08775981824935193
mel@@ 0.029706205479017957
sons 0.043057078732210284
tig@@ 0.02838319410304948
vis 0.09958226182660017
ς 0.10391241926600654
عقاد 1
€ 0.12992041094424145
1642 0.5239343878793636
Agu@@ 0.11130696143183741
Cour@@ 0.05106730747138151
Diego 0.06567680804759803
FF@@ 0.21336769168735362
Fab@@ 0.09845486358177323
Global 0.10356586524881863
Irish 0.04712777112511653
LD 0.4239921989001232
Rh@@ 0.08221831546585588
Tuc@@ 0.15098452317469968
UI 0.4978213763704829
USA 0.033626365390762025
elly 0.15079303355849785
oyle 0.3062953677673131
pan@@ 0.029607343445010988
quot 0.17146991807961262
sti@@ 0.02120707301968933
zo 0.05305213009784858
í@@ 0.013004944781482777
ת@@ 1
ھ 0.7743034912561633
1609 0.5911523176421459
1729 0.5895450801533803
2,8@@ 0.9400074120974466
451 0.9715266662680795
Adri@@ 0.1305811860309619
Bou@@ 0.05789157164247776
CM 0.28123140339339137
Eur@@ 0.0701581535080036
Hem@@ 0.10529685070778357
Island 0.025781581238371876
Jan@@ 0.06899836284132352
Kath@@ 0.06474816869900393
Ken@@ 0.08533859352290371
Luc@@ 0.04809754756566797
MT 0.30324324463882535
Sk@@ 0.04967112247032322
UL@@ 0.44174232791672746
VI 0.06913176911393426
ages 0.012276211398532298
anda 0.05499057587111185
ble 0.023530087367735326
gen 0.01860452881507085
ier@@ 0.01614092469179576
mi 0.042994339502826044
oz 0.11562829307741258
plex 0.11804878612475464
tion@@ 0.0307996508754168
う@@ 1
1632 0.5730772940729886
1747 0.4897986776327453
BP 0.3089600621265664
Fro@@ 0.10509473494329985
Japan 0.024567907182912057
Joh@@ 0.10223808955134012
Mann@@ 0.11134223540725836
Sarah 0.10066580148272804
Syn@@ 0.07809731804159843
West@@ 0.029705170084938046
Wol@@ 0.04709755713749506
awn 0.18424470638657214
bs 0.03262073188925369
disease 0.08002178159119605
eng 0.0608443202303315
kr@@ 0.028588435804067766
lum 0.09451426810320765
مسند 1
335 0.7481100245855832
356 0.8636097697606301
Academy 0.02849482361405557
Ay@@ 0.05893917273388647
CBS 0.11814585346188348
Gib@@ 0.19085794608609033
M.@@ 0.09944719370821284
MB 0.29491274994033695
MR 0.3587129121792201
Mach@@ 0.07705652264493569
Mart@@ 0.09816778116889453
PN@@ 0.22476489036042302
Pablo 0.12005513404549208
Pur@@ 0.06994685480489374
ROM 0.4713621157259132
Richards 0.2749416332870669
Sun 0.06292214807228261
UK 0.02782139560359343
ats 0.013140649017973322
dec@@ 0.012128854514913218
ear@@ 0.025373724788257515
ert 0.01200232066041551
language 0.024070774323306756
ont 0.008083453835708871
pur@@ 0.021466035080735118
rie 0.08236843190302083
set 0.01226794445724435
اشرف 1
منافع 1
1631 0.646936171087978
1670 0.4892328080866032
1734 0.528979273414817
3,0@@ 0.9280535164864341
343 0.8786783830041083
Ali@@ 0.07007639709268056
Bern@@ 0.0600463220870804
European 0.01893245734507965
Fo@@ 0.04009501736069233
Ga@@ 0.07490201964856753
Go 0.10376738850825186
Jeffrey 0.3403778276476487
Khan 0.07735786703292499
Lake 0.02881659763891082
Lord 0.0409353575779578
MIT 0.31453781842491935
Maxwell 0.3119414859877566
Rodrigu@@ 0.26997295180353925
SV@@ 0.3614198436720589
WWF 0.3652349651279332
ami 0.04803934538323825
aus@@ 0.006338752757901722
bus 0.04266766943219944
group 0.01090076899759124
iki@@ 0.4238879036705881
itz 0.030096822378234255
mit@@ 0.023525542531369695
olph 0.22919507450761714
ted 0.005284137704970563
ze@@ 0.024677629506035727
ó 0.00384903825028099
بزر@@ 1
لطف 1
مطابق 0.6419010322557792
Ann 0.11620686507530904
Barbara 0.1107409264293294
Bau@@ 0.015822711906863487
EA 0.24340077459767995
First 0.024536699911372334
Force 0.03447899044194333
Human 0.09153572944002264
India 0.01885437071814846
La@@ 0.046684927642997934
Mak@@ 0.05337821301423147
Miles 0.22334975834919624
Phil@@ 0.07150744364032828
Scottish 0.05878507398917652
Sky 0.13342499339536265
VC 0.24914162287959563
arab@@ 0.12028416692566285
article 0.04135982970728217
cat@@ 0.019487543152536212
e.org 1
inus 0.11233089359985364
isi@@ 0.020610261672177534
ny@@ 0.06654146089773998
pes 0.05991678031771974
pol@@ 0.020048597531440577
poly@@ 0.060527857288702025
tal@@ 0.02639332531173373
wal@@ 0.02792141750356309
ware 0.10872876825008033
yo 0.06495039800467457
سز 1
お 1
は@@ 1
000.000 1
1520 0.5195230275500826
1625 0.5295085208719209
1699 0.5624728633937004
Bat@@ 0.03626703358830724
Berry 0.2498159847841581
Blake 0.2243158650366303
Buch@@ 0.04419498500226374
Bud@@ 0.07072060608478133
Der 0.004180790862482202
Dw@@ 0.23162608868926216
Fal@@ 0.046259397636657325
Herman 0.2800939144209424
Jenn@@ 0.2777586922036796
Jeremy 0.279711089831874
Ku@@ 0.051222062766024125
Nath@@ 0.2612193402092996
Rad@@ 0.04137796975750391
Series 0.04168297595206895
burn 0.09560995902640267
hal@@ 0.019732023744401098
inde@@ 0.0793020277566899
isti@@ 0.03826043971366372
side 0.011207262574558225
tus 0.07987438032605441
افز@@ 1
حی@@ 1
شتر 1
گو@@ 1
ん@@ 1
1560 0.5288051283700386
1712 0.5600844046833872
1722 0.5016012544376449
Ball 0.14439280643512722
Flem@@ 0.2114643148453894
Glenn 0.2562711781894335
Sut@@ 0.19694943868003426
Thi@@ 0.07047800040848938
ahn 0.07911768101214323
com 0.12491626553135357
gol@@ 0.04218205038984733
ial 0.04350157179787081
icky 0.227524943364226
iti@@ 0.019478532403133776
meth@@ 0.12343143593295748
minor 0.06125671552113776
uki 0.17555906125486107
wen@@ 0.041586330822073476
دفت@@ 1
راست 1
شروعات 1
■ 1
1.0@@ 0.38933945010499516
1585 0.6206283246715063
1690 0.4616783766792046
Dem@@ 0.03756817578839121
Edmund 0.2073805354694555
Gam@@ 0.10017239827890322
MTV 0.12666783041268506
Server 0.3430592788702623
ational 0.029909604650180405
fol@@ 0.03376319413826335
ker@@ 0.03444776614448633
kl@@ 0.02365903975929035
ond@@ 0.028600790278788965
oy 0.0784045743790949
ster@@ 0.026678785284148417
yi 0.07964934955826333
Ángel 0.22160723548950753
اسباب 1
″ 0.5305010784271386
1526 0.6320711021306179
1654 0.5347755802156584
2,9@@ 0.9613110770466814
40,@@ 0.6489520175041859
Barr@@ 0.08538714650221944
East 0.01779202225678195
Game 0.05663719553141738
HD@@ 0.4138907865987754
Javier 0.21920489198635523
Kal@@ 0.030374734706976457
Line 0.04271099173431125
MD 0.19262777776689816
Nu@@ 0.08085950241596045
OR@@ 0.23338931287567405
Radio 0.03207667599038403
Roberto 0.1526231703905483
ants 0.008802429140285612
az 0.04135134038468461
bie 0.07951397654817413
ega 0.06552923552528614
itch 0.050719518236325443
je@@ 0.034417758877709
ones 0.013266002108684321
sec@@ 0.017769095852428893
ø@@ 0.056179763763169216
1724 0.5013575129131769
1725 0.49574872793313857
38,@@ 0.46273565768207264
Anti@@ 0.05971341009923885
Ban@@ 0.03521893097250464
Cos@@ 0.06677078131085823
Fernández 0.15047268468260838
GC 0.17805668985364165
Hans 0.04345155594560825
Kam@@ 0.042721241365411125
Kap@@ 0.0576876090922864
Kat@@ 0.03761180815117127
Luke 0.15637201813623386
Newton 0.16508964360540093
Open@@ 0.1539325110419138
Sab@@ 0.041263931299415364
`@@ 0.46501667593638707
esp@@ 0.03341325115644164
ges 0.019463522236397614
ges@@ 0.018095022717526048
gl@@ 0.02266969946280478
icum 0.258291154288002
men 0.007955493295399461
mot@@ 0.027973834065446165
pel@@ 0.02294332909843161
pen@@ 0.017937479992429534
self 0.03561948725142188
top 0.01567943658289996
گ 0.8918009416475382
井@@ 0.4969556031537924
1547 0.6447612549160546
1623 0.572609257752766
1717 0.49079492351386317
1732 0.503694239138192
1736 0.4979431913823577
40.000 0.7201552072355653
Brig@@ 0.09231405533152165
Dol@@ 0.050332860027418026
GPS 0.41188119277834534
Jackie 0.31965863614615686
Jane 0.09218442787490005
Ju@@ 0.03605446412555393
Luci@@ 0.10284930910245013
Reichs@@ 0.0724854197863564
Rhy@@ 0.136896268042095
Stan 0.28422771207892406
What 0.08444126642266485
Wisconsin 0.07181814444840658
bal@@ 0.024727709017330842
book 0.015164869389183246
cli@@ 0.03557403446024551
int@@ 0.019248225509866792
ische 0.006774164656395361
log@@ 0.03509965060121241
ops 0.04904672562014925
½ 0.2686318113704318
Δ@@ 0.10658600567907765
عور@@ 1
よ@@ 1
1540 0.47806704193628013
1704 0.5161542465601174
Bot@@ 0.04053843231118025
Bruno 0.14017193237662767
Championship 0.021817685092665254
Christ@@ 0.06999492618141984
Costa 0.0755615202403132
Dow@@ 0.10603910929140077
General 0.01364822218513253
Jon 0.15580749668791763
May@@ 0.05503632546673414
Meg@@ 0.08426209897069288
Of 0.053924117790902865
Public 0.042149196717406995
Schmidt 0.1572335056043096
Sec@@ 0.06682048201350228
Sig@@ 0.05551163998140053
T.@@ 0.19730656732880056
art@@ 0.028745522159850302
aus 0.0029919430972199044
ector 0.10187667792430485
gi 0.09707796297604493
ike 0.04308223971351468
new@@ 0.10658890817101929
ock@@ 0.056428438530688074
olan 0.029781923959021656
red 0.01519343380660097
which 0.001635744821590868
§ 0.16952619204997244
ée 0.0034682586336932534
آصف 1
طوفان 1
متعارف 1
مقصد 1
نذر 1
1598 0.5383561346757952
202@@ 1
Cruz 0.07909346214763571
Floyd 0.26811233390900896
Good 0.09442725503123943
Holland 0.15440775920157196
Ja@@ 0.14240967513757613
Logan 0.2705720251866117
Michel 0.0611705972838258
Mit@@ 0.03378106766275916
PM 0.17940954840388676
Sherman 0.28661748624704925
aff@@ 0.019830298213484438
arch 0.0798031964946621
att@@ 0.015336182623299523
ender 0.0295372790565914
gie 0.17817013152776856
ories 0.027204275633806434
ple@@ 0.030661037955295033
ren@@ 0.01276487427271064
tery 0.06323722110942538
xx 0.4561117823735779
ū@@ 0.06958493865269148
اسود 1
الی@@ 1
باؤ@@ 1
تخت 1
تعارف 1
کو@@ 0.4401941652453138
1530 0.49018242416498325
1618 0.48306575997340634
1664 0.5592954983115453
1665 0.5464460271024406
1711 0.5065335521333761
Ant@@ 0.05854636174389259
DB 0.2044324759039869
E.@@ 0.1056590821838192
Ear@@ 0.10307232328538236
Gir@@ 0.057047062363104535
Harper 0.2464793179376744
Leg@@ 0.029225744113547714
On@@ 0.05693808245197458
Rev@@ 0.04695229543095882
Team 0.0264777734904148
Wilhelm 0.04270563683460824
aba 0.010896065293985244
abe 0.0631838010012401
aci@@ 0.028041485535581712
bot 0.06734412124837406
cho@@ 0.03945184597461308
ental 0.033929730943955516
form 0.011111437054625266
ich 0.02069034856199174
je 0.02660368358838691
ocar@@ 0.25088625034962714
ui 0.08806356627250815
wor@@ 0.017143756507341606
yan@@ 0.06887366897406363
ג@@ 1
آرام 1
آزاد 1
اتر@@ 1
خدا 1
ری 0.43633500878155873
سز@@ 1
فرم@@ 1
نی@@ 0.409192277772663
1655 0.5632386897831184
1667 0.511177455335336
1685 0.46940259979164206
African 0.028279710852384024
Book 0.06303118669129726
DF@@ 0.17523202607767263
Dic@@ 0.11453295142109395
Ferr@@ 0.09095047545445528
Film 0.01641031110879087
Josh 0.21858783960469627
Kas@@ 0.04572912533906089
Med@@ 0.04240279015330153
Romero 0.3231045641287205
ands 0.02527702771926567
ares 0.028727788998438947
congr@@ 0.12459415321521453
director 0.018091380145806416
ery 0.04173704011642127
flu@@ 0.03192313896691682
hr@@ 0.034334806158614097
inal 0.031450465405741077
iner 0.08371953005935234
nd@@ 0.06267270604869687
old 0.012221635922460517
olog@@ 0.037050908634200026
our@@ 0.02440262519426227
ser 0.01096382636123196
sur@@ 0.009380068171933246
vel@@ 0.04465318023426342
world 0.013051759134590588
انور 1
1621 0.511253388912797
Cup 0.013416102582054992
Field 0.06202935960447706
GO@@ 0.21455413255141997
German 0.014581011366371447
Gill 0.2505372991202396
ID@@ 0.3460217428247399
Ivan 0.13985336150511013
Jake 0.25374530663027967
Kin@@ 0.045223516110643416
Republic 0.031247530518641754
The@@ 0.03622983769752078
Wales 0.03798242753208681
William@@ 0.22345051752000905
oz@@ 0.047151511029027565
tha 0.08839322084738956
title 0.016496474917484075
ائج 1
اباد 1
دی 0.24256401786660842
ساز@@ 1
فتوحات 1
ⴰ@@ 1
1638 0.5400296024907248
1666 0.5257850333936973
1697 0.5177447941968165
Bishop 0.06368252782843144
Brad@@ 0.11201634382970885
Brenn@@ 0.17360502202417186
Forbes 0.22275950763534108
June 0.008784455866830597
Moreno 0.2622432827864573
Saf@@ 0.07899665439336137
Tit@@ 0.04802443931748687
We 0.0448416271651396
Your 0.08955021352413296
ams 0.03305620651249389
apo@@ 0.030235943244058417
ech 0.0738060475021128
iy@@ 0.04465306643529166
judge 0.09201351983012107
not@@ 0.01687092834252797
ots 0.01896117184253357
sky 0.04035320436624248
su 0.0021625471013260716
true 0.0687100169520028
ī@@ 0.09491756500227022
جوزف 1
1604 0.5464294543212715
1656 0.5292098287254355
1738 0.4797314853539916
200.000 0.6782323385259627
Abraham 0.12685718337082472
Apple 0.0986633328380794
Bald@@ 0.20654855844004577
Clay@@ 0.25710256188900815
Cro@@ 0.03408905585713716
Gall@@ 0.13598123980788487
H.@@ 0.1401992450654662
Julian 0.1822579143932098
Kan@@ 0.03501671658693142
League 0.008470189953942097
Men 0.04685988860867051
Out@@ 0.05766609200769963
Pin@@ 0.0519007243953607
Sat@@ 0.06764243110591224
Sem@@ 0.04973348160244193
` 1
alm@@ 0.031210180089856918
anan 0.20261695260135404
cell 0.0615761100924544
chin@@ 0.07129170483828048
chr@@ 0.08881706924009153
ime 0.039521410037445644
ky 0.030959072337060318
mons 0.17143218204955882
news 0.050762686435020896
phys@@ 0.04413160056926568
sor@@ 0.02419295515091617
ual 0.026697070165902385
ze 0.019352365214600143
ç@@ 0.026540365019251416
معاون 1
1572 0.5428147155132604
BE 0.18127882139562584
BT@@ 0.2671432887792883
Be 0.11224947686175503
Chry@@ 0.41716828365723163
Core 0.34732837582226533
EX@@ 0.4115800714179015
Eduardo 0.15360676444707028
Family 0.05134884979762114
Geoff@@ 0.22840040434126124
GmbH 0.08724125214959438
HO@@ 0.3123929315987425
Peg@@ 0.19195442664865783
Potter 0.2502226389954688
UTC 0.18097538275955322
Wagner 0.1440297485061137
coach 0.02568766074027665
dison 0.2612008179558635
function 0.05239804081324195
hin@@ 0.032530732930920216
ke@@ 0.01740582402370421
less 0.014906075990228794
mes 0.01964679507208938
ori 0.05086772284222951
ote 0.024942319520480778
sim@@ 0.03901813996490366
try 0.02878569082619111
were 0.0013727175823567235
آسام 1
اسحاق 1
بلقان 1
شاخ 1
مباش@@ 1
と 1
む@@ 1
1659 0.5395888035184222
1676 0.5175436816383207
1708 0.46372979580037627
1728 0.4827839422377716
Acc@@ 0.07875336850219262
Bol@@ 0.031530050063642096
CW 0.3319563196657116
Cla@@ 0.12523723360929062
DT@@ 0.3401129833995568
Dud@@ 0.21410315360402185
HBO 0.2849316049205475
Home 0.05269284916719286
IF 0.19234452604660243
Ireland 0.030282516253508453
Kor@@ 0.02809669625297363
Multi@@ 0.14075036869594884
Sergio 0.24002898221519678
Under@@ 0.0866451176897945
archiv@@ 0.1812878417162071
cel@@ 0.031434780451626156
first 0.0020648265705861322
ocy@@ 0.16372285263840422
ost 0.05199167456224897
ota 0.04002740311469805
ow 0.028062934952318812
pH 0.3077366396987775
ques 0.009754015585464354
uch@@ 0.021150388957336806
uld 0.10996599831431184
ume 0.02688148600893348
wing 0.020394532017828218
ˈ@@ 0.7412166448122517
شنز 1
عروج 1
村@@ 0.21364775217426515
1525 0.5006482506520223
1652 0.5298912820756437
1716 0.48804020126735936
BM 0.3143543426386775
Banks 0.23051792197269386
Bon@@ 0.04761947760916015
Cad@@ 0.08311497671008655
Che@@ 0.0858242129666368
Digital 0.10517993613801108
Gutiérrez 0.367658441560531
Gómez 0.19859805069859807
Intel 0.255792951513098
Kon@@ 0.019252337803922652
Land@@ 0.014706626291747914
Mich@@ 0.06491549980299369
Muñ@@ 0.3458158900836401
PL 0.3129713725953264
Ramos 0.3564310726300477
SP 0.20096286273066016
Sph@@ 0.19535349210748829
Ster@@ 0.07651552342349882
Texas 0.0244657478459548
Wang 0.12910401639508115
agn@@ 0.04918135263555897
amm@@ 0.02455109043317735
aud 0.04545568244015187
entr@@ 0.018510799905451365
igh 0.07093799187996487
mac@@ 0.06630635202008385
ste@@ 0.01614187241288034
uh@@ 0.04972859059668958
ush@@ 0.048228155305022544
جاوا 1
قائل 1
う 1
1515 0.6670576726860712
1627 0.5144138134945043
1669 0.5693312838900761
Canada 0.015231315423330758
Di 0.16709239395227518
François 0.04208076460469699
Gonz@@ 0.1380139289060067
Israel 0.037036315583960366
Meyer 0.16557606136311306
Morales 0.30777770225007184
Nic@@ 0.0742981126085921
Pot@@ 0.05486445038113338
Psych@@ 0.08636030687218897
Var@@ 0.057610938810327125
Way 0.0996602488293764
ange 0.03598273992443559
borne 0.11488884922598293
con 0.0017133548670935428
nor@@ 0.02183133998436106
pher@@ 0.1808821125736149
phy@@ 0.08442839249288529
radi@@ 0.03517520596174322
til@@ 0.020511933691545026
ving 0.03296866091243227
け@@ 1
ろ@@ 1
1687 0.5438584869285185
44,@@ 0.5355849653533725
Berg@@ 0.036812576332143986
Brit@@ 0.07481912945157411
Brow@@ 0.18499917171113792
Dan@@ 0.04294389321428821
England 0.014079448689747675
Ev@@ 0.03856858090602431
HIV 0.2134765723003805
Hand@@ 0.03336571298591645
Int@@ 0.11763464523998038
Iv@@ 0.10125014390592856
João 0.3122247595099915
Not@@ 0.03645767590756815
Oc@@ 0.043941895469880296
River 0.012465594873955202
SAR@@ 0.40260350963229846
Shane 0.3015120023570549
ag 0.04749178204025135
def@@ 0.016408999708359972
elec@@ 0.030817329442769846
journalist 0.0834430847794645
mis@@ 0.014242624060882813
ny 0.04477134489682626
oride 0.18324260708292134
prot@@ 0.01512082025723426
service 0.010494844950696178
thr@@ 0.03604447364991182
ua 0.03293117609202378
ulus 0.15443215233681318
water 0.012457970760339068
® 1
شدت 1
نقش@@ 1
٠ 1
《 0.008992081226735244
本@@ 0.03926436083756682
1559 0.5510665280357723
1606 0.5600340890926172
1709 0.46565921357026574
Aur@@ 0.0699809102168436
California 0.015860951871821197
Central 0.01859053328230913
Gol@@ 0.04948926948945153
Head 0.07571547389057975
Kim@@ 0.12446905868387395
Reb@@ 0.054290526089218916
Sum@@ 0.04060801128416278
Vit@@ 0.06972596576500482
amine 0.2008258758817478
ando 0.006977876968116497
ays 0.025056532831238338
dat@@ 0.04785881200575644
ely 0.009941663041737157
lo 0.00555580602894365
nia 0.08150271232480304
pos 0.0688450629513592
sul@@ 0.057369015294900606
ér@@ 0.01249514836343791
ías 0.03712760494942497
ör@@ 0.02117775053582571
ør@@ 0.17430321710722627
ט@@ 1
اوه@@ 1
1612 0.5147655964966265
1645 0.46184268267128803
1658 0.5146184154826174
1661 0.4351560401701547
1684 0.525562947678739
AE 0.1919903900318713
Ach@@ 0.05833500310008226
Ann@@ 0.048585820296315904
Bus@@ 0.04206681851573027
EF@@ 0.3129768859267564
Harr@@ 0.1704887272295712
Hom@@ 0.03908034613386914
Hon@@ 0.03462935244779665
Hopkins 0.21533074351776058
I. 0.027091226986957016
IV@@ 0.24463172383968126
Kaz@@ 0.08764643180890751
O. 0.13310573316533011
SPD 0.1114981771795524
Sou@@ 0.045676770301752455
Tem@@ 0.04787397407050687
acc@@ 0.013400141019872924
ante 0.00698513323680867
aul@@ 0.05175731576453966
ault 0.04772165538607551
down 0.011581281929939995
eda 0.07372218129311149
nom@@ 0.03494490125422758
odi@@ 0.03383621362408151
phosph@@ 0.11264608422850692
stein 0.023402086933604488
super@@ 0.02063709396420125
sus 0.0059915842761856805
vin@@ 0.035297837366938485
مقامات 1
نل 1
30.000 0.47804431316105866
406 0.6634229668744583
AO 0.2641820726695156
Battle 0.03433765244410016
Cab@@ 0.052874834744513065
Chase 0.19921482857986567
Est@@ 0.021506362618494004
Klein 0.16186732755286923
Kur@@ 0.026057621461940798
L.@@ 0.11465146616770465
Marco 0.12382501786619331
Medical 0.06422755500844987
Out 0.072646075087375
Radi@@ 0.057341109168300715
Sidney 0.25610539430915663
Solomon 0.20402104982213454
Tas@@ 0.05909481889806099
Video 0.07759986382385893
WW@@ 0.23026369191273935
acet@@ 0.18841675349070652
asc@@ 0.04517647762864696
ca@@ 0.0700642421213893
ho 0.0959538846503642
put 0.02103249368337004
ross 0.15073074585463261
state 0.0076772866457333645
theory 0.043787209427895456
unders 0.11481279100194708
uri 0.05786039137529851
vo 0.03401692669743394
ð@@ 0.14171411884711405
ائيو 1
الی 1
اوقات 1
خالص 1
み 1
川@@ 0.23093030099771583
1204 0.8024024753989545
1607 0.5352868610868702
1651 0.5017965200483737
50.000 0.4692337208099275
And 0.06301975525514288
Card@@ 0.06509075056551186
Ci@@ 0.048924400684736156
Control 0.11877034058223661
Elizabeth 0.04495030395953114
Friedrich 0.029812242456417684
Fun@@ 0.08547341991193051
Garcia 0.2158117104726701
Hudson 0.11567679477386843
Jesús 0.13422923204156492
Kh@@ 0.023744471159427682
Laura 0.12486425451954979
Mand@@ 0.04710535818424615
Martín 0.11370365368995598
Sor@@ 0.04366798167095199
Vel@@ 0.052489936219726085
Wolf 0.10546601634657762
agen 0.03131437961228736
ann 0.04735946992783321
ev 0.04539042595879164
ham@@ 0.03942295582765273
orn@@ 0.0815214400750556
rid 0.09042159268054033
sive 0.016288171551574665
ump@@ 0.02613306613421626
uz@@ 0.03494849416634946
ão 0.07353078637422546
رانا 1
ٰ 1
藤@@ 0.40669207426033427
1637 0.5007499105059963
1675 0.4618670091343139
BT 0.2789564492922181
CL 0.24956321228755504
Direc@@ 0.04892934322188478
Ernst 0.06402978421034244
Matthe@@ 0.31336778606394944
Mun@@ 0.057506620024051235
Rud@@ 0.08732849194623121
Shir@@ 0.11248659692087722
Spe@@ 0.0292626328208838
Technology 0.05714468454026484
ami@@ 0.05878340396677144
ava 0.05357343419429276
bet@@ 0.0474285995199382
coron@@ 0.10019215616482935
ean 0.03594371070083076
fac@@ 0.01747187812040656
have 0.0025977073835420925
min 0.0673352434154174
oxide 0.17597965352740652
sm@@ 0.0491450296176736
tiv@@ 0.03167326018328142
æ@@ 0.09391643905908745
ö@@ 0.012378581319388062
μ@@ 0.05452805465494205
روشن 1
ە 1
1555 0.5420450561181006
1686 0.49968552930134597
Alejandro 0.15571745798194409
Bank 0.031425046711920826
Billboard 0.04146261622009192
Bot 1
Ca 0.42892260962388834
Calvin 0.3270548441025796
Chem@@ 0.053427831019594293
Enter@@ 0.196365585911488
Gas@@ 0.04830930427393388
Girl 0.0896814889865796
HMS 0.1020107838296771
Heart 0.09156992090254597
Hz 0.1753327074327071
Jacques 0.04172903180257543
Joan 0.1217470325382208
Kum@@ 0.08792232690866028
Nich@@ 0.11810593492294512
Northern 0.03354712839298938
O.@@ 0.19224737889825547
Pennsylvania 0.039780182349052784
Road 0.019620156079668192
Roc@@ 0.04675185397569496
Sul@@ 0.06964527487303944
Three 0.04693424174867877
VO@@ 0.2616637032969637
Wend@@ 0.16216292284260223
Who 0.09239404365649442
af 0.07196588082492845
alt@@ 0.020988809100300904
ci 0.018744853498014677
code 0.04305252689064843
dom@@ 0.03120193571463785
ences 0.012043050945642418
hol@@ 0.017743748560964372
ks@@ 0.031400659699761135
other@@ 0.04601151799161767
patr@@ 0.026030585453445672
proc@@ 0.03911990355460558
rest 0.031408943226428926
sum@@ 0.022102572302476028
wi@@ 0.04659140641408068
zi 0.05260702489254558
ē@@ 0.2656974560718438
انی@@ 1
بلت@@ 1
1519 0.6579535449278021
1636 0.4741283560395765
Ahmed 0.14212803949456976
Arm@@ 0.04428435059975562
Castillo 0.17540022618942025
Dal@@ 0.054622849582374094
Denis 0.11164438215782564
Hardy 0.21774283805285016
Internet 0.049948261586502674
Joyce 0.2696633095409811
N. 0.09637190186095151
Rhodes 0.22515289706692987
Son@@ 0.04156305020762879
TR@@ 0.22066370423520115
anner 0.11515961452484995
body 0.019064128355235226
dule 0.19298153499285278
err@@ 0.028264034175684027
etta 0.06137248504833037
ix 0.058151243599713145
len@@ 0.020215452745709062
mil@@ 0.02892740240884352
mp@@ 0.04300599002008169
rel@@ 0.009973057935937382
rot@@ 0.027504567638466267
tho@@ 0.059055327773301636
tra@@ 0.029930387541604205
usa 0.04889798609535723
yo@@ 0.04998870512845807
β@@ 0.050050471118707585
σ@@ 0.048293126694290776
ادوار 1
زِ 1
1611 0.49995501573991463
1703 0.44838955370075145
CIA 0.16414500282003772
Chand@@ 0.13899215532182602
Fischer 0.1457962466804819
Fitz@@ 0.11205154690334548
Georgia 0.04083147520117117
Glen 0.19590886411667838
Gold 0.046835415958339066
Julius 0.11315714184338052
October 0.007685895245274057
Sn@@ 0.11323297341956585
Tw@@ 0.05641893568015443
Uni@@ 0.042518223833879196
Vent@@ 0.12158750565685217
arro 0.15709927958058653
bol@@ 0.03983813318495607
cop@@ 0.026460599962869848
ect@@ 0.030184828545745758
ji@@ 0.07275582593562686
land@@ 0.014521859677442168
let 0.026447967529059094
lie 0.033656531757886174
ography 0.033116720268296
osaurus 0.15605220898891714
pon@@ 0.035631623966871064
stati@@ 0.08117483753302045
tional 0.018349679470137215
vi 0.07285254858955575
view 0.026988480637767015
zi@@ 0.019614803668261536
γ@@ 0.06683998107276641
معاو@@ 1
》 0.008272242216117586
1719 0.42172980076341715
Beau@@ 0.04736661440546665
Berlin 0.013867131309872535
Bio@@ 0.27271936912027556
Blan@@ 0.09592396405732287
Bos@@ 0.037414851941662844
Bret@@ 0.14600464754306125
Bundes@@ 0.023428338603799163
Clay 0.22693184282406328
Development 0.04182662368790916
Fe 0.13255639395310684
G.@@ 0.16837185940683927
IU@@ 0.48125407700496875
Last 0.09258936524216364
Ler@@ 0.15571501424793138
Margaret 0.07539711131910687
Nig@@ 0.10375040042370243
Paulo 0.09523615748660937
Pop@@ 0.06033919323765604
Rol@@ 0.051560727465344895
SB 0.20662857148116737
Two 0.02700948143967521
Whitney 0.23588377875782213
ahl 0.06433909407514778
arm@@ 0.025629410252776336
asis 0.08284843069219452
eti@@ 0.0272876698084088
fill 0.11493943724628956
ju@@ 0.024395794191831976
ner@@ 0.024737747435792993
obs 0.07618472948013714
osh 0.17071656796991036
pun@@ 0.03788971209307237
string 0.13293772225090522
two 0.0024842610649173924
wick 0.07439750721542374
á 0.01711401938498178
ā 0.12342475663781474
اصلاح 1
Aqu@@ 0.06537702436342173
BL 0.16880607631963299
Clin@@ 0.13065930565748077
D.@@ 0.11910285331969589
EM 0.15809374007190916
MHz 0.2209332723531093
Mac 0.11224698487857165
Ob@@ 0.04103002091665112
Peters 0.2582195010396552
Point 0.0528599769532948
Queen 0.033592543553207024
R.@@ 0.1059152758060945
Singh 0.09504259315698206
Tu@@ 0.03840792578394809
ader 0.03874720012162525
core 0.04560509588001544
illi@@ 0.0579968573596587
ites 0.01861904426792702
lem@@ 0.032974457460479896
lett 0.1633160636278933
mod@@ 0.02681646620645658
mus 0.09825725802420421
ogen@@ 0.06236092604822197
oi 0.06975940490913046
omys 0.5133382296030579
opus 0.16714182712188141
pin@@ 0.041269904649066325
ray 0.0894840352599527
row@@ 0.10661780238796699
wo@@ 0.024536844985925337
اُن@@ 1
ٰ@@ 1
پي@@ 1
یا 0.11251950938180523
1622 0.43004025209636154
1629 0.42994599050061905
45,@@ 0.4585728708706046
Adrian 0.19876974502563022
Android 0.1691706280282475
Domin@@ 0.051209275312553496
Jennifer 0.1766989404242869
Ki@@ 0.0380218108942624
Ober@@ 0.012514991181519563
Social 0.045476034318866106
Summer 0.02945433410309431
any 0.008764253802216572
band 0.009531892839741339
dir@@ 0.05717690879856829
eller 0.027950428737605396
fin@@ 0.008896496724700309
flora 0.16407083092394306
frey 0.2894262524142602
ih@@ 0.03321580537315377
ingham 0.07116216188848867
itor 0.053687645348399746
ment@@ 0.022970853977968636
ode 0.0532082159541111
onal 0.0243983391694727
onal@@ 0.042527764963573855
scope 0.10958588081377515
sin 0.01639605656880514
team 0.004854769227914382
tiz 0.19120166080457013
val 0.071253154823054
Á@@ 0.05679217787440932
بالخصوص 1
مشرق 1
か 1
り@@ 1
わ@@ 1
1615 0.4838248457161185
1626 0.4552723653844208
1641 0.43468113239894945
1726 0.4332827569227543
API 0.2993271408676163
Aer@@ 0.07351397065209243
Augustus 0.2198336367130977
Aus@@ 0.007442933564221735
Aut@@ 0.03634629814015646
Bac@@ 0.09045652571441518
Block 0.14878410148807344
CPU 0.35130058624431837
Chen 0.15729604838099212
Cob@@ 0.10567422991835936
Games 0.02745283276767071
Gau@@ 0.0584234613345232
Inc 0.19343149986412472
LG@@ 0.19538405429336242
Lang@@ 0.03250179775805285
Mill@@ 0.06478558943025035
Pav@@ 0.0651608400876769
RE 0.2675412840779166
Roland 0.13162089937955596
Small 0.15428787282326997
Sup@@ 0.05394792511217151
Yu@@ 0.08507225594301349
aer@@ 0.05149264768530917
ais 0.0195880939574884
amer 0.11016030379406973
cle 0.03872832460447442
composer 0.0725064405333186
dre 0.07346885707230866
ep 0.035345558461013074
ever 0.018316078782356072
imb@@ 0.06961501075160743
ista 0.014307045868595504
original 0.010290901142383107
other 0.0031257992371211576
ough 0.0413301853245031
ous@@ 0.04540679129393002
p.@@ 0.14368075301796013
peri@@ 0.03692662649056839
sch 0.02308683394444325
sia 0.1322545638161036
var 0.09140378142467612
xi@@ 0.05473011887466229
δ@@ 0.059818898055580216
λ 0.09145205336522312
جاتا 0.17518383854553632
1535 0.5131458960588079
Andrés 0.15756084566316675
Boy 0.07774988261872164
Chil@@ 0.07148047878846653
Cyc@@ 0.15884261342810505
Death 0.05124382523767803
Down 0.10116287790381567
Enrique 0.10586817999786552
GT 0.12689244339823313
Hoff@@ 0.1291383878563384
J.@@ 0.09587008905977648
Jam@@ 0.08137837326576669
Jiménez 0.3221798157094703
Lang 0.19085272183757107
Leon@@ 0.08785836488330927
Lisa 0.1268219429336161
Nar@@ 0.042529776622704664
Ok@@ 0.06848470076982269
Rivera 0.2052210115606368
SU@@ 0.20474766735150154
Schwar@@ 0.08675798863449928
Spec@@ 0.1083729514386271
Sto@@ 0.04233184579342845
Sus@@ 0.06375422125915511
Sz@@ 0.05558128551590086
Wall 0.1024307104584246
bo 0.048340618261363766
busin@@ 0.10265555327672589
cells 0.05854434455761983
emia 0.08922968249273296
eph@@ 0.05618914780079186
essor 0.04201350963038292
hem@@ 0.07755365094416479
iles 0.03194179033349673
kes 0.05993701134750025
nch@@ 0.13496501360006066
oid 0.06611705201353572
ril 0.1585195650732768
span 0.09912738226817668
árez 0.1868139436868744
å@@ 0.06455745446999568
č@@ 0.030480441721748457
سردار 1
مقاصد 1
نثر 1
٫ 1
1705 0.4188318455581938
Benn@@ 0.13752787254850965
Bush 0.09330512429427533
Can 0.10550999965982244
Computer 0.10995623717275319
Daily 0.08655263961573116
EL 0.29424995092511724
Ern@@ 0.08978681152303908
Jaime 0.22239476613815623
Mayer 0.20838903554423668
Name 0.02759294743821662
Nev@@ 0.11777092009898535
Nob@@ 0.11318143803378936
Pul@@ 0.07469248787778317
Records 0.019043664347280977
Review 0.08776133879191787
Schneider 0.17207277656732187
Syst@@ 0.06505514446161148
aca 0.04714152627925669
aea 0.1903949406217027
alia 0.06415931439144026
anger 0.04378376408858133
ate@@ 0.08304554246470947
by@@ 0.04357840311882783
chn@@ 0.12084502014033371
cs 0.032086608508587154
date 0.019021151214188733
enia 0.18319946200358111
file 0.10668229339823321
history 0.011749116879176763
ony@@ 0.06873750222632208
opo@@ 0.06270699509988256
ret@@ 0.01897434658189211
rop@@ 0.07982234718420933
sula 0.23019524811011324
ton@@ 0.026677105010472355
éc@@ 0.03648065536261688
í 0.020562770911642915
ֹ@@ 1
野@@ 0.1422190433015975
1595 0.46730750163758705
1635 0.38743843327365135
1723 0.3701526007833944
183@@ 1
ARC 0.2852400134851025
Africa 0.02334801899113061
Angel 0.11315460101504983
Bull 0.15133961679738567
Cros@@ 0.0755105934364448
Deutsche 0.051909531335789114
Gn@@ 0.19907571704796487
Hope 0.12085611605774996
Hur@@ 0.04423434755196548
Hydro@@ 0.1307962459724323
Kel@@ 0.05724079250306346
Light 0.06551568216063479
Loc@@ 0.032377716734903104
Mam@@ 0.09125435059841583
Mot@@ 0.02582047111426412
NC 0.19826665459060167
Nova 0.09413402036926953
Soci@@ 0.049553552299858195
Software 0.10686859291046807
Van@@ 0.07030060165135918
Winter 0.04924250096113784
X. 0.18703124064662838
aft 0.03255144747654672
andi 0.13067034350079232
arren 0.20803819213805516
ather 0.04198116487234856
bar 0.0148165028098342
def 0.7298357147283618
dem@@ 0.012788995640143684
doc@@ 0.031273243018055355
eau 0.01404675231069037
een 0.051670711468216016
elius 0.1457128210513642
enne 0.014030046467925961
house 0.010801956754889163
illy 0.04321475428988408
itt 0.06098595959856105
kat@@ 0.0350906479356825
les@@ 0.020367906920178036
mes@@ 0.03748138903023891
ologist 0.05742327018535036
po 0.033852484216471
ship 0.00904506017783964
site 0.010549714328797873
ths 0.03984664742192205
ulation 0.032973135458472684
watch 0.10851148705773626
ま 1
1565 0.4817087300271825
1568 0.47520483372875094
Ale@@ 0.07861493019832977
BL@@ 0.32257161124206646
Back 0.0919810697689903
CG 0.22876491995656129
Carey 0.22462362484414422
Christi@@ 0.06819498847912374
Díaz 0.16198577201810058
EN 0.2292692068212795
FIFA 0.0694563330071984
Jr 0.05323813743717915
Kend@@ 0.24304883697524848
Lib@@ 0.04958944705807974
Oper@@ 0.03672884997084527
People 0.03440431351752024
Pri@@ 0.028389776311688476
RD 0.2990989710547479
Real 0.034741461327887475
Seg@@ 0.04422014711936453
Sky@@ 0.1223937240503291
Valent@@ 0.12302978489861956
Western 0.01958785467408084
amin@@ 0.08069844345235463
baller 0.5465262417312592
based 0.007336280275493335
bin@@ 0.02909984424842371
gram@@ 0.23135503514627193
gre@@ 0.02169382139263571
ig 0.029111924834657923
ilia 0.1054368844109069
ink 0.05682538924823712
ith@@ 0.08178867389024473
las 0.001589063633548654
len 0.016525448160364945
pat@@ 0.01748742727743752
ν 0.0821443209999675
اصلاحات 1
انصار 1
لاغر@@ 1
じ@@ 1
1,5 0.0780908981044097
1569 0.49404841730572474
1592 0.4656273659614561
1628 0.40244283669559916
1633 0.44540142924669507
Adap@@ 0.1822193558907615
BR 0.2093649761841524
Cly@@ 0.17356430820693552
Conrad 0.16902257035427498
Dy@@ 0.07888429397806636
Earth 0.04235642038919167
Gav@@ 0.15020311611483883
Hus@@ 0.05623001708839279
Julie 0.16331544799623032
Ka@@ 0.05387857037418491
Mis@@ 0.03839038951323588
Nam@@ 0.05438604272706175
Nash 0.24590182415864717
Noel 0.288054873695543
Ontario 0.043004059287589075
Pand@@ 0.10897425682502151
Pictures 0.09514431712539016
Reyes 0.18923156265942984
Te 0.17594487437636352
Tran@@ 0.058649795762567535
UN 0.09326696663044155
Vic@@ 0.045795705735934715
Welsh 0.09245709729169453
aves 0.025971020999792382
dan 0.02680601150508459
estr@@ 0.014976851613125465
gic 0.11183095540343675
idi@@ 0.03157768423270169
illon 0.06115688776423979
ix@@ 0.08481063712010757
list 0.018281302291740888
o.@@ 0.4042392976920747
off@@ 0.014252440407177524
oper@@ 0.016760278001995334
ric 0.09592665054570025
struc@@ 0.030558930139160518
trol@@ 0.055735569033777056
trong 0.004294308267443967
ust 0.026558642291353445
vie 0.021003374177222447
wa 0.01599633134231042
én 0.049909245109822066
ای 1
وفاد@@ 1
پر@@ 0.3898852615022329
ン@@ 1
木@@ 0.08703236575521102
1536 0.42391263571774374
1634 0.3869527981740076
Berg 0.08016218289931448
Child 0.13284311819819505
Da 0.030577126150803925
Erik 0.1726658464632149
Food 0.1197154443953289
Nature 0.11615000248029392
Susan 0.12193015346259463
Test 0.07916284182502607
Theodore 0.1877323612274204
ben@@ 0.021341455722176123
chem@@ 0.040531267069280015
cos@@ 0.0487174991533288
ein@@ 0.004567434842123063
general 0.009512438053618252
iggins 0.20637011243227116
include 0.009703145042624567
kom@@ 0.020888903192379273
national 0.008290727321651687
nh@@ 0.018656644209125498
olen 0.11709978154834286
page 0.039637502217228775
phon@@ 0.05596196014689771
print@@ 0.12958729016147177
source 0.02668742448251556
uv@@ 0.0315423342372814
var@@ 0.030996788338831308
vari@@ 0.01452773712635621
ward 0.025838308988840795
wer@@ 0.012356058835378417
ín 0.025462184102296597
ñez 0.16538163444780968
ός 0.04847704797725014
آف@@ 1
پرو@@ 1
ک 0.2624033494877287
ず@@ 1
小@@ 0.02724809345210065
1601 0.4596253932202868
AW@@ 0.22732522950052134
Bak@@ 0.04814648573198251
Beck 0.18608082755874686
CV 0.20389065595362899
Chad 0.250700065620098
Dro@@ 0.056862443056416793
Fire 0.06859342444622195
Hi@@ 0.048787810795817364
Honor 0.13064113834579313
I.@@ 0.11250220741540168
LM 0.25318182204901346
Magazine 0.05999573275486617
Mohammad 0.20771007693989177
Moses 0.1864890444881844
Obj@@ 0.08772063148709604
Phone 0.5249000374206392
Song 0.03765116964401912
Sports 0.03903238208998587
UV 0.2951890051041064
V8 0.22962351143079773
Weber 0.15188669042724606
Yas@@ 0.1604026297255552
about 0.004341247025320086
aine 0.02122723543341396
alb@@ 0.028128565375474965
ask@@ 0.04239921497778354
bro@@ 0.022350797625021207
ders 0.02056063118934775
dit 0.018278507187445284
eon 0.108605073020526
eves 0.11709202592598675
icul@@ 0.08147809343987192
ived 0.07200184835068703
lier 0.04290134499842817
ont@@ 0.04535392791041924
phyl@@ 0.21463258076653688
than 0.004556868230223311
uchi 0.1597252319370465
virus 0.07803337066020291
är@@ 0.013566060454036672
ո@@ 1
بم 1
‚ 0.11712736541706102
た 1
AV 0.1843754659663804
Bay 0.02258480072377219
Bay@@ 0.03597258120079534
Das 0.004116215957512635
Dom@@ 0.030347264254863292
Emma 0.1173287265889843
Fili@@ 0.06182051114091326
Impact 0.1558816092533952
Jefferson 0.10898146330559899
Kurt 0.09563290986099947
Lem@@ 0.07211996801063927
Lun@@ 0.129240141466553
NY@@ 0.14290600479366683
Now 0.0764365107402545
PN 0.12938999500559953
Party 0.013195558829840772
Play@@ 0.032947865310676665
Stor@@ 0.08695727490349688
Story 0.08855578633567567
Writ@@ 0.06062253149303062
Year 0.03098728810600015
any@@ 0.02402760569560238
aton 0.11219650940153884
bal 0.04385978233473225
bi 0.035987853438531836
computer 0.04769460946518561
dra@@ 0.028516392027445003
ements 0.00969125597720958
enny 0.08018453680285705
esh 0.07675261433336972
lav@@ 0.0679921680861691
light 0.016981081632893216
long@@ 0.03206920602886359
low@@ 0.02080118291427627
max 0.21916043579158515
ons@@ 0.023066290231105683
ony 0.031017597574094835
pil@@ 0.02842948853632164
rh@@ 0.07729976088347257
sier 0.1321896615642002
sing 0.02080525747704062
tam@@ 0.04476034266740717
top@@ 0.03416154587970438
ute 0.023706606994192865
vić 0.10073161248347763
wrest@@ 0.06361747896226212
yon 0.08456334321070995
کر@@ 0.2804252482653088
ܐ 1
1653 0.4274122114638186
Australia 0.012464340880819342
Cass@@ 0.08179892059360548
Dyn@@ 0.09808165937825386
Free 0.05728944321811471
Grim@@ 0.09323193491935804
Il 0.002496958062873336
Jas@@ 0.12682330205694764
Julia 0.10960418904270658
Kno@@ 0.06668248608290227
Mass@@ 0.056426833828720865
Mod@@ 0.03415420800071818
Moh@@ 0.06761000553812922
Old 0.029521786198331745
Online 0.11031390241643084
Post 0.03517500332574409
Ret@@ 0.052269780384839724
Roman 0.019391433370595554
Standard 0.07614856085910146
Sydney 0.035843377195432485
aja 0.03714915047834367
ature 0.03827314019772906
da@@ 0.06373850085000261
equ@@ 0.02214353609289048
führer 0.06659474865437913
gal@@ 0.02812109558357821
jav@@ 0.2177308336816911
macro@@ 0.21268278909154345
mos@@ 0.03826153345798545
oba 0.09440472724714044
orus 0.16977459529799047
ple 0.06389568811631208
pres@@ 0.011544588727567081
table 0.028436440592849863
their 0.001797634808817073
tin@@ 0.04197662338152783
ust@@ 0.0341881427728014
Ö@@ 0.03572115779168126
ís 0.12740424298397565
بالآخر 1
市 0.01967987829534755
Act 0.02009575285753871
Castro 0.11402976089142192
Cop@@ 0.05016069070516119
César 0.11890404100920761
Dani@@ 0.09422746704604962
EG 0.229404700450347
ET@@ 0.1608197900064288
Flores 0.19885101946728975
Grace 0.10970154324680417
Hyper@@ 0.18310543471674834
If 0.028680658800142814
Know@@ 0.20192485532157775
Kom@@ 0.01722070353992082
Language 0.11885964622102746
Lat@@ 0.03712358634178972
Log@@ 0.07003222673809702
Moon 0.0815775342287081
NR@@ 0.10584736551288221
Produc@@ 0.06589695572137753
Publ@@ 0.057674040759251984
Scot@@ 0.06271815739471569
Short 0.13222982503074626
Sinc@@ 0.20893398761451665
Space 0.05694349144704097
Studies 0.0585900446239927
Tun@@ 0.055152395082828674
UK@@ 0.2957585615743445
Universal 0.07728089151852692
alist 0.017874179247366496
ering 0.016859747508843618
ful 0.016801645336818508
jas 0.06288150146296098
lair 0.1506975352222873
lip 0.06839281419263503
lon 0.07049401555378988
mic@@ 0.0762295160920359
number 0.005862980976902734
ods 0.02631206302548941
osaur@@ 0.12456285601521072
print 0.06997122553930366
server 0.11445948886708303
test 0.026769323509910334
umi 0.0967812380812683
under 0.004176143957155552
wh@@ 0.01837171468306256
works 0.01127535092780069
xy 0.16295710227265764
Álvarez 0.21874978536822337
â@@ 0.021361026572810055
ł@@ 0.027501640807942693
▪ 1
Alice 0.06814770349488915
Alonso 0.1640559677858538
App@@ 0.05917648538467325
Arts 0.02012723408611076
Beh@@ 0.05497585708358749
China 0.012728446314664466
EF 0.17473154815288283
Fi 0.24135677295062416
GI 0.2518742195990306
Greg@@ 0.11177598679855812
Hello 0.31189629516089484
Kit@@ 0.04947227737752907
Lac@@ 0.06971489014930446
Los 0.0055584122983034475
MI 0.1678596749659171
Marion 0.1584615143677917
Och@@ 0.199589271748692
Off@@ 0.026665636020339542
Rich@@ 0.048974008183472875
SF 0.19795489711301195
Sonn@@ 0.06204763886343266
Ven@@ 0.03292361036253072
Wa@@ 0.05330932542880568
Zo@@ 0.07982106366627291
alus 0.14409188292580952
atom@@ 0.06218132106473892
einer 0.002912072534594974
esc@@ 0.02157448914899031
esti@@ 0.02128980943574056
ido 0.009174719826750541
line@@ 0.0684081258806013
main 0.009202730850663478
mun@@ 0.030800840374947885
olo@@ 0.05765222186639405
san@@ 0.019298616958515234
sig@@ 0.014309220332845648
ules 0.030157801483704547
δ 0.4787102234049164
π@@ 0.05361721479300456
احمد@@ 1
سپ@@ 1
فرائض 1
ماح@@ 1
0,0@@ 0.3333442964189893
1.5@@ 0.5803840681379547
1619 0.40572338451849077
2.000 0.2538399691822716
ATA 0.2791647367743562
Af@@ 0.06057473783239079
Age 0.07306256033247566
Bil@@ 0.03160367436567945
Bond 0.13637527646888484
Carolina 0.027873362876187118
Cin@@ 0.05014515012652045
County 0.006151337991903452
Eg@@ 0.06576886973535749
Fon@@ 0.0511468710310101
Fried@@ 0.08454754990339491
Glo@@ 0.13815021119776133
Hamp@@ 0.11296575398560352
Joshua 0.19437282946667642
Julio 0.13426976149085657
Jum@@ 0.15693698310185866
KO 0.162396348785765
Mom@@ 0.09459684076254829
Nur@@ 0.08570696818566752
Over@@ 0.043018132477402805
Pet@@ 0.06622863550852626
Pter@@ 0.22703087921143666
Ruiz 0.19975056892290619
WH@@ 0.19949363052882702
adi 0.056643707623319696
aris 0.12075295725287917
atri@@ 0.048371484614762136
clus@@ 0.0892717729041581
driver 0.07139945696165023
duc@@ 0.03275966212616835
etes 0.04231200508874562
fal@@ 0.024295546423614818
get@@ 0.032096386030140873
ket 0.03398410994790022
los 0.0009085235834533971
pri@@ 0.021100993462377454
pul@@ 0.01883694203631717
ses 0.003418573946094609
unt 0.052803105179662226
verse 0.026377936564106506
yst@@ 0.04152918767469993
ć 0.04284076987687701
Ἀ@@ 1
50,@@ 0.34797463250428323
Children 0.06761578892923424
Design 0.05014041870880188
Div@@ 0.04248855111177548
Estr@@ 0.10131468583033075
Europe 0.011019528427804508
F.@@ 0.11885734517306723
Fair@@ 0.05640501959808381
Gran@@ 0.04976513922390023
Hay 0.09840974359821905
Joy 0.2188466965870311
Kid@@ 0.1568084373052258
Kol@@ 0.02028427201790969
Lab@@ 0.05964999564508589
Lim@@ 0.03266891513966927
Maz@@ 0.04880620709237874
Net 0.2371859806746802
Neur@@ 0.09938605421738414
Omar 0.1844685734573406
Patr@@ 0.034767015945823335
Pel@@ 0.04698120407813519
Ruth 0.12402079076544463
Samm@@ 0.09027279823281847
Sant@@ 0.06094450668905347
Sha@@ 0.09928934149388186
Techn@@ 0.042660494064559115
That 0.029056097737700372
Walt 0.14368972315812842
Way@@ 0.2739755186835918
Wood@@ 0.04110607083795916
cia 0.08073248052796889
eer 0.04470281312734193
ento 0.019664902354410357
governor 0.052630963731018075
ichi 0.09691419337245079
isha 0.10317519095936821
odon@@ 0.18883940722499729
oidea 0.3225895978379872
oll@@ 0.02335267581195567
ores 0.014614262645058284
oun 0.08608571856560247
umb@@ 0.03386635591136384
uni@@ 0.014065808390405393
ía 0.004813637192948186
Κ@@ 0.04406125314067638
θ 0.29283724255427246
ր@@ 1
داؤ@@ 1
ووا 1
こ@@ 1
わ 1
1597 0.45414061539250244
1678 0.36405861377685494
1980s 0.03495320978653048
1990s 0.03871301831071717
46,@@ 0.3872607156759165
6.000 0.38278875698201076
Asian 0.03494901528750541
Class@@ 0.07027541982288214
Final 0.037037006762808224
HR 0.20524398806946148
Middle 0.03924305034739732
Mohamed 0.1564962268023063
N.@@ 0.11660849823379865
Nielsen 0.21137821789589337
Py@@ 0.08724335223429987
Ring 0.0983222070968057
Sir 0.023697919495233345
Tab@@ 0.036764163845089536
Tag 0.045340329215064465
Television 0.0520282830673041
Tour@@ 0.030088254747741964
Up@@ 0.0838315759767641
Zh@@ 0.07957675986091861
amura 0.30461519947656984
andro 0.15226494052820044
aq 0.2353880694509071
ead 0.0933046773915326
ebr@@ 0.037753240291430276
fic@@ 0.01906805460005793
gri@@ 0.04610006834826429
ign@@ 0.013359440248605454
lers 0.01812399876867292
live 0.015570555205469709
mea 0.8048311182380354
med@@ 0.025615123308029158
order 0.010448013153293547
pa@@ 0.042736038037375926
protein 0.057416292131580886
px 0.5823845800591183
she@@ 0.04945057937082876
sis 0.07685502662495665
uf@@ 0.023907323257755356
weight 0.028390607045952417
zy@@ 0.04258806053003146
él@@ 0.020623438652277365
فضا 1
كتيريا 1
وسكون@@ 1
چ 0.7599057767205083
ܝ@@ 1
↑ 1
500.000 0.5297913779877712
Associ@@ 0.060444312993502884
Ath@@ 0.04522500356075828
Hat@@ 0.06382228511989019
Houston 0.05361221672786739
How 0.10572015459602736
Myr@@ 0.14126281535781823
ND 0.26651930833138915
Not 0.06318662396310074
ON 0.2930013579809258
Peter@@ 0.06088578952306443
SV 0.056601340271218006
Set@@ 0.17536519627150152
Spir@@ 0.0955806266811582
Us@@ 0.10818263133401898
Wild 0.08688331407273424
Will@@ 0.0681493754944622
With 0.014726125615757799
aden@@ 0.10480557987579074
ames 0.03977705395363001
anum 0.1485074635091995
ases 0.03592078609388078
aux 0.002657865746443416
avi@@ 0.04036688035169594
chen@@ 0.030653325775888116
endr@@ 0.07709601390970384
enz 0.023090078025679032
eum 0.058945938912334704
gro@@ 0.017420803745972144
idan 0.16406331137555713
ider 0.024878619313691664
ists 0.011632266823848166
mart 0.11181719000536985
mm 0.016684646780436258
officer 0.03052248025408859
oscop@@ 0.14914625265808215
syn@@ 0.030696956323877318
ution 0.023073454594744504
vor@@ 0.007001310976682162
ye@@ 0.03422458703133139
ysis 0.10895186883233088
ائش 1
اخلاق 1
اشعار 1
شعرا 1
مزاح@@ 1
ち 1
1583 0.43515360482338955
Anton 0.07642885317302464
Astr@@ 0.05737746367330678
Baby 0.10276605026480923
Bah@@ 0.03313768398590344
Body 0.20086978598812277
Bour@@ 0.05459143698263251
CV@@ 0.2163899982748285
Ele@@ 0.06456779873816831
Eva 0.12269059931874902
Fel@@ 0.03290228485481586
Helen 0.10035359182344061
ICA@@ 0.29926658406551226
Jessica 0.17452280314867058
Ka 0.26433968604847113
Lambert 0.16740844150620038
Lyon 0.055457234858562784
MO 0.23130974830893739
Ma 0.08748655504184431
Nucle@@ 0.16719324995774654
Om@@ 0.05746514914097199
PT 0.21789947480898772
Plan@@ 0.026279696324574255
Ramón 0.13863388158069687
Reich@@ 0.03276180511256173
Rotten 0.17794374443224323
Stand@@ 0.03760655460164027
ais@@ 0.020303330194520363
arius 0.1184343753992247
astr@@ 0.03731928992551745
author 0.02833090763800017
ban@@ 0.018245688009789242
bio 0.07109139981851048
cent@@ 0.02074533128536654
dier 0.05321722232708338
enz@@ 0.015979561057572544
ety 0.04966265657291117
form@@ 0.012012202239404914
get 0.01749545902461502
head 0.010515472944122056
icio 0.05467721283135341
idea 0.026513380662871174
ini@@ 0.06182571379280814
itas 0.06518420030352584
like 0.007104881063853002
media 0.015451642365462656
mit 0.0009524812738874785
player 0.012003079645912863
sit@@ 0.018592002541868352
stone 0.021062993086421518
tu 0.04321882807450042
ull 0.1489786446240844
ush 0.05054503782040658
uta 0.05184739936054514
zo@@ 0.06834074676128463
ác@@ 0.06090173073538788
án@@ 0.02753719974575223
ئس 1
اسلام 0.47000507533587244
تی@@ 0.5222587991538219
وصال 1
1571 0.4039631903202915
Catherine 0.06427252770554258
Commun@@ 0.05810848660262177
Dead 0.08379790579244706
End 0.06886014970932666
Environ@@ 0.07217541253965246
Express 0.05932590039598884
Fig@@ 0.07607229112702511
Franz 0.036754116633501685
Gil 0.187153667506839
Heinrich 0.031318761613995064
Junior 0.041351756402438655
Land 0.019978701199196675
Ohio 0.028041758461578234
Ox@@ 0.08620967517077191
Phot@@ 0.09258904014252213
Prim@@ 0.03237670003444348
Sac@@ 0.06761112227897861
Santiago 0.04363978620700787
Sr@@ 0.15477051491777585
Stein 0.10464734929610654
Today 0.05107856419209013
Top 0.027679753308297618
Trust 0.06503436324444874
VII 0.055095975311771364
Werner 0.0884672946338539
also 0.0012394433802578647
amoto 0.17113519992395568
atos 0.04118978815431197
burg 0.014432153527122049
bury 0.029421675548080867
cer 0.0358435185385966
cy 0.04197380416480279
din@@ 0.02636051518541878
esia 0.0633616432497583
etus 0.16986450434484163
full 0.014059048799248536
han 0.013829553171098142
idi 0.04645421985194068
inson 0.18546340184239807
ket@@ 0.052147906941915866
lab@@ 0.026150295028354385
oli@@ 0.05637223645714351
phis 0.6018893045713828
plas@@ 0.04671271334055803
sevi@@ 0.648752825051692
star 0.026720259110424523
sten 0.010498280562277383
tan 0.01939624188440881
tre 0.019814162920992143
trix 0.0855545004934216
ures 0.01947479283063862
version 0.009761548319072805
will 0.005934259431132882
ä 0.11726205854326018
ω 0.18149247419618653
جناب 1
شی@@ 0.33501580329380004
مجسم@@ 1
٢ 1
1556 0.4405346923758966
1643 0.3348859279109989
4,5 0.15377088078107706
Air@@ 0.05040455878971718
CON@@ 0.296705995211245
Del 0.06403322511519485
Drake 0.16996656230173515
Franco 0.07894709198327618
GO 0.16834924625713552
God 0.03330783912734552
HF 0.11508955692739836
Johan 0.15654197709842416
Lis@@ 0.04757030287997255
Louise 0.07660597913978935
Organization 0.08752510397474185
Ot@@ 0.044250841638042604
Quar@@ 0.07861399546994506
Theory 0.18830129289642253
Us 0.14354657802821053
Victoria 0.02758816920895963
Vil@@ 0.027395638239656885
Zi@@ 0.03487597021164926
anie 0.06397321620446474
bs@@ 0.18131258140988035
chen 0.010541354242912242
cio 0.03184360265482415
double 0.024799825307602368
dri@@ 0.023095719535861592
emb@@ 0.01179909181135854
etic 0.04675942742185982
far@@ 0.025593531622959735
illus 0.24959593798744376
istic 0.02502770024075205
ital 0.035953886175934056
kg 0.040154932136918
obi@@ 0.08296063134943643
ose 0.02309903924772176
play 0.0076755993833678435
point 0.008882535346994883
private 0.018687300199141794
sem@@ 0.020936789964747668
sy 0.08263889593758449
tre@@ 0.013204992619256789
uke 0.14134241802110764
vul@@ 0.084317237399595
yle 0.056509424364868055
ב 1
نصاب 1
کان@@ 1
り 1
1,2 0.13741218521850024
48,@@ 0.3199346064495705
Alexandre 0.08036406722980206
Andr@@ 0.07682387149029535
Arab@@ 0.05642511117866122
Army 0.011983725311912214
BN 0.24928089492100491
Barcelona 0.03668045972290533
Bart@@ 0.16626721166999392
Bird 0.12500108267377674
By@@ 0.07634408868710081
Cir@@ 0.05506279180007454
Cru@@ 0.05943536197045644
Din@@ 0.0414417463694461
Do 0.05235750190657531
Empire 0.020009541803962905
F1 0.1385262230479785
Fle@@ 0.04983363278616646
Krist@@ 0.10329388076347953
Linda 0.13963282507952568
Müller 0.08671950110493262
Pad@@ 0.03609795931807086
Patricia 0.165918909308497
Rudolf 0.06985938990711674
Se 0.009768424574155738
Ses@@ 0.09455524979332569
Squ@@ 0.08162886864860751
Tol@@ 0.046069094602631325
Ton@@ 0.04307993731908109
Wel@@ 0.04121151569303414
ado@@ 0.06543403604826502
anti 0.019490075890754226
ards 0.017243170840234155
asy@@ 0.12754878729271288
ater 0.0383797503300145
eas@@ 0.026085079322793817
eh 0.05260672674545091
elds 0.0932049406940572
emp@@ 0.016074716302013244
erson 0.14570125813207552
eu@@ 0.03279307293847925
hor@@ 0.014771749178474623
ight@@ 0.05546121254936646
lac@@ 0.06852961034744885
lar 0.014403693680275232
memory 0.055583653327098886
opath@@ 0.13770334963653388
spec@@ 0.022954299669373075
stell@@ 0.048911684132903366
ud 0.041315194997122835
Σ@@ 0.0287574870817672
ז@@ 1
47,@@ 0.3548500852516473
Ai 0.19260684360002664
Alpha 0.12312470013570548
Andreas 0.0792471128553046
Arab 0.061203835977710556
CLC 0.188768874704228
Camp@@ 0.030306484654418896
Comp@@ 0.05827742240501346
Diamond 0.1278012254235505
Eu@@ 0.09363200362687786
FBI 0.12139925881343112
Flu@@ 0.05490814349025827
Hid@@ 0.07569748007656288
Hot 0.03800191318899625
Keller 0.18178523690010034
Like 0.04231462078107956
Math@@ 0.05602644732411969
Museum 0.014474011130240435
Pseud@@ 0.09783999125527544
Pu@@ 0.03378998863768544
Ry@@ 0.05199431893268088
Stefan 0.1003733072166504
Vas@@ 0.05797308635776317
Verlag 0.08048558838971274
Wid@@ 0.10755826563499793
Wrest@@ 0.2071250276482679
ale@@ 0.10513320589630355
arium 0.09474124448761631
ayer 0.07043633266211435
cho 0.006385732090501158
comp@@ 0.010248505813663685
dy@@ 0.07371880657031162
edo 0.036734363052037554
irus 0.22362258647703706
ité 0.007106896233102901
iz 0.055376406883533
law 0.010252446004245581
method 0.04277403459348138
mo 0.026903951380169808
osus 0.19787607938575183
ph 0.09130238388560089
plan@@ 0.012833067454216543
qui@@ 0.02592726761676396
sn@@ 0.044863758420949175
sta 0.05480132846456362
tal 0.02003992610827669
tors 0.014175824628471017
tory 0.058601922672884256
tric@@ 0.049039732793150846
uses 0.011516690540517042
xy@@ 0.1877990338652925
yth@@ 0.10991374037783698
Ó@@ 0.10470278965821367
μ 0.10000626259871392
شائر 1
مربوط 1
١ 1
じ 1
三@@ 0.015008320465347242
1577 0.42642789902030603
Anth@@ 0.07544936073043636
Centre 0.021515499200473194
Charlotte 0.05824390905577794
Chester 0.13090267443774298
Clem@@ 0.08765386429743895
Council 0.011606134214325027
DA@@ 0.2596965404023067
Egypt 0.060493016334597124
Fir@@ 0.05075357042735377
Herrera 0.22521345342517707
Hit@@ 0.0663429358388827
Hubert 0.1533623996435042
Kil@@ 0.03667418036955254
Kingdom 0.02051593648805163
Major 0.02917857933573188
Midd@@ 0.07770533751131484
Model 0.07382877328544438
Mr. 0.042836263147852605
Og@@ 0.10457159146277235
Orlando 0.12180840155804165
Pyr@@ 0.08668646186656936
Rou@@ 0.0472477691334437
Security 0.056512810523380586
Services 0.047786906600805035
Syl@@ 0.0937891114650167
Urban 0.09058996384875743
Vie@@ 0.06288742743914193
XP 0.3327702097461387
Xi@@ 0.06293996542037918
Yo@@ 0.05989771986433544
acter@@ 0.09625663459887591
ades 0.014826332629092467
aller 0.02271214314079655
ator@@ 0.04456473078677624
aun 0.10453605713934387
ease 0.06555361582943478
ett@@ 0.01888332572946446
eur 0.011047245799791987
gren 0.19000881806721
itis 0.1310444018323704
ization 0.05222514107204807
ld@@ 0.0972955121453479
ll 0.10006875270920128
mir@@ 0.03497426679695494
phot@@ 0.02982774664435629
plic@@ 0.04155998358375455
process 0.01741392336835278
quez 0.11661569123764184
ski@@ 0.052668478432591766
tem@@ 0.022919640780787995
uck 0.03906543899911415
ár@@ 0.029161292355115567
یر 0.7953433850735301
ら@@ 1
1.000 0.2229879824937492
1970s 0.03267916101051022
3.000 0.2516339493137779
Abr@@ 0.06842384763828402
Ass@@ 0.0627489175453913
Ax@@ 0.07834894683733488
Barb@@ 0.11533056415933722
Bin@@ 0.10670759172828022
Class 0.05188608307662103
Cot@@ 0.04355284107631577
DL@@ 0.2671629150724065
Dami@@ 0.15335419468258177
Dark 0.07518531268236735
EB@@ 0.28164721515765495
Ec@@ 0.0532998375790825
Engineering 0.05400190107674579
February 0.006571233962193481
Horn 0.15171313621510926
Information 0.0629498687596604
Kem@@ 0.12532051412106698
Koh@@ 0.0487925991521218
Mg@@ 0.7836414219390284
Michigan 0.028550472978500215
Mik@@ 0.0534255179641683
Nord@@ 0.01806667785418959
Play 0.06450247028527448
SK 0.10787884596125846
Shin@@ 0.09105903315366182
Stern 0.12513508090046838
alg@@ 0.021883550234892007
aster 0.04863142857058115
aye 0.050517302472849364
been 0.0019232724767552789
but@@ 0.03305507547751685
ces 0.0075170548065859695
etti 0.03206638171604481
fo 0.05454909312314742
iOS 0.2042569168145624
later 0.0033798791441837692
life 0.004729360456106229
load 0.055428776394230175
mine 0.03875510104183584
mán 0.12271958216512484
object 0.07404479594616513
oko 0.09527583364357738
onist 0.08817011004044374
port@@ 0.01920988055396936
producer 0.03178220416633654
put@@ 0.028828412458196576
que@@ 0.03108973021145242
reo 0.10313937314958482
ror 0.050318781476263154
sho@@ 0.0196978445157481
unk@@ 0.027951913315408857
ν@@ 0.04372092598146152
حارث 1
رواج 1
سادات 1
عباس@@ 1
وقار 1
の 0.583799649784566
Andrea 0.08821048300383821
Cabr@@ 0.18000099088771057
Division 0.009584429245779558
IUCN 0.20341870471415047
Ky@@ 0.03665250650070957
Labour 0.052077412774333955
Let 0.0878998064794162
Lopez 0.1924909147938692
Max@@ 0.076096969311618
Movie 0.13765310714701
Mr@@ 0.05418548627274882
Phys@@ 0.05263034497997492
Run@@ 0.05963317706840724
Tap@@ 0.09383348962330079
UR 0.2123563424368416
Vog@@ 0.06271147656581859
Víctor 0.22573443731349993
aire 0.005182852161803357
asa 0.03875082194736405
bia 0.09741699553082088
bin 0.038629609379656496
bridge 0.02204501911384686
campus 0.03475491489511905
eland 0.041957773998586335
enter 0.026974897585608927
had 0.0011733071096761696
height 0.053865609553635396
hum@@ 0.01866755823632576
ifolia 0.4477016957556514
medi@@ 0.01818305831652307
nio 0.14890195057364597
omi 0.11381414546023877
osh@@ 0.09190119874768626
pus 0.08945088267742325
rain 0.041621319920477566
ru 0.11651721752927525
shire 0.025468294074500224
tero 0.07549224218120242
uer@@ 0.024734550117735895
used 0.003164133807884677
wat@@ 0.034678522330860946
your 0.06041684461684493
ρ 0.0837624622033453
א 1
جی@@ 0.38391914189819726
خانق@@ 1
سونا 1
مرث@@ 1
مشغول 1
ふ@@ 1
ろ 1
1668 0.33890354751433016
2,5 0.07178712807806369
Amp@@ 0.09430351701886998
Ana 0.07829069984872905
Anti 0.08830961939061394
BB 0.1281169674424722
Bab@@ 0.03513852374480943
Berger 0.1974794283250696
Blood 0.10752199694739008
Books 0.0801566496990761
Brand 0.11243655358745652
Cand@@ 0.09448924588717976
Felix 0.10446258977934932
Gle@@ 0.06638974699965368
Guide 0.11723432999390289
HL 0.09034244314062909
He 0.0010360190810032117
Hotel 0.03840606661024881
Ish@@ 0.12678800582064198
KA 0.14870082701723053
Lag@@ 0.04400603269463641
Lec@@ 0.07761434650393664
Ludwig 0.03666784250442302
Manit@@ 0.1231375986271818
Penn@@ 0.10960405967384468
Rho@@ 0.10270851402110522
Rodrigo 0.18235979789453405
SK@@ 0.2504290470766711
Sea 0.030028241005570055
Som@@ 0.03961368515998748
Stur@@ 0.06719625385901777
Type 0.07150110328656079
Yang 0.11525523073283997
Yu 0.14699005468472717
adia 0.1262817437289287
ads 0.025500541728821366
but 0.0015457000944774303
conn@@ 0.016433955786183313
following 0.005378272737776125
fu@@ 0.018918430596860988
hydr@@ 0.05122631431830914
iPhone 0.2508566132095472
ils 0.006756577177621607
inda 0.09966483647913754
information 0.015156675142212559
ique 0.012413874550972787
issa 0.09419393938767259
ments 0.00904081081599421
mont 0.028304869559421308
orr@@ 0.06603294655418533
pert 0.11197953071201174
ps@@ 0.09739522211474907
ran 0.018172919186597705
rap@@ 0.013680495700026206
ry@@ 0.07059006519706143
shi@@ 0.017071056937807163
tern@@ 0.05110011827535565
tric 0.05531047081988888
ummer 0.07443594861867088
ungs@@ 0.004608880591872789
vic@@ 0.01659130657215801
war 0.0012604188319058364
yan 0.037143684587978336
ás@@ 0.05263239343995172
ô@@ 0.028480094752589367
اپ@@ 0.7969920695867567
رمض@@ 1
فائر 1
فارم 1
া@@ 0.9443737043081427
く@@ 1
49,@@ 0.295647143222543
Am 0.007032614663281658
Beach 0.03581725146599951
Bru@@ 0.03103047547536184
Brun@@ 0.04867921478912986
Carol 0.13720673183034415
DD 0.19789590425448972
DT 0.17450196604543922
Da@@ 0.04475580508359338
Det@@ 0.04615119770487847
Florida 0.020216499080237604
From 0.010707791971841947
Gill@@ 0.12515569167390939
Haz@@ 0.07624387696613863
Lady 0.033658259279028775
Library 0.036562929385921025
Lon@@ 0.06421238500454839
Marcel@@ 0.1703151517872468
Medina 0.17092316559942275
Mut@@ 0.05864294344803145
Reich 0.053611229909662564
Sen@@ 0.01995620978769106
Serge@@ 0.08084386679497582
Snow 0.15081980007281515
VP 0.1064668857201183
Vicente 0.10676816229875204
Wit@@ 0.03415973890633782
Wu 0.11025260794612746
Yos@@ 0.12349923892894571
ains 0.009684505537593731
aker 0.029321471724015724
alan@@ 0.053477839876995135
alization 0.05169196680008454
anthus 0.1927102350354408
atio 0.17438361802395705
bil@@ 0.015077623543308842
cape 0.04848509084094642
eni 0.04972379272987025
erra 0.08603561960481526
esi 0.02590181667202093
flo@@ 0.014863154438363205
frame 0.05872429552657549
fre@@ 0.01170574753134385
hel@@ 0.016053170491631068
ights 0.029301794295929776
ij@@ 0.05785466484288569
illo 0.02729730155176154
ilo 0.061486561896321415
ision 0.03522891541954053
map@@ 0.05845333942772257
mark 0.025957115253169693
nam@@ 0.01813002704768009
onic 0.04447225742221154
press 0.028968009351497157
properties 0.05031772051483105
sac@@ 0.02482012032959999
space 0.018776958845943253
v. 0.03296338816077069
à@@ 0.13420685142090033
ère 0.007354775854065035
ă@@ 0.04523051304752623
ئر@@ 1
◊ 1
え@@ 1
上@@ 0.020202791383740756
Anders 0.14947470050166925
Bit@@ 0.07113825981122955
Bran@@ 0.04506513294590815
EE 0.144688471209875
Edition 0.09604270085230326
Eff@@ 0.05254681636451264
Felipe 0.08453273957326872
Java 0.08476136232901554
Kane 0.16558067012094171
Koch 0.13902388105425478
Liber@@ 0.028708247133374082
Lov@@ 0.05448273626630009
Luther 0.12353656288817101
Map@@ 0.08274922316393506
Martha 0.11901317976083574
Mendoza 0.14885268983050387
Mind 0.16648446831059743
Nú@@ 0.15833579630429426
Ori@@ 0.04403943334663524
Over 0.03896449043326431
Petr@@ 0.049097341189242985
Princess 0.07455385264816292
Ray@@ 0.09011778313412164
René 0.06866936308250043
Rum@@ 0.04390049162129357
Sak@@ 0.043268543847008255
Saw@@ 0.13253263002716334
Stop 0.19750779401394247
Tech 0.08411644005429864
Vargas 0.21430286410496213
Zero 0.14695409125291012
active 0.013811248032639684
antha 0.16425506937204706
aqu@@ 0.020877712348219998
arian 0.02738451331122284
chem 0.14557635750725087
das 0.0010374035885287935
elia 0.06481784348642675
eral 0.032602701914641215
hard 0.023686938952111894
ilis 0.1797802702557771
istr@@ 0.03858729687746556
log 0.14967117092819615
mal 0.0136474563751554
mut@@ 0.01738798046077454
neur@@ 0.0364897221182374
oki 0.15762347699919937
racing 0.05073131866975287
sam@@ 0.02615632723034807
tro 0.03143332157314208
uti@@ 0.029392967783629955
ü@@ 0.008180107768648137
κ@@ 0.042934911992976124
ד 1
دروا@@ 1
مستعمل 1
ملوث 1
け 1
ん 0.9887394515962804
8.000 0.40345675553141114
Bo 0.18408349775191263
Bom@@ 0.0385459690915645
Bridge 0.034520618947375986
Cav@@ 0.03753248503003295
Court 0.013922156391230898
Fame 0.047784868374010754
Fas@@ 0.06496499506053717
Henri 0.033206998097629475
Inf@@ 0.06664676783570138
Ivan@@ 0.14995745781262754
Jonas 0.18049495204094412
KV@@ 0.24239120885290788
Marcel 0.08551283589340578
Ny@@ 0.06752039580040019
Pach@@ 0.10123026073985876
Pep@@ 0.06674271959399138
Studio 0.04948755082682167
Tour 0.013777681452599645
UP 0.15153958708482893
W.@@ 0.14233971421723327
alo 0.0655120313809861
andes 0.09454013957285086
arry 0.12052198163855633
aut@@ 0.018217622502686683
axis 0.1021719232707945
bat@@ 0.010238917987901006
bos@@ 0.04760112597039154
cal 0.03418147935434892
case 0.011758972311472866
cm 0.018969818157958306
content 0.03893579817258065
ective 0.01569495669735189
escens 0.29626660513503644
eva 0.044856049459877353
ind 0.060528503929664045
km 0.004123208747878491
las@@ 0.028011572199710136
lav 0.0721545818948792
link 0.0613779744325941
oe 0.05303598595522346
ogr@@ 0.035250524426346366
ols 0.01744934312813636
only 0.002886382804624418
par 0.0010306027397792592
part@@ 0.018643564202513476
pour 0.001288690322314561
pression 0.01941549256222623
scar 0.18576225622917264
second 0.0035149550480124124
tel 0.015438448261872462
tex@@ 0.02399417815359874
ticus 0.21962990929585183
urs 0.014547942041710869
wan@@ 0.02736900973066147
³ 0.080113376920707
ázquez 0.21246580074305713
ï@@ 0.015497997625056985
ñ@@ 0.023174731187004076
بسر 1
تی 0.20429726784514607
خود 0.38774763520470934
زی@@ 0.4678447246595797
٣@@ 1
イ@@ 1
高@@ 0.015968056736091696
Abel 0.19821910292863007
Action 0.06722242847267998
Anton@@ 0.06425458112038275
Bell@@ 0.054359467547643155
Four@@ 0.05435276455688953
Fri@@ 0.026462639770775672
Fritz 0.07406183656257571
GN@@ 0.2635546855856573
Guerrero 0.17291619105283848
Has@@ 0.04901729890417449
Hern@@ 0.13976064084906115
Imag@@ 0.09798592701642611
Ji@@ 0.05001472346034619
Jo 0.13431239761284222
Jung 0.14505597501782289
Kab@@ 0.04372071572253408
Kate 0.09874690319589265
Lyn@@ 0.1252613746075967
Mid@@ 0.027569599108035896
Miy@@ 0.13182726342911744
Mountain 0.03690895509209316
NFL 0.039580218843011494
Nicolás 0.14112993654693556
North@@ 0.029002159864579536
Order 0.02792131957756675
Pharm@@ 0.1386149897752025
Phyl@@ 0.16805521686926225
Rights 0.059751447266615916
So 0.016590752346257016
Sony 0.0676440129039878
St 0.013890707933803622
There 0.005877063544184118
Thom@@ 0.13462141949927484
UE 0.17437091611602365
aber 0.005773425703963444
ajas 0.19574268450729423
aro 0.0333629181709745
avo 0.12425619509664138
aw 0.0465344190569479
buch 0.046532781547392016
care 0.022313103099319935
cycl@@ 0.03408370868814603
ening 0.02573915296927084
enthal 0.12103975098008943
fon@@ 0.02567677949711801
formes 0.03875431631158788
gy 0.05419149889587064
hat@@ 0.04386341947038123
ication 0.07660965641952824
ince 0.07945629165259496
k.@@ 0.16224869076310727
music 0.005953360661487526
na@@ 0.038477140530196546
nu@@ 0.020920029986576168
omo 0.050153197989011654
py@@ 0.07684025285646497
res 0.014465420186768468
show 0.007348530690160073
thre@@ 0.02609809743782124
tney 0.12882465118243677
uca 0.10509427935859655
uma 0.034374315155876536
ux 0.02354687046075716
uy@@ 0.019526922398729423
who 0.0014592887177059825
yat@@ 0.08658150196146644
és 0.002357834262286608
احد 1
る 1
Are 0.10226982823944014
Chron@@ 0.055128670798880126
Dragon 0.0846948451855133
Gamb@@ 0.12097350012403112
Get 0.11174781785575923
Ignacio 0.15452038669707024
Juli@@ 0.061260138797014335
Let@@ 0.04462166563032104
Limited 0.06425902657362202
Liu 0.09655028721344136
Marcos 0.1241758621541298
Mess@@ 0.04265553821760734
Mode 0.17086541196462454
Mohammed 0.12069054744135749
Mé@@ 0.02909826433818153
Oxford 0.031014643851862464
PO 0.18621755715947552
Raj@@ 0.032448456036502656
Sach@@ 0.0547148357752525
Special 0.036226868097921805
Unit 0.0887614650320272
agr@@ 0.02549377042691922
agus 0.140977487980093
ancer 0.05231791641385301
arc@@ 0.02956414883325798
chard 0.15341560184680922
che@@ 0.02876343160927604
ches 0.009020740921007367
control 0.010623893615084713
dae 0.15070582023286266
det@@ 0.011009602736933426
domain 0.0793787975321213
ects 0.01358970402776201
ffe 0.04217764609768488
gado 0.1033969432357813
ien 0.00842757991030845
itz@@ 0.022227311637975176
opter@@ 0.12232318847558707
osph@@ 0.08002559931399153
psych@@ 0.02322431233895555
qi 0.07939721556127259
sk 0.027029295834213696
sl@@ 0.022556828494636017
under@@ 0.007152136687335944
ven 0.017581299697313504
wald 0.029992110743602543
yd@@ 0.044881333894782126
è@@ 0.01641909346141939
Ι 0.7750148755114946
φ 0.14165939930856564
بین 0.44039827885022886
་ 0.7121138872580425
„ 0.0016366795338438505
リ@@ 1
Ado@@ 0.267478685249821
Adol@@ 0.07582095454166832
Ah@@ 0.03987374951834146
Alb@@ 0.051737171221704376
Amy 0.11335691935591351
Arabic 0.08367572868366616
Asia 0.02349106941408152
Bonn@@ 0.07487936623136596
By 0.01042697691240729
Cent@@ 0.056822069363221095
Cha@@ 0.08048308443257995
Chan 0.14241729096761158
Cher@@ 0.0474319155173283
DJ 0.053447869947353885
Fred@@ 0.1349165808381245
Hoffmann 0.18192022269787586
Hong 0.027919445333341217
Jav@@ 0.1123921287221846
Jules 0.07917305466627611
Just 0.05988497099209646
KG 0.1842062190980336
Key 0.09313520122469177
Lep@@ 0.09616772519288713
Lincoln 0.04016365568668212
Lit@@ 0.03425207629217987
Machine 0.10120345796061171
Maj@@ 0.0388750201269059
Medicine 0.06933160332419752
Michelle 0.13833008363008553
Pir@@ 0.034604427658214025
Pod@@ 0.048923784323671705
Pon@@ 0.029162650727512146
Raúl 0.20125332779282298
Ruf@@ 0.16053961579534995
Terr@@ 0.04184745195176141
UC 0.12059251290649947
aun@@ 0.02046689888575788
ban 0.01885308495607656
blog@@ 0.21610100027199322
chlor@@ 0.10764831125333858
ej@@ 0.025899404258258322
eno 0.03165973104570321
family 0.003945446993256848
four 0.004402168769264366
game 0.004954591474736722
hip 0.02192478323257627
ige 0.007618844793316524
kan@@ 0.01775858402646385
mail 0.0679466664970443
mic 0.06346470175204028
orient@@ 0.027766375671935493
pit@@ 0.029798418485157546
rit@@ 0.01261878736985556
strö@@ 0.12848074586990857
ties 0.00635815638431091
tionary 0.0783663550362254
tt@@ 0.043167364694581774
unit 0.02095658834769306
urt 0.04875509706194483
vit@@ 0.03971024214850776
wil@@ 0.02512097153992128
won 0.004381986368805785
éri@@ 0.015884669276361077
Η@@ 0.15244122365169155
اقد@@ 1
زمباب@@ 1
قی@@ 0.9329153676900411
ა@@ 0.4208469865045415
ⵉ@@ 1
ー 0.4129346933741098
松@@ 0.10865852644539319
이@@ 1
Base 0.05861138762327037
Bj@@ 0.10408309434319307
Capital 0.05788436940664266
Conservative 0.06932899092078383
Contin@@ 0.0956203714080442
Dr. 0.017807255282105774
EU 0.04615819060422557
Fur@@ 0.025808652362694
Future 0.08650727289210725
Gabri@@ 0.10769136538461434
Guillermo 0.10923077659681092
Gustavo 0.19409203934932995
Hal 0.2199918246505679
ICC 0.19533544524888094
Indian 0.011896855472303484
Johann 0.01941544337041449
Kaiser 0.04591625969445978
Lima 0.06804028096346262
Living@@ 0.17231918403947807
Lorenzo 0.08867251930406878
Magic 0.08658120359798498
Main 0.028951789676258635
Monte 0.0604997647649151
Nixon 0.14576270717123863
PF 0.21769682797015963
Philippe 0.04186856979258386
Port 0.02861923488972783
Rah@@ 0.056046671997421416
Richmond 0.0649529138135239
Room 0.11015409100738338
Sad@@ 0.05411054847410873
Sara 0.11959419236920499
Scienti@@ 0.07856025436404701
Steel 0.10505446692461977
Tsu@@ 0.1552218301147387
Valley 0.0204648891831354
Woman 0.07438310095948812
Works 0.04691739178522995
ading 0.034012771711049945
ander 0.053900668286434014
anz@@ 0.015782877805252116
[...]
