. 7791229
, 7734839
là 3280710
và 2801032
&quot; 2741386
của 2651967
một 2635602
được 2354748
trong 2098333
năm 1909549
có 1781505
các 1474183
) 1435615
( 1434603
này 1228827
đã 1065442
người 1059885
họ 1039642
ở 1017208
với 1012926
loài 934119
cho 927303
đầu 884578
học 864240
vào 809905
@-@ 745506
thành 722925
tháng 705008
số 670753
từ 646669
không 633153
đến 620635
những 597290
tại 571373
khi 570579
tả 558234
tiên 544067
ra 538519
ngày 536033
khoa 528275
thể 526746
Loài 525263
đó 507575
vật 505204
: 500195
công 495477
thực 493175
về 489671
để 484104
thuộc 480258
sự 475697
như 463004
ông 460730
bị 458696
trên 457515
chính 450756
sau 415649
dân 409322
gia 401305
quân 398193
nhà 384483
động 383733
; 379591
lại 375030
cũng 373974
làm 371508
thời 367469
hiện 361776
nước 356271
nhất 354938
mô 339302
Nam 332801
sử 332207
phát 329546
hành 328800
bộ 328052
nhiều 320160
T@@ 312907
theo 309280
hai 308793
hoa 307532
khác 301598
l@@ 301305
việc 297481
quốc 287917
quan 285535
B@@ 283307
con 281826
sinh 278178
thế 277134
chỉ 275470
cùng 275104
xã 273613
nhân 273315
C@@ 270417
hình 270148
hơn 268905
dụng 267932
chiến 266076
định 265403
do 265182
thứ 264737
b@@ 263196
m@@ 263028
Quốc 258233
đồng 256960
xuất 256512
L@@ 255415
1 254932
viên 253975
còn 249259
2 247462
độ 246082
miêu 244012
Trung 243893
thị 243040
M@@ 242282
cách 241071
tỉnh 240721
nó 236368
us 236320
vị 236093
t@@ 235952
tên 235641
H@@ 235151
cuộc 233667
bản 232965
n@@ 232434
Việt 228967
/ 228454
ch@@ 226905
c@@ 226677
giới 224640
trở 224510
bởi 223678
hợp 223374
Các 222807
lập 221775
nhưng 221325
rằng 221254
khu 218864
phía 218531
lớn 218237
cao 216631
điểm 216613
bằng 216511
tự 216270
phần 216121
đội 215829
3 215226
đại 214180
nhận 214091
kết 213579
chức 212963
trước 211554
hội 211459
r@@ 210270
trường 209309
giải 208682
S@@ 208110
hoặc 207554
Năm 207342
tiếng 207257
Anh 206723
vùng 205856
cả 205615
Trong 204392
h@@ 203747
Th@@ 203658
phải 203343
trình 203108
gồm 202867
thường 201854
Hoa 201837
tiếp 200688
đ@@ 200636
điều 200497
lượng 200030
th@@ 198585
chủ 198200
d@@ 197431
s@@ 197146
qua 196500
- 196477
phân 195140
lý 194899
sản 193960
Kỳ 193698
mà 192731
thống 191830
D@@ 191321
loại 190796
sẽ 190772
tế 189983
huyện 189020
cơ 188473
anh 185646
trung 185086
tính 181638
diễn 181232
lên 180087
i 179999
đối 179020
N@@ 177658
phố 177458
v@@ 177226
bao 177098
tích 175817
vụ 175782
gọi 175443
thông 174869
sống 174559
4 173892
Đ@@ 173499
tác 172750
đi 172652
hàng 172217
bắt 172032
phim 171071
tạo 170670
vì 169587
lực 169197
V@@ 168476
mình 167272
nhiên 167184
g@@ 166750
quyền 165702
vực 164844
5 163578
Ch@@ 163214
hệ 163184
cánh 162888
địa 162885
Đại 162799
trị 162781
&amp; 162255
đường 161356
lần 161144
nghiệp 160663
giáo 159085
tr@@ 158899
đánh 156946
diện 156434
chi 156384
nh@@ 156281
cấp 156103
K@@ 155601
đấu 154688
ia 154618
chúng 153830
x@@ 153652
an 153471
ph@@ 153467
thủ 153407
10 152845
Pháp 152824
cầu 152563
khoảng 152291
Tr@@ 151927
sĩ 150793
mới 150500
Sau 150182
thức 150142
6 148564
đoàn 148403
âm 148270
hóa 147784
trận 147657
Đức 146152
tranh 146083
cô 146080
hay 145682
ta 145641
đêm 144769
pháp 143883
đề 143565
Tây 143338
um 142878
idae 142836
ng@@ 142453
% 141874
– 141777
liên 141153
tập 141053
tham 141007
nhạc 140905
tàu 140789
chuyển 140441
G@@ 140406
biển 139083
bay 138428
thấy 138070
máy 137905
bố 137182
m 136595
truyền 136364
Mỹ 136105
thì 136022
năng 135451
a 135350
km 135078
mặt 134539
toàn 134023
gian 133832
nên 133823
y@@ 133302
rất 132952
ban 132049
7 131914
hiệu 131427
P@@ 130666
văn 129737
phương 129725
tới 129444
hoạt 129436
12 129043
đô 128967
đây 128770
8 128515
bang 128163
trí 127814
nam 127338
giữa 127188
đạo 127045
triển 127037
đặc 126776
on 126081
tổ 126064
án 125920
nhau 125716
bướm 125448
Bắc 125376
nghĩa 125327
đá 124739
ba 124628
danh 124471
is 124353
R@@ 123993
cứng 123829
Một 123473
Ông 122780
y 122763
9 121234
biệt 121140
tử 119828
bóng 119593
thiết 119370
chế 119299
đất 119121
đang 119118
aceae 119102
nằm 118930
kinh 118668
bình 118452
đổi 118245
thuật 117925
ảnh 117696
kỳ 117483
tâm 117366
nơi 116982
dài 116951
đơn 116433
dưới 116091
A@@ 115959
chất 115959
ý 115893
ata 115802
Nó 114721
cuối 114249
phủ 114045
Công 113791
bọ 113094
kế 112145
Liên 111990
dịch 111975
Đông 111905
Lan 111201
Ph@@ 110937
nữ 110676
ăn 110587
&apos; 110505
nhiệm 110396
tiểu 109871
điện 109676
sách 109610
Nhật 109455
nói 109213
in 109110
Vào 109048
biết 108769
phẩm 108684
11 108670
kh@@ 108659
sáng 108448
thay 108387
tăng 108056
châu 107676
bảo 107650
biến 107485
tin 107299
trưởng 106355
nguyên 106294
Thái 106084
báo 105810
đều 105734
mục 105397
vẫn 105355
cứu 104702
thi 104663
gần 104312
trọng 104232
đảo 104116
k@@ 103711
o 103477
tình 103381
ứng 102394
chơi 101901
thu 101689
amp 101624
tiến 101513
cá 101139
giá 100980
bài 100924
Bộ 100841
đặt 100813
tiêu 100727
thân 100677
ca 100536
tương 100469
nay 100409
tư 100334
nhóm 99658
ensis 99556
Ngày 99453
dự 99450
nhỏ 99298
tìm 98982
tổng 98891
phòng 98848
dùng 98198
Kh@@ 97876
bắc 97308
ngoài 97005
lịch 96746
đông 96741
hòa 95839
bà 95804
bên 95754
tài 95657
hậu 95655
nổi 95255
u 94889
màu 94744
dẫn 94274
quả 93618
phong 93560
tuổi 93129
tinh 92918
Dân 92734
gi@@ 92700
O@@ 92536
phục 92496
kỷ 92440
biểu 92032
đưa 91937
sát 91758
đời 91632
al@@ 91603
Tuy 91403
đình 91336
viết 91323
tục 90033
Thành 89995
giao 89995
X@@ 89861
&#93; 89430
o@@ 89366
Hà 89119
ic@@ 89117
miền 88800
ai 88733
mang 88668
Bản 88505
quận 88059
yếu 87847
mùa 87841
hát 87709
giữ 87565
Hoàng 87557
rộng 87505
tướng 87426
trang 87382
vô 87097
thương 86832
liệu 86649
sông 85968
an@@ 85598
&#91; 85596
² 85583
bán 85577
E@@ 85513
nhập 85486
quyết 85172
từng 85082
dựng 84473
bất 84189
đóng 84123
tấn 84033
sở 83783
bỏ 83774
thần 83567
Dương 83557
di 83520
quá 83519
phụ 83352
Xã 83167
chiếc 82821
chương 82527
viện 82390
dù 81669
e@@ 81505
thắng 81459
câu 81387
nghệ 81387
vận 81353
Hải 81327
Văn 81280
hoàn 81237
nhiệt 81020
Cộng 81002
tra 80883
2010 80879
t 80870
Theo 80786
Độ 80756
vai 80667
de 80585
qu@@ 80560
binh 80442
lạc 80313
xây 80313
khí 80255
cung 79751
cử 79483
cổ 79326
vệ 78920
nào 78831
Ấn 78566
giống 78453
hạng 78180
xác 78173
in@@ 78162
Tổng 77861
tiền 77652
Nguyễn 77281
hoàng 76868
trò 76867
vua 76765
ana 76560
n 76181
Bình 76072
mở 75709
on@@ 75648
Minh 75111
Những 75110
i@@ 75006
tây 74939
sân 74856
ngữ 74793
chống 74789
hướng 74719
ốc 74701
chung 74568
cái 74558
ac@@ 74394
trợ 74378
ty 74302
làng 73939
chiếm 73894
chưa 73583
Từ 73433
p@@ 73361
hộ 73262
ô 73089
ghi 73050
tượng 72827
Ban 72707
cộng 72447
giả 72285
la 72202
s 72190
minh 72181
áp 72130
F@@ 71967
đạt 71739
Gi@@ 71691
mất 71525
ol@@ 71421
triệu 71356
em 71112
dạng 71080
kiến 70419
phản 70303
quản 70294
bệnh 70153
mạnh 70096
sang 70061
chết 70022
20 69949
ký 69807
hạn 69743
lúc 69617
Quân 69492
giờ 69304
tộc 69269
xe 69268
cảnh 69260
lãnh 69248
ea 69242
ít 69169
gây 69101
el@@ 69018
nguồn 68903
ma 68901
chứng 68813
kể 68618
kích 68594
nghiên 68317
chia 68191
I@@ 68102
trấn 68084
kiện 67928
lệ 67647
tất 67619
ar@@ 67540
Chúng 67536
đoạn 67384
ngôi 67229
hữu 67014
thư 66989
lưu 66984
yêu 66961
Khi 66726
vương 66721
tay 66484
cây 66385
ấy 66211
ền 66200
chân 66166
Vương 66046
vòng 65297
thuyết 65065
giúp 65012
phép 65010
thêm 64996
Nga 64982
Chính 64952
om@@ 64607
en@@ 64508
a@@ 64426
Ba 64406
J@@ 64344
Châu 64137
ot@@ 64105
độc 64020
thích 64004
phá 63988
trực 63875
or@@ 63838
mỗi 63792
Sơn 63609
Âu 63536
hưởng 63293
vậy 63138
chọn 63109
The 62779
e 62721
khỏi 62696
Sự 62656
sắc 62652
sư 62630
Hội 62588
cảm 62496
Ng@@ 62162
vấn 62108
ti@@ 61918
os@@ 61677
Chiến 61548
vi 61264
cần 61238
Nh@@ 61231
hết 61119
ăng 61093
Giải 61088
Nhà 60956
Qu@@ 60883
tốt 60840
Y@@ 60768
so 60758
địch 60642
luật 60575
cư 60250
Di@@ 60244
La 60095
xem 59991
nội 59730
xếp 59581
tỷ 59340
sao 59298
à 59191
oc@@ 59111
lấy 59108
An 58953
15 58939
gốc 58908
op@@ 58457
khả 58422
ệt 58422
quy 58414
2011 58366
dương 58214
chí 58198
mạng 58196
k 57984
giành 57854
li@@ 57847
da 57789
Thanh 57781
u@@ 57634
ước 57558
núi 57512
trai 57446
W@@ 57308
mật 57280
ê 57119
Người 57039
mắt 56849
bàn 56541
triều 56528
Đây 56333
ag@@ 56323
cố 55869
niên 55804
is@@ 55702
giảm 55659
huy 55630
am@@ 55552
khai 55544
Nhĩ 55543
Quận 55471
ng 55345
lời 55331
tuyến 55267
êu 55212
ối 55212
er@@ 55182
lệnh 55016
Đảng 54402
ái 54220
khiến 54218
khách 54143
Nha 54108
cáo 53938
Thổ 53936
5@@ 53915
trẻ 53908
bầu 53870
ina 53856
duy 53685
Mã 53673
ae 53614
di@@ 53574
p 53303
thảo 53157
ur@@ 53130
vũ 53083
sức 53044
Thế 52984
Tân 52972
ương 52947
as@@ 52900
bại 52871
tuần 52666
Z@@ 52641
chuyên 52636
ang 52634
ngoại 52576
đa 52541
Tháng 52505
z@@ 52404
... 52361
U@@ 52272
ánh 52191
18 52147
30 51856
đồ 51626
dục 51586
môi 51586
ên 51552
album 51473
at@@ 51451
Nhân 51429
Nội 51362
ho@@ 51274
Lý 51225
19 51193
quay 51186
riêng 51185
chuẩn 51053
hi@@ 51033
phổ 50969
Tại 50882
thiên 50876
đới 50828
id@@ 50744
thúc 50743
gặp 50665
đế 50654
hầu 50345
Xô 50324
ân 50315
nghiệm 50299
Do 50271
lớp 50212
nghị 50165
thanh 50140
lợi 50133
hạt 50051
Long 50004
áo 49876
the 49854
Phi 49767
of 49725
chữ 49676
doanh 49431
16 49393
lễ 49344
nền 49310
xuống 49236
chạy 49142
ác 49090
phiên 48900
Ar@@ 48648
Danh 48508
ạn 48492
àn 48486
biên 48392
ôi 48267
thái 48235
ung 48191
4@@ 48157
Lịch 48033
gái 47913
14 47908
bổ 47748
atus 47710
ap@@ 47685
kiểm 47634
vây 47546
c 47519
es 47479
Hòa 47280
cha 47187
dòng 47053
tồn 46934
luận 46898
Hán 46891
tưởng 46816
Hồ 46804
rồi 46797
muốn 46726
tuyên 46638
en 46600
thấp 46565
vàng 46477
Đế 46462
A 46317
ấn 46246
An@@ 46120
er 46089
New 46072
tiết 46017
mọi 45956
13 45929
khẩu 45877
cực 45831
Á 45770
du 45703
Giáo 45650
j@@ 45627
tức 45619
đứng 45538
ống 45537
cửa 45299
tịch 45298
nhanh 45228
2007 45164
17 45134
giám 45042
Ngoài 45030
Trường 44991
mức 44910
á 44890
h 44835
mẹ 44725
thờ 44704
coi 44536
ul@@ 44396
ích 44394
trúc 44327
Trần 44319
al 44302
thất 44299
lo@@ 44285
Al@@ 44235
đáng 44227
6@@ 44145
dụ 44134
Có 44092
nữa 44092
kỹ 44019
dựa 43973
cận 43968
I 43947
phi 43841
d 43803
giáp 43802
giai 43783
ong 43776
ngay 43756
mét 43703
Hồng 43691
mặc 43582
hạ 43494
đôi 43457
Nguyên 43379
bảng 43373
tối 43318
quần 43269
25 43230
7@@ 43187
ấu 43184
ói 43143
quanh 43082
phái 43023
lâu 42942
thủy 42938
dung 42929
tuyển 42899
nhện 42802
ết 42778
phóng 42711
Thiên 42623
át 42597
Hàn 42553
lục 42468
đốc 42383
vài 42373
nhằm 42334
am 42306
nếu 42291
àng 42252
pháo 42251
ec@@ 42229
ngôn 42112
ella 42052
áng 42024
Đô 42014
Tư 41995
2006 41993
tố 41963
cải 41954
2008 41885
Ho@@ 41864
thập 41823
to@@ 41800
Đồng 41776
đủ 41725
Không 41680
thưởng 41569
ò 41552
Kinh 41403
Lê 41240
Ý 41221
bạn 41199
cấu 41114
ar 41109
8@@ 41054
II 40952
Chủ 40936
mẫu 40867
giết 40652
Vũ 40593
ro@@ 40524
hỗ 40509
ất 40494
ẩn 40433
chiều 40426
it@@ 40404
âu 40365
et@@ 40302
luyện 40250
le@@ 40137
Ở 40117
ạt 40062
l 39996
xa 39869
ải 39813
ả 39773
9@@ 39759
lá 39692
Tông 39609
Cô 39589
bắn 39555
ồng 39529
phạm 39518
at 39501
alis 39495
kéo 39474
ad@@ 39383
kim 39374
il@@ 39334
ica 39247
es@@ 39184
hoạch 39180
chấp 39094
3@@ 38962
bốn 38889
rừng 38885
el 38841
x 38805
2016 38775
21 38708
đài 38701
.@@ 38694
Geometridae 38675
em@@ 38619
Họ 38541
Tiên 38518
lộ 38515
ôn 38489
Kim 38478
môn 38471
ật 38272
chứa 38263
rõ 38258
trùng 38219
tỏ 38196
era 38164
sóng 38156
buộc 38018
ến 37997
Ủy 37979
cứ 37960
ni@@ 37935
chịu 37929
ri@@ 37862
osa 37817
Cao 37736
êm 37695
phận 37662
dành 37629
cạnh 37608
ủng 37562
lửa 37522
ngành 37517
ây 37509
2009 37455
tôi 37349
sa 37316
tôn 37307
toán 37305
úc 37277
đổ 37267
24 37263
mềm 37185
đàn 37178
im@@ 37174
cụ 37136
et 37117
po@@ 37114
trao 37049
tốc 36962
B 36960
ach@@ 36922
2004 36866
hải 36841
ãn 36839
khởi 36754
Sh@@ 36724
đĩa 36668
Điều 36654
2015 36627
un 36627
ã 36578
Đài 36472
bờ 36431
inh 36409
nông 36395
ùng 36341
khúc 36260
hồ 36187
nặng 36160
trắng 36157
Quảng 36153
to 36115
Mar@@ 36102
thổ 36044
Địa 35965
Bảo 35937
2000 35747
ngắn 35735
lĩnh 35640
2014 35631
nối 35619
Bà 35582
2005 35452
hại 35418
ay 35417
Lưu 35333
Đến 35243
os 35242
ruồi 35221
hôn 35177
Tiểu 35136
2012 35132
hồi 35102
bi@@ 35092
ừng 35025
khảo 35014
chú 34921
chuyện 34897
Giang 34877
sâu 34864
ig@@ 34699
xảy 34695
tòa 34678
ab@@ 34622
trạng 34619
ế 34564
ủy 34487
2017 34474
trả 34441
2013 34332
gì 34180
trụ 34142
1999 34089
thiếu 34087
ru@@ 34077
100 33914
and 33862
Thượng 33848
2018 33825
Noctuidae 33825
đen 33816
ốt 33803
23 33791
ạc 33772
niệm 33740
thuốc 33725
nhìn 33684
loạt 33625
khó 33541
chiếu 33519
Gia 33489
22 33475
mối 33412
Ki@@ 33206
Đường 33203
rút 33189
xử 33116
2019 33061
nuôi 33026
chim 33018
ì 33012
tái 32937
bức 32926
ường 32855
ki@@ 32846
od@@ 32838
vượt 32823
Thị 32760
cũ 32731
thuận 32682
un@@ 32500
xung 32395
as 32366
Triều 32263
tước 32221
og@@ 32150
ầm 32125
mua 32116
C 32040
or 31997
Ti@@ 31991
ục 31963
Par@@ 31908
vốn 31894
Car@@ 31833
đầy 31771
ơ 31721
31 31678
sai 31678
thơ 31666
mại 31665
gt 31662
í 31602
ir@@ 31586
g 31572
mi@@ 31525
ao 31511
tội 31493
Hiệp 31398
Cerambycidae 31359
w@@ 31357
băng 31356
ens 31328
trục 31264
ấp 31231
ing 31042
aria 31025
óc 30990
mm 30957
phối 30954
súng 30889
ách 30868
lt 30867
tạp 30862
Phó 30861
ỷ 30840
Le@@ 30830
ine 30827
_ 30768
Mặc 30667
suất 30613
28 30509
Ninh 30494
soát 30474
ya 30418
song 30385
na 30374
đai 30363
Cổ 30356
Cúc 30343
linh 30330
chủng 30264
Q@@ 30255
buổi 30254
tia 30235
kịch 30182
xét 30142
it 30136
trái 30058
27 30056
ẩm 30037
thử 30024
ấm 29980
ệ 29961
càng 29925
ồi 29922
Br@@ 29877
góp 29657
so@@ 29639
rời 29623
oph@@ 29579
truyện 29550
đỏ 29543
ành 29513
dễ 29469
Ne@@ 29447
Trước 29447
ạng 29447
kiếm 29372
26 29362
sứ 29346
50 29319
ảo 29315
ang@@ 29314
ngựa 29296
tầng 29292
2001 29285
co@@ 29254
đảm 29246
tải 29225
ám 29219
ak@@ 29194
ắc 29190
Chi 29186
trách 29185
luôn 29159
chuyến 29124
trì 29064
cập 29003
dấu 28997
phí 28988
đích 28949
ena 28897
Thủ 28894
Mặt 28811
man 28795
eo 28779
hiệp 28762
suốt 28741
kho@@ 28724
Tập 28714
suy 28662
ộc 28662
ed@@ 28572
bào 28568
Hai 28563
Hy 28539
Thánh 28492
ắm 28486
0 28461
đăng 28448
kiểu 28433
xỉ 28383
Khu 28356
Yên 28292
xanh 28230
Cơ 28225
2020 28191
st@@ 28122
ập 28113
đào 28100
khá 27913
vi@@ 27892
lược 27891
khối 27879
tu@@ 27850
Tổ 27823
căn 27814
Với 27810
no@@ 27808
vợ 27798
dần 27774
lòng 27770
đảng 27756
Mi@@ 27719
tín 27716
hãng 27696
Việc 27682
v 27656
hàm 27632
per@@ 27625
trưng 27566
ạp 27531
xứ 27493
Úc 27406
cuốn 27351
kê 27272
Viện 27259
ưu 27210
Lạp 27118
Giám 27106
bụng 27088
Phương 27061
ạch 27061
đương 27009
mực 27000
lượt 26941
cu@@ 26931
ức 26923
Bar@@ 26905
ton 26905
T 26893
ận 26884
nghi 26860
ội 26805
xuyên 26752
29 26747
Quang 26746
= 26731
đột 26701
ố 26695
z 26680
thịt 26610
ắt 26597
họa 26595
Phần 26575
phê 26574
ại 26572
Cuộc 26546
ào 26541
bu@@ 26496
2002 26465
dữ 26459
mã 26447
av@@ 26442
Chi@@ 26383
si@@ 26383
ần 26374
hủy 26358
Cal@@ 26343
mạch 26323
St@@ 26308
ồn 26229
kính 26216
re@@ 26194
Đào 26189
thừa 26154
Đậu 26126
Li@@ 26116
1.@@ 26115
sh@@ 26106
Sân 26085
tuy 26072
đạn 26061
Thời 26036
kẻ 26025
Chu 26004
nạn 25992
huấn 25952
su@@ 25934
ci@@ 25909
b 25900
ob@@ 25889
r 25888
thoại 25887
hỏi 25880
ổ 25876
vừa 25859
Lâm 25837
khóa 25833
us@@ 25828
ura 25822
trời 25811
eg@@ 25792
Thụy 25777
ut@@ 25747
Phong 25729
ex 25716
ạ 25710
ếp 25707
Phú 25702
2003 25695
br@@ 25662
Con 25625
chi@@ 25592
League 25586
ly 25576
ờ 25504
yp@@ 25496
f@@ 25476
As@@ 25467
Vì 25453
ốn 25452
chúa 25427
Định 25421
yr@@ 25397
40 25384
ví 25324
ép 25308
Xuân 25263
ngăn 25217
Sch@@ 25213
đẩy 25132
giác 25096
Lo@@ 25072
trừ 25030
loạn 24955
nổ 24883
ướng 24883
lu@@ 24872
Cor@@ 24846
thi@@ 24842
ãi 24829
ys@@ 24828
ổi 24818
par@@ 24798
ản 24668
TCN 24602
ạo 24574
thật 24564
Bi@@ 24547
trải 24507
ỡ 24460
San 24452
ắn 24419
chóng 24399
ều 24353
lao 24322
lính 24320
Chí 24278
El@@ 24275
ượng 24259
sơ 24175
ỏ 24131
ber@@ 24118
mộ 24091
Erebidae 24086
Am@@ 24078
Phật 24052
1990 24032
yl@@ 24023
ài 24017
hạm 23960
vọng 23949
diệt 23946
ính 23909
điển 23877
ov 23863
ơi 23791
con@@ 23783
Số 23765
thiện 23759
ha 23726
au 23699
ah@@ 23688
cm 23676
ov@@ 23631
U 23563
thao 23421
Tham 23406
sửa 23392
Đội 23386
au@@ 23317
ề 23314
bước 23305
Con@@ 23294
hu@@ 23278
tu 23261
2@@ 23244
ne@@ 23238
ii 23230
Trương 23225
nhờ 23198
xin 23152
tri@@ 23150
lai 23149
ịnh 23146
thú 23125
khắp 23121
Sư 23090
thí 23090
Co@@ 23070
phù 23053
onia 23052
phút 23050
đem 23043
tách 23005
ter@@ 22997
ỗ 22990
ằng 22978
trào 22964
son 22948
ur 22904
ời 22880
one 22876
Tòa 22869
thụ 22859
ộ 22771
cắt 22763
ell@@ 22751
pha 22743
! 22738
chẳng 22719
Nhưng 22709
nhiễm 22692
Trái 22684
hương 22683
D 22659
nguy 22629
bày 22627
ka 22618
ị 22564
ẻ 22560
quý 22558
đỉnh 22512
gửi 22501
lông 22476
ùi 22473
le 22467
Đất 22462
chỗ 22444
&#124; 22414
V 22400
nghe 22382
O 22375
ora 22359
kháng 22357
John 22348
och@@ 22299
xâm 22260
anus 22252
uy@@ 22251
hiểu 22243
cai 22220
oides 22219
Huyện 22190
cầm 22163
F 22128
sắt 22098
hiểm 22080
ak 22052
ga 22027
ngầm 21998
tiện 21993
tàng 21968
Tên 21962
đẹp 21951
Per@@ 21940
Thông 21932
vành 21916
nâng 21911
khắc 21910
liền 21889
hơi 21882
tầm 21874
um@@ 21873
Nhiều 21867
liệt 21806
sớm 21804
chỉnh 21792
ik@@ 21775
ay@@ 21774
Ngô 21770
thăm 21732
In@@ 21663
eri 21661
kênh 21636
cường 21605
thăng 21520
chảy 21500
ath@@ 21495
tuyệt 21490
Hưng 21474
oth@@ 21464
tù 21459
1998 21457
ki 21448
Tỉnh 21413
xúc 21408
sáu 21361
Đạo 21340
mo@@ 21318
bão 21299
nửa 21286
14@@ 21279
dọc 21246
ụ 21239
Cr@@ 21222
ậm 21220
Col@@ 21216
ú 21197
? 21196
1945 21192
and@@ 21167
màn 21148
tò 21137
ala 21120
gh@@ 21113
đọc 21098
C. 21084
thôn 21051
formula 21031
út 21021
máu 21014
Về 21012
mưu 21006
Để 21000
Tu@@ 20997
quảng 20997
car@@ 20990
S 20989
quán 20974
Pr@@ 20962
đi@@ 20948
Hiện 20940
10@@ 20922
ữ 20912
giản 20911
tán 20887
Nếu 20875
M 20869
tan 20842
rêu 20826
ụng 20802
ù 20794
vò 20726
ơn 20711
ep@@ 20688
ổng 20647
Vĩnh 20631
ium 20623
Gr@@ 20567
ara 20549
Hồi 20542
ula 20518
ưa 20464
ari@@ 20456
chồng 20441
Or@@ 20424
man@@ 20411
đe 20383
anth@@ 20320
Cách 20310
thẳng 20304
Ai 20302
Er@@ 20268
Ngọc 20243
é 20240
1997 20217
dầu 20217
Ichneumonidae 20214
Đặc 20210
ngược 20171
phó 20154
Hi@@ 20130
dạy 20118
Phúc 20108
ad 20103
săn 20084
ắng 20008
Lương 19964
bí 19958
truy 19954
ley 19952
ổn 19917
Hy@@ 19900
Cục 19843
Hạ 19838
2021 19827
dọa 19825
ọc 19810
dia 19789
Bo@@ 19758
+ 19753
ie 19748
atum 19732
Canada 19716
York 19713
Phân 19705
Tam 19677
bậc 19656
Áo 19646
oma 19606
ọn 19592
eb@@ 19540
Thủy 19527
lan 19517
thoát 19517
ua 19515
video 19504
Quan 19484
1980 19474
Hu@@ 19444
thiệu 19384
tặng 19381
Karnataka 19374
1991 19363
se@@ 19361
ita 19356
tháp 19347
cậu 19346
bò 19331
Y 19326
X 19320
ô@@ 19319
ten@@ 19305
Lai 19293
ing@@ 19282
Paris 19253
ah 19245
va 19236
ok@@ 19226
thước 19226
° 19219
Thống 19196
Phạm 19181
60 19171
Hành 19151
ới 19115
đúng 19114
ei 19103
bom 19096
gắn 19075
xạ 19050
Mùa 19038
êng 19020
phiếu 18999
Chỉ 18987
G 18985
Mor@@ 18925
ost@@ 18925
Hymenoptera 18924
​ 18871
Loan 18847
aw@@ 18801
nghiêm 18788
khoản 18750
trích 18749
Hậu 18740
Cá 18685
sẵn 18685
chó 18655
tehsil 18627
hút 18606
ic 18603
bãi 18598
Mal@@ 18595
Re@@ 18595
ch 18587
tá 18586
lo 18576
15@@ 18555
sung 18539
ĩ 18537
13@@ 18536
ou@@ 18529
ét 18526
ẫn 18510
1996 18508
Rêu 18506
ate 18500
lẫn 18496
ằn 18479
az@@ 18455
P 18453
trại 18447
ão 18442
ans 18439
ense 18396
ne 18386
chu@@ 18381
la@@ 18379
chặn 18359
12@@ 18344
rơi 18318
Mel@@ 18312
Tử 18281
no 18271
ột 18240
Tự 18235
thù 18207
siêu 18194
đoán 18188
cờ 18151
Saint 18138
ona 18117
gắng 18108
Cập 18098
cựu 18095
lan@@ 18071
ano 18067
tắc 18053
pl@@ 18037
tránh 18024
àm 18019
L 18014
Mon@@ 18014
ếu 18012
lâm 18006
pi@@ 18006
úy 18004
dây 17975
ưng 17974
Nghệ 17966
khiển 17964
lương 17950
Tri@@ 17941
1995 17940
bác 17937
cỏ 17925
nắm 17924
thác 17880
Mông 17873
1975 17867
thượng 17861
de@@ 17851
Khánh 17848
hấp 17804
Hệ 17772
ứa 17754
Bài 17734
Bồ 17711
lưng 17699
tho@@ 17685
World 17670
1992 17668
ati@@ 17653
Chương 17648
ida 17622
phán 17616
hè 17615
Cuối 17608
nhớ 17586
thánh 17537
te@@ 17535
tắt 17496
Su@@ 17460
họp 17433
Phổ 17430
Tống 17427
ani 17415
quang 17391
ư 17390
Gu@@ 17386
USD 17383
nghỉ 17338
vĩ 17310
đáp 17310
thua 17307
Tôn 17286
K 17252
đo 17228
Nghị 17215
trồng 17212
nhánh 17209
2.@@ 17205
Đình 17202
C.@@ 17196
che 17196
Trịnh 17194
bo@@ 17173
tai 17169
lẽ 17138
ía 17129
des 17124
sắp 17116
ràng 17108
sch@@ 17104
Linh 17095
ama 17073
Đầu 17070
III 17064
quê 17064
món 17055
1993 17038
Phòng 17038
bánh 17030
nhật 16995
ỹ 16995
tống 16987
Be@@ 16982
ạnh 16951
đuổi 16943
khăn 16938
Khoa 16934
ực 16924
tạm 16908
tus 16886
Trận 16882
To@@ 16877
nhẹ 16875
đuôi 16871
khô 16860
cấm 16852
Trên 16846
N 16843
Se@@ 16833
vuông 16829
Đối 16827
ax@@ 16826
pa 16801
bật 16791
icus 16790
80 16784
xương 16766
sub@@ 16740
lựa 16737
ngờ 16735
if@@ 16722
ys 16696
Học 16688
Ac@@ 16686
mar@@ 16675
ắp 16673
phạt 16672
hài 16669
1994 16664
quỹ 16657
ass@@ 16655
nghề 16642
ợ 16642
tis 16641
Sinh 16636
ển 16607
En@@ 16605
trữ 16580
200 16568
ong@@ 16567
nh 16557
opsis 16550
Sc@@ 16546
ell 16545
côn 16535
nỗ 16519
ima 16515
óng 16471
bề 16469
R 16463
dậy 16457
Hóa 16446
ồ 16429
Tính 16409
thuyền 16407
70 16399
Bí 16397
ngân 16390
aur@@ 16384
phức 16358
Phát 16357
eri@@ 16356
ũ 16343
cặp 16334
Thể 16308
1970 16286
ộn 16284
Chúa 16281
Tiến 16273
chữa 16265
Brasil 16252
dưỡng 16251
sợ 16245
ểm 16245
lia 16243
mời 16242
90 16235
A.@@ 16215
yn@@ 16202
chối 16192
land 16186
thậm 16167
ỉ 16164
chùa 16155
giấy 16155
Kar@@ 16153
hôm 16114
òn 16092
Hợp 16069
đền 16035
cảng 16034
Cup 16030
Câu 16028
lã@@ 16016
Nữ 16004
ant@@ 16002
đỡ 15979
olo@@ 15968
H 15967
khủng 15956
ich@@ 15949
Poly@@ 15934
Mac@@ 15909
Si@@ 15906
ti 15885
f 15871
trú 15864
Cy@@ 15852
eli@@ 15849
òng 15836
hoá 15820
ol 15816
Ả 15795
Triệu 15769
tàn 15757
ist@@ 15725
A. 15704
tic@@ 15694
Na 15678
ngang 15664
Chrysomelidae 15663
bia 15662
nghĩ 15659
vong 15651
bạc 15646
0@@ 15644
1960 15643
Á@@ 15632
ũng 15631
ảy 15627
mưa 15624
thu@@ 15624
rắn 15601
te 15597
khỏe 15596
Cas@@ 15593
Cảnh 15577
Cùng 15568
can 15563
Lực 15546
bé 15543
Điện 15542
Điển 15536
Ber@@ 15518
Ro@@ 15513
Pi@@ 15507
tỉ 15505
hoang 15475
ưỡng 15438
gỗ 15435
1989 15432
ừa 15422
game 15413
ệu 15413
hùng 15410
ides 15408
thiệt 15407
Pl@@ 15396
du@@ 15377
mon@@ 15361
vườn 15359
ầu 15358
mười 15356
Hal@@ 15353
ev@@ 15352
ra@@ 15341
Vân 15334
alli 15324
ộng 15322
lui 15320
phường 15314
hi 15303
ania 15277
tờ 15267
Sal@@ 15265
se 15264
Thu@@ 15244
eus 15223
Pal@@ 15222
Vua 15220
Sở 15219
ệm 15217
odes 15215
èn 15195
đẳng 15179
Thần 15169
gió 15162
uc@@ 15152
Lễ 15148
Lu@@ 15147
uống 15144
giảng 15143
iss@@ 15123
mu@@ 15122
folia 15116
“ 15106
gà 15103
ino 15089
Ni@@ 15088
Do@@ 15087
oni@@ 15083
yc@@ 15072
miễn 15071
Kiến 15068
khán 15062
Vi@@ 15054
Thân 15052
đua 15039
ặc 15037
Man@@ 15035
ard 15032
ẽ 15022
ola 15018
Sp@@ 14994
California 14992
E 14989
rãi 14982
trứng 14962
đau 14953
Di 14923
Cũng 14922
Thuận 14922
ãng 14922
Me@@ 14914
ầy 14908
35 14895
do@@ 14884
Thạch 14882
” 14871
Thiếu 14867
dãy 14865
Hiến 14856
hiến 14852
Mc@@ 14849
Lục 14830
ăm 14828
Sĩ 14804
trăm 14804
0,@@ 14803
Kết 14797
aj@@ 14794
45 14775
mẽ 14772
cân 14767
sáp 14761
thẩm 14760
bá 14757
Tấn 14750
nóng 14722
chấm 14693
kì 14682
ựa 14673
Rập 14671
khi@@ 14652
ba@@ 14626
lis 14622
mũi 14619
ứ 14616
atr@@ 14610
dị 14604
ệp 14581
cal@@ 14571
trốn 14549
Thi@@ 14541
tận 14531
tùy 14518
cơn 14509
ớt 14496
1988 14488
Nghĩa 14485
ịp 14470
úa 14469
đực 14452
der@@ 14435
ó 14430
ảng 14428
ậu 14428
Cầu 14425
Arctiinae 14403
tròn 14387
xu 14374
ō 14373
hồng 14371
chép 14346
3.@@ 14345
võ 14286
ử 14281
Te@@ 14279
ón 14276
chị 14275
Đoàn 14261
Thiến 14259
Ví 14235
Str@@ 14231
úng 14227
ym@@ 14221
ran@@ 14183
iz@@ 14175
ill@@ 14174
ỗi 14172
J.@@ 14162
hỏa 14161
ụt 14134
Đan 14133
góc 14105
Thiết 14081
.. 14064
tidae 14049
son@@ 14036
Ag@@ 14016
chinh 14004
quyển 14004
ày 14000
Mo@@ 13999
ers 13980
1@@ 13975
Ver@@ 13970
he@@ 13966
rượu 13943
Tất 13917
Philippines 13902
Bel@@ 13894
ann@@ 13847
dium 13843
pal@@ 13829
Như 13811
ed 13803
nâu 13800
inc@@ 13799
ila 13797
Tương 13790
Được 13789
ỏng 13786
ỏi 13782
lối 13778
soạn 13765
phi@@ 13760
Her@@ 13749
vỏ 13747
Po@@ 13742
Pol@@ 13742
ngũ 13741
chắc 13740
Har@@ 13736
gr@@ 13716
500 13708
ện 13706
oa 13698
Là 13680
Kr@@ 13677
Thường 13662
dày 13649
ser@@ 13648
kia 13643
Tiếng 13641
dặm 13641
ôm 13611
lưới 13590
thỏa 13586
bảy 13585
ema 13583
kém 13572
hổ 13555
Bor@@ 13535
Hầu 13527
ểu 13506
Bal@@ 13490
ion 13487
bar@@ 13478
vịnh 13475
á@@ 13475
tường 13460
ởi 13425
ma@@ 13416
su 13408
1986 13399
pr@@ 13398
cr@@ 13390
èo 13388
Tần 13383
li 13371
ngọt 13335
hô 13329
Ma@@ 13300
mệnh 13299
Mer@@ 13295
io 13294
48 13291
vỡ 13276
tụ 13263
bạo 13259
lỗi 13259
nhu 13244
web 13244
ìn 13223
Bur@@ 13212
Trang 13207
cor@@ 13206
tảng 13197
ai@@ 13187
san 13181
Sông 13177
ada 13160
ale 13158
ược 13146
Sao 13135
ùa 13134
ver@@ 13119
nig@@ 13104
tấm 13094
hiếm 13091
Tuyên 13074
ném 13074
ỏa 13072
cục 13065
za 13063
Tiền 13055
chuồn 13054
đức 13049
Hữu 13043
der 13039
32 13035
Kông 13025
phe 13021
ke 13012
Lào 13005
alus 13005
inus 12984
trống 12984
Sài 12979
biện 12976
eta 12976
Cu@@ 12972
Tor@@ 12948
1950 12945
Cả 12933
đám 12915
óm 12907
1987 12893
đồn 12893
vẽ 12887
co 12882
ter 12871
ent@@ 12868
thuế 12852
úp 12852
w 12850
Luật 12847
ini 12831
hư 12814
Phim 12811
Huy 12808
1985 12796
đoạt 12768
He@@ 12767
ửa 12767
1942 12760
phỏng 12755
Đà 12752
Sar@@ 12744
United 12723
giọng 12715
Toàn 12683
sp@@ 12681
Hoàn 12680
De@@ 12675
lar@@ 12665
én 12660
Hungary 12648
í@@ 12641
cháu 12640
asi@@ 12639
kg 12636
đốt 12630
mong 12626
lạnh 12623
ek@@ 12615
hòn 12583
nguyện 12580
-@@ 12578
gai 12575
rối 12572
đợt 12557
xưa 12555
Cer@@ 12549
đứa 12535
vẻ 12529
awa 12522
ữa 12515
Vòng 12512
ặng 12505
Lộc 12502
Phan 12475
idaceae 12468
ếm 12465
Ngụy 12462
Elateridae 12461
Mu@@ 12461
mỏ 12446
sóc 12446
Ad@@ 12442
Cung 12439
Viên 12436
éo 12434
sót 12432
ưởng 12425
1981 12416
opter@@ 12409
Pro@@ 12403
ey 12402
So@@ 12388
Môi 12380
tọa 12380
Nhóm 12371
Ru@@ 12369
ex@@ 12350
by 12349
Tác 12341
Sử 12333
all@@ 12324
mạc 12306
1944 12300
áy 12300
giàu 12298
Tào 12296
1979 12283
điệu 12280
Sa 12267
0.000 12261
mái 12245
1940 12241
ơm 12238
ł@@ 12237
huy@@ 12228
1984 12225
Ngoại 12225
Bạch 12216
cừu 12192
ngừng 12183
tám 12181
Giao 12163
nhảy 12163
mắc 12162
vợt 12162
re 12158
Mas@@ 12134
chu 12129
cháy 12127
L.@@ 12123
ê@@ 12123
H.@@ 12121
S.@@ 12118
vú 12105
Hol@@ 12104
ặn 12093
hà 12089
ỳnh 12089
Lạc 12088
Quý 12087
optera 12086
nhắc 12085
đòi 12079
nia 12070
khổ 12054
Gòn 12052
ựu 12050
khơi 12046
Can@@ 12028
Cát 12018
65 12006
il 12004
cự 12001
ta@@ 11987
lin@@ 11985
Eu@@ 11984
gu@@ 11982
Indonesia 11963
ẫu 11963
khám 11960
dàng 11958
1982 11956
Grand 11949
George 11948
chuỗi 11948
ạm 11946
Ap@@ 11943
dõi 11940
Séc 11919
khái 11905
khấu 11903
chạm 11886
Mỗi 11880
’ 11877
ườn 11875
ly@@ 11861
ẹn 11861
tri 11855
ãy 11844
Lúc 11837
chặt 11835
Bá 11834
ib@@ 11824
Dự 11820
vinh 11803
buôn 11787
1941 11762
uk@@ 11759
tổn 11754
Ser@@ 11741
ùy 11729
von 11728
end@@ 11715
thiểu 11715
lỵ 11714
ếng 11697
1983 11689
chăm 11688
FC 11672
Thu 11672
pu@@ 11664
ow@@ 11663
Album 11662
cãi 11655
ius 11644
4.@@ 11641
voi 11637
ce 11634
oh@@ 11623
bèn 11615
Và 11601
ler 11599
thai 11598
Uy 11595
1972 11593
1943 11588
gen 11578
anum 11575
Tôi 11525
ari 11517
Ri@@ 11506
Hương 11503
xo@@ 11497
thạch 11453
tim 11424
Thương 11410
William 11405
ok 11405
1978 11399
Israel 11395
lôi 11392
mer@@ 11390
fer@@ 11387
ỉnh 11384
amb@@ 11381
thảm 11377
James 11376
Cho 11374
tựa 11365
Ngay 11362
cất 11350
ớ@@ 11337
pe@@ 11336
ninh 11331
ash@@ 11330
Dr@@ 11323
cột 11320
1930 11316
hứng 11308
1976 11302
Truyền 11288
Cẩm 11286
dr@@ 11273
tan@@ 11273
ậy 11270
— 11268
Bu@@ 11264
75 11263
hy@@ 11260
ulata 11259
non 11258
uyết 11258
viễn 11251
cướp 11250
300 11245
Đi@@ 11245
tệ 11239
ili@@ 11224
dứt 11220
Bên 11191
xưng 11189
bối 11177
L. 11174
cốt 11169
oni 11165
anthus 11157
chắn 11148
giam 11145
Thư 11131
ko 11131
Cúp 11124
đón 11124
id 11119
chậm 11113
Phiên 11111
si 11108
fr@@ 11107
Võ 11097
R.@@ 11096
Crambidae 11095
Tak@@ 11082
Com@@ 11079
col@@ 11078
ori@@ 11066
ịch 11058
sc@@ 11056
yi 11056
ĩnh 11056
ir 11050
sàng 11050
cer@@ 11047
Mô 11046
nghèo 11045
52 11032
ìa 10992
ủ 10984
Du 10976
Biển 10971
è 10961
com@@ 10933
dừng 10932
mồi 10929
ota 10929
ỳ 10922
pes 10916
TV 10907
Syria 10904
sẻ 10897
ox@@ 10894
aph@@ 10892
Rom@@ 10877
Kit@@ 10875
38 10865
ira 10856
ín 10855
ụy 10854
ọ 10848
ịt 10838
ể 10832
Sel@@ 10828
ngồi 10825
33 10813
Bọ 10810
ặt 10803
kiêm 10795
Ko@@ 10793
af@@ 10785
Pter@@ 10779
1968 10773
be@@ 10763
thả 10758
trúng 10746
dàn 10739
Q 10733
kèm 10730
min@@ 10723
16@@ 10717
Biên 10716
str@@ 10716
Hàng 10702
kêu 10690
khẳng 10684
1946 10680
alb@@ 10676
Dưới 10674
34 10663
chở 10650
ượn 10650
hung 10644
ngh@@ 10644
lái 10641
ứt 10638
Trị 10637
răng 10636
Nhạc 10635
Âm 10633
Vùng 10630
Xuyên 10625
ore 10619
ươ@@ 10608
ez@@ 10598
cỡ 10592
ười 10589
ềm 10587
und@@ 10582
Mục 10574
Tài 10559
chín 10554
1973 10552
triết 10533
cin@@ 10531
Ger@@ 10529
01 10524
dư 10524
ze@@ 10523
64 10520
khuôn 10518
thuê 10516
tor@@ 10498
cụm 10494
huyết 10494
ae@@ 10491
ưỡi 10489
36 10481
act@@ 10475
Is@@ 10472
1954 10465
Ab@@ 10465
khuyến 10462
sánh 10459
ene 10449
Vinh 10436
Charles 10433
đậu 10426
Sm@@ 10419
tần 10406
Luân 10402
ngọn 10392
cel@@ 10389
yg@@ 10389
55 10385
thải 10385
ji 10384
Tiêu 10382
ice 10381
Mai 10377
Chu@@ 10369
im 10366
tông 10360
Ấ@@ 10359
Bằng 10358
ớp 10351
đồi 10343
Ngân 10327
Trichoptera 10326
tha 10324
Tar@@ 10321
aya 10317
1974 10308
cam 10280
phyllum 10275
1965 10261
Duy 10260
Lin@@ 10249
eh@@ 10248
Limoniidae 10247
M.@@ 10246
Trời 10244
Bol@@ 10230
mảnh 10219
Ex@@ 10198
47 10197
Quyết 10191
Ben@@ 10174
Phước 10171
Henry 10167
City 10162
Windows 10160
hỗn 10156
lidae 10153
ek 10150
illa 10143
Ge@@ 10138
km2 10138
Ireland 10135
Ak@@ 10123
tes 10118
M. 10112
ve 10105
Ca 10093
gen@@ 10093
Al 10091
Kể 10079
chứ 10077
lỗ 10073
Campuchia 10071
Sy@@ 10068
Ste@@ 10051
… 10032
tiêm 10020
Chân 10017
opo@@ 10015
Thọ 10014
quen 10008
42 10004
gấp 9996
Tứ 9976
ếch 9969
Min@@ 9968
đệ 9965
ình 9962
ops 9960
1977 9954
òi 9944
Cl@@ 9943
Malaysia 9936
ni 9931
Ma 9929
Mạc 9927
mac@@ 9921
ễ 9920
1967 9917
tô 9915
West 9913
Mạch 9898
vở 9898
tân 9896
ênh 9894
chìm 9887
46 9881
miệng 9879
Tur@@ 9868
ẩu 9852
sữa 9850
Phụ 9841
Dù 9840
44 9839
pula 9835
ung@@ 9831
David 9818
vui 9818
1964 9813
Sph@@ 9813
sky 9808
vết 9807
ven 9796
Đảo 9796
Huế 9789
Quyền 9788
eti@@ 9784
ẹ@@ 9777
dã 9772
5.@@ 9769
51 9759
49 9756
cản 9747
lang 9745
than 9739
phu 9734
uyến 9729
Robert 9725
ranh 9722
1963 9713
Đinh 9711
Sa@@ 9699
bl@@ 9698
sti@@ 9697
1,@@ 9691
Pe@@ 9689
Hình 9682
Washington 9681
q@@ 9676
yan@@ 9670
37 9658
Ly@@ 9645
om 9643
don@@ 9636
lọt 9632
ens@@ 9618
òm 9618
dinh 9613
Đ 9603
ō@@ 9588
Tachinidae 9585
vạn 9584
Động 9583
age 9580
Ukraina 9577
1939 9575
nghi@@ 9575
39 9574
les 9572
IV 9566
khích 9554
van 9553
Singapore 9552
phúc 9552
chấn 9536
ươi 9531
F.@@ 9527
Tàu 9526
adi@@ 9524
tam 9524
ọng 9519
óa 9509
uyên 9500
Mexico 9496
per 9490
may 9487
sk 9478
Paul 9477
Tình 9452
trạm 9450
Hel@@ 9444
Hạm 9440
ner 9439
vững 9439
ễu 9436
Vị 9433
ax 9431
Pennsylvania 9426
Val@@ 9418
j 9414
Dicran@@ 9411
B.@@ 9403
har@@ 9399
flav@@ 9395
Kế 9394
ile 9386
Thứ 9380
men 9380
iv@@ 9379
ville 9373
Dung 9362
Trọng 9362
Cha 9361
Du@@ 9356
Đôn 9355
On@@ 9350
rom@@ 9350
Đó 9350
1971 9348
ngư 9344
ngại 9343
cương 9340
ngợi 9339
hẹp 9335
J. 9324
osus 9315
kỵ 9312
đẻ 9310
â@@ 9291
Đa 9285
ượt 9279
arg@@ 9277
Cái 9275
1920 9271
ent 9269
lũng 9255
ip@@ 9243
1969 9242
ặp 9242
5,@@ 9232
41 9229
Pseud@@ 9228
Mat@@ 9223
los@@ 9221
hoảng 9214
amp@@ 9211
20@@ 9207
me@@ 9206
1962 9203
4,@@ 9175
Thực 9165
unc@@ 9164
thang 9159
đầm 9155
isti@@ 9154
ler@@ 9153
02 9148
lợn 9146
ot 9141
yth@@ 9131
cú 9130
ey@@ 9128
zi@@ 9127
Nghiên 9124
trầm 9124
3,@@ 9119
men@@ 9113
Mes@@ 9102
up@@ 9098
1956 9097
màng 9094
ùm 9093
canh 9089
áu 9086
Liêu 9080
Mic@@ 9080
thách 9080
Fr@@ 9073
Illinois 9064
Trưởng 9064
Ur@@ 9063
cát 9061
Phil@@ 9059
ó@@ 9057
Mol@@ 9052
kỉ 9049
Chiêu 9048
Tro@@ 9048
top 9045
cus 9043
Louis 9038
khuẩn 9026
Lăng 9020
cán 9017
Lee 9010
aga 9003
H. 9001
ẫm 8990
ud@@ 8988
cul@@ 8986
ophyl@@ 8982
Quy 8981
1955 8965
ghế 8964
orum 8960
uy 8960
Diễn 8955
Cam@@ 8953
aea 8953
05 8952
1966 8949
lẻ 8946
53 8944
Bỉ 8943
dis@@ 8943
ja 8943
berg 8939
thuần 8938
kho 8933
orus 8926
ere 8918
ngàn 8909
57 8906
Go@@ 8901
ự 8901
mạn 8898
ford 8887
thép 8886
Vụ 8880
ant 8877
can@@ 8863
mel@@ 8850
sim@@ 8847
não 8840
Song 8835
khổng 8834
ùn 8833
den 8830
Khoảng 8815
sụp 8814
Nông 8809
Hùng 8804
chụp 8799
lỏng 8799
43 8795
Tề 8795
Bảng 8794
72 8784
Lãnh 8769
xuân 8766
thầy 8764
oi 8761
tic 8760
br 8757
dải 8756
lồ 8755
ri 8749
go@@ 8746
Đệ 8742
6,@@ 8741
trương 8733
duyệt 8731
ane 8719
E.@@ 8716
long 8712
At@@ 8710
85 8707
Ros@@ 8706
ite 8705
54 8702
2,@@ 8701
nhấn 8701
S. 8697
xấu 8694
Ç@@ 8692
Tuấn 8691
eng@@ 8690
London 8688
già 8666
hiển 8657
chợ 8656
Texas 8650
por@@ 8649
Des@@ 8646
é@@ 8644
hy 8643
7,@@ 8642
bụi 8638
Điền 8636
07 8634
muối 8625
uli@@ 8615
ẹp 8611
Lep@@ 8610
nhi@@ 8610
1958 8600
pan@@ 8595
dường 8592
ợi 8585
CP 8571
mọc 8569
ons 8565
1947 8559
ali@@ 8558
1936 8556
pp@@ 8553
Gar@@ 8552
Cần 8550
khung 8536
cà 8531
xám 8531
Met@@ 8519
Gal@@ 8518
vir@@ 8517
oto 8514
Khang 8507
rich@@ 8507
flora 8505
esia 8503
Mag@@ 8501
ou 8501
Plat@@ 8499
400 8493
Maria 8492
Zealand 8492
Kur@@ 8486
dao 8476
06 8475
00 8465
gián 8463
58 8448
sạch 8442
ub@@ 8439
ấ@@ 8439
hoan 8437
Hiếu 8435
phú 8421
Iran 8420
pop 8419
6.@@ 8416
ướ@@ 8409
anime 8397
Cre@@ 8388
nhạt 8386
Entertainment 8372
thoái 8372
ennis 8365
otr@@ 8354
hộp 8338
nòng 8337
nương 8333
Tokyo 8331
Vườn 8322
Kun@@ 8317
Tĩnh 8316
niềm 8314
úi 8298
Hir@@ 8294
of@@ 8292
ộp 8287
f. 8283
lạ 8281
đập 8281
ess@@ 8280
pin@@ 8280
× 8279
chuột 8276
sợi 8274
thám 8271
khu@@ 8264
Nhất 8261
1961 8255
Michael 8249
ish@@ 8248
omyia 8246
1949 8239
1959 8239
Bre@@ 8239
chăn 8237
oxy 8237
Hyp@@ 8236
lọc 8232
tel@@ 8232
nét 8223
thọ 8219
č@@ 8218
tiềm 8213
ff@@ 8210
ũ@@ 8204
ker@@ 8203
Thomas 8195
th 8193
be 8188
tứ 8183
me 8179
ali 8178
09 8173
mê 8173
Iowa 8172
ọt 8169
ẻ@@ 8166
War@@ 8163
tháo 8159
usa 8158
tung 8157
Argentina 8155
Dakota 8149
Mur@@ 8147
Bệnh 8145
viêm 8144
ngực 8141
Xương 8140
7.@@ 8139
Â@@ 8139
ựng 8139
Nghi 8136
62 8134
ngủ 8130
are 8125
sưu 8125
Vệ 8123
nghìn 8122
Ohio 8119
hào 8117
ato 8112
hang 8110
xoay 8106
Andr@@ 8104
Thiệu 8099
aki 8097
For@@ 8091
$ 8088
08 8087
Han@@ 8085
Huệ 8082
Giống 8080
sen 8076
sơn 8074
elia 8070
mat@@ 8068
Dịch 8066
bột 8066
Sam@@ 8065
Giai 8063
cur@@ 8063
del 8049
Hoài 8048
AS@@ 8047
ye 8047
Billboard 8044
Neur@@ 8043
ev 8043
Trich@@ 8042
03 8039
04 8032
Ư@@ 8030
77 8021
dae 8021
ation 8020
chờ 8012
ug@@ 8011
tig@@ 8009
P. 8007
1957 8003
ge@@ 8003
ốm 8003
Ngôi 8000
ty@@ 7993
ễn 7993
Quần 7988
est@@ 7986
Sem@@ 7983
My@@ 7982
Sil@@ 7973
đàm 7970
Quản 7969
1953 7965
67 7962
ro 7962
for@@ 7958
sus 7956
ụ@@ 7955
Os@@ 7946
México 7943
mi 7942
Mül@@ 7938
andra 7933
63 7927
Dryopter@@ 7923
UEFA 7921
You 7920
bọc 7914
Rhy@@ 7909
lắp 7909
56 7907
Pan@@ 7898
aus@@ 7881
õi 7874
Tiếp 7873
95 7868
Đỗ 7867
bi 7864
sy@@ 7859
inn@@ 7858
Scotland 7857
cưới 7857
dược 7854
khôi 7853
Hor@@ 7847
ie@@ 7845
trần 7844
asia 7839
Ale@@ 7837
hâm 7834
Sách 7832
yên 7828
bấy 7826
uch@@ 7821
xi@@ 7812
76 7809
virus 7808
protein 7806
ý@@ 7800
lăng 7797
1938 7796
Pot@@ 7794
hạnh 7794
sin@@ 7794
yl 7794
trông 7789
mèo 7782
õ@@ 7780
E. 7778
ani@@ 7776
dâng 7775
thợ 7772
điệp 7772
mát 7764
sil@@ 7762
Ky@@ 7760
Huyền 7758
ami 7749
Viễn 7747
66 7744
68 7742
1948 7741
Đơn 7734
Môn 7721
1937 7716
tuy@@ 7714
Thuật 7712
bè 7709
Tô 7708
Sol@@ 7700
thiệp 7696
ủi 7690
Wil@@ 7685
phyl@@ 7683
que 7682
ilis 7677
ge 7676
hoà 7672
mai 7670
mãn 7668
8,@@ 7667
escens 7666
Chiếc 7663
zy@@ 7662
kar@@ 7660
Mus@@ 7657
hắn 7656
Hem@@ 7650
Cuba 7649
bạch 7648
ze 7648
chút 7647
trộn 7647
Ty@@ 7646
giận 7641
Mẹ 7640
den@@ 7640
Park 7638
ỵ 7636
1951 7631
Astr@@ 7618
Huấn 7615
xưởng 7615
bọn 7608
đáy 7608
củ@@ 7603
ick@@ 7603
ruột 7600
Tướng 7596
abr@@ 7589
dáng 7582
Music 7581
P.@@ 7579
Video 7577
Cửu 7576
W 7576
khen 7576
thận 7575
Eri@@ 7574
nô 7570
61 7567
bre@@ 7566
ela 7557
hồn 7547
enti@@ 7542
ick 7542
ard@@ 7540
ớ 7540
hầm 7532
France 7531
ệch 7529
agus 7526
Đặng 7526
Nguồn 7521
mươi 7519
South 7518
aer@@ 7514
icul@@ 7513
9,@@ 7510
Còn 7509
cap@@ 7509
Sen@@ 7508
bor@@ 7505
ry@@ 7505
Lợi 7501
lân 7500
Myr@@ 7498
Por@@ 7497
nhượng 7497
ko@@ 7496
icum 7494
TV@@ 7484
Anth@@ 7482
ộ@@ 7481
Khắc 7479
for 7473
Phục 7469
88 7466
1952 7463
tóc 7460
chil@@ 7459
Kỹ 7458
Chung 7451
Báo 7446
khoáng 7445
Phủ 7434
71 7432
Cảng 7432
Es@@ 7419
ve@@ 7408
Cat@@ 7404
bùng 7396
phus 7396
l. 7395
mơ 7392
Latinh 7383
lossum 7382
79 7380
aka 7380
ngo@@ 7380
ros@@ 7379
eria 7375
nhuận 7373
tica 7371
đốm 7371
Ep@@ 7370
khuyên 7370
Thừa 7367
lô 7366
No@@ 7365
Bl@@ 7364
ref 7360
1934 7357
1929 7351
8.@@ 7344
hưu 7342
Vol@@ 7340
dịp 7339
ac 7337
Meg@@ 7334
CD 7333
ast@@ 7333
59 7330
Cop@@ 7328
Kan@@ 7323
Nag@@ 7321
Nước 7321
ngập 7321
phẳng 7320
ngự 7315
ornis 7315
Sz@@ 7311
1935 7310
Chánh 7304
đợi 7301
Kal@@ 7300
fl@@ 7299
ā@@ 7296
oz@@ 7292
Ple@@ 7289
nhị 7288
ese 7282
Tâm 7278
tar@@ 7275
Mad@@ 7269
Phù 7260
82 7257
Cây 7257
Richard 7256
chư 7251
phy@@ 7244
pul@@ 7238
kín 7233
uta 7228
lồng 7223
Internet 7221
Nor@@ 7213
Cryp@@ 7211
hề 7206
Máy 7195
lưỡng 7195
ole@@ 7188
anti@@ 7185
rot@@ 7184
the@@ 7183
tĩnh 7183
73 7182
Ngũ 7181
lật 7180
chàng 7176
thẻ 7167
Berlin 7153
ette 7151
ă@@ 7148
Martin 7146
ny@@ 7142
phẫu 7141
Megach@@ 7130
Ta@@ 7130
Quá 7126
loc@@ 7118
ih@@ 7103
Lao 7102
ase 7100
tro@@ 7099
estr@@ 7097
Ang@@ 7095
long@@ 7092
Ô 7092
B. 7090
Ku@@ 7088
ót 7084
hal@@ 7072
Ath@@ 7067
bur@@ 7067
ush@@ 7067
74 7065
Bang 7064
š@@ 7062
ft 7061
86 7059
enn@@ 7059
King 7058
ster@@ 7046
sa@@ 7043
opus 7038
69 7031
Thắng 7028
yo@@ 7028
ab 7027
agn@@ 7022
tur@@ 7018
entr@@ 7015
Nhi@@ 7014
D. 7013
thr@@ 7012
Asilidae 7011
thus 7005
Rh@@ 7000
ans@@ 6997
1931 6996
ide 6990
pur@@ 6975
Char@@ 6970
Dor@@ 6967
Wales 6966
Manchester 6964
1914 6962
iro 6962
81 6953
Cos@@ 6950
Kho@@ 6946
Wal@@ 6942
Dol@@ 6939
1918 6936
Mit@@ 6926
9.@@ 6925
phila 6916
84 6915
cl@@ 6911
sol@@ 6905
1900 6904
Pas@@ 6900
vit@@ 6900
mer 6897
Ram@@ 6891
Ly 6890
ul 6888
rau 6885
ier@@ 6882
mag@@ 6881
iy@@ 6879
Pomer@@ 6874
isa 6863
Nov@@ 6860
Ba@@ 6859
Minnesota 6859
ator 6853
ova 6846
Mil@@ 6840
ace@@ 6840
Edward 6830
98 6829
rec@@ 6824
ain@@ 6822
aci@@ 6817
gon 6813
m. 6813
rock 6808
El 6805
ts 6803
1912 6802
st 6801
Kansas 6797
gl@@ 6786
sk@@ 6786
vé 6786
Los 6782
Mah@@ 6778
Hi 6773
99 6766
One 6761
oy@@ 6751
ine@@ 6749
ut 6748
jeun@@ 6746
96 6741
Sum@@ 6731
Love 6725
Rob@@ 6723
iti@@ 6711
1891 6704
J 6697
Del@@ 6694
ẩy 6693
mor@@ 6680
ts@@ 6674
Kam@@ 6661
punc@@ 6661
ack 6659
idi@@ 6659
Mak@@ 6651
93 6648
Ol@@ 6647
78 6641
Ter@@ 6633
ảm 6622
Jean 6616
ito 6613
Av@@ 6611
lam 6611
K. 6604
sur 6590
ach 6589
600 6581
antha 6576
sal@@ 6576
Tom@@ 6570
lum 6569
burg 6565
1933 6557
mann 6554
1922 6553
ous 6553
1917 6552
ian 6543
W.@@ 6527
field 6521
ẵ@@ 6520
1913 6519
poly@@ 6513
wa 6512
ski 6510
eli 6509
Moskva 6508
hr@@ 6502
Friedrich 6497
ye@@ 6487
ĩa 6486
cas@@ 6481
ind@@ 6480
her@@ 6479
urus 6477
1932 6459
1924 6457
Lind@@ 6452
ạy 6452
gar@@ 6451
Joseph 6448
anc@@ 6441
Bas@@ 6427
gan 6420
Hydro@@ 6419
1925 6418
Iraq 6414
Scarabaeidae 6402
via 6402
ure 6401
San@@ 6400
ãnh 6399
1908 6393
We@@ 6390
ici@@ 6384
ha@@ 6383
ệc 6378
Lib@@ 6374
Lepto@@ 6373
Khu@@ 6366
inch 6364
150 6362
Sin@@ 6358
Xi@@ 6354
91 6352
Camp@@ 6347
Gen@@ 6344
bon 6344
Smith 6343
tin@@ 6343
94 6342
ẳ@@ 6336
83 6330
ẫ@@ 6327
Jackson 6322
1919 6319
ów 6315
92 6314
yx 6313
87 6311
I. 6306
astr@@ 6304
ates 6281
1910 6279
1916 6279
Bulbo@@ 6276
ham 6273
ỗ@@ 6266
Le 6265
Pakistan 6265
1905 6259
Nguy@@ 6258
1911 6254
T.@@ 6252
Kir@@ 6250
ky 6246
Nar@@ 6242
Mao 6234
ề@@ 6234
ã@@ 6232
thoph@@ 6229
Jo@@ 6227
Ke@@ 6224
St. 6222
G.@@ 6218
ọi 6215
ocarp@@ 6214
ech@@ 6213
Sim@@ 6211
Colombia 6208
chr@@ 6208
tang 6208
nú@@ 6201
manga 6199
Oc@@ 6194
Nak@@ 6188
Brazil 6184
Top 6181
Bayern 6179
yd@@ 6176
Micro@@ 6168
alia 6167
Loire 6163
des@@ 6155
Peter 6154
F. 6150
mal@@ 6148
Aran@@ 6140
Brach@@ 6140
sis 6138
ori 6137
K.@@ 6135
Gor@@ 6133
ary 6131
Alpes 6123
Ir@@ 6121
Lit@@ 6120
USS 6118
CH@@ 6117
D.@@ 6106
b. 6106
bul@@ 6106
q 6106
tí@@ 6102
Tu 6098
800 6084
ins@@ 6083
olor 6076
Fre@@ 6071
97 6066
don 6063
ollis 6059
quy@@ 6058
1927 6055
ami@@ 6050
Heter@@ 6049
ich 6049
cho@@ 6045
Xu@@ 6040
lin 6039
La@@ 6031
Dar@@ 6029
ắ@@ 6028
Afghanistan 6027
1923 6026
tal@@ 6025
ND 6021
uma 6020
Ha@@ 6019
Cyr@@ 6014
Sten@@ 6014
Men@@ 6011
az 6005
aris 6002
Thel@@ 5997
sen@@ 5996
Missouri 5995
Ry@@ 5992
2022 5991
89 5991
bic@@ 5989
Lam 5983
tii 5980
philus 5975
R. 5972
pol@@ 5968
Me 5963
1906 5960
ago 5959
len@@ 5957
Luc@@ 5954
Man 5954
bium 5954
ashi 5953
leo 5953
od 5953
sia 5953
1928 5949
Mari@@ 5947
Fl@@ 5942
Yam@@ 5939
ce@@ 5921
Ham@@ 5919
da@@ 5919
est 5915
ằm 5915
Schl@@ 5913
lam@@ 5909
ụm 5908
ello 5899
àu 5896
sel@@ 5894
ist 5890
yro@@ 5888
off 5877
Shi@@ 5876
Lim@@ 5875
Baker 5873
fus@@ 5872
Venezuela 5871
Phyl@@ 5870
pic@@ 5868
Australia 5866
ade 5865
ker 5858
Not@@ 5840
Đo@@ 5839
all 5837
Kat@@ 5836
ik 5830
use 5823
Mord@@ 5820
Tin 5812
Bro@@ 5810
ign@@ 5809
ifolia 5802
ther@@ 5800
DNA 5798
v.@@ 5796
formis 5795
sul@@ 5795
ren@@ 5790
enia 5789
Coc@@ 5788
.000 5785
Far@@ 5784
ophyllum 5784
Olympic 5781
bel@@ 5771
De 5766
ularis 5765
ven@@ 5763
var@@ 5759
dom@@ 5758
Super 5757
Cle@@ 5747
yst@@ 5745
osum 5743
ony@@ 5738
Simon 5737
cz@@ 5737
tata 5734
Sur@@ 5728
Microsoft 5725
Kol@@ 5710
Mary 5710
ber 5709
ũi 5708
podi@@ 5707
ps 5700
Ul@@ 5693
My 5691
ten 5690
0.@@ 5689
kov 5687
ger@@ 5686
Guinea 5683
Kor@@ 5683
folium 5683
Angeles 5675
odon 5673
Der@@ 5671
eci@@ 5671
ire 5666
yph@@ 5665
Sw@@ 5661
acid 5661
Op@@ 5659
uyện 5655
Sak@@ 5652
eni@@ 5651
osp@@ 5648
lep@@ 5642
00@@ 5638
1926 5629
eum 5627
ci 5624
uri 5620
Salticidae 5614
Est 5606
longi@@ 5605
1909 5592
ulus 5586
ke@@ 5584
1921 5583
otus 5581
Hot 5578
otis 5573
9,5 5565
ku@@ 5561
Cap@@ 5558
cat@@ 5552
Santa 5547
Nav@@ 5541
ez 5540
1895 5537
Il@@ 5534
õ 5532
anensis 5531
att@@ 5527
agi@@ 5520
ome 5516
v. 5504
Az@@ 5501
ern@@ 5500
T. 5494
Chile 5491
Lyc@@ 5491
Seoul 5490
Francisco 5488
Ứ@@ 5488
1915 5483
Hitler 5483
Florida 5482
endron 5477
ue 5474
Un@@ 5472
Eur@@ 5471
eph@@ 5471
Cam 5470
Jac@@ 5464
Hab@@ 5462
dic@@ 5457
Division 5443
Serbia 5440
trich@@ 5439
tum 5428
uyền 5428
Ay@@ 5419
ỉ@@ 5417
ond@@ 5414
ẳng 5405
Ottoman 5400
xu@@ 5400
Virginia 5398
ellus 5397
ance 5394
pos@@ 5392
Fu@@ 5390
Na@@ 5390
alm@@ 5384
fol@@ 5377
Football 5374
nch@@ 5372
bol@@ 5370
aca 5369
Pa@@ 5366
FA 5361
lat@@ 5356
Pen@@ 5353
ger 5351
Champions 5349
cia 5346
war@@ 5346
Mark 5344
didae 5341
Em@@ 5334
inae 5330
30@@ 5329
Gre@@ 5328
he 5325
ìm 5325
ửu 5318
Psych@@ 5316
chin@@ 5315
ect@@ 5309
Mir@@ 5307
esi 5299
eps 5296
inia 5296
val@@ 5296
Cro@@ 5295
Roma 5293
osper@@ 5291
uti@@ 5291
tom@@ 5287
Euc@@ 5285
Google 5284
ř@@ 5279
Rad@@ 5278
tre 5276
Dũng 5275
Khmer 5274
pro@@ 5272
duy@@ 5268
24@@ 5266
000 5265
del@@ 5263
oshi 5263
Uy@@ 5258
pil@@ 5255
Lang 5246
Nú@@ 5246
Prot@@ 5244
char@@ 5242
sii 5242
Arg@@ 5241
acia 5241
mad@@ 5241
cá@@ 5240
onidae 5237
Bulgaria 5236
FIFA 5233
acea 5232
asc@@ 5228
Armenia 5220
neo 5218
apo@@ 5212
iana 5210
bas@@ 5207
hydr@@ 5205
AP@@ 5203
ess 5203
Diego 5202
ele 5201
Disney 5200
Sang 5196
Bab@@ 5195
Hawaii 5194
isi@@ 5192
vil@@ 5189
5.000 5184
ticus 5183
cy@@ 5181
aul@@ 5178
elle 5170
ric@@ 5170
Karl 5168
grac@@ 5168
# 5164
Don@@ 5161
Oscar 5146
Don 5144
25@@ 5141
lig@@ 5140
1903 5132
une 5132
eng 5130
eni 5130
COVID 5129
Cyc@@ 5124
Tim@@ 5119
ling 5117
Pat@@ 5116
edi@@ 5115
chuy@@ 5113
Ec@@ 5108
ust@@ 5108
tric@@ 5103
Bah@@ 5099
North 5099
Mont@@ 5098
Tran@@ 5097
Alexander 5090
1904 5087
Hil@@ 5087
air@@ 5079
ney 5079
oceph@@ 5079
ear@@ 5075
radar 5075
Sab@@ 5074
und 5067
Black 5064
Ca@@ 5062
Lam@@ 5062
Wisconsin 5043
G. 5041
Ash@@ 5036
una 5036
asa 5035
elli 5035
cac@@ 5028
Gmina 5027
Van 5024
1907 5022
aha 5021
Nintendo 5017
pel@@ 5015
met@@ 5006
VI 5005
Victoria 5000
Dendro@@ 4998
eth@@ 4995
endr@@ 4994
nus 4993
1898 4992
fi@@ 4987
Lev@@ 4978
Pav@@ 4975
Pu@@ 4966
oe 4966
Ka@@ 4964
phia 4963
oria 4962
1000 4958
ava 4958
ee 4958
zia 4955
OS 4947
Peru 4944
Harry 4943
Z 4943
obi@@ 4941
SS 4940
17@@ 4937
res@@ 4932
els 4931
Py@@ 4929
International 4928
tis@@ 4928
IS@@ 4926
ilidae 4925
itz 4919
arc@@ 4917
uz@@ 4915
pe 4914
Sav@@ 4909
1.000 4908
atha 4908
Dic@@ 4903
1897 4897
kil@@ 4895
700 4894
gi 4892
ặm 4892
Nigeria 4891
It 4889
kin 4888
nom@@ 4887
Tan@@ 4885
W. 4883
well 4883
vic@@ 4882
1899 4880
Pre@@ 4878
1902 4877
iki 4875
til@@ 4874
ilus 4873
Les@@ 4872
Madrid 4867
ain 4864
120 4862
Serie 4861
Elizabeth 4859
Shar@@ 4859
Fi@@ 4857
vel@@ 4857
bit 4849
Aquitaine 4847
ton@@ 4838
Ran@@ 4836
micro@@ 4818
uki 4818
emia 4815
lati@@ 4810
we@@ 4805
Sor@@ 4804
Euphor@@ 4803
icola 4803
ém 4803
dec@@ 4802
vay 4801
Ú@@ 4794
Ecuador 4793
ū@@ 4785
yum 4782
Premier 4779
Air 4769
1896 4765
ap 4763
ichi 4763
Tour 4758
sé@@ 4758
je@@ 4749
Pic@@ 4748
Sho@@ 4743
Vil@@ 4741
aen@@ 4734
Hier@@ 4731
guitar 4731
eur@@ 4730
Chrys@@ 4728
Carl 4726
DC 4725
ylo@@ 4722
* 4721
Dis@@ 4710
ca@@ 4708
Milan 4707
ho 4707
ock 4704
Tai 4702
Lincoln 4696
Kon@@ 4695
fasci@@ 4691
ful@@ 4690
sem@@ 4689
Ả@@ 4684
ừ 4684
arius 4683
Chelsea 4682
ố@@ 4678
ero 4676
ika 4673
1901 4672
ista 4668
ity 4663
ocer@@ 4654
Cur@@ 4651
ogr@@ 4651
Pap@@ 4650
din@@ 4647
Hay@@ 4641
Records 4640
ath 4637
~ 4635
ū 4633
ç@@ 4630
Ga 4624
Austral@@ 4623
antes 4622
ecia 4622
Johnson 4619
Mot@@ 4616
10.@@ 4611
bal@@ 4609
Bos@@ 4607
Dem@@ 4593
him 4591
Ô@@ 4591
not@@ 4590
ein@@ 4589
ks 4589
Red 4588
In 4587
eu@@ 4583
hin@@ 4581
ington 4579
1,5 4577
end 4577
fur@@ 4577
ny 4568
Fri@@ 4567
mas@@ 4566
1894 4563
TP 4560
uk 4558
Chlor@@ 4557
Pel@@ 4555
Ngh@@ 4551
Arkansas 4548
mes@@ 4548
ster 4546
atra 4543
with 4539
hir@@ 4535
DVD 4532
Ker@@ 4530
arr@@ 4527
Ban@@ 4526
Town 4525
Stalin 4520
odi@@ 4519
dor@@ 4517
Dav@@ 4514
ati 4513
ales 4511
say 4506
ole 4504
dem@@ 4502
Lor@@ 4500
name 4500
ẵn 4499
enz@@ 4495
Ra@@ 4493
uca 4488
ef@@ 4487
avi@@ 4486
dii 4485
Michigan 4480
Italia 4479
Occitanie 4479
ord@@ 4477
go 4475
adi 4472
AC 4467
Che@@ 4466
Star@@ 4465
yo 4463
Frank 4461
mic@@ 4461
Ele@@ 4460
So 4460
osia 4459
Liverpool 4450
Game 4447
Da@@ 4445
ham@@ 4445
aly@@ 4443
Rhône 4440
oxide 4437
ff 4435
anga 4427
hum@@ 4427
Pil@@ 4423
hydro@@ 4422
Arthur 4420
250 4418
Nobel 4414
Tetr@@ 4409
dion 4409
ais 4408
NH@@ 4406
bin 4403
Wat@@ 4401
ise 4401
Mand@@ 4398
Tri 4397
UB@@ 4395
Fran@@ 4388
Ox@@ 4386
Dal@@ 4385
Taylor 4381
CO@@ 4380
Dan@@ 4379
Pyr@@ 4379
ụi 4379
etta 4378
Maz@@ 4374
YouTube 4369
Steph@@ 4367
illar@@ 4362
Croatia 4360
dy 4360
Dev@@ 4348
Tel@@ 4344
mil@@ 4344
CL@@ 4342
ight 4341
ovich 4341
Je@@ 4336
amm@@ 4333
Í@@ 4333
iidae 4332
Gray 4327
iri 4323
san@@ 4322
rop@@ 4320
Fer@@ 4317
Nouvelle 4315
ellidae 4309
1889 4308
oga 4304
Pri@@ 4303
Gl@@ 4297
Wi@@ 4297
Brom@@ 4296
Sul@@ 4295
1890 4294
xen 4293
illi@@ 4292
eda 4291
Pit@@ 4289
wood 4288
Spar@@ 4285
macro@@ 4285
V. 4279
Lept@@ 4275
ẽ@@ 4273
mé@@ 4269
low 4265
ence 4264
Haw@@ 4262
Dre@@ 4257
Columbia 4256
inger 4254
Times 4253
Real 4247
ins 4247
Hom@@ 4236
ophora 4235
trop@@ 4235
American 4233
Jack 4225
uv@@ 4223
Slovakia 4222
umi 4218
carbon 4217
vo@@ 4212
vari@@ 4207
Star 4202
istr@@ 4199
amo@@ 4198
ken@@ 4197
anes 4196
eck@@ 4195
Yo@@ 4194
ini@@ 4192
Beg@@ 4191
Mim@@ 4187
Shin@@ 4183
ites 4179
Win@@ 4177
PC 4175
gin@@ 4175
bil@@ 4174
pen@@ 4172
23@@ 4169
iko 4168
ck 4166
Anti@@ 4163
tor 4162
Jones 4161
ille 4160
Apple 4157
cop@@ 4157
Fe@@ 4155
onom@@ 4154
Sand@@ 4152
AR@@ 4149
ake 4149
HMS 4148
anian 4147
ceph@@ 4147
lor@@ 4142
26@@ 4140
Nik@@ 4139
ste@@ 4138
Reg@@ 4137
yn 4133
Bat@@ 4129
3D 4128
Orth@@ 4126
Fal@@ 4125
tro 4116
nu@@ 4115
ish 4113
TH@@ 4112
aba 4111
1885 4109
Albert 4109
bo 4109
olus 4109
pseud@@ 4106
oba 4101
Latin 4100
melan@@ 4100
Inter@@ 4098
Oxy@@ 4098
sur@@ 4097
way 4095
• 4095
Sri 4094
han 4094
kr@@ 4090
Tom 4089
Tre@@ 4085
nhu@@ 4083
Kas@@ 4080
− 4079
umb@@ 4078
pin 4077
ico 4073
Agr@@ 4069
series 4068
Pod@@ 4067
tamb@@ 4065
Got@@ 4064
Ble@@ 4063
10.000 4059
Bay@@ 4059
stein 4059
Wilhelm 4058
Mik@@ 4056
Gir@@ 4054
sey 4054
ory 4050
hiệ@@ 4048
olep@@ 4047
Vel@@ 4042
mb@@ 4041
Var@@ 4039
Fo@@ 4038
Kaz@@ 4038
bon@@ 4035
SE@@ 4034
New@@ 4031
zi 4031
Pin@@ 4029
Rho@@ 4029
Club 4024
UNESCO 4024
12,@@ 4023
Wood@@ 4023
nam@@ 4022
anda 4019
Ari@@ 4017
ings 4016
Big 4014
Java 4014
ui 4014
Bul@@ 4012
pith@@ 4012
10,@@ 4011
1878 4011
NGC 4010
Hed@@ 4009
wal@@ 4009
11.@@ 4007
Hymen@@ 4005
Cir@@ 4004
pus 4000
Williams 3999
inter@@ 3996
Syn@@ 3994
May@@ 3990
tru@@ 3989
aeus 3980
CN@@ 3965
ew@@ 3963
ett@@ 3961
Vir@@ 3960
sor@@ 3960
Pseudo@@ 3958
ocar@@ 3958
ett 3957
isch@@ 3957
ı@@ 3953
ę@@ 3952
Trump 3951
ry 3950
plen@@ 3947
Awards 3945
IC@@ 3943
Vit@@ 3942
tera 3940
Tit@@ 3937
Dom@@ 3936
GDP 3934
roc@@ 3934
vin@@ 3931
1870 3927
27@@ 3927
Dur@@ 3926
ines 3926
Bang@@ 3924
Bon@@ 3918
Mich@@ 3912
Sun@@ 3912
any@@ 3910
pat@@ 3908
sz@@ 3908
2.000 3907
Congo 3907
cher 3903
spin@@ 3901
AN 3900
Ed@@ 3898
Bag@@ 3897
Ober@@ 3889
MTV 3888
2,5 3886
Bourgogne 3886
CA@@ 3885
ria 3878
Hauts 3870
nhiễ@@ 3869
tiế@@ 3868
Calli@@ 3864
White 3863
Eugène 3862
err@@ 3859
Rock 3856
Cha@@ 3855
ylon 3852
Brit@@ 3850
Med@@ 3850
imb@@ 3850
onn@@ 3850
Pres@@ 3848
ros 3848
Amp@@ 3844
amin 3841
osoma 3841
Bry@@ 3838
Ga@@ 3837
xi 3837
rit@@ 3831
Marie 3830
win 3830
Ven@@ 3827
ame 3825
kii 3825
Eng@@ 3824
nem@@ 3824
Young 3821
Thom@@ 3819
ú@@ 3815
our 3814
abilis 3813
Rio 3795
Time 3791
esi@@ 3787
jo 3786
dol@@ 3785
oon 3784
Hon@@ 3783
oid 3783
ume 3781
alum 3779
gium 3779
Brown 3778
Cher@@ 3773
Normandie 3773
wi@@ 3771
Shim@@ 3770
Macedonia 3769
ji@@ 3768
reg@@ 3768
anna 3767
aux 3762
mos@@ 3761
atia 3757
acc@@ 3756
uni@@ 3756
Lar@@ 3754
Haute 3752
đo@@ 3752
AC@@ 3750
Moore 3748
phosph@@ 3748
fer 3745
hor@@ 3745
ska 3742
Ther@@ 3741
feet 3741
odon@@ 3741
ray 3738
cola 3736
rol@@ 3735
Amar@@ 3732
otes 3732
1893 3725
mol@@ 3725
Green@@ 3723
MiG 3723
Pierre 3720
Bru@@ 3708
oli@@ 3706
che@@ 3704
Costa 3703
Carolina 3702
bat@@ 3702
ther 3701
play 3700
esti@@ 3699
Algérie 3698
Ach@@ 3697
arm@@ 3696
1859 3695
Mid@@ 3695
Panama 3694
tile 3692
Kom@@ 3690
ka@@ 3689
hab@@ 3688
leri 3684
Om@@ 3681
Cand@@ 3680
Wor@@ 3679
Scott 3677
yla 3675
Sax@@ 3672
Voivodeship 3672
Bus@@ 3666
Euro 3666
podium 3662
Chicago 3661
brach@@ 3660
Dam@@ 3657
zo 3657
tt@@ 3656
Wo@@ 3655
1882 3652
Lat@@ 3649
eto 3649
28@@ 3647
Tam@@ 3644
Pach@@ 3638
ep 3637
1886 3636
ừu 3636
VII 3633
ado 3633
bach 3633
electr@@ 3633
Ta 3632
Arch@@ 3630
ith 3628
11,@@ 3624
São 3624
Boston 3623
din 3623
XX 3622
Kav@@ 3620
Ci@@ 3619
AN@@ 3615
Lanka 3615
brun@@ 3614
Wilson 3613
rap@@ 3613
fo@@ 3612
Julius 3610
tim@@ 3608
Daniel 3603
kan@@ 3603
Bou@@ 3601
N.@@ 3601
sam@@ 3598
Maur@@ 3597
ś@@ 3596
plat@@ 3595
Arc@@ 3591
Indiana 3588
Kenya 3586
Walter 3585
prot@@ 3583
lav 3582
mont 3582
1880 3581
Pa 3581
int@@ 3579
She@@ 3578
Comté 3577
ilia 3577
Gro@@ 3576
bin@@ 3574
coc@@ 3573
Franche 3572
Black@@ 3570
rh@@ 3568
1875 3566
1888 3565
hynch@@ 3565
Dec@@ 3564
Ren@@ 3563
gal@@ 3561
ash 3560
solo 3560
apur 3559
Show 3558
flor@@ 3555
All 3553
yu 3552
Acanth@@ 3551
Oli@@ 3550
etes 3549
Napoléon 3541
1860 3540
ễ@@ 3538
land@@ 3537
oride 3536
Ever@@ 3535
CD@@ 3534
Live 3533
Chik@@ 3532
kin@@ 3532
Lac@@ 3531
The@@ 3531
XIX 3527
actylus 3526
hol@@ 3526
Gom@@ 3525
Mul@@ 3522
aro 3521
National 3520
1871 3518
ebr@@ 3518
Night 3517
thia 3516
CN 3513
Hollywood 3513
ars 3510
bert 3508
Uganda 3506
EP 3504
ợn 3503
Boh@@ 3502
BS 3500
Gy@@ 3499
TS 3496
atidae 3496
29@@ 3493
lus 3493
jo@@ 3485
lad@@ 3485
MV 3484
Lis@@ 3483
Anne 3481
Gru@@ 3481
lut@@ 3481
eil@@ 3478
ken 3478
lea 3478
les@@ 3478
Cel@@ 3477
pur 3477
ill 3476
emb@@ 3475
mia 3475
skie 3470
Mos@@ 3469
BBC 3468
elis 3468
sum@@ 3464
Hill 3463
3.000 3461
wan@@ 3461
ơ@@ 3461
1879 3460
eti 3460
sten@@ 3460
bus 3457
à@@ 3453
Som@@ 3452
mot@@ 3450
uf@@ 3450
ier 3449
ệnh 3447
Ing@@ 3446
Li 3445
chlor@@ 3441
Ja@@ 3440
emon 3440
11@@ 3438
ack@@ 3438
fera 3438
IN@@ 3437
Barcelona 3435
vol@@ 3434
Group 3433
UF@@ 3432
Vor@@ 3430
aus 3428
Media 3427
bar 3425
AT@@ 3423
Ju@@ 3423
istan 3422
ủ@@ 3422
hiên 3418
Vo@@ 3417
igh@@ 3417
oth 3417
SA@@ 3414
ị@@ 3407
By@@ 3406
Cham@@ 3402
eon@@ 3402
Okinawa 3400
Dy@@ 3397
Lab@@ 3397
net 3395
onal@@ 3393
asp@@ 3392
ver 3390
agin@@ 3386
cre@@ 3382
12.@@ 3380
Bri@@ 3380
my@@ 3377
nit@@ 3377
Buc@@ 3376
Grammy 3375
40@@ 3374
evich 3374
AS 3373
line@@ 3373
Hen@@ 3370
bos@@ 3367
1887 3366
1883 3365
Tal@@ 3360
1892 3359
Anna 3354
Im@@ 3352
ọa 3352
Fab@@ 3351
Nam@@ 3350
1869 3349
Airlines 3344
1873 3343
Rap@@ 3341
nis 3341
1884 3339
ets 3339
town 3336
plex 3335
Wang 3333
bra 3333
him@@ 3333
180 3332
Go 3330
han@@ 3330
Nat@@ 3328
dong 3328
Games 3327
oll@@ 3326
Perry 3325
Warsaw 3321
lip@@ 3321
Blue 3316
bro@@ 3316
nik 3316
orn@@ 3315
ı 3315
N. 3311
Pon@@ 3311
INE 3310
piano 3310
azi@@ 3302
Arsenal 3300
oku 3300
grandi@@ 3299
aff@@ 3298
ở@@ 3297
130 3296
las@@ 3295
row 3294
Boeing 3293
IM@@ 3293
Pau@@ 3293
nor@@ 3292
illo 3291
‘ 3291
Nem@@ 3290
Leg@@ 3289
sit@@ 3286
Asp@@ 3285
Wol@@ 3284
Aph@@ 3280
ć 3279
iscus 3276
1866 3275
Beau@@ 3274
Cambridge 3271
Myanmar 3271
Corn@@ 3265
from 3257
ostr@@ 3257
Max 3255
n. 3255
op 3255
Clu@@ 3251
tam@@ 3248
1864 3247
ée 3246
als 3243
phil@@ 3243
ń@@ 3238
alt@@ 3237
900 3234
1877 3233
Gil@@ 3233
soni 3233
uke 3233
Belarus 3232
AM@@ 3231
dis 3230
obr@@ 3229
Christian 3228
Ig@@ 3228
enc@@ 3228
kov@@ 3228
udi@@ 3228
ồm 3227
gic 3225
lac@@ 3225
po 3224
1876 3222
13,@@ 3221
Fle@@ 3221
Pom@@ 3221
form@@ 3221
ık 3221
Palestine 3219
Jan@@ 3218
1838 3216
Heli@@ 3214
RNA 3214
ike 3214
ace 3213
ow 3211
110 3208
top@@ 3205
ois 3203
vis 3203
Plan@@ 3202
Spe@@ 3200
1861 3198
esta 3197
won 3197
ö@@ 3197
wo@@ 3195
O.@@ 3194
.com 3192
ław 3192
pa@@ 3191
ron@@ 3190
alp@@ 3187
Hal 3184
Austr@@ 3183
Fin@@ 3183
Alo@@ 3182
alar@@ 3181
Massachusetts 3180
Sat@@ 3180
py@@ 3177
US 3172
Model 3166
1867 3165
.-@@ 3162
US@@ 3161
eon 3160
Bac@@ 3159
Call@@ 3158
Centr@@ 3157
Ant@@ 3156
kl@@ 3155
Island 3154
Life 3148
opa 3148
unda 3146
Championship 3144
meg@@ 3144
Rol@@ 3143
hit 3143
1868 3141
Bay 3140
VIII 3139
Gly@@ 3137
Spr@@ 3137
1881 3135
agu@@ 3134
chl@@ 3134
Rus@@ 3129
1874 3128
bit@@ 3127
Sau@@ 3126
Juan 3125
1863 3124
Aster@@ 3123
ave 3123
Petr@@ 3121
Dun@@ 3119
pre@@ 3117
lí@@ 3116
UN@@ 3115
MA 3114
Mach@@ 3114
ingen 3112
Madagascar 3111
ě@@ 3110
Kos@@ 3109
Rid@@ 3108
Tanzania 3105
Nad@@ 3104
heim 3104
Mun@@ 3101
bes@@ 3101
omor@@ 3101
ido 3100
fu@@ 3098
MC 3096
leuc@@ 3096
chn@@ 3095
ais@@ 3094
ophy@@ 3092
out 3091
Aeg@@ 3090
Red@@ 3089
eleg@@ 3089
ein 3086
Gh@@ 3083
Nic@@ 3082
gan@@ 3081
XIII 3078
opera 3078
inum 3073
Nepal 3072
Roc@@ 3072
SA 3072
Sti@@ 3071
yon@@ 3066
isia 3064
uh@@ 3064
Khan 3061
eff@@ 3061
Jordan 3060
ome@@ 3060
Gun@@ 3059
IX 3059
DS 3058
rup@@ 3057
Marshall 3056
osh@@ 3056
mand@@ 3055
É@@ 3055
Hat@@ 3054
Nu@@ 3052
Mart@@ 3050
ple@@ 3050
Ah@@ 3049
Bir@@ 3048
Kong 3048
ère 3047
Rem@@ 3044
eca 3044
101 3043
ail@@ 3042
app@@ 3041
tour 3037
acul@@ 3033
Ghana 3032
wo 3031
vis@@ 3030
ide@@ 3026
Cent@@ 3024
imus 3024
1850 3023
Web@@ 3022
Ken@@ 3021
Bak@@ 3020
Brun@@ 3020
Ten@@ 3019
our@@ 3016
aden@@ 3014
ega 3014
Sudan 3013
Samsung 3012
Albania 3011
trans@@ 3011
tem@@ 3010
sburg 3008
Hos@@ 3007
gro@@ 3007
eth 3004
Aur@@ 3003
nes 3003
Da 3002
obs@@ 3001
lem@@ 2999
Thor@@ 2998
sar@@ 2997
etus 2996
Mis@@ 2995
evi@@ 2994
rag@@ 2988
wer@@ 2988
José 2986
Green 2984
1.0@@ 2983
Royal 2983
fic@@ 2983
ui@@ 2983
đu@@ 2982
enes 2981
vul@@ 2981
Had@@ 2980
Vin@@ 2980
art@@ 2979
èze 2979
gris@@ 2978
rem@@ 2978
anah@@ 2973
ymn@@ 2970
CH 2967
All@@ 2965
1862 2964
Yang 2964
ishi 2962
Kin@@ 2961
80@@ 2960
Sir@@ 2957
Hassan 2956
sea 2953
Yok@@ 2951
1865 2950
set 2948
ST@@ 2946
köy 2946
Hong 2945
SM 2942
SC 2940
Sí@@ 2939
pap@@ 2939
Cav@@ 2937
ếc 2935
Rose 2933
BC 2931
ech 2929
ju 2929
ą@@ 2929
Ra 2927
fan 2927
14,@@ 2926
Kl@@ 2926
Max@@ 2926
Š@@ 2925
Ali@@ 2923
León 2923
Nom@@ 2923
Vas@@ 2923
lu 2923
dius 2921
Davis 2919
Hav@@ 2918
PT 2918
ube 2917
ì@@ 2917
Kus@@ 2916
East 2914
Romania 2914
lar 2912
Soc@@ 2911
nic@@ 2911
Auvergne 2910
F.C. 2910
Sam 2910
100.000 2909
ail 2906
Van@@ 2904
hom@@ 2904
ku 2903
Chris 2902
Val 2902
1858 2901
rey 2901
MS 2900
osaurus 2899
ylus 2898
Cass@@ 2897
Him@@ 2897
Apo@@ 2896
Fair@@ 2896
idea 2895
Lom@@ 2893
Tok@@ 2893
Yu@@ 2893
1848 2892
Ali 2892
Kab@@ 2892
omys 2892
aster 2891
PS@@ 2887
fal@@ 2885
itis 2885
Raj@@ 2883
esh@@ 2883
Ful@@ 2882
Stone 2882
Kad@@ 2881
Su 2881
Mi 2880
gran@@ 2880
len 2877
1840 2875
Stand@@ 2875
cos@@ 2875
agr@@ 2874
ison 2874
Pir@@ 2871
Day 2868
art 2866
Bern@@ 2863
I.@@ 2862
ado@@ 2859
Loc@@ 2858
kal@@ 2856
van@@ 2856
yne 2856
ä@@ 2855
usia 2854
ves 2852
amer@@ 2851
Gol@@ 2846
oton 2846
Sony 2844
Sid@@ 2843
ass 2843
Lake 2842
Lewis 2842
esa 2841
Norfolk 2840
Pand@@ 2840
Chap@@ 2839
meth@@ 2839
ér@@ 2839
Rich@@ 2838
ờ@@ 2838
Ethiopia 2836
Puerto 2834
d. 2834
mus 2834
Little 2831
Liga 2829
NATO 2828
enta 2828
ju@@ 2826
show 2826
luy@@ 2825
News 2822
aun@@ 2822
GP 2819
Bil@@ 2818
Tat@@ 2818
Yos@@ 2818
Ann@@ 2817
ưới 2817
aqu@@ 2813
dig@@ 2811
uchi 2811
oy 2810
Tol@@ 2808
ịu 2806
thor@@ 2805
Sas@@ 2802
was 2802
Company 2801
acet@@ 2800
alan@@ 2800
ont@@ 2799
1857 2798
Wall@@ 2797
hel@@ 2792
oti@@ 2792
pter@@ 2792
50@@ 2790
Kum@@ 2790
lei 2790
West@@ 2788
nea 2788
ás 2788
Scot@@ 2785
3,5 2784
chus 2784
rel@@ 2784
tak@@ 2784
1830 2782
Krak@@ 2782
Norman 2781
Amph@@ 2780
ş@@ 2780
kor@@ 2779
Nes@@ 2778
XII 2778
log@@ 2777
ya@@ 2777
lie 2776
Douglas 2775
Sydney 2775
dev@@ 2775
Fox 2774
Kob@@ 2774
Allen 2772
Georgia 2772
ider 2769
Mikha@@ 2768
agar 2768
has@@ 2768
igu@@ 2767
Caribe 2766
roi 2763
Dich@@ 2761
die 2761
Hid@@ 2758
WWE 2757
oka 2754
cula 2752
CS 2751
Ere@@ 2751
Oregon 2751
mul@@ 2751
ram@@ 2751
1854 2750
uss@@ 2750
College 2747
Hum@@ 2747
wan 2745
mod@@ 2744
viol@@ 2744
Kim@@ 2743
ocy@@ 2743
Franklin 2742
Dou@@ 2741
amin@@ 2740
amus 2740
iga 2740
Alexand@@ 2739
20.000 2738
Lap@@ 2738
Tum@@ 2737
assi@@ 2736
mir@@ 2735
amine 2734
ris 2734
Cape 2732
ras@@ 2732
1836 2730
imp@@ 2730
oo 2730
160 2729
Cin@@ 2727
ston 2727
dal@@ 2726
Bec@@ 2725
Can 2725
we 2725
Ludwig 2724
Hall 2723
Joe 2723
ky@@ 2722
Boy 2721
RA@@ 2721
itch 2721
margin@@ 2721
Bank 2719
Bau@@ 2719
Ny@@ 2719
lı 2719
urn@@ 2718
able 2716
enberg 2716
140 2715
Phan@@ 2714
idi 2714
utt@@ 2714
mis 2713
na@@ 2713
usti@@ 2712
Miy@@ 2711
bury 2711
Ster@@ 2710
Au@@ 2707
dan@@ 2707
chen@@ 2705
tol@@ 2705
· 2704
18@@ 2702
XIV 2701
1849 2699
Bill 2699
ES@@ 2698
Abr@@ 2695
Chart 2695
wat@@ 2695
Rub@@ 2694
America 2693
amoto 2693
uka 2693
PA 2690
eno 2690
aku 2687
Mam@@ 2686
achi 2686
ø@@ 2686
icia 2684
Azerbaijan 2683
35@@ 2680
Moon 2680
Seine 2680
LGBT 2679
Och@@ 2678
Lav@@ 2677
Ric@@ 2677
Af@@ 2676
Bangladesh 2676
ges 2675
ž@@ 2675
Laur@@ 2674
Kn@@ 2672
Android 2671
ater 2669
stri@@ 2669
CC@@ 2668
DE 2667
Pro 2667
Din@@ 2666
king 2666
1841 2664
Tem@@ 2664
Eugen@@ 2663
Fun@@ 2663
mari@@ 2660
over 2659
sun@@ 2659
1872 2658
Acro@@ 2658
kon@@ 2658
ướp 2658
Phili@@ 2657
ș@@ 2657
Bet@@ 2656
Dubai 2656
bis@@ 2654
It@@ 2652
CM 2651
Lan@@ 2651
p. 2648
Carlos 2647
Constant@@ 2647
60@@ 2643
1851 2642
Res@@ 2642
heter@@ 2641
ij@@ 2641
Bud@@ 2640
ré@@ 2639
Henri 2638
iger 2637
Jer@@ 2635
avia 2633
Linux 2632
Gold@@ 2631
Prim@@ 2631
PlayStation 2630
Bengal 2629
esp@@ 2629
Sag@@ 2628
port 2628
ẹ 2627
eton 2626
Gam@@ 2625
Pad@@ 2625
Pradesh 2625
Facebook 2624
Rac@@ 2624
yon 2623
ble 2620
zon@@ 2620
Jersey 2619
iss 2619
FI@@ 2618
isi 2618
nung 2618
pora 2618
eros 2617
ğ@@ 2616
1846 2615
Hex@@ 2614
pau@@ 2614
ski@@ 2614
hao 2613
phen@@ 2613
ứu 2613
NS@@ 2612
Will@@ 2612
eman 2610
Est@@ 2606
200@@ 2605
Chil@@ 2605
gel@@ 2605
pi 2605
sch 2603
Schum@@ 2602
ors 2602
Camer@@ 2601
Super@@ 2601
Corporation 2600
Eul@@ 2600
Bad@@ 2599
hem@@ 2597
Ok@@ 2595
agi 2595
Shir@@ 2594
Hop@@ 2592
ges@@ 2592
Street 2589
dera 2588
ics 2588
itz@@ 2588
Queen 2587
Fir@@ 2585
Iceland 2585
iner@@ 2585
Bot@@ 2583
lov@@ 2582
umin@@ 2582
ns 2581
Rud@@ 2580
AD@@ 2579
1753 2578
c. 2578
Sig@@ 2577
jin 2577
ente 2576
Adam 2575
Francis 2575
multi@@ 2574
yna 2573
Gel@@ 2572
Rica 2571
Air@@ 2570
British 2569
Sk@@ 2567
ń 2565
Cot@@ 2564
ades 2564
under@@ 2564
Bes@@ 2560
BT 2558
brevi@@ 2558
Maj@@ 2556
Son@@ 2556
abis 2556
Anderson 2554
Mike 2553
ino@@ 2552
phot@@ 2549
wil@@ 2549
anot@@ 2548
Clar@@ 2547
1844 2545
Hap@@ 2545
Uz@@ 2545
radio 2545
alis@@ 2544
hat@@ 2544
onis 2544
neg@@ 2543
onica 2543
ovo 2543
ult@@ 2543
Sloven@@ 2542
flu@@ 2542
Jan 2541
Sher@@ 2540
ag 2540
agan 2536
cio 2536
Andrew 2534
Marne 2534
sum 2534
Swift 2533
pot@@ 2533
Team 2532
orr@@ 2532
Chry@@ 2531
Rec@@ 2531
old 2530
öy 2530
dan 2528
13.@@ 2526
simil@@ 2526
ily 2525
vu 2525
15,@@ 2523
Philip 2523
Best 2521
macul@@ 2521
1853 2520
Cour@@ 2520
issa 2520
yan 2520
1845 2519
Mec@@ 2517
Whit@@ 2517
350 2516
equ@@ 2516
ron 2516
St 2514
atri@@ 2513
ecta 2513
ogen 2513
arch@@ 2511
codice 2511
Pedro 2508
onium 2508
vin 2507
Hit@@ 2506
Open 2506
mis@@ 2506
oli 2506
sei 2506
aine 2505
gn@@ 2505
agen 2502
County 2501
王 2501
Lang@@ 2500
som@@ 2500
ith@@ 2498
ợt 2498
ento 2497
iden 2497
Merr@@ 2495
Sap@@ 2494
omer@@ 2494
Schw@@ 2493
prop@@ 2492
ret@@ 2491
Antonio 2490
je 2490
Bit@@ 2489
Sachsen 2489
ỏ@@ 2489
SO@@ 2487
dre@@ 2487
Vic@@ 2486
Ki 2485
Aer@@ 2484
Alaska 2484
proc@@ 2484
Otto 2483
bs 2483
Grande 2482
Slam 2482
neutr@@ 2482
fa 2481
ulu 2480
Arist@@ 2477
single 2475
School 2473
mit@@ 2469
seudo@@ 2468
Dod@@ 2467
asis 2467
Lawrence 2466
Sun 2466
Lenin 2464
V.@@ 2463
XI 2463
Ceph@@ 2462
AT 2461
Has@@ 2461
Ze@@ 2460
olo 2460
phon@@ 2460
4.000 2459
ATP 2458
Philadelphia 2458
kur 2458
Paulo 2457
ats@@ 2457
centr@@ 2457
Conn@@ 2453
Studios 2453
tz 2453
AB@@ 2452
Wit@@ 2451
estes 2451
Frederick 2449
Hok@@ 2449
ion@@ 2449
enus 2447
ưở@@ 2447
ử@@ 2447
Alli@@ 2446
Uruguay 2446
dus 2446
owski 2446
omi 2443
lit@@ 2442
nan@@ 2442
Gon@@ 2441
ec 2441
Hot@@ 2440
ben@@ 2440
Ố@@ 2440
Adams 2438
onne 2438
tw@@ 2438
Ō@@ 2438
gio 2437
Great 2436
dea 2436
ầng 2436
Bolivia 2435
Tos@@ 2434
yer@@ 2434
Kil@@ 2433
Donald 2432
Hamilton 2432
ote 2432
any 2429
aud@@ 2429
ský 2428
oke 2427
37@@ 2426
worth 2426
105 2424
Domin@@ 2424
anz@@ 2423
Ley@@ 2422
lon 2421
Girls 2420
esis 2420
Aul@@ 2419
bir@@ 2418
tos@@ 2417
Ukraine 2416
Bran@@ 2415
ning 2415
Stephen 2413
Ax@@ 2411
Rico 2410
onius 2410
16,@@ 2409
Tir@@ 2409
enko 2408
leg@@ 2408
DD 2407
Ye@@ 2406
ast 2406
Pent@@ 2404
Si 2404
Galaxy 2403
Tec@@ 2402
side 2402
Mk 2401
ons@@ 2400
line 2399
pros@@ 2399
Wimbledon 2398
Mang@@ 2397
Pet@@ 2397
SP@@ 2397
Dj@@ 2395
Kazakhstan 2391
ịa 2390
Hamp@@ 2389
eva 2387
sec@@ 2386
Queensland 2385
Pokémon 2383
pid@@ 2383
Rome 2381
Land@@ 2380
AM 2379
Mill@@ 2379
Quer@@ 2379
XVI 2379
bius 2379
ball@@ 2378
Centre 2377
Sed@@ 2376
Vill@@ 2376
360 2375
kat@@ 2374
oro 2374
sin 2373
amar@@ 2372
Lag@@ 2370
atin 2370
enzyme 2370
ouv@@ 2370
ński 2370
Key@@ 2369
mus@@ 2368
asi 2367
Côte 2366
Dragon 2366
Ji@@ 2366
dri@@ 2366
gy@@ 2365
sson 2365
sty@@ 2365
Marx 2364
Hog@@ 2363
gol@@ 2363
imm@@ 2363
GB 2362
ix@@ 2362
Ot@@ 2361
taria 2361
Ł@@ 2361
Ball@@ 2360
Boy@@ 2360
owo 2358
fe@@ 2354
rain 2354
key 2353
aug@@ 2351
quin@@ 2351
illus 2350
Vladimir 2349
gas@@ 2347
hut@@ 2347
illy 2346
Bed@@ 2345
AA 2344
ting 2344
CS@@ 2342
dam@@ 2341
dar@@ 2341
bri@@ 2340
Hun@@ 2339
Rod@@ 2338
itus 2337
RI@@ 2336
oug@@ 2335
Dig@@ 2334
elli@@ 2334
House 2333
Libya 2333
Osaka 2333
NO@@ 2332
Rick 2332
bal 2332
vo 2332
esch@@ 2331
kins 2331
thon 2329
Bob 2328
Newton 2328
pos 2328
Kot@@ 2327
1856 2326
emp@@ 2326
Mississippi 2325
Pur@@ 2325
36@@ 2324
Papua 2324
aja 2324
Ben 2322
Schmidt 2322
125 2321
Rot@@ 2319
ban@@ 2319
not 2319
PS 2316
andi@@ 2316
low@@ 2314
Xen@@ 2313
niti@@ 2313
Union 2312
Barn@@ 2311
Les 2311
ode 2310
cú@@ 2308
Pul@@ 2307
Tas@@ 2307
ante 2307
14.@@ 2306
Bom@@ 2306
Liv@@ 2305
wa@@ 2304
大@@ 2304
euro 2303
ident@@ 2303
Pfalz 2302
aman 2302
elius 2301
eller 2299
Muhammad 2298
Luz@@ 2297
k. 2297
CA 2296
Peter@@ 2296
rier 2296
icon 2295
tra@@ 2295
Hus@@ 2294
vu@@ 2294
17,@@ 2293
Creek 2292
Sad@@ 2292
General 2291
Tw@@ 2291
more 2291
Stan@@ 2290
quadr@@ 2290
Bad 2288
atis@@ 2288
AFC 2287
Girl 2287
court 2287
mur@@ 2287
Champ@@ 2285
eira 2285
Gregory 2283
Rab@@ 2283
Alfred 2280
rac@@ 2279
Bangkok 2278
nov@@ 2278
Ẩ@@ 2278
Roger 2277
Aus@@ 2276
Solomon 2276
ical 2275
khan 2274
cic@@ 2273
Malta 2272
On 2272
luc@@ 2272
eau 2271
teri@@ 2271
xy@@ 2271
Series 2270
nat@@ 2270
plic@@ 2270
Lec@@ 2269
mo 2269
tiv@@ 2269
uni 2268
pec@@ 2267
IS 2266
Jamaica 2266
North@@ 2266
ket 2266
aut@@ 2263
fil@@ 2263
Phy@@ 2262
website 2260
hii 2259
ún 2259
AI@@ 2258
los 2258
Yel@@ 2257
6.000 2256
Yak@@ 2254
dh@@ 2252
Port 2251
austr@@ 2251
NE@@ 2249
mg 2249
mini 2247
Wikipedia 2245
Aqu@@ 2244
ingi@@ 2244
teri 2244
Lady 2243
min 2242
1847 2241
abe 2241
gly@@ 2241
EU 2237
Blo@@ 2235
Sultan 2234
Catherine 2233
ters 2232
Wes@@ 2231
ara@@ 2231
Ś@@ 2230
aro@@ 2229
Alice 2228
120@@ 2227
aru 2227
Ford 2226
Od@@ 2226
wich 2226
Cuc@@ 2224
HIV 2224
oko 2224
Arm@@ 2223
amia 2223
Chen 2222
Hip@@ 2221
sep@@ 2220
Center 2219
Zo@@ 2219
Buch@@ 2217
Steve 2217
hat 2216
ulum 2212
kali 2211
eki 2210
mut@@ 2210
Chel@@ 2209
Gas@@ 2209
Linn@@ 2209
1,2 2208
Radio 2208
Berg@@ 2206
uro 2206
Clark 2205
Fon@@ 2205
Gul@@ 2204
ope 2204
MP@@ 2203
etz@@ 2203
pent@@ 2203
Jung 2202
ange 2202
Harvard 2201
Margaret 2201
fin@@ 2201
Fro@@ 2199
up 2199
section 2198
1837 2197
formes 2197
Syr@@ 2196
ds 2195
eger 2195
Herbert 2194
Inc. 2194
ated 2194
alg@@ 2193
wen@@ 2193
Bis@@ 2192
CBS 2190
Vati@@ 2190
Cab@@ 2188
Guadal@@ 2187
feld 2187
lio 2187
omy@@ 2187
1833 2186
Chir@@ 2186
Pass@@ 2186
Sir 2186
Vis@@ 2186
ean 2186
mati@@ 2186
plan@@ 2185
Lon@@ 2184
zh@@ 2184
Ich@@ 2182
but@@ 2182
1842 2181
Alabama 2181
psych@@ 2181
ump@@ 2181
Jerusalem 2180
Yemen 2180
Gau@@ 2179
Howard 2179
anger 2179
Jung@@ 2178
Kaw@@ 2178
orro 2178
Bow@@ 2177
sta@@ 2177
Sicilia 2175
Gn@@ 2174
IC 2172
TC 2171
45@@ 2170
Alexandria 2169
Schleswig 2169
Estonia 2168
Bell@@ 2167
pus@@ 2167
yak@@ 2167
Den@@ 2165
Ivan 2165
oder@@ 2164
gay 2163
Qatar 2162
ault 2162
Ferdinand 2161
Yas@@ 2161
God@@ 2160
opl@@ 2160
Europa 2159
burn 2159
Hang@@ 2158
Maroc 2156
orph@@ 2156
GS 2155
Tang 2154
Rheinland 2153
Sierra 2153
Your 2153
amo 2152
ald 2150
inf@@ 2149
pon 2149
Lig@@ 2148
Villa 2148
Gang@@ 2147
Oxford 2147
1824 2146
eck 2145
iti 2145
usi@@ 2145
unk@@ 2144
urai 2144
én@@ 2143
Zh@@ 2142
Asia 2141
Bell 2140
Ray 2140
ept@@ 2140
hip 2140
hip@@ 2140
Long@@ 2139
obus 2137
TT@@ 2136
amba 2135
one@@ 2133
color 2132
internet 2132
Lau@@ 2130
1852 2129
33@@ 2129
Set@@ 2127
Sto@@ 2127
dur@@ 2127
eh 2127
Net@@ 2126
ör@@ 2126
ones 2124
Div@@ 2122
Nec@@ 2122
Nob@@ 2122
culus 2121
Mass@@ 2120
Miller 2120
Nep@@ 2119
ER@@ 2118
ọp 2118
z. 2117
Pep@@ 2116
ider@@ 2115
Sou@@ 2114
1843 2113
1839 2111
0,5 2110
arum 2109
ın@@ 2109
Shu@@ 2108
adel@@ 2108
Alex 2107
Alt@@ 2106
Ard@@ 2106
River 2106
Amazon 2105
Clinton 2105
Napoli 2105
UK 2105
rix 2104
HD 2103
Tamil 2103
igo 2103
wer 2103
Fel@@ 2101
NASA 2100
No 2100
Lov@@ 2099
media 2099
Hur@@ 2096
University 2096
15.@@ 2095
Tunisia 2094
dy@@ 2094
Grant 2092
ale@@ 2091
gig@@ 2091
lop@@ 2091
yer 2091
1832 2090
Clem@@ 2090
ize 2090
Kag@@ 2089
Anime 2088
Jar@@ 2088
enf@@ 2087
16.@@ 2086
Torino 2085
pia 2085
108 2083
Leon@@ 2083
Walker 2083
s. 2083
ango 2082
Up 2081
Champion 2079
Lou@@ 2079
pyr@@ 2079
Victor 2078
ort 2078
Colorado 2077
Medi@@ 2077
aze 2077
Bog@@ 2076
LA 2074
Sci@@ 2074
cost@@ 2074
Hyper@@ 2073
imi@@ 2073
Arizona 2072
asaki 2070
gam@@ 2070
olim@@ 2070
Channel 2069
etti 2069
Venez@@ 2068
Eric 2067
ark@@ 2067
comp@@ 2066
Bun@@ 2065
Kennedy 2065
enburg 2065
eder@@ 2064
èm 2063
egr@@ 2062
Watson 2058
eter 2058
Baden 2056
1834 2055
Syl@@ 2054
ili 2054
eme 2053
Clarke 2052
Cun@@ 2052
aman@@ 2052
Ori@@ 2051
Trans@@ 2051
bec@@ 2051
eron 2050
Byr@@ 2048
Ton@@ 2048
Alan 2047
Scar@@ 2047
Č@@ 2047
170 2046
1827 2045
ander@@ 2043
robus@@ 2043
rad@@ 2042
Kel@@ 2041
inidae 2041
ingrad 2040
38@@ 2038
Hand@@ 2038
ert 2037
lob@@ 2036
omar 2036
Angola 2035
ame@@ 2035
ott 2035
uru 2035
Hou@@ 2034
ngu@@ 2034
Chal@@ 2033
Brian 2032
Fern@@ 2031
tenus 2031
Final 2030
Tin@@ 2030
dale 2030
isp@@ 2030
1855 2029
Twitter 2029
bot@@ 2028
ej@@ 2027
oda 2027
RO@@ 2026
Sant@@ 2026
ks@@ 2026
Houston 2025
Tab@@ 2025
ados 2025
pet@@ 2025
shire 2025
Byzant@@ 2024
Mitt@@ 2024
chum 2024
Shō@@ 2023
ennes 2022
then 2022
220 2021
AL@@ 2021
Studio 2021
icz 2021
18,@@ 2020
Glen@@ 2019
DP 2017
uto 2017
Jam@@ 2016
Pop@@ 2016
liv@@ 2016
Ast@@ 2014
ann 2013
assa 2013
omb@@ 2011
own 2011
by@@ 2010
Manila 2009
Tony 2008
ony 2008
pas@@ 2008
ères 2008
High 2007
Brad@@ 2006
ei@@ 2005
nar@@ 2004
occ@@ 2003
ovsky 2003
Franz 2002
ect 2002
issus 2002
hot@@ 2001
Joh@@ 1998
pom@@ 1998
aster@@ 1997
Jane 1996
camp@@ 1996
First 1995
ingham 1995
AR 1994
anta 1994
hen@@ 1994
Alex@@ 1993
rig@@ 1993
39@@ 1992
Grim@@ 1992
Pictures 1992
Sic@@ 1992
Cant@@ 1991
Zimbabwe 1991
fa@@ 1991
otom@@ 1990
pan 1990
cip@@ 1989
Somme 1988
ester@@ 1988
ism 1988
Wa@@ 1985
tion 1984
Nan@@ 1981
Esp@@ 1980
Fur@@ 1980
Mog@@ 1980
Seg@@ 1980
day 1980
sam 1980
Bruce 1978
Holstein 1978
Bush 1977
Is 1977
adr@@ 1977
Adi@@ 1976
Kiev 1976
Saf@@ 1976
CIA 1975
Chr@@ 1975
Xbox 1975
mun@@ 1974
pra@@ 1974
John@@ 1973
neum@@ 1973
species 1973
Bra@@ 1971
Mall@@ 1971
alli@@ 1969
34@@ 1968
Cho@@ 1968
ovi@@ 1968
109 1967
Two 1967
cell@@ 1967
Am 1964
Beatles 1964
time 1964
450 1963
But@@ 1963
Guatemala 1963
Ish@@ 1963
minor 1963
tari@@ 1963
Ş@@ 1963
{ 1962
Provence 1961
Chang 1960
Sali@@ 1960
Yen@@ 1960
ord 1960
Chim@@ 1959
Kis@@ 1958
this 1957
Lombar@@ 1956
qui@@ 1956
bet@@ 1955
102 1954
Nev@@ 1954
Vietnam 1953
ding 1953
ner@@ 1953
Moh@@ 1952
Beach 1951
Yosh@@ 1950
wald 1950
IP 1949
Luci@@ 1949
1800 1948
quad@@ 1948
Gur@@ 1947
Rhin@@ 1947
atsu 1947
oper@@ 1947
17.@@ 1946
alc@@ 1945
Arn@@ 1944
Caesar 1944
atis 1944
set@@ 1944
edo 1943
mont@@ 1943
1825 1941
Toronto 1941
NA 1940
Rat@@ 1940
dav@@ 1940
uth 1940
Harrison 1939
acr@@ 1939
syl@@ 1939
wh@@ 1939
Madonna 1938
alaya 1938
lev@@ 1938
1831 1937
Gali@@ 1937
aa 1937
Dance 1936
Epi@@ 1936
RE@@ 1936
eza 1936
Abu 1935
Dus@@ 1933
Serge@@ 1933
70@@ 1932
We 1932
chen 1932
Japan 1931
München 1931
Co 1930
Eli@@ 1929
Il 1929
Maine 1929
Will 1929
aç@@ 1928
Jun@@ 1927
Network 1927
glau@@ 1926
Point 1925
elles 1924
orn 1924
test@@ 1924
Moselle 1922
Siberia 1922
25,@@ 1921
Jefferson 1921
Magn@@ 1920
McCar@@ 1919
ms 1919
19,@@ 1918
Anton@@ 1918
CE@@ 1918
Ni 1918
Tim 1918
beta 1918
eld 1918
erry 1918
insky 1918
pub@@ 1917
Gaga 1916
Alb@@ 1915
PC@@ 1915
elec@@ 1915
Old 1914
Sis@@ 1914
og 1914
24,@@ 1913
LC 1913
enth 1913
Yor@@ 1912
Wh@@ 1911
AP 1910
ocol@@ 1909
This 1908
gram@@ 1908
Kash@@ 1907
ander 1907
kur@@ 1907
lon@@ 1907
Boul@@ 1906
aire 1906
japon@@ 1904
hiz@@ 1903
kan 1903
ò@@ 1903
UTC 1902
VI@@ 1902
Bid@@ 1901
chol@@ 1901
Agu@@ 1899
auc@@ 1899
edia 1899
Mozambi@@ 1898
ako 1898
Moscow 1897
SS@@ 1897
ped@@ 1897
Sn@@ 1896
Sym@@ 1896
ü 1896
María 1895
Tul@@ 1894
Under@@ 1893
tuber@@ 1893
Dum@@ 1892
its 1892
ż@@ 1892
AL 1891
127 1890
dro@@ 1890
3000 1888
47@@ 1888
opti@@ 1888
22@@ 1887
ayi 1887
ister@@ 1886
Mé@@ 1885
mes 1885
Valley 1884
Île 1883
Guy@@ 1882
Neg@@ 1882
TE@@ 1882
XV 1882
Turner 1881
lim@@ 1881
CT 1880
Wayne 1880
aven@@ 1880
orient@@ 1880
Artem@@ 1879
Mey@@ 1878
quar@@ 1878
Junior 1877
zu 1877
Dro@@ 1876
lé@@ 1876
Athens 1874
Ji 1874
Pop 1872
Gö@@ 1871
Ped@@ 1871
Vy@@ 1871
arium 1871
1828 1870
Trig@@ 1870
You@@ 1870
apa 1870
esper@@ 1870
α 1870
104 1869
Heinrich 1869
Mug@@ 1865
aco 1865
ader 1865
Fil@@ 1864
Russell 1863
Johann 1862
nica 1862
spi@@ 1861
Şanlıurfa 1861
Gran@@ 1860
cro@@ 1860
osis 1860
Anthony 1859
Ras@@ 1859
4,5 1858
48@@ 1858
Bretagne 1858
May 1857
IP@@ 1856
oxy@@ 1856
agon@@ 1855
Digital 1853
pod@@ 1853
pon@@ 1853
Tag@@ 1852
amino 1852
robot 1852
Hub@@ 1851
Vik@@ 1851
Miss 1850
å@@ 1850
ations 1849
Sus@@ 1848
Mario 1847
amen 1847
ü@@ 1846
Pier@@ 1845
Thai 1845
odia 1845
tea 1845
Prince 1843
Tsu@@ 1842
doc@@ 1842
Cros@@ 1841
1835 1840
Luxembourg 1839
Greene 1838
tag@@ 1838
30.000 1837
Lob@@ 1837
Wak@@ 1837
chan@@ 1837
otro@@ 1837
Jr 1836
jav@@ 1836
ướm 1836
Bla@@ 1834
Munich 1832
Gag@@ 1830
Rum@@ 1828
chrom@@ 1828
kam@@ 1828
Be 1827
C1 1827
lava 1827
20,@@ 1826
François 1825
Wu 1825
ose 1825
ud 1825
26,@@ 1823
Award 1822
Potter 1822
vus 1822
Hoff@@ 1821
Leningrad 1821
igh 1821
Koch 1820
ina@@ 1820
nan 1820
Next 1819
Nord@@ 1819
王@@ 1819
novel 1818
AK@@ 1817
Baz@@ 1817
cau@@ 1817
mir 1817
Land 1816
agara 1816
thy@@ 1816
Las 1815
ody 1815
olia 1815
asy@@ 1814
hid@@ 1814
stone 1814
enger 1813
DJ 1812
Marvel 1812
asti@@ 1812
ık@@ 1811
Hau@@ 1810
Road 1809
anti 1809
Ob@@ 1808
Um@@ 1808
asha 1808
let 1808
Sky@@ 1807
190 1806
Warner 1806
ask@@ 1806
imi 1806
mel 1806
nd@@ 1806
acer@@ 1805
Chin@@ 1804
Manga 1804
affin@@ 1803
Deb@@ 1802
polis 1802
Prom@@ 1801
bass 1801
bau@@ 1801
hic 1801
Jacques 1799
insk 1799
Lak@@ 1798
hop 1797
Roosevelt 1796
27,@@ 1795
Jin 1794
Ner@@ 1794
Ryan 1794
Nas@@ 1793
XVIII 1793
dev 1793
320 1792
Tach@@ 1791
canal 1791
gun 1791
ī@@ 1791
poli@@ 1790
Golden 1789
Obama 1789
arra 1788
cher@@ 1788
dot 1788
Band@@ 1787
Gard@@ 1787
teria 1786
tus@@ 1786
Napoleon 1785
BA 1784
actus 1784
kug@@ 1784
Zen@@ 1783
las 1783
ë@@ 1783
18.@@ 1782
8.000 1782
MP 1782
pard 1781
23,@@ 1780
ave@@ 1780
light 1779
1826 1778
Kath@@ 1778
Stein@@ 1778
ret 1778
Ind@@ 1777
cy 1777
Hz 1776
ana@@ 1776
ids 1774
Aleksandr 1773
Christopher 1772
ers@@ 1772
inga 1772
rug@@ 1771
Miami 1770
enza 1770
Iz@@ 1769
enne 1769
zy 1769
Taliban 1768
ache 1768
AD 1767
Balkan 1767
Bour@@ 1767
ete 1767
Philippe 1766
Wer@@ 1766
camera 1766
ont 1766
res 1766
Morgan 1765
Samuel 1765
abad 1765
ater@@ 1764
Kö@@ 1763
metal 1763
tium 1763
MS@@ 1762
Cardi@@ 1760
Chor@@ 1759
Raymond 1759
tab@@ 1759
Ichneum@@ 1758
vers@@ 1758
ST 1757
fre@@ 1757
ès 1757
Geor@@ 1755
TO@@ 1755
Hans 1754
chel@@ 1753
pres@@ 1753
ches 1752
com 1752
mouth 1752
Kevin 1751
Kap@@ 1750
tac@@ 1750
Ostr@@ 1749
lav@@ 1749
Banks 1748
rep@@ 1748
sang@@ 1748
tre@@ 1748
DA 1747
Hak@@ 1747
glo@@ 1746
Hin@@ 1745
Jim 1745
cron@@ 1745
Pyrénées 1744
Nelson 1743
ulin 1743
Khar@@ 1742
VA 1742
ough 1742
Charl@@ 1741
ely 1741
AIDS 1740
rap 1740
Heb@@ 1739
Maritime 1739
ment 1739
sius 1739
MI@@ 1738
lock 1738
bó@@ 1736
GP@@ 1735
Glo@@ 1735
Good 1735
Spring 1735
Lucas 1734
aj 1734
³ 1734
sw@@ 1733
Gros@@ 1732
Wright 1732
glu@@ 1732
128 1731
Aut@@ 1730
Patrick 1730
alba 1730
arina 1730
olig@@ 1730
oshima 1730
Cru@@ 1728
Play 1728
ime 1728
107 1727
App@@ 1727
CC 1727
ling@@ 1727
20.@@ 1726
ats 1726
zu@@ 1724
Afr@@ 1723
1829 1722
Nova 1722
onlyinclude 1722
Hart@@ 1721
Santiago 1721
Mut@@ 1720
Nicholas 1720
Buck@@ 1719
Barb@@ 1718
medi@@ 1718
AU 1717
Lem@@ 1717
Witt@@ 1717
tz@@ 1717
house 1716
Kra@@ 1715
Rolling 1715
22,@@ 1714
50.000 1714
org@@ 1714
ury 1714
Blake 1713
Power 1713
kham 1713
李@@ 1713
cili@@ 1712
Comp@@ 1710
far@@ 1710
Heart 1708
Pog@@ 1708
ces@@ 1708
cot@@ 1708
1820 1706
fran@@ 1706
urg@@ 1705
Mod@@ 1704
ux 1704
Carter 1703
kei 1703
lich@@ 1703
za@@ 1703
ehr@@ 1702
lus@@ 1702
sac@@ 1702
Lamp@@ 1701
gens 1701
Aires 1700
Myan@@ 1700
Sec@@ 1700
cha@@ 1700
zen@@ 1699
Pra@@ 1698
radi@@ 1698
Garonne 1697
Men 1697
Thr@@ 1697
air 1697
alan 1697
ix 1697
90@@ 1696
Melbourne 1696
ister 1696
may@@ 1696
oz 1696
Darwin 1695
Robin 1695
aft 1693
anch@@ 1693
super@@ 1693
22.@@ 1692
usta 1692
Batman 1690
CI@@ 1690
isha 1690
Hag@@ 1689
Son 1689
hal 1689
oun 1689
21.@@ 1688
Buenos 1688
1810 1687
ran 1687
rei 1687
DE@@ 1686
Rein@@ 1686
7.000 1685
Mess@@ 1684
fon@@ 1684
Bundesliga 1683
sag@@ 1683
âng 1683
Barbara 1682
phr@@ 1682
106 1681
115 1681
Sing@@ 1681
Cruz 1680
ady 1680
anii 1680
ester 1680
gem@@ 1680
mark 1680
sl@@ 1679
Id@@ 1678
War 1678
asu 1678
kab@@ 1678
AF@@ 1676
Fantasy 1676
Somalia 1676
benz@@ 1676
cid@@ 1676
uga 1676
bón 1674
iz 1674
103 1673
Namibia 1673
cli@@ 1673
gu 1673
How@@ 1672
Kul@@ 1672
Ontario 1672
Shah 1671
cam@@ 1671
sing@@ 1671
lida 1670
Eil@@ 1668
Jum@@ 1668
bu 1668
evo 1668
bula 1667
Brid@@ 1666
Mac 1666
Oliv@@ 1666
oki 1666
Cous@@ 1665
ā 1665
Bruch@@ 1664
Nebraska 1664
Santo 1664
「 1664
Gle@@ 1663
omo 1663
tel 1663
Harris 1662
Home 1662
khe@@ 1662
pol 1662
CO 1660
DF 1660
trac@@ 1660
」 1660
Inter 1659
anos 1659
model 1659
IA 1658
Madison 1658
uri@@ 1658
Ferr@@ 1657
Lic@@ 1657
Yan@@ 1657
argent@@ 1657
hin 1657
n.@@ 1657
ous@@ 1657
bot 1656
ár@@ 1656
Bath@@ 1655
Oh@@ 1654
Tiger 1654
nati@@ 1654
ally 1653
uno 1653
124@@ 1651
Lie@@ 1651
Tennessee 1651
Ev@@ 1650
Gabriel 1650
Good@@ 1650
Kay@@ 1650
Stal@@ 1650
Einstein 1649
Lord 1649
Lyon 1648
aven 1648
w. 1647
ias 1646
Turk@@ 1645
Sub@@ 1644
mern 1644
yar@@ 1644
Brah@@ 1643
Card@@ 1643
Ivan@@ 1643
Milano 1643
Ralph 1643
Lup@@ 1642
O. 1642
Zambia 1641
aw 1641
borough 1641
Adolf 1639
Sper@@ 1639
fili@@ 1638
other@@ 1638
} 1638
Solanum 1637
Wed@@ 1637
andi 1637
111 1634
PE@@ 1634
win@@ 1634
lard 1632
Orch@@ 1631
Web 1631
ectus 1631
kir@@ 1631
Marcus 1630
Cly@@ 1629
Krish@@ 1629
Sankt 1629
das 1629
ser 1629
ữu 1629
113 1628
135 1628
Kō@@ 1627
Rev@@ 1626
cir@@ 1626
his@@ 1626
lex 1626
lod@@ 1626
Gib@@ 1625
Row@@ 1625
tul@@ 1625
China 1624
Ptolem@@ 1624
Sey@@ 1624
pri@@ 1624
ust 1623
Jimmy 1622
Kepler 1622
eer 1621
Dim@@ 1620
Ray@@ 1620
Cul@@ 1619
Ses@@ 1618
zar@@ 1618
Sek@@ 1616
este 1616
itt 1615
that 1615
eb 1614
öl@@ 1614
Luis 1613
Ves@@ 1613
240 1612
Post 1612
mani 1612
nucle@@ 1612
pac@@ 1612
è@@ 1612
Association 1611
oss 1611
sha 1611
Jak@@ 1610
Min 1610
Story 1609
bekistan 1609
lag@@ 1609
opp@@ 1609
Andre@@ 1607
Fort 1607
Kak@@ 1607
Ou@@ 1607
dil@@ 1607
leb@@ 1607
Sivas 1605
augh@@ 1605
els@@ 1605
Orange 1604
Penn@@ 1604
Maya 1603
sap@@ 1603
Og@@ 1602
1500 1601
46@@ 1601
Cog@@ 1601
Donn@@ 1601
HT@@ 1601
ID 1601
IBM 1600
azi 1600
él@@ 1600
ayan 1599
mang@@ 1599
19.@@ 1597
BO@@ 1597
eland 1597
pH 1597
yat@@ 1597
Type 1596
bac@@ 1596
X. 1594
tric 1594
Game@@ 1593
ams 1593
Sea 1592
iji 1591
Catal@@ 1590
Hut@@ 1590
Lenn@@ 1590
wi 1590
IUCN 1589
wak@@ 1589
Paraguay 1588
Sang@@ 1588
Sug@@ 1588
his 1588
lik@@ 1588
syn@@ 1588
CP@@ 1587
Manuel 1587
ando 1587
ao@@ 1587
coron@@ 1587
gor@@ 1587
zen 1587
28,@@ 1586
Barr@@ 1586
Stor@@ 1586
egia 1586
Juventus 1585
ery 1585
1.500 1584
1806 1584
Apollo 1584
MO@@ 1584
rik 1584
55@@ 1583
Charlie 1583
Mobile 1583
Roy@@ 1583
200.000 1582
A1 1582
kom@@ 1582
Amaz@@ 1581
odo@@ 1581
oster@@ 1580
trix 1580
Vincent 1579
emer@@ 1579
Hindu 1578
area 1578
Sac@@ 1577
21,@@ 1576
Nevada 1575
100@@ 1574
Cic@@ 1574
Carey 1573
yle 1573
tot@@ 1572
Adri@@ 1570
ego 1570
otte 1570
Calais 1569
Cum@@ 1569
hormon@@ 1569
kard 1569
Fest@@ 1568
Netflix 1568
Newport 1568
mak@@ 1568
mp@@ 1568
210 1567
Haiti 1567
Jura 1567
jan@@ 1567
chor@@ 1565
Cook 1564
Festival 1564
fort 1564
NT@@ 1563
Sarah 1563
Gad@@ 1562
cord@@ 1562
file 1562
pınar 1562
tem 1562
André 1561
Christ@@ 1560
Did@@ 1560
lah 1560
ór@@ 1560
1.5@@ 1559
Stu@@ 1559
rod@@ 1559
uba 1559
.C. 1558
Edo 1558
Tun@@ 1558
arta 1558
bine 1558
sig@@ 1558
Benn@@ 1556
Pays 1556
Elec@@ 1555
aurus 1555
alo@@ 1554
ores 1554
uli 1554
xon 1554
AG@@ 1553
kh 1552
65@@ 1551
Wel@@ 1551
dorf 1551
eston 1551
onga 1551
yana 1551
wara 1550
40.000 1549
Ngu@@ 1548
abi 1548
1801 1547
DI 1547
Chr. 1546
ŏ@@ 1546
Boys 1545
Budapest 1545
Cla@@ 1545
Las@@ 1545
idia 1545
tepe 1545
ñ@@ 1543
Han 1542
Pis@@ 1542
jazz 1542
ology 1542
wang 1540
dos 1539
mix@@ 1539
tit@@ 1539
Aman@@ 1538
Fabr@@ 1538
tney 1538
OH 1537
Santos 1537
plus 1537
Brandenburg 1536
Key 1536
isc@@ 1536
Roy 1535
diesel 1535
opot@@ 1535
wick 1535
Intel 1534
Liber@@ 1534
Lot@@ 1534
XVII 1534
wait 1534
Gand@@ 1533
arp@@ 1533
Neu@@ 1532
Ö@@ 1532
1812 1531
EC 1531
Eth@@ 1531
IF@@ 1531
Jud@@ 1531
afric@@ 1531
IT@@ 1530
Jason 1530
Yah@@ 1530
Zor@@ 1530
atic 1530
base 1530
ał@@ 1529
oux 1529
squ@@ 1529
1789 1528
eles 1528
Sen 1527
Stre@@ 1527
.S. 1526
Andy 1526
Fol@@ 1526
Bismarck 1525
ents 1525
AF 1524
urt 1524
Willi@@ 1523
mail 1523
mon 1523
Dry@@ 1522
Log@@ 1522
fen@@ 1522
into 1522
FF 1521
Maryland 1521
Ka 1520
Kane 1520
clav@@ 1520
orth@@ 1520
Tap@@ 1519
let@@ 1519
ono 1519
Arena 1518
AV@@ 1517
Dir@@ 1517
PG 1517
Shel@@ 1517
Silva 1517
aye 1517
h. 1517
Amsterdam 1516
MW 1516
ahn 1516
oya 1516
sho@@ 1516
1802 1515
Aragon 1515
Kelly 1515
Kır@@ 1515
Light 1515
Saône 1515
Like 1514
fas@@ 1514
Cast@@ 1513
Fas@@ 1513
Gram@@ 1513
System 1513
What 1513
Gordon 1512
Leo 1512
Malawi 1512
Steven 1512
frag@@ 1512
lers 1512
vid@@ 1512
112 1511
Dmi@@ 1511
Koz@@ 1511
TA 1511
ovina 1511
İ@@ 1510
2.0@@ 1509
Jur@@ 1509
tax@@ 1509
Toy@@ 1508
æ@@ 1508
ợp 1508
49@@ 1507
Cou@@ 1507
Mau@@ 1507
big@@ 1507
kel@@ 1507
ôme 1507
net@@ 1506
Alc@@ 1505
adia 1505
web@@ 1505
Dream 1504
Mind@@ 1501
Pan 1501
Walt 1501
Po 1500
rog@@ 1500
Ut@@ 1499
plaz@@ 1498
you 1498
Oz@@ 1497
nes@@ 1497
tier 1496
Universal 1495
etto 1495
1821 1493
44@@ 1493
Cau@@ 1493
Nick 1493
sh 1493
115@@ 1492
ABC 1492
aan 1491
152 1490
Honduras 1490
aud 1490
ies 1490
rea 1487
see 1487
Ross 1486
Sahara 1486
aban 1485
tes@@ 1485
Dark 1484
pig@@ 1484
beria 1483
lec@@ 1481
Luke 1479
Salvador 1479
lot@@ 1479
Delhi 1478
Euph@@ 1478
German 1478
Kod@@ 1478
stan 1478
23.@@ 1477
how 1477
State 1476
loan 1476
zur 1476
‎ 1476
Maxim@@ 1475
lier 1475
ustr@@ 1474
Mom@@ 1472
arti@@ 1472
forme 1472
out@@ 1472
rosa 1472
af 1471
clar@@ 1471
oque 1471
Benjamin 1470
Cec@@ 1470
ác@@ 1470
gs 1469
Nin@@ 1468
Sent@@ 1468
Timor 1468
eler 1468
29,@@ 1467
iller 1467
fes@@ 1466
oud 1466
uria 1466
Cad@@ 1465
500.000 1464
Giovanni 1463
Hamburg 1463
inda 1463
Sit@@ 1461
lera 1461
vor@@ 1461
Carl@@ 1460
Dipl@@ 1460
Rand@@ 1460
Spir@@ 1460
ago@@ 1460
peti@@ 1460
Dan 1459
ig 1459
ogo 1459
sta 1459
trum 1459
cryp@@ 1458
dent@@ 1458
ï@@ 1457
RS 1456
back 1456
zo@@ 1456
Project 1455
1,3 1454
Stap@@ 1454
75@@ 1452
Fuj@@ 1452
Jo 1452
Venice 1451
Raf@@ 1450
Vienna 1449
750 1447
Abraham 1447
High@@ 1447
230 1446
Aub@@ 1445
Stewart 1445
dance 1445
Clo@@ 1444
Franc@@ 1444
iPhone 1444
int 1444
š 1444
Reb@@ 1443
Zero 1443
olog@@ 1443
Caroline 1442
Forbes 1442
Montenegro 1442
Oliver 1442
RT@@ 1442
aker 1442
1,8 1441
Khali@@ 1440
Water@@ 1440
lip 1440
ris@@ 1440
Augustus 1439
Lun@@ 1439
Murray 1439
cru@@ 1439
Jag@@ 1438
Kastamonu 1438
Sail@@ 1438
Wolf 1438
acon@@ 1438
ble@@ 1438
Boc@@ 1437
Now@@ 1436
Samoa 1436
peru@@ 1436
Foundation 1435
Laz@@ 1435
Tottenham 1435
ement 1435
grap@@ 1435
itter 1435
Leon 1434
Mem@@ 1434
Miz@@ 1434
To 1434
Juli@@ 1433
atu 1433
Luther 1432
fe 1432
wor@@ 1432
Christ 1431
Jay 1431
Office 1431
PO@@ 1431
Alpha 1429
Cô@@ 1429
Tru@@ 1429
arus 1429
gre@@ 1429
Ass@@ 1428
ator@@ 1427
Monte 1426
Valent@@ 1426
agon 1426
Sah@@ 1425
Wood 1425
1,6 1424
126 1424
144 1424
Art 1423
Robinson 1423
ted 1423
Tad@@ 1422
That 1422
Emb@@ 1421
August 1420
ISO 1420
Nixon 1420
Singles 1420
anne 1420
dere 1420
eran 1420
jar@@ 1420
igny 1419
Sco@@ 1418
Uli@@ 1418
Line 1417
ante@@ 1417
blog 1417
kel 1417
Phys@@ 1416
her 1416
AK 1415
iku 1415
irus 1414
Cler@@ 1413
Frankfurt 1413
audi@@ 1413
± 1413
ë 1413
000.000 1412
280 1412
Alek@@ 1412
Out 1412
Pun@@ 1412
abra 1412
zh 1411
ören 1411
que@@ 1410
Et@@ 1409
Way 1409
Austin 1408
Pho@@ 1408
sos@@ 1408
Shaw 1407
lab@@ 1407
peri@@ 1407
plum@@ 1407
Seattle 1406
anol 1406
speci@@ 1406
He 1405
tal 1405
Ž@@ 1405
bie 1404
eville 1404
tran@@ 1404
rie 1403
uer@@ 1403
unga 1403
census 1402
mond 1402
Evans 1401
jan 1401
mania 1401
122 1400
Cli@@ 1400
Nicaragua 1400
down 1400
isch 1400
Galil@@ 1399
ayo 1399
nad 1398
nom 1398
Phoenix 1397
Valencia 1397
pun@@ 1397
gil@@ 1396
Castro 1395
Sports 1395
Tes@@ 1395
aren@@ 1395
bak@@ 1395
oker 1395
Louisiana 1394
Yar@@ 1394
avi 1394
Tek@@ 1393
Gos@@ 1392
Graham 1392
adu@@ 1392
enth@@ 1392
trach@@ 1391
Trinidad 1390
cover 1390
ellip@@ 1390
IO@@ 1389
Matthew 1389
Roman 1389
ares 1389
fat 1389
1805 1388
Michel 1388
Pak@@ 1388
PP@@ 1387
odor@@ 1387
Cran@@ 1386
Castel@@ 1385
Uni@@ 1385
GM 1384
esh 1384
Fernando 1383
Sant 1383
jam@@ 1383
osph@@ 1383
Eg@@ 1382
Global 1382
Hey@@ 1382
Women 1382
án@@ 1382
Kamp@@ 1381
LO@@ 1381
Wii 1381
bai 1381
fel@@ 1381
hex@@ 1381
hur@@ 1381
nier 1381
Central 1380
Hali@@ 1380
330 1379
Lub@@ 1379
chester 1379
né 1379
ticul@@ 1379
5000 1377
Vog@@ 1376
123 1375
Eus@@ 1375
Ken 1375
Charlotte 1374
dol 1374
phone 1374
şehir 1374
ME@@ 1373
eter@@ 1373
pep@@ 1373
Florence 1372
cep@@ 1372
oj@@ 1372
ses 1372
Newcastle 1371
Square 1371
topo@@ 1371
1819 1369
phis 1369
resc@@ 1369
19@@ 1368
SI 1368
rio 1368
sex@@ 1368
ants 1367
Ander@@ 1366
Cairo 1366
Jacob 1366
Nokia 1366
57@@ 1365
Isab@@ 1365
cle@@ 1365
elt 1365
nik@@ 1365
AI 1364
Cameron 1364
Stockholm 1364
rom 1364
Denis 1363
atar 1363
lès 1363
Bé@@ 1362
inopolis 1362
BT@@ 1361
Lili@@ 1361
Warren 1361
54@@ 1360
Coun@@ 1360
Janeiro 1360
Tour@@ 1360
alla 1360
iOS 1360
wel@@ 1360
onic 1359
ward 1359
→ 1359
eu 1358
occident@@ 1358
tir@@ 1358
260 1357
Fus@@ 1356
anie 1356
hard 1356
mar 1356
r. 1356
uel@@ 1356
Gem@@ 1354
andin@@ 1354
ren 1354
tif@@ 1354
Ă@@ 1354
Bi 1353
Bo 1353
Rou@@ 1352
ost 1352
Ho 1351
Shak@@ 1351
sand@@ 1351
vers 1351
7,5 1350
Ha 1350
ought 1350
Iv@@ 1349
Lo 1349
spin 1349
try 1349
1,4 1348
Tou@@ 1348
lov 1348
riv@@ 1348
Kut@@ 1347
vern@@ 1347
1818 1346
Flor@@ 1346
lau 1346
off@@ 1346
15.000 1345
Cus@@ 1345
prin@@ 1345
them@@ 1345
201@@ 1344
Crim@@ 1344
Dick@@ 1344
auch@@ 1344
osaur@@ 1344
Minas 1343
Scor@@ 1342
Sik@@ 1342
Beth@@ 1341
Lach@@ 1341
azar 1341
ois@@ 1341
Gab@@ 1340
Works 1340
erg@@ 1340
neur@@ 1340
trat 1340
uz 1340
CPU 1339
Cath@@ 1339
ager 1339
inos 1339
cab@@ 1338
ondo 1338
Kentucky 1337
aza 1337
43@@ 1336
Jas@@ 1336
Montgomery 1336
Chamber@@ 1335
Daily 1335
Was@@ 1335
idge 1335
Raw 1334
Say@@ 1334
Mali 1333
Sound 1333
dé@@ 1333
124 1332
King@@ 1332
Tik@@ 1332
1,1 1331
Airways 1331
lem 1331
är@@ 1331
1815 1330
ovice 1330
117 1329
AE 1329
O2 1329
Pay@@ 1329
ardi 1329
SN@@ 1328
ano@@ 1328
namo 1328
Duc@@ 1327
Mecklenburg 1327
Nikolai 1327
Stanley 1327
aum 1327
ović 1327
Bernard 1326
Lad@@ 1326
Württemberg 1326
emat@@ 1326
lands 1326
rov@@ 1326
Koh@@ 1325
ror@@ 1325
Sherman 1324
Cob@@ 1323
Indi@@ 1323
Proc@@ 1323
elin 1323
Mitchell 1322
Run@@ 1322
sign@@ 1322
天@@ 1322
Atlanta 1321
Aug@@ 1321
lis@@ 1321
annon 1320
aş 1320
bey 1320
elo 1320
kim@@ 1320
olan 1320
155 1319
Batt@@ 1319
Georges 1319
ME 1319
gul@@ 1319
letes 1319
ness 1319
Jonathan 1318
a.@@ 1318
star@@ 1318
Fed@@ 1317
CEO 1316
Dil@@ 1316
FM 1316
Garr@@ 1316
RAM 1316
Tax@@ 1316
Tō@@ 1316
hop@@ 1316
Matt 1315
Poz@@ 1315
Wild 1315
Yuk@@ 1315
has 1315
sax@@ 1315
Chand@@ 1314
Leh@@ 1314
Dru@@ 1313
nin 1313
58@@ 1312
Chan 1312
Poc@@ 1312
End 1311
Riv@@ 1311
elop@@ 1311
qui 1311
ventr@@ 1311
Johannes 1309
did@@ 1309
lake 1309
rid@@ 1309
sik@@ 1309
Nord 1308
Rwanda 1308
Virgin 1308
« 1308
Ais@@ 1307
Len@@ 1307
Songs 1307
crist@@ 1307
aver@@ 1306
core 1306
hon@@ 1306
less 1306
270 1305
Hunter 1305
Oklahoma 1305
i.@@ 1305
igi@@ 1304
Book 1302
post@@ 1302
太@@ 1302
axis 1301
star 1301
Genève 1300
Map@@ 1300
RC 1300
Tig@@ 1300
live 1300
tom 1300
文@@ 1300
Justin 1299
Sr@@ 1299
aden 1299
kw@@ 1299
ıy@@ 1299
onym@@ 1298
Anc@@ 1297
def@@ 1297
Chrom@@ 1296
Hay 1296
cri@@ 1296
ilio 1296
Gold 1295
Miguel 1295
England 1294
Zi@@ 1294
bun@@ 1294
ru 1294
Blan@@ 1293
Ris@@ 1293
Ain 1292
my 1292
Play@@ 1291
gene 1291
Gilbert 1290
Slo@@ 1290
atori@@ 1290
kun@@ 1290
ture 1290
1814 1289
Ret@@ 1289
dova 1289
ough@@ 1289
1804 1288
Germain 1288
Ron 1288
USA 1288
Urban 1288
urs 1288
1822 1287
Brus@@ 1287
Dub@@ 1287
acy 1287
etti@@ 1287
EF 1286
ağ@@ 1286
£ 1286
Scho@@ 1285
cus@@ 1285
rid 1285
1823 1284
Engl@@ 1284
ML@@ 1284
pum@@ 1284
Song@@ 1283
Weber 1283
nith@@ 1283
175 1282
Film 1282
Online 1282
RT 1281
Ré@@ 1281
ikawa 1281
mec@@ 1281
118@@ 1280
Mann@@ 1280
Delta 1279
116 1278
Airbus 1278
Griff@@ 1278
boat 1278
119@@ 1277
121 1277
Petersburg 1277
Press 1277
tas@@ 1277
xis 1277
war 1276
XX@@ 1275
ket@@ 1275
oca 1275
aup@@ 1273
rur@@ 1273
tsch@@ 1273
val 1273
1803 1272
kes 1272
ượ@@ 1272
ingia 1271
major 1271
Ling@@ 1270
Akh@@ 1269
Claude 1269
Hermann 1269
foot 1269
nm 1269
Dow@@ 1268
view 1268
Pam@@ 1267
Society 1267
Utah 1267
lun@@ 1267
www.@@ 1267
ửi 1267
Express 1266
Hend@@ 1266
Nur@@ 1266
bus@@ 1266
Ts@@ 1265
Vig@@ 1265
auss 1265
iken 1265
stan@@ 1265
ț@@ 1265
Hispan@@ 1264
ef 1264
hap@@ 1264
Bosnia 1263
Istanbul 1263
Jose 1263
bach@@ 1263
ck@@ 1263
hav@@ 1263
Baby 1262
Who 1262
550 1261
Bres@@ 1261
cali@@ 1261
Param@@ 1260
amura 1260
Weekly 1259
5,5 1258
Mars 1258
Stevens 1258
kow@@ 1258
Hul@@ 1257
Soy@@ 1257
ador 1257
aut 1257
Martin@@ 1256
sph@@ 1256
Vegas 1255
oidea 1255
Brand@@ 1254
Copa 1254
Haz@@ 1254
Scr@@ 1254
Sega 1254
Sky 1254
edr@@ 1254
Julia 1253
mu 1253
Hard@@ 1252
Rog@@ 1252
Ż@@ 1251
End@@ 1250
Louise 1250
GR@@ 1249
Mr. 1249
Pas 1249
pag@@ 1249
tei 1249
obi 1248
part@@ 1248
114 1247
Dani@@ 1247
Emer@@ 1247
Hydr@@ 1246
Just 1246
duc@@ 1246
Ted 1245
aton 1245
mea 1245
thal@@ 1245
wall 1245
β 1245
parti@@ 1244
ön@@ 1244
56@@ 1243
CO2 1243
INSEE 1243
Oise 1243
WC 1243
XP 1243
board 1243
ilo 1243
Master 1242
Oh 1242
Suzuki 1242
1813 1241
Fred 1241
NT 1241
Trav@@ 1241
Wall 1241
Jeffrey 1240
Kop@@ 1240
aia 1240
Panzer 1239
fru@@ 1239
urg 1239
118 1238
145 1238
AG 1238
Leone 1238
Tac@@ 1238
Top@@ 1237
1817 1236
Earth 1236
Gün@@ 1236
hil@@ 1236
CAF 1235
Gamb@@ 1235
Phot@@ 1235
TE 1235
SE 1234
ahl@@ 1234
Chase 1233
Churchill 1233
Sainte 1233
Vent@@ 1233
WHO 1233
sic@@ 1233
zer@@ 1233
公 1233
Boris 1232
Jose@@ 1232
quer@@ 1232
stell@@ 1232
Manhattan 1230
ovic 1230
Ð@@ 1230
ạ@@ 1230
BM@@ 1229
Birmingham 1229
ladi@@ 1229
sab@@ 1229
Gibraltar 1228
HP 1228
Monroe 1228
Vul@@ 1228
hara 1228
» 1228
Johnny 1227
Maurice 1227
czy@@ 1227
med@@ 1227
troph@@ 1227
angu@@ 1226
anom@@ 1226
má@@ 1226
ces 1225
sat@@ 1225
Cher 1224
imar@@ 1224
Space 1223
fum@@ 1223
Fili@@ 1222
Lop@@ 1222
dar 1222
logo 1222
sak@@ 1222
Opera 1221
Wy@@ 1221
abri@@ 1221
een 1221
neb@@ 1221
ond 1221
Back 1220
Blu@@ 1220
CV@@ 1220
SH@@ 1220
atom@@ 1220
yu@@ 1220
Rib@@ 1219
bis 1219
pit@@ 1219
Suz@@ 1218
gang 1218
nas@@ 1218
Anhalt 1217
Last 1217
Rosa 1217
amas 1217
rew 1217
ingo 1216
sel 1216
Arts 1215
Sl@@ 1215
cal 1215
Fire 1214
PL@@ 1214
bank 1214
Iron 1213
Mozart 1213
trad@@ 1213
ws 1213
Concer@@ 1212
PT@@ 1212
Patr@@ 1212
pend@@ 1212
Dallas 1211
Vancouver 1211
caud@@ 1211
nen 1211
Ed 1210
Science 1210
rati@@ 1210
129 1209
Dylan 1209
RA 1208
Asian 1207
Edwards 1207
Vie@@ 1207
iva 1207
1,7 1206
Manche 1206
Karab@@ 1205
Tot@@ 1205
ays 1205
begin 1205
sula 1205
Day@@ 1204
Dead 1204
ener 1204
olle 1204
165 1203
Porto 1203
Yu 1203
kai 1203
1775 1202
Fraser 1202
Tch@@ 1202
ley@@ 1202
Billy 1201
Gaz@@ 1201
endi@@ 1201
Pink 1200
enda 1200
Aş@@ 1199
Kno@@ 1199
nav@@ 1199
hyper@@ 1198
vat@@ 1198
64@@ 1197
AB 1197
att 1197
kaya 1197
stig@@ 1197
stric@@ 1197
éc@@ 1197
Cooper 1196
ushi 1196
6,5 1195
EX@@ 1195
Prix 1195
atti 1195
ige 1195
igi 1195
onde 1195
tics 1195
Ann 1194
53@@ 1193
67@@ 1193
cari@@ 1193
later@@ 1193
sid@@ 1193
Marc 1192
agne 1192
arab@@ 1192
dei 1192
gorod 1192
ư@@ 1192
Kem@@ 1191
Wend@@ 1191
http 1191
Sof@@ 1190
rostr@@ 1190
Gall@@ 1189
ario 1189
rates 1189
­ 1189
č 1189
1788 1188
IL 1188
eka 1188
rus@@ 1188
sion 1188
Forest 1187
Kent 1187
Thompson 1187
anya 1187
auer 1187
başı 1187
rang 1187
,@@ 1186
68@@ 1186
Gary 1186
Ges@@ 1186
H2O 1186
Spi@@ 1186
imo 1186
ivi@@ 1186
mid@@ 1186
县 1186
Peg@@ 1185
bian 1185
Sofia 1184
arms 1184
studio 1184
FK 1183
ilg@@ 1183
lot 1183
Phil 1181
Yer@@ 1181
Dob@@ 1180
Gabon 1180
Kle@@ 1180
Albi@@ 1179
Kızıl@@ 1179
Tah@@ 1179
uck 1178
Dra@@ 1177
Hod@@ 1177
Nicolas 1177
anj@@ 1177
fish 1177
Ek@@ 1176
Rak@@ 1176
VC 1176
Zel@@ 1176
act 1176
ogne 1176
SD 1175
achia 1175
esc@@ 1175
Dean 1174
Fos@@ 1174
lex@@ 1174
ograp@@ 1174
icop@@ 1173
wit@@ 1173
Connecticut 1172
Fac@@ 1172
Gra@@ 1172
Kosovo 1172
iba 1172
ots 1172
Christina 1171
brasili@@ 1171
Eug@@ 1170
FDA 1170
Sud@@ 1170
under 1170
Down 1169
Midd@@ 1169
Western 1169
aver 1169
747 1168
Krasno@@ 1168
Sev@@ 1168
Angel@@ 1167
Holmes 1167
Galicia 1166
KV@@ 1166
Lud@@ 1166
Or 1166
Portland 1166
Punj@@ 1166
és 1166
Garden 1165
\ 1165
dov@@ 1165
30,@@ 1164
Ball 1164
Empire 1164
Kind@@ 1164
Satur@@ 1164
Trag@@ 1164
Verd@@ 1164
if 1164
ush 1164
water 1164
146 1163
DV@@ 1163
Feder@@ 1163
ayn@@ 1163
mit 1163
ể@@ 1163
Clin@@ 1162
isar 1162
LE@@ 1160
Leopold 1160
Pos@@ 1160
Pug@@ 1160
Jennifer 1159
Lut@@ 1159
Page 1159
cu 1159
Gren@@ 1158
Reich@@ 1158
ibn 1158
lic 1158
spl@@ 1158
Berg 1157
Karak@@ 1157
Zy@@ 1157
Boz@@ 1156
Journal 1156
Mahar@@ 1156
enton 1156
Hell@@ 1155
Roth@@ 1155
pot 1155
ehr 1154
Hudson 1153
Ian 1153
boy 1153
della 1153
ink 1153
kus@@ 1153
pole@@ 1153
psy@@ 1153
132 1152
Art@@ 1152
Beijing 1152
Copenh@@ 1152
atin@@ 1152
enna 1152
tube 1152
114@@ 1151
1792 1151
Sv@@ 1151
Tus@@ 1151
eshi 1151
stadt 1151
Hugo 1150
Sok@@ 1150
kas@@ 1150
ment@@ 1150
Animation 1149
Bros. 1149
Tet@@ 1149
kol@@ 1149
vet@@ 1149
iP@@ 1148
inn 1148
prol@@ 1148
uda 1147
117@@ 1146
650 1145
Chan@@ 1145
Wah@@ 1145
Are 1144
Olympi@@ 1144
kara 1144
stein@@ 1144
Heidelberg 1143
Montana 1143
Soul 1143
Sund@@ 1143
ingi 1143
113@@ 1142
25.000 1142
Cannes 1142
Cord@@ 1142
Law@@ 1142
bei 1142
mek@@ 1142
24.@@ 1141
Pyth@@ 1141
aji 1141
cut@@ 1141
ib 1141
rif@@ 1141
ism@@ 1140
ườ@@ 1140
Bass@@ 1139
Dw@@ 1139
rum 1139
， 1139
Ami@@ 1138
Singh 1138
Ward 1138
allo 1138
alta 1138
dom 1138
ries@@ 1138
aina 1137
rell 1137
conf@@ 1136
lap@@ 1136
ş 1136
ER 1135
Monaco 1135
cad@@ 1135
par 1135
skaya 1135
Anto@@ 1134
Const@@ 1134
ON@@ 1134
Tob@@ 1134
ains 1134
fax 1134
1808 1133
25.@@ 1133
esses 1133
magn@@ 1133
Aj@@ 1132
ock@@ 1132
Athletic 1131
380 1130
Carol 1130
Sul 1130
hen 1130
tiva 1130
kum@@ 1129
ves@@ 1129
acker 1128
Rhin 1127
Schwar@@ 1127
Butler 1126
tos 1126
Albums 1125
EA 1125
Four@@ 1125
SK 1124
Sty@@ 1124
ahl 1124
DT 1123
Lanc@@ 1123
Over@@ 1123
abria 1123
igan 1123
minut@@ 1123
sy 1123
Academy 1122
Harold 1122
Parker 1122
ecker 1121
fle@@ 1121
uj@@ 1121
wol@@ 1121
Just@@ 1120
but 1120
orb@@ 1120
185 1119
225 1119
Bristol 1119
capit@@ 1119
ecr@@ 1119
gy 1119
Bart@@ 1118
Brothers 1118
poli 1118
Amas@@ 1117
His@@ 1117
People 1117
beri 1117
cera 1117
Ernst 1116
Metro 1116
Zeus 1116
Schul@@ 1115
Weise 1115
oti 1115
Gli@@ 1114
Jon 1114
Monte@@ 1114
Rangers 1114
har 1114
26.@@ 1113
BM 1112
Bourbon 1112
Elli@@ 1112
Lus@@ 1112
ardin@@ 1112
box@@ 1112
yal@@ 1112
1807 1111
Dream@@ 1111
lington 1111
Campbell 1110
Ces@@ 1110
Hills 1110
Spo@@ 1110
ique 1110
red 1110
Jen@@ 1109
tec@@ 1109
EC@@ 1108
Eisen@@ 1108
Atlan@@ 1107
inho 1107
Bond 1106
By 1106
Leonard 1106
Roman@@ 1106
endorf 1106
triang@@ 1106
ás@@ 1106
Arti@@ 1105
CR@@ 1105
Gill@@ 1105
PR 1105
SD@@ 1105
Marco 1104
ampa 1104
Hall@@ 1103
Oro@@ 1103
ga@@ 1103
muda 1102
spr@@ 1102
59@@ 1101
66@@ 1101
Abdul 1101
Aristot@@ 1101
Clay 1101
Rafael 1101
Rech@@ 1101
év@@ 1101
116@@ 1100
Manisa 1100
Sever@@ 1100
modi@@ 1100
xy 1100
Ana 1099
Generation 1099
Olymp@@ 1099
Slav@@ 1099
ır@@ 1099
000@@ 1098
Of 1098
Rey 1098
Rah@@ 1097
Roberts 1097
Stars 1097
Versailles 1097
elas 1097
enny 1097
Sup@@ 1096
136 1094
prim@@ 1094
Emma 1093
F1 1093
Laura 1093
Let@@ 1093
Lisa 1093
Open@@ 1093
atur@@ 1093
lett 1093
30.@@ 1092
Pacific 1092
anni 1092
pper 1092
zz@@ 1092
2,4 1091
akh 1091
Die 1090
Mek@@ 1090
awi 1090
ien 1090
oly@@ 1090
Coch@@ 1089
Kre@@ 1089
Tan 1089
2.0 1088
Bonaparte 1088
Dave 1088
Emilia 1088
Eugen 1088
Marc@@ 1088
SL@@ 1088
hisp@@ 1088
Buk@@ 1087
bat 1087
tron 1087
versi@@ 1087
Free 1086
stel@@ 1086
tern@@ 1086
Chester 1085
Franco 1085
cylin@@ 1085
eby 1085
enh@@ 1085
子 1085
D.C. 1084
Vall@@ 1084
Comics 1083
ET 1083
Io@@ 1083
Whe@@ 1083
ahu 1083
cons@@ 1083
dop@@ 1083
Say 1082
notes 1082
tide 1082
2,3 1081
emi 1081
Gri@@ 1080
Niger 1080
Vos@@ 1080
litz 1080
28.@@ 1079
Cabr@@ 1079
Parad@@ 1079
Path@@ 1079
Phillips 1079
born 1079
deg@@ 1079
m2 1079
Ajax 1078
Dong@@ 1078
Neb@@ 1078
Tut@@ 1078
omel@@ 1078
mart@@ 1077
134 1076
1816 1076
Bailey 1076
Haus@@ 1076
Nicol@@ 1076
Yeşil@@ 1076
apar@@ 1076
shi 1076
How 1075
LP 1075
Nig@@ 1075
99@@ 1074
Calvin 1074
Capr@@ 1074
Gan@@ 1074
Sib@@ 1074
entin 1074
1758 1073
Isaac 1073
Saw@@ 1073
emann 1073
gat 1073
gir@@ 1073
119 1072
Westminster 1072
asco 1072
ative 1072
cast 1072
emis 1072
leton 1072
Aless@@ 1071
Kaf@@ 1071
Party 1071
Roh@@ 1071
dad 1071
jug@@ 1071
gon@@ 1070
lay 1070
ndi@@ 1070
And@@ 1069
Lug@@ 1069
Store 1069
Ahmed 1068
Wur@@ 1068
clip 1068
340 1067
Crawford 1067
Masters 1067
Taş@@ 1067
737 1066
Honda 1066
Kov@@ 1066
pir@@ 1066
young 1066
ň@@ 1066
Mount 1065
tex@@ 1065
tril@@ 1065
zel@@ 1065
Cra@@ 1064
Mud@@ 1064
Up@@ 1064
trig@@ 1064
ussia 1064
For 1063
Jessica 1063
Nieder@@ 1063
form 1063
Guy 1062
anor 1062
ime@@ 1062
mol 1062
Big@@ 1061
Grap@@ 1061
Out@@ 1061
Schwarz 1061
spir@@ 1061
Associ@@ 1060
Hughes 1060
Now 1060
bridge 1060
ebe 1060
ew 1060
tar 1060
Angel 1059
Basil@@ 1059
aser 1059
dam 1059
enter 1059
iTunes 1059
ük@@ 1059
As 1058
Hunt 1058
85@@ 1057
Metacritic 1057
Reed 1057
bea 1057
cum@@ 1057
Bruno 1056
Electric 1056
Fut@@ 1056
dit 1056
umbr@@ 1056
ī 1056
Mab@@ 1055
ector 1055
teen 1055
137 1054
1798 1054
MT 1054
Sep@@ 1054
Brooklyn 1053
Coll@@ 1053
Gw@@ 1053
Nab@@ 1053
Philippine 1053
Wan@@ 1053
Gustav 1052
asso 1052
esian 1052
ore@@ 1052
sdorf 1052
́ 1052
Bav@@ 1051
Ernest 1051
Naz@@ 1051
core@@ 1051
nius 1051
Erzurum 1050
ason 1050
lies 1050
Beat@@ 1049
Carr@@ 1049
ahi 1049
fri@@ 1049
liz@@ 1049
安@@ 1049
ape 1048
gar 1048
ová 1048
235 1047
Colomb@@ 1047
Nancy 1047
dul@@ 1047
elt@@ 1047
ox 1047
69@@ 1046
Edinburgh 1046
Kub@@ 1046
inin 1046
uku 1046
Enterprise 1045
Force 1045
SAR@@ 1045
Stic@@ 1045
Terry 1045
ppo 1045
Kand@@ 1044
Ltd 1044
Nich@@ 1044
Chen@@ 1043
Christmas 1043
Let 1043
Rhein 1043
eir@@ 1043
1790 1042
AE@@ 1042
Barry 1042
illi 1042
pop@@ 1042
rech@@ 1042
Bh@@ 1041
Eugene 1041
Grace 1041
Jeff 1041
Von 1041
essa 1041
hiy@@ 1041
ship 1040
Fire@@ 1039
Gav@@ 1039
dich@@ 1039
ód@@ 1039
1799 1038
Ler@@ 1038
Pac@@ 1038
157 1037
DS@@ 1037
illon 1037
oh 1037
ols 1037
edi 1036
fi 1036
FO@@ 1035
Hob@@ 1035
Jav@@ 1034
Lé@@ 1034
acta 1034
non@@ 1034
Ligue 1033
Tav@@ 1033
etr@@ 1033
sal 1033
tad@@ 1033
Carp@@ 1032
iny 1032
kar 1032
oney 1032
Fa@@ 1031
PM 1031
Rel@@ 1031
andal 1031
ate@@ 1031
pound 1031
141 1030
206 1030
Grove 1030
Rovers 1030
1600 1029
Fam@@ 1029
Nielsen 1029
gri@@ 1029
suy@@ 1029
zan@@ 1029
Hass@@ 1028
Liu 1028
Pix@@ 1028
iki@@ 1028
IE@@ 1027
IG@@ 1027
eg 1027
Pes@@ 1026
arch 1026
ente@@ 1026
214 1025
Adel@@ 1025
Broadway 1025
ingu@@ 1025
rat 1025
27.@@ 1024
Georg 1024
Niz@@ 1024
Samsun 1024
Stur@@ 1024
USB 1024
Zhang 1024
away 1024
insig@@ 1024
Guar@@ 1023
Haj@@ 1023
Neil 1023
Wars 1023
Cole 1022
Magazine 1022
Ron@@ 1022
Vid@@ 1022
alifor@@ 1022
lit 1022
2,2 1021
Leipzig 1021
cum 1021
edonia 1021
indica 1021
nar 1021
1809 1020
Ankara 1020
Sha@@ 1020
üt@@ 1020
Jol@@ 1019
Kok@@ 1019
SI@@ 1019
had 1019
uman 1019
の@@ 1019
Liberia 1018
gea 1018
vie 1018
Chev@@ 1017
ben 1017
hem 1017
ulia 1017
Bryan 1016
Ceb@@ 1016
Spin@@ 1016
ern 1016
ić 1016
ogen@@ 1016
205 1015
76@@ 1015
Math@@ 1015
fun@@ 1015
ophi@@ 1015
vić 1015
ọ@@ 1015
Blu 1014
Bung@@ 1014
Cres@@ 1014
FL 1014
Thüringen 1014
otti 1014
sche 1014
Radi@@ 1013
amaz@@ 1013
kul@@ 1013
mexicana 1013
131 1012
Christi@@ 1012
Death 1012
Leit@@ 1012
tur 1012
Cross 1011
Fres@@ 1011
Rhodes 1011
ē@@ 1011
Bod@@ 1010
Camb@@ 1010
Flem@@ 1010
Gör@@ 1010
ause 1010
ño 1010
ő@@ 1010
Ado@@ 1009
Limited 1009
Lip@@ 1009
mich@@ 1009
€ 1009
Fat@@ 1008
Reh@@ 1008
erina 1008
fem@@ 1008
Belle 1007
Cey@@ 1007
LED 1007
MG 1007
Magic 1007
Marseille 1007
alin 1007
now@@ 1007
33,@@ 1006
Cov@@ 1006
Lot 1006
Tib@@ 1006
allo@@ 1006
Hung@@ 1005
0,1 1004
21@@ 1004
Gog@@ 1004
Kru@@ 1004
Pou@@ 1004
lif@@ 1004
pis@@ 1004
133 1003
Buz@@ 1003
Carlo 1003
FBI 1003
Helena 1003
Thomson 1003
Acc@@ 1002
Mans@@ 1002
Princess 1002
Southern 1002
oso 1002
147 1001
Khal@@ 1001
Main 1001
Pag@@ 1001
card 1001
ụp 1001
Kuz@@ 1000
Nikol@@ 1000
aber 1000
211 999
Emmy 999
ahu@@ 999
map@@ 999
österreich 999
DL 998
DO@@ 998
Off@@ 998
Wallace 998
ads 998
zano 998
South@@ 997
nu 997
Arnold 996
Cleveland 996
Mong@@ 996
hausen 996
lau@@ 996
1811 995
Berkeley 995
Hoh@@ 995
IGN 995
SP 995
rett 995
Fay@@ 994
Fitz@@ 994
Mercury 994
quez 994
Amer@@ 993
ICA@@ 993
Nau@@ 993
Zar@@ 993
tive 993
Jab@@ 992
Mum@@ 992
Ruiz 992
annes 992
kinson 992
ties 992
Crystal 991
opil@@ 991
143 990
domin@@ 990
ular 990
′ 990
138 989
Us@@ 989
dica 989
orio 989
world 989
Hein@@ 988
Kiy@@ 988
Mack@@ 988
found@@ 988
hak@@ 988
veri 988
Hampshire 987
Ost@@ 987
borg 987
get@@ 987
NBA 986
book 986
dule 986
head 986
hyp@@ 986
sol 986
148 985
Asi@@ 985
CE 985
aise 985
aur 985
maire 985
shi@@ 985
Andro@@ 984
Bobby 984
Fall 984
HS 984
ambia 984
DM 983
Plus 983
dist@@ 983
208 982
Dag@@ 982
Italy 982
Mez@@ 982
Punk 982
Simpson 982
Summer 982
ablan@@ 982
ild 982
indic@@ 982
unds 982
Andes 981
Greg@@ 981
Sind@@ 981
cat 981
idel@@ 981
schi@@ 981
yev 981
üş@@ 981
Bron@@ 980
DOS 980
NBC 980
idan 980
pura 980
203 979
Squ@@ 979
VO@@ 979
Hoch@@ 978
Hope 978
Lucy 978
Sle@@ 978
ík 978
202 977
Armstrong 977
Cl 977
Guardian 977
Viet@@ 977
sein 977
Burundi 976
Core 976
209 975
ATA 975
Explorer 975
Marion 975
Rut@@ 975
Springs 975
hio 975
sus@@ 975
union 975
ieu 974
Algeria 973
Fe 973
Anim@@ 972
Luna 972
aş@@ 972
zer 972
Berry 971
Hart 971
Vinc@@ 971
orch@@ 971
Horn@@ 970
Wagner 970
acu@@ 970
Andrea 969
Uh@@ 969
abl@@ 969
vic 969
ớm 969
Bonn@@ 968
English 968
UR@@ 968
ever 968
ük 968
Fighter 967
Jerry 967
NS 967
Steel 967
ague 967
fall@@ 967
29.@@ 966
Aaron 966
Faso 966
Ronald 966
alu 966
iner 966
4000 965
fica 965
166 964
310 964
Daw@@ 964
Geneva 964
Three 964
Tuc@@ 964
marketing 964
suff@@ 964
Burkina 963
Lane 963
Palace 963
Service 963
ating 963
boa 963
enzy@@ 963
rev@@ 963
162 962
Dog@@ 962
ls 962
Alexandre 961
Bridge 961
Happy 961
Rav@@ 961
氏 961
168 960
Balıkesir 960
Knight 960
Rudolf 960
ft@@ 960
ph 960
seu@@ 960
AX 959
Orleans 959
Terr@@ 959
Year 959
Zu@@ 959
195 958
256 958
Bosna 958
Cay@@ 958
Ehr@@ 958
Kang@@ 958
Liberty 958
Not 958
hay@@ 958
Know@@ 957
Stuart 957
hist@@ 957
mata 957
polit@@ 957
lik 956
Holland 955
Laurent 955
chir@@ 955
fac@@ 955
oc 955
pers@@ 955
unif@@ 955
Bih@@ 954
Herzog 954
Saudi 954
Sob@@ 954
format 954
77@@ 953
Meth@@ 953
dez 953
AO@@ 952
Alberto 952
dida 952
isl@@ 952
mine 952
ả@@ 952
0,000 951
1200 951
Lorraine 951
lower 951
oru 951
ー@@ 951
156 950
GA 950
Niedersachsen 950
alty 950
cs 950
iya 950
och 950
Lah@@ 949
Luk@@ 949
baz@@ 949
ensa 949
fu 949
plas@@ 949
ric 949
Edition 948
ikh 948
370 947
Rural 947
itaria 947
Atlas 946
Field 946
SL 946
ın 946
142 945
Kid@@ 945
aland 945
text 945
154 944
Caribbean 944
spur 944
Camp 943
Dah@@ 943
Eas@@ 943
KA 943
Leicester 943
Aleksand@@ 942
Hik@@ 942
Jin@@ 942
Linda 942
angi 942
avirus 942
ağı 942
berry 942
met 942
onder@@ 942
sar 942
vania 942
Collins 941
Paral@@ 941
kowski 941
Battle 940
Extr@@ 940
Institute 940
Link 940
bay@@ 940
dot@@ 940
gie 940
tara 940
vector 940
Amy 939
Chau@@ 939
Morris 939
215 938
Palm@@ 938
Ports@@ 938
Voice 938
ios 938
217 937
Bin@@ 937
Foster 937
Put@@ 937
Sean 937
Uran@@ 937
arin 937
CM@@ 936
Form@@ 936
apo 936
eux 936
Botswana 935
Note 935
Rodrigu@@ 935
ering 935
sav@@ 935
Fig@@ 934
Palermo 934
Petro@@ 934
abi@@ 934
dir@@ 934
ensen 934
139 933
38.@@ 933
Del 933
Eff@@ 933
mach@@ 933
punk 933
scope 933
thy 933
1786 932
Abdullah 932
Num@@ 932
Phoen@@ 931
istes 931
itas 931
jap@@ 931
ques 931
sley 931
Band 930
Dak@@ 930
Pant@@ 930
etz 930
site 930
European 929
Olden@@ 929
bag@@ 929
yen@@ 929
Child 928
Haf@@ 928
Jack@@ 928
Müller 928
Kaiser 927
153 926
Wells 926
hir 926
plac@@ 926
vas@@ 926
妃 926
305 925
84@@ 925
Helen 925
Lima 925
indi@@ 925
山@@ 925
Cub@@ 924
Delaware 924
Kah@@ 924
Yale 924
drei 924
kn@@ 924
unt 924
var 924
176 923
32,@@ 923
II@@ 923
pera 923
AO 922
Nog@@ 922
Ve@@ 922
tle 922
Bologna 921
Cann@@ 920
Imp@@ 920
Theod@@ 920
Yukar@@ 920
contr@@ 920
88@@ 919
API 919
Savoie 919
Whitney 919
bek 919
201 918
Joan 918
umo 918
wn@@ 918
wski 918
三@@ 918
Phar@@ 917
Z.@@ 917
eus@@ 917
inson 917
zel 917
Burn@@ 916
Family 916
Tell 916
obs 916
sou@@ 916
Brow@@ 915
Dr. 915
Pérez 915
Wein@@ 915
azu 915
Atlético 914
Güm@@ 914
Mohammed 914
Mou@@ 914
Rau@@ 914
Trin@@ 914
concert 914
ril 914
yas@@ 914
35,@@ 913
Single 913
hac@@ 913
2,6 912
63@@ 912
Dist@@ 912
PR@@ 912
Tay@@ 912
Tower 912
Traf@@ 912
ebra 912
ensi@@ 912
Eich@@ 911
Lloyd 911
hion 911
odi 911
ğr@@ 911
子@@ 911
Bunge 910
Kate 910
Vista 910
fan@@ 910
luk 910
asta 909
spar@@ 909
南@@ 909
Quebec 908
Take 908
Sur 907
Tommy 907
ampton 907
lim 907
ahr@@ 906
aten 906
engo 906
golf 906
loss@@ 906
new 906
oll 906
武@@ 906
Sut@@ 905
Tau@@ 905
brid@@ 905
Bug@@ 904
Doğ@@ 904
ande 904
cont@@ 904
eyi 904
onda 904
151 903
Cloud 903
CT@@ 902
SmackDown 902
Zan@@ 902
enst@@ 902
ifer@@ 902
wei 902
Hugh 901
Nel@@ 901
Pall@@ 901
SK@@ 901
anak@@ 901
ede 901
ç 901
Capitol 900
Nim@@ 900
Rag@@ 900
Southampton 900
ames 900
atten@@ 900
hot 900
law 900
Tang@@ 899
Mont 898
ather 898
ượu 898
AV 897
Floyd 897
Gür@@ 897
Hac@@ 897
Mark@@ 897
Zak@@ 897
chan 897
tav@@ 897
ș 897
Lancaster 896
aim@@ 896
Edgar 895
Four 895
Research 895
Silver 895
Stanford 895
aves 895
tima 895
tina 895
vor 895
174 894
arre 894
ener@@ 894
192 893
Owen 893
rat@@ 893
zan 893
Çam@@ 893
ː 893
212 892
Captain 892
dier 892
ires 892
ège 892
ự@@ 892
Ce@@ 891
PP 891
SV 891
Secret 891
Spencer 891
Voy@@ 891
alam@@ 891
mith@@ 891
pris 891
sels 891
º@@ 891
Ê@@ 891
ế@@ 891
186 890
Stil@@ 890
480 889
berland 889
elly 889
sons 889
Anton 888
Château 888
quel@@ 888
rin 888
Felipe 887
Nile 887
pic 887
Television 886
fo 886
was@@ 886
yr 886
1700 885
Spor@@ 885
dum 885
thias 885
uya 885
ˈ@@ 885
1787 884
NCA@@ 884
Rogers 884
Wis@@ 884
dioc@@ 884
had@@ 884
74@@ 883
Sevilla 883
cé 883
ights 883
vie@@ 883
ığ 883
CG 882
Cri@@ 882
also 882
mah@@ 882
right 882
1791 881
275 881
District 881
Norte 881
Samp@@ 881
arist@@ 881
ınar 881
Dais@@ 880
Psy@@ 880
bio 880
otype 880
plasma 880
tens 880
toc@@ 880
164 879
Hind@@ 879
Jesus 879
Viol@@ 879
aks 879
172 878
204 878
Diana 878
Estr@@ 878
MB 878
Nick@@ 878
abar@@ 878
atta 878
incer@@ 878
pher@@ 878
Má@@ 877
Wander@@ 877
amide 877
eas@@ 877
icro@@ 877
290 876
Eb@@ 876
Sebastian 876
anic 876
ders 876
1793 875
Alto 875
Châ@@ 875
Moz@@ 875
Muh@@ 875
U. 875
pedi@@ 875
Bomb@@ 874
Dortmund 874
Harr@@ 874
Mountain 874
Mr@@ 874
cosa 874
ici 874
omorph@@ 874
皇@@ 874
Age 873
Coast 873
Emir@@ 873
Joyce 873
Mason 873
Shah@@ 873
Sén@@ 873
Til@@ 873
alı 873
have 873
very 873
viv@@ 873
國@@ 873
liqu@@ 872
区 872
Fort@@ 871
ł 871
Harvey 870
Konya 870
Leeds 870
Standard 870
box 870
eber 870
rhy@@ 870
wr@@ 870
州 870
Felix 869
Torres 869
ongo 869
other 869
tas 869
0,6 868
Jon@@ 868
dos@@ 868
tn@@ 868
1794 867
Dublin 867
God 867
key@@ 867
孝@@ 867
Hep@@ 866
Mini 866
States 866
183 865
207 865
Arth@@ 865
Chang@@ 865
Rost@@ 865
abor@@ 865
uld 865
Macar@@ 864
Morrison 864
Send@@ 864
Small 864
lins 864
nio 864
tou@@ 864
2,8 863
tius 863
Epis@@ 862
German@@ 862
Omar 862
bourg 862
cass@@ 862
dah@@ 862
ilen 862
patr@@ 862
sian 862
yaz@@ 862
189 861
Kou@@ 861
visual 861
Ü@@ 861
167 860
221 860
BP 860
Ey@@ 860
Princeton 860
Roberto 860
alay@@ 860
alo 860
Alexandra 859
Diyarbakır 859
Fried@@ 859
Nis@@ 859
einer 859
iler 859
lung 859
uva 859
vac@@ 859
wid@@ 859
元@@ 859
850 858
Emp@@ 858
Erz@@ 858
Laf@@ 858
Medina 858
SM@@ 858
Yorkshire 858
bey@@ 858
chap@@ 858
rol 858
stream 858
École 858
Bull 857
Burg@@ 857
Carol@@ 857
Rachel 857
Software 857
Zer@@ 857
date 857
gren 857
otz@@ 857
sier 857
173 856
Gig@@ 856
Kro@@ 856
Powell 856
aik@@ 856
face 856
left 856
ning@@ 856
Beng@@ 855
Kuh@@ 855
carp@@ 855
mos 855
ram 855
Bursa 854
Columbus 854
More 854
WTA 854
iris 854
toria 854
238 853
Autom@@ 853
Dul@@ 853
Mali@@ 853
Murphy 853
Nach@@ 853
Rep@@ 853
Republic 853
There 853
0,2 852
0,3 852
Suc@@ 852
Vari@@ 852
Venus 852
chem@@ 852
entry 852
lic@@ 852
mart 852
Atlantic 851
Todd 851
laur@@ 851
ovia 851
schn@@ 851
179 850
Alberta 850
August@@ 850
Hig@@ 850
Pascal 850
Zam@@ 850
dra@@ 850
heimer 850
over@@ 850
tun@@ 850
0,8 849
163 849
Dioc@@ 849
Fou@@ 849
Mill 849
Muk@@ 849
Non 849
Vladi@@ 849
Clara 848
Toyota 848
UC@@ 848
meridi@@ 848
seg@@ 848
325 847
Back@@ 847
Kai 847
Verde 847
fron@@ 847
vier 847
Bill@@ 846
cham@@ 846
online 846
Jay@@ 845
Maxwell 845
Sheffield 845
ands 845
onas 845
ycidae 845
GC 844
Kurt 844
red@@ 844
Korea 843
othe@@ 843
ılar 843
皇后 843
Leonardo 842
Stefan 842
bab@@ 842
dur 842
itor 842
pool 842
thiop@@ 842
184 841
199 841
Mohamed 841
dal 841
geri 841
明@@ 841
193 840
Glenn 840
Togo 840
azz@@ 840
estan 840
music 840
noc@@ 840
ras 840
stedt 840
Never 839
va@@ 839
Bar 838
yang 838
222 837
420 837
Alliance 837
Corr@@ 837
Cycl@@ 837
Diplo@@ 837
Instagram 837
Peters 837
Vienne 837
nitr@@ 837
ult 837
Are@@ 836
Aston 836
Lamb@@ 836
RI 836
burg@@ 836
hard@@ 836
style 836
8,5 835
Glasgow 835
Kütahya 835
Marina 835
bou@@ 835
177 834
Arab@@ 834
Chem@@ 834
Sophie 834
building 834
uo 834
Days 833
Doctor 833
ML 833
Marcel 833
Movie 833
Productions 833
ege 833
geh@@ 833
igg@@ 833
osi 833
oter@@ 833
inski 832
lang@@ 832
ps@@ 832
rou@@ 832
178 831
2,7 831
Elena 831
Nass@@ 831
anea 831
capa 831
dio 831
ital 831
Business 830
Nations 830
Post@@ 830
Tel 830
½ 830
ə@@ 830
Five 829
Jenn@@ 829
Logan 829
Maximilian 829
Nah@@ 829
Oslo 829
Phone 829
Pont 829
Run 829
Woman 829
Yaz@@ 829
eras 829
tie 829
Rock@@ 828
decor@@ 828
ysis 828
1776 827
262 827
34,@@ 827
Karen 827
Wyoming 827
amer 827
Aud@@ 826
Ricardo 826
Vend@@ 826
arı 826
308 825
Castell@@ 825
DF@@ 825
Dau@@ 825
Rhode 825
SV@@ 825
azar@@ 825
nev@@ 825
real 825
182 824
265 824
365 824
Rotten 824
esti 824
kay@@ 824
Erich 823
Mati@@ 823
Money 823
ainer 823
Aki@@ 822
Ferguson 822
Freder@@ 822
BAFTA 821
adan 821
cas 821
yeri 821
öz@@ 821
264 820
Brest 820
Cola 820
Dh@@ 820
Metz 820
Orlando 820
Pero 820
bid@@ 820
ö 820
BD 819
Bras@@ 819
Kras@@ 819
anza 819
aran@@ 819
bor 819
eba 819
endel@@ 819
ppen 819
228 818
36,@@ 818
78@@ 818
95@@ 818
Bern 818
Box 818
Gott@@ 818
Gök@@ 818
Rang 818
glut@@ 818
ld 818
ories 818
IF 817
Mih@@ 817
gó@@ 817
teo 817
300@@ 816
Henderson 816
PD 816
Yay@@ 816
erk@@ 816
press@@ 816
spec@@ 816
ỷ@@ 816
Africa 815
Cz@@ 815
Duke 815
Face 815
actr@@ 815
jer@@ 815
nec@@ 815
vertic@@ 815
Augusta 814
Essex 814
López 814
Yus@@ 814
elea 814
öl 814
Direc@@ 813
Yi 813
EN@@ 812
Grey 812
Naples 812
Quar@@ 812
comment 812
223 811
3,2 811
98@@ 811
Bob@@ 811
Clau@@ 811
Rocky 811
Eritrea 810
GNU 810
Gabri@@ 810
Inn@@ 810
Jorge 810
Jos@@ 810
With 810
wing 810
1795 809
181 809
188 809
Caes@@ 809
Grav@@ 809
Hill@@ 809
Lil@@ 809
Pok@@ 809
alen 809
ebu 809
ort@@ 809
ợ@@ 809
CL 808
Eagle 808
Edge 808
Grig@@ 808
Morning 808
Richmond 808
SN 808
Sweet 808
bol 808
kea 808
utu 808
ène 808
Adelaide 807
Herschel 807
Nice 807
Server 807
abo@@ 807
endi 807
insul@@ 807
path@@ 807
trin@@ 807
ysi@@ 807
Slov@@ 806
Flam@@ 805
Paran@@ 805
Pompe@@ 805
sberg 805
劉@@ 805
Beautiful 804
Get@@ 804
Ibrahim 804
ansen 804
196 803
Meh@@ 803
PL 803
Seb@@ 803
Station 803
orium 803
pei 803
ül@@ 803
198 802
Dick 802
Rég@@ 802
iwa 802
304 801
Bas 801
Jal@@ 801
recur@@ 801
tum@@ 801
xima 801
Hack@@ 800
Keith 800
Piz@@ 800
colspan 800
egu 800
ils 800
金@@ 800
Din 799
Fid@@ 799
Maf@@ 799
Visual 799
cott 799
ça 799
Bald@@ 798
Major 798
Olivier 798
Rous@@ 798
ages 798
Blood 797
CF 797
EM 797
Ear@@ 797
cath@@ 797
149 796
Craig 796
Gonz@@ 796
Kenneth 796
aux@@ 796
cyclo@@ 796
ej 796
seri 796
simul@@ 796
tap@@ 796
之@@ 796
255 795
After 795
Get 795
MHz 795
Shakespeare 795
Symp@@ 795
ml 795
plut@@ 795
Sara 794
See 794
Tyler 794
arro 794
conn@@ 794
mph 794
pio 794
type 794
égal 794
158 793
MIT 793
Northern 793
cer 793
dag@@ 793
gros@@ 793
171 792
Kau@@ 792
Micha@@ 792
Montreal 792
asse 792
cyc@@ 792
dict@@ 792
ful 792
Celtic 791
Edmund 791
Kri@@ 791
Raz@@ 791
americana 791
lima 791
Ế@@ 791
1782 790
213 790
Acan@@ 790
Baltimore 790
Wik@@ 790
apr@@ 790
dağ 790
dub@@ 790
ậ@@ 790
Ent@@ 789
Indian 789
dem 789
sn@@ 789
paci@@ 788
sti 788
urs@@ 788
1783 787
38,@@ 787
Fall@@ 787
Fi 787
Justicia 787
carbon@@ 787
group 787
ür@@ 787
1772 786
191 786
31.@@ 786
Aircraft 786
aki@@ 786
ub 786
་ 786
219 785
Duf@@ 785
Imag@@ 785
Kw@@ 785
Pablo 785
Stade 785
aly 785
tari 785
187 784
197 784
Barbar@@ 784
Chron@@ 784
Dest@@ 784
Drake 784
Jules 784
Name 784
kit@@ 784
tat@@ 784
37,@@ 783
Beno@@ 783
García 783
Hood 783
ifer 783
municipal 783
wiki 783
Düz@@ 782
HC 782
aklı 782
buc@@ 782
cke 782
eves 782
roy 782
two 782
ule 782
1797 781
Nassau 781
Sunday 781
ses@@ 781
德@@ 781
Senior 780
aber@@ 780
ael 780
ball 780
confer@@ 780
nak@@ 780
onte 780
ıç@@ 780
ững 780
Josh 779
Miranda 779
Today 779
abol@@ 779
ỗn 779
Hello 778
312 777
BAS@@ 777
Hannover 777
bas 777
china 777
gom@@ 777
spect@@ 777
stor@@ 777
Deep 776
Glau@@ 776
Theodore 776
éri@@ 776
Ced@@ 775
Horn 775
termin@@ 775
CR 774
Nos@@ 774
Tomatoes 774
Triple 774
Ud@@ 774
ards 774
cav@@ 774
ignon 774
orf 774
orian 774
79@@ 773
Jeanne 773
Lyn@@ 773
Must@@ 773
TR@@ 773
Torre 773
Unix 773
alim@@ 773
life 773
tron@@ 773
Danny 772
Kant@@ 772
René 772
Sánchez 772
entino 772
fos@@ 772
Century 771
Challenge 771
Second 771
cant@@ 771
four 771
0,4 770
161 770
eine 770
rian 770
team 770
ǎ@@ 770
Braun 769
Québec 769
Süd@@ 769
Wind@@ 769
interrup@@ 769
sola 769
ź 769
Bois 768
NET 768
Rob 768
Zaragoza 768
vet 768
194 767
Afro@@ 767
Computer 767
Detroit 767
Dial@@ 767
Lomb@@ 767
Sol 767
gate 767
onian 767
Geh@@ 766
Gior@@ 766
SU 766
reduc@@ 766
Bella 765
Demir@@ 765
Erik 765
acha 765
deser@@ 765
egel 765
jur@@ 765
Göl@@ 764
Lynch 764
debut 764
emy 764
erst@@ 764
iv 764
run 764
track 764
Doh@@ 763
If 763
MT@@ 763
Porter 763
enor@@ 763
itr@@ 763
led@@ 763
mim@@ 763
oty@@ 763
prom@@ 763
sac 763
226 762
3,3 762
Nacional 762
Scre@@ 762
ident 762
ış@@ 762
Hug@@ 761
João 761
akan 761
echn@@ 761
osh 761
yard 761
市 761
Human 760
Management 760
inas 760
sm@@ 760
高@@ 760
440 759
GO@@ 759
Homo 759
conc@@ 759
emati@@ 759
maj@@ 759
para 759
Å@@ 759
89@@ 758
Rin@@ 758
avo 758
ighton 758
lı@@ 758
ün@@ 758
Bey@@ 757
Dennis 757
Lex@@ 757
Milli@@ 757
Special 757
cartes 757
ican 757
234 756
Antalya 756
Beh@@ 756
Idaho 756
Jr. 756
Latino 756
Pear@@ 756
commune 756
yans@@ 756
232 755
Elisabeth 755
Sheikh 755
alie 755
ank@@ 755
cricket 755
rah 755
vir 755
169 754
Audi@@ 754
CV 754
Comic 754
Infin@@ 754
Over 754
Paolo 754
action 754
Eva 753
Geoff@@ 753
chal@@ 753
som 753
ég@@ 753
159 752
2023 752
Cit@@ 752
Flo@@ 752
Lion 752
Ted@@ 752
cla@@ 752
eling 752
rim@@ 752
39,@@ 751
Ahmad 751
Anat@@ 751
Leb@@ 751
McDonald 751
Sach@@ 751
gil 751
parall@@ 751
430 750
Antoine 750
Bub@@ 750
Emily 750
Stuttgart 750
amii 750
consol@@ 750
server 750
test 750
1,9 749
CF@@ 749
SW@@ 749
glob@@ 749
ische 749
Born 748
CNN 748
Drag@@ 748
Fischer 748
Margar@@ 748
ROM 748
Roland 748
bra@@ 748
evi 748
oue 748
3,6 747
Civ@@ 747
Graf 747
Kes@@ 747
Mohammad 747
chem 747
fasc@@ 747
haz@@ 747
nos@@ 747
olph 747
remix 747
zon 747
् 747
Sophia 746
Systems 746
Wellington 746
sheim 746
Ave@@ 745
Yang@@ 745
aron 745
fiel@@ 745
inj@@ 745
iye 745
umani 745
Call 744
Francesco 744
anni@@ 744
ausen 744
cent@@ 744
Çay@@ 744
316 743
Atom@@ 743
Bail@@ 743
Betty 743
Carib@@ 743
Michelle 743
aming 743
tori@@ 743
works 743
ð@@ 743
SR 742
U.@@ 742
Werner 742
iff@@ 742
köprü 742
oci@@ 742
Anast@@ 741
Hotel 741
imit@@ 741
impres@@ 741
87@@ 740
Anglo 740
Brig@@ 740
Ech@@ 740
Fland@@ 740
apolis 740
asim@@ 740
ety 740
kle@@ 740
Drive 739
Guill@@ 739
Lost 739
Saar@@ 739
amu 739
eur 739
horn 739
iles 739
ood 739
row@@ 739
400@@ 738
Det@@ 738
Dynam@@ 738
Nil@@ 738
Pow@@ 738
RAF 738
Some@@ 738
distinc@@ 738
ellan 738
jk 738
tura 738
ém@@ 738
254 737
Plymouth 737
cell 737
yap@@ 737
Head 736
Ibn 736
Malat@@ 736
Techn@@ 736
osom@@ 736
yam@@ 736
Brisbane 735
Crom@@ 735
HD@@ 735
flex@@ 735
opol@@ 735
sey@@ 735
weight 735
ife 734
onna 734
227 733
279 733
Hardy 733
Joachim 733
Lopez 733
Wrestling 733
ata@@ 733
which 733
Çanakkale 733
ă 733
A2 732
Ellen 732
Suff@@ 732
acht 732
ext@@ 732
igne 732
oğlu 732
vik 732
Country 731
Emin@@ 731
Got 731
drama 731
1784 730
218 730
224 730
Greg 730
India 730
Köln 730
Ya 730
deb@@ 730
gab@@ 730
owa 730
229 729
86@@ 729
Fav@@ 729
Fred@@ 729
Nap@@ 729
Río 729
age@@ 729
ead 729
iger@@ 729
96@@ 728
Alber@@ 728
Dres@@ 728
Fast 728
Julian 728
Ordu 728
Soccer 728
Swan@@ 728
When 728
det@@ 728
lie@@ 728
tain@@ 728
Hull 727
Sot@@ 727
abo 727
blatt 727
mexic@@ 727
303 726
Beta 726
Giuseppe 726
Isa@@ 726
Lil 726
Youth 726
band 726
lug@@ 726
ril@@ 726
1400 725
1785 725
Ambro@@ 725
Capital 725
Siv@@ 725
plo@@ 725
Dep@@ 724
Light@@ 724
ror 724
sous 724
Anatolia 723
Borussia 723
Gay 723
Johannesburg 723
Rice 723
Tall@@ 723
allas 723
enni@@ 723
fid@@ 723
get 723
İzmir 723
32@@ 722
Benedic@@ 722
Kron@@ 722
Vau@@ 722
Winston 722
üm@@ 722
258 721
Bradley 721
Kids 721
Sham@@ 721
shu@@ 721
umi@@ 721
Cow@@ 720
Kost@@ 720
bour@@ 720
Choice 719
Dresden 719
Mart 719
Riga 719
Rodríguez 719
中@@ 719
-- 718
239 718
245 718
Bremen 718
Kati@@ 718
Sullivan 718
Wonder 718
ender 718
EL@@ 717
Enter@@ 717
Gü@@ 717
pole 717
2030 716
DB 716
Kud@@ 716
Wr@@ 716
lyr@@ 716
nos 716
umba 716
vip@@ 716
Bach 715
Biz@@ 715
Johan 715
Wad@@ 715
active 715
cester 715
schw@@ 715
249 714
EM@@ 714
Mant@@ 714
Richardson 714
aun 714
Again 713
Fisher 713
Vand@@ 713
chev@@ 713
hid 713
its@@ 713
vag@@ 713
Henri@@ 712
aldo 712
arian 712
blan@@ 712
gas 712
Chad 711
Diamond 711
Flash 711
LG@@ 711
come 711
sug@@ 711
tiques 711
té 711
32.@@ 710
Baş@@ 710
Hero 710
Lod@@ 710
Wolfgang 710
asan 710
Öz@@ 710
ệ@@ 710
Bam@@ 709
Lebanon 709
Motors 709
sten 709
BE 708
Hannah 708
lain 708
sex 708
301 707
Blü@@ 707
Conference 707
EST 707
Reynolds 707
Shan@@ 707
Winter 707
berger 707
Curtis 706
Giac@@ 706
Juni@@ 706
Seven 706
coll@@ 706
heim@@ 706
Brook@@ 705
Gate 705
Spiel@@ 705
acher 705
ality 705
apos@@ 705
dens@@ 705
sanc@@ 705
taine 705
1780 704
263 704
Aber@@ 704
Ghost 704
Stef@@ 704
Vich@@ 704
ỡ@@ 704
2,1 703
Abbas 703
Clay@@ 703
eko 703
keting 703
pist@@ 703
uter 703
Lok@@ 702
Pete 702
Ring 702
Stam@@ 702
Tai@@ 702
Zep@@ 702
bran@@ 702
bro 702
first 702
kap@@ 702
rav@@ 702
Bing@@ 701
Gou@@ 701
Nou@@ 701
Trabzon 701
div@@ 701
e.@@ 701
fire 701
阮@@ 701
Technology 700
lak@@ 700
lich 700
ppen@@ 700
216 699
Cardiff 699
Flu@@ 699
Holocaus@@ 699
Marcos 699
Prin@@ 699
Zw@@ 699
bet 699
data 699
edra 699
film 699
kale 699
sman 699
山 699
Aks@@ 698
History 698
LM 698
410 697
Bordeaux 697
Davies 697
Eis@@ 697
Evil 697
Glou@@ 697
dek 697
jpg 697
Rain 696
True 696
andro 696
car 696
isto 696
num@@ 696
self 696
Auto 695
Lour@@ 695
Orléans 695
Rainbow 695
SH 695
cen@@ 695
colum@@ 695
oslav 695
Basel 694
Freedom 694
Haut 694
Joy 694
Mercedes 694
Night@@ 694
basis 694
eres 694
ffer 694
hane 694
timestamp 694
500@@ 693
Guil@@ 693
Osman@@ 693
Ov@@ 693
arts 693
gin 693
hou 693
ute 693
González 692
brand@@ 692
dison 692
iku@@ 692
pes@@ 692
play@@ 692
Jazz 691
Kingdom 691
Voc@@ 691
anlı 691
issi@@ 691
stre@@ 691
285 690
Andrews 690
Hopkins 690
Law 690
Metal 690
PI 690
Poli@@ 690
Sonn@@ 690
Wrest@@ 690
anan 690
cit@@ 690
engers 690
ods 690
Avi@@ 689
BB 689
Valle 689
ences 689
hol 689
ja@@ 689
oton@@ 689
1763 688
Hér@@ 688
Paraná 688
Viktor 688
adam@@ 688
contributor 688
Bj@@ 687
Gaza 687
Helsinki 687
Joel 687
Public 687
Swe@@ 687
ayak@@ 687
bes 687
inger@@ 687
tek 687
wn 687
BL@@ 686
Bon 686
Electronic 686
Script 686
color@@ 686
estra 686
toon 686
ān 686
243 685
Apol@@ 685
Blanco 685
Monster 685
alma 685
asser 685
tions 685
trail@@ 685
İn@@ 685
ň 685
Block 684
Dé@@ 684
LD 684
Plant@@ 684
aku@@ 684
alu@@ 684
antum 684
elds 684
escu 684
got@@ 684
imia 684
286 683
Auguste 683
Bennett 683
Lorenzo 683
arak 683
gelen@@ 683
Philipp@@ 682
Za@@ 682
ean@@ 682
ensburg 682
Jes@@ 681
Observat@@ 681
Petit 681
annul@@ 681
bom@@ 681
itia 681
taş 681
ved@@ 681
vill@@ 681
242 680
501 680
Chic@@ 680
Dud@@ 680
Rang@@ 680
sive 680
Ib@@ 679
Kiss 679
divis@@ 679
kirchen 679
quis@@ 679
HF 678
Jub@@ 678
Larry 678
tang@@ 678
Port@@ 677
blin 677
dou@@ 677
erre 677
point 677
1768 676
Bret@@ 676
Foc@@ 676
Friends 676
Ocean 676
Perf@@ 676
Riz@@ 676
aray 676
bog@@ 676
thre@@ 676
trag@@ 676
一@@ 676
251 675
Dami@@ 675
eim@@ 675
nin@@ 675
sul 675
Bus 674
Films 674
Julie 674
Leslie 674
ador@@ 674
crip@@ 674
ffe 674
flag@@ 674
iman 674
Jake 673
Kingston 673
NC 673
UI 673
bera 673
https 673
p.@@ 673
陳@@ 673
1781 672
French 672
GT@@ 672
Hes@@ 672
Somerset 672
azy 672
kad@@ 672
sad@@ 672
username 672
ß@@ 672
35.@@ 671
Andor@@ 671
Claire 671
Jonas 671
Planet 671
ection 671
ellen@@ 671
leh@@ 671
tenstein 671
thel@@ 671
yk@@ 671
ân@@ 671
295 670
Aff@@ 670
Esc@@ 670
Gibson 670
Ottawa 670
Salzburg 670
Andal@@ 669
Kara 669
Plaza 669
Watch 669
epis@@ 669
Deg@@ 668
Machine 668
Senegal 668
Village 668
Wester@@ 668
mê@@ 668
ose@@ 668
word 668
yurt 668
Cali@@ 667
Ya@@ 667
Yuc@@ 667
code 667
eke 667
sau@@ 667
張@@ 667
西@@ 667
Part 666
Tep@@ 666
esse 666
integ@@ 666
iza 666
opar@@ 666
1778 665
IN 665
Nicole 665
Pont@@ 665
body 665
nitz 665
ual 665
252 664
Castil@@ 664
Monter@@ 664
Nept@@ 664
Place 664
gut@@ 664
unya 664
Constantinople 663
Engel@@ 663
allen 663
bad@@ 663
gee 663
haw@@ 663
257 662
Alp@@ 662
Barth@@ 662
Bloom@@ 662
Brad 662
CI 662
Carroll 662
Himm@@ 662
Neum@@ 662
iş@@ 662
umia 662
233 661
33.@@ 661
Josef 661
PN 661
Susan 661
^ 661
aray@@ 661
berg@@ 661
concer@@ 661
cules 661
ele@@ 661
noi 661
phin 661
302 660
Hern@@ 660
Pf@@ 660
1796 659
DR 659
Villar@@ 659
ambo 659
dt 659
race 659
rent 659
tras@@ 659
uko 659
侯 659
Att@@ 658
Falls 658
Faus@@ 658
Pale@@ 658
bara 658
law@@ 658
vesti@@ 658
Ê 658
Andreas 657
ES 657
Eck@@ 657
cog@@ 657
lois 657
sult@@ 657
3,4 656
560 656
Fernández 656
Lagos 656
ank 656
cara 656
deci@@ 656
dest@@ 656
igns 656
uss 656
Derby 655
Janet 655
angel@@ 655
gli@@ 655
Angela 654
Lower 654
Percy 654
bad 654
bah@@ 654
bers 654
ender@@ 654
fast 654
lib@@ 654
pas 654
vs 654
ız@@ 654
241 653
abil@@ 653
amis 653
anal@@ 653
endra 653
were 653
AZ 652
Carmen 652
Fem@@ 652
Lich@@ 652
UT@@ 652
fly 652
trol@@ 652
BN 651
Eddie 651
Mega 651
WT@@ 651
dost@@ 651
mam@@ 651
mann@@ 651
organ 651
ucci 651
zam@@ 651
Rich 650
ede@@ 650
ile@@ 650
kill 650
pru@@ 650
Ó@@ 650
520 649
Classic 649
Mix@@ 649
Nest@@ 649
Pietro 649
Salt 649
nice 649
olin 649
west 649
和@@ 649
386 648
Buffalo 648
GE 648
IT 648
beck 648
Ef@@ 647
Mania 647
Vivi@@ 647
acle 647
aper@@ 647
tay@@ 647
ø 647
Alban@@ 646
IV@@ 646
acles 646
blues 646
fen 646
gel 646
hand@@ 646
icky 646
mem@@ 646
ouvre 646
qi 646
tenberg 646
uan 646
árez 646
Teresa 645
alle 645
oft 645
460 644
GPS 644
Marino 644
Wilhel@@ 644
Zürich 644
enca 644
jun@@ 644
master 644
sper@@ 644
318 643
Alain 643
Flying 643
Gramm@@ 643
Jupiter 643
Va@@ 643
ip 643
mare 643
uel 643
Étienne 643
Becker 642
Development 642
Fame 642
Gat@@ 642
Harper 642
Hud@@ 642
idas 642
1740 641
231 641
Bund@@ 641
Konstant@@ 641
Mother 641
Toledo 641
dice 641
ekw@@ 641
tronics 641
ä 641
1774 640
950 640
Doc@@ 640
Noel 640
Oak 640
UN 640
oul 640
307 639
390 639
César 639
ET@@ 639
Gó@@ 639
IR@@ 639
Kid 639
Klo@@ 639
Myster@@ 639
Oblast 639
Salamanca 639
Side 639
elo@@ 639
kır@@ 639
like 639
Lew@@ 638
Pie@@ 638
gall@@ 638
mani@@ 638
oyle 638
Atel@@ 637
IB@@ 637
Ment@@ 637
Moses 637
enas 637
Gaulle 636
Jamie 636
Krist@@ 636
Philos@@ 636
SF@@ 636
Tud@@ 636
oir 636
urn 636
℃ 636
平@@ 636
323 635
Bayer 635
Brunswick 635
Ten 635
dow@@ 635
ial 635
iter 635
rest 635
sir@@ 635
thodes 635
。 635
001 634
1767 634
Denver 634
Monica 634
Randy 634
alk@@ 634
hier@@ 634
itar 634
kit 634
oce 634
strö@@ 634
530 633
Church 633
EN 633
Sin 633
hiv@@ 633
load 633
qué 633
sim 633
ン@@ 633
Aw@@ 632
Klein 632
Lotus 632
Meyer 632
Nih@@ 632
Rig@@ 632
lina 632
sie 632
36.@@ 631
Edwin 631
Fey@@ 631
Gin@@ 631
Thur@@ 631
enga 631
fordshire 631
246 630
268 630
94@@ 630
Adana 630
Angelo 630
Bird 630
Kars 630
List 630
Miss@@ 630
eber@@ 630
ision 630
pen 630
soc@@ 630
Ỷ 630
1760 629
DR@@ 629
Gül@@ 629
Labr@@ 629
bel 629
depres@@ 629
H2@@ 628
HBO 628
Rit@@ 628
Saturday 628
Town@@ 628
U.S. 628
ambi@@ 628
ayr@@ 628
fj@@ 628
hu 628
jas 628
tain 628
usi 628
Fron@@ 627
Gusta@@ 627
IA@@ 627
Orig@@ 627
Perth 627
anto 627
engine 627
orno 627
schul@@ 627
tico 627
uza 627
236 626
37.@@ 626
Burton 626
KO 626
WWF 626
atlan@@ 626
col 626
elen@@ 626
Bever@@ 625
Court 625
HTML 625
Michel@@ 625
Review 625
Sonic 625
Sport 625
bern@@ 625
league 625
link 625
mas 625
membran@@ 625
人 625
ON 624
abu 624
atem@@ 624
izer 624
oras 624
quet 624
288 623
Hindi 623
anca 623
ağı@@ 623
cos 623
rich 623
tical 623
2500 622
313 622
Fan@@ 622
Rush 622
mid 622
onen 622
1777 621
253 621
Lara 621
gr 621
lada 621
sko@@ 621
teur 621
tris 621
ů@@ 621
1770 620
306 620
Glob@@ 620
Mersin 620
Turin 620
Warriors 620
acous@@ 620
yat 620
Equ@@ 619
Mend@@ 619
Rain@@ 619
Under 619
daf@@ 619
mat 619
open@@ 619
3.0 618
Children 618
Dad@@ 618
Flag@@ 618
Sound@@ 618
Stol@@ 618
Zuc@@ 618
bere@@ 618
embr@@ 618
kent 618
787 617
Dat@@ 617
Down@@ 617
Europe 617
FS 617
Gim@@ 617
Lati@@ 617
Snow 617
Stan 617
ayer 617
fluor@@ 617
kop@@ 617
trat@@ 617
271 616
278 616
Dut@@ 616
Gener@@ 616
Guin@@ 616
Hell 616
Neo 616
inci 616
ind 616
olan@@ 616
wana 616
315 615
34.@@ 615
Ket@@ 615
MO 615
Regel 615
Rup@@ 615
Tito 615
diver@@ 615
eff 615
gers 615
hib@@ 615
hood 615
lair 615
nova 615
reo 615
tail 615
zem@@ 615
Granada 614
bir 614
flam@@ 614
irie 614
kes@@ 614
unia 614
610 613
Nun@@ 613
alle@@ 613
kW 613
shan 613
Come 612
Data 612
Grand@@ 612
Windsor 612
debil@@ 612
Fen@@ 611
From 611
Spec@@ 611
ardo 611
morph@@ 611
nak 611
sud@@ 611
1.5 610
247 610
Hit 610
KO@@ 610
Short 610
leist@@ 610
tag 610
uti 610
39.@@ 609
Brooks 609
Ellis 609
Emmanuel 609
Preston 609
Them@@ 609
Touch 609
William@@ 609
Yes@@ 609
iter@@ 609
640 608
Dog 608
align 608
ibu 608
itu 608
lice 608
nis@@ 608
NH 607
NY@@ 607
Prague 607
Ruh@@ 607
Zab@@ 607
dings 607
ency 607
244 606
269 606
Doug@@ 606
Pist@@ 606
Power@@ 606
Price 606
Raw@@ 606
They 606
been 606
okie 606
org 606
zin@@ 606
Se 605
entum 605
omin@@ 605
rab@@ 605
HO@@ 604
Jet 604
Main@@ 604
aar 604
coin 604
einf@@ 604
1771 603
Bowl 603
Nash 603
Symph@@ 603
Talk 603
clo@@ 603
etic 603
omp@@ 603
sing 603
Control 602
David@@ 602
Eastern 602
Roch@@ 602
Roll 602
cou@@ 602
lara 602
pad@@ 602
rah@@ 602
seri@@ 602
Gut@@ 601
Ludwig@@ 601
Rach@@ 601
akawa 601
ır 601
י@@ 601
LE 600
LS 600
Us 600
afe 600
ait@@ 600
alternative 600
aura 600
new@@ 600
pak@@ 600
vig@@ 600
Den 599
Gleich@@ 599
Joshua 599
Marine 599
itzer 599
lil@@ 599
outh 599
97@@ 598
Bach@@ 598
Beethoven 598
Full 598
Ice 598
Memphis 598
Wiki@@ 598
erson 598
248 597
266 597
Covid 597
Kish@@ 597
Malcolm 597
Our 597
Thé@@ 597
alog 597
sville 597
tion@@ 597
üç@@ 597
・ 597
Chapelle 596
Kahr@@ 596
Kik@@ 596
MI 596
Theodor 596
cock 596
maf@@ 596
watch 596
319 595
540 595
Ada 595
América 595
Aydın 595
Shadow 595
Trinity 595
rob@@ 595
237 594
ansa 594
mina 594
273 593
Alonso 593
Cohen 593
OR@@ 593
Ril@@ 593
ald@@ 593
ero@@ 593
suc@@ 593
后 593
199@@ 592
321 592
570 592
Humboldt 592
Kay 592
Wolf@@ 592
esha 592
loi 592
èvre 592
311 591
Future 591
Liz@@ 591
Loh@@ 591
Sporting 591
UFC 591
Wid@@ 591
apti@@ 591
cis 591
eson 591
isco 591
leben 591
ør@@ 591
仁@@ 591
Adol@@ 590
Glad@@ 590
Hard 590
Telec@@ 590
assi 590
atu@@ 590
ecca 590
put@@ 590
1300 589
Player 589
Rus 589
She 589
stic@@ 589
ycl@@ 589
Tree 588
Vega 588
love 588
pendi@@ 588
ree 588
ulo 588
Bez@@ 587
Coul@@ 587
DT@@ 587
Duncan 587
ED@@ 587
Herman 587
Homer 587
NP 587
orca 587
times 587
ween 587
PN@@ 586
anner 586
digit@@ 586
dog@@ 586
gener@@ 586
帝 586
Ağ@@ 585
Forever 585
Non@@ 585
SB 585
Schön@@ 585
XXI 585
kig@@ 585
261 584
Ein@@ 584
Nature 584
Right 584
Strasbourg 584
hatta 584
ll 584
olina 584
put 584
ĩ@@ 584
chim@@ 583
grav@@ 583
gun@@ 583
izi@@ 583
o.@@ 583
px 583
rak@@ 583
retr@@ 583
tilla 583
375 582
960 582
Australian 582
Castle 582
Cat 582
Drama 582
Make 582
auri 582
dep@@ 582
igen 582
inden 582
occo 582
odes@@ 582
《 582
Adv@@ 581
Auckland 581
Mer 581
Potsdam 581
mara 581
oten 581
thé@@ 581
》 581
@ 580
Crown 580
Gerald 580
Living@@ 580
Marathon 580
ental 580
erc@@ 580
erra 580
isse 580
venture 580
274 579
284 579
Alfonso 579
Caracas 579
Ez@@ 579
Factory 579
Wien 579
alier 579
anger@@ 579
sci@@ 579
ting@@ 579
Cabo 578
Craw@@ 578
Deniz@@ 578
Deutsche 578
Know 578
Waw@@ 578
Westfalen 578
Zap@@ 578
a. 578
shar@@ 578
upp@@ 578
verse 578
èche 578
ː@@ 578
580 577
Alba 577
Bek@@ 577
Eber@@ 577
Jesse 577
Tub@@ 577
kee 577
synth@@ 577
vs. 577
1648 576
333 576
Champagne 576
Colin 576
Dame 576
Jeremy 576
Oy@@ 576
Rita 576
Woods 576
alda 576
engu@@ 576
hik@@ 576
đ 576
宗 576
Command 575
Luigi 575
Nathan 575
UL@@ 575
erek 575
excel@@ 575
iç@@ 575
lou@@ 575
Palmer 574
Toulouse 574
Zagreb 574
gard@@ 574
river 574
soul 574
ós 574
イ@@ 574
陵 574
Archi@@ 573
Figh@@ 573
Ridge 573
Russian 573
Springfield 573
Water 573
bass@@ 573
ien@@ 573
loo 573
oscop@@ 573
thal 573
福@@ 573
Collection 572
Cristi@@ 572
Fritz 572
Herzeg@@ 572
Queens 572
Tamb@@ 572
kaz@@ 572
raph 572
630 571
Jord@@ 571
Premi@@ 571
UR 571
itan 571
jet 571
osu 571
thing 571
About 570
Motor 570
Sé@@ 570
Wild@@ 570
diff@@ 570
inal 570
mans 570
公主 570
322 569
Trust 569
Tyr@@ 569
onds 569
wen 569
ậc 569
298 568
zey@@ 568
Abel 567
Britain 567
Como 567
Tennis 567
UV 567
Vu@@ 567
dre 567
hun@@ 567
mana 567
quit@@ 567
sv@@ 567
μ@@ 567
1759 566
281 566
335 566
GO 566
adura 566
soph@@ 566
ו@@ 566
720 565
CB 565
Kazak@@ 565
Peri@@ 565
Pope 565
Produ@@ 565
eco 565
iri@@ 565
misch 565
pert 565
trom@@ 565
326 564
406 564
Besch@@ 564
Hong@@ 564
Kirch@@ 564
Miles 564
Staf@@ 564
ape@@ 564
azine 564
eas 564
ece 564
suya 564
uil 564
vez 564
ät@@ 564
267 563
Nashville 563
Pat 563
Wir@@ 563
azzo 563
high 563
phys@@ 563
quin 563
1644 562
272 562
404 562
Gis@@ 562
Legend 562
Tech@@ 562
bow@@ 562
corona 562
grade 562
integri@@ 562
liers 562
pav@@ 562
por 562
sant@@ 562
tit 562
year 562
259 561
Act 561
class 561
frey 561
igen@@ 561
ité 561
tour@@ 561
yes 561
Connor 560
IL@@ 560
Musa 560
Sieg@@ 560
atch@@ 560
staff 560
uki@@ 560
A4 559
Kong@@ 559
RCA 559
Vera 559
Wich@@ 559
iso 559
ocia 559
omen@@ 559
place 559
table 559
tili@@ 559
tress 559
Beck 558
IU@@ 558
VP 558
ait 558
conv@@ 558
cô@@ 558
intermedi@@ 558
Aviation 557
Teleg@@ 557
Unic@@ 557
bek@@ 557
imal 557
minim@@ 557
uen@@ 557
ệng 557
ID@@ 556
Marqu@@ 556
395 555
Canadian 555
Fair 555
Show@@ 555
det 555
esk@@ 555
isis 555
known 555
s.@@ 555
west@@ 555
1750 554
1762 554
Chat@@ 554
ED 554
Free@@ 554
Islam 554
Ngo@@ 554
berto 554
tory 554
waj@@ 554
470 553
Plas@@ 553
athon 553
edil@@ 553
lee 553
night 553
pler 553
ray@@ 553
rel 553
、 553
聖@@ 553
660 552
Net 552
Vermont 552
dex 552
eberg 552
enz 552
lay@@ 552
東@@ 552
郡@@ 552
Apr@@ 551
Burgos 551
Columb@@ 551
Dunk@@ 551
Industries 551
Lay@@ 551
Order 551
aday 551
bourne 551
dieu 551
oqu@@ 551
283 550
6000 550
Pittsburgh 550
Yun@@ 550
atan 550
brit@@ 550
fir@@ 550
gö@@ 550
onal 550
rose 550
vio 550
276 549
Brab@@ 549
Ruby 549
alog@@ 549
ağaç 549
ells 549
enfeld 549
hill 549
lion 549
ures 549
Arab 548
Rap 548
Soh@@ 548
Tag 548
Turn@@ 548
Universe 548
Wald@@ 548
wad@@ 548
äl@@ 548
Shane 547
Shr@@ 547
mom@@ 547
nem 547
sle@@ 547
Cox 546
Def@@ 546
Der 546
Glass 546
Greater 546
Only 546
av 546
mill@@ 546
sobr@@ 546
ück 546
355 545
East@@ 545
Sanc@@ 545
Sergio 545
anat@@ 545
weiler 545
ís 545
299 544
CON@@ 544
Christine 544
Kass@@ 544
Mainz 544
Marcel@@ 544
Nation 544
Race 544
Robertson 544
Social 544
bana 544
most@@ 544
oul@@ 544
282 543
Lionel 543
ende 543
oba@@ 543
ró@@ 543
sun 543
undi 543
324 542
Mex@@ 542
PD@@ 542
Stop 542
WA 542
aç 542
siti@@ 542
海@@ 542
App 541
Conrad 541
Here 541
Hesse 541
KS 541
Third 541
Vicente 541
eim 541
force 541
m3 541
refer@@ 541
subs@@ 541
Ø@@ 541
620 540
Cis@@ 540
Garcia 540
Lö@@ 540
Nath@@ 540
Quin@@ 540
Shab@@ 540
UM@@ 540
Zur@@ 540
ecti@@ 540
encia 540
jin@@ 540
roll 540
walk 540
291 539
40,@@ 539
Anj@@ 539
Army 539
Blues 539
Broad@@ 539
Gómez 539
Purple 539
endor@@ 539
enos 539
icks 539
later 539
oter 539
And 538
Annie 538
Ero@@ 538
Ush@@ 538
Zimmer@@ 538
aeidae 538
ebel 538
ieve 538
inst@@ 538
ubil@@ 538
ving 538
ě 538
510 537
Alvar@@ 537
Baja 537
Frank@@ 537
MD 537
Sog@@ 537
cour@@ 537
gri 537
schild 537
1757 536
Altın@@ 536
Dawn 536
Fah@@ 536
Modern 536
Nairobi 536
Room 536
Schu@@ 536
acruz 536
endo 536
enge 536
296 535
Code 535
Fantas@@ 535
Hr@@ 535
Patricia 535
Stock@@ 535
ebo@@ 535
iste 535
olla 535
refle@@ 535
shot 535
utes 535
vila 535
œ@@ 535
† 535
293 534
EG 534
Igu@@ 534
Rober@@ 534
Upper 534
kot@@ 534
log 534
sich@@ 534
GI 533
Sá@@ 533
Trou@@ 533
dır 533
eren 533
jon 533
tern 533
Emil 532
Olga 532
agua 532
añ@@ 532
craft 532
ink@@ 532
mal 532
pp 532
yok@@ 532
長@@ 532
401 531
Arro@@ 531
Box@@ 531
Jov@@ 531
Lond@@ 531
SF 531
Zamora 531
alii 531
anas 531
cape 531
enk@@ 531
greg@@ 531
tois 531
Campo 530
Thir@@ 530
bed@@ 530
oja 530
xim@@ 530
Mail 529
Re 529
chwitz 529
dum@@ 529
enbach 529
sio 529
èv@@ 529
òa 529
1773 528
2.5 528
Baptiste 528
Lum@@ 528
Milton 528
Ort@@ 528
Paramount 528
Pick@@ 528
Wag@@ 528
aran 528
egen@@ 528
elling 528
ufa 528
uş@@ 528
194@@ 527
Aux@@ 527
Dark@@ 527
Discovery 527
Jug@@ 527
Kiel 527
Magnus 527
Spirit 527
aller 527
bola 527
bonne 527
invol@@ 527
1.0 526
309 526
BSD 526
Klu@@ 526
Utr@@ 526
aler 526
egu@@ 526
enzie 526
tah@@ 526
utz@@ 526
ña 526
0,0@@ 525
Groß@@ 525
Reading 525
Rivera 525
Smo@@ 525
comm@@ 525
obo 525
oid@@ 525
stat@@ 525
system 525
ware 525
ève 525
Gaziantep 524
Nina 524
boro 524
ends 524
gues 524
mic 524
sbach 524
vacc@@ 524
45,@@ 523
EF@@ 523
Horiz@@ 523
Peace 523
egan 523
gir 523
rang@@ 523
sugu 523
Coca 522
Konstantin 522
PF 522
View 522
case 522
iria 522
king@@ 522
130@@ 521
190@@ 521
Jor@@ 521
Sex@@ 521
Tow@@ 521
euve 521
xes 521
ứ@@ 521
110@@ 520
345 520
Action 520
Blum@@ 520
Broadcasting 520
Hof@@ 520
Vision 520
ross 520
terr@@ 520
tram@@ 520
tree 520
人@@ 520
331 519
Jam 519
Kyle 519
March 519
Moun@@ 519
Ruth 519
Schneider 519
alber@@ 519
avy@@ 519
hes@@ 519
host 519
kal 519
seau 519
their 519
zor@@ 519
Crist@@ 518
Lithu@@ 518
ising 518
ob 518
ping 518
Fati@@ 517
Leib@@ 517
ises 517
onie 517
only 517
revol@@ 517
rul@@ 517
xx 517
ything 517
277 516
44,@@ 516
DI@@ 516
FF@@ 516
Mn@@ 516
Morales 516
Most 516
Plant 516
Said 516
icana 516
Body 515
Córdoba 515
Education 515
Gloria 515
Pfe@@ 515
Plata 515
Que@@ 515
alist 515
mé 515
swe@@ 515
zin 515
343 514
356 514
Ars@@ 514
Domingo 514
Dyn@@ 514
Mills 514
Racing 514
cent 514
cup 514
hug@@ 514
sych@@ 514
sym@@ 514
314 513
405 513
Econom@@ 513
Isabel 513
Reichs@@ 513
comi@@ 513
fur 513
kata 513
lum@@ 513
now 513
yab@@ 513
150@@ 512
49,@@ 512
Bonif@@ 512
Far 512
Total 512
Viv@@ 512
arren 512
ağ 512
bud@@ 512
mam 512
roch@@ 512
scor@@ 512
ál@@ 512
680 511
Díaz 511
Ski@@ 511
ecu@@ 511
ifu 511
lü 511
nic 511
where 511
Allan 510
Harmon@@ 510
Jou@@ 510
Off 510
emen 510
gur@@ 510
hn@@ 510
uela 510
wood@@ 510
4.0 509
AH 509
Cramb@@ 509
Eduard 509
Flores 509
Puebla 509
Tex@@ 509
maxim@@ 509
317 508
COM 508
IEEE 508
Ili@@ 508
Jus@@ 508
ere@@ 508
ports 508
ucle@@ 508
Aviv 507
Bishop 507
Los@@ 507
after 507
compos@@ 507
isen@@ 507
nick@@ 507
schle@@ 507
work 507
çak@@ 507
ầ@@ 507
Inf@@ 506
Six 506
Ultimate 506
Zone 506
dat@@ 506
ilk 506
kut@@ 506
match 506
mini@@ 506
rest@@ 506
287 505
289 505
Heaven 505
Paula 505
Xavier 505
awn 505
tors 505
Augsburg 504
Cincinnati 504
EP@@ 504
Jah@@ 504
Pearl 504
Schles@@ 504
Sud 504
Trophy 504
casting 504
gau 504
lor 504
main@@ 504
zur@@ 504
Devil 503
March@@ 503
Stir@@ 503
dle 503
Goethe 502
HA 502
Lambert 502
Oper@@ 502
Palais 502
inen 502
Baron 501
Double 501
Eduardo 501
Hann@@ 501
Verb@@ 501
ezi 501
she@@ 501
1660 500
Design 500
Deux 500
Horse 500
Manz@@ 500
Martín 500
atos 500
gae 500
nek 500
ombie 500
Adrian 499
Luftwaffe 499
Madame 499
Renn@@ 499
Roll@@ 499
Storm 499
Sussex 499
aines 499
chs 499
hui 499
onc@@ 499
othy 499
成@@ 499
198@@ 498
336 498
Duch@@ 498
Heinz 498
Martínez 498
feri 498
mess@@ 498
oles 498
sala 498
tian 498
337 497
48,@@ 497
BL 497
Chuck 497
Dik@@ 497
Muz@@ 497
Ortho@@ 497
SU@@ 497
Stra@@ 497
Wide 497
alar 497
aught 497
cht 497
eper 497
ht 497
ikal 497
47,@@ 496
Justice 496
Palm 496
Yo 496
aub@@ 496
background 496
chard 496
mass@@ 496
pay@@ 496
ć@@ 496
宗@@ 496
1100 495
Admir@@ 495
En 495
Greatest 495
Kings 495
MR 495
Metall@@ 495
Paz 495
Sain@@ 495
cros@@ 495
erie 495
erine 495
fia 495
ober@@ 495
olar@@ 495
scher 495
tista 495
vert 495
yar 495
Engineering 494
König@@ 494
Unter@@ 494
Eurovision 493
Eyes 493
Heavy 493
zona 493
354 492
Mind 492
Yol@@ 492
pay 492
tela 492
Albrecht 491
Andrés 491
Heroes 491
Islands 491
Mili@@ 491
Production 491
iche 491
icho 491
iran 491
school 491
Bureau 490
Lid@@ 490
Parall@@ 490
cle 490
flo@@ 490
ire@@ 490
oise 490
pand@@ 490
pers 490
1765 489
AW@@ 489
Afric@@ 489
Hand 489
Landes 489
Pion@@ 489
Schi@@ 489
ahan 489
lide 489
manuel 489
osc@@ 489
prof@@ 489
425 488
Blin@@ 488
Büyük@@ 488
Gill 488
Julien 488
Lac 488
cay@@ 488
enti 488
marine 488
unge 488
vent@@ 488
้ 488
Pru@@ 487
Schen@@ 487
circum@@ 487
izen 487
neu@@ 487
BK 486
DL@@ 486
Gil 486
Vamp@@ 486
aret 486
echt 486
entra 486
incar@@ 486
quart 486
status 486
tun 486
undo 486
uso 486
ー 486
小@@ 486
338 485
Koc@@ 485
Mob@@ 485
ational 485
constr@@ 485
dee 485
elos 485
epe 485
kos@@ 485
ms@@ 485
上@@ 485
Gum@@ 484
Nit@@ 484
Ow@@ 484
Person@@ 484
Rotterdam 484
Tech 484
down@@ 484
liber@@ 484
onau@@ 484
Clif@@ 483
Croix 483
Mia 483
Natur@@ 483
Roche 483
Temple 483
UC 483
cheo 483
ules 483
新@@ 483
Crow@@ 482
Independent 482
Sakarya 482
aq 482
ffen 482
kas 482
ried 482
stad 482
tero 482
і@@ 482
1766 481
Durham 481
Kayseri 481
Pey@@ 481
ancing 481
bee 481
sera 481
sto@@ 481
1779 480
415 480
Alg@@ 480
Dimi@@ 480
Lille 480
Miner@@ 480
Soci@@ 480
atrice 480
dell 480
elen 480
girl 480
vá@@ 480
332 479
490 479
Brand 479
Hansen 479
Marguerite 479
Memorial 479
Toul@@ 479
eaux 479
isson 479
lane 479
trata 479
่ 479
昭@@ 479
center 478
cycl@@ 478
holt 478
imin@@ 478
jen@@ 478
kina 478
ocul@@ 478
state 478
umen 478
Alf@@ 477
BR 477
Kib@@ 477
Romero 477
SG 477
Schal@@ 477
entes 477
ikan@@ 477
297 476
45.@@ 476
Case 476
Cen@@ 476
EMI 476
Jour@@ 476
Kenn@@ 476
Kurz 476
Motor@@ 476
ever@@ 476
rating 476
神@@ 476
Bass 475
Herr@@ 475
Montevideo 475
Moy@@ 475
NR@@ 475
Season 475
hold 475
inz@@ 475
through 475
Argent@@ 474
Baj@@ 474
Polo 474
Sos@@ 474
Tra@@ 474
Weimar 474
arac@@ 474
eline 474
leg 474
sine 474
thro@@ 474
zw@@ 474
BB@@ 473
Castilla 473
Jed@@ 473
Nine 473
Oakland 473
Roi 473
Wiz@@ 473
Yug@@ 473
ight@@ 473
294 472
334 472
Alten@@ 472
Books 472
Kais@@ 472
Mayer 472
Multi@@ 472
Solo 472
ables 472
agh 472
olay@@ 472
parentid 472
say@@ 472
20th 471
Amad@@ 471
Marsh@@ 471
Pig@@ 471
hang@@ 471
lah@@ 471
part 471
quir@@ 471
ṇ@@ 471
46,@@ 470
Enrique 470
Sebasti@@ 470
Strat@@ 470
Villen@@ 470
alls 470
Ổ 470
江@@ 470
999 469
Away 469
BR@@ 469
Cá@@ 469
Pér@@ 469
SMS 469
about 469
nee 469
organ@@ 469
yay@@ 469
ympi@@ 469
éph@@ 469
ıl@@ 469
Hip 468
Ptol@@ 468
atoria 468
aşa 468
olls 468
riff 468
Avenue 467
Gest@@ 467
Mb@@ 467
bird 467
empl@@ 467
ground 467
iel 467
irat@@ 467
jed@@ 467
sions 467
dog 466
jar 466
cel 465
eş@@ 465
fall 465
î@@ 465
ıklı 465
ılı 465
ổ@@ 465
白@@ 465
3.5 464
Beat 464
Fra@@ 464
Lynn 464
Nazar@@ 464
Noctu@@ 464
inge 464
8000 463
Abdul@@ 463
Citi@@ 463
Franç@@ 463
Nur 463
olf 463
ortho@@ 463
soci@@ 463
ths 463
道@@ 463
Vf@@ 462
adem@@ 462
frac@@ 462
kus 462
pedia 462
simpl@@ 462
tres 462
ying 462
ラ@@ 462
292 461
Baba 461
Tic@@ 461
engen 461
tell@@ 461
upe 461
yor@@ 461
Banda 460
Esk@@ 460
Ung@@ 460
atz@@ 460
comarca 460
dé 460
g. 460
heavy 460
indi 460
libr@@ 460
vit 460
Mar 459
Mustafa 459
UB 459
along@@ 459
disco 459
disco@@ 459
illing 459
km@@ 459
maz@@ 459
soundtrack 459
ías 459
Canterbury 458
Guadalajara 458
Style 458
dru@@ 458
fried 458
naz@@ 458
serv@@ 458
show@@ 458
Spider 457
Sylv@@ 457
Syst@@ 457
icle 457
irk 457
ney@@ 457
7000 456
Ame@@ 456
Edmon@@ 456
Original 456
Produc@@ 456
Set 456
Stadium 456
ampi@@ 456
aras@@ 456
kow 456
lana 456
朱@@ 456
Nus@@ 455
SQL 455
iens 455
ogy 455
vière 455
wall@@ 455
zim@@ 455
250@@ 454
Gulf 454
Isle 454
Metropolitan 454
Services 454
Yal@@ 454
algo 454
alism 454
bacteri@@ 454
icha 454
mou@@ 454
yos@@ 454
0.5 453
DA@@ 453
dres@@ 453
sept@@ 453
tiz@@ 453
ß 453
1650 452
Hessen 452
Well@@ 452
Zey@@ 452
graph@@ 452
rar@@ 452
till@@ 452
uth@@ 452
Her 451
Mund@@ 451
Nati@@ 451
Too 451
Wind 451
ampli@@ 451
andes 451
eiro 451
erh@@ 451
hit@@ 451
semif@@ 451
µ@@ 451
正@@ 451
Chinese 450
Heights 450
Léon 450
PO 450
Test@@ 450
anyon 450
emo 450
ool 450
Ơ@@ 450
,000 449
Alsace 449
Benz@@ 449
Cari@@ 449
Irene 449
Korean 449
Mission 449
Round 449
Te 449
arn 449
hl 449
pro 449
이@@ 449
Gene 448
Middle 448
enthal 448
eski 448
ple 448
1st 447
Martha 447
Navarra 447
RN@@ 447
Week 447
enea 447
rek 447
195@@ 446
Butter@@ 446
EV@@ 446
Eh@@ 446
Imperial 446
Mehmed 446
Trib@@ 446
Winter@@ 446
ature 446
hasa 446
haus 446
inv@@ 446
mere 446
rant 446
tau@@ 446
北@@ 446
Dop@@ 445
Eliz@@ 445
Federation 445
Mein@@ 445
Obj@@ 445
Publ@@ 445
Welsh 445
eve 445
isme 445
istic 445
nie 445
racia 445
tez 445
uit 445
venez@@ 445
親@@ 445
Health 444
Ville 444
acor@@ 444
alt 444
anl@@ 444
mak 444
obe 444
produc@@ 444
ées 444
馬@@ 444
Eye 443
Index 443
acks 443
ionale 443
ring 443
uzman@@ 443
Berger 442
Geb@@ 442
Glen 442
Ground 442
Santander 442
athan 442
ezo 442
kö@@ 442
last 442
ological 442
olu 442
post 442
scho@@ 442
GN@@ 441
Gregor 441
Oriental 441
Un 441
bli@@ 441
bos 441
chang@@ 441
oku@@ 441
sters 441
永@@ 441
Flora 440
RD 440
Sciences 440
aal@@ 440
eil 440
lug 440
shell 440
Ớ@@ 440
Bask@@ 439
cc 439
cible 439
hul@@ 439
ibia 439
nuc@@ 439
1.2 438
1640 438
512 438
Blanche 438
Brien 438
Ciudad 438
Guide 438
Nürnberg 438
Ramos 438
kers 438
760 437
Eskişehir 437
ajo 437
edes 437
edy 437
gau@@ 437
jer 437
street 437
width 437
公@@ 437
49.@@ 436
Council 436
Lieb@@ 436
adies 436
bil 436
most 436
ographic 436
oper 436
usha 436
yav@@ 436
Theory 435
Wies@@ 435
arom@@ 435
hou@@ 435
Diam@@ 434
Holy 434
Mann 434
Rodrigo 434
Termin@@ 434
Uru@@ 434
anap@@ 434
ective 434
illac 434
span 434
torio 434
vili 434
Braun@@ 433
Fic@@ 433
Grab@@ 433
Kie@@ 433
Notre 433
PE 433
Rip@@ 433
Spring@@ 433
blog@@ 433
dige 433
icon@@ 433
pu 433
tena 433
thm 433
γ 433
不@@ 433
50,@@ 432
Abbey 432
Bü@@ 432
Gran 432
Language 432
extr@@ 432
juli@@ 432
sion@@ 432
ull 432
ways 432
林@@ 432
Ferrari 431
Montréal 431
Sinc@@ 431
Uch@@ 431
bre 431
enzo 431
ries 431
Bruxelles 430
Market 430
irt 430
nur 430
ring@@ 430
uu 430
Baptist 429
Manit@@ 429
Occit@@ 429
Theatre 429
Vietnam@@ 429
jana 429
Fisch@@ 428
NAS@@ 428
Schiff@@ 428
baum 428
dil 428
exc@@ 428
ices 428
lé 428
medium 428
opo 428
ricane 428
911 427
FL@@ 427
Paz@@ 427
adj@@ 427
amel@@ 427
dian 427
kis@@ 427
trav@@ 427
zun@@ 427
周@@ 427
Energy 426
Félix 426
Independ@@ 426
Ital@@ 426
ht@@ 426
iggins 426
ords 426
世@@ 426
Aar@@ 425
JR 425
Mash@@ 425
irat 425
witz 425
恭@@ 425
Bio@@ 424
aces 424
imba 424
nac@@ 424
ugu@@ 424
五@@ 424
1756 423
Herb@@ 423
Master@@ 423
Sign@@ 423
Temp@@ 423
Toch@@ 423
app 423
deres 423
eit@@ 423
gang@@ 423
ior 423
oire 423
ude 423
aji@@ 422
otyp@@ 422
than@@ 422
ɪ@@ 422
Bolívar 421
Cerro 421
Gang 421
Schne@@ 421
etown 421
pino 421
rein@@ 421
Erd@@ 420
Frances 420
ISBN 420
ets@@ 420
hoch@@ 420
hof 420
kreis 420
1592 419
Anh@@ 419
Kör@@ 419
adis 419
alit@@ 419
day@@ 419
esca 419
omb 419
192@@ 418
Activ@@ 418
Chall@@ 418
Hits 418
Hohen@@ 418
Jess@@ 418
Neill 418
Richter 418
Rug@@ 418
angalia 418
borne 418
break 418
fred 418
ities 418
who 418
yond 418
381 417
HK 417
Henn@@ 417
Mode 417
Other 417
Sark@@ 417
Sex 417
aid@@ 417
ees 417
frame 417
lag 417
porter 417
they 417
town@@ 417
visa 417
Antigu@@ 416
Schwarz@@ 416
adas 416
ation@@ 416
dır@@ 416
esser 416
inet 416
jah@@ 416
oslav@@ 416
person@@ 416
port@@ 416
solid@@ 416
ues 416
öğ@@ 416
光@@ 416
1661 415
Agnes 415
Edirne 415
Guillaume 415
Mens@@ 415
Museum 415
delta 415
eben@@ 415
egen 415
hig 415
illas 415
kav@@ 415
kett 415
she 415
tennis 415
ARC 414
Ail@@ 414
Class 414
Dok@@ 414
GT 414
KK 414
Late 414
Linz 414
Ritter 414
SR@@ 414
Wing 414
Yav@@ 414
ikos 414
isol@@ 414
Augus@@ 413
Buff@@ 413
Claus@@ 413
Elite 413
Freud 413
Sche@@ 413
Together 413
Where 413
ques@@ 413
rit 413
ṣ@@ 413
Financial 412
Göttingen 412
Magdalena 412
Moul@@ 412
Quint@@ 412
Source 412
Train 412
ament@@ 412
enty 412
isten 412
step@@ 412
ukur@@ 412
ź@@ 412
Graz 411
Trier 411
asty 411
boy@@ 411
iler@@ 411
nel 411
odo 411
pita 411
ular@@ 411
wal 411
ル@@ 411
宮 411
惠@@ 411
Kup@@ 410
ardt 410
bank@@ 410
ease 410
eless 410
idar@@ 410
ists 410
list 410
roqu@@ 410
tiz 410
tner 410
ví@@ 410
Angels 409
Commun@@ 409
Revolution 409
Viz@@ 409
Walk 409
alco@@ 409
annis 409
estone 409
1769 408
Another 408
Atl@@ 408
Cap 408
Pens@@ 408
Zanzibar 408
colombi@@ 408
council 408
Advanced 407
Bayr@@ 407
Elle 407
Hispania 407
Konstantin@@ 407
idai 407
incur@@ 407
üc@@ 407
Ago@@ 406
adol@@ 406
band@@ 406
cord 406
ince 406
mán 406
scher@@ 406
turn@@ 406
Abd 405
Dür@@ 405
Esper@@ 405
Faith 405
Harbor 405
Living 405
folk 405
got 405
itation 405
zone 405
ğlu 405
Alphon@@ 404
Benz 404
Vol 404
Way@@ 404
ching 404
dir 404
dn 404
free 404
ott@@ 404
second 404
Ans@@ 403
Hop 403
NXT 403
aliz@@ 403
atan@@ 403
emo@@ 403
endro@@ 403
excav@@ 403
ged 403
ned 403
stead 403
yük 403
ù@@ 403
楊@@ 403
196@@ 402
Gaul@@ 402
Guerrero 402
Holoc@@ 402
Konrad 402
Tod@@ 402
beat 402
bias 402
iden@@ 402
mili@@ 402
perf@@ 402
vec@@ 402
vice 402
Gust@@ 401
altern@@ 401
genus 401
lac 401
lyc@@ 401
mode 401
spo@@ 401
Ư 401
Inc 400
anas@@ 400
heb@@ 400
illet 400
ld@@ 400
stock 400
tape 400
use@@ 400
utz 400
ŭ@@ 400
1764 399
Admiral 399
Class@@ 399
Eve 399
Frédéric 399
auff@@ 399
eden@@ 399
enin 399
esen 399
nah@@ 399
ologies 399
othing 399
semin@@ 399
çon 399
Capit@@ 398
Cinema 398
Claudia 398
Dorothy 398
Harv@@ 398
black 398
nau@@ 398
roy@@ 398
.org 397
1761 397
At 397
Cassini 397
Community 397
Guay@@ 397
Iber@@ 397
Liège 397
anz 397
dha 397
onnais 397
petr@@ 397
tech@@ 397
yin 397
Ổ@@ 397
451 396
Asturias 396
Myth@@ 396
Peak 396
Professional 396
Romeo 396
Stock 396
UP 396
Zin@@ 396
block 396
gios 396
haus@@ 396
hispan@@ 396
hua 396
immer@@ 396
telenov@@ 396
yen 396
Allah 395
Amat@@ 395
Ring@@ 395
Without 395
artic@@ 395
basa 395
eig@@ 395
iser 395
pale@@ 395
scrip@@ 395
thumb 395
unders 395
Álvarez 395
Bish@@ 394
Bö@@ 394
Clim@@ 394
Encyclo@@ 394
Luf@@ 394
Mér@@ 394
Prime 394
Tours 394
akat@@ 394
aso 394
auto@@ 394
gmina 394
ios@@ 394
197@@ 393
Abd@@ 393
Ex 393
Philipp 393
Richards 393
atur 393
ects 393
front 393
igr@@ 393
kana 393
ppe 393
tiger 393
国@@ 393
1620 392
Bonn 392
Guillermo 392
Hubert 392
Samb@@ 392
UE 392
beg@@ 392
ehouse 392
ems 392
mau@@ 392
oval 392
vey 392
ésie 392
û@@ 392
Kend@@ 391
Koca@@ 391
Rapha@@ 391
Start 391
aşı 391
ensi 391
enter@@ 391
eten@@ 391
fut@@ 391
kub@@ 391
park 391
sert 391
Sno@@ 390
Vier@@ 390
aking 390
aler@@ 390
anny 390
ebi 390
fice 390
found 390
ref@@ 390
uck@@ 390
äger 390
い@@ 390
1.1 389
4.5 389
americ@@ 389
ancer 389
apia 389
cina 389
ench@@ 389
BMW 388
BO 388
Salv@@ 388
Stern 388
Wehrmacht 388
aring 388
cano 388
enci@@ 388
event@@ 388
inam@@ 388
lose 388
otic 388
quem@@ 388
rim 388
small 388
Alexis 387
Front@@ 387
assault 387
olith@@ 387
ologne 387
thly 387
vé@@ 387
çal@@ 387
1707 386
Javier 386
Kenny 386
eal 386
icial 386
prob@@ 386
rê@@ 386
sek@@ 386
ugu 386
vil 386
Common 385
König 385
gest@@ 385
inners 385
éry 385
日@@ 385
Defense 384
Laborat@@ 384
Schrö@@ 384
Six@@ 384
`@@ 384
curr@@ 384
kand@@ 384
kote 384
mons 384
nad@@ 384
reich@@ 384
sali@@ 384
til 384
wes@@ 384
1. 383
2. 383
Reyes 383
Rhein@@ 383
Ug@@ 383
aign 383
apor@@ 383
arte 383
eder 383
param@@ 383
ump 383
vy@@ 383
ン 383
Cinc@@ 382
Pass 382
Sask@@ 382
Tales 382
acter@@ 382
full 382
193@@ 381
Böh@@ 381
His 381
Ord@@ 381
Sr. 381
Valladolid 381
auf@@ 381
laz@@ 381
ün 381
Deu@@ 380
Fak@@ 380
Federal 380
Nueva 380
có@@ 380
hero@@ 380
lern 380
ography 380
opin@@ 380
ples 380
rem 380
stand@@ 380
α@@ 380
ừ@@ 380
--@@ 379
1630 379
Alem@@ 379
Base 379
aham@@ 379
approxim@@ 379
conflu@@ 379
dow 379
eds 379
fro@@ 379
ilde 379
run@@ 379
wag@@ 379
zar 379
А@@ 379
八@@ 379
2- 378
Anders 378
Ne 378
Renault 378
Sov@@ 378
bron@@ 378
burgh 378
mm@@ 378
raf@@ 378
tet 378
1,5@@ 377
Mg@@ 377
aka@@ 377
anim@@ 377
district 377
eben 377
elem@@ 377
green 377
tox@@ 377
5,000 376
Championships 376
Gug@@ 376
Publishing 376
Rights 376
Simone 376
afa 376
ancy 376
arca 376
chain 376
illes 376
valid@@ 376
verd@@ 376
zir@@ 376
定@@ 376
1730 375
Area 375
Austria 375
Bauer 375
Mendoza 375
Málaga 375
Pers@@ 375
dic 375
sil 375
tex 375
will 375
zana 375
ön 375
慈@@ 375
0s 374
Czech 374
Forst@@ 374
Raúl 374
Rosen@@ 374
Week@@ 374
arry 374
commun@@ 374
fis@@ 374
hos@@ 374
sohn 374
yang@@ 374
êt 374
ž 374
в 374
1642 373
Agency 373
Das 373
Feld@@ 373
Fru@@ 373
Minn@@ 373
Mw@@ 373
Pulitzer 373
Still 373
compl@@ 373
fic 373
hau@@ 373
room 373
sah@@ 373
taire 373
城 373
城@@ 373
Alejandro 372
Carre@@ 372
Dies@@ 372
Lt@@ 372
SB@@ 372
Sidney 372
Silver@@ 372
akia 372
cler@@ 372
gien 372
imet@@ 372
lave 372
legi@@ 372
tell 372
zt 372
阿@@ 372
Bergen 371
Communications 371
Fit@@ 371
Herrera 371
Sans@@ 371
avis 371
ives 371
kari 371
kt 371
ls@@ 371
ɛ@@ 371
1688 370
Canal 370
Mön@@ 370
ading 370
grand@@ 370
hep@@ 370
rot 370
rugby 370
shausen 370
öh@@ 370
BI 369
Handel 369
PI@@ 369
Record 369
Sens@@ 369
Years 369
aat 369
anderen 369
esque 369
iyo 369
¥ 369
Cold 368
Danz@@ 368
Stand 368
actu@@ 368
atz 368
unter 368
์ 368
1683 367
189@@ 367
Blanc 367
Inn 367
deu@@ 367
eces 367
far 367
jal@@ 367
pre 367
ulg@@ 367
清@@ 367
Marin@@ 366
Mov@@ 366
OT@@ 366
Work@@ 366
amework 366
api 366
azo 366
ehir 366
eor@@ 366
evento 366
exig@@ 366
nj@@ 366
vidence 366
ồ@@ 366
Ụ@@ 366
Oil 365
Pé@@ 365
Rouge 365
SO 365
dik@@ 365
ellen 365
hana 365
itte 365
k.@@ 365
laine 365
lass 365
ṭ@@ 365
Blas@@ 364
Earl 364
Flight 364
Hasan 364
Musical 364
Plan 364
Reims 364
Weib@@ 364
brook 364
mig@@ 364
pf@@ 364
wur@@ 364
yal 364
1720 363
Herald 363
Jim@@ 363
Leopol@@ 363
UE@@ 363
Yves 363
auth@@ 363
cois 363
für 363
gren@@ 363
hali@@ 363
inian 363
ofu 363
ppi 363
trit@@ 363
し@@ 363
Committee 362
Fif@@ 362
Leip@@ 362
No. 362
aill@@ 362
eler@@ 362
iday 362
kuz@@ 362
nach 362
once 362
sek 362
и 362
Finn@@ 361
Hain@@ 361
Report 361
anco 361
erne 361
ills 361
ming 361
otra 361
tice 361
″ 361
四@@ 361
寺 361
African 360
April 360
Library 360
Lif@@ 360
Police 360
Province 360
Selim 360
Stern@@ 360
Vargas 360
acio 360
alter@@ 360
cut 360
power 360
quer 360
reti@@ 360
udo 360
1643 359
Department 359
bru@@ 359
half 359
hil 359
nal 359
upa 359
vid 359
ッ@@ 359
1715 358
Brenn@@ 358
anese 358
caf@@ 358
jou@@ 358
olm 358
oman@@ 358
stur@@ 358
éd@@ 358
üm 358
Alta 357
Co. 357
Dominique 357
Hous@@ 357
Stein 357
asen 357
aí@@ 357
dak@@ 357
eburg 357
radic@@ 357
黎@@ 357
Bernardo 356
Malm@@ 356
Writ@@ 356
jit@@ 356
omon 356
unter@@ 356
花@@ 356
趙@@ 356
Deutschland 355
Front 355
Poin@@ 355
Serv@@ 355
blo@@ 355
city 355
ders@@ 355
dim 355
graf 355
icos 355
main 355
pm 355
soft 355
春@@ 355
1521 354
Laguna 354
Security 354
Sü@@ 354
aten@@ 354
enstein 354
erre@@ 354
grad 354
intr@@ 354
lieu 354
lingen 354
proxim@@ 354
schen 354
u. 354
ubic@@ 354
voir 354
ő 354
リ@@ 354
1701 353
Rez@@ 353
dish 353
function 353
led 353
tés 353
urban@@ 353
188@@ 352
CW 352
Irish 352
Rosario 352
Silv@@ 352
ikat@@ 352
iny@@ 352
map 352
oman 352
onz@@ 352
plant@@ 352
sana 352
three 352
vij@@ 352
yol 352
ım@@ 352
女@@ 352
Dom 351
Merc@@ 351
Milwaukee 351
Sacram@@ 351
a- 351
bles 351
fin 351
good 351
imperi@@ 351
mate 351
return 351
revision 351
version 351
有@@ 351
2.2 350
48.@@ 350
Burns 350
Catalina 350
Kü@@ 350
Wab@@ 350
atil@@ 350
deo 350
istère 350
iting 350
ligh@@ 350
mondi@@ 350
wig 350
敬@@ 350
水@@ 350
Benito 349
Bier@@ 349
Castillo 349
Gottfried 349
Int@@ 349
Kli@@ 349
Scienti@@ 349
Unit 349
ambi 349
erin 349
ilian 349
klar@@ 349
lein 349
straße 349
umbo 349
Ó 349
Breslau 348
Commer@@ 348
Globe 348
June 348
Kard@@ 348
Montpellier 348
child 348
edt 348
html 348
jaw@@ 348
lü@@ 348
quot 348
ʻ@@ 348
1680 347
Confeder@@ 347
Evangel@@ 347
Halle 347
Jackie 347
Match 347
Prize 347
Société 347
Superman 347
apas 347
ark 347
cot 347
illé 347
kuh@@ 347
press 347
princ@@ 347
rau@@ 347
space 347
stil@@ 347
1550 346
186@@ 346
Before 346
Dutch 346
Via 346
Warri@@ 346
ambigu@@ 346
buch@@ 346
fug@@ 346
include 346
max 346
mites 346
石@@ 346
Friday 345
Palma 345
RE 345
Vita 345
Zul@@ 345
anche 345
giy@@ 345
infl@@ 345
lars 345
orig@@ 345
positi@@ 345
your 345
7.5 344
Alt 344
Fine 344
Julio 344
Jürgen 344
aper 344
christ@@ 344
home 344
voc@@ 344
1- 343
1645 343
Circle 343
Cré@@ 343
Speed 343
icht 343
ival@@ 343
leta 343
loy@@ 343
riz@@ 343
tual 343
ío 343
1745 342
Bilbao 342
Mary@@ 342
Mig@@ 342
Pati@@ 342
Real@@ 342
UK@@ 342
Wang@@ 342
anam@@ 342
made 342
pren@@ 342
sth@@ 342
sts 342
tropo@@ 342
utia 342
師@@ 342
Ayd@@ 341
Board 341
Braz@@ 341
GmbH 341
ICC 341
Low 341
Madeleine 341
Seh@@ 341
Sta@@ 341
anten 341
emin 341
icio 341
iker 341
jum@@ 341
kuts@@ 341
level 341
nois 341
ows 341
porte 341
separ@@ 341
undtrack 341
volution 341
ól@@ 341
1755 340
Airport 340
Compos@@ 340
amen@@ 340
hey@@ 340
ignan 340
âr@@ 340
Camille 339
Exchange 339
Jakob 339
funk 339
mano 339
peso 339
reci@@ 339
tov@@ 339
1603 338
Continental 338
Frit@@ 338
Japanese 338
Joaqu@@ 338
Universit@@ 338
aben 338
acán 338
atlı 338
cim@@ 338
deon 338
ening 338
ombi@@ 338
sidi@@ 338
tien 338
貴@@ 338
Domen@@ 337
Mahmud 337
NFL 337
Number 337
Pek@@ 337
Performance 337
Theater 337
amor@@ 337
estre 337
ombe 337
א@@ 337
1,0@@ 336
1689 336
Early 336
Königsberg 336
Már@@ 336
Parti@@ 336
host@@ 336
round 336
them 336
皇帝 336
1735 335
Kari@@ 335
Mine 335
Vé@@ 335
iano 335
offic@@ 335
sura 335
3.1 334
Git@@ 334
Golf 334
Jagu@@ 334
Oster@@ 334
amos 334
armen@@ 334
beau@@ 334
mono@@ 334
paz@@ 334
ternal 334
tional 334
vies 334
éli@@ 334
ス@@ 334
Des 333
HR 333
WW@@ 333
ché 333
ete@@ 333
izi 333
lıca 333
public 333
yazı 333
的@@ 333
64,@@ 332
Biel@@ 332
Bundes@@ 332
Dam 332
Mathemati@@ 332
dyn@@ 332
iliana 332
usse 332
ël 332
Guz@@ 331
Vad@@ 331
aï@@ 331
costa 331
gemeinde 331
mil 331
msh@@ 331
ution 331
wikitext 331
漢@@ 331
180@@ 330
Astronom@@ 330
Bib@@ 330
Sour@@ 330
Uri@@ 330
ails 330
club 330
common 330
ending 330
struc@@ 330
Bağ@@ 329
Branch 329
Wen@@ 329
assen 329
digital 329
emin@@ 329
unk 329
„ 329
2.1 328
47.@@ 328
Zah@@ 328
europ@@ 328
ied 328
schwar@@ 328
write 328
ép@@ 328
ét@@ 328
君 328
1672 327
BW@@ 327
Casa 327
Natural 327
Tor 327
eries 327
fam@@ 327
ilan 327
wah@@ 327
zek@@ 327
Év@@ 327
1,000 326
Ins@@ 326
Orient 326
Scarab@@ 326
Stage 326
anon 326
entales 326
liter@@ 326
tique 326
used 326
う@@ 326
陽@@ 326
Bör@@ 325
Lausanne 325
Lef@@ 325
Rouen 325
cias 325
eso 325
kre@@ 325
meister@@ 325
sini 325
uala 325
Émile 325
行@@ 325
1754 324
Atlantique 324
Change 324
Ern@@ 324
Kiz@@ 324
Operation 324
Príncipe 324
Strateg@@ 324
anno@@ 324
ayed 324
lywood 324
there 324
uña 324
âte@@ 324
Şark@@ 324
1619 323
1651 323
187@@ 323
Test 323
fif@@ 323
onci@@ 323
oğ@@ 323
saf@@ 323
vas 323
景@@ 323
1526 322
179@@ 322
Geg@@ 322
Parks 322
Ramírez 322
abel 322
acab@@ 322
acon 322
based 322
hart 322
integr@@ 322
octo@@ 322
pris@@ 322
rania 322
ος 322
宣@@ 322
1637 321
Beb@@ 321
Cong@@ 321
Institut 321
Uj@@ 321
adic@@ 321
aifa 321
rass@@ 321
rico 321
season 321
vr@@ 321
ñez 321
ül 321
ē 321
π 321
ア@@ 321
法@@ 321
1492 320
1627 320
1636 320
1736 320
Café 320
Coupe 320
Cristó@@ 320
Islam@@ 320
Romano 320
Symphony 320
alya 320
andt 320
cil@@ 320
dor 320
due 320
heri 320
hus@@ 320
ift 320
kid@@ 320
rano 320
uf 320
≤ 320
1653 319
Cricket 319
Food 319
Neustadt 319
ación 319
aint 319
eral 319
hala 319
metr@@ 319
1723 318
1741 318
Franken@@ 318
Mp@@ 318
Scottish 318
Stadi@@ 318
abase 318
atir@@ 318
bright 318
cardi@@ 318
chez 318
ember 318
family 318
furt 318
milit@@ 318
mix 318
mund 318
tens@@ 318
vival 318
wave 318
yol@@ 318
軍 318
1570 317
1744 317
Este 317
Quir@@ 317
Track 317
Wiener 317
atio 317
hardt 317
lows 317
uster 317
都@@ 317
1742 316
1748 316
Chef 316
Federico 316
Information 316
appen 316
ativ@@ 316
franc@@ 316
guar@@ 316
leen 316
rist@@ 316
на 316
ָ@@ 316
玉@@ 316
黃@@ 316
Nd@@ 315
Yusuf 315
afin 315
ayır@@ 315
ging 315
kem@@ 315
quil@@ 315
順@@ 315
978 314
Gord@@ 314
Heil@@ 314
Hô@@ 314
Muñ@@ 314
lek@@ 314
list@@ 314
neau 314
sif 314
tine 314
מ@@ 314
姬@@ 314
1709 313
46.@@ 313
Holz@@ 313
Matthias 313
allah 313
alto 313
arş@@ 313
care 313
dati@@ 313
mind 313
né@@ 313
oran 313
spe@@ 313
vall@@ 313
之 313
Fleet 312
Hoffmann 312
Jap@@ 312
Tournament 312
antu 312
aries 312
eval 312
send 312
sona 312
å 312
ête 312
İm@@ 312
十@@ 312
Isid@@ 311
afor@@ 311
beau 311
dhar@@ 311
ejo 311
fak@@ 311
immer 311
orie 311
rique 311
tent@@ 311
tial 311
verl@@ 311
Æ@@ 311
地@@ 311
康@@ 311
1520 310
Mayo 310
aid 310
hn 310
involucr@@ 310
ös@@ 310
θ 310
美@@ 310
정@@ 310
1598 309
Hernández 309
Hö@@ 309
Malay@@ 309
Skul@@ 309
akana 309
evit@@ 309
fra@@ 309
gado 309
glaci@@ 309
kings 309
popul@@ 309
年@@ 309
1655 308
Heid@@ 308
afr@@ 308
dini 308
disc@@ 308
iw@@ 308
mede 308
uyu 308
ʼ@@ 308
古@@ 308
Arabia 307
Aziz 307
Culture 307
División 307
Mannheim 307
Oly@@ 307
australi@@ 307
escul@@ 307
plant 307
reh@@ 307
usan 307
vog@@ 307
λ 307
ר@@ 307
Abo@@ 306
EB@@ 306
Nantes 306
Nordrhein 306
Orchestra 306
Oğ@@ 306
cian 306
mik@@ 306
nou@@ 306
ventures 306
185@@ 305
Alle@@ 305
Bist@@ 305
Christoph 305
Contr@@ 305
Fiat 305
Label 305
Schn@@ 305
Work 305
afi 305
enzi 305
essel 305
essen 305
iff 305
omen 305
strat@@ 305
vad@@ 305
ト@@ 305
義@@ 305
Bulg@@ 304
Dar 304
Gilles 304
OR 304
Tenn@@ 304
Wet@@ 304
ability 304
aps 304
big 304
dipl@@ 304
eja 304
enov@@ 304
gres@@ 304
isser 304
mila 304
nim@@ 304
ordin@@ 304
rad 304
sequ@@ 304
singer 304
10,000 303
1697 303
Anci@@ 303
Bertrand 303
EE 303
Loy@@ 303
Territ@@ 303
continental 303
dessus 303
double 303
fab@@ 303
kshire 303
leaf 303
lech@@ 303
sup@@ 303
ticidae 303
vera 303
yel@@ 303
zil@@ 303
zis@@ 303
ル 303
1659 302
1670 302
Chamb@@ 302
Hek@@ 302
Mittel@@ 302
Moreno 302
Pharm@@ 302
Revol@@ 302
Siemens 302
XT 302
ayla 302
regi@@ 302
sculp@@ 302
sed@@ 302
uch 302
usu 302
än@@ 302
1658 301
Moritz 301
Rif@@ 301
Rund@@ 301
Zwe@@ 301
akar@@ 301
ledge 301
old@@ 301
project 301
pré@@ 301
sis@@ 301
原@@ 301
1662 300
Kran@@ 300
Köpr@@ 300
Lokom@@ 300
Metro@@ 300
Nac@@ 300
Trade 300
atte 300
kum 300
mental 300
oza 300
soon 300
taw@@ 300
ural 300
氏@@ 300
1610 299
Anti 299
Klaus 299
Shanghai 299
enco 299
tek@@ 299
éro@@ 299
1635 298
Mama 298
Peti@@ 298
chet 298
fat@@ 298
following 298
gal 298
lumin@@ 298
meister 298
oho 298
udi 298
河@@ 298
田@@ 298
Alternative 297
Luc 297
aliy@@ 297
divers@@ 297
grande 297
ign 297
itos 297
shin@@ 297
uw@@ 297
Challenger 296
Christophe 296
Dek@@ 296
Kauf@@ 296
Lí@@ 296
Niv@@ 296
Sand 296
Schle@@ 296
Sebastián 296
Spre@@ 296
anal 296
back@@ 296
ungs@@ 296
ẩ@@ 296
Deh@@ 295
EL 295
division 295
eser 295
idor 295
white 295
唐@@ 295
1690 294
1714 294
Alfredo 294
Jiménez 294
Mara 294
bire@@ 294
canc@@ 294
etten 294
ischer 294
sá@@ 294
uç 294
éra 294
家@@ 294
1712 293
1752 293
Euro@@ 293
arlı 293
atana 293
emba 293
harmon@@ 293
llen@@ 293
some 293
vol 293
Philharmon@@ 292
antas@@ 292
austral@@ 292
eses 292
hand 292
math@@ 292
rain@@ 292
tik@@ 292
typ@@ 292
無@@ 292
1713 291
Inh@@ 291
Level 291
Ná@@ 291
Program 291
bung 291
inu 291
lat 291
number 291
oniidae 291
order 291
page 291
sieb@@ 291
ved 291
ür 291
羅@@ 291
1641 290
Claudio 290
Coh@@ 290
Dağ@@ 290
Düsseldorf 290
Fré@@ 290
Swiss 290
Tanganyika 290
adal@@ 290
blue 290
copa 290
ishia 290
mant@@ 290
ments 290
mut 290
pass@@ 290
ď@@ 290
懿@@ 290
1453 289
1540 289
1623 289
1722 289
Bot 289
Championnat 289
Direction 289
cker 289
elf 289
fed@@ 289
fit 289
foc@@ 289
iliz@@ 289
kuy@@ 289
o. 289
tut@@ 289
ungo 289
üzel@@ 289
Antar@@ 288
Borough 288
Cristina 288
Yıld@@ 288
aer 288
bing 288
distr@@ 288
fair@@ 288
fom@@ 288
grave 288
rez 288
sour@@ 288
朝@@ 288
1729 287
Luxemb@@ 287
Manager 287
Tal 287
ician 287
sub 287
Bernhard 286
Beş@@ 286
Klein@@ 286
Mei 286
Partn@@ 286
Soviet 286
VV@@ 286
aliwa 286
bs@@ 286
eze 286
ilip@@ 286
serie 286
ε 286
С@@ 286
1629 285
1638 285
1737 285
Boliv@@ 285
Car 285
Kreuz@@ 285
Lux@@ 285
Princip@@ 285
Vida 285
atern@@ 285
chine 285
cine 285
corpor@@ 285
dit@@ 285
four@@ 285
isters 285
jus@@ 285
mez@@ 285
reit@@ 285
ə 285
ま@@ 285
（ 285
1703 284
Emilio 284
Inv@@ 284
alil@@ 284
awa@@ 284
baba 284
esto 284
mab@@ 284
miz@@ 284
oner 284
wed@@ 284
week 284
À@@ 284
Şah@@ 284
鄭@@ 284
1704 283
1725 283
2nd 283
Gerhard 283
Itali@@ 283
Magdeburg 283
Ruf@@ 283
Teh@@ 283
Thailand 283
aska 283
burger 283
chac@@ 283
lyn 283
omu 283
ré 283
zor 283
Édouard 283
生@@ 283
龍@@ 283
1580 282
1667 282
6.5 282
Arsen@@ 282
Hammer 282
Hist@@ 282
Im 282
Nuevo 282
Reich 282
amarca 282
arda 282
asse@@ 282
axe 282
fig@@ 282
games 282
gru@@ 282
taya 282
wam@@ 282
Ör@@ 282
ん@@ 282
嬪 282
莊@@ 282
Panzer@@ 281
Rennes 281
arl@@ 281
bow 281
door 281
ication 281
isen 281
isher 281
paras@@ 281
while 281
と@@ 281
真@@ 281
Clermont 280
Cé@@ 280
HL 280
Oak@@ 280
Polic@@ 280
Vie 280
asure 280
bail@@ 280
death 280
erb@@ 280
ests 280
izo 280
late 280
miles 280
rej@@ 280
1530 279
1536 279
2,5@@ 279
ances 279
asons 279
hab 279
hud@@ 279
persp@@ 279
rand@@ 279
schen@@ 279
Üç@@ 279
к 279
ḥ@@ 279
宋@@ 279
道 279
1.3 278
1649 278
1751 278
184@@ 278
Comedy 278
Disco@@ 278
Exper@@ 278
Francia 278
Inst@@ 278
Llan@@ 278
SPD 278
aff 278
pack@@ 278
plu@@ 278
rise 278
uten 278
） 278
1250 277
ift@@ 277
istry 277
kio 277
oyo 277
sell 277
sher@@ 277
student 277
tend@@ 277
ütz@@ 277
ữ@@ 277
忠@@ 277
Atle@@ 276
Farm 276
Schwe@@ 276
bauer 276
bell 276
bound 276
bü@@ 276
clin@@ 276
esn@@ 276
ldwide 276
open 276
raz@@ 276
rá@@ 276
unction 276
uru@@ 276
áng@@ 276
ıc@@ 276
1685 275
Blat@@ 275
Brut@@ 275
Montre@@ 275
bomb@@ 275
hr 275
sak 275
salv@@ 275
service 275
umu 275
殿 275
1718 274
Chamber 274
Circuit 274
Medicine 274
amba@@ 274
gus@@ 274
hak 274
ileri 274
itu@@ 274
lol@@ 274
oks 274
か@@ 274
九@@ 274
廣@@ 274
Bogotá 273
Chevrol@@ 273
Invest@@ 273
Jul@@ 273
NY 273
Organization 273
Park@@ 273
Range 273
Rue 273
Trom@@ 273
champ@@ 273
fit@@ 273
lez 273
mw@@ 273
priv@@ 273
Ș@@ 273
穆@@ 273
1572 272
Bev@@ 272
Graf@@ 272
Hans@@ 272
Progr@@ 272
anapolis 272
facto 272
lock@@ 272
mark@@ 272
uji 272
1560 271
1625 271
1727 271
1733 271
Industry 271
Prinz 271
ağan 271
boul@@ 271
hai@@ 271
lanc@@ 271
located 271
oto@@ 271
pour 271
tropical 271
trus@@ 271
ジ@@ 271
2,000 270
Rostock 270
catal@@ 270
gaz@@ 270
hé@@ 270
ombo 270
riche 270
tadores 270
unde 270
夫人 270
100,000 269
3- 269
Germany 269
Isla 269
Jew@@ 269
SQ@@ 269
Sala 269
abei 269
adh@@ 269
asin 269
bina 269
hiwa 269
ield 269
inning 269
leur 269
rut@@ 269
sche@@ 269
β@@ 269
т 269
1654 268
Bem@@ 268
Docum@@ 268
Oro 268
Private 268
Strom@@ 268
adora 268
bois 268
committee 268
concept 268
ded 268
ebook 268
gris 268
kend@@ 268
liche 268
luk@@ 268
stop 268
tionary 268
topl@@ 268
uco 268
阳@@ 268
Civil 267
Once 267
Publi@@ 267
Yoh@@ 267
ange@@ 267
falz 267
kam 267
lesias 267
nd 267
roe 267
stes 267
徐@@ 267
明 267
1350 266
1656 266
1732 266
Corps 266
Grund@@ 266
Schwer@@ 266
Uk@@ 266
Urban@@ 266
even 266
izo@@ 266
lead 266
unit 266
zig 266
1710 265
Democ@@ 265
Farm@@ 265
Keller 265
Maw@@ 265
Pré@@ 265
RN 265
Ramón 265
adul@@ 265
hous@@ 265
istics 265
mula 265
onso 265
player 265
tik 265
unes 265
yü@@ 265
ış 265
О@@ 265
ク@@ 265
Arabic 264
STS 264
alum@@ 264
arri@@ 264
best 264
evin 264
illera 264
iş 264
magne@@ 264
meng@@ 264
oran@@ 264
ω 264
方@@ 264
Guthrie 263
Kreis 263
Pius 263
Satell@@ 263
Terminal 263
Volkswagen 263
bez@@ 263
bour 263
plar 263
pour@@ 263
shop 263
talk 263
ènes 263
ּ@@ 263
ל@@ 263
1739 262
5.5 262
Apar@@ 262
Braunschweig 262
Deportivo 262
Emperor 262
Gérard 262
Hammer@@ 262
Scher@@ 262
WH@@ 262
alcohol 262
aling 262
dura 262
erei 262
former 262
front@@ 262
jia 262
lak 262
national 262
ply 262
trou@@ 262
çe 262
1702 261
1708 261
J.-@@ 261
Patri@@ 261
amac@@ 261
dans 261
git@@ 261
inde@@ 261
oyn@@ 261
schwe@@ 261
sole 261
value 261
ה@@ 261
1450 260
Bré@@ 260
Ella 260
Freiburg 260
Impact 260
acqu@@ 260
between 260
fib@@ 260
motion 260
polo 260
pron@@ 260
ults 260
util@@ 260
vida 260
whe@@ 260
ṃ@@ 260
1743 259
Eind@@ 259
Gallery 259
Matthe@@ 259
Salz@@ 259
Stat@@ 259
Stephan 259
Zir@@ 259
audio 259
fortun@@ 259
gle 259
imler 259
kok@@ 259
lowers 259
tant 259
ɔ@@ 259
帝@@ 259
Ferdin@@ 258
Medical 258
Salon 258
ativa 258
gold 258
inah@@ 258
ization 258
obil@@ 258
stag 258
such 258
uia 258
urb@@ 258
wand@@ 258
δ 258
Illustr@@ 257
Mariano 257
Poland 257
Samm@@ 257
avy 257
fication 257
ieron 257
kies 257
oyun@@ 257
pel 257
plata 257
ral@@ 257
tir 257
ufi 257
verde 257
ţ@@ 257
ț 257
司@@ 257
宮@@ 257
대@@ 257
1590 256
Chur@@ 256
UM 256
aille 256
angia 256
arya 256
egel@@ 256
ements 256
fare 256
people 256
pie 256
seul 256
çı 256
èle 256
族@@ 256
1618 255
1634 255
1749 255
Ark@@ 255
Gustavo 255
Jagd@@ 255
Kuş@@ 255
Nicolás 255
Sie@@ 255
Ulrich 255
adio 255
eing 255
guer@@ 255
kod@@ 255
pens@@ 255
scol@@ 255
sor 255
when 255
ügen 255
州@@ 255
1675 254
4.2 254
Building 254
Canton 254
Comm@@ 254
Commission 254
Kig@@ 254
Princ@@ 254
Reina 254
Wash@@ 254
atura 254
const@@ 254
erte 254
för@@ 254
grá@@ 254
mee 254
oxid@@ 254
station 254
systems 254
terres@@ 254
Legacy 253
Osman 253
Trau@@ 253
geb@@ 253
leaves 253
lub 253
mobile 253
ollo 253
ours 253
stage 253
timo 253
ôt 253
ıl 253
青@@ 253
Frag@@ 252
Honor@@ 252
Jaime 252
Rai@@ 252
Uno 252
atac@@ 252
barr@@ 252
coff@@ 252
diffic@@ 252
gol 252
nur@@ 252
said 252
≥ 252
吳@@ 252
9000 251
Giov@@ 251
Heim@@ 251
Illus@@ 251
gü@@ 251
icket 251
iten 251
kind 251
lais 251
lık 251
stag@@ 251
ume@@ 251
èse 251
្ 251
思@@ 251
1665 250
1699 250
President 250
Transport 250
als@@ 250
cach@@ 250
iron 250
kah@@ 250
raf 250
range 250
tee 250
tras 250
trio 250
vali@@ 250
wehr 250
μ 250
н 250
縣 250
英@@ 250
通@@ 250
1596 249
1664 249
1721 249
Antarc@@ 249
Fund@@ 249
Historia 249
MVP 249
Uc@@ 249
ih 249
mud 249
nor 249
poem 249
regul@@ 249
scheid 249
unca 249
western 249
öm@@ 249
延@@ 249
承@@ 249
秦@@ 249
1517 248
1631 248
1632 248
Abl@@ 248
Forum 248
church 248
ibi 248
imini 248
jos 248
market 248
position 248
water@@ 248
Ị@@ 248
な@@ 248
东@@ 248
木@@ 248
1.4 247
Alis@@ 247
Authority 247
Bartolom@@ 247
Benin 247
Bros 247
Eğ@@ 247
Santi@@ 247
divi@@ 247
ked 247
nies 247
ós@@ 247
梁@@ 247
1724 246
Anah@@ 246
Türk@@ 246
coming 246
each 246
eich@@ 246
embe 246
evol@@ 246
gina 246
gyp@@ 246
haf@@ 246
kul 246
upon 246
wine 246
Δ@@ 246
云@@ 246
Around 245
Karlsruhe 245
Olympics 245
agram 245
ancia 245
bora 245
enl@@ 245
ettin 245
monte 245
network 245
platte 245
prak@@ 245
й 245
Ủ@@ 245
000,000 244
Blanca 244
Prad@@ 244
acho 244
actor 244
düz@@ 244
educ@@ 244
ettes 244
gid@@ 244
outs 244
zum@@ 244
ς 244
カ@@ 244
1687 243
Economic 243
Né@@ 243
Vers@@ 243
Volks@@ 243
ainst 243
conver@@ 243
know 243
liga 243
rand 243
ug 243
vel 243
vim@@ 243
ği 243
ב@@ 243
シ@@ 243
君@@ 243
1.6 242
1519 242
Afgh@@ 242
Dollar 242
Negro 242
aspi@@ 242
camp 242
elek@@ 242
herr@@ 242
insula 242
liger 242
limited 242
mission 242
pit 242
region 242
sever@@ 242
ка 242
越@@ 242
1711 241
Film@@ 241
Gardens 241
Kıl@@ 241
Military 241
Species 241
Trab@@ 241
Trail 241
alian 241
anted 241
ential 241
maker 241
mot 241
nas 241
oral 241
unci@@ 241
в@@ 241
國 241
章@@ 241
1605 240
3. 240
3500 240
Honor 240
Regional 240
cial 240
mey@@ 240
plane 240
≈ 240
全@@ 240
1728 239
1738 239
1746 239
Fund 239
Jesús 239
Lü@@ 239
Many@@ 239
Vak@@ 239
Würzburg 239
adap@@ 239
ajas 239
atas 239
ement@@ 239
identi@@ 239
iller@@ 239
layer 239
progres@@ 239
sed 239
ums 239
慶@@ 239
1568 238
1571 238
1611 238
Reyn@@ 238
Stro@@ 238
UA 238
exp@@ 238
iat 238
isla 238
olea 238
prises 238
teau 238
viera 238
き@@ 238
河 238
1615 237
Charts 237
Hiz@@ 237
Je 237
Vide@@ 237
acking 237
anay@@ 237
avana 237
grad@@ 237
isel 237
oking 237
otur@@ 237
signi@@ 237
uren 237
user 237
İz@@ 237
ская 237
下@@ 237
郎 237
1204 236
Aachen 236
Kassel 236
Prus@@ 236
dry 236
esco 236
eye 236
imar 236
irs 236
mari 236
sevi@@ 236
tros 236
zus@@ 236
§ 236
áz@@ 236
何@@ 236
1669 235
1678 235
anlar 235
apon 235
carri@@ 235
cht@@ 235
diffus@@ 235
fair 235
gana 235
lap 235
orod@@ 235
sat 235
size 235
train 235
ıca 235
刘@@ 235
1565 234
Administration 234
Ged@@ 234
Ingen@@ 234
Iran@@ 234
Valenci@@ 234
auss@@ 234
brick 234
ilar 234
ispi@@ 234
kat 234
many 234
pping 234
sig 234
ıs@@ 234
н@@ 234
р@@ 234
德 234
Armen@@ 233
Prof@@ 233
Wach@@ 233
atl@@ 233
doğan 233
inde 233
indo 233
孫@@ 233
府@@ 233
1.8 232
1705 232
Arz@@ 232
Bart 232
Caballer@@ 232
Prov@@ 232
Version 232
bani 232
bele 232
bul 232
chur@@ 232
eding 232
gut 232
language 232
osha 232
paşa 232
tif 232
tig 232
ât 232
レ@@ 232
1616 231
1652 231
Integr@@ 231
Tari@@ 231
frut@@ 231
leich@@ 231
omea 231
rach@@ 231
uls 231
vide 231
ıt 231
二@@ 231
黄@@ 231
1621 230
2.3 230
Desp@@ 230
Intel@@ 230
abara 230
enden 230
etas 230
fied 230
laf 230
ologue 230
poder@@ 230
science 230
zik@@ 230
ême 230
öder@@ 230
1717 229
Boğaz@@ 229
Grou@@ 229
Joint 229
Ork@@ 229
Railway 229
Segunda 229
Sommer@@ 229
accor@@ 229
onge@@ 229
plan 229
tane 229
transfer@@ 229
yem@@ 229
克@@ 229
政@@ 229
月@@ 229
生 229
魏@@ 229
1555 228
Ernesto 228
Fis@@ 228
Head@@ 228
Innsbruck 228
Pia 228
Polit@@ 228
abeth 228
arde 228
break@@ 228
friend 228
idal 228
ika@@ 228
kilom@@ 228
kwa 228
resp@@ 228
tery 228
tific@@ 228
wir@@ 228
Ạ@@ 228
六@@ 228
张@@ 228
文 228
祖@@ 228
院 228
1556 227
1628 227
Arap@@ 227
Augusto 227
Centro 227
Commons 227
Congress 227
Dietrich 227
Ide@@ 227
Latina 227
Lübeck 227
Rö@@ 227
S.A. 227
Was 227
anci@@ 227
ators 227
bish@@ 227
elte 227
erst 227
hall 227
lemente 227
male 227
nich@@ 227
pek@@ 227
song@@ 227
usch@@ 227
wart 227
ıs 227
် 227
七@@ 227
大臣 227
弘@@ 227
興@@ 227
Analy@@ 226
Deutsch@@ 226
Für@@ 226
Galatasaray 226
Hamil@@ 226
Mans 226
Navy 226
Rugby 226
Tourn@@ 226
WM 226
aders 226
araj@@ 226
aram@@ 226
dat 226
enen 226
malı 226
milli@@ 226
miss@@ 226
opping 226
oyer 226
pped 226
title 226
tone 226
д@@ 226
女 226
百@@ 226
1609 225
4,000 225
Amateur 225
Au 225
Vasco 225
asema 225
asker 225
avera 225
e. 225
fah@@ 225
führer 225
schel 225
schne@@ 225
vais 225
ľ@@ 225
Ế 225
建@@ 225
1626 224
1633 224
Bank@@ 224
Ferg@@ 224
Freih@@ 224
Murat 224
Musée 224
Nissan 224
Tsch@@ 224
akes 224
angle 224
banks 224
build 224
büt@@ 224
diy@@ 224
iliano 224
iness 224
lá@@ 224
wali 224
Álvar@@ 224
üb@@ 224
ש@@ 224
い 224
た@@ 224
少@@ 224
曹@@ 224
淑@@ 224
1525 223
1666 223
Edi@@ 223
Italian 223
Kamb@@ 223
Kayn@@ 223
Maked@@ 223
Some 223
adow 223
anja 223
dau@@ 223
diam@@ 223
font 223
innen 223
orta 223
sok@@ 223
uerta 223
yani 223
華@@ 223
10000 222
4. 222
99.@@ 222
After@@ 222
Greek 222
Magdal@@ 222
Sonder@@ 222
atory 222
mur 222
pierre 222
population 222
prov@@ 222
slo@@ 222
У@@ 222
נ@@ 222
マ@@ 222
祖 222
Archit@@ 221
Bora 221
Concep@@ 221
Develop@@ 221
Değ@@ 221
Foreign 221
Mechan@@ 221
Mountains 221
Rath@@ 221
Stad@@ 221
Through 221
Ub@@ 221
Waffen 221
aix 221
andal@@ 221
essor 221
orial 221
tez@@ 221
zap@@ 221
öz 221
σ 221
ְ@@ 221
ス 221
貞@@ 221
陽 221
1716 220
1726 220
Pob@@ 220
Sist@@ 220
cup@@ 220
dead 220
else 220
rd 220
rum@@ 220
sue 220
una@@ 220
ushing 220
whose 220
woll@@ 220
İs@@ 220
フ@@ 220
尔@@ 220
昌@@ 220
1668 219
Et 219
Frei@@ 219
Hamb@@ 219
Helmut 219
Jeff@@ 219
Mitch@@ 219
ases 219
asili 219
diz@@ 219
elev@@ 219
intel@@ 219
istem@@ 219
nez 219
stad@@ 219
steri@@ 219
zul@@ 219
zum 219
À 219
м@@ 219
我@@ 219
蕭@@ 219
郭@@ 219
1622 218
1624 218
Its 218
Marmara 218
Taf@@ 218
acre 218
along 218
arma 218
baj@@ 218
control 218
country 218
done 218
fav@@ 218
kup@@ 218
oms 218
rate 218
rectang@@ 218
trea 218
umma 218
ymnas@@ 218
ázquez 218
ï 218
ɑ@@ 218
า@@ 218
史@@ 218
崇@@ 218
左@@ 218
經 218
韓@@ 218
사@@ 218
1585 217
1747 217
Aix 217
Auth@@ 217
Internacional 217
Joy@@ 217
Obr@@ 217
Schil@@ 217
TNA 217
arias 217
celles 217
cross 217
during 217
enso 217
fusi@@ 217
icas 217
imen 217
lines 217
same 217
tage 217
äm@@ 217
こ@@ 217
士@@ 217
1,4@@ 216
1547 216
1731 216
Celle 216
Hamburger 216
ahn@@ 216
einander 216
eping 216
hp 216
itable 216
lín 216
mour@@ 216
pion@@ 216
russ@@ 216
thers 216
ulos 216
éch@@ 216
安 216
1569 215
1684 215
CAR 215
Clas@@ 215
Count 215
Glas@@ 215
Intelligence 215
Mün@@ 215
aje 215
arro@@ 215
auti@@ 215
brücken 215
chant 215
chiế@@ 215
fie 215
laya 215
pata 215
rank 215
scar 215
styl@@ 215
vens 215
vivi@@ 215
yolu 215
üz@@ 215
φ 215
ный 215
ん 215
陈@@ 215
Agus@@ 214
Contin@@ 214
Corona 214
Jena 214
Kemal 214
Mail@@ 214
Nj@@ 214
Ouest 214
Pueblo 214
Superior 214
ablo 214
argent 214
bei@@ 214
gani 214
ief 214
ifa 214
pah@@ 214
tep@@ 214
wani 214
írit@@ 214
Ơ 214
ский 214
端@@ 214
1601 213
Form 213
Lig 213
Somer@@ 213
Tali@@ 213
ectar@@ 213
eld@@ 213
isburg 213
platz 213
schaf@@ 213
scr@@ 213
ulation 213
wahili 213
yet@@ 213
ǔ 213
お@@ 213
心@@ 213
萬@@ 213
門 213
1,6@@ 212
1676 212
Dietr@@ 212
Groß 212
Holding 212
Sub 212
aum@@ 212
champi@@ 212
dad@@ 212
dek@@ 212
ered 212
insia 212
ivo 212
kri@@ 212
orama 212
pero 212
princip@@ 212
yor 212
üş 212
1612 211
Bahn 211
Environ@@ 211
Kent@@ 211
Popular 211
Savo@@ 211
Semin@@ 211
acier 211
alem@@ 211
carr@@ 211
final 211
igher 211
ilit@@ 211
immun@@ 211
ition 211
kâ@@ 211
oning 211
ress@@ 211
ubu@@ 211
uppe 211
本@@ 211
江 211
胡@@ 211
3.2 210
Critics 210
Darmstadt 210
Hadi@@ 210
Herz@@ 210
Sow@@ 210
WCW 210
alogue 210
arbus@@ 210
coul@@ 210
fot@@ 210
infr@@ 210
temp@@ 210
urban 210
yac@@ 210
éni@@ 210
éta@@ 210
김@@ 210
1686 209
1719 209
Bu 209
Campeonato 209
Philosoph@@ 209
Saints 209
ambu@@ 209
culp@@ 209
engen@@ 209
enj@@ 209
esqu@@ 209
expect@@ 209
figh@@ 209
ird 209
natural 209
south 209
thir@@ 209
tiers 209
ロ@@ 209
洪@@ 209
0.1 208
1604 208
DDR 208
Mecklen@@ 208
Moder@@ 208
ahi@@ 208
computer 208
domain 208
enario 208
isti 208
istin 208
sita 208
uma@@ 208
with@@ 208
Ángel 208
üs@@ 208
ım 208
タ@@ 208
4- 207
Bir 207
Bourg@@ 207
Cataluña 207
Tierra 207
Verband@@ 207
anges 207
gä@@ 207
human 207
ière 207
kamp@@ 207
loss 207
offre 207
olas 207
plants 207
recep@@ 207
smo@@ 207
tej@@ 207
wind 207
wings 207
ín@@ 207
л@@ 207
常@@ 207
等@@ 207
Forces 206
Priv@@ 206
These 206
agno@@ 206
brig@@ 206
crita 206
dej@@ 206
discre@@ 206
ended 206
eño 206
koh@@ 206
kt@@ 206
print 206
urt@@ 206
using 206
vent 206
vulner@@ 206
ą 206
ν 206
主 206
杜@@ 206
3,000 205
8.5 205
Führ@@ 205
Göz@@ 205
Instrum@@ 205
Tats@@ 205
ası 205
eres@@ 205
forte 205
kip@@ 205
leit@@ 205
monstr@@ 205
otion 205
supr@@ 205
tering 205
uses 205
Balt@@ 204
Expl@@ 204
Faz@@ 204
Mt 204
Occidental 204
Short@@ 204
appel@@ 204
blu@@ 204
candid@@ 204
chanti@@ 204
fs 204
geni 204
ongo@@ 204
orden@@ 204
К@@ 204
奉@@ 204
1,8@@ 203
1734 203
Frances@@ 203
Français 203
KP 203
Libr@@ 203
Papa 203
Pokal 203
Sultan@@ 203
Train@@ 203
Waz@@ 203
bone 203
chart 203
gari 203
ict 203
iment 203
jeder 203
lecht 203
tenham 203
İsk@@ 203
Şeh@@ 203
千@@ 203
同@@ 203
嘉@@ 203
爾@@ 203
1515 202
Adler 202
List@@ 202
Mühl@@ 202
Nucle@@ 202
Stim@@ 202
ayar@@ 202
besch@@ 202
coun@@ 202
cı 202
egas 202
estim@@ 202
gone 202
movie 202
rek@@ 202
short 202
spon@@ 202
門@@ 202
～ 202
Catholic 201
Kale 201
Olimp@@ 201
Russia 201
Teatro 201
altı 201
argentina 201
ayd@@ 201
cole@@ 201
hong@@ 201
maz 201
orbit@@ 201
pal 201
programming 201
pá@@ 201
recht 201
various 201
仲@@ 201
吉@@ 201
Arturo 200
Eş@@ 200
Panz@@ 200
Resp@@ 200
assy 200
bloc@@ 200
bons 200
isches 200
named 200
pati@@ 200
ride 200
senti@@ 200
sols 200
stand 200
theory 200
vía 200
wig@@ 200
о 200
多@@ 200
特@@ 200
1559 199
Reis@@ 199
Yab@@ 199
aque 199
bahn 199
central 199
champ 199
ecas 199
gion 199
hari@@ 199
ibe 199
ildi 199
lery 199
omba 199
promin@@ 199
schol@@ 199
tch@@ 199
tent 199
京@@ 199
1,3@@ 198
1607 198
Aper@@ 198
Dach@@ 198
Güney@@ 198
Universidad 198
Weiß@@ 198
angal@@ 198
arc 198
bid 198
caval@@ 198
edin@@ 198
oming 198
phy 198
sist@@ 198
tado 198
tries 198
uts 198
vision 198
Cádiz 197
Kern 197
Mf@@ 197
Milit@@ 197
Stud@@ 197
Then 197
arz@@ 197
counter 197
eki@@ 197
just 197
kini 197
marc@@ 197
olas@@ 197
ording 197
trait 197
vier@@ 197
İk@@ 197
长@@ 197
Chief 196
Peña 196
diye 196
ited 196
kik@@ 196
rine 196
trial 196
weg@@ 196
雲@@ 196
2.4 195
Apos@@ 195
Campus 195
Commonwealth 195
Mr 195
Reserve 195
Sport@@ 195
bap@@ 195
efic@@ 195
iber 195
ieux 195
nun@@ 195
social 195
step 195
ugo 195
vich@@ 195
э@@ 195
‰ 195
り@@ 195
ド@@ 195
恩@@ 195
立@@ 195
1.7 194
1597 194
Chanc@@ 194
Contemporary 194
Fren@@ 194
Monde 194
Viktoria 194
aching 194
anana 194
aspir@@ 194
dark 194
dik 194
eting 194
iven 194
mov@@ 194
prise 194
suz@@ 194
verg@@ 194
Çağ@@ 194
テ@@ 194
御@@ 194
Ener@@ 193
Gé@@ 193
NHL 193
Studies 193
Township 193
apata 193
arten 193
fund@@ 193
pant@@ 193
succ@@ 193
tures 193
usion 193
ʿ@@ 193
ַ@@ 193
☆ 193
壽@@ 193
平 193
Bâ@@ 192
Horst 192
Ih@@ 192
Saj@@ 192
Wand@@ 192
anik@@ 192
anzo 192
brand 192
channel 192
dağ@@ 192
eos 192
fee 192
hair 192
hie 192
lili@@ 192
look 192
mers 192
upo 192
would 192
çi 192
р 192
♭ 192
る@@ 192
Diff@@ 191
Kali@@ 191
Lions 191
Prob@@ 191
against 191
atie 191
bras@@ 191
confin@@ 191
dif@@ 191
idad 191
itsch 191
pore 191
such@@ 191
thin 191
ède 191
Ω 191
И@@ 191
г@@ 191
ע@@ 191
ら@@ 191
化@@ 191
士 191
外@@ 191
川@@ 191
藤@@ 191
Guard 190
Internationale 190
Ivoire 190
Trans 190
Vice 190
Wett@@ 190
With@@ 190
ambu 190
before 190
belli 190
dimin@@ 190
eten 190
head@@ 190
inter 190
lista 190
luch@@ 190
tant@@ 190
titu@@ 190
đị@@ 190
ός 190
ト 190
伯@@ 190
玄@@ 190
Ignacio 189
Morr@@ 189
Süper 189
aches 189
ample 189
avant 189
count 189
erio 189
image 189
mif@@ 189
nek@@ 189
sarm@@ 189
village 189
Ün@@ 189
Because 188
Formula 188
Gér@@ 188
Hospital 188
Kongo 188
Organ@@ 188
Sociedad 188
Wei@@ 188
admir@@ 188
avent@@ 188
continu@@ 188
engele 188
esty 188
fou@@ 188
gaz 188
ishes 188
salon 188
sens 188
shel@@ 188
taba 188
tard 188
ığ@@ 188
Т@@ 188
く@@ 188
さ@@ 188
以@@ 188
自@@ 188
1535 187
1606 187
Friedrich@@ 187
Kern@@ 187
Liver@@ 187
Rü@@ 187
Spanish 187
bé@@ 187
depend@@ 187
ecto 187
gag@@ 187
heit 187
index 187
mik 187
near 187
oine 187
tered 187
wert 187
事@@ 187
왕@@ 187
Als@@ 186
Aç@@ 186
Identi@@ 186
Ví@@ 186
Weg@@ 186
akers 186
krieg 186
software 186
tika 186
tral 186
ė 186
仁 186
巴@@ 186
田 186
Adap@@ 185
Highway 185
Liter@@ 185
Naval 185
Of@@ 185
airs 185
areas 185
did 185
fest 185
legal 185
noir 185
okia 185
string 185
ungen 185
ystal 185
äs@@ 185
П@@ 185
伯 185
保@@ 185
區 185
寧@@ 185
海 185
Acker@@ 184
Cultural 184
Mombasa 184
Nationale 184
Portugal 184
Quart@@ 184
Salaam 184
aggreg@@ 184
apel@@ 184
asio 184
char 184
flow 184
forma 184
leva 184
manu@@ 184
secund@@ 184
sent@@ 184
tienne 184
underground 184
versary 184
® 184
ème 184
ř 184
Şir@@ 184
部 184
20,000 183
Bertr@@ 183
Diz@@ 183
Government 183
Human@@ 183
Much@@ 183
Secre@@ 183
access 183
angs@@ 183
bill@@ 183
biot@@ 183
ikia 183
philos@@ 183
sens@@ 183
stru@@ 183
İsp@@ 183
ız 183
イ 183
式@@ 183
是@@ 183
范@@ 183
語 183
5. 182
Concepción 182
Diy@@ 182
Elis@@ 182
Medal 182
Roo@@ 182
adron 182
aíso 182
bonus 182
chter 182
differ@@ 182
etary 182
hast@@ 182
ikal@@ 182
inclin@@ 182
ograph@@ 182
pres 182
rière 182
sir 182
ste 182
uchia 182
vino 182
wick@@ 182
üh@@ 182
ク 182
夏@@ 182
Academ@@ 181
Americ@@ 181
Apostol@@ 181
Assist@@ 181
Eagles 181
Terre 181
adier 181
eleri 181
eme@@ 181
hani 181
puis 181
spor 181
tank 181
1583 180
Elek@@ 180
Fé@@ 180
Haupt@@ 180
comes 180
deep 180
ferro@@ 180
illustr@@ 180
infer@@ 180
inver@@ 180
north 180
née 180
otor@@ 180
restric@@ 180
standing 180
tora 180
uzo 180
what 180
ь 180
主@@ 180
内@@ 180
重@@ 180
1595 179
Ay 179
Entr@@ 179
Primera 179
ceau 179
cole 179
doch 179
fier 179
gem 179
inking 179
last@@ 179
make 179
probably 179
ınd@@ 179
ǐ 179
М@@ 179
ה 179
に@@ 179
ア 179
將@@ 179
書 179
知@@ 179
里@@ 179
1,7@@ 178
Es 178
Porsche 178
Wap@@ 178
agü@@ 178
aume 178
brown 178
champs 178
edit@@ 178
festiv@@ 178
german@@ 178
guerr@@ 178
heart 178
owe 178
ozo@@ 178
true 178
ubi 178
wich@@ 178
woman 178
â 178
ť 178
ż 178
Г@@ 178
バ@@ 178
元 178
Ej@@ 177
Gas 177
Kind 177
Philadel@@ 177
Taiwan 177
being 177
cule 177
essing 177
fest@@ 177
garten 177
generation 177
gew@@ 177
ibu@@ 177
idos 177
ized 177
large 177
lieb 177
march@@ 177
nao 177
signe 177
uros 177
étr@@ 177
üt 177
ТВ 177
я 177
지@@ 177
Commerce 176
Industrial 176
Klin@@ 176
Münster 176
Paci@@ 176
ağa 176
border 176
civ@@ 176
ehren@@ 176
ense@@ 176
factor 176
graf@@ 176
igner 176
rios 176
theast 176
urger 176
É 176
ặ@@ 176
可@@ 176
合@@ 176
如@@ 176
容@@ 176
고@@ 176
3rd 175
Convention 175
Gutiérrez 175
Kug@@ 175
Kurfür@@ 175
Maison 175
Music@@ 175
Staff 175
Ve 175
ags 175
amani 175
drap@@ 175
engi 175
fres@@ 175
iğ@@ 175
lande 175
lek 175
mando 175
planes 175
0.0 174
Arte 174
Bartol@@ 174
Bernh@@ 174
Bey 174
Cortes 174
Diplom@@ 174
Director 174
Polonia 174
Urs@@ 174
aded 174
apu 174
call 174
contin@@ 174
derni@@ 174
dix 174
ecture 174
forms 174
iterran@@ 174
ogie 174
onto 174
qu 174
quier@@ 174
Ä@@ 174
□ 174
ィ@@ 174
天 174
府 174
Bibli@@ 173
Bros@@ 173
Hä@@ 173
Karad@@ 173
Region 173
Survey 173
Wav@@ 173
akos 173
auf 173
bottom 173
called 173
campus 173
clandest@@ 173
entre 173
forman@@ 173
general 173
nt 173
ometr@@ 173
verm@@ 173
Ét@@ 173
信@@ 173
尚@@ 173
楚@@ 173
襄@@ 173
한@@ 173
3.3 172
Ambi@@ 172
Aven@@ 172
Comput@@ 172
Grec@@ 172
Jard@@ 172
Lincol@@ 172
ailles 172
asser@@ 172
batt@@ 172
boys 172
donn@@ 172
erer 172
fau@@ 172
gebir@@ 172
klin 172
oes 172
onya 172
saw 172
stuh@@ 172
suyu 172
tesis 172
veda 172
キ@@ 172
風@@ 172
齊@@ 172
Atatürk 171
Bris@@ 171
Ein 171
Episode 171
Movement 171
NCAA 171
dram@@ 171
eci 171
endre 171
girls 171
haj@@ 171
hell@@ 171
juni@@ 171
length 171
mali@@ 171
marin 171
mud@@ 171
olar 171
rée 171
stantin 171
strong@@ 171
utions 171
Çel@@ 171
ón@@ 171
光 171
동 171
Alger@@ 170
Aten@@ 170
Edel@@ 170
España 170
Hosp@@ 170
Rat 170
Route 170
Stell@@ 170
Tür@@ 170
Wör@@ 170
anchi 170
ansi 170
atas@@ 170
aña 170
chau@@ 170
kopf 170
lanz@@ 170
ligi 170
moder@@ 170
moth 170
nen@@ 170
pose 170
sm 170
后@@ 170
書@@ 170
马@@ 170
1,9@@ 169
Méd@@ 169
WI 169
aging 169
aste 169
completa 169
emis@@ 169
gence 169
hü@@ 169
ible 169
jen 169
karat@@ 169
nord@@ 169
pewa 169
quier 169
rama 169
stars 169
tenue 169
wash@@ 169
Ö 169
ück@@ 169
Ā@@ 169
杨@@ 169
衛@@ 169
2.8 168
Instituto 168
Kiv@@ 168
Rand 168
amad@@ 168
avec 168
awe 168
chers 168
distingu@@ 168
ership 168
famili@@ 168
ive 168
marqu@@ 168
mtDNA 168
muj@@ 168
program 168
seas 168
íl@@ 168
к@@ 168
ち@@ 168
和 168
慕@@ 168
Ama 167
Boulevard 167
Galax@@ 167
Gymnasium 167
Initiative 167
Mosk@@ 167
Notes 167
Rest@@ 167
achev@@ 167
atini 167
dispar@@ 167
e.org 167
ekt 167
elik 167
estruc@@ 167
imani 167
inler 167
maya 167
million 167
mt@@ 167
neur 167
uled 167
yet 167
är 167
ρ 167
あ@@ 167
堂 167
愛@@ 167
Marse@@ 166
Stadion 166
Sus 166
Waj@@ 166
acri@@ 166
acı 166
angen 166
circul@@ 166
sied@@ 166
syst@@ 166
uvar@@ 166
vamp@@ 166
vivo 166
weis@@ 166
wie 166
ś 166
中 166
善@@ 166
寶@@ 166
師 166
軍@@ 166
龙@@ 166
CLC 165
Chevrolet 165
Christi 165
Rum 165
alter 165
astal 165
bau 165
bun 165
conform@@ 165
doce 165
electric 165
entier 165
figur@@ 165
ilim@@ 165
içi 165
math 165
orden 165
quel 165
sev@@ 165
traf@@ 165
tropic@@ 165
werk 165
years 165
º 165
ıklar 165
ная 165
ա@@ 165
富@@ 165
0.3 164
Bezirk 164
Ethiop@@ 164
Kip@@ 164
Mär@@ 164
Upon 164
aflu@@ 164
bed 164
ected 164
extinc@@ 164
iten@@ 164
phab@@ 164
pier@@ 164
publi@@ 164
rast@@ 164
road 164
stant@@ 164
triple 164
陵@@ 164
의 164
KG 163
Yıl@@ 163
athol@@ 163
both 163
clu@@ 163
drome 163
emu 163
holz 163
ions 163
issons 163
itali@@ 163
lux@@ 163
onio 163
parts 163
tani 163
än 163
üd@@ 163
а@@ 163
າ@@ 163
も@@ 163
旗@@ 163
武 163
Audi 162
General@@ 162
appar@@ 162
atak@@ 162
eppe 162
fried@@ 162
here 162
local 162
mation 162
original 162
polar@@ 162
polog@@ 162
schie@@ 162
tigen 162
tly 162
utar@@ 162
öt@@ 162
с@@ 162
Ệ@@ 162
ブ@@ 162
宇@@ 162
烈@@ 162
燕@@ 162
靖@@ 162
Campe@@ 161
Constantin@@ 161
Gedi@@ 161
Investig@@ 161
Kama 161
Kanz@@ 161
Ufa 161
alization 161
appy 161
bistan 161
complic@@ 161
devi@@ 161
echo 161
eit 161
expan@@ 161
fy 161
graphi@@ 161
ilif@@ 161
inak@@ 161
ingen@@ 161
lende 161
oil 161
oting 161
platform 161
pression 161
stati@@ 161
sud 161
tlich 161
upper 161
vocal 161
éré@@ 161
В@@ 161
佳@@ 161
Advis@@ 160
Banco 160
But 160
Böl@@ 160
Grenoble 160
amil@@ 160
atma 160
cript 160
design@@ 160
dul 160
efs 160
estyle 160
football 160
guil@@ 160
hata 160
nig 160
occidentale 160
olet 160
sachsen 160
since 160
source 160
Å 160
ög@@ 160
Δ 160
σ@@ 160
시@@ 160
AFTA 159
Feli@@ 159
Histoire 159
Hü@@ 159
Kön@@ 159
Rek@@ 159
Rodol@@ 159
alara 159
bund 159
ched 159
ear 159
eks 159
estro 159
gebi@@ 159
iders 159
iev@@ 159
ishing 159
maximum 159
olen 159
pson 159
script 159
skir@@ 159
taka 159
ufac@@ 159
wala 159
រ@@ 159
ṅ@@ 159
妃@@ 159
憲@@ 159
理@@ 159
1577 158
Geography 158
Génér@@ 158
Heritage 158
Stoc@@ 158
Victor@@ 158
aliye 158
anaj@@ 158
arm 158
around 158
atif 158
ekli 158
inco 158
memory 158
mez 158
reich 158
reto 158
start 158
take 158
tarak@@ 158
ǒ@@ 158
ャ@@ 158
会@@ 158
物@@ 158
良@@ 158
龍 158
Grün@@ 157
Guardia 157
Hür@@ 157
cous@@ 157
cycle 157
dok@@ 157
eban 157
forest 157
haya 157
rois 157
these 157
usiana 157
ɾ@@ 157
у@@ 157
ִ@@ 157
ា@@ 157
ḍ@@ 157
事 157
水 157
自治@@ 157
인@@ 157
0.2 156
Académie 156
Professor 156
Univers@@ 156
bem@@ 156
celer@@ 156
egos 156
elig@@ 156
estar 156
hali 156
icide 156
imos 156
inan@@ 156
inat@@ 156
note 156
search 156
trip 156
wab@@ 156
yek@@ 156
ément 156
ת 156
は@@ 156
一 156
Buil@@ 155
Commander 155
Draft 155
Pref@@ 155
Siem@@ 155
Yük@@ 155
Ziel@@ 155
announced 155
biy@@ 155
change 155
disper@@ 155
française 155
initi@@ 155
kush@@ 155
metro 155
ners 155
nten 155
uer 155
waka 155
© 155
ם 155
み@@ 155
れ@@ 155
ウ@@ 155
オ@@ 155
記 155
7. 154
Cover 154
Dör@@ 154
Fenerbahçe 154
Garc@@ 154
Giants 154
Nuestra 154
Supreme 154
ariz@@ 154
echa 154
eget@@ 154
foot@@ 154
funk@@ 154
hadi@@ 154
hall@@ 154
imu 154
mad 154
mek 154
moment 154
omas 154
ored 154
racy 154
six 154
veren 154
vot@@ 154
zburg 154
் 154
佛@@ 154
右@@ 154
月 154
獻@@ 154
2.6 153
Dram@@ 153
Guang@@ 153
Local 153
Panamá 153
Tomás 153
Wali@@ 153
baden 153
bağ@@ 153
bier@@ 153
dynam@@ 153
electronic 153
gali@@ 153
ific@@ 153
ilis@@ 153
liner 153
lingu@@ 153
octu@@ 153
proj@@ 153
schule 153
surface 153
tier@@ 153
zada 153
ám@@ 153
ė@@ 153
Ř@@ 153
ʃ@@ 153
Б@@ 153
台@@ 153
名@@ 153
布@@ 153
星@@ 153
松@@ 153
沈@@ 153
� 153
6,000 152
93.@@ 152
Alab@@ 152
Carrera 152
Esteban 152
Jubil@@ 152
Por 152
berge 152
cue 152
elde 152
entas 152
ersch@@ 152
kenn@@ 152
logr@@ 152
mst@@ 152
tof@@ 152
toma 152
unu 152
γ@@ 152
ა@@ 152
サ@@ 152
吴@@ 152
懷@@ 152
裕@@ 152
隆@@ 152
신@@ 152
아@@ 152
Armée 151
Bulgar 151
Fiction 151
agog@@ 151
ambre 151
anthro@@ 151
cem@@ 151
dij@@ 151
engel@@ 151
inas@@ 151
kud@@ 151
ned@@ 151
ouse 151
person 151
print@@ 151
quilla 151
zey 151
Ál@@ 151
ğ 151
б@@ 151
が@@ 151
集 151
국@@ 151
성@@ 151
Afrika 150
Có@@ 150
December 150
Fass@@ 150
Gesellschaft 150
Meister@@ 150
Reser@@ 150
Ríos 150
again 150
brica 150
cipit@@ 150
considered 150
ensus 150
firm@@ 150
ilip 150
jud@@ 150
mile 150
nir 150
nomin@@ 150
oven 150
present 150
pê@@ 150
recorded 150
schot@@ 150
versus 150
want 150
ındır@@ 150
şehri 150
е 150
х@@ 150
中国@@ 150
後@@ 150
野@@ 150
CDU 149
Europ@@ 149
Fédération 149
Rail@@ 149
Territory 149
bill 149
conect@@ 149
eurs 149
excell@@ 149
ised 149
limit@@ 149
municipality 149
news 149
pain 149
record 149
rés 149
sites 149
sport 149
volume 149
öv@@ 149
λ@@ 149
の 149
花 149
達@@ 149
30,000 148
Ab 148
Agustín 148
Distribution 148
Jér@@ 148
Oeste 148
Parc 148
Tier@@ 148
Virgin@@ 148
aires 148
ambul@@ 148
best@@ 148
event 148
father 148
garde 148
gis@@ 148
oses 148
possible 148
pt 148
store 148
vend@@ 148
ynam@@ 148
ナ@@ 148
代@@ 148
樂@@ 148
靈@@ 148
50,000 147
Murcia 147
Schaff@@ 147
Wahl@@ 147
abila 147
adil@@ 147
castell@@ 147
food 147
hora 147
itat 147
letin 147
lul@@ 147
phones 147
requi@@ 147
rí@@ 147
toile 147
евич 147
星 147
火@@ 147
顯@@ 147
Erdoğan 146
Format 146
Mundo 146
November 146
SSR 146
aho 146
angu 146
arle 146
e- 146
entos 146
euse 146
guitar@@ 146
koz@@ 146
kuj@@ 146
nant 146
richt 146
sexual 146
spot 146
thouse 146
вич 146
崔@@ 146
正 146
者@@ 146
蔡@@ 146
Aragón 145
Um 145
atorio 145
baya 145
caus@@ 145
drop 145
escu@@ 145
hagen 145
iver 145
ofer@@ 145
sort 145
tida 145
ubu 145
ugen@@ 145
ulio 145
wide 145
zee 145
Öl@@ 145
土@@ 145
成 145
林 145
조@@ 145
2,0@@ 144
Mej@@ 144
Zeh@@ 144
birds 144
clus@@ 144
dua 144
efe 144
formi@@ 144
gare 144
geç@@ 144
ications 144
kleri 144
kop 144
mord@@ 144
nye@@ 144
pez 144
sit 144
squad 144
zes 144
és@@ 144
óm@@ 144
う 144
伊@@ 144
川 144
時@@ 144
2,8@@ 143
500,000 143
Bür@@ 143
Construction 143
Olimpi@@ 143
Université 143
Volk@@ 143
aini 143
banda 143
comb@@ 143
draft 143
five 143
grand 143
gue 143
ished 143
oder 143
osen 143
ourg 143
played 143
renk 143
uchs 143
unción 143
work@@ 143
érie 143
÷ 143
ünde 143
üng@@ 143
не 143
て@@ 143
其@@ 143
戦@@ 143
沙@@ 143
Essen 142
Fürst@@ 142
Personal 142
alif@@ 142
anı 142
banc@@ 142
crit@@ 142
estu@@ 142
etle 142
hes 142
ichte 142
ismo 142
lied 142
mass 142
sah 142
sense 142
stra@@ 142
technique 142
unger 142
went 142
ıç 142
Р@@ 142
コ@@ 142
家 142
法 142
Buddh@@ 141
Differ@@ 141
Ira@@ 141
Joaquín 141
Langu@@ 141
Promotion 141
Rail 141
Spain 141
airi 141
año 141
days 141
dies 141
feld@@ 141
ffer@@ 141
genes 141
mbal@@ 141
ouch@@ 141
points 141
province 141
seli 141
slow 141
speed 141
story 141
tivo 141
ummer 141
uve 141
weg 141
yes@@ 141
ónica 141
δ@@ 141
ы@@ 141
ằ@@ 141
島 141
志 141
真 141
那@@ 141
6. 140
8,000 140
Alcal@@ 140
Dos 140
Fot@@ 140
Minute 140
Pour 140
Within 140
afen 140
alik@@ 140
amt@@ 140
ancak 140
battle 140
early 140
effect 140
emey@@ 140
erstr@@ 140
fantas@@ 140
ification 140
midt 140
prote@@ 140
received 140
só@@ 140
too 140
usho 140
usine 140
π@@ 140
й@@ 140
т@@ 140
前@@ 140
興 140
镇 140
0.4 139
2,4@@ 139
8. 139
Defence 139
Defin@@ 139
Tof@@ 139
Zahl@@ 139
adha 139
afu@@ 139
anach@@ 139
andan 139
atures 139
bezi 139
brain 139
eden 139
exam@@ 139
meeting 139
monde 139
roads 139
sans 139
temper@@ 139
tillo 139
without 139
üler 139
üre@@ 139
ド 139
华@@ 139
至@@ 139
Baseball 138
Genç 138
Suisse 138
Umb@@ 138
alom 138
bilin@@ 138
ception 138
chos 138
duk@@ 138
ebe@@ 138
ezu 138
hek@@ 138
herman@@ 138
heur@@ 138
isim@@ 138
kno@@ 138
mete 138
nationale 138
ocur@@ 138
read 138
rue 138
scale 138
shor@@ 138
spre@@ 138
square 138
suit 138
until 138
儀 138
內@@ 138
會@@ 138
Berliner 137
Entre 137
KZ 137
Kaiser@@ 137
Kriegs@@ 137
Mal 137
Programm@@ 137
Völ@@ 137
aller@@ 137
appe@@ 137
ecklen@@ 137
ewa 137
fans 137
gency 137
hup@@ 137
ologi@@ 137
rend@@ 137
wann 137
ŋ@@ 137
ǐ@@ 137
θ@@ 137
ль@@ 137
с 137
ск 137
ь@@ 137
ֹ@@ 137
ן 137
哈@@ 137
學@@ 137
義 137
！ 137
Asim@@ 136
Ayr@@ 136
Escu@@ 136
Kih@@ 136
Sprint 136
angers 136
edge 136
equi@@ 136
escope 136
giz@@ 136
minute 136
next 136
pik 136
score 136
ungu 136
ír@@ 136
ц@@ 136
ง@@ 136
ỵ@@ 136
っ@@ 136
ガ@@ 136
丁@@ 136
原 136
老@@ 136
2,7@@ 135
Akadem@@ 135
Antak@@ 135
Boot 135
Canad@@ 135
Cep@@ 135
Executive 135
Hinter@@ 135
Kata 135
Mif@@ 135
Normal 135
Renaissance 135
Telek@@ 135
Tigers 135
V8 135
acias 135
ancı 135
auch 135
dial@@ 135
doba 135
enses 135
eters 135
feh@@ 135
latin 135
muz 135
onel 135
oppos@@ 135
rien 135
saga 135
städ@@ 135
think 135
uku@@ 135
uzi 135
vak@@ 135
сь@@ 135
← 135
〜 135
智@@ 135
神 135
行 135
9. 134
Affairs 134
Assembly 134
Jup@@ 134
acos 134
alone 134
bits 134
century 134
distribution 134
enem@@ 134
ensch@@ 134
esab@@ 134
illos 134
leş@@ 134
offs 134
onía 134
plication 134
rival@@ 134
utsch@@ 134
ỳ@@ 134
グ@@ 134
宁@@ 134
村 134
泰 134
동@@ 134
주@@ 134
Ensemble 133
För@@ 133
Hof 133
Kart@@ 133
Nash@@ 133
Norway 133
Proj@@ 133
Sied@@ 133
Site 133
Unión 133
While 133
bres 133
bt 133
eln 133
etts 133
flowers 133
gender 133
iled 133
isions 133
ismus 133
orqu@@ 133
soka 133
statt 133
tema 133
trian 133
ual@@ 133
wing@@ 133
ť@@ 133
政 133
英 133
達 133
나@@ 133
Architecture 132
Bisch@@ 132
Landkreis 132
Provincia 132
asing 132
fields 132
fli@@ 132
ically 132
inne 132
insec@@ 132
least 132
protoc@@ 132
sawa 132
skin 132
tish@@ 132
vik@@ 132
villa 132
Öster@@ 132
öd@@ 132
ד@@ 132
Ộ@@ 132
ỹ@@ 132
木 132
社 132
罗@@ 132
華 132
ANU 131
Chili 131
DAP 131
Gast@@ 131
Parish 131
Stras@@ 131
Symb@@ 131
aleg@@ 131
amento 131
astronom@@ 131
bord@@ 131
clos@@ 131
encer 131
hava 131
huz@@ 131
ings@@ 131
iyi 131
machine 131
olos 131
otas 131
process 131
sas 131
semi 131
still 131
ulan 131
usim@@ 131
çu 131
élo@@ 131
น@@ 131
∈ 131
国 131
紅@@ 131
而@@ 131
院@@ 131
1.9 130
Dr 130
Gatt@@ 130
L4 130
Maç@@ 130
Petro 130
Presidente 130
Tübingen 130
construc@@ 130
ecke 130
elier 130
ept 130
fort@@ 130
given 130
gos 130
graphy 130
ingue 130
mechan@@ 130
minster 130
reb@@ 130
spring 130
tad 130
tation 130
trol 130
Ć@@ 130
ʊ@@ 130
г 130
ө@@ 130
∞ 130
博@@ 130
熊@@ 130
禪@@ 130
都 130
香@@ 130
183@@ 129
200,000 129
Grab 129
Neub@@ 129
Norwegian 129
Offic@@ 129
Swedish 129
Technical 129
Training 129
apping 129
cev@@ 129
charge 129
doa 129
franco 129
issen 129
lig 129
phase 129
states 129
waz@@ 129
within 129
ǔ@@ 129
ρος 129
チ@@ 129
入@@ 129
大 129
相@@ 129
魯@@ 129
3,0@@ 128
Andalucía 128
Bien@@ 128
Conservation 128
Indon@@ 128
Münch@@ 128
Statis@@ 128
alumin@@ 128
amed 128
amt 128
atta@@ 128
auti 128
ayar 128
ayet@@ 128
cular 128
emph@@ 128
langu@@ 128
latter 128
miner@@ 128
pense 128
prec@@ 128
reas 128
seinen 128
several 128
super 128
tified 128
tip 128
tribu@@ 128
éné@@ 128
ît 128
ћ 128
כ@@ 128
メ@@ 128
兵@@ 128
夫 128
孟@@ 128
守@@ 128
民@@ 128
원@@ 128
Argentine 127
Corpor@@ 127
Damp@@ 127
Wasser@@ 127
complex 127
dern 127
emic 127
emot@@ 127
ension 127
enst 127
eous 127
imbo 127
kong@@ 127
longu@@ 127
nach@@ 127
quarti@@ 127
sciences 127
suj@@ 127
swit@@ 127
tisch 127
wei@@ 127
yum@@ 127
Çek@@ 127
ον 127
л 127
ר 127
ṛ@@ 127
‑ 127
ュ@@ 127
万@@ 127
先@@ 127
利@@ 127
尹@@ 127
空@@ 127
Andaluc@@ 126
Armada 126
Colegio 126
Fes@@ 126
Leic@@ 126
Nouveau 126
Posi@@ 126
Sult@@ 126
Umgebung 126
atre 126
colon@@ 126
diya 126
festival 126
gé 126
jiang 126
kek 126
kler 126
langen 126
member 126
meni 126
ospel 126
paral@@ 126
rail@@ 126
teams 126
temps 126
unas 126
views 126
visi@@ 126
wach@@ 126
warf 126
zed 126
ш@@ 126
叔@@ 126
学@@ 126
蘭@@ 126
赵@@ 126
風 126
Compan@@ 125
Garde 125
Municipal 125
Telev@@ 125
adop@@ 125
books 125
dig 125
edan 125
edition 125
gets 125
gies 125
jp@@ 125
little 125
lour@@ 125
med 125
noch 125
ped 125
pé@@ 125
tons 125
zant@@ 125
érieure 125
С 125
母 125
泰@@ 125
長 125
2.7 124
Alej@@ 124
Dieu 124
Escuela 124
Fein@@ 124
Inde@@ 124
Lein@@ 124
Monum@@ 124
Part@@ 124
Polish 124
Sır@@ 124
Trois 124
aged 124
agres@@ 124
amber 124
andere 124
bec 124
collec@@ 124
cual 124
department 124
driver 124
eign 124
eser@@ 124
estig@@ 124
hizo 124
hosts 124
kli 124
lej@@ 124
lets 124
operation 124
others 124
pler@@ 124
rough@@ 124
venti@@ 124
æ 124
Д@@ 124
у 124
デ@@ 124
ニ@@ 124
晉@@ 124
歌 124
이 124
Comun@@ 123
Profes@@ 123
Sech@@ 123
September 123
Stadt@@ 123
aklar 123
alion 123
amay@@ 123
arden 123
awards 123
ciler 123
desc@@ 123
enton@@ 123
ernes 123
expres@@ 123
gesch@@ 123
inside 123
limi@@ 123
mite 123
olí@@ 123
partic@@ 123
samm@@ 123
sein@@ 123
sometimes 123
umière 123
vention 123
wise 123
на@@ 123
プ@@ 123
佐@@ 123
侍@@ 123
大学 123
昌 123
7,000 122
Alter@@ 122
Eag@@ 122
Japon@@ 122
Parque 122
acht@@ 122
ained 122
allos 122
autom@@ 122
boğ@@ 122
dés 122
eins 122
entation 122
firma 122
isho 122
islas 122
quand 122
repe@@ 122
sequence 122
subj@@ 122
tax 122
templ@@ 122
tiy@@ 122
turn 122
¼ 122
éré 122
ы 122
ァ@@ 122
パ@@ 122
也 122
侯@@ 122
官@@ 122
志@@ 122
慧@@ 122
睿@@ 122
純@@ 122
선@@ 122
주 122
： 122
Kraft 121
Libre 121
October 121
Span@@ 121
Tif@@ 121
Una 121
adir 121
aliforni@@ 121
café 121
cap 121
condi@@ 121
could 121
counter@@ 121
defin@@ 121
distrito 121
dola 121
fusion 121
much 121
never 121
oj 121
ondo@@ 121
oration 121
poin@@ 121
private 121
released 121
roman@@ 121
ıt@@ 121
ŋ 121
̣ 121
а 121
น 121
信 121
源@@ 121
繼@@ 121
도 121
Bolog@@ 120
Equi@@ 120
Fuer@@ 120
Lands@@ 120
alet 120
aue 120
biwa 120
comple@@ 120
enzen 120
func@@ 120
fung@@ 120
iet 120
island 120
minimum 120
muş 120
nini 120
onur@@ 120
oué 120
pluvi@@ 120
podr@@ 120
puer@@ 120
rir 120
yana@@ 120
çek@@ 120
Ậ@@ 120
セ@@ 120
ラ 120
呂@@ 120
在@@ 120
拳 120
者 120
若@@ 120
開@@ 120
Bachelor 119
Found@@ 119
July 119
agnes 119
chas 119
deutsche 119
emos 119
essed 119
hits 119
impl@@ 119
information 119
ople 119
opoli 119
près 119
sbr@@ 119
term 119
titude 119
美 119
서@@ 119
According 118
Califor@@ 118
Cristo 118
Einsatz@@ 118
Emil@@ 118
Estudi@@ 118
Hadi 118
Hockey 118
Kral 118
Progres@@ 118
Yard@@ 118
adet 118
anor@@ 118
entis@@ 118
eña 118
idence 118
inclus@@ 118
klü 118
kuş 118
moun@@ 118
normal@@ 118
object 118
ogle 118
peace 118
polic@@ 118
tribut@@ 118
waw@@ 118
Ü 118
İstanbul 118
ре@@ 118
于@@ 118
普@@ 118
本 118
2,6@@ 117
Beşiktaş 117
Dez@@ 117
Energi@@ 117
Era 117
Fest 117
Govern@@ 117
Mayor 117
Switzerland 117
XV@@ 117
abs@@ 117
acion 117
bio@@ 117
blood 117
design 117
dial 117
east 117
ennen 117
ergie 117
fik 117
iling 117
iment@@ 117
mail@@ 117
mex@@ 117
seven 117
tson 117
uano 117
usta@@ 117
Şey@@ 117
Ḥ@@ 117
南 117
口@@ 117
司 117
리 117
0.8 116
Barcel@@ 116
Conseil 116
Krieg@@ 116
Nazi 116
Political 116
Protection 116
Resol@@ 116
Supre@@ 116
deck 116
emas 116
lama 116
mash@@ 116
northern 116
official 116
onale 116
onym 116
roul@@ 116
sech@@ 116
urdu 116
ñas 116
エ@@ 116
下 116
寶 116
章 116
蘇@@ 116
－ 116
Between 115
Corte 115
Finale 115
Hata 115
Johann@@ 115
Premio 115
Sä@@ 115
agric@@ 115
ammer 115
aner 115
años 115
current 115
dans@@ 115
disc 115
ehri 115
elsen 115
essin 115
gruppe 115
homme 115
iers 115
illers 115
imli 115
including 115
inner 115
klein@@ 115
kış@@ 115
lear@@ 115
ledon 115
orit@@ 115
portation 115
puls@@ 115
pup@@ 115
sof@@ 115
terre 115
ups 115
verte@@ 115
volcan@@ 115
Église 115
ète 115
ırı 115
ζ 115
з@@ 115
ת@@ 115
བ@@ 115
ひ@@ 115
春 115
段@@ 115
溫@@ 115
部@@ 115
Dieter 114
Feh@@ 114
Grupo 114
Monten@@ 114
Panam@@ 114
Para 114
Sich@@ 114
aquel 114
atik 114
buz@@ 114
drive 114
engineering 114
ently 114
habitat 114
history 114
jard@@ 114
kung 114
kü 114
olog 114
outside 114
pain@@ 114
parent 114
quality 114
television 114
trau@@ 114
unid@@ 114
visible 114
Ко@@ 114
ミ@@ 114
出@@ 114
方 114
皇 114
郡 114
18,7 113
Alfa 113
Bundest@@ 113
Cem@@ 113
Cih@@ 113
Deutscher 113
Innov@@ 113
Kız@@ 113
Montr@@ 113
Schloss 113
Schutz@@ 113
Section 113
abb@@ 113
aning 113
astre 113
chum@@ 113
circ@@ 113
commer@@ 113
deli@@ 113
dien 113
etos 113
fici@@ 113
fiction 113
high@@ 113
ided 113
ineers 113
koa 113
menta 113
method 113
nz@@ 113
ologie 113
otop@@ 113
sino 113
summer 113
supérieure 113
sö@@ 113
tural 113
ucture 113
uny@@ 113
ís@@ 113
ʼ 113
פ@@ 113
じ@@ 113
ょ@@ 113
り 113
季@@ 113
拓@@ 113
肅@@ 113
馮@@ 113
장@@ 113
Edit@@ 112
Person 112
Piy@@ 112
Qué@@ 112
Recon@@ 112
République 112
Speci@@ 112
abstr@@ 112
akam@@ 112
animation 112
appel 112
atro 112
award 112
bril@@ 112
broad@@ 112
ctu@@ 112
disci@@ 112
eness 112
esos 112
fix@@ 112
gesti@@ 112
nation 112
ocin@@ 112
ologist 112
ork@@ 112
path 112
ruz 112
urugu@@ 112
weather 112
´ 112
Çanak@@ 112
ү@@ 112
ח@@ 112
つ@@ 112
よ@@ 112
乡 112
作@@ 112
修@@ 112
從@@ 112
拔@@ 112
梅@@ 112
福 112
艦 112
里 112
Guerra 111
January 111
Luft@@ 111
Mehmet 111
Nikolaus 111
Norman@@ 111
Physi@@ 111
Since 111
Stadt 111
Text 111
aliers 111
casi 111
celle 111
cion@@ 111
dó@@ 111
etc 111
kuch@@ 111
meli 111
naf@@ 111
older 111
onnes 111
oring 111
third 111
those 111
voice 111
ße 111
öff@@ 111
Ми@@ 111
ва 111
ко@@ 111
ро@@ 111
ས 111
⁄ 111
州市 111
母@@ 111
為@@ 111
虎@@ 111
錄 111
가@@ 111
Aé@@ 110
Burg 110
Ló@@ 110
Orta 110
abab@@ 110
arka 110
attack 110
bano 110
caz@@ 110
desp@@ 110
error 110
figure 110
ige@@ 110
kula 110
locom@@ 110
occurs 110
okol@@ 110
power@@ 110
silver 110
spor@@ 110
zina 110
ダ@@ 110
广@@ 110
忠 110
拉@@ 110
桓@@ 110
汉@@ 110
綿@@ 110
공@@ 110
원 110
하@@ 110
Among 109
Ministry 109
Mö@@ 109
Ph.@@ 109
Projekt 109
Rom 109
Ukrainian 109
Víctor 109
affe 109
amie 109
ared 109
bility 109
business 109
chef 109
chron@@ 109
corr@@ 109
egal 109
feu@@ 109
guard 109
industrial 109
message 109
research 109
riqu@@ 109
terminal 109
tige 109
torn@@ 109
Ἀ@@ 109
兴@@ 109
哲@@ 109
徽@@ 109
潘@@ 109
羅 109
賢@@ 109
馬 109
자@@ 109
40,000 108
ADN 108
Aller@@ 108
Colonia 108
Egyp@@ 108
Hawai@@ 108
Many 108
Mercur@@ 108
Schä@@ 108
Smack@@ 108
Universität 108
Zuk@@ 108
analysis 108
apes 108
aret@@ 108
aspor 108
bacher 108
bann@@ 108
bile 108
ción 108
fang@@ 108
flat 108
franch@@ 108
gruppen 108
hockey 108
kari@@ 108
mg@@ 108
müh@@ 108
poss@@ 108
probl@@ 108
regel@@ 108
ritt 108
stable 108
tath@@ 108
travel 108
umul@@ 108
ähr@@ 108
ла@@ 108
но@@ 108
丹@@ 108
令@@ 108
奇@@ 108
居@@ 108
日本@@ 108
欽@@ 108
洋@@ 108
董@@ 108
諸@@ 108
金 108
音@@ 108
경@@ 108
4th 107
Aquit@@ 107
Origin@@ 107
Partido 107
Savaş@@ 107
Señ@@ 107
Student 107
alcal@@ 107
anze 107
aral@@ 107
ayda 107
because 107
bist@@ 107
company 107
comput@@ 107
contemporary 107
create 107
doğ@@ 107
election 107
eviz@@ 107
garden 107
igos 107
kuk 107
ority 107
ously 107
tropole 107
weit@@ 107
yalı 107
ð 107
А 107
娘 107
石 107
裴@@ 107
集@@ 107
飛@@ 107
기@@ 107
Ley 106
adt 106
afro@@ 106
afu 106
anden 106
asses 106
avu 106
chini 106
college 106
direc@@ 106
direct 106
ext 106
extrem@@ 106
great 106
ibar 106
ieur@@ 106
international 106
ision@@ 106
kua 106
natur@@ 106
pico 106
placed 106
promot@@ 106
toral 106
variable 106
Þ@@ 106
ɔ 106
で@@ 106
傳 106
功@@ 106
台 106
彥@@ 106
柳@@ 106
秋@@ 106
雪@@ 106
리@@ 106
Alman@@ 105
Benedi@@ 105
Brau@@ 105
Expedition 105
Famili@@ 105
Funk@@ 105
Höch@@ 105
Nation@@ 105
Register 105
Sür@@ 105
activ@@ 105
cito 105
femin@@ 105
ference 105
franco@@ 105
hiss@@ 105
inform@@ 105
[...]
