۔ 1107595
کے 1041865
میں 921747
، 848254
کی 800850
ہے 702667
اور 644650
سے 509633
کا 496885
اس 362148
نے 358290
پر 323805
کو 318917
ایک 312979
ہیں 217819
) 208652
( 204095
. 194685
جو 183123
ان 172332
کیا 164165
یہ 162726
کہ 149641
تھا 144113
&quot; 143715
واقع 136912
بھی 133031
کر 122218
و 122015
وہ 110589
تھے 107392
@-@ 105482
لیے 99619
گیا 95799
یا 87960
بعد 83509
: 81598
جس 73931
ہو 71174
آبادی 70956
ک@@ 69242
بن 68376
تھی 67269
ساتھ 67150
نہیں 65709
مجموعی 61820
افراد 61395
کرنے 61174
پ@@ 60764
گ@@ 60253
ی@@ 60222
; 59939
وں 59708
تک 59668
دیا 59468
اپنے 58719
تفصیلات 58629
مشتمل 57796
&amp; 57439
طور 55996
کاؤنٹی 55743
جاتا 55355
ہوئے 53990
تو 52993
ہ@@ 52824
ہی 52328
س@@ 52101
ہ 51582
آپ 50912
ن@@ 49730
پاکستان 49125
ڈ@@ 49049
و@@ 48353
دی 48236
چ@@ 47686
ہوا 47374
نام 47150
سی@@ 46115
متحدہ 45813
ب@@ 45782
بی@@ 45484
ج@@ 45034
ے 43826
ٹ@@ 43731
شہر 43219
ر@@ 42930
می@@ 42533
نہ 42309
م@@ 41991
ل@@ 41761
اللہ 41382
گئے 40827
ای@@ 40556
زیادہ 40394
ضلع 40259
امریکا 40196
ز@@ 40105
د@@ 39959
انہوں 39922
اپنی 39748
ان@@ 39669
علاقہ 39104
سطح 38869
ری@@ 38797
ریاستہائے 37871
جب 37691
شپ 37636
گئی 37143
ش@@ 37046
آ@@ 37019
میٹر 36626
حاصل 36074
دو 36072
س 35905
محمد 35871
ٹ 35747
لیکن 35703
کرتے 35397
لی@@ 35390
مربع 35345
ار@@ 35150
رقبہ 34672
ہوئی 34599
ٹاؤن 34572
ا 34267
پی@@ 33946
ک 33905
کی@@ 33599
بہت 33536
بلندی 33427
سب 33284
کیلومیٹر 32807
تی 32756
سی 32652
اسے 32633
سال 31687
وی@@ 31645
وقت 31547
ف@@ 31268
کر@@ 31260
کہا 31189
ی 30917
رو@@ 30905
بر@@ 30804
م 30653
را@@ 30598
پہلے 30462
ہونے 30437
ح@@ 30310
شامل 30262
ہوتا 30216
ڈ 30156
والے 29948
کچھ 29939
ن 29698
/ 29549
کسی 29392
ا@@ 29171
نی@@ 29168
لے 28901
رہے 28827
gt 28612
من@@ 28511
خان 28470
lt 28446
ل 28273
ائی 28169
لا@@ 28163
وجہ 27888
ت@@ 27637
یں 27476
اسی 27450
ری 27283
کو@@ 27271
لی 27270
جن 27262
آباد 27217
ق@@ 26631
طرح 26087
ز 25873
جنگ 25742
‘ 25626
حکومت 25507
ت 25487
نا 25433
ش 25387
رہائشی 25380
خ@@ 25315
علی 25053
کام 24765
تا 24540
لا 24517
ِ 24485
مو@@ 24374
کھ@@ 24076
اس@@ 24066
ال@@ 23914
لو@@ 23883
انی 23852
طرف 23825
سو 23760
دے 23702
ر 23618
ڈی@@ 23544
ہی@@ 23436
دور 23321
پر@@ 23316
شی@@ 23112
سمندر 23033
اب 22948
ام@@ 22875
ہر 22691
کوئی 22640
ع@@ 22586
خلاف 22556
او@@ 22470
لیا 22444
شاہ 22323
دی@@ 22311
ور@@ 22226
کم 22148
ٹی@@ 22141
حضرت 22130
ٹی 22079
نی 22053
ون 21915
استعمال 21898
وا@@ 21703
زبان 21700
فلم 21493
’ 21464
انہیں 21455
غ@@ 21358
بی 20982
تعلیم 20971
بھارت 20887
ہو@@ 20789
ین 20745
مطابق 20429
شروع 20374
صوبہ 20363
پیدا 20274
رہا 19934
والی 19870
زندگی 19860
وی 19664
ص@@ 19533
با@@ 19464
تے 19407
پھر 19272
بھ@@ 19169
اور@@ 19050
ور 18874
ہم 18864
تھیں 18860
تمام 18826
سر@@ 18772
دوران 18653
اب@@ 18600
جی@@ 18587
دار 18503
نا@@ 18325
عام 18292
مقام 18220
صرف 18188
گا 18086
ملک 17979
کرکٹ 17964
ق 17929
مع@@ 17917
مشہور 17863
رہ 17844
انہ 17819
لئے 17804
کتاب 17797
یہاں 17747
مر@@ 17711
ات 17707
سو@@ 17695
غیر 17638
کیے 17616
کئی 17493
تین 17455
نگ 17439
ھ 17396
ہوتی 17331
پیش 17327
خود 17307
فی@@ 17299
جہاں 17283
تھ@@ 17145
بے 17123
ط@@ 17078
اے 17076
کرنا 17033
کرتا 17000
لوگوں 16959
ون@@ 16945
یوں 16904
ڈی 16894
مختلف 16865
نگ@@ 16856
اسلام 16815
عبد 16732
موجود 16670
تاریخ 16655
دہ 16654
ار 16580
د 16499
ف 16470
حصہ 16385
جاتی 16384
ب 16313
&#124; 16312
امام 16255
سن 16189
دنیا 16065
عمر 16058
چی@@ 16008
جا 15857
بات 15841
فرانسیسی 15818
جائے 15720
گی@@ 15681
قائم 15672
را 15659
دوسرے 15657
اہم 15653
اک@@ 15633
پہلی 15584
- 15518
چھ@@ 15468
ابن 15443
آف 15367
پور 15324
سینٹ 15319
در@@ 15295
ہوائی 15294
احمد 15277
دونوں 15222
سن@@ 15197
ریاست 15195
اں 15180
تی@@ 15088
اد@@ 14996
نو@@ 14969
وفات 14927
&#93; 14925
لینڈ 14922
کار 14864
اری 14844
پی 14829
الدین 14827
دریا 14798
می 14745
جانے 14744
بین 14722
دھ@@ 14707
اردو 14655
جنوبی 14650
&#91; 14592
سر 14533
ئ@@ 14500
دن 14462
علاوہ 14452
فی 14422
یعنی 14316
ہزار 14291
ائے 14264
سٹ@@ 14223
زی@@ 14212
بڑے 14197
فہرست 14170
ہوں 14152
of 14134
؛ 14095
مش@@ 14024
کار@@ 13993
ج 13913
بار 13883
&apos; 13867
دو@@ 13802
پاس 13789
جی 13757
گی 13757
فوج 13749
دیگر 13745
بو@@ 13728
گ 13695
کس 13649
رہی 13587
ال 13490
علیہ 13438
اش@@ 13399
تر@@ 13399
سلطنت 13397
یونیورسٹی 13397
سید 13389
اگر 13365
جیسے 13360
اسٹیشن 13346
اف@@ 13310
بڑا 13297
لوگ 13266
فر@@ 13241
بڑی 13198
ہندوستان 13189
ست@@ 13162
ایران 13140
علم 13090
انے 13054
گر@@ 13038
ي 13018
ہوتے 12981
جبکہ 12979
پ 12950
, 12890
ابو 12834
جو@@ 12791
ھ@@ 12782
خاندان 12767
کل 12759
گھ@@ 12746
صدی 12718
خواتین 12702
اڈا 12651
ك@@ 12631
ول 12610
ائ@@ 12597
5@@ 12587
بن@@ 12509
ول@@ 12486
ٹن 12474
ریلوے 12410
دوسری 12383
قومی 12377
شمالی 12361
وری 12282
ء 12234
لہ 12228
4@@ 12186
مگر 12173
ي@@ 12129
ما@@ 12127
ٹر 12119
خاص 12078
6@@ 12076
جاری 12073
صدر 12062
اپنا 12052
تر 12003
جھ@@ 12002
مغربی 11996
کن@@ 11990
بیان 11973
بارے 11936
جاتے 11933
هٔ 11894
گو@@ 11885
تو@@ 11881
عدد 11853
گن 11847
پنجاب 11836
عمل 11802
مح@@ 11778
ابتدائی 11773
درمیان 11738
آئی 11719
8@@ 11704
اتی 11642
9@@ 11602
بنا 11593
ذ@@ 11583
تعلق 11577
چار 11522
ٹیسٹ 11512
ام 11497
جسے 11452
آغاز 11439
فرانس 11407
7@@ 11406
والا 11386
کرتی 11350
تاہم 11339
ث@@ 11334
والد 11333
مان@@ 11316
نیو 11282
علاقے 11259
2 11216
حسین 11144
نظر 11127
مہ 11040
3@@ 11018
کردار 10954
کالج 10935
بہ@@ 10832
الاقوامی 10827
گھر 10755
تعمیر 10752
امریکی 10745
سکتا 10743
انا 10706
شن 10683
گاؤں 10646
سیاسی 10633
ٹیم 10629
مس@@ 10580
ڑ@@ 10574
گے 10573
آر@@ 10559
چ 10551
ع 10465
1 10459
ند@@ 10445
ما 10393
عرب 10379
تعداد 10373
پو@@ 10368
وا 10351
– 10328
انگریزی 10302
چین 10297
صاحب 10293
بار@@ 10276
جگہ 10270
ممالک 10217
شادی 10178
مسجد 10156
ڑ 10120
پیدائش 10111
کیونکہ 10055
شیخ 10015
مسلم 9997
اج@@ 9948
مکمل 9927
مل@@ 9904
توں 9896
مار@@ 9891
کہتے 9836
اسلامی 9834
3 9826
“ 9803
قریب 9759
لاہور 9743
بد@@ 9710
ذریعہ 9667
وزیر 9652
دین 9648
وس@@ 9620
مل 9602
ائی@@ 9593
حیثیت 9588
من 9564
ۃ 9551
ات@@ 9544
یونین 9541
اسٹ@@ 9518
بہ 9516
رین 9513
رے 9510
شی 9489
قبل 9479
عربی 9458
مشرقی 9404
مین 9403
سلطان 9367
کا@@ 9363
مولانا 9290
کل@@ 9279
مدد 9233
قدیم 9228
آئے 9215
ۂ 9203
تا@@ 9201
اع@@ 9198
ٹا 9188
یر 9179
جن@@ 9172
روں 9169
ٹھ@@ 9120
زمین 9109
الینوائے 9104
رکھا 9092
ایس 9046
قتل 9037
مت@@ 9037
نظام 9026
عظیم 9023
ؓ 9011
ٹر@@ 9006
رات 9001
شائع 8997
فرمایا 8979
حملہ 8960
نو 8924
نڈ@@ 8901
نس 8877
20 8855
وہاں 8837
” 8832
الی 8791
مہ@@ 8791
اپ@@ 8773
بلکہ 8759
علاقوں 8754
ہر@@ 8753
واپس 8752
ِ@@ 8742
آیا 8736
ذکر 8720
اختیار 8701
بعض 8664
نک@@ 8662
ختم 8655
بل@@ 8580
تحریک 8576
4 8568
فتح 8568
بنایا 8551
میچ 8529
شخص 8525
یو@@ 8524
فوجی 8516
است@@ 8496
قرآن 8493
سل@@ 8460
الی@@ 8434
مد@@ 8434
وس 8407
ویں 8383
اگ@@ 8362
دینے 8327
ض@@ 8314
پہلا 8312
اعظم 8291
پھ@@ 8288
کوشش 8257
ادا 8247
تقسیم 8229
سک@@ 8190
ں 8163
مزید 8162
برطانوی 8150
جان 8149
پاکستانی 8130
ایم 8127
رسول 8114
چو@@ 8112
انھوں 8111
رنز 8083
مج@@ 8074
انگ@@ 8063
5 8048
جانب 8048
ٹس 8048
وغیرہ 8038
لکھا 8033
اہل 8020
آخری 8014
خدمات 8012
تع@@ 8010
اق@@ 7994
حسن 7978
جان@@ 7963
اسکول 7947
تیار 7914
نس@@ 7907
لوں 7905
الم@@ 7904
کاونٹی 7903
بھائی 7899
مارچ 7894
ولی 7893
ترکی 7886
پانی 7886
پانچ 7869
كاونٹي 7862
كاؤنٹي 7861
اح@@ 7850
مک@@ 7823
جمہوریہ 7818
بولا 7805
یت 7805
10 7793
ترین 7781
قرار 7779
آج 7776
خ 7758
چند 7752
فل@@ 7747
دل 7727
دا@@ 7695
6 7692
این 7686
بنیاد 7686
انجام 7662
ایسے 7639
ئی 7635
کن 7621
از 7619
ئے 7613
روس 7611
قسم 7602
سم@@ 7554
وم@@ 7553
کبھی 7552
خیال 7544
کراچی 7542
مسلمانوں 7540
خدا 7532
زی 7519
از@@ 7507
پرو@@ 7480
ترقی 7468
دان 7455
موجودہ 7452
مرکزی 7425
شمار 7414
لو 7413
متعلق 7404
حق 7379
ئر 7365
عالم 7365
5ء 7336
دیتے 7336
تم 7335
الح@@ 7320
وار 7318
کونسل 7313
آزاد 7301
کلی@@ 7287
تحت 7280
مینیسوٹا 7260
چھ 7259
سندھ 7254
حدیث 7252
مت 7241
بادشاہ 7234
نٹ 7231
عالمی 7229
ایسا 7214
آزادی 7210
کرکے 7210
بنیادی 7200
ذیل 7181
اگست 7169
موت 7169
شر@@ 7149
مقامی 7138
قیام 7136
سلسلہ 7120
ٹو@@ 7115
متعدد 7113
وب@@ 7110
گروپ 7104
پارٹی 7096
سرکاری 7093
ادب 7088
انڈیانا 7084
اد 7083
سا 7079
ند 7066
رکھنے 7064
کرو@@ 7044
ڑا 7037
قانون 7036
رکھتے 7028
جنوری 7017
سفر 7003
آخر 7000
ظاہر 6992
ارہ 6991
سنگھ 6990
حکم 6978
سکتے 6968
مشی 6953
اصل 6936
بر 6919
سٹ 6919
2ء 6918
زیر 6914
پوری 6904
تق@@ 6903
ہند 6896
اکتوبر 6887
13@@ 6884
میر 6882
مسلمان 6878
دسمبر 6874
ستان 6872
قبضہ 6870
سین 6850
دوبارہ 6826
یل 6811
8 6795
جون 6795
جر@@ 6780
انتخابات 6774
ابی 6770
قی@@ 6770
4ء 6768
آئ@@ 6764
مئی 6757
ذریعے 6741
بیٹے 6731
کافی 6723
ہاتھ 6715
فن 6712
قابل 6700
اعلان 6699
کیں 6692
7 6686
بنائے 6673
داری 6673
جدید 6669
1ء 6664
ستمبر 6661
برا@@ 6660
وار@@ 6660
کری@@ 6652
شمال 6647
انوں 6644
رکن 6642
سپ@@ 6639
تیں 6636
چی 6636
گئیں 6632
اہ@@ 6614
قوم 6613
9 6606
بھارتی 6604
وال@@ 6599
جولائی 6592
ري@@ 6586
فری@@ 6585
درجہ 6567
صورت 6566
جانا 6560
ح 6530
ٹری@@ 6525
دس 6507
نومبر 6507
دہلی 6500
ے@@ 6498
12 6497
لاطینی 6497
منتخب 6488
آسٹریلیا 6482
ملا 6477
15 6476
بہترین 6475
سامنے 6469
6ء 6465
9ء 6459
مذہبی 6437
وج@@ 6435
عوامی 6434
کیریئر 6432
لفظ 6424
شام 6419
گری@@ 6405
اکثر 6404
جرمنی 6398
لندن 6397
198@@ 6387
وت@@ 6385
آنے 6380
اول 6377
بنانے 6372
منٹ 6366
نوں 6363
ہار@@ 6338
ؤ 6331
اسمبلی 6315
سا@@ 6307
نج@@ 6300
دار@@ 6299
کان@@ 6293
شکست 6285
یم 6285
ایسی 6279
ڈاکٹر 6275
جنوب 6269
عبد@@ 6264
دیں 6250
روسی 6228
اپریل 6218
نش@@ 6212
اروں 6209
ڑی 6209
فارسی 6179
انتقال 6172
گر 6169
اثر 6162
برطانیہ 6140
رام 6140
7ء 6139
بطور 6136
تن@@ 6133
؟ 6131
دا 6126
ڈا 6124
کریں 6103
8ء 6095
ٹو 6088
آ 6082
سوویت 6080
فروری 6078
مقرر 6078
تقریباً 6070
جامعہ 6064
ه@@ 6060
کرے 6058
نڈ 6054
جات 6050
تحصیل 6043
عل@@ 6041
اون@@ 6033
اٹھ@@ 6022
جنرل 6020
قبول 6018
سکے 5995
کامیاب 5977
رائے 5964
مص@@ 5964
موں 5960
ایڈ@@ 5952
نئی 5948
مال@@ 5947
بند 5944
عی@@ 5943
ہا 5929
ط 5924
000 5920
تاریخی 5917
کاری 5914
دہائی 5908
11 5906
ڑے 5906
دیکھا 5903
پسند 5902
گو 5885
عہد 5879
رو 5860
14@@ 5858
یات 5848
ٹاون 5841
بچوں 5835
امیر 5819
شاعری 5808
روایت 5804
ولی@@ 5777
19 5775
ہوئیں 5769
چنانچہ 5764
السلام 5763
کش@@ 5761
لائ@@ 5758
خانہ 5755
15@@ 5752
حالات 5751
مرکز 5749
شریف 5735
14 5730
لگ@@ 5724
شاعر 5717
ریہ 5711
بری@@ 5704
مذہب 5703
اتے 5701
پار@@ 5692
انگ 5680
آئیووا 5676
ترک 5674
صلی 5672
پری@@ 5671
ڈھ@@ 5665
َ@@ 5663
اندر 5662
جے 5653
جماعت 5647
مار 5645
شکل 5634
بھر 5627
سیاست 5615
غلام 5614
چھوٹا 5606
نتیجے 5599
197@@ 5589
بنی 5588
ّ@@ 5588
کنساس 5585
12@@ 5579
ملی 5579
موقع 5572
نز 5571
مشرق 5565
3ء 5555
رنگ 5553
فیصد 5552
اسرائیل 5551
اي@@ 5547
انداز 5543
فٹ 5542
_ 5534
اص@@ 5527
میری 5526
افغانستان 5522
معلوم 5521
قصبہ 5520
حال 5512
10@@ 5501
نئے 5500
او 5499
چکے 5495
کردہ 5492
ظ@@ 5490
الگ 5487
شدہ 5487
حصے 5479
اِس 5470
رہ@@ 5454
الہ 5442
تاکہ 5435
اگرچہ 5432
یہی 5432
گاہ 5421
16 5400
یو 5397
مب@@ 5390
30 5386
کلومیٹر 5380
سب@@ 5366
18 5353
درج 5353
ص 5348
قہ 5348
دریائے 5337
انسان 5335
کور@@ 5335
داخل 5323
تھ 5312
لیگ 5310
25 5302
اُس 5289
فیصلہ 5288
پڑا 5288
پا 5286
در 5284
نمبر 5277
انسانی 5276
ہندو 5274
13 5265
اوہائیو 5246
پائی 5246
وق@@ 5233
ترجمہ 5227
حد 5221
حی@@ 5208
علامت 5195
حقوق 5187
کردیا 5185
نیا 5178
بل 5175
آر 5174
مي@@ 5171
سات 5168
مز@@ 5164
ُ@@ 5161
فہ 5159
ٰ 5155
سان@@ 5147
مصر 5147
زر@@ 5143
خواجہ 5140
جواب 5137
رب@@ 5134
َ 5127
مان 5126
مر 5124
فراہم 5119
پہ@@ 5117
ك 5113
دیے 5109
ایل 5105
17 5093
والوں 5088
جمع 5087
کتب 5078
رکھی 5077
نار@@ 5075
ہندوستانی 5066
باہر 5063
196@@ 5062
پور@@ 5057
کرا@@ 5057
مقصد 5051
0@@ 5050
طی@@ 5048
لڑ@@ 5048
ندی 5043
اُن 5040
معروف 5038
کمپنی 5038
ایا 5037
پھی@@ 5036
نٹ@@ 5035
اداکارہ 5032
ادی 5028
میل 5023
زمانے 5019
195@@ 5015
وسلم 4999
مراد 4993
شاہی 4975
وي@@ 4966
ویل 4959
ادارہ 4946
سابق 4936
لگا 4925
سان 4924
شہ@@ 4924
راج 4923
اجازت 4922
تم@@ 4922
محل 4920
دوسرا 4918
باوجود 4916
ڈو@@ 4911
سیریز 4903
پس 4897
مور@@ 4895
وسطی 4884
16@@ 4883
کیوں 4883
ثابت 4873
قلعہ 4869
مرتبہ 4862
اط@@ 4858
تشکیل 4858
تش@@ 4851
وم 4851
حمایت 4848
اُ@@ 4842
عوام 4841
17@@ 4832
اتحاد 4828
مون@@ 4821
باقی 4820
تنظیم 4819
واشنگٹن 4819
ڈے 4812
حملے 4810
چھوڑ 4809
وز@@ 4807
ضرورت 4801
شا@@ 4800
برائے 4799
ہونا 4777
بغیر 4775
اسک@@ 4774
تعلیمی 4774
نق@@ 4771
مغرب 4764
فیلڈ 4752
تیس 4751
جل@@ 4746
زمانہ 4746
یہودی 4738
ين@@ 4731
مدینہ 4728
بند@@ 4724
خی@@ 4724
ﷺ 4713
منتقل 4701
مست@@ 4700
مقابلہ 4700
کیلیفورنیا 4694
الع@@ 4689
قر@@ 4686
وال 4680
ﺎ@@ 4660
الب@@ 4658
سکتی 4657
سمجھا 4656
علامہ 4648
کشمیر 4647
دیتا 4644
انگلینڈ 4629
انڈ@@ 4627
تح@@ 4624
کمیون 4619
با 4613
خدمت 4609
بول@@ 4607
فت 4600
ہائی 4593
سٹی@@ 4590
.@@ 4589
شن@@ 4586
الفاظ 4578
2@@ 4577
ﺍ@@ 4576
کھیل 4574
کھلاڑی 4567
سری 4561
مق@@ 4560
1,@@ 4558
حالت 4558
بال@@ 4556
Saint 4543
193@@ 4539
روز 4536
گا@@ 4532
سائ@@ 4530
کس@@ 4530
خلافت 4522
اء 4521
باز 4518
شو@@ 4513
پاک 4509
جڑواں 4508
24 4501
بغاوت 4499
چلے 4494
اعلیٰ 4492
ماں 4489
رس@@ 4486
نماز 4486
واں 4481
فلموں 4479
بری 4478
وان 4477
لین 4474
! 4473
دست@@ 4469
میرے 4468
19@@ 4463
0ء 4459
مف@@ 4459
نام@@ 4455
وف@@ 4452
اتا 4439
ڈن 4431
آگے 4430
خط@@ 4426
ؤ@@ 4423
یورپ 4423
چھوٹے 4416
ٹری 4411
ناول 4399
سينٹ 4394
نر 4394
ٹیلی 4390
علوم 4388
فار@@ 4384
غ 4382
ایف 4381
افواج 4379
اولاد 4377
بڑھ@@ 4373
حلقہ 4373
22 4372
جلد 4372
معنی 4367
تعلقات 4366
حوالے 4365
میدان 4363
چکی 4358
ژ@@ 4356
گرا@@ 4355
ْ@@ 4353
ایوارڈ 4349
طاقت 4348
21 4344
تربیت 4343
سنہ 4342
ہوگا 4342
یاں 4336
ائیں 4334
کامیابی 4333
سماجی 4330
رہتے 4321
سخت 4314
تبدیل 4313
نسل 4298
رہنے 4297
متاثر 4290
کول@@ 4287
خاتون 4286
= 4279
دیکھ 4279
امن 4265
23 4263
انتہائی 4263
نہایت 4259
رت 4258
پنسلوانیا 4250
اِ@@ 4240
ولادت 4239
پولینڈ 4239
جرمن 4236
نظ@@ 4236
سائنس 4234
اضافہ 4223
نور 4222
ادبی 4217
مصنف 4214
باعث 4211
نامی 4209
كي 4208
گڑھ 4207
سہ 4201
وے 4196
حقیقت 4195
نقل 4194
جنہوں 4192
الق@@ 4191
مملکت 4187
وطن 4186
کہانی 4182
تص@@ 4177
امی@@ 4176
رن 4176
صف@@ 4174
عثمانی 4169
پڑ@@ 4165
کہ@@ 4157
ہدایت 4157
برو@@ 4153
نیشنل 4149
انی@@ 4140
بتایا 4139
ود 4139
لینے 4133
واقعہ 4130
انھیں 4122
the 4118
باب 4118
ذیلی 4118
کپ 4117
بلند 4115
علمی 4113
گل 4111
قیادت 4109
گور@@ 4104
T@@ 4101
الن@@ 4095
موسیقی 4087
بان@@ 4083
لال 4083
ائر 4082
کلاس 4079
جیسا 4078
چونکہ 4077
بندی 4076
لگے 4073
تہ@@ 4071
گنتی 4066
مثال 4056
194@@ 4053
خط 4053
کٹ 4052
یاد 4045
ہلاک 4043
محبت 4040
چینی 4037
بانی 4035
وسیع 4035
مالک 4033
ارا 4031
ڈر 4030
الت@@ 4023
سعودی 4023
مابین 4019
بیٹی 4017
ولا 4017
انڈیا 4014
عی 4012
Canton 4008
عراق 4001
نامہ 3999
منظر 3997
واقعات 3997
لاکھ 3992
فو@@ 3988
28 3986
خو@@ 3977
روزہ 3976
محمود 3968
بت 3964
حوالہ 3962
شک@@ 3960
جا@@ 3959
ئن 3956
مہم 3955
27 3946
اقبال 3944
پہنچ 3944
اک 3943
نما 3943
قدر 3940
بنگلہ 3939
اعزاز 3934
ای 3934
دیش 3932
کوں 3932
مختار 3924
لس 3921
الج@@ 3919
بنے 3918
نگر 3912
برگ 3908
مسائل 3904
ویسٹ 3903
شریک 3902
مجھے 3902
اضلاع 3898
26 3897
ئی@@ 3893
فق@@ 3892
کٹ@@ 3888
پورے 3886
جارجیا 3878
بت@@ 3868
تسلیم 3868
کال@@ 3868
تب@@ 3864
مال 3859
ماہ 3857
انس@@ 3856
مکہ 3856
پردیش 3851
عددی 3850
طویل 3844
کون@@ 3830
شہروں 3826
جار@@ 3821
نبی 3817
صی@@ 3816
بجائے 3814
ورلڈ 3813
جزیرہ 3805
ارے 3804
جائیں 3795
ایرانی 3793
ہسپانوی 3791
واضح 3789
تقریبا 3780
ميں 3780
سردار 3779
پیر 3774
چاہیے 3774
ذمہ 3770
ؒ 3769
گرد 3768
افریقہ 3767
وک 3762
کلام 3759
قبیلہ 3758
ٹیکساس 3752
لکھی 3751
پل 3751
عباس 3746
اف 3741
ہندی 3738
لحاظ 3737
شاہ@@ 3736
مے 3735
عہ 3734
ى 3733
چل 3728
نظاموں 3726
لان@@ 3719
آل 3718
گز@@ 3715
نگار 3712
شہری 3711
پولیس 3707
انتخاب 3704
وو@@ 3703
اخ@@ 3702
پایا 3701
شکار 3700
انات 3696
چلا 3695
ٹل 3687
بلحاظ 3685
خلیفہ 3685
مقابلے 3683
سام@@ 3680
والدہ 3680
ونی 3680
مقبول 3676
آٹھ 3671
اسٹی@@ 3665
ٹے 3665
تحریر 3657
اینڈ 3655
نمایاں 3654
پڑھ@@ 3651
کینیڈا 3650
اہمیت 3648
e 3644
فرسٹ 3642
کتابیں 3641
نوا@@ 3640
چکا 3640
جاپان 3638
قی 3635
ملکی 3634
محفوظ 3631
لز 3627
دان@@ 3624
علما 3620
لیں 3620
تج@@ 3617
3,@@ 3615
توجہ 3614
لي@@ 3612
مز 3612
اقوام 3608
ریا 3608
یورپی 3605
رکھتا 3601
مضامین 3601
صوبے 3596
ریکارڈ 3593
مسیح 3593
وادی 3589
29 3588
مطلب 3587
فلمی 3586
گروہ 3586
بیعت 3585
حکمران 3585
192@@ 3577
ڈگری 3575
نیز 3574
رہیں 3569
ائل 3559
ایشیا 3559
وسکونسن 3559
كي@@ 3556
ملا@@ 3556
1@@ 3555
بہتر 3555
مقامات 3555
نور@@ 3554
ابھی 3552
لڑائی 3552
صحیح 3549
County 3545
فورڈ 3545
مخصوص 3545
حیات 3544
یون@@ 3544
بچے 3543
لائی 3533
سنگ@@ 3529
آتا 3528
گورنر 3528
پیمانے 3527
-@@ 3525
تحقیق 3525
شیعہ 3523
عت 3521
ہمیشہ 3520
دل@@ 3517
غز@@ 3516
تف@@ 3515
کردی 3508
زبانوں 3506
معاہدے 3506
ہجرت 3504
بنائی 3502
لکھ@@ 3501
سٹر 3499
اکی@@ 3498
موسم 3498
بیٹا 3494
2018 3492
ريلوے 3489
گار@@ 3486
جسم 3485
ابراہیم 3482
اظہار 3482
بچ@@ 3482
یوسف 3481
بیس 3480
گرو@@ 3479
کان 3477
مجموعہ 3473
ماہر 3470
چھوٹی 3465
داد 3458
آتے 3455
بلا@@ 3452
وائ@@ 3447
اسٹيشن 3446
کام@@ 3446
پورا 3445
اوسط 3442
ضروری 3442
شہرت 3441
مط@@ 3437
صحت 3435
عم@@ 3432
ائن 3431
عمارت 3431
انکار 3430
ٹھ 3430
ممتاز 3429
بلے 3426
ذاتی 3416
معاہدہ 3416
صح@@ 3409
گول@@ 3409
آب@@ 3408
تھی@@ 3406
ث 3403
الا 3399
لائن 3399
پہاڑ 3399
لر 3397
ني@@ 3394
رون 3393
یارک 3392
نواب 3387
کنٹرول 3387
سمیت 3385
0 3382
طر@@ 3382
ٹوں 3382
چر 3382
بال 3376
پیچھے 3376
معلومات 3375
چیز 3374
مختصر 3370
نتیجہ 3369
رار 3361
عیسوی 3361
قانونی 3361
مانی 3361
طریقہ 3359
كے 3359
مرا@@ 3359
پروگرام 3359
رائ@@ 3356
کاروں 3356
وف 3353
ء@@ 3352
ورجینیا 3345
مبنی 3344
تباہ 3338
دولت 3337
شخصیت 3335
زہ 3332
in 3330
روڈ 3326
یس 3326
ران 3325
ڈز 3325
زندہ 3324
دگی 3322
يا 3322
پنجابی 3322
حر@@ 3321
رس 3321
جنگی 3319
اقتدار 3316
یونانی 3313
بي@@ 3311
بیوی 3310
جہاز 3309
کہیں 3308
خان@@ 3307
آیت 3304
انقلاب 3300
چل@@ 3300
دوں 3299
کتابوں 3297
جہ@@ 3295
ثقافت 3288
پہنچ@@ 3288
میاں 3285
باپ 3282
سارے 3282
واحد 3279
ڈو 3271
وجود 3256
وٹ 3253
برس 3251
نصف 3247
انعام 3243
کھیلے 3242
District 3238
بع@@ 3232
طالب 3232
پن 3229
سعید 3228
دورہ 3226
عبداللہ 3219
عرصہ 3218
بینک 3216
شہید 3212
اؤ 3202
نسب 3202
ریاستوں 3199
اؤں 3197
نک 3197
ﮐ@@ 3195
سلسلے 3191
ٰ@@ 3191
لان 3190
حافظ 3188
آواز 3187
لیک 3187
پورٹ 3184
عرصے 3181
ہاں 3181
روانہ 3179
شا 3174
ایچ 3173
سي@@ 3172
وَ@@ 3172
کشی 3171
ملین 3169
ونگ 3165
عر@@ 3162
تصور 3159
سٹی 3159
روم 3158
طرز 3157
ملتا 3154
محکمہ 3152
ندہ 3150
ين 3148
ادی@@ 3146
جر 3146
بیت 3140
جہ 3139
پرا@@ 3137
کین 3136
پک@@ 3130
پارک 3128
اوپر 3127
شرح 3127
لکھتے 3127
پروفیسر 3126
ست 3118
بڑھ 3117
نز@@ 3117
پہنچا 3117
مندرجہ 3114
ونا 3114
کھیلا 3113
50 3109
راست 3109
کریم 3109
بننے 3108
الحکومت 3101
دوم 3100
عورت 3099
مطالعہ 3099
الو@@ 3092
زور 3092
شرکت 3092
نم@@ 3089
مپ@@ 3088
نیٹ 3087
ملے 3086
منصوبہ 3083
ویب 3081
یک 3081
مرزا 3080
زوں 3079
نیوزی 3075
فرماتے 3070
چک 3070
في@@ 3069
لنکا 3069
بھیجا 3068
چار@@ 3065
تار@@ 3061
ہویں 3059
بھی@@ 3058
لایا 3058
نمائندگی 3054
ہمارے 3053
وکٹیں 3052
کمی 3051
اخبار 3048
ادہ 3047
اداکار 3044
ڑوں 3043
تلاش 3042
ئ 3037
سیزن 3035
لار@@ 3035
الش@@ 3034
بخش 3033
لوک 3030
معاشی 3029
چا 3027
داروں 3026
اصطلاح 3025
رک@@ 3025
پائے 3025
امور 3023
نجی 3022
ُ 3020
حصوں 3015
ٹک 3015
سربراہ 3014
جاسکتا 3013
جنسی 3013
تخ@@ 3009
دہ@@ 3008
مدرسہ 3008
ابتدا 3006
بوں 3005
ٰی 3004
تک@@ 3002
دریافت 2998
شے 2998
انتظام 2997
ثقافتی 2997
سامنا 2993
الس@@ 2992
قبائل 2991
پال 2990
روایات 2989
فضل 2985
کہنا 2984
چر@@ 2981
کت@@ 2981
كو@@ 2980
نقصان 2978
استاد 2976
خر@@ 2976
ؤں 2972
ہند@@ 2972
حل 2970
خبر 2968
ہیپلو 2968
وت 2967
اؤ@@ 2966
تخت 2966
علی@@ 2966
اپ 2964
مشترکہ 2964
شدید 2962
تجارت 2961
خصوصی 2961
40 2959
رہتا 2958
زائد 2956
سبب 2956
امریکہ 2955
مرد 2955
گل@@ 2953
2019 2952
پول@@ 2950
آدمی 2948
سنت 2946
الف@@ 2944
روایتی 2942
ممکن 2940
مالی 2938
چہ 2936
100 2934
رز 2934
العلوم 2929
میہ 2928
عہدے 2925
سالوں 2924
الر@@ 2923
ترتیب 2922
لگایا 2921
2,@@ 2919
اتر 2918
مخ@@ 2918
رج@@ 2917
عملی 2917
تہ 2914
عثمان 2914
درس 2913
فقہ 2911
ازاں 2910
اٹ@@ 2910
31 2908
ادارے 2905
جوا@@ 2905
مجبور 2904
آن 2900
ﻣ@@ 2898
ارت 2895
سنبھ@@ 2895
وو 2894
دیر 2890
اکبر 2887
کوٹ 2886
اری@@ 2885
ہا@@ 2885
ﻮ@@ 2884
برقرار 2883
زا 2883
بیشتر 2882
تس@@ 2882
کیرولائنا 2879
سہ@@ 2875
رح@@ 2874
ویژن 2874
راستہ 2873
قب@@ 2873
سلا@@ 2872
سون@@ 2872
% 2868
سیوں 2864
شہنشاہ 2863
قاضی 2863
انیہ 2859
ض 2859
ناکام 2859
تشدد 2858
عدالت 2856
چے 2855
ریل 2854
میر@@ 2854
بدھ 2853
قید 2849
ورا@@ 2848
اگلے 2847
صوبائی 2846
اننگز 2845
ریت 2844
شیر 2844
دری@@ 2843
2013 2842
مضبوط 2841
وسی 2841
گرفتار 2839
18@@ 2836
پیشہ 2834
خون 2831
کمیونٹی 2831
خت@@ 2827
طے 2824
شت 2818
سال@@ 2816
مات 2816
بلوچستان 2815
فت@@ 2812
تیز 2811
ایہ 2807
فر 2807
وسط 2807
ns 2805
دینا 2803
ذات 2802
کرکٹر 2800
رضا 2798
نظم 2797
ه 2796
رہنما 2791
کلا@@ 2791
ازی 2790
تجارتی 2789
model 2788
اعلی 2785
دہشت 2785
کرو 2785
زم 2783
قت 2783
پہنچے 2782
تعریف 2781
رکھ 2781
کمیٹی 2781
َّ@@ 2780
قص@@ 2778
لڈ 2778
کنارے 2774
حالانکہ 2773
مخالف 2771
مض@@ 2769
انٹرنیشنل 2768
format 2767
بہار 2765
contributor 2764
timestamp 2764
سور@@ 2763
مغل 2763
وابستہ 2763
کوڈ 2758
گن@@ 2758
فوجیوں 2753
ہاتھوں 2753
رک 2752
تھو@@ 2751
عب@@ 2749
فرا@@ 2748
مند 2746
جیت 2745
مشکل 2742
راستے 2740
کھی@@ 2738
زمرہ 2737
موضوع 2736
نان@@ 2736
‌ 2736
کانگریس 2734
لکھے 2730
اق 2729
روشنی 2729
تفسیر 2726
بش@@ 2724
پتہ 2721
کلب 2721
ہجری 2718
قل@@ 2714
اہ 2711
گان 2711
حکمرانی 2705
ملاقات 2702
راہ 2699
غی@@ 2698
سنی 2697
وہی 2697
مسوری 2695
ود@@ 2695
نظریہ 2692
زے 2691
مستقل 2691
نیو@@ 2690
سل 2688
لت 2688
username 2686
طلبہ 2686
رم 2680
190@@ 2676
بہن 2676
سرحد 2674
ﮯ 2674
حی 2672
بنگال 2670
br 2669
نامزد 2669
کوس@@ 2668
مث@@ 2666
ندر 2666
فیض 2665
موسیٰ 2665
اث@@ 2663
رکھتی 2661
لگ 2661
راجا 2660
شعبہ 2660
الص@@ 2659
لیل 2659
ٹنگ 2656
4.@@ 2655
خوش 2653
کش 2653
سابقہ 2652
حیدرآباد 2648
عطا 2648
کشن 2648
تبدیلی 2647
ہری 2647
ہار 2646
دع@@ 2645
دیتی 2644
رضی 2642
کٹر 2640
باغ 2639
نیچے 2637
پن@@ 2635
اند@@ 2634
ابھ@@ 2630
دور@@ 2630
میچوں 2629
نوازا 2629
برابر 2628
ہوگئے 2628
محدود 2625
ائیوں 2624
سکا 2619
بحیرہ 2618
جنہیں 2618
اختتام 2616
انیوں 2614
بیر 2614
بارہ 2613
پناہ 2612
دنوں 2611
نج 2611
نائ@@ 2610
راج@@ 2608
اعداد 2606
ویل@@ 2606
اباد 2602
h 2601
4,@@ 2600
خیبر 2600
دینی 2596
میڈیا 2594
ورا 2594
وڈ 2594
باد 2592
زن 2591
یافتہ 2588
مبارک 2586
امی 2585
مری@@ 2584
فائ@@ 2583
نسبت 2583
انتظامی 2581
سزا 2581
منعقد 2581
نت@@ 2576
ئر@@ 2570
دری 2569
ہوکر 2569
یمن 2569
تیہ 2565
تعالیٰ 2564
ائي 2563
دوست 2563
مزار 2563
گیند 2560
میرا 2559
الے 2558
ساری 2557
ں@@ 2557
بلدیہ 2555
سوی@@ 2554
اوی@@ 2551
آن@@ 2550
بور@@ 2548
2018ء 2547
mtDNA 2546
دم 2545
نزدیک 2544
انگلستان 2542
آئین 2541
بالکل 2541
بنت 2540
خطے 2536
and 2532
جھیل 2532
ماد@@ 2528
فلسطین 2527
معمولی 2526
لہذا 2525
سلیمان 2523
مخالفت 2523
اٹ 2522
لہ@@ 2522
آب 2520
دفاع 2520
قط@@ 2520
خد@@ 2518
آتی 2516
2.@@ 2515
2015 2515
وز 2513
مندر 2512
تن 2510
2013ء 2507
كا 2505
مغ@@ 2505
چلی 2503
comment 2502
بورڈ 2501
20@@ 2499
بیرونی 2499
لائے 2497
2014 2496
فرق 2496
کون 2496
خود@@ 2495
ارکان 2491
تنقید 2491
5.@@ 2490
سین@@ 2489
ملتان 2489
لن@@ 2488
دعوت 2486
جامع 2484
کمال 2482
سکی 2481
بازی 2478
تصنیف 2478
تل@@ 2476
مدت 2475
حاضر 2473
نڈر 2473
بیگم 2471
ﯽ 2469
بخ@@ 2466
وکٹ 2466
خوش@@ 2463
کم@@ 2459
آبشار 2457
الزام 2456
بازار 2456
اداکاری 2455
ستی 2452
اختلاف 2450
دفتر 2450
روک 2450
کری 2450
اشاعت 2449
وان@@ 2449
لانے 2448
پان@@ 2442
اداروں 2441
انت@@ 2440
مجلس 2440
کارکردگی 2440
وش@@ 2439
سعد 2438
ثانی 2437
حامل 2436
اوقات 2435
اصول 2432
خوا@@ 2432
پرست 2432
رش@@ 2431
مثلاً 2431
نف@@ 2431
اورا@@ 2429
تیسری 2428
مقدس 2427
جاپانی 2426
سورج 2425
ملتی 2425
بحری 2422
شماری 2422
وزارت 2418
199@@ 2417
مدر@@ 2417
سنگ 2415
مول@@ 2415
نہ@@ 2413
عبادت 2411
منی 2410
تعاون 2408
یے 2408
ذ 2407
تب 2406
Gmina 2404
پابندی 2404
ساز 2402
وح@@ 2402
1.@@ 2400
لقب 2397
روز@@ 2395
شخصیات 2395
حضور 2392
۱@@ 2390
6.@@ 2388
جنھوں 2387
سٹن 2387
اندازہ 2386
ذرائع 2386
کھا 2386
اکثریت 2385
پہ 2385
پیداوار 2379
اعتبار 2376
مضمون 2375
محسوس 2372
0.@@ 2370
بح@@ 2370
خیر 2370
formula 2369
الل@@ 2369
کثیر 2369
فروغ 2364
لشکر 2364
منسلک 2364
فض@@ 2361
بو 2360
ین@@ 2356
کوریا 2352
فری 2351
Q@@ 2349
قوت 2349
خطاب 2348
اقسام 2347
مفتی 2344
چھو@@ 2343
آمد 2342
اڑ@@ 2342
جیسی 2342
تخلیق 2339
جنگ@@ 2339
سائٹ 2339
بزرگ 2338
ولا@@ 2338
مَ@@ 2336
فیصل 2335
لیتے 2334
عد@@ 2332
میوں 2331
قول 2329
حقیقی 2321
لاس 2321
چیف 2320
شوہر 2318
2008 2315
ـ 2312
نائب 2311
لات 2308
مطالبہ 2304
7.@@ 2302
رہتی 2299
زر 2299
مری 2299
parentid 2298
دشمن 2298
جزائر 2296
جنس 2296
فکر 2296
60 2295
سکھ 2295
موا@@ 2295
اوائل 2294
ریاستی 2294
سج@@ 2293
تذکرہ 2291
شہ 2291
ملازمت 2291
ووڈ 2291
ہوگی 2291
ریوں 2290
انگریزوں 2289
x 2288
درخواست 2288
کے@@ 2284
نيو 2281
ڈراما 2278
قاب@@ 2277
مردم 2276
نشان 2274
چاہ@@ 2274
الحق 2273
پہاڑی 2273
مسلسل 2271
تہذیب 2270
رقم 2269
دفعہ 2264
ایئر 2262
جام@@ 2260
2012 2257
علاقائی 2256
5,@@ 2255
ریڈیو 2255
ید 2255
ایمان 2254
آذربائیجان 2253
شہادت 2253
منظور 2253
بس 2252
اج 2251
ندھ@@ 2250
آگ 2246
محض 2246
آرمی 2245
لَ@@ 2244
آثار 2241
سرا@@ 2240
مُ@@ 2239
تشریف 2238
والدین 2238
9.@@ 2237
نان 2237
مقیم 2235
35 2234
بابا 2233
2010 2232
سلی@@ 2232
چش@@ 2232
ساحل 2231
يل 2231
کین@@ 2231
80 2227
خوبصورت 2227
3.@@ 2226
غازی 2226
مین@@ 2226
چن 2226
باقاعدہ 2224
مؤ@@ 2224
تجویز 2223
دکھ@@ 2223
دي@@ 2219
معاشرے 2219
شار@@ 2217
پشاور 2217
شان 2214
یقین 2214
70 2213
8.@@ 2211
امہ 2210
ٹنے 2210
بغداد 2209
عنوان 2206
آسٹریا 2204
خانے 2204
لوٹ 2204
رق@@ 2203
لِ 2203
عدم 2202
بورو 2201
جون@@ 2201
ڈالر 2200
ادے 2198
سار@@ 2197
عثمانیہ 2196
مسیحی 2193
رپورٹ 2192
اچھی 2189
معاملات 2189
L@@ 2187
منہ 2187
لینا 2185
an 2184
قدم 2184
لم 2184
زار 2182
پے 2182
اول@@ 2180
نت 2177
تیزی 2175
زخمی 2174
اکیڈمی 2171
رد 2170
قبیلے 2170
ڈویژن 2169
2017 2168
انڈین 2168
طریقے 2168
روحانی 2167
سي 2163
الخ@@ 2162
پزیر 2162
ملی@@ 2161
رہائش 2159
صاف 2159
ماؤنٹ 2158
صحابہ 2156
2016 2155
لف@@ 2155
شناخت 2153
تحفظ 2152
لي 2150
جارج 2148
سامان 2147
شو 2147
چاہتے 2147
فا@@ 2146
آپ@@ 2145
ایئرپورٹ 2145
رنگ@@ 2144
ارات 2142
حہ 2142
الد@@ 2138
٪ 2136
باری 2134
صنعت 2134
سونے 2133
میونسپل 2133
یک@@ 2133
سمجھ@@ 2131
کھانے 2129
بالا 2128
شہرستان 2127
شیا 2126
غور 2126
شاید 2125
جلال 2124
راہ@@ 2124
شمولیت 2123
ہائے 2121
فروخت 2118
پتھر 2117
بخاری 2116
ير@@ 2114
ﺮ@@ 2114
ریس 2113
خری@@ 2112
دائ@@ 2112
الک@@ 2111
خالد 2110
نکل 2108
آئیں 2104
دائیں 2104
صبح 2104
نسلی 2104
بھو@@ 2103
عمرو 2103
واپسی 2103
بدر 2102
مای@@ 2102
پالیسی 2101
صلاحیت 2099
45 2098
سلو@@ 2098
مند@@ 2097
ورک 2096
ہمیں 2096
دربار 2095
گجرات 2095
دیکھنے 2094
سالہ 2094
شور 2094
تِ 2092
سما@@ 2090
کوئ@@ 2090
اطلاع 2089
تاج 2089
وبا 2088
ہرے 2088
2011 2086
بلو@@ 2085
غالب 2085
نشانہ 2085
ہٹ 2085
حرکت 2084
K@@ 2083
فران@@ 2083
ہزاروں 2081
گوا@@ 2080
فائدہ 2079
اك@@ 2074
علا@@ 2074
دارالحکومت 2073
6,@@ 2072
دھ 2072
کاش@@ 2072
بنو 2068
رخ 2064
ایک@@ 2063
de 2062
پلا@@ 2062
براہ 2061
بولی 2059
ٹورنامنٹ 2058
ڈیبیو 2058
2008ء 2056
شاخ 2055
فن@@ 2055
قیمت 2054
نوجوان 2053
جگ@@ 2052
بالآخر 2050
دھا 2050
باب@@ 2049
فون 2049
لیوں 2047
اتفاق 2044
صور@@ 2042
بک 2039
انت 2038
نگی 2038
روح 2037
سازی 2037
فارس 2036
موجودگی 2034
اسکور 2033
خصوصیات 2033
جانی 2032
حروف 2032
سفید 2032
آہستہ 2030
بدل 2029
فار 2029
یار 2028
الرحمن 2026
داخلہ 2026
یکم 2024
ریٹ 2023
ران@@ 2022
ٹاؤنشپ 2020
آؤٹ 2019
پٹ@@ 2019
تصانیف 2018
مرو@@ 2018
جعفر 2016
ساتھی 2015
ورڈ 2015
a 2014
نکل@@ 2014
ﯿ@@ 2014
غلط 2013
لیہ 2013
پختونخوا 2012
D@@ 2011
بحر 2011
حفاظت 2011
صد@@ 2011
بچپن 2009
ملکہ 2008
سوال 2007
فلپائن 2007
مردوں 2007
پائ@@ 2006
مائ@@ 2005
الغ@@ 2004
ڈائریکٹر 2003
ہل 2002
یاد@@ 2001
فائز 2000
بحث 1999
جیل 1999
ہوگئی 1999
وہ@@ 1998
اما 1997
ہل@@ 1997
افغان 1996
مقدار 1996
ہوگیا 1996
قدرتی 1995
راس 1993
سرزمین 1993
وفاقی 1993
انڈیز 1992
متعارف 1992
نیویارک 1992
رض@@ 1991
لن 1991
عین 1989
ممبئی 1989
نوبل 1987
ٹک@@ 1987
ہد 1987
پون@@ 1986
200 1984
دستخط 1984
کوہ 1984
الیس 1983
حج 1983
فور@@ 1982
رفتار 1981
مجھ 1981
میکسیکو 1981
جدوجہد 1980
ڈکوٹا 1979
90 1978
مسیسپی 1977
گار 1977
سمجھتے 1976
سلیم 1973
آئرلینڈ 1972
وہیں 1972
ریڈ 1971
شوں 1970
مسلح 1970
پاشا 1970
اسماعیل 1969
پا@@ 1969
اثرات 1968
یہودیوں 1968
بلوچ 1967
ترا@@ 1967
خواہش 1967
شعر 1967
بکر 1966
دراصل 1966
روا@@ 1966
ماؤنٹین 1965
چرچ 1964
کہہ 1964
علاج 1962
کپتان 1960
ﻧ@@ 1958
ٹرو@@ 1955
لیس 1953
امت 1952
وین 1951
سربراہی 1950
قوانین 1950
دورے 1949
تیسرے 1948
رسم 1947
حملوں 1946
خاتمہ 1945
خلا@@ 1944
مسئلہ 1944
ائیس 1943
ثبوت 1943
دانوں 1943
بہادر 1940
نگٹن 1939
تھائی 1938
منگ@@ 1938
ٹیوٹ 1937
کمیشن 1936
البتہ 1935
اتنا 1934
منصوبے 1934
سکیں 1929
ڈال 1929
برصغیر 1928
كر@@ 1928
ٹرز 1927
شمس 1925
2020 1921
رانی 1921
لون@@ 1920
نر@@ 1920
M@@ 1919
جذ@@ 1918
فرم@@ 1917
متعلقہ 1917
کینٹکی 1917
ﻭ@@ 1917
بلی@@ 1916
جانوروں 1916
کور 1916
کولمبیا 1915
32 1912
خلی@@ 1911
دیکھ@@ 1910
کربلا 1910
کمان@@ 1910
تصویر 1908
خاتمے 1908
قبرص 1908
احادیث 1907
زید 1905
فا 1905
ڈرا@@ 1905
خاص@@ 1904
ظ 1903
آز@@ 1902
بیٹھ@@ 1902
قاسم 1901
33 1900
شین 1899
اسرائیلی 1898
کنگ 1898
الجزائر 1896
فورس 1894
آپریشن 1893
مسل@@ 1893
قو@@ 1892
ٹائ@@ 1892
صوفی 1891
ماہرین 1891
سول@@ 1889
کوفہ 1888
سندھی 1887
2009 1886
تکمیل 1885
تحری@@ 1884
ابی@@ 1881
آگ@@ 1880
ذی@@ 1880
کرلی 1880
پوچھا 1878
پیرس 1878
نگرانی 1875
کرایا 1870
کارروائی 1867
189@@ 1866
انگریز 1866
ونیا 1866
نع@@ 1865
حصول 1864
ڑہ 1864
وش 1863
داد@@ 1862
مارشل 1862
2007 1861
ڑھ 1861
طلب 1859
پیش@@ 1859
کرام 1858
ناک 1857
نیپال 1857
s 1855
انس 1855
عرض 1855
عورتوں 1855
خوف 1854
اخت@@ 1853
اَ@@ 1853
جز@@ 1852
ؑ 1850
دلچسپی 1850
دید 1850
75 1849
جع@@ 1849
کمپیوٹر 1849
2019ء 1848
سز@@ 1848
ڈر@@ 1848
ہتھیار 1848
اض@@ 1847
عمران 1847
سالانہ 1846
دش@@ 1844
وب 1844
S@@ 1842
الم 1841
فاطمہ 1841
قطب 1840
کانفرنس 1840
ﺎ 1840
اذ@@ 1839
ڈنگ 1839
نص@@ 1838
تیاری 1837
رومی 1837
صفحات 1837
گلی@@ 1837
36 1836
30@@ 1834
تیل 1834
ضد 1834
مائی 1834
وبی 1834
24@@ 1832
دفن 1831
گرم 1831
39 1830
سلط@@ 1830
والہ 1829
نواز 1828
پي@@ 1828
34 1827
اسلامیہ 1826
ایل@@ 1826
خوب 1825
عمان 1824
مک 1824
دعا 1823
عظ@@ 1823
P@@ 1822
اتنی 1821
42 1820
اشارہ 1820
پیک 1820
تری 1819
خل@@ 1818
انسٹی 1817
کاس@@ 1816
ماضی 1815
eh 1814
مواد 1814
اٹلی 1813
زئی 1813
معیشت 1813
آرکنساس 1812
مائی@@ 1812
سرخ 1811
مولوی 1811
فاصلے 1809
دادا 1808
B@@ 1806
عنہ 1804
ہلا@@ 1803
دیوی 1802
500 1801
ادات 1801
بیماری 1801
کاروبار 1801
خارجہ 1800
منی@@ 1800
تال 1799
درست 1799
سوانح 1799
گردی 1797
منظم 1796
دیو 1795
ﮨ@@ 1795
سینٹر 1794
ولہ 1794
ٹیکنالوجی 1793
ضہ 1792
سمت 1789
عزیز 1789
سائنسی 1788
مرتب 1788
ٹیوں 1788
ستہ 1787
7,@@ 1786
بائیں 1786
رب 1786
شمار@@ 1786
سوں 1784
عائد 1784
ﺳ@@ 1784
ڑنے 1782
آئی@@ 1781
ماحول 1781
ﺭ@@ 1781
مونٹ 1779
کنیت 1779
نیبراسکا 1778
بس@@ 1777
فرار 1777
اجلاس 1776
ویوں 1776
چاہتا 1776
یزید 1776
خی 1774
مِ@@ 1774
نظریات 1774
رکھے 1773
52 1772
خاں 1771
مذ@@ 1771
La 1770
پرستی 1770
سط@@ 1769
انجین@@ 1768
ٹھا 1767
A@@ 1766
خواہ 1766
لکھنے 1766
چلتا 1766
مہاراشٹر 1765
abad 1763
تصدیق 1763
دستیاب 1763
وات 1763
عروج 1762
مجاہ@@ 1762
فات 1761
قریبی 1761
سوار 1760
منوں 1760
گیت 1759
لکھنؤ 1758
ورو 1758
اوی 1757
بیل 1757
مقد@@ 1757
راء 1756
سرمایہ 1756
غزل 1754
قبضے 1754
اؤن@@ 1753
ير 1753
ہنگری 1752
188@@ 1751
اسٹیٹ 1751
اش 1751
انتظامیہ 1751
حاجی 1751
صاحبز@@ 1751
تفصیل 1750
44 1749
جزیرے 1749
معاویہ 1748
41 1747
بلا 1747
ہمراہ 1747
مارے 1742
الز@@ 1741
انوے 1741
خفیہ 1741
فارم 1741
ووٹ 1740
ٔ 1740
آس 1739
ابہام 1739
يك@@ 1739
ڑیوں 1739
تد@@ 1736
تقری@@ 1736
یوم 1736
انہی 1735
اہے 1735
ثر 1734
کورٹ 1734
کثرت 1732
بلی 1731
لگی 1731
عہدہ 1729
کھ 1728
بغ@@ 1727
حرارت 1727
مظ@@ 1727
بجلی 1726
برہ@@ 1725
حج@@ 1725
معر@@ 1724
جم@@ 1723
زي@@ 1723
مظاہ@@ 1723
ڈبلیو 1722
ہرا 1721
ساؤتھ 1720
معاشرتی 1720
آلہ 1718
عن@@ 1718
ویلی 1718
نقطہ 1716
اساتذہ 1715
شہریوں 1714
یونان 1714
G@@ 1713
ﺑ@@ 1713
38 1712
ایسوسی 1712
باشندوں 1711
مارٹن 1711
ذہ@@ 1709
سپر 1709
منسوب 1708
توانائی 1707
کیر@@ 1706
48 1704
55 1704
مسعود 1704
مینی@@ 1704
احتجاج 1703
ایسٹ 1703
زیر@@ 1703
لڑکی 1703
23@@ 1701
26@@ 1701
روپے 1701
انصاف 1700
متحرک 1700
کرم 1700
ادری 1699
انیس 1699
تری@@ 1699
سلام 1699
اني 1698
نامور 1698
ایت 1696
ایشن 1696
دھی@@ 1696
85 1695
سربیا 1694
2015ء 1693
برادری 1692
ضی 1691
عات 1691
فلوریڈا 1691
وضاحت 1691
2006 1690
نگاری 1690
پڑے 1690
احساس 1689
لل@@ 1688
جیتا 1687
موضوعات 1686
گلو@@ 1686
2021 1685
امداد 1685
لباس 1685
بیچ 1684
کھانا 1684
گاندھی 1684
57 1683
انتخابی 1682
يو@@ 1682
کہلاتا 1682
2016ء 1681
بوس@@ 1681
روشن 1678
شر 1677
مادہ 1677
ّ 1677
بٹ 1676
طالبان 1676
عالم@@ 1676
58 1675
دروازہ 1674
پلی@@ 1674
سند 1673
گانے 1673
سنچری 1672
نتائج 1671
گیر 1671
عمر@@ 1670
بیک 1668
ریز 1668
8,@@ 1667
پیرو@@ 1667
سک 1666
چاند 1666
ماس@@ 1665
وقوع 1664
کائنات 1664
پارلیمنٹ 1662
27@@ 1661
65 1661
بون@@ 1660
ملنے 1659
عام@@ 1658
زن@@ 1657
اہتمام 1656
ایشیائی 1655
کھیلی 1654
9,@@ 1652
سلوک 1652
46 1651
زب@@ 1651
آنحضرتﷺ 1650
حت 1650
مصروف 1650
جلا@@ 1649
حس@@ 1649
گرو 1649
وتوں 1648
فرد 1647
مظاہرہ 1647
2014ء 1646
47 1645
حمل 1645
مستقبل 1645
خوب@@ 1644
خطرہ 1643
قلعے 1641
کھیلنے 1641
لیت 1640
فرائض 1639
وائٹ 1639
سروس 1638
ري 1637
سول 1637
چا@@ 1637
اندا@@ 1636
تدریس 1636
نل 1636
حیدر 1635
روکنے 1635
شاع@@ 1635
قائد 1635
ریلویز 1634
شاپ@@ 1634
کروڑ 1634
کھلاڑیوں 1633
بز@@ 1632
ناگ@@ 1632
ائیر 1629
جرسی 1629
نیل 1629
زبردست 1627
صحافی 1626
پٹی 1626
37 1625
اسم 1624
ہسپتال 1624
رکھ@@ 1623
الط@@ 1622
سڑک 1621
معیار 1621
پھیل 1621
گھروں 1621
زون 1620
کمزور 1620
ریلیز 1619
محافظہ 1619
الله 1618
​ 1618
آنحضرت 1617
برج 1616
جنم 1615
دھی 1615
مرے 1615
ملتے 1615
مٹی 1615
یاتی 1615
دکھائی 1614
چٹ@@ 1613
توسیع 1612
ہال 1612
ادیب 1610
مرہ 1610
کھیلوں 1610
بنگ@@ 1609
عمل@@ 1609
لم@@ 1609
سور 1608
فرو@@ 1608
گفتگو 1608
گنج 1608
مہدی 1607
کمپ@@ 1607
آخ@@ 1606
اسد 1605
لٹ 1605
درد 1604
مینی 1604
دباؤ 1603
کلو 1602
ہیر 1602
چڑھ@@ 1601
کھو@@ 1600
امر 1599
2000 1598
28@@ 1598
اڈ@@ 1598
سائی@@ 1598
وط@@ 1598
61 1597
طب 1597
قبرستان 1597
ﯾ@@ 1596
عط@@ 1595
کوم@@ 1595
ئیر 1594
بھیج 1594
راولپنڈی 1593
سیاہ 1593
میڈی@@ 1593
جرا@@ 1592
ویلز 1592
کمیونسٹ 1592
خلیج 1591
اعت 1590
این@@ 1590
ہری@@ 1590
جیکسن 1589
وک@@ 1589
ایوان 1588
بالی 1587
Z 1586
عوں 1586
ناتھ 1586
نکال 1586
گرام 1586
یار@@ 1586
فل 1585
میرا@@ 1585
جائ@@ 1584
وري 1584
25@@ 1582
خواب 1582
بان 1581
طبی 1581
ہز@@ 1581
ہن@@ 1581
اشعار 1580
تجربہ 1580
سف@@ 1579
53 1578
آبائی 1578
کمانڈر 1578
وك@@ 1577
ٹہ 1577
شوق 1576
ڈالا 1576
کاپ@@ 1576
49 1574
وند 1574
کھڑے 1573
تھیٹر 1572
کروں 1572
درجے 1571
ریں 1571
ہان 1571
اسلا@@ 1570
جناب 1570
حکمت 1570
دھما@@ 1570
زائ@@ 1570
مناسب 1570
2017ء 1569
شعبے 1568
43 1567
غریب 1567
ویئر 1567
تاب@@ 1566
نیم 1566
وروں 1566
افی 1565
زبانیں 1565
پین 1565
عقائد 1564
رشتہ 1563
ناموں 1562
29@@ 1561
خاطر 1561
لیاں 1561
نغ@@ 1561
تنا@@ 1560
سم 1560
اندرونی 1559
تز@@ 1559
ماڈل 1559
رجوع 1558
صادق 1558
مور 1558
یز 1558
گون@@ 1557
برٹش 1556
بھاری 1556
درخت 1556
عامر 1556
72 1555
الْ@@ 1555
رل 1553
سرگر@@ 1553
پہلو 1553
کرلیا 1552
گزر@@ 1552
خراسان 1551
نافذ 1551
H@@ 1550
درو@@ 1550
پورہ 1550
خیل 1549
چلنے 1548
گرین 1548
جمال 1547
ظلم 1546
ابوال@@ 1544
حزب 1544
چون@@ 1544
62 1543
64 1543
دیکھتے 1543
لنگ 1543
مہارت 1541
گورنمنٹ 1541
185@@ 1540
صہ 1540
ڑھ@@ 1540
95 1538
سپر@@ 1538
آسان 1537
عموماً 1537
63 1535
جموں 1533
پندرہ 1532
ہماری 1532
رَ@@ 1531
نن 1531
کوششوں 1531
سند@@ 1530
ڈیم 1529
ﺗ@@ 1529
برعکس 1528
نفی 1528
اختر 1527
الاباما 1527
زوال 1527
سرگرمیوں 1527
انج@@ 1526
دروازے 1526
دِ 1526
عقی@@ 1526
اغ@@ 1525
عباسی 1525
نصی@@ 1525
یادگار 1525
أَ@@ 1524
حکام 1524
سٹر@@ 1524
شمالي 1524
کنی@@ 1524
ؔ 1523
نگز 1523
گذ@@ 1523
خبر@@ 1521
گھریلو 1521
68 1520
کت 1519
96 1518
بط@@ 1518
ڈاک@@ 1518
2011ء 1517
افس@@ 1517
پال@@ 1517
86 1516
آیات 1515
سیر 1515
ہاؤس 1514
51 1513
سری@@ 1513
مارا 1513
ٹوئنٹی 1513
دھو@@ 1512
چچا 1512
88 1510
باس@@ 1510
بولنے 1510
ویت 1510
پہنچنے 1510
شریعت 1509
شہزادہ 1509
ندوں 1509
امات 1506
کابل 1506
93 1505
انجمن 1505
حدود 1505
صدیوں 1504
چوں 1504
نوی@@ 1503
کرنسی 1503
امری@@ 1502
الملک 1501
اہل@@ 1501
ایٹ@@ 1501
فلمیں 1501
چان@@ 1501
آسانی 1499
اح 1499
اصلاح 1499
جین 1499
ڈین 1499
دعویٰ 1498
يون@@ 1498
اردن 1497
56 1496
تبہ 1496
حص@@ 1496
کہنے 1496
54 1495
66 1495
مزاحمت 1495
بِ@@ 1494
پڑی 1494
رف@@ 1493
ڈری@@ 1493
99 1492
انقلابی 1492
تمہارے 1492
300 1491
ادر 1491
حبیب 1491
حکیم 1491
امین 1490
عاش@@ 1489
94 1488
فلسفہ 1488
ادوں 1487
سکول 1487
مراکش 1487
جائزہ 1486
صحابی 1486
پرانے 1486
73 1485
اقدامات 1485
فے 1485
معز@@ 1484
ڈیل 1484
بول 1483
مصری 1483
74 1482
ترو@@ 1481
جانور 1481
سیرت 1481
+ 1479
اسحاق 1479
بلغاریہ 1479
تینوں 1479
عق@@ 1479
ہرہ 1479
جہاد 1478
تمل 1477
صوبوں 1477
دہی 1476
اوا 1475
بشمول 1475
دف@@ 1475
مون 1475
نادر 1475
ولوں 1475
ارشاد 1474
مجید 1474
مس 1474
پاب@@ 1474
ریاضی 1473
معاون 1473
پوں 1473
کاموں 1473
کوچ 1473
وری@@ 1471
ٹیاں 1471
ar 1470
بیگ 1470
طل@@ 1470
مہینے 1470
O@@ 1469
درا@@ 1469
نوی 1469
میک 1468
چھی@@ 1468
سکو 1467
نشر 1467
اعتماد 1466
راؤ 1466
حاکم 1465
y 1464
ناصر 1464
تَ@@ 1463
سیل 1463
مدھ@@ 1463
98 1462
سوسائٹی 1462
صر 1462
واق@@ 1460
کیوبک 1460
کولوراڈو 1459
wiki 1458
استنبول 1458
مد 1458
ہنگ@@ 1458
تون@@ 1457
شتہ 1457
سنسکرت 1456
ثہ 1454
نم 1454
فرمائی 1453
يہ 1453
لينڈ 1452
77 1451
یر@@ 1451
امید 1450
انڈونیشیا 1450
59 1449
جسمانی 1449
ہارا 1449
text 1448
تحقیقی 1448
67 1447
میان@@ 1447
گیارہ 1446
حید 1445
رسائی 1445
عشق 1445
کیو 1445
افسر 1444
فائنل 1444
فرزند 1444
شک 1443
فیصلے 1443
گھو@@ 1443
187@@ 1442
سکندر 1441
مو 1441
87 1440
نیوز 1440
92 1439
سين 1439
آسٹریلوی 1438
سُ@@ 1438
84 1437
افریقی 1437
صل 1437
وکٹوریہ 1437
97 1436
کلو@@ 1436
قبر 1434
Ch@@ 1433
تیسرا 1433
خیالات 1433
مي 1433
اصلاحات 1432
حکمرانوں 1432
محنت 1432
مشن 1432
مقاصد 1432
شاندار 1431
عائشہ 1431
لک 1431
82 1429
وع@@ 1429
1,0@@ 1428
انٹر@@ 1428
رہنماؤں 1428
قلم 1428
Rural 1427
اسکواڈ 1427
منگ 1427
شاگرد 1426
پیغام 1426
کمی@@ 1426
اکرم 1425
تور@@ 1425
سمجھ 1425
ولیم 1425
پڑھنے 1425
کمار 1425
2005 1422
رومانیہ 1422
غرض 1422
نوٹ 1422
بمطابق 1421
جات@@ 1421
عَ@@ 1421
نفسی@@ 1421
ومی 1421
کامل 1421
91 1420
ممکنہ 1420
حساب 1419
اوریگون 1418
رواج 1418
آباد@@ 1417
دعوی 1417
قین 1416
ارادہ 1415
اسپی@@ 1415
76 1414
خرا@@ 1414
انڈيانا 1413
امیدوار 1412
شع@@ 1412
عزت 1411
فرقہ 1410
نے@@ 1409
تض@@ 1408
سیک@@ 1408
شائر 1408
محلہ 1408
مہر 1408
پش@@ 1408
یور@@ 1408
جانشین 1407
حاد@@ 1407
کیرو@@ 1407
ھی 1407
تعارف 1406
رئ@@ 1406
پانے 1405
ڈور 1405
کُ@@ 1405
ہیمپشائر 1405
2009ء 1404
لغ@@ 1404
ٹینیسی 1404
معاملہ 1403
توڑ 1402
83 1401
الف 1400
اصحاب 1399
جناح 1399
امتحان 1398
راز 1398
ڈل 1398
اسپ@@ 1397
اِن 1397
78 1396
باضابطہ 1396
صوف@@ 1396
يم 1395
يں 1395
ڈیو 1395
نازل 1394
حوصلہ 1393
محدث 1393
2004 1392
تاہے 1392
رومان@@ 1392
وزن 1392
زیارت 1391
N@@ 1390
علماء 1390
ٹران@@ 1389
قیدی 1387
گروہوں 1387
آندھرا 1386
فوری 1386
میت 1386
ونڈ@@ 1386
2012ء 1384
revision 1384
ارب 1384
186@@ 1383
اعتراف 1383
برا 1383
بیل@@ 1382
جری@@ 1382
لکھ 1382
wikitext 1381
داس 1381
معاملے 1381
نارتھ 1379
بم 1378
نامے 1377
یہود 1376
89 1375
داؤد 1375
سرو@@ 1375
سکور 1375
صدیق 1375
1990 1374
اطالوی 1374
تبلیغ 1373
سوا 1373
مقدمہ 1373
ye 1372
ناقابل 1372
پہاڑوں 1372
03 1371
69 1371
تقریب 1371
جوش 1371
راب 1370
کیپ@@ 1370
71 1369
خطوط 1369
شدت 1369
گوئی 1369
دیہ 1367
ڈرامے 1367
اوہائيو 1366
قادری 1366
اینڈ@@ 1365
بج@@ 1364
دیوار 1364
زلز@@ 1364
كنساس 1363
پیپلز 1363
d 1362
دب@@ 1362
رقص 1361
مڈ@@ 1361
اچھا 1360
دُ@@ 1360
پرورش 1360
الت 1358
زیب 1358
ونی@@ 1358
کھر 1358
عراقی 1357
2020ء 1356
79 1356
راک 1356
قریش 1356
مینار 1356
قات 1355
پاس@@ 1355
بلدیات 1354
پیری 1354
2007ء 1352
انِ 1352
دي 1352
زراعت 1352
تصوف 1351
شرف 1351
استع@@ 1350
تھر 1350
بھگ 1348
پڑتا 1348
2010ء 1346
ماری@@ 1346
کارکن 1346
ہن 1346
ستوں 1345
فاس@@ 1345
نوع 1345
ٹین@@ 1345
ساز@@ 1344
ٹي 1344
پانچویں 1344
‎ 1344
جائز 1343
خیز 1343
عبرانی 1343
خاندانی 1341
صنعتی 1341
مساوات 1341
وض@@ 1340
کھیل@@ 1340
سون 1339
منافع 1339
بنگالی 1338
جرم 1338
پشتو 1338
مداخلت 1337
مشورہ 1337
منصور 1337
پسند@@ 1337
ہوگئیں 1337
ﮧ 1337
معین 1336
گراؤنڈ 1335
کامی@@ 1334
لیتا 1333
عبور 1332
لگتا 1332
انصاری 1331
جد 1331
سیم 1331
مکان 1331
ڈیزائن 1331
گھنٹے 1331
81 1330
مکی 1330
مذاہب 1329
on 1326
جنت 1326
روی 1326
بوسنیا 1325
township 1324
پار 1324
پریس 1324
کیفیت 1324
ئین 1323
ربی 1323
نمائند@@ 1323
ھے 1323
ائش 1322
اچھے 1321
غزوہ 1321
نبوی 1321
امیہ 1320
تلا@@ 1320
كيرو@@ 1320
محمد@@ 1320
معاش@@ 1320
چارلس 1320
گری 1320
ہارون 1320
مکر@@ 1319
09 1318
دستاوی@@ 1317
انور 1316
سس 1316
ملکیت 1316
ائیت 1315
نکاح 1315
بڑھا 1314
تہران 1314
نیک 1314
ڑھی 1314
فال@@ 1313
امارات 1312
توقع 1312
حامی 1312
عص@@ 1312
وصول 1311
عش@@ 1310
ممبر 1309
بچ 1308
وسائل 1308
روزنامہ 1307
دائرہ 1306
02 1305
مونٹانا 1305
گنی 1305
توب@@ 1304
اٹھایا 1303
گزی@@ 1303
* 1302
ارف 1301
اسٹیڈیم 1301
حم@@ 1301
ریاستیں 1301
مرحوم 1301
دنی@@ 1300
سلم 1300
ظفر 1299
فرما 1299
پو 1299
کھو 1299
گھرانے 1299
اقتصادی 1298
انو@@ 1298
کاروباری 1298
اتھ@@ 1297
1947ء 1295
الينوائے 1295
خز@@ 1295
الیہ 1294
عز@@ 1294
آکر 1293
لبنان 1292
ذیر 1291
جنگل 1290
تال@@ 1289
ساتھیوں 1289
مرض 1289
چندر 1289
ڈائ@@ 1289
گوشت 1289
ہائ@@ 1289
سادہ 1287
شراکت 1287
دیہی 1286
ماسٹر 1286
البر@@ 1285
اولی@@ 1285
منا 1285
پرچم 1284
عمومی 1283
مبر@@ 1283
مسی@@ 1283
نوعیت 1283
چالیس 1283
آور 1282
رومن 1282
وول@@ 1281
پرانی 1281
2006ء 1280
اتحادی 1280
سسٹم 1280
مقبرہ 1279
ٹھی 1279
اخلاق 1278
لائنز 1278
الحسن 1277
ساس@@ 1277
پہچان 1277
00@@ 1276
خراب 1276
سبھا 1276
ماسکو 1276
وفد 1276
یقینی 1276
قائ@@ 1275
ماہ@@ 1275
پُ@@ 1275
ہیڈ 1275
ﻟ@@ 1275
ﻨ@@ 1275
خالی 1274
مقبولیت 1274
الہ@@ 1273
بحریہ 1273
سدھ@@ 1273
فَ@@ 1273
ائب 1272
قد 1272
کیم@@ 1272
ہوا@@ 1272
میٹر@@ 1271
نشین 1271
ویہ 1271
دمشق 1270
سنا 1270
بھائیوں 1269
ستر 1269
سڑ@@ 1268
فضائی 1268
پنج@@ 1268
امتیاز 1267
برازیل 1267
برقی 1267
رحمہ 1267
نین 1267
پریفیکچر 1267
چاندی 1267
کیسے 1267
The 1266
آرٹ 1266
اعزازات 1266
فیس 1266
ہول@@ 1266
شعرا 1265
لاک 1265
ڈي@@ 1265
طبیعیات 1264
پڑ 1264
قابو 1263
مخت@@ 1263
بد 1262
آہ@@ 1259
فیہ 1259
وزی@@ 1259
چینل 1259
تبدی@@ 1258
يم@@ 1258
J@@ 1257
میل@@ 1257
تباہی 1255
دکھایا 1255
چوتھی 1255
مِ 1254
گیس 1254
اسٹو@@ 1253
ائمہ 1252
08 1251
بڑھتی 1251
ادھ@@ 1250
بائی 1250
آدم 1249
ترمیم 1249
زند@@ 1249
سٹھ 1249
ماتحت 1249
میڈیکل 1249
پیڈیا 1249
کئے 1249
گرد@@ 1249
آغا 1248
ارد 1248
محاصرہ 1248
کسی@@ 1248
دد 1247
شہز@@ 1247
صاح@@ 1247
وآلہ 1247
یحییٰ 1247
پیغمبر 1246
رائج 1245
لیٹ 1245
ورٹ 1245
انسانوں 1244
I 1243
بلیک 1243
دکن 1243
آپس 1242
ازبکستان 1242
بٹ@@ 1242
جیمز 1242
ضرور 1242
جمہوری 1241
لوی 1241
بَ@@ 1240
بچہ 1240
لبر@@ 1240
پیٹ 1239
R@@ 1238
رمضان 1238
شب@@ 1238
تي 1237
مانا 1237
پڑھا 1237
آمدنی 1236
است 1236
خوشی 1236
سائنس@@ 1236
کریک 1236
اہی 1235
بستی 1235
تنگ 1234
بہرائ@@ 1233
دست 1233
پچاس 1233
گناہ 1233
گنا 1232
منڈی 1230
ڑھے 1230
ہوجاتا 1230
05 1229
دون@@ 1229
لِ@@ 1229
دیو@@ 1228
سفیر 1228
وعدہ 1228
یہیں 1228
احترام 1227
عناصر 1227
آد@@ 1226
علمائے 1226
عقیدہ 1225
نبوت 1225
کوک 1225
07 1224
برف 1224
تات@@ 1224
نمائش 1224
وائی 1224
سیف 1222
لیتی 1222
زرعی 1221
لطی@@ 1221
مجسم@@ 1221
گول 1221
افریقا 1220
فارغ 1220
فوجوں 1220
مواقع 1220
2003 1218
شری@@ 1218
قد@@ 1218
ویٰ 1218
بازو 1217
جہلم 1217
مسترد 1217
ٹیکس 1217
2004ء 1216
دادی 1216
وجوہات 1216
جنوبي 1215
خام@@ 1215
خطہ 1215
رسالہ 1215
مْ 1215
الاسلام 1214
جوہر 1214
فرق@@ 1214
مستحکم 1214
ئل 1213
بھٹو 1213
انٹرنیٹ 1212
تاری@@ 1212
روابط 1212
ساہ@@ 1212
کیشن 1212
اون 1211
سپرد 1211
ئم 1210
بورن 1210
رت@@ 1210
عظم 1210
النے 1208
انانکارپوریٹڈ 1208
دودھ 1208
سافٹ 1208
ٹور@@ 1208
کھی 1208
ایتھ@@ 1207
دہلوی 1207
سفار@@ 1207
میز 1207
ابو@@ 1205
دِ@@ 1205
ائیاں 1204
ارک 1204
مجمع 1203
اوکلاہوما 1202
سوئ@@ 1202
سوم 1202
تقریر 1201
جي@@ 1200
رکھنا 1200
شب 1200
خار@@ 1199
منفرد 1199
کوہ@@ 1199
کھڑا 1199
بندرگاہ 1198
تنظیموں 1198
اشترا@@ 1197
ثے 1197
تغ@@ 1196
سنی@@ 1196
سکھوں 1196
ویڈیو 1196
بھاگ 1195
تنازع 1195
ریو 1195
جاس@@ 1194
جنگوں 1194
رحمت 1193
منزل 1193
پارلیمان 1193
آسمان 1192
اشیاء 1192
سمی@@ 1192
سے@@ 1192
C@@ 1191
بحال 1191
دوسروں 1191
خصوصیت 1190
دیکھیے 1190
سبز 1190
اض 1189
اٹھا 1189
تحقیقات 1189
متی 1189
پت 1189
گائے 1189
لف 1188
حکومتی 1187
غر 1187
کلاسیکی 1187
اسپین 1186
لام 1186
ڈیرہ 1186
کنگ@@ 1186
06 1185
بادشاہت 1185
رسوخ 1185
فوراً 1185
معیاری 1185
an@@ 1184
بارش 1184
دیوان 1184
رُ@@ 1184
طاقتور 1184
چرا@@ 1184
اعی 1183
ضل@@ 1183
افت 1182
سرگرم 1182
ایوب 1181
باہمی 1181
دیئے 1181
سز 1181
ایڈیشن 1180
بیرون 1180
رابطہ 1180
ٹون 1179
الث@@ 1178
جانتے 1178
فاتح 1178
پوسٹ 1178
ہور@@ 1178
بنی@@ 1177
زین 1177
فلا@@ 1177
ملٹن 1177
ﺟ@@ 1177
انجی@@ 1176
بحالی 1176
باؤ@@ 1175
جم 1175
دف 1175
زو@@ 1175
یروشلم 1175
نٹن 1174
نیوں 1174
ورہ 1174
کہتا 1174
غم 1173
متن 1173
پتا 1173
عالیہ 1171
غی 1171
پڑھ 1171
ادائیگی 1170
تخلی@@ 1170
طل 1170
مساجد 1168
پروگرا@@ 1168
ﻠ@@ 1168
ﺩ@@ 1167
دھے 1166
رفی@@ 1166
سوس 1166
ملکوں 1166
400 1165
بصرہ 1165
بنانا 1165
دیوبند 1165
سماج 1165
مورخین 1165
پہن@@ 1165
04 1164
تعلیمات 1164
یوکرین 1164
1990ء 1163
اشی 1163
افسانہ 1163
غذ@@ 1163
مہاراج@@ 1163
ڑیاں 1163
کرا 1163
تي@@ 1162
محبوب 1162
نسی 1161
ہسپانیہ 1161
قاز@@ 1160
مشاہ@@ 1160
يووا 1160
2002 1159
انو 1158
پہنچی 1158
پنڈ@@ 1157
کابینہ 1157
ترا 1156
تصاویر 1156
حرف 1156
ظہ 1156
فعال 1156
مصط@@ 1156
واب 1156
یری 1156
وصال 1155
سع@@ 1154
فعل 1154
لکڑی 1154
اولین 1153
راضی 1153
سکی@@ 1153
طری@@ 1153
ٹرل 1153
اوری@@ 1152
شاخ@@ 1152
لائبریری 1151
2005ء 1150
لڑکے 1150
وي 1150
چودہ 1150
ﺮ 1150
شامی 1149
شنل 1149
عصر 1148
لڑکیوں 1148
مطالع@@ 1148
منڈ 1148
ٹرک 1148
پاكستان 1148
جغرافیائی 1147
لڑنے 1147
نَ@@ 1147
اخذ 1146
جاوید 1146
داستان 1146
1980 1145
مرکوز 1145
نِ 1145
ڈون@@ 1145
پھول 1144
اپور 1143
فراہمی 1143
اوٹ 1142
حیرت 1142
ماح@@ 1142
چکوال 1142
گھنٹ@@ 1142
تمغ@@ 1141
محاذ 1141
مع 1141
پٹ 1141
اشرف 1140
صدارتی 1140
قرض 1140
لینڈز 1140
متبادل 1140
پل@@ 1140
ar@@ 1139
اص 1139
بینک@@ 1139
مات@@ 1139
نشست 1139
چیئرمین 1139
ہائی@@ 1139
بڑ@@ 1137
دیوار@@ 1137
سك@@ 1137
گاڑی 1136
بیٹنگ 1135
مرک@@ 1135
نار 1135
کاؤنٹیاں 1135
سفیان 1134
ً 1134
چیت 1134
گز 1134
ﺭ 1134
صدیقی 1133
طلاق 1133
ذر@@ 1132
عدالت@@ 1132
ویک 1132
پچ@@ 1132
ہج@@ 1131
جذبات 1130
رز@@ 1130
سنیما 1130
عارضی 1130
مہی@@ 1130
کاٹ 1130
la 1129
خت 1129
رضوی 1129
سیٹ 1129
ئي 1128
بحرین 1128
مانہ 1128
مشرف 1128
میا 1128
ناس@@ 1128
نٹی 1128
پسندوں 1128
ﯿﮟ 1128
زیریں 1127
قطر 1127
ربیع 1126
قبائلی 1126
ْ 1126
ھا 1126
ذا 1125
عیس@@ 1125
راجہ 1124
سعود 1124
منایا 1124
چھاپ@@ 1124
باتیں 1123
عربوں 1123
مہیا 1122
کالم 1122
ئیس 1120
ایکٹ 1120
بص@@ 1120
تنازعات 1120
منصب 1120
منفی 1120
اصط@@ 1119
سٹک 1119
قاف@@ 1119
شراب 1118
فخر 1118
في 1118
چوہ@@ 1118
ہرات 1118
q 1117
خشک 1117
سپی@@ 1117
موسی 1117
جمعہ 1116
طریقوں 1116
ٹوٹ 1116
صد 1115
١@@ 1115
کمیون@@ 1115
المن@@ 1114
حالیہ 1114
ہوجاتی 1114
اٹک 1113
جوہری 1113
فرض 1113
ﭘ@@ 1113
ملائیشیا 1112
وتی 1112
قیات 1110
لگانے 1110
ذر 1109
شعب@@ 1109
عمدہ 1109
مونٹ@@ 1109
ٹون@@ 1109
ڈچ 1108
بخار@@ 1107
ندے 1107
کپور 1107
پیار 1106
ہیرو 1106
آتش 1105
اتحادیوں 1105
بوس 1105
پبلک 1105
امل 1104
محروم 1104
کروایا 1104
گیم 1104
اڈے 1103
واس 1103
ﻤ@@ 1103
مہاجرین 1102
نکلا 1102
ویتنام 1102
ہے@@ 1102
اخبارات 1101
اسلحہ 1101
خاک 1101
خوراک 1101
ظر 1101
عقیدت 1101
وقی 1101
راوی 1100
مشي 1100
سخ@@ 1099
پھانسی 1099
اط 1098
حسب 1098
خور@@ 1098
پردہ 1098
بائبل 1097
المعروف 1095
سام 1095
بنا@@ 1094
سرور 1094
پاپ@@ 1094
ڈال@@ 1094
گس 1094
آرٹس 1093
بہاؤ 1093
تہوار 1093
فوت 1093
مرح@@ 1093
بمبئی 1092
تقی 1092
جنازہ 1092
ائز 1091
برز@@ 1091
باغ@@ 1090
محتر@@ 1090
واٹر 1090
چک@@ 1090
2021ء 1089
ایجن@@ 1089
بیہ 1089
دوری 1089
واقعے 1089
ﮭ@@ 1089
جایا 1088
سمندری 1088
ویر 1088
العزیز 1087
بُ@@ 1087
خارج 1087
عبید 1087
وائرس 1087
گیری 1087
تیرہ 1086
فنون 1086
وث@@ 1086
چاروں 1086
کلی 1086
ناٹ 1085
ٹاونشپ 1085
آئینی 1084
بھرپور 1084
علیحدگی 1084
فائر 1084
ڈالی 1084
ہہ 1084
01 1083
ا- 1083
الذ@@ 1083
برداشت 1083
برسوں 1083
ساتویں 1083
ظاہری 1083
ہیلی 1083
اُسے 1082
جماعتوں 1082
شمسی 1082
قاد@@ 1082
قیس 1082
لفظ@@ 1082
معص@@ 1082
ارتق@@ 1081
ارد@@ 1081
سورت 1081
عسکری 1081
لازمی 1081
متف@@ 1081
نچ 1081
پوزیشن 1081
دفاعی 1080
مانے 1080
نائی 1080
وید 1080
گلی 1080
حرام 1079
رحمۃ 1079
فس@@ 1079
پرنس@@ 1079
34@@ 1078
سہولت 1078
تعینات 1077
نعت 1077
راش@@ 1076
ستم 1076
کیمپ@@ 1076
شاہراہ 1075
صالح 1075
آلات 1074
اختیارات 1074
امان 1074
مارکیٹ 1074
میوزک 1074
چائی 1074
کمان 1074
منورہ 1073
یل@@ 1073
al 1072
بحران 1072
يس 1072
ڈالنے 1072
احکام 1071
سرے 1071
گلوکار 1071
شم 1070
شي@@ 1070
مائش 1070
آنکھوں 1069
بردار 1069
ریجنل 1069
وقف 1069
گزر 1069
الین 1068
جگہوں 1068
منظوری 1068
گویا 1068
شاہد 1067
عبدالرحمن 1067
عیسائی 1067
سوچ 1066
z@@ 1065
ابشار 1065
بادشاہوں 1065
ناروے 1065
کیمپ 1065
ایجاد 1064
گرامی 1064
یونی@@ 1064
ماخذ 1063
نمونہ 1063
پنسلوانيا 1063
1945 1062
حارث 1062
حضرات 1062
خدا@@ 1062
سولہ 1062
نعم@@ 1062
پالی@@ 1062
کالونی 1062
گنج@@ 1062
آل@@ 1061
صوبهٔ 1061
گردوں 1061
2001 1060
صلی@@ 1060
محقق 1060
کوری@@ 1060
استح@@ 1059
دستی 1059
دلیل 1059
دیوں 1059
كول@@ 1059
پھیلا 1059
طبقے 1058
چنگ 1058
القرآن 1057
فان 1057
قم 1057
مقابلوں 1057
W@@ 1056
دراز 1056
ظم 1056
ونس 1056
چیک 1056
184@@ 1055
33@@ 1055
اخلاقی 1055
پولی@@ 1055
ایوارڈز 1054
کات@@ 1054
ایڈیٹر 1053
باشندے 1053
بگ@@ 1053
خانقاہ 1053
صول 1053
پیچی@@ 1053
رچ@@ 1052
شل 1052
لنے 1052
میوزیم 1052
ٹین 1052
آصف 1051
ماء 1051
چند@@ 1051
یعقوب 1051
محرم 1050
ادي 1049
ظہور 1049
عجائب 1049
اً 1048
جرائم 1048
جہازوں 1048
کچ@@ 1048
کیلئے 1048
بجے 1047
روپ@@ 1047
كين@@ 1047
to 1046
نسخہ 1046
گاوں 1046
بھیج@@ 1045
قوم@@ 1045
نژاد 1045
یاس@@ 1045
اُن@@ 1044
عمری 1044
کپڑے 1044
اقب 1043
گانا 1043
سرحد@@ 1042
مایا 1042
مفہوم 1042
وارڈ 1042
راس@@ 1041
روپ 1041
سادات 1041
قبہ 1041
ہفتہ 1041
کتاب@@ 1040
گرہ 1040
الان@@ 1039
خرچ 1039
مصنفین 1039
مپ 1039
چیزوں 1039
صلح 1038
بق@@ 1037
فانی 1037
چاہے 1037
دانی 1036
2000ء 1035
جوان 1035
درہ 1035
شور@@ 1035
تدری@@ 1034
ستگی 1034
گھوڑے 1034
ref 1033
باد@@ 1032
عاب@@ 1032
عبدالعزیز 1032
عصمت 1032
مبتلا 1032
مثبت 1032
وما 1032
پیروی 1032
آفس 1030
حدی@@ 1030
صحافت 1030
منت@@ 1030
منز@@ 1030
جیتنے 1029
رجحان 1029
2002ء 1028
تنازعہ 1028
مراکز 1028
مڈل 1028
ناق@@ 1028
نتیس 1028
یدہ 1028
حنی@@ 1027
عہ@@ 1027
فیروز 1027
مریم 1027
میم 1027
ولید 1027
آی@@ 1026
ڈیا 1026
اء@@ 1025
شرائط 1025
فطرت 1025
11@@ 1024
ءمیں 1024
عمرؓ 1024
آرمینیائی 1023
ورانہ 1023
الیک@@ 1022
اکہ 1022
سارا 1022
وري@@ 1022
پخت@@ 1021
المع@@ 1020
انعقاد 1020
لڑی 1020
1980ء 1019
متاث@@ 1019
الي@@ 1018
تجزیہ 1018
ریاض 1018
فرمان 1018
مشکلات 1018
مظفر 1018
ٹرافی 1018
کارا 1018
اضی 1017
تالیف 1017
تیوں 1017
جد@@ 1017
سپریم 1017
V@@ 1016
محیط 1016
وین@@ 1016
کاشت 1016
Z@@ 1015
al@@ 1015
اتوں 1015
طاقتوں 1015
میساچوسٹس 1015
گریجویشن 1015
ھو 1015
انگلش 1014
بست@@ 1014
سویڈن 1014
سیکی@@ 1014
نری 1014
یورو@@ 1014
ابوبکر 1012
دلی 1012
لیم 1012
مذکورہ 1012
ورے 1012
کوئٹہ 1012
ہٹ@@ 1012
دات 1011
مشیر 1011
کیپ 1011
فلسطینی 1010
ڈھان@@ 1010
e@@ 1009
تازہ 1009
خاندانوں 1009
فیڈریشن 1009
قاری 1009
اگو 1008
سنچریاں 1008
شری 1008
فک 1008
ٹي@@ 1008
کرناٹک 1008
کرنل 1008
۲@@ 1008
اکا 1007
فاؤنڈیشن 1007
مختاری 1007
نجات 1007
امکان 1006
کث@@ 1006
کیتھولک 1006
ہوم 1006
حام@@ 1005
نویں 1005
پروڈیوسر 1005
بون 1004
بیا 1004
عک@@ 1004
انڈر 1003
شنز 1003
لسٹ 1003
زو 1002
ناد@@ 1002
ٹیوب 1002
گزار@@ 1002
F@@ 1001
انیسویں 1001
سیاح@@ 1001
لت@@ 1001
ہیل 1001
... 1000
یونیور@@ 1000
قرب@@ 999
پسندی 999
کرداروں 999
i 997
ایجنسی 997
سرائے 997
متناز@@ 997
کلکتہ 997
استفادہ 996
ترجیح 996
سینئر 996
قز@@ 996
قصبے 996
مشاہدہ 996
مينيسوٹا 996
A 995
ریح 995
وانی 995
ہیم 995
تبص@@ 994
منگول@@ 994
وفاد@@ 994
کویت 994
E@@ 993
اتھ 993
اطراف 993
بران@@ 993
تیمور 993
جہانگیر 993
راجپوت 993
شعبوں 993
پیا 993
2001ء 992
الٹ 992
جوں 992
رائی@@ 992
عوض 992
عید 992
افسران 991
انگیز 991
رہنمائی 991
صلاحیتوں 991
اقدام 990
ریک 990
قرا@@ 990
مخدوم 990
چھوڑ@@ 990
کات 990
گت 990
شعری 989
کیاں 989
جہان 988
صفحہ 988
ننگ 988
وقار 988
تفری@@ 987
علاحدہ 987
فیئر 987
والی@@ 987
پتی 987
I@@ 986
پاک@@ 986
تبادلہ 985
رشید 985
ظمی 985
مجموعے 985
نما@@ 985
حالی 984
كو 984
وکیل 984
چنے 984
گند@@ 984
d@@ 983
افزائی 983
تیلگو 983
سفارتی 983
طاہر 983
کیچ 983
باز@@ 982
فنی 982
مذاکرات 982
اجتماعی 981
تیر@@ 981
دیکھی 981
مسیحیت 981
واقف 981
چوتھے 981
وارث 980
چوب@@ 980
کوی@@ 980
2003ء 979
ائف 979
بود 979
خال@@ 979
مرحلے 979
کٹی@@ 979
یان@@ 979
اٹھارہ 978
بروز 978
دخل 978
زمینی 978
لاتے 978
نگا 978
رسمی 977
ریسرچ 977
q@@ 976
اين 976
بدولت 976
ریات 976
فاصلہ 976
بیٹھے 975
حکومتوں 975
کیمی@@ 975
انفرادی 974
سرائی@@ 974
سرحدی 974
لہٰذا 974
نفس 974
ورات 974
ٹیک 974
بچانے 973
سٹنٹ 973
وکٹوں 973
گولی 973
20ء 972
ابر 972
رائل 972
سانتا 972
طبقہ 972
لح@@ 972
واب@@ 972
پود@@ 972
کیات 972
اجی 971
اسم@@ 971
لاؤ 971
ٹیکل 971
ژن 971
اکی 970
شبہ 970
شرط 970
نٹس 970
ولے 970
يو 970
ٹیموں 970
پیرو 970
کتوں 970
ادیوں 969
اموں 969
برلن 969
لائٹ 969
ہے- 969
y@@ 968
ایری@@ 968
خرید 968
زد 968
ڈار@@ 968
1970ء 967
بائ@@ 967
بیٹوں 967
زمبابوے 967
مالا 967
یع 967
فین 966
نسل@@ 966
نڈے 966
کیل 966
ینی 966
اطلا@@ 965
سہولیات 965
فتوحات 965
گیر@@ 965
اضافی 964
آرام 963
سورہ 963
شیں 963
ني 963
انٹرویو 962
اینگ@@ 962
جب@@ 962
دیوتا 962
فارمی@@ 962
کوششیں 962
کھنڈ 962
— 962
ایئر@@ 961
ہتھیاروں 961
یش 961
c 960
اراکین 960
شعور 960
فورسز 960
كل@@ 960
ممبر@@ 960
نیدر@@ 960
سیکھ@@ 959
عارف 959
قطع 959
ائنٹ 958
ادم 958
دماغ 958
قدیمہ 958
آرڈر 957
براؤ@@ 957
حاض@@ 957
قسطنطنیہ 957
لاحی 957
ہيں 957
آکس@@ 956
الرحمٰن 956
اچانک 956
غت 956
ّہ 956
احاطہ 955
سعادت 955
طان 955
فاضل 955
ِّ@@ 955
اترپردیش 954
انڈی@@ 954
اگر@@ 954
ترکوں 954
شہزادی 954
غیب 954
قرون 954
مرشد 954
ہم@@ 954
1970 953
نْ 953
یرہ 953
لمبائی 952
مہمان 952
سفی@@ 951
قَ@@ 951
ماری 951
نہر@@ 951
جیو 950
حمید 950
رخ@@ 950
منہ@@ 950
وطنی 950
وق 950
سیل@@ 949
فاروق 949
نسن 949
نڈا 949
ووا 949
بیر@@ 948
درمیانی 948
كھ@@ 948
شکر 947
عجیب 947
سفارت 946
نیں 946
ورٹی 946
پچھلے 946
1992 945
حر 945
زخ@@ 945
سلمان 945
سود 945
سینی@@ 945
لون 945
پاؤں 945
انکا 944
ایڈی@@ 944
بالخصوص 944
بیٹھ 944
تلوار 944
ربت 944
پارٹ@@ 944
چشتی 944
1991 943
تناسب 943
جاسکے 943
جغرافیہ 943
جمہوریت 943
سالار 943
1948ء 942
1999 942
باؤلنگ 942
باغی 942
بنتا 942
توا@@ 942
متوفی 942
يري 942
علي 941
مظہر 941
ٹاور 941
الاس@@ 940
نظری@@ 940
ورثہ 940
پرویز 940
اتنے 939
جوزف 939
سنائی 939
فقیہ 939
150 938
سَ@@ 938
شات 938
قح@@ 938
چوٹی 938
کرنی 938
انحصار 937
اوق@@ 937
زدہ 937
موبائل 935
کنڈ@@ 935
اطلاعات 934
زیاد 934
لک@@ 934
چترال 934
الحدیث 933
تجرب@@ 933
سترہ 933
مذکور 933
پکڑ 933
ڈیموکری@@ 933
ہاشم 933
یونس 933
ایام 932
سکونت 932
صیل 932
طبع 932
لغت 932
میگزین 932
جاسکتی 930
جسٹس 930
ہندوؤں 930
ادو 929
تعالی 929
داخلی 929
بائی@@ 928
حرم 928
زیوں 928
سلامتی 928
کہلاتے 928
پائی@@ 927
چلانے 927
جزی@@ 926
قریشی 926
قیامت 926
آگیا 925
انیا 925
ریف 925
ریٹائرمنٹ 925
عظمت 924
مورخ 924
کہانیاں 924
1960 923
بہاولپور 923
شافعی 923
شیو 923
قبی@@ 923
کوش@@ 923
ماہی 922
ٹریٹ 922
10.@@ 921
سیالکوٹ 921
عقل 921
عیسیٰ 921
محسن 921
ناز 921
نوجوانوں 921
1950 919
صدارت 919
قدر@@ 919
مدیر 919
تیر 918
جملہ 918
ضبط 918
Municipality 917
آری@@ 917
تخت@@ 917
حن@@ 917
قدرت 917
ویٹ 917
اصر 916
زمان 916
صنف 916
طوفان 916
غزنوی 916
مراٹھی 916
فص@@ 915
گاہوں 915
بناتے 914
بھال 914
رچر@@ 914
لیف@@ 914
وسكونسن 914
بِ 913
بیسویں 913
ذہن 913
زاہ@@ 913
فرید 913
فضائیہ 913
مزاحیہ 913
نشی@@ 913
الخط 912
ساح@@ 912
سوشل@@ 912
ٹيكساس 912
حفظ 911
خراج 911
ہوسکتا 911
ایو 910
جل 910
ناظم 910
1947 909
باللہ 909
ثت 909
ربی@@ 909
رہن 909
لسانی 909
نہر 909
پرتگ@@ 909
آنکھ 908
حق@@ 908
فورٹ 908
لانی 908
لز@@ 908
مزاج 908
پوجا 908
کرد 908
کٹو 908
کہاں 908
گرما 908
حض@@ 907
رع@@ 907
پروڈ@@ 907
ah 906
بي 906
دیت 906
منص@@ 906
پتھ@@ 906
پرانا 906
Y@@ 905
اوس@@ 905
قدمی 905
ناب@@ 905
ورز 905
بدلے 904
تکلیف 904
جام 904
ساخت 904
لاکھوں 903
متوا@@ 903
اسکولوں 902
دنا 902
مدار 902
آرمینیا 901
جال@@ 901
ستر@@ 901
قا 901
مسند 901
میڈ@@ 901
ویکی@@ 901
1999ء 900
ذخیرہ 900
شہاب 900
مبینہ 900
کوٹ@@ 900
گلگت 900
ایڈاہو 899
روای@@ 899
فضا 899
گنگا 899
سکری@@ 898
ہون 898
انک@@ 897
بھر@@ 897
جنگجو 897
حمد 897
دامن 897
زبیر 897
اعمال 896
ترج@@ 896
سرہ@@ 896
شائ@@ 896
عباس@@ 896
قیاس 896
ندا 896
b@@ 895
دام@@ 895
رابرٹ 895
سیریل 895
نیت 895
ہڑ@@ 895
آپری@@ 894
بمب@@ 894
تمہیں 894
کیٹ 894
بیش 893
حسی@@ 893
روک@@ 893
زیانا 893
سیکرٹری 893
فرینکلن 893
ڈیوڈ 893
گیٹ 893
جارجيا 892
عد 892
فیل@@ 892
نگاہ 892
پھل 892
ڈراموں 892
کاو@@ 892
کینی@@ 892
نازی 891
ويل 891
پلیٹ 891
ہانی 891
ہندو@@ 891
اظ@@ 890
کنیکٹیکٹ 890
کیری@@ 890
اجداد 889
ناف@@ 889
گزار 889
اوراس 888
لب 888
مرنے 888
يَ@@ 888
کلے 888
اتار 887
راجستھان 887
فیٰ 887
ﻋ@@ 887
امراض 886
ایجو@@ 886
دیہ@@ 886
سیاحت 886
عثمانیوں 886
ٹار@@ 886
گرے 886
ریاض@@ 885
is 884
المطلب 884
ماد 884
ایکشن 883
سرپرستی 883
صفر 883
كس 883
نصب 883
چیزیں 883
یونٹ 883
زل 882
قاہرہ 882
لنکن 882
مغربي 882
نکلے 882
يارك 882
پٹھ@@ 882
جنگلات 881
طی 881
مصنوعات 881
ڈبلن 881
کال 881
ہوسکتی 881
بھیجے 880
جمع@@ 880
ضیاء 880
کہانیوں 880
الن 879
جنکشن 879
منظ@@ 879
نظامی 879
کارکنوں 879
1998ء 878
آش@@ 878
مبار@@ 878
وج 878
چیمپئن 878
کشتی 878
1998 877
ائیڈ 877
ضوں 877
یسوع 877
تاً 876
دہائیوں 876
مغلیہ 876
b 875
امتی@@ 875
خیر@@ 875
ہمد@@ 875
ورجينيا 874
کشمیری 874
ہوچکی 874
h@@ 873
جیکٹ 873
داء 873
دائی 873
شیوں 873
فورا 873
یکساں 873
1960ء 872
دیہات 872
سرد 872
سیا 872
عرف 872
مام@@ 872
ٹائم 872
کبیر 872
پارلی@@ 871
پڑھی 871
گنے 871
ﮐﮯ 871
اصولوں 870
اطالیہ 870
تلامذہ 870
خالص 870
خلیل 870
زمیند@@ 870
ڈینی@@ 870
اچ@@ 869
عذ@@ 869
متحد 869
ونٹ 869
at 868
اختلافات 868
اخراجات 868
درا 868
روزانہ 868
تعین 867
سمجھنے 867
قفقاز 867
کاک@@ 867
کینیا 867
گنبد 867
القادر 866
ستانی 866
سلمہ 866
ضروریات 866
ضی@@ 866
ماخوذ 866
ٹیل 866
s@@ 865
اوب@@ 865
خانوں 865
رور@@ 865
لائل 865
لمبی 865
مفید 865
00 864
» 864
اننگ 864
سازش 864
ژاں 864
گلیشیر 864
گہری 864
روی@@ 863
الرح@@ 862
کمپنیوں 862
باغیوں 861
سرکار 861
فیل 861
منصوبوں 861
ڈھانچے 861
بقول 860
خام 860
ویژ@@ 860
کعب@@ 860
0,@@ 859
حَ@@ 859
موری@@ 859
نوری 859
کیمیائی 859
ﺘ@@ 859
تابعین 858
جزوی 858
ٹروں 858
چھٹی 858
گزشتہ 858
ماہنامہ 857
نوب@@ 857
ٹھے 857
آنا 856
بھاگ@@ 856
خاموش 856
سبھی 856
سين@@ 856
عمارتوں 856
پبل@@ 856
ڈیٹا 856
600 855
district 855
دوستی 855
عنصر 855
مہار@@ 855
ولس 855
خطرے 854
سڈنی 854
مسئ@@ 854
نوآبادیاتی 854
کھیلتے 854
آٹھویں 853
إِ@@ 853
انتہا 853
بچنے 853
خوار@@ 853
ذوق 853
زیشن 853
فحش 853
مخالف@@ 853
منسو@@ 853
موہن 853
پری 853
کوا@@ 853
اصلی 852
بالائی 852
تل 852
رفتہ 852
عہدوں 852
غالباً 852
دت 851
سوائے 851
سورۃ 851
معمول 851
نفرت 851
نون 851
وئی 851
ڈا@@ 851
ڈس 851
اڑ 850
ایگزی@@ 850
بگ 850
صلاح 850
لس@@ 850
مربوط 850
en 849
تان@@ 849
قل 849
کونسلیں 849
گہرا 849
ہدایت@@ 849
اسما@@ 848
الحال 848
الوں 848
وص@@ 848
پرواز 848
مذمت 847
مہینوں 847
نصر 847
ورژن 847
گوئ@@ 847
یٰ 847
1,4@@ 846
لارڈ 846
پشتون 846
انصار 845
فسادات 845
اذ 844
ارٹر 844
انڈسٹری 844
ساحلی 844
سوشل 844
عہدی@@ 844
فاق 844
قرارداد 844
ليك 844
پریشان 844
چودھری 844
ادیا 843
الا@@ 843
انتداب 843
اہلیہ 843
ریٹائر 843
لگائے 843
1ھ 842
مول 842
میٹرو@@ 842
پہا@@ 842
اداک@@ 841
جاگ@@ 841
ذہنی 841
زان 841
سپاہ@@ 841
شروعات 841
صارفین 841
صال 841
معی@@ 841
نظر@@ 841
کیہ 841
ایلن 840
سینکڑوں 840
نڈی 840
کیس 840
تاجر 839
تجربات 839
سپاہی 839
شفی@@ 839
غلطی 839
ـ@@ 839
نسر 839
کول 839
اکائی 838
جلا 838
خش@@ 838
رن@@ 838
مم@@ 838
وسی@@ 838
چھوڑنے 838
گوار 838
وسط@@ 837
پوتے 837
بلایا 836
تاب 836
جاپ@@ 836
دستاویزات 836
دوس@@ 836
ساک@@ 836
علوی 836
قلب 836
Sh@@ 835
عنو@@ 835
میڈیسن 835
کاغ@@ 835
United 834
بلغ@@ 834
خلائی 834
مشر@@ 834
ونگ@@ 834
پھیلی 834
ہنری 834
1989 833
ریٹ@@ 833
آفتاب 832
اقت 832
امامت 832
تلفظ 832
گرانٹ 832
j@@ 831
انتظار 831
بات@@ 831
تحریری 831
تدفین 831
كار@@ 831
پہنچایا 831
چوک 831
1997 830
بع 830
نمائندہ 830
يْ@@ 830
کیر 830
گورن@@ 830
یان 830
بسر 829
عن 829
غر@@ 829
لکش@@ 829
میزبانی 829
یوال 829
یوگنڈا 829
حتمی 828
شوکت 828
تھامس 827
قض@@ 827
کلارک 827
گلوکارہ 827
ہوچکا 827
ارجنٹائن 826
الزامات 826
بابر 826
زونا 826
سرگودھا 826
لانگ 826
میجر 826
جج 825
دشمنی 825
800 824
اُردو 824
تنا 824
حلقوں 824
مدی@@ 824
پت@@ 824
کف@@ 824
گھاٹ 824
1,6@@ 823
امارت 823
حک@@ 823
رِ@@ 823
مدارس 823
پڑھتے 823
کوب@@ 823
زاد 822
سونا 822
لطف 822
لمح@@ 822
نظیر 822
ٹیک@@ 822
پلے 822
ہرزیگووینا 822
ادھر 821
برآمد 821
توپ 821
أ@@ 820
اعل@@ 820
باتوں 820
پین@@ 820
دوا@@ 819
دوروں 819
بیمار@@ 818
خزانہ 818
اموات 817
ایلی@@ 817
سیکس 817
مقدون@@ 817
وچ 817
ٹز 817
پوپ 817
minor 816
آسٹریلی@@ 816
اولمپ@@ 816
رتی 816
رضاک@@ 816
مسو@@ 816
پنے 816
کشش 816
ہٹلر 816
u 815
الام@@ 815
بای@@ 814
جور@@ 814
درآمد 814
سمجھے 814
وامی 814
چاہئے 814
آغ@@ 813
آمد@@ 813
حلقے 813
زادہ 813
متع@@ 813
1992ء 812
بریگی@@ 812
جیفرسن 812
شرا@@ 812
چز 812
ہفتے 812
1940 811
ایشیاء 811
حیاتیات 811
غلا@@ 811
نصیر 811
وصی@@ 811
یق 811
یہودیت 811
بھرتی 810
تار 810
تمہاری 810
رخص@@ 810
کالا 810
کالی 810
تھوڑی 809
ستارے 809
معاشیات 809
ڈیز 809
افرا@@ 808
انق@@ 808
رہنا 808
نقش@@ 808
پچیس 808
ﷲ 808
1950ء 807
دلی@@ 807
مساوی 807
ٹائمز 807
کھڑی 807
municipality 806
آگاہ 806
ئس 806
احد 806
اریوں 806
اسلوب 806
سمجھی 806
ڈرل 806
ہاکی 806
اسلم 805
اکر 805
راں 805
غلامی 805
فیئر@@ 805
قسم@@ 805
کرسکتے 805
ہؓ 805
1996 804
آند@@ 804
انسانیت 804
جمعیت 804
زنی 804
ماؤ@@ 804
وایا 804
ویلا 804
پوچھ@@ 804
ائد 803
الدين 803
انجن 803
ناز@@ 803
پیٹر 803
اولمپکس 802
جاؤ 802
دستور 802
دول@@ 802
غا 802
وَ 802
پرتگالی 802
گان@@ 802
ہمارا 802
ایش@@ 801
بولتے 801
قائل 801
پھر@@ 801
ادوار 800
اپنایا 800
بزرگوں 800
رانا 800
مرکب 800
ناکامی 800
وسعت 800
گہر@@ 800
جوڑے 799
گوجران@@ 799
ہتر 799
ئیں 798
جاکر 798
مام 798
وتھ 798
ویسٹ@@ 798
يات 798
کمرے 798
دوستوں 797
1918 796
الیکشن 796
سالم@@ 796
ورزی 796
کینٹ 796
بلتستان 795
تاج@@ 795
سپ 795
لٹن 795
میزائل 795
میک@@ 795
يت 795
یاب 795
مثالیں 794
پیٹر@@ 794
استحکام 793
اصفہان 793
فطری 793
قار@@ 793
مالیاتی 793
مباح@@ 793
مگ@@ 793
ٹرین 793
اثنا 792
تُ@@ 792
رنجیت 792
موسیقار 792
کیم 792
ھم 792
الرشید 791
es 790
ائع 790
زیاد@@ 790
عنایت 790
لیبیا 790
مائل 790
ہاشمی 790
النہار 789
جینی@@ 789
ریاں 789
مرث@@ 789
نثر 789
ویر@@ 789
دلچ@@ 788
وْ@@ 788
گور 788
باط@@ 787
رول 787
كري@@ 787
لاش 787
ڈھاکہ 787
کارپوریشن 787
آزاد@@ 786
حي@@ 786
دوا 786
مسٹر 786
کشی@@ 786
بلقان 785
جید 785
حجر 785
حمز@@ 785
لائی@@ 785
کہلاتی 785
الاسکا 784
الحاق 784
بھار@@ 784
قیمتی 784
ملوث 784
منتقلی 784
چو 784
ڈاک 784
ہوچکے 784
ation 783
افضل 783
اگلی 783
بٹلر 783
موقف 783
نیہ 783
گراف 783
اہلیت 782
تراجم 782
فور 782
محققین 782
کانگ 782
et 781
الر 781
رف 781
رپور@@ 781
مید 781
پیرش 781
کرہ 781
گایا 781
سلسل@@ 780
مراحل 780
مسافر 780
کٹرز 780
گرینڈ 780
1997ء 779
رام@@ 779
بھتی@@ 778
دیکھے 778
لوب 778
پریمیئر 778
تحریروں 777
غلبہ 777
لوئس 777
مرق@@ 777
يني@@ 777
پلان@@ 777
گرجا 777
ہوٹل 777
1993 776
الینڈ 776
تسلط 776
خطیب 776
نذر 776
ولد 776
ٹاریو 776
ٹھیک 776
چارج 776
یہو@@ 776
قندھ@@ 775
مالیہ 775
نظریاتی 775
یب 775
or 774
sur 774
آسام 774
انگو 774
اوران 774
بازنطینی 774
جیک 774
ذی 774
مارکس 774
مثلا 774
ملت 774
کرمان 774
کلیسیا 774
ترقیاتی 773
حلق@@ 773
دسویں 773
رر 773
شجرہ 773
ڈش 773
زبر@@ 772
ستانہ 772
علامات 772
لکھیں 772
پرائمری 772
چکر 772
اجز@@ 771
تیرے 771
جوڑ 771
روزگار 771
نبھ@@ 771
وزیر@@ 771
1920 770
اوت@@ 770
بادشاہی 770
ومن 770
گریٹ 770
گیلانی 770
93.@@ 769
قدامت 769
مستعمل 769
موثر 769
کارروائیوں 769
گوری@@ 769
k 768
اضافے 768
تیری 768
رابط@@ 768
عزم 768
لارنس 768
موضع 768
وائیومنگ 768
ڈومی@@ 768
۰@@ 768
a@@ 767
داں 767
رازی 767
مرو 767
ولایت 767
خطرناک 766
ساوتھ 766
طارق 766
نصاب 766
کپتانی 766
States 765
امجد 765
اونٹ 765
مچھلی 765
تخمینہ 764
جلدوں 764
حجاز 764
طالب@@ 764
نمودار 764
12.@@ 763
انوی 763
تحصی@@ 763
جک 763
روان@@ 763
شاف 763
لیکر 763
کیرئیر 763
گزرنے 763
1993ء 762
Ohio 762
esh@@ 762
ing 762
اسی@@ 762
ریکار@@ 762
سروے 762
سوڈان 762
صوم@@ 762
کنی 762
ائم 761
انتق@@ 761
ستیں 761
قیدیوں 761
چائ@@ 761
ہرا@@ 761
1971ء 760
ایکسپریس 760
جمی@@ 760
ذوال@@ 760
شرعی 760
طیارے 760
گرفتاری 760
1996ء 759
ارض 759
ارڈ 759
جنگجوؤں 759
جنی@@ 759
قربانی 759
لور 759
نفاذ 759
نمو@@ 759
ووڈ@@ 759
250 758
الٰہی 758
ستارہ 758
مانتے 758
میری@@ 758
نکالا 758
ونڈ 758
المومنین 757
بحیثیت 757
ترجم@@ 757
جدا 757
دیکھیں 757
مریض 757
مشغول 757
وینی@@ 757
کارڈ 757
t@@ 756
مسلک 756
مطالب@@ 756
نقشہ 756
يلي 756
ّد 756
پالی 756
یوٹاہ 756
تشریح 755
فِ@@ 755
برٹ 754
دوب@@ 754
ستاروں 754
سیلاب 754
عور@@ 754
فوجیں 754
مقبر@@ 754
ایتھو@@ 753
ضرب 753
واسطہ 753
ہوجائے 753
ہیرو@@ 753
یلی 753
ضم 752
طبقات 752
میٹرک 752
ناڈو 752
هُ 752
پولیٹن 752
اوبلاست 751
برو 751
سختی 751
ماجد 751
نٹل 751
هِ 751
چوری 751
ڈان 751
بقیہ 750
خر 750
قری@@ 750
متوں 750
کرائی 750
کعب 750
700 749
آلو@@ 749
ازیں 749
منع 749
مکتب 749
ندیوں 749
ہمہ 749
فلی@@ 748
فیت 748
متعین 748
تکنیکی 747
خصوصاً 747
خلفاء 747
10,@@ 746
1941 746
40@@ 746
n 746
ابلا@@ 746
احمد@@ 746
بالترتیب 746
بوجھ 746
بڑھانے 746
ثق@@ 746
قلمی 746
پولین 746
1,3@@ 745
11.@@ 745
تعالٰی 745
زیں 745
میٹڈ 745
کریا 745
کھول 745
تاجکستان 744
ثی 744
جبل 744
رحیم 744
شد 744
صحاف@@ 744
ناد 744
کلنٹن 744
} 743
حامد 743
سوال@@ 743
مقالہ 743
ہٹا 743
1,8@@ 742
t 742
فریڈ@@ 742
مقابل 742
آم@@ 741
بیب 741
رسالت 741
فراز 741
بہتری 740
قس@@ 740
مپی@@ 740
نقش 740
یقی@@ 740
تائید 739
سوی 739
طلباء 739
مہاج@@ 739
نْ@@ 739
گرا 739
تھر@@ 738
حسین@@ 738
فلو@@ 738
لمبے 738
مزدور 738
ہین 738
لاب 737
نسخ@@ 737
1,7@@ 736
آسٹ@@ 736
صنع@@ 736
وث 736
کیمبرج 736
1988 735
کیلی 735
n@@ 734
رسن 734
قات@@ 733
کیتھ@@ 733
البم 732
خوف@@ 732
فرن@@ 732
مریخ 732
ًا 732
ڈنمارک 732
جمہ@@ 731
روت 731
ملازم 731
دلال 730
مبی@@ 730
واک 730
پڑھائی 730
14.@@ 729
رون@@ 729
قبر@@ 729
نقاد 729
ٍ 729
1,5@@ 728
اتِ 728
13.@@ 727
زینب 727
اتر@@ 726
الاول 726
حقائق 726
p@@ 725
بوت@@ 725
183@@ 724
اسود 723
پوس@@ 723
زِ 722
مخلو@@ 722
دَ@@ 721
راست@@ 721
ہدای@@ 721
ﺪ@@ 721
re@@ 720
مستند 720
پچھ@@ 719
پیدائ@@ 718
le 717
قواعد 717
0,000 716
ed 716
ابہ 716
as 715
ۃ@@ 715
اسباب 713
انسی 713
افغ@@ 712
اوه@@ 712
رسائل 712
1939 711
ٌ 711
1971 710
Bot 710
رحم 710
لاحات 710
1944 709
نتی@@ 709
واج 709
جاز 708
ریشن 708
فوائد 708
مصطف@@ 708
۹@@ 708
name 707
جاوا 706
داخ@@ 706
وِ@@ 706
پہچ@@ 706
Kh@@ 705
تحال 705
قمر 704
ٹرا@@ 704
باح 703
فورنيا 703
200@@ 702
« 702
تہذی@@ 702
ساد 701
مناس@@ 701
ؐ 700
دوس 700
فون@@ 700
مخلوق 700
1995 699
بين@@ 699
جز 699
غار 699
# 698
سار 698
فرعون 698
الو 697
ريك@@ 697
شہر@@ 697
سوت@@ 696
عل 696
منط@@ 696
180@@ 695
تفصی@@ 695
عمار@@ 695
مبر 695
1948 694
قادر 694
موسوم 694
راشد 693
رين 693
رِ 693
ستا 693
سوا@@ 691
عب 691
ڈن@@ 691
تصنی@@ 690
ابرا@@ 689
g@@ 688
آس@@ 688
كان@@ 688
مقص@@ 688
ملاح@@ 688
گریجوی@@ 688
ﮩ@@ 688
اغوا 687
تسم@@ 687
120 685
C 685
om@@ 685
العلماء 685
جیب 685
عکس 685
كيلي@@ 684
ﻮ 684
الوی 683
رجب 683
صف 683
یحی@@ 683
راد 682
مناظر 682
نَ 682
واخر 682
1994 681
ابت@@ 681
تنظی@@ 681
جابر 681
سراج 681
فلس@@ 680
ولو 680
اجن@@ 679
باقر 678
by 677
مطلق 677
ہد@@ 676
دث@@ 675
سرب@@ 675
لك@@ 675
انیاں 674
لتا 674
1000 673
آئر@@ 673
اري 673
افات 673
خسر@@ 673
ۓ 673
ya 672
ابت 672
اریہ 672
داعش 672
وضع 672
حان 671
لائنا 671
میٹ@@ 671
ومت 671
2022 670
افر 670
تعل@@ 670
حجاج 670
علاق@@ 670
village 669
ضر 669
کمز@@ 669
گھر@@ 669
11,@@ 668
1930 668
22@@ 668
k@@ 668
افتتاح 668
الرحمان 668
جنھ@@ 668
لیز 668
يور@@ 668
2,0@@ 667
اوت 667
دري@@ 667
شوا@@ 667
امر@@ 666
جڑ@@ 665
زبانی 665
طہ 665
اوس 664
بري@@ 664
لال@@ 664
ﺣ@@ 663
ایس@@ 662
متعل@@ 662
la@@ 661
مصنو@@ 661
مين 661
o@@ 660
خور 660
مقب@@ 659
ﮞ 659
سویں 658
محاص@@ 658
يني 658
تائی@@ 657
حد@@ 657
قي@@ 657
عادل 656
نایا 656
تاث@@ 654
خوان 654
مارک 654
شق@@ 652
معاو@@ 652
مولا 652
نزول 652
الاح@@ 651
مؤرخ 651
19ء 650
اعز@@ 650
واس@@ 650
اخلا@@ 649
بزر@@ 649
جال 649
جلو@@ 649
قصور 649
لمب@@ 649
1984 648
دیوب@@ 648
مصنف@@ 648
1986 647
مرا 647
us 646
ناف 644
طق 643
35@@ 642
m 642
اه@@ 642
حف@@ 642
ساب@@ 642
ﮔ@@ 642
جه@@ 641
داست@@ 641
لاً 641
ممالك 641
1979 640
تصل 640
جماع@@ 640
قاع@@ 640
۳@@ 640
شل@@ 639
عج@@ 639
كور@@ 639
رسومات 638
صحی@@ 638
قاس@@ 638
محافظ@@ 638
1,9@@ 637
v@@ 637
فتا@@ 637
معاہ@@ 637
نوح 637
فري@@ 636
مطبو@@ 636
سات@@ 635
ak 634
ئت 634
اع 634
التح@@ 634
بندر 634
ترجم 634
روش 634
ستون 634
مود 633
ﺴ@@ 633
p 632
غب 632
in@@ 631
عال 631
لاد 631
نوم@@ 631
وع 631
ارس 629
دون 629
واسط@@ 629
U@@ 628
بابل 628
فقت 628
لازم 628
B 627
اعتراض 627
تذ@@ 627
ملح@@ 627
کہلا@@ 626
1985 625
ad@@ 625
شان@@ 625
{ 624
36@@ 623
انف@@ 623
لینڈ@@ 623
ثان@@ 622
آسم@@ 621
مروان 621
ناظ@@ 621
وظ@@ 621
پیدا@@ 621
النجوم 620
17.@@ 619
الزب@@ 619
عے 619
New 618
أت 618
عار@@ 618
ملہ 618
وتم 618
سفر@@ 617
فصل 617
محک@@ 617
ورم 617
صلات 616
كُ@@ 616
گم 616
گون 616
الب 615
امين 615
فاط@@ 615
12,@@ 614
o 614
روح@@ 614
زمان@@ 614
ﺷ@@ 614
لش@@ 613
ولف 613
.com 612
16.@@ 612
ch@@ 612
روا 612
عاص@@ 611
محم@@ 611
راف 610
َا 610
1987 609
am 609
بتا@@ 609
دود 609
ﺋ@@ 609
تنے 608
اتح@@ 607
سد@@ 607
ﻥ 607
un@@ 606
ة 606
تبر 606
فیسر 606
ریلوی 605
فال 605
1975 604
باء 604
فوق@@ 604
1919 603
48@@ 603
روبن 603
کاؤن@@ 603
كر 602
نسب@@ 602
حیات@@ 601
رد@@ 601
جَ@@ 600
حجم 600
اچھ@@ 599
حیت 598
طبع@@ 598
179@@ 597
تبت 597
الي 596
سكا 596
1974 595
افسر@@ 595
رحم@@ 595
1942 594
عوامل 594
مائے 594
نوا 594
دما@@ 593
r 590
station 590
تبلی@@ 590
ورد 590
1982 589
شج@@ 589
فتو@@ 589
ينا 589
٭ 589
تسلسل 588
كى 588
گوج@@ 588
1978 587
غل@@ 587
el@@ 586
lu 586
روان 586
شاد 586
لاح 586
ماب@@ 586
1983 585
er 585
اگ 585
تول@@ 585
عبی@@ 585
ابہ@@ 584
وسف 584
گران@@ 584
سوٹا 583
مجد@@ 582
مسر@@ 582
مشق 582
انیت 581
تخلص 581
شرو@@ 581
متح@@ 581
ً@@ 581
w@@ 579
درس@@ 579
شار 579
ia 578
اطب 578
لور@@ 578
لوس 578
اين@@ 577
حب 577
فو 577
موز 577
وسلا@@ 577
زمی@@ 576
لينا 576
محافظ 575
ate 574
i@@ 574
r@@ 574
ur@@ 574
صفات 574
وغ@@ 574
ّت 573
for 572
اتب 572
يك 572
38@@ 571
المر@@ 571
توازن 571
لق 571
مقت@@ 571
مماث@@ 571
c@@ 570
ارو 570
كون@@ 570
مپشائر 570
جاع 569
جي 569
شف@@ 569
1973 567
50@@ 567
as@@ 567
علي@@ 567
محور 567
اتم 565
عموما 565
مثل 565
موسم@@ 565
اکث@@ 564
معل@@ 564
1917 563
نال 563
ٹینی@@ 563
ﻗ@@ 563
15.@@ 562
l 562
حاج@@ 562
رغ@@ 562
شید 562
www.@@ 561
حات 561
قُ@@ 561
هُ@@ 561
جبر 560
خلق 560
تان 559
حصر 559
وحد@@ 559
اوم@@ 558
مقر@@ 558
٫ 558
Ar@@ 557
O 557
حکوم@@ 557
مجر@@ 557
60@@ 556
جول@@ 556
زیہ 556
سوس@@ 556
ضر@@ 555
لُ@@ 555
سد 554
13,@@ 553
T 553
اتي 553
ربط 553
استقبال 552
1956 551
m@@ 551
جُ@@ 551
سوم@@ 551
تکنی@@ 550
ساد@@ 550
سلا 550
نُ@@ 550
1967 549
1969 549
II 549
موم 549
صب 548
مه@@ 548
37@@ 547
l@@ 547
لق@@ 547
Ol@@ 546
لاز@@ 546
1972 545
داشت 544
g 543
ثار 543
ضا 543
,@@ 542
انتظ@@ 542
سرطان 542
18.@@ 541
اللَّ@@ 541
المص@@ 541
بط 541
قان@@ 540
مچھ@@ 540
۵@@ 540
۸@@ 540
لَّ@@ 539
سِ@@ 538
عرو@@ 538
عَلَ@@ 538
َّ 538
علاء 537
پند@@ 537
… 537
ﺖ 537
1914 536
am@@ 536
فق 536
فوج@@ 536
Airport 535
جامعات 535
مسي@@ 535
جزي@@ 534
خادم 534
طبا@@ 534
انقلا@@ 533
نقص@@ 533
1981 532
انص@@ 532
زي 532
ورش 532
بالش@@ 531
ریب 531
قبل@@ 531
واد 531
ادت 530
اسا 530
عمومًا 530
مك@@ 530
نط@@ 530
ad 529
حلف 529
كن 528
ﻌ@@ 528
Al@@ 527
D 527
زاب@@ 527
لوان 527
International 525
ثقاف@@ 525
kh@@ 524
عطاء 523
en@@ 522
وخ 522
ورس 522
ay 521
x@@ 521
130 520
توق@@ 520
ٸ@@ 520
۰ 520
45@@ 519
X 519
اؤن 519
جور 519
خلف@@ 519
روب 519
ضائع 519
مخط@@ 519
پیغ@@ 519
39@@ 518
فش@@ 518
الاق@@ 517
پروڈی@@ 517
1949 516
L 516
sh@@ 516
کولمب@@ 516
19.@@ 515
حال@@ 515
گاہ@@ 515
اجتماع 514
میئر 514
ہور 514
1976 513
1977 513
80@@ 513
° 513
اہو 513
توث@@ 513
سکر@@ 513
ضاء 513
كلا@@ 513
هم 513
1946 512
f 512
طول 512
ra@@ 511
روش@@ 511
؁ 510
سٹری 510
urban 509
آف@@ 509
دراج 509
عم 509
عون 509
ﮑ@@ 509
تالی@@ 508
ثم 508
جاب@@ 508
گوں 508
110 507
1965 507
900 507
List 507
قدی@@ 507
1958 506
Mar@@ 506
حُ@@ 505
صغیر 505
لين@@ 505
ag@@ 504
الك@@ 504
النساء 504
جع 504
طر 504
عْ@@ 504
معد@@ 504
14,@@ 503
ic 503
جیک@@ 503
وام 503
124@@ 502
اجات 502
کپ@@ 502
201@@ 501
49@@ 501
E 501
حسن@@ 501
٢@@ 500
1936 499
بھا 499
جلوس 499
جواز 499
سرا 499
موئ@@ 498
يل@@ 498
کستان 498
1962 497
جدول 497
شخص@@ 497
۷@@ 497
اث 496
صور 496
وخ@@ 496
65@@ 495
دستان 495
ذب 495
طاق@@ 495
لند@@ 495
مدع@@ 495
Province 492
بح 492
دال 492
شای@@ 492
DI 491
ائیو 491
اشا 491
باقاع@@ 491
ذو 491
نفو@@ 491
سيد 490
کارہ 490
کیت 490
● 489
اسب 488
مانوں 487
سالم 486
صدا@@ 486
ضمن 486
طور@@ 486
فرانسی@@ 486
وینا 486
عادت 485
ارتی 484
حار@@ 484
غض@@ 484
لْ@@ 484
نمون@@ 484
وفا 484
20.@@ 483
N 483
بالغ 483
واج@@ 483
16,@@ 482
ة@@ 482
جونز 482
ﺒ@@ 482
ﺧ@@ 482
Regional 481
افتتا@@ 481
بيا 481
رفت 481
میز@@ 481
يد 481
180 480
جاسک@@ 480
مين@@ 480
ولک 480
طلا@@ 479
ورن 479
یع@@ 479
du 478
حافظ@@ 478
عیت 478
ہسپان@@ 478
ﻓ@@ 478
F 477
el 477
جذب 477
عمار 477
کنالوجی 477
ائس 476
العاب@@ 476
town 473
اخ 473
قاتل 473
قرط@@ 473
ومن@@ 473
140 471
لاحق 471
مناظ@@ 471
حفاظ@@ 470
نِ@@ 470
1957 469
1968 469
् 469
مَا 468
46@@ 467
آذ@@ 467
توج@@ 467
خواہ@@ 467
مناف@@ 467
Sof@@ 466
خات@@ 466
فع 466
مطلع 466
فورنیا 465
170 464
المقدس 464
1964 463
47@@ 463
لاح@@ 463
به@@ 462
۴@@ 462
تھام@@ 461
رود 461
شام@@ 461
كلي@@ 461
لول 461
1963 460
آسٹری@@ 460
on@@ 459
روف 459
كَ@@ 459
ویز 459
160 458
ساو@@ 458
ّل 458
az@@ 457
انح@@ 457
تانی 457
مشرو@@ 457
ٗ 457
city 456
صيل 456
15,@@ 455
1935 455
بلیو 455
داف 455
عرب@@ 455
ملاز@@ 455
ماس 454
https 453
موسی@@ 453
codice 452
z 452
انتشار 452
راہی 452
سبق 452
نجم 452
ڈائری@@ 452
تشر 451
فاق@@ 451
1943 450
R 450
es@@ 450
ul@@ 450
بْ@@ 450
سرم@@ 450
لد 450
کونسل@@ 450
حز@@ 449
عا 449
وارد 449
G 447
ol 447
تباد@@ 447
• 447
ir 446
صوب@@ 446
صر@@ 445
واع 445
ہمی 445
دال@@ 444
کیوب@@ 444
ﺪ 444
درمی@@ 443
عامل 443
فع@@ 443
وران 443
1953 442
202@@ 442
شق 442
ﻦ 442
An@@ 441
باش@@ 441
عر 441
عمو@@ 441
ur 440
الناس 440
مجموع@@ 440
ولوج@@ 440
الفق@@ 439
شَ@@ 439
طبی@@ 439
ــــ@@ 439
لًا 439
واح@@ 439
ﯼ 439
101 438
Maz@@ 438
انخ@@ 438
تس 438
ملائ@@ 437
3,0@@ 436
تفع 436
حدہ 436
شنا@@ 436
Central 435
ﺕ 435
قال 434
لنا 433
۶@@ 433
ابات 432
رح 432
شم@@ 432
ممل@@ 432
وض 432
ﻡ 432
er@@ 431
um 431
المؤ@@ 431
رْ@@ 431
المبار@@ 430
احتمال 429
فلور@@ 429
قي 429
موس 429
القاسم 428
موز@@ 428
ﺁ@@ 428
بعد@@ 427
بين 427
واپ@@ 427
1937 426
V 426
جوی@@ 426
خَ@@ 426
زیل 426
غان 426
مصدر 426
68@@ 425
اعتق@@ 425
طب@@ 425
1951 424
at@@ 424
انضمام 424
طرا@@ 424
Jar@@ 423
اقتص@@ 423
ثناء 423
حلب 423
1952 422
70@@ 422
j 422
لج 422
الس 421
120@@ 420
سْ@@ 420
حل@@ 419
ریم 419
٣@@ 419
350 417
خص@@ 417
عُ@@ 417
ﮦ 417
1912 416
1959 416
Republic 416
الج 416
1938 415
جرات 415
صار 415
لاء 415
63@@ 414
اعترا@@ 414
1961 413
ab@@ 413
ash@@ 413
حصار 413
رسل 413
باً 412
مقالات 412
ولیت 412
20,@@ 411
المح@@ 411
بندر@@ 411
طبق@@ 411
متص@@ 411
Mor@@ 410
عدل 410
ناء 410
نب@@ 410
1933 409
44@@ 409
amp 409
f@@ 409
حسين 409
ولي@@ 409
17,@@ 408
متوسط 408
http 407
اجد 407
بوب@@ 407
شاه 407
1954 406
th@@ 406
امتح@@ 406
باع@@ 406
يس@@ 406
ﺍ 406
125 405
1921 405
III 405
حت@@ 405
67@@ 404
Re@@ 404
S 404
سوان@@ 404
شاء 404
طن 404
اصف@@ 403
رال 403
المسل@@ 402
صَ@@ 402
ۡ@@ 402
نوف@@ 401
55@@ 400
75@@ 400
؍ 400
ثیت 400
داب 400
عاد 400
توم@@ 399
صدی@@ 399
مقدم 399
115@@ 398
\ 398
باع 398
تابع 398
ضات 398
بادل 397
باط 397
فتہ 397
‏ 397
الفر@@ 396
ایشی@@ 396
دروا@@ 396
طاہ@@ 396
نح@@ 396
تون 395
كل 395
وائے 395
يز 395
23.@@ 394
Dar@@ 394
Sainte 394
ماج@@ 394
59@@ 392
كرا@@ 392
والم@@ 392
۲ 392
58@@ 391
اقی 391
بلغ 391
خصوصا 391
عائ@@ 391
علیٰ 391
فس 391
قان 391
1966 390
ous 390
عثمان@@ 390
نات@@ 390
$ 389
or@@ 389
ابا 389
تور 389
راً 389
ﻞ 389
ak@@ 388
ثن@@ 388
رض 388
ab 387
105 386
برطان@@ 386
ناً 386
21.@@ 385
ah@@ 385
يان 385
ہوما 385
21@@ 384
24.@@ 384
تق 384
ضاب@@ 384
قر 384
قلت 384
کچر 384
ابوب@@ 383
1955 382
is@@ 382
le@@ 382
ty 381
لث 381
وست@@ 381
102 380
الرا@@ 380
ثالث 380
وعد@@ 380
ژ 380
ów 379
المق@@ 379
انفرا@@ 379
فیص@@ 379
57@@ 377
باس 377
ولي 377
ay@@ 376
ph@@ 376
الاز@@ 376
تام@@ 376
تلق@@ 376
توت@@ 376
1934 375
22.@@ 375
Bar@@ 375
il@@ 375
شت@@ 375
2,8@@ 373
66@@ 373
الاع@@ 373
جما@@ 373
وجا 373
2,5@@ 372
مزاح@@ 372
ناس 372
18,@@ 371
M 371
de@@ 371
it 371
u@@ 371
with 371
موج@@ 371
ى@@ 371
1932 370
رسوم 370
واز 370
ﺱ 370
.. 369
99@@ 369
يش@@ 369
os@@ 368
نحو 368
نخ@@ 368
ans 367
جمہو@@ 366
ضل 366
قامت 366
25.@@ 365
andi 365
الٰ@@ 365
بشر 365
راع 365
ها 365
ّا 365
افت@@ 364
ical 363
ol@@ 363
ł@@ 363
جار 363
خض@@ 363
يُ@@ 363
ڈیشن 363
ﭼ@@ 363
ani 362
ليا 362
Region 361
موق@@ 361
ﺯ@@ 361
ac@@ 360
نوج@@ 360
پائن 360
1913 359
دخ@@ 359
صرا@@ 359
کیلی@@ 359
ity 358
صلا@@ 358
عالمي 358
یاء 358
114@@ 357
ؤنڈ 357
احتج@@ 357
واض@@ 357
ٹيك@@ 357
90@@ 356
الخلا@@ 356
الوج@@ 356
تلا 356
صن@@ 356
۱ 356
117@@ 355
1922 355
ot@@ 355
حوال@@ 355
داع 355
عِ@@ 355
لع@@ 355
K 354
X@@ 354
تلو@@ 354
فلسط@@ 354
ﻲ 354
۳ 353
صل@@ 352
ﻴ@@ 352
ندق 351
19,@@ 350
220 350
امي 350
27.@@ 349
ابل 349
بام@@ 349
سٹس 349
منت 349
ناش@@ 349
ni@@ 348
108 347
2,6@@ 347
240 347
5000 347
1931 346
اله@@ 346
لار 346
کرین 346
2,4@@ 345
43@@ 345
In@@ 345
ow@@ 345
کھلا@@ 345
ﻢ 345
2,7@@ 344
be@@ 344
enti@@ 344
un 344
كن@@ 344
القدر 343
تِ@@ 343
ذور 343
والح@@ 343
وور@@ 343
des 342
خانق@@ 342
قف 342
مير 342
وين 342
are 341
se@@ 341
انیں 341
ريا 341
ریٹائر@@ 341
ضابطہ 341
كام@@ 341
104 340
av@@ 340
الحار@@ 340
باتات 340
جند@@ 340
اك 339
ذخی@@ 339
مئ@@ 339
کمپیو@@ 339
ge@@ 338
قصر 337
كت 337
ليس 337
ٓ@@ 337
1929 336
2,9@@ 336
حا 336
فاؤن@@ 336
فول@@ 336
واف 336
Iowa 335
برت 335
سیکر@@ 335
قت@@ 335
وزراء 335
پیچھ@@ 335
ڈکو@@ 335
ﻝ 335
California 334
بلدی@@ 334
عان 334
٠@@ 334
115 333
تط@@ 333
فقط 333
فلوري@@ 333
78@@ 332
di 332
اصد 332
ﺤ@@ 332
190 331
aj@@ 331
ine 331
تحقی@@ 331
56@@ 330
جس@@ 330
ونت 330
W 329
· 329
تونس 329
دوم@@ 329
رج 329
طف@@ 329
لبن@@ 329
لوا 329
100@@ 328
NA 328
P 328
South 328
1924 327
ec@@ 327
العل@@ 327
شيخ 327
130@@ 326
54@@ 326
احاط@@ 326
بور 326
فرنس@@ 326
ہاؤ@@ 326
‍ 326
1500 325
H 325
ari 325
شتر 325
كتاب 325
ir@@ 324
بحي@@ 324
بز 324
حوا@@ 324
وين@@ 324
64@@ 323
Haj@@ 323
ou@@ 323
قرار@@ 323
لب@@ 323
پرت@@ 323
106 322
As@@ 322
العب@@ 322
ضخ@@ 322
ana 321
ستھ@@ 321
سنچ@@ 321
ظات 321
٩@@ 321
گنڈا 321
ﻼ@@ 321
👈 321
155 320
360 320
é 320
دران 320
ربا 320
De@@ 319
it@@ 319
ology 319
بلس 319
٢ 319
107 318
114 318
Minnesota 318
ism 318
افری@@ 318
خروج 318
قرب 318
يون 318
109 317
235 317
الاعتق@@ 317
خم 317
فاف 317
معام@@ 317
۵ 317
112 316
122 316
126 316
Ab@@ 316
id 316
رؤ@@ 316
طان@@ 316
25,@@ 315
450 315
ارض@@ 315
تعال@@ 315
فان@@ 315
پنڈی 315
28.@@ 314
Am@@ 314
me@@ 314
بلوم 314
كرو@@ 314
میون@@ 314
نجد 314
ولیات 314
ed@@ 313
les 313
ورت 313
116@@ 312
im@@ 312
به 312
حذ@@ 312
طریق@@ 312
فہر@@ 312
commune 311
ایکسپ@@ 311
شعر@@ 311
128 310
us@@ 310
Car@@ 309
ers 309
سمند@@ 309
وص 309
135 308
32@@ 308
الرحم@@ 308
تسل@@ 308
23,@@ 307
Th@@ 307
U 307
الض@@ 307
بًا 307
وني 307
پس@@ 307
ka 306
te 306
فضاء 306
قع 306
دبا@@ 305
وُ@@ 305
يت@@ 305
118@@ 304
53@@ 304
eh@@ 304
اسلح@@ 304
رش 304
روض 304
میونسپ@@ 304
103 303
3000 303
نيك@@ 303
ang@@ 302
اسکوا@@ 302
شخ@@ 302
شي 302
۴ 302
Tr@@ 301
تمد 301
سنان 301
se 300
الاش@@ 300
1915 299
شغ@@ 299
مديرية 299
وراڈو 299
گزین 299
116 298
2.5 298
21,@@ 298
76@@ 298
79@@ 298
98@@ 298
Y 298
زع@@ 298
29.@@ 297
ICC 297
آرمینی@@ 297
على 297
وتو 297
26.@@ 296
260 296
that 296
طار 296
124 295
22,@@ 295
ai 295
ent 295
na 295
تعامل 295
رمز 295
ريس 295
ٹوئ@@ 295
129 294
داود 294
Qu@@ 293
العظ@@ 293
166 292
280 292
74@@ 292
ic@@ 292
railway 292
tr@@ 292
ظاہ@@ 292
نات 292
88@@ 291
ang 291
الوجی 291
نمائی 291
نيا 291
واست@@ 291
وك 291
توس@@ 290
لاف 290
نوائے 290
em@@ 289
v 289
י@@ 289
خي@@ 289
سقوط 289
قطار 289
مراہ 289
نف 289
وفی 289
يوسف 289
ﷺ@@ 289
121 288
الار@@ 288
جنا@@ 288
ساؤ@@ 288
عي@@ 288
متا@@ 288
نمو 288
ہید 288
,000 287
1857 287
320 287
بہاول@@ 287
175 286
1916 286
الأ@@ 286
لط@@ 286
ندي 286
132 285
210 285
Con@@ 285
Par@@ 285
gh@@ 285
no@@ 285
عس@@ 285
عض@@ 285
لح 285
واش@@ 285
1.5 284
230 284
270 284
29,@@ 284
87@@ 284
aw@@ 284
اي 284
حقی@@ 284
قنا@@ 284
ہران 284
1923 283
ard 282
da 282
ديش 282
شري@@ 282
ﺠ@@ 282
Ali 281
المج@@ 281
مولی 281
نبات@@ 281
پرائ@@ 281
ہاتھ@@ 281
ﺅ@@ 280
1926 279
Kar@@ 279
ap@@ 279
ary 279
الحک@@ 279
بالع@@ 279
قِ@@ 279
يز@@ 279
کتہ 279
117 278
تدل 278
ٹائن 278
Township 277
was 277
مثال@@ 277
ﺩ 277
1900 276
li@@ 276
الوا 276
تجاوز 276
حنا 276
رہائ@@ 276
24,@@ 275
69@@ 275
ac 275
ali 275
فقدان 275
ہتھ@@ 275
ﮏ 275
119@@ 274
Martin 274
مؤلف 274
يران 274
ﮕ@@ 274
111 273
144 273
77@@ 273
انھ@@ 273
رجال 273
۷ 273
123 272
آٹھ@@ 272
انڈونی@@ 272
لائبری@@ 272
يكا 272
113 271
118 271
137 271
الغ 271
الفضل 271
ﺻ@@ 271
113@@ 270
26,@@ 270
um@@ 270
المال 269
وبر@@ 269
138 268
نجوم 268
131 267
150@@ 267
ton 267
ازي 267
لل 267
ُّ@@ 267
145 266
Se@@ 266
af@@ 266
ing@@ 266
باق 266
قصد 266
Bo@@ 265
استغ@@ 265
عمال 265
ٹرول 265
چودھ@@ 265
ہمی@@ 265
85@@ 264
be 264
community 264
man 264
poem 264
تاريخ 264
درجات 264
وصف 264
ﻘ@@ 264
750 263
North 263
Sal@@ 263
Sar@@ 263
one 263
ti@@ 263
تبع 263
کارکن@@ 263
330 262
Khan 262
territorial 262
142 261
City 261
اختلا@@ 261
الاب@@ 261
الجام@@ 261
ایاں 261
لغات 261
ٖ@@ 261
ڪ@@ 261
۶ 261
119 260
27,@@ 260
region 260
تبر@@ 260
لص 260
اتفاق@@ 259
تاح 259
داً 259
عضو 259
وتر 259
133 258
ابتد@@ 258
مشغ@@ 258
واع@@ 258
134 257
86@@ 257
الات 257
الدو@@ 257
ﻻ@@ 257
1,000 256
28,@@ 256
il 256
ère 256
المش@@ 256
حیدر@@ 256
ده 256
فید 256
1878 255
1905 255
المد@@ 255
ته@@ 255
مہاراش@@ 255
1910 254
ابع 254
توس 254
شرق 254
کارپو@@ 254
1925 253
205 253
بروس 253
حوص@@ 253
كسي@@ 253
ملو@@ 253
موجو@@ 253
from 252
os 252
ā@@ 252
سعيد 252
مذہ@@ 252
203 251
Be@@ 251
ov@@ 251
آذرب@@ 251
دوار 251
طا 251
وکٹو@@ 251
۸ 251
النا@@ 250
سرچ 250
وانات 250
192 249
1927 249
et@@ 249
ze@@ 249
ו@@ 249
ارك 249
عقد 249
ــ@@ 249
قوس 249
چیمپ@@ 249
1928 248
206 248
232 248
au 248
level 248
توف@@ 248
وّ@@ 248
کز 248
136 247
146 247
مانیہ 247
معظ@@ 247
مینہ 247
نشا@@ 247
والد@@ 247
وفر 247
201 246
225 246
India 246
top 246
ville 246
؎ 246
ناٹک 246
نیوی@@ 246
ولات 246
185 245
94@@ 245
Es@@ 245
no 245
ثات 245
مرتب@@ 245
نمائ@@ 245
159 244
1908 244
97@@ 244
ie 244
قاط 244
يرا 244
يع@@ 244
یاف@@ 244
158 243
167 243
1870 243
1911 243
256 243
ki 243
ra 243
الور@@ 243
مناز@@ 243
153 242
193 242
650 242
الحاج 242
دیث 242
30.@@ 241
ong 241
دفت@@ 241
مرات 241
184 240
1848 240
1890 240
Mon@@ 240
Pakistan 240
ian 240
جہانگ@@ 240
حاک@@ 240
دين 240
رك@@ 240
عرا@@ 240
لين 240
262 239
Jean 239
od@@ 239
البا@@ 239
ﺸ@@ 239
1907 238
المدارس 238
١ 238
165 237
255 237
Air 237
Mal@@ 237
القر@@ 237
قط 237
له 237
ﻔ@@ 237
152 236
186 236
1880 236
Man@@ 236
أ 236
درخوا@@ 236
كان 236
كوم@@ 236
وبر 236
Ho@@ 235
Tol@@ 235
bot 235
ne 235
رسم@@ 235
سسٹ@@ 235
عود@@ 235
غالبا 235
معبد 235
181 234
550 234
Sa@@ 234
ابي 234
اجتماع@@ 234
٣ 234
149 233
163 233
187 233
Br@@ 233
incorporated 233
qu@@ 233
حك@@ 233
ذری@@ 233
هن@@ 233
واء 233
کلاسی@@ 233
156 232
194 232
96@@ 232
كاس@@ 232
هر 232
يان@@ 232
127 231
141 231
84@@ 231
China 231
Col@@ 231
ez@@ 231
اوہ@@ 231
طي@@ 231
162 230
183 230
247 230
265 230
ics 230
الشام 230
برٹ@@ 230
بلد 230
حرب 230
مة 230
171 229
Gu@@ 229
ala 229
رمز@@ 229
221 228
Bol@@ 228
West 228
age 228
ro@@ 228
العرب 228
اند 228
عداد 228
فرینک@@ 228
میوزی@@ 228
176 227
217 227
3.5 227
Com@@ 227
ver@@ 227
اسرائی@@ 227
الحر@@ 227
العلم 227
تعی@@ 227
سري@@ 227
متم@@ 227
148 226
154 226
1860 226
195 226
oc@@ 226
ائیہ 226
المت@@ 226
كا@@ 226
معظم 226
وطات 226
۹ 226
ﻭ 226
147 225
189 225
1909 225
197 225
268 225
World 225
id@@ 225
ائر@@ 225
متر 225
٤@@ 225
204 224
Ag@@ 224
Department 224
Jersey 224
li 224
آبادیاتی 224
استقلال 224
اعل 224
سوي@@ 224
مورخ@@ 224
139 223
168 223
89@@ 223
Pierre 223
to@@ 223
الموت 223
بلن 223
درو 223
227 222
275 222
Bel@@ 222
bi@@ 222
Bal@@ 221
po@@ 221
re 221
سڈ@@ 221
ومح@@ 221
يب 221
٠ 221
191 220
209 220
259 220
co@@ 220
di@@ 220
ice 220
ri@@ 220
زرا@@ 220
غرق 220
ﺐ 220
207 219
ari@@ 219
ma@@ 219
المست@@ 219
زت 219
ساس 219
صع@@ 219
ملك 219
161 218
164 218
241 218
domain 218
tube 218
دام 218
فعل@@ 218
182 217
1897 217
253 217
32.@@ 217
ci@@ 217
w 217
اضاف@@ 217
تد 217
2.2 216
London 216
area 216
tic 216
ہف@@ 216
1895 215
ik@@ 215
تث@@ 215
تمث@@ 215
178 214
245 214
305 214
land 214
الخط@@ 214
خلف 214
صنعاء 214
مدن 214
ميون@@ 214
وظائف 214
ّر 214
212 213
30,@@ 213
5,000 213
br@@ 213
county 213
ha 213
بري 213
سمع@@ 213
ينس 213
218 212
272 212
ai@@ 212
st@@ 212
ؒ@@ 212
آبادی@@ 212
موض@@ 212
وانوں 212
٦@@ 212
1200 211
202 211
222 211
254 211
Sea 211
ﻬ@@ 211
1876 210
242 210
370 210
4000 210
خصوص@@ 210
رة 210
ويا 210
38.@@ 209
Ro@@ 209
University 209
بوا@@ 209
وکٹ@@ 209
া@@ 209
169 208
1901 208
? 208
Mo@@ 208
ance 208
que 208
الوا@@ 208
زوج@@ 208
ﺰ@@ 208
172 207
borough 207
ts 207
الست@@ 207
المنا@@ 207
بالغ@@ 207
بدلا 207
ةِ 207
حديث 207
شعار 207
وائی@@ 207
کاون@@ 207
143 206
284 206
القدس 206
عیات 206
196 205
198 205
Co@@ 205
Japan 205
Per@@ 205
ons 205
البلا@@ 205
المث@@ 205
ترجی@@ 205
عار 205
فرائ@@ 205
لوي 205
نع 205
پختون@@ 205
1906 204
95@@ 204
St@@ 204
ji 204
ter 204
باخت@@ 204
غون 204
173 203
213 203
244 203
Bag@@ 203
te@@ 203
الين@@ 203
دين@@ 203
كس@@ 203
ﭖ 203
177 202
1812 202
380 202
ant 202
مائي 202
151 201
1896 201
271 201
310 201
34.@@ 201
Char@@ 201
Le@@ 201
Ne@@ 201
agh 201
ne@@ 201
العالم 201
المس@@ 201
تورا@@ 201
روع 201
مري 201
302 200
36.@@ 200
Kal@@ 200
المغ@@ 200
سباق 200
شارع 200
ونيا 200
269 199
299 199
340 199
lu@@ 199
og@@ 199
ve 199
روما 199
وراء 199
ٴ 199
1- 198
174 198
1877 198
1904 198
199 198
252 198
39.@@ 198
420 198
أُ@@ 198
اضطراب 198
نٹین 198
1898 197
215 197
228 197
249 197
290 197
326 197
Ur@@ 197
الدار 197
بوج@@ 197
دن@@ 197
شال 197
ولم 197
يلا 197
َّا 197
2- 196
224 196
ated 196
é@@ 196
اسي 196
كش@@ 196
ورة 196
157 195
188 195
216 195
37.@@ 195
Inter@@ 195
ch 195
ong@@ 195
الوط@@ 195
مب 195
پاك@@ 195
ہرزی@@ 195
ہسپ@@ 195
﴾ 195
273 194
ins 194
ويل@@ 194
1800 193
211 193
223 193
239 193
251 193
National 193
فيصل 193
كوس@@ 193
277 192
4.5 192
Pr@@ 192
ce 192
ure 192
zy@@ 192
وه 192
243 191
291 191
35,@@ 191
Park 191
je@@ 191
اسات 191
الات@@ 191
ترف 191
داؤ@@ 191
زيد 191
1.6 190
1899 190
tion 190
راض 190
سپی 190
فتاری 190
فتح@@ 190
فرت 190
ليل 190
کاررو@@ 190
2.3 189
208 189
279 189
301 189
ستان@@ 189
1.2 188
233 188
Chapelle 188
Ma@@ 188
aq 188
em 188
بلج@@ 188
دوق 188
لگو 188
231 187
248 187
292 187
430 187
AC@@ 187
San 187
الرو@@ 187
واجد 187
واصل 187
پیپ@@ 187
کردگی 187
Cor@@ 186
ie@@ 186
ig@@ 186
القض@@ 186
مصادر 186
وست 186
10,000 185
214 185
263 185
285 185
286 185
37,@@ 185
hi 185
lo@@ 185
رفع 185
قسطنط@@ 185
مير@@ 185
وادي 185
﴿ 185
234 184
all 184
ev@@ 184
ta 184
th 184
ابراہ@@ 184
الفت@@ 184
الواحد 184
ساب 184
فاء 184
ﺌ@@ 184
ﻳ@@ 184
1830 183
283 183
288 183
303 183
33.@@ 183
34,@@ 183
Di@@ 183
Pennsylvania 183
du@@ 183
ina 183
pr@@ 183
yn@@ 183
تقسيم 183
33,@@ 182
Mont@@ 182
man@@ 182
ob@@ 182
ok@@ 182
á@@ 182
التر@@ 182
بوا 182
تاء 182
ٹاہ 182
ﮢ@@ 182
219 181
35.@@ 181
اكي 181
الجن@@ 181
بادشاہ@@ 181
شهد 181
عث@@ 181
نقاط 181
يوم 181
ٖ 181
پیو@@ 181
ﮬ@@ 181
2.6 180
238 180
ly 180
سكي 180
نبو@@ 180
٥ 180
ﻃ@@ 180
1882 179
2,000 179
2.7 179
he@@ 179
human 179
شاف@@ 179
وتع@@ 179
کینٹ@@ 179
1892 178
257 178
293 178
ash 178
est 178
language 178
op@@ 178
za 178
ؓ@@ 178
الدع@@ 178
بناء 178
عاد@@ 178
نشاط 178
وائل 178
يار 178
٧ 178
297 177
Gen@@ 177
occo 177
si@@ 177
الظ@@ 177
1.1 176
246 176
258 176
281 176
295 176
Me@@ 176
Or@@ 176
ecture 176
yr@@ 176
آذربائی@@ 176
السل@@ 176
بلاد 176
226 175
278 175
306 175
307 175
Autonom@@ 175
qi 175
ahr@@ 174
ain 174
au@@ 174
باف@@ 174
بوم@@ 174
تت@@ 174
صار@@ 174
فتار 174
٦ 174
ﮍ@@ 174
ﺏ 174
179 173
1881 173
1894 173
264 173
Go@@ 173
Q 173
Ta@@ 173
and@@ 173
ber@@ 173
iv@@ 173
ore 173
البحر 173
بذ@@ 173
بك@@ 173
چیئر@@ 173
کوز 173
2.0 172
266 172
312 172
Airlines 172
Har@@ 172
ish@@ 172
uy@@ 172
المط@@ 172
ريك 172
٨@@ 172
1871 171
1902 171
325 171
Bas@@ 171
Kingdom 171
ach@@ 171
section 171
ָ@@ 171
استن@@ 171
كار 171
٤ 171
236 170
294 170
31.@@ 170
Tar@@ 170
Ver@@ 170
Voivodeship 170
أبو 170
بجانب 170
قب 170
نى 170
46.@@ 169
Mah@@ 169
ek@@ 169
har@@ 169
غرب 169
كم 169
٧@@ 169
ٹیکس@@ 169
1903 168
229 168
267 168
311 168
AD 168
Bi@@ 168
En@@ 168
In 168
She@@ 168
administrative 168
az 168
iy@@ 168
العمل 168
ديا 168
صلاحی@@ 168
فاض@@ 168
پریفی@@ 168
ہیپ@@ 168
1815 167
1887 167
289 167
IS@@ 167
ek 167
ola 167
par@@ 167
تداد 167
تعلی@@ 167
مم 167
پرچ@@ 167
ہاش@@ 167
1.7 166
276 166
36,@@ 166
als 166
han 166
iz@@ 166
بحی@@ 166
سك 166
شه@@ 166
٥@@ 166
Is@@ 165
افظ 165
جسم@@ 165
ساچوسٹس 165
وآ@@ 165
ّم 165
ﻄ@@ 165
1.8 164
1884 164
261 164
296 164
365 164
410 164
Ex@@ 164
Mir@@ 164
ara 164
التف@@ 164
الواق@@ 164
الوقت 164
تها 164
عاز@@ 164
عود 164
فوق 164
چیس 164
298 163
DNA 163
Lower 163
Wisconsin 163
ati@@ 163
احترا@@ 163
الح 163
بشر@@ 163
تين 163
شير 163
محر@@ 163
1.3 162
237 162
282 162
309 162
Ber@@ 162
England 162
العزيز 162
جيم@@ 162
حفا@@ 162
1.4 161
2.4 161
Arch@@ 161
Mi@@ 161
a.@@ 161
mar@@ 161
province 161
ר@@ 161
جاج 161
ربي 161
كت@@ 161
وير 161
يوان 161
ﮮ 161
2.1 160
2.8 160
287 160
Ah@@ 160
Ru@@ 160
ence 160
hi@@ 160
local 160
ru@@ 160
tri@@ 160
إ@@ 160
لاك 160
مرك@@ 160
ويك@@ 160
کانگری@@ 160
0.7 159
1879 159
850 159
East 159
ha@@ 159
ho@@ 159
ازات 159
حف 159
سعو@@ 159
سيل 159
سیال@@ 159
نه@@ 159
والي 159
يش 159
---- 158
274 158
321 158
Az@@ 158
Le 158
River 158
ey@@ 158
ographic 158
توان@@ 158
ثلاث@@ 158
خلي@@ 158
شخصی@@ 158
عاً 158
يشن 158
ٌ@@ 158
8.5 157
Sey@@ 157
Su@@ 157
aire 157
has 157
ma 157
البلد 157
فرسن 157
قبائ@@ 157
كاري 157
وه@@ 157
2500 156
Lo@@ 156
eb@@ 156
ex@@ 156
its 156
ּ@@ 156
غير 156
1886 155
1891 155
aux 155
dis@@ 155
ent@@ 155
type 155
מ@@ 155
تك@@ 155
حضر 155
ره 155
ريل 155
فرز@@ 155
قضاء 155
میکسی@@ 155
ويت 155
يرو 155
ﺼ@@ 155
313 154
460 154
Mohammad 154
Mos@@ 154
ica 154
بازن@@ 154
سوخ 154
كيا 154
ويلز 154
் 154
333 153
375 153
Her@@ 153
Islands 153
were 153
اريو 153
بيت 153
جوان@@ 153
رين@@ 153
عیل 153
يد@@ 153
1864 152
6000 152
Pal@@ 152
People 152
اختی@@ 152
فوف 152
نقص 152
وجد 152
وح 152
0.8 151
1856 151
1885 151
Ph@@ 151
Ri@@ 151
ill@@ 151
per@@ 151
خول 151
ساع@@ 151
ضعف 151
كوي@@ 151
1813 150
3- 150
308 150
316 150
317 150
334 150
390 150
Shu@@ 150
adi@@ 150
eg@@ 150
É@@ 150
عي 150
هن 150
کابی@@ 150
ﻀ@@ 150
1814 149
324 149
Gr@@ 149
Mac@@ 149
pi@@ 149
ę@@ 149
تفاعل 149
طاق 149
عشر 149
304 148
315 148
Mississippi 148
able 148
gu@@ 148
ille 148
ter@@ 148
بني 148
تبا@@ 148
خص 148
زات 148
صاد@@ 148
ماً 148
ٔ@@ 148
٨ 148
32,@@ 147
Al 147
Po@@ 147
Un@@ 147
country 147
ile 147
this 147
الآ@@ 147
حو 147
ریجن@@ 147
عند@@ 147
لوے 147
٬ 147
ۡ 147
1850 146
480 146
787 146
CO@@ 146
Germain 146
ley 146
الدر@@ 146
الرجال 146
ذت 146
رقام 146
مقاب@@ 146
نفس@@ 146
680 145
Gol@@ 145
Mas@@ 145
Shah@@ 145
اده 145
بوت 145
تقد 145
ده@@ 145
سوق 145
فاس 145
ماني 145
هر@@ 145
ڙ@@ 145
0.5 144
1.9 144
520 144
AR@@ 144
BC 144
Cy@@ 144
J 144
ba@@ 144
era 144
́ 144
ؔ@@ 144
رق 144
سكو 144
1889 143
314 143
322 143
323 143
ama 143
con@@ 143
state 143
أبي 143
البي@@ 143
العالم@@ 143
سليمان 143
لص@@ 143
چوس@@ 143
← 143
1893 142
39,@@ 142
Ad@@ 142
IN@@ 142
York 142
gen@@ 142
ot 142
الشر@@ 142
بير 142
بيل 142
ٍ@@ 142
4.2 141
Hu@@ 141
Pro@@ 141
bar@@ 141
ou 141
sp@@ 141
بيب 141
داع@@ 141
طرت 141
عجائ@@ 141
ولت 141
يوس 141
1867 140
332 140
Gar@@ 140
State 140
im 140
mo@@ 140
ory 140
ارجن@@ 140
انٹرو@@ 140
ذن 140
1888 139
440 139
For@@ 139
Ku@@ 139
Mol@@ 139
Pi@@ 139
ge 139
ran@@ 139
ta@@ 139
א@@ 139
أن 139
اتل 139
الثق@@ 139
بير@@ 139
ةً 139
شعاع 139
عة 139
ہتھی@@ 139
110@@ 138
Ger@@ 138
Parish 138
ca 138
chi 138
der 138
government 138
not 138
style 138
شرات 138
فاص@@ 138
كلارك 138
منح@@ 138
٩ 138
40,@@ 137
7.5 137
UN@@ 137
ale 137
do 137
pl@@ 137
كام 137
مندر@@ 137
نب 137
يلي@@ 137
1700 136
48.@@ 136
Far@@ 136
Has@@ 136
Nebraska 136
Shar@@ 136
U.S. 136
com@@ 136
end 136
عقب 136
وتق@@ 136
وني@@ 136
335 135
38,@@ 135
381 135
45.@@ 135
Str@@ 135
^ 135
ite 135
ut@@ 135
ys@@ 135
اعتم@@ 135
الآثار 135
رونی 135
غار@@ 135
غل 135
مالك 135
گھن@@ 135
ﭽ@@ 135
ﻑ 135
ﻫ@@ 135
0.6 134
ania 134
ator 134
do@@ 134
mon@@ 134
str@@ 134
ə@@ 134
ريو 134
سري 134
ينز 134
پنس@@ 134
র@@ 134
345 133
395 133
560 133
AS@@ 133
Indian 133
Sol@@ 133
hu@@ 133
ment 133
uk@@ 133
world 133
تناز@@ 133
ديم 133
مینیا 133
ﭩ@@ 133
Ac@@ 132
Cal@@ 132
Moh@@ 132
ast@@ 132
dan 132
den 132
ette 132
gr@@ 132
rural 132
son 132
اوي 132
ايا 132
اکیڈ@@ 132
كتب 132
وأ@@ 132
يف@@ 132
318 131
336 131
354 131
44,@@ 131
47.@@ 131
El@@ 131
Ham@@ 131
Lan@@ 131
Santa 131
Tal@@ 131
Val@@ 131
del 131
ku@@ 131
ó@@ 131
ש@@ 131
المذ@@ 131
المه@@ 131
تحمل 131
رضي 131
سوسائ@@ 131
عليه 131
كوك 131
338 130
Sau@@ 130
field 130
states 130
تز 130
ساء 130
-- 129
1849 129
20,000 129
45,@@ 129
Ali@@ 129
College 129
John 129
Sub@@ 129
mad@@ 129
كاون@@ 129
كوك@@ 129
موا 129
ينو 129
ٗ@@ 129
Chi@@ 128
Li@@ 128
Ser@@ 128
ali@@ 128
ano 128
bu@@ 128
our 128
si 128
ś@@ 128
تعليم 128
وسي@@ 128
--@@ 127
1858 127
49.@@ 127
570 127
8000 127
Korea 127
est@@ 127
ל@@ 127
الرؤ@@ 127
انگری@@ 127
حول 127
دير 127
سيا 127
كير@@ 127
لاق 127
ملائی@@ 127
نص 127
1840 126
540 126
Av@@ 126
Bur@@ 126
CA@@ 126
CC 126
Gal@@ 126
aj 126
ao 126
cities 126
ni 126
ְ@@ 126
ادائی@@ 126
العصر 126
بارات 126
بكر 126
تمر 126
غرا@@ 126
كول 126
متز@@ 126
ٽ@@ 126
1873 125
319 125
331 125
337 125
355 125
5.5 125
Ab 125
Laurent 125
So@@ 125
ens 125
ess 125
he 125
inter@@ 125
ita 125
mi@@ 125
net@@ 125
ؑ@@ 125
اه 125
فیڈری@@ 125
مقتل 125
ਰ@@ 125
ﮫ 125
1300 124
3.3 124
530 124
Kur@@ 124
ant@@ 124
ard@@ 124
ations 124
jan 124
pa@@ 124
ve@@ 124
ב@@ 124
المخت@@ 124
تري@@ 124
غور@@ 124
معرض 124
0.2 123
1861 123
356 123
AM@@ 123
Bor@@ 123
He@@ 123
Time 123
elle 123
org 123
ul 123
ה@@ 123
بيع 123
ريم 123
عين 123
مجھ@@ 123
مراجع 123
والق@@ 123
گفت@@ 123
6.5 122
640 122
Lab@@ 122
Pref@@ 122
ane 122
division 122
end@@ 122
ה 122
ازت 122
اویر 122
خصائص 122
فرنس 122
1875 121
AN@@ 121
Ba@@ 121
Lah@@ 121
ann@@ 121
ign@@ 121
ist@@ 121
sa 121
ti 121
uch@@ 121
براون 121
زين 121
0.3 120
000@@ 120
1804 120
490 120
Loire 120
ja 120
object 120
om 120
tes 120
اضي 120
ةٍ 120
روج 120
طراز 120
كاؤن@@ 120
كات@@ 120
3,000 119
48,@@ 119
Shah 119
include 119
ome 119
tics 119
سلک 119
قفق@@ 119
يول@@ 119
﻿ 119
3.1 118
343 118
Em@@ 118
Hil@@ 118
bo@@ 118
ess@@ 118
× 118
بعنوان 118
جين@@ 118
فري 118
كين 118
لما 118
مارس 118
ٴ@@ 118
Ha@@ 117
Sel@@ 117
ath@@ 117
ative 117
ford 117
ion 117
السع@@ 117
بقاء 117
ماتح@@ 117
ﺨ@@ 117
1400 116
1839 116
1872 116
At@@ 116
Lar@@ 116
Sur@@ 116
ais 116
cr@@ 116
ell@@ 116
eng@@ 116
go@@ 116
her@@ 116
lar 116
ular 116
المز@@ 116
النج@@ 116
ضي 116
عبر@@ 116
نك@@ 116
ّن 116
ﺲ 116
￼ 116
1600 115
99.@@ 115
Bu@@ 115
Ra@@ 115
ji@@ 115
ost 115
so@@ 115
ִ@@ 115
المقد@@ 115
اني@@ 115
انيا 115
بالم@@ 115
بلي@@ 115
جزئ@@ 115
راض@@ 115
غي@@ 115
ﺿ@@ 115
1865 114
It 114
Kor@@ 114
Poland 114
Si@@ 114
ba 114
system 114
ym@@ 114
ères 114
ائق 114
الاد@@ 114
ثاني 114
كيمي@@ 114
نزدی@@ 114
نفا@@ 114
کاروب@@ 114
ݨ 114
ਾ@@ 114
་ 114
ﻏ@@ 114
ﻱ 114
IC@@ 113
Lin@@ 113
Russia 113
arg@@ 113
sk 113
جغرا@@ 113
جمي@@ 113
خطر 113
ساتھ@@ 113
قار 113
ومي 113
يه@@ 113
ﺅ 113
1.0 112
386 112
Cas@@ 112
Now@@ 112
ates 112
jpg 112
trans@@ 112
بم@@ 112
ریلو@@ 112
ساف@@ 112
صدي@@ 112
قري@@ 112
قصص 112
্ 112
0.1 111
470 111
630 111
999 111
ada 111
department 111
ency 111
ey 111
hir 111
lam@@ 111
ly@@ 111
me 111
ng@@ 111
ءت 111
استف@@ 111
القص@@ 111
بيد 111
دائرة 111
عقاب 111
فين@@ 111
− 111
1828 110
1859 110
1862 110
1883 110
6,000 110
Aub@@ 110
Hasan 110
Kam@@ 110
Sy@@ 110
arr@@ 110
ata 110
bl@@ 110
pe@@ 110
uv@@ 110
المخ@@ 110
المقابل 110
باح@@ 110
خرج 110
زیز 110
فح@@ 110
مناصب 110
مه 110
1838 109
4- 109
4.0 109
46,@@ 109
Bah@@ 109
IM@@ 109
Lake 109
No@@ 109
Peru 109
air@@ 109
osis 109
people 109
res@@ 109
vi@@ 109
ès 109
اہب 109
بوي@@ 109
رك 109
صوت 109
عيل 109
Cl@@ 108
IV 108
Nord 108
UTC 108
car@@ 108
che 108
ets 108
ą@@ 108
الثاني 108
بوب 108
صندوق 108
لد@@ 108
وكي 108
يق@@ 108
1832 107
1853 107
50,@@ 107
Ban@@ 107
Fer@@ 107
Georges 107
Lam@@ 107
RE@@ 107
ish 107
languages 107
their 107
yg@@ 107
ˈ@@ 107
ַ@@ 107
الشع@@ 107
تات 107
جت 107
صاص 107
صحيح 107
نساء 107
وَّ@@ 107
ية 107
ﻒ 107
1863 106
404 106
660 106
960 106
Ko@@ 106
estan 106
geograph@@ 106
gi@@ 106
have 106
istan 106
lès 106
sub@@ 106
ush@@ 106
العلا@@ 106
براء 106
فلوری@@ 106
ناہ 106
يف 106
ٹورنام@@ 106
1866 105
405 105
610 105
720 105
AL@@ 105
Beau@@ 105
Trans@@ 105
Vil@@ 105
bar 105
tu@@ 105
اللح@@ 105
بیو 105
تام 105
ته 105
تکلی@@ 105
خوا 105
سندر 105
لکھن@@ 105
والع@@ 105
ٰن 105
1806 104
49,@@ 104
510 104
Empire 104
Lu@@ 104
Maryland 104
Ni@@ 104
Paul 104
ass@@ 104
bot@@ 104
ist 104
ko 104
more 104
pur 104
use 104
ä@@ 104
الروا@@ 104
سوف 104
شك@@ 104
كون 104
وة 104
100,000 103
1826 103
1846 103
1851 103
1869 103
3.2 103
401 103
760 103
Dyn@@ 103
Julien 103
Pl@@ 103
San@@ 103
St. 103
Tom@@ 103
anti@@ 103
bi 103
cas@@ 103
mer@@ 103
ze 103
تخصص 103
ربع 103
فة 103
قوب 103
425 102
Mat@@ 102
over 102
ؤٹ 102
ادل 102
خمس 102
ميد 102
وسي 102
وقعت 102
ومع@@ 102
یکس@@ 102
ﭨ@@ 102
406 101
47,@@ 101
Bon@@ 101
Nas@@ 101
Sad@@ 101
ain@@ 101
line 101
oli 101
الاست@@ 101
النص@@ 101
انگل@@ 101
اکین 101
بوط 101
جارج@@ 101
داول 101
زال 101
″ 101
 101
1834 100
1854 100
50,000 100
620 100
Arabic 100
Bois 100
Ge@@ 100
IA@@ 100
Reg@@ 100
Stadium 100
ib@@ 100
mont 100
oma 100
ud@@ 100
wa 100
yn 100
اظ 100
البق@@ 100
الصح@@ 100
جاء 100
دة 100
دث 100
0.4 99
English 99
Nor@@ 99
Sab@@ 99
Union 99
ological 99
rah@@ 99
خل 99
رہنما@@ 99
شغل 99
گلگ@@ 99
0,0@@ 98
1831 98
LC 98
Mus@@ 98
Soci@@ 98
ean 98
ings 98
non 98
pol@@ 98
sc@@ 98
ut 98
you 98
تناول 98
جديد 98
ريز 98
ریاست@@ 98
ضي@@ 98
لك 98
ماي@@ 98
مشار@@ 98
کھوں 98
1821 97
1835 97
4,000 97
Ash@@ 97
Min@@ 97
RA@@ 97
SA@@ 97
alist 97
ire 97
lat@@ 97
tan@@ 97
uz@@ 97
way 97
ye@@ 97
الشمس 97
تصر 97
توم 97
دري 97
دز 97
ساك@@ 97
وزير 97
1790 96
1818 96
1820 96
1845 96
COVID 96
Mad@@ 96
Rom@@ 96
bas@@ 96
ju@@ 96
owo 96
population 96
اة 96
ديل 96
زه 96
ولاد 96
ٕ@@ 96
ۖ 96
1874 95
Ang@@ 95
Land@@ 95
Now 95
Ow@@ 95
Pan@@ 95
Pol@@ 95
also 95
appe@@ 95
fac@@ 95
ura 95
which 95
جزء 95
طيف 95
كوا@@ 95
يمي 95
1809 94
1868 94
415 94
950 94
Council 94
Tri@@ 94
adi 94
alism 94
asty 94
single 94
افع 94
الجز@@ 94
شمل 94
قاء 94
قوط 94
لج@@ 94
هـ 94
وجود@@ 94
وزي@@ 94
ٹاؤن@@ 94
1799 93
7000 93
Im@@ 93
Island 93
Sav@@ 93
aki 93
fi@@ 93
iki@@ 93
ise 93
od 93
š@@ 93
ابن@@ 93
الجرا@@ 93
الفار@@ 93
المُ@@ 93
انکارپو@@ 93
تقد@@ 93
وتي 93
وذ@@ 93
₹ 93
ﮪ 93
978 92
AT@@ 92
Haute 92
SA 92
Tang 92
Western 92
ting 92
up@@ 92
ë@@ 92
المغرب 92
جہاز@@ 92
حدث 92
مسا@@ 92
هل 92
ولون 92
يزيد 92
ি@@ 92
001 91
3.0 91
30,000 91
Bad@@ 91
Do@@ 91
Games 91
Lag@@ 91
Mag@@ 91
Tak@@ 91
can 91
col@@ 91
time 91
va 91
ائص 91
افز@@ 91
حضرت@@ 91
حيات 91
شخصيات 91
لى 91
موسي@@ 91
نکھ 91
ڊ@@ 91
Borough 90
Dow@@ 90
Sam@@ 90
Tur@@ 90
ell 90
ham@@ 90
ke@@ 90
mir 90
ole 90
yan 90
التص@@ 90
تدار 90
صُ@@ 90
قوا@@ 90
كيم 90
ليون 90
متر@@ 90
پنسلو@@ 90
ਸ@@ 90
Cr@@ 89
Great 89
History 89
Il@@ 89
Islamic 89
Ju@@ 89
Lac@@ 89
OS 89
Punj@@ 89
US 89
enc@@ 89
ens@@ 89
ep@@ 89
gar@@ 89
ik 89
ke 89
lements 89
ors 89
ous@@ 89
ue 89
Étienne 89
ée 89
ō@@ 89
تنظيم 89
لاه@@ 89
️ 89
1100 88
1855 88
Ak@@ 88
DB 88
ES@@ 88
Kr@@ 88
Lou@@ 88
Ou@@ 88
Pas@@ 88
System 88
TV 88
Wi@@ 88
ability 88
dr@@ 88
hal@@ 88
html 88
lah 88
most 88
ran 88
sion 88
space 88
تیب 88
ظروف 88
مجتمع 88
یروش@@ 88
1,500 87
1789 87
737 87
Bay@@ 87
Can@@ 87
Ray@@ 87
US@@ 87
aye 87
ind@@ 87
ino 87
life 87
nes 87
number 87
oph@@ 87
pedi@@ 87
sett@@ 87
su@@ 87
ts@@ 87
war 87
ادیث 87
ارتبا@@ 87
رًا 87
غام@@ 87
ماري 87
مالي 87
ناک@@ 87
نه 87
ਦ@@ 87
1801 86
1847 86
580 86
7,000 86
André 86
Bak@@ 86
Bey@@ 86
Spain 86
nor@@ 86
ren@@ 86
sa@@ 86
yk@@ 86
נ@@ 86
اعتب@@ 86
البشر 86
الحديث 86
بعض@@ 86
جعل 86
جين 86
صنا@@ 86
صي@@ 86
़ 86
ক@@ 86
ﭙ@@ 86
ﯽ@@ 86
1837 85
300@@ 85
64,@@ 85
Deh@@ 85
Gor@@ 85
Mer@@ 85
Romania 85
VI 85
act 85
ae 85
cs 85
inn@@ 85
mu@@ 85
ny 85
tor@@ 85
آندھ@@ 85
أن@@ 85
تؤ@@ 85
ثا 85
خليج 85
دفع 85
وتن@@ 85
1810 84
1817 84
Elec@@ 84
Er@@ 84
Jon@@ 84
Muhammad 84
Mur@@ 84
NS@@ 84
Pu@@ 84
SE@@ 84
Valley 84
arch@@ 84
ast 84
ault 84
der@@ 84
ert 84
ham 84
kar@@ 84
lin@@ 84
oth@@ 84
parish 84
st 84
البل@@ 84
بالت@@ 84
بض 84
سير 84
سيف 84
فرانسي@@ 84
مًا 84
نين 84
هو 84
وبي 84
ੀ 84
ﻊ 84
1829 83
1842 83
8,000 83
Du@@ 83
Est 83
House 83
Hungary 83
Jan@@ 83
Ji@@ 83
Las 83
PO@@ 83
Res@@ 83
fl@@ 83
tic@@ 83
Ś@@ 83
إلى 83
المرا@@ 83
ديه 83
كث@@ 83
مى 83
ميل 83
وعمل 83
1520 82
1844 82
AC 82
Dis@@ 82
Dr@@ 82
Mu@@ 82
Tw@@ 82
all@@ 82
apo@@ 82
ena 82
io 82
min@@ 82
s.@@ 82
we@@ 82
will 82
á 82
Ł@@ 82
ע@@ 82
حدگی 82
ديد 82
طع 82
كوب@@ 82
محق@@ 82
مخد@@ 82
منتج 82
مني 82
1807 81
AB@@ 81
Hal@@ 81
Kah@@ 81
La@@ 81
Nar@@ 81
Pe@@ 81
RNA 81
Ram@@ 81
ST@@ 81
Sp@@ 81
Var@@ 81
ach 81
core 81
countries 81
fer@@ 81
ip 81
oh@@ 81
rate 81
ub@@ 81
width 81
الاغ@@ 81
المل@@ 81
تش 81
ريت 81
زيل 81
سى 81
طلق 81
كاب@@ 81
مجرد 81
يحي@@ 81
يكي 81
ﮈ@@ 81
ﺀ 81
ﺯ 81
ﻈ@@ 81
512 80
Ay@@ 80
El 80
Fo@@ 80
Road 80
Ti@@ 80
class 80
form 80
had 80
his 80
hou 80
ko@@ 80
ness 80
net 80
two 80
uc@@ 80
ć 80
č@@ 80
اتذ@@ 80
استط@@ 80
الجما@@ 80
بة 80
سرائ@@ 80
لوك 80
ﷲ@@ 80
Bab@@ 79
DA 79
Des@@ 79
Lat@@ 79
Tor@@ 79
VII 79
ath 79
ds 79
electr@@ 79
ography 79
row 79
tical 79
une 79
احت 79
البرو@@ 79
تاد 79
تکمی@@ 79
طلاح 79
عرص@@ 79
مباش@@ 79
مدي@@ 79
ਿ@@ 79
ﭦ 79
1707 78
CEO 78
Netherlands 78
Rah@@ 78
anc@@ 78
ki@@ 78
ories 78
poly@@ 78
ten@@ 78
they 78
tions 78
ابق 78
اكت@@ 78
الجزائ@@ 78
المف@@ 78
امز 78
بالن@@ 78
بدا@@ 78
بوم 78
تست@@ 78
تعلم 78
توقف 78
راجستھ@@ 78
فلا 78
قاط@@ 78
لاند 78
لقت 78
مؤلف@@ 78
وسر 78
ব@@ 78
․ 78
🔹 78
1526 77
A. 77
ER@@ 77
cell 77
dar@@ 77
dec@@ 77
ement 77
ira 77
ost@@ 77
ser@@ 77
settlement 77
sive 77
urdu 77
well 77
zi@@ 77
â@@ 77
ת 77
البح@@ 77
الملك 77
النس@@ 77
عند 77
فط@@ 77
كلو@@ 77
مارك 77
ميت 77
ميم 77
هي@@ 77
ينا@@ 77
ন 77
ﮌ@@ 77
ﺫ@@ 77
Gir@@ 76
Hill 76
Kas@@ 76
Quebec 76
Sor@@ 76
achi 76
ago 76
ids 76
onne 76
oux 76
quot 76
til@@ 76
الإ@@ 76
الإمام 76
باست@@ 76
حمل@@ 76
دًا 76
طبي@@ 76
ويد 76
1770 75
1819 75
American 75
Burkina 75
Khar@@ 75
Les 75
ME@@ 75
MO@@ 75
RC 75
Sweden 75
To@@ 75
begin 75
eli@@ 75
esh 75
function 75
hol@@ 75
illy 75
iti@@ 75
ner 75
per 75
ps 75
tro@@ 75
wi@@ 75
ég@@ 75
الواقع 75
برش@@ 75
ترقی@@ 75
حلول 75
روي@@ 75
ظل 75
كيني@@ 75
ومات 75
ਤ@@ 75
1795 74
1824 74
25,000 74
Air@@ 74
British 74
CA 74
Faso 74
Kan@@ 74
Sc@@ 74
Shir@@ 74
Vi@@ 74
WT@@ 74
ains 74
ap 74
ect 74
ila 74
ord@@ 74
public 74
ties 74
£ 74
ī@@ 74
البص@@ 74
الشيخ 74
بيان 74
تاريخ@@ 74
طري@@ 74
فات@@ 74
قائق 74
قام@@ 74
قاً 74
مشک@@ 74
وط 74
ۂ@@ 74
1453 73
15,000 73
1783 73
1836 73
451 73
911 73
CH@@ 73
Fal@@ 73
My@@ 73
XI 73
agne 73
ase 73
och@@ 73
tra 73
ֹ@@ 73
ارتفاع 73
ازب@@ 73
التن@@ 73
بب 73
نساس 73
ڈیز@@ 73
۞ 73
ﮯ@@ 73
1803 72
1833 72
501 72
Bro@@ 72
Ir@@ 72
Mak@@ 72
Seine 72
`@@ 72
ami 72
amm@@ 72
ars 72
ati 72
for@@ 72
ft 72
list 72
national 72
ora 72
pp@@ 72
pro@@ 72
ubi 72
und@@ 72
van 72
án 72
ם 72
اختبار 72
افي 72
التار@@ 72
السلا@@ 72
جاد 72
خوس@@ 72
ريد 72
سبع 72
سیع 72
غوا@@ 72
٘ 72
1793 71
500@@ 71
Colombia 71
George 71
IO@@ 71
Jam@@ 71
Maurice 71
Na@@ 71
Nag@@ 71
Portugal 71
Sz@@ 71
This 71
ade 71
awa 71
aza 71
bat 71
ebo@@ 71
ee 71
lands 71
ok 71
out 71
tive 71
uri 71
ā 71
أس@@ 71
السي@@ 71
النفس 71
اله 71
ترك@@ 71
تصف 71
جورج 71
ستي@@ 71
مراء 71
مرت 71
نشر@@ 71
نيل 71
ولاية 71
يرا@@ 71
ڏ@@ 71
ڙ 71
10000 70
1788 70
Asian 70
Azerbaijan 70
Bat@@ 70
European 70
Khal@@ 70
Kol@@ 70
Lang@@ 70
Por@@ 70
Sch@@ 70
Sud 70
Vol@@ 70
berg 70
book 70
ene 70
ht 70
ier@@ 70
lan@@ 70
other 70
ri 70
tig@@ 70
ud 70
und 70
إل@@ 70
سليم 70
غالبًا 70
مشتر@@ 70
وتر@@ 70
وريا 70
وفي 70
ٶ 70
1792 69
1843 69
1852 69
Bou@@ 69
Cer@@ 69
Company 69
Division 69
Egypt 69
Hey@@ 69
Islam 69
Koh@@ 69
Meh@@ 69
Michel 69
Tu@@ 69
ag 69
ask@@ 69
ating 69
ban 69
co 69
don 69
ere 69
historic 69
ington 69
onde 69
wo 69
wood 69
yl@@ 69
zi 69
السلط@@ 69
تجاو@@ 69
تقدم 69
جوز 69
حي 69
دخول 69
عاب 69
كمال 69
ليو 69
ويلي@@ 69
ﮎ 69
ﻖ 69
0.0 68
1791 68
1825 68
3D 68
AK@@ 68
Airways 68
Cre@@ 68
atic 68
esia 68
etic 68
ga 68
if@@ 68
sous 68
table 68
var 68
الآخر 68
اللغ@@ 68
النوع 68
جغرافی@@ 68
خف@@ 68
قبال 68
مقاط@@ 68
وصل 68
ومي@@ 68
وى 68
يب@@ 68
ې 68
ー@@ 68
1762 67
1776 67
1805 67
200,000 67
3500 67
AI@@ 67
AM 67
Ap@@ 67
Bri@@ 67
CC@@ 67
Denis 67
Der@@ 67
Diz@@ 67
Gur@@ 67
Human 67
Hy@@ 67
IX 67
Kus@@ 67
Metropolitan 67
PA 67
RO@@ 67
SO@@ 67
School 67
Te@@ 67
astr@@ 67
burg 67
enne 67
ents 67
esis 67
ies 67
ine@@ 67
ines 67
mad 67
ov 67
place 67
tel@@ 67
tier 67
ung@@ 67
we 67
who 67
ys 67
الد 67
ایوار@@ 67
تأ@@ 67
فيت 67
كير 67
لة 67
مبي@@ 67
يكو 67
يمي@@ 67
਼ 67
ﺝ 67
1808 66
1827 66
Ahmad 66
Ben@@ 66
CD 66
Châ@@ 66
Dam@@ 66
Ouest 66
War 66
We@@ 66
William 66
Wor@@ 66
amb@@ 66
any 66
cri@@ 66
eng 66
ente 66
gene 66
group 66
ili@@ 66
oy@@ 66
up 66
wor@@ 66
ן 66
ئين 66
اتذہ 66
البط@@ 66
القاد@@ 66
الیٰ 66
شہن@@ 66
فظ 66
كوريا 66
مركز 66
نك 66
ورك 66
ۓ@@ 66
ﻐ@@ 66
@ 65
Agu@@ 65
Bl@@ 65
Bre@@ 65
Cau@@ 65
Dom@@ 65
Don@@ 65
Eastern 65
Mel@@ 65
Mil@@ 65
Oc@@ 65
Sha@@ 65
Vis@@ 65
action 65
ality 65
arrondissement 65
aur@@ 65
aya 65
constituency 65
ich@@ 65
ight 65
onlyinclude 65
than 65
tis@@ 65
try 65
أح@@ 65
برز 65
دول 65
ديو 65
غالب@@ 65
فير@@ 65
قوق 65
يث 65
ٱ@@ 65
ﺬ@@ 65
AN 64
Aer@@ 64
Bank 64
Chen@@ 64
Chinese 64
Cricket 64
Cro@@ 64
Development 64
Louis 64
Mand@@ 64
Sil@@ 64
Upper 64
aine 64
alu 64
ans@@ 64
arab@@ 64
dar 64
ding 64
eter 64
eu@@ 64
hr@@ 64
ini 64
ks 64
lar@@ 64
sar@@ 64
sch@@ 64
ski 64
ד@@ 64
الموس@@ 64
الموض@@ 64
النبي 64
جرت 64
جزر 64
طفل 64
غان@@ 64
فلسطين 64
كيل 64
موال@@ 64
ناك 64
هد 64
يمز 64
يه 64
ম@@ 64
ਹ@@ 64
ி@@ 64
ﭔ@@ 64
.org 63
1740 63
1763 63
1774 63
1798 63
1841 63
747 63
DF 63
Fi@@ 63
Grand 63
L4 63
Pen@@ 63
Ukraine 63
Washington 63
bad 63
ea 63
fe@@ 63
inf@@ 63
jiang 63
king 63
men 63
mut@@ 63
my 63
ona 63
pa 63
ry 63
uk 63
would 63
í 63
ż@@ 63
ائح 63
اتصال 63
الحفاظ 63
بلوچ@@ 63
تري 63
حاق 63
حدو@@ 63
مؤس@@ 63
مجال 63
। 63
স@@ 63
AS 62
Carolina 62
Champ@@ 62
Dec@@ 62
Gh@@ 62
IC 62
James 62
Kon@@ 62
Maur@@ 62
Missouri 62
NH 62
NO@@ 62
Sim@@ 62
Women 62
ave 62
bur@@ 62
cu@@ 62
des@@ 62
din 62
ern@@ 62
ff@@ 62
fr@@ 62
gan 62
ider 62
iss@@ 62
out@@ 62
port 62
privileg@@ 62
tery 62
war@@ 62
ə 62
أهل 62
بالس@@ 62
بموجب 62
تين@@ 62
ذي 62
شعب 62
مراج@@ 62
وعات 62
ونات 62
چوسٹس 62
◼ 62
ﺛ@@ 62
ﺦ 62
1519 61
1540 61
400@@ 61
App@@ 61
Baba 61
Bay 61
Bengal 61
Chal@@ 61
Cur@@ 61
Index 61
Kash@@ 61
MI@@ 61
Northern 61
Pri@@ 61
Saf@@ 61
alm@@ 61
bers 61
but 61
cel@@ 61
cl@@ 61
dia 61
elles 61
eri 61
ix 61
mal@@ 61
mer 61
pe 61
pref@@ 61
set 61
via 61
xi@@ 61
å@@ 61
المدر@@ 61
تنظ@@ 61
جة 61
جري@@ 61
كش 61
هما 61
ু@@ 61
ਮ@@ 61
1750 60
1765 60
Af@@ 60
Arab 60
Chile 60
Gi@@ 60
Hor@@ 60
Marie 60
Naz@@ 60
Pak@@ 60
Party 60
Sultan 60
ages 60
anner 60
aska 60
atr@@ 60
bal 60
court 60
ef@@ 60
ences 60
ez 60
first 60
following 60
ida 60
land@@ 60
ng 60
nucle@@ 60
oa 60
ock 60
site 60
so 60
ther@@ 60
tur@@ 60
za@@ 60
­ 60
أخ@@ 60
إن 60
ادئ 60
الموا@@ 60
باي@@ 60
رص@@ 60
سرگو@@ 60
عنه 60
ينيا 60
ّف 60
ڈیمو@@ 60
া 60
ਾ 60
1780 59
AD@@ 59
Bonn@@ 59
Dur@@ 59
Fre@@ 59
Ground 59
IE@@ 59
IT@@ 59
Is 59
Mes@@ 59
Mot@@ 59
PS 59
Wal@@ 59
acid 59
aff@@ 59
ational 59
azi 59
cells 59
emb@@ 59
eth@@ 59
ick@@ 59
lan 59
les@@ 59
million 59
only 59
osh@@ 59
ted 59
ug@@ 59
ér@@ 59
ת@@ 59
أم@@ 59
اعت@@ 59
البرا@@ 59
الحسين 59
الفض@@ 59
سه@@ 59
طاء 59
ميني@@ 59
هي 59
واسع 59
وقد 59
يوم@@ 59
আ@@ 59
ল@@ 59
1699 58
1718 58
1761 58
1811 58
CI@@ 58
Cou@@ 58
Dor@@ 58
General 58
Gulf 58
IS 58
KV@@ 58
Lav@@ 58
Pon@@ 58
Pot@@ 58
Power 58
Pre@@ 58
Sak@@ 58
Saône 58
St 58
TE@@ 58
Ter@@ 58
ally 58
ame@@ 58
cor@@ 58
istic 58
kan 58
ond@@ 58
ros@@ 58
team 58
tor 58
ux 58
دى 58
ذكر 58
روي 58
كتاب@@ 58
لمان 58
هار 58
هذ@@ 58
يح@@ 58
ো@@ 58
ਕ@@ 58
ਲ@@ 58
000,000 57
1648 57
1772 57
1802 57
Ari@@ 57
Arrondissement 57
Au@@ 57
Bil@@ 57
Cape 57
Croix 57
Garonne 57
Green 57
King 57
Lim@@ 57
M. 57
Mexico 57
Nigeria 57
Sham@@ 57
Soviet 57
acc@@ 57
cur@@ 57
ew@@ 57
fre@@ 57
ide 57
ium 57
let 57
mis@@ 57
sur@@ 57
the@@ 57
uni@@ 57
~ 57
él@@ 57
ū@@ 57
כ@@ 57
أحمد 57
أو 57
البلاد 57
العق@@ 57
وجہد 57
ياس 57
يتي@@ 57
يوب 57
୍ 57
్ 57
1796 56
AP@@ 56
Asia 56
CP 56
Cam@@ 56
Coast 56
France 56
French 56
Hel@@ 56
LO@@ 56
Life 56
PC@@ 56
Rec@@ 56
Sir 56
Street 56
ana@@ 56
aran 56
aro@@ 56
ax@@ 56
been 56
dynasty 56
ih@@ 56
ire@@ 56
kr@@ 56
pu@@ 56
san 56
web 56
xi 56
zar 56
ń@@ 56
ֶ@@ 56
الشرق 56
المرتب@@ 56
انیف 56
بالق@@ 56
بمع@@ 56
راول@@ 56
ريق 56
زيز 56
سيدي 56
موسى 56
وات@@ 56
್ 56
ﮟ 56
1660 55
1720 55
1775 55
1816 55
1822 55
250@@ 55
9000 55
A.@@ 55
Bos@@ 55
Do 55
EC@@ 55
Fl@@ 55
IA 55
ISBN 55
Lap@@ 55
Lithu@@ 55
Mam@@ 55
Rem@@ 55
Sind@@ 55
Sum@@ 55
agn@@ 55
anj@@ 55
bol@@ 55
cin@@ 55
electric 55
face 55
fication 55
fra@@ 55
ho 55
ites 55
ization 55
lier 55
low 55
mus@@ 55
ney 55
of@@ 55
ori 55
sac 55
su 55
vol@@ 55
ח@@ 55
פ@@ 55
اليا 55
اُر@@ 55
بالف@@ 55
سنة 55
عرض@@ 55
فى 55
قه 55
وقال 55
يين 55
ਨ@@ 55
ﺡ 55
1739 54
500,000 54
Act 54
As 54
BE 54
Beh@@ 54
Cat@@ 54
Ci@@ 54
DC 54
Est@@ 54
Je@@ 54
Liv@@ 54
Maj@@ 54
Mé@@ 54
North@@ 54
Sw@@ 54
TH@@ 54
TR@@ 54
The@@ 54
Tro@@ 54
Ul@@ 54
White 54
about 54
ack 54
ais@@ 54
ann 54
ella 54
ely 54
hem@@ 54
ier 54
money 54
ning 54
org@@ 54
ota 54
our@@ 54
schools 54
shan 54
sil 54
skie 54
ster@@ 54
tar@@ 54
اره 54
اللغات 54
النظ@@ 54
انتخ@@ 54
سینک@@ 54
طلاب 54
فين 54
مجموعات 54
محی@@ 54
مساعد 54
هنري 54
وائي 54
1570 53
1580 53
1687 53
1784 53
1823 53
Abbas 53
Anti@@ 53
Assembly 53
Baz@@ 53
Church 53
Fir@@ 53
Guinea 53
Ker@@ 53
MS 53
Mid@@ 53
Op@@ 53
Oxford 53
RI@@ 53
aa 53
acy 53
anga 53
atom@@ 53
bal@@ 53
ble 53
computer 53
data 53
date 53
els 53
energy 53
ese 53
fort 53
ima 53
ists 53
khan 53
known 53
ler@@ 53
locality 53
mag@@ 53
mun@@ 53
ow 53
pre@@ 53
rec@@ 53
res 53
second 53
ska 53
son@@ 53
tem@@ 53
vière 53
work 53
years 53
السج@@ 53
انون 53
انکارپوریٹڈ 53
خطر@@ 53
شياء 53
صدار@@ 53
غال@@ 53
غو 53
محافظة 53
ويب 53
ੰ@@ 53
市 53
ﺶ 53
1515 52
1556 52
1605 52
1683 52
1760 52
1769 52
Capital 52
Day 52
FI@@ 52
Henry 52
May@@ 52
Mer 52
R. 52
Rad@@ 52
SS 52
Shi@@ 52
Zar@@ 52
abi 52
arak 52
arm@@ 52
bat@@ 52
ber 52
cal@@ 52
eville 52
ex 52
ges 52
hid 52
ick 52
int@@ 52
lines 52
ome@@ 52
oni 52
pos@@ 52
sk@@ 52
tan 52
theory 52
tis 52
ula 52
yp@@ 52
ç@@ 52
ń 52
ارة 52
ارع 52
التز@@ 52
بك 52
بيري 52
ترك 52
لأ@@ 52
لفاء 52
معتم@@ 52
منش@@ 52
هذا 52
واخت@@ 52
ﻩ 52
1550 51
1757 51
1st 51
AT 51
America 51
Cum@@ 51
DE@@ 51
De 51
Federal 51
Florida 51
For 51
How@@ 51
Indi@@ 51
Local 51
Mem@@ 51
Mong@@ 51
Pont 51
Vir@@ 51
Xi@@ 51
alan 51
ands 51
ass 51
awn 51
background 51
bor@@ 51
bridge 51
civil 51
hy@@ 51
inal 51
mor@@ 51
nin 51
organ@@ 51
ort 51
sen@@ 51
tim@@ 51
title 51
under 51
ves 51
ón 51
إن@@ 51
القمر 51
ترال 51
حة 51
خلال 51
ديات 51
رى 51
عه 51
قاہ@@ 51
كم@@ 51
هار@@ 51
وليد 51
ন@@ 51
র 51
ﺜ@@ 51
1250 50
1492 50
1560 50
1618 50
1686 50
Ard@@ 50
Armenia 50
CE@@ 50
Camp@@ 50
D. 50
FL 50
Fu@@ 50
Government 50
Language 50
Mau@@ 50
Mc@@ 50
Neu@@ 50
Nov@@ 50
PS@@ 50
Pod@@ 50
Rev@@ 50
Sem@@ 50
Town 50
aga 50
agu@@ 50
ahi 50
aman 50
amp@@ 50
animation 50
aul@@ 50
current 50
day 50
during 50
edi@@ 50
ense 50
has@@ 50
hat@@ 50
isi@@ 50
je 50
killed 50
mat@@ 50
new 50
nica 50
old 50
oz@@ 50
phot@@ 50
power 50
them 50
thi 50
university 50
ush 50
vi 50
water 50
ː 50
Рес@@ 50
ֵ@@ 50
ائنات 50
البلدان 50
النظر 50
بالج@@ 50
تفسير 50
سلي@@ 50
سيم 50
طبق 50
فرط 50
فيد 50
مح 50
ورجی@@ 50
يج@@ 50
يع 50
க@@ 50
ﭧ 50
1721 49
1758 49
AA 49
AF 49
An 49
Centre 49
Cos@@ 49
Ed@@ 49
First 49
Ga@@ 49
Greater 49
Hab@@ 49
Hat@@ 49
IP 49
Ireland 49
Juan 49
Key@@ 49
Kuh@@ 49
Maritime 49
My 49
Nations 49
Port 49
Raj@@ 49
Red 49
Roche 49
Ros@@ 49
SH@@ 49
Sen@@ 49
UR@@ 49
Vie@@ 49
War@@ 49
against 49
ato 49
aum 49
cap@@ 49
capital 49
eo 49
ever 49
fo@@ 49
go 49
hai 49
independent 49
into 49
kin@@ 49
last 49
law 49
ler 49
lig@@ 49
lim@@ 49
link 49
mathemati@@ 49
micro@@ 49
ms 49
onal 49
qui@@ 49
reg@@ 49
ro 49
school 49
sol@@ 49
tin 49
total 49
ui 49
very 49
í@@ 49
ская 49
خطط 49
ريف 49
سجل 49
علام 49
هان 49
وفي@@ 49
يانا 49
ত@@ 49
ਸ 49
ା@@ 49
1350 48
1606 48
1650 48
1735 48
1785 48
1794 48
Aur@@ 48
Bus@@ 48
CD@@ 48
DE 48
Ful@@ 48
Group 48
IP@@ 48
Ind@@ 48
Institute 48
Kho@@ 48
LA 48
Plan@@ 48
Som@@ 48
Ste@@ 48
Zone 48
asi@@ 48
body 48
cell@@ 48
divisions 48
dy 48
engineering 48
ential 48
ff 48
gl@@ 48
han@@ 48
ichi 48
inc@@ 48
iri 48
men@@ 48
science 48
sy@@ 48
tar 48
tric 48
ty@@ 48
ung 48
wan@@ 48
yc@@ 48
½ 48
افترا@@ 48
الذي 48
برات 48
موند 48
هور 48
وائز 48
وله 48
ومنین 48
ݙ@@ 48
ে@@ 48
ਪ@@ 48
﷤ 48
ﻪ 48
1571 47
1598 47
1603 47
1746 47
1747 47
1773 47
40,000 47
Cap@@ 47
Center 47
Fr@@ 47
Hes@@ 47
Jal@@ 47
Long@@ 47
Main 47
Mey@@ 47
Muslim 47
NE@@ 47
One 47
Pap@@ 47
Phys@@ 47
Royal 47
Sin@@ 47
Singh 47
Switzerland 47
Wil@@ 47
ban@@ 47
bin@@ 47
cad@@ 47
canton 47
del@@ 47
gu 47
gues 47
igny 47
ingen 47
mi 47
ocy@@ 47
oll@@ 47
olog@@ 47
pak@@ 47
sal@@ 47
tum@@ 47
value 47
view 47
¿ 47
і@@ 47
اطر 47
الري@@ 47
النق@@ 47
انه 47
بق 47
جري 47
جعل@@ 47
ريات 47
كه 47
مخص@@ 47
مطار 47
وتص@@ 47
يق 47
ٶ@@ 47
′ 47
ﺹ 47
1620 46
1659 46
1690 46
1737 46
All 46
Asi@@ 46
Dag@@ 46
Fe@@ 46
GDP 46
Gl@@ 46
God 46
Jab@@ 46
LE@@ 46
Mari@@ 46
Pat@@ 46
Press 46
Prot@@ 46
Rab@@ 46
Sultan@@ 46
Tah@@ 46
Tre@@ 46
Vel@@ 46
Vo@@ 46
XVI 46
af 46
after 46
air 46
ales 46
article 46
aus@@ 46
century 46
cer@@ 46
cy@@ 46
cz@@ 46
das 46
down 46
fa@@ 46
flu@@ 46
hab@@ 46
munici@@ 46
ols 46
order 46
oug@@ 46
own 46
pel@@ 46
ple@@ 46
red 46
sey 46
tel 46
territ@@ 46
tors 46
ua 46
uan 46
una 46
ust 46
wan 46
ó 46
Ż@@ 46
י 46
؂ 46
الشرق@@ 46
الوث@@ 46
بالح@@ 46
فقد 46
ماك@@ 46
هب 46
ٲ@@ 46
پوت 46
ې@@ 46
ۚ 46
ਵ@@ 46
1517 45
1709 45
1777 45
1778 45
Africa 45
Association 45
B. 45
B.@@ 45
Cant@@ 45
Dev@@ 45
Div@@ 45
E. 45
Gav@@ 45
Gold 45
Gon@@ 45
IR@@ 45
Ke@@ 45
Lot 45
Pir@@ 45
Sho@@ 45
Verde 45
aba 45
ail 45
ake 45
ani@@ 45
ał@@ 45
bert 45
bury 45
ches 45
den@@ 45
eas@@ 45
eri@@ 45
eux 45
ger@@ 45
gold 45
har 45
her 45
history 45
igu@@ 45
illa 45
log@@ 45
ony 45
ping 45
point 45
some 45
tal 45
unc@@ 45
ven@@ 45
vo@@ 45
à 45
âte@@ 45
ē@@ 45
التون@@ 45
النحو 45
بيك 45
جه 45
ضع@@ 45
عيد 45
فض 45
قة 45
قًا 45
كثير 45
كلين 45
ليون@@ 45
منتق@@ 45
ميز@@ 45
والمع@@ 45
وتم@@ 45
ﻪ@@ 45
1565 44
1610 44
1622 44
1689 44
1759 44
Bridge 44
C.@@ 44
CE 44
Carroll 44
Chad 44
Congo 44
Fort 44
II@@ 44
Kat@@ 44
Las@@ 44
Lub@@ 44
M.@@ 44
Men@@ 44
Met@@ 44
Mount 44
PI@@ 44
SI 44
Sul@@ 44
You 44
ail@@ 44
anian 44
anne 44
ave@@ 44
aw 44
colspan 44
ein 44
enn@@ 44
equ@@ 44
ide@@ 44
mechan@@ 44
mes@@ 44
military 44
now 44
ont 44
orr@@ 44
programming 44
ray 44
sian 44
sky 44
uss@@ 44
year 44
ō 44
ž@@ 44
ׁ@@ 44
ק@@ 44
اخرا@@ 44
رجان 44
شاه@@ 44
شهر 44
فيل@@ 44
ੇ 44
ﮉ@@ 44
ﹰ 44
ﺰ 44
ﻇ@@ 44
ﻉ 44
� 44
1530 43
1722 43
AU 43
CG 43
Fin@@ 43
Germany 43
I.@@ 43
Iv@@ 43
Just 43
Log@@ 43
Man 43
Of 43
Paris 43
Scre@@ 43
Theory 43
Turkish 43
VIII 43
aft 43
aria 43
att@@ 43
between 43
dom 43
ear@@ 43
ec 43
ich 43
ides 43
inde@@ 43
ker 43
na@@ 43
ogne 43
ote 43
pap@@ 43
shire 43
tial 43
tiv@@ 43
uni 43
val@@ 43
wa@@ 43
± 43
ô@@ 43
ôme 43
إذا 43
الحرب 43
العام@@ 43
العد@@ 43
انستان 43
انع 43
بالر@@ 43
تداء 43
ثي 43
علان 43
غي 43
فاد@@ 43
مما 43
وء 43
وبل@@ 43
ٸ 43
کورہ 43
है 43
ੁ@@ 43
県 43
ﮓ 43
1697 42
1753 42
1756 42
Abu 42
Akh@@ 42
All@@ 42
Aut@@ 42
BR 42
C. 42
Christophe 42
Computer 42
Cour@@ 42
Cruz 42
Cup 42
Del@@ 42
Greece 42
H. 42
Highway 42
Hur@@ 42
I. 42
Joseph 42
Leg@@ 42
Mans@@ 42
Middle 42
Nam@@ 42
Nucle@@ 42
Oblast 42
Rus@@ 42
Sah@@ 42
Southern 42
Standard 42
Teh@@ 42
Victoria 42
Wood 42
ack@@ 42
age@@ 42
ait 42
ami@@ 42
app@@ 42
art@@ 42
bon 42
cul@@ 42
da@@ 42
development 42
elec@@ 42
iki 42
ize 42
kh 42
lin 42
lon 42
mass 42
ments 42
mir@@ 42
mud@@ 42
news 42
ois 42
organization 42
ori@@ 42
ret 42
see 42
small 42
special 42
subs@@ 42
tw@@ 42
uf 42
uil 42
ulation 42
û@@ 42
ר 42
الحص@@ 42
السلطان 42
المثال 42
ساعد 42
سبور@@ 42
ستن 42
سلات 42
عبر 42
عیسی@@ 42
قبض@@ 42
كوس 42
كولوم@@ 42
نائي 42
واحد@@ 42
وتف@@ 42
وروب@@ 42
ਗ@@ 42
් 42
 42
1666 41
1729 41
1768 41
BA 41
Blue 41
Cher@@ 41
Cir@@ 41
Din 41
Emir@@ 41
Fron@@ 41
GC 41
Land 41
Marne 41
Mont 41
New@@ 41
No 41
PE@@ 41
Pur@@ 41
Pyrénées 41
Robert 41
SP@@ 41
SR 41
Tam@@ 41
ados 41
ants 41
asa 41
back 41
che@@ 41
death 41
direct 41
dol@@ 41
dova 41
e.@@ 41
ebr@@ 41
font 41
him 41
ju 41
ken@@ 41
lab@@ 41
neur@@ 41
ode 41
sh 41
side 41
tional 41
ver 41
verse 41
ws 41
æ@@ 41
ț 41
ؐ@@ 41
إلا 41
الاخت@@ 41
الخص@@ 41
الداخ@@ 41
الكبير 41
المار@@ 41
انض@@ 41
جنوب@@ 41
خصوصی@@ 41
فقال 41
قام 41
قلال 41
نژ@@ 41
یووا 41
ਰ 41
ு@@ 41
ﻼ 41
1521 40
1525 40
1535 40
1595 40
1658 40
1672 40
1710 40
1714 40
Anj@@ 40
CS@@ 40
Category 40
Cel@@ 40
Cher 40
ET 40
FA 40
Hay@@ 40
High 40
Hol@@ 40
J. 40
Jah@@ 40
Jav@@ 40
KO@@ 40
Ki@@ 40
MP@@ 40
Mul@@ 40
Nav@@ 40
No. 40
Nu@@ 40
Nur@@ 40
On 40
Os@@ 40
Philosoph@@ 40
Rock 40
Ré@@ 40
S. 40
Sat@@ 40
VI@@ 40
akh 40
align 40
amu 40
art 40
aug@@ 40
bel@@ 40
bs 40
cha 40
cle 40
con 40
cultural 40
device 40
eph@@ 40
ial 40
ili 40
jus@@ 40
las@@ 40
ling 40
nom@@ 40
shi@@ 40
ten 40
ual 40
ão 40
èze 40
ؕ 40
آي@@ 40
اختيار 40
اعي 40
الرق@@ 40
السر@@ 40
بلت@@ 40
تعرض 40
تقري@@ 40
حاء 40
حکمر@@ 40
سرح@@ 40
طرق 40
غري@@ 40
غير@@ 40
فاظ 40
لوك@@ 40
ماريا 40
مسار 40
معين 40
نسي@@ 40
وقع 40
ٹاون@@ 40
ம@@ 40
ர@@ 40
⇽ 40
ﭜ@@ 40
1642 39
1708 39
1713 39
1744 39
1749 39
1764 39
2030 39
Aj@@ 39
Ann@@ 39
Archi@@ 39
Award 39
BL 39
Dakota 39
Dan@@ 39
Dav@@ 39
Free 39
Gand@@ 39
German 39
Hus@@ 39
Jan 39
Kab@@ 39
Kaz@@ 39
Khali@@ 39
Lincoln 39
Midd@@ 39
Nan@@ 39
Old 39
Pres@@ 39
Public 39
Rand@@ 39
Tan@@ 39
Tir@@ 39
West@@ 39
Zey@@ 39
Zi@@ 39
ange 39
atory 39
center 39
chen@@ 39
cher 39
ection 39
ei 39
eli 39
eth 39
illon 39
ingham 39
institution 39
ities 39
mac@@ 39
mail 39
nam@@ 39
ny@@ 39
otic 39
penetr@@ 39
played 39
por@@ 39
rights 39
sub 39
there 39
tu 39
vers 39
when 39
ém@@ 39
én@@ 39
Š@@ 39
ג@@ 39
ז@@ 39
ל 39
الأح@@ 39
الة 39
الجمع@@ 39
الحج@@ 39
الحمراء 39
رجل 39
زوج 39
لع 39
وبات 39
وتح@@ 39
وتش@@ 39
ودي@@ 39
وكي@@ 39
يخ@@ 39
ٰذا 39
܂ 39
ह@@ 39
த@@ 39
1627 38
1656 38
1684 38
1703 38
1920@@ 38
Bot@@ 38
Chap@@ 38
Chem@@ 38
Dem@@ 38
Education 38
FO@@ 38
Fair@@ 38
Gul@@ 38
H.@@ 38
Jac@@ 38
Kel@@ 38
Lach@@ 38
Municipal 38
Nicolas 38
Norway 38
Ori@@ 38
Plat@@ 38
Sain@@ 38
Social 38
Statis@@ 38
XV 38
Yam@@ 38
Yu@@ 38
Zh@@ 38
abl@@ 38
aka 38
akan 38
amo@@ 38
any@@ 38
asti@@ 38
ats 38
berland 38
bit 38
cal 38
code 38
college 38
control 38
coun@@ 38
differ@@ 38
enton 38
ero 38
ery 38
force 38
gas 38
ignan 38
ith 38
itor 38
las 38
light 38
mail@@ 38
mas@@ 38
met@@ 38
nay 38
put 38
right 38
sam 38
sin 38
stan 38
ters 38
ule 38
vel@@ 38
wh@@ 38
är@@ 38
èvre 38
ա@@ 38
اقتصاد 38
البع@@ 38
التعداد 38
باشا 38
ضع 38
كات 38
نة 38
نًا 38
وافق 38
وفق 38
ومج@@ 38
ياب@@ 38
يتي 38
يث@@ 38
ਂ 38
☆ 38
1568 37
1604 37
1723 37
1797 37
Bir@@ 37
Black 37
Book 37
Bud@@ 37
CO 37
Canada 37
Château 37
Commission 37
Côte 37
David 37
Finland 37
Franklin 37
G. 37
ISO 37
KK 37
Kav@@ 37
L. 37
Lak@@ 37
Law 37
MA 37
Mach@@ 37
Neg@@ 37
Peace 37
Pos@@ 37
Radi@@ 37
SC 37
Sang@@ 37
Sir@@ 37
Society 37
Sun@@ 37
Super@@ 37
TO@@ 37
UC@@ 37
V. 37
W. 37
Wyoming 37
alia 37
ame 37
areas 37
by@@ 37
cat@@ 37
civili@@ 37
dier 37
dish 37
doc@@ 37
ech@@ 37
emp@@ 37
entin 37
fan 37
idi 37
ill 37
iz 37
lem@@ 37
min 37
mit@@ 37
nan 37
nia 37
ond 37
onia 37
oth 37
partic@@ 37
ruled 37
stone 37
sz@@ 37
tab@@ 37
tal@@ 37
uz 37
vor@@ 37
worth 37
zor@@ 37
ár@@ 37
ï@@ 37
ɛ@@ 37
الطب 37
بما 37
بيروت 37
جماعة 37
جير@@ 37
حتى 37
سوء 37
ضرو@@ 37
عيسى 37
فورد 37
موسيقي 37
ميد@@ 37
يح 37
ينت@@ 37
ੋ@@ 37
ா@@ 37
ﭺ 37
ﻻ 37
1572 36
1701 36
1715 36
1716 36
1730 36
1736 36
1754 36
1787 36
AG@@ 36
AP 36
African 36
Alpes 36
Arab@@ 36
Bau@@ 36
Charles 36
Corporation 36
Din@@ 36
Domin@@ 36
Dou@@ 36
ER 36
Hed@@ 36
IN 36
Indonesia 36
Internet 36
Iran 36
Kin@@ 36
Ly@@ 36
Nak@@ 36
Nic@@ 36
PL@@ 36
Ran@@ 36
Ras@@ 36
SI@@ 36
Sand@@ 36
Science 36
Trade 36
Virginia 36
Wayne 36
Wo@@ 36
aan 36
aceae 36
aches 36
alities 36
ark@@ 36
aun@@ 36
ava 36
ax 36
bei 36
bes 36
bro@@ 36
dan@@ 36
dom@@ 36
effect 36
engine 36
esc@@ 36
gen 36
house 36
if 36
igh@@ 36
ip@@ 36
ison 36
may 36
mes 36
mod@@ 36
ombe 36
oo 36
osa 36
oto 36
ouv@@ 36
pas 36
plat@@ 36
ples 36
refer@@ 36
rom@@ 36
sea 36
sin@@ 36
test 36
ture 36
ute 36
vet@@ 36
ór@@ 36
р@@ 36
أم 36
اريا 36
الحجر 36
الغرب 36
القرا@@ 36
المجمو@@ 36
تنام 36
فيل 36
كاست@@ 36
كز 36
لفات 36
مناق@@ 36
میوز@@ 36
يحيى 36
ڄ@@ 36
ۤ 36
শ@@ 36
ﻢ@@ 36
1616 35
1645 35
1702 35
1743 35
1748 35
1752 35
1766 35
1786 35
Allah 35
And 35
Army 35
Authority 35
Battle 35
Belgium 35
Bis@@ 35
Earth 35
Gaz@@ 35
Green@@ 35
Han@@ 35
Haz@@ 35
Hom@@ 35
Mali 35
Money 35
Non 35
P. 35
Peter 35
Regi@@ 35
Richard 35
Rud@@ 35
Station 35
Ty@@ 35
USA 35
Vas@@ 35
Villen@@ 35
WA 35
achers 35
ae@@ 35
alp@@ 35
ande 35
chi@@ 35
cricket 35
czy@@ 35
din@@ 35
dium 35
eal 35
educational 35
ems 35
enberg 35
ennes 35
esti@@ 35
even 35
fourth 35
ful 35
hal 35
hu 35
ieu 35
kam@@ 35
ky 35
lis 35
mam 35
mic 35
mur@@ 35
ner@@ 35
oid 35
page 35
path@@ 35
political 35
press 35
prof@@ 35
prot@@ 35
rel 35
rian 35
rule 35
sar 35
self 35
standard 35
technology 35
these 35
three 35
tom@@ 35
ton@@ 35
tron 35
è@@ 35
ë 35
استق@@ 35
الدم 35
العاش@@ 35
العمال 35
العمر 35
القلب 35
جبال 35
رأ@@ 35
ريح 35
سبا@@ 35
سه 35
سيس 35
محفو@@ 35
والن@@ 35
وغير@@ 35
وهو 35
يغ@@ 35
ښ@@ 35
ڪ 35
হ@@ 35
ମ@@ 35
ର@@ 35
ང 35
ﻕ 35
ﻦ@@ 35
1611 34
1629 34
1712 34
1751 34
1755 34
Bang@@ 34
Bres@@ 34
Butler 34
Cla@@ 34
Dod@@ 34
Econom@@ 34
Global 34
Gran@@ 34
Hau@@ 34
Haw@@ 34
He 34
IB@@ 34
Laf@@ 34
Laur@@ 34
Luc@@ 34
ML 34
Maine 34
Montana 34
ON@@ 34
PG 34
PT@@ 34
Pad@@ 34
Pau@@ 34
Ple@@ 34
Red@@ 34
Rich@@ 34
S.@@ 34
Sag@@ 34
Territory 34
They 34
Thomas 34
UK 34
Wh@@ 34
XIII 34
ado 34
amba 34
ams 34
archae@@ 34
archiv@@ 34
arian 34
around 34
asse 34
audi@@ 34
aves 34
based 34
come 34
dic@@ 34
duc@@ 34
ector 34
emia 34
ental 34
enz@@ 34
gi 34
head 34
hor@@ 34
inh 34
inum 34
jar 34
jer@@ 34
ken 34
kings 34
long 34
mine 34
mit 34
nik 34
original 34
radi@@ 34
scope 34
ser 34
ship 34
soci@@ 34
star 34
sue 34
tion@@ 34
trix 34
té 34
val 34
van@@ 34
wave 34
yi 34
yo 34
zan 34
Év@@ 34
ê@@ 34
ö 34
ī 34
آيت 34
الصحي@@ 34
الكر@@ 34
بها 34
تخص@@ 34
تمتع 34
جح 34
جوؤں 34
حدي@@ 34
درت 34
ریلو 34
طات 34
فرع 34
لكي 34
للو@@ 34
معاد@@ 34
ناطي@@ 34
هد@@ 34
ٓ 34
ړ@@ 34
ݨ@@ 34
জ@@ 34
ਬ@@ 34
ப@@ 34
1555 33
1590 33
1612 33
1621 33
1628 33
1632 33
1640 33
1711 33
1741 33
1779 33
2nd 33
Aeg@@ 33
Afghanistan 33
Ahmed 33
CT@@ 33
Catedral 33
Community 33
Croatia 33
DL@@ 33
Dal@@ 33
Dam 33
Ecuador 33
Eth@@ 33
Fon@@ 33
Grande 33
Gre@@ 33
Had@@ 33
Hak@@ 33
IT 33
Ja@@ 33
Jas@@ 33
Kom@@ 33
MS@@ 33
Madagascar 33
Mary 33
Miy@@ 33
Mug@@ 33
Museum 33
N. 33
NET 33
PN@@ 33
PP@@ 33
Pul@@ 33
Raz@@ 33
Rock@@ 33
Seg@@ 33
Sid@@ 33
Tem@@ 33
Tul@@ 33
Val 33
Ven@@ 33
Za@@ 33
alb@@ 33
amarca 33
aud@@ 33
blog@@ 33
cre@@ 33
dou@@ 33
eau 33
economic 33
ef 33
eme 33
ett 33
euve 33
ican 33
ii 33
ind 33
ja@@ 33
like 33
los@@ 33
mani 33
metropolit@@ 33
mill@@ 33
obi@@ 33
och 33
ones 33
onn@@ 33
pil@@ 33
popul@@ 33
pur@@ 33
sen 33
sexual 33
spec@@ 33
ster 33
story 33
tag@@ 33
towns 33
uli 33
unit 33
urg 33
women 33
yd@@ 33
yl 33
ú@@ 33
ă@@ 33
التق@@ 33
الحس@@ 33
الحم@@ 33
السما@@ 33
الصف@@ 33
الفي@@ 33
النو@@ 33
الوق@@ 33
اليم 33
حصل 33
دج 33
سمبر 33
فز 33
كارل 33
لقد 33
مرور 33
ويم 33
يخ 33
ڳ@@ 33
প@@ 33
ੂ@@ 33
ﺚ 33
0s 32
1.5@@ 32
1547 32
1569 32
1601 32
1653 32
1745 32
1767 32
1781 32
AR 32
Anti 32
Area 32
Australia 32
Bes@@ 32
Bosnia 32
Che@@ 32
Crim@@ 32
Cu@@ 32
DO@@ 32
Edward 32
Eff@@ 32
Fam@@ 32
GB 32
Hamilton 32
Hindu 32
Kad@@ 32
Kit@@ 32
Library 32
Med@@ 32
Point 32
SE 32
SF@@ 32
See 32
Sok@@ 32
Sri 32
To 32
Tour@@ 32
Tran@@ 32
Uni@@ 32
ace 32
aci@@ 32
aja 32
azar 32
bre@@ 32
char@@ 32
common 32
comput@@ 32
cos@@ 32
disease 32
eb 32
eland 32
ema 32
eu 32
hk 32
ico 32
ived 32
ière 32
jan@@ 32
kin 32
mal 32
medi@@ 32
op 32
oscop@@ 32
pal@@ 32
part 32
post 32
regional 32
sel@@ 32
trib@@ 32
ution 32
vais 32
vil@@ 32
wala 32
án@@ 32
ène 32
ş@@ 32
публика 32
استبد@@ 32
الترا@@ 32
التي 32
العام 32
الفل@@ 32
القضاء 32
الورا@@ 32
باك 32
توي@@ 32
حقي@@ 32
دراسات 32
زمن 32
طي 32
قق 32
كالي@@ 32
كبير 32
وراق 32
ۀ 32
গ@@ 32
ੱ@@ 32
☃ 32
ﮅ@@ 32
🐢 32
1450 31
1624 31
1635 31
1670 31
1704 31
1717 31
AE@@ 31
AL 31
Arm@@ 31
Boh@@ 31
DP 31
Delhi 31
Europe 31
Ev@@ 31
Gan@@ 31
Hen@@ 31
K. 31
Ka@@ 31
Kir@@ 31
Lé@@ 31
May 31
Name 31
Ostr@@ 31
PC 31
Peri@@ 31
Phot@@ 31
Pin@@ 31
RA 31
RS 31
Sang 31
That 31
Tib@@ 31
U.@@ 31
active 31
agon 31
agr@@ 31
avi 31
avi@@ 31
ayi 31
ays 31
azi@@ 31
bian 31
bin 31
brothers 31
cancer 31
ect@@ 31
ected 31
ective 31
ela 31
entr@@ 31
ev 31
genes 31
graphy 31
grav@@ 31
hom@@ 31
indi@@ 31
international 31
mand@@ 31
modern 31
negative 31
new@@ 31
ont@@ 31
oper@@ 31
operation 31
ough@@ 31
ox@@ 31
parti@@ 31
period 31
plas@@ 31
position 31
reaction 31
social 31
spir@@ 31
ston 31
support 31
theor@@ 31
third 31
tica 31
uf@@ 31
uj@@ 31
ult 31
uy 31
var@@ 31
ward 31
western 31
ève 31
ín 31
أر@@ 31
أي 31
أي@@ 31
الوطن 31
امة 31
جاح 31
حكم 31
داف@@ 31
صلاح@@ 31
عسكري 31
قطاع 31
قيام 31
قيل 31
للا@@ 31
مراكش 31
وحيد 31
ولين 31
ونظ@@ 31
ٻ@@ 31
र 31
ফ@@ 31
ਜ@@ 31
ੇ@@ 31
ರ@@ 31
ﻆ 31
1585 30
1630 30
1644 30
1680 30
1688 30
Academy 30
Age 30
Alli@@ 30
Austria 30
Bul@@ 30
CP@@ 30
Ca@@ 30
Civ@@ 30
Cop@@ 30
Day@@ 30
Dol@@ 30
Dé@@ 30
EL@@ 30
Economic 30
Four 30
Francisco 30
Golden 30
Guy@@ 30
King@@ 30
Ky@@ 30
Lau@@ 30
Macedonia 30
Mash@@ 30
Mog@@ 30
Olympi@@ 30
Pacific 30
Paraguay 30
Rel@@ 30
Rio 30
Service 30
Syria 30
TS 30
Tag@@ 30
Tat@@ 30
Tel@@ 30
Test 30
Thailand 30
Ther@@ 30
Tit@@ 30
Tour 30
Up@@ 30
Uz@@ 30
Vill@@ 30
Wood@@ 30
ads 30
aise 30
alization 30
andi@@ 30
anz@@ 30
aph@@ 30
arc@@ 30
band 30
being 30
bri@@ 30
can@@ 30
charge 30
chia 30
dev@@ 30
dir 30
een 30
emy 30
esi 30
ett@@ 30
fin@@ 30
former 30
gener@@ 30
heim 30
hen@@ 30
home 30
hur@@ 30
ider@@ 30
ins@@ 30
isti@@ 30
ized 30
km 30
kow@@ 30
kö@@ 30
ld@@ 30
may@@ 30
mil@@ 30
oke 30
polis 30
press@@ 30
published 30
sec@@ 30
such 30
sum@@ 30
tak@@ 30
thi@@ 30
tile 30
web@@ 30
zhou 30
ος 30
احتم@@ 30
اعد 30
الغر@@ 30
الكتاب 30
اللا@@ 30
المي@@ 30
النار 30
بلدية 30
تمي@@ 30
تمہ@@ 30
جاك@@ 30
جزء@@ 30
سواء 30
سياسي 30
شيك@@ 30
طار@@ 30
فير 30
فيه 30
ماث@@ 30
مشروع 30
مقر 30
يض@@ 30
ۤ@@ 30
ம 30
് 30
ﮠ 30
ﮧ@@ 30
ﺢ 30
----@@ 29
1592 29
1596 29
1607 29
1678 29
1727 29
1731 29
1734 29
BS 29
BT@@ 29
Band 29
Boul@@ 29
Boy@@ 29
Caribbean 29
Cham@@ 29
Club 29
Commun@@ 29
EN@@ 29
Encyclo@@ 29
Ey@@ 29
Fay@@ 29
Gang@@ 29
Gel@@ 29
Gro@@ 29
Guang@@ 29
Hill@@ 29
Hum@@ 29
Hydro@@ 29
IL 29
Industrial 29
January 29
Jo@@ 29
Kang@@ 29
Kos@@ 29
Kul@@ 29
Landes 29
Lon@@ 29
Lor@@ 29
Lord 29
Los 29
March 29
Mehr@@ 29
Military 29
Mis@@ 29
Mobile 29
NH@@ 29
Nev@@ 29
Or 29
Pay@@ 29
Prince 29
Puerto 29
Right 29
Rost@@ 29
Ry@@ 29
ST 29
Savoie 29
Second 29
Sic@@ 29
Son@@ 29
Sou@@ 29
TA 29
Technology 29
There 29
Vall@@ 29
W.@@ 29
ader 29
aks 29
aqu@@ 29
ara@@ 29
aud 29
ayan 29
bank 29
curr@@ 29
dat@@ 29
dem@@ 29
direc@@ 29
etary 29
family 29
here 29
ht@@ 29
hydro@@ 29
ike 29
institutions 29
ited 29
kan@@ 29
kar 29
ks@@ 29
lard 29
loc@@ 29
mond 29
nation 29
off 29
ogen@@ 29
opo@@ 29
ovina 29
pedia 29
qu 29
ras@@ 29
sul@@ 29
sw@@ 29
tre 29
tus 29
ult@@ 29
ulu 29
urs 29
using 29
vo 29
west 29
won 29
Ş@@ 29
и 29
о 29
ס@@ 29
ادة 29
التع@@ 29
الشري@@ 29
تعريف 29
شراف 29
شمول@@ 29
شيو@@ 29
صات 29
صغير 29
ضت 29
ظه@@ 29
علن 29
فه 29
مداخ@@ 29
مذاک@@ 29
وإ@@ 29
ە@@ 29
ल@@ 29
ன 29
ར@@ 29
： 29
1609 28
1719 28
1725 28
1732 28
1738 28
1771 28
AB 28
AH 28
Acc@@ 28
Ach@@ 28
Argentina 28
Astronom@@ 28
August 28
Band@@ 28
Bin@@ 28
Black@@ 28
By@@ 28
Chang@@ 28
Columbia 28
Cot@@ 28
Davis 28
Dong@@ 28
ES 28
Express 28
FC 28
Fa@@ 28
Field 28
Forest 28
GNU 28
Gem@@ 28
HP 28
HTML 28
Haut 28
Hav@@ 28
High@@ 28
ID 28
Information 28
Islam@@ 28
Kno@@ 28
Langu@@ 28
Lee 28
MC 28
Maria 28
Oregon 28
Pom@@ 28
President 28
Sep@@ 28
Shel@@ 28
Space 28
Tav@@ 28
Venezuela 28
Wah@@ 28
Win@@ 28
Yan@@ 28
Yar@@ 28
aca 28
aille 28
ald 28
angi 28
anti 28
ator@@ 28
before 28
blo@@ 28
bu 28
color 28
die 28
eck@@ 28
eign 28
eira 28
ele 28
ements 28
enty 28
estim@@ 28
eto 28
fran@@ 28
free 28
gar 28
get 28
hin@@ 28
ign 28
illac 28
illo 28
ils 28
induc@@ 28
inger 28
ingu@@ 28
iran 28
itation 28
ius 28
jin 28
just 28
ker@@ 28
leg@@ 28
lev@@ 28
many 28
movement 28
o.@@ 28
odi@@ 28
pas@@ 28
pep@@ 28
phen@@ 28
ports 28
positive 28
process 28
pul@@ 28
rat 28
rem@@ 28
rit@@ 28
ron 28
rul@@ 28
san@@ 28
sburg 28
sil@@ 28
statis@@ 28
teri@@ 28
tia 28
tt@@ 28
ules 28
ump@@ 28
used 28
wal@@ 28
works 28
yan@@ 28
your 28
² 28
Ç@@ 28
â 28
èche 28
î@@ 28
ód@@ 28
ö@@ 28
ü@@ 28
צ@@ 28
الدي@@ 28
العراق 28
المسجد 28
النف@@ 28
انتش@@ 28
انج 28
بعين 28
تتبع 28
تحقيق 28
دوري 28
ذك@@ 28
رأس 28
سبي@@ 28
شف 28
طینی 28
فيس 28
قلي@@ 28
قى 28
كاف@@ 28
مصطفى 28
وإن 28
وجه 28
ومست@@ 28
څ@@ 28
۽ 28
۾ 28
ਨ 28
ਲ 28
క@@ 28
ོ@@ 28
ﭤ@@ 28
ﮂ@@ 28
1623 27
1631 27
1649 27
1675 27
1724 27
1742 27
AK 27
Bar 27
Big 27
Clark 27
Commonwealth 27
Dh@@ 27
Dr. 27
Fres@@ 27
Heb@@ 27
Hem@@ 27
Heritage 27
Ken@@ 27
Kn@@ 27
Kot@@ 27
Lane 27
Les@@ 27
Liber@@ 27
Marcel 27
Medi@@ 27
Modern 27
Mountain 27
Nob@@ 27
PR@@ 27
Pa@@ 27
Pier@@ 27
Pomer@@ 27
Priv@@ 27
RT 27
Railway 27
Rights 27
Salvador 27
Shak@@ 27
Sig@@ 27
Sloven@@ 27
Smith 27
South@@ 27
Stu@@ 27
Sus@@ 27
Syn@@ 27
São 27
Three 27
Tim@@ 27
Ud@@ 27
WW@@ 27
Wa@@ 27
XII 27
Yang@@ 27
ades 27
ares 27
bom@@ 27
bul@@ 27
census 27
chain 27
cir@@ 27
cou@@ 27
els@@ 27
eni 27
ering 27
esa 27
fruits 27
gas@@ 27
ger 27
gian 27
gir 27
haz@@ 27
hep@@ 27
hey@@ 27
hood 27
hua 27
ix@@ 27
lic@@ 27
lists 27
make 27
medicine 27
mel@@ 27
minute 27
natural 27
network 27
oll 27
oning 27
oro 27
ovi@@ 27
peri@@ 27
philosophy 27
pot@@ 27
production 27
ques 27
ram@@ 27
riz 27
say 27
sciences 27
since 27
tax@@ 27
tide 27
uli@@ 27
vir@@ 27
where 27
yang 27
ysis 27
êt 27
х@@ 27
ابة 27
اعات 27
العين 27
الكريم 27
بنفس 27
جامعة 27
حاب 27
ديان 27
دیق 27
عوا 27
كتي@@ 27
لاسي@@ 27
متاز 27
يست@@ 27
يكن 27
ۙ 27
দ@@ 27
ল 27
ী 27
ਜ 27
੍ 27
ა@@ 27
1597 26
1636 26
1654 26
1661 26
1664 26
1782 26
AF@@ 26
Amer@@ 26
BO@@ 26
Barr@@ 26
Beng@@ 26
Brown 26
Bru@@ 26
Business 26
By 26
Bé@@ 26
Chel@@ 26
Clinton 26
Comp@@ 26
Constitu@@ 26
Democratic 26
F. 26
Fol@@ 26
Freedom 26
Hamp@@ 26
Hon@@ 26
Iran@@ 26
Iz@@ 26
Kak@@ 26
Kum@@ 26
Lawrence 26
Lev@@ 26
Lyon 26
Manche 26
Market 26
Micro@@ 26
Monroe 26
NT 26
NT@@ 26
Nat@@ 26
Nepal 26
News 26
Nova 26
Ny@@ 26
OR@@ 26
Our 26
Out@@ 26
Palace 26
Pel@@ 26
Phil@@ 26
Post 26
Publ@@ 26
Rhône 26
Rob@@ 26
Russian 26
SQL 26
Shan@@ 26
Sk@@ 26
Sow@@ 26
Spanish 26
Sud@@ 26
Sup@@ 26
Swedish 26
T.@@ 26
Tanzania 26
Tas@@ 26
Thi@@ 26
Tum@@ 26
UR 26
Urban 26
Zak@@ 26
abor@@ 26
ace@@ 26
act@@ 26
acu@@ 26
ador 26
agent 26
alg@@ 26
aling 26
arch 26
asi 26
asp@@ 26
banks 26
bil@@ 26
blood 26
bo 26
bra@@ 26
cant@@ 26
chemical 26
ck 26
cop@@ 26
council 26
cy 26
dari 26
dig@@ 26
don@@ 26
double 26
dé@@ 26
eer 26
ej@@ 26
ello 26
eti@@ 26
exchange 26
fab@@ 26
fal@@ 26
fol@@ 26
gan@@ 26
geome@@ 26
gre@@ 26
hol 26
ices 26
ina@@ 26
index 26
ion@@ 26
istry 26
khi 26
member 26
my@@ 26
ned 26
nuclear 26
olan 26
oni@@ 26
orial 26
oun 26
pen@@ 26
pression 26
px 26
sym@@ 26
tain@@ 26
ube 26
union 26
yu@@ 26
ás@@ 26
ñ@@ 26
А@@ 26
н 26
أص@@ 26
الإسلام 26
البار@@ 26
العش@@ 26
القانون 26
المب@@ 26
النخ@@ 26
الوز@@ 26
اهر 26
بريل 26
ترض 26
ديك@@ 26
ریٹڈ 26
زرق 26
سائر 26
ضوء 26
فإن 26
قين 26
كامل 26
للش@@ 26
والخ@@ 26
ڌ@@ 26
ನ@@ 26
‬ 26
√ 26
 26
ﮒ 26
1651 25
ABC 25
Alb@@ 25
Arabia 25
Aviation 25
Barb@@ 25
Bran@@ 25
Chin@@ 25
Cog@@ 25
Corn@@ 25
Data 25
Douglas 25
Ep@@ 25
Gau@@ 25
HO@@ 25
HS 25
Haf@@ 25
Herzeg@@ 25
Hun@@ 25
IF@@ 25
Israel 25
Jer@@ 25
Kand@@ 25
Lig@@ 25
Line 25
Luis 25
Nah@@ 25
Prof@@ 25
RT@@ 25
Ren@@ 25
SM 25
SS@@ 25
Sports 25
Studies 25
T. 25
TE 25
Turk@@ 25
We 25
XVIII 25
Yus@@ 25
aji 25
ancy 25
angle 25
antum 25
ature 25
bacteri@@ 25
base 25
ben@@ 25
board 25
both 25
building 25
business 25
chrom@@ 25
chron@@ 25
cli@@ 25
committee 25
cus 25
e.org 25
elli 25
evi@@ 25
fa 25
fil@@ 25
hel@@ 25
him@@ 25
idi@@ 25
int 25
ked 25
later 25
lieu 25
los 25
lower 25
mo 25
municip@@ 25
nh@@ 25
ods 25
ogr@@ 25
olith@@ 25
onian 25
onic 25
ova 25
oy 25
pan@@ 25
phys@@ 25
plex 25
po 25
proj@@ 25
ption 25
rel@@ 25
ré@@ 25
sia 25
status 25
tro 25
uh@@ 25
villages 25
word 25
zer@@ 25
zh@@ 25
Á@@ 25
å 25
ð@@ 25
ø@@ 25
ú 25
ān 25
ź@@ 25
ɔ@@ 25
ский 25
א 25
آنحضرت@@ 25
الاتحاد 25
التج@@ 25
الثالث 25
العرا@@ 25
الفن 25
القط@@ 25
القل@@ 25
القوا@@ 25
بدون 25
بلح@@ 25
بنك 25
تعمل 25
تلامذ@@ 25
دية 25
رسون 25
رير 25
سانت 25
ظهر 25
فما 25
كه@@ 25
له@@ 25
مصري 25
ها@@ 25
وجام@@ 25
म 25
ঙ 25
় 25
ా@@ 25
ಿ@@ 25
€ 25
↑ 25
﷫ 25
ﺵ 25
.S. 24
1.0@@ 24
1619 24
1625 24
1669 24
Anton@@ 24
Aqu@@ 24
Art 24
Bac@@ 24
Ben 24
Beno@@ 24
Bid@@ 24
CB 24
CT 24
Chev@@ 24
Chil@@ 24
Committee 24
Cz@@ 24
Dad@@ 24
Dul@@ 24
Dun@@ 24
E.@@ 24
EU 24
Eng@@ 24
Eul@@ 24
FIFA 24
Faz@@ 24
Fe 24
Flor@@ 24
Fou@@ 24
Gil@@ 24
Grant 24
Grove 24
Gun@@ 24
Hind@@ 24
Kil@@ 24
LG@@ 24
Lamb@@ 24
Loc@@ 24
Madison 24
Medical 24
Nad@@ 24
Number 24
OH 24
ON 24
Off@@ 24
Oise 24
On@@ 24
Pey@@ 24
Pic@@ 24
Provence 24
Pun@@ 24
Put@@ 24
Queen 24
Revolution 24
Rh@@ 24
Rou@@ 24
SD@@ 24
Sac@@ 24
Seoul 24
Sev@@ 24
Shab@@ 24
Square 24
Sun 24
Tab@@ 24
Tunisia 24
Two 24
UP 24
Um@@ 24
VA 24
Van 24
Village 24
Ville 24
Virgin 24
Vé@@ 24
Web@@ 24
Zah@@ 24
access 24
actions 24
ado@@ 24
anth@@ 24
ation@@ 24
aur 24
bach 24
books 24
consci@@ 24
cular 24
defined 24
div@@ 24
eck 24
ects 24
eine 24
eral 24
eus 24
extr@@ 24
fu@@ 24
general 24
hund@@ 24
included 24
insula 24
jo@@ 24
ka@@ 24
kl@@ 24
ky@@ 24
lang 24
less 24
lic 24
liz@@ 24
main 24
major 24
met 24
mph 24
ogen 24
ogy 24
otte 24
pay@@ 24
pin@@ 24
plan@@ 24
play 24
proc@@ 24
regul@@ 24
rey 24
ses 24
several 24
shu@@ 24
sor@@ 24
sper@@ 24
sti@@ 24
sun 24
tax 24
urt 24
ury 24
usa 24
usta 24
various 24
vor 24
wi 24
wing 24
wr@@ 24
à@@ 24
ı 24
š 24
ы@@ 24
الأس@@ 24
الحض@@ 24
الزي@@ 24
السو@@ 24
الطر@@ 24
العربي 24
الفرا@@ 24
القي@@ 24
درب 24
دني 24
ذلك 24
طين 24
فيلي@@ 24
كما 24
ليب 24
مؤتمر 24
مج 24
وسيع 24
ولوجي 24
ومنگ 24
ٕ 24
टो 24
त 24
दूर 24
न 24
ारा 24
१ 24
ੀ@@ 24
♦ 24
1615 23
1633 23
1676 23
1733 23
Abdul 23
Ain 23
Alexander 23
Atom@@ 23
Aw@@ 23
Bad 23
Bec@@ 23
Bell 23
Bon 23
CIA 23
Cathedral 23
Cha@@ 23
Change 23
Circle 23
Coun@@ 23
Cyc@@ 23
Da@@ 23
Equ@@ 23
Essex 23
Exchange 23
Eyal@@ 23
Federation 23
Force 23
Fru@@ 23
Gabriel 23
Gom@@ 23
Guatemala 23
ICA@@ 23
Jol@@ 23
LE 23
Li 23
Little 23
Love 23
Marion 23
Marseille 23
Moselle 23
Nos@@ 23
O. 23
Organization 23
Palm@@ 23
Prov@@ 23
Rez@@ 23
Riz@@ 23
Roch@@ 23
Sur 23
Texas 23
Tus@@ 23
UM@@ 23
Vic@@ 23
Vienne 23
Vit@@ 23
Vos@@ 23
Warren 23
Was@@ 23
Water@@ 23
Wel@@ 23
Yun@@ 23
aban 23
alar 23
alar@@ 23
ale@@ 23
alized 23
anus 23
arde 23
asc@@ 23
assi@@ 23
astronom@@ 23
ate@@ 23
ators 23
ce@@ 23
chol@@ 23
chu@@ 23
complex 23
construction 23
dered 23
ech 23
eds 23
eman 23
enni@@ 23
esian 23
etes 23
eti 23
gay 23
gn@@ 23
hist@@ 23
ication 23
ici@@ 23
ily 23
imal 23
including 23
iny 23
iron 23
islam@@ 23
kal@@ 23
king@@ 23
kon@@ 23
lain 23
ledge 23
lers 23
made 23
media 23
molec@@ 23
municipal 23
museum 23
nd@@ 23
normal 23
oe 23
oi 23
oire 23
oka 23
omb@@ 23
onom@@ 23
osh 23
pat@@ 23
plant@@ 23
product 23
pt 23
quad@@ 23
records 23
resp@@ 23
sab@@ 23
sac@@ 23
series 23
sign@@ 23
sm@@ 23
stadt 23
sy 23
tas@@ 23
then 23
ther 23
tian 23
times 23
uses 23
ust@@ 23
vic 23
video 23
wich 23
wo@@ 23
ying 23
yst@@ 23
zone 23
Ö@@ 23
és 23
ía 23
ș@@ 23
к 23
м@@ 23
э@@ 23
ֲ@@ 23
اجتم@@ 23
اعلات 23
البيضاء 23
الشعر 23
الصد@@ 23
الفنون 23
القرن 23
المك@@ 23
النح@@ 23
بـ@@ 23
جدي@@ 23
جرى 23
جيا 23
خدم 23
ريال 23
ريه 23
شارك 23
شيئ@@ 23
ضابط 23
طت 23
فاع 23
فيا 23
لاع 23
ملي@@ 23
هان@@ 23
وجي@@ 23
وسع 23
وكان 23
ّة 23
ٽ 23
ज 23
म@@ 23
য 23
வ@@ 23
 23
ﻛ@@ 23
1536 22
1559 22
1655 22
1662 22
1667 22
20th 22
AW@@ 22
Ado@@ 22
Agency 22
Agr@@ 22
Amp@@ 22
Anne 22
Antarc@@ 22
Arthur 22
Aux@@ 22
Ax@@ 22
Baj@@ 22
Blood 22
Bolívar 22
Bour@@ 22
Bretagne 22
Bulgaria 22
But@@ 22
CN@@ 22
CS 22
Cab@@ 22
Castel@@ 22
Celle 22
Century 22
Chu@@ 22
Code 22
Dig@@ 22
EM 22
FF 22
Fac@@ 22
Fil@@ 22
Flu@@ 22
Fri@@ 22
Gate 22
Gilles 22
Gold@@ 22
Hall 22
Hello 22
Holy 22
Home 22
Ing@@ 22
Isle 22
Jacques 22
June 22
L.@@ 22
League 22
Liter@@ 22
Ltd 22
ME 22
Mal 22
Management 22
Mar 22
Mass@@ 22
Mic@@ 22
Mill@@ 22
Mob@@ 22
Mom@@ 22
Mother 22
Mun@@ 22
Méd@@ 22
NS 22
Om@@ 22
Path@@ 22
Pis@@ 22
Pou@@ 22
Prim@@ 22
Produc@@ 22
Quar@@ 22
Rot@@ 22
Roy@@ 22
SN@@ 22
Saudi 22
Sci@@ 22
Sciences 22
Star@@ 22
Story 22
Sé@@ 22
UN 22
Van@@ 22
Wat@@ 22
Wy@@ 22
XX@@ 22
Yen@@ 22
Zealand 22
` 22
aco 22
aer@@ 22
afa 22
agar 22
alis@@ 22
alu@@ 22
anda 22
apa 22
ark 22
articles 22
asis 22
ayet 22
bility 22
central 22
chester 22
com 22
cont@@ 22
dale 22
dat 22
dens@@ 22
depend@@ 22
dian 22
different 22
districts 22
dit 22
dos 22
enburg 22
erry 22
far@@ 22
gel@@ 22
gor@@ 22
hiv@@ 22
idal 22
ika 22
imperi@@ 22
isa 22
istics 22
iti 22
kg 22
ku 22
leges 22
lia 22
lion 22
live 22
located 22
machine 22
mission 22
nar@@ 22
nav@@ 22
numbers 22
oon 22
osph@@ 22
park 22
person 22
popular 22
potential 22
prime 22
publi@@ 22
reh@@ 22
rière 22
roc@@ 22
sam@@ 22
sav@@ 22
saw 22
sequ@@ 22
sho@@ 22
sites 22
software 22
stat@@ 22
stead 22
stop 22
thr@@ 22
through 22
tigen 22
ull 22
ump 22
unction 22
uta 22
uth 22
verty 22
vis 22
what 22
while 22
yar 22
yer 22
yo@@ 22
yth@@ 22
zo@@ 22
ément 22
ô 22
ź 22
ʃ@@ 22
أثر 22
إ 22
اعر 22
الأر@@ 22
الحدود 22
الحكم 22
الشه@@ 22
الطب@@ 22
الكتب 22
المسلمين 22
الولا@@ 22
تبلغ 22
تمام@@ 22
جوم 22
خذ 22
خري@@ 22
سمي 22
شعبية 22
لاست@@ 22
ميس 22
هذه 22
واق 22
ونکہ 22
يط 22
ڤ@@ 22
ڻ 22
क 22
का 22
ਆ@@ 22
ਭ@@ 22
ತ@@ 22
ි@@ 22
ე@@ 22
ﭻ 22
ﮄ@@ 22
1638 21
1643 21
1705 21
1726 21
1728 21
ATA 21
Adam 21
Alt@@ 21
BM@@ 21
BP 21
Bangladesh 21
Beach 21
Bell@@ 21
Bern@@ 21
Bill 21
Brazil 21
CL 21
Clar@@ 21
Clay 21
Coul@@ 21
Court 21
Cross 21
DR 21
EP 21
Ele@@ 21
Estonia 21
Foundation 21
GE 21
GO@@ 21
Google 21
HIV 21
Hack@@ 21
Health 21
Hip@@ 21
IL@@ 21
Italy 21
Jun@@ 21
Justice 21
Kaf@@ 21
Kay@@ 21
Kut@@ 21
Latin 21
Lib@@ 21
Lis@@ 21
Ma 21
Mahmud 21
Manz@@ 21
Mars 21
Meth@@ 21
Michael 21
Morgan 21
Mou@@ 21
Moz@@ 21
Not@@ 21
Oper@@ 21
Order 21
Organisation 21
P.@@ 21
PR 21
Page 21
Philippines 21
Pil@@ 21
Post@@ 21
Psych@@ 21
Rav@@ 21
Rid@@ 21
SL@@ 21
Sach@@ 21
Say@@ 21
Sheikh 21
Siy@@ 21
Source 21
Taiwan 21
Temple 21
Territ@@ 21
Third 21
UNESCO 21
Vari@@ 21
Vau@@ 21
Vin@@ 21
Water 21
XIV 21
acter@@ 21
administration 21
agan 21
ahl@@ 21
alla 21
ango 21
aus 21
author 21
born 21
bos@@ 21
bus 21
bus@@ 21
chem@@ 21
comp@@ 21
dre@@ 21
edi 21
elected 21
emi 21
ento 21
estimated 21
eter@@ 21
fic 21
film 21
game 21
great 21
gro@@ 21
had@@ 21
hand 21
ien 21
igh 21
imb@@ 21
imm@@ 21
internal 21
ité 21
jo 21
ket 21
lag 21
lip 21
mann 21
mat 21
mental 21
mobile 21
onal@@ 21
ord 21
ordin@@ 21
otr@@ 21
over@@ 21
ovo 21
pic 21
plo@@ 21
pres@@ 21
progr@@ 21
protein 21
pun@@ 21
rah 21
record 21
record@@ 21
regions 21
research 21
result 21
ret@@ 21
shi 21
sim@@ 21
sing@@ 21
sions 21
start 21
stein 21
struc@@ 21
sup@@ 21
tification 21
ulan 21
umb@@ 21
unds 21
ures 21
vector 21
veloc@@ 21
vin@@ 21
wat@@ 21
watch 21
ways 21
win 21
xx 21
ynam@@ 21
ì 21
Ō@@ 21
ʁ@@ 21
π 21
اته 21
اقد@@ 21
الأن@@ 21
القد@@ 21
المتع@@ 21
المض@@ 21
المعر@@ 21
برنامج 21
بسبب 21
بض@@ 21
بعة 21
تشار 21
ثي@@ 21
جوع 21
جيم 21
داث 21
رئيس 21
رياض@@ 21
ريان 21
رية 21
سيمات 21
كست@@ 21
لتون 21
لدي@@ 21
لعب@@ 21
ليف 21
ندس 21
ودي 21
ګ@@ 21
य 21
ে 21
ਅ@@ 21
ਤ 21
ସ@@ 21
ା 21
ୁ@@ 21
ನ 21
ი 21
რ@@ 21
大@@ 21
ﺾ 21
1577 20
2023 20
Aff@@ 20
Ais@@ 20
Alaska 20
Anth@@ 20
Barth@@ 20
Bav@@ 20
Beth@@ 20
Bit@@ 20
Blo@@ 20
Brunswick 20
Bug@@ 20
Calais 20
Castle 20
Channel 20
Child 20
Christian 20
Co 20
Country 20
D.@@ 20
Death 20
Den@@ 20
Dic@@ 20
Digital 20
Dj@@ 20
Dynam@@ 20
ED@@ 20
EM@@ 20
ET@@ 20
Ec@@ 20
Elizabeth 20
Emp@@ 20
Fak@@ 20
Fel@@ 20
Film 20
Four@@ 20
Granada 20
HR 20
Ha 20
Hi@@ 20
Ish@@ 20
Jin@@ 20
KA 20
Kap@@ 20
LP 20
Marshall 20
Mathemati@@ 20
Me 20
Model 20
Most 20
Mut@@ 20
NY@@ 20
Nicol@@ 20
Open 20
Pas 20
Pav@@ 20
Political 20
RI 20
Rai@@ 20
Rap@@ 20
Research 20
SM@@ 20
SR@@ 20
SW@@ 20
Services 20
Sher@@ 20
Sing@@ 20
Taylor 20
Telec@@ 20
These 20
Tun@@ 20
UL@@ 20
V.@@ 20
Vend@@ 20
Vermont 20
Vietnam 20
Writ@@ 20
XX 20
Ye@@ 20
Year 20
Zir@@ 20
alam@@ 20
alif@@ 20
ambi@@ 20
asia 20
atra 20
atus 20
aut@@ 20
birth 20
borg 20
bra 20
brahim 20
cardi@@ 20
cer 20
ces@@ 20
colonial 20
culture 20
def@@ 20
design 20
dh@@ 20
does 20
dong 20
dri@@ 20
elling 20
erg@@ 20
erie 20
erre 20
ers@@ 20
esser 20
ester@@ 20
eta 20
etus 20
eum 20
far 20
flo@@ 20
formation 20
frequency 20
fusion 20
gate 20
hat 20
hausen 20
hay@@ 20
hum@@ 20
ict 20
ignon 20
ij@@ 20
imi 20
inces 20
ior 20
irs 20
itage 20
itz 20
largest 20
len@@ 20
lie 20
low@@ 20
mar 20
matter 20
ment@@ 20
motion 20
nal 20
nam 20
names 20
neigh@@ 20
not@@ 20
nu@@ 20
olar 20
olia 20
omo 20
ons@@ 20
origin 20
ose 20
osia 20
phone 20
physical 20
pi 20
port@@ 20
process@@ 20
psych@@ 20
quality 20
ref@@ 20
rew 20
secre@@ 20
serving 20
sey@@ 20
skaya 20
society 20
source 20
speci@@ 20
stan@@ 20
sv@@ 20
territory 20
tha 20
tice 20
took 20
tres 20
true 20
trus@@ 20
udi@@ 20
ufi 20
ume 20
under@@ 20
urn@@ 20
usha 20
usion 20
vehicle 20
vis@@ 20
wal 20
ware 20
wel@@ 20
wn 20
xin 20
xy 20
ya@@ 20
yar@@ 20
zar@@ 20
zer 20
Ü@@ 20
çon 20
èv@@ 20
ê 20
ît 20
õ@@ 20
ǎ@@ 20
ɪ@@ 20
ς 20
а@@ 20
؀ 20
أد@@ 20
إس@@ 20
الأز@@ 20
الرس@@ 20
الشعب@@ 20
العربية 20
اللو@@ 20
المسي@@ 20
باك@@ 20
بمث@@ 20
بنفس@@ 20
تبع@@ 20
تقل 20
تلك 20
رمض@@ 20
فيها 20
قرر 20
لعب 20
مهاج@@ 20
هج@@ 20
هند@@ 20
هيم 20
وبة 20
وبد@@ 20
چنان@@ 20
य@@ 20
स 20
দ 20
ੈ@@ 20
ି@@ 20
ག 20
◾ 20
 20
ﻡ@@ 20
1583 19
1634 19
3rd 19
Aires 19
Ale@@ 19
Anglo 19
Angola 19
Antoine 19
Arg@@ 19
BBC 19
Biz@@ 19
Cad@@ 19
Capr@@ 19
Cay@@ 19
Charlotte 19
Chor@@ 19
Cuba 19
Czech 19
DS 19
Dar 19
Deb@@ 19
Dre@@ 19
Era 19
Fat@@ 19
February 19
From 19
Front 19
Got@@ 19
Gra@@ 19
HT@@ 19
Heil@@ 19
Hyper@@ 19
IG@@ 19
IU@@ 19
Ig@@ 19
Jou@@ 19
Khu@@ 19
Kis@@ 19
Kun@@ 19
Ley@@ 19
Lie@@ 19
Lot@@ 19
MT 19
Mang@@ 19
Music 19
Natural 19
Network 19
Neur@@ 19
Nicaragua 19
Num@@ 19
Ob@@ 19
Ox@@ 19
PP 19
Paulo 19
Paz 19
Real 19
Sec@@ 19
Some 19
Spec@@ 19
Star 19
Sullivan 19
Terr@@ 19
Turkey 19
Web 19
Whit@@ 19
Wikipedia 19
Windows 19
Zab@@ 19
Ze@@ 19
adan 19
aha 19
alis 19
alle@@ 19
ames 19
anger 19
ativ@@ 19
augh@@ 19
autonom@@ 19
avia 19
became 19
because 19
bed 19
belong@@ 19
black 19
called 19
carrying 19
ces 19
cle@@ 19
conn@@ 19
constant 19
count 19
cut@@ 19
ded 19
democ@@ 19
ders 19
dra@@ 19
duction 19
ear 19
eas 19
eastern 19
econom@@ 19
ehr 19
emati@@ 19
embr@@ 19
entum 19
este 19
fier 19
fri@@ 19
gender 19
ges@@ 19
given 19
good 19
gram@@ 19
graph@@ 19
green 19
gs 19
hang 19
historical 19
hospit@@ 19
hut@@ 19
ilar 19
industry 19
insky 19
isi 19
ital 19
ito 19
jar@@ 19
kara 19
key 19
killing 19
know 19
led 19
lot 19
mot@@ 19
near 19
og 19
oj@@ 19
ologist 19
open 19
osc@@ 19
osom@@ 19
other@@ 19
owa 19
paper 19
part@@ 19
pri@@ 19
princip@@ 19
prop@@ 19
rain 19
ranked 19
rant 19
ratio 19
ry@@ 19
sept@@ 19
sit@@ 19
ste@@ 19
sum 19
teenth 19
tif@@ 19
tox@@ 19
uma 19
uru 19
vari@@ 19
virus 19
wall 19
white 19
zu@@ 19
§ 19
éc@@ 19
én 19
ét@@ 19
ć@@ 19
Č@@ 19
ım 19
ƒ 19
Φ 19
α 19
й 19
к@@ 19
ка 19
т@@ 19
أش@@ 19
أع@@ 19
اضط@@ 19
اغو 19
البالغ@@ 19
الخدمات 19
الخض@@ 19
الرجل 19
السيد 19
الك 19
اللي@@ 19
المناف@@ 19
المنش@@ 19
انظر 19
ايد 19
باسم 19
ثلاث 19
ريب 19
سنسکر@@ 19
فاي@@ 19
فهم 19
قيم 19
كال 19
كانت 19
لكل 19
لها 19
مساح@@ 19
والص@@ 19
وحمل 19
ّه 19
न@@ 19
प 19
ি 19
ਟ 19
ச@@ 19
ட@@ 19
ి@@ 19
ཁ@@ 19
⁄ 19
山@@ 19
ﮌ 19
ﮟ@@ 19
ﺕ@@ 19
1204 18
1626 18
1637 18
1665 18
16th 18
17th 18
Arth@@ 18
Atlan@@ 18
Autom@@ 18
Be 18
Buenos 18
Bâ@@ 18
CR 18
Ce@@ 18
Cé@@ 18
DA@@ 18
DI@@ 18
Dah@@ 18
Die 18
Egyp@@ 18
Emperor 18
Far 18
Fran@@ 18
Fur@@ 18
Félix 18
GT@@ 18
Greek 18
Hard@@ 18
Hir@@ 18
Hit@@ 18
Howard 18
Iraq 18
Janeiro 18
Java 18
Jr 18
Kong 18
Lac 18
Lad@@ 18
Lanka 18
Limited 18
Luxembourg 18
Meg@@ 18
Minister 18
Mit@@ 18
Montgomery 18
Multi@@ 18
Muz@@ 18
Niz@@ 18
Nom@@ 18
Not 18
OR 18
Office 18
Oriental 18
Orig@@ 18
Other 18
PD@@ 18
Rak@@ 18
Ray 18
Reb@@ 18
Roman 18
SU@@ 18
Sever@@ 18
Springs 18
Summer 18
Tang@@ 18
Ten@@ 18
Tot@@ 18
Tub@@ 18
Tut@@ 18
Universal 18
Vid@@ 18
Vincent 18
WH@@ 18
Way 18
Yer@@ 18
ache 18
aliz@@ 18
anges 18
anna 18
ante 18
arts 18
ashi 18
ats@@ 18
axis 18
ayer 18
bine 18
box 18
bron@@ 18
ca@@ 18
calcul@@ 18
car 18
case 18
cester 18
cinemat@@ 18
cit@@ 18
cription 18
cycle 18
density 18
digital 18
dim 18
down@@ 18
dul@@ 18
dur@@ 18
ehr@@ 18
entino 18
erk@@ 18
every 18
example 18
facility 18
fu 18
full 18
gery 18
high 18
ib 18
ications 18
ification 18
iman 18
island 18
itis 18
jet 18
lake 18
lui 18
lum 18
mah@@ 18
med@@ 18
meth@@ 18
mul@@ 18
multiple 18
neutr@@ 18
nic@@ 18
off@@ 18
orders 18
par 18
pic@@ 18
plic@@ 18
polar@@ 18
problem 18
provinces 18
ps@@ 18
que@@ 18
racy 18
rest 18
ries 18
rif@@ 18
ross 18
sha 18
som@@ 18
sou@@ 18
squ@@ 18
stimul@@ 18
super@@ 18
systems 18
tam@@ 18
taught 18
tering 18
tern 18
tie 18
tium 18
top@@ 18
tos 18
traffic 18
trol@@ 18
tru@@ 18
trum 18
ual@@ 18
ui@@ 18
until 18
von 18
wealth 18
yu 18
év@@ 18
ý@@ 18
г@@ 18
д@@ 18
ы 18
أل@@ 18
أولاد 18
ائط 18
اضطرابات 18
الأخ@@ 18
الإسلامية 18
البحث 18
البناء 18
السط@@ 18
السفر 18
العص@@ 18
الفوز 18
بأ@@ 18
توي 18
تيك 18
جيل 18
شح 18
عليهم 18
كنت 18
مجموع 18
ميز 18
نوان 18
والش@@ 18
والك@@ 18
واي 18
وبي@@ 18
يدي 18
ڻ@@ 18
की 18
हम@@ 18
ফ 18
ম 18
ী@@ 18
ਿ 18
ବ@@ 18
ய@@ 18
ு 18
ಗ@@ 18
ྫ@@ 18
თ@@ 18
ი@@ 18
∗ 18
 18
ﺖ@@ 18
ﻚ@@ 18
ﻞ@@ 18
1652 17
1685 17
AE 17
AX 17
Additionally 17
Albert 17
Alc@@ 17
Anci@@ 17
Arc@@ 17
Australian 17
Auvergne 17
Aziz 17
Barn@@ 17
Base 17
Bish@@ 17
Bla@@ 17
Bom@@ 17
Brazilian 17
Brit@@ 17
Buddh@@ 17
CH 17
Cambridge 17
Camii 17
Camp 17
Canal 17
Castil@@ 17
Champagne 17
Christ 17
Chron@@ 17
Civil 17
Corps 17
Corr@@ 17
Crawford 17
Cri@@ 17
Cus@@ 17
Dat@@ 17
December 17
Deux 17
Dra@@ 17
End 17
Energy 17
Fah@@ 17
GI 17
GP@@ 17
Gab@@ 17
Gaza 17
German@@ 17
Gut@@ 17
Gy@@ 17
Gö@@ 17
Hep@@ 17
Hin@@ 17
Hong 17
Hul@@ 17
Hér@@ 17
Identi@@ 17
Integr@@ 17
Jerusalem 17
K.@@ 17
Know@@ 17
Lady 17
Long 17
Lud@@ 17
Lug@@ 17
Madrid 17
Map@@ 17
Mountains 17
Muh@@ 17
Musa 17
Nam 17
Navy 17
Nevada 17
Nis@@ 17
Non@@ 17
Nur 17
Ontario 17
PM 17
Pam@@ 17
Pent@@ 17
Pet@@ 17
Prin@@ 17
Pyr@@ 17
Rome 17
Russell 17
Satur@@ 17
Scott 17
Sierra 17
Sign@@ 17
Sik@@ 17
Soh@@ 17
Song 17
Sut@@ 17
Suz@@ 17
TC 17
Tax@@ 17
Tay@@ 17
Thir@@ 17
Tower 17
Trin@@ 17
Tuc@@ 17
UC 17
Vent@@ 17
Viol@@ 17
Wak@@ 17
What 17
Whe@@ 17
Wilson 17
Yah@@ 17
Yemen 17
You@@ 17
abase 17
aea 17
afr@@ 17
agen 17
alog@@ 17
alt@@ 17
aly 17
aly@@ 17
amar@@ 17
ances 17
ando 17
ao@@ 17
araj@@ 17
ards 17
ayn@@ 17
beau@@ 17
become 17
berry 17
blin 17
bour@@ 17
bourg 17
brain 17
capit@@ 17
cc 17
chan@@ 17
chu 17
ci 17
dal@@ 17
designated 17
did 17
dil@@ 17
dol 17
ecti@@ 17
edia 17
eil 17
eller 17
ement@@ 17
ep 17
established 17
ete 17
eva 17
failure 17
fer 17
fish 17
gency 17
gia 17
gio 17
global 17
gy@@ 17
hang@@ 17
hav@@ 17
ically 17
idae 17
iliz@@ 17
ini@@ 17
ished 17
ishi 17
islands 17
ism@@ 17
lam 17
lat 17
left 17
liber@@ 17
lik 17
mak@@ 17
market 17
matches 17
medical 17
medium 17
membran@@ 17
mic@@ 17
mind 17
mm 17
mos@@ 17
multi@@ 17
ock@@ 17
official 17
oga 17
ograp@@ 17
opath@@ 17
ope 17
ored 17
ots 17
partition 17
pher@@ 17
pol 17
pole 17
pot 17
pressure 17
price 17
print 17
rat@@ 17
ratic 17
recep@@ 17
religious 17
river 17
ru 17
seat 17
sel 17
sels 17
sequence 17
service 17
sex 17
sing 17
size 17
sm 17
songs 17
star@@ 17
study 17
sus 17
syndrome 17
tari@@ 17
tin@@ 17
today 17
tom 17
tural 17
uba 17
umi 17
unda 17
ups 17
uro 17
user 17
vacc@@ 17
visual 17
wick 17
zo 17
zon 17
ör@@ 17
ʻ@@ 17
ον 17
М@@ 17
в@@ 17
с@@ 17
ט@@ 17
ءً 17
أحد 17
أصول 17
أق@@ 17
أه@@ 17
الشباب 17
العث@@ 17
القصر 17
بالذ@@ 17
باي 17
برة 17
تدري@@ 17
ترتيب 17
تشار@@ 17
تكن 17
حن 17
رئیر 17
عبة 17
عًا 17
فأ@@ 17
قيق 17
كشف 17
لفت 17
مؤسسة 17
مدينة 17
مية 17
والأ@@ 17
وره 17
وفة 17
يكرو@@ 17
ّي 17
ټ@@ 17
ڊ 17
ڌ 17
ۍ 17
श 17
स@@ 17
ਚ@@ 17
ੜ@@ 17
ર@@ 17
க 17
த 17
ந@@ 17
ತ 17
ು 17
ს@@ 17
ḥ@@ 17
ン@@ 17
 17
ﺽ 17
ﻥ@@ 17
1641 16
5th 16
7th 16
AI 16
Abd@@ 16
Administr@@ 16
Andr@@ 16
Ant@@ 16
Antigu@@ 16
Argent@@ 16
Armen@@ 16
Ast@@ 16
At 16
Atlantic 16
Ave@@ 16
Avi@@ 16
Ball@@ 16
Bas 16
Beg@@ 16
Bernard 16
Bih@@ 16
Bra@@ 16
CF 16
CM@@ 16
COM 16
Camer@@ 16
Chief 16
Cl 16
Cle@@ 16
Crown 16
Cré@@ 16
DR@@ 16
DS@@ 16
Def@@ 16
Det@@ 16
Dil@@ 16
Dist@@ 16
Dublin 16
Dutch 16
ED 16
Eli@@ 16
Environ@@ 16
Esp@@ 16
F.@@ 16
Falls 16
Fen@@ 16
Fif@@ 16
Fire@@ 16
Fos@@ 16
Fro@@ 16
Gam@@ 16
Gardens 16
Gener@@ 16
Giovanni 16
God@@ 16
Gos@@ 16
Grav@@ 16
HF 16
Hag@@ 16
Han 16
Hand@@ 16
Harrison 16
Hills 16
However 16
Hydr@@ 16
Jagu@@ 16
Jed@@ 16
Johannesburg 16
Jud@@ 16
July 16
Karak@@ 16
Key 16
Koz@@ 16
Law@@ 16
Lebanon 16
Lip@@ 16
Lun@@ 16
ML@@ 16
MT@@ 16
Men 16
Monte 16
Myr@@ 16
Nig@@ 16
Night 16
Nog@@ 16
Nou@@ 16
Ocean 16
Parliament 16
Petit 16
Poly@@ 16
Port@@ 16
Prime 16
Proc@@ 16
Project 16
Py@@ 16
Pér@@ 16
RD 16
Ret@@ 16
Rib@@ 16
Roma 16
Rose 16
Roy 16
SF 16
Sanc@@ 16
Sap@@ 16
Scot@@ 16
Serbia 16
Sib@@ 16
Sm@@ 16
Small 16
Spe@@ 16
Spir@@ 16
Su 16
Tai@@ 16
Tari@@ 16
Tig@@ 16
UE@@ 16
VO@@ 16
Valle 16
Vig@@ 16
WI 16
Wad@@ 16
Wall 16
Who 16
Will 16
Yak@@ 16
Yi 16
ables 16
abr@@ 16
abri@@ 16
acha 16
ading 16
agram 16
aign 16
airport 16
alle 16
almost 16
alphab@@ 16
aman@@ 16
ampton 16
anan 16
anch@@ 16
ander 16
anes 16
anya 16
apr@@ 16
apur 16
arre 16
arti@@ 16
atan 16
atis@@ 16
bab@@ 16
bani 16
bec 16
berg@@ 16
cav@@ 16
change 16
china 16
cler@@ 16
combus@@ 16
commercial 16
corpor@@ 16
could 16
course 16
crip@@ 16
cro@@ 16
dal 16
det@@ 16
display 16
document 16
due 16
eff@@ 16
egan 16
ells 16
eno 16
eous 16
eping 16
essor 16
etta 16
etz@@ 16
eval 16
ew 16
expression 16
fact 16
father 16
fe 16
feet 16
ference 16
figures 16
final 16
fis@@ 16
flow 16
fon@@ 16
football 16
fos@@ 16
gemeinde 16
gic 16
gol@@ 16
grap@@ 16
grave 16
growth 16
hara 16
held 16
hill 16
hop@@ 16
hui 16
icial 16
icle 16
idence 16
ights 16
ignant 16
ilan 16
important 16
inas 16
includes 16
indi 16
inge 16
iro 16
isch 16
ista 16
istr@@ 16
itch 16
ith@@ 16
jal@@ 16
kas@@ 16
kel@@ 16
kent 16
kil@@ 16
kor@@ 16
lay@@ 16
lied 16
lington 16
liter@@ 16
lock 16
mark 16
meter 16
mol@@ 16
nec@@ 16
now@@ 16
née 16
officer 16
ood 16
ores 16
otes 16
p.@@ 16
ph 16
phon@@ 16
pia 16
près 16
quar@@ 16
ranking 16
rik 16
rod@@ 16
rol@@ 16
rot@@ 16
rou@@ 16
scale 16
sens@@ 16
server 16
shell 16
shows 16
sig@@ 16
stor@@ 16
suff@@ 16
sville 16
technique 16
techniques 16
theast 16
thor@@ 16
thous@@ 16
tionary 16
tol@@ 16
toral 16
tot@@ 16
trade 16
transport 16
tries 16
tual 16
tures 16
ucle@@ 16
uka 16
urg@@ 16
values 16
ved 16
version 16
whole 16
yes 16
zam@@ 16
zy 16
Île 16
ège 16
öl@@ 16
ě@@ 16
ński 16
ʿ@@ 16
β 16
ός 16
Ка@@ 16
а 16
у@@ 16
ד 16
أما 16
أمر 16
إبراهيم 16
ارًا 16
الجبل 16
الحقوق 16
الدراسات 16
الذين 16
السنة 16
السوي@@ 16
الشمال 16
الماء 16
المنز@@ 16
انية 16
باعتب@@ 16
بنى 16
داني@@ 16
عزل 16
عقاد 16
قيب 16
قيد 16
كيف 16
لهم 16
موظ@@ 16
ميات 16
هة 16
هول@@ 16
وعلم 16
وفان 16
وليس 16
ܐ 16
छ@@ 16
जी 16
द@@ 16
फ 16
वा@@ 16
ु 16
ા@@ 16
ର 16
ఖ@@ 16
మ@@ 16
ದ@@ 16
ಮ@@ 16
བ@@ 16
⭐ 16
の 16
ス@@ 16
ﭖ@@ 16
ﭴ@@ 16
ﮀ@@ 16
ﺙ 16
🌺 16
1668 15
19th 15
4th 15
A2 15
AG 15
Abr@@ 15
Administration 15
Afgh@@ 15
Aix 15
Algeria 15
Arts 15
Aun@@ 15
Bam@@ 15
Best 15
Bib@@ 15
Bio@@ 15
Bloom@@ 15
Brus@@ 15
Bureau 15
Burundi 15
Buz@@ 15
CI 15
Can 15
Chan@@ 15
Charl@@ 15
Chau@@ 15
Christ@@ 15
Conn@@ 15
Creek 15
Dim@@ 15
Down 15
EN 15
Early 15
Euc@@ 15
Ex 15
Fem@@ 15
Foreign 15
François 15
Frederick 15
Gad@@ 15
Gall@@ 15
Garr@@ 15
Geor@@ 15
Good 15
Gug@@ 15
HC 15
Hand 15
Heli@@ 15
Hou@@ 15
ID@@ 15
Id@@ 15
Iron 15
Jag@@ 15
Jak@@ 15
Jard@@ 15
Jura 15
Kre@@ 15
Kö@@ 15
LS 15
Laz@@ 15
Let@@ 15
Light 15
Lit@@ 15
Lut@@ 15
Main@@ 15
Malaysia 15
Mali@@ 15
Mall@@ 15
Malta 15
Marguerite 15
Maxim@@ 15
Media 15
Metro 15
Mik@@ 15
Moore 15
N.@@ 15
NATO 15
ND 15
Nab@@ 15
Nation 15
Nem@@ 15
Nin@@ 15
Norte 15
Oak 15
Ober@@ 15
Ok@@ 15
Palest@@ 15
Pass@@ 15
Pedro 15
Posi@@ 15
R.@@ 15
ROM 15
Ross 15
Rum@@ 15
Sax@@ 15
Scienti@@ 15
Slovakia 15
Special 15
UM 15
Unión 15
Wan@@ 15
Wes@@ 15
Wis@@ 15
Young 15
Zam@@ 15
Zan@@ 15
acet@@ 15
adel@@ 15
ago@@ 15
ahn 15
aking 15
alan@@ 15
aland 15
alit@@ 15
alli@@ 15
amin 15
ancient 15
anta 15
anza 15
apar@@ 15
apon 15
aries 15
ater 15
atin 15
attacks 15
atur 15
auss@@ 15
auth@@ 15
bad@@ 15
ben 15
best 15
bio 15
bro 15
burn 15
chil@@ 15
cho 15
cite 15
clus@@ 15
command 15
compl@@ 15
cons@@ 15
content 15
conver@@ 15
coron@@ 15
cryp@@ 15
dead 15
degree 15
diction 15
doba 15
domin@@ 15
dor@@ 15
drawn 15
drug 15
dule 15
dynam@@ 15
early 15
eaux 15
ees 15
egr@@ 15
election 15
empire 15
empl@@ 15
enter@@ 15
ered 15
expres@@ 15
ext@@ 15
fare 15
feld 15
fic@@ 15
fiel@@ 15
fields 15
financial 15
five 15
found 15
gal@@ 15
ging 15
gol 15
govern@@ 15
groups 15
half 15
hap@@ 15
hari@@ 15
heart 15
hil 15
hold 15
hon@@ 15
icient 15
idan 15
ikh 15
income 15
inst@@ 15
ische 15
kab@@ 15
kad@@ 15
kers 15
kir@@ 15
kur@@ 15
lak@@ 15
largely 15
lav 15
lave 15
lay 15
lip@@ 15
little 15
lob@@ 15
mation 15
mean 15
mel 15
mid@@ 15
ming 15
mom@@ 15
mp@@ 15
nad 15
nas@@ 15
non@@ 15
nov@@ 15
numer@@ 15
né 15
oci@@ 15
oja 15
olle 15
olo 15
onial 15
oral 15
oria 15
ority 15
othe@@ 15
oul@@ 15
ović 15
pend@@ 15
pes 15
phy@@ 15
police 15
powiat 15
pre 15
program 15
promot@@ 15
quan 15
raf 15
rap@@ 15
rather 15
refl@@ 15
regular 15
rid 15
said 15
seas 15
sed 15
sem@@ 15
sert 15
shar@@ 15
she@@ 15
short 15
sid@@ 15
sine 15
sons 15
spin 15
sta@@ 15
sts 15
sun@@ 15
tai 15
tain 15
tex@@ 15
thing 15
thre@@ 15
thu@@ 15
tiques 15
trac@@ 15
translated 15
tras@@ 15
tribu@@ 15
trom@@ 15
trop@@ 15
usi@@ 15
va@@ 15
vention 15
vie@@ 15
vin 15
vit@@ 15
wali 15
wen@@ 15
wil@@ 15
zen@@ 15
zz@@ 15
ède 15
éri@@ 15
ław 15
ɑ 15
У@@ 15
е 15
л@@ 15
ми 15
н@@ 15
ная 15
ный 15
э 15
я@@ 15
і 15
إليه 15
ائيات 15
اتخ@@ 15
افظ@@ 15
الأص@@ 15
التاريخ 15
الخاص 15
الخصوص 15
المعل@@ 15
النه@@ 15
بيه 15
تخب 15
تزال 15
ثة 15
ثون 15
جاه@@ 15
حكوم@@ 15
حيد 15
ضة 15
عى 15
غة 15
قدي@@ 15
مرة 15
مزي@@ 15
معرفة 15
نشرت 15
والف@@ 15
ولى 15
يؤ@@ 15
अ@@ 15
री 15
व 15
ং@@ 15
ই@@ 15
ক 15
ੈ 15
ପ@@ 15
ି 15
ெ@@ 15
ை@@ 15
ర@@ 15
ల@@ 15
ಾ@@ 15
ೆ 15
න 15
ර@@ 15
ས@@ 15
ლ@@ 15
ო@@ 15
ṭ@@ 15
ッ@@ 15
ン 15
ー 15
海@@ 15
 15
ﮭ 15
﷾ 15
13th 14
15th 14
1م 14
Alabama 14
Alan 14
Amaz@@ 14
Ass@@ 14
Astr@@ 14
Ath@@ 14
Autr@@ 14
Bed@@ 14
Benito 14
Berkeley 14
Berlin 14
Bh@@ 14
Bob@@ 14
Boc@@ 14
Body 14
Books 14
Brid@@ 14
Britain 14
Buch@@ 14
Ced@@ 14
Cent@@ 14
Ciudad 14
Coll@@ 14
Common 14
Confeder@@ 14
Culture 14
Cô@@ 14
Daniel 14
Design 14
Distr@@ 14
Dob@@ 14
Don 14
Dream 14
Dub@@ 14
Dy@@ 14
EC 14
Et@@ 14
Eu@@ 14
Ever@@ 14
Family 14
Fed@@ 14
Feder@@ 14
Ferdinand 14
Gard@@ 14
Gas@@ 14
Ges@@ 14
Ghana 14
Gim@@ 14
Good@@ 14
Grand@@ 14
Greene 14
Gren@@ 14
Head@@ 14
Henri 14
Homo 14
IV@@ 14
If 14
Inc. 14
Independent 14
Inf@@ 14
Istanbul 14
Jesus 14
Jet 14
Jordan 14
Kent 14
Ket@@ 14
Kip@@ 14
Laguna 14
Leon@@ 14
Linux 14
Lion 14
Lus@@ 14
Luz@@ 14
Mark 14
Marmara 14
Marsh@@ 14
Mek@@ 14
Microsoft 14
Mind@@ 14
Ministry 14
Miss@@ 14
Mod@@ 14
Moon 14
Muk@@ 14
Nach@@ 14
Ner@@ 14
Ng@@ 14
Nik@@ 14
October 14
Olympic 14
Over@@ 14
Patri@@ 14
Pes@@ 14
Pie@@ 14
Poin@@ 14
Pont@@ 14
Pope 14
Princip@@ 14
Program 14
Prom@@ 14
Provincial 14
Raf@@ 14
Reserve 14
SB 14
Sa 14
Server 14
Seven 14
She 14
Sky 14
Sky@@ 14
Solomon 14
Sot@@ 14
Stat@@ 14
Stephen 14
Stor@@ 14
Sub 14
Super 14
Television 14
Through 14
Tok@@ 14
Unit 14
Universe 14
Up 14
Va@@ 14
Vancouver 14
Video 14
Wol@@ 14
Yel@@ 14
Zo@@ 14
acks 14
aden@@ 14
adr@@ 14
amine 14
ampa 14
analysis 14
angu@@ 14
aster 14
aç@@ 14
aş@@ 14
baz@@ 14
bia 14
bit@@ 14
bor 14
border 14
bt 14
celer@@ 14
cep@@ 14
ception 14
cho@@ 14
ck@@ 14
comm@@ 14
compati@@ 14
conf@@ 14
cord 14
cross 14
cá@@ 14
developed 14
dial 14
dic 14
eca 14
eda 14
eder@@ 14
edr@@ 14
ender 14
endi 14
endra 14
eness 14
ensi@@ 14
entes 14
enth 14
estr@@ 14
eur@@ 14
evo 14
fall 14
fax 14
fied 14
four 14
get@@ 14
gin 14
glass 14
hab 14
hadi 14
hak 14
hil@@ 14
hockey 14
hr 14
icon 14
idents 14
ied 14
ilg@@ 14
image 14
ime 14
independence 14
information 14
inhabitants 14
internet 14
inus 14
ised 14
isse 14
issi@@ 14
ister@@ 14
itual 14
itude 14
jav@@ 14
jun@@ 14
juris@@ 14
kap@@ 14
kazi 14
kes@@ 14
kn@@ 14
kol@@ 14
laine 14
late 14
leader 14
lech@@ 14
lem 14
liers 14
lit 14
lit@@ 14
lière 14
lo 14
log 14
mia 14
mm@@ 14
mouth 14
nant 14
nes@@ 14
next 14
north 14
objects 14
ocar@@ 14
olph 14
omen@@ 14
onym 14
orn 14
otive 14
otro@@ 14
otype 14
oud 14
ough 14
ought 14
oxide 14
oz 14
painted 14
pha 14
play@@ 14
plication 14
properties 14
quanti@@ 14
rati@@ 14
red@@ 14
related 14
rent 14
respon@@ 14
response 14
return 14
rh@@ 14
rie 14
rol 14
rup@@ 14
screen 14
sis 14
sok@@ 14
sovi@@ 14
sph@@ 14
stable 14
storage 14
syl@@ 14
tage 14
take 14
teams 14
tenstein 14
tiers 14
tière 14
tory 14
tou@@ 14
tran@@ 14
trav@@ 14
uss 14
vier 14
wait 14
wide 14
wn@@ 14
wounded 14
writing 14
yat 14
yond 14
zu 14
árez 14
ä 14
ña 14
öy 14
ő@@ 14
ɡ@@ 14
ɪ 14
ʊ 14
ː@@ 14
ν@@ 14
Совет@@ 14
ни 14
қ@@ 14
ү@@ 14
ו 14
ءة 14
أصحاب 14
أغ@@ 14
أف@@ 14
ألف 14
أنا 14
إبرا@@ 14
الاسم 14
البحرين 14
التعل@@ 14
الجر@@ 14
الجنوب 14
الخل@@ 14
الرئ@@ 14
الطبي@@ 14
المحلي 14
المعم@@ 14
الني@@ 14
باول 14
تصنيف 14
تصوير 14
جزاء 14
حدوث 14
روة 14
سوريا 14
طريق 14
طوال 14
طويل 14
فوز 14
قاد 14
قيمت 14
كبي@@ 14
كريست@@ 14
كلا 14
للط@@ 14
لية 14
مانيا 14
مكان 14
مناطق 14
نوات 14
والث@@ 14
يرون 14
کھیے 14
ः 14
ग 14
ज@@ 14
ति@@ 14
दुस 14
या 14
ला 14
व@@ 14
ভ@@ 14
ਖ@@ 14
ਟ@@ 14
କ@@ 14
ා@@ 14
ු@@ 14
უ@@ 14
Ἰ@@ 14
‑ 14
ﮁ@@ 14
ﮝ@@ 14
ﮡ 14
ﯼ@@ 14
🌹 14
AV@@ 13
AZ 13
Afr@@ 13
Alo@@ 13
Aman@@ 13
Ankara 13
Audi@@ 13
Aul@@ 13
Austr@@ 13
Auth@@ 13
BSD 13
Bass@@ 13
Bez@@ 13
Board 13
Bog@@ 13
Born 13
Boz@@ 13
Bret@@ 13
Bush 13
CL@@ 13
CNN 13
Caesar 13
Campbell 13
Cardi@@ 13
Cass@@ 13
Cast@@ 13
Cath@@ 13
Celtic 13
Centr@@ 13
Chelsea 13
Chir@@ 13
Cli@@ 13
Congress 13
Cros@@ 13
Cru@@ 13
Delta 13
Duc@@ 13
ESCO 13
Electric 13
Exper@@ 13
Eye 13
Fab@@ 13
Fey@@ 13
Flo@@ 13
Forces 13
Forum 13
Friedrich 13
Fut@@ 13
GN@@ 13
GO 13
GPS 13
GS 13
Game 13
Garden 13
Gros@@ 13
Guar@@ 13
Gó@@ 13
Hain@@ 13
Hawaii 13
His 13
Hospital 13
Ib@@ 13
Il 13
Int@@ 13
Intel 13
Israeli 13
Ivan@@ 13
Jay@@ 13
Jorge 13
Jose@@ 13
Jum@@ 13
Jur@@ 13
KS 13
Kō@@ 13
Last 13
Lef@@ 13
Leh@@ 13
Leo 13
Lid@@ 13
Live 13
MI 13
MP 13
Magn@@ 13
Many 13
Marc 13
Martin@@ 13
Mediterran@@ 13
Mich@@ 13
Michigan 13
NR@@ 13
Net@@ 13
Note 13
O.@@ 13
O2 13
Only 13
Ot@@ 13
PE 13
PL 13
Par 13
Pass 13
Perry 13
Pit@@ 13
Pob@@ 13
Poli@@ 13
Pra@@ 13
RN@@ 13
Rat@@ 13
Raw@@ 13
Reino 13
Ris@@ 13
Rog@@ 13
Row@@ 13
Rup@@ 13
Sali@@ 13
Sant@@ 13
Santo 13
Seb@@ 13
September 13
Series 13
Sex@@ 13
Shim@@ 13
Silver 13
Singapore 13
Sit@@ 13
Six@@ 13
Sn@@ 13
Somerset 13
Somme 13
Sov@@ 13
Staff 13
Suc@@ 13
Sug@@ 13
Sussex 13
Swe@@ 13
Sym@@ 13
Tai 13
Tan 13
Tek@@ 13
Til@@ 13
Treaty 13
Trig@@ 13
Trust 13
Viz@@ 13
Vor@@ 13
Wales 13
Wall@@ 13
When 13
Wik@@ 13
Yaz@@ 13
Yo@@ 13
Youth 13
aces 13
afi 13
aging 13
agnes 13
agus 13
aia 13
aill@@ 13
alli 13
allo@@ 13
amas 13
amour@@ 13
ancer 13
ander@@ 13
anic 13
anni@@ 13
anos 13
aro 13
artificial 13
asing 13
atia 13
atur@@ 13
available 13
away 13
awi 13
ayo 13
aí@@ 13
bay 13
bek@@ 13
below 13
bid 13
bir@@ 13
ble@@ 13
bol 13
borne 13
cano 13
ching 13
cles 13
cm 13
conqu@@ 13
constitution 13
continent 13
contr@@ 13
dam@@ 13
dav@@ 13
dek 13
dial@@ 13
dies 13
dis 13
divided 13
dro@@ 13
east 13
ebi 13
edo 13
ei@@ 13
eins 13
element 13
elements 13
eless 13
emat@@ 13
emer@@ 13
encia 13
eni@@ 13
enza 13
ept@@ 13
eran 13
err@@ 13
esi@@ 13
etry 13
explo@@ 13
fen@@ 13
geb@@ 13
graduate 13
gy 13
gö@@ 13
health 13
hic 13
i.@@ 13
ided 13
idge 13
iller 13
immun@@ 13
inflam@@ 13
inos 13
ister 13
iting 13
iva 13
ives 13
ić 13
jam@@ 13
jaw@@ 13
jon 13
jum@@ 13
kai 13
kat@@ 13
ket@@ 13
kho@@ 13
knowledge 13
kul@@ 13
lag@@ 13
large 13
laur@@ 13
least 13
let@@ 13
ling@@ 13
lis@@ 13
load 13
mab@@ 13
magne@@ 13
marine 13
master 13
material 13
melan@@ 13
members 13
mon 13
motor 13
nation@@ 13
native 13
neighborhood 13
nel 13
nice 13
nu 13
oba 13
ogo 13
oko 13
oks 13
omer@@ 13
onder@@ 13
orit@@ 13
parts 13
plant 13
pon 13
practice 13
prob@@ 13
recognized 13
rich 13
rich@@ 13
rig@@ 13
rine 13
ring 13
riz@@ 13
road 13
script 13
sdorf 13
security 13
should 13
signal 13
sion@@ 13
sl@@ 13
solution 13
south 13
stad 13
started 13
stati@@ 13
stell@@ 13
structure 13
sus@@ 13
swe@@ 13
syn@@ 13
taine 13
tes@@ 13
thumb 13
tournament 13
train 13
tree 13
tun 13
ues 13
uti@@ 13
uzi 13
vertebr@@ 13
vision 13
wani 13
website 13
wick@@ 13
words 13
xe 13
xes 13
yat@@ 13
zem@@ 13
zw@@ 13
¥ 13
¼ 13
École 13
éch@@ 13
éry 13
î 13
ön@@ 13
ē 13
ğ@@ 13
ın@@ 13
œ@@ 13
ū 13
ż 13
ɾ@@ 13
ʼ@@ 13
з@@ 13
ш 13
ш@@ 13
ь@@ 13
я 13
ї@@ 13
ј@@ 13
ի@@ 13
ע 13
ءات 13
أج@@ 13
أمير 13
ائيل 13
افة 13
الصوت 13
الطعام 13
المدار@@ 13
المسا@@ 13
المنظ@@ 13
النز@@ 13
الوزن 13
بالك@@ 13
بث@@ 13
تبة 13
تحاد 13
تحرير 13
ترجمة 13
تعرف 13
تقريبا 13
تمبر 13
توماس 13
جاك 13
حاكم 13
حدات 13
دولة 13
ذه@@ 13
راجع 13
سلطنة 13
سية 13
صحي@@ 13
ضح 13
فشل 13
فية 13
كة 13
كندي 13
مباب@@ 13
ملة 13
هاب 13
والت@@ 13
وعلى 13
ومؤ@@ 13
يدة 13
يرى 13
ًّا 13
ۢ 13
क@@ 13
श@@ 13
চ@@ 13
ਗ 13
ੁ 13
ੌ@@ 13
ହ@@ 13
େ@@ 13
ல@@ 13
ම@@ 13
ව@@ 13
タ@@ 13
モ@@ 13
 13
3,3 12
9th 12
Abdullah 12
After 12
Alber@@ 12
Am 12
Anh@@ 12
Asp@@ 12
Baja 12
Basil@@ 12
Benin 12
Berg@@ 12
Bet@@ 12
Between 12
Bolivia 12
Boston 12
Buff@@ 12
Campe@@ 12
Canadian 12
Chester 12
Classi@@ 12
Clo@@ 12
Compos@@ 12
Contin@@ 12
Costa 12
Crystal 12
Cun@@ 12
Dan 12
Democ@@ 12
Denmark 12
Direc@@ 12
Double 12
Dragon 12
Dro@@ 12
Du 12
Dum@@ 12
E9E9E9 12
EL 12
Ear@@ 12
Einstein 12
Elle 12
Emer@@ 12
Entertainment 12
Eus@@ 12
FM 12
Facebook 12
Francis 12
G.@@ 12
GR@@ 12
Gag@@ 12
Gib@@ 12
Girl 12
Gou@@ 12
HD 12
HMS 12
Hall@@ 12
Heart 12
Hid@@ 12
Hier@@ 12
Honduras 12
Hong@@ 12
Honor@@ 12
Hope 12
Hot@@ 12
How 12
Human@@ 12
Inc 12
Institu@@ 12
It@@ 12
Italian 12
Jackson 12
Ji 12
Johannes 12
Johnson 12
José 12
Jus@@ 12
Kag@@ 12
Kid@@ 12
Kl@@ 12
Kob@@ 12
Kou@@ 12
LD 12
LM 12
Lamp@@ 12
Lem@@ 12
Lex@@ 12
Like 12
Lost 12
MD 12
Mac 12
Master 12
Math@@ 12
Mec@@ 12
Mechan@@ 12
Medal 12
Mess@@ 12
Mex@@ 12
Mi 12
MiG 12
Miguel 12
Mind 12
Montr@@ 12
Motor@@ 12
Mr. 12
Mér@@ 12
Nap@@ 12
Nec@@ 12
Neo 12
Net 12
Nih@@ 12
Norman 12
Nouvelle 12
Obj@@ 12
Operation 12
Orange 12
Ottoman 12
Pa 12
Pant@@ 12
Papua 12
Paraná 12
Part 12
Partido 12
Patr@@ 12
Peak 12
Plant@@ 12
Plas@@ 12
Private 12
Pé@@ 12
RE 12
Radio 12
Range 12
Reh@@ 12
Renaissance 12
Review 12
Rhin@@ 12
Riv@@ 12
Roc@@ 12
SAR@@ 12
SD 12
SK@@ 12
SP 12
Saj@@ 12
Salv@@ 12
Sark@@ 12
Sas@@ 12
Secre@@ 12
Set 12
Si 12
Software 12
Spirit 12
Sr@@ 12
Stan@@ 12
Stone 12
Stre@@ 12
Synagog@@ 12
Taf@@ 12
Testament 12
Text 12
Tin@@ 12
Tom 12
Top@@ 12
Tou@@ 12
Training 12
Trans 12
Trav@@ 12
Type 12
Under@@ 12
Vul@@ 12
Walker 12
William@@ 12
Williams 12
With 12
Work 12
Wright 12
XVII 12
Your 12
Zen@@ 12
Zur@@ 12
abab@@ 12
abria 12
activity 12
adow 12
ahu 12
aker 12
alie 12
alt 12
altern@@ 12
amer@@ 12
amo 12
ampli@@ 12
ank 12
ape 12
application 12
archi@@ 12
arn 12
arri@@ 12
ather 12
aton 12
atos 12
att 12
attempted 12
auf 12
aup@@ 12
authority 12
aver@@ 12
azar@@ 12
bai 12
bara 12
bay@@ 12
bek 12
blog 12
bodies 12
bre 12
bres 12
brother 12
carbon 12
cent@@ 12
chin@@ 12
conduc@@ 12
cos 12
cot@@ 12
cricketer 12
crimes 12
cut 12
dam 12
dea 12
della 12
depos@@ 12
dera 12
details 12
diff@@ 12
dorf 12
dow@@ 12
dru@@ 12
each 12
ean@@ 12
edit@@ 12
education 12
eld 12
eling 12
ellen@@ 12
elo 12
emo 12
ende 12
ending 12
ends 12
enge 12
engi 12
engl@@ 12
ening 12
ensis 12
environmental 12
esp@@ 12
esse 12
eton 12
event@@ 12
exec@@ 12
fam@@ 12
ffe 12
fi 12
flight 12
forces 12
foreign 12
frag@@ 12
gam@@ 12
gee 12
gil 12
gir@@ 12
graphi@@ 12
gun 12
hak@@ 12
hard 12
hard@@ 12
hin 12
hop 12
hormon@@ 12
hud@@ 12
hus@@ 12
hydr@@ 12
icts 12
iden 12
ift 12
illé 12
incident 12
inian 12
ink 12
institu@@ 12
integr@@ 12
inter 12
interpre@@ 12
inv@@ 12
ique 12
iya 12
iş@@ 12
jap@@ 12
legal 12
length 12
listed 12
living 12
loo 12
lost 12
love 12
luch@@ 12
lé 12
magazine 12
management 12
manipul@@ 12
map 12
march@@ 12
mas 12
match 12
mb@@ 12
med 12
mg 12
mili@@ 12
mov@@ 12
night 12
nis@@ 12
nj@@ 12
nois 12
office 12
oku 12
olet 12
ony@@ 12
operating 12
orca 12
ords 12
ose@@ 12
oul 12
para 12
party 12
pent@@ 12
pith@@ 12
places 12
plan 12
plasma 12
poli 12
policy 12
pron@@ 12
quir@@ 12
ras 12
reci@@ 12
relation 12
religion 12
repe@@ 12
report 12
rier 12
row@@ 12
run 12
sau@@ 12
say@@ 12
scientific 12
sep@@ 12
sim 12
sius 12
song 12
soul 12
sound 12
sources 12
spor@@ 12
stream 12
tas 12
ternal 12
those 12
throughout 12
tle 12
tri 12
tun@@ 12
ub 12
ulin 12
ulus 12
ums 12
unga 12
uria 12
verdi 12
versities 12
versity 12
vik 12
voir 12
vous 12
wak@@ 12
want 12
was@@ 12
working 12
writ@@ 12
yal 12
yet 12
yr 12
zel@@ 12
© 12
ées 12
éré 12
êque 12
ño 12
öder@@ 12
İ@@ 12
ɔ 12
̃ 12
β@@ 12
ο 12
С@@ 12
али@@ 12
ба@@ 12
коно@@ 12
льный 12
на 12
р 12
рай@@ 12
т 12
ե@@ 12
ո@@ 12
ֱ@@ 12
ב 12
ך@@ 12
؏ 12
أث@@ 12
أس 12
إسماعيل 12
اقات 12
اكل 12
الأربعة 12
الأم@@ 12
الأولى 12
الثلا@@ 12
الجسم 12
الخار@@ 12
الدرا@@ 12
الدماغ 12
الغالب 12
القسم 12
الكامل 12
الكبرى 12
الكل@@ 12
المدينة 12
المشار@@ 12
الموج@@ 12
انة 12
باقي 12
بسي@@ 12
تج 12
تحول 12
توفي 12
حين 12
خاض 12
خرى 12
ذكر@@ 12
ريض 12
زواج 12
سبيل 12
شة 12
صنع 12
صيف 12
طاني 12
فيات 12
قوانين 12
قيه 12
كانوا 12
مايو 12
متحف 12
مجمو@@ 12
مكتبة 12
منه 12
ورئ@@ 12
وسام 12
ولعب 12
يرًا 12
ينة 12
ينت 12
ٿ@@ 12
چانک 12
ं 12
आ@@ 12
ऐ 12
का@@ 12
ख 12
जहाँ 12
टी 12
त@@ 12
तान 12
ना 12
ने 12
ब@@ 12
र@@ 12
গ 12
ত 12
ਕ 12
ਬ 12
ତ@@ 12
ు 12
ು@@ 12
ക@@ 12
ල@@ 12
ད@@ 12
ა 12
ṣ@@ 12
ῖ@@ 12
の@@ 12
ケ@@ 12
地方 12
 12
ﭠ@@ 12
ﮍ 12
ﮘ@@ 12
ﺞ 12
ﺺ 12
🐱 12
🔸 12
.C. 11
18th 11
2.0@@ 11
6th 11
8th 11
API 11
Aber@@ 11
Adams 11
Adri@@ 11
Alliance 11
Amar@@ 11
Ami@@ 11
And@@ 11
Angeles 11
Antonio 11
Arn@@ 11
BD 11
Bang 11
Blanc 11
Blanche 11
Brah@@ 11
Brom@@ 11
Bré@@ 11
Buc@@ 11
Bun@@ 11
CO2 11
Caes@@ 11
Cann@@ 11
Capit@@ 11
Card@@ 11
Cav@@ 11
Ces@@ 11
Chamb@@ 11
Chambre 11
Cin@@ 11
Clermont 11
Coc@@ 11
Coch@@ 11
Comput@@ 11
Convention 11
Córdoba 11
DD 11
DM 11
DOS 11
DVD 11
Dark 11
Das 11
Daw@@ 11
Dead 11
Deg@@ 11
Dep@@ 11
Dir@@ 11
Distribution 11
Dru@@ 11
End@@ 11
Engineering 11
Eur@@ 11
Fernando 11
Florence 11
Football 11
Form 11
Form@@ 11
GA 11
Gene 11
Georg 11
Glou@@ 11
Gw@@ 11
Gér@@ 11
Hali@@ 11
Hassan 11
Hay 11
Him@@ 11
IF 11
Ice 11
Indiana 11
Inh@@ 11
Innov@@ 11
Ins@@ 11
Io@@ 11
Itali@@ 11
J.@@ 11
Jack 11
Jews 11
Jones 11
Journal 11
Kamp@@ 11
Karl 11
Kath@@ 11
Kenya 11
Krasno@@ 11
Kro@@ 11
Len@@ 11
Lewis 11
Libre 11
Lic@@ 11
Logan 11
Lov@@ 11
Lyn@@ 11
Léon 11
MG 11
Magazine 11
Major 11
María 11
Mati@@ 11
Max 11
Mez@@ 11
Mill 11
Miller 11
Moul@@ 11
Murray 11
Nature 11
Nazar@@ 11
Newton 11
Observat@@ 11
Od@@ 11
Original 11
Ottawa 11
Out 11
Pac@@ 11
Palais 11
Pale@@ 11
Palma 11
Pand@@ 11
Parti@@ 11
Planet 11
Polic@@ 11
Pro 11
Protection 11
Qatar 11
Quin@@ 11
Recon@@ 11
Religi@@ 11
Religion 11
Report 11
Revol@@ 11
Rhin 11
Roh@@ 11
Río 11
Ríos 11
SSR 11
Santiago 11
Saw@@ 11
Script 11
Security 11
Ses@@ 11
Shr@@ 11
Simpson 11
Sl@@ 11
Sour@@ 11
Sto@@ 11
TP 11
Te 11
Tech 11
Tech@@ 11
Thor@@ 11
Times 11
Ton@@ 11
Tos@@ 11
Trag@@ 11
Trois 11
Tō@@ 11
U. 11
UE 11
Uch@@ 11
Vik@@ 11
Viv@@ 11
Vy@@ 11
Wells 11
Wind@@ 11
Wr@@ 11
Xu@@ 11
abe 11
above 11
account 11
acre 11
adv@@ 11
agi 11
agua 11
aid 11
aifa 11
aining 11
ajas 11
allah 11
alls 11
ament 11
anded 11
angu 11
ano@@ 11
another 11
architecture 11
aren@@ 11
arium 11
arius 11
ater@@ 11
atri@@ 11
atu 11
auto@@ 11
autom@@ 11
aver 11
añ@@ 11
bac@@ 11
balance 11
basis 11
bau@@ 11
behavior 11
bekistan 11
beta 11
bir 11
bola 11
brill@@ 11
but@@ 11
came 11
camera 11
character 11
chlor@@ 11
chr@@ 11
circuit 11
collap@@ 11
colum@@ 11
complete 11
deg@@ 11
dep@@ 11
deriv@@ 11
dex 11
distribution 11
done 11
dus 11
dy@@ 11
eding 11
edra 11
edy 11
eki 11
eles 11
elled 11
ended 11
enta 11
entales 11
escu 11
eses 11
esses 11
estre 11
eters 11
eur 11
famous 11
fat@@ 11
feder@@ 11
few 11
flag 11
fle@@ 11
fo 11
generation 11
gets 11
gios 11
gly@@ 11
goods 11
habit@@ 11
haf@@ 11
height 11
hem 11
idar@@ 11
identity 11
ido 11
ienne 11
ieux 11
iga 11
iggins 11
illi@@ 11
imp@@ 11
inde 11
infl@@ 11
influence 11
inga 11
intellectu@@ 11
iny@@ 11
ises 11
its@@ 11
itself 11
jah@@ 11
k.@@ 11
kali 11
kat 11
kus@@ 11
leb@@ 11
lee 11
legi@@ 11
ley@@ 11
lide 11
lies 11
literature 11
loy@@ 11
luc@@ 11
m3 11
mai 11
mak 11
map@@ 11
means 11
method 11
mol 11
mé@@ 11
n.@@ 11
named 11
narr@@ 11
nic 11
obr@@ 11
ody 11
offered 11
oil 11
oir 11
olar@@ 11
oli@@ 11
omy@@ 11
onas 11
onga 11
onie 11
onna 11
orb@@ 11
oshi 11
ours 11
outs 11
oué 11
pale@@ 11
physi@@ 11
polit@@ 11
politics 11
polog@@ 11
prim@@ 11
produced 11
protected 11
provincial 11
pu 11
real 11
refu@@ 11
ris 11
rise 11
runs 11
search 11
solar 11
species 11
sta 11
stadium 11
stri@@ 11
styl@@ 11
subst@@ 11
subur@@ 11
supply 11
technical 11
temperature 11
tens@@ 11
tera 11
tex 11
therap@@ 11
thetic 11
tically 11
tim 11
tine 11
toler@@ 11
topl@@ 11
trad@@ 11
translation 11
tre@@ 11
trial 11
udo 11
unt 11
ven 11
vey 11
vez 11
weight 11
yak@@ 11
zen 11
zis@@ 11
zon@@ 11
äl@@ 11
èg@@ 11
ól@@ 11
ün@@ 11
Ā@@ 11
ın 11
ŋ 11
ś 11
Ž@@ 11
ʃ 11
̞ 11
Ал@@ 11
Г@@ 11
Са@@ 11
в 11
е@@ 11
з 11
о@@ 11
с 11
ск 11
ское 11
сп@@ 11
у 11
ч@@ 11
ческий 11
Қ@@ 11
ն 11
ր@@ 11
ַ 11
آي 11
أت@@ 11
أك@@ 11
أمر@@ 11
أنه 11
إم@@ 11
ئات 11
ئك 11
الأحمر 11
الأمير 11
الأند@@ 11
الإسلامي 11
البيت 11
التل@@ 11
التمي@@ 11
الجزء 11
الحد 11
الحي 11
الدولي 11
الساد@@ 11
السف@@ 11
الشي@@ 11
الصغير 11
الطلب 11
الـ@@ 11
المجلس 11
المري@@ 11
امه 11
انًا 11
انکہ 11
اوية 11
بارك 11
بدي@@ 11
براسکا 11
تأليف 11
تصني@@ 11
توبر 11
ثنائي 11
جميع 11
حيل 11
ذه 11
شارات 11
طة 11
عهد 11
فته 11
فه@@ 11
فًا 11
ليات 11
ماك 11
مته 11
منها 11
نيات 11
واة 11
والس@@ 11
ونيو 11
وهم 11
يص@@ 11
يقول 11
يمر 11
ينات 11
َّة 11
ڳ 11
ۗ 11
ۭ 11
कर 11
ग@@ 11
प@@ 11
भ@@ 11
मंदिर 11
मा@@ 11
रा@@ 11
लाई 11
ष 11
ु@@ 11
ব 11
ৰ@@ 11
ਯ@@ 11
ੲ@@ 11
ગ@@ 11
ଗ@@ 11
ଦ@@ 11
ட 11
ப 11
ள@@ 11
ద@@ 11
ా 11
ಂ@@ 11
ವ@@ 11
ಸ@@ 11
ೇ@@ 11
ල 11
ḥ 11
→ 11
⋅ 11
✅ 11
ア@@ 11
ポ@@ 11
国 11
天@@ 11
新@@ 11
ﺱ@@ 11
ﻝ@@ 11
ﻩ@@ 11
.-@@ 10
0,1 10
0.000 10
2550 10
2م 10
AIDS 10
ARC 10
Adv@@ 10
Affairs 10
Alberta 10
Ambro@@ 10
Apo@@ 10
Are@@ 10
Aristot@@ 10
Associ@@ 10
Att@@ 10
Augustus 10
Awards 10
Ay 10
BM 10
BN 10
Baby 10
Banks 10
Barcelona 10
Barry 10
Bayr@@ 10
Berg 10
Bi 10
Big@@ 10
Bir 10
Blan@@ 10
Bod@@ 10
Bourbon 10
Bow@@ 10
Brig@@ 10
Bristol 10
Burn@@ 10
CF@@ 10
Cali@@ 10
Camb@@ 10
Cap 10
Carl 10
Christi@@ 10
Comm@@ 10
Const@@ 10
Control 10
Corona 10
Cub@@ 10
DL 10
DV@@ 10
Daily 10
Dak@@ 10
Dame 10
Delaware 10
Dez@@ 10
Dial@@ 10
Dick@@ 10
Dmi@@ 10
Dus@@ 10
Eh@@ 10
Es 10
Esper@@ 10
Estado 10
Executive 10
Financial 10
Fox 10
Fra@@ 10
Frank 10
Fund@@ 10
Galicia 10
Gay 10
Go 10
Gran 10
Guide 10
Guz@@ 10
Hampshire 10
Harbor 10
Harold 10
Hart@@ 10
Her 10
IBM 10
IEEE 10
IUCN 10
Iglesia 10
Inn@@ 10
Ira@@ 10
Isa@@ 10
Johann 10
Jos@@ 10
Juli@@ 10
Kara 10
Karab@@ 10
Kaw@@ 10
Kim 10
Kok@@ 10
LGBT 10
Ler@@ 10
León 10
Lil@@ 10
Lind@@ 10
Ling@@ 10
Living 10
Lom@@ 10
Lomb@@ 10
MO 10
Mahar@@ 10
Mann@@ 10
Mant@@ 10
Maw@@ 10
Mehmed 10
Merc@@ 10
Micha@@ 10
Moscow 10
Movement 10
Mr@@ 10
Mud@@ 10
Mum@@ 10
Mustafa 10
NAS@@ 10
NASA 10
Neb@@ 10
Never 10
Norfolk 10
OT@@ 10
Omar 10
Open@@ 10
Organ@@ 10
Ost@@ 10
PD 10
Parad@@ 10
Pep@@ 10
Personal 10
Ph.@@ 10
Philippe 10
Pick@@ 10
Pion@@ 10
Police 10
Portuguese 10
Pow@@ 10
Prad@@ 10
Prize 10
Programm@@ 10
Psy@@ 10
Pyth@@ 10
Quer@@ 10
RN 10
Rain@@ 10
Richmond 10
Rico 10
Run@@ 10
République 10
SH 10
SL 10
SN 10
SO 10
Sant 10
Schw@@ 10
Secretary 10
Sens@@ 10
Set@@ 10
Shang@@ 10
Shanghai 10
Sied@@ 10
Simon 10
Siv@@ 10
Son 10
Species 10
Spr@@ 10
Spring 10
Stanley 10
Sv@@ 10
Sydney 10
TV@@ 10
Tad@@ 10
Taliban 10
Terre 10
Thai 10
Tokyo 10
Too 10
Torre 10
Tow@@ 10
Toy@@ 10
UT@@ 10
Uj@@ 10
Ukrainian 10
Us@@ 10
Ut@@ 10
Vak@@ 10
Von 10
Wand@@ 10
Wild 10
Wild@@ 10
Will@@ 10
Windsor 10
Woman 10
XIX 10
Ya@@ 10
Zw@@ 10
acial 10
activ@@ 10
adia 10
agency 10
ague 10
ako 10
aled 10
alil@@ 10
alim@@ 10
always 10
amber 10
ammed 10
andan 10
andra 10
anese 10
angel@@ 10
anl@@ 10
anı 10
apo 10
apos@@ 10
ardin@@ 10
armed 10
arms 10
aru 10
asta 10
asure 10
ata@@ 10
aten 10
atha 10
aths 10
aut 10
ball 10
bes@@ 10
bet@@ 10
better 10
big 10
boy 10
bud@@ 10
carri@@ 10
cau@@ 10
centre 10
certain 10
channel 10
chap@@ 10
church 10
civiliz@@ 10
class@@ 10
clin@@ 10
commissioned 10
communities 10
company 10
comple@@ 10
controlled 10
creation 10
cript 10
dad 10
dated 10
dei 10
dem 10
deo 10
dez 10
diam@@ 10
dil 10
disc 10
dog 10
domestic 10
door 10
dre 10
drive 10
eba 10
eberg 10
ectiv@@ 10
edge 10
ein@@ 10
eir@@ 10
electric@@ 10
enas 10
encies 10
enj@@ 10
eon 10
eper 10
erh@@ 10
eria 10
eron 10
esty 10
etti 10
ety 10
expect@@ 10
faced 10
factor 10
follows 10
fordshire 10
fro@@ 10
ful@@ 10
gel 10
gli@@ 10
glu@@ 10
gri 10
ground 10
hib@@ 10
hip 10
hir@@ 10
hl 10
hyp@@ 10
icas 10
icul@@ 10
identi@@ 10
iel 10
iers 10
igne 10
iken 10
iling 10
ilk 10
illi 10
ills 10
inda 10
ingo 10
ingt 10
inn 10
insk 10
irat@@ 10
isher 10
isson 10
ition 10
itz@@ 10
ive 10
jed@@ 10
jia 10
jk 10
jou@@ 10
junction 10
kom@@ 10
kun@@ 10
lad@@ 10
leen 10
lery 10
lights 10
lik@@ 10
lov@@ 10
lé@@ 10
mark@@ 10
maz 10
mem@@ 10
mentioned 10
mere 10
metabol@@ 10
mile 10
modi@@ 10
mud 10
mur 10
nat@@ 10
nations 10
nature 10
neo 10
never 10
num@@ 10
ogle 10
olm 10
olo@@ 10
omb 10
oms 10
onnais 10
open@@ 10
ops 10
oqu@@ 10
organ 10
organized 10
ovich 10
pack@@ 10
pair 10
patri@@ 10
peace 10
person@@ 10
phosph@@ 10
plane 10
plus 10
poetry 10
points 10
pon@@ 10
pose 10
prepar@@ 10
princi@@ 10
print@@ 10
pris@@ 10
private 10
protoc@@ 10
provide 10
puls@@ 10
pus 10
qua 10
ram 10
range 10
reas 10
recognition 10
reduc@@ 10
reign 10
ren 10
represent@@ 10
ric 10
role 10
rt 10
rés 10
s. 10
saint 10
sal 10
sche 10
sci@@ 10
sein 10
separated 10
share 10
sheim 10
ships 10
sie 10
slo@@ 10
spe@@ 10
speech 10
sth@@ 10
still 10
tad 10
tad@@ 10
tav@@ 10
techn@@ 10
tek 10
television 10
tered 10
term 10
tern@@ 10
test@@ 10
thang 10
thus 10
tour@@ 10
traditional 10
typ@@ 10
uca 10
uch 10
uld 10
ulum 10
umen 10
units 10
unk@@ 10
uri@@ 10
uti 10
valu@@ 10
ventures 10
vers@@ 10
versi@@ 10
ves@@ 10
ving 10
vol 10
vul@@ 10
wei 10
whose 10
wid@@ 10
with@@ 10
within 10
written 10
wrote 10
yard 10
yas@@ 10
yev 10
zan@@ 10
Å@@ 10
çe 10
éli@@ 10
ì@@ 10
ío 10
üm@@ 10
ı@@ 10
ř@@ 10
şe 10
ʊ@@ 10
Θ@@ 10
δ@@ 10
ει@@ 10
κ@@ 10
ρ 10
σ@@ 10
φ@@ 10
И@@ 10
Социалистиче@@ 10
автоно@@ 10
край 10
ла@@ 10
на@@ 10
та 10
ь 10
ҳ@@ 10
ә@@ 10
ּ 10
ח 10
أخذ 10
أمي@@ 10
الأول 10
الإسلا@@ 10
التغ@@ 10
الجامعات 10
الحي@@ 10
الدول 10
الشيوخ 10
المملكة 10
النظام 10
الوصول 10
اليمن 10
اوکلا@@ 10
اية 10
بطل 10
تاي@@ 10
تة 10
تعد 10
تكون 10
حه 10
دها 10
ذج 10
راي 10
زية 10
سياس@@ 10
سيما 10
ضى 10
عسك@@ 10
عية 10
فاز 10
قوان@@ 10
كندا 10
للح@@ 10
للم@@ 10
ليد 10
ممک@@ 10
منى 10
مويل 10
هام 10
هنا 10
هى 10
وإن@@ 10
والط@@ 10
وبين 10
ومغ@@ 10
يّ 10
يّ@@ 10
ٙ@@ 10
ڀ@@ 10
ܝ@@ 10
आज 10
कु@@ 10
को 10
चो@@ 10
ण 10
द 10
दुनिया 10
ब 10
वालों 10
सु@@ 10
हिं@@ 10
ा@@ 10
খ@@ 10
জ 10
ਵ 10
ତ 10
ନ 10
ை 10
త@@ 10
న@@ 10
ర 10
ಕ@@ 10
ග@@ 10
ბ@@ 10
მ@@ 10
ṇ@@ 10
↵ 10
█ 10
ト@@ 10
 10
ﭝ@@ 10
ﭡ@@ 10
ﮃ@@ 10
ﻂ 10
ﻅ 10
ﻰ 10
ﻲ@@ 10
AO 9
Aar@@ 9
Abbey 9
Academ@@ 9
Advanced 9
Alfred 9
Allen 9
Amazon 9
Anatolia 9
Andrew 9
Anim@@ 9
Ann 9
Another 9
Apple 9
April 9
Aug@@ 9
Auto 9
Azer@@ 9
BI 9
Bach@@ 9
Baden 9
Baker 9
Batt@@ 9
Beijing 9
Bibli@@ 9
Bird 9
Blanca 9
Brothers 9
Buffalo 9
But 9
Ca 9
Cao 9
Catherine 9
Cem@@ 9
Chand@@ 9
Chang 9
Cho@@ 9
Clau@@ 9
Clin@@ 9
Cob@@ 9
Common@@ 9
Communications 9
Constant@@ 9
Cook 9
Critical 9
Cyr@@ 9
DT 9
Dance 9
Del 9
Di 9
Diego 9
Differ@@ 9
Dik@@ 9
Discovery 9
Distribu@@ 9
Doctor 9
Dr 9
Duch@@ 9
Durham 9
During 9
EMI 9
Edition 9
Edmund 9
Educ@@ 9
Entr@@ 9
Entre 9
Esk@@ 9
Ethiopia 9
Euph@@ 9
Felix 9
Fig@@ 9
Floyd 9
Freder@@ 9
Fun@@ 9
Galaxy 9
Guillaume 9
Hap@@ 9
Harvard 9
Head 9
Helsinki 9
Hend@@ 9
Hik@@ 9
His@@ 9
Hockey 9
Holland 9
Horiz@@ 9
Hot 9
Hous@@ 9
Hz 9
Imperial 9
Independ@@ 9
Indians 9
Inn 9
Instrum@@ 9
Invest@@ 9
Irish 9
Jin 9
Jub@@ 9
Julia 9
Julius 9
Juni@@ 9
Korean 9
Labour 9
Lanc@@ 9
Laos 9
Leb@@ 9
Lec@@ 9
Lew@@ 9
Lob@@ 9
Luftwaffe 9
MB 9
MIT 9
Maf@@ 9
Malcolm 9
Mara 9
Marc@@ 9
Marine 9
Mark@@ 9
Martín 9
Massachusetts 9
Mayo 9
Memorial 9
Ment@@ 9
Minas 9
Monaco 9
Monum@@ 9
Murcia 9
NGC 9
Nancy 9
Nes@@ 9
Nile 9
Nord@@ 9
Notes 9
Officer 9
Orthodo@@ 9
Ov@@ 9
Over 9
PT 9
Pach@@ 9
Palestine 9
Pall@@ 9
Panama 9
Paz@@ 9
Paşa 9
Person@@ 9
Philip 9
Physi@@ 9
Princess 9
Que@@ 9
Rein@@ 9
Rig@@ 9
Rue 9
Rush 9
Rut@@ 9
Scotland 9
Second@@ 9
Seh@@ 9
Semin@@ 9
So 9
Song@@ 9
Stoc@@ 9
Suff@@ 9
Sul 9
Techn@@ 9
Thur@@ 9
Timor 9
Tob@@ 9
Toledo 9
Transport 9
Trinity 9
Triple 9
Tür@@ 9
UK@@ 9
Universit@@ 9
Venez@@ 9
Versailles 9
Vista 9
Vol 9
Wed@@ 9
Wer@@ 9
Westminster 9
Wiki@@ 9
Wimbledon 9
Yor@@ 9
Zin@@ 9
aal@@ 9
abu 9
actor 9
aders 9
adol@@ 9
ady 9
aeus 9
aged 9
agon@@ 9
ags 9
aillon 9
ained 9
alet 9
alian 9
alog 9
ambia 9
ambo 9
ambul@@ 9
amin@@ 9
amoto 9
analy@@ 9
anced 9
anco 9
ank@@ 9
antu 9
aras@@ 9
aris 9
arp@@ 9
asan 9
ases 9
aster@@ 9
ası 9
audio 9
back@@ 9
bah@@ 9
beau 9
bed@@ 9
bel 9
bid@@ 9
bie 9
blue 9
bon@@ 9
bone 9
boro 9
built 9
cat 9
category 9
cha@@ 9
changes 9
character@@ 9
characters 9
charged 9
chen 9
child 9
circum@@ 9
clave 9
coc@@ 9
compar@@ 9
composition 9
continu@@ 9
counter@@ 9
cour@@ 9
crime 9
criptions 9
criticized 9
days 9
devi@@ 9
dir@@ 9
disc@@ 9
dog@@ 9
dry 9
eci@@ 9
economy 9
edition 9
effici@@ 9
elia 9
elly 9
ench@@ 9
encour@@ 9
endel@@ 9
ender@@ 9
endr@@ 9
ener@@ 9
enes 9
erne 9
esta 9
etc 9
eting 9
etto 9
etz 9
euse 9
evol@@ 9
exist 9
exist@@ 9
exp@@ 9
eye 9
factors 9
finished 9
fixed 9
fly 9
foot@@ 9
ford@@ 9
formed 9
fron@@ 9
front 9
fuel 9
fur 9
gang@@ 9
garden 9
ged 9
gers 9
gle 9
grade 9
hand@@ 9
hay 9
heimer 9
hen 9
hier@@ 9
highest 9
hiz@@ 9
how 9
hyper@@ 9
icia 9
icro@@ 9
icum 9
icz 9
idea 9
ife 9
ige 9
ih 9
ilo 9
immer@@ 9
influ@@ 9
interest 9
involved 9
inz@@ 9
ions 9
isha 9
issa 9
itu@@ 9
joined 9
justice 9
kes 9
kid@@ 9
kos@@ 9
label 9
lah@@ 9
lap 9
lars 9
last@@ 9
law@@ 9
leton 9
library 9
ligh@@ 9
linear 9
long@@ 9
lor@@ 9
mari@@ 9
mati@@ 9
meant 9
memory 9
mortal@@ 9
mos 9
moved 9
moving 9
much 9
music 9
nak@@ 9
neau 9
neg@@ 9
neighbor@@ 9
neuf 9
nit@@ 9
nm 9
nos@@ 9
note 9
officially 9
officials 9
oles 9
ologne 9
olu 9
onds 9
ongo@@ 9
online 9
opol@@ 9
oran 9
organis@@ 9
orient@@ 9
oring 9
orno 9
others 9
otop@@ 9
ovia 9
pH 9
pag@@ 9
pain 9
pass@@ 9
past 9
performance 9
pet@@ 9
phase 9
phus 9
ple 9
ply 9
pos 9
prec@@ 9
primary 9
problems 9
propor@@ 9
pros@@ 9
put@@ 9
qui 9
quot@@ 9
rab@@ 9
race 9
rates 9
real@@ 9
rej@@ 9
reser@@ 9
reserve 9
resol@@ 9
rest@@ 9
ria 9
rin 9
rique 9
ris@@ 9
robot 9
sap@@ 9
satellite 9
sberg 9
sch 9
scr@@ 9
semi 9
sense 9
serve 9
sets 9
sign 9
sir@@ 9
six 9
skin 9
sport 9
square 9
staff 9
stand 9
sto@@ 9
strength 9
student 9
sud@@ 9
tag 9
tation 9
tea 9
tei 9
tenden 9
terre 9
ths 9
tista 9
toon 9
tral 9
tronics 9
tropical 9
uer@@ 9
umin@@ 9
ungs@@ 9
uno 9
uo 9
upon 9
ural 9
usi 9
uter 9
vag@@ 9
vas@@ 9
vation 9
vent@@ 9
vic@@ 9
vill@@ 9
vivo 9
voc@@ 9
volution 9
vá@@ 9
w.@@ 9
wald 9
water@@ 9
wer 9
wer@@ 9
win@@ 9
writer 9
yap@@ 9
yaz@@ 9
yen 9
yle 9
yol@@ 9
zin 9
zip 9
Église 9
ác@@ 9
ân@@ 9
æ 9
ça 9
ð 9
ò@@ 9
ún 9
ır@@ 9
ɛ 9
ʼ 9
Β@@ 9
αγ@@ 9
γ@@ 9
ε 9
θ@@ 9
λ@@ 9
ρ@@ 9
К@@ 9
Ма@@ 9
Ре@@ 9
Соци@@ 9
Т@@ 9
Укра@@ 9
Х@@ 9
б@@ 9
бли@@ 9
да 9
ж@@ 9
за@@ 9
къ@@ 9
м 9
но@@ 9
округ 9
публи@@ 9
публика@@ 9
сы 9
ха@@ 9
ש 9
أبو@@ 9
إث@@ 9
اطي 9
الأرض 9
البيض 9
الجزيرة 9
الحصول 9
السوق 9
الصنا@@ 9
العقد 9
الكندي 9
الكون@@ 9
المنتخب 9
الهند 9
اها 9
بإ@@ 9
بحت 9
بية 9
تركي@@ 9
تمع 9
ثلا@@ 9
جاه 9
خيص 9
رسالة 9
ستاذ 9
سكان@@ 9
شخاص 9
طلح 9
عتبر 9
غرس 9
غيل 9
فرة 9
كرة 9
كورونا 9
لإ@@ 9
لكن 9
مارات 9
مط 9
معدل 9
مكتب 9
مكن 9
منذ 9
منهم 9
نشاء 9
هام@@ 9
هج 9
وأن@@ 9
والج@@ 9
ونش@@ 9
ونه 9
يرة 9
يكون 9
ّى 9
څ 9
ډ@@ 9
ܕ@@ 9
ܘ@@ 9
और 9
के 9
के@@ 9
तुम 9
पा@@ 9
मा 9
हम 9
हिमालय 9
॥ 9
२ 9
ড 9
য@@ 9
ূ@@ 9
ਇ@@ 9
ਘ 9
ਦ 9
ଜ@@ 9
ୀ 9
େ 9
எ@@ 9
ற@@ 9
ள 9
ழ@@ 9
ி 9
ே@@ 9
ோ@@ 9
ల 9
ు@@ 9
ಯ@@ 9
ಲ@@ 9
ೋ@@ 9
മ@@ 9
ി@@ 9
ක@@ 9
න@@ 9
හ@@ 9
ུ@@ 9
ვ@@ 9
Ἑ@@ 9
₨ 9
┈ 9
ⴰ@@ 9
ス 9
島@@ 9
日本@@ 9
 9
 9
 9
 9
ﮈ 9
ﮣ@@ 9
ﺥ 9
🐰 9
💥 9
10th 8
1950s 8
AFC 8
Abd 8
Abraham 8
According 8
Admiral 8
Albania 8
Alexandria 8
Alg@@ 8
Alman@@ 8
Alto 8
Andal@@ 8
Anderson 8
Angel 8
Anna 8
Aper@@ 8
Arena 8
Argentine 8
Armstrong 8
Artem@@ 8
Arti@@ 8
Artic@@ 8
Aster@@ 8
Atlantique 8
Aud@@ 8
BAS@@ 8
BB@@ 8
BL@@ 8
BR@@ 8
Ba 8
Back 8
Barbara 8
Belle 8
Bible 8
Blu@@ 8
Bron@@ 8
Brun@@ 8
Bryan 8
CN 8
CON@@ 8
CR@@ 8
Cairo 8
Canterbury 8
Carlos 8
Castell@@ 8
Cec@@ 8
Chat@@ 8
Chic@@ 8
Chicago 8
Chr@@ 8
Class 8
Class@@ 8
Cler@@ 8
Commer@@ 8
Communist 8
Concep@@ 8
Continental 8
Cra@@ 8
Cryp@@ 8
Cultural 8
Da 8
Der 8
Dest@@ 8
Develop@@ 8
Diamond 8
Dieu 8
Disney 8
Doc@@ 8
Docum@@ 8
Donald 8
Dud@@ 8
Dut@@ 8
Dw@@ 8
EF@@ 8
Eas@@ 8
Edwin 8
Estr@@ 8
Ez@@ 8
FF@@ 8
Fair 8
Fas@@ 8
Festival 8
Fili@@ 8
Fis@@ 8
Food 8
Frank@@ 8
Full 8
Fund 8
Future 8
Gibraltar 8
Glass 8
Gri@@ 8
Guil@@ 8
Guy 8
HA 8
HK 8
Hammer@@ 8
Happy 8
Harr@@ 8
Harris 8
Here 8
Histori@@ 8
Hok@@ 8
Hollywood 8
Holmes 8
Horse 8
Houston 8
Hr@@ 8
Iber@@ 8
Ibrahim 8
Ich@@ 8
Ide@@ 8
Illinois 8
Industry 8
Inst@@ 8
Isaac 8
Jap@@ 8
John@@ 8
Jour@@ 8
Jug@@ 8
Jung@@ 8
Junior 8
KZ 8
Ka 8
Kem@@ 8
Kes@@ 8
Ki 8
Kik@@ 8
Kingston 8
Kong@@ 8
Kuz@@ 8
Köy 8
Labor 8
Laborat@@ 8
Lancaster 8
Lara 8
Late 8
Libr@@ 8
Link 8
Lloyd 8
Lod@@ 8
Louisiana 8
Luci@@ 8
Lübeck 8
MHz 8
MR 8
Mack@@ 8
Malm@@ 8
Max@@ 8
Medicine 8
Medina 8
Monte@@ 8
Montre@@ 8
Mozambi@@ 8
Na 8
Naples 8
Nicholas 8
Niger 8
Nil@@ 8
Niv@@ 8
Og@@ 8
Oil 8
Oli@@ 8
Olympics 8
Online 8
PF 8
Pag@@ 8
Palm 8
Param@@ 8
Perf@@ 8
Perth 8
Phar@@ 8
Pharm@@ 8
Pig@@ 8
Place 8
Plan 8
Play@@ 8
Player 8
Poc@@ 8
Pop@@ 8
Population 8
Porto 8
Prague 8
Presidente 8
Production 8
Professor 8
Programme 8
Pré@@ 8
Queens 8
Rhodes 8
Roi 8
Rub@@ 8
SU 8
SV@@ 8
Sand 8
Sans@@ 8
Schools 8
Sed@@ 8
Sek@@ 8
Sex 8
Shin@@ 8
Short 8
Sich@@ 8
Sieg@@ 8
Slav@@ 8
Sog@@ 8
Soy@@ 8
Spencer 8
Stand@@ 8
Stewart 8
Stockholm 8
Strateg@@ 8
Sudan 8
Susan 8
Syst@@ 8
Ta 8
Tac@@ 8
Tall@@ 8
Tap@@ 8
Tep@@ 8
Tes@@ 8
Thu@@ 8
Tin 8
Today 8
Total 8
Tree 8
Tyr@@ 8
UI 8
Ves@@ 8
Via 8
Vie 8
Voy@@ 8
WHO 8
Wald@@ 8
Wang@@ 8
Ward 8
Wehrmacht 8
Well@@ 8
While 8
Wid@@ 8
Wiz@@ 8
Yal@@ 8
Yas@@ 8
Zanzibar 8
Zu@@ 8
aar 8
abi@@ 8
academ@@ 8
accus@@ 8
aching 8
acqu@@ 8
acquisition 8
address 8
aded 8
ador@@ 8
adu@@ 8
agents 8
agriculture 8
aim@@ 8
ainer 8
aines 8
aku 8
aku@@ 8
alliance 8
along 8
als@@ 8
amen 8
amental 8
amount 8
anas 8
aner 8
anlar 8
annon 8
announced 8
applied 8
approximately 8
aran@@ 8
arin 8
arina 8
ariz@@ 8
artic@@ 8
arz@@ 8
aser 8
ason 8
asses 8
assy 8
asu 8
aten@@ 8
attacked 8
atures 8
aurus 8
aux@@ 8
aven 8
avo 8
award 8
bag@@ 8
bas 8
bases 8
basi 8
bee 8
beg@@ 8
believe 8
bez@@ 8
bic@@ 8
birds 8
bourne 8
bow@@ 8
break 8
camp 8
capac@@ 8
care 8
cath@@ 8
certific@@ 8
char 8
chers 8
chief 8
children 8
chus 8
cial 8
circulation 8
citizens 8
climate 8
clos@@ 8
club 8
common@@ 8
concentration 8
conflict 8
contains 8
coordin@@ 8
correspond@@ 8
cott 8
crisis 8
cum@@ 8
dates 8
deal 8
defeated 8
deli@@ 8
denomin@@ 8
dieu 8
dings 8
diz@@ 8
dram@@ 8
dur 8
echn@@ 8
editor 8
ego 8
ejo 8
electronic 8
elen 8
ener 8
enfeld 8
engu@@ 8
enia 8
enov@@ 8
enses 8
ension 8
ently 8
entry 8
enz 8
ept 8
erra 8
essing 8
estone 8
ethnic 8
eties 8
etr@@ 8
eurs 8
event 8
events 8
evin 8
eza 8
feature 8
feh@@ 8
fight 8
figur@@ 8
file 8
fj@@ 8
fluor@@ 8
focus 8
followed 8
food 8
form@@ 8
found@@ 8
frame 8
freedom 8
ft@@ 8
fus@@ 8
future 8
gang 8
gence 8
give 8
gon@@ 8
grad@@ 8
gros@@ 8
grou@@ 8
gus@@ 8
hani 8
hasa 8
having 8
heavy 8
hibi@@ 8
hit 8
hn@@ 8
horn 8
hot@@ 8
hour 8
however 8
hup@@ 8
hô@@ 8
ias 8
ibn 8
icon@@ 8
icos 8
icus 8
ident 8
ief 8
ig 8
igan 8
igen@@ 8
ight@@ 8
ighton 8
igi 8
ikawa 8
iler 8
ilia 8
illar@@ 8
illet 8
images 8
inform@@ 8
ios 8
isburg 8
isc@@ 8
isch@@ 8
ishes 8
ishment 8
ision 8
issu@@ 8
isters 8
itr@@ 8
jana 8
kam 8
kari 8
kaya 8
key@@ 8
kirchen 8
kitab@@ 8
kov@@ 8
kw@@ 8
laborat@@ 8
lara 8
ld 8
learning 8
lei 8
len 8
lera 8
letter 8
line@@ 8
lingen 8
literary 8
location 8
loss@@ 8
lug@@ 8
lumin@@ 8
lus 8
magn@@ 8
maison 8
mans 8
meas@@ 8
middle 8
missing 8
morph@@ 8
mostly 8
mou@@ 8
msh@@ 8
muj@@ 8
nad@@ 8
national@@ 8
nier 8
nig@@ 8
nio 8
noc@@ 8
nova 8
né@@ 8
observ@@ 8
ois@@ 8
oki 8
ologies 8
oman 8
ongo 8
onium 8
onym@@ 8
orph@@ 8
orum 8
osp@@ 8
ospel 8
oti 8
oti@@ 8
otus 8
ously 8
outh 8
ouvre 8
ovsky 8
owski 8
ox 8
pad@@ 8
pan 8
parallel 8
param@@ 8
paras@@ 8
patr@@ 8
pei 8
philosoph@@ 8
plate 8
players 8
plot 8
poli@@ 8
possible 8
powered 8
pra@@ 8
present 8
programs 8
propul@@ 8
pus@@ 8
quet 8
rad 8
rar 8
read 8
reason 8
ree 8
refle@@ 8
rem 8
resistance 8
resources 8
restric@@ 8
retr@@ 8
rev@@ 8
ric@@ 8
rien 8
roads 8
roman@@ 8
ron@@ 8
rop@@ 8
roy 8
ré 8
rép@@ 8
sad@@ 8
same 8
sang 8
secret 8
sei 8
sent 8
separate 8
sexu@@ 8
she 8
sible 8
ski@@ 8
slow 8
sof@@ 8
sour@@ 8
spatial 8
split 8
sports 8
squad 8
sson 8
standing 8
stating 8
steel 8
sten 8
strat@@ 8
strateg@@ 8
students 8
supporters 8
swit@@ 8
synth@@ 8
tables 8
tac@@ 8
tah@@ 8
taken 8
tant 8
terminal 8
terminus 8
tham 8
theme 8
tho@@ 8
thought 8
thy@@ 8
tico 8
tific@@ 8
tiful 8
tik 8
titles 8
tn@@ 8
too 8
tos@@ 8
tra@@ 8
tum 8
tz@@ 8
uchi 8
uck 8
ular@@ 8
undi 8
unif@@ 8
utionary 8
vac@@ 8
variable 8
vat@@ 8
vec@@ 8
vent 8
ventr@@ 8
versus 8
vid@@ 8
vig@@ 8
violence 8
visible 8
voice 8
vot@@ 8
wand@@ 8
wang 8
wind 8
without 8
writers 8
yon 8
yon@@ 8
zeh@@ 8
zur 8
´ 8
Æ@@ 8
ás 8
än 8
än@@ 8
ç 8
ême 8
ü 8
üd@@ 8
ür@@ 8
č 8
ık@@ 8
ɐ 8
ɦ 8
ʒ 8
Α@@ 8
Σ@@ 8
Χ@@ 8
η 8
η@@ 8
κα@@ 8
μ@@ 8
ν 8
το 8
ω 8
Авто@@ 8
Д@@ 8
Н@@ 8
Та@@ 8
Чу@@ 8
ал@@ 8
ва 8
ви@@ 8
дера 8
до@@ 8
круг 8
не@@ 8
но 8
ре 8
фе@@ 8
ч 8
чи@@ 8
ө@@ 8
յ@@ 8
ն@@ 8
ׁ 8
ק 8
؃ 8
ؕ@@ 8
أول 8
البقاء 8
التش@@ 8
الحب 8
الحديد 8
الحكوم@@ 8
الساعة 8
العرض 8
الفرق 8
القتال 8
الكويت 8
المطلق 8
الملا@@ 8
اليوم 8
اهد 8
بعضهم 8
تبادل 8
تمرار 8
تمي 8
تهم 8
جزيرة 8
جيش 8
حقق 8
حيث 8
حًا 8
رها 8
سة 8
شكل 8
ظهور 8
عضو@@ 8
فرانك 8
فيف 8
فيما 8
قاعدة 8
قبة 8
قدمت 8
قية 8
كبار 8
كتب@@ 8
لويس 8
مثيل 8
محرك 8
مدير 8
مركب 8
مسؤ@@ 8
مساع@@ 8
ميخ@@ 8
نهر 8
نواع 8
نية 8
هاء 8
وأن 8
والده 8
والغ@@ 8
وتُ@@ 8
ولدت 8
ويات 8
وية 8
ويين 8
يتين 8
يرات 8
يسون 8
يعني 8
يكون@@ 8
ځ@@ 8
ڄ 8
ڇ@@ 8
ڠ 8
کنیکٹی@@ 8
ۆ@@ 8
ܢ@@ 8
कारा 8
च 8
ञ 8
ड 8
ता 8
दा@@ 8
पि@@ 8
फिर 8
मी@@ 8
मे@@ 8
रु@@ 8
वी 8
सि@@ 8
से 8
ी 8
অ@@ 8
স 8
ਂ@@ 8
ਐ@@ 8
ਡ@@ 8
ં@@ 8
କ 8
ଭ@@ 8
ୋ@@ 8
அ@@ 8
ர 8
ா 8
జ@@ 8
స@@ 8
ാ@@ 8
ു@@ 8
ද 8
ය@@ 8
ර 8
ස@@ 8
ා 8
མ 8
ས 8
ქ@@ 8
ἀ@@ 8
✔ 8
ウ@@ 8
チ@@ 8
中国@@ 8
劇@@ 8
和@@ 8
国@@ 8
場@@ 8
字 8
安@@ 8
岡@@ 8
版@@ 8
百@@ 8
省 8
高@@ 8
이 8
 8
 8
ﭕ@@ 8
ﮙ@@ 8
ﺏ@@ 8
ﻎ 8
ﻜ@@ 8
🔘 8
12th 7
1980s 7
1990s 7
2540 7
2549 7
2559 7
2560 7
2562 7
AO@@ 7
About 7
Adi@@ 7
Agricul@@ 7
Alban@@ 7
Aleksand@@ 7
Alpha 7
Ana 7
Analy@@ 7
Anast@@ 7
Ans@@ 7
Aph@@ 7
Aragon 7
Arkansas 7
Around 7
Arz@@ 7
Augus@@ 7
BK 7
Bachelor 7
Bek@@ 7
Belarus 7
Bishop 7
Bologna 7
Bourg@@ 7
Box 7
Broadcasting 7
Building 7
Buk@@ 7
Bulg@@ 7
Bundes@@ 7
Bus 7
C1 7
CM 7
Cabo 7
Call@@ 7
Captain 7
Carol@@ 7
Carp@@ 7
Carr@@ 7
Carter 7
Census 7
Cey@@ 7
Championship 7
Children 7
Christopher 7
Cit@@ 7
Citi@@ 7
Claude 7
Clay@@ 7
Collins 7
Colomb@@ 7
Commerce 7
Conference 7
Cong@@ 7
Connecticut 7
Constitution 7
Core 7
Cres@@ 7
Dallas 7
David@@ 7
Days 7
Deep 7
Deu@@ 7
Did@@ 7
Distrito 7
EB@@ 7
EV@@ 7
Electronic 7
Ent@@ 7
Enterprise 7
Evil 7
Extr@@ 7
Factory 7
Fantasy 7
Fiat 7
Fid@@ 7
Finn@@ 7
Five 7
Flight 7
Flying 7
Franç@@ 7
Friedrich@@ 7
Fré@@ 7
Fus@@ 7
Fürst@@ 7
GM 7
Garde 7
Gat@@ 7
Ged@@ 7
Geography 7
Georgia 7
Gibson 7
Gis@@ 7
Gog@@ 7
Governor 7
Grab@@ 7
Guadal@@ 7
Guin@@ 7
Gül@@ 7
Hadi 7
Hamburg 7
Hang@@ 7
Harry 7
Heavy 7
Heights 7
Hero 7
Hispania 7
Historical 7
Hitler 7
Hob@@ 7
Hod@@ 7
Hub@@ 7
Humboldt 7
Iceland 7
Ili@@ 7
Imag@@ 7
Infin@@ 7
Intelligence 7
Inter 7
Italia 7
Jack@@ 7
Jamaica 7
Jewish 7
Joh@@ 7
Joint 7
Journ@@ 7
Jung 7
Kings 7
Knight 7
Kosovo 7
Kub@@ 7
Labr@@ 7
Lati@@ 7
Lay@@ 7
Legend 7
Leonardo 7
Lif@@ 7
Liz@@ 7
Loh@@ 7
Los@@ 7
Lour@@ 7
Lux@@ 7
MTV 7
Machine 7
Mail@@ 7
Malay@@ 7
Manchester 7
Mans 7
Margar@@ 7
Mart@@ 7
Mason 7
Match 7
Matthew 7
Mecklenburg 7
Mend@@ 7
Metal 7
Miami 7
Milan 7
Mills 7
Mission 7
Moder@@ 7
Moun@@ 7
Munici@@ 7
Murat 7
Museo 7
Myanmar 7
Mz@@ 7
Málaga 7
NC 7
Nac@@ 7
Natur@@ 7
Nau@@ 7
Nich@@ 7
Notre 7
Nus@@ 7
Okinawa 7
Olymp@@ 7
Opera 7
Ord@@ 7
Orleans 7
Orléans 7
Oro@@ 7
Oy@@ 7
Oz@@ 7
Pan 7
Parall@@ 7
Pays 7
Penn@@ 7
PhD 7
Plata 7
Plymouth 7
Pok@@ 7
Polo 7
Portland 7
Princ@@ 7
Prob@@ 7
Ptol@@ 7
Ptolem@@ 7
Publishing 7
Quint@@ 7
RCA 7
Rac@@ 7
Rapha@@ 7
Raymond 7
Reform 7
Rep@@ 7
República 7
Ric@@ 7
Rodrigo 7
Roger 7
Roman@@ 7
Ron@@ 7
Rosa 7
Route 7
S.A. 7
SB@@ 7
Saar@@ 7
Samb@@ 7
Santander 7
Scar@@ 7
Scor@@ 7
Scottish 7
Secret 7
Six 7
Sob@@ 7
Squ@@ 7
Stevens 7
Sti@@ 7
Stock 7
Strat@@ 7
Sund@@ 7
Sunday 7
Superior 7
Sweet 7
Symph@@ 7
Syr@@ 7
Sá@@ 7
Tach@@ 7
Ted@@ 7
Tennessee 7
Terminal 7
Tex@@ 7
Theatre 7
Then 7
Tik@@ 7
Top 7
Tottenham 7
Tourn@@ 7
Tours 7
Traf@@ 7
Trinidad 7
Tru@@ 7
True 7
Türk@@ 7
UA 7
UEFA 7
UF@@ 7
USB 7
Ub@@ 7
Uganda 7
Un 7
Unix 7
Valencia 7
Valent@@ 7
Ve@@ 7
Victor 7
View 7
Vladi@@ 7
WC 7
WWE 7
WWF 7
Wars 7
Waz@@ 7
XXI 7
Yeni 7
Yu 7
Yuc@@ 7
Yugoslavia 7
Zel@@ 7
abil@@ 7
abol@@ 7
absor@@ 7
abstr@@ 7
accompanied 7
acia 7
acle 7
acles 7
acquired 7
actual 7
adam@@ 7
addi@@ 7
adem@@ 7
adir 7
again 7
agreed 7
aint 7
aji@@ 7
algo 7
algorith@@ 7
alien 7
aller@@ 7
alo 7
amis 7
annes 7
ansi 7
anterior 7
anum 7
ape@@ 7
apolis 7
app 7
arc 7
arding 7
aring 7
army 7
arrived 7
arta 7
asso 7
association 7
athan 7
atil@@ 7
atives 7
atma 7
atmosph@@ 7
atta 7
attraction 7
atum 7
av 7
ayed 7
aña 7
ball@@ 7
bana 7
beck 7
behavi@@ 7
best@@ 7
bil 7
bing 7
block 7
bonne 7
bour 7
box@@ 7
boy@@ 7
bs@@ 7
cam@@ 7
canal 7
carbon@@ 7
cases 7
cass@@ 7
cen@@ 7
cent 7
centr@@ 7
chan 7
changed 7
chant 7
ched 7
chem 7
cher@@ 7
chl@@ 7
cian 7
cip@@ 7
circu@@ 7
classical 7
classification 7
clusive 7
cogni@@ 7
communication 7
communications 7
concept 7
condi@@ 7
condition 7
conductor 7
conservation 7
cost 7
critic@@ 7
critical 7
cultiv@@ 7
cup 7
currently 7
cycl@@ 7
deb@@ 7
decades 7
ded@@ 7
dell 7
demand 7
dest@@ 7
dha 7
difference 7
disambiguation 7
dominant 7
dose 7
drome 7
dul 7
dyn@@ 7
dé 7
ease 7
ece 7
ections 7
ectives 7
ede 7
eg 7
egem@@ 7
ehri 7
eight 7
eign@@ 7
ej 7
elds 7
ele@@ 7
elections 7
eler 7
elev@@ 7
elimin@@ 7
eline 7
elos 7
else 7
emerg@@ 7
enci@@ 7
endi@@ 7
enin 7
entan 7
entation 7
enth@@ 7
enzyme 7
equivalent 7
escape 7
eshi 7
essed 7
ested 7
ester 7
esto 7
ests 7
ete@@ 7
eventually 7
every@@ 7
expansion 7
exper@@ 7
ext 7
extrem@@ 7
fel@@ 7
female 7
femin@@ 7
fix@@ 7
flav@@ 7
foot 7
forest 7
foss@@ 7
française 7
functions 7
fur@@ 7
ga@@ 7
gall@@ 7
gion 7
glob@@ 7
goes 7
got@@ 7
grad 7
greatest 7
gé 7
hands 7
haps 7
haw@@ 7
head@@ 7
heads 7
heter@@ 7
hid@@ 7
hion 7
histori@@ 7
hot 7
hul@@ 7
human@@ 7
iOS 7
iba 7
iced 7
ician 7
icket 7
igi@@ 7
iled 7
iles 7
ilian 7
ilis 7
illance 7
illes 7
illing 7
imagin@@ 7
imo 7
inclu@@ 7
incorpor@@ 7
increase 7
indic@@ 7
industrial 7
infin@@ 7
infr@@ 7
infrastructure 7
inher@@ 7
inho 7
inj@@ 7
ink@@ 7
inside 7
instrument 7
intend@@ 7
intr@@ 7
introduced 7
inu 7
ionale 7
ios@@ 7
irat 7
ires 7
isation 7
isco 7
ismo 7
isol@@ 7
itte 7
iv 7
iver 7
iwa 7
iye 7
izi@@ 7
jang@@ 7
jen 7
jen@@ 7
journ@@ 7
kana 7
kav@@ 7
kay@@ 7
kham 7
kia 7
kilom@@ 7
km2 7
kod@@ 7
kov 7
lair 7
laws 7
lea 7
lead 7
lement 7
lep@@ 7
lez 7
lieutenant 7
lim 7
litz 7
liv@@ 7
logo 7
ls 7
lı 7
m2 7
madan 7
main@@ 7
male 7
manufactur@@ 7
mara 7
marked 7
mart 7
maz@@ 7
md@@ 7
mens@@ 7
methods 7
migration 7
miss@@ 7
mobil@@ 7
models 7
moral 7
moun@@ 7
mountain 7
ms@@ 7
mt@@ 7
mu 7
nan@@ 7
need 7
neum@@ 7
ngh@@ 7
nitr@@ 7
notable 7
notes 7
obs 7
oc 7
oca 7
odo@@ 7
often 7
ole@@ 7
olin 7
omi 7
omin@@ 7
onc@@ 7
once 7
ore@@ 7
orien 7
orium 7
orn@@ 7
orth@@ 7
osha 7
oss 7
ostr@@ 7
othing 7
oting 7
ouse 7
outside 7
ozo@@ 7
oğlu 7
pages 7
pard 7
ped@@ 7
personal 7
phi@@ 7
placement 7
plar 7
playing 7
plays 7
poet 7
positi@@ 7
pound 7
powerful 7
pp 7
prit 7
probably 7
producer 7
project 7
protection 7
provid@@ 7
publik@@ 7
purpose 7
py@@ 7
qualified 7
questions 7
quier 7
radio 7
rag@@ 7
rak@@ 7
rang 7
rank 7
received 7
reference 7
relations 7
release 7
religi@@ 7
request 7
requi@@ 7
reun@@ 7
ril 7
rog@@ 7
room 7
ror 7
rum 7
run@@ 7
ruz 7
saf@@ 7
sai 7
sak@@ 7
sala 7
sand@@ 7
scienti@@ 7
seats 7
senti@@ 7
separ@@ 7
serv@@ 7
session 7
sex@@ 7
show 7
silver 7
sional 7
sir 7
sist@@ 7
situated 7
smo@@ 7
som 7
sos@@ 7
span 7
spread 7
stars 7
starting 7
stated 7
stories 7
street 7
subj@@ 7
suc@@ 7
surve@@ 7
symb@@ 7
tap@@ 7
tary 7
teh@@ 7
tells 7
temporal 7
tests 7
thal 7
thal@@ 7
theastern 7
think 7
thm 7
thro@@ 7
ticul@@ 7
tien 7
tir@@ 7
tish@@ 7
tit@@ 7
together 7
toms 7
transfer 7
transformation 7
tras 7
travel 7
tress 7
tric@@ 7
tron@@ 7
tsch@@ 7
types 7
uco 7
ulo 7
umed 7
una@@ 7
unas 7
upper 7
urt@@ 7
vois@@ 7
volume 7
vu 7
wana 7
wara 7
week 7
went 7
woman 7
ww@@ 7
yab@@ 7
yav@@ 7
yellow 7
ylon 7
ystal 7
zin@@ 7
Í@@ 7
Ú@@ 7
ã 7
ã@@ 7
ème 7
ém 7
éni@@ 7
éro@@ 7
ën 7
ís 7
ï 7
óng 7
ör 7
ös@@ 7
ø 7
ør@@ 7
ǐ 7
ɣ@@ 7
ʈ 7
Ι@@ 7
Ν@@ 7
ά 7
άν@@ 7
ή 7
ηθ@@ 7
ισ@@ 7
π@@ 7
τος 7
Ко@@ 7
Къ@@ 7
Но@@ 7
П@@ 7
При@@ 7
Р@@ 7
вер@@ 7
д 7
л 7
ль@@ 7
мо 7
ра@@ 7
ство 7
ти 7
ц@@ 7
ә 7
ָ 7
ֻ@@ 7
ׂ@@ 7
ט 7
ס 7
آسيا 7
أخرى 7
أسماء 7
إي@@ 7
اجة 7
الأبيض 7
الأش@@ 7
الأصول 7
الأق@@ 7
الأكبر 7
الأمر 7
الإقلي@@ 7
الاحترا@@ 7
البري@@ 7
البك@@ 7
التحرير 7
التوا@@ 7
الجزي@@ 7
الجه@@ 7
الحاكم 7
الحدي@@ 7
الرابع 7
الشعب 7
الفح@@ 7
المتا@@ 7
المتح@@ 7
النهر 7
اهرة 7
بلة 7
تعليم@@ 7
تقوم 7
توزيع 7
جنب 7
حظ@@ 7
خلص 7
دبي 7
دليل 7
ذاك 7
رئي@@ 7
ربة 7
رفض 7
رواية 7
زة 7
زنط@@ 7
زيمة 7
ستين 7
طه 7
ظة 7
عامة 7
عدة 7
عليها 7
قوة 7
لادي 7
لاست 7
مارة 7
مبئی 7
مصطلح 7
معسكر 7
مقرا@@ 7
نها 7
هات 7
هول 7
والر@@ 7
وجه@@ 7
ولقد 7
ولكن 7
ولها 7
يخت@@ 7
يره 7
ٝ 7
ۈ@@ 7
ݜ@@ 7
ݢ@@ 7
उ@@ 7
कल 7
कि 7
गो@@ 7
छ 7
जिद 7
ड@@ 7
ताज 7
ति 7
मन 7
मस 7
महल 7
मी 7
मृ@@ 7
या@@ 7
रा 7
राज 7
ली 7
सर 7
सा@@ 7
१@@ 7
উ@@ 7
ণ@@ 7
ਏ 7
ਫ@@ 7
ਮ 7
ੋ 7
દ@@ 7
ય@@ 7
ા 7
ુ@@ 7
ଣ@@ 7
ଦ 7
ନ@@ 7
ଲ@@ 7
ଶ@@ 7
ங 7
ன@@ 7
ం@@ 7
అ@@ 7
క 7
ಪ@@ 7
ಲ 7
ಿ 7
ೆ@@ 7
ද@@ 7
མ@@ 7
ნ@@ 7
ḍ@@ 7
Ḥ@@ 7
ṯ 7
ἡ 7
ῆ@@ 7
ⵉ@@ 7
シ@@ 7
ド@@ 7
ニ 7
ラ@@ 7
中@@ 7
人 7
清@@ 7
神@@ 7
禮 7
 7
 7
ﮉ 7
ﺆ@@ 7
ﺔ@@ 7
ﻖ@@ 7
.000 6
1960s 6
1970s 6
2551 6
2554 6
2556 6
2563 6
ANU 6
After@@ 6
Aircraft 6
Albi@@ 6
Alexand@@ 6
Alten@@ 6
Ame@@ 6
Among 6
Amsterdam 6
Android 6
Andrés 6
Angelo 6
Apr@@ 6
Arap@@ 6
Are 6
Art@@ 6
Assist@@ 6
Asturias 6
Atatürk 6
Auckland 6
Aus@@ 6
Avenue 6
BO 6
Bail@@ 6
Ball 6
Bank@@ 6
Barcel@@ 6
Benz@@ 6
Bertrand 6
Block 6
Bob 6
Both 6
Boy 6
Brad@@ 6
Braun@@ 6
Brest 6
Broad@@ 6
Brook@@ 6
Brow@@ 6
Bruce 6
Bu 6
Budapest 6
Bund@@ 6
Cabr@@ 6
Call 6
Cameron 6
Case 6
Castillo 6
Cemetery 6
Chamber@@ 6
Champions 6
Chase 6
Chim@@ 6
Chrom@@ 6
Cleveland 6
Cohen 6
Compu@@ 6
Contemporary 6
Cov@@ 6
Cow@@ 6
Cran@@ 6
Cristo 6
Cycl@@ 6
D.C. 6
Danish 6
Dark@@ 6
Darmstadt 6
Dawn 6
Dean 6
Defence 6
Deutsch@@ 6
Deutsche 6
Diyarbakır 6
Down@@ 6
Drive 6
Dubai 6
Duke 6
EA 6
EE 6
EF 6
EP@@ 6
East@@ 6
Ef@@ 6
Ein@@ 6
Emilia 6
Ethiop@@ 6
FL@@ 6
Face 6
Fall@@ 6
Fav@@ 6
Fire 6
Fle@@ 6
Francesco 6
Français 6
Fried@@ 6
Fuj@@ 6
Ga 6
Galil@@ 6
Gazet@@ 6
Geb@@ 6
Gin@@ 6
Gior@@ 6
Glad@@ 6
Glasgow 6
GmbH 6
Gn@@ 6
Govern@@ 6
Grace 6
Grap@@ 6
Gray 6
Grey 6
Grim@@ 6
Grund@@ 6
Guay@@ 6
Guill@@ 6
Gustav 6
H2@@ 6
Hadi@@ 6
Hai 6
Harmon@@ 6
Hart 6
Heaven 6
Hell 6
Henderson 6
Hermann 6
Hig@@ 6
Hof 6
Horn 6
Hos@@ 6
Hung@@ 6
Hyp@@ 6
INSE@@ 6
Igu@@ 6
Illus@@ 6
Initi@@ 6
Initiative 6
Investig@@ 6
Isab@@ 6
Islas 6
Jacob 6
Jo 6
Johnny 6
Kali@@ 6
Kart@@ 6
Keith 6
Kenneth 6
Kim@@ 6
Kish@@ 6
Kiv@@ 6
Kreis 6
Kreuz@@ 6
Krish@@ 6
Kud@@ 6
Köpr@@ 6
Lambert 6
Lao 6
Let 6
Liberty 6
Lima 6
Living@@ 6
Lombar@@ 6
Lond@@ 6
Louise 6
Lucas 6
Ludwig 6
Luf@@ 6
Luther 6
MW 6
Macar@@ 6
Madeleine 6
Magic 6
Mai 6
Malawi 6
Marathon 6
Marco 6
Marino 6
Marqu@@ 6
Materi@@ 6
Memphis 6
Mercury 6
Mih@@ 6
Milli@@ 6
Mitchell 6
Mitte 6
Miz@@ 6
Mohammed 6
Montenegro 6
Monter@@ 6
Mord@@ 6
Morning 6
Morris 6
Mov@@ 6
Moyen 6
Much@@ 6
México 6
NP 6
NY 6
Nash@@ 6
Nassau 6
Nath@@ 6
Native 6
Newport 6
Night@@ 6
Nim@@ 6
Nobel 6
Offic@@ 6
Osman@@ 6
Oster@@ 6
Owen 6
PO 6
Paci@@ 6
Para 6
Partisi 6
Pati@@ 6
Pear@@ 6
Ped@@ 6
Peti@@ 6
Pf@@ 6
Philipp@@ 6
Philippine 6
Pho@@ 6
Plant 6
Plus 6
Pog@@ 6
Popular 6
Poz@@ 6
Progr@@ 6
Pug@@ 6
RAM 6
Rag@@ 6
Rail@@ 6
Rang@@ 6
Reading 6
Refer@@ 6
Republik 6
Rhein 6
Rhein@@ 6
Rho@@ 6
Rhy@@ 6
Rich 6
Ridge 6
Robin 6
Rod@@ 6
Rol@@ 6
Ronald 6
Rostock 6
Ruby 6
Rugby 6
Ruh@@ 6
Rum 6
Ryan 6
Sail@@ 6
Saints 6
Sam 6
Samoa 6
Schmidt 6
Scr@@ 6
Send@@ 6
Shadow 6
Side 6
Smo@@ 6
Soc@@ 6
Somalia 6
Sound 6
Speci@@ 6
Sph@@ 6
Stim@@ 6
Stop 6
Storm 6
Stra@@ 6
Sult@@ 6
Süleyman 6
TT@@ 6
Tal 6
Tales 6
Tec@@ 6
Technical 6
Temper@@ 6
Ten 6
Termin@@ 6
Tetr@@ 6
Their 6
Thompson 6
Thr@@ 6
Tu 6
Tunnel 6
Turin 6
Turner 6
Unic@@ 6
Uruguay 6
VP 6
Vand@@ 6
Vati@@ 6
Villa 6
Vision 6
Visual 6
Völ@@ 6
Walter 6
Watch 6
Wen@@ 6
Wind 6
Wir@@ 6
Wit@@ 6
Work@@ 6
Years 6
YouTube 6
Yuk@@ 6
Zamora 6
Zap@@ 6
Zaragoza 6
Zimbabwe 6
Zor@@ 6
Zul@@ 6
aber 6
ablan@@ 6
abo@@ 6
acher 6
acker 6
acking 6
across 6
acts 6
adas 6
added 6
addition 6
aden 6
adopted 6
adul@@ 6
advoc@@ 6
affe 6
affili@@ 6
ahan 6
ahlung 6
aircraft 6
airs 6
aison 6
aissance 6
aje 6
akia 6
ald@@ 6
alda 6
alleg@@ 6
alth 6
alty 6
ambi 6
amino 6
among 6
amus 6
anah@@ 6
anam@@ 6
anca 6
ancing 6
anim@@ 6
annis 6
anot@@ 6
anto 6
aper@@ 6
apons 6
ardo 6
ared 6
aret 6
arm 6
arren 6
arry 6
asco 6
assa 6
asse@@ 6
assist@@ 6
athol@@ 6
atin@@ 6
atom 6
atte 6
auch@@ 6
aum@@ 6
aume 6
auri 6
aven@@ 6
avent@@ 6
average 6
aze 6
azz@@ 6
aíso 6
bak@@ 6
bang 6
becoming 6
berger 6
beria 6
bibli@@ 6
bien@@ 6
bind@@ 6
bird 6
bis@@ 6
bles 6
bons 6
brook 6
bun@@ 6
burgh 6
buz 6
calend@@ 6
cali@@ 6
card 6
cards 6
cast 6
caus@@ 6
ceaux 6
chs 6
chur@@ 6
cia 6
ciel 6
cien 6
cio 6
cla@@ 6
clo@@ 6
coin 6
col 6
colon@@ 6
combat 6
communal 6
compos@@ 6
compr@@ 6
conc@@ 6
connection 6
consequ@@ 6
convention 6
cous@@ 6
craft 6
cylin@@ 6
dah@@ 6
dans 6
daughter 6
decor@@ 6
defin@@ 6
delta 6
despite 6
destruction 6
detail@@ 6
devant 6
develop@@ 6
died 6
discrimin@@ 6
distance 6
dit@@ 6
dition 6
dius 6
divide 6
diy@@ 6
dum@@ 6
eban 6
eco 6
edan 6
edt 6
ega 6
ege 6
egu 6
eil@@ 6
eing 6
eled 6
elis 6
elius 6
elop@@ 6
elt 6
emba 6
emis@@ 6
employment 6
endant 6
enna 6
ensburg 6
enter 6
eon@@ 6
esch@@ 6
especially 6
establish 6
europ@@ 6
exc@@ 6
except 6
failed 6
fau@@ 6
federal 6
fen 6
fes@@ 6
fiction 6
fid@@ 6
find 6
flor@@ 6
folium 6
forms 6
foundation 6
français 6
frey 6
friend 6
fruit 6
fs 6
fs@@ 6
fun@@ 6
fundamental 6
fut@@ 6
gave 6
gens 6
genus 6
glau@@ 6
grand 6
gri@@ 6
help 6
higher 6
hiy@@ 6
hos@@ 6
hospital 6
host 6
hp 6
huri 6
hy 6
i.e. 6
idential 6
igo 6
igr@@ 6
iko 6
ikos 6
ilik 6
illas 6
iller@@ 6
illustr@@ 6
ilus 6
ime@@ 6
imet@@ 6
impl@@ 6
inch 6
iner 6
iner@@ 6
iness 6
integ@@ 6
intelligence 6
invasion 6
ional 6
isar 6
iser 6
ishing 6
ising 6
islam 6
iso 6
iss 6
issue 6
istem@@ 6
istère 6
itas 6
izer 6
job 6
joint 6
jp@@ 6
jur@@ 6
kadi 6
kal 6
kata 6
kaz@@ 6
kel 6
khi@@ 6
kill 6
km@@ 6
lands@@ 6
lane 6
layer 6
leave 6
lec@@ 6
lecture 6
led@@ 6
leg 6
leist@@ 6
lek@@ 6
letters 6
liamentary 6
lib@@ 6
limit 6
limited 6
links 6
liqui@@ 6
lois 6
lol@@ 6
lou@@ 6
making 6
marriage 6
math 6
maxim@@ 6
meaning 6
meeting 6
merc@@ 6
merged 6
meridi@@ 6
metr@@ 6
mez@@ 6
mik@@ 6
mil 6
milit@@ 6
mini@@ 6
minim@@ 6
minimum 6
mining 6
mitted 6
ml 6
multi 6
murder 6
mus 6
must 6
mw@@ 6
nac@@ 6
nah@@ 6
nar 6
nati@@ 6
naval 6
navig@@ 6
naz@@ 6
neb@@ 6
nee 6
needs 6
nies 6
nik@@ 6
northern 6
nou@@ 6
obi 6
oda 6
odor@@ 6
offers 6
ograph@@ 6
ographi@@ 6
oh 6
oise 6
older 6
olls 6
ologue 6
ombi@@ 6
oming 6
onda 6
oner 6
onius 6
ool 6
opa 6
operate 6
operated 6
opo 6
otom@@ 6
ott 6
ouvern@@ 6
oxid@@ 6
oxy@@ 6
pay 6
pendi@@ 6
phab@@ 6
pharm@@ 6
pig@@ 6
pin 6
plac@@ 6
plants 6
portal 6
porters 6
pour 6
pping 6
ppo 6
preser@@ 6
prin@@ 6
princ@@ 6
printed 6
priv@@ 6
produc@@ 6
profes@@ 6
professional 6
progres@@ 6
prom@@ 6
proposed 6
pré@@ 6
publ@@ 6
pé@@ 6
quel@@ 6
quin 6
quin@@ 6
radio@@ 6
raf@@ 6
rand@@ 6
rang@@ 6
rar@@ 6
rav@@ 6
reasons 6
rection 6
rek@@ 6
relativ@@ 6
rep@@ 6
resid@@ 6
respect 6
review 6
ricane 6
risk 6
robot@@ 6
rock 6
ror@@ 6
rée 6
sah@@ 6
sana 6
sas 6
sat 6
sat@@ 6
says 6
scho@@ 6
scre@@ 6
secondary 6
seg@@ 6
segment 6
services 6
ses@@ 6
shop 6
show@@ 6
similar 6
simply 6
sols 6
someone 6
spl@@ 6
spo@@ 6
stage 6
statement 6
ste 6
stedt 6
sti 6
stock 6
stre@@ 6
streng@@ 6
strong 6
sul 6
super 6
symp@@ 6
systemati@@ 6
tabl@@ 6
tail 6
tang@@ 6
teau 6
teen 6
tees 6
tek@@ 6
tell 6
temper@@ 6
templ@@ 6
tenberg 6
tens 6
terr@@ 6
terror@@ 6
themselves 6
thin 6
thly 6
thouse 6
thy 6
tible 6
til 6
tiles 6
tilla 6
tières 6
traditions 6
tribun@@ 6
tribut@@ 6
trin@@ 6
troit 6
troph@@ 6
trophe 6
tured 6
tz 6
ubic@@ 6
uda 6
uel 6
uku 6
ulia 6
umes 6
unci@@ 6
underground 6
unger 6
urs@@ 6
usage 6
usim@@ 6
usse 6
uster 6
ustr@@ 6
uty 6
uva 6
v.@@ 6
vaz@@ 6
venue 6
vern@@ 6
vert 6
vik@@ 6
vr@@ 6
wad@@ 6
wards 6
whe@@ 6
wise 6
write 6
xima 6
yer@@ 6
yin 6
yine 6
young 6
youth 6
yph@@ 6
ything 6
zia 6
zul@@ 6
³ 6
Î@@ 6
àn 6
àng 6
ál@@ 6
âr@@ 6
âtre 6
äb@@ 6
äre 6
èves 6
ép@@ 6
ên 6
íl@@ 6
írit@@ 6
ône 6
ún@@ 6
û 6
ünde 6
üst@@ 6
üsü 6
ą 6
ık 6
ł 6
ŋ@@ 6
Şeh@@ 6
ǒ@@ 6
ț@@ 6
ȝ 6
ɫ@@ 6
ʁ 6
ʒ@@ 6
ʾ 6
ˌ@@ 6
̄ 6
Κα@@ 6
Λ@@ 6
Σ 6
ία 6
α@@ 6
ας 6
θ 6
μ 6
ο@@ 6
ρι@@ 6
στ@@ 6
τ@@ 6
Му@@ 6
О@@ 6
По@@ 6
Со@@ 6
Ц@@ 6
ан 6
ан@@ 6
ар@@ 6
ва@@ 6
да@@ 6
ев 6
й@@ 6
ка@@ 6
ма@@ 6
па@@ 6
ре@@ 6
стан 6
сы@@ 6
та@@ 6
тар 6
те@@ 6
ъ 6
լ@@ 6
կ@@ 6
մ@@ 6
տ@@ 6
ְ 6
أحد@@ 6
أدب 6
أو@@ 6
إنه 6
ئة 6
ائج 6
ابين 6
اتهم 6
ارية 6
اعة 6
اقترا@@ 6
اكم 6
الآن 6
الأمم 6
الاقتصاد 6
الباح@@ 6
التاسع 6
التخ@@ 6
الث 6
الجامعة 6
الجب@@ 6
الخلي@@ 6
الخي@@ 6
الدور 6
الرغم 6
الشمس@@ 6
الطي@@ 6
العالي 6
العض@@ 6
العموم 6
العناصر 6
القاهرة 6
القوى 6
الكي@@ 6
المصادر 6
المعد@@ 6
الملح@@ 6
المهاج@@ 6
الهي@@ 6
الوسط 6
الوسطى 6
الية 6
باه 6
برغ 6
بهم 6
تاون 6
تسجيل 6
تشي 6
تمت 6
تميز 6
تنق@@ 6
ثلاثة 6
جمعية 6
جنة 6
جير 6
حالي@@ 6
خليفة 6
خيرة 6
داية 6
ديف 6
ربون 6
زب 6
سكر 6
سكوت 6
سلاح 6
سلامة 6
سوع 6
سيتي 6
شيء 6
صالات 6
صة 6
عاش 6
علاقات 6
غول@@ 6
فرانسيسكو 6
فكان 6
فهو 6
فيلا@@ 6
قيت 6
كب 6
لترا 6
للإ@@ 6
للج@@ 6
للك@@ 6
مانية 6
مدرسة 6
معه 6
مكان@@ 6
مهم 6
نادي 6
ناية 6
هير 6
واحدة 6
وسکون@@ 6
وعدم 6
وكات@@ 6
ولايات 6
ولة 6
وهذا 6
وهي 6
ويست@@ 6
يعيش 6
ينه 6
يها 6
يًا 6
ٺ@@ 6
ځ 6
ڠ@@ 6
ہرزیگو@@ 6
ۗ@@ 6
۟ 6
ܐ@@ 6
ܪ@@ 6
ަ@@ 6
अक 6
खों 6
गर 6
गु@@ 6
चार 6
जा@@ 6
ट 6
तब 6
ता@@ 6
दास 6
ध@@ 6
नार 6
नि@@ 6
नी 6
बा@@ 6
रुद 6
रे 6
वारा 6
सा 6
सिंह 6
हमारे 6
हिन 6
े@@ 6
ै 6
ধ@@ 6
ਆ 6
ਇ 6
ਣ 6
ਥ@@ 6
ਧ@@ 6
ੜ 6
ન@@ 6
સ@@ 6
ી@@ 6
ો 6
ଙ 6
ଚ@@ 6
ଵ@@ 6
ୂ@@ 6
ந 6
ய 6
ூ@@ 6
ం 6
ద 6
ప@@ 6
ದ 6
ಶ 6
ೀ@@ 6
ം 6
ന 6
മ 6
ല@@ 6
ජ@@ 6
ප@@ 6
ෙ@@ 6
ේ@@ 6
ག@@ 6
ད 6
ར 6
ལ@@ 6
ྱ@@ 6
် 6
ḇ@@ 6
ḏ 6
ṃ@@ 6
Ἄ@@ 6
ῶ@@ 6
† 6
⁦ 6
⁩ 6
⃣ 6
≈ 6
≥ 6
─ 6
▪ 6
✨ 6
❤ 6
ィ@@ 6
マ 6
ュ@@ 6
三@@ 6
中國@@ 6
之@@ 6
南@@ 6
和 6
四@@ 6
國 6
子 6
寺 6
州 6
帝 6
師 6
朝 6
李@@ 6
田 6
福@@ 6
科 6
語 6
軍 6
 6
 6
 6
 6
 6
 6
 6
ﭗ 6
ﭰ@@ 6
ﮞ@@ 6
ﺐ@@ 6
ﻙ@@ 6
💙 6
📌 6
2,3 5
2535 5
2539 5
2542 5
2544 5
2546 5
2547 5
2548 5
2552 5
2553 5
2555 5
2557 5
2558 5
2561 5
2564 5
AV 5
Abdul@@ 5
Abo@@ 5
Acro@@ 5
Action 5
Ada 5
Advis@@ 5
Ahmet 5
Ai 5
Aks@@ 5
Aless@@ 5
Alt 5
Although 5
Andes 5
Andreas 5
Anthony 5
Apol@@ 5
Apollo 5
Archit@@ 5
Architecture 5
Atel@@ 5
Atlas 5
Augusta 5
Austrian 5
Ayd@@ 5
BB 5
BT 5
Back@@ 5
Baltimore 5
Ban 5
Bangkok 5
Baptiste 5
Basel 5
Bath@@ 5
Benn@@ 5
Berry 5
Beta 5
Biel@@ 5
Bier@@ 5
Bj@@ 5
Bonaparte 5
Bond 5
Boys 5
Brab@@ 5
Bras@@ 5
Brasil 5
Broadway 5
Butter@@ 5
Byr@@ 5
Carlo 5
Cat 5
Categ@@ 5
Cen@@ 5
Chairman 5
Charlie 5
Chlor@@ 5
Chris 5
Christian@@ 5
Christine 5
Clif@@ 5
Cloud 5
Colin 5
Colorado 5
Commander 5
Como 5
Compan@@ 5
Cooper 5
Cour 5
Cous@@ 5
Cox 5
Cuc@@ 5
Cumhuriyeti 5
Dani@@ 5
Defense 5
Demographics 5
Desp@@ 5
Diam@@ 5
Dios 5
Durant 5
EST 5
EX@@ 5
Eagle 5
Edgar 5
Eisen@@ 5
Ellis 5
Emily 5
En 5
Equi@@ 5
Ere@@ 5
Eritrea 5
Esc@@ 5
Euro 5
Europa 5
Eve 5
Exec@@ 5
F.C. 5
F1 5
Fach@@ 5
Faith 5
Fame 5
Fan@@ 5
Fatih 5
Felipe 5
Final 5
Flam@@ 5
Flora 5
Foc@@ 5
Forbes 5
Fot@@ 5
Franz 5
Gallery 5
Gaul@@ 5
Gazi 5
Gilbert 5
Git@@ 5
Graham 5
Gä@@ 5
Gé@@ 5
H2O 5
Hammer 5
Hans@@ 5
Hansen 5
Hardy 5
[...]
