. 1
, 0.8472637972940775
&apos; 1
ve 1
&quot; 1
bir 1
) 0.9328820087027475
( 0.9323045578865945
da 1
de 0.4893341997677613
@-@ 0.5944339638976531
olarak 1
ile 1
in 0.34053939399927613
için 1
ın 1
bu 1
en 0.5486477477605968
olan 1
’ 1
ya 1
i 1
ı 1
an 0.9558455196957881
yılında 1
lar 1
ler 1
tarafından 1
leri 1
ları 1
Bu 1
sonra 1
; 1
k@@ 1
a 0.23989176908016122
: 0.8894849993422097
un 0.9804953971603866
nin 1
nın 1
ç@@ 1
ş@@ 1
y@@ 1
te 1
al@@ 1
daha 1
e 1
ilk 1
esi 1
an@@ 1
ise 1
inin 1
den 1
ası 1
u 1
ye 1
yer 1
at@@ 1
ak@@ 1
K@@ 1
t@@ 1
li 1
ol@@ 1
il@@ 1
ar@@ 1
gibi 1
ar 1
ma 1
S@@ 1
ine 1
çok 1
ini 1
arasında 1
dir 1
ta 1
dan 1
ının 1
et@@ 1
kadar 1
k 1
lı 1
ik@@ 1
bağlı 1
l@@ 1
lerin 1
T@@ 1
ay@@ 1
ak 1
inde 1
veya 1
Ç@@ 1
ların 1
= 1
iki 1
d@@ 1
Y@@ 1
isi 1
z@@ 1
s@@ 1
c@@ 1
1 1
İ@@ 1
ek@@ 1
g@@ 1
büyük 1
D@@ 1
ını 1
la 0.1610504413017101
me 1
G@@ 1
at 0.5235450094727178
göre 1
H@@ 1
er 0.4922370778682648
am@@ 1
oldu 1
ıl@@ 1
ik 1
iş@@ 1
el@@ 1
2 1
im@@ 1
m@@ 1
M@@ 1
ü 1
ır 1
ında 1
bulunan 1
ad@@ 1
&#124; 1
in@@ 1
ına 1
al 0.7730963271138803
A@@ 1
ım 1
yap@@ 1
lik 1
ver@@ 1
kal@@ 1
on 0.302262030318204
d 1
ev@@ 1
el 0.30828161913619473
er@@ 1
em@@ 1
Türkiye 1
olduğu 1
E@@ 1
le 0.31991609920521313
B@@ 1
- 1
lık 1
adı 1
Ş@@ 1
h@@ 1
en@@ 1
P@@ 1
im 0.6996657160082137
lerini 1
ması 1
tarihinde 1
et 0.27510807684890204
alan 1
deki 1
mak 1
ne 1
o 0.9263941415997881
v@@ 1
birlikte 1
ül@@ 1
ı@@ 1
nde 1
di 1
4 1
! 1
p@@ 1
3 1
ir@@ 1
kar@@ 1
z 1
f@@ 1
ılar 1
km 1
diğer 1
or@@ 1
etti 1
ın@@ 1
aş@@ 1
as@@ 1
r@@ 1
kur@@ 1
ü@@ 1
/ 0.8563172972785039
b@@ 1
az@@ 1
ay 1
iz@@ 1
unu 1
nda 1
inden 1
n@@ 1
aynı 1
is@@ 1
C@@ 1
N@@ 1
Türk 1
larını 1
gel@@ 1
daki 1
O@@ 1
t 0.8571401401740917
ır@@ 1
ün 1
ti@@ 1
lara 1
di@@ 1
R@@ 0.9896594401097586
ından 1
ık 1
larda 1
son 0.801302672235961
lerinin 1
F@@ 0.9641334275240097
ul@@ 1
V@@ 1
ık@@ 1
L@@ 0.8392973470608387
miştir 1
iler 1
ama 1
adlı 1
yıl 1
yeni 1
larının 1
align 1
center 1
maya 1
her 1
una 0.7905404432712695
ana 1
eli 1
aldı 1
lerde 1
Ar@@ 1
il 0.7817001955210061
ten 1
Z@@ 1
ir 1
ç 1
unun 1
ur 1
aya 1
ğ@@ 1
arak 1
ısı 1
kon@@ 1
on@@ 1
mek 1
ada 1
ancak 1
â@@ 1
ış@@ 1
ter@@ 1
alı 1
re@@ 0.5315403083257163
ış 1
aç@@ 1
lan@@ 1
ek 1
nun 1
tan 1
us 1
İstanbul 1
m 1
ıdır 1
karşı 1
p 1
yaz@@ 1
Avrupa 1
aları 1
it@@ 1
na 1
say@@ 1
önemli 1
eden 1
Kar@@ 1
mesi 1
Dünya 1
&amp; 1
% 0.7702015947418874
ki 1
es@@ 1
anı 1
larında 1
unda 1
çek@@ 1
göster@@ 1
larına 1
eski 1
baş@@ 1
başladı 1
ım@@ 1
önce 1
ilçesine 1
lere 1
am 0.8238162448954885
av@@ 1
eri 1
tan@@ 1
ileri 1
mıştır 1
Al@@ 1
ur@@ 1
lerinde 1
5 1
az 1
eler 1
kan@@ 1
li@@ 1
man@@ 1
bir@@ 1
liği 1
şekilde 1
ünü 1
yar@@ 1
mektedir 1
lu 1
olduğunu 1
U@@ 1
enin 1
um 1
l 0.8468189788149016
olmuştur 1
yapılan 1
6 1
The 0.1462943097419699
it 0.42630527003604474
ab@@ 1
üzere 1
ağ@@ 1
de@@ 1
lerine 1
sür@@ 1
ti 1
ayı 1
içinde 1
Üniversitesi 1
gör@@ 1
anın 1
üzerine 1
edil@@ 1
imi 1
bulun@@ 1
yi 1
le@@ 1
vardır 1
te@@ 1
iyi 1
ör@@ 1
ot@@ 1
den@@ 1
Bir 1
man 1
birçok 1
kez 1
10 1
belir@@ 1
s 0.3673254459180391
eleri 1
eş@@ 1
Mart 1
kap@@ 1
kabul 1
ılan 1
y 0.13680477125587584
Ayrıca 1
ıp 1
maktadır 1
sahip 1
iy@@ 1
Mayıs 1
h 1
ed@@ 1
len@@ 1
ken 1
alan@@ 1
lam@@ 1
ah@@ 1
ür 1
devam 1
Ocak 1
ili 1
erek 1
üç 1
mış 1
ikinci 1
tı 1
ş 1
par@@ 1
eti 1
.@@ 1
ıyla 1
geç@@ 1
uy@@ 1
ilen 1
Kasım 1
bul@@ 1
gelen 1
2010 1
esinde 1
fazla 1
meye 1
tüm 1
j@@ 1
ün@@ 1
un@@ 0.7141561882991355
e@@ 0.6585426735950336
is 0.12894778133239929
“ 0.5900348966160959
yaptı 1
arı 1
yer@@ 1
Eylül 1
lardan 1
miş 1
Ekim 1
dı 1
lerinden 1
” 1
i@@ 1
kay@@ 1
ardından 1
ilinin 1
yüksek 1
Haziran 1
yaş@@ 1
kendi 1
ıldı 1
Nisan 1
ABD 1
Osmanlı 1
Temmuz 1
af@@ 1
ımı 1
ac@@ 1
An@@ 1
asında 1
ok@@ 1
Daha 1
bazı 1
sa 1
ö@@ 1
olmak 1
dır 1
Ağustos 1
Amerika 1
tek 1
ük@@ 1
biri 1
um@@ 1
Aralık 1
alar 1
hem 1
ara 1
ağı 1
kullan@@ 1
sırasında 1
si 1
diği 1
üzerinde 1
farklı 1
çi 1
f 1
oğlu 1
olup 1
su 0.5722823831330724
ede 1
a@@ 1
Ancak 1
tak@@ 1
doğ@@ 1
esine 1
ist@@ 1
görev 1
re 1
ür@@ 1
of 0.034992204343954614
indeki 1
çalış@@ 1
7 1
dön@@ 1
zaman 1
ser@@ 1
kö@@ 1
der@@ 1
yarış@@ 1
çık@@ 1
bil@@ 1
şark@@ 1
ortaya 1
yol@@ 1
ünde 1
ka 1
ız 1
katıl@@ 1
us@@ 1
12 1
se@@ 1
eye 1
15 1
&#93; 1
yılları 1
İlk 1
Şubat 1
Birleşik 1
var@@ 1
lığı 1
gün 1
üm@@ 1
&#91; 1
iş 1
as 0.1197303598721138
yılı 1
ıları 1
eğ@@ 1
colspan 1
çeşitli 1
onu 1
8 1
Savaşı 1
o@@ 0.7975171140639105
bas@@ 1
res@@ 1
id@@ 1
bulunmaktadır 1
öl@@ 1
geri 1
pl@@ 1
küçük 1
ünün 1
20 1
os 0.6238983136616723
nedeniyle 1
kat@@ 1
edildi 1
larından 1
dil@@ 1
boyunca 1
ındaki 1
dev@@ 1
n 0.7842224575633692
yapıl@@ 1
J@@ 0.7990577249414669
masına 1
– 0.2963634806907065
yeniden 1
ön@@ 1
ne@@ 1
uk 1
lerden 1
görün@@ 1
Er@@ 1
zamanda 1
tir 1
idi 1
tür@@ 1
üst@@ 1
oy@@ 1
2012 1
bağ@@ 1
yan@@ 1
ildi 1
ni@@ 1
2020 1
getir@@ 1
bak@@ 1
sadece 1
os@@ 1
I@@ 0.9695444115573789
sel 1
ey@@ 1
En 0.46902245028533857
yüz@@ 1
üne 1
ist 0.30964833598564123
tar@@ 1
Öz@@ 1
uz@@ 1
luk 1
gir@@ 1
edilen 1
yaklaşık 1
larla 1
iyle 1
gün@@ 1
2011 1
ce 0.9439893215986476
2009 1
adan 1
asyon 1
Ak@@ 1
tanım@@ 1
ıcı 1
çıkar@@ 1
usu 1
lem@@ 1
Or@@ 1
tamam@@ 1
î 1
düş@@ 1
gen@@ 1
ilerin 1
eb@@ 1
II 1
bi@@ 1
mad@@ 1
geliş@@ 1
ca 1
ona 1
alt@@ 1
Mar@@ 1
ör 1
san@@ 1
Ü@@ 1
eme 1
ıt@@ 1
üs@@ 1
kullanıl@@ 1
kes@@ 1
se 0.1920424248698501
du 0.20400733438434068
yle 1
süre 1
genel 1
11 1
değiş@@ 1
ulaş@@ 1
nüfusu 1
om@@ 1
ez@@ 1
v 1
ığı 1
masını 1
film 1
9 1
ere 1
ecek 1
ans@@ 1
düzen@@ 1
esinin 1
lanan 1
ele 1
üy@@ 1
W@@ 0.5033545144526734
acak 1
uzun 1
tek@@ 1
yerine 1
ali 1
iç@@ 1
2008 1
art@@ 1
ic@@ 1
aj@@ 1
30 1
ap@@ 1
si@@ 1
tarih@@ 1
Ö@@ 1
be@@ 0.7847164961465288
gi@@ 1
16 1
ız@@ 1
ri@@ 1
r 1
tur@@ 1
köy 1
uç@@ 1
2014 1
yas@@ 1
Tarihçe 1
onun 1
merkezine 1
ut@@ 1
görev@@ 1
çe 1
lama 1
As@@ 1
tut@@ 1
ığını 1
Almanya 1
Baş@@ 1
seç@@ 1
rağmen 1
ant@@ 1
ec@@ 1
Fransa 1
elde 1
geliştir@@ 1
ıkları 1
Kon@@ 1
tasar@@ 1
albüm@@ 1
2015 1
tr@@ 0.63694336514988
idir 1
2013 1
kor@@ 1
kır@@ 1
or 0.25734764778324704
şu 1
kazan@@ 1
and@@ 1
Genel 1
sun@@ 1
yak@@ 1
Coğrafya 1
ait 1
u@@ 0.8684235663023089
yı 1
yaptığı 1
uş@@ 1
saldır@@ 1
bulunur 1
geçir@@ 1
kişi 1
siz 1
altında 1
od@@ 1
2007 1
2016 1
sır@@ 1
ilgili 1
sat@@ 1
kısa 1
O 1
dahil 1
0 1
İngiltere 1
alın@@ 1
kom@@ 1
abil@@ 1
Alman 1
son@@ 1
asına 1
met@@ 1
men 1
kr@@ 1
14 1
har@@ 1
beri 1
ılmıştır 1
tik 1
ilmiştir 1
yon 1
Güney 1
ler@@ 1
2006 1
hazır@@ 1
ip 1
men@@ 1
muştur 1
Ankara 1
savaş@@ 1
ıs@@ 1
19 1
edilmiştir 1
New 0.6762278557826413
bölüm@@ 1
genellikle 1
18 1
Yeni 1
almıştır 1
13 1
ayrıca 1
Bil@@ 1
mi 1
düşün@@ 1
ko@@ 1
udur 1
the 0.013892057798664469
em 1
asını 1
sistem@@ 1
Kur@@ 1
mak@@ 1
lerle 1
sağ@@ 1
ku@@ 1
dur@@ 1
yıl@@ 1
özel 1
yen@@ 1
mayı 1
lü 1
oluştur@@ 1
to@@ 1
gerek@@ 1
esini 1
İngiliz 1
ci 1
doğru 1
eni 1
Kuzey 1
Amerikan 1
uzaklıktadır 1
takım 1
yon@@ 1
laş@@ 1
kazandı 1
ra 1
4@@ 1
form@@ 1
anlar 1
Rusya 1
17 1
sin@@ 1
başka 1
başar@@ 1
eder 1
Ad@@ 1
kaynak@@ 1
A 0.4200853678307818
25 1
bel@@ 1
üre@@ 1
dört 1
tür 1
oloji 1
ni 1
dığı 1
ince 1
ayr@@ 1
ia 0.7949329752000004
kil@@ 1
öz@@ 1
yay@@ 1
sen@@ 1
müştür 1
kim@@ 1
anlaş@@ 1
merkezi 1
abilir 1
ye@@ 1
mesine 1
2018 1
es 0.12782773926829671
adıyla 1
kad@@ 1
ro@@ 0.8516709786853631
sor@@ 1
2017 1
eyi 1
Roma 1
tarihi 1
yön@@ 1
Cumhuriyeti 1
ilmiş 1
ılmış 1
özellikle 1
git@@ 1
müzik 1
tin 1
arasındaki 1
bırak@@ 1
diz@@ 1
konuş@@ 1
yayın@@ 1
ilir 1
kol@@ 1
bin@@ 1
kab@@ 1
ag@@ 0.6509777799846245
oyun@@ 1
lar@@ 1
ol 1
ği 1
dönem@@ 1
lanmıştır 1
bi 1
tal@@ 1
yerleş@@ 1
El@@ 1
bilinen 1
dü 1
mem@@ 1
iz 1
_ 0.9850050017936477
mesini 1
ıya 1
ber@@ 1
undan 1
ev 1
tekrar 1
içer@@ 1
Birliği 1
ıc@@ 1
millî 1
anlat@@ 1
Doğu 1
taş@@ 1
sahiptir 1
ılık 1
tem@@ 1
birkaç 1
po@@ 0.8216742862937161
kl@@ 1
oluşan 1
ular 1
duy@@ 1
ılı 1
ılır 1
2005 1
sonunda 1
kullanılan 1
2019 1
kiş@@ 1
Büyük 1
İn@@ 1
tab@@ 1
yaşam@@ 1
gönder@@ 1
st@@ 0.48506565515090644
Kupası 1
oluş@@ 1
su@@ 1
değiştir@@ 1
21 1
2000 1
ke@@ 1
sırada 1
göz@@ 1
5@@ 1
landı 1
hakkında 1
İtalya 1
devlet 1
açık@@ 1
6@@ 1
altı 1
yapan 1
isinin 1
mi@@ 1
aki 1
kıs@@ 1
verdi 1
anda 1
üz@@ 1
hav@@ 1
24 1
olması 1
olmayan 1
lik@@ 1
yüksel@@ 1
lt 1
ıyor 1
ıda 1
du@@ 1
muş 1
ger@@ 1
ki@@ 1
22 1
şehir 1
işlem@@ 1
leş@@ 1
takım@@ 1
ih@@ 1
Aynı 1
Fransız 1
Türk@@ 1
per@@ 0.7414051227835227
pr@@ 1
vi@@ 1
Rus 1
çıkan 1
itibaren 1
maç@@ 1
ton 0.8760278013668353
iler@@ 1
Paşa 1
üm 1
spor 1
oyuncu 1
yet@@ 1
ans 0.616919948016543
Ser@@ 1
kaz@@ 1
bal@@ 1
kurul@@ 1
Çin 1
sıra 1
he@@ 1
almaktadır 1
etmiştir 1
uk@@ 1
b 0.9373210699447144
gt 1
düz@@ 1
mu@@ 1
üş@@ 1
ıktan 1
luğu 1
mer@@ 1
2004 1
rol 1
geldi 1
bu@@ 1
mes@@ 1
inşa 1
yol 1
26 1
ov 1
gerçekleştir@@ 1
ad 1
program@@ 1
ebil@@ 1
milyon 1
savaş 1
ut 1
I. 1
Devletleri 1
asının 1
sezonunda 1
lo@@ 0.7213609356774273
grup 1
eser@@ 1
ıy@@ 1
çıktı 1
mek@@ 1
yakın 1
ırlar 1
bur@@ 1
film@@ 1
gö@@ 1
yapmıştır 1
adını 1
edi 1
elerin 1
Film 1
tiği 1
kaç@@ 1
ap 1
istan 1
ça 1
7@@ 1
zor@@ 1
din@@ 1
etkil@@ 1
kıy@@ 1
do@@ 1
merkez@@ 1
Köy 1
Re@@ 0.7282549068819341
yan 1
döneminde 1
op@@ 0.9215675496832062
tü@@ 1
23 1
etmek 1
ey 1
hi@@ 1
bar@@ 1
ru@@ 1
asyon@@ 1
ilik 1
tu@@ 1
sah@@ 1
neden 1
pek 1
Bar@@ 1
ayrıl@@ 1
mahalledir 1
tah@@ 1
dur 1
Kor@@ 1
takımı 1
olojik 1
ci@@ 1
yanı 1
isim@@ 1
bin 1
Partisi 1
if@@ 1
list@@ 1
karakter@@ 1
ıştır 1
ina 0.9722916967842538
Gö@@ 1
Be@@ 0.9281396289028252
destek@@ 1
ayan 1
8@@ 1
söy@@ 1
hay@@ 1
verilen 1
and 0.02130014758091983
manın 1
duğu 1
ani 1
Amerikalı 1
tir@@ 1
dışında 1
atı 1
kadın 1
tam 1
alır 1
ıydı 1
Hal@@ 1
teki 1
itibarıyla 1
ülk@@ 1
B 0.9741821160006958
bat@@ 1
por 0.23705412428159459
ıyordu 1
me@@ 1
sınır@@ 1
min@@ 1
Aş@@ 1
plan@@ 1
uygulam@@ 1
ıt 1
sü@@ 1
osu 1
andı 1
şek@@ 1
aş 1
toplam 1
eg@@ 1
27 1
acı 1
sonucu 1
iye 1
isinde 1
ast@@ 1
koy@@ 1
dolayı 1
sar@@ 1
Kal@@ 1
İş@@ 1
bek@@ 1
futbol 1
nüfus 1
büyü@@ 1
taraf@@ 1
ib@@ 1
28 1
güç@@ 1
eğitim 1
ing 0.11713458440288457
endi 1
der 0.04394335815083423
Batı 1
lık@@ 1
dar@@ 1
görüş@@ 1
ra@@ 1
aldığı 1
Tr@@ 0.7815620403233218
sal 1
umu 1
ılması 1
meyi 1
til@@ 1
Ligi 1
ov@@ 1
öğren@@ 1
üc@@ 1
lanmış 1
Har@@ 1
dem@@ 1
söz@@ 1
rol@@ 1
ail@@ 1
mas@@ 1
yen 1
sayımına 1
çöz@@ 1
şarkı 1
kel@@ 1
parç@@ 1
Kol@@ 1
ark@@ 1
kariyeri 1
sal@@ 1
eleştir@@ 1
Kan@@ 1
dönemde 1
hal@@ 1
Anadolu 1
sayısı 1
Bir@@ 1
leme 1
masıyla 1
yü@@ 1
leyen 1
kem@@ 1
yılından 1
maları 1
üst 1
ke 1
York 0.8985059008190014
Ulusal 1
olur 1
mar@@ 0.758866644257562
İmparatorluğu 1
bo@@ 0.9623991001239177
ah 1
ze 1
isti@@ 1
maz 1
sak@@ 1
veril@@ 1
çoğu 1
Bur@@ 1
9@@ 1
kul@@ 1
üler 1
anlam@@ 1
ri 1
İl@@ 1
Şarkı 1
Ödülü 1
leriyle 1
ob@@ 1
imleri 1
fik@@ 1
gelir 1
3@@ 1
nden 1
pat@@ 1
ili@@ 1
2002 1
iden 1
temsil 1
Di@@ 1
gü@@ 1
toprak@@ 1
Sar@@ 1
kan 1
dik@@ 1
lenen 1
yaşında 1
yarat@@ 1
ard@@ 1
hastal@@ 1
luğ@@ 1
2021 1
iti@@ 1
tel@@ 1
yıllarında 1
En@@ 1
gem@@ 1
ünden 1
ö 1
irler 1
1990 1
mişti 1
üçüncü 1
ıların 1
ati@@ 1
masının 1
Ch@@ 0.505227980547668
Man@@ 1
tim@@ 1
yl@@ 1
kin 1
ip@@ 1
ade 1
Uluslararası 1
karar 1
so@@ 1
hak@@ 1
üdür 1
üsü 1
üç@@ 1
dir@@ 1
Bunun 1
edilir 1
tanın@@ 1
Orta 1
ilç@@ 1
sezon 1
topl@@ 1
ığında 1
adi@@ 1
var 1
diğini 1
oz@@ 1
kas@@ 1
müz@@ 1
savun@@ 1
29 1
uz 1
Ali 1
sim@@ 1
Her 1
insan 1
fakat 1
bit@@ 1
2003 1
ale 0.5915817300807829
Ay@@ 1
başkan@@ 1
kurulan 1
ayında 1
değişik@@ 1
attı 1
doğdu 1
2001 1
C 0.8301785861852881
Lig 1
John 0.760325719141151
karşılaş@@ 1
ışı 1
kalan 1
anl@@ 1
alt 1
yal@@ 1
katıldı 1
dünya 1
yat@@ 1
yapımı 1
del@@ 1
isini 1
ete 1
ali@@ 1
köy@@ 1
Tur@@ 1
isimli 1
tü 1
hemen 1
ime 1
aların 1
kız@@ 1
askeri 1
ettiği 1
end@@ 0.8755930263374362
açık 1
uma 1
oyuncul@@ 1
gi 1
Se@@ 1
100 1
bes@@ 1
31 1
temel 1
malar 1
sonraki 1
Pr@@ 1
beraber 1
lük 1
sonuç@@ 1
Hay@@ 1
ladı 1
ent@@ 0.5013477584079984
yet 1
uluslararası 1
giy@@ 1
fil@@ 1
arası 1
NGC 1
başkanı 1
Azerbaycan 1
kaldır@@ 1
dır@@ 1
elik 1
örü 1
kaldı 1
eli@@ 1
atik 1
dol@@ 1
g 0.698615867118703
ük 1
çal@@ 1
ırken 1
durum@@ 1
orta 1
köydür 1
asyonu 1
dönüş@@ 1
ğini 1
beş 1
futbolcudur 1
lendir@@ 1
ret@@ 1
Parti 1
yayım@@ 1
Her@@ 1
ifade 1
albümü 1
araştır@@ 1
ıl 1
anc@@ 1
Sovyet 1
tu 1
ici 1
yine 1
lat@@ 1
aca 1
inc@@ 1
filmi 1
Ma@@ 1
bulunduğu 1
boy@@ 1
lad@@ 1
oranı 1
iç 1
İyi 1
mez@@ 1
x 0.7995644695126994
î@@ 1
erin 1
geniş 1
sel@@ 1
Şampiyonası 1
Afrika 1
ran@@ 1
Ab@@ 0.6914434458930121
ata 1
geçen 1
mam@@ 1
oyn@@ 1
çı 1
şampiyon@@ 1
of@@ 1
amp 0.6477148756115112
ıma 1
tır 1
ilçe 1
ari 1
karar@@ 1
yerel 1
düzenlenen 1
D 1
biridir 1
dayan@@ 1
gul@@ 1
Par@@ 0.957975549770182
han 1
uc@@ 1
leştir@@ 1
Paris 1
siz@@ 1
eti@@ 1
bilin@@ 1
değer@@ 1
din 1
Kat@@ 1
mesiyle 1
County 0.9387773404926557
biy@@ 1
ks@@ 1
lığını 1
olay@@ 1
proj@@ 1
siyasi 1
kullanılır 1
oc@@ 0.62515723317737
lay@@ 1
üyesi 1
van 1
be 0.17752537765383725
zaman@@ 1
th@@ 0.394237947842729
ta@@ 1
Kır@@ 1
Devlet 1
ydi 1
lanır 1
düğü 1
oğ@@ 1
inan@@ 1
lu@@ 1
Sal@@ 1
burada 1
resmi 1
yıllarda 1
formula 0.7817746647213742
uyar@@ 1
İran 1
Sh@@ 0.7666780565073994
eng@@ 1
transfer 1
edi@@ 1
izin 1
gol 1
lenmiştir 1
pe@@ 1
Ger@@ 1
cin@@ 1
Te@@ 1
masından 1
herhangi 1
sayıda 1
vardı 1
içerisinde 1
1999 1
eceğini 1
gazet@@ 1
ova 1
erkek 1
sol@@ 0.9815186385795504
kav@@ 1
mıştı 1
Bel@@ 1
yıllık 1
uğ@@ 1
layan 1
oynadı 1
asker@@ 1
acağı 1
ins@@ 1
grubu 1
sezonu 1
Nüfus 1
1980 1
liğini 1
K 1
Ne@@ 1
hareket@@ 1
ef@@ 1
okul@@ 1
televizyon 1
Am@@ 0.9974217639982256
pi@@ 1
Bey 1
sistemi 1
St@@ 0.5623078923869845
İngilizce 1
landır@@ 1
Sin@@ 1
bütün 1
anlamına 1
haline 1
MÖ 1
c 0.4141614720478179
birleş@@ 1
rom@@ 1
I 0.4031399856503294
yum@@ 1
laştır@@ 1
ecek@@ 1
larıyla 1
Per@@ 1
suç@@ 1
sk@@ 1
id 1
cu 1
küt@@ 1
ken@@ 1
dağ@@ 1
ize 1
ünlü 1
yöntem@@ 1
Fakat 1
mal@@ 1
Doğ@@ 1
yaşayan 1
uş 1
Diğer 1
may@@ 1
enc@@ 1
eği 1
öldü 1
kuzey@@ 1
yakın@@ 1
Su@@ 1
başarılı 1
derg@@ 1
mücadele 1
komut@@ 1
yanında 1
amı 1
alm@@ 1
güney@@ 1
sürdür@@ 1
ıştı 1
Tak@@ 1
nı 1
ge@@ 0.5329362639297901
genç 1
girdi 1
Mısır 1
Ev@@ 1
esinden 1
maçta 1
halk@@ 1
Av@@ 1
elerinde 1
ül 1
çocuk@@ 1
ederek 1
Mer@@ 1
acağını 1
çağ@@ 1
mo@@ 0.75113041215155
ve@@ 1
andır@@ 1
olabilir 1
ord@@ 1
uv@@ 1
za 1
elerinin 1
mut@@ 1
sık@@ 1
ba@@ 1
û@@ 1
başlayan 1
karş@@ 1
ısında 1
madan 1
forma 1
makta 1
ilan 1
dizi 1
oldukça 1
müş 1
çalıştı 1
yılına 1
sahibi 1
karşıl@@ 1
Le@@ 0.6924619800688527
zi 1
mey@@ 1
başına 1
konusunda 1
yüzyılda 1
mez 1
vur@@ 1
lak 1
ley@@ 1
eyaletinde 1
rak@@ 1
ilmesi 1
yazar@@ 1
çalışmalar@@ 1
teknik 1
iken 1
öldür@@ 1
İs@@ 1
edilmiş 1
mağ@@ 1
fi 1
masında 1
değil 1
1998 1
ısını 1
1992 1
De@@ 1
bunun 1
val@@ 1
taki 1
Ağ@@ 1
ağ 1
çocuk 1
sosyal 1
görül@@ 1
yarı 1
sit@@ 1
mekte 1
14@@ 0.9245670952802381
fır@@ 1
parti@@ 1
lidir 1
diye 1
meden 1
T 1
metre 1
ülke 1
tas@@ 1
İkinci 1
50 1
günü 1
sil@@ 1
Tar@@ 1
luk@@ 1
evi 1
imler 1
zam@@ 1
land@@ 1
tespit 1
tığı 1
İspanya 1
ısına 1
yürüt@@ 1
to 0.021047549533540592
hizmet@@ 1
dür 1
dış@@ 1
geçti 1
başlat@@ 1
best@@ 1
Tek@@ 1
j 1
kend@@ 1
türü 1
yağ@@ 1
has@@ 1
şehir@@ 1
deniz 1
bey@@ 1
ch@@ 0.22028124755873463
kuruluş@@ 1
iri 1
dönem 1
Ber@@ 0.9933058430947531
belediye 1
ks 0.5953500189970989
elerini 1
kâ@@ 1
tartış@@ 1
Yap@@ 1
15@@ 0.8771213999964157
Kö@@ 1
Bal@@ 1
öğrenc@@ 1
uğr@@ 1
ul 1
ge 0.6645173890752916
veren 1
kü@@ 1
ers 0.20366307063852304
Pol@@ 1
ağır@@ 1
ılarak 1
Sel@@ 1
malar@@ 1
sev@@ 1
isine 1
Me@@ 1
amacıyla 1
P 1
hiçbir 1
Hak@@ 1
ent 0.1971807431041412
aba 0.9900157605151817
ledi 1
ice 1
canlandır@@ 1
fa@@ 1
hu@@ 1
adet 1
başlamıştır 1
dav@@ 1
Ol@@ 1
sız 1
aç 1
sa@@ 1
etti@@ 1
söz 1
sonucunda 1
ren@@ 1
kam@@ 1
Bakanlığı 1
alarda 1
güçlü 1
Japonya 1
yazar 1
dar 1
Em@@ 1
akt@@ 1
1996 1
Böl@@ 1
lis@@ 1
ter 0.30784582814967976
ön 1
S 0.8889503523890324
Bo@@ 1
tik@@ 1
Bay@@ 1
albüm 1
diğ@@ 1
eceği 1
ndan 1
benzer 1
giriş@@ 1
1991 1
1994 1
1995 1
ğ 1
asıyla 1
hareket 1
ımc@@ 1
Fakültesi 1
ılığı 1
fe@@ 0.8171144590473413
sız@@ 1
eh@@ 0.9255534213212907
1993 1
1997 1
Tan@@ 1
etkin@@ 1
hava 1
erken 1
açıklam@@ 1
Der@@ 1
doğu 1
ismi 1
hizmet 1
yana 1
değildir 1
kent@@ 1
alarında 1
ucu 1
yaygın 1
yayınlanan 1
siyon 1
ho@@ 0.9795853665224912
özellik@@ 1
ülkenin 1
alanı 1
şehrin 1
familyasına 1
alık 1
Oy 1
Yunan 1
başında 1
kent 1
lem 1
sona 1
yık@@ 1
ebilir 1
önceki 1
Yak@@ 1
iğ@@ 1
yani 1
Ter@@ 1
birbir@@ 1
iller 1
iliği 1
Brezilya 1
ular@@ 1
Th@@ 0.6098889823686514
mezun 1
ortak 1
ınca 1
batı 1
bağlant@@ 1
ano 0.7376933603602303
etmektedir 1
ari@@ 1
suz 1
1970 1
TV 1
parçası 1
bilim 1
pol@@ 1
Mal@@ 1
1.@@ 1
bildir@@ 1
At@@ 1
İsrail 1
ze@@ 1
teor@@ 1
iddia 1
şeklinde 1
Mah@@ 1
oyun 1
uzun@@ 1
Car@@ 0.6475873990103259
ham@@ 1
ödül@@ 1
uygun 1
ses@@ 1
seçildi 1
Sultan 1
bilgi 1
kitap@@ 1
tamamen 1
bulundu 1
meydana 1
ane 1
Asya 1
sağlam@@ 1
fer@@ 0.8981729512585849
Son 1
kuş@@ 1
nedenle 1
şirket@@ 1
yesi 1
yu 1
ene 1
adır 1
ite 0.6128561908077821
İzmir 1
ğin 1
iştir 1
izm 1
ilere 1
Br@@ 0.6624899736982004
ai 0.9101192968300785
ie 0.2912968253531459
Kr@@ 1
Bazı 1
ayak@@ 1
are 0.1273489703402132
içeren 1
yalnızca 1
kuvvet@@ 1
Kay@@ 1
Suriye 1
üs 1
br 1
tic@@ 1
Dev@@ 1
olabil@@ 1
1960 1
10@@ 1
ayrı 1
diler 1
40 1
istem@@ 1
elerde 1
seçim@@ 1
sonrasında 1
tor@@ 0.8486139806176938
kir@@ 1
bölgeler@@ 1
cm 1
babası 1
Eski 1
gerçekleş@@ 1
teş@@ 1
ulusal 1
Kaz@@ 1
Ver@@ 0.37744849943110514
turnuv@@ 1
ann@@ 0.9930964575453867
deney@@ 1
X@@ 0.9722116761974989
güven@@ 1
Kaliforniya 1
adaki 1
halk 1
emi 1
alarını 1
undaki 1
Bizans 1
Londra 1
ıyı 1
eler@@ 1
model@@ 1
Mu@@ 1
elerine 1
önem@@ 1
kelim@@ 1
ladığı 1
mev@@ 1
üyle 1
İslam 1
başl@@ 1
listesi 1
üş 1
elem@@ 1
Nehri 1
ley 0.6753980099218125
aday 1
Bak@@ 1
Mehmet 1
lemek 1
seslendir@@ 1
üğ@@ 1
² 1
ansı 1
yard@@ 1
alarak 1
yüzyılın 1
bölges@@ 1
etin 1
X 1
bilg@@ 1
esiyle 1
ilerine 1
dil 1
idae 1
manı 1
çarp@@ 1
ürün@@ 1
kitab@@ 1
üzerinden 1
any@@ 1
konum@@ 1
piyasaya 1
ide 1
lider@@ 1
ekonomik 1
Yıl@@ 1
yaklaş@@ 1
la@@ 1
Sez@@ 1
bile 1
mac@@ 1
Japon 1
lig@@ 1
lardı 1
aman 1
yerini 1
lenir 1
meyen 1
öğ@@ 1
ıklı 1
kı 1
düşük 1
Başkanı 1
İki 1
aktadır 1
sık 1
ındadır 1
ğinde 1
Ko@@ 1
kardeşi 1
yüksek@@ 1
Do@@ 1
İtalyan 1
cez@@ 1
ire 0.9594096186192134
uğu 1
gerçek 1
ette 0.9506537793906986
-@@ 0.9794335416734918
hap@@ 1
üt@@ 1
tur 1
yalı 1
boş@@ 1
Ön@@ 1
Kap@@ 1
hâ@@ 1
L 0.6977882003689676
kleri 1
Rom@@ 1
Sa@@ 1
kül@@ 1
mü@@ 1
Mustafa 1
Futbol 1
uzak@@ 1
İz@@ 1
E 0.9358454269476054
Bah@@ 1
uldu 1
asa 1
ısının 1
Krallık 1
br@@ 0.448384631172942
yonu 1
+ 1
bağımsız 1
kontrol 1
yayınlandı 1
M 0.96716940917786
ens@@ 0.5905443030653141
başı 1
esidir 1
otom@@ 1
Gir@@ 1
bölgesinde 1
derec@@ 1
mec@@ 1
bah@@ 1
yardım 1
alar@@ 1
verildi 1
Sam@@ 1
iyordu 1
profesyonel 1
Polonya 1
inç 1
lanması 1
ılmaktadır 1
ha 0.6812147837055597
şi 1
Millî 1
öner@@ 1
Ül@@ 1
yn@@ 1
Şir@@ 1
ığ@@ 1
bü@@ 1
mada 1
1989 1
gol@@ 1
eyalet@@ 1
Avusturya 1
sonrası 1
Yar@@ 1
kendisine 1
x@@ 0.5803995989569636
lan 1
olmasına 1
soy@@ 1
rir 1
ümü 1
13@@ 0.8768313154001862
ilg@@ 1
birliği 1
ışık 1
Siy@@ 1
gez@@ 1
ha@@ 1
ya@@ 1
serbest 1
alarının 1
çiz@@ 1
yok@@ 1
kariyerine 1
ayır@@ 1
Mes@@ 1
hat@@ 1
bölge 1
bilinir 1
liğinde 1
tip 1
kı@@ 1
adam@@ 1
meleri 1
doğal 1
sürec@@ 1
kurulmuştur 1
Yahudi 1
amaç@@ 1
El 0.22828246805188596
dağıl@@ 1
yönünde 1
ıf@@ 1
hale 1
sürül@@ 1
yapt@@ 1
Arap 1
birinci 1
up 0.32699995589278735
Kom@@ 1
dek 1
bilim@@ 1
tanıt@@ 1
kısmı 1
arlar 1
Örneğin 1
inci 1
yolu 1
yardımcı 1
modern 1
şey@@ 1
maktaydı 1
Dem@@ 1
Sen@@ 1
aka 1
U 0.9149829404983899
fi@@ 1
Eurovision 1
altına 1
başlam@@ 1
Hav@@ 1
han@@ 1
arkadaş@@ 1
şehr@@ 1
bölümü 1
ten@@ 0.5481929517922003
R 0.8153113743812882
ald@@ 1
Türkçe 1
0@@ 1
Sovyetler 1
ulan 1
dünyanın 1
yapıldı 1
fin@@ 0.7951691603312521
F 0.9259186135746307
kuruldu 1
yorum@@ 1
def@@ 1
durum 1
eri@@ 1
verdiği 1
adlandır@@ 1
maçında 1
ınt@@ 1
başlar 1
nes@@ 1
video 1
oran@@ 1
iliş@@ 1
iydi 1
Buna 1
üğü 1
fe 1
Merkezi 1
Yüksek 1
günümüzde 1
lerdir 1
ig@@ 0.4783043135790086
tekn@@ 1
maç 1
oluşur 1
ekonom@@ 1
att@@ 1
süre@@ 1
yum 1
Yunanistan 1
çalışan 1
og@@ 0.8234055502936319
emek@@ 1
gar@@ 1
olsa 1
tep@@ 1
bol@@ 1
tav@@ 1
San@@ 1
Müzik 1
altın 1
tarihli 1
kalm@@ 1
değ@@ 1
hızlı 1
12@@ 0.9439586585278356
bun@@ 1
hüküm@@ 1
dal@@ 1
yazıl@@ 1
ate 0.1864877776891172
yok 1
bunu 1
sanat 1
saat 1
cu@@ 0.7182059983585659
paylaş@@ 1
iyor 1
çatış@@ 1
satın 1
Gün@@ 1
kri@@ 1
devlet@@ 1
defa 1
dikten 1
ence 0.5313030075843791
ed 0.07263339911614035
adına 1
olmuş 1
ort@@ 1
can@@ 1
Tem@@ 1
uyla 1
Halk 1
Es@@ 1
Toplam 1
2.@@ 1
yönetim 1
ilerinin 1
üretil@@ 1
arın 1
let@@ 1
enen 1
Mad@@ 1
Mor@@ 0.7453271317521989
Avustralya 1
alam@@ 1
ıç@@ 1
birlik@@ 1
diğinde 1
kızı 1
mesinden 1
Ham@@ 1
ağır 1
ika 1
1988 1
beyaz 1
baş 1
ot 0.9141284562143378
yapı 1
mon@@ 0.53043222659097
İk@@ 1
Yen@@ 1
ker@@ 1
yapılmıştır 1
iline 1
etik 1
ala 1
ses 0.33619919315665187
alanında 1
içi 1
korum@@ 1
Val@@ 1
FC 1
imini 1
kavram@@ 1
if 0.8959926068287738
all@@ 0.7966329926339041
lendi 1
Ödülleri 1
hafta 1
Fenerbahçe 1
çalışmaları 1
ölç@@ 1
ğine 1
sözc@@ 1
yönelik 1
Has@@ 1
olu 1
ep@@ 0.8258851913748261
uyordu 1
ila 1
irken 1
öne 1
minin 1
verir 1
eki 1
On@@ 1
zorunda 1
Han@@ 1
kız 1
und@@ 0.8583650231409763
kurum@@ 1
sebe@@ 1
do 0.42421710865220646
miş@@ 1
? 1
içerir 1
yenil@@ 1
ordusu 1
faaliyet@@ 1
Mel@@ 1
alarına 1
ing@@ 0.5981454062374367
şehri 1
cel@@ 1
Vol@@ 1
Merkez 1
arg@@ 1
edir 1
1987 1
bileş@@ 1
nit@@ 1
tepe 1
çevir@@ 1
yıldız@@ 1
lığına 1
ülke@@ 1
don@@ 1
Bununla 1
ph@@ 0.4049379303099288
ordu 1
elinde 1
cumhur@@ 1
Mek@@ 1
ıklar 1
ji 1
yeri 1
dair 1
anan 1
Galatasaray 1
To@@ 1
tesi 1
güç 1
dis@@ 0.2718667123517524
eci 1
kadın@@ 1
ilerek 1
Say@@ 1
üd@@ 1
orum 1
yük@@ 1
dağıt@@ 1
kın 1
Kanada 1
yapmış 1
felse@@ 1
tör@@ 1
Yarışması 1
lardır 1
aj 1
kurtar@@ 1
mesinin 1
aşam@@ 1
taşın@@ 1
ılara 1
değerlendir@@ 1
Yay@@ 1
1928 1
Son@@ 1
Bey@@ 1
Seç@@ 1
red@@ 1
bölüm 1
üret@@ 1
spor@@ 1
Gal@@ 1
Mez@@ 1
Hayatı 1
kontrol@@ 1
yılının 1
III 1
para 0.1993794950537343
uları 1
onları 1
San 0.5617806437714608
Gr@@ 0.5835467416069151
gözlem@@ 1
üzerindeki 1
sinema 1
Ukrayna 1
lenmiş 1
G 0.8364072853652489
motor@@ 1
ba 1
Grup 1
land 0.3809657603518135
öldürül@@ 1
Kıbrıs 1
Kad@@ 1
kamp@@ 1
anlık 1
oy 1
Muh@@ 1
başkenti 1
şarkıcı 1
döndü 1
sıcak@@ 1
Kore 1
ass@@ 0.5026157887717551
kop@@ 1
yüzyıl 1
1986 1
dünyaya 1
Az@@ 1
Yahud@@ 1
müş@@ 1
hız@@ 1
andığı 1
İsk@@ 1
V 0.8540743885826892
kasab@@ 1
sergil@@ 1
performans@@ 1
tanr@@ 1
karşısında 1
çoğ@@ 1
boş 1
kendini 1
erini 1
kişinin 1
Köyün 1
geleneksel 1
Mon@@ 0.6073663869481996
belirli 1
örgüt@@ 1
era 0.3387755097003078
şim@@ 1
söyledi 1
kültür@@ 1
des@@ 0.4135937016498994
lamıştır 1
şe 1
2@@ 0.8652800902982354
çünkü 1
aliz@@ 1
sh@@ 0.32757243767255095
eyen 1
1950 1
tipi 1
sayesinde 1
andır 1
gerçek@@ 1
yoğun@@ 1
kıl@@ 1
Hol@@ 1
sezon@@ 1
tri@@ 0.6747034941569214
ığına 1
acaktır 1
isidir 1
menin 1
çift@@ 1
aktif 1
edilmektedir 1
fre@@ 1
sahi@@ 1
yazarı 1
Ordu 1
artık 1
indir@@ 1
imparator@@ 1
imz@@ 1
Muhammed 1
alara 1
Gen@@ 1
Şehir 1
sayı 1
yayın 1
taş 1
elli 1
yo 1
Bol@@ 1
Hindistan 1
üstü 1
liğe 1
He@@ 0.7165739761241481
Hollanda 1
Kit@@ 1
İsveç 1
dış 1
kurdu 1
w@@ 0.21675467451654423
dikleri 1
üniversit@@ 1
kayıt@@ 1
60 1
aras@@ 1
enerji 1
konu 1
harek@@ 1
ıştır@@ 1
Han 1
işlet@@ 1
galaksidir 1
iv@@ 1
tır@@ 1
William 0.8375355225290751
anti@@ 1
uygulan@@ 1
med@@ 1
1984 1
ill@@ 0.6019934041250592
senar@@ 1
ece 1
eriş@@ 1
Süper 1
kardeş@@ 1
aat 1
bitir@@ 1
Devleti 1
kaybet@@ 1
ığın 1
Burada 1
araç@@ 1
şehirdir 1
no@@ 0.6369498150454193
mişlerdir 1
va 0.8860988412902574
kut@@ 1
elen@@ 1
boyut@@ 1
ez 1
organ@@ 1
Gü@@ 1
Savaş@@ 1
ang@@ 0.49567992962723295
maçı 1
met 1
tutuk@@ 1
bor@@ 1
destek 1
Windows 1
işle@@ 1
adığı 1
tif@@ 1
Res@@ 1
Gürcistan 1
bölge@@ 1
lis 1
ok 1
mit@@ 1
şarkısı 1
Mir@@ 1
single 0.699495938751592
indedir 1
ilinde 1
yerleşim 1
ino 0.6685838870499249
özg@@ 1
mel@@ 1
hiç 1
yazdığı 1
â 1
şey 1
tar 1
2. 1
ce@@ 1
UEFA 1
yönetic@@ 1
1985 1
idari 1
biçim@@ 1
mahall@@ 1
takip 1
inti@@ 1
korun@@ 1
90 1
ayarak 1
larındaki 1
İmparator@@ 1
Bul@@ 1
Sanat@@ 1
cinstir 1
ımcı 1
Böylece 1
ölçüde 1
ündeki 1
1982 1
kuzey 1
sürekli 1
siy@@ 1
Yaş@@ 1
yoktur 1
kazanmıştır 1
lılar 1
başkanlığı 1
deniz@@ 1
ziy@@ 1
kazanan 1
sos@@ 1
tarihleri 1
oloj@@ 1
maz@@ 1
Tarihi 1
etmeye 1
gaz@@ 1
arş@@ 1
sahn@@ 1
final 0.5663532438287808
cı 1
dışı 1
politik@@ 1
oynanan 1
ens 0.29505645205036074
çalışma 1
kara 1
tes@@ 1
Deniz 1
for@@ 0.4358664532510796
inş@@ 1
anlı 1
dö@@ 1
So@@ 1
bölgede 1
ati 1
Mc@@ 0.6427285996600194
adında 1
ket 1
tiy@@ 1
kanal@@ 1
ölüm@@ 1
Ahmet 1
Po@@ 0.8757208905667931
sı@@ 1
kum@@ 1
silah@@ 1
aman@@ 1
tiyatro 1
Osman@@ 1
Ni@@ 1
ıç 1
Irak 1
ben@@ 1
bö@@ 1
kın@@ 1
Fil@@ 1
Hat@@ 1
af 1
cam@@ 1
göç@@ 1
aşağıdaki 1
güney 1
Yaz@@ 1
öy 1
Bab@@ 1
ard 0.5581260307505205
doğrudan 1
ılabilir 1
lamak 1
Bas@@ 1
Kul@@ 1
200 1
elektr@@ 1
haf@@ 1
Cem@@ 1
kendisi 1
Eğitim 1
prot@@ 0.9867536075282577
Mo@@ 0.7451693843370334
kitap 1
kötü 1
gösteren 1
yerleştir@@ 1
asıdır 1
ancı 1
James 0.8554787239703229
... 0.8112819784400152
Yard@@ 1
ces@@ 1
let 1
geçmektedir 1
ant 0.16025099894301237
bölgel@@ 1
ind@@ 1
resmî 1
Mü@@ 1
Don@@ 1
takımına 1
yazdı 1
koşul@@ 1
popüler 1
hayvan 1
taşıyan 1
Sonuçlar 1
kurulmuş 1
endi@@ 1
pleri 1
3.@@ 1
Harek@@ 1
Bölgesi 1
enler 1
özel@@ 1
iyet@@ 1
zu 0.1225710075855672
1983 1
Kızıl@@ 1
çevr@@ 1
vet 1
Kurulu 1
Uz@@ 1
Özel 1
ban@@ 1
elik@@ 1
dam@@ 1
Gu@@ 0.684991560351082
uda 1
one 0.1173231088549153
anları 1
her@@ 0.5021893637380879
açıl@@ 1
sul@@ 1
görevi 1
Bor@@ 1
olan@@ 1
Üniversit@@ 1
Kuvvetleri 1
vol@@ 0.9437823229952347
asından 1
yoğun 1
mevcut 1
Enstitüsü 1
elektrik 1
gen 0.9697665381735106
David 0.9025867050619191
seviy@@ 1
siyon@@ 1
azi 1
futbol@@ 1
sınıf@@ 1
ımlar 1
elerinden 1
lek 1
dedir 1
Birinci 1
Sp@@ 0.6894046261175623
Yer@@ 1
çekil@@ 1
kısm@@ 1
kullanarak 1
dönemi 1
Yaz 1
Berlin 0.9613856423440471
Ermeni 1
medi 1
otur@@ 1
dok@@ 1
yo@@ 1
Mat@@ 1
batısında 1
gelmiştir 1
Şehrin 1
Ro@@ 0.639183074266372
sab@@ 1
yedi 1
işi 1
ell@@ 0.5708330383758163
rim@@ 1
dah@@ 1
yetiş@@ 1
halinde 1
kin@@ 1
ortam@@ 1
Cor@@ 0.5554482959871551
‘ 1
Fer@@ 1
psik@@ 1
yılındaki 1
çö@@ 1
uygul@@ 1
yası 1
eşi 1
insan@@ 1
ask@@ 1
Bakanı 1
ku 1
lilik 1
etmiş 1
haz@@ 1
Cumhuriyet 1
hedef@@ 1
yaşam 1
Altın 1
rad@@ 1
19. 1
Co@@ 0.49571927594936904
ilçesinde 1
çıkmıştır 1
bölgesi 1
Moskova 1
süren 1
kendisini 1
top@@ 1
aktar@@ 1
oluşturul@@ 1
enti@@ 0.6903487463669494
gelen@@ 1
yordu 1
Var@@ 1
hak 1
Pro@@ 0.7140767776453616
lek@@ 1
Kas@@ 1
Profesyonel 1
80 1
trik 1
vir@@ 1
liğine 1
nu 1
Si@@ 1
güc@@ 1
van@@ 1
etkisi 1
çesi 1
ilik@@ 1
keşf@@ 1
toplan@@ 1
yüzyıl@@ 1
araştırma 1
sorun@@ 1
sem@@ 1
aret@@ 1
Beyaz 1
om 1
çift 1
Başkanlığı 1
donan@@ 1
lak@@ 1
ıtı 1
Ku@@ 1
final@@ 1
madalya 1
Mak@@ 1
hesap@@ 1
rec@@ 0.5638159234279896
çı@@ 1
dr@@ 0.48558820821139653
grubun 1
bitki 1
asındaki 1
1979 1
akadem@@ 1
eliği 1
şah@@ 1
kayb@@ 1
sırasıyla 1
sek@@ 1
Festivali 1
Dar@@ 1
net 1
sefer@@ 1
atr@@ 1
Kariyeri 1
ayet 1
Okulu 1
sav@@ 1
Şark@@ 1
Alt@@ 1
uştur@@ 1
Can@@ 1
bay@@ 1
Sab@@ 1
söylem@@ 1
hir 1
açısından 1
masıdır 1
kilis@@ 1
Belediye 1
kullanılmaktadır 1
kişilik 1
çisi 1
bazen 1
35 1
elere 1
amam@@ 1
zar@@ 1
pu@@ 0.9637132062636726
Michael 1
vaz@@ 1
fiz@@ 1
şirketi 1
H 1
N 0.830629093967429
nasıl 1
grupl@@ 1
Olimpiyatları 1
karış@@ 1
birleştir@@ 1
dağ 1
gösterir 1
mis@@ 0.8526871048855893
kesin 1
bağımsız@@ 1
45 1
1981 1
yg@@ 1
İç@@ 1
antik 1
meler 1
oynam@@ 1
doğusunda 1
desi 1
sap@@ 1
kaf@@ 1
La 0.09708580657519644
yla 1
Müslüman 1
dördüncü 1
est@@ 0.44149417317274864
ifad@@ 1
bilimsel 1
hayvan@@ 1
fir@@ 1
cihaz@@ 1
eğitimi 1
urlar 1
mahalle 1
Geç@@ 1
alındı 1
Ge@@ 0.6506639740236122
kayıtlarında 1
tis@@ 1
ımını 1
açıkladı 1
gec@@ 1
ıld@@ 1
Tat@@ 1
göç 1
70 1
annesi 1
rast@@ 1
gal@@ 1
çev@@ 1
şehrinde 1
oyunu 1
Kral 1
kullanılmıştır 1
meni 1
Ordusu 1
arab@@ 1
yapmaktadır 1
ko 1
yapmak 1
böylece 1
oper@@ 1
çevres@@ 1
sen 0.8036400484187428
üye 1
lediği 1
belirt@@ 1
ena 0.9196563731323035
verilmiştir 1
vak@@ 1
bulunmuştur 1
Krallığı 1
mil@@ 1
siyas@@ 1
3. 1
örnek@@ 1
1974 1
Gel@@ 1
isim 1
üretilen 1
ografi 1
aklı 1
ecektir 1
Yaşamı 1
üf@@ 1
öncesi 1
etkili 1
bölümünde 1
nokt@@ 1
müzik@@ 1
serv@@ 1
buna 1
yabancı 1
gelmektedir 1
hayatını 1
ilişkil@@ 1
lisi 1
iddi@@ 1
yoluyla 1
takımyıldızı 1
1978 1
mat@@ 0.9149632677423145
Grubu 1
minde 1
profes@@ 1
toplum@@ 1
ağa 1
yıldız 1
stüdyo 1
sik@@ 1
Günümüzde 1
Öl@@ 1
ilgi 1
nok@@ 1
Spor 1
Mus@@ 1
muh@@ 1
tarz@@ 1
lul@@ 1
1945 0.7654934389635911
Hava 1
dür@@ 1
neredeyse 1
Albüm@@ 1
oku@@ 1
fark@@ 1
min 1
ıf 1
Lisesi 1
Cen@@ 1
Bağ@@ 1
Akdeniz 1
ch 0.3092288054615273
aci@@ 1
malzem@@ 1
sahne 1
çaplı 1
uyor 1
his@@ 1
Bat@@ 1
konusu 1
Oy@@ 1
Rus@@ 1
dini 1
ora 0.9763913448531758
str@@ 0.44469995640760157
ılığ@@ 1
aile 1
tarih 1
kapat@@ 1
onya 1
Sad@@ 1
In@@ 0.2816231151638533
mim@@ 1
kitabı 1
medi@@ 1
Savaş 1
parti 1
lanmaktadır 1
gu 1
göl@@ 1
çocuğu 1
geçirdi 1
mal 1
Con@@ 0.30842059447389036
Robert 0.8071722927220227
kullanıc@@ 1
hab@@ 1
mücadel@@ 1
500 0.9946289035033569
yasa 1
tane 1
1973 1
Ah@@ 1
Dur@@ 1
görevini 1
terk 1
1968 1
Beşiktaş 1
Str@@ 0.5610659430274653
azar 1
nün 1
siyasetçi 1
çoğunlukla 1
dizisi 1
telef@@ 1
ımcısı 1
ığından 1
arkadaşı 1
futbolcu 1
madı 1
fl@@ 0.6574627659163647
Kemal 1
acak@@ 1
ğe 1
doğrul@@ 1
kentinde 1
arken 1
eller 1
Müz@@ 1
finalde 1
dikkat 1
yüzden 1
işgal 1
aller 1
ıdan 1
çeş@@ 1
sınırları 1
yetiştir@@ 1
malı 1
1972 0.9699736395992595
FIFA 1
almış 1
ettir@@ 1
Mil@@ 1
tec@@ 1
1975 0.9557293913295298
başlad@@ 1
dili 1
ğr@@ 1
göz 1
vermiştir 1
hayatı 1
tamamladı 1
ılarını 1
zay@@ 1
ımları 1
bölgesine 1
metr@@ 1
32 1
Tel@@ 1
Kara 1
Britanya 1
filmin 1
keşfedilmiştir 1
lığa 1
gitti 1
üyeleri 1
ilçesi 1
seçim 1
Hristiyan 1
Bursa 1
faz@@ 1
4.@@ 1
cinsel 1
aşı 1
lanma 1
araya 1
ıldığı 1
kapsam@@ 1
nü 1
isi@@ 0.9660746891712294
değer 1
elerden 1
giren 1
görülür 1
Rad@@ 1
ortalama 1
nam@@ 1
ndeki 1
ma@@ 0.6149280622639587
Na@@ 1
canlı 1
milletvekili 1
Küçük 1
1977 1
ısıyla 1
yöneti@@ 1
Gör@@ 1
Tarih 1
1920 1
grub@@ 1
hayat@@ 1
keş@@ 1
lig 1
yapılmış 1
başlarında 1
° 0.8028608611843882
aceae 1
Macaristan 1
beledi@@ 1
sağlar 1
Demir@@ 1
eceğ@@ 1
hala 1
sağlayan 1
bab@@ 1
George 0.7302836378639223
kırmızı 1
ub@@ 1
seçimleri 1
durumu 1
alınan 1
çiler 1
ikti@@ 1
idar@@ 1
takımında 1
içindeki 1
yayımlanan 1
Sanat 1
bay 1
Muharebesi 1
Mac@@ 0.9838197983537155
yönetimi 1
unları 1
ışt@@ 1
düzey@@ 1
Lo@@ 0.6653891950364229
aklar 1
Mur@@ 1
ro 1
ai@@ 1
Bu@@ 1
istedi@@ 1
ys@@ 1
tal 1
can 0.26740447518387156
ders@@ 1
indi@@ 1
toplant@@ 1
kökenli 1
lerce 1
sevi@@ 1
başta 1
1976 0.9715812096816232
olmam@@ 1
Mas@@ 1
Meclisi 1
ae 0.8250181372950685
sanatçı 1
mevcuttur 1
İsviçre 1
Kulüp 1
başlang@@ 1
mm 1
düny@@ 1
baz@@ 1
saat@@ 1
Tab@@ 1
ilerini 1
ica 0.5080203963702346
bölün@@ 1
şar@@ 1
Sch@@ 0.2169659053281491
ond@@ 1
Med@@ 1
yaşadığı 1
Kültür 1
dük@@ 1
düğ@@ 1
lenmesi 1
Tay@@ 1
sol 1
Dol@@ 1
mayan 1
Güneş 1
Özellikle 1
kit@@ 1
onların 1
Bi@@ 0.7514014387054433
Rum@@ 1
vatandaş@@ 1
izi 1
andan 1
Dr. 1
çağr@@ 1
olmadığı 1
Tüm 1
ilişk@@ 1
işleri 1
düzenlem@@ 1
endir@@ 1
coğr@@ 1
1969 1
pler@@ 1
ts@@ 0.5952380453800686
Kir@@ 1
Kadın 1
merkez 1
Cam@@ 1
Derneği 1
ish@@ 0.8839056867357455
puan 1
nak@@ 1
pler 1
imli 1
lıdır 1
air@@ 0.9042308337654343
düşünül@@ 1
ita 0.7862396498578115
duvar@@ 1
tercih 1
Haz@@ 1
Müzesi 1
laması 1
1971 0.9674105151050518
ham 1
çıkar 1
5.@@ 1
Yas@@ 1
kaya 1
Gül@@ 1
içine 1
toplul@@ 1
yarar@@ 1
okulu 1
çab@@ 1
Şampiyon@@ 1
eyal@@ 1
ver 0.9255225748041299
oynadığı 1
na@@ 1
per 0.4503107622484503
diş@@ 1
Akademisi 1
kurtul@@ 1
ese 0.5223500801253161
çapında 1
dakik@@ 1
Portekiz 1
onay@@ 1
ga 1
erk@@ 1
Kayn@@ 1
rah@@ 1
2022 1
Sim@@ 1
ızı 1
Sey@@ 1
atandı 1
dün@@ 1
Tun@@ 1
gu@@ 0.5019758697571042
götür@@ 1
mektu@@ 1
kanıt@@ 1
diren@@ 1
zi@@ 1
anik 1
likler 1
City 0.4269136961116987
eylem@@ 1
yetkil@@ 1
kuşat@@ 1
hey@@ 1
üretim 1
asker 1
ndaki 1
normal 1
kolay@@ 1
denir 1
rev@@ 1
yayınladı 1
gücü 1
orijinal 1
Ti@@ 1
derece 1
Q@@ 0.6666704435485394
lı@@ 1
uf@@ 1
polis 1
edilmesi 1
rim 1
mekteydi 1
tahmin 1
fark 1
taşımaktadır 1
makin@@ 1
ker 0.6030049623025737
isinden 1
ket@@ 1
pan@@ 1
Mem@@ 1
Tor@@ 0.9567949852062494
Kadınlar 1
Los 0.36871377710378783
ayrıldı 1
kah@@ 1
ateş@@ 1
göstermektedir 1
sam@@ 1
istik 1
ticari 1
Gaz@@ 1
Pe@@ 1
Sah@@ 1
enf@@ 1
çalışt@@ 1
1967 1
söyler 1
aşırı 1
Taş@@ 1
ograf@@ 1
ücü 1
ira 1
seri 1
genç@@ 1
oyuncusu 1
azalt@@ 1
ülkede 1
Bunlar 1
dönüştür@@ 1
eten 1
yor 1
devr@@ 1
hatta 1
Et@@ 1
likleri 1
ner 0.37934903989330915
lim 1
geçmiş@@ 1
iyeti 1
Qu@@ 0.4211304175754682
takımın 1
Sur@@ 1
mant@@ 1
ölmüştür 1
erine 1
sağ 1
Teknik 1
gördü 1
Charles 0.7031007161258008
Kilisesi 1
amadı 1
ılarının 1
fonksiyon@@ 1
anların 1
dest@@ 1
bilinmektedir 1
teri 1
ori 1
maddel@@ 1
açtı 1
cul@@ 1
artır@@ 1
ikler 1
arka 1
durumda 1
por@@ 0.7743275289839536
ihtiy@@ 1
Sır@@ 1
ato 0.9082830107553662
Tanrı 1
Kab@@ 1
ulu 1
Gök@@ 1
dirler 1
no 0.14232868595053372
Kend@@ 1
adi 1
ong 0.6021533165895308
tül@@ 1
Ur@@ 0.9433293501221142
day@@ 1
hikâ@@ 1
fotoğraf@@ 1
özellikleri 1
rek 1
Paul 0.6415368757700187
rel@@ 0.5336877207588547
Ac@@ 0.7064737627277102
kültürel 1
aday@@ 1
yaptır@@ 1
aly@@ 1
sanat@@ 1
belli 1
neden@@ 1
İlçenin 1
sebebiyle 1
ticaret 1
roman@@ 1
almak 1
tro@@ 0.8241878858739415
koş@@ 1
ret 1
fer 0.9755188493941706
1930 1
öz 1
len 0.979886835565155
insanların 1
ıza 1
kuv@@ 1
arada 1
meş@@ 1
dönemin 1
Van 1
şiir@@ 1
Ama 1
takımının 1
ımının 1
olma 1
metal 1
urken 1
adamı 1
sınıflandır@@ 1
yaş 1
kuzeyinde 1
Ana 1
ekler 1
yerde 1
aşa 1
gr@@ 0.274044216449199
sun 1
lü@@ 1
sistem 1
lev@@ 1
Min@@ 0.7746404538679791
aracılığıyla 1
sok@@ 1
ziyaret 1
yükseldi 1
kulübünde 1
1961 1
tı@@ 1
Geçersiz 1
çekir@@ 1
örnek 1
pozisyonunda 1
Af@@ 1
kale 1
pas@@ 0.8051250533191076
yapısı 1
küm@@ 1
gece 1
culuk 1
astronom 1
doğum 1
etler 1
liğin 1
yeter@@ 1
ımında 1
çalışmalar 1
Kam@@ 1
anlay@@ 1
akları 1
bağl@@ 1
pos@@ 0.5367839819693319
yıllar 1
kendine 1
müziği 1
yem@@ 1
kapasit@@ 1
nüfusunun 1
yurt 1
etme 1
geçer@@ 1
Hor@@ 1
amacı 1
üz 1
olduğuna 1
olmadığını 1
sekiz 1
mışlardır 1
biçimde 1
Tür@@ 1
bahse@@ 1
oluşturan 1
bek 1
grup@@ 1
urt@@ 1
kontluğunda 1
Dav@@ 1
1@@ 0.8839930760018758
Dağ@@ 1
çu 1
ilerde 1
Atatürk 1
Dün@@ 1
Hali@@ 1
teslim 1
Naz@@ 1
parish 1
günlük 1
civil 1
kararı 1
Sak@@ 1
ges@@ 0.7730719069587754
asal 1
atör 1
sı 1
hiz@@ 1
pazar@@ 1
yanın 1
1965 0.9858332759220955
satış@@ 1
Yüz@@ 1
klasik 1
okul 1
yür@@ 1
alanda 1
attığı 1
Çok 1
amb@@ 0.9973958848870101
Kü@@ 1
doğan 1
illi 1
uç 1
sahipliği 1
fü@@ 1
vek@@ 1
1966 0.9939708968542172
örneğin 1
dılar 1
İrlanda 1
İç 1
1940 0.9400192808135351
teknoloj@@ 1
atif 1
kategor@@ 1
ört@@ 1
siyah 1
mekte@@ 1
mod@@ 1
çalışmaya 1
gin 1
pal@@ 1
tutul@@ 1
vel@@ 1
ell 0.4365291871430258
durdur@@ 1
Aday 1
araz@@ 1
yere 1
sağlay@@ 1
lili@@ 1
doğr@@ 1
sey@@ 1
mimar@@ 1
lığ@@ 1
ski 1
Yine 1
önceleri 1
evi@@ 1
hücrel@@ 1
öğretim 1
1964 0.9531209750415791
Nor@@ 0.6872143775394471
Sosyal 1
kis@@ 1
müd@@ 1
lenme 1
fak@@ 1
pro@@ 0.5555290321722194
veri 1
yılda 1
oluşmaktadır 1
Oğ@@ 1
alarından 1
Büyük@@ 1
hükümdar@@ 1
muştu 1
ettiler 1
ber 0.7737450362947879
yılın 1
4. 1
Türkç@@ 1
ailesi 1
by 0.028635628412840328
süreç@@ 1
zir@@ 1
asi 1
ölümünden 1
20. 1
fa 1
tat@@ 1
Cr@@ 0.6357075656668579
ony@@ 1
giriş 1
seçil@@ 1
Far@@ 1
karşılık 1
anlam 1
bilgisayar 1
yapmaya 1
sorum@@ 1
toprak 1
ruh@@ 1
kariyer@@ 1
enerj@@ 1
ura 0.8945418388896603
Konseyi 1
sur@@ 0.4035273112019804
listesinde 1
üme 1
etmesi 1
inde@@ 1
unla 1
abilen 1
yor@@ 1
iyet 1
uncu 1
boğ@@ 1
dalg@@ 1
Gru@@ 1
st 0.35854409876878723
fiziksel 1
ürü 1
lıklı 1
parçal@@ 1
İspanyol 1
ore 0.5341285636732402
müzis@@ 1
kus@@ 1
elek@@ 1
General 0.5692841737976341
Trabzon 1
League 0.3722319961566135
gelebilir 1
ımıyla 1
ımına 1
sağlık 1
organiz@@ 1
kaybetti 1
Oyuncu 1
kullanımı 1
tom@@ 0.925649156125376
kiler 1
Deniz@@ 1
zaf@@ 1
kalmıştır 1
sivil 1
Ede@@ 1
ong@@ 0.8473801093373456
üphan@@ 1
duyur@@ 1
insanlar 1
ras@@ 1
pop@@ 1
yüzey@@ 1
Arapça 1
ton@@ 1
türüdür 1
ep 1
Ba@@ 1
Çalış@@ 1
kahr@@ 1
yatır@@ 1
Hasan 1
diplom@@ 1
Pl@@ 0.7264074379869531
tre 1
Is@@ 0.9899580248304082
gerekli 1
lendiği 1
Ek@@ 1
1. 0.7857362491529194
je@@ 1
aştır@@ 1
lüğ@@ 1
bazıları 1
lardaki 1
vok@@ 1
Fin@@ 1
For@@ 0.5351970137326421
filminde 1
Meksika 1
Belçika 1
güvenlik 1
yaparak 1
anlığı 1
cev@@ 1
ezi 1
TBMM 1
aral@@ 1
ult@@ 1
onlar 1
yazı 1
atan@@ 1
şart@@ 1
1944 0.8022948832353529
ığa 1
malıdır 1
ilerden 1
bakanı 1
dığını 1
1963 0.9899732573961532
yayımlandı 1
filmde 1
hep@@ 1
Li@@ 0.7050460274190747
Bulgaristan 1
ımın 1
gan@@ 1
teleskopla 1
çeşit@@ 1
Mol@@ 1
Birçok 1
oluşturur 1
ilebilir 1
lin@@ 0.6749341149452219
landığı 1
Dönem 1
Peter 0.796810877909489
Yal@@ 1
danış@@ 1
sonradan 1
ıncı 1
ısal 1
sözleşme 1
Çek@@ 1
sebep 1
öğret@@ 1
sığ@@ 1
şirket 1
io 0.5752443964080056
merkezli 1
Haç@@ 1
tüke@@ 1
ajı 1
gesel 1
ıklarını 1
vil@@ 1
é 0.0916992630814758
henüz 1
olduğundan 1
uru 1
Karadeniz 1
engi 1
oluştuğu 1
hüc@@ 1
prak@@ 1
luğunu 1
işlev@@ 1
ceph@@ 1
birey@@ 1
Katalog 1
önc@@ 1
liğinden 1
art 0.4605714118476011
rüt@@ 1
uzay 1
eline 1
usunda 1
aynalı 1
belirtil@@ 1
görülen 1
dolayısıyla 1
Microsoft 1
Fransızca 1
adlandırılan 1
Ef@@ 1
yandan 1
Gökyüzünde 1
geçer 1
yüzünden 1
lin 1
Karab@@ 1
ilim@@ 1
kh@@ 0.7140124230059294
ang 0.5458451840319878
Albüm 1
Col@@ 0.3982883745570191
tiler 1
kaynağı 1
zem@@ 1
klu 1
İbrahim 1
ütte@@ 1
güneyinde 1
sub@@ 0.3386180057464972
yapılır 1
imin 1
Arjantin 1
teh@@ 1
edebiyat@@ 1
sonlarında 1
ödül 1
belirtti 1
sağladı 1
erk 1
tuğ@@ 1
Dış 1
akta 1
zengin 1
Ir@@ 1
getirildi 1
kov@@ 1
anya 1
sayılı 1
Adana 1
det 1
parçac@@ 1
rı 1
diğer@@ 1
avi 1
ıyor@@ 1
hastan@@ 1
7.@@ 1
deş@@ 1
pa 1
Efendi 1
Abdül@@ 1
alg@@ 1
Grand 0.7513097434214194
1941 0.8378036836648356
rock 0.9553041453702098
fik 1
zer@@ 1
karşın 1
mümkün 1
kar 1
orman@@ 1
ebe 1
versiyon@@ 1
Jean 0.5687884129155624
reddet@@ 1
6.@@ 1
maçına 1
sağlamak 1
ılar@@ 1
lim@@ 1
tedir 1
Sü@@ 1
Federasyonu 1
ikleri 1
fr@@ 0.3886749608609534
Hukuk 1
port@@ 1
büyükl@@ 1
ciddi 1
Ardından 1
anması 1
enek@@ 1
Ör@@ 1
tay@@ 1
Angeles 1
aslında 1
1962 0.9505272470758387
Ke@@ 1
eğiti@@ 1
lisans 1
Ben@@ 1
önünde 1
Babası 1
amay@@ 1
von 0.037627605923431694
gil@@ 1
şöyle 1
Sın@@ 1
acılık 1
Şah@@ 1
metin 1
pak@@ 1
Cel@@ 1
Kralı 1
iği 1
kesim@@ 1
omi 1
oj@@ 1
Pat@@ 1
Bölümü 1
1959 1
1956 0.9772718431153181
fiy@@ 1
inli 1
Şey@@ 1
programı 1
Göz@@ 1
sın@@ 1
75 1
evlendi 1
haber@@ 1
Pal@@ 0.8765828632519234
tari@@ 1
World 0.25839981120833305
sp@@ 0.27472101022653733
bugün 1
Kl@@ 1
Uy@@ 1
ilişkin 1
afi 1
rö@@ 1
kaynak 1
üp 1
yavaş 1
hükûmet 1
orada 1
leyici 1
soğ@@ 1
Hitler 1
Kim@@ 1
kültür 1
ikisi 1
NBA 1
nan 1
miktar@@ 1
olacak 1
olar@@ 1
sö@@ 1
ürlüğ@@ 1
á@@ 0.4193642366445141
neye 1
Müdürlüğü 1
Eğer 1
sıv@@ 1
yapımc@@ 1
eseri 1
Kil@@ 1
Alman@@ 1
Dışişleri 1
yöne@@ 1
üretimi 1
ğinden 1
ortadan 1
aksine 1
politi@@ 1
yasal 1
Süleyman 1
yapar 1
Söz@@ 1
yayınlan@@ 1
babasının 1
yürü@@ 1
kralı 1
lıklar 1
kış@@ 1
irdi 1
fes@@ 1
mesinde 1
geniş@@ 1
benzer@@ 1
olduğ@@ 1
anlamlara 1
kg 1
Ker@@ 1
gösterdi 1
yukar@@ 1
atan 1
molek@@ 1
çiç@@ 1
şirke@@ 1
azar@@ 1
ris@@ 1
Tim@@ 1
Sil@@ 1
renk@@ 1
dakika 1
larca 1
ori@@ 0.6682169750425706
Dan@@ 1
ludur 1
plas@@ 1
tüm@@ 1
kü 1
Ermenistan 1
.. 1
lideri 1
Mahall@@ 1
cek 1
eybol 1
Hüseyin 1
eşit@@ 1
lo 0.23554465510469777
Antalya 1
mül@@ 1
demir 1
num@@ 1
eza 1
Est@@ 0.9385471204725969
vad@@ 1
Sür@@ 1
ou@@ 0.2910407927149048
Ok@@ 1
laşma 1
mah@@ 1
Den@@ 1
arac@@ 1
Hristiyan@@ 1
kt@@ 1
kapsamında 1
kadros@@ 1
1946 0.9138926598513508
kişisel 1
tad@@ 1
hakkı 1
İsko@@ 1
1958 0.9514792830004015
atör@@ 1
Biy@@ 1
IV 1
barındır@@ 1
üzer@@ 1
lüğü 1
yasak@@ 1
Gölü 1
duğ@@ 1
Çağ@@ 1
for 0.022209402350056622
çizgi 1
yönetmen@@ 1
Sivas 1
odak@@ 1
duğunu 1
Köy@@ 1
eğini 1
gizli 1
Din@@ 1
karakter 1
ağın 1
aktiv@@ 1
giderek 1
Park 0.5439513559082364
bon@@ 1
etkileş@@ 1
timi 1
gerçekleştirilen 1
Norveç 1
yaşındayken 1
anali@@ 1
Değ@@ 1
ayla 1
Öğ@@ 1
Üç 1
Gürcü 1
Belediyesi 1
girişim@@ 1
konular@@ 1
yönet@@ 1
Hu@@ 0.9952364633023406
Mi@@ 1
mik@@ 1
hızla 1
Ceph@@ 1
konser@@ 1
ırdı 1
etkilen@@ 1
Anay@@ 1
biraz 1
Antik 1
hane 1
33 1
Sem@@ 1
biç@@ 1
mühendis@@ 1
tarım 1
değişik 1
köyü 1
ıcısı 1
Go@@ 0.7718882172691958
aza 1
acağ@@ 1
tiz@@ 1
giden 1
tam@@ 1
politik 1
ide@@ 1
bunların 1
üretic@@ 1
getirdi 1
St 0.9566620022780985
Erzurum 1
radyo 1
sürüm@@ 1
İlç@@ 1
kalınt@@ 1
Mey@@ 1
amaz 1
giydi 1
yakal@@ 1
1918 0.9876525297960406
başarı 1
elt@@ 1
pen@@ 0.6511343012963644
sene 1
ölüm 1
kullanan 1
au 0.0610475895111328
Hint 1
Lis@@ 1
kli@@ 1
Ros@@ 0.7765802167605085
silah 1
Ag@@ 0.8225253098958454
model 1
Art@@ 1
makal@@ 1
Kem@@ 1
sanatç@@ 1
Komis@@ 1
geçmiştir 1
rek@@ 1
1957 0.9820972681632939
Tu@@ 1
akya 1
toplamda 1
Basketbol 1
Sol@@ 0.7584403287178906
yönetim@@ 1
Yun@@ 1
dos@@ 1
On 0.14980889386600993
Camii 1
ikli 1
Filmin 1
Cumhurbaşkanı 1
kre@@ 1
memiş 1
doğumlu 1
Pan@@ 1
abilecek 1
fu@@ 1
faaliyet 1
kun@@ 1
Denizi 1
0.000 1
hat 0.4017325661470731
şer@@ 1
nedeni 1
berg 0.5000127154006954
leyerek 1
liğinin 1
savunma 1
şiddet@@ 1
Konya 1
des 0.019410339396749875
layarak 1
web 1
kel 1
olay 1
ilerinden 1
ımda 1
sözleş@@ 1
les 0.03480630280608635
nik 1
hidro@@ 1
almaya 1
ulaştı 1
Sosyalist 1
ister 1
Kuş@@ 1
64 0.9713746227924415
Sor@@ 1
Yunanca 1
Başkan 1
iyil@@ 1
Beledi@@ 1
daş 1
eser 1
34 1
alardan 1
geti@@ 1
halef@@ 1
seyah@@ 1
Ermen@@ 1
ven@@ 0.5139321670164394
Venedik 1
1954 0.9926736775748813
1955 0.9983058879643437
gök@@ 1
ısıdır 1
ilidir 1
lıkları 1
ayet@@ 1
ılarına 1
Hab@@ 1
raf 1
graf@@ 1
kişidir 1
düşür@@ 1
katılan 1
askerî 1
Gar@@ 0.8135353938320669
1943 0.8168505176397682
Bit@@ 1
sınır 1
Cal@@ 0.6158868437992637
od 1
Stadyumu 1
not@@ 0.635127053476312
uzak 1
ug@@ 0.8104582636355805
5. 1
mini 1
part@@ 1
etnik 1
rekor@@ 1
üyor 1
edebil@@ 1
ğinin 1
roman 1
kayn@@ 1
Men@@ 1
300 1
48 1
muhtemelen 1
rolü 1
eş 1
1948 0.8722847888396649
cins@@ 1
off 0.35795989859279614
kulü@@ 1
ilmektedir 1
mesaf@@ 1
ima 1
kullanıldı 1
alma 1
ella 0.5941494168743497
böl@@ 1
16@@ 0.6473092829226282
şampiyon 1
finale 1
ren 1
Bek@@ 1
halkı 1
jen 1
gâ@@ 1
madde 1
bon 1
Danimarka 1
Tep@@ 1
Henry 0.8180136545342765
Ölümü 1
Karş@@ 1
Adası 1
Adaylık 1
Uzun 1
Osman 1
dey@@ 1
kural@@ 1
çıkış 1
Nik@@ 1
ud@@ 0.8417364922037561
yüz 1
suz@@ 1
Dr@@ 0.8292370554542448
sinin 1
önde 1
başardı 1
yük 1
matemati@@ 1
oynayan 1
özelliği 1
oynan@@ 1
Thomas 0.5967553153735013
acaktı 1
entin 1
gereken 1
1939 0.7910942589401658
Milletler 1
urdu 1
Kızıl 1
Dönem@@ 1
w 0.37796063030315313
başvur@@ 1
Düz@@ 1
Kategori 1
lenmektedir 1
nö@@ 1
oz 1
ayd@@ 1
yeten@@ 1
ordus@@ 1
şekil@@ 1
ödülü 1
00 1
Genç@@ 1
Nazi 1
kuvvetleri 1
hakim@@ 1
Hükû@@ 1
incel@@ 1
şampiyonu 1
Samsun 1
bakan 1
seçimlerinde 1
birim@@ 1
genelde 1
Mehmed 1
tedavi 1
Sırbistan 1
rest@@ 0.9211314516076683
benim@@ 1
gerektiğini 1
Genç 1
Tiyatrosu 1
ema 1
koruy@@ 1
ismini 1
Ul@@ 1
birbirine 1
girmiştir 1
sert 1
Hik@@ 1
seçilmiştir 1
İst@@ 1
Oyun@@ 1
çap@@ 1
Tarih@@ 1
Hel@@ 1
Kör@@ 1
ümüz 1
birisi 1
aydı 1
ayn@@ 1
Fu@@ 1
dek@@ 1
alılar 1
har 1
işe 1
Komünist 1
Ben 1
Tü@@ 1
Yarış@@ 1
düz 1
stand@@ 1
makam@@ 1
çalıştır@@ 1
lığın 1
ırı 1
Os@@ 1
anay@@ 1
hikây@@ 1
Final 1
pop 1
sad@@ 1
zor 1
kün@@ 1
Kav@@ 1
oyunc@@ 1
verilir 1
yönel@@ 1
civarında 1
stat@@ 1
güzel 1
milyar 1
komün@@ 1
co@@ 0.15326468594349432
elidir 1
tük@@ 1
Yük@@ 1
kök@@ 1
mer 0.5135130832763359
alış@@ 1
yaygın@@ 1
rit@@ 0.8376075680899058
göv@@ 1
ışlardır 1
kod@@ 1
sy@@ 1
rar@@ 1
Del@@ 1
tanesi 1
ağaç@@ 1
mür@@ 1
oto 1
Pi@@ 0.6273163774017778
ick 0.5122468006512364
itibarı 1
Vil@@ 1
davran@@ 1
gaz 1
muhar@@ 1
bozul@@ 1
car@@ 0.2677983745591975
Richard 0.7820931590465869
yazılan 1
küç@@ 1
Lev@@ 1
bölgeye 1
ons@@ 1
ülebilir 1
ınd@@ 1
düzenli 1
ardır 1
ea 0.5982503635918301
saha 1
ja 0.6257780189492037
Tok@@ 1
sürdü 1
uvar@@ 1
Oyunları 1
egemen@@ 1
yaşadı 1
hafif 1
incelem@@ 1
37 1
arlı 1
olog 1
duk@@ 1
Şeh@@ 1
36 0.9658326995621487
kullanılarak 1
Kısa 1
oni 1
diy@@ 1
endüstr@@ 1
8.@@ 1
köş@@ 1
liye 1
stan 1
hangi 1
çıkış@@ 1
dizisinde 1
müdah@@ 1
giz@@ 1
arda 1
basit 1
piy@@ 1
uydu 1
fakt@@ 1
ildiği 1
ran 1
kişiler 1
test@@ 1
Antlaşması 1
hek@@ 1
Washington 0.6864834986903321
çok@@ 1
birden 1
erkek@@ 1
uzman@@ 1
kari@@ 1
Yönetim 1
güne 1
gümüş 1
Cez@@ 1
kuz@@ 1
Havalimanı 1
ân 1
Hırv@@ 1
noktası 1
tif 1
Topl@@ 1
istasyon@@ 1
sin 0.6923884204813524
vermektedir 1
taşındı 1
Göl@@ 1
gerçekleşen 1
Ali@@ 1
etki 1
büyük@@ 1
saldırı 1
1942 0.7702957458765871
Genellikle 1
mamış 1
ımad@@ 1
çekildi 1
asıllı 1
günümüze 1
rej@@ 1
Romanya 1
davranış@@ 1
krall@@ 1
ezya 1
öm@@ 1
belediy@@ 1
sahipti 1
ven 1
Ann@@ 1
kulüp 1
Baz@@ 1
arttır@@ 1
rağ@@ 1
Boğaz@@ 1
beşinci 1
ford 0.5367831734557046
düğünü 1
yönetmen 1
dalında 1
gören 1
Kırım 1
vin 1
başkan 1
boz@@ 1
tanınan 1
38 0.978357591826858
undadır 1
çıkt@@ 1
feder@@ 1
mir@@ 1
letin 1
sonuna 1
9.@@ 1
United 0.1794057227617963
les@@ 0.8925907906071299
haber 1
niş@@ 1
1953 0.9487616062782263
ksel 1
isti 1
sinem@@ 1
Rusça 1
hukuk 1
erinin 1
1919 0.9779632775302498
edilebilir 1
bitirdi 1
You 0.959333544907428
ağaç 1
kullanılabilir 1
ılığını 1
yerli 1
etleri 1
kabil@@ 1
Arab@@ 1
sektör@@ 1
55 1
Boy@@ 1
Nas@@ 1
hac@@ 1
nüfus@@ 1
lerdi 1
top 0.5103989824701619
çıkart@@ 1
araç 1
Saf@@ 1
42 1
elerle 1
fabrik@@ 1
geçiş 1
toplam@@ 1
taşı@@ 1
asla 1
galibi@@ 1
Olimpiyat 1
lıkla 1
Lu@@ 0.7150160668117183
ematik 1
lığında 1
istifa 1
zarar 1
geçici 1
şeh@@ 1
Saint 0.28500973503038696
sk 1
Katolik 1
Fr@@ 0.6076462494570083
albümün 1
Ru@@ 0.8283100559033824
bran@@ 1
mahk@@ 1
Finlandiya 1
del 0.03965930146595946
karşılaştır@@ 1
Ahmed 1
etkis@@ 1
tedav@@ 1
Kel@@ 1
hükûmeti 1
au@@ 0.25879539812859403
emekli 1
iliy@@ 1
çıkardı 1
görülmektedir 1
kes 1
yayınlanmıştır 1
1952 0.8913879394823835
cil@@ 1
Un@@ 0.413977978807864
haft@@ 1
çalışır 1
š@@ 1
emp@@ 0.8516463006611373
Fe@@ 0.9117215595711654
temsilc@@ 1
vide@@ 1
Yüzölçümü 1
memiştir 1
gösterildi 1
Ho@@ 0.7219975644789752
Kutsal 1
numaralı 1
farkl@@ 1
Erkekler 1
MS 1
Dağı 1
hatt@@ 1
klem@@ 1
şehridir 1
Cas@@ 0.6294560986687578
areti 1
benzeri 1
lip 1
ji@@ 1
ty 0.26978055541707585
Milli 1
başlamış 1
geril@@ 1
internet 1
Geliş@@ 1
Köpr@@ 1
ius 1
Komitesi 1
mezar@@ 1
muhaf@@ 1
öy@@ 1
olumlu 1
varsay@@ 1
65 0.7669328311866878
Bin@@ 1
beğ@@ 1
Sev@@ 1
tahta 1
potansiy@@ 1
Viyana 1
önceden 1
abilmektedir 1
ani@@ 1
ida 0.43160285564539824
öğrenci 1
şid@@ 1
imzaladı 1
basın@@ 1
usa 1
üreti@@ 1
estr@@ 0.6502042261541044
Gi@@ 0.7460969222807924
olo@@ 1
yaz 1
babasıdır 1
DNA 1
Şu 1
bayr@@ 1
dü@@ 1
Gre@@ 1
Almanca 1
temel@@ 1
yayıl@@ 1
alb@@ 1
içeri@@ 1
dıktan 1
kür@@ 1
erler 1
ster@@ 0.8355157704502255
cinsidir 1
rip 1
sorumlu 1
katıldığı 1
Meclis 1
Güney@@ 1
ola 0.9590587278546487
zamanlar 1
memektedir 1
evlen@@ 1
ly 0.1472269425668299
yos@@ 1
ailesinin 1
çerçev@@ 1
leşme 1
ilip 1
resim 1
vas@@ 1
bl@@ 0.2942853155266309
rapor@@ 1
tören@@ 1
uh@@ 1
Kah@@ 1
çizg@@ 1
onlara 1
Tas@@ 1
dere 1
oldukları 1
Diyarbakır 1
Ta@@ 1
başlay@@ 1
geldiği 1
efsan@@ 1
tiş@@ 1
yö@@ 1
konus@@ 1
eden@@ 1
gan 1
benz@@ 1
tre@@ 0.6724801245716872
yaşamı 1
stad@@ 1
Billboard 1
pel@@ 0.7235162944074963
Çev@@ 1
İsa 1
ektedir 1
üce 1
ab 0.26824423012622706
lerindeki 1
İngiliz@@ 1
bil 1
Diz@@ 1
çocuğ@@ 1
Okyan@@ 1
kuyru@@ 1
tilen 1
85 1
Eş@@ 1
sabit 1
sınıf 1
Arnavutluk 1
zamanlarda 1
luğunda 1
sefer 1
platform@@ 1
bölgenin 1
ederken 1
Tah@@ 1
olmadan 1
hakları 1
yav@@ 1
eştir@@ 1
koruma 1
ole 0.7879978091904667
ıldığında 1
Akademi 1
Kür@@ 1
ebi 1
görevlendir@@ 1
1949 0.8253318446747325
Eyaleti 1
Milletvek@@ 1
oh@@ 0.905492568168655
çıkard@@ 1
Louis 0.6184172265517788
Silah@@ 1
oda 1
gerekir 1
1947 0.83589484329743
altındaki 1
çya 1
aralarında 1
kıt@@ 1
Bö@@ 1
edildiği 1
0.@@ 0.7780739741101801
Met@@ 1
Yukar@@ 1
sti@@ 0.6061819026673401
leh@@ 1
sunul@@ 1
güneş 1
salg@@ 1
mağlup 1
sıcak 1
komündür 1
sayg@@ 1
Mag@@ 0.7304576794081995
renk 1
aktır 1
oğu 1
Pap@@ 1
bunlar 1
Ail@@ 1
yiy@@ 1
ayrımı 1
400 0.9670204073542534
kenar@@ 1
ısından 1
Şampiyonlar 1
kul 1
1938 0.8106702105392067
Cad@@ 1
Mih@@ 1
Şehir@@ 1
asıl 1
Erkek 1
parça 1
Wil@@ 0.7668576071035086
barış 1
unsur@@ 1
hakk@@ 1
sembol@@ 1
Adaları 1
başladığı 1
kimyasal 1
aray@@ 1
yönetmenliğini 1
çalışması 1
üzel@@ 1
Bayr@@ 1
retim 1
yanl@@ 1
öğretmen@@ 1
mahkem@@ 1
obil 1
İslam@@ 1
eşit 1
ettiğini 1
incisi 1
İnsan 1
liğ@@ 1
serisi 1
nek 1
başrol@@ 1
duyurdu 1
büy@@ 1
Çağ 1
amaçlı 1
ded@@ 1
yenin 1
yönettiği 1
Konstant@@ 1
imi@@ 1
6. 1
Love 1
makla 1
isindeki 1
uğraş@@ 1
plan 0.7041062002483448
toplumsal 1
performans 1
ülü 1
Devlet@@ 1
gruplar@@ 1
kalp 1
böyle 1
pek@@ 1
aspor 1
cut 1
maktan 1
Üçüncü 1
Atina 1
direktör@@ 1
veç@@ 1
Gür@@ 1
Kahr@@ 1
Ri@@ 0.6024684879679234
lanarak 1
ilerle 1
Fır@@ 1
ehir@@ 1
Latin 1
bol 1
Por@@ 0.813121627396131
yeşil 1
plak 1
kamu 1
iki@@ 1
yazılmış 1
öng@@ 1
familyasıdır 1
hükûmet@@ 1
yetenek@@ 1
kurulu 1
Modern 1
Martin 0.724826278586612
Oyun 1
kadınlar 1
numar@@ 1
Mev@@ 1
Records 0.7613132506086843
zamanında 1
sezonunun 1
isiyle 1
Aydın 1
adam 1
antren@@ 1
mete 1
oca 1
ılarında 1
akla 1
det@@ 0.6391798424094377
anah@@ 1
bed@@ 1
hi 1
kazandır@@ 1
isar 1
Kudüs 1
durumunda 1
kilise 1
sunuc@@ 1
istedi 1
und 0.014342979943499094
Plat@@ 1
anma 1
ilerinde 1
halka 1
ücret@@ 1
iletişim 1
sarı 1
Hüküm@@ 1
katı 1
uşu 1
tapın@@ 1
orta@@ 1
Fatih 1
Su 0.650408893364858
cular 1
mill@@ 1
çak 1
gin@@ 1
olmay@@ 1
İt@@ 1
Gazet@@ 1
ağı@@ 1
bakımından 1
ateş 1
Da@@ 1
gön@@ 1
ayar@@ 1
Erken 1
doktor@@ 1
illiği 1
1925 1
Sağlık 1
katkıda 1
ej@@ 1
eserleri 1
taarru@@ 1
gusal 1
kendisinin 1
başlandı 1
kilometre 1
OS 1
ider 1
ilk@@ 1
Sist@@ 1
anus 1
yarg@@ 1
kuts@@ 1
dik 1
olojisi 1
türleri 1
bet@@ 1
ekran@@ 1
kuş 1
çevrel@@ 1
ölümü 1
dünyada 1
yel@@ 1
ener@@ 1
gider@@ 1
kiye 1
yörüng@@ 1
başlıca 1
Birleşmiş 1
alist 0.7737452566879501
taht@@ 1
57 1
op 1
Yayın@@ 1
çey@@ 1
W 0.6310240224528783
sonuçları 1
Bre@@ 0.613302612345399
Güvenlik 1
sanatçı@@ 1
Ram@@ 1
mediği 1
bağlıdır 1
yk@@ 1
1936 0.8274814263485926
Cih@@ 1
işaret 1
Sav@@ 1
yang@@ 1
mor@@ 0.5254296784259372
ortal@@ 1
Kut@@ 1
uçak 1
yıla 1
başarısız 1
mensu@@ 1
anlamda 1
standart 1
kalit@@ 1
Savunma 1
ath@@ 0.44568499062457306
lerdeki 1
Ve 1
sand@@ 1
aması 1
Ste@@ 0.6247394221487691
önder@@ 1
Farsça 1
Tom@@ 1
mann 0.473066999288981
abı 1
evinde 1
topluluk@@ 1
Mut@@ 1
ödem@@ 1
age 0.09721078454553934
sarmal 1
amik 1
play@@ 1
yakınlarında 1
maruz 1
mit 0.04375885871489159
leridir 1
leyic@@ 1
numaraya 1
sezonda 1
Başkan@@ 1
İl 1
araştırmac@@ 1
zy@@ 1
engel@@ 1
kullandığı 1
alis@@ 1
39 0.940064111219382
yaşan@@ 1
imzal@@ 1
1951 0.8946174409051618
allar 1
$ 0.262004810299367
uri 1
41 1
ekte 1
Lee 1
sıralam@@ 1
Piy@@ 1
Yol@@ 1
Sırp 1
ekiplerinden 1
1933 0.8319221867413035
kayıt 1
ede@@ 1
oll@@ 1
olar 1
öncel@@ 1
ülkeler 1
1921 1
filmidir 1
dijital 1
dalga 1
Haf@@ 1
Kullan@@ 1
amp@@ 0.5777597810097317
ortak@@ 1
çekti 1
Küt@@ 1
modeli 1
bastır@@ 1
şir@@ 1
Hey@@ 1
kulübü 1
suyu 1
kten 1
ardı 1
gun@@ 1
mezun@@ 1
dile 1
sur 0.08240832446731393
1922 1
Makedonya 1
birlikleri 1
Müslüman@@ 1
klü 1
Tek 1
kat 1
komedi 1
elektronik 1
Ed@@ 1
adayı 1
renkli 1
Adalet 1
bugünkü 1
üniversite 1
atom@@ 1
motor 1
döv@@ 1
gid@@ 1
Ken@@ 1
dikkat@@ 1
milyon@@ 1
Com@@ 0.30183206066735246
rekab@@ 1
mekle 1
Bölge 1
1935 0.9113345015044928
Fl@@ 0.4349376845370812
edin@@ 1
unc@@ 0.6574078067039377
ela 0.8903020800832115
yerek 1
yola 1
deş 1
ebe@@ 1
mot@@ 0.8150374657625548
ilişkileri 1
Kurul@@ 1
sürdürdü 1
leti 1
ışma 1
çat@@ 1
şair 1
def 1
Vakfı 1
ates 0.21882392252952243
Div@@ 1
san 1
süt@@ 1
th 0.18971453154046616
ess@@ 0.30542653218779064
katılmıştır 1
paşa 1
öv@@ 1
Hi@@ 1
maça 1
Joseph 0.6420388460755759
Ra@@ 1
hatır@@ 1
bire@@ 1
sezonun 1
Al 0.5296079880884906
Bundan 1
44 0.8512002427470062
test 1
Tiyatro 1
saf@@ 1
Kiş@@ 1
dedi 1
cal@@ 0.6404853057894034
kullanır 1
sanatçısı 1
emek 1
Cer@@ 0.9740663799044957
52 0.9835646090337363
Düş@@ 1
SS 1
unlu 1
dolar 1
Adam 1
geçmiş 1
kurucusu 1
Fiz@@ 1
Google 1
Yerli 1
lanabilir 1
halde 1
kup@@ 1
uva 1
93 1
likte 1
iksel 1
ığının 1
blo@@ 1
keleri 1
72 1
cü 1
ung@@ 0.36235438567140976
şif@@ 1
yans@@ 1
yanlış 1
Apple 1
üyordu 1
bask@@ 1
milliyet@@ 1
pınar 1
Güm@@ 1
ic 0.1628396332937272
Dağları 1
arke@@ 1
hayv@@ 1
oynamıştır 1
çak@@ 1
1923 1
ediyor 1
petrol 1
yaşanan 1
yn 1
95 1
esindeki 1
istih@@ 1
set@@ 1
bulundur@@ 1
bidir 1
Demokratik 1
enz@@ 0.7134156855567294
lası 1
suy@@ 1
tehlik@@ 1
tor 0.3832958390456301
yönetilen 1
Lim@@ 1
ici@@ 0.6607906916629629
İsti@@ 1
vir 1
ödülünü 1
uygulama 1
belgel@@ 1
AR@@ 1
Araştırma 1
lıca 1
ülen 1
Zey@@ 1
değeri 1
Hiz@@ 1
derin@@ 1
geçerek 1
iliyor 1
lığının 1
insel 1
Kum@@ 1
ast 0.6962058088152915
bıraktı 1
nesn@@ 1
yanına 1
farklıl@@ 1
hayatta 1
liler 1
anlaşma 1
kapsay@@ 1
köyün 1
person@@ 1
buldu 1
Top@@ 1
karmaşık 1
sürede 1
CD 0.9273255719058686
Kazakistan 1
Od@@ 1
eviz@@ 1
ölçüm@@ 1
ılardan 1
ac 0.6803613040927644
bisik@@ 1
cil 1
besi 1
teşvik 1
takımları 1
Madrid 1
mış@@ 1
tim 1
çuk 1
Kraliyet 1
Parkı 1
ilişkiler 1
ilerlem@@ 1
idam 1
Müd@@ 1
ediği 1
ehr@@ 1
şiir 1
ekli 1
yal 1
gerekti@@ 1
maktad@@ 1
İr@@ 1
16. 1
çubu@@ 1
alınmıştır 1
iti 1
Yarı 1
qu@@ 0.14437721838462894
liliği 1
Turn@@ 1
vermek 1
Evli 1
oyu 1
Ex@@ 0.2779432405001882
Şah 1
Çanakkale 1
basketbol 1
erdi 1
Katılım 1
göre@@ 1
q@@ 0.8400122574481417
Ey@@ 1
Çocuk@@ 1
statüsü 1
grubunun 1
field 0.3092545719323774
isteyen 1
kısıt@@ 1
line 0.2558690499730584
demiryolu 1
ders 0.8013218904175021
eğer 1
okum@@ 1
bahar@@ 1
cell@@ 1
uların 1
aittir 1
dular 1
tez@@ 1
Sand@@ 0.9600743991581601
halkın 1
koleksiyon@@ 1
ülük 1
1924 0.9575089245571983
alanan 1
olum@@ 1
poli@@ 1
malarına 1
lük@@ 1
açıdan 1
sek 1
menler 1
Mill@@ 1
amak 1
ürün 1
eğitimini 1
Yılın 1
Bosna 1
savaşı 1
malarını 1
sey 1
güreş@@ 1
merc@@ 1
miktarda 1
spek@@ 1
gesi 1
ören 1
aban 0.7056947498493213
kenti 1
ami 1
sam 1
edebiyat 1
görevine 1
hareketi 1
yerleşimi 1
Çünkü 1
İnsan@@ 1
adlandırılır 1
elle 0.11045435215055449
kas 1
tarihsel 1
ach@@ 0.22281856626038532
Büyükşehir 1
ilgilen@@ 1
değildi 1
yeterli 1
üyesidir 1
Ban@@ 0.9738061911298939
1937 0.7993684071504537
tora 1
çevresinde 1
Moğol@@ 1
etrafında 1
gömül@@ 1
Doktor 1
cudur 1
emez 1
incil 1
yansıt@@ 1
ation 0.04440284998569841
talep 1
all 0.09801504789252805
küresel 1
asi@@ 0.78597087449575
ısındaki 1
Kayseri 1
bağış@@ 1
ailenin 1
derin 1
festiv@@ 1
kulübü@@ 1
raf@@ 1
7. 1
arm@@ 0.8751074403918552
aw@@ 0.3625431278328807
Kalesi 1
tabak@@ 1
cem@@ 1
Mahkemesi 1
Üy@@ 1
şunlardır 1
tehdit 1
Bunların 1
yüzde 1
kulüplerinde 1
Boz@@ 1
dadır 1
kaçır@@ 1
açılan 1
Kaf@@ 1
geçirdiği 1
pap@@ 1
yönetmeni 1
esas 1
Hil@@ 1
Mühendis@@ 1
Aziz 1
Me 1
hayatına 1
Biz@@ 1
Kulübü 1
oları 1
yemek 1
ılarından 1
anak@@ 1
47 0.9958059420530964
üler@@ 1
Yöne@@ 1
eşlik 1
dolaş@@ 1
46 0.9424400619779266
aylık 1
Nüf@@ 1
ahr@@ 1
96 1
artan 1
gemi 1
istler 1
İsmail 1
lamaya 1
edip 1
unca 1
uta 1
ordusunun 1
davet 1
gelişmiş 1
1914 0.8770112472685586
Karak@@ 1
ao 0.7181037550969548
sınırlı 1
açıldı 1
rüz@@ 1
siyaset@@ 1
ınday@@ 1
general 0.35374634008038236
iliyordu 1
Kürt 1
birer 1
aşağ@@ 1
ender 0.8233164784222032
avuk@@ 1
dokuz 1
ilişki 1
dayanan 1
versiyonu 1
yardımcısı 1
stratej@@ 1
1934 0.8605618013550502
olmakla 1
biriydi 1
kans@@ 1
mikro@@ 1
bünyesinde 1
karakteri 1
ly@@ 0.9103782646483316
time 0.09447534513804495
Cumhuriy@@ 1
alanları 1
traf@@ 1
92 1
engell@@ 1
1912 0.9829513017762815
Kup@@ 1
Tıp 1
za@@ 1
silahlı 1
Afrik@@ 1
Mersin 1
vat@@ 1
Barış 1
ii 1
kuruc@@ 1
enn@@ 0.4202766958388434
dem 0.048929911892652785
önem 1
eji 1
he 0.03436848963957431
ym@@ 0.7724866444617465
doldur@@ 1
rahats@@ 1
ahl@@ 1
ami@@ 1
alfab@@ 1
ötürü 1
anne 1
88 1
lise 1
unvanını 1
şarkının 1
kadro@@ 1
Büt@@ 1
Tam@@ 1
51 0.9989334970027618
köprü 1
mavi 1
18. 1
eğitim@@ 1
afa 1
ins 0.20426825786387406
bozuk@@ 1
dost@@ 1
hel@@ 0.7714376433361649
Takımı 1
ekibi 1
ahi 1
tiyle 1
ō 1
est 0.02284869725437552
Sonraki 1
ellik@@ 1
karıştır@@ 1
ligi 1
Litvanya 1
Jackson 1
dans 0.04722824500106878
fal@@ 0.9677245708065815
ith@@ 1
yargıl@@ 1
kisi@@ 1
ike 1
lah 1
43 0.9956695349961954
lif@@ 1
Kürt@@ 1
edit@@ 1
eleme 1
ciler 1
olmaya 1
Lig@@ 1
kaydet@@ 1
şüph@@ 1
Eser@@ 1
Fel@@ 1
Kari@@ 1
isten@@ 1
İmparator 1
altyap@@ 1
kapalı 1
ters 0.30925250815990596
Tro@@ 0.7888775827945581
istatisti@@ 1
larıdır 1
yab@@ 1
komutanı 1
Yeş@@ 1
fen@@ 1
Star 0.9431373838751119
ff@@ 0.44271398212419927
imiz 1
mamıştır 1
çileri 1
Arap@@ 1
dukları 1
fel@@ 1
lenebilir 1
SC 1
Ari@@ 1
Bulgar 1
Plan@@ 1
ihtiyaç 1
Ticaret 1
lebil@@ 1
gruba 1
karşılığında 1
Sun@@ 1
oluşturulan 1
bey 1
kullandı 1
abl@@ 1
tarafında 1
ğlu 1
1917 0.8726122211821004
tarihlerinde 1
One 0.4037410976315855
önüne 1
birinin 1
77 1
sta 1
67 1
lir 1
müsabak@@ 1
seçilen 1
ülkelerde 1
Tal@@ 1
53 1
kesi 1
kıyısında 1
esnasında 1
bilgisayar@@ 1
prodük@@ 1
99 1
lüğünü 1
uya 1
Açık 1
illa 0.6691680928499351
Ömer 1
Tri@@ 0.5402236853605545
bilgiler 1
tiğini 1
düşünülmektedir 1
ıdaki 1
ehri 1
şeklin@@ 1
adr@@ 1
ilde 1
koc@@ 1
tra 0.6529834472028644
takımlarından 1
Gürc@@ 1
giye 1
Şi@@ 1
Hanedanı 1
Rec@@ 0.6266711397188751
baskı 1
iro 1
Sonr@@ 1
medya 1
shire 1
tarzı 1
ılarda 1
özgü 1
dükten 1
milletvek@@ 1
çıktığı 1
ölümüne 1
Sarayı 1
ayrılır 1
Devrimi 1
0,@@ 0.8117082593140615
söyl@@ 1
zırh@@ 1
üstlendi 1
Video 1
atlar 1
emen 1
oluşturduğu 1
dak@@ 1
We@@ 0.45913183503115507
fat 1
bundan 1
landalı 1
uzan@@ 1
ayda 1
oynamaktadır 1
ysel 1
öyk@@ 1
oma 0.9730537819581693
Nev@@ 1
operasyon@@ 1
Kafkas@@ 1
şi@@ 1
ımlı 1
süs@@ 1
led@@ 1
imza 1
alama 1
harf@@ 1
Dal@@ 1
oğulları 1
aber@@ 1
sistemleri 1
Herschel 1
seyir@@ 1
Yönet@@ 1
irleri 1
yr@@ 0.6417108512061607
66 1
kaydedil@@ 1
may 0.22277659860446197
süresi 1
yaşamaktadır 1
tipik 1
Filistin 1
1,@@ 0.7518582514522376
dört@@ 1
plar@@ 1
semt@@ 1
Ren@@ 1
bağlantılar 1
İd@@ 1
reak@@ 1
M.@@ 1
Murat 1
toplum 1
ville 0.21977717580704034
zan 1
ı.@@ 1
liğindeki 1
anim@@ 1
ensel 1
okun@@ 1
uzanan 1
Bilim 1
sisteminin 1
kurucu 1
durumlarda 1
78 1
şehirde 1
abilirler 1
Kitap 1
hip 1
neg@@ 1
noktas@@ 1
paral@@ 1
cer@@ 0.44602785181350263
konfer@@ 1
konul@@ 1
Pas@@ 0.6945020619858479
WWE 1
anti 0.823779831850997
ikili 1
Karad@@ 1
gönderildi 1
tesis@@ 1
Yugoslavya 1
kalma 1
Maria 0.7896736919345578
giyen 1
geliştirilen 1
madığı 1
olduktan 1
Bü@@ 1
go 0.5052990138581098
nükleer 1
Bro@@ 0.7036904842482739
akıl@@ 1
çoğunluğu 1
yazılmıştır 1
Ph@@ 0.529283735174623
Yıldız 1
Cup 0.36191033581191034
şah 1
1926 0.9075127360599319
86 1
aracı 1
haned@@ 1
con@@ 0.11797025026177103
problem@@ 1
68 1
mekaniz@@ 1
May@@ 1
ibi 1
sınıfı 1
refer@@ 0.9307859719543191
takımlar 1
tarihinin 1
yaşad@@ 1
tarihte 1
temiz@@ 1
end 0.13360528211958483
pir@@ 1
Sultan@@ 1
ziti@@ 1
ört 1
62 1
Edward 0.9445614669489935
çalışmalarına 1
açıklandı 1
viz@@ 1
bütün@@ 1
pe 0.48276284317860996
Yav@@ 1
çilik 1
ash@@ 0.4848671466542557
forması 1
maların 1
görüldü 1
temsilcisi 1
çoğun@@ 1
54 1
kolon@@ 1
uvarı 1
atlı 1
dayalı 1
isp@@ 1
ster 0.4455969224528736
unv@@ 1
hücre 1
Ortodo@@ 1
58 1
mesidir 1
Ord@@ 1
61 1
Eskişehir 1
CH@@ 1
A. 0.5976493547549799
konser 1
Ka@@ 1
Portekiz@@ 1
dom@@ 0.9576277335476182
ıkların 1
yiti@@ 1
hayat 1
sıklıkla 1
irse 1
rem@@ 0.48495326956307816
Selçuklu 1
türlü 1
alması 1
ağının 1
edeki 1
08 1
94 1
Ang@@ 0.49614199948291965
familyas@@ 1
olacaktır 1
Soy@@ 1
kral@@ 1
köpr@@ 1
Çoc@@ 1
birisidir 1
çer@@ 1
71 1
kısmen 1
likle 1
Balıkesir 1
Kıl@@ 1
1927 0.9028996463895677
63 1
Buc@@ 1
ikle 1
müh@@ 1
ung 0.0927663558632297
De 0.28791386294138216
öncesinde 1
Latince 1
ted@@ 1
Bakü 1
ıcılar 1
ağan 1
dat 1
enmiş 1
sanayi 1
My 1
arasına 1
ars 0.4029458090072295
Il@@ 1
Toplul@@ 1
nüfusun 1
direktör 1
sonuç 1
yönlendir@@ 1
Dam@@ 1
göreve 1
— 0.03335231751670727
yazılım 1
İspanyol@@ 1
geç 1
şık 1
Macar 1
depre@@ 1
far@@ 1
Sek@@ 1
hakkındaki 1
algıl@@ 1
ow@@ 0.37069200873442293
adının 1
avant@@ 1
Yerel 1
kaydetti 1
ortasında 1
malara 1
olduk@@ 1
Bankası 1
dan@@ 1
etraf@@ 1
pik 1
Kurtuluş 1
belediyeye 1
civar@@ 1
gali@@ 1
Sat@@ 1
TRT 1
Vad@@ 1
ou 0.1150221421505781
kendilerini 1
Le 0.06776989953031615
West 0.3061831371438088
bakış 1
nitelendir@@ 1
uzaklıkta 1
ka@@ 1
Edirne 1
burg 0.572262118732382
ban 0.9193210272447246
emiştir 1
çocukları 1
olaylar 1
Mik@@ 1
hem@@ 1
fos@@ 1
Du@@ 0.6458777243491037
göstermiştir 1
aret 1
old@@ 1
Kı@@ 1
akış@@ 1
kullanım 1
‎ 1
ayrılmıştır 1
ng@@ 0.7206539377475936
yazmıştır 1
çıkmış 1
derecede 1
Eng@@ 1
Güzel 1
je 0.6862262572227771
bölümde 1
çevre 1
soğuk 1
boyu 1
ava 1
aylar 1
koz@@ 1
işletim 1
SSCB 1
akar@@ 1
Başlang@@ 1
Abdullah 1
ğı 1
56 1
Afgan@@ 1
buluş@@ 1
olog@@ 0.9658348394442735
yapılmaktadır 1
Nov@@ 1
ion 0.38507297965546167
tuz@@ 1
87 1
lam 1
Bölüm@@ 1
Bugün 1
abileceği 1
düştü 1
mut 1
alif@@ 1
AS@@ 0.8717101174436976
Bunlardan 1
Maç@@ 1
Kül@@ 1
ederler 1
Eyal@@ 1
Takım 1
Örgüt@@ 1
bölgesinin 1
ney 0.6755833581910379
ektir 1
puan@@ 1
gerçekleşti 1
kaç 1
arlığı 1
bronz 1
lenerek 1
tem 1
örler 1
cad@@ 1
Gazi 1
Bağım@@ 1
kolay 1
layıcı 1
müm@@ 1
Komünün 1
lav 1
rel 1
aten 0.5903460120678207
91 1
Askeri 1
Tes@@ 1
abilmek 1
ağında 1
oluşum@@ 1
ondan 1
hüküm 1
lıların 1
Music 0.47267631710718233
gelmiş 1
incelen@@ 1
Y 0.8512197188621263
anna 1
kazand@@ 1
ahş@@ 1
grafik 1
hast@@ 1
him@@ 1
V. 1
dam 1
eksik@@ 1
5,@@ 1
Ekon@@ 1
Tap@@ 1
Papa 1
yirmi 1
İ 1
Sonra 1
Çeşit@@ 1
Santa 0.6244964880620227
aydın@@ 1
akça 1
başlangıçta 1
taşıy@@ 1
1929 0.7869109033538982
Rock 0.9712701456277939
muşlardır 1
Eri@@ 1
işaret@@ 1
Prix 1
aat@@ 1
zm 1
Onun 1
tıp 1
Komut@@ 1
hâl@@ 1
Mit@@ 0.8470568178863238
şö@@ 1
dair@@ 1
döng@@ 1
yenerek 1
vücu@@ 1
gruplar 1
asit 1
devrim@@ 1
č@@ 0.9667518379626151
17. 1
Black 0.6545279869031527
Ay 1
Gor@@ 1
Hir@@ 1
düğünde 1
Avru@@ 1
birimi 1
Laz@@ 1
düşman@@ 1
dışındaki 1
inler 1
aha 1
desteklem@@ 1
desteği 1
saç@@ 1
76 1
olmasını 1
Sok@@ 1
gazeteci 1
atıl@@ 1
Derg@@ 1
dari 1
Mari@@ 0.7800348984339601
ometr@@ 1
yolcul@@ 1
81 1
Milli@@ 1
sonuc@@ 1
Um@@ 0.6031847116643672
deb@@ 1
manyetik 1
öldürüldü 1
Yah@@ 1
taşım@@ 1
82 1
emey@@ 1
ittif@@ 1
esk@@ 1
lamaktadır 1
sonu 1
zeng@@ 1
Başbakan 1
Tokyo 1
bahç@@ 1
hari@@ 1
Ödül@@ 1
73 1
Selim 1
kısmını 1
teklif 1
Ege 1
bom@@ 1
zz@@ 1
Kosova 1
Show 1
ა@@ 1
ser 0.2739027697213232
Bl@@ 0.48513910982007286
itler 1
Dil@@ 1
cüm@@ 1
pozisyon@@ 1
hattı 1
urg@@ 1
organizasyon@@ 1
Gençlik 1
onur@@ 1
74 1
eo 0.5756322196411395
Harry 1
bac@@ 1
erde 1
sar 1
bec@@ 1
gerek 1
usal 1
Çel@@ 1
1932 0.8067080825889715
Kastamonu 1
Demokrat 1
ello 0.7341640156333489
Kuzey@@ 1
jür@@ 1
insanları 1
okudu 1
hali@@ 1
fon@@ 1
erkekler 1
biyat 1
büt@@ 1
8. 1
Manisa 1
alternatif 1
cas@@ 0.33629452419885697
mine 1
ats@@ 1
49 0.8985519832144295
kuk@@ 1
mir 1
Manchester 1
sahip@@ 1
sig@@ 0.4959965354051102
zinc@@ 1
figür@@ 1
ende 0.2609084955161243
masa 1
sini 1
Prot@@ 0.9145322641933062
84 1
plar 1
buz 1
Kong@@ 1
mede 1
Komutanlığı 1
7,5 1
q 0.9634123600430686
trans@@ 0.22058187267058457
umlu 1
Beş@@ 1
eta 0.64363860522699
A.@@ 1
List@@ 1
Ori@@ 1
Oper@@ 1
Yam@@ 1
Smith 0.6562101787313284
olmad@@ 1
dim 1
COVID 1
ts 0.08305852120692582
04 1
play 0.2882000092785955
ust@@ 1
yat 1
İm@@ 1
asy@@ 1
Ün@@ 1
Hy@@ 0.8671669511784015
Dor@@ 0.8196514503058296
All 0.339349324584157
ayi 1
sak 1
fo@@ 0.587885975678343
up@@ 0.3144445463878492
Wal@@ 0.5430355057368754
Jack 1
rey 0.6949916412156835
asıl@@ 1
Don 0.9642562003928458
Vik@@ 1
alarla 1
hük@@ 1
krist@@ 1
bar 0.4561191109739445
1931 0.8173511833313036
ağıdaki 1
fas@@ 1
98 1
ger 0.3849835593888063
Elek@@ 1
Kim 1
ef 1
Entertainment 1
Fre@@ 0.365001836020543
rab@@ 1
Konfer@@ 1
kte 1
ogr@@ 1
zul@@ 1
ayak 1
bun 1
esir 1
Tekn@@ 1
konom@@ 1
ensi@@ 1
köken@@ 1
Çay@@ 1
Hen@@ 1
Ant@@ 1
km. 1
Cl@@ 0.528785511972019
M. 0.7831590135153866
Nar@@ 1
paz@@ 1
dans@@ 1
zih@@ 1
keti 1
AB 1
ru 1
imine 1
co 0.23688329925021515
Ap@@ 0.5848883045764958
Android 1
av 1
Yan@@ 1
isel 1
­ 1
Rio 1
awa 1
Film@@ 1
ack 0.5334774992177727
inen 1
1915 0.9506509642142095
solo 0.5019459949452032
Federal 1
mik 1
semb@@ 1
Futbol@@ 1
Kongr@@ 1
Je@@ 0.9877198788092486
alim@@ 1
Nak@@ 1
ave 0.7897471652657151
eder@@ 1
Frank 0.9285731217739431
Balkan 1
J. 0.6364201407153725
ā@@ 0.6271066593458708
sent@@ 0.9677347335170149
gelenek@@ 1
sim 1
97 1
Lüb@@ 1
aire 0.20232799312211053
Parlament@@ 1
orik 1
09 1
bina 1
ain 0.3200958875287071
9. 1
Malat@@ 1
Hot 1
* 0.22282350496837644
Sib@@ 1
cen@@ 1
emb@@ 0.4271177870070505
key 0.6949326095110239
ner@@ 0.6910827361655429
Sekre@@ 1
stein 0.6058788969995077
ail 0.827230986287624
ork@@ 1
antum 1
serg@@ 1
Pre@@ 0.5213965865668936
10.@@ 1
150 0.9670759490864143
Karl 0.7937353413264284
4,@@ 0.9011687456244623
aze 1
rik 1
bola 1
kenin 1
J 0.7214530340879814
ern@@ 0.4430986858311957
gür@@ 1
hr@@ 0.804729297510703
yespor 1
Araştır@@ 1
Nec@@ 1
Aj@@ 1
mark@@ 1
Pakistan 1
89 1
İtal@@ 1
EP 1
ei 0.6447574892750945
Jo@@ 0.7790516407192728
20@@ 0.7835788940511111
ender@@ 1
ome@@ 1
ć 1
Pek@@ 1
famil@@ 1
liste 1
Chi@@ 0.6572847454089012
soy 1
disi@@ 1
topr@@ 1
600 1
79 1
Ly@@ 0.9365647376754368
kal 1
eddin 1
Des@@ 0.526497884540875
aram@@ 1
day 0.18995913372201878
dül@@ 1
sekre@@ 1
1000 1
stüd@@ 1
reform@@ 1
sonr@@ 1
hiss@@ 1
onik 1
Amat@@ 1
olas@@ 1
yaln@@ 1
Sic@@ 1
esin@@ 1
kil 1
atmos@@ 1
69 1
fot@@ 1
Yusuf 1
05 1
eksiyon@@ 1
ğu 1
Mec@@ 1
sas 1
Can 1
hid@@ 1
esel 1
Bud@@ 1
tici 1
SK 1
öl 1
Op@@ 0.6885814299401496
reli 1
Play 1
Oc@@ 1
yaspor 1
Eğiti@@ 1
Trab@@ 1
Hac@@ 1
Pir@@ 1
laşması 1
aliyet@@ 1
send@@ 1
Mim@@ 1
Fi@@ 0.7810574966110513
imar@@ 1
Sali@@ 1
Altın@@ 1
Koca@@ 1
pis@@ 1
mil 1
koordin@@ 1
Maz@@ 1
ero 0.39048313122967415
sine 1
mel 1
Kes@@ 1
ain@@ 0.38944132551554295
iko 1
buc@@ 1
01 1
King 0.3839732126038829
arc@@ 1
eve 1
Cumhur@@ 1
Club 0.3216644958056901
59 0.9886287081218118
sil 1
türe@@ 1
Ne 1
eci@@ 1
Daniel 0.8525591143804909
3,@@ 0.783606280430797
Man 0.6586166775190098
orit@@ 1
ınar 1
​ 1
Buffy 1
Brit@@ 1
muş@@ 1
6,@@ 1
7,@@ 1
Alexander 0.7373209974397598
yd@@ 1
Ec@@ 1
aliyet 1
low 0.3524920527546184
otik 1
ach 0.27718370608070547
bank@@ 1
program 0.48338358270045645
Rek@@ 1
atin 1
ığ 1
Nur@@ 1
kli 1
pozis@@ 1
oksi@@ 1
83 1
Kent 1
02 1
organize 1
ō@@ 1
1916 0.9031050083891756
indi 1
ian 0.2948080637123981
Ü 1
.com 1
Live 1
Chicago 0.590174555459939
inopolis 1
da@@ 1
ürl@@ 1
Lor@@ 1
bağım@@ 1
tablo@@ 1
alli 1
Tol@@ 1
Zelanda 1
ille 0.4181743265790409
Erz@@ 1
Pav@@ 1
ray@@ 1
org@@ 1
18,7 1
Mary 0.6007743487214523
Nobel 1
My@@ 0.9748038500453409
1908 0.9123500847925734
gat 1
komple@@ 1
Reg@@ 0.30407609997895363
Sakarya 1
Çam@@ 1
Pasif@@ 1
Ven@@ 1
Flor@@ 1
Inter@@ 0.32807076827771114
kim 1
07 1
anz@@ 0.6450495278914726
köl@@ 1
ə@@ 1
Red 0.5833711173422079
buz@@ 1
No@@ 0.6958390060640429
udi 1
Emir@@ 1
protein@@ 1
Q 0.9891888986962202
800 1
odi@@ 0.802401137540421
Baba 1
ansa 1
ington 0.657503496258603
Bis@@ 1
IS@@ 0.751829456487836
Z 0.8667376073393896
Kütahya 1
arist@@ 1
Hid@@ 1
iten 0.8719342475226332
ota 0.9002635132385057
yalist 1
nas@@ 1
Mark 0.6986651754508213
bit 1
pul@@ 0.569989377663396
ance 0.12482709156603508
Vel@@ 1
rekt@@ 1
ure 0.15983483372797014
neh@@ 1
Gaziantep 1
fol@@ 0.6730001029831688
Koz@@ 1
São 1
rot@@ 0.6776573168280231
Marmara 1
Real 0.9482583741261479
hal 1
1913 0.8109995990021975
Albert 0.896187246131322
Nokia 1
Tour 0.5139763275462275
ick@@ 0.33529269581480525
• 1
rü@@ 1
televiz@@ 1
Williams 0.8656380027842978
Let@@ 1
Tom 0.9309873497658081
rat 0.7924394985934696
edr@@ 1
Rum 1
ons 0.1127587739172315
Roman 0.5559959394253454
Fat@@ 1
International 0.2507972293989504
aff@@ 0.4062197735706007
ales 0.12299162748405304
ener 0.6196220136392327
udi@@ 1
üste 1
Vi@@ 0.4951278083495279
Üç@@ 1
Vir@@ 1
ue 0.221795861459288
Â@@ 1
ity 0.11406701368629812
Yeşil@@ 1
zun@@ 1
Vak@@ 1
asik 1
opera 1
kutu@@ 1
dy 0.5810042622034451
baba 1
direkt@@ 1
Anne 1
Miss 1
Allah 1
Akadem@@ 1
Big 0.742290283624909
meli 1
Belarus 1
neği 1
ost 1
Eur@@ 1
ulus@@ 1
No 0.544563571923807
ud 1
Okul@@ 1
unvan@@ 1
ess 0.20827905764030386
Dik@@ 1
Max 0.9922212481385788
yev 1
13. 1
Ha@@ 0.6410459502482829
Fo@@ 0.7452603456006706
afe 1
lider 1
AK 1
hum@@ 0.6328968054691442
hükû@@ 1
pilot@@ 1
hil 1
Erdoğan 1
bet 1
best 0.3231090987655236
DVD 1
günümüz@@ 1
sky 0.83821124289771
ât 1
aki@@ 1
çek 1
kub@@ 1
1910 0.7334405039637008
bat 1
sit 1
ism@@ 1
pp@@ 0.550988624144687
Sir@@ 1
gru@@ 1
cel 1
ps 0.2852270521642604
boy 1
tis 0.7626595243661862
bre@@ 0.25658762928594575
It 0.04765697215824699
ost@@ 0.7387500983135558
ff 0.5790079895145916
demir@@ 1
ó@@ 0.2879133034391021
Mis@@ 1
FA 1
mater@@ 1
ân@@ 1
Anna 1
Gali@@ 1
well 0.11058047650769097
fotoğ@@ 1
Cum@@ 1
Company 0.39415251078072827
NATO 1
AC 0.8096268118985354
Yab@@ 1
idi@@ 0.8219295217007043
Tav@@ 1
oti@@ 1
Ky@@ 1
Solanum 1
ğer 1
á 0.4029373023780613
Pop@@ 1
Kars 1
Dir@@ 1
los@@ 0.7593547192471497
Proj@@ 1
mali 1
nik@@ 1
genin 1
rede 1
katkı@@ 1
Lar@@ 0.8381876901135905
In 0.019093152168392736
ary 0.11284843681133068
basket@@ 1
protest@@ 1
06 0.9764776724826781
ıs 1
klar 1
SA@@ 1
Tut@@ 1
port 0.3879568946377656
kuru 1
las@@ 0.9820938164551201
ple 1
ılım 1
Arizona 1
15. 1
National 0.13283205573673024
Bes@@ 0.851752512517761
alin 1
AN@@ 1
Ork@@ 1
BBC 0.8640870342376971
Moğ@@ 1
2,@@ 0.6994207108603813
Diy@@ 1
alle 0.40890248712871013
Luc@@ 0.8368051293759464
abe 1
gül@@ 1
atma 1
Massachusetts 0.9788825493803648
verg@@ 1
Royal 0.34066884479448356
The@@ 0.7156079240463888
10. 1
9,@@ 1
feri 1
11.@@ 1
ina@@ 1
Meg@@ 1
Gem@@ 1
gun 1
silc@@ 1
Sig@@ 1
ets 0.17404646009241093
iss@@ 0.48513879427698114
Chris 1
taya 1
Prus@@ 1
int@@ 0.3590435772049821
laborat@@ 1
nek@@ 1
Arthur 0.8623542433201776
é@@ 0.0870296964771755
03 1
aga 0.8141887800407204
parator 1
alk@@ 1
kamera 1
tabl@@ 1
Sof@@ 1
statisti@@ 1
Bun@@ 1
kati@@ 1
mati@@ 1
Eli@@ 1
Pierre 0.5308245118218045
amel@@ 1
zon@@ 1
posta 1
Esk@@ 1
Jones 0.7498780320328592
Pen@@ 0.5808333237230898
Ty@@ 0.8941674303541215
üt 1
Dis@@ 0.44116866648427855
öt@@ 1
ito 0.4938629121097187
Ep@@ 1
Ki@@ 0.8873080814697042
ben 0.3640030670573421
Liga 0.6251114968677621
uni 1
agr@@ 0.8968764270046137
atür@@ 1
esto 0.9395865762566081
Siv@@ 1
ator 0.23402092945252134
inger 0.45307844097979894
inal 0.5998067313991444
vin@@ 0.7431793114358323
nü@@ 1
1900 0.6871225672965487
Premier 0.8140625298071621
hit@@ 1
ift@@ 1
vey@@ 1
Cur@@ 0.5104841447309758
Nam@@ 1
Virginia 0.5993394921626518
ıçta 1
American 0.1015293732611092
avy@@ 1
ikal 1
po 0.8151953234389331
1911 0.766210424875317
tul@@ 1
Fransız@@ 1
KK 1
00@@ 0.8537962312754627
Florida 0.6539763624461549
Profes@@ 1
emin 1
ous 0.11666830218251785
analiz@@ 1
Vietnam 1
bot@@ 0.6857078875579746
vi 1
.000 1
Francisco 0.49702914141002474
Pu@@ 1
Yor@@ 1
pol 1
so 0.0993511546357934
Stalin 1
enden 0.21876520554824566
Life 0.5594392344035373
Zir@@ 1
spons@@ 1
örd@@ 1
tel 0.5117576851406996
Prof. 1
ih 1
isa 0.9451746875195258
aliy@@ 1
lit 1
dev 1
rasi 1
ürlüğü 1
kler 1
astronom@@ 1
Sc@@ 0.5063996382587833
uyu 1
14. 1
Slov@@ 1
tris 1
Elizabeth 0.945538469593009
Mid@@ 0.9266364150230705
bis@@ 1
Alan 1
Friedrich 0.622704707382465
ings 0.12070026278834074
RNA 1
Cy@@ 0.7528518323373296
ula 1
ith 0.5226246214381671
Alek@@ 1
La@@ 0.7912241043635135
ny@@ 1
ısız 1
b. 1
tin@@ 1
Cre@@ 0.4972757635814822
ft 0.2844077604600137
dolay@@ 1
ys 0.37792312635325603
üb@@ 1
sch@@ 0.08504317378307735
Koc@@ 1
Konservat@@ 1
Pin@@ 0.985734937142481
Mod@@ 0.8601967336313084
trop@@ 1
Vas@@ 1
mî 1
wood 0.421648734150063
Time 0.8913944037984539
okol@@ 1
oni@@ 0.5272843466576188
Brezil@@ 1
12. 1
Dest@@ 1
Ayd@@ 1
Hem@@ 1
Rob@@ 0.9779301968171812
urt 1
yoğ@@ 1
Oscar 1
Scott 0.802900043538244
elin 1
iter 0.9131471165867798
Formula 1
luy@@ 1
Nes@@ 1
vü@@ 1
park 0.5166471979441075
kamer@@ 1
tekli@@ 1
Grammy 1
Jersey 0.8705277199934768
fan@@ 1
Hür@@ 1
UNESCO 1
Sas@@ 1
els 0.14922985183026272
inter@@ 0.10320531180435207
arkad@@ 1
piyas@@ 1
onal 0.5308118527465456
Had@@ 1
sis 1
Nih@@ 1
Ner@@ 1
120 1
zin@@ 1
stil 1
utu 1
his 0.018791273028625294
une 0.024319690359082304
bez@@ 1
Bug@@ 1
Bot@@ 0.7043085548289307
abr@@ 1
Yıld@@ 1
hipot@@ 1
oth@@ 0.4526092359882498
Musa 1
ich@@ 0.3307968924728245
ellen@@ 1
tt@@ 1
Mali@@ 1
vit@@ 1
Pey@@ 1
Yel@@ 1
Amas@@ 1
enko 1
ling 0.2617517563631054
HP 1
uki 1
dia 0.5832503283448095
ight 0.4271393149543799
ilgil@@ 1
pay@@ 0.6228276468722053
ble 0.3668335995235094
sus 0.11587451742196032
Ayr@@ 1
ital 0.983065630673329
Times 0.6231070042603295
mahalle@@ 1
Alb@@ 1
adal@@ 1
ich 0.35971344405330496
âr@@ 1
11. 1
Kanal 1
ES@@ 0.8410377112199895
Kuvvet@@ 1
bas 1
kok@@ 1
amu 1
Cav@@ 1
eva 1
amad@@ 1
dram@@ 0.9438538124074121
yetik 1
H. 0.7630034594696562
Rem@@ 0.8405091884919881
Arnav@@ 1
Dom@@ 0.719766790816539
ck 0.6855559917486101
Lin@@ 0.6265453336403729
Libya 1
Petr@@ 1
Kart@@ 1
oya 1
TC 1
rar 1
ico 0.28166572257519884
ame@@ 1
Som@@ 1
Ukr@@ 1
beş@@ 1
erle 1
GB 1
alet 1
turn@@ 1
Nat@@ 1
Şanlıurfa 1
aur@@ 0.550871225818893
North 0.1855593956955083
Pil@@ 0.8385306539008461
veda 1
inn@@ 0.28381767435289956
egen@@ 1
Hollywood 1
og 1
Pri@@ 0.6324985841613465
hom@@ 0.4106017326573462
Blo@@ 1
DP 1
Brown 0.6496215652445972
tuğu 1
reti@@ 1
Fran@@ 0.8002101285468666
mızı 1
Char@@ 0.3452433595877273
with 0.011482996360052037
Not@@ 0.6786192153445666
mur@@ 0.639054299343119
nak 1
dis 1
ky 0.547253342669359
Carl 0.8122219179419152
fat@@ 1
eus 1
apr@@ 1
mur 1
Alaska 1
ihr@@ 1
Mahmud 1
Wor@@ 0.41309078862221277
galak@@ 1
Hum@@ 0.9552292454262169
ovi@@ 1
AT@@ 0.9845516106691098
iner 1
Eğ@@ 1
AM@@ 0.9371585238068105
Benz@@ 1
adres@@ 1
lukla 1
Bon@@ 0.8637062464119064
Parti@@ 1
Red@@ 0.5819371456453167
Young 0.7024184069405786
Dör@@ 1
name 0.11967509630010333
1909 0.7818508547615396
Ash@@ 0.7722402382989499
yse 1
Marie 0.5339918769309284
Sum@@ 0.754635979235877
Johnson 0.7081976768004572
Ten@@ 1
güre@@ 1
vatand@@ 1
kum 1
Star@@ 0.672845694779898
las 0.03436846163410402
Lak@@ 1
Trans@@ 0.38913542820073505
engel 1
phe 1
arr@@ 0.25097498106943744
Bay 0.5153797833526039
Vit@@ 1
demok@@ 1
Dum@@ 1
Feder@@ 1
ileti@@ 1
Ford 0.9916016076650884
Lit@@ 1
Tit@@ 0.8290134840514164
12.@@ 1
zo 0.7881865798763685
ros@@ 0.7799696072441955
tren 1
apo@@ 0.5184266348564928
Fal@@ 0.7203683829185283
log@@ 0.569200510339366
amac@@ 1
plaz@@ 1
bal 1
jen@@ 1
nur 0.16856304417132587
# 0.45209663217743584
Zi@@ 0.9065911716226924
annis 1
lında 1
pah@@ 1
Fa@@ 1
que 0.011812350359653976
Kız@@ 1
ram 1
avi@@ 1
Tos@@ 1
inus 1
gar 1
ınlar 1
Berg@@ 0.6640471771711712
Def@@ 1
Ort@@ 1
Ry@@ 1
700 1
Bos@@ 0.7412149729729761
Spar@@ 1
thi@@ 0.7670779905722093
War@@ 0.44025270844755393
section 0.4228765457387861
gener@@ 0.3700130158622782
Gl@@ 0.5373498068791637
250 0.9359893792544121
Tre@@ 0.41058460507082156
federal 0.7210308366494304
hiy@@ 1
1907 0.7356636704199991
had@@ 1
Andr@@ 1
lia 1
riv@@ 1
sanc@@ 1
Fakül@@ 1
VI 1
pres@@ 0.2596719524850761
Sul@@ 1
Aks@@ 1
Ener@@ 1
vard@@ 1
ğrenc@@ 1
FK 1
eth 0.6868925633251864
Leh@@ 1
ensi 1
lilik@@ 1
ory 0.2738722274153819
dor@@ 0.584790560309714
vr@@ 1
ex@@ 0.07643915013916659
Tam 1
Hall 0.3598911310514014
Pa@@ 0.8816027508217544
asist@@ 1
Bulgar@@ 1
1905 0.6654766607235892
mus@@ 0.38576631030555036
Raw 1
the@@ 0.27683987695299433
ölçü@@ 1
D. 0.5228526484890196
Sto@@ 0.8601829689429072
arla 1
inos 0.6520190261318147
ımından 1
mand@@ 0.5314846790067707
zey@@ 1
ი@@ 1
olina 1
lip@@ 1
» 0.018138949084910237
Malta 1
Cat@@ 0.6293444970131994
mag@@ 0.4219044672864859
ift 1
000 0.38410444981172026
Kn@@ 0.6561241203028515
CO@@ 0.8102067960807058
Samsung 1
Akh@@ 1
Joe 0.7795558905798309
yıldızı 1
FI@@ 0.894491775755293
ath 0.40564347590029914
Sağ@@ 1
Stand@@ 0.9160187464220083
amm@@ 0.41882457522738936
ago 0.5385783836780583
Anti@@ 0.9250482310942988
RA@@ 0.9021724463471249
College 0.185137375362712
Rod@@ 1
aro 0.97149910020045
atom 1
jinal 1
Kamp@@ 1
Kh@@ 0.42814659405082867
esc@@ 0.4852524033983122
stil@@ 1
ente 0.13002172283334426
nüf@@ 1
Gil@@ 1
Atle@@ 1
1878 1
MTV 1
vil 1
Got@@ 0.8523767968223581
ashi 1
err@@ 0.5235934485694395
drama 0.8263790830859884
Şub@@ 1
cam 1
hor@@ 0.3671030554735514
not 0.04267425277138105
zur@@ 1
Spor@@ 1
che 0.16830133670613234
Pel@@ 1
Sk@@ 0.6990530871738909
kuku 1
Nag@@ 0.9077402378823062
oph@@ 0.39966451036223943
üph@@ 1
asit@@ 1
Top 0.6679949544311422
Angel 1
pil@@ 0.6081463633442974
1902 0.7950307236554837
ier 0.2894889487071031
Hur@@ 0.892527266833351
Obl@@ 1
Hong 0.8245865281257007
Merkez@@ 1
ett 0.4048917816576537
Kiev 1
Sanc@@ 1
Cey@@ 1
Tif@@ 1
estra 1
360 1
ado 0.04571152525306252
ido 0.20140619689140293
som@@ 0.6695770206409327
Mıs@@ 1
pi 1
dy@@ 1
Dok@@ 1
Aster@@ 1
algorit@@ 1
ill 0.41625465290789015
Atlan@@ 1
TE@@ 1
Vladimir 1
enti 1
Super@@ 0.5611557156404178
Hö@@ 1
abi 1
5.000 1
ige 0.2207285437858858
landa 1
tren@@ 1
« 0.017409986062787947
José 0.41418532301141137
Taylor 0.8610321260510794
Madonna 1
Lewis 0.9554121903952738
Mot@@ 0.5112156424057871
anos 0.4777644868933219
Jer@@ 0.9251733158908803
Belgrad 1
chi 0.4759462656587546
Bask@@ 1
kle@@ 1
die 0.008547473954576832
End@@ 1
Shi@@ 0.6798877460984822
amba 1
Antonio 0.5925453509739304
pos 1
ort 0.5711270243687471
Bob 0.889650827274161
SE@@ 0.8051927247662031
Pot@@ 0.9111612445060939
Carlos 0.5859403379683418
Eb@@ 1
PC 0.9643562645521434
trol 1
Aç@@ 1
AP 1
1886 1
ake 0.34386112536695107
Sed@@ 1
esia 1
gil 1
epe 1
Fri@@ 0.7334033500145064
our 0.1832719172942303
SA 0.7630132307649861
ee 0.3280890687896467
ish 0.2584408081476922
gri 1
ment@@ 0.4261594418700205
Rah@@ 1
Paulo 1
Wilhelm 0.6484149576938956
Sony 1
km2 1
sir@@ 1
Ray@@ 1
transfer@@ 1
30@@ 0.7150708533014332
CD@@ 0.8386996464575582
Group 0.32389436966515367
Antak@@ 1
aal@@ 1
gis@@ 1
elektron@@ 1
jer@@ 1
va@@ 1
Etim@@ 1
vanya 1
protein 1
ste@@ 0.25970102507770937
R. 0.696602090450949
ock 0.4345353519462728
DC 0.8492452615786438
tank 1
ase 0.2927977680261636
hit 0.5529171132556534
Liverpool 1
ando 0.11512646779683247
í@@ 0.17270585923353463
Final@@ 1
nem 1
ush@@ 0.7777836308696525
Boston 0.60869357001566
ä@@ 0.12551161014669152
AC@@ 0.587854871847185
elec@@ 0.5040373543854313
bert 0.5500378390916456
School 0.12327353761289417
akan 1
demokrati@@ 1
Pis@@ 1
ais 0.36224361636881913
astr@@ 0.8494069719538078
ehir 1
itz 0.41185043930230264
ped@@ 0.9987915556053771
oslov@@ 1
sever@@ 1
ındır@@ 1
Pro 0.9347302838763579
amo 1
8,@@ 0.8333448301071819
uli@@ 0.7459135008593791
Ces@@ 1
Sir 0.5199635627222872
eto 0.6203918529075967
etta 1
tro 0.8264971236653216
tit@@ 1
Ada 1
Yo@@ 1
enstr@@ 1
Fir@@ 1
Ale@@ 1
Haned@@ 1
hur@@ 0.7521015698578721
ildir 1
Lenin 1
kateg@@ 1
bekistan 1
faz 1
izi@@ 1
ensis 0.5179087678812956
urg 1
Lam@@ 0.84448532412533
entr@@ 0.2912197976536644
nd@@ 0.938610304124788
Num@@ 1
don 0.49137573707359317
ania 0.6206833938185264
kanal 1
Pam@@ 1
Vek@@ 1
zu@@ 0.4755591675356241
cher 0.22711100656228578
Disney 1
osen 1
esab@@ 1
ie@@ 0.3309242596567899
ry 0.27235840663998445
Wat@@ 0.7976351181681721
0,1 1
AL 1
Mam@@ 1
Mars 1
ime@@ 1
naz@@ 1
nem@@ 1
hali 1
opo@@ 1
reç@@ 1
inae 1
Sus@@ 1
án 0.20579315222640024
eman 0.6882063785596796
Gur@@ 1
ł@@ 0.5625388698257126
Simon 0.8178522419303007
Day 0.514127559504422
klin@@ 1
bür@@ 1
nu@@ 0.55496226696359
Balt@@ 1
Super 0.5591824463220002
oran 1
Kong 0.7463579314574773
onda 1
Niz@@ 1
arma 1
net@@ 0.6101739590669627
set 0.1611655235852156
Sw@@ 0.509817534333917
abad 1
vo@@ 0.34107349657730274
ense 0.4035596910869524
like 0.1553743763658664
hasta 0.1900652202356469
kör@@ 1
ölçümü 1
Ars@@ 1
Hamilton 1
BM 1
bombard@@ 1
Team 0.3820371973439885
oku 1
Air 0.2999034977660044
ER@@ 0.7877984109108019
Fox 0.895647949527821
Fot@@ 1
Demok@@ 1
yeti 1
Meh@@ 1
ikat@@ 1
Kre@@ 0.651083123321897
Victoria 0.6192948036732031
laz@@ 1
DE@@ 1
Rab@@ 0.8666349348140814
Mül@@ 1
Hill 0.4569155078445427
ão 1
ი 1
lit@@ 0.6352441888453458
Hır@@ 1
oa 0.7019645878057161
1906 0.6462907748670148
Bed@@ 0.7504873482950126
Linux 1
Steve 0.8453248369788404
egen 0.6753995807858878
Day@@ 1
ont@@ 0.877082341574918
ier@@ 0.2051874227254515
E. 0.6052804350698022
Juan 0.37004985156731274
ister@@ 0.9164968020989939
Fili@@ 1
Sol 1
vo 0.5454291523628954
ST@@ 1
Bill 0.6342368049294821
Cin@@ 1
Key@@ 1
atta 1
ua 0.5109056556500076
ame 0.42645391976920544
She@@ 0.8291405384679488
Sy@@ 0.4727288507343003
Bundesliga 1
amaz@@ 1
ace 0.27111418779741225
ash 0.4726919403546328
ile@@ 1
ept@@ 1
mp@@ 0.7172327065280065
Not 1
Tony 0.929715470023063
diya 1
Sos@@ 1
Sub@@ 0.4125609622979011
pot@@ 0.5241512085030472
France 0.10908352592665115
Pak@@ 1
meyd@@ 1
pand@@ 1
Sam 1
Loc@@ 0.5876137028579071
lon 1
C. 0.3302816413608129
etr@@ 1
ert 0.15309500405231324
Lef@@ 1
Pop 1
Protest@@ 1
amo@@ 0.8646006374572707
Ez@@ 1
Christian 0.32593428536564334
aye 1
oto@@ 1
temas 1
Rey 1
Müs@@ 1
1890 0.7603991894634454
element@@ 1
etten 1
Yu@@ 1
com@@ 0.10351900644433104
biyat@@ 1
çuk@@ 1
Avustur@@ 1
Ever@@ 0.8955168431529084
Laur@@ 0.7649584228776882
aus@@ 0.08072875556318432
air 0.2577984861558311
stan@@ 1
YouTube 1
eter 0.32857449732952837
François 0.6343178918119441
urs 0.361735596907354
All@@ 0.5736494645244565
tika 1
UN@@ 0.7703671001971912
aber 0.145259951312736
Ju@@ 0.4878826833399643
Beh@@ 1
ıca 1
reh@@ 1
aray 1
Corn@@ 0.7336054817264789
White 0.3782446793529345
Kale 1
Ö 1
bine 1
kombin@@ 1
rat@@ 1
1876 1
Walter 0.6427726183331718
Ses@@ 1
düncü 1
osa 0.3291941511112657
Im@@ 0.31582499495091215
ew@@ 0.3330360269722215
Win@@ 0.5258480162938122
ū@@ 0.9555402608179777
CA@@ 0.5718253620880004
Mac 1
Fut@@ 1
Maked@@ 1
eka 1
ett@@ 0.42191775801588116
sekt@@ 1
aa 1
has 0.02880592179469419
1877 1
US@@ 0.5109079369585405
Ere@@ 1
enses 0.9199565281637337
bo 0.8338294317557968
rem 1
ini@@ 1
nat@@ 1
Ot@@ 0.9487006028258497
ayar 1
ng 1
Zam@@ 1
1896 0.7840121156947318
Pau@@ 0.8345318401417661
form 0.15087787184798798
University 0.07252669932582202
cr@@ 0.13440858821105892
hiper@@ 1
1904 0.642292103154685
Haw@@ 0.6966500603869121
Lord 0.5110570436548448
bank 0.5352218316308921
Night 0.8639837492994962
trol@@ 1
uke 1
kov 1
1,5 1
Black@@ 0.8724570142304211
B. 0.3138795818410249
Ov@@ 1
col@@ 0.10781544459943217
pilot 1
Hom@@ 0.5909244139808248
Wilson 0.7329975081745463
alp@@ 1
komit@@ 1
10.000 1
AD@@ 0.9297753794444003
rap@@ 0.3146216845854653
ampiyon 1
zen 0.32433460776735884
Barcelona 0.7857066618089283
aliye@@ 1
Hon@@ 0.5200348046478667
alya 1
Hun@@ 1
ont 0.09846453936610991
win 0.20411689064832966
Arena 1
elen 1
Bing@@ 1
Mike 0.7307123359617291
Milano 1
Andrew 0.776710300050799
ekt@@ 1
direkt 1
ej 1
alay@@ 1
bün@@ 1
tadan 1
House 0.19178085772733347
erg@@ 0.5566178358050281
lah@@ 1
lie 0.5346537386795015
Brian 0.9711645070537087
Stephen 0.8608620205966225
lice 1
Sho@@ 0.665614156256164
dal 1
ome 0.37476857000844566
Dre@@ 0.47774892746357867
bır@@ 1
agon@@ 0.8574830468515074
Kurt 1
asan 1
AS 0.8145417724303634
Kri@@ 1
Buenos 0.8017298703963046
1901 0.6776394844863093
Corporation 0.6526491697019332
anj@@ 1
Kilis@@ 1
aport@@ 1
afya 1
parlament@@ 1
S. 0.506153772280326
fig@@ 1
Wh@@ 0.7173788347010167
Oxford 0.7629962808083894
gut 0.7758764836827352
ting 0.09064228542953556
Aires 0.7982849719872174
Spe@@ 0.4442580383840936
AL@@ 1
sat 1
olim@@ 1
-- 1
we@@ 0.1539193076191974
ž@@ 1
Holding 1
sus@@ 0.5671804127440943
Len@@ 1
Pic@@ 0.727994872025716
Nikol@@ 1
kam 0.26206418768139844
bury 0.5961623994451362
riz@@ 1
Tac@@ 1
oi 1
MS@@ 1
Tiyatr@@ 1
Napoli 1
gre@@ 0.3687390665077435
umi 1
Hans 0.5498953465983284
ë@@ 1
Ş 1
Nav@@ 0.6897951659448791
gl@@ 0.28546536852623616
mam 1
reg@@ 0.15623629820427698
ე@@ 1
Liv@@ 1
New@@ 0.5085959645627993
Championship 0.27917749094550404
Mand@@ 0.701096753866333
zek@@ 1
Batman 1
Jacques 0.6320302981628994
mun@@ 0.5690393582745609
tiz 1
Sloven@@ 1
vey 1
Rol@@ 0.8076277759594187
tran@@ 0.6042470357183775
Bank 0.4740830432511278
ettin 1
ombi@@ 1
oman@@ 1
Patr@@ 0.6579736280438908
yesinde 1
Pensil@@ 1
yeye 1
sed@@ 1
Who 1
mağlu@@ 1
East 0.21936893863932228
Mont@@ 0.4228257332237602
Mos@@ 0.5642342370496461
sson 1
Bod@@ 1
öh@@ 1
Grande 0.7152173814258973
oter@@ 1
vet@@ 1
Ca@@ 0.8489942161203048
IC@@ 0.6740327710796165
25@@ 0.5646915726281665
Kin@@ 0.5948386239363788
Alt 1
suya 1
ento 0.3672277962055754
gam@@ 1
Boğ@@ 1
rul@@ 0.8404282796417039
Japon@@ 1
80@@ 1
dör@@ 1
Gro@@ 0.6275574395168616
hik@@ 1
40@@ 1
Nah@@ 1
ante 0.09891985032588008
lil@@ 1
Stone 0.940616748128257
Ted@@ 1
IM@@ 0.9579920308989315
Charlie 1
Tir@@ 1
Art 0.22852769882744622
arya 1
14.@@ 1
Pet@@ 1
lige 1
130 1
Sinc@@ 1
tropo@@ 1
Mark@@ 1
femin@@ 1
Sm@@ 0.9679735831298392
Arnavut@@ 1
hata 1
lus 1
Maur@@ 0.824033058080757
vis@@ 0.41455661035539276
hü@@ 1
oth 0.6336435436045943
Of 0.6729852119662996
önces@@ 1
Newton 1
Amerik@@ 1
Lat@@ 0.6575051947302087
ø@@ 0.6809141607150504
24@@ 0.6321216873292316
ison 0.3789129902431966
yp@@ 0.4329021232681538
odo@@ 1
Stad@@ 1
1903 0.6313951356796422
Rak@@ 1
Web 1
als 0.01839185552202247
Tic@@ 1
parlamento 1
а@@ 0.14217180026481666
ther 0.461520902408258
Buz@@ 1
yam@@ 1
Swift 1
alis 0.7592210718387108
Cu@@ 0.4594681718676011
este 0.13591668828736606
normal@@ 1
Hek@@ 1
í 0.32580746025939405
17.@@ 1
denen 0.41526916799232655
Galaxy 1
Ulus@@ 1
iOS 1
Filipin@@ 1
Boh@@ 0.9756836297186563
Ras@@ 1
Alfred 0.8135608571937385
dire@@ 1
Pale@@ 1
HD 1
Program@@ 1
Kub@@ 1
Progr@@ 1
Avustr@@ 1
× 0.663086639070117
row 0.30578591969247115
Nit@@ 1
ho 1
ors 0.082013875946539
Wol@@ 0.5269993919464234
Alice 1
Green 0.4728961055960253
sburg 1
Dun@@ 0.601957521703064
ju@@ 0.36133554097529685
Muk@@ 1
trav@@ 0.3186977676999125
Ci@@ 0.6874984757389182
1880 0.7508460710103897
etle 1
oru 1
Cap@@ 0.5782791717044291
Pay@@ 1
Wo@@ 0.622454553747594
ebr@@ 0.6854370945775476
ple@@ 0.37280325609550075
Tran@@ 0.9524466084953062
jin@@ 1
Football 0.3152672997413648
bâ@@ 1
ty@@ 0.34730360281330686
vili 1
Gol@@ 0.6692124646455458
go@@ 0.293267757927721
patr@@ 0.36917217107292716
ón 0.1263395491215621
hol@@ 0.2511126631012421
ović 1
Sudan 1
Little 0.5978629723048479
Muhar@@ 1
miz@@ 1
agan 1
tes 0.08496329059577565
Liz@@ 1
ikam@@ 1
Faz@@ 1
Ohio 0.5260145853636305
Jac@@ 0.620905718019416
ikan@@ 1
mo 0.5267017496600422
och@@ 0.41845356951695206
aller@@ 1
13.@@ 1
50@@ 0.9933809620677753
ú@@ 0.36675255337302604
cor@@ 0.133894036083942
mang@@ 1
Eric 0.9833687760150184
ram@@ 0.7037557660296018
Island 0.27926422290854025
plat@@ 0.45643996451764807
Parlamento 1
Sap@@ 1
Columbia 0.5370557883832925
II@@ 1
anca 1
mom@@ 1
Maine 1
tura 0.70157050604783
dat@@ 0.6399971271429004
eren 0.1985425519853985
oshi 1
რ@@ 1
öf@@ 1
PS 0.7452788665206057
Sit@@ 1
müs@@ 1
110 1
Atlas 1
Heinrich 0.582205779934479
şun@@ 1
Kevin 1
iben 1
Euro 0.826394723213451
ark 1
ikil@@ 1
uca 1
Shar@@ 0.6184079496799826
cir 1
oid 1
Konstantin 1
hil@@ 1
portr@@ 0.8624965466617056
Illinois 0.5623600975066112
Nic@@ 0.9705577656037064
hes@@ 1
ney@@ 1
wa 0.25163247704672365
esti@@ 0.3613925975816252
Alex 1
Center 0.27392489565529066
Roc@@ 0.6520883547373104
opter@@ 1
Bern@@ 0.6609480125248149
Medi@@ 0.6004302690617859
SB@@ 1
ein 0.025178581316158133
ukur@@ 1
bakır 1
kong@@ 1
worth 0.503175868025066
Prag 1
SS@@ 1
W. 0.5488927907069354
chi@@ 0.32897018860291866
iran 1
Pep@@ 1
Ensti@@ 1
miner@@ 1
cami@@ 1
Opera 1
sep@@ 1
way 0.1027419876210776
hai 0.392107039398649
Fen@@ 1
kot@@ 1
Adri@@ 1
Coğr@@ 1
Adolf 1
yar 1
Mich@@ 0.8249027949790919
Euro@@ 1
Radi@@ 0.7648588654461944
kapit@@ 1
oğul@@ 1
ulus 1
Cambridge 0.7785999926079166
Blue 0.5439059163039099
Einstein 1
milit@@ 0.936886234343253
filme 1
ther@@ 0.2703426375897336
Geor@@ 0.7506134307505987
Hot@@ 1
ides 0.231152405665676
iller@@ 1
ine@@ 0.5545572994428302
ümüş 1
Nu@@ 0.9142273847808299
mr@@ 1
Jan@@ 0.7267024754013902
Liber@@ 0.5940316415408562
Porto 1
eke 1
thi 0.9051707979960273
Philadelphia 0.7288637567507181
Hap@@ 1
Michigan 0.5541032520563831
Fon@@ 0.8653685512614654
apa 1
moda 1
1870 0.6834554226152334
Francis 0.6442836330068653
Seb@@ 1
eter@@ 1
oslav 1
klar@@ 1
sist@@ 1
Otto 0.7466885420284993
Anthony 0.8927757352783705
F. 0.6069293379479241
Politi@@ 1
Chelsea 1
Off 1
pref@@ 1
rom 1
lat 1
Peru 1
hus@@ 1
ref 0.9281011308610556
1897 0.666056277294057
Kost@@ 1
ics 0.13425564657763756
raz@@ 1
arca 1
Nem@@ 1
atar 1
1500 1
Jon 1
tron 1
P. 0.5503016243970869
PlayStation 1
aer@@ 0.74123332216616
MP 0.8377451662894557
Ath@@ 0.7845504170343268
Yorkshire 1
ME@@ 1
dova 1
ator@@ 0.842213954506585
Kob@@ 1
hiç@@ 1
nir 1
pin@@ 0.577838356435911
1899 0.6505352360723213
AT 1
Gior@@ 1
Yemen 1
PS@@ 0.9333964700297642
kins 0.7154884966819504
Š@@ 0.9801333936756053
DJ 1
Harvard 0.962424713820198
11@@ 0.5739336241411319
IP 1
Van@@ 1
KP 1
Panzer 1
eki@@ 1
etk@@ 1
opot@@ 1
ment 0.09383558594449064
slo@@ 0.9113789326160089
mana 1
Pon@@ 0.6294658320639769
TP 1
hin@@ 0.38982135445006394
Street 0.1967111949675331
Domin@@ 0.7189835952765076
Giovanni 1
Fey@@ 1
adele 1
NASA 1
udu 1
üng@@ 1
Noel 1
lebilir 1
Frankfurt 0.8643536249950372
VII 0.966848733186179
fut@@ 1
Azer@@ 1
God@@ 0.9206624495370567
Gold@@ 0.5543749146576482
depres@@ 1
siv@@ 1
Fab@@ 0.9953317585461189
eh 0.9472995032662793
West@@ 0.3019248412986552
iPhone 1
Om@@ 0.990759675640318
fan 1
tüsü 1
Ga@@ 0.7776264357839754
Astr@@ 0.9872092680665563
Gun@@ 0.8430405862077078
ife 1
Go 1
Is 0.7626961281386807
1864 0.8247034964565823
I.@@ 1
Fin 1
Wood@@ 0.673926040781268
yüzünde 1
California 0.19556736289745505
Rick 1
Teh@@ 1
Hep@@ 1
enberg 0.5333355712904724
11,@@ 1
flor@@ 0.9498558676510424
matr@@ 1
reb@@ 1
Miy@@ 1
bomb@@ 0.9097534327949123
Lah@@ 1
Whit@@ 0.6027336473707966
Universe 1
AP@@ 0.6990529094906266
Dah@@ 1
Bus@@ 0.5229216960021795
Laborat@@ 1
MA 0.7047901260237274
Yok@@ 1
Just@@ 1
amber 1
Kons@@ 1
Villa 0.7598172162455497
Serge@@ 1
karma@@ 1
Clar@@ 0.7026512160864927
Gaga 1
Milan 1
DS@@ 1
Leg@@ 0.3240648515599932
Ful@@ 0.7679628192052198
1895 0.6417839087596626
Arg@@ 1
Samuel 0.7432800210567769
Dig@@ 1
Kuz@@ 1
jo 0.27086457880807585
AB@@ 0.8660556144668475
olik 1
1885 0.7081898187953506
Serie 0.5156028955375611
yc@@ 0.45145167037356415
Mul@@ 0.5674440567342292
key@@ 1
tili@@ 1
û 1
ikal@@ 1
Ruh@@ 1
Kant@@ 1
usta 1
1,2 1
Game 0.5987335318309688
ning 0.18313496954594008
gus@@ 1
anta 1
him 0.060629091767463464
tap@@ 1
Bad@@ 0.6077381948559766
tz 0.94864671893704
Aleksandr 1
cuya 1
nh@@ 0.2719934955094938
€ 1
900 1
South 0.09588898763866693
Gog@@ 1
Ceb@@ 1
m. 0.6858956525562601
26@@ 0.8532469647484867
Hamburg 0.644932252893692
tion 0.06948492366344444
Arsenal 1
L. 0.5836730230428332
yör@@ 1
üstr@@ 1
Kuv@@ 1
enter 0.4951366301381642
heb@@ 1
Ray 0.9053297308744446
km@@ 1
Elektron@@ 1
Hugo 1
pre@@ 0.08305458300174084
gio 0.8377405126672273
Kos@@ 1
180 1
Prim@@ 0.5418692759621583
Sen 1
tig@@ 0.2709255998972822
heim 0.370874185637832
Cro@@ 0.38448943632510146
Doctor 0.9074634492083861
use 0.07314177111115526
G. 0.6355627188160224
Of@@ 1
SO@@ 0.8584120810064234
risk 0.8573621016019646
ves@@ 1
Amsterdam 1
Bad 0.6833146716107654
Model 1
1898 0.5988196993672483
Lind@@ 0.7555255345837477
Budap@@ 1
hop 1
Slo@@ 1
teles@@ 1
ızca 1
His@@ 1
1889 0.6845267511753914
28@@ 0.9294487149500434
khan 1
sens@@ 0.8662087900231902
Mobile 1
Pres@@ 0.2753091093384286
Kov@@ 1
Radio 0.3305374403851984
Yön@@ 1
Peter@@ 0.9884664472691536
yeş@@ 1
Lav@@ 0.8969934321901395
off@@ 0.2010505420542877
mat 1
adel@@ 1
uli 1
ana@@ 1
sul 1
liberal 1
ichi 1
esh@@ 0.5754592852850492
Jan 0.7938098082762891
atus 0.4597501530363321
Fol@@ 0.4919427784597495
Normal 1
oe 1
Ast@@ 1
post@@ 0.4695352985507645
ref@@ 0.5351373236566442
Lad@@ 1
Zor@@ 1
muz@@ 1
uch@@ 0.2383850815052434
Cos@@ 0.6898715820935433
Kent@@ 1
Sun 0.6115055230963339
nük@@ 1
omen 1
Bell@@ 1
tram@@ 1
Lady 0.6219937903686457
war@@ 0.1378565776172386
Georgia 0.5155921960587634
Up 0.8825425556446547
fonk@@ 1
ikos 1
otor@@ 1
tri 1
Tel 1
geometr@@ 1
But@@ 0.8869018571529951
iP@@ 1
tra@@ 0.3721333720752539
Luci@@ 1
Mario 1
Society 0.24966673302105125
Tanz@@ 1
ango 1
das 0.0192215001356569
lib@@ 1
Patrick 0.690939511328901
Bec@@ 1
Said 1
MP@@ 0.8237861242828421
ald 0.6223718609657626
nes 0.27465393318201553
out 0.04796696676913581
rap 1
Henri 0.6287718285413252
Leon 1
Leon@@ 1
Tw@@ 0.7086177898413669
27@@ 0.8736950348075296
Abbas 1
Motor@@ 0.9636676368900462
iga 0.882160052576131
Köln 1
hö@@ 0.8508894273798424
Association 0.1876084723143472
Metal 1
onom@@ 1
kayde@@ 1
Antar@@ 1
BC 0.4241123811570943
Dep@@ 1
Luis 0.4806810882346041
Rose 0.7662667118957344
Aleksand@@ 1
Hul@@ 1
uman 1
Franz 0.59309042868192
IN@@ 0.5335384972384065
tac@@ 0.8512231967437704
Bau@@ 0.15258527217683196
abrik@@ 1
Ig@@ 0.7289728462538138
− 0.60502171858641
å@@ 0.8517748389195189
Dic@@ 1
SP@@ 0.7087646341535851
Din 1
³ 1
eno 0.6229844881511738
Cab@@ 0.6213102433469796
aus 0.030471284266525265
terci@@ 1
Victor 0.7599407146932229
ack@@ 0.20971582847137243
kili@@ 1
16.@@ 1
Nur 1
AN 0.9251927801974283
Allen 0.8223180637875686
Die 0.019825715637326036
alc@@ 1
asti@@ 1
imo 0.962896450398074
Anderson 0.8059784797211794
obi 1
Twitter 1
ange 0.40329817297653425
eira 1
liber@@ 0.45084486174682475
Jr 0.7198894290577711
100.000 1
gir 1
Ses 0.8174465195123924
fen 0.3222279072271272
Miller 0.7383103661121787
17@@ 0.6277381253610379
60@@ 1
Bet@@ 0.7053239779099416
Media 0.48817932472928494
Lincoln 0.7839349107091228
geome@@ 1
tesp@@ 1
Play@@ 0.4638415938970866
king 0.13467658715759578
Anton@@ 1
ater@@ 0.9220222098822938
Del 1
Roger 0.7150024863830995
aun@@ 0.39620407451924633
pay 0.6536987312520518
Aur@@ 0.7970975564443011
Jim 0.6655199125824189
Studios 0.8095097096280283
Town 0.42717823719096765
dre@@ 0.2985516192368543
ester@@ 0.7664814641695014
termin@@ 0.33723238999547517
tia 0.5508384405563707
Diego 0.5990676947620001
ider@@ 0.8512465325613567
DT@@ 1
Venezuela 0.7497162046850852
Olimpiyat@@ 1
North@@ 0.5402264620330244
strat@@ 1
türk@@ 1
1860 0.6842406244629783
Adams 1
aria 0.2261542980662759
rin 1
Jane 0.9229757104860321
ire@@ 1
Marcus 1
Net@@ 0.9272677695111152
Stockholm 1
öd@@ 1
sid@@ 1
SM 1
15.@@ 1
cio 0.5058947507722434
tus 0.7617146207366773
Benjamin 0.9537653111323754
acet@@ 1
3000 1
ester 0.3851259291186615
mas 1
iat 1
nova 1
ax 0.7184552269910777
old 0.12474815710251277
hara 1
imal 0.8296291092909535
Bri@@ 0.3993495262632905
CE@@ 0.7470559455121976
emati@@ 1
1894 0.653297507272422
Paz@@ 1
ones 0.1277839828341178
tom 0.9174031856638798
Xbox 1
versi@@ 0.5071709146492154
ein@@ 0.061006344412063894
Girl 1
Sz@@ 0.7056471630311801
Christopher 0.9738271926802157
Dan 0.9452166822326599
aja 0.5177682151847097
21. 0.7728202529899728
Dead 1
ax@@ 0.3263559830237475
ingen 0.2312964909767351
oka 1
teri@@ 0.6775787134838662
Günümüz@@ 1
Norman 1
enj@@ 1
kur 1
nic@@ 1
iste 0.16990623221014456
Franklin 1
Nus@@ 1
kule 1
eles 0.9858800489621193
aver@@ 0.6693571653803108
int 0.824233439843716
titr@@ 1
oks 1
Douglas 0.743954087665426
akter@@ 1
car 0.1632591576084201
gur@@ 1
Stal@@ 1
kop 1
obj@@ 0.59089830944655
ium 0.40162297170186023
Rap@@ 0.6438237126835821
agon 1
Johann 0.3707192734103419
Web@@ 0.5681006920600868
Your 0.9263678342509015
ador 0.15410744885875136
Davis 0.5778768981387624
Les@@ 0.6914509666887059
belge 1
ogen@@ 0.757679427499664
Deb@@ 0.5289926832993679
etz@@ 0.3938171634584027
igh@@ 0.25976734466179807
Rot@@ 0.4956342401550449
sis@@ 1
Camp@@ 0.4844455445697948
Lov@@ 0.9610906984179889
Arti@@ 0.6610173494470879
Ze@@ 0.5177861704257916
ned@@ 1
Organiz@@ 1
ass 0.3031776043793399
oke 0.4553128723790343
19.@@ 1
irt 1
nel 1
Sher@@ 0.6390497192941175
cl@@ 0.11612909947728031
Krist@@ 1
eba 1
pist@@ 1
… 0.2379689742876606
20.@@ 1
vers 0.10440212528360669
BS 0.857033421518602
Connecticut 0.9361612474538957
oker 1
Uruguay 1
Rev@@ 0.4637391751198407
lus@@ 0.505980522906553
Gam@@ 0.9433559115572513
SmackDown 1
enk@@ 1
1893 0.6253497256462943
Network 0.648283191226265
Pul@@ 0.9391331697925548
okras@@ 1
tw@@ 0.25564656737049307
Facebook 1
sten 0.1577949805126415
amer@@ 0.8510706160025435
vs 1
yl 0.5266659883657069
plerinden 1
Pad@@ 0.559850599904319
Lake 0.2577124008863737
Boy 0.9599183224128913
Dec@@ 0.3175477827536438
Ryan 0.8985215847299508
emis@@ 1
kuy@@ 1
AK@@ 1
Festival 0.2240139200579783
bel 0.9664420059097815
amin@@ 1
iliz@@ 0.8696866854754226
1800 0.9433200995514096
Afr@@ 1
Kazak@@ 1
Song 0.4937750933736151
inf@@ 0.19557764531541239
evin 1
Bâ@@ 1
Cannes 1
TO@@ 1
dad@@ 1
onal@@ 0.5064840586547834
18.@@ 1
IX 0.919240656120894
Bart@@ 1
CEO 0.9949902306903197
Ing@@ 0.5435148523624909
Zer@@ 1
.S. 1
1882 0.7199196847172263
linde 1
Jar@@ 0.8058859884755226
Pur@@ 0.6150441598280474
S.@@ 0.6949016355814537
atra 1
porno@@ 1
à 0.0066585263219392015
Barbar@@ 1
Chap@@ 0.4829536610711789
Emmy 1
Post@@ 0.6593984727445305
Lawrence 0.9033795426216009
Minnesota 0.6013971039068389
ny 0.4704103794474531
Shin@@ 1
vić 1
ლ@@ 1
1892 0.6186596418425382
CS@@ 0.6577338143727995
Mun@@ 0.6367452955432602
Michel 0.5837919837888372
TA 0.7711062622743474
Nintendo 1
VIII 1
from 0.008951473404335468
1881 0.7007045573853133
Bru@@ 0.5154817112871615
Nil@@ 1
fordshire 1
High 0.16774797670896108
able 0.04556523557135315
ić 1
adap@@ 0.7713640447209134
azz@@ 1
Güven@@ 1
We 0.4411474844401194
18@@ 0.8733252142495102
Erk@@ 1
Pictures 1
aton 1
Dek@@ 1
Queen 0.3882776750327933
Yos@@ 1
bot 0.6449324116709159
ag 0.4944510611425342
agog@@ 1
ate@@ 1
los 0.012341214788154618
arz@@ 1
Best 0.2629171854490989
icus 1
CP 1
ect 0.16196878351742644
nar 1
Motor 0.8797355698989782
lum 0.8127930682281846
RT@@ 0.9548444144106611
amin 1
ա@@ 1
BA 0.6708401780358159
eff@@ 0.33139222785772515
zar 1
Apol@@ 1
Bou@@ 0.49014017586347086
Metro 0.9351951258332133
Augustus 1
liter@@ 0.41902258871412235
dit@@ 1
fin 0.1556525723077794
Antal@@ 1
agn@@ 0.4972361870942622
AE@@ 1
Ark@@ 1
Toronto 0.4929350823974007
Vo@@ 0.46121936047653483
ska 0.9048709967623756
23@@ 0.6899804235997891
Singapur 1
kuz 1
topo@@ 1
Hit@@ 1
SV 0.7996995263630409
Kongo 1
oria 0.757651952463263
Land@@ 0.14708287560283737
Bush 1
PE@@ 1
sius 1
AA 0.5827854528896725
ehrin 1
Zeus 1
embe 1
IS 0.9188668478758348
eld 0.5495553694208641
́ 0.13110031729173963
kompl@@ 1
uba 1
River 0.126436039468289
bana 1
nis@@ 1
fet@@ 1
Games 0.3166838922528452
Sarah 0.8505918342636796
Vincent 0.9108793079749452
eer 0.6075443841031269
filtr@@ 1
É@@ 0.15385645483670785
Mart@@ 0.8352103530706634
Aer@@ 0.8527837361883331
1891 0.6080421725201661
Blu@@ 0.8157739164295448
eck 0.33759940222413903
over 0.041566165321676764
res 0.24390994820721038
Lombar@@ 1
Tibet 1
bach 0.26121813219977835
riz 1
33,@@ 1
Warner 0.9863814487212617
tere 1
Alg@@ 1
anal@@ 1
pag@@ 0.6238844326040699
Krall@@ 1
Matt 0.9783804265507197
RAM 1
onius 1
101 1
onn@@ 0.18621166512193757
Schleswig 1
Under@@ 0.8523434442887434
Mahkem@@ 1
ae@@ 0.7247771770431419
insk 1
onia 0.4454932506274296
UCI 1
Donald 0.6947608607872063
29@@ 0.9293749027064273
türel 1
Flam@@ 1
1835 1
Green@@ 0.6041285707673414
alia 0.7517076409505492
metro 1
oba 1
ă@@ 0.7218710528690082
London 0.11517382485487779
ansiy@@ 1
Slav@@ 1
2.000 1
Abr@@ 1
K. 0.6896309759540273
tay 1
ó 0.03208695635746638
RI@@ 0.8046959449699759
Rub@@ 0.8209611723678344
Sonuç@@ 1
Ther@@ 0.43382906511231095
Vor@@ 0.08734188665205136
ical 0.07871725877010358
jan 1
mon 1
Be 1
Ferdinand 0.8657027565702545
maye 1
Kle@@ 0.5410575537029374
Part@@ 1
ibe 1
Kus@@ 1
side 0.0947522572383053
mond 0.6787461804150124
ston 0.5423425697150188
Hus@@ 0.6747493522651807
160 0.9589703883899026
star 0.3725776056152191
125 0.9904804571399353
Bag@@ 0.7076780804554819
Bran@@ 0.7227116831348632
Eg@@ 0.8620325046804099
Minas 1
Jay 1
140 0.9792333120576404
British 0.0917640296325849
AM 0.6208558060914859
Bron@@ 1
ei@@ 0.8346343004052034
FM 0.4732202534630047
Leo 1
eria 0.7532812362952502
Bac@@ 1
arius 1
ca@@ 0.7148056920247521
elia 1
leer 1
Ball@@ 0.4883646894075529
RO@@ 0.8215252680706963
Belç@@ 1
Charlotte 0.8594816030528339
FF 1
Ferrari 1
bad@@ 0.8143098108289659
Jason 1
parlam@@ 1
iss 0.7116010112176059
more 0.03898187030275163
Marx 1
Bernard 0.706097783700298
ow 0.265941146359727
0,6 1
anime 1
doğru@@ 1
onlyinclude 0.7042220866867074
Selçuk@@ 1
wich 0.771693569848564
ds 0.16396648643495051
Lang@@ 0.3600784027848795
Wrestling 0.8679412784375158
1.000 1
Bruce 0.8431324786301303
Miami 0.709827686170247
tol@@ 0.7079108495275904
vis 0.7858625402951368
TV@@ 0.8502700423515753
azam@@ 1
tica 0.32358890449369676
Cop@@ 0.6265192033586218
KA 1
oli 0.8539805645908275
Andrea 1
Basil@@ 1
Howard 0.6542765639238265
fes 1
tesis 1
1848 0.6325544232533579
Holstein 1
Kelly 0.8541445005355767
Pers@@ 1
Philip 0.7327467511786152
2,5 1
Bell 0.741439662012768
vamp@@ 1
Jür@@ 1
müc@@ 1
Mic@@ 0.8042569404706267
isten 0.21415713000140907
illi@@ 0.6249509543898303
America 0.17324275547135345
Batt@@ 1
Strat@@ 1
laf 1
ait@@ 1
Gas@@ 0.4965635963022842
Petersburg 1
Til@@ 1
tadır 1
Long 0.40829522034000215
Maj@@ 0.6486938560397366
hy@@ 0.3104379335154295
iletiş@@ 1
Dance 0.87335544071058
Mali 1
Post 0.4292847667094266
Ran@@ 0.4295536600754342
asu 1
eda 0.7282117228116765
Gordon 0.7288902327742852
Performan@@ 1
Py@@ 1
kana 1
oldu@@ 1
wen@@ 0.34497676963463614
bro@@ 0.2650894678007136
lav@@ 0.8228461292382372
Muz@@ 1
oride 1
1867 0.6735875286623692
1888 0.592866197359648
AF 0.7794829843965088
NE@@ 0.7854187986791206
pa@@ 0.5556472740716132
200@@ 0.5898515237984716
Janeiro 1
oton@@ 1
Voy@@ 1
bos@@ 0.7519527519187863
eng 0.48258679944425265
mevcut@@ 1
1884 0.6320705804681502
23.@@ 1
filos@@ 1
mar 0.4488273368072818
we 0.16594818416748053
Helsinki 1
mâ@@ 1
tic 0.10809885983559722
PA 0.5736103036578089
Lap@@ 1
Manuel 0.4852103132482183
Indiana 0.6269661355269888
Marvel 1
nor@@ 0.20600948385404286
Kati@@ 1
Mr 1
begin 0.7004647286180394
Ele@@ 0.8614846594510975
Lid@@ 1
This 0.04279175662507799
Bryan 1
adem@@ 1
rah 1
Yug@@ 1
âm 0.6916005561336174
Las 0.1448498280871395
non 0.0924193504806792
ough 0.4470963443167579
ais@@ 0.2676133017408644
Russell 0.8435143865815833
filmi@@ 1
20.000 1
traj@@ 1
Phone 1
iner@@ 1
say 0.48897954314353625
{ 0.523614680417448
ager 0.3605943742447463
ex 0.29280986117591545
unk@@ 0.4011093678652152
İsviç@@ 1
Organ@@ 1
api 1
Abdul@@ 1
Sankt 1
elo 0.5491168717252367
Mess@@ 0.685698769207595
asen 1
lâm 1
nom@@ 0.3364941298932215
Vamp@@ 1
itt 0.6798721034325939
rop@@ 0.8813730158222092
Steven 1
oo 0.555638847394799
stati@@ 0.836748178733909
mav@@ 1
tum 0.8247161645264236
RE@@ 0.6060550626620178
alle@@ 0.6816923106586888
ნ@@ 1
rün@@ 1
tras@@ 0.5636298363140165
1865 0.6429410709814053
Ej@@ 1
Out 0.7056762154272388
Sn@@ 1
XX@@ 1
ader 0.40399805303789627
deleg@@ 0.6542999372353306
Houston 0.6915200603523901
Doktor@@ 1
obil@@ 1
´ 1
bilgis@@ 1
cha 0.2241979855339488
Andre@@ 1
Bog@@ 0.8465410181253221
Kun@@ 0.5633361578346391
Lag@@ 0.6453474807303148
uzaklık@@ 1
Dro@@ 0.6584871169085945
dale 0.688988955269346
Fernando 0.6624036365384554
cir@@ 0.47825853304486166
Fair@@ 0.704993068749681
Ludwig 0.5358430386708714
Tim 0.8802766724437174
Mercedes 1
ube 1
Margaret 0.7763238861837559
TH@@ 1
Marshall 0.9153288248355057
ace@@ 0.37824282770581713
ander 0.8864492139637578
Emin@@ 1
Guy 0.9429963593475639
Pedro 0.4468497723077428
house 0.11776343911345093
zon 1
Danim@@ 1
Elem@@ 1
dig@@ 0.31664176866030397
ros 1
aster@@ 0.609288595714543
ju 1
www.@@ 1
Kennedy 0.8083491417379948
News 0.42710270218324753
Tul@@ 0.9302161019619317
mün@@ 1
Him@@ 0.9204277524530458
Wi@@ 0.46050189601264585
dic@@ 0.1818516569839813
Boliv@@ 1
LE@@ 1
Potter 1
1887 0.5991790570369939
1871 0.5861832819883283
Drama 1
NO@@ 0.8371333388119063
Bom@@ 0.5851372488086422
Theod@@ 1
Fur@@ 0.4180184332335614
plant@@ 0.45428361229752495
Kard@@ 1
Kath@@ 0.48998871538559846
aks 0.4613166170714964
ris 1
gag@@ 1
Boeing 1
ahan 1
ako 1
site 0.11386011956913498
Poly@@ 0.7164090019746873
VI@@ 0.8145859933633824
dit 0.20700782427362222
DS 0.7581539009306698
skaya 1
acc@@ 0.12511969875741372
Hop@@ 1
edan 1
sn@@ 0.6070027732011596
zan@@ 1
belle@@ 1
vor 0.07264285096312595
ega 0.5274254412912345
arru@@ 1
105 1
First 0.18966489538336684
Roman@@ 0.7277111915110521
Harris 0.7968535436312348
zır@@ 1
Gabriel 0.7787603156971974
Cand@@ 1
Hampshire 1
Hin@@ 0.37885576532805704
Ernst 0.6163144177989303
Les 0.042308371122489564
Lisa 1
Yang@@ 1
ideal 1
nada 1
ote 0.21810503371416123
Sky@@ 1
con 0.01537405011407861
pembe 1
Sidney 1
T. 0.5462433622582008
Will 0.9037560459599706
Rez@@ 1
Anim@@ 1
monte 1
Arm@@ 0.4328595131737878
Aviv 1
LGBT 1
1850 0.6369306445626735
64,@@ 1
Balık@@ 1
bra 0.706820011232211
ovo 1
bie 0.6348510446068322
pon 1
Dür@@ 1
Rag@@ 1
Telek@@ 1
DA 0.8048534798940019
BB 1
Vis@@ 0.48530598311658485
oga 0.828913586529977
Kru@@ 1
Moore 0.7007729889427068
MI@@ 0.9119362822511033
Intel 1
erry 0.46827283379352763
yu@@ 1
Phil@@ 0.5463928735575775
ault 0.4384624274351277
jin 1
lej@@ 1
metabol@@ 1
X. 1
DE 1
Dark 1
To 0.23923750680797093
MC 0.877872064589241
Nick 0.844127156026655
ahi@@ 1
polar@@ 1
umb@@ 0.40532010054361883
š 1
arom@@ 1
leg@@ 0.13540847107547158
3D 0.8789982826855279
PG 1
back 0.07722853424088592
Vic@@ 0.4948362315878653
1.5 1
Hub@@ 0.9367132066336065
Program 0.8319837532860879
Shakespeare 1
endem@@ 1
Ya@@ 1
Claude 0.6655341168512923
vay 1
Reh@@ 1
Sau@@ 0.4691153997948994
Tig@@ 1
isse 0.47980885888146774
thr@@ 0.321354860455925
Jimmy 0.7995887668569905
Morgan 0.766110671796718
1883 0.6281833575955628
ardin@@ 1
Death 0.5251710612454988
dua 1
elendir@@ 1
Robin 1
lock 0.42864196868175825
tâ@@ 1
Lü@@ 1
omer@@ 1
presti@@ 1
State 0.08132926143815802
div@@ 0.43826166187388277
ingham 0.7122546807107422
Out@@ 0.4873368080035852
US 0.07544831393054884
firma 1
ī@@ 0.7973637802874013
bomba 1
Girls 0.8561393501895113
tha 0.7334336709735043
Broadway 0.7476387219679037
Edi@@ 1
Jeff 0.9614184558501664
Kot@@ 1
prati@@ 1
350 0.9302905190008581
Arts 0.23018560910148428
Enter@@ 1
dos 0.0730967055272462
Do 0.6718841860707181
ios 0.6484725192869765
vac@@ 0.48006934292245346
2.0 1
IP@@ 1
Kand@@ 1
Great 0.2300010756412429
Netflix 1
Ton@@ 0.5507357106153776
igo 0.8856888937059749
Nin@@ 1
Arch@@ 0.2481003633641467
dec@@ 0.08839198709411891
gran@@ 0.6066341667603067
rum 1
Joh@@ 0.7449405169320978
Universal 0.8747536366243258
ated 0.024552709502904713
Gib@@ 1
stone 0.25572372023744605
Nan@@ 1
depart@@ 1
gh@@ 0.3937484007990562
prof@@ 0.2438583648706639
ady 0.42540549529589433
iTunes 1
itch 0.38902094921185326
1863 0.6111389514332622
Manhattan 0.9555524179274715
Reb@@ 0.47978656810219816
Venedi@@ 1
dius 1
Dimi@@ 1
Norman@@ 1
ო@@ 1
Ob@@ 0.3978634566525688
oidea 1
under@@ 0.10537196181179231
yir@@ 1
yin 1
Oliver 0.9017386786644421
Boris 1
Gul@@ 0.9216040646648048
ij@@ 0.8038063920842006
inn 0.6176315080395978
35@@ 0.8430719779889188
Ji@@ 0.727833499415341
Pod@@ 0.7366096313450551
own 0.0891211071496379
Moh@@ 0.7468116048703739
yes@@ 1
Way 0.8616266062461562
jet 1
ray 0.8683689432064368
AV@@ 1
Alem@@ 1
Good 0.7478486669902777
Ross 0.7335763530763282
£ 0.37178812341565837
ody 0.4759994890345042
platform 0.5436904795231088
atri@@ 0.5519410804765872
Banglad@@ 1
aham@@ 1
anger 0.44048402570861966
dae 1
kost@@ 1
0,3 1
3.000 1
ech 0.6032641662426939
itz@@ 0.3252298027167034
Riz@@ 1
Wayne 0.9643925181856965
jan@@ 1
Studio 0.7025541439409118
Lost 1
Wes@@ 0.47707005319473067
vel 1
10,@@ 0.8557084469786178
heter@@ 1
ness 0.14548059487725407
о@@ 0.06291012380469174
Kok@@ 1
Liberal 0.6986941456099103
sc@@ 0.13475488257895474
zen@@ 0.4628385708040595
AG@@ 1
Kate 1
rine 1
Cle@@ 0.6492324504205612
hard 0.3276994524156069
Bayern 0.7155886631396198
ū 0.8851450045685485
1875 0.6150447563273423
Bla@@ 0.7940310402044173
Serv@@ 1
ET@@ 1
Ober@@ 0.11999882576497849
Ostr@@ 1
bahçe 1
Mass@@ 0.6132699848573715
zo@@ 0.8173104145450747
120@@ 1
Office 0.38246014378717125
PC@@ 0.626706127008382
vim@@ 1
An 0.12932478979987638
Dublin 0.7240717776373957
Johnny 0.7784032684658535
Thor@@ 0.774741468458494
eau 0.1405556097249188
olo 0.7306399623886236
1873 0.612949659659416
illo 0.3694574066431639
lob@@ 0.5603038344035597
Must@@ 1
apar@@ 0.528901168534167
asim@@ 1
imb@@ 0.6763312674654721
Fah@@ 1
Miguel 0.5438736119913151
ers@@ 0.5957450412489492
1830 0.7228574055080222
Jordan 0.7449301381813944
Juli@@ 0.8879221564628723
Ligue 0.6025504287478806
SD@@ 1
hen@@ 0.612209658299252
AD 0.5865385424239005
Division 0.12466227981621823
ABC 0.6796981298600026
TS 1
burn 0.6956328475365912
A2 1
abak@@ 1
prim@@ 0.24708299307735598
LA 0.5247544577492912
iral 1
Barbara 0.7970495382994378
maf@@ 1
Sag@@ 1
elt 0.23532282848096364
ole@@ 1
mus 0.9277284038936789
ë 1
Amazon 1
Wrest@@ 1
AG 0.46514193724654945
CIA 1
Conn@@ 0.5327453139354255
Kopen@@ 1
Last 0.8625642077693197
liv@@ 0.6091520735174707
ann 0.41536323168870304
esi@@ 0.6986226242835971
urn@@ 0.3688053153618903
Hok@@ 1
Missouri 0.5334004121940561
aud 0.3747225868127443
Aus@@ 0.07077382365665118
Store 1
oki 1
Lan@@ 0.54739751590971
128 1
til 0.536808207978788
Xi@@ 0.7922785227121258
Helen 1
Hü@@ 1
fres@@ 0.42918193103875363
trin@@ 1
Channel 0.5620499759724981
Jerry 1
Mach@@ 0.5383013389753505
augh@@ 0.4882098028248312
Jonathan 0.903814076490193
Yus@@ 1
geb@@ 0.14220651765524578
Kron@@ 1
oid@@ 1
ric@@ 0.45497616841526944
Pit@@ 0.7697701275871351
Zel@@ 1
istr@@ 0.52062509397257
prom@@ 0.16105948220771493
22.@@ 1
Carlo 1
Good@@ 0.7143621816193039
Pom@@ 0.7171620176869776
ümer 1
inay@@ 1
Seattle 0.7559562355426228
Torino 1
aph@@ 0.5532006882679891
Julia 1
atur@@ 0.4953353329607893
1868 0.5974691377964811
Gag@@ 1
ave@@ 0.7128705854623284
1834 0.9814317024664388
Wit@@ 0.4501012813866533
esta 0.10241468761048882
Lib@@ 0.4899082499323453
Para 0.38302804170988114
anatom@@ 1
mol@@ 0.33970775699071876
ves 0.09891722004080114
Lyon 0.6400845798546634
alimanı 1
enza 1
tidae 1
Frederick 0.6538689053316022
tiv@@ 0.27544156645975704
Che@@ 0.6985921848555908
Riv@@ 0.8636603523433394
124@@ 0.9386144577988622
FIBA 1
GP@@ 1
Slam 1
eon 1
org 1
Open@@ 1
Süley@@ 1
ME 1
RT 0.872970270341741
idea 0.30276769312628954
lor@@ 1
low@@ 0.21351471374365005
Olimpi@@ 1
Junior 0.4793201255440035
cia 0.8909074510534111
enburg 0.5461261162711197
hin 0.5074053735165301
1861 0.5535508590427042
Raf@@ 1
cho 0.07679523820557467
cus 0.5672167145446753
Telef@@ 1
Atlanta 0.65673532465742
Hz 1
Santos 1
arl@@ 1
1879 0.5702145746779795
Ris@@ 0.8914792016464472
ps@@ 1
Cul@@ 0.5869824306522866
Stan@@ 0.8879771712619242
band@@ 0.4932040770650093
Li 0.7125099695086597
amet@@ 1
36@@ 1
André 0.5625943718450832
Fas@@ 0.876074948271096
Fro@@ 0.7125140962946751
ns 0.10569837994468288
Dou@@ 0.4742347259349454
Tennessee 0.5540182108944105
70@@ 1
AR 0.7674322406378025
sir 1
arp@@ 1
Ivan 1
Raymond 0.8702897493835265
Ye@@ 1
didae 1
mart 1
1872 0.594842771915607
Leningrad 1
That 0.3147509514949652
ée 0.02528310440625224
Müh@@ 1
meg@@ 1
tral 1
Seg@@ 0.4276916921266088
ikon 1
Mant@@ 1
Ya 1
Kamb@@ 1
dokum@@ 1
pin 1
ron@@ 0.749379296764272
} 0.5308894252137779
Sv@@ 1
aux 0.029351268228479256
GM 1
tun@@ 0.5389792252284803
ose@@ 1
Geb@@ 0.6429654923104664
Heart 0.7916815698291793
Wright 0.7864320368953335
moderni@@ 1
iman 1
000.000 1
Aristot@@ 1
E.@@ 0.7858057443125199
Max@@ 0.951599183476209
Viz@@ 0.9386643547143202
ui 0.6537880543989505
12,@@ 0.8227593636583509
tron@@ 0.5815459349525418
http 1
1.0@@ 1
What 0.6073724807107617
fantas@@ 0.7937728118503738
RC 0.6270654367829548
Trav@@ 0.611834225493559
hir@@ 1
lov@@ 0.6838068907385306
21.@@ 1
probl@@ 1
Cec@@ 0.9895732745963797
Maya 1
seg@@ 0.3902570374848669
1874 0.5809355119770169
Kıbr@@ 1
Marino 1
Hard@@ 0.6578487577695343
Home 0.4091539567682346
eth@@ 0.23037406905754612
assa 1
1840 0.668563378922488
ix 0.499956780113234
ms 0.164752516013224
Santiago 0.4910715663486848
ech@@ 0.18151259796832134
für 0.015921686247822166
170 1
Lab@@ 0.6356993087204437
ambi@@ 0.4268067010118031
nen 0.17358820966954386
alit@@ 0.7267741893894317
Boys 0.6917150677614721
Golden 0.44721023570470536
graf 1
Austin 0.745021790166093
Dave 0.7432671672506316
Perry 1
SD 1
anor@@ 1
unt 0.5534010762352048
Bow@@ 0.4960669649993647
illy 0.4037895662240768
ishi 1
kini 1
FO@@ 1
Justin 1
Rolling 1
mu 1
problem 0.4975351793934651
sm@@ 0.4105625876786747
Sty@@ 1
Zo@@ 0.8268634350701074
par 0.013315567765957312
Family 0.39050645806262424
Josef 0.7705349485749351
egr@@ 0.46873907338306
had 0.01420440750254399
Lou@@ 0.46289667954400643
ely 0.07902953366371623
ines 0.08689492820751149
ago@@ 0.8383398173377006
owski 0.8586045954490507
sum@@ 0.18517031929053918
33@@ 0.9805815197450509
Cour@@ 0.32730083103003316
beta 1
UK 0.1822771976786077
auss 1
kont@@ 1
Clau@@ 1
Gran@@ 0.5229503788450296
Pier@@ 0.7588985051683812
Hog@@ 1
Road 0.16355254279060008
Sant@@ 0.6409643802847567
Zen@@ 1
kulüb@@ 1
Greg@@ 1
Inc 1
pes 0.39879483292524787
cid@@ 1
yumu 1
Billy 0.7331400315108572
Reich 0.6699810664453183
Stefan 1
ally 0.04049237556873553
ig 0.271115871036791
Sep@@ 1
anik@@ 1
fil 1
Airlines 0.9243129767442513
Cola 1
IC 0.6158811372096631
omo 0.656437909869814
tics 0.17958970080269965
ín 0.24223987838725528
Amy 1
ement 0.03947525403884393
esis 0.3223815881598927
icz 1
Ox@@ 0.9551288317946776
aven@@ 0.7163086346314299
trat 0.2167583969925326
undu 1
Adap@@ 1
Sl@@ 0.7570228403462773
ding 0.13256039111229284
esen 0.37826164404166635
rett 1
Old 0.2905697980257497
Single 0.7593632883913728
ust 0.24866057857133272
Julius 0.9643436636085991
manga 0.9727037213765453
Dmi@@ 1
Thi@@ 0.47275862085912806
ades 0.1715146164345733
Matthew 0.8394475199409116
War 0.07200883447679678
CAF 1
Eu@@ 1
hid 1
Kang@@ 1
1866 0.46520731253532177
And 0.5090714703287519
Gom@@ 1
mos@@ 0.3746306440382187
Brooklyn 0.7593469914776696
Kansas 0.4607038682675745
Luk@@ 1
rod@@ 0.8642391428575077
Catherine 0.7022964891524934
Marc 0.6819301535586544
Grig@@ 1
Union 0.10783317605903202
Utah 0.7997235293558954
Jov@@ 1
alla 0.7641832768909453
hay 0.2378126583672945
Azerbay@@ 1
Copa 0.3975691900385337
Mum@@ 1
Renault 1
Sonic 1
ats 0.08395732048649616
usi 1
B.@@ 0.7084886005043176
Suff@@ 1
Valent@@ 1
amoto 1
Clark 0.5761217945653588
Fort 0.3030236332142532
Wa@@ 0.5332668974657863
fu 1
Dream 1
Port 0.3856770852817534
güt@@ 1
that 0.00597229691299642
Cass@@ 0.7991494296142908
Cruz 0.5529736242254363
Jud@@ 0.4178318352493615
ehr 1
folkl@@ 1
geni 1
Hes@@ 1
ges 0.13161283682121283
ibn 1
ვ@@ 1
Oklahoma 0.6504499286280069
propaganda 1
anga 0.6353885654800568
Mania 1
Nis@@ 1
ande 0.5222216797557238
esp@@ 0.22567823896707512
gs 0.22261949696532574
Gh@@ 0.5726150156014556
Git@@ 1
tema 0.779686187244596
Eth@@ 0.5181855802735144
app@@ 0.21613508285120153
eral 0.4017302181312916
liz@@ 0.4422833660126445
pus 1
aran@@ 1
Dallas 0.7237688777172872
MO@@ 0.8705278873142056
inda 1
reform 0.5492645036410031
Dani@@ 0.9272369630133975
Neb@@ 0.9292592225773254
450 1
Koh@@ 0.5642136373792475
spir@@ 0.29120180184666367
Power 0.466741597028926
omor@@ 1
onte 0.82650344172483
Dim@@ 1
icum 1
uf 1
‭ 1
Cru@@ 0.655540886075034
Ian 0.8564688427569284
Phoenix 0.9360766473348758
Series 0.269644209805226
Apollo 1
Digital 0.7852802043006095
jo@@ 0.2846670690100242
mes 0.14262568101358986
Eskiş@@ 1
Kane 1
NXT 1
Salon 1
Gav@@ 1
LC 0.7989045725475296
Shel@@ 0.8150133564234904
aco 0.4781300131421882
pes@@ 0.5632241685203891
ubu@@ 1
1869 0.5805154054345039
Big@@ 1
Gary 0.7939894484735287
ord 0.36614512182825315
otr@@ 0.7668512951679292
Darwin 1
Hand@@ 0.25145514423363996
Kli@@ 1
abria 1
hou 0.9012169016552422
imm@@ 0.6480773456598085
Dak@@ 1
prov@@ 0.3421875346104434
ს@@ 1
Andy 0.7778441781017008
Ed 1
Nova 0.8399958019695403
pan 1
Beach 0.42851152809427606
Co 0.4088289699503758
hang@@ 0.8994923263662836
ē@@ 1
Jap@@ 1
Zar@@ 1
Dog@@ 1
Sean 1
ș@@ 0.7483230068183823
edo 0.4060285913143929
lac@@ 0.750036386485404
æ@@ 0.7463592044332725
Philippe 0.5527925308404765
Pont@@ 1
Ric@@ 0.883761586248913
Vati@@ 1
Č@@ 0.8699529574447109
1200 1
Like 0.4673339777672887
bri@@ 0.27909139721509074
daima 1
ista 0.1215115029044005
zin 1
Luke 1
cada 0.22439423179941462
its 0.014100069736553904
ê@@ 0.31416925809017554
Alternati@@ 1
Steph@@ 0.8686204175681649
organ 0.9191676345847677
Cher@@ 0.6139383261197977
ISO 1
Space 0.5474846545668708
Au@@ 0.20023977493547418
fün@@ 1
Astronom@@ 1
oro 0.3508118491963077
Colorado 0.47571043725424844
ams 0.23226167566447964
gor@@ 0.923806948488917
Arc@@ 0.6968288810195175
Dul@@ 1
Stu@@ 0.3143957272736163
basi 1
Air@@ 0.5377242670830567
Dean 0.7230297299169741
Valley 0.2671264499684427
ls 0.3024441410534655
lum@@ 1
tiva 0.6554226442615425
asaki 1
ule 0.24763137667742366
Hind@@ 1
borg 1
erc@@ 1
uss@@ 0.23089091039948587
Jose@@ 0.7770469544589226
Journal 0.38376918400802973
Toyota 1
modi@@ 0.3157014556484039
ason 0.8386339843936154
bus 0.26560197703978794
feld 0.24565856693124646
gene 0.6588728438425875
Hag@@ 0.9224438109483715
Rid@@ 0.6781196907464904
escu 1
ump@@ 0.20132195364198885
Madison 0.9629726025773941
modern@@ 0.6515470479356368
Gri@@ 0.7148453248215202
13,@@ 0.8402159338031926
wo@@ 0.20095595720593662
amiral 1
Homer 1
issa 1
Cleveland 0.6585185297940184
Jacob 0.6813895460673965
Kenya 0.9420349614604117
aide 0.48181186558341654
opl@@ 1
sidir 1
Tang 1
Internet 0.39492373370844475
PO@@ 0.9557200249337351
RS 0.6665852735314434
hormon@@ 1
Lem@@ 0.6648204809372783
ê 1
Leipzig 0.5150113590571481
Trump 0.6895772668296426
muz 1
punk 0.950707816669814
anth@@ 0.40357356910996334
oli@@ 0.5839323430444023
zil@@ 1
ember 1
uck 0.4275439988596045
Carter 0.7232982623310054
Detroit 0.6005304986083331
Lug@@ 0.9920998119400062
etab@@ 1
gri@@ 0.4565867087264087
nar@@ 0.35621731550207575
Ajax 1
Brun@@ 0.5667346061647086
Festiv@@ 1
Hawaii 0.9120804492638245
Pan 0.8581989843672457
Pos@@ 0.5892215959386858
att 0.7744694239948566
Mi 1
ondo 1
Story 0.8131574960111834
`@@ 1
ign@@ 0.1313900994844893
Row@@ 0.7558041853687022
kit 1
Erd@@ 0.6417545012553765
Guang@@ 1
Sul 1
nia 0.6019173298261296
sult@@ 0.7957758371619207
Sou@@ 0.3392898438189375
oko 1
orn 0.5901613120314203
Roberto 0.9819858059480852
T.@@ 1
aren@@ 0.993925586773107
Rachel 1
Zh@@ 0.7856907657995089
gas@@ 0.38507907269753006
ów 0.4301056798252186
Burg@@ 0.6342454461087604
Rest@@ 1
ino@@ 1
Sovyet@@ 1
cay@@ 1
omb@@ 0.5893070908054339
Gan@@ 0.8853724934769635
ander@@ 0.3010261728960954
At 0.0684784831302961
Ax@@ 0.8646472358948311
shi 1
propag@@ 0.9767900704844713
ía 0.04618184437916033
Bra@@ 0.6894589780966179
ains 0.1106159026067021
Beau@@ 0.3755628152584213
Miz@@ 1
17,@@ 1
Pac@@ 1
Franco 0.8173845769103675
Hip@@ 1
Ny@@ 0.8014280130602335
Oslo 1
Rock@@ 0.7420989883826276
Gab@@ 0.8368210998606355
Wer@@ 0.25099624101224144
5000 0.900519275247355
Taliban 1
GC 1
Sis@@ 1
Cooper 0.8066708645498911
Emma 1
Klin@@ 1
Light 0.5541534468889818
biyle 1
‬ 1
Silva 1
UR@@ 1
fed@@ 1
ron 0.7985704096688003
án@@ 0.27346624820458104
ümüz@@ 1
100@@ 1
Down 0.8355526862753764
Georges 0.5278559493038009
Juventus 1
direk@@ 1
kura 1
Best@@ 0.4559590631234193
Jennifer 1
Run@@ 0.6572092994703115
ank@@ 1
sw@@ 0.1426915007669632
zer 0.3459019256120109
borough 0.41561558859837755
Harr@@ 1
Sug@@ 0.9864336195886936
135 1
Lau@@ 0.4282930806746529
ents 0.04805133195699468
Cir@@ 0.5684692971503892
Jos@@ 1
Va@@ 1
apart@@ 0.6923270629991438
Hermann 0.5688589179949884
aul@@ 0.37484043769348296
esa 0.1737826791444201
fah@@ 0.8990644516260652
CA 0.4388109421265427
Moon 0.7454800245343229
amino 1
wer@@ 0.10647074980048808
Anti 0.9860631349526782
Lanc@@ 0.7864705311327184
\ 0.7139566543042323
acy 0.15768843507616667
ague 0.5578643564519098
მ@@ 1
4.000 1
asta 1
eck@@ 0.21462817080912322
Aki@@ 1
For 0.08756101094037398
Iv@@ 0.7194085182304951
Sec@@ 0.426028079007491
Vide@@ 1
caz@@ 1
ATP 0.8086533796378983
Alberto 0.7873691348739487
Mang@@ 0.7713160538563096
Vermont 1
Stein@@ 0.31212189675072505
trom@@ 1
Museum 0.14970439094879762
Tommy 1
1862 0.48871017415878104
eran 0.11324717370326605
Magic 1
sh 0.48597639632736866
ındayken 1
Bart 1
Jefferson 0.9662521065422021
Wisconsin 0.4515719050120893
aeus 1
ever 0.14598966425246818
ril 1
robot@@ 1
she 0.026932819862643665
wald 0.35762858567854205
3,5 1
Frank@@ 0.991152074157085
Lucas 0.8747643212318678
Us@@ 1
uchi 1
ume 0.18298235581389066
Central 0.1314531436059552
Stanley 0.6422446596377458
Dubai 1
Server 1
Point 0.41162640885369745
icks 0.6964167912360719
koloni 1
Dans 0.13311981754703384
May 0.053865602045223955
isto 1
Gy@@ 1
Zagreb 1
är@@ 0.11660253455309522
103 1
ege 0.413341158680701
lag@@ 0.27002509443178463
ér@@ 0.08775677779958525
AI@@ 0.5395356750824727
Bonn 0.9881098550223292
Gra@@ 0.43320953876373436
Norfolk 0.9925478581616111
Ontario 0.36096092635218435
dri@@ 0.22945728406862215
red 0.09501084054252701
vik 1
Pes@@ 1
aft 0.26621445372281194
nov@@ 0.5252619968678724
Thompson 0.6552717516316127
pard 1
Mississippi 0.5801077764593682
ht@@ 1
wick 0.5696293615371161
Angel@@ 1
Marco 0.8924358116856401
Mikro@@ 1
Nelson 0.6192082861420718
ink@@ 1
ñ@@ 0.26340590621000964
Ma 0.8484516340687919
Rud@@ 0.6399259947658941
omen@@ 1
wal@@ 0.16366411337548176
zona 0.3264676279507842
Komit@@ 1
Prince 0.269553563452032
Roy 0.6240395106284237
Sierra 0.6099291970934572
alli@@ 0.21291134162150782
igu@@ 0.3260870757621027
mid@@ 0.31898938802958393
pus@@ 1
rag@@ 0.4999106530880599
2.5 0.9152678027614415
Jam@@ 0.6501304523485651
maktay@@ 1
Comics 0.7753909911291791
Dış@@ 1
elius 1
gres@@ 0.40120728617109375
118@@ 1
ache 0.20945665716453435
tos 0.1715541401859056
ár@@ 0.30030173456079057
face 0.12304048975566279
lab@@ 0.2537288389771325
uri@@ 0.7995739623776847
თ@@ 1
neo 0.8956015068820123
By@@ 0.7662319142377517
Palm 1
nal 1
Agu@@ 0.6246337315086514
Ann 0.6802865231718944
Birmingham 0.6886067796572666
Neg@@ 0.7145846805975568
Oli@@ 0.7582501933970135
depos@@ 0.640548946297477
Robinson 0.6677002649066287
α 0.28781735520068963
1828 0.8966705388667309
26.@@ 1
Ferr@@ 0.579969081626934
Lloyd 0.8249757930301027
nav@@ 0.380186208103243
Ple@@ 0.6317795023393405
festival 0.2902846444101225
sic@@ 1
Cot@@ 0.4529945612439275
Danny 1
Open 0.21704883106450928
Ster@@ 0.5152715326670999
Za@@ 1
Sans@@ 1
gay 0.8750734530139365
45@@ 0.917251551155735
Nad@@ 0.6392557707512307
omu 1
Ard@@ 1
Jama@@ 1
lov 1
osp@@ 0.5345087765633438
Esp@@ 0.39963829126650746
Gold 0.3473430842779874
Sever@@ 1
dul 1
emann 0.868508394071778
val 0.5472284955643176
zur 0.037993937681201725
Fire 0.5785859537687494
Shim@@ 1
104 1
Atlético 1
Bon 1
Bruno 0.8650645201394028
Men 0.30347469684124645
Stuttgart 0.6631277386466454
ott 0.4664277896966177
Global 0.5740190453952445
It@@ 0.9356748143901553
Sports 0.3275217360845796
emy 1
30.000 1
ky@@ 1
Kentucky 0.5192760476399454
mab@@ 1
119@@ 0.973051161960819
obi@@ 0.8086713987107226
ás 0.6697581629262136
Aqu@@ 0.4930042630085508
akat@@ 1
ations 0.023884876064615205
Osaka 1
Vegas 0.8438494659228664
pas 0.04987518538825057
Fay@@ 1
Lon@@ 0.6925079482218807
Parker 0.7587114275006405
itar 1
lio 0.9206357993214166
0,000 0.327913483319192
igh 0.47053454412036777
Il 0.021237376166600864
Lac@@ 0.6132848609399542
Muhareb@@ 1
Angola 1
Plan 0.5543975221982415
ampiy@@ 1
any 0.06614645866454127
hip@@ 1
uil 1
zik@@ 1
FL 0.4299226231177837
Tet@@ 1
Coca 1
Kak@@ 1
Long@@ 0.5080390261693686
amer 0.8474244368190917
sif 1
Der 0.02390047929745739
Triple 1
dedi@@ 1
opti@@ 1
Dakota 0.7356627238104212
evo 0.7971898930198253
vic@@ 0.17343734117716303
amura 1
deh@@ 1
mont 0.2961146094541007
osaurus 1
Polit@@ 1
agu@@ 0.29687991352108195
bian 0.48051142426103616
eros 0.22994435339365837
′ 1
Book 0.3904567639041389
ante@@ 0.8044375478592292
dul@@ 0.9689511584606093
mobil@@ 0.6589442431922857
Ron 1
Texas 0.1598373696970431
entum 0.6597934755515729
uti 1
Java 0.919851460842184
cara 1
dum@@ 1
enter@@ 0.3045773764937881
~ 0.9224825883826474
Institute 0.14671543677735788
NBC 0.6785399656385068
System 0.26366500725107145
USB 1
sons 0.23094948321774092
Francesco 1
core 0.3372329433964081
minimum 0.7232429047893444
pon@@ 0.25747641268371735
37@@ 0.8946480468207196
Alabama 0.5348979272432364
Type 0.7464203972125046
ʿ@@ 1
Grant 0.6041418201108306
Maryland 0.46808658066376607
Mini 1
Suz@@ 1
Nicolas 0.5728553128245946
alus 1
etto 0.82264935986835
Elektr@@ 1
Kaw@@ 1
osaur@@ 1
Graham 0.675872323243989
Kop@@ 0.6222360762895429
Press 0.39847494225220836
Solo 1
Anah@@ 1
Anton 0.7054590795103208
Beng@@ 0.7947313764649216
Just 0.6860869153363219
Sebastian 0.9616223313449733
Shak@@ 1
Brand@@ 0.4924937740730177
Edge 1
Nürnberg 1
burg@@ 0.8322909463665739
ry@@ 0.732655695972452
Herbert 0.6122662167103101
NA 0.6911060081792281
afir@@ 1
laka 1
Academy 0.15602564927050575
Diplom@@ 1
mide 1
seyi 1
én 0.39605346481189874
mineral 1
AFC 1
Clara 1
Stre@@ 0.2958334871475763
enes 0.43605474677628986
salon 1
öp@@ 1
Fi 1
Georg 0.3762961169419456
Hass@@ 1
Rh@@ 0.43917397978130873
alog@@ 0.31287330985154654
bre 0.20273992397067891
gie 1
layer 0.9323552504670679
Baron 0.5839440079941017
wi@@ 0.32490341868447886
Band@@ 0.4950568269767322
Fred 0.6899922631574065
Mom@@ 0.819928327608305
Shane 1
Stewart 0.6153055612789831
aris 1
chester 0.36590275354526464
eum 0.529334905671269
ward 0.20564468774874226
onga 1
ws 0.16412926691338647
Fiat 1
HC 0.8394868991931489
anto 1
uth 0.38438522051734436
Gaziante@@ 1
Harold 0.8775534228288198
nun@@ 1
115@@ 0.9721310330901972
Iowa 0.47234080713168114
Monte 0.6941630789751204
UTC 1
vik@@ 1
End 0.6330808537949264
Magazine 0.4824615362907919
ck@@ 0.28074561076625276
did@@ 0.5786617819209181
750 0.9539694963072478
Dragon 0.9402088076785302
Laura 0.8504732354147798
sept 0.4269056512378598
Mexico 0.2161687949977678
Neil 0.8723774203854786
Sevilla 1
formes 0.4196173554516033
osh@@ 0.9248867077771431
J.@@ 0.7179683883091995
Kud@@ 1
Master 0.35676877601378176
https 1
Andreas 0.758418650059676
Lok@@ 0.8606233000095114
Oregon 0.48998778287721434
ies 0.06226464792235736
DF 0.6273981085906729
Galil@@ 1
Iron 0.6938468430853529
Sing@@ 0.46526753228855083
sion 0.06909616661782664
via 0.11907271480400013
6.000 1
Aut@@ 0.2664539984081532
arin 1
üzel 1
ław 0.9625073668158692
Amar@@ 1
Diyar@@ 1
Scar@@ 0.737335058800753
Da 0.24002118050211993
Fem@@ 0.5380652441558288
Beg@@ 0.27904147555203246
Fame 0.5056329577360619
Hart@@ 0.5347777336052046
Stat@@ 0.6029945832118923
Koordin@@ 1
Leonardo 1
Maurice 0.5277553763966957
Morris 0.6930939496898466
Roth@@ 0.932173319487351
eron 0.18283254941514226
1856 0.559911702483879
Abraham 0.780911689001803
Fos@@ 1
Fres@@ 0.65215640182647
Pink 1
Raz@@ 1
Rich@@ 0.409163369364391
Ambro@@ 1
CI@@ 0.4920667183967088
MB 1
ays 0.16210926205628795
1,1 1
Paraguay 1
Salvador 0.6628035075422939
aver 0.8057029388881963
enne 0.1055421117805304
fo 0.5316018944987216
Esper@@ 1
Sik@@ 1
cy 0.379073241636865
uka 1
uti@@ 0.30368537578815247
Aston 1
Kod@@ 1
emper@@ 0.6409322172139388
iva 0.586151685828132
pros@@ 0.2558563544527033
Hotel 0.3840878774804781
Rocky 1
illus 1
Panama 1
Warren 0.7419060514774208
BM@@ 0.7892949897310619
LED 1
Punk 1
atas@@ 1
iber 1
iser 0.29814741253860266
kus 0.6221605641553409
tez 1
vec@@ 0.6147106514207684
1784 1
Tot@@ 0.6502437175991888
rell 0.7179461562523058
Pent@@ 0.9700428099038199
Rav@@ 0.6821146076317707
tot@@ 0.26223226496685154
Log@@ 0.5733109068030208
BMW 1
CBS 0.6282926350473372
Cook 0.779412539318998
by@@ 0.3218245295152315
elly 0.7831264885516572
inski 1
loc@@ 0.10676205240067384
109 1
CN@@ 0.6160399335478942
Michel@@ 1
aug@@ 0.3942729541226831
eb 0.591828414073008
card 0.430420701093226
inge 0.4535736423558175
kulüpler@@ 1
tz@@ 0.5754886826921353
Glenn 1
Metro@@ 1
kati 1
umia 1
vid@@ 0.38694167984378275
BK 1
Grim@@ 0.7509708593408428
ous@@ 0.3264476460354613
ა 1
Pompe@@ 1
enos 1
ы@@ 0.10170343214824644
Fig@@ 0.6798628604526452
lard 0.49345869188976166
urs@@ 0.6193545613832766
ATA 1
GP 1
acher 0.4194325077098312
otop@@ 1
rie 0.43352823126370055
Fak@@ 1
Person@@ 0.38910421333385775
plo@@ 0.9771488026786114
30.@@ 1
Baden 0.5238978314892332
Carey 1
Fac@@ 0.2935267828451991
Nest@@ 1
amen 0.34771536525579266
gia 0.14273261820843286
pale@@ 1
Baby 0.9048718096703741
Elec@@ 0.27684710118337735
sche 0.2069193205357364
CC@@ 0.47137882362186917
Dawn 1
Fun@@ 0.561167458857176
Science 0.21600013416081007
fid@@ 0.8772043927600588
sing@@ 0.31742213287700294
uno 0.11494239989433672
Brothers 0.606270937629778
ear@@ 0.13237679345206746
eland 0.4056829428732543
115 1
Hart 1
Rand@@ 0.5470475315556734
sup@@ 0.19136271560657575
1859 0.5013997348836255
CG 1
rece@@ 0.796255678234075
უ@@ 1
14,@@ 0.7668304253600002
HT@@ 1
bs 0.16835825349209677
esti 1
lana 1
Comp@@ 0.5374523992420016
Pokémon 1
ec 0.7051687076691134
pep@@ 1
ð@@ 0.9206411300468562
Ng@@ 0.49761490059335406
Gros@@ 0.7503561020547879
Olympi@@ 0.5485441042519442
polisi 1
.C. 0.9041994622081075
AIDS 1
Liste 0.17756428882684427
NCA@@ 1
andi 0.9666109234340382
hisi 1
tarafa 1
Lep@@ 1
Roy@@ 0.5446475599077777
bad 0.4560224670843096
jet@@ 1
Ž@@ 0.9674440416994979
seven 0.15627585034003724
Charl@@ 0.6487071875821916
Elena 1
Two 0.18412481857726842
102 0.8889219850908145
Holmes 1
enci@@ 0.36017169020114176
IT@@ 0.5497562788517176
N. 0.6455138839435599
annes 1
aster 0.45793849062456365
istin 1
Og@@ 0.9758962995483478
eze 1
fahr@@ 0.27687560687308566
Johannes 0.4208914456183052
ego 0.5124320134008779
ifa 1
1.2 1
90@@ 0.9960822199968937
CF 0.7585142809930915
Chem@@ 0.35127058451603654
abol@@ 0.40711455258932994
erina 1
H.@@ 0.8295066128667914
Nicholas 0.711453865730846
icho 1
nev@@ 1
י@@ 1
PT@@ 1
Sky 0.7004754388804597
Whe@@ 0.5722656915488703
tilla 1
August 0.03633503938494674
Dortmund 1
L.@@ 0.7312117758338138
light 0.13027753039416112
pot 0.5033455777283976
Homo 1
Women 0.15862962284163598
wall 0.2736342330498226
34@@ 0.792858192462136
Awards 0.14981694959713887
Bar 0.6723479245596148
difer@@ 1
Forest 0.40626800613577907
Let 0.8355373575543944
Micro@@ 0.8343463219656897
Theatre 0.26063731399036616
Wehrmacht 1
sola 1
Back 0.6742718033967409
Martin@@ 0.7818965597365906
Songs 0.5143348080691672
our@@ 0.13812752611822215
won 0.04613183748220349
Fahr@@ 0.20091257017359465
Vin@@ 0.7065582467352962
hist@@ 0.7829747508609074
IBM 0.9490395180788891
Midd@@ 0.7132118922211913
SE 0.8729775908377084
Sri 0.4434340365998594
vic 0.6119544173669429
xi 0.8165125488255747
Cant@@ 0.49473638049710783
Civ@@ 1
lins 0.9608953671545851
You@@ 1
anom@@ 1
pedi@@ 0.520825913680949
über@@ 0.056978502955109256
Sid@@ 0.7470485852874187
onne 0.20559521230043495
ère 0.07094784990659715
50.000 1
Eddie 0.866485924858176
Rel@@ 0.18536418044289957
iles 0.22335081677138194
less 0.08703085805539261
sv@@ 1
İng@@ 1
106 0.9965909880546917
enta 0.17440068964204977
Berkeley 0.8718833630423382
Jin 1
Montreal 0.5351177408157833
Nevada 0.7724472616035316
Mans@@ 1
Nick@@ 0.901591692856192
cover 0.20094643980093166
mani 1
Gedi@@ 1
Graf@@ 0.9177995817418961
Hills 0.5847982909440242
Rudolf 0.6167560805814478
cal 0.34007842371060104
rates 0.4082855949912565
ted 0.026832279340449815
Ped@@ 0.9649620512793022
^ 1
andi@@ 0.5104940456296149
umu@@ 1
е@@ 0.08925510736894
Edinburgh 0.5734111306907557
Gon@@ 1
Schum@@ 1
Ts@@ 1
Turner 0.7034583195548594
107 1
Bologna 1
izo@@ 1
1857 0.5233277184361419
asso 1
enger 0.5873284256432268
post 0.14148961189568873
Palm@@ 1
enny 0.6073246458267002
1849 0.5559354134447845
Hut@@ 0.7662026954529814
Italia 0.4118383607125355
Solomon 1
utt@@ 1
38@@ 0.7919422982043748
Anat@@ 1
aine 0.15750894317051453
sl@@ 0.23002809643162195
240 1
NT 1
Nog@@ 1
üh@@ 0.2965471780196312
Maxwell 1
Plus 0.5036553708573109
edral 1
1831 0.7288993217687455
Law@@ 0.4814464892449724
ski@@ 0.47306731472276264
under 0.03202607119150647
Borussia 1
Cent@@ 0.5899506220906261
Nancy 0.747474459496309
tine 1
act@@ 0.25745553139371297
ende@@ 1
yı@@ 1
Arnold 0.6870715505328089
codice 0.6043857620233579
manuel 1
town 0.056329221156578846
Dad@@ 1
Rost@@ 1
1785 1
Ken 0.8233904815654968
IN 0.9799270310561018
Pra@@ 0.6722862840783453
Sym@@ 0.6691603297657844
mos 0.7485902239485874
otro@@ 1
Hob@@ 0.8163245021526702
Ment@@ 1
15,@@ 0.8608915642754055
1826 0.8171714286845542
Mün@@ 0.4963585997216871
Rein@@ 0.4084375909115707
Shir@@ 0.7080124070752636
ting@@ 1
GPS 1
Gustav 0.749173301627834
Ted 1
iliz 1
ī 0.8569378485109588
Baker 0.6372016035552297
Get 1
Nice 1
Cape 0.4328136942608926
Earth 0.3025851936474448
Fed@@ 1
Melbourne 0.38354613675157645
Touch 1
1600 0.9526809754317321
Ander@@ 0.5362529087597587
Churchill 1
Eva 1
Now 0.5679628356872504
Lynch 1
Syn@@ 0.38222442536227463
asp@@ 1
nos 0.26446962626088005
ater 0.3289151307845506
emat@@ 1
1855 0.5398616264860421
Gos@@ 0.7915139510074085
108 0.92924673876957
Alfa 1
ado@@ 0.5613708835690046
lot 0.19820956221434644
1854 0.5375097409371543
Volkswagen 1
lers 0.14400871932677603
Barry 0.6758044757783099
Reich@@ 0.2677187936607853
Ve@@ 1
ily 0.4650689620467007
Bour@@ 0.4467190142944796
Carol 1
ery 0.22698128991480118
25.@@ 1
Benz 1
Hell 1
Newcastle 0.8620358548388282
Sur 0.22293429356207237
ovich 0.9249828281682605
plasti@@ 1
Wimbledon 1
PP@@ 0.9042371134259001
atsu 1
Orange 0.5980785248173179
Wel@@ 0.34996104551195784
alo@@ 1
Vid@@ 0.6664184968778769
anam@@ 1
mm@@ 1
ünkü 1
Collins 0.7280723965316636
Isaac 0.8477766274610488
So 0.16126511447507716
Walker 0.5110170643863909
anie 0.5357051371282541
mark 0.2405531555128474
Coc@@ 0.7427437379677547
eton 0.5052426622809563
EC@@ 0.8314091541617075
Masters 0.6633913781133324
Sac@@ 0.55717089301467
Guy@@ 0.8683704903183027
II. 0.3161447352395536
SI 1
Wood 0.5644243332316764
glu@@ 1
Artem@@ 1
Neo 1
Bez@@ 1
Nord@@ 0.1587950085348582
mama 1
GNU 1
Orlando 1
aran 0.6254983311846203
limit@@ 0.24561721680632986
nan@@ 1
Bj@@ 1
Hall@@ 0.5947975798403886
Madag@@ 1
Yuk@@ 1
grav@@ 0.23507906801500827
Fern@@ 0.3898650014816722
Ptolem@@ 1
16,@@ 0.8656913388407803
24.@@ 1
BP 1
annon 0.6357912275339013
sept@@ 1
Murphy 0.8323008021956158
airi 1
etz 0.632351608980911
lö@@ 0.6595830686329353
As 0.04304533463354811
Viktor 1
bus@@ 0.23656991991608914
nam 0.3290450167751339
pant@@ 1
uro 0.5252632198460465
a.@@ 0.6254761137585503
down 0.06788426689086063
els@@ 0.36027506816260574
tart@@ 1
ú 0.4604025747398907
Las@@ 0.614508656689074
Tob@@ 0.8339922758820911
amor@@ 0.7725043212514884
aut 0.19599122817434383
dez 0.5097798418029633
Ich@@ 1
Sult@@ 1
adis 1
fare 0.415844812058119
leyen@@ 1
ods 0.19348410343463543
agi 1
ingrad 1
uto 0.6882254070112281
1839 0.6556070345109606
andro 1
etes 0.31918266780812027
kos@@ 1
F1 1
GA 0.6357130251105966
Jorge 0.5379286035548863
Nept@@ 1
Band 0.15468869327519405
Nig@@ 0.6550816495665963
Shu@@ 0.8105431048129762
orf 0.8361765966379594
Ach@@ 0.340217925276381
Barr@@ 0.4285464158277275
HIV 1
Mozart 1
Power@@ 1
Ret@@ 0.3783945058211417
Sti@@ 0.32133513997266644
1789 0.8328838420413457
Bobby 0.7763705956659589
Lec@@ 0.6958758519376409
Part 0.7321211652155
Abd@@ 1
God 0.271156825381781
ML 1
R.@@ 0.6741653188741555
sha 1
̣ 1
Four@@ 0.517437135969009
Gray 0.7331330592023365
Rafael 0.675159094188929
Tag 0.34914374556367894
arch@@ 0.1121368487899278
deon 1
Dud@@ 1
Kid@@ 1
Pun@@ 0.5778447023662121
él@@ 0.15822975667180889
Hük@@ 1
Lincol@@ 1
Money 1
alog 0.8885453623482271
engu@@ 1
osis 0.3010211722566507
sof@@ 1
Gener@@ 0.3285156011558344
KO@@ 1
Toy@@ 1
head 0.08265468652824506
web@@ 0.6981057766005682
Water@@ 0.4664446804286122
Yosh@@ 1
aku 1
erer 0.5732300260876041
201@@ 0.784937493303506
AO@@ 1
Vent@@ 0.7529337673179979
achi 0.7014286047383673
ism 0.06119302344749219
Hunter 0.7032666746796852
Rou@@ 0.3995175188363451
Uni@@ 0.2613088066403894
aker 0.2631940093146659
cap@@ 0.09364302852279853
pig@@ 0.8042200151212896
Clinton 0.6882872540059057
Eul@@ 1
Louisiana 0.5401672950561663
Wolf 0.6234345122501852
gy 0.5119446428915023
SH@@ 1
Sport 0.3870837067375511
igns 0.5888275305125401
norm@@ 0.42415173501060416
yonel 1
put@@ 0.24613645728077588
Sco@@ 1
Sup@@ 0.3455016970895075
illon 0.41566554037981585
Kib@@ 1
auer 0.16738221448263568
iya 1
lon@@ 0.7257399637002816
1858 0.5100691483293204
dist@@ 0.20554921370109674
ond 0.20564309369268582
vill@@ 0.5732246295331107
Aless@@ 1
Anast@@ 1
People 0.2297201501600248
ario 0.08598761196856565
char@@ 0.12221238289738924
ulos 1
üncü 1
AF@@ 0.6024247238358756
DO@@ 0.6822116117223186
ML@@ 0.4457433380859749
Mayer 1
een 0.3410793421569352
Cic@@ 0.938560532200903
SI@@ 0.7640471519405521
ekten 1
wan 0.4862684084498149
BO@@ 0.9219455787176245
Departamento 0.9158821373089916
Montgomery 0.9584188151177803
omb 1
sper@@ 0.7734705394851024
Ğ@@ 1
Sara 1
Sci@@ 1
atil@@ 1
into 0.01979436815409949
27,@@ 1
Arist@@ 1
heavy 0.27070195770870603
itte 1
Chr@@ 0.6745074786597108
Somerset 1
Valencia 0.6510061757999174
cur@@ 0.08093579591899233
isha 0.7721152009865715
XI 0.5885870166170216
500.000 1
eper 0.3768038812663708
ilo 0.5449637631406964
kek 1
ops 0.24347170568326357
dh@@ 0.33735262393113113
Gau@@ 0.36894306010988864
Simpson 0.9437820490401048
com 0.6001010667316985
idge 0.3545545490878285
zap@@ 1
Challenge 0.6025367754242543
EN@@ 0.9281988066062107
oney 0.9636868160727506
AZ 1
Fid@@ 1
Gin@@ 1
Gren@@ 0.8379984612310161
Rut@@ 0.9713793809409708
lidae 1
trib@@ 1
1836 0.6210258485543292
550 1
Aman@@ 1
Barn@@ 0.6697067699058863
Drive 0.761557164243716
Giuseppe 0.9821109757570071
IA 0.6585672597454549
akter 1
hut@@ 1
opa 0.995765271383494
style 0.0849199844000789
Iz@@ 0.7773155183416566
1853 0.5457308471263137
4000 1
Edgar 0.9359238936245252
Tali@@ 1
radar 0.8102922419144031
0.1 1
46@@ 0.9728291917949818
Freder@@ 0.8617563429958736
Ves@@ 1
gn@@ 0.40561765538284683
Silver 0.5898233922899917
s. 0.36117654509183394
39@@ 0.8124835883903989
Honda 1
Nepal 0.8077999655809206
SR 0.3276823917021875
Sark@@ 1
cre@@ 0.06271940503380039
nm 1
Bros 1
online 0.3060754148263792
Castro 0.8081485007056505
Denis 0.6622256450924002
Larry 0.7855512729705683
Pablo 0.5509495529418272
Roberts 0.7211901822939544
bli@@ 0.633082345825777
Business 0.32190446821490293
Carolina 0.20065088111131135
Diana 1
Ernest 0.708903359991131
peri@@ 0.2296528353569857
stab@@ 0.5868721484187346
→ 0.8556617304839725
Aran@@ 1
Orleans 0.5945027131754721
Project 0.3660479493049506
aut@@ 0.16313064795661794
integr@@ 0.17749795509611876
220 0.8603563569804712
Brid@@ 0.6334347106115485
EA 1
Rosa 0.6196488870624536
Yes@@ 1
frag@@ 0.21481105207945503
Are 0.9549672071769951
Dy@@ 0.5204071589382265
Eve 1
SM@@ 0.9672997080768079
Tyler 1
sch 0.14293073732454464
atis@@ 0.4538488719363284
master 0.23545203365986075
mg 1
temelen 1
200.000 1
Chart 0.5535755367216195
Hell@@ 0.921340579455882
Lil@@ 1
Sha@@ 0.7252852234747627
dou@@ 0.26532721291903344
ხ@@ 1
1851 0.5209211900998456
Brad@@ 0.5769777316042667
Jun@@ 0.7181553484323008
Lorenzo 0.8529812911248987
ბ@@ 1
1845 0.566799764039083
NS@@ 0.45762988896646806
Roosevelt 0.7964210572504463
Blood 0.9198227052775823
Emer@@ 0.41152420714405263
aro@@ 0.4621730947856496
isl@@ 0.5861849495284217
kett 1
Brah@@ 0.800995531648283
Monica 1
Thr@@ 0.40425182030464274
Det@@ 0.39688798653909574
Flash 1
qui@@ 0.2060324670048273
ו@@ 1
Alex@@ 0.8196483538662719
Apo@@ 0.7722743396112736
Benn@@ 0.8707019059134621
Guatemala 0.6970281201840931
Jung 1
Online 0.7592449287099979
Rotterdam 1
cat@@ 0.08899056838833463
öne@@ 1
Griff@@ 0.5574844354865374
Jessica 1
Math@@ 0.445644522333891
RA 0.444978432053401
Total 1
Walt 1
Daily 0.5443732917810846
Rap 1
aru 1
kn@@ 0.21694624082602101
Arn@@ 0.5512651800820652
Express 0.45093727242233256
İsp@@ 1
ias 0.5319398900991433
Born 0.3158279344850149
Faus@@ 1
ture 0.08586450398016489
1847 0.5516426130566355
Cameron 0.8844271505399706
Hardy 1
Hoff@@ 0.8019045360879652
Tad@@ 1
111 0.9235240326507367
Hudson 0.6488499792697224
Jas@@ 0.8671222937509717
Joan 0.6978900711697399
Sov@@ 1
fri@@ 0.3839328947483095
nete 0.5025342590678195
Di 0.892576746699622
Tag@@ 0.44544272020482056
ather 0.26433054054891586
ode 0.3201935805003852
ofisi 1
Free 0.38831874939278943
Savun@@ 1
ology 0.06655602218797815
ˈ@@ 1
Hannover 0.6248067000391367
direc@@ 0.1366545317977783
inho 1
1829 0.7048316292736755
8.000 1
Kamerun 1
Krak@@ 1
ano@@ 0.7915364648570438
65@@ 1
Terry 0.7107389308807549
Wallace 0.8124493310556823
atum 0.5019717961866712
25. 0.40328672549481365
Parlam@@ 1
Susan 0.7968335010264297
Wagner 0.7413972973248625
bud@@ 0.8196126270744843
eu@@ 0.2528692519940411
ots 0.09496590809572013
scope 0.6585778636516695
EF 1
Force 0.15506007957026557
Mab@@ 1
Phil 0.689196396083415
rep@@ 0.2148858745348207
112 0.9259122144583323
Atl@@ 1
Stanford 0.8359925575388144
ean 0.20068172765836892
trig@@ 0.7559839327510194
Cole 0.9301392571214737
1.4 1
Pand@@ 0.6994066843983134
dop@@ 0.7535808423103235
sec@@ 0.0823517632860161
ï@@ 0.13433824456230517
122 1
Bang 1
დ@@ 1
1815 0.5382837002955211
75@@ 1
Ltd 0.5232410362450239
Pok@@ 0.6112259585736555
Sut@@ 0.9043122541200003
Traf@@ 1
kip@@ 1
leb@@ 0.2966370910721789
3.5 0.9616942850098807
Khan 0.34338491578457436
Pag@@ 1
Peugeot 1
Pyr@@ 0.686826802627549
Racing 0.4100676842523417
bul 1
cé 1
oman 1
pet@@ 0.45033999833808974
Chir@@ 0.7671647896695544
Note 0.6051254463422524
Von 0.08544624575657575
ados 0.028549041768080013
eph@@ 0.3408125795465853
my 0.19380026547736456
Feh@@ 0.6896827810113673
Isab@@ 0.7263936596940955
Tai@@ 0.6187564642166149
Tsu@@ 1
XIV 0.6115511201892161
atak@@ 1
got@@ 0.33978136880931537
pur@@ 0.09397331557206266
reper@@ 0.9482106186006659
tivi@@ 1
ā 0.7184063528812823
Felipe 0.7216167071634798
Louise 0.5780401745977939
ayna 1
1837 0.5809025360480503
76@@ 1
Pist@@ 1
pid@@ 1
D.@@ 0.6983102551199166
Senegal 1
Stef@@ 1
arina 0.6974902750365504
ä 0.8737482242231066
1846 0.538457449664659
Fire@@ 1
Western 0.1219794738070854
lava 0.896917177275561
uni@@ 0.09807344843620276
Å@@ 1
Basel 0.7517820637380346
XII 0.6084941500166606
afor@@ 1
fran@@ 0.38749651734150725
Ass@@ 0.4987120346426809
Gall@@ 0.6806826835045127
Helena 1
Watson 0.7894593816274598
haci@@ 1
22@@ 0.6403631101247687
Christi@@ 0.4248702535377436
Dennis 0.7484428237820364
Oh 1
Termin@@ 1
Tuc@@ 0.6439874406338466
XIII 0.5265198648591888
prop@@ 0.1661319914509957
ric 0.606301674712461
1700 0.9708410687260492
40.000 1
Andor@@ 1
Days 0.8428413045184329
Summer 0.17241336901413284
iji 1
Cros@@ 0.464049988048383
Tib@@ 0.6928771566735249
Vancouver 0.545431608303219
chin@@ 0.35411310171720245
rid 0.4921491894546349
1530 1
Bob@@ 0.8547699610976144
Peg@@ 0.9691016948918464
diz 1
nius 1
„ 0.014387747114434765
Asp@@ 0.6968134887748904
Cli@@ 0.5964666372525838
Germain 1
Malm@@ 1
Micha@@ 0.9880772808680578
More 0.3779245283967508
Willi@@ 0.648752469987184
bor 0.6459331158776213
soundtrack 0.6899651368688196
urus 1
44@@ 0.9787369203864174
Eas@@ 0.5795684376570959
Forbes 1
Wild 0.6208615842390249
lair 1
ling@@ 0.34908613125640525
pod@@ 1
ury 0.276072111503074
Cun@@ 0.7320236202508489
Daw@@ 0.7132801182240822
Myanmar 1
elo@@ 0.8428272784509908
1812 0.5221010005632734
1820 0.44768717196329205
Ayn@@ 1
HMS 0.5642169476612314
Leeds 0.7372179286834596
ogo 0.8760311135298338
Bella 1
Inter 0.9370066559411704
Josh 1
María 0.20948497203920022
cili@@ 1
Mason 0.8521405373287626
Woman 0.6781455478567406
aw 0.4015113838372221
iger 0.12359922253398184
Ja@@ 0.6714923657295848
Pass@@ 0.2954951569738033
SF@@ 0.9795948716252851
anes 0.38041797836155794
ilia 0.6510636917354219
API 1
BAFTA 1
Cov@@ 0.6402370692194636
Never 1
Plas@@ 1
Vog@@ 0.49891402529278517
pert 0.909834405102329
ř@@ 0.4243860984877964
Mikha@@ 1
Vista 1
atu 1
Acc@@ 0.39377677983001685
EL@@ 0.9697430327330179
Hr@@ 1
ICA@@ 1
Rhy@@ 0.6313549233180011
fab@@ 1
ien 0.07326552539979658
uza 1
1844 0.5762602912056055
ID 0.835913947052087
Na 0.9632026605361081
33.@@ 1
HF 0.8500921599154124
Off@@ 0.17744362686674472
duda 1
kinson 0.8140712015676708
Amaz@@ 0.7415171390099342
Cha@@ 0.7154267036945073
Patri@@ 0.42336218916902885
enges@@ 1
put 0.1108643255851214
size 0.1558984266732054
68@@ 1
Adrian 1
Clem@@ 0.6732330088776015
FBI 0.9217585135162476
Michelle 1
aqu@@ 0.1721205399946843
ved@@ 1
27.@@ 0.9906680898556048
And@@ 0.9014825029034579
Bremen 0.650898197019208
CS 0.5425504415776788
Princeton 0.97060665843685
Ptol@@ 1
1.1 1
Emilia 1
German@@ 0.5649123812759141
McCar@@ 0.7367880034636796
Obama 0.7681774178296161
dea 0.6958690555187386
ose 0.16824991219179095
them 0.03462813319616008
Dick 0.6941487194096135
Did@@ 1
Gregory 0.7621726859641561
Jur@@ 0.29637112791218995
Nab@@ 1
mix@@ 0.25582313232494386
stadt 0.14204932428202177
board 0.12554568519834053
ring 0.18307600092012324
uo 0.480478945519921
és 0.01994813631688172
127 1
Abu 0.6438115550540979
ET 1
Lanka 0.5793021954596483
Lud@@ 0.8544855826614098
Maxim@@ 0.6306471759758421
Rangers 0.5873184484219929
igg@@ 1
LG@@ 1
amar@@ 0.6345098347921242
astron@@ 1
ores 0.09877752620426637
1814 0.5648037901265843
CC 0.388463065808848
ares 0.13473091896102138
lands 0.14494644669786017
ub 1
114@@ 0.9130730585746135
49@@ 0.725975148322715
Jum@@ 1
Tec@@ 1
akos 1
fte 0.3322535368787848
Amp@@ 0.7508309811277518
adil@@ 1
bag@@ 1
egel 0.45575986629020787
rio 0.6354419939054047
voy@@ 0.40574644893780265
Á@@ 0.3232380642759215
Meks@@ 1
Monroe 1
Saw@@ 1
elop@@ 1
rif@@ 0.400862375773707
tho@@ 0.32125404138424196
venc@@ 1
Krasno@@ 1
Mitchell 0.5746369867080203
Suzuki 1
Venez@@ 1
auf 0.009764252599647387
my@@ 0.2121600246350401
uga 1
VA 0.5929343515720579
oral 0.422105482208076
Athletic 0.488426854432758
Ein@@ 0.06012778907771153
Line 0.18850835645327768
ilit@@ 0.6463596800965988
mb@@ 0.2508964215164884
· 0.04274819752330436
Felix 0.8274930438978958
Tottenham 1
Up@@ 0.5722982078141063
C.@@ 0.4321056996372272
Wall 0.5941412657558075
fit 0.29615540174264726
yac@@ 1
Evans 0.5587557394097159
Murray 0.47809488953873863
hib@@ 0.923788383770968
Hugh 0.6500582770574173
aq 1
isch 0.05120723431502773
õ@@ 1
LO@@ 0.7470403055860305
Leb@@ 0.44294536336935303
Leonard 0.7616335644407709
Sullivan 0.7717700024956887
mail 0.5891412577993228
Jose 0.6315336108456905
Moz@@ 1
Bordeaux 0.7348526401782238
Vul@@ 0.6793401914361451
beste 1
dum 1
nini 1
190 0.9959738304856111
England 0.07004189793465562
Kiss 1
Mall@@ 0.7822805851124736
Scor@@ 0.723923350948541
wer 0.15378691010446477
Claire 0.9618414273702722
High@@ 0.3419481134361177
Pietro 1
ild 0.519356747482431
m2 1
320 1
Nac@@ 1
Randy 1
Ril@@ 1
Veter@@ 1
alem@@ 1
maj@@ 0.6870169394730495
15.000 1
Adi@@ 1
ER 0.8743488395000566
Erik 1
erse 0.6051528398748935
29.@@ 1
Cou@@ 0.4346742011255687
European 0.07876144052096347
Ish@@ 0.9929753363783147
Nacional 0.13831224706908019
wen 0.6122158092240373
ST 0.8124735569802011
kand@@ 1
tle 0.31424881618992084
7.000 1
Bret@@ 0.799809927213861
Guar@@ 0.817821713190922
Politik 0.4908215036217924
Rous@@ 1
Stor@@ 0.5400850460236976
Yale 0.724697138779105
element 0.5869815211481099
ough@@ 0.24102806722524206
ě@@ 0.6010910922210184
Magn@@ 0.8861485699082472
Pant@@ 1
anot@@ 0.6607132708926734
atlan@@ 1
chen 0.07427331423074823
gel 0.3287822988283979
yes 0.6172325437427457
1821 0.58987414380393
BT 1
Country 0.3226281645864418
chen@@ 0.2072131759597058
fur 0.8792449216580662
hen 0.47625927463867007
was 0.001692670442623953
Beatles 0.8675122437363476
Delhi 0.5949483094332629
Harrison 0.5635146953652785
tern@@ 0.3945259644591176
Bry@@ 0.8205940474478136
Hindu 0.7498092513890997
IF@@ 0.71565441574006
its@@ 0.826638431066712
pora 1
try 0.1361042759430762
Uran@@ 1
Vill@@ 0.3201042443191577
get 0.11932017506891357
gorod 1
App@@ 0.3782009156870635
Roh@@ 0.4003113648042999
XVI 0.42620196081549744
ux 0.1926649512036549
GT 0.7200131318325439
Monte@@ 0.9422044383601145
uj@@ 0.7357816366790015
zhou 1
57@@ 1
Pennsylvania 0.20725085953326242
Zak@@ 1
now@@ 0.26566890336973636
55@@ 0.9202528945685183
Stuart 0.6516640449711626
Whitney 1
imar 1
izer 1
ony 0.18960512753801106
pH 1
48@@ 0.8688746470237111
Aff@@ 0.3713933760648417
Bach 0.5411243265965917
Carr@@ 0.5883980523043485
Garden 0.4643838754599726
Mog@@ 0.9061085704450886
atis 1
ib 0.9502792581697683
École 0.3982702020081979
Bres@@ 0.8650754473639637
Mug@@ 0.895517942730832
aland 1
itus 0.8257217417889556
onis 1
uan 0.8493306083172157
vy@@ 1
č 1
Alain 0.8244620014138226
Land 0.13699412609960349
210 1
Armstrong 0.8520419074174825
Vf@@ 1
gal 1
inz@@ 1
Campbell 0.46899593598637435
Ero@@ 1
Oh@@ 0.8377491396072796
Tan 1
rup@@ 0.21801637990138995
ór@@ 0.36611868221227695
GS 1
atini 1
sala 0.7593352751281036
Electric 0.6173661297886431
Productions 0.6773195998943542
Knight 0.5390856674770226
Scre@@ 0.642884245253769
Spir@@ 0.6376380028957647
box 0.26229243696563065
ind 0.4822899183335097
tive 0.06221969666244295
zy 0.7704780994114716
agen 0.15763108380025873
ceden 1
uld 0.5182985672445432
1,4 1
47@@ 0.8256608777621456
650 1
Afro@@ 1
Burton 1
CO 0.5485036759694518
Jazz 0.37100228717249284
Jules 0.6634328917425064
odi 1
Romeo 1
eber 0.9925508897492562
eston 0.5781616510836
thy 0.3482110807196267
230 0.9981219349682041
Bristol 0.5533125077677813
Cast@@ 0.5166226304302901
Elli@@ 0.7255984352011835
berger 0.26371564065750863
olin 1
ush 0.3387902922042553
Bond 0.8709473708712062
Gand@@ 0.7323988037771788
Montana 0.7157810936342117
Over 0.3027762305926856
Porsche 1
Terr@@ 0.34782547114630263
oug@@ 0.26931709823950734
Eugene 0.9356252286800222
Hod@@ 0.7637265393361838
Ralph 0.647657565817631
Ronald 0.8452828022449671
rass@@ 1
xi@@ 0.29918929734461475
à@@ 1
Fland@@ 0.8271956468458114
Mud@@ 1
Test 0.46484822625833283
della 0.8025479557616244
1832 0.5555065854025569
Grace 0.6782641479630231
LP 0.4187743172598603
MVP 1
Nich@@ 0.6052405814825289
René 0.5332028658092574
Sud@@ 0.3299023863412859
heimer 0.787718856195095
mul@@ 0.27796437593952267
Goethe 1
Zimbab@@ 1
igan 0.6555516013775848
tors 0.09964398249371542
Ç 1
Carl@@ 0.6042590219268933
Japan 0.0969116531335014
band 0.051091465226877866
daf@@ 1
dier 0.35403151965672314
sera 0.21705887865841203
Emily 0.9265662920328296
Rodrigu@@ 1
Tin@@ 0.6651861160847293
ingo 0.6343585152413573
revi@@ 0.6366756027481851
tham 0.2729414106462614
Fort@@ 0.5571066018758555
Paolo 1
ampa 0.5427155853340485
4.0 1
Dick@@ 0.6284414428437191
Sound 0.4445396536264334
pers 0.27508538973572666
rit 1
CE 0.3463572194573686
Haiti 1
Hard 1
Uganda 0.7975481627731426
28.@@ 0.9777776394433605
Secret 0.8215893241059363
Syl@@ 0.669009051387193
asha 1
ISBN 1
ubi 1
Portland 0.508817731656035
Tall@@ 0.8198295653016626
lararası 1
Blu 1
Christ@@ 0.2986346232813911
SG 0.6012511796815194
bius 1
gang@@ 0.4657683494684913
loy@@ 0.47414472936828306
Bayer 1
Hop 1
XV@@ 1
amus 1
inat@@ 1
ois 0.22462193555193424
ør@@ 0.8385324540903898
Cham@@ 0.4670012719285833
Delta 0.6585367930883609
Get@@ 1
mouth 0.27032315882869584
phi 0.8320094540793551
prol@@ 0.4226572763464821
Bank@@ 1
Bomb@@ 1
Caroline 0.5986779322079286
Mountain 0.29023636665497976
Mé@@ 0.23251382092171569
pit@@ 0.2422469424353531
see 0.08202018328573796
Jen@@ 0.6684275545450712
Party 0.07749513104656791
SL@@ 0.9255758059464098
agi@@ 0.5713682110083896
eg 0.4431252556223981
AE 0.9292518678284465
Battle 0.1662839958833209
Foster 0.8284808179072306
Jav@@ 0.9196884972890373
Leopold 0.8852937710728288
Ricardo 0.7607025680511952
but@@ 0.2355011401688971
iter@@ 0.4949165923120959
Dow@@ 0.4497278136912083
EM@@ 0.8518086442313938
GT@@ 0.7187699209398196
Gilbert 0.5705701831234609
Mati@@ 1
Soh@@ 0.9272650084666638
ball 0.13266913828437943
ights 0.2183672609459845
121 0.9808631487524037
330 1
Lus@@ 0.8098994528883294
acht 0.10779239151329334
gari 1
rimi 1
uzam@@ 1
ر@@ 0.3063290875503122
KO 1
dio 0.17541223069422346
jili 1
lington 0.5161841732034926
ope 0.2872246136024481
Soul 0.800656395491995
Tari@@ 1
abor@@ 0.2700329177535148
cus@@ 0.2413503789465186
kün 1
yoy@@ 1
A1 1
EB@@ 1
ES 0.9161005148281303
Freud 1
Gn@@ 1
Nicol@@ 0.7797699014841817
SU@@ 1
stad 1
Colin 0.8774957662642607
Mann 0.27714938508208536
Wall@@ 0.3848694546029157
Wii 1
icon 0.5304998266010293
117 0.9556151127363944
Jet 1
Ley@@ 0.9062859458579352
abri@@ 0.5821499608995087
andra 0.6277810574151469
cli@@ 0.1477867701694435
fit@@ 0.36275334459815994
oso 0.17046140105850677
wan@@ 0.20896471942002678
Harvey 0.738853371526742
IG@@ 0.8314248853213992
Nob@@ 0.6153108684311179
SB 1
aden 0.25674606279914186
ants 0.035828753032998914
aves 0.14540468210900725
thor@@ 0.3686512790254136
tru@@ 0.41358306812130197
Lamb@@ 0.8693098403863878
ekt 0.2561687733089446
fast 0.1388719809226694
neğin 1
out@@ 0.06297744021573097
pha 0.5740712447912807
56@@ 1
ffe 0.3321795392844281
kW 0.8073651139726613
oper 0.8366231384216369
Ō@@ 0.8274964887078443
β 0.634280805326779
Buk@@ 1
Burn@@ 0.9169262020867935
Bé@@ 0.46926085943103235
Cross 0.2597936515437874
DI 0.6379621260922439
Nathan 0.9123087063379335
Rib@@ 0.7998935579280458
Rig@@ 0.8646154049671642
ardo 0.8246023457302452
seri@@ 0.4586159207003242
Head 0.3544420460031893
Map@@ 0.6209196773992874
Stars 0.4653586865215654
itibar@@ 1
magne@@ 0.7514454279272997
э@@ 0.045907683023698756
sz@@ 0.4749726833299302
Ce@@ 0.9651002084616747
Over@@ 0.26134192550950974
Was@@ 0.5130683806762628
lake 0.2891277700590818
123 0.9500128379871627
Mob@@ 0.7136812440410961
agres@@ 1
ites 0.09517860529037357
Fle@@ 0.33289817696594215
Four 0.29421322983261405
NS 0.5628286053634056
Si 0.21417274669846234
Stur@@ 0.4849567853373409
ames 0.250878875971684
BT@@ 1
Kō@@ 1
Squ@@ 0.5461124825919772
khe@@ 0.6724651249749699
Arkansas 0.46181336113740296
Bull 0.8236135433999655
O. 0.6265897362680941
bridge 0.1555415578820742
fib@@ 1
onidae 1
Alp@@ 0.9345284678116798
Baj@@ 1
EM 0.811284515395858
Julie 0.910027152279829
Lopez 1
arro 0.7883995916811443
ès 0.15050005592674948
Beta 1
Deep 0.8513042437381881
Jamie 1
Keith 0.6419005223408498
laya 1
Costa 0.3114994321906145
Himm@@ 1
Instagram 1
Morrison 1
1852 0.44238443208225325
Clo@@ 0.6915157532693808
Cord@@ 0.8268693863991606
Dais@@ 1
Leicester 1
PR@@ 0.6084539004097457
Raj@@ 0.2508596011099067
Rit@@ 0.7208720847148359
Roland 0.6859760515827996
Tik@@ 1
hard@@ 0.2729945130511507
Barb@@ 0.8018210575348408
afr@@ 0.5491708010450717
Min 1
radi@@ 0.15820654638846363
servat@@ 1
Hang@@ 0.9998405748753108
Gang@@ 0.6841931311593544
Gazi@@ 1
HA 1
Page 0.8402296886449849
Santo 0.4837300440589249
ahu 1
EP@@ 0.8204893507694229
IE@@ 0.6146777306614177
Rö@@ 0.527540706900967
Sweet 1
USA 0.12362250753633877
Vall@@ 0.5532578030763683
very 0.04241364738261666
zus@@ 0.2960166244089588
District 0.058886043164749186
Olga 1
Research 0.15181613667547428
Sheffield 0.7496596032442036
ahn 0.3087088464953251
garanti@@ 0.8416337293079236
ilif@@ 1
А@@ 0.03236426577817346
Dod@@ 0.45384527079655484
Edition 0.7041438326619176
Got 1
Ut@@ 1
Vakf@@ 1
4,5 1
Deutsche 0.27559479896189654
Komün@@ 1
Pseud@@ 0.6526324408159646
UI 1
ged@@ 0.32931551814651794
habit@@ 0.17015830054652759
კ@@ 1
João 1
Square 0.3392871382749967
Sydney 0.20428580202668947
ammer 1
Wander@@ 0.4977041032006371
EL 1
IO@@ 0.7131282519580692
Mr@@ 0.375191115947649
Sent@@ 1
Zah@@ 1
etus 1
itis 0.8862744595410638
Christina 1
Glou@@ 0.8799367280910507
Pach@@ 0.7496535667890413
ix@@ 0.4597012735075672
odon@@ 1
0.3 1
1.0 1
CM 1
Christmas 0.34938440607136445
Dj@@ 0.6103307760290699
Floyd 1
PM 0.7350808259063148
ahl 0.3170377911597743
fav@@ 0.2807440792094104
gut@@ 1
Juni@@ 0.37560689197142116
Nicole 1
aben 0.3110858273390477
ensen 0.6519641510969998
inga 0.7118251121891764
ink 0.30288750128219966
1841 0.5066026008867758
Boul@@ 0.47076797980110424
Capr@@ 1
Hip 1
Ki 1
Nielsen 1
She 0.02480117786332615
Singles 0.33553910351496297
aron 0.04285793411781112
away 0.09332143033936031
odon 1
ć@@ 0.9505446515263513
Dub@@ 0.8491671859699602
ayo 0.38234086932595535
insky 0.7131462264059586
а 0.020597131366705438
Pho@@ 1
ibl@@ 1
orian 0.6915214783015423
star@@ 0.2243458610306443
trat@@ 0.291642132766638
Glasgow 0.4497194773094072
Scot@@ 0.3582978812688765
rama 1
Empire 0.1286568958401159
Monaco 0.9897884526022552
Nazar@@ 1
Stephan 1
ô@@ 0.1976122328054734
HBO 1
Kay 0.8917334813306993
Klein 0.7450651759887695
ariz@@ 1
icia 0.3594861437284576
idal 1
zh@@ 0.9431580729971819
256 1
Brooks 0.9166225593704757
Cloud 0.996864347436539
Metall@@ 0.8979522155475755
Palermo 1
Pascal 1
Reform 0.8854064660971483
Sea 0.20780368144491138
acab@@ 0.7456704157330188
cock 1
kanad@@ 0.8363964261023225
oner 0.6502846993064794
67@@ 1
Dut@@ 1
Hüsey@@ 1
Ice 0.5890309609227617
Julian 0.7730205755675555
Rob 0.7897775824706107
Sieg@@ 0.28715324597594705
Sporting 0.9281768166006323
leton 0.5596163760971216
Hein@@ 0.5907151391205628
Salzburg 0.8610111454952845
opsis 0.5875898892289699
yst@@ 0.24143553635597584
117@@ 0.809800365466808
DR 0.5988256384450487
Er 0.0309263781614938
Ho 1
OH 1
ael 0.8641162436383621
ands 0.10307098064370983
dorf 0.2524562551994398
Dresden 0.42956595413071236
you 0.11621496110290143
Aaron 0.7447566237571154
Child 0.717183277915388
Europe 0.06449539827230838
Gusta@@ 1
Television 0.3096274110389765
cop@@ 0.12634956027877903
pio 1
ə 1
1843 0.5117614169686853
Baltimore 0.41513870625232474
Sno@@ 1
ental 0.13656586393972592
show 0.053679930097790624
Call@@ 0.5989983883202528
Joel 1
Ket@@ 0.9819565682086254
Sophie 0.6707594823282239
gli@@ 0.569678967438299
igi 1
rati@@ 0.1875067027356314
uktur 1
1.5@@ 1
Aud@@ 0.5647655390005787
afen 0.9200639457265923
aliye 1
rail@@ 0.28855395102202375
rov@@ 1
sier 0.7285441255981276
Turk@@ 1
WWF 1
alie 0.5362803882051072
melod@@ 1
ovu 1
sei 0.14696389663497755
1842 0.4884190327960702
54@@ 1
Cohen 0.8917638322935477
Craig 0.6530419671049374
Fati@@ 1
Marcel 0.6155905409440856
Sant 0.9624396703608114
mali@@ 1
omp@@ 0.8032546263836152
Allan 0.8306197683641546
Wolfgang 0.48056423941144777
rest 0.1455863758093773
59@@ 1
Anth@@ 0.49226455648776857
PN 0.7089114223424444
Tour@@ 0.17699123628576385
andal 0.7418229691851345
asia 0.5907624356615568
nio 1
toon 0.8540005601211929
1642 1
1787 0.9294880382937755
Brandenburg 0.6161354529387608
Harper 0.992784984228772
Mercury 0.9446273572017428
Oz@@ 1
Petro@@ 1
cell 0.2551343135415261
jer 1
pto 1
2.0@@ 1
Antoine 0.43303127541787756
Lom@@ 0.7990909528558908
SN@@ 0.4552870544635877
Weekly 0.7628145049249658
eca 0.3934706932075736
itten 1
kw@@ 0.2897567754160829
1833 0.5308062069213669
Alpes 0.5133541666364928
Core 1
Tiger 0.812430777024392
eu 0.17203667670189865
23,@@ 0.9556824758822801
25.000 1
Drake 1
Fars@@ 1
Jol@@ 0.9445284207846464
Rü@@ 1
amii 1
aur 0.8850452300548765
і@@ 0.8750200772154478
Byr@@ 0.5338631394372944
Form@@ 0.457260113280618
oval 1
wat@@ 0.2307663295577492
Chand@@ 0.6559997105660016
Lane 0.4377123636089077
Law 0.16837444622339096
MHz 1
ON@@ 0.43627961626204514
Ud@@ 0.9547237638764593
ern 0.04507705036461765
esten 1
Box 0.5937815416296954
Shō@@ 1
Wolf@@ 0.6855032650090394
alo 0.46467049473295613
fort 0.11896233856755262
onist 0.5788526745760771
oon 0.287625493534615
Humboldt 1
Kepler 1
O.@@ 0.8880792891902617
Parad@@ 0.8939351626774027
sta@@ 0.44776704449061266
tier 0.14844974708426018
1838 0.48530034310466175
Award 0.07785440846420624
Indi@@ 0.16055246098178685
ROM 1
Satur@@ 0.7044343954518316
Schwar@@ 0.4299271561955552
With 0.08658898706648036
ative 0.040843360442952274
bron@@ 0.9049650418126407
lang@@ 0.17934411973487074
tas 0.193492486609936
124 0.9044289072103197
Donn@@ 0.4820195706419191
Guardian 0.6543771518332123
Pearl 0.7359356936952145
terminal 0.45358833130522547
vit 0.555879789750673
Anglo 0.6393372525477206
BL 0.8102024890103339
Cat 1
Et 0.8529010813325347
Riga 1
Say 1
Spencer 0.7049355697812941
Toulouse 0.5847049114889029
ono 0.49415587111357606
vul@@ 0.5184992750218346
116 0.9185406373376679
126 0.9006386525998632
Birleş@@ 1
Kenneth 0.8237992950047921
PR 0.6066627816626516
alen 0.15105597037276242
ebel 0.829230204672025
lett 0.7824469627471793
rand@@ 0.5339007029831199
SL 0.8809405399822486
Spr@@ 0.26371194993579683
cast 0.13204871326414488
hl 0.577808747389432
tril@@ 0.7463856452327474
Classic 0.5238835797848757
History 0.047662994086035956
Seine 0.12410767325146763
When 0.061171206349807196
XX 0.21771564084407363
adili 1
ifer@@ 0.8153144798077313
én@@ 0.07480709224965665
ś@@ 0.5508871268808582
22,@@ 0.9758271370738119
Dob@@ 0.7684182456122935
Three 0.2128061724156333
amini 1
esh 0.4099826918593146
kund@@ 1
Johan 0.9612774825778474
Prom@@ 0.44555291443017614
anten 0.34594869187129895
40,@@ 1
Creek 0.17643242066937342
Springs 0.5875768286877251
wil@@ 0.1840237823001037
1790 0.6036520498833412
270 1
Direc@@ 0.21857850234735934
Kings 0.5379110072531089
Wu 0.7480606710911776
andinav@@ 1
islam 1
obs 0.3559238521078332
papa 1
ring@@ 0.7418963493714271
tag@@ 0.25385298027280057
145 0.9714533873751393
27. 0.346814828006718
Fisher 0.779142382014122
Fritz 0.5253258545760382
Theodore 0.9798131844513142
finden 0.21565908894580826
itat 0.7776850926103782
motiv@@ 0.4381356411881121
plen@@ 1
Liège 1
OR@@ 0.8731884110746015
ful 0.09100508180215792
ă 1
Hed@@ 0.6114592201023413
Nissan 1
euro 1
ighton 0.65873610055799
yek@@ 1
Granada 0.7781224594518238
Württemberg 0.5209749190298142
atha 0.7270236282638124
elos 0.5930343536177477
113 0.8385390763178502
Blan@@ 0.44539019011102804
encer 1
otti 0.958776911068198
zim@@ 1
113@@ 0.836296497665043
Banks 0.9595191800420488
Ellen 0.8618339347593429
Kis@@ 0.930492001175974
Limited 0.4597447575399126
Petro 1
ga@@ 0.8223279749266412
lies 0.0857861362242406
Jim@@ 1
Luftwaffe 1
ror 0.320739900552314
26. 0.32087757271114137
intern@@ 0.5789184175023607
kii 1
vor@@ 0.04013865146364324
129 1
Bismarck 1
Foundation 0.1823877486892232
Nim@@ 1
Ring 0.5590326717767117
dom 0.2654938419409223
isme 0.1092064934423831
usu@@ 0.9511723311645255
280 0.978006736156899
Gamb@@ 0.8651010361503059
IT 0.5146758258542936
Müller 0.5278277790020214
Send@@ 0.8919822324641914
Take 1
asse 0.17642280115118117
Emmanuel 0.7608380389656106
English 0.05479376198721909
G.@@ 0.7781779006689575
Gabri@@ 0.7952501846991608
Marion 0.8667291283406005
P.@@ 0.6465392180539282
Rhône 0.6869866341055354
SMS 1
eson 0.8539871440208753
2500 1
58@@ 1
Janet 1
Nebraska 0.5914313969257665
Olivier 0.7848137731175526
Paraná 1
WA 0.5844462243127205
edia 0.7930722541237221
wa@@ 0.19384458636581303
114 0.8428067635023544
Ble@@ 0.43950527715769805
Const@@ 0.6038607961328122
Hend@@ 0.7657635250251763
USS 0.4631930552507473
XP 1
bistan 1
Standard 0.4017247379409124
Techn@@ 0.2365577836970398
Unix 1
Village 0.34297753135355297
aniz@@ 1
aven 0.4929208087061193
kez@@ 1
ostr@@ 0.7010272969456836
1595 1
3.0 1
Bonn@@ 0.538341128961292
Haj@@ 1
Kids 0.9359203497796372
Reichs@@ 0.26881211026768836
Side 0.6009928677106045
TT@@ 1
XV 0.3789504054468107
hici@@ 1
weight 0.15915948759126414
CO2 1
Hos@@ 0.6875013994306054
idas 0.1547537972552187
ols 0.11843382322739349
sportif 1
1827 0.6107857715372832
480 1
Heinz 0.6807554529715089
Manz@@ 1
Schw@@ 0.13227013201085985
engen 0.790283817542454
ignon 0.6284489787197015
olig@@ 1
ė 1
country 0.06043142409927863
ikawa 1
oir 0.15781572537217028
Erich 0.7906345181994864
Park@@ 0.6534637529052832
eks 0.7368695209835225
uel@@ 0.4152633974979666
vari@@ 0.07297736104107463
Drag@@ 0.6565646648077708
Vy@@ 1
Works 0.33977382752769036
kiz 1
yang 1
Crom@@ 1
Am 0.04575975873778695
Düsseldorf 0.5509124044939626
Lip@@ 0.9473709503842833
116@@ 0.806535740050582
Agr@@ 0.429405602341745
Blake 0.7918158146362491
Chuck 0.9195692066794579
Forum 0.5865313778258389
Fuj@@ 1
Heavy 1
Jeremy 0.9897089209025387
Kro@@ 0.5911697225141576
Nina 1
ft@@ 0.6917513122495094
melan@@ 1
meteor@@ 1
è 0.8316841791776205
Atlantic 0.23354380940719266
Bever@@ 0.8432534683039531
Clu@@ 0.38583427306323603
Crown 0.4479047171749326
Leib@@ 1
auri 1
orus 0.8879013872838277
romanti@@ 0.4719955654801992
131 1
18,@@ 0.7178728473732761
Extr@@ 0.48512210424175917
Planet 0.9282025638596507
Soc@@ 0.5837419856986916
Wend@@ 0.7098899307663576
Woods 0.8499775265150464
edeyse 1
fur@@ 0.23971597745324313
hp 1
mont@@ 0.3480669754562227
sana 1
43@@ 0.8724734382540653
Anj@@ 1
Bub@@ 1
Century 0.5253635350901052
Edmund 0.7409706964832374
Gard@@ 0.5245590249657651
RI 0.8293706123114135
Salticidae 1
aler@@ 1
atos 0.23697930031855713
cuy@@ 1
folk 0.4048495263460393
tube 0.5728683852029992
64@@ 1
CNN 1
Come 0.9152889702875434
Ler@@ 0.7019715327278528
Mount 0.20379581803930769
Werner 0.5100358679380086
aden@@ 0.5882618583177244
aldo 0.7446220225431026
gate 0.376933969567478
260 0.9634204529847079
Essex 0.7252947420723844
Franc@@ 0.3269702293790764
Pete 0.7662776715410196
Todd 0.7615039246851214
active 0.09054789272139588
iv 0.6766134144258388
Ferguson 1
Torres 0.7275218675268426
than 0.022811975540898206
CI 0.7943222823903054
Metropolitan 0.39760014976627234
iny 0.7268085125925633
jede 0.883993673711361
1808 0.5766541423481186
78@@ 1
MW 0.8112169513751653
Marina 0.6507064393206586
Neu@@ 0.14382274105623472
Tou@@ 0.352431443940531
luc@@ 0.789711661055169
Fe 0.5922249986856226
Inc. 0.2863808519595163
Rhode 0.7964752646661287
Service 0.12893121022673823
ampton 0.6247237812600622
enh@@ 0.14915427223218797
kilome@@ 1
occ@@ 0.5641472434892539
How 0.5880018095733587
How@@ 0.41107917671146077
Milton 0.8643065726897945
aea 0.9023173726593249
coin 0.8620243979162572
ös@@ 0.3701645200634551
O2 1
azzo 0.894562718308124
cester 0.6316820724759078
lion 0.2484500329176262
tun 1
Ball 0.5022737575844287
Berry 0.8653171312260217
Bridge 0.22765873126860994
alternati@@ 0.4570998725526338
bizi 1
dipl@@ 1
oyle 1
pri@@ 0.11151556683042843
Basketball 0.3626972563647811
Bennett 0.7034750608192993
Eh@@ 1
Magnus 1
born 0.0220779312131095
cari@@ 1
deren 0.10743972159087524
elli@@ 1
ique 0.07775443777841297
veter@@ 0.6678413809875572
22. 0.30896884192629004
Kid 0.9841963389675348
Technology 0.2412410231158316
Virgin 0.5453909874472205
petrol@@ 1
1300 0.9260064897630582
Blues 0.4357353887171745
Spiel@@ 0.13792938826234552
Talk 1
dre 0.3347210042962724
kupan@@ 1
ál@@ 0.40154727464597173
1400 1
Ear@@ 0.378679520051969
Fried@@ 0.44601083352045146
Golf 0.5744674600249554
Lomb@@ 1
Sa 0.1689225509688426
Site 0.7478366066539796
Sund@@ 0.5848235997287657
Zab@@ 1
sea 0.10332773687418847
118 0.9090129032104154
1786 0.9628775257133774
Io@@ 1
Nun@@ 0.9173599719961704
nis 0.1493365075633101
vu@@ 1
Caesar 1
Friends 0.6683255773562321
hu 0.8067458898276992
osh 0.7525884704641691
programa 0.24642296091141072
ruz 1
Franken@@ 1
Ivan@@ 0.9882368511080525
Jake 0.9519175869088277
Kingston 0.7812027581739678
Us 0.8224215561250979
bers 0.153203687572175
eten@@ 1
trum 0.45244504798230906
Are@@ 1
Augusta 0.9943009607208279
Córdoba 0.5609512776691026
Dame 0.3073669380706722
He 0.006413255051816106
Luigi 0.9846571340164936
cer 0.20051532042684342
jana 1
App 1
Rog@@ 0.5997386170244513
TE 0.7332403141202832
adia 0.788615751908882
berto 0.7457993222725438
führer 0.3348648124788875
Monster 1
Mozambi@@ 1
gios 1
harmon@@ 0.37759187350342527
Again 0.8368727507276875
Miss@@ 0.48604992692859267
Reed 0.7225000950760994
allo 0.3751386420702054
ards 0.09866375685537454
Buch@@ 0.1489752919076338
Fred@@ 0.9271579541054116
King@@ 0.5086904521480988
Mau@@ 0.29992912087378104
Sophia 1
aku@@ 0.952543646375951
angi 1
enton 0.561464115735648
get@@ 0.166621145654197
kham 0.9048230891116321
31.@@ 1
Bang@@ 0.5289783406197924
Hamp@@ 0.5887251263124348
Major 0.17156983008655197
Palace 0.370497497590549
UF@@ 1
eal 0.6881382547193753
ems 0.2141321352144348
haus 0.18453922538572115
ping 0.2060248117318272
1.6 1
Hill@@ 0.6062022827837549
Jak@@ 0.5158656041233373
South@@ 0.3110248840757143
court 0.07900033987252385
endr@@ 0.41673084648887376
ionale 1
lier 0.20841964846301617
polit@@ 0.6676198254974816
ril@@ 1
გ@@ 1
1806 0.48548241720736923
Ado@@ 1
Bora 1
García 0.344412118183955
HS 0.5562549651380435
Stevens 0.7289489603923462
ticus 1
Bern 0.7067112483255807
China 0.06472528564098524
Cran@@ 0.6669065386053677
bes 0.13535752252459302
hibit@@ 0.6874303390248652
ufi 1
Fav@@ 0.7441217200167718
Gene 0.8268733843240005
IF 0.7360669122468307
Karen 0.886512355199781
Leone 1
anyon 0.8616844012245544
ape 0.7138972517061427
bonne 0.34630012948421646
ican 0.20420578641072068
log 0.9549355716998373
oti 1
1810 0.4899831888077043
Alexandre 0.45695260456926645
Dark@@ 0.9867049823702202
ste 0.09159875080382401
Ł@@ 0.5139555539134509
AI 0.6770409953278799
Airways 1
Ced@@ 0.8673394538194036
Motors 0.8650487907725437
bei 0.013240391544884798
bia 0.5881131885017573
tari 0.9445101173237296
tit 0.9364502426865935
165 1
Ba 0.4826104534591799
Connor 0.8095154047101242
Kiy@@ 1
Lyn@@ 0.8205080198549085
NT@@ 0.7622026960229242
Swe@@ 0.6218752592237438
apo 0.6930415713445682
kari 1
life 0.027867838831502154
unge 0.5234009130441598
vers@@ 0.08993765872825471
DR@@ 0.895535767878842
Kamer@@ 0.9530432117965519
Laurent 0.510638102090771
Lille 0.7828787287531664
bugün@@ 1
AV 0.9035374483368743
CPU 1
Tang@@ 0.8085578983299384
UV 1
agram 1
andal@@ 1
bezi 1
ński 0.7891635058985479
Chan 0.9623086322919358
Jesse 0.8640593488896301
avo 0.8099427941749704
eko 1
ques 0.036657351433132
sia 0.5858180397757522
1.500 1
Deportivo 0.6864232324516829
N.@@ 0.6135927351099583
Pyth@@ 1
emo 1
facto 0.8188751213566138
Dram@@ 0.8698259955893811
UC@@ 0.4608151033436517
Put@@ 0.6452217317345302
Test@@ 0.573187616123693
Voice 0.7073925984271849
Wak@@ 0.5967157780578961
idan 0.8752996639628109
ld@@ 0.5633408882741867
pent@@ 0.5359273082074959
Alf@@ 1
Cus@@ 0.4677796464757738
Dw@@ 0.7681237788417711
Jag@@ 0.4745918696735435
Strasbourg 0.7401702893535393
Wy@@ 0.5141987938394247
Zap@@ 0.922883000523197
anni 1
batt@@ 0.12160820661926024
robot 1
tie 0.24005092172238116
ving 0.12569049596373957
Call 0.7929007167319508
From 0.06529617966801277
Penn@@ 0.663124849258186
Wells 0.6082554160883327
dor 0.987811341307395
jiang 0.8201435148482308
roy@@ 0.5924349991565843
132 0.9478026808409064
155 0.9287098928471901
19@@ 0.6030831750192422
Age 0.37018141871973553
Beautiful 1
Disk@@ 1
Köl@@ 1
Mann@@ 0.35412355452313504
Oro@@ 1
Pall@@ 0.8779322324965163
Rogers 0.5345268811790067
Spo@@ 0.616482675652498
Theodor 0.6786381732909208
Zeh@@ 0.7966176761402592
egem@@ 1
ingi 1
ive 0.294964037741913
oft 0.20281088364772445
sedi@@ 0.6966396609625112
ستان 1
1813 0.4845541569686391
Children 0.3464918219347835
EX@@ 1
Oliv@@ 0.8484426864473015
Owen 0.6778974670447007
Set@@ 0.9302674328776162
ank 0.656726699900503
apur 1
enton@@ 1
tius 1
vern@@ 0.2208120269416119
Bass@@ 0.3954710121293941
DA@@ 1
Dar 1
Jon@@ 0.6984705638753708
Lil 1
Norte 0.30251547242938837
param@@ 0.33861612910112265
water 0.04761706722774779
Card@@ 0.2594239547030064
Eduard 0.7225096287622359
Proc@@ 0.47776888632799114
xe 0.14246275490704075
175 0.8392670206741977
66@@ 1
Chil@@ 0.3140890388397823
Wed@@ 0.44245776424209665
act 0.06932280809058822
awn 0.58380391110038
che@@ 0.18609061987966183
rus@@ 0.2960457391316464
yth@@ 0.6204772669260397
EC 0.5113942247103286
Fall 0.2509983242042869
Samp@@ 1
last@@ 0.5446733147582437
libre@@ 0.8695124187673063
liga 0.207029426530783
naf@@ 1
sag@@ 0.4451461560922278
1819 0.5776578537075778
Alber@@ 0.6083784354600421
Camp 0.36262384618970706
Machine 0.6681617369460189
Mine 0.8684298987569778
icky 0.751128462565975
147 1
Bib@@ 0.6863101943903096
Cob@@ 0.45765797734387886
Fener@@ 1
Piz@@ 0.9708618786044974
Powell 0.7419559781246815
Software 0.47931262382226947
eine 0.007749567019323682
trix 0.4593344539563371
Canada 0.05709060041750515
DF@@ 0.6184247611580714
Gig@@ 1
Place 0.3471253020497572
aud@@ 0.206967492042446
debil@@ 1
opp@@ 0.23484749198452828
sive 0.06423788898545156
DB 0.7145103478528819
Deh@@ 1
Duke 0.2099465691550245
Gug@@ 1
Martha 0.7320416456324046
Poc@@ 0.8606689226690593
Vig@@ 0.7090569995984594
frey 1
23. 0.30217760435746593
Aragon 1
Here 0.4163237653814838
dete 0.1998376498703663
lain 0.4102769811628782
vert 0.40123252134175796
Butler 0.5683919791187338
Gibson 0.7496459456795372
III. 0.43800845709054725
Lun@@ 0.6129529696802587
Phillips 0.6107061341689104
19,@@ 0.7304176428182756
Lé@@ 0.32017000441194415
c. 1
yr 0.8482891938539382
ր@@ 1
Greg 0.6407532110191758
Heaven 0.9143981913642073
Lynn 0.8980146859265816
Prof@@ 0.26477480014016697
Seven 0.45785722747746044
Stan 0.9632868075361549
acker 0.40350019725096076
iris 1
24. 0.2971438296821656
Angela 0.9776275476307068
Un 0.06503860099926617
phus 0.8366700613347026
ę@@ 0.3906291772845525
1793 0.4933918597768373
Cay@@ 0.921487209368787
Clarke 0.6142378264157711
Heli@@ 1
Hughes 0.565343147311646
ansen 0.9867719063118086
bara 1
gani 1
quot 0.5245986028744049
Alpha 0.6821128637088869
Mills 0.6311662839666171
egan 0.8280984976308444
nin@@ 0.2562878323945546
s.@@ 0.8970660834975858
Ain 0.9945511140727922
KV@@ 1
Neill 0.8850334955950476
Rat@@ 0.3512256289933696
Thom@@ 0.845782092417817
arch 0.2713242226749927
cc 0.9639315889838915
minim@@ 0.4573973884792952
pac@@ 0.8680517447392024
schild 1
trof@@ 1
CL 0.9896751599332331
CM@@ 0.6591895468360842
Hig@@ 1
Pug@@ 1
kula 1
tani 1
ural 0.4606278630736857
Att@@ 0.6778875422633257
Cam 1
Curtis 0.7727892391483216
Dat@@ 0.577092068475715
Koch 0.8424010100423456
Québec 0.27507456876853875
Rotten 0.9293257193135573
TR@@ 0.8913692826368997
dex 0.7768509172168203
iker 0.17604777132349841
nas 0.753961547061453
ucci 1
zum 0.01453573684175927
ò 0.5372450909363594
119 0.9474869843032651
133 1
Brow@@ 0.6920506662858787
Fabr@@ 1
Kag@@ 1
MR 1
gens 0.3939795321629608
1792 0.5538608129485134
20,@@ 0.7021974965258656
737 1
Cla@@ 0.4527499208441893
Jor@@ 0.720548145350019
NET 1
einer 0.014007288450756156
evich 0.9256181807287489
irini 1
king@@ 0.329246434691041
vie 0.093819526648138
Edwards 0.5311960378179547
Flo@@ 0.4578189327231825
Gle@@ 0.3854466968330201
If 0.13617438271597362
Jack@@ 0.48335984395871523
Jo 0.8367706882547836
NH@@ 0.4904592625883052
cape 0.28559122965882733
wn 0.11731695846399312
53@@ 0.9427731187097165
After 0.02388306305896957
DL 1
Explorer 1
Mao 1
Westminster 0.6641610846569422
Zin@@ 1
aia 1
ulia 1
ás@@ 0.3047424516610633
1453 1
26,@@ 0.889236918900198
GE 0.8342945457775527
Gest@@ 0.24871943003921557
Lima 0.4424286503138355
Now@@ 0.5695372125049366
Systems 0.39037646935326015
Will@@ 0.34552008232127185
aise 0.14681127296950106
Bradley 0.7870849413927246
Dami@@ 0.8644104057377642
Fall@@ 0.42102287691673895
K.@@ 0.9558494049864815
SAR@@ 1
Tru@@ 0.7016367778489383
Yang 0.6682767292590585
sho@@ 0.10994361617778031
х@@ 0.04686534144797114
978 1
BE 0.6451428600033715
Mind@@ 0.551175769594959
dison 0.9328049277235665
ion@@ 0.2050833967456137
ories 0.09092045487199579
spur 0.9060310350258923
Duf@@ 1
Führ@@ 0.4138844690427022
Mail 0.8926224213918748
Queens 0.7394679282533999
Rep@@ 0.5106243859527578
Rovers 0.7794129488790418
Viol@@ 0.37809037455379124
essa 1
شه@@ 1
850 1
Angelo 1
Ra 1
Ron@@ 0.8144320787722835
Schmidt 0.5216958401883459
Vu@@ 1
1825 0.4735776624606078
César 0.5610059635752912
Hud@@ 1
John@@ 0.45921078462769777
Lenn@@ 0.7341645397441068
Sergio 0.8604265325610264
anthus 1
bis 0.011551658899308955
market 0.11407187482888533
ozo@@ 1
ual 0.09300769668417383
uku 1
Buck@@ 0.5775558871015053
Emil 0.7607254850584891
McDonald 0.8523661364848824
Schal@@ 1
WTA 0.8777921217323732
Wellington 0.5663585908993515
berg@@ 0.2151087919776663
ennes 0.15127307244947016
ph 0.49292720309135307
Brad 0.9972155076478054
Gut@@ 0.33287943893667693
Poli@@ 0.5402462236063401
Review 0.3733654876139091
irk 1
islam@@ 0.5826936929089758
Airbus 1
Honduras 0.7059982351617812
Jin@@ 1
Sonn@@ 0.2940527889136666
Wang 0.46274431815947364
brand 0.23165311939688735
hausen 0.27382699951483663
lane 0.44504986786669015
sley 0.5764859819262664
Diamond 0.6882238899482866
Ent@@ 0.20797496850625788
Linda 0.7415381764186098
López 0.3960995411297132
Script 1
Temp@@ 0.5728643443024205
azy 0.7463122055084138
erb@@ 0.5564218719570494
,000 0.346841277030628
Memphis 0.7188360714693323
SK@@ 1
Yu 0.8413358567390086
artisti@@ 0.3738876535238999
d. 0.3417116833408905
denk@@ 1
last 0.04655014408649938
oides 0.4112521562122066
performan@@ 1
rain 0.23270730944541385
ventr@@ 0.8443606446346548
ո@@ 1
365 1
Net 1
Some@@ 0.48533099171159116
aragua 1
dad 0.2622707320711343
nier 0.21065381160781366
pu 0.3637922609510088
Edwin 0.783252737290195
Fam@@ 0.40734242037508644
Grey 0.5902863503898527
Wars 0.4697204852683177
Weimar 0.8201253644512068
enten 0.12008457011341238
tney 0.7833144143764237
Brest 0.9606809741666821
Dru@@ 0.35535132282944604
Fit@@ 0.8952902298919033
Gregor 1
MD 0.6135276924478557
Rac@@ 0.5359685469464732
Them@@ 1
bai 0.5857700247720752
blog@@ 1
grad 0.8570246805722662
poly@@ 0.1853044705677497
152 0.9475603128535625
2023 1
Gonz@@ 0.49469743300950286
González 0.4156346131060482
Ind@@ 0.4175383432233578
iscus 1
lop@@ 1
pool 0.31510049133160695
wh@@ 0.08484958068387448
win@@ 0.2539802957280297
380 1
AX 0.8850533479112304
Brig@@ 0.2971436538864882
Ellis 0.7261743065152715
Ji 1
Provence 0.6194417848650932
arti@@ 0.24555200288666382
otte 0.25900045893442664
0,5 0.7273726005068614
Crystal 0.7932332548803348
Grav@@ 0.7074249638962871
Rhodes 0.8776707477322113
Shaw 0.6110852135169055
orb@@ 0.46955729139205676
zit@@ 1
2.2 1
Chase 0.7419663984296525
Roll 0.8098180345451813
allah 1
omy@@ 1
ს 1
1804 0.5752747587447827
inas 0.13228882755080607
у@@ 0.01872552109376182
América 0.26858902701521126
Glass 0.9231163323886499
Kurtul@@ 1
Under 0.165756803027272
azu 1
body 0.07320208943221444
deg@@ 0.660942851799351
ilis 1
ische 0.02158465700613992
э 0.21175631569088565
Albi@@ 0.9615773032437614
Lic@@ 0.41778247670605967
Lucy 0.6954996227108746
Phili@@ 0.7351002829914661
Song@@ 0.6729029799608641
bell 0.6814198518880735
gram@@ 0.9932364724584933
ingen@@ 0.6303642544280197
Warriors 0.8150943210027906
blues 0.6635384324684089
dus 1
tos@@ 0.7571151871912914
146 1
1809 0.5269548311807244
Bill@@ 0.583911864722794
Fou@@ 0.8093233272234343
Miles 0.6771497305181252
enz 0.11242811850642713
1801 0.5034022646367592
1822 0.5186072369398659
Fitz@@ 0.4338602229894734
Hopkins 0.7860124622033998
Weber 0.6700367766249945
dong 1
endel@@ 0.8144087240309474
heri 1
ial 0.13308150343229824
August@@ 0.5970131063360667
Celtic 0.6451263329899938
Covid 1
Faith 0.90160993893723
Klaus 0.5969765302535833
golf 0.5480321938703961
ovsky 0.7520229535637665
Jam 1
Kno@@ 0.2991673825555043
MV 0.8117502351877915
Maf@@ 0.8970124555750005
kali 1
omon 1
Kateg@@ 1
ead 0.44697262176098407
sah 0.4600491174229639
yün 1
1818 0.4747143198030139
Denver 0.5195674630631518
Format 0.8646249553686283
Future 0.537815095549571
Garr@@ 0.5704715744192147
Rita 0.9918205688627316
Sound@@ 1
navig@@ 0.34446731963886607
1.3 0.926832597670447
74@@ 1
Key 0.5682619231752928
Lot@@ 0.3659294537482679
Rho@@ 0.5678700701494379
SQL 1
Tu 1
Bid@@ 0.9538281505895208
Jr. 0.5177022325791582
Phys@@ 0.28495748776895446
Trinidad 0.7039713325091731
black 0.09767965267991795
Alliance 0.30563771561850434
antes 0.03795120032568224
1816 0.4771011514979843
Alonso 0.7502159739683907
Glo@@ 0.639176374289046
MT@@ 0.8857873833227615
Refer@@ 0.42734708253971804
Sph@@ 0.673435564942084
Val 0.4090018682612149
kata 0.8431351225704644
lec@@ 0.14737648898490976
Đ@@ 0.19202275517661124
1807 0.5339883530061573
Lati@@ 1
PD 0.501293907037818
Sussex 0.694479666488178
Trinity 0.4669278694277504
Year 0.1350891315949121
aan 0.7791265596153646
auch@@ 0.38720824721339653
emon 1
ensburg 0.5888681898782772
right 0.05841272494837138
Chester 0.6850805628918174
Field 0.20196563722989067
Hier@@ 0.2965377791294369
Suc@@ 0.38876447802245534
Tower 0.359251679419777
Trans 1
oud 0.262932471425952
CW 1
Jeffrey 1
elis 0.7779691180796251
imen 0.38061205424475775
itas 0.3153666955436408
uel 0.2844501863847454
Champions 0.27881770238125086
Coupe 0.2017592888969385
DM 0.6027604165497948
Hope 0.4954647583697982
erh@@ 0.202355168553958
mara 0.9013290430890557
qua 0.14239724263888254
ras 0.3386322118709623
sing 0.09016846826393751
sten@@ 0.39105618417290405
144 0.9413473924781557
Burkina 1
Lub@@ 0.629592576621248
law 0.05215745466297342
Chron@@ 0.32382381646524616
Clin@@ 0.5041175363756827
Eisen@@ 0.3273021667079507
Myr@@ 0.6735556030848286
Ou@@ 0.2750481146766426
blog 0.8935896756970404
dog@@ 0.4299381817653478
dra@@ 0.12320024051629842
idem@@ 0.5339305585207275
Beethoven 1
Bengal 0.5649202597176579
Lancaster 0.7859012619144122
Ward 0.38964716900594354
alta 0.30246625008348954
nati@@ 0.3136008662210585
rich@@ 0.09858873249944947
ț@@ 0.6656930861534472
Capital 0.35081641188853724
flü@@ 0.36463395623946565
ushi 1
Castle 0.20266969981920144
Coll@@ 0.3449354898706643
alom 0.740272944070018
asis 0.31370671530087885
sman 0.5051045093378768
Chal@@ 0.4461989256425623
Joyce 1
Maximilian 0.9282701649708004
Pear@@ 0.6125119348824233
Rain 1
Sach@@ 0.31908036652065286
chus 1
ovic 1
vs. 0.5139100939174663
р@@ 0.04735884548232824
Carmen 0.5535288935317105
Game@@ 0.6032794215547054
Holland 0.482829118127381
Marc@@ 1
Metacritic 0.8413589753942875
cim@@ 1
nim@@ 1
onds 0.23813049493449198
spin 0.5714474747591028
1824 0.46359120547561805
Alc@@ 0.8590028750468508
Alexand@@ 0.5366133667420534
Po 1
Waffen 0.8820634900835123
asc@@ 0.1593099691955159
dej@@ 0.4476598949957981
ense@@ 0.29784805449771495
taine 0.385085110963221
Desp@@ 1
Haus@@ 0.21055257507956968
Vladi@@ 1
acle 0.3548671321765273
endis@@ 1
ouv@@ 0.12408342649554147
138 0.9623711622572315
Gill@@ 0.6817991840866028
doc@@ 0.12535051410856404
ends 0.08755265526498303
ign 0.4395506518577576
oll 0.31001380425159347
strö@@ 0.7611077773259716
176 1
199@@ 1
77@@ 1
Atom@@ 0.8331856365950298
Bergen 0.6269483890259407
Heter@@ 1
Patricia 0.8251926110146038
Poz@@ 0.8718377779450626
ches 0.05195104693930434
mare 0.9210923307940377
è@@ 0.09461176467842318
141 0.9822935688033813
24,@@ 0.7749231994400383
Gw@@ 0.7007063085869644
oux 0.3135235615728409
Abdul 0.7329014326874076
Fantas@@ 0.8185921961043329
ieu 0.5166569149026571
к@@ 0.02656070702715685
Beth@@ 0.49321658262392654
Jonas 1
Lö@@ 0.33386124551110213
Movie 0.721890508276086
Run 0.5141784236782981
aft@@ 1
mail@@ 1
remix 0.9247366645662726
sy 0.40073847338194035
205 1
Elisabeth 0.41168560572875185
Geoff@@ 0.7469163775542453
Watch 0.7706720374461676
integral 0.7534001055654655
odor@@ 1
ongo 0.6354155354927349
orn@@ 0.28725287052572984
Laos 1
Plaza 0.3872277588160291
Set 0.8436159177664282
ces 0.03834201453873594
ector 0.30994664184829807
134 0.9591774589341943
AH 1
Das 0.01728475282811922
Gaulle 1
Happy 0.7835797309176809
Hero 0.8831866899831724
Only 0.2845454096289292
Quebec 0.3079692572658231
rant 0.1492371831872372
--@@ 1
216 1
225 0.9849637679153116
Alfonso 0.45401855796678825
Auto 0.5298391687802021
Borough 0.5416867455014603
TNA 1
Tomatoes 0.9243384803262591
Turkey 0.277873741383535
lada 1
Fernández 0.44793375673826713
Foc@@ 0.9943709054029869
Macar@@ 1
Togo 1
Vie@@ 0.31537254892807726
nec@@ 0.2348368136027025
pp 0.9261415173790527
real 0.08666028378779683
AO 0.9198416910840719
Hamil@@ 1
IL@@ 0.7815744100889526
Sin 0.12124469750553112
Sle@@ 0.6216952160920384
Wan@@ 0.7191767344417572
apolis 0.6369285723706785
ball@@ 0.12912000557323666
sdorf 0.2804912575250839
ه 0.14463794902832888
69@@ 1
Adol@@ 0.4383582289110618
Aeg@@ 1
Know 1
Salt 0.6320152738038897
Samoa 1
Sang@@ 0.5439047770695492
Stade 0.5209454786457839
estes 1
gro@@ 0.0796441343372265
iku@@ 1
ils 0.03521379568679376
lau@@ 0.20645720994585035
ofu 1
quin@@ 0.3151699812259816
1788 0.7035645395364556
1798 0.5338131313030754
nus 0.6875765350006315
1100 0.9366935131537809
Betty 0.7541019593535939
Bras@@ 0.548877762554896
atidae 1
azi@@ 0.661476211341841
bourne 0.7664818893337685
nde@@ 1
pic@@ 0.11396261794125498
usi@@ 0.1656099694471395
Away 1
Electronic 0.863865411637306
Garcia 0.7521476391590132
Hammer 0.9718916745082389
Myster@@ 0.7983638606718867
celer@@ 0.5517415240076747
color 0.10522892248965526
kran@@ 0.5273338200157064
nez 0.9351024703058001
self 0.10463943510725109
ń@@ 0.5788757798306011
1774 0.81892882270172
Alto 0.6054979882208403
Bald@@ 0.6560741613455364
Hood 0.9240261061786554
Lay@@ 0.8645726353702614
Sex 0.7599670396680974
Winter@@ 0.2422498743369115
oshima 1
phone 0.19766681120113277
reci@@ 0.2773736924242306
Car 0.4291225914851315
Coast 0.16888871181091242
Reis@@ 0.5099501680463675
enge 0.5337040781379064
monit@@ 0.478120564608222
osi 1
pei 0.9968166318514052
tum@@ 0.3444496768042333
About 0.2733446250231909
CF@@ 0.5316967769789934
Fischer 0.5258635957575774
HD@@ 1
Luna 0.6813751581509393
cartes 0.4375304675772514
mol 0.9682852532602014
ree 0.20754224226754103
toler@@ 0.5329133673337813
ustos 1
7.5 0.9373754696765744
Lokom@@ 0.5119669961297001
Utr@@ 0.8360077957271331
Winston 0.8753362821831356
eas 0.21127400041274283
one@@ 0.6948417797909126
sions 0.07765929480799376
ʻ@@ 0.879987919993383
Aber@@ 0.39985635931789854
Vera 0.8412912374752958
ata@@ 1
kowski 0.9348984137510222
roc@@ 0.16757278266567324
veh@@ 1
Idaho 0.6718538269186413
KS 1
Lionel 1
Monter@@ 0.7195986973465752
absor@@ 0.2544643471146324
dium 0.30480378116301526
eos 0.6056832474958819
night 0.09776835549956797
rehabilit@@ 0.7427504758418858
tern 0.12351074926459156
א@@ 1
1791 0.5836002396611474
Centre 0.10523131920342706
Enf@@ 0.9749074346888786
Ferg@@ 1
Grand@@ 0.6843240793430674
Human 0.2545983960205421
Ruth 0.5448804981512113
SP 0.6497509235714964
Tetr@@ 1
Wis@@ 0.5630964993151623
eville 0.4735817039297887
firm@@ 0.5163861388865414
ria 0.97018633331024
Javier 0.6326731459942768
Mack@@ 0.4553901900544837
Nation 0.3753171498483509
Sot@@ 0.9781520903828033
dell 0.774365143967695
elles 0.04805061184150604
mud 0.8761937833959688
optim@@ 0.42577350566498373
ysis 0.49054242016335575
4.5 0.7879255907244312
Discovery 0.7207594590163741
Forever 1
Percy 0.9173988211401947
SU 0.6793921186586832
monta@@ 1
tera 0.2488277987191697
136 0.9183647453628012
Braun 1
Dag@@ 0.4913801966075496
Full 0.7886702409975572
Nau@@ 0.7500045982605663
SO 0.944937015058394
Swan@@ 0.797865515151101
anol 1
indis@@ 0.8791426362517392
micro@@ 0.1611565921406335
ová 0.8852850227733844
Eduardo 0.4824517686890976
Gim@@ 0.7835260067033146
Leslie 0.662692276333149
MO 1
Nash 0.9738961757877743
Olymp@@ 0.584242318971608
Our 0.37446180081608627
hynch@@ 1
pic 0.3175663865221042
tens@@ 0.6295967150456613
verse 0.11288798616037012
Cyr@@ 0.6221442218249269
Rodrigo 0.9348852182085128
Tō@@ 0.996621444954957
death 0.04241612046645098
dei 0.76969100820834
zip 0.6283932429103131
Duncan 0.657564385698509
Evil 1
MIT 0.8636545316764425
Marcel@@ 0.8847642295275379
Or 0.4568766889933529
Ost@@ 0.12931028816184587
ality 0.08888867370626383
echt 0.39036023698234323
odes 0.3489065933959962
tara 1
Bür@@ 0.5560172535856357
Chamber@@ 0.9813945259085274
Freiburg 0.5740076824816126
Port@@ 0.5582851452449645
Tito 1
phy@@ 0.2708279044344456
HTML 1
Hyp@@ 0.6119838544324567
Joy 0.9518582621733249
Lew@@ 0.8286374177361435
Lif@@ 0.5850401546828488
Liu 0.5311412942437987
Next 0.528108818449252
isco 0.8826046842078271
jit@@ 1
Bam@@ 0.6097968165544243
Kras@@ 1
Logan 0.7986968599820796
MT 0.8069505274855931
Mainz 0.6089483926624852
Rodríguez 0.40272358882227155
Smo@@ 0.6887982576701425
arron@@ 1
ety 0.22253315877235932
flora 0.597414268545458
kid@@ 0.39561395264054555
Étienne 0.5113185093031495
ר@@ 1
Coul@@ 0.7720532420586358
Dus@@ 0.7171893738328097
Dylan 0.7205190929725577
Infin@@ 1
Kenny 0.7680480168610665
Silver@@ 0.8374706429857125
Southampton 0.8530986362752692
anum 0.6586863518827479
cum@@ 0.31391868251274724
enst@@ 0.23630905150925186
onica 0.8995543952406085
tag 0.2319408750674463
166 1
Chen 0.5769016245414527
Dream@@ 1
Gay 0.8112882026499302
Generation 0.4555105280410946
Meyer 0.5286933449535788
Price 0.5318622723988209
Rin@@ 0.6180425387552781
Thomson 0.8028230677325325
efe 0.43994552096013784
inson 0.8461804377408977
oras 0.4804400439347296
yx 0.9412629730691393
Abel 1
DT 0.8962901152470027
Design 0.21442328993362542
Europa 0.10366079286404639
Hunt 0.5536543055418028
alaya 1
dol 0.935293373373282
ock@@ 0.1629170234625892
ood 0.6165002424541999
ós 0.7426031551493464
1817 0.47066258144251477
Alejandro 0.5322654317217933
Davies 0.6194533829007739
Malcolm 0.7328378947440664
Mord@@ 0.7202943363311013
Obr@@ 0.9934098372136345
eves 0.4641732105642238
lug@@ 0.4258535802920114
progres@@ 0.21414641791958783
works 0.04617660466809165
Asi@@ 0.3397928174871141
Five 0.2973068473099618
Luther 0.6401726665545119
Paramount 0.8675189768461623
Pat 0.6050181023476535
atl@@ 1
bio 0.31587933129884593
icul@@ 0.32180244872607683
± 0.9647972354742106
ís 0.5171941875631294
1805 0.5021499527240749
Alexandra 0.7782772258014433
Jenn@@ 0.7615508105657176
NFL 0.2103657772665582
inv@@ 0.08422750939879539
lee 0.7199803841933886
uer@@ 0.12120693242791643
BSD 1
Bloom@@ 0.7126726260392015
Brom@@ 0.6533775393379404
F.C. 0.3696915804906139
Hull 0.683951110938169
Snow 0.7674154156254764
Sob@@ 0.8885370205354494
UL@@ 1
left 0.035483430955964804
paras@@ 0.585638506712063
Annie 0.670678266049504
Cath@@ 0.47343867888335056
States 0.021775021177255292
lap@@ 0.3857656245291703
uss 0.1619388159229526
1.8 0.9392303493343624
154 0.9799102553410819
99@@ 0.9264189167196019
Chang@@ 0.49360622558166645
EN 0.872263394725303
Horiz@@ 0.7147159744591173
Nom@@ 0.4029804422728141
Paula 0.8936745335344475
Rush 0.8707157075823443
Special 0.19463108493697423
chum 1
mis 0.12477238036866771
onde 0.29151102349300545
world 0.0382269533464051
ტ@@ 1
1783 0.6555424283013286
1797 0.5615940512220975
1811 0.48277643243238527
Belle 0.6571280783792335
Christine 0.6115060607686892
Dra@@ 0.4597411836864047
Zu@@ 0.3241264263566414
beck 0.4771326361009355
jon 0.5991162201797366
limi@@ 0.9552745357857336
1780 0.6033328395875991
207 1
CR@@ 0.4749188300779585
Computer 0.40467944152931423
Derby 0.4709234750527429
Falls 0.3629094377927813
Hann@@ 0.7466089763243422
text 0.12978762060992063
unga 0.8028619937178922
ān 0.9406981694702946
137 0.8952555601354791
Eff@@ 0.26732884324701184
Gabon 1
Harmon@@ 0.7361087401649485
LD 1
Schrö@@ 1
Winter 0.1825087353243154
ox@@ 0.15509446655593034
panel 0.4266382499747727
sberg 0.33592595382931173
urn 0.3323291298698234
Dog 0.7015127331567896
Films 0.2927920886405464
Pius 0.9181352744792338
Zero 0.7508154697673224
ayer 0.32631271051382904
mart@@ 0.5413235753091241
1795 0.49775325104565066
Chan@@ 0.4830966410351633
Hasta 0.802800551508478
Lut@@ 0.613229811295524
Multi@@ 0.4300213386019987
Zhang 0.5832898651394942
avia 0.470532847419523
eni@@ 0.7411342119416454
poli 0.6758091844464952
som 0.5781487667604706
Main 0.1590508062959688
Sunday 0.2322466376349482
Tud@@ 0.8375079461887376
antha 0.8368362953047737
atic 0.08076578426361102
aurus 0.7509044597561197
gren 0.8963706975087499
ids 0.0881799520509084
tions 0.021403645437975467
wei 1
156 0.9977990107789945
Andrews 0.6404500722733625
Brab@@ 0.8321353832508694
Ha 0.32551778633851036
Imag@@ 0.5127135809079651
Jus@@ 0.21327932956590298
Sofia 0.6617984080158079
Witt@@ 1
aham 1
anner 0.3879878900885198
0.6 1
AU 0.7037796688490167
CP@@ 0.34603222232224606
Domen@@ 1
Hug@@ 0.5801560518432651
IR@@ 0.5308765952270686
Jackie 0.8975142856663616
eur@@ 0.22449018208907556
orio 0.20471390849801654
rico 0.7065341313604762
tico 0.12733147198854247
1823 0.4675939863647477
Bien@@ 1
Columbus 0.5448986112156641
Mar 0.409175478768712
Richmond 0.3556310313517126
There 0.030439687769027193
Xavier 0.5848359966136549
pound 0.42805577783907023
role 0.048103927323072844
tend@@ 0.12056189309413613
upp@@ 0.8808960513070111
ος 0.12006839875619675
Emp@@ 0.20743321210066437
F.@@ 0.4943685811153188
Obj@@ 0.33715087353875145
but 0.007488339725227901
ll 0.4658027264200919
ride 0.47401053315419184
usan 1
verm@@ 0.9709220782264819
й 0.02087511360051328
Flora 0.5694348377393655
Hal 1
Loire 0.29829531840214163
Well@@ 0.6170672297406568
arts 0.11609695313811347
fax 0.43423395032246553
litz 0.5386336673878768
unya 1
zel@@ 0.6673853428197849
Bas 0.36679850806916775
Kw@@ 0.8894650493265223
Nine 0.6232397002158421
Pog@@ 1
eon@@ 1
other 0.010970033289635181
О@@ 0.0256481824453505
Ghost 0.7994274853428482
Kyle 0.7291255126961704
Mend@@ 1
Saar@@ 0.4552404054323722
Wid@@ 0.49051027666425273
petr@@ 0.6505465012518348
6000 0.9185011820491682
Anadol@@ 1
Beşik@@ 1
Gad@@ 0.6809453643062364
Preston 0.7104343936448384
Scr@@ 0.8818414325236589
arios 0.08237999124399774
dot 0.8661341038464212
ision 0.17236961987923544
lea 0.6228786065391415
other@@ 0.15082054101340459
rez 0.5360223567549313
Auguste 0.4767630517200034
Castel@@ 0.7938069566632813
Hadi 1
Ling@@ 0.9188554881663338
Public 0.11671206883832472
double 0.10889762221156644
duc@@ 0.13252976091832336
eir@@ 1
fried 0.48725720955904117
rail 0.23653120353541912
tex 0.706215722197659
233 1
25,@@ 0.699238205421709
63@@ 0.9668372574292954
Bih@@ 0.8751263245487595
Bundes@@ 0.07894242474724776
Calvin 1
Council 0.05310119950849495
Delaware 0.49405969679395617
Hau@@ 0.3701641849130309
Hof@@ 0.19741238402287659
Papua 0.9262483973972795
Sega 0.9456836296263965
agus 0.7390074835951718
brid@@ 0.3161134476078197
idel@@ 0.31704271277899837
1802 0.4698193684843686
217 1
30. 0.21378110932246505
Ami@@ 0.7374912426590622
Animation 0.9922929355809437
Diam@@ 0.7027249630985716
Jab@@ 0.7730280960948263
Jesus 0.23909425889902786
Sex@@ 0.39016674143456115
Trin@@ 0.48788358709246105
Windsor 0.6615351187194874
ero@@ 0.49306039275701585
pra@@ 1
Church 0.05153383812603502
Pittsburgh 0.3078530217892869
Richards 0.7045589285136922
anza 0.18508261211334212
ating 0.022897365064451808
hot@@ 0.36903773701702847
kik@@ 1
ool 0.7593972098449066
sio 0.8852902224623043
vio 0.3007321359643055
Alberta 0.3816527711527709
Bowl 0.24471972840573086
España 0.09302376949727936
Gerald 0.6620711657742336
Harbor 0.5030097244841268
Hoh@@ 0.26831422170772756
LS 0.8295326628949581
Mind 0.8263456884974305
Moder@@ 0.28784962023075283
aji 0.5232964236032153
delta 1
jk 0.997288354330158
ross 0.47582521493311064
Quint@@ 0.706693848012049
Uru@@ 1
osom@@ 0.6336641365162822
Capitol 0.6822546222483302
Fair 0.47101715185510307
Jura 0.7434195565707356
Re 0.9145897782360685
rier 0.182800887835414
ufu@@ 1
ène 0.1285641582361973
ե@@ 1
1776 0.6335564308459818
Devil 0.7455937965511397
Edit@@ 0.8009224428369952
Gran 0.20438932481710892
Hadi@@ 1
Marin@@ 0.5124446538887306
Nantes 0.6195851620884031
SF 0.7856583316387307
SN 1
oster@@ 1
retr@@ 0.18911381574095115
uku@@ 1
21,@@ 0.716140400914411
Carp@@ 0.6128719687050648
GmbH 0.2541085154185989
Siemens 1
anger@@ 0.5214669037602389
itali@@ 0.34895494907103575
leist@@ 0.24337588028501725
tn@@ 0.3051660046623748
western 0.07204312101444915
xx 1
Ago@@ 1
Aph@@ 1
Emb@@ 0.5856756902465443
Epi@@ 1
Gis@@ 0.7107363050791093
Kingdom 0.09240410331633159
Luz@@ 0.5335631515198473
ą@@ 0.4795258820382586
Bo 0.9185062723904563
Carroll 0.7647084934717573
Eis@@ 0.22860037488294338
IUCN 0.952830124124031
Tech@@ 0.6270606753187945
Tof@@ 1
culus 1
gon@@ 0.8440808341743516
kai 1
live 0.06334223393042779
olm 1
onder@@ 0.3399279510011772
1- 1
2.1 1
5.5 0.963314859803476
Dau@@ 0.39122062789213474
Faso 0.9806204301660558
Fru@@ 0.40022345461442627
Kapit@@ 0.27404144654326984
Laf@@ 0.4671289430167984
Second 0.09905425936976252
Tub@@ 1
oceph@@ 1
ship 0.031955768076749214
Alba 1
Inn@@ 0.23272106861865588
Lod@@ 0.4425191166578149
Reynolds 0.6529686601700359
assi@@ 0.18678732089398323
enia 0.6431351396589907
inj@@ 0.2941256244302749
nos@@ 0.9019531033758561
Dé@@ 0.1120408192152619
Giac@@ 0.894212920287753
Paral@@ 0.7464978857565228
Río 0.21590815559057494
Sper@@ 0.5986715525972434
UR 0.9890329399357862
Ug@@ 0.9701021289296241
cho@@ 0.10833856175269453
engo 0.9266863065069227
row@@ 0.3556674569103493
än@@ 0.08510648275410528
Dong@@ 1
Saturday 0.30900737657987326
global 0.18820758539427107
lide 0.6215433283375407
nad@@ 0.9989642299934937
olph 0.5783023942212858
Audi@@ 0.3034979409976933
Edo 1
Gloria 0.7590959607091774
Greatest 0.8441778360912578
Kik@@ 1
Vinc@@ 0.6229233580513908
abu 0.9407618117179173
ellidae 1
esse 0.08997821701277936
fem@@ 0.4786502986716462
flam@@ 0.37469737459142577
format 0.1404692025717078
magaz@@ 0.34431576241644174
torio 0.6000133034958696
tronics 0.5546316741644658
Doh@@ 0.6922433616926467
Fan@@ 0.7054587811811122
Guil@@ 0.526880303099701
IV@@ 0.7481796625826193
Sr@@ 0.6529785008898169
Week@@ 0.7903713314652235
amis 0.45025568362257334
berry 0.47455960972612976
ppi 1
ute 0.08813843036252518
ქ@@ 1
Beno@@ 0.6850741559880105
ED@@ 0.6988184251054496
Liter@@ 0.23688296452021862
Margar@@ 0.4289313218424118
Simone 0.9702606357243034
Springfield 0.6771795027230183
True 0.7618822089212804
azo 0.24743501569449955
beg@@ 0.06672062571449032
lé 0.4955944035339652
oder@@ 1
zel 0.37252786782258923
143 0.93956461472379
Coun@@ 0.22200958219379394
Grove 0.5256375446991723
Henderson 0.63767130038812
Make 0.9198694106402867
Night@@ 0.7933227392429247
Wr@@ 0.6468815598306641
asili 1
funk 0.5162004854130576
ules 0.11605021199251465
163 1
185 0.9168705687409399
32.@@ 1
Beat 0.820729136134339
Gate 0.5659196763646596
Memorial 0.19746671687489217
Nord 0.09351885316096485
Quer@@ 0.39545183248146204
Today 0.21298578134473467
entry 0.1661033360198369
tice 0.3981276949881889
148 0.9707076589935276
1803 0.40159802703369823
235 1
Mans 0.5654487911545141
Mia 1
Sign@@ 0.27509510786056396
ampli@@ 0.2819094297915755
chu@@ 0.4728157107070495
fle@@ 0.1269066780496246
imp@@ 0.08916949895689305
mund 0.6599162734375534
war 0.0058032395073388575
5,000 0.2758553278485865
Storm 0.4402186744893452
idor 0.584757536517583
pres 1
tain 0.12570040035551205
ő@@ 1
л@@ 0.028729676280732787
Barth@@ 0.5547028600309496
Göttingen 0.5982059482933535
Heights 0.6020599517959975
Lara 0.9749322994483355
atu@@ 0.6406885630452385
cy@@ 0.20777697623784067
Cardiff 0.6136640925838989
Control 0.36380476179917487
Konrad 0.629086455916725
Soccer 0.3771356942781698
Turkish 0.24123274312520612
Yo 0.9719506077045763
berland 0.5205595780128232
dov@@ 0.9538488285679729
ying 0.04395975444214034
139 0.9572783985947254
HK 0.8105646335053645
Hannah 0.8140073046829375
Orig@@ 0.2878064513357312
Rif@@ 0.5425480897909478
Tum@@ 0.7332906451236327
anst@@ 0.7201856253183679
ellan 0.9280316742105084
emin@@ 0.49107110187645603
prin@@ 0.1718824879447252
ridir 1
rut@@ 0.4608083084558211
267 1
Jeanne 0.49541706189959694
Tell 0.8984724574116597
Vicente 0.49728028151888753
ablan@@ 1
ean@@ 0.4395807197611038
imin@@ 0.4226054998684497
ladi@@ 0.6136298685949154
nith@@ 0.7538955289776477
wing 0.057771325222099205
₺ 1
142 0.9018984011888364
Audi 1
Cit@@ 0.4271467341965726
Jung@@ 0.29982315137989424
Nixon 0.7513002193800528
Rau@@ 0.4125437558674601
Sacram@@ 0.6588814303206431
horn 0.3724817974658232
kard 0.944904166045713
teleskop@@ 1
xon 0.5484235869227226
Chang 0.7482740721041187
Face 0.6446905532164887
GO 0.7044498387209456
Joachim 0.491840291079736
Universit@@ 0.4807329803622307
ening 0.12475270611985224
enni@@ 0.20793198702177737
1794 0.46009507418423845
37.@@ 1
420 1
Cri@@ 0.3279432734609694
Gram@@ 0.970688558809178
Many@@ 1
Zaragoza 0.7303423856294791
dro@@ 0.11389413346767698
ecr@@ 0.5583288282845019
enna 0.6483544338848705
new 0.013405051075863489
árez 0.6268168722448744
● 1
950 1
Boc@@ 0.6313739992183403
FF@@ 0.5042757289017925
Heidelberg 0.4405117597521874
Ré@@ 0.09494968364310777
brook 0.547125742753863
ectus 1
jar@@ 0.34308778807406254
opus 0.5403791237776251
ík 0.8007422525085441
ն 1
195 0.999885095559749
340 0.914543081909045
640 1
Camille 0.9366098050650272
Edir@@ 1
allas 0.5374608478862948
anor 0.7796774154094965
bani 1
cat 0.46800156945859295
Wein@@ 0.22151623287378056
shan 0.7456647523995626
tian 0.2519922887743126
38.@@ 1
DD 0.9128752729143743
Dop@@ 0.956396744277826
Dorothy 0.702073140651861
Gang 0.6066649260032917
Lex@@ 0.43739759079838836
Pix@@ 1
bro 0.5344551044884647
draft 0.24629478276213557
inum 0.43107791811492985
orca 0.8378977193978763
rh@@ 0.27851534712474824
Benin 1
Lang 0.6336099500865835
Premi@@ 0.3304148539410313
Quar@@ 0.3232301583162775
Theo 0.3120911183395235
alu 1
drei 0.041794278690728506
onas 0.5567539208195244
ubil@@ 0.6591267517656401
Nath@@ 0.643151361267957
Toledo 0.49172719714795876
akula 1
eur 0.047190951529850186
i.@@ 1
orno 0.9947047798656053
pro 0.12024462703953438
station 0.025114880760374606
ylo@@ 0.7011033645709619
Baptiste 0.4560172196999663
Linn@@ 1
Martín 0.339398729668894
Rapha@@ 0.7820483285381191
Vau@@ 0.5958477565480634
Wyoming 0.671859265970566
endorf 0.24415410160644982
quel@@ 0.30917546129112433
unds 0.09793319158912349
Books 0.35832934818248174
Erzur@@ 1
Ka 1
Seh@@ 1
agh 0.5032008063157103
okrati@@ 1
recht 0.14635420270146773
Alexis 0.7995519021312198
Bird 0.5181905998622589
Fün@@ 0.496722269143268
Show@@ 0.6883277777144783
V.@@ 1
dle 0.38346535855752095
.org 1
Bör@@ 0.8132482372268156
Florence 0.33269167357380536
Vietnam@@ 0.5018881762112393
anal 0.7073444591298924
Alvar@@ 0.811927875434985
Broad@@ 0.47447811263760004
Jagu@@ 0.7758852923311725
Ruby 0.9895676968646512
Stil@@ 0.3510298343788576
forme 0.06435206468831424
sian 0.16461362852168007
Blin@@ 0.577126982266512
Enrique 0.34499631580606455
PL@@ 0.46139177182089053
Stop 0.9098842737525935
Work 0.38775056069802133
arta 0.6386840345062083
Beck 0.6523440850945496
Benedic@@ 0.5542787551326472
Chev@@ 0.3766448779372621
Chevrolet 0.8698469461134377
Marcos 0.5975039426034893
defin@@ 0.09442211259146131
obr@@ 0.5184307553559332
tina 0.8958248890158906
Abd 0.8662729856403656
Autom@@ 0.21381631798855252
Avi@@ 0.6087710169103383
Bilbao 0.8682153017516668
Fron@@ 0.34286197127314005
Isa@@ 0.7890453888563289
Kass@@ 0.8558855602171487
Montpellier 0.749381246468128
Nassau 0.5881846690811984
chwitz 0.8949793998353068
multi@@ 0.11767223526339182
qui 0.006660599474061046
wak@@ 0.23532838006411175
Cristi@@ 0.7360432570368913
Raw@@ 0.6802556521768579
Right 0.5253788044203054
Sylv@@ 0.8681647168650782
Unic@@ 0.787338866992645
Walk 0.7782596011598119
stream 0.14394281699767741
äl@@ 0.08195562213949163
μ@@ 0.1613045024123253
CR 0.4339592412205794
Du 0.2209749035782382
Earl 0.2010806360028753
Production 0.19270327078261942
Rug@@ 1
View 0.6935541082084331
XVIII 0.23617335818449076
ilus 0.798424789459448
ographic 0.22637252610740147
pez 1
seli 1
158 0.9998234504481412
1770 0.6351426290383214
Jaime 0.7284783005040547
Township 0.14792690699721586
amos 0.25232085831128176
background 0.16770880547571548
lois 0.2658663850714786
mari@@ 0.16684955300926452
oun 0.321818793905422
vas 0.23323960016972195
zina 1
1660 0.8354677155563629
370 1
Als@@ 1
Bath@@ 0.7112002134880155
Bund@@ 1
Chi 0.44345763412799033
Chrys@@ 0.6728925892439532
Kau@@ 0.6649799774250938
Milwaukee 0.49429800099093013
Notre 0.27082588433400856
PD@@ 0.9113426846785352
mid 0.08125572016511794
pati@@ 0.4829704842410003
utz 0.5863877404720346
[...]
