. 1
, 0.9985986887897893
là 1
và 1
&quot; 1
của 1
một 1
được 1
trong 1
năm 1
có 1
các 1
) 1
( 1
này 1
đã 1
người 1
họ 1
ở 1
với 1
loài 1
cho 1
đầu 1
học 1
vào 1
@-@ 0.4548317647736912
thành 1
tháng 1
số 1
từ 1
không 1
đến 1
những 1
tại 1
khi 1
tả 1
tiên 1
ra 1
ngày 1
khoa 1
thể 1
Loài 1
đó 1
vật 1
: 1
công 1
thực 1
về 1
để 1
thuộc 1
sự 1
như 1
ông 1
bị 1
trên 1
chính 1
sau 1
dân 1
gia 1
quân 1
nhà 1
động 1
; 1
lại 1
cũng 1
làm 1
thời 1
hiện 1
nước 1
nhất 1
mô 1
Nam 1
sử 1
phát 1
hành 1
bộ 1
nhiều 1
T@@ 1
theo 1
hai 1
hoa 1
khác 1
l@@ 1
việc 1
quốc 1
quan 1
B@@ 1
con 1
sinh 1
thế 1
chỉ 1
cùng 1
xã 1
nhân 1
C@@ 1
hình 1
hơn 1
dụng 1
chiến 1
định 1
do 1
thứ 1
b@@ 1
m@@ 1
Quốc 1
đồng 1
xuất 1
L@@ 1
1 1
viên 1
còn 1
2 1
độ 1
miêu 1
Trung 1
thị 1
M@@ 1
cách 1
tỉnh 1
nó 1
us 1
vị 1
t@@ 1
tên 1
H@@ 1
cuộc 1
bản 1
n@@ 1
Việt 1
/ 1
ch@@ 1
c@@ 1
giới 1
trở 1
bởi 1
hợp 1
Các 1
lập 1
nhưng 1
rằng 1
khu 1
phía 1
lớn 1
cao 1
điểm 1
bằng 1
tự 1
phần 1
đội 1
3 1
đại 1
nhận 1
kết 1
chức 1
trước 1
hội 1
r@@ 1
trường 1
giải 1
S@@ 1
hoặc 1
Năm 1
tiếng 1
Anh 1
vùng 1
cả 1
Trong 1
h@@ 1
Th@@ 1
phải 1
trình 1
gồm 1
thường 1
Hoa 1
tiếp 1
đ@@ 1
điều 1
lượng 1
th@@ 1
chủ 1
d@@ 1
s@@ 1
qua 1
- 1
phân 1
lý 1
sản 1
Kỳ 1
mà 1
thống 1
D@@ 1
loại 1
sẽ 1
tế 1
huyện 1
cơ 1
anh 1
trung 1
tính 1
diễn 1
lên 1
i 1
đối 1
N@@ 1
phố 1
v@@ 1
bao 1
tích 1
vụ 1
gọi 1
thông 1
sống 1
4 1
Đ@@ 1
tác 1
đi 1
hàng 1
bắt 1
phim 1
tạo 1
vì 1
lực 1
V@@ 1
mình 1
nhiên 1
g@@ 1
quyền 1
vực 1
5 1
Ch@@ 1
hệ 1
cánh 1
địa 1
Đại 1
trị 1
&amp; 1
đường 1
lần 1
nghiệp 1
giáo 1
tr@@ 1
đánh 1
diện 1
chi 1
nh@@ 1
cấp 1
K@@ 1
đấu 1
ia 1
chúng 1
x@@ 1
an 0.31559865096129347
ph@@ 1
thủ 1
10 1
Pháp 1
cầu 1
khoảng 1
Tr@@ 1
sĩ 1
mới 1
Sau 1
thức 1
6 1
đoàn 1
âm 1
hóa 1
trận 1
Đức 1
tranh 1
cô 1
hay 1
ta 1
đêm 1
pháp 1
đề 1
Tây 1
um 1
idae 1
ng@@ 1
% 1
– 0.6541764117978924
liên 1
tập 1
tham 1
nhạc 1
tàu 1
chuyển 1
G@@ 1
biển 1
bay 1
thấy 1
máy 1
bố 1
m 1
truyền 1
Mỹ 1
thì 1
năng 1
a 0.08310605171016744
km 1
mặt 1
toàn 1
gian 1
nên 1
y@@ 1
rất 1
ban 1
7 1
hiệu 1
P@@ 0.9093472311014346
văn 1
phương 1
tới 1
hoạt 1
12 1
đô 1
đây 1
8 1
bang 1
trí 1
nam 1
giữa 1
đạo 1
triển 1
đặc 1
on 0.2225219052946618
tổ 1
án 1
nhau 1
bướm 1
Bắc 1
nghĩa 1
đá 1
ba 1
danh 1
is 0.2022002804497334
R@@ 1
cứng 1
Một 1
Ông 1
y 0.19512716460149096
9 1
biệt 1
tử 1
bóng 1
thiết 1
chế 1
đất 1
đang 1
aceae 1
nằm 1
kinh 1
bình 1
đổi 1
thuật 1
ảnh 1
kỳ 1
tâm 1
nơi 1
dài 1
đơn 1
dưới 1
A@@ 1
chất 1
ý 1
ata 1
Nó 1
cuối 1
phủ 1
Công 1
bọ 1
kế 1
Liên 1
dịch 1
Đông 1
Lan 1
Ph@@ 1
nữ 1
ăn 1
&apos; 0.5024621908725219
nhiệm 1
tiểu 1
điện 1
sách 1
Nhật 1
nói 1
in 0.052995138962570895
Vào 1
biết 1
phẩm 1
11 1
kh@@ 1
sáng 1
thay 1
tăng 1
châu 1
bảo 1
biến 1
tin 1
trưởng 1
nguyên 1
Thái 1
báo 1
đều 1
mục 1
vẫn 1
cứu 1
thi 1
gần 1
trọng 1
đảo 1
k@@ 1
o 0.6552596775928105
tình 1
ứng 1
chơi 1
thu 1
amp 1
tiến 1
cá 1
giá 1
bài 1
Bộ 1
đặt 1
tiêu 1
thân 1
ca 1
tương 1
nay 1
tư 1
nhóm 1
ensis 1
Ngày 1
dự 1
nhỏ 1
tìm 1
tổng 1
phòng 1
dùng 1
Kh@@ 1
bắc 1
ngoài 1
lịch 1
đông 1
hòa 1
bà 1
bên 1
tài 1
hậu 1
nổi 1
u 1
màu 1
dẫn 1
quả 1
phong 1
tuổi 1
tinh 1
Dân 1
gi@@ 1
O@@ 1
phục 1
kỷ 1
biểu 1
đưa 1
sát 1
đời 1
al@@ 0.8232162207655009
Tuy 1
đình 1
viết 1
tục 1
Thành 1
giao 1
X@@ 1
&#93; 1
o@@ 1
Hà 1
ic@@ 1
miền 1
ai 1
mang 1
Bản 1
quận 1
yếu 1
mùa 1
hát 1
giữ 1
Hoàng 1
rộng 1
tướng 1
trang 1
vô 1
thương 1
liệu 1
sông 1
an@@ 0.7696471437281519
&#91; 1
² 1
bán 1
E@@ 0.8772923384658774
nhập 1
quyết 1
từng 1
dựng 1
bất 1
đóng 1
tấn 1
sở 1
bỏ 1
thần 1
Dương 1
di 1
quá 1
phụ 1
Xã 1
chiếc 1
chương 1
viện 1
dù 1
e@@ 0.6787745610853391
thắng 1
câu 1
nghệ 1
vận 1
Hải 1
Văn 1
hoàn 1
nhiệt 1
Cộng 1
tra 1
2010 1
t 0.5475502354986406
Theo 1
Độ 1
vai 1
de 0.030749682236790706
qu@@ 1
binh 1
lạc 1
xây 1
khí 1
cung 1
cử 1
cổ 1
vệ 1
nào 1
Ấn 1
giống 1
hạng 1
xác 1
in@@ 0.532819994150767
Tổng 1
tiền 1
Nguyễn 1
hoàng 1
trò 1
vua 1
ana 1
n 0.9174085712330129
Bình 1
mở 1
on@@ 0.8794555365168439
Minh 1
Những 1
i@@ 1
tây 1
sân 1
ngữ 1
chống 1
hướng 1
ốc 1
chung 1
cái 1
ac@@ 1
trợ 1
ty 1
làng 1
chiếm 1
chưa 1
Từ 1
p@@ 0.627394058334246
hộ 1
ô 1
ghi 1
tượng 1
Ban 1
cộng 1
giả 1
la 0.05814981720868821
s 0.3047532057596967
minh 1
áp 1
F@@ 0.5708267805670858
đạt 1
Gi@@ 1
mất 1
ol@@ 1
triệu 1
em 1
dạng 1
kiến 1
phản 1
quản 1
bệnh 1
mạnh 1
sang 1
chết 1
20 1
ký 1
hạn 1
lúc 1
Quân 1
giờ 1
tộc 1
xe 1
cảnh 1
lãnh 1
ea 1
ít 1
gây 1
el@@ 0.7078850196859019
nguồn 1
ma 1
chứng 1
kể 1
kích 1
nghiên 1
chia 1
I@@ 1
trấn 1
kiện 1
lệ 1
tất 1
ar@@ 0.6703219516094421
Chúng 1
đoạn 1
ngôi 1
hữu 1
thư 1
lưu 1
yêu 1
Khi 1
vương 1
tay 1
cây 1
ấy 1
ền 1
chân 1
Vương 1
vòng 1
thuyết 1
giúp 1
phép 1
thêm 1
Nga 1
Chính 1
om@@ 1
en@@ 0.42956167896198877
a@@ 1
Ba 1
J@@ 0.7939458080130171
Châu 1
ot@@ 1
độc 1
thích 1
phá 1
trực 1
or@@ 0.729465039440957
mỗi 1
Sơn 1
Âu 1
hưởng 1
vậy 1
chọn 1
The 0.0985469559794027
e 0.4927637359123333
khỏi 1
Sự 1
sắc 1
sư 1
Hội 1
cảm 1
Ng@@ 1
vấn 1
ti@@ 0.9875625915523273
os@@ 1
Chiến 1
vi 1
cần 1
Nh@@ 1
hết 1
ăng 1
Giải 1
Nhà 1
Qu@@ 1
tốt 1
Y@@ 1
so 1
địch 1
luật 1
cư 1
Di@@ 1
La 0.3829141475676832
xem 1
nội 1
xếp 1
tỷ 1
sao 1
à 0.14493995219361028
oc@@ 1
lấy 1
An 1
15 1
gốc 1
op@@ 1
khả 1
ệt 1
quy 1
2011 1
dương 1
chí 1
mạng 1
k 0.6920256283016565
giành 1
li@@ 1
da 0.8601507822739923
Thanh 1
u@@ 0.9501155786634492
ước 1
núi 1
trai 1
W@@ 0.5023598350325735
mật 1
ê 1
Người 1
mắt 1
bàn 1
triều 1
Đây 1
ag@@ 0.8052721927630982
cố 1
niên 1
is@@ 0.767108988445153
giảm 1
huy 1
am@@ 0.822631800121977
khai 1
Nhĩ 1
Quận 1
ng 1
lời 1
tuyến 1
êu 1
ối 1
er@@ 0.4386093733970222
lệnh 1
Đảng 1
ái 1
khiến 1
khách 1
Nha 1
cáo 1
Thổ 1
5@@ 1
trẻ 1
bầu 1
ina 1
duy 1
Mã 1
ae 1
di@@ 0.8219275847481483
p 1
thảo 1
ur@@ 0.8976168673748033
vũ 1
sức 1
Thế 1
Tân 1
ương 1
as@@ 0.6382897076151024
bại 1
tuần 1
Z@@ 0.707523885303377
chuyên 1
ang 1
ngoại 1
đa 1
Tháng 1
z@@ 0.5830000659863599
... 1
U@@ 1
ánh 1
18 1
30 1
đồ 1
dục 1
môi 1
ên 1
album 1
at@@ 0.7312698579894239
Nhân 1
Nội 1
ho@@ 1
Lý 1
19 1
quay 1
riêng 1
chuẩn 1
hi@@ 1
phổ 1
Tại 1
thiên 1
đới 1
id@@ 1
thúc 1
gặp 1
đế 1
hầu 1
Xô 1
ân 1
nghiệm 1
Do 1
lớp 1
nghị 1
thanh 1
lợi 1
hạt 1
Long 1
áo 1
the 0.013660933632914417
Phi 1
of 0.024300930877238378
chữ 1
doanh 1
16 1
lễ 1
nền 1
xuống 1
chạy 1
ác 1
phiên 1
Ar@@ 0.9283860548979095
Danh 1
ạn 1
àn 1
biên 1
ôi 1
thái 1
ung 0.6142843950444232
4@@ 1
Lịch 1
gái 1
14 1
bổ 1
atus 1
ap@@ 0.937755866501116
kiểm 1
vây 1
c 0.7124298534647715
es 0.12873972576854534
Hòa 1
cha 1
dòng 1
tồn 1
luận 1
Hán 1
tưởng 1
Hồ 1
rồi 1
muốn 1
tuyên 1
en 0.04555551971314526
thấp 1
vàng 1
Đế 1
A 0.4030042771698505
ấn 1
An@@ 0.6857754528934965
er 0.11668445675450484
New 0.6116606232864544
tiết 1
mọi 1
13 1
khẩu 1
cực 1
Á 1
du 0.1586021578931478
Giáo 1
j@@ 0.5757898320954742
tức 1
đứng 1
ống 1
cửa 1
tịch 1
nhanh 1
2007 1
17 1
giám 1
Ngoài 1
Trường 1
mức 1
á 1
h 0.8127430877283954
mẹ 1
thờ 1
coi 1
ul@@ 0.7762501225545186
ích 1
trúc 1
Trần 1
al 0.19275052313422952
thất 1
lo@@ 0.8066272882902413
Al@@ 0.7366360330831955
đáng 1
6@@ 1
dụ 1
Có 1
nữa 1
kỹ 1
dựa 1
cận 1
I 0.641081258068596
phi 1
d 0.3486410040501854
giáp 1
giai 1
ong 1
ngay 1
mét 1
Hồng 1
mặc 1
hạ 1
đôi 1
Nguyên 1
bảng 1
tối 1
quần 1
25 1
7@@ 1
ấu 1
ói 1
quanh 1
phái 1
lâu 1
thủy 1
dung 1
tuyển 1
nhện 1
ết 1
phóng 1
Thiên 1
át 1
Hàn 1
lục 1
đốc 1
vài 1
nhằm 1
am 0.3441170615904958
nếu 1
àng 1
pháo 1
ec@@ 0.907751889418703
ngôn 1
ella 1
áng 1
Đô 1
Tư 1
2006 0.967570958908665
tố 1
cải 1
2008 0.8789085966161836
Ho@@ 1
thập 1
to@@ 1
Đồng 1
đủ 1
Không 1
thưởng 1
ò 1
Kinh 1
Lê 1
Ý 1
bạn 1
cấu 1
ar 0.2914235424503021
8@@ 1
II 1
Chủ 1
mẫu 1
giết 1
Vũ 1
ro@@ 0.7352170111531835
hỗ 1
ất 1
ẩn 1
chiều 1
it@@ 0.599671906517648
âu 1
et@@ 0.732697859593539
luyện 1
le@@ 0.6872181657767117
Ở 1
ạt 1
l 0.3607637313197888
xa 1
ải 1
ả 1
9@@ 1
lá 1
Tông 1
Cô 1
bắn 1
ồng 1
phạm 1
at 0.10480685517446622
alis 1
kéo 1
ad@@ 0.4659989204398016
kim 1
il@@ 0.7442559787319803
ica 1
es@@ 0.4818227457305691
hoạch 1
chấp 1
3@@ 1
bốn 1
rừng 1
el 0.07082349091094149
x 1
2016 0.8261233618354702
21 1
đài 1
.@@ 1
Geometridae 1
em@@ 0.6624368259794473
Họ 1
Tiên 1
lộ 1
ôn 1
Kim 1
môn 1
ật 1
chứa 1
rõ 1
trùng 1
tỏ 1
era 0.7220561463208068
sóng 1
buộc 1
ến 1
Ủy 1
cứ 1
ni@@ 1
chịu 1
ri@@ 0.954591522171008
osa 1
Cao 1
êm 1
phận 1
dành 1
cạnh 1
ủng 1
lửa 1
ngành 1
ây 1
2009 0.7806711805099165
tôi 1
sa 0.5661225336453812
tôn 1
toán 1
úc 1
đổ 1
24 1
mềm 1
đàn 1
im@@ 0.5569968501320947
cụ 1
et 0.0671618930536402
po@@ 0.6885995668829342
trao 1
tốc 1
B 0.9731779361651957
ach@@ 1
2004 1
hải 1
ãn 1
khởi 1
Sh@@ 0.9759054569832711
đĩa 1
Điều 1
2015 0.762337220737239
un 0.09207895876981434
ã 1
Đài 1
bờ 1
inh 1
nông 1
ùng 1
khúc 1
hồ 1
nặng 1
trắng 1
Quảng 1
to 0.029178876464979384
Mar@@ 0.6747116089162554
thổ 1
Địa 1
Bảo 1
2000 0.9341703524365199
ngắn 1
lĩnh 1
2014 0.7282506529892891
nối 1
Bà 1
2005 0.9644306815922804
hại 1
ay 1
Lưu 1
Đến 1
os 0.32949050534830204
ruồi 1
hôn 1
Tiểu 1
2012 0.7089379763844396
hồi 1
bi@@ 0.8517026421746137
ừng 1
khảo 1
chú 1
chuyện 1
Giang 1
sâu 1
ig@@ 0.8289719823135585
xảy 1
tòa 1
ab@@ 0.3826086354078129
trạng 1
ế 1
ủy 1
2017 0.7835387080453391
trả 1
2013 0.7193335842902869
gì 1
trụ 1
1999 1
thiếu 1
ru@@ 1
100 1
and 0.019166796424469976
Thượng 1
2018 0.7422123391023062
Noctuidae 1
đen 1
ốt 1
23 1
ạc 1
niệm 1
thuốc 1
nhìn 1
loạt 1
khó 1
chiếu 1
Gia 1
22 1
mối 1
Ki@@ 1
Đường 1
rút 1
xử 1
2019 0.7828987922555195
nuôi 1
chim 1
ì 1
tái 1
bức 1
ường 1
ki@@ 1
od@@ 1
vượt 1
Thị 1
cũ 1
thuận 1
un@@ 0.29055152444082805
xung 1
as 0.0568835082476273
Triều 1
tước 1
og@@ 1
ầm 1
mua 1
C 0.8247824329437727
or 0.1523924727658955
Ti@@ 1
ục 1
Par@@ 1
vốn 1
Car@@ 0.8710429603496405
đầy 1
ơ 1
31 1
sai 1
thơ 1
mại 1
gt 0.9510182770118365
í 1
ir@@ 0.6350420494126661
g 0.7076750263811703
mi@@ 1
ao 1
tội 1
Hiệp 1
Cerambycidae 1
w@@ 0.38355110133546433
băng 1
ens 0.5470963747254057
trục 1
ấp 1
ing 0.10044081922280526
aria 1
óc 1
mm 1
phối 1
súng 1
ách 1
lt 0.9542993951817761
tạp 1
Phó 1
ỷ 1
Le@@ 0.802692173637321
ine 0.44209440458966964
_ 0.6727975516353689
Mặc 1
suất 1
28 1
Ninh 1
soát 1
ya 0.6447463195111479
song 1
na 0.8583951436929258
đai 1
Cổ 1
Cúc 1
linh 1
chủng 1
Q@@ 1
buổi 1
tia 1
kịch 1
xét 1
it 0.1379174959471694
trái 1
27 1
ẩm 1
thử 1
ấm 1
ệ 1
càng 1
ồi 1
Br@@ 0.8495167223827811
góp 1
so@@ 0.9402364869957871
rời 1
oph@@ 1
truyện 1
đỏ 1
ành 1
dễ 1
Ne@@ 1
Trước 1
ạng 1
kiếm 1
26 1
sứ 1
50 1
ảo 1
ang@@ 0.8394744361234346
ngựa 1
tầng 1
2001 0.9794252889626738
co@@ 0.45550829700539835
đảm 1
tải 1
ám 1
ak@@ 0.7366591901430246
ắc 1
Chi 1
trách 1
luôn 1
chuyến 1
trì 1
cập 1
dấu 1
phí 1
đích 1
ena 1
Thủ 1
Mặt 1
man 0.40998568837138727
eo 1
hiệp 1
suốt 1
kho@@ 1
Tập 1
suy 1
ộc 1
ed@@ 0.6416579514747467
bào 1
Hai 1
Hy 1
Thánh 1
ắm 1
0 0.8291547611625943
đăng 1
kiểu 1
xỉ 1
Khu 1
Yên 1
xanh 1
Cơ 1
2020 0.7066999763815833
st@@ 0.3123568544943853
ập 1
đào 1
khá 1
vi@@ 0.7881441915937508
lược 1
khối 1
tu@@ 1
Tổ 1
căn 1
Với 1
no@@ 1
vợ 1
dần 1
lòng 1
đảng 1
Mi@@ 1
tín 1
hãng 1
Việc 1
v 1
hàm 1
per@@ 0.49133492446343885
trưng 1
ạp 1
xứ 1
Úc 1
cuốn 1
kê 1
Viện 1
ưu 1
Lạp 1
Giám 1
bụng 1
Phương 1
ạch 1
đương 1
mực 1
lượt 1
cu@@ 0.9826286068244382
ức 1
Bar@@ 0.8098264055023484
ton 0.5686771278432134
T 1
ận 1
nghi 1
ội 1
xuyên 1
29 1
Quang 1
= 0.84121650213355
đột 1
ố 1
z 0.5723337516286219
thịt 1
ắt 1
họa 1
Phần 1
phê 1
ại 1
Cuộc 1
ào 1
bu@@ 1
2002 0.8819519078469868
dữ 1
mã 1
av@@ 0.7064780968276912
Chi@@ 1
si@@ 0.6519340017371569
ần 1
hủy 1
Cal@@ 1
mạch 1
St@@ 0.5293658827285971
ồn 1
kính 1
re@@ 0.12376906590420424
Đào 1
thừa 1
Đậu 1
Li@@ 1
1.@@ 1
sh@@ 0.4758565312272677
Sân 1
tuy 1
đạn 1
Thời 1
kẻ 1
Chu 1
nạn 1
huấn 1
su@@ 0.6780366110058668
ci@@ 0.7201126272887434
b 0.5923900279868873
ob@@ 0.8155862580668152
r 0.7441732236433976
thoại 1
hỏi 1
ổ 1
vừa 1
Lâm 1
khóa 1
us@@ 0.5676695854192515
ura 1
trời 1
eg@@ 0.7104290097138699
Thụy 1
ut@@ 0.8728897582107805
Phong 1
ex 1
ạ 1
ếp 1
Phú 1
2003 0.8748287505172252
br@@ 0.5331862366162489
Con 1
chi@@ 1
League 0.806614401827467
ly 0.41000059375086595
ờ 1
yp@@ 1
f@@ 0.2244829910701131
As@@ 1
Vì 1
ốn 1
chúa 1
Định 1
yr@@ 1
40 1
ví 1
ép 1
Xuân 1
ngăn 1
Sch@@ 0.39834705351586874
đẩy 1
giác 1
Lo@@ 1
trừ 1
loạn 1
nổ 1
ướng 1
lu@@ 1
Cor@@ 0.8676590390683175
thi@@ 1
ãi 1
ys@@ 1
ổi 1
par@@ 0.4125370712960838
ản 1
TCN 1
ạo 1
thật 1
Bi@@ 1
trải 1
ỡ 1
San 0.7499527989639282
ắn 1
chóng 1
ều 1
lao 1
lính 1
Chí 1
El@@ 0.8603583444908298
ượng 1
sơ 1
ỏ 1
ber@@ 0.6350620980925641
mộ 1
Erebidae 1
Am@@ 0.8570699646154477
Phật 1
1990 0.9480475105153483
yl@@ 1
ài 1
hạm 1
vọng 1
diệt 1
ính 1
điển 1
ov 1
ơi 1
con@@ 0.3775865974292619
Số 1
thiện 1
ha 0.7608172598226414
au 0.13717597265257916
ah@@ 1
cm 1
ov@@ 1
U 1
thao 1
Tham 1
sửa 1
Đội 1
au@@ 0.6469360843759729
ề 1
bước 1
Con@@ 0.49474947703798655
hu@@ 1
tu 1
2@@ 1
ne@@ 0.6828582297352134
ii 1
Trương 1
nhờ 1
xin 1
tri@@ 0.8761792473064626
lai 1
ịnh 1
thú 1
khắp 1
Sư 1
thí 1
Co@@ 0.7216559382614209
phù 1
onia 1
phút 1
đem 1
tách 1
ter@@ 0.4781784980015897
ỗ 1
ằng 1
trào 1
son 0.14949787590960953
ur 0.9971134500598833
ời 1
one 0.16319958044149258
Tòa 1
thụ 1
ộ 1
cắt 1
ell@@ 0.8139252424716933
pha 1
! 0.7673104761705588
chẳng 1
Nhưng 1
nhiễm 1
Trái 1
hương 1
D 0.8390951114605258
nguy 1
bày 1
ka 0.9773603681168384
ị 1
ẻ 1
quý 1
đỉnh 1
gửi 1
lông 1
ùi 1
le 0.04360249447399804
Đất 1
chỗ 1
&#124; 1
V 1
nghe 1
O 0.77599471987503
ora 1
kháng 1
John 0.5239438143631515
och@@ 1
xâm 1
anus 1
uy@@ 1
hiểu 1
cai 1
oides 1
Huyện 1
cầm 1
F 1
sắt 1
hiểm 1
ak 0.8441231074882596
ga 1
ngầm 1
tiện 1
tàng 1
Tên 1
đẹp 1
Per@@ 0.8087208704024808
Thông 1
vành 1
nâng 1
khắc 1
liền 1
hơi 1
tầm 1
um@@ 0.4646545254025574
Nhiều 1
liệt 1
sớm 1
chỉnh 1
ik@@ 0.6590981978826183
ay@@ 0.8099717018291256
Ngô 1
thăm 1
In@@ 0.41733852797633836
eri 1
kênh 1
cường 1
thăng 1
chảy 1
ath@@ 1
tuyệt 1
Hưng 1
oth@@ 1
tù 1
1998 0.8863421394303155
ki 1
Tỉnh 1
xúc 1
sáu 1
Đạo 1
mo@@ 0.592304685662975
bão 1
nửa 1
14@@ 0.7492555711823659
dọc 1
ụ 1
Cr@@ 1
ậm 1
Col@@ 0.7420707654110439
ú 1
? 1
1945 1
and@@ 0.7045571007512663
màn 1
tò 1
ala 1
gh@@ 1
đọc 1
C. 1
thôn 1
formula 0.5628929365235621
út 1
máu 1
Về 1
mưu 1
Để 1
Tu@@ 1
quảng 1
car@@ 0.5745759042407261
S 0.7497206687763976
quán 1
Pr@@ 0.7462384129086551
đi@@ 1
Hiện 1
10@@ 0.9839833453968183
ữ 1
giản 1
tán 1
Nếu 1
M 0.939393569644851
tan 1
rêu 1
ụng 1
ù 1
vò 1
ơn 1
ep@@ 0.8991304348904006
ổng 1
Vĩnh 1
ium 1
Gr@@ 0.6539651750271983
ara 1
Hồi 1
ula 1
ưa 1
ari@@ 1
chồng 1
Or@@ 0.7860192389652321
man@@ 0.5877510970260402
đe 1
anth@@ 1
Cách 1
thẳng 1
Ai 1
Er@@ 0.5042646169295125
Ngọc 1
é 0.15959735648145817
1997 0.9078235063231727
dầu 1
Ichneumonidae 1
Đặc 1
ngược 1
phó 1
Hi@@ 1
dạy 1
Phúc 1
ad 0.5946642477925427
săn 1
ắng 1
Lương 1
bí 1
truy 1
ley 0.5969137270490866
ổn 1
Hy@@ 1
Cục 1
Hạ 1
2021 0.6395588304778267
dọa 1
ọc 1
dia 1
Bo@@ 0.848094441553369
+ 1
ie 0.24501209146610534
atum 1
Canada 1
York 0.5071429647030696
Phân 1
Tam 1
bậc 1
Áo 1
oma 1
ọn 1
eb@@ 0.6042771417168067
Thủy 1
lan 1
thoát 1
ua 1
video 1
Quan 1
1980 0.9820922854371881
Hu@@ 1
thiệu 1
tặng 1
Karnataka 1
1991 0.9245445473829009
se@@ 0.3551657196444227
ita 1
tháp 1
cậu 1
bò 1
Y 1
X 1
ô@@ 1
ten@@ 0.5146719149564585
Lai 1
ing@@ 0.6102422112926226
Paris 0.7654262828863111
ah 0.8782345374773571
va 0.9808412884354956
ok@@ 1
thước 1
° 1
Thống 1
Phạm 1
60 1
Hành 1
ới 1
đúng 1
ei 1
bom 1
gắn 1
xạ 1
Mùa 1
êng 1
phiếu 1
Chỉ 1
G 0.8668544484929447
Mor@@ 0.7236644540807541
ost@@ 1
Hymenoptera 1
​ 1
Loan 1
aw@@ 0.8649637316518175
nghiêm 1
khoản 1
trích 1
Hậu 1
Cá 1
sẵn 1
chó 1
tehsil 1
hút 1
ic 0.3663225732037193
bãi 1
Mal@@ 0.9886880831269907
Re@@ 0.3454256412263351
ch 0.39017329573960297
tá 1
lo 0.40360102924370445
15@@ 0.6346915468840547
sung 1
ĩ 1
13@@ 0.7703942373807989
ou@@ 0.49938961738750487
ét 1
ẫn 1
1996 0.8279587515621353
Rêu 1
ate 0.17294502277079113
lẫn 1
ằn 1
az@@ 0.7515624829642333
P 0.877314432036155
trại 1
ão 1
ans 0.2745541533582134
ense 1
ne 0.26303706776523145
chu@@ 1
la@@ 1
chặn 1
12@@ 0.8696209530988137
rơi 1
Mel@@ 1
Tử 1
no 0.20164275973154983
ột 1
Tự 1
thù 1
siêu 1
đoán 1
cờ 1
Saint 0.5513653598274411
ona 1
gắng 1
Cập 1
cựu 1
lan@@ 1
ano 0.5537079545875073
tắc 1
pl@@ 0.37000062031939057
tránh 1
àm 1
L 0.5747949440171819
Mon@@ 0.6065704814795958
ếu 1
lâm 1
pi@@ 0.6690049062368724
úy 1
dây 1
ưng 1
Nghệ 1
khiển 1
lương 1
Tri@@ 1
1995 0.8405154076713387
bác 1
cỏ 1
nắm 1
thác 1
Mông 1
1975 1
thượng 1
de@@ 0.2683007016435894
Khánh 1
hấp 1
Hệ 1
ứa 1
Bài 1
Bồ 1
lưng 1
tho@@ 1
World 0.4111847406540813
1992 0.817509023602792
ati@@ 0.6062342174520418
Chương 1
ida 0.825709092616372
phán 1
hè 1
Cuối 1
nhớ 1
thánh 1
te@@ 0.4528175572281615
tắt 1
Su@@ 1
họp 1
Phổ 1
Tống 1
ani 1
quang 1
ư 1
Gu@@ 0.7271459248322847
USD 1
nghỉ 1
vĩ 1
đáp 1
thua 1
Tôn 1
K 0.9639525030614083
đo 1
Nghị 1
trồng 1
nhánh 1
2.@@ 1
Đình 1
C.@@ 1
che 0.6611482109527906
Trịnh 1
bo@@ 0.4747525247473322
tai 1
lẽ 1
ía 0.42585492210123216
des 0.03185233925966872
sắp 1
ràng 1
sch@@ 0.2848648512471205
Linh 1
ama 1
Đầu 1
III 1
quê 1
món 1
1993 0.8490310396996915
Phòng 1
bánh 1
nhật 1
ỹ 1
tống 1
Be@@ 0.4159582817100306
ạnh 1
đuổi 1
khăn 1
Khoa 1
ực 1
tạm 1
tus 1
Trận 1
To@@ 1
nhẹ 1
đuôi 1
khô 1
cấm 1
Trên 1
N 0.9138627541414784
Se@@ 0.5484320273592992
vuông 1
Đối 1
ax@@ 1
pa 1
bật 1
icus 1
80 1
xương 1
sub@@ 0.4967013185524737
lựa 1
ngờ 1
if@@ 0.7826858875070564
ys 1
Học 1
Ac@@ 0.9262545348549371
mar@@ 0.3624597181979092
ắp 1
phạt 1
hài 1
1994 0.7829140482637861
quỹ 1
ass@@ 0.45743848202966847
nghề 1
ợ 1
tis 1
Sinh 1
ển 1
En@@ 0.6387759848968815
trữ 1
200 1
ong@@ 1
nh 1
opsis 1
Sc@@ 1
ell 0.592194606410118
côn 1
nỗ 1
ima 1
óng 1
bề 1
R 0.6531958050748988
dậy 1
Hóa 1
ồ 1
Tính 1
thuyền 1
70 1
Bí 1
ngân 1
aur@@ 1
phức 1
Phát 1
eri@@ 1
ũ 1
cặp 1
Thể 1
1970 0.902751778306861
ộn 1
Chúa 1
Tiến 1
chữa 1
Brasil 1
dưỡng 1
sợ 1
ểm 1
lia 1
mời 1
90 1
A.@@ 1
yn@@ 1
chối 1
land 0.3352774069533967
thậm 1
ỉ 1
chùa 1
giấy 1
Kar@@ 0.7807284076620166
hôm 1
òn 1
Hợp 1
đền 1
cảng 1
Cup 0.7850528119048448
Câu 1
lã@@ 1
Nữ 1
ant@@ 0.5891583557323407
đỡ 1
olo@@ 1
H 1
khủng 1
ich@@ 1
Poly@@ 1
Mac@@ 1
Si@@ 1
ti 1
f 0.4919648012059137
trú 1
Cy@@ 1
eli@@ 1
òng 1
hoá 1
ol 0.6714527713481421
Ả 1
Triệu 1
tàn 1
ist@@ 0.6571169386267878
A. 1
tic@@ 0.9935072802351257
Na 1
ngang 1
Chrysomelidae 1
bia 1
nghĩ 1
vong 1
bạc 1
0@@ 0.9006721393765165
1960 0.9658642870956636
Á@@ 1
ũng 1
ảy 1
mưa 1
thu@@ 1
rắn 1
te 0.11295478245580345
khỏe 1
Cas@@ 1
Cảnh 1
Cùng 1
can 0.29968531928496445
Lực 1
bé 1
Điện 1
Điển 1
Ber@@ 0.5973066318025889
Ro@@ 0.6168703700990185
Pi@@ 0.9980985413289489
tỉ 1
hoang 1
ưỡng 1
gỗ 1
1989 0.8219035167226475
ừa 1
game 0.5110339765049853
ệu 1
hùng 1
ides 1
thiệt 1
Pl@@ 0.9566035133525992
du@@ 0.6957129991012111
mon@@ 0.4200208931790127
vườn 1
ầu 1
mười 1
Hal@@ 1
ev@@ 0.5780166028899834
ra@@ 0.7082252713940494
Vân 1
alli 1
ộng 1
lui 0.6415719160092144
phường 1
hi 1
ania 1
tờ 1
Sal@@ 0.8201980748651403
se 0.049717313815903184
Thu@@ 1
eus 1
Pal@@ 1
Vua 1
Sở 1
ệm 1
odes 1
èn 1
đẳng 1
Thần 1
gió 1
uc@@ 0.999304721896302
Lễ 1
Lu@@ 1
uống 1
giảng 1
iss@@ 1
mu@@ 1
folia 1
“ 0.11145709475387393
gà 1
ino 0.5825926725258622
Ni@@ 1
Do@@ 1
oni@@ 1
yc@@ 1
miễn 1
Kiến 1
khán 1
Vi@@ 1
Thân 1
đua 1
ặc 1
Man@@ 0.626292244342263
ard 0.49999096537773197
ẽ 1
ola 1
Sp@@ 0.6380476897737164
California 0.9415486086346087
E 0.6457044347431028
rãi 1
trứng 1
đau 1
Di 1
Cũng 1
Thuận 1
ãng 1
Me@@ 0.6012508725586541
ầy 1
35 1
do@@ 0.7035881816356201
Thạch 1
” 0.35470405447945214
Thiếu 1
dãy 1
Hiến 1
hiến 1
Mc@@ 0.5638685700036584
Lục 1
ăm 1
Sĩ 1
trăm 1
0,@@ 1
Kết 1
aj@@ 0.8343170127870111
45 1
mẽ 1
cân 1
sáp 1
thẩm 1
bá 1
Tấn 1
nóng 1
chấm 1
kì 1
ựa 1
Rập 1
khi@@ 1
ba@@ 0.8179973844069811
lis 1
mũi 1
ứ 1
atr@@ 1
dị 1
ệp 1
cal@@ 1
trốn 1
Thi@@ 1
tận 1
tùy 1
cơn 1
ớt 1
1988 0.8206210818529606
Nghĩa 1
ịp 1
úa 1
đực 1
der@@ 0.45545481935776055
ó 0.17975541336068793
ảng 1
ậu 1
Cầu 1
Arctiinae 1
tròn 1
xu 1
ō 1
hồng 1
chép 1
3.@@ 1
võ 1
ử 1
Te@@ 0.9189834965029257
ón 0.5270912724864636
chị 1
Đoàn 1
Thiến 1
Ví 1
Str@@ 0.551327577218059
úng 1
ym@@ 1
ran@@ 0.5984247207536411
iz@@ 0.5094406029023065
ill@@ 0.4846414703155075
ỗi 1
J.@@ 1
hỏa 1
ụt 1
Đan 1
góc 1
Thiết 1
.. 1
tidae 1
son@@ 0.905502295882115
Ag@@ 1
chinh 1
quyển 1
ày 1
Mo@@ 0.6246437503074409
ers 0.1110158075054674
1@@ 0.9981562404400951
Ver@@ 0.22890137236955324
he@@ 0.5075781630611923
rượu 1
Tất 1
Philippines 1
Bel@@ 0.5981974440694295
ann@@ 0.5968591599084596
dium 1
pal@@ 1
Như 1
ed 0.05060241503569064
nâu 1
inc@@ 0.6569974398061345
ila 1
Tương 1
Được 1
ỏng 1
ỏi 1
lối 1
soạn 1
phi@@ 1
Her@@ 0.6455600123148793
vỏ 1
Po@@ 0.7126624062248544
Pol@@ 0.8926482512046052
ngũ 1
chắc 1
Har@@ 0.7480344846959869
gr@@ 0.295907475132877
500 0.941865164591364
ện 1
oa 1
Là 1
Kr@@ 0.7875826776908209
Thường 1
dày 1
ser@@ 0.5060323346371198
kia 1
Tiếng 1
dặm 1
ôm 1
lưới 1
thỏa 1
bảy 1
ema 1
kém 1
hổ 1
Bor@@ 0.9925280498958169
Hầu 1
ểu 1
Bal@@ 0.8607288622614009
ion 0.7256734137875434
bar@@ 0.5000652348683317
vịnh 1
á@@ 0.5127309353700658
tường 1
ởi 1
ma@@ 0.583455594411917
su 0.10516635451493528
1986 0.8213583765423232
pr@@ 0.33600038660003373
cr@@ 0.47181536816201136
èo 1
Tần 1
li 1
ngọt 1
hô 1
Ma@@ 0.628797426288302
mệnh 1
Mer@@ 0.8549263687362362
io 0.6593640640879254
48 1
vỡ 1
tụ 1
bạo 1
lỗi 1
nhu 1
web 1
ìn 1
Bur@@ 0.7465975250325132
Trang 1
cor@@ 0.5199735140557394
tảng 1
ai@@ 1
san 1
Sông 1
ada 0.1911509082816423
ale 0.2372089471140468
ược 1
Sao 1
ùa 1
ver@@ 0.12124238619545248
nig@@ 1
tấm 1
hiếm 1
Tuyên 1
ném 1
ỏa 1
cục 1
za 0.6630910582878642
Tiền 1
chuồn 1
đức 1
Hữu 1
der 0.015819955515924865
32 1
Kông 1
phe 1
ke 0.41955309449701716
Lào 1
alus 1
inus 1
trống 1
Sài 1
biện 1
eta 1
Cu@@ 1
Tor@@ 0.9422971639188553
1950 0.8738130836810905
Cả 1
đám 1
óm 1
1987 0.7862793486596543
đồn 1
vẽ 1
co 0.46116348066010493
ter 0.15813902192040108
ent@@ 0.20262744922300244
thuế 1
úp 1
w 0.4821307400506552
Luật 1
ini 0.7008560823671668
hư 1
Phim 1
Huy 1
1985 0.8043255912854201
đoạt 1
He@@ 0.5132688383329478
ửa 1
1942 1
phỏng 1
Đà 1
Sar@@ 1
United 0.2387317093654745
giọng 1
Toàn 1
sp@@ 0.31297611244852724
Hoàn 1
De@@ 0.47845445407387444
lar@@ 0.8795477223722591
én 1
Hungary 1
í@@ 0.5188178063183246
cháu 1
asi@@ 1
kg 1
đốt 1
mong 1
lạnh 1
ek@@ 0.5171977000083383
hòn 1
nguyện 1
-@@ 0.557621830183441
gai 1
rối 1
đợt 1
xưa 1
Cer@@ 1
đứa 1
vẻ 1
awa 1
ữa 1
Vòng 1
ặng 1
Lộc 1
Phan 1
idaceae 1
ếm 1
Ngụy 1
Elateridae 1
Mu@@ 1
mỏ 1
sóc 1
Ad@@ 0.6167593260345997
Cung 1
Viên 1
éo 1
sót 1
ưởng 1
1981 0.8381219408963173
opter@@ 1
Pro@@ 0.558967953693911
ey 0.5931612050656883
So@@ 0.7633657426094186
Môi 1
tọa 1
Nhóm 1
Ru@@ 1
ex@@ 0.2068569255431063
by 0.02920939680721594
Tác 1
Sử 1
all@@ 0.5099035482214366
mạc 1
1944 0.8454470537356822
áy 1
giàu 1
Tào 1
1979 0.8339580056988776
điệu 1
Sa 1
0.000 1
mái 1
1940 0.9392605095469901
ơm 1
ł@@ 1
huy@@ 1
1984 0.766715393138592
Ngoại 1
Bạch 1
cừu 1
ngừng 1
tám 1
Giao 1
nhảy 1
mắc 1
vợt 1
re 0.23243539244518122
Mas@@ 0.9420099746464675
chu 1
cháy 1
L.@@ 1
ê@@ 1
H.@@ 1
S.@@ 1
vú 1
Hol@@ 0.8186050720563546
ặn 1
hà 1
ỳnh 1
Lạc 1
Quý 1
optera 1
nhắc 1
đòi 1
nia 1
khổ 1
Gòn 1
ựu 1
khơi 1
Can@@ 0.9747810467311592
Cát 1
65 0.9969899210824028
il 0.08052271487018674
cự 1
ta@@ 0.8247148255265004
lin@@ 0.6946275182594399
Eu@@ 1
gu@@ 0.4478379378984395
Indonesia 1
ẫu 1
khám 1
dàng 1
1982 0.79673817774211
Grand 0.7943403123352317
George 0.6231634885026821
chuỗi 1
ạm 1
Ap@@ 1
dõi 1
Séc 1
khái 1
khấu 1
chạm 1
Mỗi 1
’ 0.06559684582260614
ườn 1
ly@@ 1
ẹn 1
tri 1
ãy 1
Lúc 1
chặt 1
Bá 1
ib@@ 0.8136115601172917
Dự 1
vinh 1
buôn 1
1941 0.8725309935324418
uk@@ 0.9788271550717492
tổn 1
Ser@@ 0.688014264080481
ùy 1
von 0.03919635778649407
end@@ 0.319332507886968
thiểu 1
lỵ 1
ếng 1
1983 0.7796573193879268
chăm 1
FC 0.7588763961392945
Thu 1
pu@@ 0.7279446493738246
ow@@ 0.5956651625147907
Album 1
cãi 1
ius 1
4.@@ 1
voi 1
ce 0.17727408945023493
oh@@ 1
bèn 1
Và 1
ler 0.27100623300865767
thai 1
Uy 1
1972 0.7839816703972744
1943 0.926330761200158
gen 0.688041878455053
anum 1
Tôi 1
ari 1
Ri@@ 0.7836280413097079
Hương 1
xo@@ 1
thạch 1
tim 1
Thương 1
William 0.5403056806021781
ok 1
1978 0.8028347748553931
Israel 1
lôi 1
mer@@ 0.37685901857943405
fer@@ 0.4300030168588398
ỉnh 1
amb@@ 0.9215935928251874
thảm 1
James 0.5825764872731697
Cho 1
tựa 1
Ngay 1
cất 1
ớ@@ 1
pe@@ 0.4219749537645932
ninh 1
ash@@ 0.7448695155579798
Dr@@ 0.9324622619691451
cột 1
1930 0.9646100638993945
hứng 1
1976 0.7932783761222711
Truyền 1
Cẩm 1
dr@@ 0.34880869224115435
tan@@ 0.7670065838228433
ậy 1
— 0.05127421343671085
Bu@@ 1
75 1
hy@@ 1
ulata 1
non 0.4254422187787855
uyết 1
viễn 1
cướp 1
300 1
Đi@@ 1
tệ 1
ili@@ 0.7000234105203696
dứt 1
Bên 1
xưng 1
bối 1
L. 1
cốt 1
oni 1
anthus 1
chắn 1
giam 1
Thư 1
ko 1
Cúp 1
đón 1
id 0.432279950182725
chậm 1
Phiên 1
si 0.521141964844746
fr@@ 0.38298507193151826
Võ 1
R.@@ 1
Crambidae 1
Tak@@ 1
Com@@ 0.3952921393199607
col@@ 0.31325219893902995
ori@@ 0.6798572471184179
ịch 1
sc@@ 0.6771275252627358
yi 1
ĩnh 1
ir 0.33648438073915476
sàng 1
cer@@ 0.661190763835075
Mô 1
nghèo 1
52 1
ìa 1
ủ 1
Du 1
Biển 1
è 1
com@@ 0.2876497366847824
dừng 1
mồi 1
ota 1
ỳ 1
pes 1
TV 0.5877234581956131
Syria 1
sẻ 1
ox@@ 1
aph@@ 1
Rom@@ 0.9237804448356786
Kit@@ 1
38 1
ira 1
ín 1
ụy 1
ọ 1
ịt 1
ể 1
Sel@@ 1
ngồi 1
33 1
Bọ 1
ặt 1
kiêm 1
Ko@@ 0.9804172493150822
af@@ 0.33582870882323423
Pter@@ 1
1968 0.7569264390519956
be@@ 0.148377209965165
thả 1
trúng 1
dàn 1
Q 1
kèm 1
min@@ 0.39042249217960323
16@@ 0.6830026931788659
Biên 1
str@@ 0.3238959381388839
Hàng 1
kêu 1
khẳng 1
1946 0.9055043671847349
alb@@ 1
Dưới 1
34 1
chở 1
ượn 1
hung 1
ngh@@ 1
lái 1
ứt 1
Trị 1
răng 1
Nhạc 1
Âm 1
Vùng 1
Xuyên 1
ore 0.4745867573025872
ươ@@ 1
ez@@ 0.8197390574375352
cỡ 1
ười 1
ềm 1
und@@ 0.47498200534259954
Mục 1
Tài 1
chín 1
1973 0.7574107706423816
triết 1
cin@@ 0.9990046532813279
Ger@@ 0.5913127607563138
01 1
dư 1
ze@@ 0.8536221298950507
64 0.990967740024323
khuôn 1
thuê 1
tor@@ 0.38248302376564947
cụm 1
huyết 1
ae@@ 1
ưỡi 1
36 1
act@@ 1
Is@@ 0.8826559518972552
1954 1
Ab@@ 0.2365588258418584
khuyến 1
sánh 1
ene 0.44810161990461056
Vinh 1
Charles 0.5634917376707405
đậu 1
Sm@@ 1
tần 1
Luân 1
ngọn 1
cel@@ 1
yg@@ 1
55 1
thải 1
ji 1
Tiêu 1
ice 0.4742399916404919
Mai 0.7605083316925134
Chu@@ 1
im 0.04696379007893965
tông 1
Ấ@@ 1
Bằng 1
ớp 1
đồi 1
Ngân 1
Trichoptera 1
tha 1
Tar@@ 1
aya 1
1974 0.7214207475483027
cam 1
phyllum 1
1965 0.8176305757694945
Duy 1
Lin@@ 1
eh@@ 0.3811328082674191
Limoniidae 1
M.@@ 1
Trời 1
Bol@@ 1
mảnh 1
Ex@@ 0.34862496315901886
47 1
Quyết 1
Ben@@ 0.9859821983656902
Phước 1
Henry 0.8214827295224963
City 0.3232002486692202
Windows 1
hỗn 1
lidae 1
ek 0.7490352078237597
illa 0.8929214250985505
Ge@@ 0.43204286159369537
km2 1
Ireland 1
Ak@@ 0.8832038687070833
tes 0.2502175875873579
M. 1
ve 0.10458990352488129
Ca 1
gen@@ 0.28809728728274075
Al 0.638775415496104
Kể 1
chứ 1
lỗ 1
Campuchia 1
Sy@@ 1
Ste@@ 0.7327181939895829
… 0.8684337058361352
tiêm 1
Chân 1
opo@@ 1
Thọ 1
quen 1
42 1
gấp 1
Tứ 1
ếch 1
Min@@ 0.6089509986559354
đệ 1
ình 1
ops 1
1977 0.7376262593921377
òi 1
Cl@@ 0.7939019101760328
Malaysia 1
ni 0.6393984546826755
Ma 1
Mạc 1
mac@@ 1
ễ 1
1967 0.761224450082342
tô 1
West 0.4188703235769322
Mạch 1
vở 1
tân 1
ênh 1
chìm 1
46 1
miệng 1
Tur@@ 0.7769976505677839
ẩu 1
sữa 1
Phụ 1
Dù 1
44 1
pula 1
ung@@ 0.42848965528260724
David 0.5423047228603795
vui 1
1964 0.7699128786475056
Sph@@ 1
sky 1
vết 1
ven 1
Đảo 1
Huế 1
Quyền 1
eti@@ 1
ẹ@@ 1
dã 1
5.@@ 1
51 1
49 1
cản 1
lang 1
than 0.2111663480693995
phu 1
uyến 1
Robert 0.5371741155810762
ranh 1
1963 0.8225782366033827
Đinh 1
Sa@@ 0.8480370348239479
bl@@ 0.3099456776840306
sti@@ 0.6509536402897834
1,@@ 0.9734011462314829
Pe@@ 0.7438962163535976
Hình 1
Washington 0.6860636029371108
q@@ 1
yan@@ 1
37 1
Ly@@ 1
om 0.7131670188999492
don@@ 0.7074275572008912
lọt 1
ens@@ 0.2616563414568151
òm 1
dinh 1
Đ 1
ō@@ 1
Tachinidae 1
vạn 1
Động 1
age 0.10804348148535133
Ukraina 1
1939 0.7517659194077025
nghi@@ 1
39 1
les 0.031984132505728714
IV 1
khích 1
van 0.9450038987303842
Singapore 1
phúc 1
chấn 1
ươi 1
F.@@ 1
Tàu 1
adi@@ 0.7696496766673795
tam 1
ọng 1
óa 1
uyên 1
Mexico 1
per 0.3156045432928725
may 0.2796240034477259
sk 1
Paul 0.4729792092035836
Tình 1
trạm 1
Hel@@ 1
Hạm 1
ner 0.27351962703001864
vững 1
ễu 1
Vị 1
ax 1
Pennsylvania 1
Val@@ 0.6630008060754414
j 0.9461088772807872
Dicran@@ 1
B.@@ 1
har@@ 0.5265961253902623
flav@@ 1
Kế 1
ile 0.2689562903210775
Thứ 1
men 0.2547725642862524
iv@@ 0.730770370763327
ville 0.27326701270565695
Dung 1
Trọng 1
Cha 1
Du@@ 0.8396426313034446
Đôn 1
On@@ 1
rom@@ 0.8349782059154134
Đó 1
1971 0.6649838443353319
ngư 1
ngại 1
cương 1
ngợi 1
hẹp 1
J. 0.9087500384793271
osus 1
kỵ 1
đẻ 1
â@@ 0.9986917538109142
Đa 1
ượt 1
arg@@ 1
Cái 1
1920 0.7802489927363156
ent 0.07171042446579033
lũng 1
ip@@ 1
1969 0.697184556179491
ặp 1
5,@@ 1
41 1
Pseud@@ 1
Mat@@ 0.722805187546961
los@@ 1
hoảng 1
amp@@ 0.6262710366520031
20@@ 1
me@@ 0.3290955783614917
1962 0.7794090285886369
4,@@ 1
Thực 1
unc@@ 0.7144255129750648
thang 1
đầm 1
isti@@ 1
ler@@ 0.5134704098773673
02 1
lợn 1
ot 0.4281046212658184
yth@@ 1
cú 1
ey@@ 0.9928781773416107
zi@@ 0.759565638077495
Nghiên 1
trầm 1
3,@@ 1
men@@ 0.41721534904774726
Mes@@ 1
up@@ 0.4230156349224016
1956 0.7965362910698583
màng 1
ùm 1
canh 1
áu 1
Liêu 1
Mic@@ 1
thách 1
Fr@@ 0.5859171378946284
Illinois 1
Trưởng 1
Ur@@ 0.6634751554754965
cát 1
Phil@@ 1
ó@@ 0.46915176250422624
Mol@@ 0.9884529614735516
kỉ 1
Chiêu 1
Tro@@ 0.929836663282294
top 0.48680494205972324
cus 1
Louis 0.616834598319704
khuẩn 1
Lăng 1
cán 1
Lee 1
aga 1
H. 1
ẫm 1
ud@@ 0.7471444691691297
cul@@ 0.8498998798639067
ophyl@@ 1
Quy 1
1955 0.8691385209135848
ghế 1
orum 1
uy 1
Diễn 1
Cam@@ 0.9596288651017579
aea 1
05 1
1966 0.7207106757543289
lẻ 1
53 1
Bỉ 1
dis@@ 0.12917095834684292
ja 0.5702917399203348
berg 0.4290404311841313
thuần 1
kho 1
orus 1
ere 0.34064240977504157
ngàn 1
57 1
Go@@ 0.6465422403960217
ự 1
mạn 1
ford 0.49776191737968456
thép 1
Vụ 1
ant 0.08519319245030264
can@@ 0.5449576718904968
mel@@ 0.8288364413666139
sim@@ 1
não 1
Song 1
khổng 1
ùn 1
den 0.03140082437244042
Khoảng 1
sụp 1
Nông 1
Hùng 1
chụp 1
lỏng 1
43 1
Tề 1
Bảng 1
72 1
Lãnh 1
xuân 1
thầy 1
oi 1
tic 0.3842442485610624
br 0.6848814512287482
dải 1
lồ 1
ri 1
go@@ 0.7516590389574697
Đệ 1
6,@@ 1
trương 1
duyệt 1
ane 0.5631261879072224
E.@@ 1
long 0.30834384744474086
At@@ 0.7482485871147083
85 1
Ros@@ 0.6428905625766892
ite 0.22482241331322614
54 1
2,@@ 1
nhấn 1
S. 1
xấu 1
Ç@@ 1
Tuấn 1
eng@@ 0.3850600127086914
London 0.388702053326026
già 1
hiển 1
chợ 1
Texas 0.8107992210357782
por@@ 0.5173112991989449
Des@@ 0.7147099737652707
é@@ 0.1394985008678543
hy 1
7,@@ 1
bụi 1
Điền 1
07 1
muối 1
uli@@ 1
ẹp 1
Lep@@ 1
nhi@@ 1
1958 0.7592940572562069
pan@@ 0.8084158362908358
dường 1
ợi 1
CP 1
mọc 1
ons 0.1650657768839169
1947 0.7908160010939372
ali@@ 0.5080054701120181
1936 0.8220605834209709
pp@@ 0.8452546827101762
Gar@@ 0.6767497776202506
Cần 1
khung 1
cà 1
xám 1
Met@@ 1
Gal@@ 0.6833162374521667
vir@@ 1
oto 1
Khang 1
rich@@ 0.9534274615267442
flora 1
esia 1
Mag@@ 0.6885963216986004
ou 0.1343006271041324
Plat@@ 1
400 0.9144868743214978
Maria 0.9019176405552385
Zealand 1
Kur@@ 0.8925282251762438
dao 1
06 1
00 0.9143443231155189
gián 1
58 1
sạch 1
ub@@ 0.9243500522228133
ấ@@ 1
hoan 1
Hiếu 1
phú 1
Iran 1
pop 1
6.@@ 1
ướ@@ 1
anime 1
Cre@@ 0.8208939240998286
nhạt 1
Entertainment 1
thoái 1
ennis 1
otr@@ 1
hộp 1
nòng 1
nương 1
Tokyo 1
Vườn 1
Kun@@ 1
Tĩnh 1
niềm 1
úi 1
Hir@@ 1
of@@ 0.6690267014058532
ộp 1
f. 1
lạ 1
đập 1
ess@@ 0.30001501295022437
pin@@ 1
× 1
chuột 1
sợi 1
thám 1
khu@@ 1
Nhất 1
1961 0.7266616392612507
Michael 0.5548952306549534
ish@@ 0.5339063709303616
omyia 1
1949 0.7499751592325583
1959 0.750647750792636
Bre@@ 0.5841094132319443
chăn 1
oxy 1
Hyp@@ 1
lọc 1
tel@@ 0.5116862834719186
nét 1
thọ 1
č@@ 1
tiềm 1
ff@@ 0.4714265672148412
ũ@@ 1
ker@@ 0.9635469854813675
Thomas 0.483084034863197
th 0.18413623841401033
be 0.04902969748884409
tứ 1
me 0.2561168892622325
ali 0.9344058829580465
09 1
mê 1
Iowa 1
ọt 1
ẻ@@ 1
War@@ 0.7829394676667218
tháo 1
usa 1
tung 1
Argentina 1
Dakota 1
Mur@@ 0.9827428153768107
Bệnh 1
viêm 1
ngực 1
Xương 1
7.@@ 1
Â@@ 1
ựng 1
Nghi 1
62 1
ngủ 1
are 0.044061164077198164
sưu 1
Vệ 1
nghìn 1
Ohio 1
hào 1
ato 0.5690582098774049
hang 1
xoay 1
Andr@@ 1
Thiệu 1
aki 1
For@@ 0.3674095447105122
$ 0.24730111612014313
08 1
Han@@ 0.9111477656675365
Huệ 1
Giống 1
sen 0.4277313792518396
sơn 1
elia 1
mat@@ 0.4933003054608502
Dịch 1
bột 1
Sam@@ 0.8855581751926649
Giai 1
cur@@ 0.45487824733703397
del 0.03379134315075872
Hoài 1
AS@@ 0.9815985050010578
ye 0.516344644371551
Billboard 1
Neur@@ 1
ev 1
Trich@@ 1
03 1
04 1
Ư@@ 1
77 1
dae 1
ation 0.044431239745890944
chờ 1
ug@@ 0.6317914090427983
tig@@ 0.7147795270433243
P. 1
1957 0.7499653535748521
ge@@ 0.15572633864247162
ốm 1
Ngôi 1
ty@@ 0.8136653777429514
ễn 1
Quần 1
est@@ 0.22978837992370996
Sem@@ 1
My@@ 1
Sil@@ 1
đàm 1
Quản 1
1953 0.7924953793999235
67 1
ro 0.785156000245758
for@@ 0.20347816882225853
sus 0.1873657372169383
ụ@@ 1
Os@@ 0.9351003939274328
México 1
mi 1
Mül@@ 1
andra 1
63 1
Dryopter@@ 1
UEFA 1
You 0.7990722294364381
bọc 1
Rhy@@ 1
lắp 1
56 1
Pan@@ 0.7624557949240921
aus@@ 0.16160432285158963
õi 1
Tiếp 1
95 1
Đỗ 1
bi 1
sy@@ 1
inn@@ 0.46306914185268
Scotland 1
cưới 1
dược 1
khôi 1
Hor@@ 0.7659569347293398
ie@@ 0.6331739742937611
trần 1
asia 1
Ale@@ 1
hâm 1
Sách 1
yên 1
bấy 1
uch@@ 0.6249093604089146
xi@@ 1
76 1
virus 1
protein 1
ý@@ 1
lăng 1
1938 0.7028587566751808
Pot@@ 1
hạnh 1
sin@@ 0.5921784104369031
yl 1
trông 1
mèo 1
õ@@ 1
E. 1
ani@@ 0.927365659431122
dâng 1
thợ 1
điệp 1
mát 1
sil@@ 0.8366010710670306
Ky@@ 1
Huyền 1
ami 1
Viễn 1
66 1
68 1
1948 0.659572241119945
Đơn 1
Môn 1
1937 0.7729578665527372
tuy@@ 1
Thuật 1
bè 1
Tô 1
Sol@@ 0.5570656975572372
thiệp 1
ủi 1
Wil@@ 0.655805614025557
phyl@@ 1
que 0.019407125527252534
ilis 1
ge 0.19790363289097984
hoà 1
mai 1
mãn 1
8,@@ 1
escens 1
Chiếc 1
zy@@ 1
kar@@ 0.7352841847789483
Mus@@ 0.5853229189529334
hắn 1
Hem@@ 1
Cuba 1
bạch 1
ze 0.5475058862459035
chút 1
trộn 1
Ty@@ 1
giận 1
Mẹ 1
den@@ 0.3401579453340394
Park 0.38652640748164413
ỵ 1
1951 0.7988567000208135
Astr@@ 1
Huấn 1
xưởng 1
bọn 1
đáy 1
củ@@ 1
ick@@ 0.43525737110208856
ruột 1
Tướng 1
abr@@ 1
dáng 1
Music 0.5033780373954746
P.@@ 1
Video 1
Cửu 1
W 0.5517595399762447
khen 1
thận 1
Eri@@ 1
nô 1
61 1
bre@@ 0.3467467678700855
ela 0.7968240585685321
hồn 1
enti@@ 0.32633712539757204
ick 0.3914920795897676
ard@@ 0.5046989273790474
ớ 1
hầm 1
France 0.20620238352165937
ệch 1
agus 1
Đặng 1
Nguồn 1
mươi 1
South 0.23322799742705141
aer@@ 1
icul@@ 1
9,@@ 1
Còn 1
cap@@ 0.48341083253766426
Sen@@ 0.9320501181288366
bor@@ 0.5851071291448691
ry@@ 1
Lợi 1
lân 1
Myr@@ 1
Por@@ 0.6864380657049828
nhượng 1
ko@@ 0.831446990711794
icum 1
TV@@ 1
Anth@@ 1
ộ@@ 1
Khắc 1
for 0.015382984633627573
Phục 1
88 1
1952 0.7084890708356264
tóc 1
chil@@ 1
Kỹ 1
Chung 1
Báo 1
khoáng 1
Phủ 1
71 1
Cảng 1
Es@@ 0.506955911663349
ve@@ 0.5527512628569002
Cat@@ 1
bùng 1
phus 1
l. 1
mơ 1
Latinh 1
lossum 1
79 1
aka 1
ngo@@ 1
ros@@ 1
eria 1
nhuận 1
tica 0.9635640555546169
đốm 1
Ep@@ 1
khuyên 1
Thừa 1
lô 1
No@@ 0.8619723567254615
Bl@@ 0.5125658456788819
ref 1
1934 0.8078703902642029
1929 0.8179419914466218
8.@@ 1
hưu 1
Vol@@ 0.6118192862962579
dịp 1
ac 0.609184238152399
Meg@@ 1
CD 0.830168083113518
ast@@ 0.44649605900528183
59 1
Cop@@ 1
Kan@@ 0.957523300906797
Nag@@ 1
Nước 1
ngập 1
phẳng 1
ngự 1
ornis 1
Sz@@ 1
1935 0.7884447798112194
Chánh 1
đợi 1
Kal@@ 0.7591454353648093
fl@@ 0.33086313315126964
ā@@ 0.6976957841809955
oz@@ 1
Ple@@ 1
nhị 1
ese 0.280822955908745
Tâm 1
tar@@ 0.4427909991159632
Mad@@ 0.7711745642527156
Phù 1
82 1
Cây 1
Richard 0.575832717118145
chư 1
phy@@ 1
pul@@ 0.6992791298897135
kín 1
uta 1
lồng 1
Internet 1
Nor@@ 0.4062672243561332
Cryp@@ 1
hề 1
Máy 1
lưỡng 1
ole@@ 1
anti@@ 0.41106817771688703
rot@@ 0.8306444447560843
the@@ 0.43851008021316623
tĩnh 1
73 1
Ngũ 1
lật 1
chàng 1
thẻ 1
Berlin 0.42216066799699925
ette 0.30600822482415524
ă@@ 1
Martin 0.5847226185151467
ny@@ 1
phẫu 1
Megach@@ 1
Ta@@ 1
Quá 1
loc@@ 0.4652296561380822
ih@@ 1
Lao 1
ase 0.4921065634332102
tro@@ 0.45501362484489183
estr@@ 0.4968397563069342
Ang@@ 0.4776425572494425
long@@ 1
Ô 1
B. 0.5856179781342353
Ku@@ 1
ót 1
hal@@ 0.4623360871648503
Ath@@ 1
bur@@ 0.4529467705251161
ush@@ 1
74 1
Bang 1
š@@ 0.779977637560007
ft 0.392513973635027
86 1
enn@@ 0.378750502431977
King 0.43637061114565134
ster@@ 0.6361752160897785
sa@@ 0.44398172520169404
opus 1
69 1
Thắng 1
yo@@ 1
ab 0.20546141788552202
agn@@ 1
tur@@ 0.24904069294298417
entr@@ 0.4938643104122026
Nhi@@ 1
D. 0.8144893169308848
thr@@ 0.9917320623211446
Asilidae 1
thus 0.948848918157747
Rh@@ 1
ans@@ 0.5245086919914735
1931 0.8507446641036669
ide 0.6764698464708973
pur@@ 0.48390142216544507
Char@@ 0.5033172750573562
Dor@@ 0.8448576477448068
Wales 0.9697682189175336
Manchester 1
1914 0.7748580895042462
iro 1
81 1
Cos@@ 1
Kho@@ 1
Wal@@ 0.5574318997881972
Dol@@ 1
1918 0.6466040181745246
Mit@@ 0.8315229987631588
9.@@ 1
phila 1
84 1
cl@@ 0.2882100948272927
sol@@ 0.23508891979402632
1900 0.9018298889214745
Pas@@ 0.6406814681268441
vit@@ 1
mer 0.3572683412189906
Ram@@ 0.8660455459734374
Ly 1
ul 1
rau 1
ier@@ 0.3520502564293951
mag@@ 0.6462551272988147
iy@@ 1
Pomer@@ 1
isa 1
Nov@@ 1
Ba@@ 1
Minnesota 1
ator 0.30191421347312325
ova 1
Mil@@ 0.690160558772934
ace@@ 1
Edward 0.8706805258696474
98 1
rec@@ 0.24390663178001434
ain@@ 0.42711002484115845
aci@@ 0.6832899929245253
gon 1
m. 1
rock 0.5712651629203904
El 0.07402959303570873
ts 0.08277694723041644
1912 0.8541134814505437
st 0.20304223408859662
Kansas 1
gl@@ 0.5285325523642048
sk@@ 0.3685022845012462
vé 1
Los 0.18858703166082366
Mah@@ 0.7916825529736601
Hi 1
99 1
One 0.3544546214775603
oy@@ 0.6714401821294285
ine@@ 1
ut 0.5331673079063328
jeun@@ 1
96 1
Sum@@ 1
Love 0.839367149286589
Rob@@ 1
iti@@ 0.43657037918050606
1891 1
J 0.7452502328047639
Del@@ 0.7684425140209813
ẩy 1
mor@@ 0.4056819860349224
ts@@ 0.29015241316953005
Kam@@ 0.9879950869659978
punc@@ 1
ack 0.5372932860124864
idi@@ 0.9941849515642267
Mak@@ 1
93 1
Ol@@ 0.7586700539223703
78 1
Ter@@ 0.8495005165447601
ảm 1
Jean 0.33129301447184256
ito 0.6149569851979311
Av@@ 0.7681894997902279
lam 1
K. 1
sur 0.06368671825774597
ach 0.29747980361631216
600 1
antha 1
sal@@ 0.4086074738274895
Tom@@ 1
lum 1
burg 0.5179926069174933
1933 0.6383073777201944
mann 0.35958170217910673
1922 0.8074756791025176
ous 0.14570649193267865
1917 0.7437634510139755
ian 0.3160527353285713
W.@@ 1
field 0.247873111171651
ẵ@@ 1
1913 0.9060678996947185
poly@@ 1
wa 0.48679911599049014
ski 0.7253516892780434
eli 1
Moskva 1
hr@@ 0.8076554303257718
Friedrich 0.7879962037271528
ye@@ 1
ĩa 1
cas@@ 0.31548173572911786
ind@@ 0.4338083956489844
her@@ 0.19710079305831935
urus 1
1932 0.7520180822927788
1924 0.7647764616646252
Lind@@ 1
ạy 1
gar@@ 0.4684092221382195
Joseph 0.4917507572209829
anc@@ 0.4597206897597421
Bas@@ 0.47778878472364067
gan 1
Hydro@@ 1
1925 0.7939356329856857
Iraq 1
Scarabaeidae 1
via 0.4584950469551691
ure 0.17264829500534123
San@@ 0.6590090175764618
ãnh 1
1908 0.9726446712773029
We@@ 0.3850083054643599
ici@@ 0.5100890259490356
ha@@ 0.5929295087334037
ệc 1
Lib@@ 1
Lepto@@ 1
Khu@@ 1
inch 1
150 0.9477370777176665
Sin@@ 0.883484411091373
Xi@@ 1
91 1
Camp@@ 1
Gen@@ 0.4914578312389409
bon 1
Smith 0.6119271139665767
tin@@ 1
94 1
ẳ@@ 1
83 1
ẫ@@ 1
Jackson 1
1919 0.646798016045595
ów 1
92 1
yx 1
87 1
I. 0.6791340843242725
astr@@ 1
ates 0.1625485065524751
1910 0.8217186756510623
1916 0.9340129877362267
Bulbo@@ 1
ham 0.8600982107781994
ỗ@@ 1
Le 0.058302869403626716
Pakistan 1
1905 0.9226754118149819
Nguy@@ 1
1911 0.9179933623455484
T.@@ 1
Kir@@ 0.8496481419792851
ky 0.7180887776107953
Nar@@ 1
Mao 1
ề@@ 1
ã@@ 1
thoph@@ 1
Jo@@ 0.7521986890721781
Ke@@ 0.7732391619361034
St. 0.30722133530594975
G.@@ 1
ọi 1
ocarp@@ 1
ech@@ 0.5506729299766251
Sim@@ 0.5837316841684785
Colombia 1
chr@@ 1
tang 1
nú@@ 1
manga 1
Oc@@ 1
Nak@@ 1
Brazil 1
Top 0.9445730746980827
Bayern 1
yd@@ 1
Micro@@ 1
alia 1
Loire 1
des@@ 0.1402529132980403
Peter 0.41825773844819725
F. 1
mal@@ 0.4051194984555894
Aran@@ 1
Brach@@ 1
sis 1
ori 1
K.@@ 1
Gor@@ 1
ary 0.12548609440731784
Alpes 1
Ir@@ 0.5977902542799509
Lit@@ 1
USS 1
CH@@ 1
D.@@ 1
b. 1
bul@@ 0.5037451770873201
q 0.8629694564756152
tí@@ 1
Tu 1
800 1
ins@@ 0.3859729777733474
olor 1
Fre@@ 0.3285511986453194
97 1
don 0.7239149467580672
ollis 1
quy@@ 1
1927 0.7441214410112226
ami@@ 1
Heter@@ 1
ich 0.44491160563503074
cho@@ 0.8557963769746343
Xu@@ 1
lin 0.7450365739038611
La@@ 0.9349433179548882
Dar@@ 0.5628727370458917
ắ@@ 1
Afghanistan 1
1923 0.7653525687225887
tal@@ 0.523106327309357
ND 1
uma 1
Ha@@ 0.6801804176295742
Cyr@@ 1
Sten@@ 1
Men@@ 0.7503548500309801
az 0.8518914165976762
aris 1
Thel@@ 1
sen@@ 0.30440066738069255
Missouri 1
Ry@@ 1
2022 0.5863203647713724
89 1
bic@@ 1
Lam 1
tii 1
philus 1
R. 0.9888530405634475
pol@@ 0.39241718780357576
Me 0.9536928175517387
1906 0.9655562890165816
ago 0.7182199336207999
len@@ 0.5024157112205976
Luc@@ 0.9194147981158766
Man 0.6357394068598282
bium 1
ashi 1
leo 1
od 0.7232161868922404
sia 1
1928 0.6592224371787048
Mari@@ 0.6599854677369573
Fl@@ 0.30454309109509303
Yam@@ 1
ce@@ 0.540747377759227
Ham@@ 0.8125441475164192
da@@ 1
est 0.017346223340853863
ằm 1
Schl@@ 1
lam@@ 0.5374586688849046
ụm 1
ello 0.6242895474110285
àu 1
sel@@ 0.3817825193982886
ist 0.029161232435427054
yro@@ 1
off 0.2050759313859011
Shi@@ 0.9331675950386947
Lim@@ 1
Baker 1
fus@@ 1
Venezuela 1
Phyl@@ 1
pic@@ 0.785123009599189
Australia 0.3579150455431095
ade 0.25665048460821854
ker 0.26519625224708215
Not@@ 0.8323592328453332
Đo@@ 1
all 0.0713848459095649
Kat@@ 0.758082180042471
ik 0.47989409654162324
use 0.13896814166973886
Mord@@ 1
Tin 1
Bro@@ 0.5467397592386591
ign@@ 0.40601296271961096
ifolia 1
ther@@ 0.47452531113600205
DNA 1
v.@@ 1
formis 1
sul@@ 1
ren@@ 0.2592329343405666
enia 1
Coc@@ 1
.000 1
Far@@ 0.585031359624922
ophyllum 1
Olympic 1
bel@@ 0.3180925039015077
De 0.22549475480207695
ularis 1
ven@@ 0.2853927259825465
var@@ 0.8514772266160545
dom@@ 0.745729135048642
Super 0.7909166729464046
Cle@@ 1
yst@@ 1
osum 1
ony@@ 1
Simon 1
cz@@ 1
tata 1
Sur@@ 0.5627694764888237
Microsoft 1
Kol@@ 0.6005715668751564
Mary 0.5679245717498888
ber 0.3632774679185506
ũi 1
podi@@ 1
ps 0.28954397895384587
Ul@@ 0.7047800314535323
My 0.8548179322470452
ten 0.05822903817053461
0.@@ 0.48700942094169425
kov 1
ger@@ 0.2330650693720377
Guinea 1
Kor@@ 0.6028629831347552
folium 1
Angeles 0.5863729478291502
odon 1
Der@@ 0.9906790268215752
eci@@ 1
ire 0.24414828544712355
yph@@ 1
Sw@@ 0.7104730988569474
acid 1
Op@@ 0.6185622224743266
uyện 1
Sak@@ 1
eni@@ 1
osp@@ 1
lep@@ 1
00@@ 0.92249622445906
1926 0.6843223641793724
eum 1
ci 0.4344599198919771
uri 1
Salticidae 1
Est 1
longi@@ 1
1909 0.9294826962253605
ulus 1
ke@@ 0.3614253621596718
1921 0.6911906355007593
otus 1
Hot 1
otis 1
9,5 1
ku@@ 0.6732628161469635
Cap@@ 0.939006321884592
cat@@ 0.3545341566631705
Santa 0.48666206278428753
Nav@@ 1
ez 0.48449397756235324
1895 1
Il@@ 0.8803266524242902
õ 1
anensis 1
att@@ 0.29756579887865253
agi@@ 1
ome 0.5530386994727251
v. 1
Az@@ 0.8488485692877185
ern@@ 0.3742737783718642
T. 1
Chile 0.9242765035727499
Lyc@@ 1
Seoul 1
Francisco 0.5223470145790882
Ứ@@ 1
1915 0.7887522065281505
Hitler 1
Florida 0.6854797909963202
endron 1
ue 0.20951399479929503
Un@@ 0.24037907996605257
Eur@@ 1
eph@@ 1
Cam 1
Jac@@ 0.9988528643202881
Hab@@ 0.9264800157059
dic@@ 0.4159718862912868
Division 0.3100345391288063
Serbia 1
trich@@ 1
tum 1
uyền 1
Ay@@ 1
ỉ@@ 1
ond@@ 0.5226438823447082
ẳng 1
Ottoman 1
xu@@ 1
Virginia 0.6137440500677503
ellus 1
ance 0.1133380448531132
pos@@ 0.22904368089868976
Fu@@ 0.841988490851583
Na@@ 1
alm@@ 0.6226196348906756
fol@@ 0.6140441470207172
Football 0.4922093346779485
nch@@ 1
bol@@ 0.9106883013769479
aca 1
Pa@@ 1
FA 1
lat@@ 0.36160758321220643
Pen@@ 0.5832215231861052
ger 0.3048180259732936
Champions 1
cia 1
war@@ 0.24585259308968152
Mark 0.6297899783749502
didae 1
Em@@ 0.5166523054902226
inae 1
30@@ 0.9016728070964538
Gre@@ 0.6339520526519836
he 0.023320544391786793
ìm 1
ửu 1
Psych@@ 1
chin@@ 1
ect@@ 0.6785700374189397
Mir@@ 0.7195229547303408
esi 0.8521850537080944
eps 1
inia 1
val@@ 0.4305037801776743
Cro@@ 0.6695234903677555
Roma 1
osper@@ 1
uti@@ 0.9841315504772986
tom@@ 0.4084927702601013
Euc@@ 1
Google 1
ř@@ 1
Rad@@ 0.727928269293182
tre 0.5722255069131608
Dũng 1
Khmer 1
pro@@ 0.24026325572996343
duy@@ 1
24@@ 0.94522746020874
000 0.4488334930416087
del@@ 0.3647952177275643
oshi 1
Uy@@ 1
pil@@ 0.7283548012741278
Lang 1
Nú@@ 1
Prot@@ 0.6990749857088041
char@@ 0.44321176129180345
sii 1
Arg@@ 1
acia 1
mad@@ 0.9941265147497618
cá@@ 1
onidae 1
Bulgaria 1
FIFA 1
acea 1
asc@@ 0.95450913892441
Armenia 1
neo 1
apo@@ 0.5778067734753617
iana 1
bas@@ 0.29775854753017067
hydr@@ 1
AP@@ 1
ess 0.1894140169531087
Diego 1
ele 0.560565149071904
Disney 1
Sang 1
Bab@@ 1
Hawaii 1
isi@@ 0.3506108222084411
vil@@ 1
5.000 1
ticus 1
cy@@ 1
aul@@ 1
elle 0.07089766349603266
ric@@ 1
Karl 0.6287973228430875
grac@@ 1
# 0.5010496334230882
Don@@ 0.6171360682561103
Oscar 1
Don 0.7333383231528416
25@@ 0.8061995256240115
lig@@ 0.4145061036943396
1903 0.921272778680962
une 0.025018444860769387
eng 1
eni 1
COVID 1
Cyc@@ 1
Tim@@ 0.9746949612750676
ling 0.27146382644287487
Pat@@ 0.6484050486806187
edi@@ 0.4902666823655358
chuy@@ 1
Ec@@ 1
ust@@ 0.8648576055913635
tric@@ 1
Bah@@ 0.9193318941209444
North 0.19544164568836025
Mont@@ 0.5945501435939126
Tran@@ 1
Alexander 0.610856693851274
1904 0.8586154666731208
Hil@@ 0.7907480909428103
air@@ 0.33518310339197105
ney 0.47740497030909596
oceph@@ 1
ear@@ 0.41549921727915856
radar 1
Sab@@ 0.7224767541372067
und 0.008235251060681199
Black 0.46797950326609683
Ca@@ 1
Lam@@ 1
Wisconsin 1
G. 1
Ash@@ 0.8248904907878297
una 0.03367485422667331
asa 1
elli 0.8406195266807013
cac@@ 1
Gmina 1
Van 0.8249808671629729
1907 0.8051622984766765
aha 1
Nintendo 1
pel@@ 0.3940683450339052
met@@ 0.3714199660792048
VI 1
Victoria 0.7693127554275342
Dendro@@ 1
eth@@ 0.5603141108385067
endr@@ 1
nus 1
1898 0.9893599985248974
fi@@ 0.24776879064894267
Lev@@ 0.9005202736588388
Pav@@ 1
Pu@@ 0.9677601380774642
oe 1
Ka@@ 1
phia 1
oria 1
1000 0.8110265832887481
ava 1
ee 0.3811345642887157
zia 1
OS 1
Peru 1
Harry 1
Z 0.719106906241154
obi@@ 1
SS 0.8322284333334299
17@@ 1
res@@ 0.1329113685083342
els 0.146526321946295
Py@@ 1
International 0.21132865158141698
tis@@ 0.48109582477006013
IS@@ 0.6212502444021535
ilidae 1
itz 0.48244049494066427
arc@@ 0.9662669072324225
uz@@ 0.6973208613668905
pe 0.3183422743392705
Sav@@ 0.7889068851261829
1.000 1
atha 1
Dic@@ 1
1897 1
kil@@ 1
700 1
gi 1
ặm 1
Nigeria 1
It 0.041456577268266646
kin 0.7403286446824908
nom@@ 0.6788363473152734
Tan@@ 0.7924599333376717
W. 0.80358853148712
well 0.09680238595256259
vic@@ 0.4909431821476589
1899 0.9878281765565631
Pre@@ 0.38895192229944914
1902 0.8854634368006972
iki 0.7492043727693047
til@@ 0.38299241666497114
ilus 1
Les@@ 1
Madrid 0.617246464680813
ain 0.23644433174920088
120 1
Serie 0.8105510625155805
Elizabeth 0.8905741698736905
Shar@@ 0.8942312480926023
Fi@@ 0.6051870538189907
vel@@ 0.7841282455191688
bit 0.8292778052032704
Aquitaine 1
ton@@ 0.5833604691748226
Ran@@ 0.8425195577468038
micro@@ 0.9330968117907501
uki 1
emia 1
lati@@ 1
we@@ 0.19897870821983948
Sor@@ 0.8546735683263574
Euphor@@ 1
icola 1
ém 1
dec@@ 0.18694420331090666
vay 1
Ú@@ 1
Ecuador 1
ū@@ 1
yum 1
Premier 0.7360406865260563
Air 0.352155379975517
1896 0.9808372184442306
ap 0.452636200141049
ichi 1
Tour 0.41615420242830975
sé@@ 0.664066965650971
je@@ 0.5569451890253176
Pic@@ 0.9390378315497605
Sho@@ 0.8452978775653823
Vil@@ 0.7236034309163506
aen@@ 1
Hier@@ 1
guitar 1
eur@@ 1
Chrys@@ 1
Carl 0.8051924878091486
DC 0.9519521666237581
ylo@@ 1
* 0.15996656815706367
Dis@@ 0.38903231509056313
ca@@ 1
Milan 1
ho 1
ock 0.4823876832525437
Tai 1
Lincoln 1
Kon@@ 0.3425557655622676
fasci@@ 1
ful@@ 1
sem@@ 0.5446953828112292
Ả@@ 1
ừ 1
arius 1
Chelsea 1
ố@@ 1
ero 0.29238087567604154
ika 0.75152032792064
1901 0.8523890929984428
ista 0.29303868981984293
ity 0.09172817947860516
ocer@@ 1
Cur@@ 0.4484453202752311
ogr@@ 1
Pap@@ 0.6780708610841257
din@@ 0.6720450016505176
Hay@@ 0.8381291201919058
Records 0.3976902180260943
ath 0.4180682847510334
~ 1
ū 1
ç@@ 0.4535363194154078
Ga 1
Austral@@ 1
antes 0.19331272207505998
ecia 1
Johnson 0.693544041519687
Mot@@ 0.5445677313005765
10.@@ 1
bal@@ 0.3938088901030489
Bos@@ 0.7388956829260249
Dem@@ 0.5831830447958067
him 0.08956372696759576
Ô@@ 1
not@@ 0.282000483249268
ein@@ 0.09825379463401791
ks 0.10544015869568187
Red 0.446450240342234
In 0.015860774786239533
eu@@ 0.8519291321414539
hin@@ 0.5566182872033384
ington 0.5039423448263167
1,5 1
end 0.08186494946424551
fur@@ 1
ny 0.7988488541368958
Fri@@ 0.7866847666520558
mas@@ 0.3106267562556845
1894 1
TP 1
uk 1
Chlor@@ 1
Pel@@ 1
Ngh@@ 1
Arkansas 1
mes@@ 0.7831150938681616
ster 0.2722102106211307
atra 1
with 0.010836552119801801
hir@@ 1
DVD 0.8666587147569764
Ker@@ 0.6332868636074523
arr@@ 0.2408452808508724
Ban@@ 0.5478343411259552
Town 0.6710544030233695
Stalin 1
odi@@ 0.6067895908733268
dor@@ 0.5789338428032356
Dav@@ 1
ati 0.7424379499659841
ales 0.09509760618530155
say 0.9088090772689519
ole 0.3876738311638871
dem@@ 0.2613559235131754
Lor@@ 0.7725397101475877
name 0.11334519988716227
ẵn 1
enz@@ 0.386038253499496
Ra@@ 0.6602617505228808
uca 1
ef@@ 0.3038335075325305
avi@@ 0.9729022826368425
dii 1
Michigan 0.7563464978157972
Italia 1
Occitanie 1
ord@@ 0.2584380709553166
go 0.3013993063497451
adi 1
AC 0.6512843675783412
Che@@ 1
Star@@ 0.6375302180622805
yo 0.9630265706033915
Frank 0.6274097092889794
mic@@ 1
Ele@@ 1
So 0.4782484374461725
osia 1
Liverpool 1
Game 0.8641999998204766
Da@@ 1
ham@@ 0.7115873022729492
aly@@ 1
Rhône 1
oxide 1
ff 0.45953783880853594
anga 1
hum@@ 0.49320942034539317
Pil@@ 0.7690615057616106
hydro@@ 0.8573153840248325
Arthur 0.7069076554031776
250 0.898660065421741
Nobel 1
Tetr@@ 1
dion 1
ais 0.3796118170461427
NH@@ 1
bin 1
Wat@@ 0.8550680091234552
ise 0.10326099239265889
Mand@@ 0.8437942331041031
Tri 1
UB@@ 1
Fran@@ 0.7324982200107593
Ox@@ 1
Dal@@ 1
Taylor 0.8714048729269407
CO@@ 0.7895134545336436
Dan@@ 0.7334351198274149
Pyr@@ 1
ụi 1
etta 1
Maz@@ 1
YouTube 1
Steph@@ 1
illar@@ 1
Croatia 1
dy 0.4385208266619509
Dev@@ 0.588565224473444
Tel@@ 0.6770380401245093
mil@@ 0.5244948560765718
CL@@ 1
ight 0.3761860181124449
ovich 1
Je@@ 0.6473166236036976
amm@@ 0.4037139754058197
Í@@ 1
iidae 1
Gray 1
iri 1
san@@ 0.41948448104602365
rop@@ 1
Fer@@ 0.5939881324765404
Nouvelle 1
ellidae 1
1889 0.9770574137241336
oga 1
Pri@@ 0.5650574469337132
Gl@@ 0.4995309910228271
Wi@@ 0.8341562941017872
Brom@@ 1
Sul@@ 1
1890 0.8307196965954187
xen 1
illi@@ 1
eda 1
Pit@@ 1
wood 0.35412789358988117
Spar@@ 1
macro@@ 1
V. 0.8067923551837022
Lept@@ 1
ẽ@@ 1
mé@@ 0.4659232351854159
low 0.24416748370999977
ence 0.11363708508065862
Haw@@ 0.7781740062252748
Dre@@ 0.543378962811634
Columbia 0.67213460188037
inger 0.36219061394202096
Times 0.5406362434803713
Real 0.6843409597089587
ins 0.11104285446730279
Hom@@ 0.6576928159519065
ophora 1
trop@@ 1
American 0.08128083906263768
Jack 0.6288573565369169
uv@@ 0.6321306422265107
Slovakia 1
umi 1
carbon 1
vo@@ 0.35170564385440106
vari@@ 0.2877588541776245
Star 0.5107452501410069
istr@@ 1
amo@@ 0.9206088431375723
ken@@ 0.4264141583007831
anes 1
eck@@ 0.49443143270258083
Yo@@ 1
ini@@ 1
Beg@@ 0.708548898764691
Mim@@ 1
Shin@@ 1
ites 0.3341305869731259
Win@@ 0.567895301947924
PC 0.9409043377445934
gin@@ 1
bil@@ 0.3865645293285059
pen@@ 0.25547965594446076
23@@ 1
iko 1
ck 0.5854017311606409
Anti@@ 0.8603985775424376
tor 0.19216819141067504
Jones 0.5831499232212145
ille 0.2855093584277096
Apple 1
cop@@ 0.4634538640937366
Fe@@ 0.4008491531951857
onom@@ 1
Sand@@ 0.48972255752907357
AR@@ 0.5009648550451101
ake 0.33257443296477146
HMS 1
anian 0.9237081505560385
ceph@@ 1
lor@@ 1
26@@ 1
Nik@@ 1
ste@@ 0.25261028390101986
Reg@@ 0.20840577977251037
yn 0.623319276938822
Bat@@ 0.49645785908980916
3D 1
Orth@@ 1
Fal@@ 0.6346160206552153
tro 0.8155168815000297
nu@@ 0.5574055574381754
ish 0.2485373337133336
TH@@ 1
aba 0.15818032318038455
1885 0.9412792812775889
Albert 0.6262251249327085
bo 0.8937362046934144
olus 1
pseud@@ 1
oba 1
Latin 0.7250125469701377
melan@@ 1
Inter@@ 0.22296615090287833
Oxy@@ 1
sur@@ 0.13689828946786223
way 0.12538948115738235
• 1
Sri 1
han 0.3080202047803028
kr@@ 0.37378524431393634
Tom 0.6491618878649554
Tre@@ 0.36274411315085897
nhu@@ 1
Kas@@ 0.672807532360675
− 0.8430665250378235
umb@@ 0.7179918459707343
pin 1
ico 0.23577094033929222
Agr@@ 1
series 0.11416204441969639
Pod@@ 1
tamb@@ 1
Got@@ 0.780276670414419
Ble@@ 1
10.000 1
Bay@@ 0.7115282320076685
stein 0.37495028453568113
Wilhelm 0.6184347157142133
Mik@@ 1
Gir@@ 0.8292530769123775
sey 0.695896116241252
ory 0.24220443388924429
hiệ@@ 1
olep@@ 1
Vel@@ 0.8645116283632185
mb@@ 0.7861538288500677
Var@@ 0.9019528939158349
Fo@@ 0.5281136818428067
Kaz@@ 1
bon@@ 1
SE@@ 0.7564674928676188
New@@ 0.5586506881234864
zi 0.88284098100445
Pin@@ 0.7774560925593386
Rho@@ 1
Club 0.20786575635836424
UNESCO 1
12,@@ 1
Wood@@ 0.8625606708993908
nam@@ 0.44853438029383597
anda 0.7060039996185167
Ari@@ 0.9660651234707145
ings 0.0936637650547729
Big 0.5172482453072516
Java 1
ui 1
Bul@@ 0.6058511269289772
pith@@ 1
10,@@ 1
1878 1
NGC 1
Hed@@ 1
wal@@ 0.36687452970155593
11.@@ 1
Hymen@@ 1
Cir@@ 1
pus 1
Williams 0.5898943371602472
inter@@ 0.08215643334631324
Syn@@ 1
May@@ 0.7721975399841252
tru@@ 1
aeus 1
CN@@ 1
ew@@ 0.3401045260640434
ett@@ 0.432451852324428
Vir@@ 0.8110772886166889
sor@@ 0.35277015183737187
Pseudo@@ 1
ocar@@ 1
ett 0.36392201844973715
isch@@ 0.38989832716519596
ı@@ 1
ę@@ 1
Trump 1
ry 0.26032840228678916
plen@@ 1
Awards 0.37315994148874454
IC@@ 0.7346858172584109
Vit@@ 1
tera 1
Tit@@ 0.6950227270253464
Dom@@ 0.5803236779245077
GDP 1
roc@@ 0.78198990937345
vin@@ 0.549898675681427
1870 0.8189841364721123
27@@ 1
Dur@@ 0.7285119330723826
ines 0.16687194839890812
Bang@@ 1
Bon@@ 0.7130330843808729
Mich@@ 0.9763203379023042
Sun@@ 0.7439114379307258
any@@ 0.45513147771868945
pat@@ 0.3142912683741405
sz@@ 1
2.000 1
Congo 1
cher 0.21415741347147518
spin@@ 1
AN 1
Ed@@ 0.49053088899918784
Bag@@ 1
Ober@@ 0.21075203591135652
MTV 1
2,5 1
Bourgogne 1
CA@@ 0.5747954970712108
ria 1
Hauts 1
nhiễ@@ 1
tiế@@ 1
Calli@@ 1
White 0.3748840837322376
Eugène 1
err@@ 0.45450908229673154
Rock 0.5245583209236097
Cha@@ 1
ylon 1
Brit@@ 1
Med@@ 0.5875472163403361
imb@@ 1
onn@@ 0.2752468341976204
Pres@@ 0.348712869544295
ros 1
Amp@@ 1
amin 1
osoma 1
Bry@@ 1
Ga@@ 0.9463307764144457
xi 1
rit@@ 0.3220559196642557
Marie 0.43192773318205546
win 0.20577758850078595
Ven@@ 0.6368293989089551
ame 0.40766420957396093
kii 1
Eng@@ 0.560373547480156
nem@@ 1
Young 0.5652889358008996
Thom@@ 1
ú@@ 0.40878702769053227
our 0.16316631056358108
abilis 1
Rio 0.9229378668186955
Time 0.6623125904798957
esi@@ 1
jo 0.3287766582003511
dol@@ 0.7323220162006171
oon 0.9892951950408918
Hon@@ 0.518799181732053
oid 1
ume 0.38177248426440863
alum 1
gium 1
Brown 0.509776238232162
Cher@@ 1
Normandie 1
wi@@ 0.7288858477638633
Shim@@ 1
Macedonia 1
ji@@ 1
reg@@ 0.1596064803434317
anna 0.896948107848768
aux 0.052594568235907795
mos@@ 0.7100785869872116
atia 1
acc@@ 0.19786404357296558
uni@@ 0.2718570277795499
Lar@@ 0.5702567727647516
Haute 1
đo@@ 1
AC@@ 0.5223141835788431
Moore 1
phosph@@ 1
fer 0.28262438014314595
hor@@ 0.3096916975203402
ska 1
Ther@@ 0.6338543898368887
feet 0.9927619255722906
odon@@ 1
ray 1
cola 1
rol@@ 0.9432195099095553
Amar@@ 1
otes 1
1893 0.846026686690485
mol@@ 0.5940630258201177
Green@@ 0.8751895855745447
MiG 1
Pierre 0.3677126254070212
Bru@@ 0.7120388810550508
oli@@ 1
che@@ 0.703885953135955
Costa 0.988687275944673
Carolina 0.5270689089843538
bat@@ 0.23963937979530106
ther 0.4834329141097988
play 0.15615999001378536
esti@@ 0.39583344646173774
Algérie 1
Ach@@ 0.8607184127525163
arm@@ 0.40293171477830164
1859 1
Mid@@ 0.6611635971014475
Panama 1
tile 0.9345887463554134
Kom@@ 0.31471624790484115
ka@@ 1
hab@@ 0.32815073775317605
leri 0.5245344483989532
Om@@ 1
Cand@@ 1
Wor@@ 0.31809321274583935
Scott 0.5819325776809059
yla 1
Sax@@ 1
Voivodeship 1
Bus@@ 0.6120215654821888
Euro 0.8976555054853248
podium 1
Chicago 0.35325796620074323
brach@@ 1
Dam@@ 0.6841139578384837
zo 0.6134147062520892
tt@@ 1
Wo@@ 0.6599522548345722
1882 0.9749595950049245
Lat@@ 0.6764907860090015
eto 0.5406509390760837
28@@ 1
Tam@@ 0.8509527859805371
Pach@@ 1
ep 0.5675868070806684
1886 0.9083775863040884
ừu 1
VII 1
ado 0.03779639747500682
bach 0.3631448361817361
electr@@ 0.6752187865890067
Ta 1
Arch@@ 0.39768667420696246
ith 0.36748545094980706
11,@@ 1
São 1
Boston 0.5219545916444711
din 1
XX 0.7202661237444828
Kav@@ 1
Ci@@ 0.7190503854591699
AN@@ 0.7457679824662364
Lanka 1
brun@@ 1
Wilson 0.6952905561465188
rap@@ 0.29824435522906917
fo@@ 0.31169192522068523
Julius 1
tim@@ 0.26719630334684846
Daniel 0.49431295078549947
kan@@ 0.4272930144005174
Bou@@ 0.665298120757579
N.@@ 1
sam@@ 0.5901301214731405
Maur@@ 0.8333921744101226
ś@@ 1
plat@@ 0.48025958980418615
Arc@@ 1
Indiana 0.9190240305970138
Kenya 1
Walter 0.5941522654787429
prot@@ 0.20877812872989074
lav 1
mont 0.6162608772843728
1880 0.7777597126187398
Pa 1
int@@ 0.2371762760691003
She@@ 0.743166566175429
Comté 1
ilia 1
Gro@@ 0.6238506326805688
bin@@ 0.4801085150694345
coc@@ 1
Franche 1
Black@@ 0.8170093963978167
rh@@ 1
1875 1
1888 0.8588034371830461
hynch@@ 1
Dec@@ 0.4118222230238304
Ren@@ 0.4960049308018973
gal@@ 0.49166794460725816
ash 0.42142008658042374
solo 0.26889103694062244
apur 1
Show 0.6140967598176503
flor@@ 1
All 0.1768975826825504
yu 1
Acanth@@ 1
Oli@@ 1
etes 0.7713050926900027
Napoléon 1
1860 0.846292736414109
ễ@@ 1
land@@ 0.21517911648111235
oride 1
Ever@@ 0.8063011761897925
CD@@ 0.6967505653586291
Live 0.6455470098652724
Chik@@ 1
kin@@ 0.729332344426682
Lac@@ 1
The@@ 0.46339987504797564
XIX 0.7022204270689604
actylus 1
hol@@ 0.25676912440818495
Gom@@ 1
Mul@@ 0.6439992955486448
aro 0.7642098591212161
National 0.0852929815576951
1871 0.8707851997858455
ebr@@ 0.6994893720662955
Night 0.7957704862838946
thia 1
CN 1
Hollywood 0.8796350013606365
ars 0.192180578865001
bert 0.457251911716852
Uganda 1
EP 0.6227289779667085
ợn 1
Boh@@ 0.9770893124387708
BS 1
Gy@@ 1
TS 1
atidae 1
29@@ 1
lus 1
jo@@ 0.5088575403233803
lad@@ 0.497447353783999
MV 1
Lis@@ 0.9272825939508456
Anne 0.6709759887811918
Gru@@ 1
lut@@ 1
eil@@ 1
ken 0.12536964473603657
lea 1
les@@ 0.3219996874301142
Cel@@ 0.7198075939886059
pur 1
ill 0.33062772859896045
emb@@ 0.2258163972084284
mia 1
skie 1
Mos@@ 0.5380449460180676
BBC 0.5475249467420493
elis 1
sum@@ 0.3146366522113646
Hill 0.39152248139892865
3.000 1
wan@@ 0.6039029941334823
ơ@@ 1
1879 0.9411088292008299
eti 1
sten@@ 1
bus 0.4805917119331144
à@@ 1
Som@@ 0.835338743606395
mot@@ 0.3300219920986343
uf@@ 0.43173823451550347
ier 0.2261962745246955
ệnh 1
Ing@@ 0.6905372566357736
Li 1
chlor@@ 1
Ja@@ 1
emon 1
11@@ 0.6111254184926643
ack@@ 0.24550072168763196
fera 1
IN@@ 0.6232259098401313
Barcelona 0.7118764429048569
vol@@ 0.19544101595475552
Group 0.2606879024328534
UF@@ 1
Vor@@ 0.116181841215264
aus 0.03546548727662576
Media 0.5761339897884566
bar 0.23018138936908888
AT@@ 0.7066140322846206
Ju@@ 0.42672813376656243
istan 1
ủ@@ 1
hiên 1
Vo@@ 0.5947546332793491
igh@@ 0.31593554532175055
oth 0.607538194725163
SA@@ 0.6208801492629517
ị@@ 1
By@@ 1
Cham@@ 1
eon@@ 1
Okinawa 1
Dy@@ 1
Lab@@ 1
net 0.39312396753058837
onal@@ 0.630835025809809
asp@@ 1
ver 0.22950987060944436
agin@@ 1
cre@@ 0.14881171256667491
12.@@ 1
Bri@@ 0.47395634615013277
my@@ 0.5514790471114672
nit@@ 1
Buc@@ 0.7726326064060535
Grammy 1
40@@ 0.9908561783364881
evich 1
AS 0.7352934412574045
line@@ 1
Hen@@ 0.7543275853916143
bos@@ 1
1887 0.8505015250192364
1883 0.9260387610264739
Tal@@ 0.44738082166277454
1892 0.7712856024682672
Anna 0.6213126534244618
Im@@ 0.27243758133508034
ọa 1
Fab@@ 1
Nam@@ 0.8585314261704032
1869 1
Airlines 1
1873 0.9385139140880354
Rap@@ 0.7680956302319066
nis 0.48523806476693365
1884 0.858716968475368
ets 0.10706581585578567
town 0.12115263833807534
plex 1
Wang 1
bra 1
him@@ 1
180 1
Go 1
han@@ 1
Nat@@ 0.7504953228194878
dong 1
Games 0.40173549103782585
oll@@ 0.4008553976339351
Perry 1
Warsaw 1
lip@@ 1
Blue 0.5437361824470271
bro@@ 0.35378314316925746
nik 0.8867602678825176
orn@@ 1
ı 0.4623489609854053
N. 1
Pon@@ 0.6480893620221533
INE 1
piano 0.7798076794929859
azi@@ 1
Arsenal 1
oku 1
grandi@@ 1
aff@@ 0.2292136161244013
ở@@ 1
130 1
las@@ 0.5882174790944223
row 0.287673334125815
Boeing 1
IM@@ 0.8799136675126873
Pau@@ 0.716578733046406
nor@@ 0.27461735312223123
illo 0.5539069817497936
‘ 0.3722755560575256
Nem@@ 1
Leg@@ 0.3408463230532854
sit@@ 0.3278888767324782
Asp@@ 1
Wol@@ 0.49576722415289287
Aph@@ 1
ć 0.7206791768977914
iscus 1
1866 0.767203910727571
Beau@@ 0.6635459857396537
Cambridge 0.7688195707024237
Myanmar 1
Corn@@ 0.6147856637267461
from 0.010757049314634401
ostr@@ 1
Max 0.5633069943882663
n. 1
op 0.4527852405956946
Clu@@ 1
tam@@ 0.7083438100537858
1864 0.8485021056152138
ée 0.038931890482603634
als 0.016752831617555666
phil@@ 1
ń@@ 1
alt@@ 0.2789713123248198
900 1
1877 0.90693365552677
Gil@@ 0.7541003655876526
soni 1
uke 1
Belarus 1
AM@@ 0.6346731499015389
dis 1
obr@@ 1
Christian 0.26509965435293353
Ig@@ 0.8016375271211237
enc@@ 0.17946468207738597
kov@@ 1
udi@@ 0.9214581069094611
ồm 1
gic 1
lac@@ 1
po 0.49808565272001504
1876 0.8663373169980629
13,@@ 1
Fle@@ 0.91098689280684
Pom@@ 1
form@@ 0.20708020797075524
ık 1
Palestine 1
Jan@@ 0.7092566443860312
1838 1
Heli@@ 1
RNA 1
ike 0.48369995952833594
ace 0.2177495114514547
ow 0.3381182412510784
110 1
top@@ 0.5313112979925781
ois 0.5918308244864933
vis 1
Plan@@ 0.4529157031771236
Spe@@ 0.3813360314624063
1861 0.8407662251385055
esta 0.15254557274118172
won 0.09283325643584484
ö@@ 0.16034966409593446
wo@@ 0.3366498508572102
O.@@ 1
.com 0.7541477386995534
ław 1
pa@@ 0.7184963752936512
ron@@ 1
alp@@ 1
Hal 1
Austr@@ 0.972914915718996
Fin@@ 0.2696571371736272
Alo@@ 1
alar@@ 0.8855513914575671
Massachusetts 0.569769726483389
Sat@@ 0.8000505693787774
py@@ 1
US 0.10426485306728343
Model 1
1867 0.86536432722691
.-@@ 1
US@@ 0.4177295126970712
eon 1
Bac@@ 1
Call@@ 1
Centr@@ 1
Ant@@ 0.6599196774011289
kl@@ 0.2503529767194489
Island 0.25711430118828765
Life 0.33629819046166587
opa 1
unda 0.8817730463957021
Championship 0.23829029719957573
meg@@ 1
Rol@@ 0.6938626642338787
hit 0.40901227418535263
1868 0.8816111671098608
Bay 0.3426542957416797
VIII 1
Gly@@ 1
Spr@@ 0.7546148939504425
1881 0.8181214898099224
agu@@ 0.5401109211356089
chl@@ 1
Rus@@ 0.5362446493698967
1874 0.8863032067008572
bit@@ 0.6676167804165882
Sau@@ 0.6387581018133491
Juan 0.28728300751372926
1863 0.8517077188049609
Aster@@ 1
ave 0.3717261920037722
Petr@@ 0.9691604825658291
Dun@@ 0.5390183077733438
pre@@ 0.08412894587266365
lí@@ 1
UN@@ 0.6125560666019295
MA 0.7006138164685217
Mach@@ 0.7804999549225372
ingen 0.25362294613103886
Madagascar 1
ě@@ 1
Kos@@ 1
Rid@@ 1
Tanzania 1
Nad@@ 1
heim 0.3758746471396951
Mun@@ 0.7319972594973353
bes@@ 0.3360718877541913
omor@@ 1
ido 0.14212416719417711
fu@@ 0.35409340569175224
MC 1
leuc@@ 1
chn@@ 1
ais@@ 0.33721656764156704
ophy@@ 1
out 0.04966825200850763
Aeg@@ 1
Red@@ 0.377614715085047
eleg@@ 0.5931467554185825
ein 0.022985069423346192
Gh@@ 0.9018812104063912
Nic@@ 0.8871577557662433
gan@@ 0.5118191564689657
XIII 1
opera 1
inum 1
Nepal 1
Roc@@ 0.5939519826167188
SA 0.5478525184627918
Sti@@ 0.6725328376631946
yon@@ 1
isia 1
uh@@ 0.5805048630513865
Khan 0.7766164686826876
eff@@ 0.38025564634747494
Jordan 1
ome@@ 0.9965235419693862
Gun@@ 0.8150629996887789
IX 1
DS 0.9843728379931252
rup@@ 0.5322473622877729
Marshall 1
osh@@ 1
mand@@ 0.3572955664103412
É@@ 0.17882048968744127
Hat@@ 1
Nu@@ 0.8462223763679908
Mart@@ 0.9781840817492414
ple@@ 0.3284868596530214
Ah@@ 0.819179702136476
Bir@@ 0.42426989807391213
Kong 0.5549798373323976
ère 0.13685437837637052
Rem@@ 0.5222937730017311
eca 1
101 1
ail@@ 0.3191353752825417
app@@ 0.33336412493019263
tour 0.22193142445724914
acul@@ 1
Ghana 1
wo 0.20125287965580851
vis@@ 0.3513218077249633
ide@@ 0.4010189406455311
Cent@@ 1
imus 1
1850 0.8259673645389379
Web@@ 0.6118419660938605
Ken@@ 0.8256290818561776
Bak@@ 0.6995339482040137
Brun@@ 0.9138851187738527
Ten@@ 0.8410841806993056
our@@ 0.2629200378475258
aden@@ 1
ega 0.6746455145390667
Sudan 1
Samsung 1
Albania 1
trans@@ 0.09674741903997441
tem@@ 0.39853613049954606
sburg 0.927636425664118
Hos@@ 1
gro@@ 0.27696778864440774
eth 0.44925413491586413
Aur@@ 0.8295612283162869
nes 0.2768570071021149
Da 0.43359905931084947
obs@@ 1
lem@@ 0.42551488964018214
Thor@@ 1
sar@@ 0.6796159283116341
etus 1
Mis@@ 0.5378540912613072
evi@@ 1
rag@@ 0.8411028911466293
wer@@ 0.1733636954198546
José 0.28365444443901716
Green 0.40423996817901753
1.0@@ 1
Royal 0.18617667299305146
fic@@ 0.2968072032473876
ui@@ 1
đu@@ 1
enes 0.7713553072413083
vul@@ 1
Had@@ 1
Vin@@ 1
art@@ 0.29787703903932405
èze 1
gris@@ 1
rem@@ 0.194314540722518
anah@@ 1
ymn@@ 1
CH 1
All@@ 0.43324628178492885
1862 0.8014529616418391
Yang 1
ishi 1
Kin@@ 0.48526764008261386
80@@ 1
Sir@@ 0.9906213080191874
Hassan 1
sea 0.295175973112004
Yok@@ 1
1865 0.7860301300208592
set 0.11588873363411198
ST@@ 0.8006892574941544
köy 1
Hong 0.5506278413215336
SM 1
SC 0.5051281192999776
Sí@@ 1
pap@@ 0.42900958641217807
Cav@@ 0.7043593785231089
ếc 1
Rose 0.7628818591146825
BC 0.4200066666258363
ech 0.796350525686559
ju 1
ą@@ 1
Ra 1
fan 1
14,@@ 1
Kl@@ 0.33360779757837494
Max@@ 1
Š@@ 0.8874883255830868
Ali@@ 0.6701819049352954
León 1
Nom@@ 1
Vas@@ 0.9773019976827972
lu 0.9875445663850289
dius 1
Davis 0.6012657752504036
Hav@@ 0.4682659198853224
PT 1
ube 1
ì@@ 1
Kus@@ 1
East 0.17511281787633698
Romania 1
lar 0.23439247789850773
Soc@@ 1
nic@@ 1
Auvergne 1
F.C. 1
Sam 0.7812979216968902
100.000 1
ail 0.3653391214649936
Van@@ 0.941035976386285
hom@@ 0.24659969861322503
ku 1
Chris 0.5739712131844288
Val 1
1858 1
rey 0.2957205343069561
MS 0.6743695545003603
osaurus 1
ylus 1
Cass@@ 1
Him@@ 1
Apo@@ 1
Fair@@ 0.8516873202239883
idea 0.41274310329358616
Lom@@ 1
Tok@@ 1
Yu@@ 1
1848 0.7331623316399662
Ali 0.6133786334238712
Kab@@ 0.8236194135693723
omys 1
aster 0.832694267308787
PS@@ 0.8332970194049699
fal@@ 0.3566109358808739
itis 1
Raj@@ 0.6167845386312288
esh@@ 0.550029650479098
Ful@@ 0.709644977524686
Stone 0.7534282201686996
Kad@@ 1
Su 0.21198937246039048
Mi 1
gran@@ 0.7742122497010913
len 0.21815592499549233
1840 0.9396285807437472
Stand@@ 0.5836597659467945
cos@@ 0.6650904102425128
agr@@ 0.481583389107644
ison 0.3057848592652698
Pir@@ 0.6670899552826853
Day 0.3581656013364654
art 0.11333168660410331
Bern@@ 0.5610924823676597
I.@@ 1
ado@@ 1
Loc@@ 0.42155547237527075
kal@@ 0.4055956321195532
van@@ 0.9378575655503085
yne 1
ä@@ 0.08454185182794055
usia 1
ves 0.13147607027151872
amer@@ 0.8821352004525237
Gol@@ 0.5525084409658741
oton 1
Sony 1
Sid@@ 1
ass 0.3077622205330772
Lake 0.265526946215792
Lewis 0.6234782700549595
esa 0.26915058784884055
Norfolk 1
Pand@@ 1
Chap@@ 0.5052594403035675
meth@@ 1
ér@@ 0.13785386468425215
Rich@@ 0.7034708892752959
ờ@@ 1
Ethiopia 1
Puerto 0.6491457035817061
d. 1
mus 1
Little 0.49149580948893346
Liga 0.33044231827105036
NATO 1
enta 0.3136905897990344
ju@@ 0.2925009654322956
show 0.13314990077848932
luy@@ 1
News 0.5041084250815162
aun@@ 0.38532251492995623
GP 1
Bil@@ 0.4541134664151306
Tat@@ 1
Yos@@ 1
Ann@@ 0.5422479916889136
ưới 1
aqu@@ 0.36636124571212864
dig@@ 0.3712247469365313
uchi 1
oy 0.7471959721068734
Tol@@ 0.7311519761075504
ịu 1
thor@@ 0.8678895146862414
Sas@@ 1
was 0.0036965117760065147
Company 0.19779801567260172
acet@@ 1
alan@@ 0.9311676694329554
ont@@ 0.609473313944461
1857 0.9470694269850205
Wall@@ 0.9015859390751189
hel@@ 0.27457891821283104
oti@@ 0.7724906038112338
pter@@ 1
50@@ 0.8099124097650225
Kum@@ 1
lei 1
West@@ 0.2640643608997837
nea 1
ás 1
Scot@@ 0.8761336010410639
3,5 1
chus 1
rel@@ 0.11479835801673485
tak@@ 0.5345299523042589
1830 0.9232780901721015
Krak@@ 1
Norman 1
Amph@@ 1
ş@@ 0.4933319242338841
kor@@ 0.44761195693988715
Nes@@ 1
XII 1
log@@ 0.3363155739290458
ya@@ 1
lie 0.39297988725939326
Douglas 0.7338629326459746
Sydney 0.48828661526218936
dev@@ 0.223086357772902
Fox 0.6105952859512765
Kob@@ 1
Allen 0.7801755566647175
Georgia 0.47697530409149963
ider 0.36495969189312494
Mikha@@ 1
agar 1
has@@ 0.7708209778718644
igu@@ 0.5053939857094891
Caribe 1
roi 0.4043675392074217
Dich@@ 1
die 0.005431385624509711
Hid@@ 1
WWE 1
oka 1
cula 1
CS 1
Ere@@ 1
Oregon 0.812237604871651
mul@@ 0.6200422303246969
ram@@ 0.5654534240733585
1854 0.9806571134083719
uss@@ 0.3305177471941302
College 0.11315552094199502
Hum@@ 0.5481993944190043
wan 0.9310762399542694
mod@@ 0.3158298724535114
viol@@ 0.30221709061329777
Kim@@ 1
ocy@@ 1
Franklin 0.9768893321967856
Dou@@ 0.6186230439782897
amin@@ 1
amus 1
iga 0.8156798933384832
Alexand@@ 1
20.000 1
Lap@@ 1
Tum@@ 1
assi@@ 0.6626908363424173
mir@@ 0.5545454738696164
amine 1
ris 1
Cape 0.7770943384929424
ras@@ 0.38320450220524627
1836 1
imp@@ 0.31882395623450216
oo 0.6246129206303179
160 1
Cin@@ 0.7011832925120532
ston 0.5777421885149894
dal@@ 1
Bec@@ 1
Can 1
we 0.18235175009768817
Ludwig 0.6069360195494868
Hall 0.21425573638644227
Joe 0.4696299887682209
ky@@ 1
Boy 0.952947363975516
RA@@ 0.5450207460615447
itch 0.46921994823266744
margin@@ 1
Bank 0.3514082359886964
Bau@@ 0.1402707419611742
Ny@@ 1
lı 0.7951787997169983
urn@@ 0.46170573343065807
able 0.04572810109465552
enberg 0.4579259037789561
140 1
Phan@@ 1
idi 0.6918758774069214
utt@@ 1
mis 0.4138596568552988
na@@ 0.677705462184146
usti@@ 1
Miy@@ 1
bury 0.43516492329395456
Ster@@ 0.7937441336402962
Au@@ 0.2805557702551447
dan@@ 0.5816902521940948
chen@@ 0.44002965602240074
tol@@ 0.764234785175803
· 0.088446955796825
18@@ 0.8804999494813561
XIV 1
1849 0.9725808299824056
Bill 0.42618751357664375
ES@@ 0.4613457667064921
Abr@@ 1
Chart 1
wat@@ 0.5585392371038312
Rub@@ 0.8635045779659024
America 0.1865645967995904
amoto 1
uka 1
PA 0.6257734803020557
eno 0.570575539483627
aku 1
Mam@@ 1
achi 1
ø@@ 0.5135557334702352
icia 0.8489669389931487
Azerbaijan 1
35@@ 1
Moon 1
Seine 0.30125348702392785
LGBT 1
Och@@ 1
Lav@@ 0.7930872850665646
Ric@@ 1
Af@@ 0.8336642538365501
Bangladesh 1
ges 0.17741555108143603
ž@@ 0.7551027499038303
Laur@@ 0.5187121381331702
Kn@@ 0.3871296732815372
Android 1
ater 0.5769274376794535
stri@@ 0.5656783334693769
CC@@ 0.7797942474764434
DE 1
Pro 0.5920011080541142
Din@@ 0.6229059477517573
king 0.12331476554055411
1841 1
Tem@@ 0.504845414973595
Eugen@@ 1
Fun@@ 0.9285717015232507
mari@@ 0.6168659434547432
over 0.042059054823745376
sun@@ 0.6040420270422822
1872 0.7564071200510089
Acro@@ 1
kon@@ 0.1781992153643781
ướp 1
Phili@@ 1
ș@@ 1
Bet@@ 0.6437455739894676
Dubai 1
bis@@ 1
It@@ 1
CM 1
Lan@@ 0.671396913112747
p. 1
Carlos 0.3595607721660236
Constant@@ 1
60@@ 1
1851 0.9891594251136202
Res@@ 0.2190641026076776
heter@@ 1
ij@@ 0.950562122522493
Bud@@ 0.6205810898630134
ré@@ 0.06012305509196655
Henri 0.5578547297342907
iger 0.24373682175476757
Jer@@ 0.5595947860339466
avia 1
Linux 1
Gold@@ 0.4567827750085242
Prim@@ 0.465053215224556
PlayStation 1
Bengal 1
esp@@ 0.3001615783469886
Sag@@ 1
port 0.18480466587102054
ẹ 1
eton 0.8871029162066416
Gam@@ 0.8946746010964598
Pad@@ 0.5331474819265518
Pradesh 1
Facebook 1
Rac@@ 1
yon 1
ble 0.19464811063447543
zon@@ 1
Jersey 0.45129368397870695
iss 0.7386191062749339
FI@@ 0.5179942924772389
isi 0.5230213425588095
nung 0.2645533398297096
pora 1
eros 0.3481001273051577
ğ@@ 1
1846 1
Hex@@ 1
pau@@ 1
ski@@ 0.8026517871241571
hao 1
phen@@ 0.8956988943018614
ứu 1
NS@@ 0.8582793325567553
Will@@ 0.9557359212138391
eman 0.4351377185528771
Est@@ 0.22271517741194005
200@@ 0.6213392725137518
Chil@@ 0.8365446364823381
gel@@ 0.13145120676908242
pi 1
sch 0.26347919327389013
Schum@@ 1
ors 0.060849913656224545
Camer@@ 1
Super@@ 0.33369328102907936
Corporation 0.452797645084053
Eul@@ 1
Bad@@ 0.5096986890155846
hem@@ 0.9062458116305703
Ok@@ 0.7977102284392245
agi 1
Shir@@ 1
Hop@@ 1
ges@@ 0.159758974021308
Street 0.15794618172908045
dera 1
ics 0.10593354985385173
itz@@ 0.37718351042691456
Queen 0.3734803939946236
Fir@@ 0.7642188655885809
Iceland 1
iner@@ 1
Bot@@ 0.3647735275703921
lov@@ 0.8566137045312188
umin@@ 0.7765208565409274
ns 0.12894791564475766
Rud@@ 0.9288202712339861
AD@@ 0.6283403794373627
1753 1
c. 1
Sig@@ 0.49985672524740354
jin 1
ente 0.0747282445838371
Adam 0.5873054268540209
Francis 0.5028150268164718
multi@@ 0.4165693252503799
yna 1
Gel@@ 0.5041182308776793
Rica 1
Air@@ 0.7215066651861768
British 0.09216725820028748
Sk@@ 0.4044764935967821
ń 1
Cot@@ 0.6587466813561001
ades 0.21869677202508744
under@@ 0.11953153271345529
Bes@@ 0.39672046596078253
BT 1
brevi@@ 1
Maj@@ 0.6671676431134108
Son@@ 0.4425145335245134
abis 1
Anderson 0.7042295046611975
Mike 0.49221270659780325
ino@@ 1
phot@@ 0.43961699266517346
wil@@ 0.42759590197288744
anot@@ 1
Clar@@ 0.571645513740892
1844 1
Hap@@ 1
Uz@@ 1
radio 0.21167117559651819
alis@@ 0.3688386962241312
hat@@ 0.7252154153458511
onis 1
neg@@ 0.3459919764391212
onica 1
ovo 1
ult@@ 0.5188067453210732
Sloven@@ 1
flu@@ 0.290057675791129
Jan 0.6687998208159941
Sher@@ 0.5821091687260079
ag 0.4675473014701044
agan 0.8193799744422734
cio 0.4469916938812887
Andrew 0.5195060459890974
Marne 1
sum 1
Swift 1
pot@@ 0.33207622815729887
Team 0.23715200655905624
orr@@ 1
Chry@@ 1
Rec@@ 0.20602725298588917
old 0.11007530371051892
öy 1
dan 0.31538185872004393
13.@@ 1
simil@@ 0.6678756951810214
ily 0.7770398304175515
vu 1
15,@@ 1
Philip 0.7404404907215656
Best 0.24719690763555088
macul@@ 1
1853 0.9733347962793003
Cour@@ 0.4049119528071465
issa 1
yan 0.5682533961128845
1845 1
Mec@@ 1
Whit@@ 0.48057593366140744
350 1
equ@@ 0.27215308409911604
ron 1
St 0.22437037014346903
atri@@ 0.6221669026121138
ecta 1
ogen 0.5849103530394795
arch@@ 0.19094949043196968
codice 0.9905073724117412
Pedro 0.4666282285524623
onium 1
vin 0.5873925997984715
Hit@@ 0.9729871486765375
Open 0.30702706239557853
mis@@ 0.13731120044274686
oli 0.856284387198768
sei 0.32565141287399163
aine 0.2532265316907111
gn@@ 0.7171403921064845
agen 0.3152435736978045
County 0.07777252180150378
王 0.5646528550377057
Lang@@ 0.35700322991096894
som@@ 0.38056495186761824
ith@@ 0.953129970634672
ợt 1
ento 0.25254649261608797
iden 0.32626155062523593
Merr@@ 1
Sap@@ 1
omer@@ 1
Schw@@ 0.3080230129970859
prop@@ 0.30656403782178604
ret@@ 0.21179740533410757
Antonio 0.3407225020109459
je 0.23431130062430175
Bit@@ 1
Sachsen 1
ỏ@@ 1
SO@@ 0.698432428775132
dre@@ 0.2558966227409694
Vic@@ 0.5324601392640027
Ki 1
Aer@@ 0.8105540919155425
Alaska 1
proc@@ 0.4000751271520419
Otto 0.5629558063555019
bs 0.25821661746618924
Grande 0.48673987085960246
Slam 1
neutr@@ 0.7340970202725736
fa 0.8645387743123071
ulu 0.8972986408661716
Arist@@ 1
single 0.09873246420495646
School 0.07209649199251127
mit@@ 0.18798831584112122
seudo@@ 1
Dod@@ 0.9690083971780739
asis 0.8786265179068021
Lawrence 0.8229354910062855
Sun 0.5015023023310397
Lenin 1
V.@@ 1
XI 1
Ceph@@ 1
AT 0.811330464535768
Has@@ 0.7850405796856551
Ze@@ 0.45442063158807106
olo 0.8189415060880414
phon@@ 0.6534915501057686
4.000 1
ATP 1
Philadelphia 0.54148496485753
kur 1
Paulo 1
ats@@ 0.6231790841213631
centr@@ 0.39800929143674324
Conn@@ 0.6020010214531281
Studios 0.6857580662109808
tz 0.751811489436507
AB@@ 0.6808486607207656
Wit@@ 0.5157423177906599
estes 1
Frederick 0.7521947552050653
Hok@@ 1
ion@@ 0.5294862779935304
enus 1
ưở@@ 1
ử@@ 1
Alli@@ 0.7434924200384129
Uruguay 0.9964618816741931
dus 1
owski 1
omi 1
lit@@ 0.3830709375805582
nan@@ 1
Gon@@ 1
ec 1
Hot@@ 0.893589921496197
ben@@ 0.244910647812344
Ố@@ 1
Adams 0.8578160504360552
onne 0.31804219969387504
tw@@ 0.22431212653460514
Ō@@ 1
gio 0.6655117198166741
Great 0.2459008736828694
dea 1
ầng 1
Bolivia 1
Tos@@ 1
yer@@ 1
Kil@@ 0.5168259130556194
Donald 0.6520000444803651
Hamilton 0.6150259220299834
ote 0.22483055236111724
any 0.09192715362025244
aud@@ 0.5142779177532785
ský 1
oke 0.3949449833855092
37@@ 1
worth 0.3617901646414608
105 1
Domin@@ 0.5415031513033933
anz@@ 0.2588431248721544
Ley@@ 1
lon 0.8555813302947585
Girls 0.9119325062068321
esis 0.38680572943833724
Aul@@ 1
bir@@ 0.38765161835913653
tos@@ 1
Ukraine 0.5381486414357731
Bran@@ 0.6838197454796395
ning 0.14200876057010373
Stephen 0.5503475925649731
Ax@@ 1
Rico 0.8801320574132525
onius 1
16,@@ 1
Tir@@ 0.7356426174188153
enko 1
leg@@ 0.14038550662815172
DD 1
Ye@@ 1
ast 0.2016441169273547
Pent@@ 1
Si 0.4333459152309348
Galaxy 1
Tec@@ 1
side 0.08841631674216241
Mk 1
ons@@ 0.26700880471650956
line 0.07524490442794339
pros@@ 0.37123005241151313
Wimbledon 1
Mang@@ 1
Pet@@ 0.8160706617799687
SP@@ 0.5771707006774044
Dj@@ 1
Kazakhstan 1
ịa 1
Hamp@@ 1
eva 0.6837850696180873
sec@@ 0.1430905991884156
Queensland 0.6698319423511232
Pokémon 1
pid@@ 1
Rome 0.3672438727009736
Land@@ 0.13199834228468768
AM 0.5799606525589738
Mill@@ 0.6821360641484691
Quer@@ 1
XVI 0.8042218159687974
bius 1
ball@@ 0.3548334977160329
Centre 0.2947280434045212
Sed@@ 1
Vill@@ 0.6005874172512204
360 1
kat@@ 0.37911913752715704
oro 0.4319936299195555
sin 0.1683026164967157
amar@@ 1
Lag@@ 0.634099193366334
atin 1
enzyme 1
ouv@@ 0.3329511893366289
ński 1
Key@@ 0.9929069395581106
mus@@ 0.19985604651696715
asi 0.9081639061161038
Côte 1
Dragon 1
Ji@@ 0.7698146308545777
dri@@ 0.3014576409542862
gy@@ 1
sson 0.6835291273369654
sty@@ 1
Marx 1
Hog@@ 1
gol@@ 0.3320075204435669
imm@@ 0.7890241300270319
GB 0.8100539158232939
ix@@ 0.9456064419732346
Ot@@ 0.5800258214043508
taria 1
Ł@@ 1
Ball@@ 0.4532266667372106
Boy@@ 0.6527597104760678
owo 1
fe@@ 0.07682524244800928
rain 0.5858770219254417
key 0.24799824845988405
aug@@ 0.5669730692865281
quin@@ 0.8657749218467703
illus 1
Vladimir 1
gas@@ 0.48228905253522314
hut@@ 1
illy 0.4622506322956391
Bed@@ 0.4350771747466389
AA 0.5170964080954672
ting 0.05680378779994979
CS@@ 0.568713172983873
dam@@ 0.5939179207557311
dar@@ 0.2405005704249196
bri@@ 0.33696161342165215
Hun@@ 0.6400603281060394
Rod@@ 0.7147616828004909
itus 1
RI@@ 0.7318536572294667
oug@@ 0.5066688688131875
Dig@@ 1
elli@@ 1
House 0.11824775709212487
Libya 1
Osaka 1
NO@@ 0.8203626121745247
Rick 1
bal 0.49588461038812703
vo 0.31588876281262307
esch@@ 0.3826766035708281
kins 0.5137994342883465
thon 1
Bob 0.4781010987524419
Newton 1
pos 0.6297310756666
Kot@@ 1
1856 0.7888037371073698
emp@@ 0.20881582328474677
Mississippi 0.7550388701201852
Pur@@ 0.5258807927325602
36@@ 1
Papua 1
aja 0.42317579627886776
Ben 0.5060043640821204
Schmidt 1
125 0.9017466795700714
Rot@@ 0.4088100821141745
ban@@ 0.22654824325609452
not 0.02225579791851296
PS 0.5057190618075937
andi@@ 0.7591865884188521
low@@ 0.23197382675389958
Xen@@ 1
niti@@ 1
Union 0.12481840167940038
Barn@@ 1
Les 0.04137110460947651
ode 0.5361023923095176
cú@@ 1
Pul@@ 0.782128156374057
Tas@@ 0.5456905564296031
ante 0.06315379360334882
14.@@ 1
Bom@@ 0.5661322478559829
Liv@@ 0.628676211399497
wa@@ 0.41476791640131966
大@@ 0.0850434996997343
euro 1
ident@@ 1
Pfalz 1
aman 1
elius 1
eller 0.278652959823856
Muhammad 0.974309266104851
Luz@@ 1
k. 1
CA 0.5512210666766176
Peter@@ 0.74699304268202
rier 0.5360708542191368
icon 1
tra@@ 0.2850994033221288
Hus@@ 0.6042401598439244
vu@@ 1
17,@@ 1
Creek 0.36815108863530704
Sad@@ 0.8508388619883376
General 0.10829742600123196
Tw@@ 0.5454964057352215
more 0.035160777701722885
Stan@@ 0.9667953028571341
quadr@@ 1
Bad 0.5108166728958712
atis@@ 0.7410927053235193
AFC 1
Girl 0.8529987721307914
court 0.1770920350143647
mur@@ 0.3033630592962467
Champ@@ 1
eira 1
Gregory 1
Rab@@ 0.4873507665067788
Alfred 0.5263881508934083
rac@@ 0.32919380588246283
Bangkok 1
nov@@ 0.6678246414648287
Ẩ@@ 1
Roger 0.5607586502177717
Aus@@ 0.07395132033177124
Solomon 1
ical 0.06938222903898525
khan 1
cic@@ 1
Malta 1
On 0.03239095564912119
luc@@ 1
eau 0.14440507192250548
teri@@ 0.5426297714329421
xy@@ 1
Series 0.31233057953910803
nat@@ 0.6141598293913342
plic@@ 0.5467992576152099
Lec@@ 1
mo 0.34703199205172397
tiv@@ 0.2920464450953305
uni 1
pec@@ 1
IS 0.791740698937183
Jamaica 1
North@@ 0.4241741063057355
ket 0.3920858310670997
aut@@ 0.26075233410011783
fil@@ 0.22956537629666024
Phy@@ 1
website 0.5286995418145346
hii 1
ún 1
AI@@ 0.6787755117207089
los 0.010354559370646206
Yel@@ 1
6.000 1
Yak@@ 1
dh@@ 0.5302533840014366
Port 0.43782869806974833
austr@@ 1
NE@@ 0.7133115188263934
mg 1
mini 1
Wikipedia 1
Aqu@@ 0.6341595432094137
ingi@@ 1
teri 1
Lady 0.4644908688532402
min 0.6179821747676897
1847 0.898484365067113
abe 0.5038502584000957
gly@@ 1
EU 0.7060507001665195
Blo@@ 0.5378748507626786
Sultan 1
Catherine 0.789260933710824
ters 0.08877076349647157
Wes@@ 0.47839613828349525
ara@@ 1
Ś@@ 1
aro@@ 0.7384345254639968
Alice 0.7695311406594083
120@@ 1
aru 1
Ford 0.46595231420844824
Od@@ 0.7756996840842649
wich 0.6814483403816786
Cuc@@ 1
HIV 1
oko 1
Arm@@ 0.40973666605303727
amia 1
Chen 1
Hip@@ 1
sep@@ 1
Center 0.1794726253710298
Zo@@ 0.9003405528981707
Buch@@ 0.3234987670654274
Steve 0.46315539975956016
hat 0.08486169332760918
ulum 1
kali 1
eki 1
mut@@ 0.23900811613924458
Chel@@ 1
Gas@@ 0.43972987714045764
Linn@@ 1
1,2 1
Radio 0.23954888041614916
Berg@@ 0.31365354290397385
uro 0.7817313743741396
Clark 0.6414049666995493
Fon@@ 0.5766072456400894
Gul@@ 0.9070556174361725
ope 0.524231997717923
MP@@ 0.6090197110834
etz@@ 0.30813697649889193
pent@@ 1
Jung 1
ange 0.3029231381459159
Harvard 0.6526715915482035
Margaret 0.7106581447727497
fin@@ 0.08454037054612062
Fro@@ 0.7446891818867292
up 0.034261379285928574
section 0.1998041988328606
1837 0.9478618889719216
formes 0.5511316906649959
Syr@@ 1
ds 0.1423337736493298
eger 0.8291341142749398
Herbert 0.7924832776164025
Inc. 0.6031347509087192
ated 0.023706468586582628
alg@@ 0.2806616727189439
wen@@ 0.3035694339347962
Bis@@ 0.9747613755299328
CBS 0.842501754674524
Vati@@ 1
Cab@@ 0.4621919090945073
Guadal@@ 1
feld 0.27996924462096767
lio 1
omy@@ 1
1833 1
Chir@@ 1
Pass@@ 0.4851507133627258
Sir 0.2701373850619227
Vis@@ 0.4543344657107866
ean 0.3194926860541258
mati@@ 0.5489979414668322
plan@@ 0.1587203761980017
Lon@@ 0.8707986273633977
zh@@ 1
Ich@@ 1
but@@ 0.4231828572468892
1842 0.9523336231137731
Alabama 0.6814946498411317
psych@@ 0.33176705700802933
ump@@ 0.2288757145241587
Jerusalem 0.9321251754143656
Yemen 1
Gau@@ 0.561888257484191
Howard 0.5686471267573917
anger 0.42960971423852506
Jung@@ 0.8746945183853181
Kaw@@ 1
orro 1
Bow@@ 0.5270649989166207
sta@@ 0.883062024521877
Sicilia 1
Gn@@ 1
IC 0.6636193519404072
TC 0.8061972809822258
45@@ 1
Alexandria 1
Schleswig 1
Estonia 1
Bell@@ 0.7662213930868839
pus@@ 1
yak@@ 1
Den@@ 0.3473939817550288
Ivan 1
oder@@ 1
gay 1
Qatar 1
ault 0.4074803243747906
Ferdinand 0.7285570861407646
Yas@@ 1
God@@ 0.6218604958671528
opl@@ 1
Europa 0.26963521972257976
burn 0.687035038916796
Hang@@ 1
Maroc 1
orph@@ 0.8748376265819635
GS 1
Tang 1
Rheinland 1
Sierra 0.7364524831190161
Your 0.7086903949959551
amo 0.6983637806339845
ald 0.4486837310923855
inf@@ 0.15290550352778212
pon 1
Lig@@ 0.5753363267665692
Villa 0.5197193948699332
Gang@@ 1
Oxford 0.4371963503299549
1824 1
eck 0.27588792133331846
iti 0.8692891540851891
usi@@ 0.41314222820726265
unk@@ 0.3510402947996999
urai 1
én@@ 0.14477026953660443
Zh@@ 0.9015924818078123
Asia 0.33512854936587094
Bell 0.6342447939891827
Ray 0.6287551577344531
ept@@ 1
hip 0.31247567016781597
hip@@ 1
Long@@ 0.6272621263518597
obus 1
TT@@ 1
amba 1
one@@ 1
color 0.2607024414589257
internet 0.9672546703254494
Lau@@ 0.49725817532059985
1852 0.8044694727324065
33@@ 1
Set@@ 1
Sto@@ 0.40052293132997213
dur@@ 0.22804532955092394
eh 0.6309139943924135
Net@@ 0.6849089984349115
ör@@ 0.17510655988798804
ones 0.0949936959467526
Div@@ 0.4659430242700576
Nec@@ 1
Nob@@ 1
culus 1
Mass@@ 0.5885189064335964
Miller 0.5356630045052001
Nep@@ 1
ER@@ 0.4086122391107069
ọp 1
z. 0.3921848764053395
Pep@@ 0.9064107199180704
ider@@ 0.6218205695098297
Sou@@ 0.38113218411345456
1843 0.9611729525229126
1839 0.9414259482866485
0,5 1
arum 1
ın@@ 0.99610687793358
Shu@@ 1
adel@@ 0.9259014455534509
Alex 0.6507507033668412
Alt@@ 0.4323472093127835
Ard@@ 1
River 0.10091140726025875
Amazon 1
Clinton 1
Napoli 1
UK 0.1879531291038823
rix 1
HD 0.8375227346326072
Tamil 0.8495633998611829
igo 0.8212022311830363
wer 0.25046308190332744
Fel@@ 0.37133982532082566
NASA 1
No 0.19849943626211025
Lov@@ 0.7190754750741724
media 0.1734421473343752
Hur@@ 0.422336313739229
University 0.03948512298252463
15.@@ 1
Tunisia 1
dy@@ 0.8883250355871785
Grant 0.7399376714473008
ale@@ 1
gig@@ 1
lop@@ 1
yer 0.20783486691501343
1832 0.9446809468004114
Clem@@ 1
ize 0.34316800067539194
Kag@@ 1
Anime 1
Jar@@ 0.6184299030838029
enf@@ 0.2170350707418191
16.@@ 1
Torino 1
pia 1
108 1
Leon@@ 0.8217750852221765
Walker 0.7079473270928397
s. 0.529613547364263
ango 0.7359202785703353
Up 0.6115648761508599
Champion 0.8764280262532342
Lou@@ 0.471503472357405
pyr@@ 1
Victor 0.5370431859004448
ort 0.2738247432871125
Colorado 0.5129661929721379
Medi@@ 0.3687960824627195
aze 1
Bog@@ 0.7275682483567387
LA 0.4980027717698754
Sci@@ 1
cost@@ 0.38813034516286005
Hyper@@ 1
imi@@ 1
Arizona 0.5114085498397739
asaki 1
gam@@ 0.6887566640058359
olim@@ 1
Channel 0.5382225003929828
etti 0.3889565967089298
Venez@@ 1
Eric 0.5916119218975779
ark@@ 0.23551136919820947
comp@@ 0.1197436801472276
Bun@@ 0.6649379983307576
Kennedy 0.6974157307461297
enburg 0.5314280688522527
eder@@ 0.3442800353029218
èm 1
egr@@ 0.4731579105846927
Watson 1
eter 0.17159389577624687
Baden 0.6642618118594061
1834 0.944970916407507
Syl@@ 1
ili 0.5554710286417628
eme 0.22396944944303088
Clarke 1
Cun@@ 1
aman@@ 1
Ori@@ 0.5659811613129756
Trans@@ 0.16832627866821936
bec@@ 0.7379298066107702
eron 0.22506497541600715
Byr@@ 0.987367815957681
Ton@@ 0.4959469559182347
Alan 0.6077046327832579
Scar@@ 0.910875500968607
Č@@ 0.9226791884011674
170 1
1827 1
ander@@ 0.3285252079792478
robus@@ 1
rad@@ 0.6392998777147133
Kel@@ 0.5335000924682077
inidae 1
ingrad 1
38@@ 1
Hand@@ 0.26232686625168417
ert 0.07827328827291055
lob@@ 0.5178037372788041
omar 1
Angola 1
ame@@ 0.49041590367804344
ott 0.5406527581438153
uru 1
Hou@@ 1
ngu@@ 1
Chal@@ 1
Brian 0.5209717971423058
Fern@@ 0.5298538731004697
tenus 1
Final 0.3931496903743834
Tin@@ 1
dale 0.5791313967586309
isp@@ 1
1855 0.7208096966457634
Twitter 1
bot@@ 0.26379956016606265
ej@@ 0.3499265135569209
oda 1
RO@@ 0.654404183818523
Sant@@ 0.6406022580801989
ks@@ 0.26108601585917135
Houston 0.5778766046972722
Tab@@ 0.38925767671859096
ados 0.04223028101464554
pet@@ 0.6710890866311902
shire 0.30642980694364685
Byzant@@ 1
Mitt@@ 1
chum 1
Shō@@ 1
ennes 0.32332875375745174
then 0.038770827160938166
220 1
AL@@ 0.5740874833860858
Studio 0.6380093492531305
icz 1
18,@@ 1
Glen@@ 1
DP 0.6515320133435317
uto 0.9428232915297488
Jam@@ 0.7352457489767931
Pop@@ 0.5186694673393364
liv@@ 0.5645879739934581
Ast@@ 0.9997269559980392
ann 0.38415354341637514
assa 1
omb@@ 0.6338345043117266
own 0.07957507682767558
by@@ 0.39410377991171
Manila 1
Tony 0.4652608379116756
ony 0.30062163616923043
pas@@ 0.1266136726906965
ères 0.13948464829367602
High 0.12440841995907664
Brad@@ 0.8280847151523
ei@@ 0.6562073192350697
nar@@ 0.3772757895064657
occ@@ 1
ovsky 1
Franz 0.40109892197113295
ect 0.12082525361929741
issus 1
hot@@ 0.9438103007341199
Joh@@ 0.656902495908009
pom@@ 1
aster@@ 0.5072471261285734
Jane 0.6390533071537391
camp@@ 0.3479505207367513
First 0.15966151301704448
ingham 0.6203437088574066
AR 0.7275424328931429
anta 0.643949967214915
hen@@ 0.5566047282354796
Alex@@ 1
rig@@ 0.43339105011769147
39@@ 1
Grim@@ 0.9204477091564379
Pictures 0.8934854744631416
Sic@@ 0.9209410956304478
Cant@@ 0.6255853084853183
Zimbabwe 1
fa@@ 0.1921712663295161
otom@@ 1
pan 1
cip@@ 0.6093675178353369
Somme 1
ester@@ 0.5248696849257751
ism 0.08279831461099407
Wa@@ 0.5334487732313882
tion 0.04453503512753287
Nan@@ 0.942656629686093
Esp@@ 0.44896659995699023
Fur@@ 0.3465636950735083
Mog@@ 1
Seg@@ 0.4034037364851315
day 0.058468549918412466
sam 0.6488341593773944
Bruce 0.6627053835142426
Holstein 1
Bush 0.838219644650908
Is 0.4738203425231983
adr@@ 0.4232712807732336
Adi@@ 1
Kiev 1
Saf@@ 0.5720044912302227
CIA 1
Chr@@ 0.9307678047058242
Xbox 1
mun@@ 0.30493141710842486
pra@@ 1
John@@ 0.9661658293464396
neum@@ 1
species 0.08490276913764971
Bra@@ 0.7304898271993762
Mall@@ 1
alli@@ 0.233714913960321
34@@ 0.9900449880761532
Cho@@ 1
ovi@@ 0.8317169935830148
109 1
Two 0.2250409107706468
cell@@ 0.4519918513464947
Am 0.08424364431325256
Beatles 1
time 0.023522094813366368
450 1
But@@ 0.5808330823112594
Guatemala 0.9875648966908777
Ish@@ 1
minor 0.4011061753744261
tari@@ 0.4426962355335552
Ş@@ 0.6783906218539306
{ 0.41871920690084385
Provence 1
Chang 1
Sali@@ 1
Yen@@ 1
ord 0.36734282517249506
Chim@@ 1
Kis@@ 1
this 0.021099415181697934
Lombar@@ 1
qui@@ 0.28790240851615884
bet@@ 0.37750345102077665
102 1
Nev@@ 1
Vietnam 0.4744804300156856
ding 0.1282411021558707
ner@@ 0.20455152766736692
Moh@@ 0.650144274325324
Beach 0.4295782256863334
Yosh@@ 1
wald 0.38351024541327955
IP 0.7244071989228366
Luci@@ 0.6970711938790252
1800 0.6692990350814955
quad@@ 1
Gur@@ 0.8281420739614272
Rhin@@ 1
atsu 1
oper@@ 0.15129943269064522
17.@@ 1
alc@@ 1
Arn@@ 0.7739600793365817
Caesar 1
atis 1
set@@ 0.9310782119214499
edo 0.40628335782151553
mont@@ 0.6423375545563914
1825 0.980348063515581
Toronto 0.35892391122428846
NA 0.7900132218065867
Rat@@ 0.709106936156695
dav@@ 0.7409301092783888
uth 0.44236972343818287
Harrison 0.8628448398470341
acr@@ 1
syl@@ 0.9559852556603847
wh@@ 0.17585150973388725
Madonna 1
alaya 1
lev@@ 0.36474330260962123
1831 0.9153908847926688
Gali@@ 1
aa 0.8521300347178407
Dance 0.6787393526361881
Epi@@ 1
RE@@ 0.4818087353026018
eza 0.5959510678180953
Abu 0.9548262844794279
Dus@@ 1
Serge@@ 0.9724837850079919
70@@ 1
We 0.31566027809504377
chen 0.11186500319695095
Japan 0.15086833922653844
München 0.3965172283010594
Co 0.40532179345120817
Eli@@ 0.5178559930530977
Il 0.023395328798065756
Maine 0.7046961577579303
Will 0.7414663135306726
aç@@ 0.5690744483526354
Jun@@ 0.9918274950879331
Network 0.449387798510502
glau@@ 1
Point 0.437890872541978
elles 0.10875074327912607
orn 0.604290859663488
test@@ 0.485347269775685
Moselle 1
Siberia 1
25,@@ 1
Jefferson 1
Magn@@ 1
McCar@@ 1
ms 0.15286531649536
19,@@ 1
Anton@@ 0.8022267694667411
CE@@ 0.5008811436579814
Ni 1
Tim 0.7000422937919047
beta 1
eld 0.39929556678911965
erry 0.38543718939082394
insky 1
pub@@ 1
Gaga 1
Alb@@ 0.6651255443699231
PC@@ 0.5433634412027706
elec@@ 0.22748671486342914
Old 0.2760264428289746
Sis@@ 1
og 0.5483033551216455
24,@@ 1
LC 0.7843235482365384
enth 0.997979126645445
Yor@@ 0.8322092854188831
Wh@@ 0.36534483076445845
AP 0.600894046939744
ocol@@ 1
This 0.03299527994065539
gram@@ 1
Kash@@ 1
ander 0.7027520624201755
kur@@ 0.2596631036173085
lon@@ 0.9583879130787697
Boul@@ 0.781552138747755
aire 0.05836325907615716
japon@@ 1
hiz@@ 1
kan 0.6173074507426567
ò@@ 1
UTC 1
VI@@ 0.6517932662700076
Bid@@ 1
chol@@ 1
Agu@@ 0.6688135406358333
auc@@ 0.9627015946221807
edia 1
Mozambi@@ 1
ako 1
Moscow 0.5776473232818479
SS@@ 0.7013112280954931
ped@@ 0.44697926177765845
Sn@@ 0.9133676698538399
Sym@@ 0.8267096446593503
ü 0.5015230067321824
María 0.2965027184575225
Tul@@ 0.7354444975458369
Under@@ 0.6191773369982814
tuber@@ 1
Dum@@ 0.8301214054709684
its 0.013724763195561252
ż@@ 1
AL 0.8125911000297228
127 1
dro@@ 0.2863918510963218
3000 0.734538705568161
47@@ 1
opti@@ 1
22@@ 0.900990531536919
ayi 1
ister@@ 0.4273974856028082
Mé@@ 0.3594781365582873
mes 0.13698720445896873
Valley 0.26097000580246144
Île 1
Guy@@ 1
Neg@@ 0.758869990607876
TE@@ 0.5913367908434803
XV 0.6673980592876986
Turner 0.8499219697350063
lim@@ 0.22355083836450015
CT 1
Wayne 0.814339270766732
aven@@ 0.6687538581977304
orient@@ 0.3479225602698237
Artem@@ 1
Mey@@ 1
quar@@ 0.410795293863462
Junior 0.4232992358754698
zu 0.013869160023789687
Dro@@ 0.5109170149406189
lé@@ 0.4156391917288523
Athens 1
Ji 1
Pop 0.8107327358177864
Gö@@ 0.6107759902495404
Ped@@ 1
Vy@@ 1
arium 1
1828 0.9495490659184797
Trig@@ 1
You@@ 1
apa 0.6614387037991426
esper@@ 0.5041916170577185
α 0.3026404702829155
104 1
Heinrich 0.3184746215611396
Mug@@ 1
aco 0.4562720136359654
ader 0.31008524925071934
Fil@@ 0.2560861296780996
Russell 0.639558960179609
Johann 0.2446043898669124
nica 1
spi@@ 0.6143880764150312
Şanlıurfa 1
Gran@@ 0.4784673369271443
cro@@ 0.17418571143237763
osis 0.3811637433145543
Anthony 0.5026495933603132
Ras@@ 0.6110832230774902
4,5 1
48@@ 1
Bretagne 0.7915372992656151
May 0.05512041529389246
IP@@ 0.8575121415770192
oxy@@ 0.8431148893343626
agon@@ 0.42160674912058466
Digital 0.7450155496628662
pod@@ 1
pon@@ 0.2769502641328547
Tag@@ 0.597699158043128
amino 1
robot 1
Hub@@ 0.7504872682165185
Vik@@ 0.6570664012645314
Miss 0.42858352625279256
å@@ 0.5328043665766579
ations 0.025128635018759067
Sus@@ 0.5255206693501882
Mario 0.6288862660881024
amen 0.3945890084122583
ü@@ 0.09360734380416072
Pier@@ 0.6897682134091242
Thai 1
odia 1
tea 1
Prince 0.2770083970129132
Tsu@@ 1
doc@@ 0.26144542332231885
Cros@@ 0.6362340028864426
1835 0.8004092301485629
Luxembourg 1
Greene 1
tag@@ 0.4254816604144826
30.000 1
Lob@@ 1
Wak@@ 1
chan@@ 0.6590103374153502
otro@@ 1
Jr 0.45081345220834473
jav@@ 1
ướm 1
Bla@@ 0.6575601340636292
Munich 0.8137737444847538
Gag@@ 1
Rum@@ 0.5021026070487447
chrom@@ 0.8338731669833669
kam@@ 0.8439204901340464
Be 0.7692428531604896
C1 1
lava 1
20,@@ 1
François 0.2935266143812334
Wu 1
ose 0.23218246083925495
ud 0.4231258560980811
26,@@ 1
Award 0.12712151297225968
Potter 1
vus 1
Hoff@@ 1
Leningrad 1
igh 0.4910303013580232
Koch 1
ina@@ 1
nan 0.8880220408410238
Next 1
Nord@@ 0.19179824616933025
王@@ 0.2912073179908376
novel 0.2273632046020821
AK@@ 1
Baz@@ 1
cau@@ 0.7358900906795931
mir 0.5343706487203764
Land 0.19685502582927306
agara 1
thy@@ 1
Las 0.10661537856492821
ody 0.38554443176664865
olia 1
asy@@ 1
hid@@ 0.5431415594648522
stone 0.20446557451184827
enger 0.6838786743275832
DJ 0.6499203988070003
Marvel 0.8739879108723035
asti@@ 0.7214412159611787
ık@@ 0.9512491916165299
Hau@@ 0.8510429855024589
Road 0.145280890367745
anti 0.19684600235220376
Ob@@ 0.3183740524216825
Um@@ 0.15393402752166443
asha 1
let 0.2002321047918633
Sky@@ 1
190 1
Warner 0.6799092135659826
ask@@ 0.36554938071845283
imi 0.5880083549416429
mel 0.7905256188139832
nd@@ 0.4055603888292059
acer@@ 0.9333649800454332
Chin@@ 0.7312557492017682
Manga 1
affin@@ 1
Deb@@ 0.338130864980942
polis 0.6686820645101644
Prom@@ 0.7328230983276763
bass 0.6664034661054999
bau@@ 0.2577861487661917
hic 0.7425460302496076
Jacques 0.30840197706536016
insk 1
Lak@@ 0.4581845116955403
hop 0.8500468997255303
Roosevelt 1
27,@@ 1
Jin 1
Ner@@ 0.7945058472168309
Ryan 0.5842903799154426
Nas@@ 0.6728094928866415
XVIII 0.5862552953552763
dev 1
320 1
Tach@@ 1
canal 0.4021492100136394
gun 0.37268004855311254
ī@@ 0.6235999757875164
poli@@ 0.5905284442232897
Golden 0.3888818274590885
Obama 1
arra 1
cher@@ 0.35550912823656494
dot 1
Band@@ 0.5234605419629854
Gard@@ 0.8945910341231413
teria 1
tus@@ 1
Napoleon 1
BA 0.4471006900507563
actus 1
kug@@ 1
Zen@@ 1
las 0.012939642970808534
ë@@ 0.6103501690624602
18.@@ 1
8.000 1
MP 0.45621715611457336
pard 1
23,@@ 1
ave@@ 0.5915423086829574
light 0.14529718437659767
1826 0.9493488561167639
Kath@@ 0.36480374849134123
Stein@@ 0.303752183129926
ret 0.5065724062622055
Ind@@ 0.8008066673932728
cy 0.4066144144028864
Hz 1
ana@@ 1
ids 0.1926124702397751
Aleksandr 1
Christopher 0.6054175853606539
ers@@ 0.4798873406407834
inga 1
rug@@ 1
Miami 0.4983133816409068
enza 1
Iz@@ 0.9687401576863481
enne 0.11226570940856938
zy 1
Taliban 1
ache 0.20707156919983308
AD 0.4721463588314261
Balkan 1
Bour@@ 0.5198829649028314
ete 0.17041846116269932
Philippe 0.5032247126159922
Wer@@ 0.2380823419522451
camera 0.8994199491716858
ont 0.04566945989642613
res 0.16389917386348607
Morgan 0.5861195518002498
Samuel 0.418360963784353
abad 0.5043271340377863
ater@@ 0.558173738722396
Kö@@ 0.5853036235851709
metal 0.3000434137463357
tium 1
MS@@ 0.7525666619449233
Cardi@@ 1
Chor@@ 0.6241986020044303
Raymond 0.7283988761852831
tab@@ 0.30391171350663565
Ichneum@@ 1
vers@@ 0.15634558017407277
ST 1
fre@@ 0.12556103158708837
ès 0.22256247391154352
Geor@@ 0.39533024724190596
TO@@ 1
Hans 0.2601553411781359
chel@@ 1
pres@@ 0.09846473674626892
ches 0.10297407705379016
com 0.7353205045853279
mouth 0.38798114780404525
Kevin 0.5583536010900052
Kap@@ 0.3452474996359141
tac@@ 0.5025076547911447
Ostr@@ 1
lav@@ 0.5775208188371581
Banks 1
rep@@ 0.2728859609764998
sang@@ 1
tre@@ 0.12682741127940186
DA 0.6005953583509066
Hak@@ 0.8594985855512195
glo@@ 0.8158316578225749
Hin@@ 0.27972820376621665
Jim 0.399220821492798
cron@@ 1
Pyrénées 1
Nelson 0.6022330670395358
ulin 1
Khar@@ 1
VA 0.7961036137554718
ough 0.3160002652017847
Charl@@ 0.70487345637107
ely 0.06715142177125447
AIDS 1
rap 1
Heb@@ 0.6604274874515232
Maritime 1
ment 0.05035545897190706
sius 1
MI@@ 0.6795081143089279
lock 0.32365157181101917
bó@@ 1
GP@@ 1
Glo@@ 1
Good 0.5785209948254604
Spring 0.7698206121760122
Lucas 0.8374267954929906
aj 0.6726301429732822
³ 0.8911553931730098
sw@@ 0.1337408845883042
Gros@@ 0.8086463323952142
Wright 0.6522129320331675
glu@@ 1
128 1
Aut@@ 0.2757318507524435
Patrick 0.39908589031434527
alba 1
arina 0.8946043936198401
olig@@ 1
oshima 1
Cru@@ 0.5783498126462525
Play 0.657366433462549
ime 0.2508322600779504
107 1
App@@ 0.5149435020516738
CC 0.5120748970420336
ling@@ 0.4493719771104248
20.@@ 1
ats 0.07260261719143832
zu@@ 0.19720288476673772
Afr@@ 1
1829 0.8849667044265068
Nova 0.7436136485078095
onlyinclude 0.4789672173494741
Hart@@ 0.5535276135751179
Santiago 0.40945182478766534
Mut@@ 0.622741206865593
Nicholas 0.7695314770519058
Buck@@ 1
Barb@@ 1
medi@@ 0.18509096667139047
AU 1
Lem@@ 0.6016909347158332
Witt@@ 1
tz@@ 0.6038992229190446
house 0.08379164030545652
Kra@@ 1
Rolling 0.8992147022073095
22,@@ 1
50.000 1
org@@ 0.34961191063240027
ury 0.35228302710633547
Blake 1
Power 0.406701376687745
kham 1
李@@ 0.3044487932936711
cili@@ 1
Comp@@ 0.5693135476900831
far@@ 0.241090532035267
Heart 0.6473456226561359
Pog@@ 1
ces@@ 0.3930475104710442
cot@@ 0.40816036293556573
1820 0.5714527000570986
fran@@ 0.4888601086274038
urg@@ 0.29521305050084057
Mod@@ 0.28434566371884795
ux 0.2579787861539547
Carter 0.6516747082969653
kei 1
lich@@ 0.2670020000732069
za@@ 0.8767054612241264
ehr@@ 0.3276172079496098
lus@@ 0.3087018303722472
sac@@ 0.25867678918317605
Lamp@@ 1
gens 0.7003188899076447
Aires 0.36182344323855087
Myan@@ 1
Sec@@ 0.39591698724093144
cha@@ 1
zen@@ 0.35299397264815247
Pra@@ 0.7423443944423092
radi@@ 0.2279464063718347
Garonne 1
Men 0.2923379552256256
Thr@@ 0.48986500378806924
air 0.11074637176933738
alan 0.4216266071698547
ix 0.4106870250963018
90@@ 1
Melbourne 0.4243016186614144
ister 0.21683791657384874
may@@ 0.41864624634796693
oz 0.6249306755938395
Darwin 1
Robin 0.7849028849490884
aft 0.2500485341600697
anch@@ 0.5332958499620977
super@@ 0.13714735452850174
22.@@ 1
usta 1
Batman 1
CI@@ 0.5012903857654813
isha 0.9099727552025667
Hag@@ 0.8146795126656325
Son 0.14505390104133412
hal 1
oun 0.7562143988975485
21.@@ 1
Buenos 0.3592386394455717
1810 0.822748170421248
ran 0.18448545759323412
rei 1
DE@@ 0.4753929933392944
Rein@@ 0.447388666844567
7.000 1
Mess@@ 0.4719573418986783
fon@@ 0.27813863430067215
Bundesliga 0.5691663982219004
sag@@ 0.7644613968594423
âng 1
Barbara 0.6135612764486895
phr@@ 1
106 1
115 1
Sing@@ 0.468130136150203
Cruz 0.4680706399330572
ady 0.31549348423437823
anii 1
ester 0.22502680079337742
gem@@ 0.27011588755426325
mark 0.26707981582659296
sl@@ 0.24757501122482237
Id@@ 1
War 0.06004874562737204
asu 1
kab@@ 0.634836734267431
AF@@ 0.6985254878166706
Fantasy 1
Somalia 1
benz@@ 1
cid@@ 1
uga 1
bón 1
iz 0.5291012624644531
103 1
Namibia 1
cli@@ 0.20471598325031598
gu 1
How@@ 0.6604555081846039
Kul@@ 0.7143217365264629
Ontario 0.3347393357556314
Shah 0.9596786494668066
cam@@ 0.26264652659687254
sing@@ 0.32614962073060005
lida 1
Eil@@ 1
Jum@@ 1
bu 0.1727284874391858
evo 0.7689455865966002
bula 1
Brid@@ 0.7496253666918244
Mac 0.8113455008818807
Oliv@@ 1
oki 1
Cous@@ 1
ā 0.8831887907342856
Bruch@@ 1
Nebraska 0.9193886584104574
Santo 0.6889987800348387
「 0.07554146053670445
Gle@@ 0.6717108355980447
omo 0.5396783853017302
tel 0.16201274409516514
Harris 0.559481252764785
Home 0.32845993311558447
khe@@ 0.9468794068091422
pol 1
CO 0.7316347229307988
DF 0.6241658242352037
trac@@ 0.3111141231435965
」 0.0753648897778408
Inter 1
anos 0.18144928176217529
model 0.1929800181385669
IA 0.7661156133440632
Madison 0.8361830381115863
uri@@ 0.7448837154394616
Ferr@@ 0.5415738307514625
Lic@@ 0.7540860839424741
Yan@@ 0.5947143054863047
argent@@ 1
hin 0.3951573457549987
n.@@ 1
ous@@ 0.33032795045811175
bot 0.3958212233500045
ár@@ 0.27816905003263576
Bath@@ 1
Oh@@ 1
Tiger 1
nati@@ 0.5827497733094953
ally 0.03294298428370091
uno 0.11660236047671416
124@@ 0.7255418266923509
Lie@@ 0.5902000637036819
Tennessee 0.4329149362253012
Ev@@ 0.2453930797098169
Gabriel 0.5435060513076269
Good@@ 0.5468647893847673
Kay@@ 1
Stal@@ 1
Einstein 1
Lord 0.21859174266645434
Lyon 0.49223875416352947
aven 0.7594108338415068
w. 1
ias 0.6311487494614477
Turk@@ 1
Sub@@ 0.16920296337934138
mern 0.40248631496592985
yar@@ 0.6010172629770996
Brah@@ 0.9442394385455187
Card@@ 0.43134177087752246
Ivan@@ 1
Milano 1
Ralph 0.8607692714871054
Lup@@ 1
O. 0.8719078459330428
Zambia 1
aw 0.493598083369096
borough 0.3700787175295792
Adolf 0.6452370465654517
Sper@@ 1
fili@@ 0.7444293037018368
other@@ 0.3096161862232427
} 0.4143610294229043
Solanum 1
Wed@@ 0.7374481776513169
andi 0.9864959837185319
111 1
PE@@ 0.7016478074691126
win@@ 0.44528528085676744
lard 0.4934300552754067
Orch@@ 0.842276611850868
Web 0.9829503184889766
ectus 1
kir@@ 0.5459234851660791
Marcus 0.9224554626755218
Cly@@ 1
Krish@@ 1
Sankt 1
das 0.0104559319093159
ser 0.06351125529122405
ữu 1
113 1
135 0.9838078924282391
Kō@@ 1
Rev@@ 0.27021914973065875
cir@@ 0.3212596463439107
his@@ 1
lex 1
lod@@ 1
Gib@@ 1
Row@@ 0.6516659755173727
tul@@ 1
China 0.10319578635916747
Ptolem@@ 1
Sey@@ 1
pri@@ 0.1736020153978537
ust 0.20006677928954036
Jimmy 0.5615735151707087
Kepler 1
eer 0.37366785934279617
Dim@@ 0.8577577566227419
Ray@@ 0.9220064185805055
Cul@@ 0.4483705755871952
Ses@@ 0.8670510940645445
zar@@ 0.6224567341805134
Sek@@ 0.3558055934934126
este 0.06195824702633861
itt 0.44886292339981926
that 0.004841926723148888
eb 0.582795228714492
öl@@ 0.1963808843322763
Luis 0.26105963213357686
Ves@@ 1
240 1
Post 0.27698279908138806
mani 1
nucle@@ 0.839584588679974
pac@@ 1
è@@ 0.17272336256388193
Association 0.10149058979148931
oss 0.6780952167412209
sha 1
Jak@@ 0.8211470661406364
Min 1
Story 0.6937250808723493
bekistan 1
lag@@ 0.24033486660347908
opp@@ 0.3852298993988599
Andre@@ 0.9580755578240697
Fort 0.2445707713518797
Kak@@ 1
Ou@@ 0.4949647411849899
dil@@ 0.42583472049430254
leb@@ 0.34853995805864246
Sivas 1
augh@@ 0.3615606086338909
els@@ 0.38788923253576124
Orange 0.6347874400959298
Penn@@ 1
Maya 1
sap@@ 1
Og@@ 0.9802341405795729
1500 0.5013376343958571
46@@ 1
Cog@@ 1
Donn@@ 0.6977429548048268
HT@@ 1
ID 1
IBM 0.9645977628133238
azi 0.7318419387308629
él@@ 0.17167653721216017
ayan 0.5769599041085663
mang@@ 0.82736885204672
19.@@ 1
BO@@ 1
eland 0.3989341752899613
pH 1
yat@@ 0.9019682691493321
Type 0.6946183432355965
bac@@ 0.32293846522880615
X. 1
tric 0.5347375000344156
Game@@ 1
ams 0.1913271535270345
Sea 0.2883433464565068
iji 1
Catal@@ 1
Hut@@ 0.7837989006136356
Lenn@@ 1
wi 1
IUCN 1
wak@@ 0.5145732753921408
Paraguay 0.9742208115011973
Sang@@ 1
Sug@@ 0.8532250564183034
his 0.005977540910051542
lik@@ 0.29981113640816304
syn@@ 0.2575865820585337
CP@@ 0.684100133825008
Manuel 0.3105948931200223
ando 0.04293988098216946
ao@@ 1
coron@@ 0.6512016352441659
gor@@ 0.7605586122394695
zen 0.1347923871793979
28,@@ 1
Barr@@ 0.4601931959133872
Stor@@ 0.6711216050021103
egia 1
Juventus 1
ery 0.23613741671028726
1.500 1
1806 0.7607686330121035
Apollo 1
MO@@ 0.6998094804803212
rik 0.9942090073703391
55@@ 1
Charlie 0.5914093143705428
Mobile 0.961757494154917
Roy@@ 0.5357293762785293
200.000 1
A1 1
kom@@ 0.15509546025924031
Amaz@@ 0.8894251955618979
odo@@ 1
oster@@ 1
trix 0.7424203302591654
Vincent 0.545497211534862
emer@@ 0.296576394874305
Hindu 0.9345240161307962
area 0.04616490792847942
Sac@@ 0.5835295217466249
21,@@ 1
Nevada 0.7761601314387445
100@@ 0.9067550151947007
Cic@@ 1
Carey 1
yle 0.49242740888839026
tot@@ 0.249791065718869
Adri@@ 0.6536633581947155
ego 0.5032531116103833
otte 0.43693059634837145
Calais 1
Cum@@ 0.5524334918305616
hormon@@ 1
kard 1
Fest@@ 0.37397926800883363
Netflix 1
Newport 1
mak@@ 0.2585721960962903
mp@@ 0.27981489382645874
210 1
Haiti 1
Jura 1
jan@@ 1
chor@@ 0.387786537649871
Cook 0.7437670531471022
Festival 0.1270342662543456
fort 0.16631356606118283
NT@@ 1
Sarah 0.5041871265954248
Gad@@ 1
cord@@ 1
file 0.7556728157035625
pınar 1
tem 0.5212427566714789
André 0.41479485755012263
Christ@@ 0.38042276044812806
Did@@ 1
lah 0.9442814431129404
ór@@ 0.45429591502864736
1.5@@ 1
Stu@@ 0.25373468339968314
rod@@ 0.6741481795744071
uba 0.8994747308443075
.C. 0.8768362163182809
Edo 1
Tun@@ 0.4265436394565462
arta 1
bine 1
sig@@ 0.11131686904713697
Benn@@ 0.9750995404332055
Pays 0.5181522464957998
Elec@@ 0.26422484848269157
aurus 1
alo@@ 1
ores 0.11643571160304235
uli 0.9983614888734358
xon 1
AG@@ 0.7566892073763718
kh 1
65@@ 1
Wel@@ 0.3581509444128241
dorf 0.34292694353728415
eston 0.7209858405707601
onga 1
yana 1
wara 1
40.000 1
Ngu@@ 1
abi 0.8871813722138302
1801 0.8536281437010471
DI 0.827587082608395
Chr. 0.5345948835990307
ŏ@@ 1
Boys 0.5191855812581461
Budapest 0.8281630004103026
Cla@@ 0.7321035951176109
Las@@ 0.639625162283137
idia 1
tepe 1
ñ@@ 0.22597359908736292
Han 0.6595090657532805
Pis@@ 1
jazz 0.42748858147437024
ology 0.0739437086577848
wang 1
dos 0.04915453687062297
mix@@ 0.29814662798052877
tit@@ 0.6522391013558797
Aman@@ 1
Fabr@@ 1
tney 1
OH 1
Santos 0.7707531011129324
plus 0.022216849839126588
Brandenburg 0.8460009260942478
Key 0.9667520076866835
isc@@ 0.7622830158075312
Roy 0.5345746295335169
diesel 1
opot@@ 1
wick 0.4865028424059641
Intel 1
Liber@@ 0.27410512219277433
Lot@@ 0.6185475906442517
XVII 0.6489941534984836
wait 0.9816030430074042
Gand@@ 0.906908241175105
arp@@ 1
Neu@@ 0.2096835220586711
Ö@@ 0.2672615586498124
1812 0.5977917611200738
EC 0.7987751916392409
Eth@@ 0.4012401669892559
IF@@ 0.864414936786638
Jud@@ 0.32184395489608203
afric@@ 0.6049514459062926
IT@@ 0.5245556414154248
Jason 0.6135336490402081
Yah@@ 1
Zor@@ 1
atic 0.15202387960049416
base 0.09153572093753629
ał@@ 1
oux 0.5469159191512531
squ@@ 0.2982381466743576
1789 0.8656702108835858
eles 0.5301795610978798
Sen 1
Stre@@ 0.26545788313249824
.S. 0.8318312477308026
Andy 0.6088562128769873
Fol@@ 0.24769033900046905
Bismarck 1
ents 0.039736739961226245
AF 0.4771162397446935
urt 0.4968706320634395
Willi@@ 0.7373200434097615
mail 0.6950873705129432
mon 0.5966636431934975
Dry@@ 1
Log@@ 0.5303226025817601
fen@@ 0.25070479743047336
into 0.02075910315940873
FF 0.6712113276332892
Maryland 0.41449137832505706
Ka 1
Kane 1
clav@@ 1
orth@@ 0.8041146166764049
Tap@@ 0.857307492422258
let@@ 0.2231151941085307
ono 0.6792369470550947
Arena 0.528693468961912
AV@@ 0.8247445585046297
Dir@@ 0.5631919450381021
PG 1
Shel@@ 0.6321138808897044
Silva 0.8742877165601716
aye 0.44984541187741556
h. 0.9084168367744582
Amsterdam 0.5559251025006987
MW 1
ahn 0.40001533532500777
oya 1
sho@@ 0.17420680524611523
1802 0.9057561172267774
Aragon 1
Kelly 0.5146450781339416
Kır@@ 1
Light 0.4523629117815137
Saône 1
Like 0.364292688656332
fas@@ 0.2493034674241851
Cast@@ 0.62847663782833
Fas@@ 0.6267702103130783
Gram@@ 1
System 0.23108367365455135
What 0.4417136645891817
Gordon 0.44116876924375414
Leo 0.6631679194193728
Malawi 1
Steven 0.7817208573648274
frag@@ 0.2293272659669866
lers 0.14247760398394865
vid@@ 0.35683489065236956
112 1
Dmi@@ 1
Koz@@ 1
TA 0.42855380919961494
ovina 1
İ@@ 0.45183723667378967
2.0@@ 1
Jur@@ 0.3387914338045586
tax@@ 0.28308137727437266
Toy@@ 1
æ@@ 0.5790846383548738
ợp 1
49@@ 0.8383206685593216
Cou@@ 0.5108311703986202
Mau@@ 0.44297308195935886
big@@ 1
kel@@ 0.2561768605494837
ôme 0.6421805460170684
net@@ 0.2232330191518167
Alc@@ 1
adia 1
web@@ 0.7174936123440467
Dream 0.8211522582838306
Mind@@ 0.8747648906828415
Pan 0.6812066491016905
Walt 1
Po 1
rog@@ 0.7876480236480637
Ut@@ 1
plaz@@ 1
you 0.1523029757637025
Oz@@ 1
nes@@ 0.5652812491799516
tier 0.19886518591192648
Universal 0.5753996022358404
etto 0.7180397459258393
1821 0.6915598509277034
44@@ 1
Cau@@ 0.6439018413624861
Nick 0.5413376107928477
sh 0.3980470816303156
115@@ 0.8631045663112663
ABC 0.4615793275339908
aan 1
152 1
Honduras 1
aud 0.2560950481795384
ies 0.055266803387533814
rea 0.558476250008012
see 0.0996438099404163
Ross 0.48542891439708985
Sahara 1
aban 0.12884530937865124
tes@@ 0.43928976936225006
Dark 0.6579889090769755
pig@@ 0.8183414561461003
beria 1
lec@@ 0.24084596011370962
Luke 0.7986298091865776
Salvador 0.5912592289322022
lot@@ 1
Delhi 0.6913098179784165
Euph@@ 1
German 0.07737443558223459
Kod@@ 1
stan 1
23.@@ 0.9639570158456175
how 0.13456289678598551
State 0.052193172515902664
loan 0.49422240063641776
zur 0.03170457068063808
‎ 1
Maxim@@ 0.7090382119086097
lier 0.30163363774052077
ustr@@ 0.49090791225895525
Mom@@ 0.71393009111283
arti@@ 0.3880177783486166
forme 0.12865742838975588
out@@ 0.07682413524527848
rosa 1
af 0.4360823540214353
clar@@ 0.5385961819964635
oque 0.9221470319648423
Benjamin 0.48601381772554053
Cec@@ 0.701725955186655
ác@@ 0.4820391237165188
gs 0.1649290961267622
Nin@@ 0.7877581159514351
Sent@@ 1
Timor 1
eler 0.3035748343904408
29,@@ 1
iller 0.22723859979883138
fes@@ 0.3688371270778588
oud 0.4279951788500715
uria 1
Cad@@ 0.46248574797418907
500.000 1
Giovanni 0.5654625167416928
Hamburg 0.30410029543764683
inda 0.8913754680826786
Sit@@ 0.9650647684178367
lera 1
vor@@ 0.053803922902232675
Carl@@ 0.7153590771560314
Dipl@@ 1
Rand@@ 0.49234056924808567
Spir@@ 0.7454163264837191
ago@@ 0.5986415368145874
peti@@ 0.6553020087407082
Dan 0.482648839164797
ig 0.19476518313599847
ogo 0.9589474307723092
sta 0.4555754865209129
trum 0.643501563333954
cryp@@ 1
dent@@ 1
ï@@ 0.14242545910700624
RS 0.5100464483773521
back 0.04838241826772811
zo@@ 0.5364129058745644
Project 0.37608880398546823
1,3 1
Stap@@ 1
75@@ 1
Fuj@@ 1
Jo 1
Venice 1
Raf@@ 0.8983750867508317
Vienna 0.6146450339260959
750 0.8232348189432065
Abraham 0.6804777594958957
High@@ 0.38380493360097123
230 1
Aub@@ 0.7547073075579104
Stewart 0.5256925418847137
dance 0.3195387656942858
Clo@@ 0.8507198600865208
Franc@@ 0.4485816187771996
iPhone 1
int 0.4190164180889206
š 0.6800582720985388
Reb@@ 0.30552863759355975
Zero 1
olog@@ 0.1906480818341671
Caroline 0.710062977170005
Forbes 1
Montenegro 1
Oliver 0.5759665155620827
RT@@ 0.5124308616091624
aker 0.2588985257535095
1,8 1
Khali@@ 1
Water@@ 0.4579699815169442
lip 0.48954535284745987
ris@@ 0.22018966587988945
Augustus 1
Lun@@ 0.9096836185589616
Murray 0.5304735478967078
cru@@ 0.17347633676735763
Jag@@ 0.6870478425093597
Kastamonu 1
Sail@@ 1
Wolf 0.6140901429728528
acon@@ 1
ble@@ 0.3444370464300554
Boc@@ 1
Now@@ 0.8613766634653564
Samoa 1
peru@@ 1
Foundation 0.24104337388252223
Laz@@ 0.9252720429344382
Tottenham 1
ement 0.027965483208358018
grap@@ 0.43423740902682084
itter 1
Leon 0.9770704017627764
Mem@@ 0.27482957426620513
Miz@@ 1
To 0.1471997802821347
Juli@@ 0.5781141756386791
atu 1
Luther 1
fe 0.14039112512648405
wor@@ 0.08654174011560622
Christ 0.3945961035127029
Jay 0.6624710550188123
Office 0.24695570506213965
PO@@ 0.7192020670083765
Alpha 1
Cô@@ 1
Tru@@ 1
arus 1
gre@@ 0.14198497810702318
Ass@@ 0.5268734851724822
ator@@ 0.3670308158407426
Monte 0.5882275033516157
Valent@@ 0.8155471527671738
agon 0.6084737328953099
Sah@@ 0.678138101259205
Wood 0.534042248831915
1,6 1
126 1
144 1
Art 0.09019989572046888
Robinson 0.5341880109594289
ted 0.02424613885941555
Tad@@ 1
That 0.21228505101293435
Emb@@ 1
August 0.03230488160050359
ISO 0.9946317314164334
Nixon 1
Singles 0.4122672886988852
anne 0.35800761296884714
dere 1
eran 0.08798396104084845
jar@@ 0.6529441861249257
igny 0.8262129133746426
Sco@@ 1
Uli@@ 1
Line 0.20451028102188465
ante@@ 0.659246733447873
blog 1
kel 0.22665801453264955
Phys@@ 0.44412076126991334
her 0.012510408672154843
AK 1
iku 1
irus 1
Cler@@ 1
Frankfurt 0.37950268725449554
audi@@ 0.3638418167044051
± 1
ë 0.9180479630151105
000.000 1
280 1
Alek@@ 1
Out 0.4092193590073447
Pun@@ 0.5548541019245835
abra 1
zh 0.5942198216847545
ören 1
que@@ 0.2561985619528413
Et@@ 0.23678426645465678
Way 0.5395235814153887
Austin 0.5094951335576031
Pho@@ 1
sos@@ 1
Shaw 0.9313456378802546
lab@@ 0.1996357085172121
peri@@ 0.2275726817843046
plum@@ 1
Seattle 0.4929397107567081
anol 1
speci@@ 0.20820417860770465
He 0.008724326798759369
tal 0.1593681160309433
Ž@@ 0.8454815536293466
bie 0.3786592691067783
eville 0.788255163985814
tran@@ 0.23007777378015143
rie 0.3723095424853559
uer@@ 0.20570357964903585
unga 1
census 0.16548354527110298
mond 0.36918589951099384
Evans 0.6039220463067653
jan 0.5462096064756602
mania 1
122 1
Cli@@ 0.6219514070030243
Nicaragua 1
down 0.06354006802123417
isch 0.0550751091410775
Galil@@ 1
ayo 0.4637041469530438
nad 1
nom 0.07117058850123771
Phoenix 0.6662988316371263
Valencia 0.6312420952906461
pun@@ 0.22418521523323787
gil@@ 1
Castro 0.7960404138186145
Sports 0.259298000087174
Tes@@ 0.7688015790287593
aren@@ 0.7364564611922152
bak@@ 0.508886761452719
oker 0.6548870199926732
Louisiana 0.5152284951152972
Yar@@ 0.9408513190581399
avi 0.7511862884652422
Tek@@ 1
Gos@@ 0.7223925900185401
Graham 0.5493240731023487
adu@@ 0.5759169338680133
enth@@ 0.38327174206142267
trach@@ 1
Trinidad 1
cover 0.17737376203930716
ellip@@ 1
IO@@ 0.8564880334074417
Matthew 0.5795493768689516
Roman 0.1311403843684122
ares 0.14213725791760007
fat 1
1805 0.8511399583760992
Michel 0.29794200002703325
Pak@@ 0.46499972089831454
PP@@ 0.8290659908202695
odor@@ 1
Cran@@ 0.9167557314710092
Castel@@ 1
Uni@@ 0.246820250072747
GM 0.6755210613943933
esh 0.5150866683271977
Fernando 0.37794233767782576
Sant 1
jam@@ 1
osph@@ 0.7313363936378638
Eg@@ 0.463419442028526
Global 0.45060904932401263
Hey@@ 0.7972446428771665
Women 0.1374925376644763
án@@ 0.20363698738622882
Kamp@@ 0.7266690799559788
LO@@ 0.7992971760065786
Wii 1
bai 0.8708817239629402
fel@@ 0.2505392954579866
hex@@ 1
hur@@ 0.24682035030776212
nier 0.3097591007967665
Central 0.09960177210487867
Hali@@ 0.8674423424527397
330 1
Lub@@ 0.9763508135248301
chester 0.2978314300978165
né 0.07322667904310551
ticul@@ 0.6941324012638236
5000 0.6669665492922526
Vog@@ 0.5150484051745247
123 1
Eus@@ 1
Ken 0.7337160131399394
Charlotte 0.46285587136786066
dol 1
phone 0.3161731589430756
şehir 1
ME@@ 0.49408034737120854
eter@@ 0.43797672324599934
pep@@ 1
Florence 0.6233647840030597
cep@@ 0.31149987973553994
oj@@ 0.6400371118795131
ses 0.023680865248057154
Newcastle 0.7791888230558458
Square 0.3990334981905164
topo@@ 1
1819 0.8074910814590653
phis 1
resc@@ 1
19@@ 0.8345165770895245
SI 0.9413278508610696
rio 0.6651075518456735
sex@@ 0.3233833423435797
ants 0.04051631383815717
Ander@@ 0.4778336466980487
Cairo 1
Jacob 0.4879673211176976
Nokia 1
57@@ 1
Isab@@ 0.7294113875317949
cle@@ 0.16980851348194873
elt 0.1467163315050016
nik@@ 1
AI 0.920191967032608
Cameron 0.8719886515211128
Stockholm 0.6747600493352265
rom 1
Denis 0.636330296191075
atar 1
lès 1
Bé@@ 0.5336037311818081
inopolis 1
BT@@ 1
Lili@@ 1
Warren 0.6109514971181691
54@@ 1
Coun@@ 0.3937196632849735
Janeiro 0.7204720417836227
Tour@@ 0.21308461121222785
alla 0.5205722090873135
iOS 1
wel@@ 0.1966981431090747
onic 0.3709974521217843
ward 0.16483168043649693
→ 0.8228854886092818
eu 0.20768640517848208
occident@@ 1
tir@@ 0.17969770655838363
260 1
Fus@@ 1
anie 0.480395411560732
hard 0.19957766491226617
mar 0.24476190845410914
r. 1
uel@@ 0.5280954084235913
Gem@@ 0.3347165422773245
andin@@ 1
ren 0.6113221019303363
tif@@ 0.3503101050584278
Ă@@ 1
Bi 1
Bo 1
Rou@@ 0.3686816445120364
ost 0.26323726742133696
Ho 1
Shak@@ 0.9408433448261303
sand@@ 0.3878726603677815
vers 0.05046390185113662
7,5 1
Ha 0.5447491471896584
ought 0.8226455169386291
Iv@@ 0.5299106317622466
Lo 0.7523091913568503
spin 0.874946211470301
try 0.1436473919130348
1,4 1
Tou@@ 0.45330961930906916
lov 1
riv@@ 0.48467129278936855
Kut@@ 1
vern@@ 0.2992722615877104
1818 0.7031223689150494
Flor@@ 0.38847184367033327
lau 1
off@@ 0.08881657805365127
15.000 1
Cus@@ 0.6326512217297812
prin@@ 0.3048571618503957
them@@ 0.4677774693865613
201@@ 0.7211531420542706
Crim@@ 0.46312301198262085
Dick@@ 0.6868386772064683
auch@@ 0.5777837277876501
osaur@@ 0.8385276348227069
Minas 1
Scor@@ 0.7549606096973909
Sik@@ 1
Beth@@ 0.7590865095171435
Lach@@ 1
azar 0.5645210654290177
ois@@ 0.6191986932877723
Gab@@ 0.6022666889098487
Works 0.42709858409587903
erg@@ 0.1964312756094106
neur@@ 0.3045372436689633
trat 0.14363724083596838
uz 0.8579175391333597
CPU 1
Cath@@ 0.776125668145658
ager 0.19636505651232974
inos 0.19089551211492486
cab@@ 0.20346290015320667
ondo 0.8843284280293285
Kentucky 0.3948812696106176
aza 0.45190104234044715
43@@ 1
Jas@@ 0.8378904904396408
Montgomery 0.8870991796877455
Chamber@@ 1
Daily 0.521228211692184
Was@@ 0.5743235903621728
idge 0.3290956348695966
Raw 1
Say@@ 0.6834224055865578
Mali 1
Sound 0.48085306436401626
dé@@ 0.025038490872542413
124 1
King@@ 0.6654731640403612
Tik@@ 1
1,1 1
Airways 1
lem 0.3806180364913344
är@@ 0.08565543143393786
1815 0.5237420107399714
ovice 1
117 1
AE 1
O2 1
Pay@@ 0.6073077969407423
ardi 1
SN@@ 0.5386644935734445
ano@@ 0.7633113312104499
namo 1
Duc@@ 0.8355691499680249
Mecklenburg 1
Nikolai 1
Stanley 0.46890686706259893
aum 0.4837759776368677
ović 0.6013288250169294
Bernard 0.3686055354841909
Lad@@ 0.4841673707941408
Württemberg 0.6342535019545813
emat@@ 1
lands 0.14596994658969664
rov@@ 1
Koh@@ 0.3788714893290945
ror@@ 1
Sherman 1
Cob@@ 0.6176081346514061
Indi@@ 0.19040716108444958
Proc@@ 0.6407449065816329
elin 0.7238918426976844
Mitchell 0.5820502348786797
Run@@ 0.4700641947531032
sign@@ 0.23229108717302827
天@@ 0.17261324664869465
Atlanta 0.4078948334057583
Aug@@ 0.601933820173079
lis@@ 0.47088130121551547
annon 0.5605721282111004
aş 1
bey 0.7731289970488368
elo 0.29542763588105697
kim@@ 1
olan 0.1362279633680156
155 1
Batt@@ 0.7282751152138565
Georges 0.37624704785260915
ME 0.7841386693960951
gul@@ 0.5406858898203554
letes 0.6919947100577122
ness 0.08593620087579994
Jonathan 0.5491444778951835
a.@@ 0.5529879658718742
star@@ 0.25603469403615725
Fed@@ 1
CEO 0.4772135032959666
Dil@@ 1
FM 0.2432858475096057
Garr@@ 0.8273484929507524
RAM 1
Tax@@ 0.9006047727573221
Tō@@ 1
hop@@ 0.3582313353706083
Matt 0.4904346717550903
Poz@@ 1
Wild 0.60839648916506
Yuk@@ 1
has 0.009769248146249866
sax@@ 0.8256512509177175
Chand@@ 0.7743150067892955
Leh@@ 0.4622801173500937
Dru@@ 0.49965838509002525
nin 0.2009482895135378
58@@ 1
Chan 1
Poc@@ 1
End 0.49301516742015217
Riv@@ 0.5278628220674542
elop@@ 1
qui 0.011914997682795565
ventr@@ 1
Johannes 0.3438116493902017
did@@ 0.4498521129743235
lake 0.3164709074352734
rid@@ 0.24402094979899253
sik@@ 1
Nord 0.15926299271019284
Rwanda 1
Virgin 0.6898719739766319
« 0.00521715938723169
Ais@@ 1
Len@@ 0.45958023912684753
Songs 0.4235180095567245
crist@@ 0.9738965276798257
aver@@ 0.3076532703733463
core 0.25522988036263
hon@@ 0.1396406592084173
less 0.0719009998385443
270 1
Hunter 0.6274327399654492
Oklahoma 0.427355721447634
i.@@ 1
igi@@ 1
Book 0.2932783598244993
post@@ 0.2019835959703711
太@@ 0.28500856783276296
axis 0.8517748308511954
star 0.18856889054899345
Genève 1
Map@@ 0.6755524618382414
RC 0.39156342028720953
Tig@@ 0.8031085376979777
live 0.10515159154035225
tom 0.41574150073717686
文@@ 0.1719167995942094
Justin 0.8240032574081682
Sr@@ 1
aden 0.27653277700208434
kw@@ 0.33454638704653195
ıy@@ 1
onym@@ 0.4588858391126544
Anc@@ 1
def@@ 0.08176719986402643
Chrom@@ 1
Hay 0.6617965599489043
cri@@ 0.14295119364657408
ilio 0.6713193961672208
Gold 0.254248811209447
Miguel 0.3189764704806814
England 0.06997859558016936
Zi@@ 0.24863076570802625
bun@@ 0.44915677228678486
ru 0.9077447557436715
Blan@@ 0.5287969649830714
Ris@@ 0.5422135200823631
Ain 1
my 0.18306726811749208
Play@@ 0.20484051991780486
gene 0.44226364381358646
Gilbert 0.606564693372831
Slo@@ 0.4676368104883263
atori@@ 0.43203476246225936
kun@@ 0.3659002170536994
ture 0.07942627257123426
1814 0.5548222007006416
Ret@@ 0.3294772746945276
dova 1
ough@@ 0.24204677178387024
1804 0.8034110748695458
Germain 0.997297787794953
Ron 0.7456951731665182
USA 0.13543470556268167
Urban 0.6780457219187385
urs 0.11812033165224634
1822 0.7293398481184225
Brus@@ 0.7496554133178895
Dub@@ 0.951727882997016
acy 0.11044154999051647
etti@@ 0.686143085280613
EF 1
ağ@@ 0.8911130754373277
£ 0.2126754026465477
Scho@@ 1
cus@@ 0.2557247199551984
rid 0.468945688725677
1823 0.74920905143256
Engl@@ 0.6407800954857281
ML@@ 0.3940602616168423
pum@@ 1
Song@@ 0.9409982358101425
Weber 0.9419299981560327
nith@@ 1
175 1
Film 0.07482848444040185
Online 0.6971798579580659
RT 0.523570142059925
Ré@@ 0.16173729037821474
ikawa 1
mec@@ 0.5181085094327579
118@@ 0.783128933591717
Mann@@ 0.4561318612498014
Delta 0.6909517087360935
116 1
Airbus 1
Griff@@ 0.5101768268872049
boat 0.3561783838833271
119@@ 0.7078781228975717
121 1
Petersburg 0.6117504884347185
Press 0.2965569945144126
tas@@ 0.21321360654911056
xis 1
war 0.009639664619198473
XX@@ 0.6680234063747135
ket@@ 0.36205136064635585
oca 0.43829238419239425
aup@@ 0.7008986675041484
rur@@ 1
tsch@@ 0.3650522810536619
val 0.3942545374089171
1803 0.6714880382468312
kes 0.3385903826837055
ượ@@ 1
ingia 1
major 0.060942121025911525
Ling@@ 1
Akh@@ 1
Claude 0.36421908447555135
Hermann 0.39239459850635433
foot 0.3494483146818702
nm 1
Dow@@ 0.469269842887159
view 0.14310468879533184
Pam@@ 0.8148960974317409
Society 0.10550999841603449
Utah 0.5066950014302286
lun@@ 0.5000981373681227
www.@@ 0.7437255394827876
ửi 1
Express 0.409406865492749
Hend@@ 0.9043905615920452
Nur@@ 0.5542936164741665
bus@@ 0.20017039714687512
Ts@@ 1
Vig@@ 0.9210033865906686
auss 0.9065878172194088
iken 0.3827891680790799
stan@@ 0.5516440888366735
ț@@ 0.9492788021845332
Hispan@@ 0.48278524274339957
ef 0.2103533039538164
hap@@ 0.7894310684381344
Bosnia 0.9445911994180437
Istanbul 0.7709756835138564
Jose 0.6171602938756222
bach@@ 0.45166196614216414
ck@@ 0.21031773852885363
hav@@ 0.43892277295853777
Baby 0.7016246244785039
Who 0.4807353029849109
550 1
Bres@@ 0.8663887014030188
cali@@ 0.4537302723789832
Param@@ 1
amura 1
Weekly 0.8581367545204726
5,5 1
Mars 0.5804680512815726
Stevens 0.9070469390406816
kow@@ 1
Hul@@ 0.822139829803356
Soy@@ 1
ador 0.06857701092305026
aut 0.16514922868717116
Martin@@ 0.6191229495219837
sph@@ 0.5780746340849537
Vegas 0.6040872797022772
oidea 1
Brand@@ 0.36064621818115855
Copa 0.2496742301555291
Haz@@ 0.5897422896321449
Scr@@ 1
Sega 1
Sky 0.5502081697189924
edr@@ 0.29200194560427933
Julia 0.6767068236763601
mu 1
Hard@@ 0.39702022938471676
Rog@@ 0.7342169265782665
Ż@@ 1
End@@ 0.38221287809626764
Louise 0.5308554871281993
GR@@ 1
Mr. 0.3083685265675023
Pas 1
pag@@ 0.2966799173994985
tei 0.8511560065744125
obi 1
part@@ 0.14676688629798565
114 0.9810817212242875
Dani@@ 0.5852389430206002
Emer@@ 0.3649157439049228
Hydr@@ 1
Just 0.49894357377911874
duc@@ 0.20692753313311243
Ted 0.8313647353298571
aton 0.6797173808509518
mea 1
thal@@ 1
wall 0.21368390528639963
β 0.6587487978953004
parti@@ 0.1071220057050007
ön@@ 0.21950457886007577
56@@ 1
CO2 1
INSEE 1
Oise 1
WC 1
XP 1
board 0.1180432353744601
ilo 0.47017084776179513
Master 0.26361377398599173
Oh 1
Suzuki 1
1813 0.6070698725011445
Fred 0.5050040399101043
NT 1
Trav@@ 0.3645634705578494
Wall 0.5673524433143364
Jeffrey 1
Kop@@ 0.44981230277507234
aia 1
Panzer 1
fru@@ 0.527445409566765
urg 0.4504044528944508
118 1
145 1
AG 0.2634342272394167
Leone 1
Tac@@ 0.6945863106735165
Top@@ 0.5189773599062516
1817 0.7056042733091934
Earth 0.24320193474876892
Gün@@ 0.6219001875500582
hil@@ 0.5283343045148589
CAF 1
Gamb@@ 0.9928782207944514
Phot@@ 0.6262883955785202
TE 0.8868774075329683
SE 0.6805783821627324
ahl@@ 0.3881638080620291
Chase 0.9921762800077875
Churchill 1
Sainte 0.36852261828860683
Vent@@ 0.6336223033318216
WHO 1
sic@@ 1
zer@@ 0.29858011967482223
公 0.5857916724861897
Boris 0.8759856688255349
Jose@@ 0.49669772941495566
quer@@ 0.4436014772021857
stell@@ 0.3374564862964518
Manhattan 0.5176541501004633
ovic 1
Ð@@ 1
ạ@@ 1
BM@@ 0.5867672483487337
Birmingham 0.4745723923814626
ladi@@ 1
sab@@ 0.23713669386194386
Gibraltar 1
HP 0.7592057698327145
Monroe 1
Vul@@ 0.6462665373359322
hara 1
» 0.004903044354813081
Johnny 0.4309550306404036
Maurice 0.3883698142754161
czy@@ 1
med@@ 0.1634810211095595
troph@@ 0.543331160644047
angu@@ 0.7529793772726887
anom@@ 1
má@@ 0.3829283111827163
ces 0.05357259467342679
sat@@ 0.4317668311342656
Cher 1
imar@@ 1
Space 0.34503656743952205
fum@@ 0.9102616639505546
Fili@@ 0.3650799926486889
Lop@@ 1
dar 0.19526183048725848
logo 0.47512089349368924
sak@@ 0.809927478829489
Opera 0.43978687948699163
Wy@@ 0.6308615790225277
abri@@ 0.5901007904046689
een 0.2864531323670163
neb@@ 1
ond 0.17220799574744675
Back 0.5181930640043599
Blu@@ 0.3774252917111597
CV@@ 1
SH@@ 0.8475333553936025
atom@@ 0.38103456139651787
yu@@ 1
Rib@@ 0.8154846872607869
bis 0.014782704530015367
pit@@ 0.24149512079114674
Suz@@ 0.8026815885271265
gang 0.17527638106325283
nas@@ 0.6145848367956457
Anhalt 1
Last 0.47987857274558665
Rosa 0.5330884376022142
amas 0.7150013282772991
rew 0.668689291542712
ingo 0.6246963290092065
sel 0.25437134834402003
Arts 0.12213097673036749
Sl@@ 0.4549418919763398
cal 0.2626488806436022
Fire 0.3977372721518559
PL@@ 0.7694494431714431
bank 0.16834870413612193
Iron 0.502478459340846
Mozart 1
trad@@ 0.26067251794402413
ws 0.11747392183249147
Concer@@ 0.4709728600137456
PT@@ 1
Patr@@ 0.21650764573873188
pend@@ 0.41136557017985587
Dallas 0.4431111107719313
Vancouver 0.4896419319405885
caud@@ 1
nen 0.10174109812271127
Ed 0.6247656842003813
Science 0.1603228940403784
rati@@ 0.19933837718119707
129 1
Dylan 1
RA 0.38441446295413984
Asian 0.21968821384157486
Edwards 0.6704205071133128
Vie@@ 0.438749087196534
iva 0.426375495245874
1,7 1
Manche 1
Karab@@ 1
Tot@@ 0.4741293656957695
ays 0.11726264838083693
begin 0.34006050575951996
sula 1
Day@@ 0.5455622399714806
Dead 0.5516783290073081
ener 0.12714422180158583
olle 1
165 1
Porto 0.812653638875087
Yu 1
kai 1
1775 0.9659068853237436
Fraser 1
Tch@@ 0.7012074665324912
ley@@ 0.5761807396693283
Billy 0.43269010588286494
Gaz@@ 0.5893103701493047
endi@@ 0.3167068890742117
Pink 1
enda 0.32151271311253926
Aş@@ 1
Kno@@ 0.39149660660328006
nav@@ 0.2559227304612963
hyper@@ 0.6318394471991974
vat@@ 0.9411641740592784
64@@ 1
AB 0.5595485432833601
att 0.48863751546598044
kaya 1
stig@@ 0.8231793650724448
stric@@ 0.7135173232508502
éc@@ 0.19556986059799442
Cooper 0.5187336069253403
ushi 1
6,5 1
EX@@ 1
Prix 0.19410846574082674
atti 1
ige 0.060283758436453894
igi 1
onde 0.4249675245409652
tics 0.10575710175807275
Ann 0.4553367915295065
53@@ 1
67@@ 1
cari@@ 1
later@@ 1
sid@@ 0.4454413589049597
Marc 0.40590084996678527
agne 0.34909155127178665
arab@@ 0.47067508632512123
dei 1
gorod 1
ư@@ 1
Kem@@ 0.884450754648056
Wend@@ 0.8017536229216448
http 0.925157012958513
Sof@@ 0.4791660432811914
rostr@@ 1
Gall@@ 0.5981664209973947
ario 0.07015166622081999
rates 0.30860330998966484
­ 0.6553579179955284
č 0.9968965671211193
1788 0.9753536856000908
IL 0.7565215067948992
eka 0.7710322391994453
rus@@ 0.3556690231856101
sion 0.048934280999741994
Forest 0.30313586129178377
Kent 0.42721651020322615
Thompson 0.43128611337826955
anya 1
auer 0.13607585487133883
başı 1
rang 0.4120467553561794
,@@ 1
68@@ 1
Gary 0.4802780919801897
Ges@@ 0.16367424440458
H2O 1
Spi@@ 0.30174815322101617
imo 0.3867080889042585
ivi@@ 0.7510156163505628
mid@@ 0.21046904544752237
县 0.16361013280421915
Peg@@ 0.8542810875062637
bian 0.3280182883549458
Sofia 0.9762991073795259
arms 0.25752694580383645
studio 0.1185507545921604
FK 0.6898854161469019
ilg@@ 1
lot 0.1531876181038327
Phil 0.5916275147096743
Yer@@ 1
Dob@@ 0.8247343175797608
Gabon 1
Kle@@ 0.24717462086121125
Albi@@ 1
Kızıl@@ 1
Tah@@ 0.7972694359527422
uck 0.2649756546399995
Dra@@ 0.6634623183240166
Hod@@ 0.723599840769603
Nicolas 0.3920955980390249
anj@@ 0.6475023281615268
fish 0.22036639046465545
Ek@@ 0.8931167663108819
Rak@@ 0.6181074012420306
VC 0.971959201542378
Zel@@ 0.9949185613097641
act 0.0821877443285977
ogne 0.9453732369258911
SD 0.7632866022520074
achia 1
esc@@ 0.12661468539869272
Dean 0.43906866893465807
Fos@@ 0.735787722846041
lex@@ 0.9517857186394183
ograp@@ 0.38775243032389184
icop@@ 0.5506317414705917
wit@@ 0.25948125960280854
Connecticut 0.39114524596852673
Fac@@ 0.21061922975494435
Gra@@ 0.2806979243795401
Kosovo 0.844189212111883
iba 0.7006508938967154
ots 0.08054180118548185
Christina 1
brasili@@ 1
Eug@@ 1
FDA 1
Sud@@ 0.3104810405601401
under 0.024036955567953825
Down 0.5273338618503093
Midd@@ 0.5260648420896993
Western 0.10478584945494905
aver 0.5665763838066232
747 1
Krasno@@ 1
Sev@@ 0.7204353003314954
Angel@@ 0.7620606534473062
Holmes 0.8113144173458827
Galicia 1
KV@@ 1
Lud@@ 0.7578245503744613
Or 0.6366525159636096
Portland 0.48351133667038887
Punj@@ 0.7241372724188001
és 0.01757980924816143
Garden 0.42726347558656724
\ 0.4525883785206046
dov@@ 1
30,@@ 1
Ball 0.5623344456262646
Empire 0.12983045036285273
Kind@@ 0.887736263460238
Satur@@ 0.7386006231458888
Trag@@ 0.8028105180394547
Verd@@ 0.8677394525301305
if 0.053489275947487855
ush 0.3155826103630076
water 0.05568077405381386
146 1
DV@@ 0.8510363829523282
Feder@@ 0.5493484510179697
ayn@@ 0.8222627396240698
mit 0.005901233628353914
ể@@ 1
Clin@@ 0.6562411398536996
isar 1
LE@@ 0.4919961174789818
Leopold 0.8460139288307968
Pos@@ 0.3601578713613055
Pug@@ 1
Jennifer 0.8998366295256884
Lut@@ 0.8807441847664496
Page 0.8320034497146577
cu 0.8336744237260668
Gren@@ 0.6769222104547141
Reich@@ 0.20299158844272272
ibn 0.5852670451601246
lic 0.7210656252190842
spl@@ 0.6643964845132292
Berg 0.43795843191895606
Karak@@ 1
Zy@@ 0.6592493428278924
Boz@@ 1
Journal 0.23006141085973905
Mahar@@ 0.7795210212456838
enton 0.6365379078387349
Hell@@ 0.7554034312757109
Roth@@ 0.6457982261318236
pot 0.3643497068206333
ehr 0.6448807552833912
Hudson 0.5390578553842598
Ian 0.5018087105448759
boy 0.25602592847739475
della 0.7457969425816943
ink 0.30111623567100365
kus@@ 0.6811408439796497
pole@@ 1
psy@@ 1
132 1
Art@@ 0.4892609994583736
Beijing 0.6120390812362917
Copenh@@ 0.7793106269124791
atin@@ 1
enna 1
tube 0.6254447829591133
114@@ 0.802435017366322
1792 0.665184481357981
Sv@@ 0.7982999762488339
Tus@@ 0.8864116251388823
eshi 1
stadt 0.12351141139589132
Hugo 0.43353417519637466
Sok@@ 0.9606528445285734
kas@@ 0.5023395215544143
ment@@ 0.1141163360524582
Animation 1
Bros. 1
Tet@@ 1
kol@@ 0.2874254145907409
vet@@ 0.31483218576506905
iP@@ 1
inn 0.31366338215955636
prol@@ 0.39668068569808645
uda 0.6950555272765192
117@@ 0.8150978734236883
650 1
Chan@@ 0.683629612604618
Wah@@ 1
Are 0.7737129761914034
Olympi@@ 0.3877904668638333
kara 1
stein@@ 0.3128819889224225
Heidelberg 0.6741872214081166
Montana 0.6571821181689644
Soul 0.7572702881984599
Sund@@ 0.6474141827012928
ingi 1
113@@ 0.8804110321518943
25.000 1
Cannes 0.9011904093275082
Cord@@ 0.80199492134357
Law@@ 0.353103548879778
bei 0.014895182869266605
mek@@ 1
24.@@ 0.8120609341233364
Pyth@@ 1
aji 0.7596967314046355
cut@@ 0.21833184821755688
ib 0.8588499684604038
rif@@ 0.34899754164563823
ism@@ 0.4009547959955141
ườ@@ 1
Bass@@ 0.4544434334472274
Dw@@ 0.8809587350975296
rum 1
， 0.002256020417052479
Ami@@ 1
Singh 0.4655689551229139
Ward 0.49662034635551616
allo 0.41702105474912643
alta 0.38499078794223046
dom 0.27815875005556473
ries@@ 1
aina 1
rell 0.49369110014949236
conf@@ 0.10479923013722336
lap@@ 0.5341946982674834
ş 0.7984048446317025
ER 0.7726834851566017
Monaco 0.9810491691217056
cad@@ 0.20878092742126952
par 0.007355481328467548
skaya 1
Anto@@ 1
Const@@ 0.6363548442835114
ON@@ 0.44241600384653557
Tob@@ 0.6350478491616178
ains 0.0669547741115753
fax 0.6153006975655074
1808 0.623848841628097
25.@@ 0.8116019863439938
esses 0.12284059135992055
magn@@ 0.9301984223778645
Aj@@ 0.7495594508102795
ock@@ 0.22174516305269198
Athletic 0.42324912253045405
380 1
Carol 0.9641660346702543
Sul 1
hen 0.42063636002970384
tiva 0.3829710572117849
kum@@ 0.6261413044223392
ves@@ 0.37130819614399396
acker 0.46756099353202935
Rhin 1
Schwar@@ 0.4351140259462635
Butler 0.6566268309667862
tos 0.10782256935335298
Albums 0.49566620084723956
EA 0.907066499760914
Four@@ 0.39429758959925754
SK 0.7158308560746113
Sty@@ 1
ahl 0.3068104116795598
DT 1
Lanc@@ 0.48038659021371666
Over@@ 0.24509919884502623
abria 1
igan 0.5940479587292297
minut@@ 1
sy 0.5142515285161376
Academy 0.10239967245501197
Harold 0.5823519990715074
Parker 0.4852784330068413
ecker 1
fle@@ 0.18563510488282398
uj@@ 0.6497394155117688
wol@@ 0.7844965968213384
Just@@ 0.9544388812873543
but 0.010376384763793791
orb@@ 0.5660207765582513
185 1
225 1
Bristol 0.49602191499278275
capit@@ 0.26298470956389214
ecr@@ 0.836494656360253
gy 0.39100137576438754
Bart@@ 1
Brothers 0.41631243374072674
poli 0.9366431431255832
Amas@@ 1
His@@ 1
People 0.17613257808286453
beri 1
cera 1
Ernst 0.2902855761482085
Metro 0.38833490543878146
Zeus 1
Schul@@ 0.14582272844216243
Weise 0.6722328344303613
oti 1
Gli@@ 1
Jon 0.6074592620355677
Monte@@ 0.827764174441638
Rangers 0.4965607221189575
har 0.7075962303380566
26.@@ 0.8267304053568922
BM 1
Bourbon 1
Elli@@ 0.6470520597663346
Lus@@ 0.7429279147102911
ardin@@ 0.8738613789923367
box@@ 0.24779541217600937
yal@@ 0.4016459793074678
1807 0.6584922172454845
Dream@@ 1
lington 0.47274596313403167
Campbell 0.41305685494510136
Ces@@ 0.7278870875142001
Hills 0.41259183992783655
Spo@@ 0.6897135487188878
ique 0.08272427283183911
red 0.05834147978434218
Jen@@ 0.6084461245457393
tec@@ 0.2810525540969309
EC@@ 0.6097100679861126
Eisen@@ 0.404939059231407
Atlan@@ 0.7403012989595003
inho 1
Bond 0.7741146858562746
By 0.0763855060247871
Leonard 0.6502395365684676
Roman@@ 0.3383655628108275
endorf 0.3646576599055057
triang@@ 0.814317401510239
ás@@ 0.35156119624450166
Arti@@ 0.2588480697307337
CR@@ 0.644265114221299
Gill@@ 0.8580061145794601
PR 0.605441987273033
SD@@ 0.7686916777115298
Marco 0.5468698472985923
ampa 0.48491737179473476
Hall@@ 0.43627426549506904
Oro@@ 1
ga@@ 0.835439767722586
muda 1
spr@@ 0.15377707341456018
59@@ 1
66@@ 1
Abdul 0.9247288969136972
Aristot@@ 1
Clay 1
Rafael 0.5036368900508006
Rech@@ 0.483509208031417
év@@ 0.143606475753836
116@@ 0.8383057721133632
Manisa 1
Sever@@ 0.7670568358338541
modi@@ 0.18020655959773368
xy 0.8987751641896713
Ana 0.5215895487797422
Generation 0.6035630131403544
Olymp@@ 0.76531141640478
Slav@@ 0.6532395402341696
ır@@ 0.5476023031961716
000@@ 1
Of 0.20546530397938798
Rey 0.5031140969916714
Rah@@ 0.41755420076803756
Roberts 0.5562262803296457
Stars 0.4257250731448666
Versailles 1
elas 0.6363699568374119
enny 0.4256234550564234
Sup@@ 0.25913563133580864
136 1
prim@@ 0.12301363399868404
Emma 0.6231775443317755
F1 0.85755893986909
Laura 0.5517092933622594
Let@@ 0.31929282507239554
Lisa 0.619292553808853
Open@@ 0.5780265322227461
atur@@ 0.2508085413578927
lett 0.7734313223502869
30.@@ 0.9949369462906472
Pacific 0.15398679439473767
anni 1
pper 0.5241476269045483
zz@@ 0.3784536365355546
2,4 1
akh 1
Die 0.007349466601580078
Mek@@ 1
awi 1
ien 0.05979163248988618
oly@@ 1
Coch@@ 0.77727726480926
Kre@@ 0.17356893081743816
Tan 1
2.0 0.7039791488190371
Bonaparte 1
Dave 0.3917018952896738
Emilia 1
Eugen 1
Marc@@ 1
SL@@ 0.8276830126411101
hisp@@ 1
Buk@@ 1
bat 0.2324945976380876
tron 0.977650940473459
versi@@ 0.19253737491212114
Free 0.3040515269927162
stel@@ 0.5419234166101935
tern@@ 0.3350286364963941
Chester 0.8279343484976465
Franco 0.4742258070097488
cylin@@ 0.42173419870864587
eby 0.5052260462449718
enh@@ 0.15402860583538344
子 0.09380383435862147
D.C. 0.379163526408965
Vall@@ 0.5114093984688188
Comics 0.46770684521234346
ET 0.8283975289583886
Io@@ 1
Whe@@ 0.38745601734104185
ahu 1
cons@@ 0.11870405772223053
dop@@ 0.5947759265068279
Say 1
notes 0.2669114109194031
tide 0.9384241058554232
2,3 1
emi 0.5021462715736008
Gri@@ 0.402045379032383
Niger 1
Vos@@ 1
litz 0.7276800864965459
28.@@ 0.8592241427316191
Cabr@@ 1
Parad@@ 0.8678086989371894
Path@@ 0.7509014573681413
Phillips 0.6759471065644731
born 0.022819506007313372
deg@@ 0.7730905095033057
m2 1
Ajax 1
Dong@@ 1
Neb@@ 0.5060760212467439
Tut@@ 0.9900789234096625
omel@@ 1
mart@@ 0.7191010430096494
134 1
1816 0.5680765228295407
Bailey 0.900956106749785
Haus@@ 0.2557115809550641
Nicol@@ 0.6943967134848429
Yeşil@@ 1
apar@@ 0.2572332862467228
shi 0.9415092978318785
How 0.6050379620666815
LP 0.36208632630088816
Nig@@ 0.47487922581399644
99@@ 1
Calvin 1
Capr@@ 0.9987333265401057
Gan@@ 0.5052927093029811
Sib@@ 0.6533297851177158
entin 0.3669434217053759
1758 1
Isaac 0.6005293390310324
Saw@@ 0.897253095546326
emann 0.5265763025756972
gat 1
gir@@ 0.24452109941015415
119 1
Westminster 0.7455757328487528
asco 0.7020207547308354
ative 0.03917767737570388
cast 0.12748910102220676
emis 1
leton 0.5237925105389329
Aless@@ 1
Kaf@@ 0.9809212093751513
Party 0.067850682310982
Roh@@ 0.33649273575191696
dad 0.2987850429021091
jug@@ 0.16866265478792677
gon@@ 1
lay 0.4234277062983701
ndi@@ 1
And@@ 0.7284561711650281
Lug@@ 0.5576719903160505
Store 0.899675865849209
Ahmed 0.6345455741818198
Wur@@ 0.45926252034643233
clip 1
340 1
Crawford 1
Masters 0.46809154715077755
Taş@@ 1
737 1
Honda 0.8604480146761392
Kov@@ 1
pir@@ 0.416059485527593
young 0.10270756263701716
ň@@ 1
Mount 0.2050957153210078
tex@@ 0.1612378965564969
tril@@ 0.7193970288508981
zel@@ 0.8907925487374362
Cra@@ 1
Mud@@ 1
Up@@ 0.46702754450629475
trig@@ 0.5846831677809795
ussia 1
For 0.05072156997991747
Jessica 1
Nieder@@ 0.13785992317617313
form 0.04159515040173652
Guy 0.41345587433890835
anor 1
ime@@ 1
mol 1
Big@@ 0.6351188643309442
Grap@@ 1
Out@@ 0.22454481098801157
Schwarz 1
spir@@ 0.15651734095428396
Associ@@ 0.339120097640213
Hughes 0.6183437071868393
Now 0.3917463744011765
bridge 0.13829842738899958
ebe 0.4997519511186093
ew 0.38388432249839016
tar 0.21832120598401564
Angel 0.5471065333714155
Basil@@ 0.8253513601577708
aser 1
dam 0.43666887354175676
enter 0.16918172553938812
iTunes 1
ük@@ 0.8354895246399955
As 0.03040296189029917
Hunt 0.7083061259612909
85@@ 1
Metacritic 1
Reed 0.7479694384274326
bea 1
cum@@ 0.3982009482020427
Bruno 0.5170267699534824
Electric 0.5187515747677546
Fut@@ 0.4860192401725531
dit 0.09157351069006245
umbr@@ 0.6469336338166948
ī 0.587204504208372
Mab@@ 1
ector 0.37429550361806757
teen 0.1483110511545426
137 1
1798 0.6532843388447748
MT 1
Sep@@ 0.5791804944041785
Brooklyn 0.3981135657062328
Coll@@ 0.4076724343105515
Gw@@ 0.8428236321617794
Nab@@ 0.8711861438818783
Philippine 0.6260999268658954
Wan@@ 0.8782697967589127
Gustav 0.5113127766976867
asso 0.7831956693046532
esian 0.47109083410419234
ore@@ 1
sdorf 0.34012415128536105
́ 0.052140238537408796
Bav@@ 0.6481170606431995
Ernest 0.5247121300050843
Naz@@ 0.39779156830611134
core@@ 1
nius 1
Erzurum 1
ason 0.45679758373861
lies 0.08240111800489397
Beat@@ 1
Carr@@ 0.48726020434743106
ahi 0.7929471539885647
fri@@ 0.289626785517294
liz@@ 0.23398982625997766
安@@ 0.12088071796336641
ape 0.7396439670344485
gar 0.23164671567314585
ová 1
235 1
Colomb@@ 1
Nancy 0.5029365577134911
dul@@ 0.5842987276688316
elt@@ 0.3512638692665096
ox 1
69@@ 1
Edinburgh 0.3817979712678443
Kub@@ 0.8403242273747498
inin 0.2307087119945519
uku 1
Enterprise 1
Force 0.11739237776787573
SAR@@ 1
Stic@@ 1
Terry 0.5377635831101275
ppo 1
Kand@@ 1
Ltd 0.3985472532704855
Nich@@ 0.5085767070550673
Chen@@ 1
Christmas 0.31364914704458974
Let 0.5475010579829277
Rhein 0.7006168668553684
eir@@ 1
1790 0.5726310824785593
AE@@ 0.503309310656022
Barry 0.4611209228884675
illi 0.4827617945367593
pop@@ 1
rech@@ 0.232768717549996
Bh@@ 0.8109189555138294
Eugene 0.7831598208041118
Grace 0.5684888820567753
Jeff 0.43529456206642775
Von 0.06495612888452944
essa 1
hiy@@ 1
ship 0.04248237884869691
Fire@@ 0.9169174968944448
Gav@@ 0.7326069374306032
dich@@ 0.9687226881569464
ód@@ 0.7718042994529742
1799 0.7129414436043816
Ler@@ 0.6913572458932926
Pac@@ 0.594216051018235
157 1
DS@@ 0.7056034828623649
illon 0.2949222274686196
oh 0.9773150307531687
ols 0.11405438064000631
edi 0.48954544407468364
fi 0.6124419622563643
FO@@ 0.5867129939687286
Hob@@ 0.5463485821979568
Jav@@ 0.7818602600954314
Lé@@ 0.3389197105307576
acta 1
non@@ 0.27162113721232806
Ligue 0.2820217815014109
Tav@@ 1
etr@@ 0.5226968912937537
sal 0.2211439457109557
tad@@ 0.7770721374599403
Carp@@ 0.8112048305083239
iny 0.7150609520982398
kar 0.4568821582874686
oney 0.6919520190426939
Fa@@ 0.4565111756377761
PM 0.6538145892280236
Rel@@ 0.12085821340087367
andal 0.6788316274311493
ate@@ 0.3850083560414518
pound 0.5484638949438998
141 1
206 1
Grove 0.7080335658354965
Rovers 0.8468852845830024
1600 0.6379761106903756
Fam@@ 0.44721967899228154
Nielsen 1
gri@@ 0.24718297070594747
suy@@ 1
zan@@ 0.9878840004818031
Hass@@ 0.9801109829867259
Liu 0.6545936348177279
Pix@@ 1
iki@@ 1
IE@@ 0.5381596942442839
IG@@ 0.7092012663479695
eg 0.37270931191550016
Pes@@ 0.7447759439735293
arch 0.2871998268498647
ente@@ 1
214 1
Adel@@ 0.6291643319019624
Broadway 0.3335432297132761
ingu@@ 0.30673459667751474
rat 0.13713406276265735
27.@@ 0.7665089954378426
Georg 0.226169125785493
Niz@@ 0.9728953593234376
Samsun 1
Stur@@ 0.41613857756070155
USB 1
Zhang 0.7380379516930462
away 0.08233888782359026
insig@@ 0.7185059416816117
Guar@@ 0.6525601758572185
Haj@@ 1
Neil 0.5297383945287365
Wars 0.5130178860748071
Cole 0.6917551377159973
Magazine 0.292162257169895
Ron@@ 0.8797597981202044
Vid@@ 0.4487460497528461
alifor@@ 1
lit 0.280347952414315
2,2 1
Leipzig 0.27589576111174424
cum 1
edonia 1
indica 1
nar 0.9148830728172881
1809 0.5842678666847074
Ankara 0.7682090601988402
Sha@@ 0.5238204875689323
üt@@ 0.17405761587007126
Jol@@ 0.8602165503793392
Kok@@ 0.784941330592754
SI@@ 0.5359278854303456
had 0.007055416598126167
uman 0.9865532200504182
の@@ 1
Liberia 1
gea 1
vie 0.09900895929727938
Chev@@ 0.524997521338339
ben 0.0689902263535879
hem 0.4220933257085756
ulia 1
Bryan 0.7437896903561516
Ceb@@ 1
Spin@@ 1
ern 0.04080336231489277
ić 0.5881950004735654
ogen@@ 0.27157019457577447
205 1
76@@ 1
Math@@ 0.32301184482088413
fun@@ 0.14271779146678226
ophi@@ 0.853685181344798
vić 0.49543753889045544
ọ@@ 1
Blu 1
Bung@@ 1
Cres@@ 1
FL 0.24924367318961557
Thüringen 1
otti 0.8935861490471996
sche 0.12849919623698342
Radi@@ 0.2307944586810481
amaz@@ 0.912104499808247
kul@@ 0.20005256474268668
mexicana 1
131 1
Christi@@ 0.3172600058241561
Death 0.22974053310884995
Leit@@ 0.5729909014381023
tur 0.22215105138161587
Cross 0.21833873209695884
Fres@@ 0.3951550012742975
Rhodes 0.958024279082176
ē@@ 1
Bod@@ 0.34502972832628026
Camb@@ 0.5095580983242898
Flem@@ 0.7167267698837899
Gör@@ 0.7560025996781692
ause 0.24470380075231382
ño 0.23332729915670858
ő@@ 1
Ado@@ 1
Limited 0.42545397232382415
Lip@@ 0.9013401128317956
mich@@ 1
€ 0.4088829296967327
Fat@@ 0.726989636091938
Reh@@ 0.6930119681754875
erina 1
fem@@ 0.6262976329513134
Belle 0.8118014011399078
Cey@@ 1
LED 1
MG 0.9957621061175631
Magic 0.5944086575325577
Marseille 0.5234284880987692
alin 1
now@@ 0.21029112470529376
33,@@ 1
Cov@@ 0.4818452384088136
Lot 1
Tib@@ 0.5159161077929529
allo@@ 0.5676771785590524
Hung@@ 0.8553001987282226
0,1 1
21@@ 1
Gog@@ 1
Kru@@ 0.7734290393227966
Pou@@ 0.8454766374345025
lif@@ 0.275580246322582
pis@@ 0.41492529508798914
133 1
Buz@@ 0.993759898814467
Carlo 0.5028569384541507
FBI 0.6972993664078152
Helena 0.8704607775413493
Thomson 0.9742766499018821
Acc@@ 0.2956646286721887
Mans@@ 0.6697756653471606
Princess 0.46688092128614045
Southern 0.14559289284585578
oso 0.14116227958589336
147 1
Khal@@ 1
Main 0.19584419424664304
Pag@@ 0.7848519396526478
card 0.26177434253194415
ụp 1
Kuz@@ 1
Nikol@@ 0.6764632630149741
aber 0.03693356331087408
211 1
Emmy 0.7693669420967936
ahu@@ 1
map@@ 0.35830487740599876
österreich 1
DL 1
DO@@ 0.46796314514752896
Off@@ 0.1329330135529897
Wallace 0.5868748020279789
ads 0.15302112335340884
zano 1
South@@ 0.3038132803832338
nu 0.5968251140921249
Arnold 0.4404276750487383
Cleveland 0.3427991578232545
Mong@@ 0.3649312426844082
hausen 0.2885136959713293
lau@@ 0.23714496525294826
1811 0.5877357841010273
Berkeley 0.5497474493087579
Hoh@@ 0.3376104512506721
IGN 0.6708046667582784
SP 0.7640308903862095
rett 0.5344254504737456
Fay@@ 1
Fitz@@ 0.4689753849033697
Mercury 0.8351418481286523
quez 0.673374530780145
Amer@@ 0.5172583944727417
ICA@@ 1
Nau@@ 0.8863541102997545
Zar@@ 0.6496920466353296
tive 0.04908259540259374
Jab@@ 0.9730294299309664
Mum@@ 0.5211115588122661
Ruiz 1
annes 0.7851220273794078
kinson 0.6072941741461544
ties 0.0417446527345109
Crystal 0.8476014728334972
opil@@ 1
143 1
domin@@ 0.1028576884561101
ular 0.06646041298996869
′ 0.9274360369137921
138 1
Us@@ 0.569110192815313
dica 0.9436089827505371
orio 0.2501850171546107
world 0.04588213844057644
Hein@@ 0.5098900701987811
Kiy@@ 1
Mack@@ 0.5313477195904734
found@@ 0.4621614203966726
hak@@ 0.6750884843992526
veri 1
Hampshire 0.4320672433367997
Ost@@ 0.15153243267103564
borg 0.542363518004672
get@@ 0.160420874572038
NBA 0.22165681940405044
book 0.05125620710404961
dule 0.7980995511350736
head 0.05529449496802642
hyp@@ 0.8348266806343676
sol 0.26384007499059414
148 1
Asi@@ 0.4046711032624755
CE 0.2762719953908839
aise 0.15072655348630293
aur 0.7783428700990519
maire 0.4005013634934346
shi@@ 0.10098763184179811
Andro@@ 1
Bobby 0.5158574667140201
Fall 0.24971536980148523
HS 0.5381330997069119
ambia 0.9654737231943616
DM 0.6605333996373879
Plus 0.3172646696409421
dist@@ 0.1384675480521354
208 1
Dag@@ 0.5722584263318305
Italy 0.13867565833560114
Mez@@ 0.8929048730488396
Punk 1
Simpson 0.6435710944148655
Summer 0.12497387856672192
ablan@@ 1
ild 0.3946756211847215
indic@@ 0.0882815337829599
unds 0.12943116226855023
Andes 1
Greg@@ 0.5527285563150618
Sind@@ 1
cat 0.6149554058571918
idel@@ 0.39115276202053134
schi@@ 0.34627419883303256
yev 1
üş@@ 1
Bron@@ 0.3850576562822917
DOS 1
NBC 0.3842395931841217
idan 0.8606088625397049
pura 1
203 1
Squ@@ 0.44856284250923084
VO@@ 1
Hoch@@ 0.1451574498404149
Hope 0.5395154343429001
Lucy 0.7376548655234433
Sle@@ 0.7032887089503075
ík 1
202 1
Armstrong 0.6597746218186173
Cl 1
Guardian 0.5749417314059919
Viet@@ 1
sein 0.0345709448293915
Burundi 1
Core 1
209 1
ATA 1
Explorer 1
Marion 0.7826452790734675
Rut@@ 0.6591085832323846
Springs 0.520271354771957
hio 1
sus@@ 0.14776619939301644
union 0.13357329440538304
ieu 0.5738155076332961
Algeria 1
Fe 0.5499808368984762
Anim@@ 0.5787118770813915
Luna 0.7767259472246187
aş@@ 0.4422010115706641
zer 0.18150076513232305
Berry 0.808504277888556
Hart 0.6014868908539619
Vinc@@ 0.7864250039001083
orch@@ 0.2533395261727324
Horn@@ 0.6418378125278643
Wagner 0.5208652811312601
acu@@ 0.2662201829137369
Andrea 0.5100055922861108
Uh@@ 1
abl@@ 0.17661966680524369
vic 0.37336955055339827
ớm 1
Bonn@@ 0.4844475404571083
English 0.04886333797736927
UR@@ 0.7810167430592014
ever 0.0773980289945947
ük 1
Fighter 0.7747373451959073
Jerry 0.47884931699670874
NS 0.455982091593686
Steel 0.6940793980822708
ague 0.2931075175652244
fall@@ 0.15277359490953038
29.@@ 0.8262357150579274
Aaron 0.6315573917379915
Faso 1
Ronald 0.6554779460964829
alu 1
iner 0.2889293048502261
4000 0.7606615848991959
fica 0.6018990048905706
166 1
310 1
Daw@@ 0.5111488611865593
Geneva 0.956195198723532
Three 0.18532610735476876
Tuc@@ 0.45811481746537797
marketing 0.44872465450715404
suff@@ 0.10002015307719046
Burkina 1
Lane 0.3763452047757711
Palace 0.3490843393688493
Service 0.11810863763162731
ating 0.027725709241317936
boa 1
enzy@@ 1
rev@@ 0.16408374170338205
162 1
Dog@@ 0.5397709104671978
ls 0.15040317833075537
Alexandre 0.4333435341215824
Bridge 0.20953969944353096
Happy 0.8674830771272363
Rav@@ 0.39613193438681843
氏 0.2876862786698892
168 1
Balıkesir 1
Knight 0.4117602470525929
Rudolf 0.3758365971522565
ft@@ 0.6254383551863923
ph 0.49977285861771475
seu@@ 1
AX 0.9137893405232842
Orleans 0.4014829133545575
Terr@@ 0.26693867233240615
Year 0.14290201758796833
Zu@@ 0.37934928837062515
195 1
256 1
Bosna 1
Cay@@ 0.9123839228816308
Ehr@@ 0.3178545140204777
Kang@@ 1
Liberty 0.6513987286075291
Not 0.3202429609247494
hay@@ 0.6761023425324777
Know@@ 0.970177857789184
Stuart 0.4912937397266317
hist@@ 0.47122504672681154
mata 1
polit@@ 0.627449611931856
lik 0.29422590259950365
Holland 0.5197111790108266
Laurent 0.4837096615587649
chir@@ 0.5369696586192912
fac@@ 0.06745674998003016
oc 0.7304361677821334
pers@@ 0.5025306976467587
unif@@ 0.7598653949129582
Bih@@ 1
Herzog 0.5441685010115253
Saudi 0.5434570066377975
Sob@@ 1
format 0.17297102165439646
77@@ 1
Meth@@ 0.31556382357019896
dez 0.32539993670742456
AO@@ 0.7178650452080648
Alberto 0.4080762764469202
dida 0.6684854338838135
isl@@ 0.3961039284429051
mine 0.21540678729263568
ả@@ 1
0,000 0.177771104020516
1200 0.5334076854246209
Lorraine 0.7159612776359973
lower 0.09292892452004961
oru 1
ー@@ 1
156 1
GA 0.4062753257272417
Niedersachsen 1
alty 0.23486603939896972
cs 0.1363337982241077
iya 0.9105306898674985
och 0.48746922414484206
Lah@@ 0.5812225116900559
Luk@@ 0.6697506503792499
baz@@ 1
ensa 0.4897329287094526
fu 1
plas@@ 0.24071758024080125
ric 0.4244946412152773
Edition 0.5703038555223948
ikh 0.9995862417181148
370 1
Rural 0.33116940788199434
itaria 1
Atlas 0.7626257452615222
Field 0.21125549973627358
SL 0.7533284104235842
ın 0.10420738333873757
142 1
Kid@@ 0.7704612629684617
aland 1
text 0.14959370585612522
154 1
Caribbean 0.5363650392556744
spur 0.9002068681997455
Camp 0.3465186152727542
Dah@@ 0.8178351311824227
Eas@@ 0.4055882957716208
KA 0.8561538581391535
Leicester 0.9009201994420711
Aleksand@@ 1
Hik@@ 1
Jin@@ 1
Linda 0.7430030029331778
angi 1
avirus 0.9317054904201502
ağı 0.823490896495172
berry 0.5809088294543074
met 0.06539135246056249
onder@@ 0.41017158532606557
sar 0.4539797235829837
vania 0.911065837475401
Collins 0.4515052436172313
Paral@@ 0.9105362638017614
kowski 1
Battle 0.12796366505217868
Extr@@ 0.4301107566390099
Institute 0.07966646442140479
Link 0.8306080081845127
bay@@ 0.33357112713863735
dot@@ 0.24192682339136262
gie 0.5911302871175655
tara 1
vector 0.7953694879662218
Amy 0.7150023021349143
Chau@@ 0.7942212258954491
Morris 0.3893915179917382
215 1
Palm@@ 0.6405202089309283
Ports@@ 0.8435681001582184
Voice 0.6643059913988529
ios 0.2650756322726006
217 1
Bin@@ 0.5885168559807733
Foster 0.6369454197033713
Put@@ 0.604988674484429
Sean 0.6031733029972932
Uran@@ 1
arin 0.7588007298441813
CM@@ 0.6392371230086525
Form@@ 0.3815212874436642
apo 0.6430926443403852
eux 0.07096658571927053
Botswana 1
Note 0.4134104349483127
Rodrigu@@ 0.8274181712348886
ering 0.07763919074433512
sav@@ 0.16153431853776862
Fig@@ 0.38704084444245007
Palermo 1
Petro@@ 1
abi@@ 1
dir@@ 0.23126214268067138
ensen 0.5251130445830479
139 1
38.@@ 1
Del 0.32968082071328947
Eff@@ 0.30530766952342897
mach@@ 0.2622195988545132
punk 0.46450558411713044
scope 0.4447782962476972
thy 0.2592763334776718
1786 0.8702079728827959
Abdullah 1
Num@@ 0.3435608736085025
Phoen@@ 1
istes 0.12451096009619222
itas 0.3255499043044608
jap@@ 0.6685009673316195
ques 0.033836645050473915
sley 0.5689779244886212
Band 0.0968610590917118
Dak@@ 0.8200571563987704
Pant@@ 1
etz 0.39212334652140785
site 0.044309873172818474
European 0.056750040616166966
Olden@@ 0.9723954168199774
bag@@ 0.8383821770130987
yen@@ 0.7495644695302203
Child 0.5838358810147607
Haf@@ 0.3628952218145749
Jack@@ 0.4671396363233902
Müller 0.45172452871041047
Kaiser 0.2882202451669623
153 1
Wells 0.5652192614236811
hir 0.498042063484898
plac@@ 0.21313892535007614
vas@@ 0.2216394226758538
妃 1
305 1
84@@ 1
Helen 0.49984514800209656
Lima 0.42748216669687655
indi@@ 0.10304636191365081
山@@ 0.1274962467062905
Cub@@ 0.3615551648773134
Delaware 0.5751123289799573
Kah@@ 0.7611220351954763
Yale 0.5214052813007598
drei 0.05169880959110957
kn@@ 0.14318761784151918
unt 0.24753026539049505
var 0.37099791118632586
176 1
32,@@ 1
II@@ 0.47161641251323577
pera 0.9889930808625893
AO 0.9830861603851394
Nog@@ 1
Ve@@ 0.6346396145318314
tle 0.22511368485741992
Bologna 1
Cann@@ 0.7733988217992096
Imp@@ 0.47460516543964043
Theod@@ 1
Yukar@@ 1
contr@@ 0.048852020641305276
88@@ 1
API 1
Savoie 0.8639103348967859
Whitney 0.9317440007186164
bek 0.7506245782141162
201 1
Joan 0.46044951083099467
umo 1
wn@@ 0.5217746605285178
wski 1
三@@ 0.07783736341358773
Phar@@ 1
Z.@@ 1
eus@@ 1
inson 0.9374526570208292
zel 0.4440734827688906
Burn@@ 0.6993538100026055
Family 0.17408367269347513
Tell 1
obs 0.2959612755168861
sou@@ 0.06064855107368502
Brow@@ 0.6581976265344821
Dr. 0.10989632328675626
Pérez 0.4594300604323131
Wein@@ 0.27086498526608505
azu 1
Atlético 0.5758853032302721
Güm@@ 1
Mohammed 0.7286146697004716
Mou@@ 0.6553255075015354
Rau@@ 0.4998512735082495
Trin@@ 0.5627960474126976
concert 0.2075955238278426
ril 0.647547554384941
yas@@ 0.6544151173071274
35,@@ 1
Single 0.3422741073680378
hac@@ 0.39407683016365186
2,6 1
63@@ 1
Dist@@ 0.2709276665714682
PR@@ 0.46914385595034785
Tay@@ 0.7768726468759555
Tower 0.3627233449036023
Traf@@ 0.7407980670290949
ebra 1
ensi@@ 0.2535906060929198
Eich@@ 0.5039889070465483
Lloyd 0.4208326930285169
hion 0.9844969081519913
odi 1
ğr@@ 1
子@@ 0.2641323284173619
Bunge 1
Kate 0.5817607597492408
Vista 0.980157977030432
fan@@ 0.36507844417515223
luk 0.7588188813532035
asta 1
spar@@ 0.2727609413554636
南@@ 0.08030275694908402
Quebec 0.3202765468432946
Take 0.854881804937385
Sur 0.13254152735143748
Tommy 0.5119148548681537
ampton 0.5404307525613647
lim 1
ahr@@ 0.29487643628611404
aten 0.07413589474693039
engo 1
golf 0.5408872775154063
loss@@ 0.4850014614274845
new 0.016079387107364684
oll 0.31759103511318343
武@@ 0.19310583096456369
Sut@@ 0.5965397852758131
Tau@@ 0.5722537005948705
brid@@ 0.3595298815856098
Bug@@ 0.5457607001214505
Doğ@@ 1
ande 0.23744786318414085
cont@@ 0.07920080909366453
eyi 1
onda 0.6076130586796745
151 1
Cloud 0.7846256887257912
CT@@ 0.6695417968892277
SmackDown 1
Zan@@ 1
enst@@ 0.2552315421267855
ifer@@ 0.6650098949093414
wei 1
Hugh 0.4501862095637577
Nel@@ 1
Pall@@ 0.796213201813552
SK@@ 1
anak@@ 1
ede 0.19380929681344575
ç 0.434299761209112
Capitol 0.7830332088764684
Nim@@ 1
Rag@@ 0.5931514716752352
Southampton 0.9254687004835751
ames 0.1888487511539924
atten@@ 0.5143105688753222
hot 0.3902752759742502
law 0.052100033862117666
Tang@@ 0.7230398705695396
Mont 0.4853543672254643
ather 0.1707180889073554
ượu 1
AV 0.8066270611763277
Floyd 0.853346209123534
Gür@@ 1
Hac@@ 1
Mark@@ 0.31587454687495414
Zak@@ 1
chan 1
tav@@ 0.508969307941568
ș 1
Lancaster 0.7894671104294175
aim@@ 0.19810816017278782
Edgar 0.5841806373847864
Four 0.2202609267635079
Research 0.11562890654619146
Silver 0.3689837860637026
Stanford 0.5426995123088533
aves 0.10765116292994165
tima 0.5147524926088397
tina 1
vor 0.02733995565515169
174 1
arre 0.5219049613503142
ener@@ 0.1906606407137148
192 1
Owen 0.6094469733496395
rat@@ 0.32728316689945136
zan 0.6278698979283361
Çam@@ 1
ː 1
212 1
Captain 0.2161295122307941
dier 0.2542506358826436
ires 0.11378698459201624
ège 0.2676236984141783
ự@@ 1
Ce@@ 0.7186983192724874
PP 0.6998769537007734
SV 0.2664837036195655
Secret 0.5938600766458918
Spencer 0.5651090995582242
Voy@@ 0.7655886904536486
alam@@ 0.9686047880430783
mith@@ 0.6333122496545917
pris 0.2802163993150968
sels 0.2479585395949132
º@@ 1
Ê@@ 1
ế@@ 1
186 1
Stil@@ 0.42549851464519395
480 1
berland 0.6102152940595905
elly 0.4215771505301727
sons 0.1186738546866578
Anton 0.3643739367240364
Château 0.5253985581891407
quel@@ 0.37044887383661507
rin 0.8070686798471425
Felipe 0.46859210943442675
Nile 1
pic 0.33367542165612113
Television 0.2401483413278417
fo 0.28257831187450216
was@@ 0.18521405337259988
yr 0.771265515833043
1700 0.6343714697640996
Spor@@ 0.43982581299914797
dum 1
thias 1
uya 1
ˈ@@ 1
1787 0.72918211073416
NCA@@ 1
Rogers 0.47444434424800225
Wis@@ 0.5865857347066209
dioc@@ 0.34579137034519014
had@@ 0.7790563120313772
74@@ 1
Sevilla 0.5692877820492109
cé 1
ights 0.1580528463836643
vie@@ 0.1034808937946149
ığ 1
CG 0.9397484270452784
Cri@@ 0.3845015819313311
also 0.0059057490451810855
mah@@ 0.6719507032024763
right 0.05677838202892141
1791 0.6059739810294762
275 1
District 0.04413416242968664
Norte 0.26807637261693945
Samp@@ 1
arist@@ 1
ınar 1
Dais@@ 1
Psy@@ 0.5254319276929861
bio 0.3356642984380195
otype 0.30457632936986917
plasma 0.9287433142053053
tens 0.43054639122525173
toc@@ 0.7629936047029777
164 1
Hind@@ 0.5179850695327521
Jesus 0.26435956812228967
Viol@@ 0.34858154482199855
aks 0.16908818119272995
172 1
204 1
Diana 0.6486281956635294
Estr@@ 0.45939277459173383
MB 0.8417702227563695
Nick@@ 0.5013588951550921
abar@@ 1
atta 0.7368602813774355
incer@@ 1
pher@@ 0.6107593440649756
Má@@ 0.7860829511551785
Wander@@ 0.3738570204154436
amide 0.8389843390670861
eas@@ 0.12750594684576208
icro@@ 1
290 1
Eb@@ 0.39206528963760157
Sebastian 0.4895799878947064
anic 0.7680022633463293
ders 0.08543460696327482
1793 0.44412095338024765
Alto 0.6174328301317863
Châ@@ 0.7238775973818722
Moz@@ 1
Muh@@ 0.8854557158789584
U. 0.6548599596637613
pedi@@ 0.28732711526913496
Bomb@@ 0.9190143565857902
Dortmund 0.7984657375680086
Harr@@ 0.5903595348969278
Mountain 0.2071343454604881
Mr@@ 0.2811443437018753
cosa 1
ici 0.2701180674830053
omorph@@ 0.6401564128231557
皇@@ 0.6615507579592378
Age 0.32412161097723996
Coast 0.1714480493391539
Emir@@ 0.6960750693822961
Joyce 0.9911552486981308
Mason 0.5544332854089596
Shah@@ 0.771986168763375
Sén@@ 0.5737642563727855
Til@@ 0.5085706031695645
alı 0.5042541443210631
have 0.009156868496531367
very 0.03145499845476847
viv@@ 0.18236566776829463
國@@ 0.1211837721340871
liqu@@ 0.387370588481446
区 0.10099121130581507
Fort@@ 0.39178167326009516
ł 1
Harvey 0.53241397718572
Konya 1
Leeds 0.47680646389673126
Standard 0.32385562529039075
box 0.18131417775619935
eber 0.6895978253210668
rhy@@ 0.3797991596904073
wr@@ 0.21666967312410806
州 0.06584935812679635
Felix 0.5505443846032226
Torres 0.6001816412235751
ongo 0.6316881062300999
other 0.01184103842132183
tas 0.15051214035823765
0,6 1
Jon@@ 0.6111871503791223
dos@@ 0.4247244733791238
tn@@ 0.33751463160962136
1794 0.5310625358484269
Dublin 0.28229177977794945
God 0.1587621406342396
key@@ 0.4373344320852447
孝@@ 1
Hep@@ 0.9910620022486717
Mini 1
States 0.02283382892160106
183 1
207 1
Arth@@ 1
Chang@@ 0.5204907330915404
Rost@@ 0.9835786218603692
abor@@ 0.19223050117359816
uld 0.35681053583739375
Macar@@ 1
Morrison 0.7493362186034492
Send@@ 0.7112549105210073
Small 0.5882209645648475
lins 0.5224329274223095
nio 0.7718931317266141
tou@@ 0.19025747362887582
2,8 1
tius 1
Epis@@ 0.34156428622500146
German@@ 0.36724040072595243
Omar 0.8276508658581824
bourg 0.22261393808350805
cass@@ 0.7162072252356976
dah@@ 0.9242409303738014
ilen 0.1899160181190472
patr@@ 0.09172433890935992
sian 0.19273131543185476
yaz@@ 0.44282495425399926
189 1
Kou@@ 0.867694068801433
visual 0.31906368950201147
Ü@@ 0.35776906672359715
167 1
221 1
BP 0.8568380505186486
Ey@@ 0.576005268338643
Princeton 0.6288776763487566
Roberto 0.4456053703459864
alay@@ 1
alo 0.35699902195210625
Alexandra 0.8123860269103581
Diyarbakır 1
Fried@@ 0.36941066604808215
Nis@@ 1
einer 0.012462450844299644
iler 0.14638993820106205
lung 0.23653152106477787
uva 1
vac@@ 0.1797921640304837
wid@@ 0.14207702182063492
元@@ 0.2754909420876577
850 1
Emp@@ 0.2206398307342301
Erz@@ 0.3540094342636003
Laf@@ 0.5147469243964896
Medina 0.910572857771742
SM@@ 0.585097498018303
Yorkshire 0.3971004702694692
bey@@ 1
chap@@ 0.10699219660083713
rol 0.35172251168520596
stream 0.16917672796664276
École 0.26913303700818153
Bull 0.5925813203506128
Burg@@ 0.28793114103641376
Carol@@ 0.7668064764005982
Rachel 0.6236946203755653
Software 0.41690440632897213
Zer@@ 0.45939915904348677
date 0.07280714651826473
gren 0.9514427272921284
otz@@ 0.7160367383620547
sier 0.5494905451099094
173 1
Gig@@ 0.9275976476275023
Kro@@ 0.47562855978796464
Powell 0.6455674409770619
aik@@ 1
face 0.058815040916997935
left 0.03671249423578625
ning@@ 0.5057855051726332
Beng@@ 0.3949982642477042
Kuh@@ 0.9830521047723081
carp@@ 0.6113534593539588
mos 0.41256917683929223
ram 0.6056053064578777
Bursa 1
Columbus 0.5777181209924106
More 0.23900102755930938
WTA 0.7926685446006957
iris 1
toria 1
238 1
Autom@@ 0.24950356182580896
Dul@@ 0.6207087387720309
Mali@@ 0.7373296680520741
Murphy 0.4723841251985482
Nach@@ 0.07985115399272583
Rep@@ 0.4571215811214781
Republic 0.0957244006999578
There 0.03206613818100486
0,2 1
0,3 1
Suc@@ 0.36657192104049957
Vari@@ 0.18862436791122375
Venus 0.8303108446258625
chem@@ 0.1620692980575642
entry 0.18416905401226089
lic@@ 0.10148722107364555
mart 0.5059828856012978
Atlantic 0.18679525517530807
Todd 0.6141668752145407
laur@@ 0.7056249493945004
ovia 1
schn@@ 0.33565407092635763
179 1
Alberta 0.4102548594519475
August@@ 0.552563966149289
Hig@@ 1
Pascal 0.7985314543042598
Zam@@ 0.8832518502945939
dra@@ 0.11649005111724463
heimer 0.5378460249038992
over@@ 0.047451757316130425
tun@@ 0.21759881761332772
0,8 1
163 1
Dioc@@ 0.38013003454788186
Fou@@ 0.7466543327640114
Mill 0.5280733812288371
Muk@@ 1
Non 0.43933481034620503
Vladi@@ 1
Clara 0.5520535432178704
Toyota 0.6934504347558621
UC@@ 0.38950344439319323
meridi@@ 1
seg@@ 0.1590116820788696
325 1
Back@@ 0.4871788050011003
Kai 0.9709219343674962
Verde 0.86637340262509
fron@@ 0.1708506742981961
vier 0.06817561946131519
Bill@@ 0.5359248108928258
cham@@ 0.5366165551105239
online 0.1813536352398642
Jay@@ 0.663054007529793
Maxwell 0.8644322664491461
Sheffield 0.5397165625092135
ands 0.07596640209223056
onas 0.6336644213060867
ycidae 1
GC 0.5154279980519669
Kurt 0.3901723246720076
red@@ 0.13317688167324515
Korea 0.18748238000101777
othe@@ 0.6957971545970627
ılar 0.39933309839976466
皇后 1
Leonardo 0.8411648937328987
Stefan 0.48164805111566633
bab@@ 0.2803264507994056
dur 0.656107376363975
itor 0.1956016779780378
pool 0.2833397536784501
thiop@@ 0.9434892264417368
184 1
199 1
Mohamed 0.6922940713307302
dal 0.4845652649950195
geri 0.7344832225438549
明@@ 0.17321100026861838
193 1
Glenn 0.7221929282236721
Togo 1
azz@@ 0.7581768699092929
estan 0.7829583727699614
music 0.0319873020553467
noc@@ 0.8639389545098154
ras 0.31577832949149026
stedt 0.7853660364533167
Never 0.7248278488400409
va@@ 0.4219013307164899
Bar 0.3528503685867202
yang 1
222 1
420 1
Alliance 0.28140178079211675
Corr@@ 0.8569535697633665
Cycl@@ 0.5611696589623582
Diplo@@ 1
Instagram 1
Peters 0.9392562452588153
Vienne 0.5129989478883349
nitr@@ 0.5744008809686479
ult 0.44622165747092
Are@@ 0.8704591739223776
Aston 0.9809008415096305
Lamb@@ 0.6025799022791838
RI 0.6551039718596636
burg@@ 0.4047225839414342
hard@@ 0.19264591088465793
style 0.04939535841706903
8,5 1
Glasgow 0.32505969333350393
Kütahya 1
Marina 0.5169536259463915
bou@@ 0.15482435404153294
177 1
Arab@@ 0.26305353627600314
Chem@@ 0.18249408881536344
Sophie 0.49138484191361453
building 0.03731585685146267
uo 0.30285479009135224
Days 0.5179309011676273
Doctor 0.24425705819316718
ML 0.5707383237129925
Marcel 0.45228790383967316
Movie 0.6866850270791113
Productions 0.4478061601890835
ege 0.18983677793019388
geh@@ 0.10455713050310456
igg@@ 0.7749126410579968
osi 1
oter@@ 0.9606320103491364
inski 0.6459213263204795
lang@@ 0.13354102368321125
ps@@ 0.4907880526060513
rou@@ 0.1355173886300963
178 1
2,7 1
Elena 0.6967099904489581
Nass@@ 1
anea 1
capa 1
dio 0.11976781933264814
ital 0.16427605865028455
Business 0.18774283152353494
Nations 0.1612580458073326
Post@@ 0.1997260980948039
Tel 0.6301987954976415
½ 0.7756046335336801
ə@@ 0.7725639845871338
Five 0.29743304395746195
Jenn@@ 0.7665346587720946
Logan 0.7947921579328363
Maximilian 0.8671658114409524
Nah@@ 0.35794798743167366
Oslo 0.512758252430772
Phone 1
Pont 0.5262441888043342
Run 0.4859525232167854
Woman 0.4187211147556812
Yaz@@ 1
eras 0.20536599343394368
tie 0.19874425278578967
Rock@@ 0.3280826847380952
decor@@ 0.16601419977645493
ysis 0.4788375740155243
1776 0.668209712821406
262 1
34,@@ 1
Karen 0.7226894882164435
Wyoming 0.7524210249321573
amer 0.400397628927983
Aud@@ 0.41020019725698614
Ricardo 0.5145930242606067
Vend@@ 0.7185765126958991
arı 0.6688723316107833
308 1
Castell@@ 0.7187570336310771
DF@@ 0.5188420378632428
Dau@@ 0.4140041196481698
Rhode 0.6264024172115111
SV@@ 0.9800203767717883
azar@@ 0.5921063928744148
nev@@ 0.7200335572849661
real 0.08199293787516972
182 1
265 1
365 1
Rotten 0.7944137900824222
esti 1
kay@@ 0.4445626096543354
Erich 0.6080391038878415
Mati@@ 0.7071455466941039
Money 0.7207439359214264
ainer 0.47431693522018537
Aki@@ 1
Ferguson 0.885102775034761
Freder@@ 0.4940609098805264
BAFTA 1
adan 0.4929060670092548
cas 0.09013015862394043
yeri 1
öz@@ 0.43368168356101383
264 1
Brest 0.8428971818024423
Cola 1
Dh@@ 0.7247699410776035
Metz 0.7317948038817809
Orlando 0.5789320870802809
Pero 0.37021274605402976
bid@@ 0.4973860368663435
ö 0.40237880676488375
BD 0.8086492229579411
Bras@@ 0.5211957941615533
Kras@@ 1
anza 0.19087767705046352
aran@@ 1
bor 0.39161627319728404
eba 1
endel@@ 0.7256465060120495
ppen 0.4820228207593794
228 1
36,@@ 1
78@@ 0.9641709844627497
95@@ 1
Bern 0.5683949729190887
Box 0.4338757329239174
Gott@@ 0.5982892708440672
Gök@@ 1
Rang 0.297486839528362
glut@@ 1
ld 1
ories 0.077708882702614
IF 0.5922891554404253
Mih@@ 0.7045110917273012
gó@@ 1
teo 0.9942148810951951
300@@ 1
Henderson 0.6789083109535824
PD 0.4520656297201045
Yay@@ 1
erk@@ 0.11809163075615928
press@@ 0.4502712734622227
spec@@ 0.10434409143451358
ỷ@@ 1
Africa 0.08601257721562178
Cz@@ 1
Duke 0.17392138254624706
Face 0.698865060786067
actr@@ 1
jer@@ 0.25216569554978957
nec@@ 0.21973005167868961
vertic@@ 0.7337941694718958
Augusta 0.7866031572342902
Essex 0.5591071279963018
López 0.3414724696109391
Yus@@ 1
elea 1
öl 1
Direc@@ 0.1611307626543592
Yi 1
EN@@ 0.5225958394568077
Grey 0.5107955642613567
Naples 0.5508753253675371
Quar@@ 0.3524006818008906
comment 0.5745124622274616
223 1
3,2 1
98@@ 1
Bob@@ 0.5124471675051413
Clau@@ 0.8096406196445767
Rocky 0.736421218499718
Eritrea 1
GNU 1
Gabri@@ 0.5945886840890175
Inn@@ 0.24187790534002
Jorge 0.2927585248358591
Jos@@ 0.4549620465837831
With 0.0627507975023363
wing 0.061587965876175516
1795 0.4953850829027653
181 1
188 1
Caes@@ 1
Grav@@ 0.6145189759818134
Hill@@ 0.48039893588169386
Lil@@ 0.6245089642665379
Pok@@ 0.3599780187696114
alen 0.10982513504640072
ebu 1
ort@@ 0.41580006891532156
ợ@@ 1
CL 0.8281248993414159
Eagle 0.5864788359698289
Edge 0.7377550495688391
Grig@@ 0.855532650807819
Morning 0.550787609670365
Richmond 0.355879755967435
SN 1
Sweet 0.6912915809531609
bol 0.2111703898059038
kea 1
utu 1
ène 0.13153016622182231
Adelaide 0.4543579151111257
Herschel 1
Nice 0.6365692028666485
Server 0.9408924128775774
abo@@ 0.42328130888359056
endi 0.6080489959348623
insul@@ 1
path@@ 0.20007431587893296
trin@@ 0.8533620623026179
ysi@@ 1
Slov@@ 0.516046632826772
Flam@@ 0.37393049281476237
Paran@@ 1
Pompe@@ 1
sberg 0.33088188075426433
劉@@ 0.4665068369365627
Beautiful 0.9593890520065461
Get@@ 0.7411805700836718
Ibrahim 0.8649056166297369
ansen 0.8173847018262171
196 1
Meh@@ 0.532937906538506
PL 0.9637469120086044
Seb@@ 0.9489519605323804
Station 0.10768407228527227
orium 0.2790456848815862
pei 0.9361512789318636
ül@@ 0.1354006791198386
198 1
Dick 0.42008003929109655
Rég@@ 0.5722271402316674
iwa 1
304 1
Bas 0.36607725503768995
Jal@@ 0.7763662116791337
recur@@ 0.3334997874769249
tum@@ 0.32113282797204606
xima 1
Hack@@ 0.7785753341505678
Keith 0.4318071200476182
Piz@@ 0.7894835700055669
colspan 0.23923659903546063
egu 1
ils 0.0324134566535916
金@@ 0.09826667989736791
Din 0.9714713266529975
Fid@@ 0.6562505459747652
Maf@@ 0.7825397289316943
Visual 0.9021231557567669
cott 0.7796488615624563
ça 0.27954279434688145
Bald@@ 0.6095707226398923
Major 0.13366907964144178
Olivier 0.578822788994674
Rous@@ 0.7715297813134765
ages 0.03081469287355983
Blood 0.5193241918379534
CF 0.37605474838859226
EM 0.5430440099058108
Ear@@ 0.2907553800598883
cath@@ 0.44309625160711186
149 1
Craig 0.4583061185807057
Gonz@@ 0.4207808289896053
Kenneth 0.5901546535456197
aux@@ 0.6729463035819356
cyclo@@ 1
ej 1
seri 1
simul@@ 0.37282736217110485
tap@@ 0.27539938532370295
之@@ 0.08172371286436374
255 1
After 0.019731951366361394
Get 0.5848781212238506
MHz 0.7604011242209823
Shakespeare 0.4703078664833508
Symp@@ 0.8764399027965071
ml 1
plut@@ 1
Sara 0.6480005722104751
See 0.1587903902147293
Tyler 0.6243801356706407
arro 0.5257016438932062
conn@@ 0.07832570050055726
mph 0.730845964876666
pio 0.924766070422401
type 0.058677163635730896
égal 0.9261443373633043
158 1
MIT 0.8170709605527069
Northern 0.10878454788278953
cer 0.15404464806783622
dag@@ 1
gros@@ 0.23510371583799522
171 1
Kau@@ 0.7302137428909097
Micha@@ 0.5789521144815014
Montreal 0.268117635888092
asse 0.1285448543966447
cyc@@ 0.4711580291188683
dict@@ 0.4313675998999088
ful 0.06551959634311649
Celtic 0.5552943556465285
Edmund 0.5531717551012155
Kri@@ 0.4307951842714038
Raz@@ 0.6722019566121064
americana 0.44263115703983713
lima 1
Ế@@ 1
1782 0.7028253086460046
213 1
Acan@@ 1
Baltimore 0.2873731577028731
Wik@@ 0.8733654248697237
apr@@ 0.5468708696322714
dağ 1
dub@@ 0.49560629192648814
ậ@@ 1
Ent@@ 0.17358017396961445
Indian 0.06324397128359559
dem 0.004913167123714152
sn@@ 0.20050480697736037
paci@@ 0.3892569532366234
sti 1
urs@@ 0.29711286212679505
1783 0.6302627782697116
38,@@ 1
Fall@@ 0.3461361987183809
Fi 0.9655758966164205
Justicia 0.8547550199128602
carbon@@ 0.5269030374318677
group 0.02766358066660724
ür@@ 0.09992077092538504
1772 0.7689521815896747
191 1
31.@@ 1
Aircraft 0.670460496366785
aki@@ 1
ub 1
་ 1
219 1
Duf@@ 0.8578074531386037
Imag@@ 0.4969993895334297
Kw@@ 0.8736425778199688
Pablo 0.3030270389395009
Stade 0.4720369831555092
aly 0.6122672926111562
tari 0.7327275051380502
187 1
197 1
Barbar@@ 1
Chron@@ 0.28268442289718143
Dest@@ 0.47994439434177294
Drake 0.7417381062856199
Jules 0.4141628380617572
Name 0.09666772050023527
kit@@ 0.36493387384246184
tat@@ 0.6410649358184897
37,@@ 1
Beno@@ 0.6982587235007022
García 0.2642537765256281
Hood 0.8436892347514602
ifer 0.8028721653101168
municipal 0.13791036839561144
wiki 1
Düz@@ 1
HC 0.3863472577571826
aklı 1
buc@@ 0.7632544370222845
cke 0.6686139133517754
eves 0.4375659299482969
roy 0.5587589754859066
two 0.008188780018391267
ule 0.10014853718667302
1797 0.535370386698048
Nassau 0.6305839382669708
Sunday 0.22302396740930874
ses@@ 0.2404400993670274
德@@ 0.08536284847711846
Senior 0.2524788266074707
aber@@ 0.6326531626206927
ael 0.5884082080279741
ball 0.08478430731849085
confer@@ 0.29398108496625547
nak@@ 0.4418167969649407
onte 0.32559033076548166
ıç@@ 1
ững 1
Josh 0.6122200092235116
Miranda 0.7568653960180775
Today 0.21592955194235036
abol@@ 0.19746604245361668
ỗn 1
Hello 1
312 1
BAS@@ 1
Hannover 0.3495891380070755
bas 0.2267915831764228
china 0.7184371521053803
gom@@ 1
spect@@ 0.25565500339663366
stor@@ 0.11675427517930628
Deep 0.5554014508353162
Glau@@ 0.8169426282613529
Theodore 0.6913161084534614
éri@@ 0.08165256599465635
Ced@@ 0.6639721629582374
Horn 0.6934804748373257
termin@@ 0.08977038165010358
CR 0.46232415281627676
Nos@@ 0.7787734396164566
Tomatoes 0.8231622322263332
Triple 0.496981430653915
Ud@@ 0.6591468340025396
ards 0.07429954568298905
cav@@ 0.35407452355613556
ignon 0.4526071062681264
orf 0.434874443747059
orian 0.4625333463074621
79@@ 1
Jeanne 0.5060499216471461
Lyn@@ 0.6273848925861453
Must@@ 0.8804592157679272
TR@@ 0.7138640111411658
Torre 0.6468637257559585
Unix 1
alim@@ 0.5123515376219876
life 0.021252985269836457
tron@@ 0.21451404706682056
Danny 0.46097315087523216
Kant@@ 0.3269036982435204
René 0.33027916160001936
Sánchez 0.46831780756306873
entino 1
fos@@ 0.2730416822841388
Century 0.3819665047844167
Challenge 0.32212941570250164
Second 0.09765405929588528
cant@@ 0.14489069913840927
four 0.02245373859252162
0,4 1
161 1
eine 0.006039684657063817
rian 0.2813571901675824
team 0.016113800919131144
ǎ@@ 1
Braun 1
Québec 0.21859285003918405
Süd@@ 0.08730161570170261
Wind@@ 0.2810719864082414
interrup@@ 0.5240335156313607
sola 0.5148355760293021
ź 0.8368829008710339
Bois 0.5768024120784928
NET 1
Rob 0.5278631363854551
Zaragoza 0.747552824406211
vet 0.4369110560261263
194 1
Afro@@ 1
Computer 0.3790916122389045
Detroit 0.241791010783906
Dial@@ 0.8053812981443055
Lomb@@ 0.8728018117803928
Sol 0.46358780480695644
gate 0.27293612953177737
onian 0.2350871123596621
Geh@@ 0.31983485427700037
Gior@@ 0.7595843273036708
SU 0.6149366394148459
reduc@@ 0.1395231719363305
Bella 1
Demir@@ 1
Erik 0.6259528054791537
acha 0.5425302457208734
deser@@ 0.49782062088873935
egel 0.26497338340680815
jur@@ 0.16097060151756454
Göl@@ 1
Lynch 0.7739818385943722
debut 0.05257363056807016
emy 0.7558807088828876
erst@@ 0.12806628706312218
iv 0.4890891794634932
run 0.056454811534001406
track 0.0723885758242342
Doh@@ 0.6858503130484211
If 0.10784378346349092
MT@@ 0.7465374431236877
Porter 0.6373596805543171
enor@@ 0.5017807808269854
itr@@ 0.6193995066900608
led@@ 0.29200342586511424
mim@@ 0.7754223474398116
oty@@ 0.6477819626405625
prom@@ 0.05673685618568497
sac 0.6423621649491935
226 1
3,3 1
Nacional 0.08171987057234861
Scre@@ 0.3889661719701871
ident 0.11090374955119313
ış@@ 0.4493201846736202
Hug@@ 0.5463495775756947
João 0.9286349502951187
akan 1
echn@@ 0.5196460589354001
osh 0.5538387159216608
yard 0.150223102482453
市 0.07281692247369863
Human 0.22712851762353078
Management 0.1914406839548802
inas 0.10795337645940545
sm@@ 0.15125500794069247
高@@ 0.0764257688968748
440 1
GO@@ 0.5906911120517295
Homo 1
conc@@ 0.14695295102096906
emati@@ 0.26631539306796453
maj@@ 0.40311780712885337
para 0.008143525307508084
Å@@ 0.7397977386207505
89@@ 1
Rin@@ 0.5629492681926063
avo 0.6100323368784922
ighton 0.45494039773486133
lı@@ 1
ün@@ 0.07786489028421625
Bey@@ 1
Dennis 0.4170560039648469
Lex@@ 0.4438267839038803
Milli@@ 0.26635445304501965
Special 0.17895724733957635
cartes 0.38628792639632215
ican 0.15186441947434492
234 1
Antalya 1
Beh@@ 0.20792185561866502
Idaho 0.5966071746080807
Jr. 0.4291657692289352
Latino 0.46281022701219005
Pear@@ 0.5199958338913553
commune 0.03207584131976
yans@@ 1
232 1
Elisabeth 0.3544409981830164
Sheikh 1
alie 0.35622960533464715
ank@@ 0.4314085879158173
cricket 0.2559548377166232
rah 0.9753573998725219
vir 1
169 1
Audi@@ 0.29551683146687213
CV 0.7392548413658002
Comic 0.7535728122090721
Infin@@ 0.90756685759656
Over 0.18245184674136466
Paolo 0.7824958853000227
action 0.04057500469481482
Eva 0.4973403643664488
Geoff@@ 0.6425318586398797
chal@@ 0.5077594839122437
som 0.5354396119176895
ég@@ 0.07008414482850986
159 1
2023 0.8213220274546867
Cit@@ 0.42497701151811373
Flo@@ 0.35775779377669703
Lion 0.6171078806283321
Ted@@ 0.8447241275910773
cla@@ 0.2756499054803686
eling 0.16494473057167747
rim@@ 0.6892592737287535
39,@@ 1
Ahmad 0.6398434362148665
Anat@@ 0.6776436110340595
Leb@@ 0.2556075848433779
McDonald 0.6752791176783949
Sach@@ 0.26866545740045067
gil 0.9179429028806756
parall@@ 0.4682895687264259
430 1
Antoine 0.28774221801486416
Bub@@ 0.7928691939776716
Emily 0.5595348779770756
Stuttgart 0.28075867849742575
amii 1
consol@@ 0.39844290791624715
server 0.42589699108669876
test 0.0989227530613088
1,9 1
CF@@ 0.46467711462380934
SW@@ 0.5043701358395238
glob@@ 0.350537858799235
ische 0.01738015609024411
Born 0.16918568934605488
CNN 0.9263320542381661
Drag@@ 0.458903226823036
Fischer 0.458943200971714
Margar@@ 0.4164625679515672
ROM 1
Roland 0.43294630879439655
bra@@ 0.601343142972696
evi 0.8748549201010588
oue 0.41877974303753884
3,6 1
Civ@@ 0.5554435603669229
Graf 0.3385241391056414
Kes@@ 0.6990798210893686
Mohammad 0.7462061985150165
chem 0.6826333738528941
fasc@@ 0.4876841480609077
haz@@ 0.3619138557901502
nos@@ 0.8687326813586901
olph 0.5578974966083163
remix 0.7883567396822274
zon 0.7984659224183013
् 0.0036317666807024166
Sophia 0.8829249355387571
Systems 0.3035458252928631
Wellington 0.4451713982888965
sheim 0.39448803301073493
Ave@@ 1
Yang@@ 0.9760740786762896
aron 0.02749611298072978
fiel@@ 0.24424757038687642
inj@@ 0.28117328007163084
iye 1
umani 1
Call 0.590744363910574
Francesco 0.4327052474816863
anni@@ 0.5791453531552386
ausen 0.29733576216800367
cent@@ 0.08235819696923179
Çay@@ 1
316 1
Atom@@ 0.7021936909331221
Bail@@ 1
Betty 0.6496203213097079
Carib@@ 1
Michelle 0.6898371552790561
aming 0.2498563554497502
tori@@ 0.31646910434326414
works 0.04122736316318105
ð@@ 0.419902080356606
SR 0.16999758992969086
U.@@ 0.4177170335920728
Werner 0.35728779770292696
iff@@ 0.7543888430713649
köprü 1
oci@@ 0.32720935169237547
Anast@@ 0.8723168074215497
Hotel 0.17116872119610635
imit@@ 0.4341810055379211
impres@@ 0.15352946874094195
87@@ 1
Anglo 0.4246749320235297
Brig@@ 0.23502202891812288
Ech@@ 0.8685991207909116
Fland@@ 0.4902481713079504
apolis 0.54302526989993
asim@@ 0.7808911918918519
ety 0.1965762877315581
kle@@ 0.1980188644881835
Drive 0.39084019699558137
Guill@@ 1
Lost 0.48130883973739635
Saar@@ 0.4200003940468782
amu 0.9461555727746952
eur 0.046778125381701494
horn 0.36395433391273846
iles 0.10428243019563163
ood 0.5483469573305694
row@@ 0.33810731933616156
400@@ 1
Det@@ 0.20827359407128487
Dynam@@ 0.5917391526782092
Nil@@ 0.7614224710551988
Pow@@ 0.3437604679749041
RAF 0.35972673678376815
Some@@ 0.3804743794981769
distinc@@ 0.264889271386157
ellan 0.9058256058132858
jk 0.9337580761440348
tura 0.15025092377645005
ém@@ 0.10921265637907955
254 1
Plymouth 0.6260225352133736
cell 0.16631669416799907
yap@@ 0.250246052873927
Head 0.216837203548668
Ibn 0.5638207507005751
Malat@@ 1
Techn@@ 0.16110499282469407
osom@@ 0.5913134835398995
yam@@ 1
Brisbane 0.4134018436802788
Crom@@ 0.8177381438501677
HD@@ 1
flex@@ 0.3090621568094688
opol@@ 0.8226542316346426
sey@@ 1
weight 0.10839597555987965
ife 0.26867439037854446
onna 0.6345703929697981
227 1
279 1
Hardy 0.6672570768013344
Joachim 0.47813053013703893
Lopez 0.84771576081818
Wrestling 0.2501298127347939
ata@@ 1
which 0.00414300002147576
Çanakkale 1
ă 0.7136654697993123
A2 0.9276662769947789
Ellen 0.5772576553007387
Suff@@ 0.42119342943608934
acht 0.06472537164633049
ext@@ 0.10054966897724452
igne 0.3627558044702379
oğlu 0.5089718004840639
vik 0.748797381159459
Country 0.18372396975870064
Emin@@ 1
Got 0.8309185842621041
drama 0.1343192114941458
1784 0.5865375942605024
218 1
224 1
Greg 0.4789680637227251
India 0.044773465786388224
Köln 0.24738029155580993
Ya 0.5277062572996283
deb@@ 0.1794493486610682
gab@@ 0.45738819173189676
owa 0.6563685492523492
229 1
86@@ 1
Fav@@ 0.5334804397872125
Fred@@ 0.6596939933654085
Nap@@ 0.7979339793880321
Río 0.20223993119392478
age@@ 0.27019301631339615
ead 0.3551800613099918
iger@@ 0.4276002953206938
96@@ 1
Alber@@ 0.44826643601361477
Dres@@ 0.40731802258283506
Fast 0.7796752955017473
Julian 0.4894334707103568
Ordu 1
Soccer 0.36067625799555053
Swan@@ 0.6876177104370295
When 0.04012426767250155
det@@ 0.05215855499651525
lie@@ 0.24636275932701104
tain@@ 0.10855653272666936
Hull 0.6032811324282352
Sot@@ 0.8394214740570894
abo 1
blatt 0.6113599330117316
mexic@@ 0.8005551159081161
303 1
Beta 0.959569749838334
Giuseppe 0.4947791193814218
Isa@@ 0.7869057667431132
Lil 1
Youth 0.23413516540944504
band 0.029838499500699448
lug@@ 0.37233472181397637
ril@@ 1
1400 0.7064135359598807
1785 0.632182324235539
Ambro@@ 0.6172189015092838
Capital 0.2841112773770121
Siv@@ 1
plo@@ 0.43122712213029524
Dep@@ 0.39738845236005305
Light@@ 0.5572745905068117
ror 0.2126613752180081
sous 0.02702498820118248
Anatolia 1
Borussia 1
Gay 0.7051964417367156
Johannesburg 1
Rice 0.5670388713953558
Tall@@ 0.48084753519569035
allas 0.5187947879180629
enni@@ 0.19890285525328827
fid@@ 0.38735651509863017
get 0.06747412840100551
İzmir 1
32@@ 1
Benedic@@ 0.547351329787312
Kron@@ 0.4175313982163832
Vau@@ 0.5808938962392112
Winston 0.7398393565369465
üm@@ 0.2308370433986707
258 1
Bradley 0.5930735439156142
Kids 0.6257507452366039
Sham@@ 0.717266902200848
shu@@ 0.3209020424552565
umi@@ 0.772648338851749
Cow@@ 0.3440833898380664
Kost@@ 0.4704639985302509
bour@@ 0.16679001790722037
Choice 0.6978963815935394
Dresden 0.26970823381543974
Mart 0.454308267243518
Riga 0.8107366183186421
Rodríguez 0.34595268864656853
中@@ 0.04221741754832542
-- 0.5127692585333127
239 1
245 1
Bremen 0.3514535309909293
Kati@@ 0.9059576763666878
Sullivan 0.4254408952417958
Wonder 0.8258258875524124
ender 0.07405057009738453
EL@@ 0.5193748070868653
Enter@@ 0.5812976590291011
Gü@@ 0.3662434505707118
pole 0.27083304467009567
2030 1
DB 0.5203897352877506
Kud@@ 1
Wr@@ 0.6031658094305558
lyr@@ 0.6259748102505611
nos 0.12311469553556018
umba 0.5508159008211759
vip@@ 1
Bach 0.30433744206463215
Biz@@ 0.661124585068815
Johan 0.6213600436996003
Wad@@ 0.7054032795283344
active 0.06116503104093934
cester 0.43160875126987563
schw@@ 0.1231140566209339
249 1
EM@@ 0.4978896188957925
Mant@@ 0.5989023944664655
Richardson 0.5909733302545711
aun 0.4311898692902131
Again 0.581176442687115
Fisher 0.5043743400974431
Vand@@ 0.8107634989087213
chev@@ 0.31860301761975873
hid 0.6117969707518637
its@@ 0.4598888342914066
vag@@ 0.7375917607138164
Henri@@ 0.6950608463015032
aldo 0.5004919024331306
arian 0.12092289517436709
blan@@ 0.24382013368190286
gas 0.10811541489472397
Chad 0.8591614375172362
Diamond 0.5181636853893399
Flash 0.7118766196571386
LG@@ 0.613118245949271
come 0.07175956238710743
sug@@ 0.4333849498907869
tiques 0.27505938243848865
té 0.07222943596753896
32.@@ 1
Baş@@ 0.7861572540707126
Hero 0.7188455290443908
Lod@@ 0.4034372656955329
Wolfgang 0.30089699437808065
asan 0.8575117190606698
Öz@@ 0.5461802408782802
ệ@@ 1
Bam@@ 0.517053856378908
Lebanon 0.522472328352469
Motors 0.6050112674355712
sten 0.040240212874184784
BE 0.47785751227573203
Hannah 0.7609360151736239
lain 0.29571400605488257
sex 0.15894315622410923
301 0.985919090157077
Blü@@ 0.28543976715547087
Conference 0.11136471331191601
EST 1
Reynolds 0.5935963117113076
Shan@@ 0.507348308734491
Winter 0.15759604178560702
berger 0.14878481414536443
Curtis 0.5642611653985309
Giac@@ 0.8147511510866311
Juni@@ 0.2280087873508396
Seven 0.330735827077211
coll@@ 0.09059057357714945
heim@@ 0.23980487296413427
Brook@@ 0.6998012932541022
Gate 0.5202594747871738
Spiel@@ 0.0934311916511286
acher 0.18022247409048195
ality 0.07431184525838315
apos@@ 0.30966512702239396
dens@@ 0.22400544220005156
sanc@@ 0.330091731421713
taine 0.3054461003802005
1780 0.5189506352338972
263 1
Aber@@ 0.32928059917692015
Ghost 0.7037342783298594
Stef@@ 0.7704502633355722
Vich@@ 0.9416831086953568
ỡ@@ 1
2,1 1
Abbas 1
Clay@@ 0.6690585906605624
eko 1
keting 0.6697674829656425
pist@@ 0.3560412215908843
uter 0.2659298596236456
Lok@@ 0.3582653512198536
Pete 0.5085179413547029
Ring 0.36044604763168153
Stam@@ 0.7011877226847882
Tai@@ 0.31697209058437226
Zep@@ 0.988766996651094
bran@@ 0.2606155566200748
bro 0.5028892912029167
first 0.005397753589019785
kap@@ 0.2532475777594202
rav@@ 0.3474568867790513
Bing@@ 1
Gou@@ 0.6140166986291781
Nou@@ 1
Trabzon 1
div@@ 0.133132422401492
e.@@ 0.3985805038768595
fire 0.07272107104813891
阮@@ 1
Technology 0.16202019622983801
lak@@ 0.3373753196004237
lich 0.023454173851391945
ppen@@ 0.5971263276305906
216 1
Cardiff 0.5642365269968197
Flu@@ 0.21747031513137144
Holocaus@@ 0.5653054635253744
Marcos 0.5711970224572778
Prin@@ 0.20408405946421757
Zw@@ 0.13875933022121464
bet 0.6102664409578262
data 0.08057619688685272
edra 0.6299293672689673
film 0.012202319012950507
kale 0.6426463541473524
sman 0.3952365787758786
山 0.07869921678844626
Aks@@ 1
History 0.029974206558486555
LM 0.8516342042002608
410 1
Bordeaux 0.39413735529566046
Davies 0.5202975098954653
Eis@@ 0.20344109842209357
Evil 0.8688506481058246
Glou@@ 0.5256923211395184
dek 0.9366480181478513
jpg 1
Rain 0.8901041421162897
True 0.6893457108126297
andro 0.5556908068761437
car 0.040079604251232
isto 0.7690034373954225
num@@ 0.15460178746011968
self 0.08428020492533075
Auto 0.4221648499894797
Lour@@ 0.925397587839258
Orléans 0.494721655993971
Rainbow 0.9427435947495845
SH 0.6549405632041843
cen@@ 0.32149868036359514
colum@@ 0.13328849607704513
oslav 0.4600175323103845
Basel 0.3828213456328551
Freedom 0.3594301221267042
Haut 0.4679898103724341
Joy 0.7895831959204541
Mercedes 0.3678324666799753
Night@@ 0.717356977832539
basis 0.13248588359281596
eres 0.28477248573374364
ffer 0.3040088041259698
hane 1
timestamp 1
500@@ 1
Guil@@ 0.47291450594710693
Osman@@ 0.7980923605009763
Ov@@ 1
arts 0.09978873767718922
gin 0.2207186217202569
hou 0.31708199286863487
ute 0.07888808326703838
González 0.30687653002043513
brand@@ 0.46940489721116907
dison 0.6755990877598288
iku@@ 1
pes@@ 0.19797547630649104
play@@ 0.1529775665673547
Jazz 0.203999016916101
Kingdom 0.08128876821105747
Voc@@ 0.5201273691552489
anlı 1
issi@@ 0.9886276200477541
stre@@ 0.090192229053639
285 1
Andrews 0.5452860844877099
Hopkins 0.5883940521838932
Law 0.10347280446181707
Metal 0.3133751287019768
PI 0.7049463140316624
Poli@@ 0.39310347968123577
Sonn@@ 0.21419879113430942
Wrest@@ 0.8201375077689771
anan 0.5159287561478698
cit@@ 0.08920324752673958
engers 0.6619783711206045
ods 0.08943469769467838
Avi@@ 0.5748518810731016
BB 0.535041199196606
Valle 0.40646789670114863
ences 0.033877447783867955
hol 0.7196517024338117
ja@@ 1
oton@@ 1
1763 0.7025802861307244
Hér@@ 0.5772654835617151
Paraná 1
Viktor 0.7714793478606496
adam@@ 0.8709907779864011
contributor 0.8668619981372615
Bj@@ 0.48618545663222423
Gaza 0.8455854816857865
Helsinki 0.461869223046724
Joel 0.6328804407350939
Public 0.10024625846058263
Swe@@ 0.4217977031577878
ayak@@ 1
bes 0.09117294111842728
inger@@ 0.266930432096747
tek 0.4457035875343583
wn 0.0836305645625001
BL@@ 1
Bon 0.7914758683266806
Electronic 0.6878724715117637
Script 1
color@@ 0.3649976212615675
estra 0.2178504899783313
toon 0.5171743739842004
ān 0.7895359764925464
243 1
Apol@@ 0.6535170665594259
Blanco 0.7752530398599283
Monster 0.797418990041027
alma 0.7294453855027955
asser 0.37013193308678044
tions 0.017996033353505057
trail@@ 0.3894621295599398
İn@@ 0.8996115293489573
ň 1
Block 0.4476120991017883
Dé@@ 0.0983791480664066
LD 0.9204074560477786
Plant@@ 0.530106489374715
aku@@ 0.6353238894965404
alu@@ 0.9208472531884744
antum 0.46516537352105725
elds 0.3570381524145619
escu 0.465554934163702
got@@ 0.16970316409588224
imia 1
286 1
Auguste 0.4079105596107532
Bennett 0.46038845446729065
Lorenzo 0.41112341446710904
arak 0.307994909567278
gelen@@ 1
Philipp@@ 0.7663780714025596
Za@@ 0.7554111620332555
ean@@ 0.3954546599077844
ensburg 0.44317408378890266
Jes@@ 0.22300227682704812
Observat@@ 0.3648961095054328
Petit 0.4542584220373756
annul@@ 0.7206102016831168
bom@@ 0.16774170539598782
itia 1
taş 1
ved@@ 0.6540714250493614
vill@@ 0.2668835100939549
242 1
501 1
Chic@@ 0.5498027320196125
Dud@@ 0.5480621863350589
Rang@@ 0.44068865856997397
sive 0.04428768281404033
Ib@@ 0.5572890305350012
Kiss 0.7347191735235242
divis@@ 0.28266000886819753
kirchen 0.41073981965401757
quis@@ 0.506449352470099
HF 0.4314271368036531
Jub@@ 1
Larry 0.3724980138313823
tang@@ 0.7915158343126274
Port@@ 0.44992141583209466
blin 0.6642229292070705
dou@@ 0.1268590194761594
erre 0.42949101093706654
point 0.03296958635694662
1768 0.7539623306565423
Bret@@ 0.4195359653617296
Foc@@ 0.7731419309709272
Friends 0.4362300260072025
Ocean 0.23188108235993135
Perf@@ 0.6668956005797918
Riz@@ 0.8897549171022985
aray 1
bog@@ 0.47892211009065266
thre@@ 0.11304303691414366
trag@@ 0.09563308406135732
一@@ 0.02610498653431735
251 1
Dami@@ 0.6093273509810718
eim@@ 0.5098546691011928
nin@@ 0.17776303514448077
sul 0.33105348254474687
Bus 0.3918481359762836
Films 0.24158340866204142
Julie 0.5140421299789576
Leslie 0.5288443902663098
ador@@ 0.5161098104496019
crip@@ 0.17211040681395984
ffe 0.18552764909513902
flag@@ 0.40400273095231587
iman 0.7359225068083496
Jake 0.6196321403461095
Kingston 0.5084530382410684
NC 0.6096314329904001
UI 1
bera 0.6911872297974999
https 0.6051307286108489
p.@@ 0.425102821919487
陳@@ 1
1781 0.65314595611541
French 0.03287888738185376
GT@@ 0.3952307007502437
Hes@@ 0.8041707006402271
Somerset 0.5090990851270102
azy 0.530783322689236
kad@@ 0.29616748491855693
sad@@ 0.4765595943183921
username 1
ß@@ 0.08195967384718686
35.@@ 0.9849204786556474
Andor@@ 1
Claire 0.49742725572196317
Jonas 0.7741272772836153
Planet 0.5857845573528899
ection 0.06426543569781466
ellen@@ 0.1888495043416959
leh@@ 0.20270071780881627
tenstein 0.6677301189444866
thel@@ 0.2651404381458702
yk@@ 0.6198839360275734
ân@@ 1
295 1
Aff@@ 0.19571846123446718
Esc@@ 0.3736746249352901
Gibson 0.5122115804543431
Ottawa 0.3684188607296217
Salzburg 0.5019155965451837
Andal@@ 0.834414659920307
Kara 0.9658822880821152
Plaza 0.295646920871044
Watch 0.5880593676395033
epis@@ 0.6611782970099546
Deg@@ 0.540069333965581
Machine 0.45137893793781686
Senegal 0.9293253108954775
Village 0.21192250284792002
Wester@@ 0.5526288400583893
mê@@ 1
ose@@ 1
word 0.08695518506749425
yurt 1
Cali@@ 0.6845925357496104
Ya@@ 0.9892536322872769
Yuc@@ 0.9180518564411645
code 0.11743955810166297
eke 0.47712093993036603
sau@@ 0.19730648047166585
張@@ 0.28433882317603704
西@@ 0.05495564221732095
Part 0.32801361406925955
Tep@@ 0.8213645444633213
esse 0.07723203539028017
integ@@ 0.6681507907152139
iza 0.6763551654372004
opar@@ 0.8427606506278548
1778 0.6116402569655974
IN 0.41869788548354864
Nicole 0.6949962452968059
Pont@@ 1
body 0.05233596866893527
nitz 0.34448247410414096
ual 0.06492915054421845
252 1
Castil@@ 1
Monter@@ 0.5603769420084146
Nept@@ 0.9242472869032137
Place 0.23376035957012625
gut@@ 0.6457119612728175
unya 1
Constantinople 0.5193648578794906
Engel@@ 0.7436037812849583
allen 0.11052015999384093
bad@@ 0.21076026418695196
gee 0.5468972573407993
haw@@ 0.5247534287699175
257 1
Alp@@ 0.5183509104428364
Barth@@ 0.4814985292185123
Bloom@@ 0.5717505985784982
Brad 0.6964594369132372
CI 0.49828082995372325
Carroll 0.6480316874028131
Himm@@ 0.6719216110341911
Neum@@ 0.49258714439568385
iş@@ 0.23189529818596116
umia 1
233 1
33.@@ 0.8690374863239942
Josef 0.24692143827571544
PN 0.4135363867522026
Susan 0.3799158166447001
^ 1
aray@@ 1
berg@@ 0.1495468926379948
concer@@ 0.06999341036572389
cules 0.5245950310395071
ele@@ 0.8103974354641522
noi 1
phin 0.6334802031358518
302 1
Hern@@ 0.5971770993304774
Pf@@ 0.11369933375534168
1796 0.4483946083393076
DR 0.343869590986407
Villar@@ 0.9151174973112661
ambo 0.8781273147045994
dt 0.3393280120031565
race 0.05442903861957105
rent 0.13581659073724928
tras@@ 0.15163850441385715
uko 1
侯 1
Att@@ 0.46083926670557007
Falls 0.2912273280217643
Faus@@ 0.5094517517782213
Pale@@ 0.7083865872940242
bara 0.8343111179026795
law@@ 0.13184221594150544
vesti@@ 0.47381070131390185
Ê 1
Andreas 0.2954852910401132
ES 0.49482583052870727
Eck@@ 0.6603444118259454
cog@@ 0.6795438528746293
lois 0.2402977250210504
sult@@ 0.2750459314762345
3,4 1
560 1
Fernández 0.33722859211176714
Lagos 0.7827408957367653
ank 0.4320585314273769
cara 0.3856701646532725
deci@@ 0.4757425960720805
dest@@ 0.38375366516389586
igns 0.26284308224637115
uss 0.12869039175467084
Derby 0.3763393072359953
Janet 0.7309069190120568
angel@@ 0.41787388659718055
gli@@ 0.3269858103138976
Angela 0.655256530224195
Lower 0.29212467052144764
Percy 0.7080302200831716
bad 0.1840318514221294
bah@@ 0.2986071423319408
bers 0.09685350646833012
ender@@ 0.3167655229085642
fast 0.07517870496420981
lib@@ 0.2890271329971742
pas 0.018566663958219206
vs 0.5709553120574019
ız@@ 0.7444548630750336
241 1
abil@@ 0.13931181679099985
amis 0.38041372470921375
anal@@ 0.2840115022180933
endra 0.24758324205614185
were 0.003305764089781235
AZ 0.7557556669411148
Carmen 0.405266084490426
Fem@@ 0.20908467854943583
Lich@@ 0.38662623287039494
UT@@ 0.7104512470458437
fly 0.17858551227630867
trol@@ 0.16849719394050772
BN 0.9195384216014769
Eddie 0.3551386288152341
Mega 0.8478978542380482
WT@@ 0.777235707506531
dost@@ 0.5711442480811315
mam@@ 0.2865954454709076
mann@@ 0.24663244891949287
organ 0.3061478582162105
ucci 0.8347266254343504
zam@@ 0.6300256377365222
Rich 0.6198458308578756
ede@@ 0.6068778864897676
ile@@ 1
kill 0.15823192210012976
pru@@ 1
Ó@@ 0.38698232795141757
520 1
Classic 0.30618172926851084
Mix@@ 0.3914715901119329
Nest@@ 0.7682501117473102
Pietro 0.5897113691299363
Salt 0.47270207999452757
nice 0.5682571009095753
olin 0.7175425896560489
west 0.03661987344304823
和@@ 0.20623380946353223
386 1
Buffalo 0.33018812933741987
GE 0.5632736882133653
IT 0.30658266850911947
beck 0.3764578595008057
Ef@@ 0.6378543763387315
Mania 0.9998369681471678
Vivi@@ 0.5955641532690527
acle 0.2586166783778374
aper@@ 0.5023431328058632
tay@@ 1
ø 0.7907785703305207
Alban@@ 0.20028816200228808
IV@@ 0.6262192206466474
acles 0.30699050243480286
blues 0.46289830893253336
fen 0.07085609713456807
gel 0.16516400296756092
hand@@ 0.04779334524177728
icky 0.49057139658110915
mem@@ 0.10080708113493812
ouvre 0.2181589158292198
qi 0.3358090942500847
tenberg 0.3433561727331617
uan 0.4314702388389077
árez 0.5378502632492491
Teresa 0.5292190983958808
alle 0.047972562295612135
oft 0.13092518993566388
460 1
GPS 0.9247020445696384
Marino 0.9366355316201447
Wilhel@@ 0.38149160082724537
Zürich 0.28296257501500405
enca 0.9284558667468843
jun@@ 0.4328570904753433
master 0.10696307831722604
sper@@ 0.34165292457907365
318 1
Alain 0.4174333436068343
Flying 0.46918098094686206
Gramm@@ 0.4883809574684825
Jupiter 0.6649332787379197
Va@@ 0.5340898827724313
ip 0.5487690227076739
mare 0.6704454069737814
uel 0.20230556888911366
Étienne 0.39261555805850407
Becker 0.7312875638268677
Development 0.11343000858328432
Fame 0.19367576213393042
Gat@@ 0.3771613221538609
Harper 0.5629210397125344
Hud@@ 0.7659711815567852
idas 0.09216737276005314
1740 0.7393752326959684
231 1
Bund@@ 1
Konstant@@ 1
Mother 0.4297948461168901
Toledo 0.4237773821000795
dice 0.15887333605500803
ekw@@ 0.9479972407176507
tronics 0.4591831505652516
ä 0.4095109618869813
1774 0.6087712605984857
950 1
Doc@@ 0.23279260429984786
Noel 0.8670526401151057
Oak 0.5309927187638055
UN 0.2773867756657408
oul 0.29485574399763137
307 1
390 1
César 0.3765032005525655
ET@@ 0.5106350464401517
Gó@@ 1
IR@@ 0.4188449200638045
Kid 0.6030828081474321
Klo@@ 1
Myster@@ 0.5913946449289125
Oblast 0.29705039011388884
Salamanca 0.8777120731290257
Side 0.35561086983360585
elo@@ 0.3985514111193179
kır@@ 0.7691886714527291
like 0.02419513208419092
Lew@@ 0.6307029782619589
Pie@@ 1
gall@@ 0.6404252297676358
mani@@ 0.3530691261218966
oyle 0.6164845102242267
Atel@@ 0.6591479599755189
IB@@ 0.4398483944337904
Ment@@ 0.8263020559030124
Moses 0.5690684461352472
enas 0.22925860526050568
Gaulle 0.9062564125210991
Jamie 0.575683421267151
Krist@@ 0.3679790118142939
Philos@@ 1
SF@@ 0.46303397024863957
Tud@@ 0.6557689796760828
oir 0.09338899059449254
urn 0.258190453190687
℃ 1
平@@ 0.11332551485558827
323 1
Bayer 0.9967833041119645
Brunswick 0.3729452860919762
Ten 0.26488863013864516
dow@@ 0.3459457665790912
ial 0.09148938013625163
iter 0.1129349648676557
rest 0.08150691685909141
sir@@ 0.21167689617137103
thodes 0.724387855875143
。 0.0021668220730475672
001 0.7488369484991911
1767 0.8128302042910315
Denver 0.3593441185323958
Monica 0.7049603992383066
Randy 0.6799333837706387
alk@@ 1
hier@@ 0.16076448759652215
itar 0.3841673336714587
kit 0.65708940957524
oce 1
strö@@ 0.544928510356916
530 1
Church 0.04101286688522214
EN 0.6717356638265587
Sin 0.08814746058154371
hiv@@ 0.8200813222124613
load 0.20476610697528205
qué 0.10938911097164546
sim 1
ン@@ 1
Aw@@ 0.654984447130529
Klein 0.40777409153350086
Lotus 0.7347898423531181
Meyer 0.40051599642418184
Nih@@ 1
Rig@@ 0.45272828736267673
lina 0.9996485934928643
sie 0.009187963066511309
36.@@ 0.9132340922289983
Edwin 0.5253925316149295
Fey@@ 1
Gin@@ 0.5135743616211648
Thur@@ 0.47092160639928976
enga 0.6873736655113666
fordshire 0.37396366185919194
246 1
268 1
94@@ 1
Adana 1
Angelo 0.6625298401180013
Bird 0.4417854992752604
Kars 1
List 0.06845111175767002
Miss@@ 0.29779977501311006
eber@@ 0.4676811291906221
ision 0.13549800346477886
pen 0.21128841218621983
soc@@ 0.6506301423396246
Ỷ 1
1760 0.6657023099886121
DR@@ 0.5565451939214735
Gül@@ 0.9546713823833816
Labr@@ 0.816175150213855
bel 0.21863033064500823
depres@@ 0.7357752675818665
H2@@ 1
HBO 0.6751605850956093
Rit@@ 0.3813244436158733
Saturday 0.24979588137402137
Town@@ 0.4542983276580065
U.S. 0.033903960317761
ambi@@ 0.129327368678045
ayr@@ 0.5165644056931509
fj@@ 0.5717730751025119
hu 0.48880348085729225
jas 0.19494907926420696
tain 0.10302333541694995
usi 0.9359439503511794
Fron@@ 0.293834627668262
Gusta@@ 0.5960836045744261
IA@@ 0.8383946262656311
Orig@@ 0.23718068561027852
Perth 0.4445576042303046
anto 0.5502824387953552
engine 0.10146968373030897
orno 0.8405221264274421
schul@@ 0.25514954222034336
tico 0.09841522955525175
uza 1
236 1
37.@@ 0.9351728001199956
Burton 0.5183596245032069
KO 0.5185323399265925
WWF 0.7474090605247528
atlan@@ 0.8108136478407146
col 0.5330654546724698
elen@@ 0.7342169265782665
Bever@@ 0.4945011040538766
Court 0.05477048098866763
HTML 1
Michel@@ 0.7338179322972029
Review 0.2458330368095398
Sonic 0.6187055296785772
Sport 0.16472884726897177
bern@@ 0.8622654155008591
league 0.051374077544195255
link 0.24243053465717473
mas 0.23262007127352788
membran@@ 0.3298876777908781
人 0.014805712737952146
ON 0.9802079404802615
abu 0.7592420806898414
atem@@ 1
izer 0.6085921358506636
oras 0.35926046496398006
quet 0.2431473130923294
288 1
Hindi 0.5202998258699726
anca 0.7266248761783938
ağı@@ 1
cos 0.16127586360271043
rich 0.16937332270827524
tical 0.050436475415732665
2500 0.6447156291165045
313 1
Fan@@ 0.568109406452578
Rush 0.6587062506820166
mid 0.06959127413991653
onen 0.06822721392930767
1777 0.5842418535564741
253 1
Lara 0.7947890222467634
gr 1
lada 1
sko@@ 0.6267397803847253
teur 0.06220058516700449
tris 1
ů@@ 1
1770 0.542640177713536
306 1
Glob@@ 0.7344152211798171
Mersin 1
Turin 0.46948569746561636
Warriors 0.5455891863002023
acous@@ 0.3961906716652581
yat 1
Equ@@ 0.37137225261770895
Mend@@ 0.9457774482609057
Rain@@ 0.5220972382328793
Under 0.1103112567158059
daf@@ 1
mat 0.8248527264353351
open@@ 0.376086548381901
3.0 0.7872778350125031
Children 0.21463038406859997
Dad@@ 0.6763152461686206
Flag@@ 0.4609672280933266
Sound@@ 0.7183547548418447
Stol@@ 0.33347304269020817
Zuc@@ 0.6509306693385454
bere@@ 0.14097460517274957
embr@@ 0.1853993084354799
kent 0.8545608145973822
787 1
Dat@@ 0.36761000005897015
Down@@ 0.3704300162542146
Europe 0.03479229923957016
FS 0.6717419788289694
Gim@@ 0.5719605206006345
Lati@@ 0.9112591345162653
Snow 0.5733817123861058
Stan 0.6075697873662084
ayer 0.24637817126670444
fluor@@ 0.5891610776154664
kop@@ 0.2840952239928412
trat@@ 0.15528910196217732
271 1
278 1
Dut@@ 0.5417872279833108
Gener@@ 0.13706993224709402
Guin@@ 0.6842976051894142
Hell 0.4944337092250407
Neo 0.7567194166737223
inci 0.6958202301765668
ind 0.2355965438174305
olan@@ 1
wana 1
315 1
34.@@ 0.8904740321183092
Ket@@ 0.5285226030353459
MO 0.769925826455039
Regel 0.2708822933764378
Rup@@ 0.8506629590059963
Tito 0.9225882454021443
diver@@ 0.24370288182454183
eff 1
gers 0.16705438216710616
hib@@ 0.4342425911295688
hood 0.11389139849029056
lair 0.4600204610525524
nova 0.6661836742142564
reo 0.3714773543165951
tail 0.12776964167823152
zem@@ 0.992900487048524
Granada 0.43497542589366284
bir 0.017954667898600132
flam@@ 0.2967996203446494
irie 0.35677410228114653
kes@@ 0.21233905328842803
unia 1
610 1
Nun@@ 0.541503949767056
alle@@ 0.17015626700966482
kW 0.40942271895751137
shan 0.6110198817131416
Come 0.527822740345264
Data 0.39290236707831855
Grand@@ 0.4915591904213206
Windsor 0.5090309169746439
debil@@ 0.9849716258196668
Fen@@ 0.28865062800467
From 0.03986117323073254
Spec@@ 0.29363324857905126
ardo 0.4173269960410791
morph@@ 0.2880260103516014
nak 1
sud@@ 0.25545703369582884
1.5 0.2683136711491857
247 1
Hit 0.6658877912355652
KO@@ 0.7005773639242597
Short 0.39986731767282824
leist@@ 0.1886767361048407
tag 0.1690836492751588
uti 0.7564730724987502
39.@@ 0.920942634104843
Brooks 0.4837346125498637
Ellis 0.4723445795541861
Emmanuel 0.426231846107049
Preston 0.5407282615935133
Them@@ 0.6652773230110386
Touch 0.9710463608876834
William@@ 0.49243454244304224
Yes@@ 0.8376211083193299
iter@@ 0.24624789555323
640 1
Dog 0.5224537788819321
align 0.14479990168140017
ibu 1
itu 1
lice 1
nis@@ 0.27375346785177535
NH 0.7260984916675439
NY@@ 0.4194280715250372
Prague 0.3314520092849027
Ruh@@ 0.4111726191795853
Zab@@ 1
dings 0.1731513135697607
ency 0.06317616218111376
244 1
269 1
Doug@@ 0.7558151886751503
Pist@@ 0.5390271645288124
Power@@ 0.5168469016035168
Price 0.38619334200279665
Raw@@ 0.565497089100167
They 0.02026127421982083
been 0.006773510150098919
okie 0.32360155248420536
org 0.5258458785368239
zin@@ 0.2952866031944088
Se 0.032870948267267046
entum 0.22924226140584214
omin@@ 0.4280757358385475
rab@@ 0.21201634888015958
HO@@ 0.7054184928851972
Jet 0.7779080143702001
Main@@ 0.2561001834352708
aar 0.4604555366189322
coin 0.495107814332559
einf@@ 0.33627466550137325
1771 0.741439339594044
Bowl 0.1860106095573592
Nash 0.6948605737201604
Symph@@ 1
Talk 0.666457752528555
clo@@ 0.19019906214967897
etic 0.1549801837891609
omp@@ 0.4257837923743047
sing 0.06021699170654954
Control 0.2872696524415115
David@@ 0.5476408183660164
[...]
