. 2561437
، 2410930
في 2360727
من 1326893
على 618237
( 584198
) 583747
ب@@ 477325
إلى 468975
ل@@ 458805
وال@@ 418474
&quot; 413254
ي@@ 381007
لل@@ 378755
و@@ 323596
الم@@ 310788
أ@@ 305953
ك@@ 299662
أن 292370
عام 286800
هو 266304
ه 248585
و 247434
ي 246124
ت@@ 245079
ه@@ 242359
التي 236146
مع 235589
الت@@ 234304
: 224661
ف@@ 219662
عن 215383
أو 212144
ين 201199
الأ@@ 199925
ها 194464
ال@@ 189479
ية 187849
وي@@ 187275
ح@@ 185607
ة 185562
غ@@ 180628
كان 180597
ما 176338
وت@@ 171645
د@@ 168922
ش@@ 166720
م@@ 161678
إ@@ 160208
ع@@ 158524
ز@@ 153964
الح@@ 153306
ط@@ 150763
ق@@ 149167
م 146746
هي 146646
ج@@ 145573
ت 145439
سي@@ 145382
بعد 142161
الع@@ 141859
ات 140175
س@@ 139173
ًا 138959
المتحدة 138840
ون 138612
ص@@ 138547
بين 137797
بي@@ 137387
وم@@ 135985
لي@@ 134531
« 131089
» 131019
الك@@ 129165
ن@@ 127156
ان 127057
الق@@ 126483
الذي 126435
الس@@ 126425
ر@@ 123649
الج@@ 122996
ث@@ 121982
ذلك 121761
في@@ 121573
هذه 121529
س 121297
ري@@ 120958
الف@@ 119340
ك 118948
هم 118455
وا@@ 118304
ع 117578
ب 116993
تم 116992
لا 116944
الن@@ 116618
وأ@@ 116363
ى 115648
دي@@ 114703
هذا 114532
- 114437
رو@@ 113715
مي@@ 113569
ف 109264
وب@@ 109118
الب@@ 109081
رة 108827
ان@@ 108697
ق 106794
ا 106281
الص@@ 105941
كانت 105909
خ@@ 105494
ر 104752
حيث 104632
را@@ 104502
ولد 103511
لة 101180
لا@@ 100842
والم@@ 100764
ين@@ 100744
ض@@ 99951
@-@ 98351
عة 97539
مة 97098
قبل 95954
د 94738
الش@@ 94487
الإ@@ 94409
وقد 93369
ته 93332
ل 92944
خلال 92591
ور@@ 92057
الولايات 91798
ن 91659
ار@@ 91625
ح 90862
ز 89172
لو@@ 89038
بن 88595
ار 87998
دي 87029
ست@@ 86876
كما 86187
ير 86066
ون@@ 85058
دة 84989
كل 84664
الخ@@ 84353
تر@@ 84229
ول@@ 83323
ذ@@ 81925
وفي 81919
تش@@ 81585
قد 81231
لم 80882
سنة 80772
ال 80201
وق@@ 79258
له 78057
الد@@ 78023
الر@@ 77763
اً 77163
است@@ 76827
تي@@ 76655
مع@@ 76429
مثل 76179
ني@@ 76116
بة 76041
يات 75704
غير 75624
من@@ 75505
مو@@ 75100
اب@@ 73861
يا 73673
تح@@ 73611
وس@@ 72199
وهو 71191
عدد 70607
لي 70285
وج@@ 69709
ور 69650
وك@@ 68748
مت@@ 68627
كرة 68572
رات 68410
/ 68064
حتى 67893
اء 66677
ج 66604
سي 66553
ّ@@ 66268
مح@@ 65814
تها 65659
تم@@ 65441
بر@@ 65070
ط 64499
تق@@ 64215
ام@@ 63537
المع@@ 62677
لات 62639
أكثر 62294
ثم 62293
كي@@ 61994
غ 61970
ام 61895
ما@@ 61706
يد 61621
يل 61155
أن@@ 61072
حة 61039
فر@@ 60574
بي 60391
الط@@ 60352
ات@@ 60345
لاعب 60096
المح@@ 60077
بعض 60034
المملكة 59871
اني 59813
الغ@@ 59486
أي 59475
اد@@ 59196
ود 59113
ث 58862
تو@@ 57739
تف@@ 57528
مر@@ 57345
أمريكي 57245
وا 57178
يمكن 57077
بن@@ 56888
أنه 56663
قة 56560
تع@@ 56269
جي@@ 56231
اله@@ 55620
وهي 55045
زي@@ 54840
نا@@ 54782
بو@@ 54773
الي@@ 54744
لها 54338
ُ@@ 53644
– 53083
ول 53059
تج@@ 52817
فة 52631
بشكل 52470
ش 52405
رية 52367
ص 52341
بع@@ 52171
% 52011
قي@@ 51954
وع@@ 51831
مدينة 51830
اف@@ 51092
قدم 51075
يت@@ 50523
با@@ 50454
وف@@ 50351
عبد 50022
بال@@ 49823
ير@@ 49245
ا@@ 49129
اد 48900
آ@@ 48616
به 48554
؛ 47444
ري 47240
أس@@ 47043
بية 46851
وكان 46802
اع@@ 46778
العديد 46708
ني 46666
مس@@ 46437
لية 46357
بها 46168
تي 46077
تص@@ 45999
هي@@ 45944
, 45828
اس@@ 45798
يتم 45663
وص@@ 45570
يُ@@ 45539
تك@@ 45258
ود@@ 45075
1 44965
حي@@ 44282
يين 44217
الاست@@ 44003
أخرى 43804
مل@@ 43565
المن@@ 43560
ند@@ 43545
دية 43389
إي@@ 43200
مان 43128
اب 43123
اي@@ 43014
نادي 42900
المست@@ 42894
سل@@ 42763
مركز 42758
شي@@ 42681
والتي 42286
ارة 42156
أول 42091
الز@@ 41913
مجلس 41784
القرن 41674
وح@@ 41520
فيها 41487
بح@@ 41196
حسب 41033
مي 41030
بد@@ 40985
ظ@@ 40965
تحت 40917
ومن 40784
مارس 40700
بل@@ 40662
مق@@ 40599
عم@@ 40525
عي 40443
بار@@ 40434
انية 40403
الأول 39975
عد@@ 39911
عندما 39846
هناك 39772
عشر 39743
2 39741
مج@@ 39734
كي 39652
لعب 39628
ولكن 39537
مار@@ 39464
ائ@@ 38984
بسبب 38891
العالم 38810
عل@@ 38743
محمد 38586
يق@@ 38437
وية 38380
مست@@ 38360
عية 38301
3 38292
مية 38178
مص@@ 38174
الذين 38155
منها 38150
يو@@ 38148
تا@@ 38133
وي 38108
َ@@ 38060
حول 38046
المت@@ 38041
منذ 37786
يكون 37502
الث@@ 37412
الة 37381
الله 37378
تين 37367
تن@@ 37295
الأولى 37130
أحد 37065
منطقة 37061
عات 37008
تخ@@ 36947
نة 36841
وتوفي 36827
العام 36734
جميع 36662
لت 36542
عند 36496
ض 36483
تكون 36362
دا@@ 36355
ادة 36102
سب@@ 36046
َّ@@ 36020
مش@@ 36019
ائية 35967
رت 35967
رين 35876
يع@@ 35863
أيضًا 35844
هما 35799
نية 35726
يه 35708
ّ 35570
مرة 35546
وإ@@ 35532
اه@@ 35505
نسمة 35395
دا 35386
جامعة 35177
مه@@ 35169
الية 35090
جن@@ 35039
الو@@ 34902
تب@@ 34861
ِ@@ 34860
2004 34505
دون 34378
وم 34356
تُ@@ 34127
بات 34081
مجموعة 34008
مك@@ 33934
ئ@@ 33835
الي 33829
المص@@ 33674
سك@@ 33671
اش@@ 33638
مات 33605
اس 33577
دو@@ 33484
اك@@ 33433
در@@ 33395
سية 33380
عمل 33359
الحرب 33332
بت@@ 33154
لت@@ 33120
الأمريكية 33047
تس@@ 33016
يك@@ 32695
وس 32655
أل@@ 32620
السي@@ 32494
مايو 32443
ارات 32385
4 32279
يت 32278
علي 32163
يس 32160
اق@@ 32135
الل@@ 32083
يوم 31950
تلك 31836
كت@@ 31760
يناير 31752
مد@@ 31634
بري@@ 31610
ده 31557
شركة 31517
فبراير 31505
قية 31486
سن@@ 31430
سم@@ 31300
سون 31263
لح@@ 31239
العمل 31169
يم 31096
مان@@ 31018
أبريل 30796
ولا 30774
5 30678
أكتوبر 30592
أنها 30506
أر@@ 30396
بدأ 30319
فقد 30314
ورة 30313
إلا 30298
خ 30219
نا 30157
سو@@ 30100
كار@@ 30033
&#93; 29939
رب@@ 29931
تد@@ 29924
الثاني 29904
المج@@ 29896
مر 29864
عدة 29820
فية 29740
&#91; 29702
از@@ 29645
المر@@ 29640
وري 29596
بـ 29580
علم 29487
الض@@ 29484
راء 29470
اط@@ 29422
سة 29420
يونيو 29396
ٍ 29337
يوليو 29325
سياسي 29322
ديسمبر 29297
لإ@@ 29258
اج@@ 29239
عضو 29203
المس@@ 29120
طة 29076
سبتمبر 29050
يقع 29037
يني 29007
خط@@ 28976
لكرة 28939
تا 28904
لك@@ 28885
6 28843
العربية 28778
مما 28746
فيه 28690
اح@@ 28635
ء 28463
فا@@ 28443
برو@@ 28410
وجود 28394
وز@@ 28360
نس@@ 28349
لف@@ 28347
عليه 28299
المدينة 28200
نوفمبر 28014
القدم 28011
فإن 27917
رئيس 27775
نو@@ 27773
ولاية 27699
طر@@ 27670
المق@@ 27615
مت 27575
إن 27521
أغسطس 27518
والأ@@ 27513
وه@@ 27428
أم@@ 27399
نج@@ 27397
بط@@ 27353
اته 27278
10 27265
ضد 27253
فو@@ 27252
إن@@ 27199
كة 27184
برا@@ 27175
كس 27135
نظام 27002
طريق 26989
ائي 26934
أك@@ 26900
َ 26866
كل@@ 26838
الان@@ 26770
فقط 26744
شر@@ 26697
كر 26685
الأخرى 26680
ذات 26658
إذا 26586
دت 26580
لق@@ 26504
الوقت 26471
بإ@@ 26442
.@@ 26233
جو@@ 26021
دات 25856
دين 25813
أما 25812
وط@@ 25805
إحدى 25709
وض@@ 25688
غي@@ 25627
مث@@ 25622
يًا 25504
أكبر 25470
8 25469
را 25461
اري 25422
باسم 25413
نفس 25394
المنطقة 25336
مؤ@@ 25264
وش@@ 25172
يش@@ 25135
قر@@ 25123
بما 25092
يون 25036
وات 24934
عر@@ 24916
ذ 24818
حالة 24801
الحزب 24795
حر@@ 24790
التح@@ 24778
قام 24773
نف@@ 24762
ولي@@ 24727
نق@@ 24648
استخدام 24635
7 24593
البي@@ 24587
الآ@@ 24512
أ 24433
جهة 24421
زة 24418
ةً 24403
إل@@ 24331
كم 24302
أي@@ 24300
وكانت 24283
عليها 24270
مون 24242
ترا@@ 24229
وذلك 24224
آخر 24125
كان@@ 24122
بل 24011
حين 23976
المؤ@@ 23950
الذ@@ 23920
الرغم 23897
عبر 23892
دو 23888
جي 23868
لكن 23862
والذي 23860
فت@@ 23848
كبير 23837
أيضا 23741
رب 23741
مين 23664
جون 23646
ولة 23600
حوالي 23599
داخل 23550
ئة 23525
20 23486
درجة 23461
اسم 23433
المش@@ 23412
الرسمي 23333
سر 23333
عملية 23307
بر 23280
ؤ@@ 23236
الثانية 23231
او@@ 23193
اف 23095
كو@@ 23083
واحد 23016
كية 22988
كر@@ 22986
اص@@ 22928
مقاطعة 22859
أخ@@ 22858
ينا 22815
الحكومة 22802
سن 22800
يو 22739
مُ@@ 22708
ولا@@ 22661
واحدة 22651
9 22645
15 22639
تاريخ 22630
ثة 22577
ديد 22562
ضمن 22555
شارك 22549
از 22522
بالت@@ 22475
بالإضافة 22467
لأ@@ 22467
مب@@ 22464
يح@@ 22458
أص@@ 22452
لين 22447
المي@@ 22446
عادة 22435
مواليد 22425
أد@@ 22350
رج@@ 22336
12 22327
جة 22307
قي 22303
ونادي 22282
يم@@ 22247
جنوب 22245
وار@@ 22216
الفي@@ 22171
رون 22154
دار 22141
فت 22061
دد 22054
نوع 22041
فترة 21997
وغ@@ 21931
ست 21872
المه@@ 21862
نش@@ 21856
العامة 21773
حص@@ 21604
عت 21593
فيلم 21579
يقدر 21560
دور 21450
الوطني 21364
ُ 21348
أثناء 21274
بور@@ 21257
الأس@@ 21254
سر@@ 21148
ئ 21137
; 21126
فري@@ 21105
ّة 21092
الفر@@ 21021
ينتمي 21015
المغربية 20988
اض@@ 20952
تت@@ 20950
خر@@ 20944
التق@@ 20905
للسكان 20888
مون@@ 20870
والإ@@ 20861
لف 20847
ابن 20843
نظ@@ 20810
تقع 20792
در 20777
بلغ 20775
ـ@@ 20759
كون@@ 20755
تضم 20728
النا@@ 20675
بينما 20657
بت 20648
تز@@ 20617
سم 20614
19 20554
ابة 20511
ضة 20494
تون 20488
الدولة 20435
فق@@ 20430
قال 20421
ثر 20398
عي@@ 20340
العالمية 20333
يف 20258
انا 20243
11 20199
ادي 20187
منتخب 20130
بق@@ 20117
لسنة 20113
انتخب 20079
عد 20078
مغ@@ 20070
وان@@ 20061
الاتحاد 20010
يست@@ 19985
كبيرة 19806
أح@@ 19795
طل@@ 19794
تل@@ 19757
عين 19735
عرض 19716
30 19711
اليوم 19704
فرنسا 19674
نسبة 19627
نحو 19575
نشط 19521
أجل 19514
فل@@ 19485
لو 19484
2010 19469
اة 19462
ابات 19458
بأن 19457
مل 19453
وة 19434
وقت 19416
التعليم 19413
ومع 19402
الملك 19399
ارية 19385
14 19370
حزب 19334
بناء 19306
حي 19296
إقليم 19252
سان 19250
جه@@ 19245
سنوات 19237
16 19234
قات 19232
بلا@@ 19222
الخاصة 19201
طي@@ 19194
الإحصاء 19188
اخت@@ 19158
الرا@@ 19116
شكل 19109
للأ@@ 19093
مصر 19058
نى 19019
وب 19017
هـ 18947
ورية 18938
أصبح 18880
حصل 18862
18 18853
25 18835
مه 18822
فر 18799
فات 18759
حد 18741
اتها 18693
راً 18692
مها 18663
سين@@ 18653
موسم 18596
اللا@@ 18594
مض@@ 18516
أث@@ 18443
كات 18437
بات@@ 18425
بش@@ 18396
ذكر 18375
معظم 18370
خص@@ 18367
ولم 18338
المنا@@ 18335
الحياة 18292
تل 18292
17 18283
والسكنى 18262
طلب 18250
أش@@ 18247
الات 18213
ادية 18199
المغ@@ 18187
الفترة 18177
لاً 18136
الجيش 18111
ولدت 18089
بطولة 18082
حزبياً 18061
13 18056
شا@@ 18052
هار@@ 18047
الأم@@ 18024
الوطنية 18015
ته@@ 18011
قد@@ 18004
دًا 17933
إنتاج 17908
بول@@ 17821
شار@@ 17736
2013 17732
مف@@ 17730
ثلاثة 17727
أُ@@ 17674
ادات 17665
قص@@ 17611
دور@@ 17607
عمر 17533
5@@ 17500
كتب 17482
فيما 17478
الرو@@ 17473
عدم 17455
الأر@@ 17434
حية 17413
بني 17350
مز@@ 17327
صي@@ 17321
اع 17296
درا@@ 17295
للإ@@ 17293
حد@@ 17270
عه 17226
نهاية 17225
ظهر 17205
ليل 17188
لاح@@ 17180
المُ@@ 17178
المف@@ 17169
المط@@ 17161
قب@@ 17150
21 17138
هة 17115
الدين 17098
دير 17089
شه@@ 17078
يبلغ 17017
ولي 17009
الأرض 17000
لك 16986
وف 16944
أبو 16938
نز@@ 16925
اث@@ 16916
ينات 16916
بار 16869
خرج 16858
التاريخ 16855
عب@@ 16823
وبعد 16783
هر 16739
&amp; 16709
واست@@ 16640
رف 16629
تر 16622
آيت 16611
دار@@ 16606
زي 16605
كا 16593
بريطاني 16591
موا@@ 16588
24 16578
2009 16576
وتح@@ 16569
داء 16565
يه@@ 16535
تهم 16512
دولة 16512
جر@@ 16511
تست@@ 16510
دان 16501
مليون 16475
يل@@ 16465
ينية 16465
4@@ 16452
تو 16444
يز@@ 16414
زيادة 16401
نه@@ 16381
دها 16372
وتع@@ 16352
2007 16341
نص@@ 16324
الفيلم 16318
أف@@ 16306
ألمانيا 16292
شمال 16284
2008 16268
الدوري 16254
أحمد 16249
بالم@@ 16228
صل 16212
وني 16210
كري@@ 16190
وث@@ 16187
وت 16159
دائ@@ 16145
عها 16141
6@@ 16136
أغ@@ 16117
لان 16064
خاصة 16054
والح@@ 16019
تض@@ 15999
الحر@@ 15962
التع@@ 15940
وار 15903
يجب 15884
مختلفة 15847
قل 15798
كلي@@ 15776
3@@ 15761
الآن 15741
بدأت 15739
ليس 15655
كتاب 15629
اللغة 15617
لان@@ 15601
سا@@ 15595
7@@ 15594
دع@@ 15593
بين@@ 15583
كلية 15583
خت@@ 15580
سكانها 15561
أق@@ 15530
2016 15520
وفي@@ 15519
الأمريكي 15506
قت 15493
مال@@ 15487
وعلى 15486
22 15480
التر@@ 15478
الثالث 15457
لعام 15447
تغ@@ 15446
وما 15439
توفي 15432
23 15415
المركز 15415
لب 15404
يوجد 15388
جان@@ 15370
شع@@ 15345
خي@@ 15343
فريق 15343
كأس 15324
السكان 15296
صة 15294
نفسه 15288
ائل 15278
جر 15271
2006 15268
لمدة 15266
حركة 15247
لال 15241
سكانه 15226
يس@@ 15216
أه@@ 15212
تأ@@ 15209
8@@ 15201
للا@@ 15200
شر 15199
إذ 15174
لين@@ 15151
ندية 15126
يب 15093
ينة 15059
مور@@ 15039
البر@@ 15033
ذا 15025
كون 15023
بأ@@ 14998
جديدة 14991
جائزة 14989
هد 14988
السل@@ 14984
ونية 14976
قط@@ 14954
امة 14938
2011 14919
ً 14916
المخ@@ 14892
سبب 14864
كو 14860
زل 14850
برنامج 14844
الشيخ 14831
لم@@ 14824
ورا@@ 14820
صح@@ 14815
سين 14796
اغ@@ 14779
بجماعة 14774
النظام 14765
سط@@ 14765
لدى 14754
أنواع 14720
فين 14709
مط@@ 14697
وخ@@ 14694
البرو@@ 14690
إدارة 14684
أيضاً 14670
قل@@ 14666
يف@@ 14662
سع@@ 14659
اق 14656
ِّ@@ 14650
سكان 14644
جانب 14640
قرية 14628
قانون 14618
الدوّار 14612
أفضل 14598
لمشيخة 14597
دُوَّار 14584
وكذلك 14576
بان@@ 14574
ومن@@ 14544
القوات 14525
الرئيس 14471
أوروبا 14463
الكويكب 14451
انة 14437
البل@@ 14430
نقل 14422
ره 14418
الموا@@ 14405
وري@@ 14388
27 14385
مباراة 14288
باء 14258
مجال 14226
28 14216
2012 14207
واء 14201
منه 14185
ويل 14171
ساب@@ 14159
شخص 14155
ء@@ 14148
كث@@ 14130
روا@@ 14127
محافظة 14116
مدرسة 14115
داً 14113
الأطفال 14112
با 14107
أمريكية 14103
سل 14091
أصبحت 14081
تط@@ 14073
انت@@ 14067
منصب 14063
ارت 14059
كندا 14023
القانون 14019
باب 14018
26 14004
الري@@ 13993
دراسة 13990
يون@@ 13963
وضع 13957
الرئيسي 13950
المناطق 13900
سبيل 13896
منظمة 13887
9@@ 13806
ئات 13777
البلاد 13772
ندي 13770
الجديدة 13754
النساء 13748
وتم 13748
قه 13747
ْ@@ 13735
نين 13708
نشر 13698
عالم 13691
2000 13681
المرا@@ 13677
للح@@ 13671
صر 13665
يان 13660
الشمالية 13629
يك 13576
كام@@ 13575
عرف 13558
عم 13558
مسيرته 13552
اسية 13547
القديمة 13545
الشركة 13513
الدولي 13494
لهم 13466
والد@@ 13462
الدولية 13461
النق@@ 13460
مخ@@ 13451
ماء 13436
شرق 13431
_ 13398
يع 13389
ضي@@ 13367
وبة 13365
سلسلة 13351
عض@@ 13347
أع@@ 13340
فض@@ 13313
رها 13302
يلي 13272
رار 13266
اي 13262
الخط@@ 13241
غري@@ 13226
ثلاث 13196
الدي@@ 13174
البحر 13173
بواسطة 13173
الكثير 13162
الغربية 13151
أعمال 13150
بص@@ 13147
ربية 13139
كن 13114
وله 13094
أقل 13092
2015 13088
جار 13077
بداية 13075
موقع 13074
قائمة 13073
افة 13068
قائ@@ 13062
نيويورك 13042
دف@@ 13015
الناس 13011
أو@@ 13001
ضع 12989
2014 12968
خد@@ 12967
فور@@ 12966
العربي 12959
حل 12958
2005 12948
عاماً 12947
رس@@ 12945
تش 12930
شك@@ 12930
الدول 12908
الاخت@@ 12906
مستوى 12904
اوية 12903
عق@@ 12887
يز 12885
29 12879
حات 12878
َّة 12878
ند 12868
أعلى 12866
اره 12858
الاسم 12857
طي 12843
وحدة 12840
فوق 12820
الإنسان 12816
الأعمال 12813
فاز 12810
سام 12798
والع@@ 12770
قو@@ 12766
بس@@ 12744
اخ@@ 12737
ائر 12720
كانوا 12710
دولار 12706
-@@ 12688
جين 12674
تتبع 12662
الأح@@ 12660
شو@@ 12646
عص@@ 12645
مرك@@ 12638
جو 12620
الهند 12606
دائرة 12596
الأد@@ 12591
الطاقة 12591
بير@@ 12590
تور@@ 12588
يلعب 12563
سان@@ 12560
التف@@ 12549
اليد 12547
طول 12534
كريكت 12519
ياً 12498
الأمر 12492
وجه 12488
المثال 12442
المياه 12439
حياته 12408
المجلس 12402
بول 12397
وع 12390
قيق 12372
الدفاع 12307
وتق@@ 12298
قوة 12284
فار@@ 12261
ملك 12221
دخل 12218
شهر 12202
وزارة 12196
الاجتماعية 12183
ذية 12181
لاند 12181
لأن 12168
داد 12158
تار@@ 12132
كور@@ 12115
انيا 12112
فن 12088
صف@@ 12081
13@@ 12038
والت@@ 12023
دين@@ 11997
وان 11991
المجتمع 11986
وهذا 11972
يكن 11963
زية 11944
باستخدام 11939
وسي@@ 11936
جية 11922
حت@@ 11915
شي 11911
زا 11892
الرئيسية 11876
إعادة 11866
ضية 11859
العشرين 11848
لوا 11842
ترك 11795
نتيجة 11789
اما 11785
القر@@ 11780
دل@@ 11776
كين 11767
يرا 11765
دعم 11763
هام 11762
انتقل 11752
كول@@ 11722
تصنيف 11719
جا@@ 11698
العسكرية 11684
فق 11672
ٌ 11654
عب 11653
الجنوبية 11652
بالإ@@ 11651
غة 11651
ممثل 11650
أمريكا 11622
المرأة 11622
وين@@ 11611
وظ@@ 11606
المز@@ 11598
الأكثر 11589
منهم 11586
ريك@@ 11577
السياسية 11541
اذ@@ 11537
الكتاب 11534
لكل 11508
جوائز 11506
المد@@ 11492
بيل 11492
سوي@@ 11478
مرا@@ 11463
اله 11458
قوات 11457
جمهورية 11433
خارج 11432
&apos; 11425
الفرنسية 11417
الدم 11403
جل 11384
للو@@ 11359
ارب 11358
القي@@ 11341
رقم 11333
ربة 11280
طية 11277
عش@@ 11223
قامت 11219
باً 11215
= 11209
وفاة 11205
الأص@@ 11202
سب 11198
أند@@ 11193
وسط 11192
كار 11186
هر@@ 11178
حدث 11147
الصين 11142
وفر 11141
دل 11133
سات 11125
رام 11121
لذلك 11119
امي 11112
رو 11111
ترو@@ 11110
الشرقية 11100
2003 11097
2020 11092
الجديد 11078
لهذا 11075
توا@@ 11071
دون@@ 11056
مًا 11039
يعتبر 11036
جمع 11032
تقديم 11030
الألعاب 11008
حالات 11001
أمام 10981
المك@@ 10980
رق@@ 10975
علا@@ 10970
ناء 10965
مسي@@ 10961
ألف 10958
جورج 10958
بالنسبة 10956
فن@@ 10949
قسم 10946
ستر 10931
2017 10924
ميل 10923
طبي@@ 10919
حرب 10904
كين@@ 10891
14@@ 10890
حياة 10879
القط@@ 10877
وادي 10876
السعودية 10870
الجن@@ 10855
٪ 10843
المث@@ 10842
سام@@ 10824
أة 10815
يني@@ 10808
فل 10805
المعلومات 10801
جمعية 10801
اللي@@ 10767
يري 10763
فضل 10754
تعتبر 10742
كن@@ 10737
يخ@@ 10728
دم 10713
أول@@ 10710
كات@@ 10708
ارد 10706
أولاد 10695
العق@@ 10693
أدى 10689
الحكم 10685
اح 10679
وال 10678
الجما@@ 10677
تستخدم 10674
غرب 10668
السابق 10653
قا 10650
الت 10645
البريطانية 10621
الحركة 10600
ظه@@ 10599
كذلك 10599
متر 10597
ِ 10593
جزء 10589
ائد 10588
بأنه 10584
جه 10577
جرا@@ 10556
أشهر 10554
به@@ 10550
روس 10550
فه 10547
قبة 10545
لندن 10545
خو@@ 10537
شري@@ 10535
جان 10527
أربعة 10516
فا 10514
الإسلامية 10509
التالية 10509
فع@@ 10492
نان@@ 10486
خط 10476
حض@@ 10471
غرا@@ 10460
بعدها 10459
ريا 10456
الات@@ 10440
إنشاء 10437
بيت 10431
أور@@ 10418
تطوير 10412
زم 10408
نت 10401
ظر 10387
واق@@ 10364
الشرق 10360
بيع 10358
عائلة 10358
صف 10345
واح@@ 10343
هدف 10337
ذك@@ 10332
نهر 10330
فيا 10305
الأل@@ 10303
البا@@ 10296
وصل 10290
أصل 10276
أستراليا 10273
جيمس 10264
عبارة 10240
ينيات 10238
31 10232
بعة 10229
مكان 10228
كندي 10225
تقدم 10216
حكم 10214
خلا@@ 10214
أهم 10208
دري@@ 10197
لتح@@ 10188
لام 10187
وى 10180
التالي 10177
وبالتالي 10176
طات 10174
يستخدم 10173
قرا@@ 10158
الصح@@ 10150
حم@@ 10150
يقوم 10134
التش@@ 10133
العليا 10125
بير 10123
العراق 10104
راد 10062
الصحة 10050
عمليات 10048
رًا 10034
إس 10029
هيئة 10025
ريك 10002
2002 10000
السنة 9989
كويكبات 9982
المواد 9981
سجل 9973
تعداد 9952
2018 9951
عُ@@ 9951
.. 9950
ممثلة 9950
عًا 9945
يرات 9945
جم 9936
لون 9933
... 9931
اوي 9917
بع 9917
مرض 9915
المض@@ 9905
مشروع 9902
رجل 9898
الجزء 9897
دوار 9896
اعد 9888
قاعدة 9881
اية 9879
العاصمة 9873
عنه 9873
ودي@@ 9864
لًا 9845
الجامعة 9843
الخلايا 9833
رك 9832
علاج 9820
دن 9818
يج@@ 9815
نت@@ 9810
حكومة 9809
ة@@ 9808
ربي 9796
تعل@@ 9789
أفريقيا 9788
هل 9786
الجمعية 9783
جزيرة 9783
جري@@ 9776
بغ@@ 9752
يق 9751
بس 9750
أت 9746
أعضاء 9746
البح@@ 9739
أمر 9724
خل@@ 9717
روا 9712
تري@@ 9705
جل@@ 9686
ران 9684
التص@@ 9681
100 9676
اتهم 9676
قصة 9676
تبا@@ 9675
بيا 9669
مذ@@ 9665
أنش@@ 9661
ايا 9660
الاس@@ 9645
الشه@@ 9642
حق@@ 9639
قرار 9628
2019 9624
الماء 9617
ريد 9614
فص@@ 9611
منع 9595
توجد 9594
صغيرة 9591
2001 9588
القرية 9581
لأول 9573
تعلم 9566
ظ 9566
الحديث 9565
عهد 9562
بالق@@ 9561
غر@@ 9560
إليه 9551
العلمي 9551
تحدث 9543
الأي@@ 9542
ويمكن 9541
ءة 9540
إص@@ 9539
التاسع 9531
الشع@@ 9521
تشمل 9519
مناطق 9514
تحديد 9507
كوم@@ 9506
برت 9500
مجلة 9477
أنحاء 9471
الشخصية 9469
يعمل 9469
المختلفة 9466
رح@@ 9465
وأن 9454
الفرنسي 9452
الجزائر 9451
أهل 9439
وفق 9439
العلوم 9438
يار 9435
والي 9433
الديمقراطي 9432
معركة 9431
الدرا@@ 9428
عقد 9428
وسياسي 9427
وزير 9420
وز 9419
التابعة 9415
باط 9411
البحرية 9408
الرابع 9402
الحالات 9395
تعمل 9395
اض 9378
المجموعة 9375
العصر 9373
جيش 9364
مرحلة 9363
انس@@ 9357
ولية 9356
بالأ@@ 9355
النوع 9353
درس 9351
ظم 9351
الشر@@ 9347
جديد 9345
سطح 9343
ريف 9341
لق 9334
الإي@@ 9332
الموقع 9331
D@@ 9330
كرا@@ 9323
روب 9319
قين 9316
ناد@@ 9313
فران@@ 9305
المدرسة 9304
بان 9300
كز 9300
ومح@@ 9298
فع 9291
فيروس 9290
ودة 9281
ويليام 9269
يوم@@ 9269
مخت@@ 9267
لوك 9260
الخاص 9248
أخذ 9243
الأخيرة 9225
حقوق 9216
لاف 9210
ثلاث@@ 9208
البط@@ 9200
عيد 9182
سلا@@ 9168
التجارية 9166
مانية 9166
وَ@@ 9166
لاح 9162
رير 9159
طف@@ 9145
سا 9142
مختلف 9136
إسبانيا 9135
كاتب 9129
انه 9127
توضيح 9119
حدي@@ 9119
ورت 9106
فرا@@ 9093
ضر@@ 9085
إضافة 9079
عن@@ 9077
الألمانية 9071
الدراسات 9070
هن 9064
ريات 9057
المحلية 9056
10@@ 9053
اتي 9053
الظ@@ 9048
ارًا 9041
قيمة 9038
الاجتماعي 9035
لوس 9030
تية 9029
روسيا 9027
إيطاليا 9020
اليابان 9007
سج@@ 9004
تمثل 9003
رض 8999
معدل 8993
لويس 8989
انات 8986
جز@@ 8983
تاج 8977
أنهم 8976
تقوم 8972
يكا 8957
الشمس 8954
وفقًا 8946
ديل 8942
الخارجية 8934
شخصية 8928
ستخدم 8925
ونة 8923
ارا 8912
العملية 8911
فان 8906
بط 8902
اضي 8895
ملا@@ 8890
أفلام 8889
البعض 8882
الها 8882
العظمى 8875
ضم 8861
الأشخاص 8858
سيا 8851
تب 8839
ادل 8837
امية 8837
اه 8825
احة 8821
دورة 8818
زيد 8817
البار@@ 8815
معه 8812
اتحاد 8807
تأثير 8806
اط 8803
البحث 8800
يؤدي 8797
وسائل 8796
طن 8793
مصطلح 8787
ـ 8786
بك@@ 8785
نطاق 8779
عائ@@ 8777
وغيرها 8777
مَ@@ 8762
المتح@@ 8750
الفريق 8740
إليها 8733
جات 8733
فورد 8727
والث@@ 8720
مساعدة 8715
العلاج 8702
ظهرت 8700
صور 8697
ظهور 8691
الهجوم 8689
أس 8687
رك@@ 8686
الوسط 8683
المغرب 8680
يرة 8680
دى 8677
طور 8658
جام@@ 8655
آل 8635
يّة 8622
اك 8620
والده 8619
عاد 8618
دول 8616
ولى 8612
له@@ 8608
جري 8606
تصل 8600
حت 8600
ورد 8593
امل 8592
العالمي 8581
العض@@ 8576
لغ@@ 8574
النواب 8560
نظرية 8557
طريقة 8556
وتر@@ 8550
هام@@ 8541
الحديثة 8539
الأراضي 8528
ولها 8527
سيس 8519
الشمال 8515
فين@@ 8513
وحتى 8501
سيدي 8496
شة 8491
مسؤ@@ 8489
الأساسية 8488
سو 8487
1999 8482
الملكية 8482
ماس@@ 8481
دول@@ 8468
الإص@@ 8466
ةٍ 8463
الكبير 8458
صدر 8457
50 8454
0@@ 8452
خدمات 8450
الور@@ 8445
يؤ@@ 8445
رجال 8444
أج@@ 8443
باريس 8438
العمر 8436
الأمير 8434
الثورة 8434
انتق@@ 8434
قر 8425
الجسم 8424
ماك@@ 8424
نات 8423
اء@@ 8418
يش 8416
الجنوب 8404
جب@@ 8401
مار 8390
معسكر 8388
القص@@ 8386
قاد@@ 8372
الحصول 8366
امات 8357
تحتوي 8355
ئي 8352
وصف 8349
وقف 8346
أم 8343
اسي 8342
تمكن 8337
مؤسسة 8334
يعد 8334
سابقاً 8323
أيام 8318
متوسط 8318
جمي@@ 8315
بالك@@ 8314
الكنيسة 8311
حق 8299
تقد 8292
لديها 8292
تان 8289
أوك@@ 8286
رش@@ 8286
فرقة 8278
أواخر 8277
ظة 8277
فقة 8274
دوري 8273
الأوروبي 8263
الانتخابات 8263
تمل 8263
غر 8263
تمت 8262
فها 8262
ستون 8258
فيات 8256
12@@ 8254
الام@@ 8254
الحيوانات 8254
شبكة 8248
حك@@ 8236
كثير 8230
آسيا 8228
المشا@@ 8223
عامي 8220
الجزيرة 8216
رض@@ 8215
بوت@@ 8207
نور@@ 8202
عامة 8200
طرق 8198
خار@@ 8190
15@@ 8187
سير 8182
سمى 8178
الدرجة 8174
الميلاد 8173
مام 8170
الجوية 8169
بد 8165
مين@@ 8163
غل 8158
خدمة 8149
أوب@@ 8148
حسن 8140
1998 8136
روبرت 8128
عا 8127
سوف 8120
قيم 8108
فرة 8092
جب 8090
أبي 8088
ئية 8079
0 8078
الداخلية 8075
الكبرى 8074
مسلسل 8068
الحالة 8066
الإمبراطورية 8065
جرة 8056
لاء 8054
رأس 8051
مد 8050
يوس 8045
معهد 8044
أحي@@ 8037
الأولمبية 8034
ماً 8032
انت 8029
وك 8028
1990 8024
مؤس@@ 8024
2@@ 8019
قها 8012
ثي@@ 8011
صب 8008
ابه 8006
جبل 7996
تحقيق 7994
كلا@@ 7992
سري@@ 7987
لما 7986
ارتفاع 7981
المرحلة 7977
السلطة 7974
يمي 7972
الوصول 7971
البيانات 7970
ستخد@@ 7966
زين 7964
المعد@@ 7962
اج 7952
إسرائيل 7950
بج@@ 7937
سلو@@ 7927
لس 7917
علماء 7916
قض@@ 7916
جون@@ 7914
رواية 7910
حصلت 7903
شخص@@ 7899
حاليا 7894
طلا@@ 7889
واسع 7889
لجنة 7881
بًا 7872
عنها 7871
وص 7868
افي 7865
طلق 7856
استخد@@ 7853
ناف@@ 7852
1996 7849
خاص 7842
رائ@@ 7839
السياسي 7827
الطب 7822
تدري@@ 7816
اعات 7813
تصميم 7812
مير@@ 7805
الأمم 7801
عط@@ 7793
ديا 7791
زات 7785
قق 7783
مقابل 7775
1992 7767
خلالها 7765
الطبية 7758
فيل 7757
لقد 7757
عالية 7756
يط 7756
تعد 7755
كرو@@ 7755
الوسطى 7754
بالقرب 7744
الإنترنت 7742
الرئ@@ 7735
ذهب 7734
التن@@ 7732
قناة 7732
المسي@@ 7727
بوب 7720
جد 7711
طويلة 7711
تقد@@ 7706
فون 7706
العرب 7700
بوا@@ 7699
صناعة 7688
جهاز 7687
الحدود 7683
أفراد 7681
عامًا 7681
مال 7678
أوائل 7674
تشار@@ 7666
سوريا 7655
لل 7654
1997 7652
الإسلام 7651
الصحية 7651
بلدية 7645
لكنه 7640
الإن@@ 7639
الوزراء 7620
العظ@@ 7614
لـ 7614
أمين 7612
الموسم 7611
P@@ 7608
L@@ 7607
مكان@@ 7606
وقال 7606
ادت 7590
قيادة 7586
ها@@ 7585
الأك@@ 7582
ليون 7577
قاً 7576
ظل 7574
الطبيعية 7573
مى 7570
حب 7569
هب 7564
مول@@ 7563
الجام@@ 7559
بو 7558
وليس 7553
الأط@@ 7550
باب@@ 7546
تيجة 7537
تاريخ@@ 7532
هنري 7527
ائب 7519
يدة 7514
إر@@ 7513
البداية 7508
الإنجليزية 7505
أعلن 7502
الهي@@ 7499
نصف 7494
النه@@ 7492
جنس 7492
قلي@@ 7492
الألماني 7488
البطولة 7488
بلو@@ 7488
وُ@@ 7485
الأكبر 7484
نقطة 7484
شبه 7482
ستة 7480
خل 7478
الحض@@ 7477
ثي 7475
الشكل 7474
تقل 7461
مات@@ 7460
باح 7459
الأمن 7455
الأن@@ 7455
كتب@@ 7451
النادي 7449
يص@@ 7445
الطريق 7432
شيء 7430
بحلول 7425
سابق 7425
المسيحية 7422
رياض@@ 7418
موا 7418
إنجلترا 7417
الأق@@ 7417
قري@@ 7417
للم@@ 7413
الشعب 7408
دارة 7406
تركي@@ 7397
عشرة 7396
يشير 7383
جمع@@ 7382
لقب 7378
بأنها 7373
كتابة 7372
السابقة 7369
المصرية 7364
اول@@ 7358
جور@@ 7357
formula 7356
الخامس 7352
لر 7352
gt 7349
معهم 7346
كوك@@ 7343
دفع 7342
عام@@ 7341
عداد 7340
المرض 7328
المسلمين 7328
مباشرة 7325
قرر 7319
غو 7312
تعرض 7310
والك@@ 7306
رف@@ 7298
والص@@ 7293
باس@@ 7289
ورات 7289
فاق 7287
منح 7287
1991 7282
عمل@@ 7281
البريطاني 7277
بهم 7275
مطار 7275
الموجودة 7273
الإج@@ 7272
نغ@@ 7263
افية 7261
اليمن 7261
سوق 7258
الحرارة 7256
1994 7254
نائ@@ 7250
نفسها 7236
ادرة 7235
وفاته 7235
حجم 7234
العلا@@ 7232
ادر 7226
انو 7226
خفض 7224
مارك 7224
ستر@@ 7223
مدر@@ 7223
الأحيان 7220
الجمهوري 7219
المرك@@ 7219
كاليفورنيا 7217
جما@@ 7215
والش@@ 7210
كامل 7209
العلاقات 7208
المدارس 7203
الدينية 7193
تشير 7189
تون@@ 7189
وّ@@ 7185
ومي@@ 7178
وني@@ 7177
كريست@@ 7175
يتبع 7173
الصنا@@ 7170
لندي 7169
فئة 7167
lt 7166
شاركت 7166
200@@ 7164
ذو 7163
بون@@ 7161
قًا 7143
وست@@ 7139
اللعب 7133
40 7123
وق 7120
تميز 7116
البرلمان 7111
لغة 7107
1995 7101
بيد 7101
M@@ 7100
وو@@ 7098
نان 7094
كلمة 7091
الصغيرة 7087
وزي@@ 7084
اعة 7082
يحدث 7079
رغم 7076
برامج 7068
غير@@ 7067
لى 7067
وجد 7065
هات 7059
الرجال 7058
ونات 7051
وهناك 7051
السوفي@@ 7048
جنسية 7048
المكان 7046
السك@@ 7045
ألعاب 7043
الثالثة 7042
عرض@@ 7031
القلب 7029
خمسة 7028
لاست@@ 7020
مدة 7012
لوب 7010
1980 7009
إبراهيم 7008
قت@@ 7008
1993 7005
شركات 7003
النظر 7000
العلمية 6997
H@@ 6995
الغربي 6989
ناحية 6989
طرف 6986
سيتي 6982
سون@@ 6981
جاء 6980
الشركات 6979
اعي 6978
العزيز 6976
الاقتصادية 6974
بالع@@ 6973
قتل 6969
النباتات 6968
العمال 6964
الخي@@ 6960
ولوجيا 6960
1989 6958
غان 6956
الصيفية 6954
بذلك 6952
الشرطة 6947
يعرف 6945
ثية 6933
بخ@@ 6930
اللو@@ 6928
تنظيم 6928
هدف@@ 6928
؟ 6924
دث 6924
دز 6923
تلا@@ 6912
للت@@ 6901
سكي 6894
ويات 6890
ولكنه 6889
تشكل 6886
of 6884
نع 6883
ويُ@@ 6882
انتخابات 6877
اللجنة 6873
توماس 6870
وث 6870
سلة 6868
ديفيد 6866
يته 6866
لهذه 6865
يكي 6865
لاحق 6864
بحث 6863
ولين 6862
ماني 6855
مساحة 6844
الأسرة 6841
لن@@ 6840
اند 6839
الأش@@ 6838
الزي@@ 6830
باح@@ 6827
الأوروبية 6822
الجهاز 6822
بالح@@ 6822
هاب 6820
الجمهورية 6813
خان 6811
ضل@@ 6811
طاقة 6808
أسرة 6806
اند@@ 6805
1988 6804
خطط 6803
لفة 6802
الإشارة 6799
اهرة 6794
اعية 6790
الشعبية 6789
بحيث 6787
عمال 6787
وتش@@ 6783
يران 6783
حه 6779
مدى 6779
C@@ 6777
بريطانيا 6773
سانت 6771
بغداد 6768
منتصف 6768
الطريقة 6765
داخ@@ 6760
تنا@@ 6759
رسم@@ 6755
ائق 6753
سلام 6747
ؤون 6745
العلماء 6745
إجراء 6744
تشكيل 6740
الشي@@ 6738
زن 6738
معينة 6732
أعلنت 6729
لن 6725
يخ 6725
الإل@@ 6723
خدم 6722
كيف 6722
جن 6720
إي 6717
عل 6715
الأغ@@ 6713
فهو 6712
تين@@ 6711
المدن 6709
سوس 6707
1984 6704
أهمية 6703
فصل 6702
مرات 6701
لصالح 6699
السادس 6697
يعني 6697
ولت 6696
بنسبة 6695
سما@@ 6694
تسمى 6691
الخامسة 6686
فهي 6683
الإنتاج 6681
فلسطين 6675
تبلغ 6673
ليات 6672
الموج@@ 6671
قبل@@ 6671
تظهر 6668
راع 6667
واة 6667
قان@@ 6662
وط 6659
الكبيرة 6652
لِ@@ 6651
N@@ 6649
نها 6649
1986 6643
العلم 6639
يسمى 6637
تحمل 6634
قيد 6633
المسؤ@@ 6632
تؤ@@ 6631
مني 6629
بعنوان 6624
جار@@ 6623
تأسيس 6615
فير 6615
تس 6612
مشار@@ 6610
تولى 6606
وعية 6603
املة 6599
politician 6598
الشباب 6597
تنفيذ 6596
تعرف 6590
بلدة 6581
التغي@@ 6580
تشارلز 6577
كت 6576
الأحداث 6575
هان 6571
الثقافة 6565
ذي 6564
يرًا 6564
اسمه 6562
حدود 6561
راف 6560
فهم 6560
مهمة 6560
اسة 6556
ارع 6554
الوظ@@ 6548
جنب 6548
صورة 6548
للع@@ 6546
أساس 6544
نح@@ 6542
هول@@ 6542
مته 6537
محطة 6535
بلاد 6534
منة 6533
غار@@ 6529
أشكال 6526
الآخر 6508
بذ@@ 6501
جعل 6501
هؤلاء 6501
ماري 6497
فكرة 6496
الواقع 6491
الأسر 6489
1982 6488
التابع 6482
S@@ 6476
يقول 6476
صحيفة 6467
ايد 6465
عمر@@ 6464
فان@@ 6464
يناهز 6455
نقاط 6443
دراسات 6439
يعود 6434
1979 6433
الوق@@ 6422
ضات 6419
القديم 6401
المعروف 6401
عز@@ 6401
يظهر 6398
أغنية 6397
عان 6394
1987 6390
ألف@@ 6390
طوير 6387
يها 6387
فرد 6385
البرنامج 6381
تأسست 6379
المحيط 6374
منص@@ 6372
دان@@ 6367
باد@@ 6366
المالية 6364
وكاتب 6362
مرتب@@ 6359
يَّة 6359
المباراة 6357
الإسلامي 6348
وبين 6348
الا 6340
ودية 6339
نوا@@ 6337
1948 6331
المحكمة 6329
بِ@@ 6329
شعر 6324
1985 6322
الضر@@ 6319
علاقة 6319
1945 6317
بارات 6317
تَ@@ 6313
المصري 6311
المتع@@ 6306
أحداث 6305
سال 6303
طرة 6303
السلام 6297
بعين 6295
5.@@ 6294
طر 6292
الرق@@ 6286
مقاط@@ 6284
امه 6283
واج@@ 6283
متعددة 6282
بم@@ 6277
غالبًا 6277
شارة 6267
منية 6267
الأقل 6266
المادة 6261
قاء 6260
كوب@@ 6258
واض@@ 6258
السوي@@ 6255
ستان 6252
المخت@@ 6247
نم@@ 6246
واسعة 6246
مهم 6245
لد 6238
مارة 6238
دخ@@ 6235
هير@@ 6234
مز 6228
الم 6225
موت 6225
ّل 6223
وريا 6222
البيضاء 6221
مبي@@ 6220
s 6211
زمة 6211
يحتوي 6210
للش@@ 6209
1970 6205
توفير 6205
مجموعات 6202
اش 6201
وكي 6201
الخدمة 6199
فس@@ 6199
الهواء 6198
F@@ 6194
الجه@@ 6189
َّ 6189
G@@ 6183
ينغ 6182
إدار@@ 6181
نه 6181
الاح@@ 6180
بدون 6178
إم 6177
رد 6176
قائد 6172
افع 6169
زياء 6169
T@@ 6168
الشرقي 6167
تونس 6166
مِ@@ 6165
بنفس 6164
أهداف 6163
أعم@@ 6161
الأنواع 6157
معلومات 6154
الأبيض 6153
يصل 6153
امين 6151
ومة 6151
وين 6151
واله@@ 6146
الحيو@@ 6145
سرطان 6145
ويل@@ 6143
فتح 6141
قدر@@ 6141
صار 6140
الإعلام 6138
شف 6138
متها 6132
ونسبة 6132
واشنطن 6130
قامة 6127
الطلاب 6125
افات 6122
الأحمر 6122
1967 6121
التاريخية 6121
البشرية 6113
ورا 6112
تكن 6101
الحالي 6098
ولوجية 6094
ريين 6086
القوة 6085
وير 6085
وحمل 6083
ضي 6082
المدر@@ 6080
سُ@@ 6079
ألي@@ 6078
موق@@ 6076
1983 6075
ائه 6075
زواج 6073
وسط@@ 6071
جا 6070
مير 6070
التقليدية 6063
الأمراض 6052
بال 6052
بَ@@ 6048
والق@@ 6047
الـ 6046
المجال 6046
التلفزي@@ 6045
تمي@@ 6042
ديو 6040
نظر 6038
B@@ 6035
لأنه 6034
باللغة 6031
فير@@ 6030
الشري@@ 6024
تصبح 6023
يوسف 6019
جراءات 6017
المستوى 6015
الفنية 6014
فول@@ 6014
حال@@ 6012
ائم 6006
غا 6004
لندا 6002
وهم 5999
الإدارة 5995
جزر 5993
عظ@@ 5989
حس@@ 5982
فيد 5982
نُ@@ 5979
الثانوية 5971
كبي@@ 5971
أربع 5969
ناب@@ 5968
النهاية 5967
غل@@ 5967
نساء 5967
تعليم 5964
ملكة 5964
الأخير 5959
لبريطانيا 5959
رر 5958
نسخة 5958
عى 5955
عمان 5952
ستي@@ 5949
اعتم@@ 5947
محاولة 5947
1981 5945
الدراسة 5944
اعتب@@ 5943
تحول 5943
وأن@@ 5943
المنش@@ 5941
تأث@@ 5941
قاب@@ 5941
الشخص 5934
المتوسط 5934
الرس@@ 5933
السنوات 5933
عديدة 5933
التهاب 5932
دهم 5932
إيران 5931
الغرب 5929
عَ@@ 5925
وأيرلندا 5923
الحكومية 5921
وائية 5920
كه@@ 5919
جاك@@ 5918
مج 5918
البشر 5915
حسين 5915
سياسة 5914
! 5913
ابي 5911
النظ@@ 5904
زر@@ 5904
بنية 5902
نيات 5901
واي 5901
الب 5896
القاهرة 5896
القصة 5895
لور@@ 5894
شيو@@ 5892
رئي@@ 5891
بقيادة 5882
قُ@@ 5882
الثامن 5879
ازات 5878
هية 5876
صد@@ 5874
مسل@@ 5872
R@@ 5870
الكون@@ 5869
بشأن 5856
بيانات 5856
ابية 5853
ضغط 5852
الترا@@ 5851
مدن 5851
الرعاية 5846
تغيير 5846
العل@@ 5845
طروادة 5843
دمشق 5842
السلطان 5841
تركيا 5840
ثقافة 5840
الاع@@ 5839
ائع 5837
كنيسة 5837
الذه@@ 5836
ستين 5835
الماضي 5833
إطلاق 5832
جير@@ 5832
الجنسية 5826
الاقتصاد 5825
ديدة 5824
ملة 5824
بعضها 5823
دوا 5821
نر 5817
الرواية 5814
الف 5813
واع@@ 5813
الأه@@ 5806
البيئة 5806
الكويت 5805
+ 5804
روي@@ 5802
بالس@@ 5797
ومؤ@@ 5792
زو 5790
سواء 5788
ينه 5788
مياه 5787
الفضاء 5786
داف@@ 5785
السياسة 5780
قياس 5779
للغاية 5778
سار@@ 5774
الاحترافية 5771
قوى 5770
المل@@ 5763
بسي@@ 5761
A@@ 5758
الصي@@ 5758
وافق 5758
فيف 5756
السري@@ 5754
شار 5753
اكتشف 5752
60 5750
تزال 5749
الكل@@ 5745
لَ@@ 5744
لائ@@ 5742
تلفزي@@ 5740
رى 5737
عار@@ 5736
هاج@@ 5735
لز 5734
مثال 5733
يمي@@ 5731
ارها 5729
دني 5727
الأخ@@ 5724
النفس 5722
شاعر 5720
مم@@ 5720
التج@@ 5719
أست@@ 5717
هن@@ 5713
1974 5711
بيه 5711
قيقة 5711
الخدمات 5705
جع 5705
سوم 5705
سميث 5703
نز 5701
نيو 5697
رفض 5696
1975 5687
الجرا@@ 5686
زر 5686
يتعلق 5686
الكتب 5684
1978 5683
جعل@@ 5679
دبليو 5679
ثورة 5677
سعيد 5677
مكتب 5676
1976 5675
جدا 5674
أَ@@ 5673
كه 5673
يمت@@ 5673
يمكن@@ 5670
فيلد 5669
اللون 5666
قط 5666
فرو@@ 5663
سياسية 5656
تابعة 5654
أط@@ 5653
المتعلقة 5649
ويتم 5649
الطفل 5647
تبط 5647
مم 5646
الكلية 5643
السابع 5641
حل@@ 5637
الخص@@ 5635
الملا@@ 5629
انتقال 5629
بون 5627
ربع 5624
الأوسط 5622
شهادة 5619
ونغ 5616
التجارة 5615
اون@@ 5615
توق@@ 5615
اليهود 5614
أوس@@ 5613
قطع 5612
الثامنة 5609
بالإنجليزية 5609
ارضة 5608
خلايا 5607
عرا@@ 5604
مالي 5604
نار@@ 5601
الروسية 5600
نشاء 5598
توقع 5593
1973 5591
البلدان 5587
ائها 5585
الأفراد 5584
سمي 5582
الموض@@ 5580
درجات 5580
فعل 5579
والف@@ 5578
لته 5575
ليين 5573
انضم 5569
كيمي@@ 5567
ندا 5566
وذ@@ 5566
مدير 5561
الطبيعي 5555
إند@@ 5553
الموسيقى 5552
شغل 5549
فرق 5549
المنظمة 5545
بهذا 5545
ثين 5545
ديم 5534
التعاون 5532
الرومانية 5529
نتائج 5529
نمو 5529
كتلة 5528
اجات 5526
قطاع 5522
يكية 5518
الأمريكيين 5516
الطائرة 5514
ليست 5513
الأعلى 5512
والعشرين 5512
السين@@ 5511
زب@@ 5507
التركي@@ 5504
نام@@ 5504
حال 5496
زع@@ 5495
سياس@@ 5491
ترح 5489
لاحقًا 5489
ولكنها 5486
بدا@@ 5485
ضى 5484
طب 5484
عصر 5482
لول 5482
ارس 5481
هج@@ 5479
1@@ 5478
ديات 5478
قاع@@ 5475
متر@@ 5474
او 5472
أجهزة 5471
الأكاديمية 5471
الساعة 5470
باست@@ 5467
المسل@@ 5466
ميع 5464
نقص 5463
وض 5461
عالم@@ 5455
عليهم 5453
فائ@@ 5452
السر@@ 5450
الجز@@ 5446
مملكة 5445
يزيد 5445
جوا@@ 5443
الباح@@ 5442
دواوير 5439
الأردن 5438
صلة 5436
تبة 5434
1972 5432
يول@@ 5431
قب 5430
هان@@ 5427
طائرة 5426
الوج@@ 5422
الولاية 5422
الزواج 5421
المشروع 5420
حملة 5420
أمراض 5419
راب 5416
القدرة 5414
التون@@ 5412
الرحمن 5402
العمليات 5401
اهر 5399
وانتخب 5398
الشعر 5395
درو@@ 5395
قول 5393
عتبر 5391
العثمانية 5390
رز 5388
ضاء 5388
حرارة 5383
أساس@@ 5382
الرياضية 5381
السوق 5381
المرضى 5380
ذكر@@ 5380
أسب@@ 5379
خطر 5371
طالب 5371
حدوث 5368
الأعضاء 5365
البرازيل 5362
الضغط 5358
تهر 5357
ميد 5356
باشا 5354
تسجيل 5354
يرية 5352
المعروفة 5348
مجتمع 5347
لبنان 5345
عكس 5340
موسيقى 5337
الفن 5336
برة 5336
الجنسي 5334
المكسيك 5332
الطرق 5331
أجزاء 5329
تبر@@ 5327
صر@@ 5327
ينها 5327
البص@@ 5323
الكث@@ 5323
ملح@@ 5320
الكت@@ 5313
ثاني 5313
سكو 5311
إنها 5310
منظ@@ 5308
ْ 5307
1968 5304
الآثار 5304
التز@@ 5303
ده@@ 5303
مسجد 5302
كتابه 5300
معد@@ 5300
التك@@ 5299
مشتر@@ 5299
النس@@ 5297
ادئ 5296
الأث@@ 5295
جبال 5292
لش@@ 5290
1960 5288
الثلا@@ 5286
يَ@@ 5286
1977 5284
عمله 5274
توى 5273
تتضمن 5266
تقنية 5261
ران@@ 5261
والن@@ 5260
خمس 5257
الأفلام 5255
البع@@ 5255
الرح@@ 5254
وقعت 5253
1971 5252
تطور 5252
اقة 5246
منت 5246
مالية 5243
بلوماس@@ 5242
كام 5238
يونايتد 5237
جذ@@ 5234
مفهوم 5233
ذج 5231
نظيم 5230
النوادي 5228
فته 5228
اذ 5226
ويع@@ 5226
يخت@@ 5226
عادةً 5222
هند@@ 5221
E@@ 5219
الإير@@ 5219
وراق 5217
80 5214
روف 5214
إنج@@ 5213
لون@@ 5213
العص@@ 5212
ليا 5210
وبي 5206
سيد 5203
آثار 5202
تتكون 5202
نمية 5201
تمث@@ 5200
العسكري 5199
000 5198
صالح 5198
ورو 5198
ياس 5195
إيه 5193
متح@@ 5193
رغ@@ 5192
قع 5192
طاق@@ 5188
صاحب 5185
فرض 5184
متا@@ 5184
المشار@@ 5182
تقريبًا 5182
التأ@@ 5181
ترض 5176
الهدف 5175
الأف@@ 5174
الدكتور 5174
ريق 5174
ارض 5170
يزال 5169
أنط@@ 5168
سه@@ 5168
1969 5164
بطريقة 5162
ضخ@@ 5162
ميات 5162
1964 5158
بالن@@ 5158
كاب@@ 5157
السيد 5146
ّر 5144
إم@@ 5142
النووي 5140
رَ@@ 5139
مو 5139
البري@@ 5138
سلم 5138
مشاركة 5138
اول 5137
” 5135
المسلسل 5134
حصاء 5134
المعهد 5132
وه 5131
تدريب 5130
صد 5130
الجانب 5129
نيين 5127
السورية 5126
the 5124
رؤ@@ 5122
المنزل 5121
مويل 5121
وأصبح 5120
عاً 5118
الوحيد 5117
بالف@@ 5115
تطبيق 5115
سد 5113
اؤ@@ 5112
العدد 5112
نو 5109
راض 5108
بوس@@ 5106
وعندما 5101
يض@@ 5099
ائف 5098
الهول@@ 5098
تذ@@ 5098
الروا@@ 5097
جيل 5092
غي 5092
سلط@@ 5089
موظ@@ 5089
ثت 5088
ودي 5087
O@@ 5086
اكتشاف 5084
0.@@ 5083
إصدار 5083
والمع@@ 5081
كب 5076
إنه 5074
وممثل 5073
المقد@@ 5072
الأول@@ 5067
ساعة 5067
الا@@ 5066
المهنية 5066
تول@@ 5066
خيص 5066
وكي@@ 5065
انظر 5060
1963 5058
16@@ 5054
y 5052
الصينية 5049
معرفة 5047
ذه@@ 5046
ريتشارد 5046
قصيرة 5046
وره 5046
الحالية 5043
بمع@@ 5043
تث@@ 5043
مبار@@ 5043
ابع 5040
شب@@ 5038
جابة 5035
ربط 5035
ابقة 5034
جاب@@ 5033
نواب 5033
بموجب 5032
تعود 5031
أسباب 5030
مود 5030
تعتمد 5028
ملت 5027
وغير 5026
سور 5025
زت 5020
عمار 5017
حياتها 5016
ضافة 5011
1950 5010
اتية 5009
ددة 5007
آخرين 5005
السيطرة 5005
طه 5004
مقارنة 5004
سلطة 4995
البرا@@ 4994
صنع 4994
لاب 4991
القدس 4989
الأساسي 4988
هير 4987
اثنين 4986
كلا 4985
توس@@ 4983
لديه 4983
إير@@ 4982
النار 4982
النقطة 4982
قوق 4980
مجرد 4980
امرأة 4979
شرف 4979
حماية 4977
ونصف 4973
ابل 4972
عود 4972
اختبار 4968
أكد 4967
الار@@ 4967
200 4965
الأدب 4963
العصور 4957
برغ 4954
مصدر 4954
مقد@@ 4953
وائ@@ 4953
ساهم 4952
اكتش@@ 4951
محامي 4950
إس@@ 4949
سبق 4949
القرآن 4947
واد 4947
شن 4946
الأصل 4945
كتاب@@ 4943
فإنه 4938
نس 4938
ءات 4937
قصر 4936
فو 4935
تسبب 4934
جرى 4933
ربما 4933
وحد@@ 4933
الحيوية 4932
الآخرين 4928
غيل 4928
الأسب@@ 4927
فًا 4927
الإغريق 4926
ترف 4926
الهند@@ 4923
بدلاً 4923
والس@@ 4923
اعت@@ 4915
الفت@@ 4913
تكنولوجيا 4912
ريض 4912
الإسك@@ 4910
الإصابة 4909
صول 4909
الفل@@ 4907
1962 4906
اهتمام 4906
انتهاء 4904
الثقافية 4902
خة 4902
أسط@@ 4900
الحص@@ 4900
500 4899
الجنس 4899
هنا 4899
المحور 4898
أنظمة 4892
ماسة 4892
قلة 4891
A 4887
آنذاك 4887
المركزية 4887
كيلومتر 4887
الليبر@@ 4883
تز 4883
فرنسية 4883
تاب@@ 4879
تشر 4879
عاصمة 4879
شت@@ 4878
مالك 4877
صدي@@ 4876
يث 4875
ماية 4870
العائلات 4868
وبات 4866
1965 4865
الثلاثة 4865
ذر@@ 4861
الرسمية 4860
ائدة 4858
جد@@ 4855
ونا 4854
تد 4853
&#124; 4846
ويبلغ 4846
إل 4845
المبكرة 4842
شية 4841
الذكور 4839
ومية 4839
1956 4837
النقل 4837
قى 4837
البناء 4834
الفض@@ 4834
الفرقة 4833
إست@@ 4832
اختيار 4831
وصلت 4829
تة 4824
هور 4824
اطة 4823
الأسود 4823
عزلة 4822
لار@@ 4817
بك 4816
وقع 4815
شح 4809
تسل@@ 4808
تاح 4807
صل@@ 4806
70 4805
روض 4803
يفة 4803
ينو 4803
اليابانية 4801
حقق 4801
القض@@ 4800
* 4796
القوى 4796
توزيع 4796
رعاية 4794
فلا@@ 4794
انها 4793
خطوط 4792
بتاريخ 4788
العالي 4787
تحليل 4783
توج@@ 4779
شخاص 4777
قدي@@ 4777
لقة 4777
مواقع 4776
المشاركة 4773
الإنجليزي 4770
خفضة 4770
السبب 4768
العنف 4766
بري 4765
يسمح 4765
ادا 4764
زها 4764
يعتقد 4764
الاقتصادي 4762
وفقا 4762
كش@@ 4761
مادة 4761
ارك 4760
مليار 4760
ائزة 4759
المنتخب 4759
بحاث 4759
والغ@@ 4758
أسترالي 4756
فح@@ 4756
قيام 4755
الدور 4751
انج@@ 4749
وخاصة 4746
زال 4743
اور 4742
مدرب 4742
متحف 4741
مرت 4741
مهرجان 4741
روز 4738
بنا@@ 4737
المهاج@@ 4736
ريح 4736
حكوم@@ 4735
إما 4734
القائمة 4733
مربع 4732
بلغ@@ 4730
لديهم 4726
التطبي@@ 4725
المؤتمر 4725
مثلة 4724
ارير 4723
السلة 4722
المصطلح 4722
35 4719
مصادر 4718
تفع 4715
صنا@@ 4714
السلطات 4709
الصناعية 4708
الممكن 4707
تصوير 4706
تكوين 4705
قدرة 4705
الشيوخ 4704
العائلة 4704
وج 4702
المحلي 4701
امن 4701
لكنها 4701
النمو 4699
1958 4698
الجغرا@@ 4698
اللبن@@ 4698
افر 4697
مؤتمر 4696
مرور 4696
المعل@@ 4695
الشمالي 4693
ريم 4693
مدار 4693
آسفي 4691
السكاني 4690
دخول 4690
طع 4690
صات 4688
روما 4687
ابت@@ 4686
ملعب 4686
أسس 4684
حز@@ 4684
ريس 4684
الدر@@ 4682
العرض 4678
نسي@@ 4675
تج 4673
السودان 4667
انًا 4667
جوزيف 4667
• 4667
مس 4666
خذ 4665
يتكون 4665
يغ@@ 4665
أسر@@ 4663
وتم@@ 4663
كومة 4662
سليمان 4661
نيك@@ 4661
تقييم 4660
فتا@@ 4660
الحقوق 4659
1966 4658
التشري@@ 4656
العلاقة 4654
يرو 4654
المدنية 4653
خر 4653
متز@@ 4653
ليب 4652
ومات 4652
سها 4651
كُ@@ 4649
90 4648
السط@@ 4647
ريب 4647
انتشار 4646
لز@@ 4643
ذاعة 4642
مواد 4642
الزوج@@ 4641
بسرعة 4641
تعزيز 4641
روع 4639
أت@@ 4638
اجتماع@@ 4638
الفلسطينية 4638
الوز@@ 4637
النهائي 4634
لس@@ 4634
الفلسط@@ 4632
كثيرة 4632
ستخدام 4631
cricketer 4629
ثق@@ 4629
نائب 4628
1961 4627
تمتع 4627
ليف 4626
موز 4624
خز@@ 4622
إصابة 4621
رفع 4621
جم@@ 4620
كير 4619
يبدو 4618
ديه 4617
الته@@ 4615
صغير 4615
المال 4614
ورها 4613
والأر@@ 4612
أبناء 4607
كيم 4605
سري 4604
ئين 4602
حدد 4602
ابعة 4600
نون 4599
صوت 4596
يان@@ 4595
راتيجية 4594
نموذج 4592
مستويات 4589
الديمقراطية 4587
بيتر 4587
ناطي@@ 4587
التقلي@@ 4583
ترا 4582
والاست@@ 4582
ريبة 4581
اسمها 4580
لبة 4580
بعاد 4577
وراء 4576
المسجد 4575
سيم 4572
المعركة 4571
كوك 4569
كد 4567
إدوارد 4566
تعرض@@ 4566
سيل 4565
كوريا 4565
ومج@@ 4565
الـ@@ 4563
اليب 4563
إض@@ 4561
التدري@@ 4560
قِ@@ 4560
التغ@@ 4556
The 4554
وكالة 4554
الكه@@ 4553
أنَّ 4549
مائي 4549
ذت 4547
لاع 4543
تقري@@ 4542
خارجية 4542
أعماله 4541
W@@ 4539
الفق@@ 4539
ارتف@@ 4538
بينها 4535
شعار 4535
فصيلة 4535
تجاوز 4534
جيا 4532
تعليم@@ 4531
أطلق 4529
مدريد 4528
مساح@@ 4527
المصادر 4524
الفرق 4522
قَ@@ 4521
إطار 4518
أسماء 4517
ساء 4517
الأجن@@ 4516
برلين 4514
سيناريو 4510
مستشفى 4509
اده 4508
هاي@@ 4507
مسافة 4506
ونيا 4503
كورونا 4502
أبرز 4501
ناش@@ 4501
اعتق@@ 4498
خالد 4496
العهد 4495
in 4494
الكيمي@@ 4492
اها 4492
عامل 4492
منح@@ 4491
الزراعة 4490
القيادة 4490
الدع@@ 4486
النج@@ 4483
تعريف 4483
الذاتية 4482
لفترة 4482
1944 4481
فيس 4481
محمود 4478
وبعض 4477
اكرة 4476
برية 4476
قبيلة 4476
فض 4474
الولادة 4473
تعني 4473
إلي 4472
وهذه 4470
سعى 4469
1949 4467
يتها 4465
سه 4464
موض@@ 4464
ّن 4464
1947 4462
سوى 4462
جاه 4458
هات@@ 4458
الخليج 4456
دقيقة 4454
ائن 4453
أمير 4452
اهد 4452
المزيد 4448
قف 4448
زوجته 4443
اصط@@ 4441
وتُ@@ 4441
تغي@@ 4440
معل@@ 4439
جدًا 4438
الشبكة 4437
نشا@@ 4437
اعتماد 4436
ولو 4436
ليلة 4435
1946 4432
معالجة 4432
ندس 4431
خاص@@ 4430
لمحافظة 4430
أرض 4428
بورغ 4427
بز@@ 4426
العام@@ 4425
تشي@@ 4425
دس 4423
عملت 4423
يمثل 4421
تحدي@@ 4418
الجنوبي 4417
المعم@@ 4417
قرى 4416
الطعام 4415
الاستقلال 4414
السو@@ 4414
2.@@ 4413
بوي@@ 4413
المب@@ 4412
بهدف 4412
ويا 4410
الجوي 4405
حالياً 4405
خوان 4402
التعداد 4401
بالر@@ 4400
جراء 4396
ذر 4396
صار@@ 4396
اجتماعية 4395
جين@@ 4395
لعبة 4393
بجامعة 4390
اختي@@ 4387
فرع 4387
الروسي 4386
بُ@@ 4386
أنجلوس 4384
اصيل 4384
توحة 4383
يد@@ 4381
المؤسسات 4380
أقدم 4376
لاس 4376
المجموعات 4373
موسى 4373
دج 4371
لفات 4371
رسل 4370
حاج@@ 4369
الضوء 4368
ينز 4367
التط@@ 4365
ميزة 4364
الإمام 4363
القرا@@ 4362
هد@@ 4362
1940 4357
جماعة 4357
بمدينة 4356
علوم 4356
للحصول 4356
التصميم 4355
جاج 4354
حمل 4353
أكاديمية 4352
اليمنية 4350
تحرير 4350
مراكش 4346
الحد 4344
حقي@@ 4343
1941 4342
دودة 4340
صلاح 4339
قام@@ 4339
الملكي 4337
الهيئة 4337
خراج 4337
النووية 4336
الوا@@ 4336
رابطة 4336
سف@@ 4335
واق 4335
اعل 4333
الست@@ 4332
بصورة 4332
بوم@@ 4332
قيل 4331
هار 4331
افترا@@ 4330
الأصلية 4330
الطبقة 4330
عون 4330
1939 4329
انس 4328
تعيين 4328
للص@@ 4328
سمح 4327
مائ@@ 4326
المستخدمة 4325
نك 4325
شرات 4324
خلف 4323
هاء 4322
لوان 4320
أسلوب 4319
التحكم 4317
تمرار 4316
ساع@@ 4315
الصحي 4314
لكي 4314
شارع 4313
وجدت 4313
للعمل 4311
1959 4309
1957 4305
“ 4305
أدت 4303
ترك@@ 4302
الشخصيات 4291
الأسط@@ 4290
ثات 4290
الإمبراطور 4289
كوي@@ 4288
اللح@@ 4286
الإم@@ 4284
سور@@ 4283
1955 4281
تال 4280
شرة 4278
الوحدة 4277
البرامج 4276
قطر 4275
نشرت 4274
قضية 4273
ونظ@@ 4273
التصني@@ 4271
جغرافيا 4270
الإمارات 4267
ففي 4267
المناخ 4266
عسكرية 4262
كاف@@ 4262
غم 4261
القدر 4260
رته 4259
footballer 4258
الهندية 4258
غلاق 4258
ومي 4256
تحاد 4255
كيلو@@ 4252
برج 4249
تاون 4249
32 4248
يعتمد 4248
المؤقت 4246
نات@@ 4246
هجوم 4246
اسب 4243
انتهت 4243
رأ@@ 4243
اطر 4242
قوانين 4241
تقدي@@ 4240
دام 4239
راسة 4239
طان 4238
وشارك 4236
للج@@ 4231
الوضع 4229
بنى 4228
الاستخدام 4226
ضر 4226
أثر 4224
النفط 4222
إح@@ 4221
بحسب 4219
القرار 4218
القسم 4217
الني@@ 4217
باع 4217
طلاب 4216
ومع@@ 4216
بيب 4215
توفر 4215
زيمة 4215
اءات 4214
العثور 4214
النظرية 4214
رمز 4213
طق 4213
1954 4212
التركية 4212
السياس@@ 4211
سباق 4211
نط@@ 4211
الحاكم 4208
التنفي@@ 4207
مور 4205
تختلف 4204
زه 4203
الرابعة 4201
تدخل 4200
اكت@@ 4198
مناف@@ 4197
الخلي@@ 4196
اكمة 4193
1952 4192
K@@ 4192
تجاه 4192
امز 4191
روة 4191
شن@@ 4191
مدي@@ 4191
وبلغ 4191
الح 4188
عدام 4187
سرعة 4185
وح 4184
كيفية 4182
الحال 4180
للمر@@ 4180
الكوي@@ 4178
رسون 4178
رويج 4177
الرجل 4174
لاعبة 4172
اضية 4170
المريض 4169
بيئة 4168
رضية 4168
بلغت 4165
حاول 4164
غلا@@ 4164
وتو 4164
يعيش 4162
اليونانية 4161
زوجها 4161
استخدم 4160
النبي 4160
بينهم 4160
صن@@ 4160
اتخ@@ 4159
إث@@ 4158
لوك@@ 4158
توم@@ 4157
كشف 4155
يحمل 4155
الهندسة 4154
الصوت 4153
تقرير 4153
غور@@ 4151
فيت 4151
كمية 4151
النز@@ 4150
زان 4147
تجمع 4145
المطلق 4142
منز@@ 4142
آن 4140
الأهلية 4140
غض@@ 4140
اليين 4139
فاء 4139
اليون@@ 4138
إخراج 4137
تلق@@ 4134
رحلة 4132
النشاط 4131
يتح@@ 4131
ولات 4130
قلب 4128
محددة 4128
المسلحة 4127
الإنسانية 4125
الحمل 4125
بنت 4124
برلمان 4123
فور 4123
معين 4122
آخرون 4120
زراعة 4119
ألك@@ 4117
ذوي 4114
فأ@@ 4114
قلعة 4114
فاف 4113
الاتصال 4111
رئيس@@ 4110
المعرفة 4109
يمية 4106
اقتص@@ 4104
رخ 4103
شرا@@ 4103
إحصائيات 4101
رسالة 4096
روي 4096
الكندي 4093
للق@@ 4092
غز@@ 4087
الطائرات 4084
لمح@@ 4084
أطل@@ 4080
الطبيعة 4080
الكر@@ 4080
تعيش 4080
زون 4080
تاريخية 4079
حاد@@ 4079
طلاق 4077
الدقيقة 4076
اريا 4075
قرب 4075
واضح 4075
طيع 4074
ماد@@ 4074
اعتبار 4071
باكستان 4071
جاح 4071
ّم 4071
طنين 4069
عناصر 4069
أون@@ 4067
القمر 4067
الدماغ 4065
براطورية 4065
المشتري 4063
بيض 4062
تغير 4062
خلاف 4061
ومنها 4060
واجه@@ 4055
زوج@@ 4053
V@@ 4052
للاست@@ 4052
البيئية 4050
يمة 4050
بالفعل 4047
كيل 4047
والخ@@ 4047
1943 4046
التصوير 4045
تؤدي 4044
اص 4043
الإسباني 4043
جزءًا 4043
الفصل 4040
احتف@@ 4039
الإقلي@@ 4039
امها 4039
وارد 4039
نج 4038
الطيران 4036
الك 4036
عبة 4036
شياء 4031
الدعم 4027
قدر 4022
الأصلي 4021
بور 4020
تمد 4020
وعين 4020
تسم@@ 4019
العد@@ 4016
شائ@@ 4014
مهاج@@ 4012
لاحظ 4011
ائرات 4010
تشغيل 4010
الياب@@ 4008
الإيطالي 4007
ثانية 4007
ياب@@ 4007
John 4006
حمل@@ 4006
مسر@@ 4006
أراضي 4005
الأم 4005
المرتبة 4002
أيرلندا 4001
التكن@@ 4001
بحر 4001
سندر 4001
and 3999
نشأ 3999
حاليًا 3997
طوله 3997
السفل@@ 3996
العش@@ 3996
انخفاض 3996
لادي 3995
ويت 3995
الفنون 3994
وبد@@ 3993
إيجاب@@ 3992
الطر@@ 3991
عاد@@ 3991
1953 3990
متنوعة 3990
أبر@@ 3989
الفار@@ 3988
الحفاظ 3987
منزل 3987
فَ@@ 3985
الأسلحة 3982
مكافحة 3981
العب@@ 3980
ُّ@@ 3979
كانون 3978
فرنسي 3977
أصول 3974
طري@@ 3973
لط@@ 3973
المثليين 3972
دته 3971
ماك 3971
شرطة 3970
أغاني 3969
الخط 3968
تطبي@@ 3968
تلال 3968
دوية 3968
علاقات 3968
لأنها 3968
يطلق 3968
ركة 3965
رؤية 3963
ضعف 3963
إج@@ 3961
آر@@ 3960
كتي@@ 3960
تجارة 3959
خرى 3957
طبقة 3957
السكانية 3956
هرباء 3956
ولون 3956
براون 3953
لتون 3953
اسوب 3951
النهائية 3951
البلدة 3950
السفر 3950
العناصر 3950
خطة 3948
1942 3947
الأز@@ 3946
اللغات 3945
المعاد@@ 3945
النص@@ 3945
1951 3944
اكم 3944
عج@@ 3944
راج@@ 3942
ة.@@ 3941
آلاف 3936
السوفيتي 3935
شير 3934
معاهدة 3934
هج 3934
ابين 3933
رس 3933
سك 3933
مح 3933
طانية 3932
الأج@@ 3931
الرقم 3931
بلة 3930
الكيميائية 3929
اور@@ 3929
مقاب@@ 3929
45 3927
قليل 3927
بعضهم 3924
ترج@@ 3924
يصبح 3924
ناس@@ 3922
هيل 3922
انق@@ 3921
ماث@@ 3921
x 3920
هذ@@ 3919
درالية 3917
فاق@@ 3917
لاحقة 3917
I@@ 3916
القيام 3914
قدمت 3914
دنية 3913
65 3911
آي 3911
جاك 3908
شو 3907
عنوان 3904
رخ@@ 3902
مارتن 3902
كاس@@ 3900
فيديو 3898
حلب 3897
المسرح 3895
تفاعل 3895
وممثلة 3894
التخ@@ 3893
ذين 3893
زوجة 3892
ويست@@ 3892
بهذه 3891
يّ 3889
تعلق 3888
ساك@@ 3888
أغلب 3886
ضيف 3886
ّف 3884
باه 3882
دود 3882
معروف 3879
الخلية 3878
الناحية 3878
مواجهة 3878
أساسي 3877
الآسي@@ 3877
بدء 3877
تناول 3877
الزراعية 3876
حضر 3873
عبين 3873
خلق 3872
فعل@@ 3871
مناصب 3871
هُ 3870
الأولية 3869
الاحتلال 3868
تنظ@@ 3868
كمال 3868
مقر 3866
الكار@@ 3865
والج@@ 3864
وليد 3864
قوا@@ 3863
مماث@@ 3863
الانتق@@ 3862
يقصد 3861
غار 3858
C 3857
نجاح@@ 3856
ّي 3856
ترجمة 3854
ابنة 3853
سوية 3853
اللعبة 3850
وسجل 3850
شهد 3849
البرلمانية 3847
راي 3847
مجموع@@ 3847
أمي@@ 3846
إد@@ 3846
ولعب 3846
الجليد 3842
المرجعية 3841
جاه@@ 3840
كير@@ 3840
ندرية 3840
أعط@@ 3839
الاب@@ 3838
النتائج 3837
تاي@@ 3836
الصحي@@ 3835
1936 3834
اربة 3834
ثنائي 3834
بالج@@ 3833
محرك 3832
مول 3831
ثمار 3830
العوامل 3828
القبائل 3828
بمثابة 3828
نف 3827
تحويل 3826
التأثير 3825
طين 3825
لب@@ 3825
محكمة 3823
أطفال 3821
أنّ 3820
والمج@@ 3820
عاما 3814
بالكامل 3813
كاملة 3812
ويب 3811
وصول 3809
سرا@@ 3806
شعب@@ 3806
التمييز 3805
ألماني 3804
شف@@ 3804
البيض 3803
الواقعة 3800
وحصل 3800
العاش@@ 3798
تلقى 3798
النسخة 3797
انتخابية 3797
انته@@ 3797
بالغ@@ 3797
فاءة 3797
فري 3797
التعل@@ 3796
الذاتي 3796
ستاذ 3796
جت 3795
للسيدات 3794
الدن@@ 3793
بكثير 3792
كارل 3792
أداء 3790
ملاح@@ 3789
موجودة 3788
حساب 3787
الوث@@ 3786
رئاسة 3786
ولقد 3786
ؤ 3785
امت 3785
ويعتبر 3785
بقية 3784
بيان 3784
شباط 3783
حيات 3782
الجوائز 3781
القاد@@ 3778
300 3777
لوي 3777
محر@@ 3777
اهدة 3775
الفني 3773
إلغاء 3772
الأحياء 3772
3.@@ 3769
البك@@ 3769
صع@@ 3769
لقى 3769
تقلي@@ 3768
لفية 3768
وجه@@ 3768
الإر@@ 3767
فلس@@ 3767
تمثيل 3766
فلكية 3765
البول@@ 3764
اليا 3764
مقاومة 3764
a 3763
عاز@@ 3763
الفرد 3762
شارات 3762
الأدوية 3759
ًّا 3758
الكلاسي@@ 3757
القانونية 3756
لإقليم 3755
والرا@@ 3755
ينت@@ 3755
مارسة 3754
مجالات 3754
الإسرائيلية 3753
حاكم 3753
المواقع 3751
الإسرائيلي 3750
التدريب 3750
العين 3749
الهيدرو@@ 3748
تجربة 3748
لقي 3747
موس 3747
المهمة 3746
انع 3746
الاشترا@@ 3744
القرى 3744
مانيا 3743
الوريوس 3741
السعودي 3740
جونز 3740
أخر 3739
الإناث 3737
فريقيا 3737
الغر@@ 3735
خت 3734
روح 3731
كتور 3727
سلطان 3723
يرون 3722
أكيد 3720
واصل 3720
الخارج 3719
خور 3719
شراف 3718
والتح@@ 3718
الموارد 3717
بيروت 3717
حلقة 3716
العقد 3714
ورئ@@ 3713
الإسبانية 3712
مدارس 3712
روز@@ 3707
الأبحاث 3704
الزمن 3704
1920 3702
الرياض@@ 3701
متلازمة 3701
وتية 3700
الكويكبات 3697
بض 3696
دليل 3696
راتي@@ 3696
طوال 3695
مبنى 3695
السع@@ 3691
داني@@ 3691
الإست@@ 3689
لشركة 3687
ّه 3687
شيكاغو 3686
المذ@@ 3684
سائ@@ 3683
موج@@ 3683
الإض@@ 3682
عضوًا 3682
الملحق 3681
الأند@@ 3678
جزاء 3678
حام@@ 3678
المؤسسة 3677
تيني 3677
لص@@ 3677
اليهودية 3676
الصور 3675
انوية 3673
كيا 3672
المباد@@ 3671
استمر 3670
هولة 3670
يث@@ 3670
ّد 3670
فقال 3669
الفيديو 3668
النطاق 3668
1.@@ 3667
البشري 3667
النش@@ 3667
33 3665
ينيا 3665
الطبي@@ 3664
ينغ@@ 3663
إنس@@ 3662
الساح@@ 3662
ممارسة 3662
بولاية 3660
جدي@@ 3659
وتن@@ 3659
استخدامها 3658
تان@@ 3656
تفسير 3656
علام 3656
المنتجات 3655
المشتركة 3654
رم 3654
75 3653
السفن 3653
كلين 3653
جمال 3652
الكاثوليكية 3651
لذا 3651
الخض@@ 3647
فشل 3647
فوز 3647
ظروف 3646
مصطفى 3646
جداً 3645
أصغر 3644
الأعراض 3643
الغذائية 3643
مرد 3642
ملايين 3642
نظم 3642
التصويت 3641
مراكز 3641
الاتح@@ 3640
سلالة 3640
سعود 3639
وحدات 3639
معروفة 3638
مشاكل 3635
201@@ 3633
دَ@@ 3633
منت@@ 3633
ميز@@ 3633
الدو@@ 3631
ومست@@ 3631
وقام 3630
طويل 3628
هندسة 3627
استمرت 3626
شاء 3626
المجاورة 3625
ديان 3625
كنت 3625
مسرحية 3625
انتخ@@ 3624
باعتب@@ 3623
مايكل 3621
سار 3620
ذة 3619
اليونان 3617
سفر 3617
روم 3616
مشيخات 3616
ساب 3615
اتفاقية 3614
السويد 3614
قوية 3612
كبار 3612
والط@@ 3612
توس 3610
راجع 3610
نظرًا 3610
القصي@@ 3609
جسم 3608
درب 3608
قائق 3608
الورا@@ 3607
طبيعة 3607
لفاء 3606
سرية 3605
زمن 3604
صرف 3603
بلا 3602
باي 3601
تحسين 3600
معها 3599
مباريات 3598
إيط@@ 3595
الدستور 3591
ابنه 3590
عاش 3590
البلد 3589
الفرنسي@@ 3589
سيما 3589
ائح 3587
us 3584
ندق 3584
سلاح 3583
عبد@@ 3581
S 3580
حًا 3580
رفض@@ 3579
خض@@ 3578
حج@@ 3576
شعبية 3576
طلبات 3574
زار 3573
فكان 3573
أض@@ 3572
ائلة 3572
خاض 3572
20@@ 3571
سارة 3571
كويكب 3570
البرية 3568
فيل@@ 3568
ولايات 3568
طان@@ 3564
ناق@@ 3564
مديرية 3563
بعينيات 3561
قواعد 3561
محل 3561
سرا 3560
ولاعب 3557
الموت 3556
ضح 3556
نزالا 3555
وائل 3555
الجان@@ 3554
الكتابة 3554
تينات 3554
مصري 3554
انتش@@ 3553
رأس@@ 3551
وبر 3551
دريك 3550
نسجة 3550
تأسس 3549
أري@@ 3547
دوى 3547
السلا@@ 3546
منش@@ 3546
وإن@@ 3546
وسيلة 3546
الجزي@@ 3545
الجمع@@ 3544
فتح@@ 3544
احتي@@ 3542
كولومبيا 3542
يقة 3542
عند@@ 3541
متع@@ 3541
عطاء 3540
قوم 3540
وذك@@ 3539
يح 3537
الجري@@ 3536
رال 3535
طار 3535
جونسون 3534
نوات 3533
تيك 3532
الساحل 3531
انيين 3531
مكسي@@ 3531
i 3530
تأليف 3530
نشاط 3530
الأغنية 3529
المسيحيين 3529
تبدأ 3528
نع@@ 3528
يّ@@ 3528
خري@@ 3527
الاحتف@@ 3524
الشام 3524
الأور@@ 3522
تكساس 3522
حيل 3522
طاء 3522
لندية 3522
فز 3521
رش 3520
سبور@@ 3520
التحرير 3518
ويلز 3517
اشة 3516
J@@ 3515
تزوج 3515
كمة 3515
نما@@ 3515
يْ@@ 3515
تسمية 3514
تقسيم 3514
مراقبة 3514
وعدد 3513
1930 3511
ةِ 3511
اضطراب 3510
اعتراف 3510
باق 3510
وسع 3510
رتبة 3509
وبي@@ 3509
شل 3508
بولندا 3507
ليكون 3507
موضوع 3507
ميت 3507
الإنج@@ 3506
الطيور 3506
دولية 3504
كالي@@ 3504
ّا 3503
أنفسهم 3501
سيطرة 3501
قبائل 3501
مبر@@ 3500
يعانون 3500
المركزي 3499
وأصبحت 3499
المنافسة 3498
تام@@ 3498
حمض 3498
ساحة 3498
بلية 3497
كا@@ 3497
البرتغال 3496
النجوم 3496
نوب@@ 3496
يدي 3496
الحق 3492
سجين 3492
إسباني 3491
وإلى 3490
تقليل 3488
ماريا 3485
مرو@@ 3485
الجزائ@@ 3484
سس 3484
الحي@@ 3483
العرق@@ 3483
فيلي@@ 3482
البحرين 3481
الإعلان 3480
حايا 3480
حدة 3479
الأرجنتين 3478
داب 3478
دراسته 3478
السينما 3477
بـ@@ 3477
النخ@@ 3476
وفة 3476
الخلا@@ 3475
درو 3474
المتحف 3473
خلف@@ 3473
رئيسي 3473
محترف 3473
الحديد 3472
الوحيدة 3471
مشاركًا 3470
روسات 3468
كاث@@ 3468
التطور 3467
المحافظ@@ 3467
1938 3466
اتل 3466
سبة 3466
وتي 3466
اليم 3465
وفا 3465
ّى 3465
الداخلي 3462
صلا@@ 3462
ماي@@ 3461
1933 3459
ابيع 3459
وسطة 3457
on 3456
افظ 3456
مداره 3456
الجلد 3455
لله@@ 3453
بكر 3452
مواسم 3452
والد 3451
حف@@ 3450
التنمية 3449
العثماني 3448
سال@@ 3447
كست@@ 3446
بقي 3445
وإن 3445
وتعتبر 3445
تضمن 3444
سبعة 3444
علامة 3444
ألة 3442
واخت@@ 3442
العودة 3440
ومنذ 3440
الرياضي 3439
1937 3436
الحجم 3436
المنظمات 3435
تشرين 3435
رُ@@ 3434
الأسماك 3433
المبار@@ 3433
الده@@ 3432
القيمة 3432
جها 3432
الأخلا@@ 3430
الجزائرية 3429
مراجع 3429
القناة 3427
قليلة 3426
جائ@@ 3425
الفعل 3424
طالب@@ 3424
واحد@@ 3424
ميم 3423
وزن 3423
تخرج 3422
كباقي 3422
مشكلة 3422
انتقلت 3420
يرى 3419
العالية 3418
توني 3417
واجه 3417
ازي 3416
المساعدة 3416
القتال 3414
تمامًا 3414
وخلال 3414
التحق 3413
الحجر 3413
الشعبي 3413
اللغ@@ 3413
عظم 3413
نيا 3413
تصر 3412
المجتمعات 3411
الحاجة 3409
الكهربائية 3408
الانق@@ 3407
التمثيل 3407
فرانك 3407
الدورة 3406
براط@@ 3404
ضمان 3403
وش 3403
ينيين 3403
البريطان@@ 3401
سيمات 3401
أز@@ 3398
الته 3397
ظاه@@ 3396
السما@@ 3394
الصحافة 3394
ق.@@ 3394
يمر 3394
الإطلاق 3392
للأطفال 3392
للسي@@ 3391
وإداريًا 3391
عزل 3389
نانين 3389
راس 3388
نجم 3388
ئك 3387
ناس 3387
ولوجي 3387
تتميز 3385
ميد@@ 3385
واجد 3385
الاتصالات 3384
يب@@ 3384
بث@@ 3383
ومغ@@ 3382
جح 3379
الجنرال 3378
جريدة 3378
مستقلة 3377
رصده 3374
حُ@@ 3373
اضطرابات 3371
للمرة 3371
الدار 3369
طرا@@ 3369
للط@@ 3369
199@@ 3368
القصر 3368
عمره 3368
ائة 3364
فرط 3364
ائط 3363
السرطان 3363
السيارات 3363
وجي@@ 3363
يلا 3362
نيوزيلندا 3360
والدها 3360
عهم 3359
غزو 3359
هرة 3359
تاء 3358
دوا@@ 3356
سعد 3356
صاص 3356
لاغرانج 3355
الثقافي 3354
ــ@@ 3354
الجامعات 3353
المقاومة 3352
العراقية 3349
موسي@@ 3349
المرتبطة 3347
روج 3346
تسمح 3343
التقنية 3342
الهندي 3342
بحرية 3342
اقترا@@ 3341
القضاء 3341
منا 3341
كول 3340
عوامل 3339
سيارة 3338
بوا 3336
1918 3335
اصر 3334
الناتج 3334
يبدأ 3334
حزاب 3333
والر@@ 3333
الكريم 3332
الأساس 3330
نَ@@ 3330
أرا@@ 3329
ثناء 3329
مكتبة 3329
الأصليين 3328
السجن 3327
وتر 3327
الكاتب 3326
يقدم 3326
أوغ@@ 3324
إجمالي 3324
34 3323
إف 3322
الروماني 3322
الإلكترونية 3321
درة 3321
آر 3320
تبع@@ 3319
ديك@@ 3319
سلطنة 3319
مساع@@ 3319
وعمل 3319
تعديل 3318
جاد 3318
سوا 3318
بعدما 3317
ثان@@ 3317
علن 3317
يراً 3315
de 3313
الحمض 3312
الحرة 3311
جزء@@ 3307
شهدت 3304
ويكون 3304
طفل 3303
الحم@@ 3302
وات@@ 3302
فوف 3298
1935 3296
أصدر 3296
الفلسفة 3296
الحملة 3294
صيف 3293
لمدارات 3293
نمو@@ 3292
واش@@ 3291
لتحديد 3290
احية 3289
المبنى 3289
صنف 3289
يتين 3289
لمداره 3288
التعين 3287
ثى 3287
مارسات 3286
ّت 3286
ذن 3285
ارتبا@@ 3284
الجة 3282
فيليب 3282
التواصل 3281
MPO@@ 3280
تتم 3280
نيل 3280
هى 3280
الجنود 3278
ميز 3278
ينما 3277
إمكانية 3276
أحد@@ 3274
تدفق 3274
وتوفيت 3272
التشريعية 3271
القوانين 3271
يضم 3271
الحسن 3270
طًا 3270
وأخ@@ 3270
إسماعيل 3269
المسا@@ 3269
دعى 3267
السوري 3265
باقي 3264
قوب 3263
يمات 3261
ينت 3261
الصورة 3260
شد 3260
مئ@@ 3260
أمة 3258
الدكتوراه 3258
شرو@@ 3258
عار 3258
زيارة 3257
غرفة 3257
حاب 3256
اللاتينية 3255
بالرغم 3255
تتأ@@ 3254
الوزن 3253
غول@@ 3253
القومية 3252
يشمل 3252
الاشتراكية 3251
سيكون 3251
فاس 3251
الكائنات 3249
البنية 3248
لفت 3247
الظروف 3246
العراقي 3246
زنط@@ 3246
عقب 3242
حلول 3240
الحدي@@ 3238
قبول 3238
الكربون 3237
التعبير 3236
المحيطة 3236
يتع@@ 3236
المستخدم 3235
وظيفة 3235
رتها 3234
24@@ 3233
اسبة 3233
تخصصة 3233
علية 3233
سكوت 3232
سفينة 3231
القضايا 3230
المار@@ 3230
القومي 3229
المنز@@ 3229
المقدس 3227
مسرح 3226
الحين 3224
رسم 3224
كلو@@ 3223
استق@@ 3222
قيت 3222
الجر@@ 3221
الحمراء 3220
رئيسية 3217
هولندا 3217
والمؤ@@ 3217
طبق 3216
4.@@ 3215
يتي 3214
لونة 3213
المستقبل 3212
للعلوم 3210
وبدأ 3209
جزي@@ 3207
وته 3207
يسون 3207
عاص@@ 3206
مسة 3206
وهي@@ 3206
1931 3205
استعمال 3205
ونش@@ 3205
الرابطة 3204
نجاح 3204
إعلان 3203
مظ@@ 3203
وهكذا 3203
ويوجد 3203
36 3202
وعلم 3202
تقنيات 3201
وفية 3200
ابهة 3199
العصبية 3199
تشي 3198
وأر@@ 3198
عاش@@ 3197
أصحاب 3196
الرك@@ 3196
تخص@@ 3196
دخال 3196
عمو@@ 3196
السنو@@ 3193
الحديدية 3192
ساعد 3192
كثافة 3192
موسم@@ 3192
مرية 3191
العملا@@ 3190
تقريبا 3190
1929 3188
الغاز 3188
مراحل 3188
1934 3186
إلكترو@@ 3184
بقى 3183
نجد 3183
حظ@@ 3182
تبادل 3181
الأنظمة 3179
التركيز 3179
ضابط 3179
مؤلف@@ 3178
البكتيريا 3177
حَ@@ 3177
ضع@@ 3176
وارئ 3176
ابتة 3173
صحفي 3172
دف 3169
راز 3169
يتضمن 3169
استح@@ 3168
الحقيقي 3168
كجزء 3167
ليصبح 3167
نوعة 3167
ذه 3166
قصير 3166
طها 3164
يوب 3162
الأربعة 3161
الخارجي 3161
بعي@@ 3161
أنا 3160
أفري@@ 3158
كافة 3158
الفح@@ 3157
بح 3157
واريخ 3157
الحكومي 3156
هول 3156
البلا@@ 3155
بعض@@ 3155
غان@@ 3155
معاد@@ 3155
يعيش@@ 3155
ينبغي 3155
ميناء 3154
القاعدة 3153
تمتلك 3152
توم 3152
النمسا 3149
ثا 3149
اولات 3148
ستان@@ 3148
المستشفى 3147
نشر@@ 3147
وعض@@ 3146
ساو@@ 3145
الفنان 3143
ثمانية 3142
طبيب 3140
تجارية 3139
دُ@@ 3139
الاغ@@ 3138
بض@@ 3138
وبية 3138
38 3137
التشخ@@ 3137
تعامل 3137
هلاك 3137
كوفيد 3136
الخل@@ 3135
المدى 3135
الوحدات 3135
الكلمة 3134
ءً 3131
الطبي 3131
ستيف@@ 3130
يجعل 3130
ترتيب 3129
ضت 3129
ملي@@ 3129
آي@@ 3128
أوق@@ 3128
الثمان@@ 3128
منى 3128
الإيطالية 3127
37 3126
أكسيد 3126
نوا 3126
القطاع 3125
ونيسيا 3124
زرق 3122
خلفية 3121
وروب@@ 3121
مجة 3120
النفسي 3117
بالذ@@ 3117
أبو@@ 3116
تاين 3116
تخصص 3116
صيب 3115
درج 3114
شقي@@ 3114
إزالة 3113
التسمية 3110
الطب@@ 3110
اولة 3110
باستثناء 3109
كيين 3109
أولا@@ 3108
اصل 3107
ندر 3107
وأيضا 3107
اللاعب 3106
طرح 3106
D 3105
الحي 3105
ذها 3105
أكاد@@ 3103
المدني 3103
تعي@@ 3103
حر 3102
سليم 3102
المتك@@ 3100
علومات 3100
وبا 3100
48 3099
لاك 3099
نصر 3098
تلعب 3096
حرية 3096
ً@@ 3095
ئت 3093
الاحتي@@ 3093
الد 3093
المكون@@ 3092
يقرب 3092
الأجهزة 3091
بوم 3090
وتقع 3090
القد@@ 3087
غية 3087
مائية 3087
معايير 3087
2م 3086
B 3086
المقاط@@ 3085
غون 3085
الابتد@@ 3084
لبية 3084
مبيوتر 3084
كسي@@ 3083
ادها 3082
خش@@ 3081
تتراوح 3080
القوا@@ 3078
المطاف 3077
اظ 3076
وسيع 3075
1922 3074
سلات 3071
استخدامه 3070
الملكة 3070
كوس@@ 3070
ألبوم 3069
أماكن 3069
400 3068
تدور 3068
وتشمل 3068
المقاطعة 3067
تري 3066
كوين 3066
بحيرة 3065
سول 3065
طوي@@ 3065
الرئي@@ 3064
42 3063
توب@@ 3063
حن 3063
رق 3063
اقتصاد 3062
درالي 3062
حو 3061
التعليمية 3058
شخصيات 3058
ابق 3055
خصائص 3055
ضرورة 3055
النهر 3054
ولذلك 3053
ارف 3051
سائر 3051
التعامل 3048
عوام 3048
الإدار@@ 3047
المسرحية 3047
معظ@@ 3047
وجود@@ 3047
برش@@ 3046
الأسباب 3044
الكرة 3044
المحافظة 3044
تناف@@ 3044
شعب 3044
مكة 3042
الجبل 3041
ثن@@ 3040
جامع 3039
لعبت 3039
ريال 3038
الأفريقية 3037
55 3036
فار 3036
ويًا 3036
يستطيع 3036
الرأس 3035
ائفة 3033
ماد 3033
وجهة 3033
وغالب@@ 3032
الحقيقة 3031
ائيات 3029
ياباني 3029
وجامعة 3028
الصد@@ 3027
بطل 3027
ريه 3027
عسكري 3027
قليم 3026
ناف 3026
an 3025
الثلاث 3025
ناصر 3025
نتج 3025
دونالد 3023
غب 3023
تبع 3022
البطولات 3021
فاظ 3019
ارين 3018
ميس 3017
الهجرة 3016
عثمان 3016
وغيرهم 3016
النصف 3015
تكلفة 3014
تنق@@ 3013
خص 3013
طبق@@ 3013
اسكت@@ 3012
تعاون 3012
ملاكم 3012
منتج 3012
اتا 3011
الصغير 3010
المتا@@ 3010
هيرة 3010
الحية 3009
الكامل 3009
المباني 3009
كس@@ 3009
الحقي@@ 3008
توي 3008
قوس 3008
الناش@@ 3007
1928 3005
P 3005
المسيرة 3002
بيلة 3002
وتف@@ 3000
يكرو@@ 2999
الهر@@ 2997
1919 2996
الرؤ@@ 2996
النات@@ 2996
عمه 2995
الحادي 2994
والتعليم 2994
ثون 2992
جيد 2992
الأماكن 2991
السفينة 2991
القائد 2991
باد 2990
فيين 2990
موسيقي 2990
رقام 2989
مجموع 2989
تهدف 2988
العصبي 2987
الصراع 2986
انتخاب 2986
ايير 2986
قاط@@ 2985
القلعة 2984
شرح 2984
علاق@@ 2982
برات 2981
جلة 2981
يمز 2981
كبيرًا 2980
أعداد 2979
مقتل 2979
الأصول 2977
المؤس@@ 2976
الدموية 2975
er 2974
البرتغ@@ 2974
الج 2974
عامين 2973
قاد 2973
داة 2972
أظهرت 2969
اطي 2968
مباشر 2968
الحرية 2966
حيوانات 2966
كونه 2965
الثق@@ 2964
الجمهور 2963
يحيى 2963
ستيفن 2962
اقتصادية 2961
أعراض 2960
نوف@@ 2960
الدائرة 2959
لبعض 2959
الشيوعي 2957
كلة 2957
اقات 2956
المري@@ 2956
للأمم 2956
المتج@@ 2955
يص 2955
يوان 2955
يرا@@ 2954
أنشطة 2953
الفوز 2953
سَ@@ 2952
ناية 2952
يدعى 2950
السريع 2948
ينتج 2948
الصحراء 2947
صفات 2947
ويد 2947
n 2946
واستمر 2945
اتجاه 2944
التوا@@ 2944
والعلوم 2944
شاه@@ 2942
الحاد@@ 2940
اجة 2939
قضايا 2937
الأدبية 2936
الطف@@ 2936
استبد@@ 2934
الأهداف 2934
تصاب 2934
مزي@@ 2934
1924 2933
رون@@ 2933
موسكو 2933
تصنيع 2931
خوسيه 2930
الأطل@@ 2927
الرحلة 2926
عوا 2925
وآ@@ 2925
ريان 2923
ضربة 2923
جنة 2922
نهائي 2922
هُ@@ 2922
T 2921
أبطال 2921
الطلب 2921
كم@@ 2921
أجريت 2920
الجبهة 2919
التجارب 2918
تصدر 2918
1932 2917
بقاء 2915
وند 2915
إضافية 2914
تتح@@ 2914
ساعات 2914
موند 2914
39 2913
بيًا 2912
فازت 2912
ملية 2912
آب@@ 2911
طت 2911
رسمية 2910
فه@@ 2910
النموذج 2908
O 2907
الواحد 2907
ائعة 2906
الأداء 2906
الحماية 2906
جرت 2906
فعال 2906
يكون@@ 2906
بشدة 2905
كونها 2905
يلية 2905
منتجات 2904
اعلات 2903
بينهما 2903
مؤلف 2903
اللازمة 2902
خية 2902
سيطر 2902
شمل 2901
دخلت 2899
أقصى 2897
الشاعر 2897
إنتا@@ 2896
1م 2895
لد@@ 2893
أستاذ 2890
الموسيقية 2890
خف@@ 2890
قوم@@ 2890
السلسلة 2889
الفئة 2889
بارك 2889
بدي@@ 2889
باي@@ 2886
زيم 2885
لتها 2885
E 2884
مراج@@ 2884
اشترا@@ 2882
البابا 2882
فيز 2882
الغذاء 2881
فلم 2881
مجمع 2881
ءت 2880
الإدارية 2880
تيب 2880
كَ@@ 2879
تملة 2878
d 2877
t 2877
المائية 2877
المنتج 2877
نائي 2877
مساه@@ 2876
الرياضيات 2873
صدرت 2872
التسع@@ 2870
تشار 2869
حا 2868
ديف 2868
لجميع 2867
1921 2866
الأسنان 2866
عمة 2866
ويم 2866
برز 2865
الأرث@@ 2863
نائية 2862
الحب 2860
للك@@ 2860
أصدرت 2857
دست@@ 2857
سكا 2857
نوبل 2857
وخ 2856
ويين 2856
الجدول 2855
1923 2854
التل@@ 2853
باعتبارها 2853
الأمي@@ 2851
النفسية 2851
ضا 2851
باك 2850
راض@@ 2850
والمست@@ 2850
انتهى 2849
زب 2849
وتص@@ 2849
تنفي@@ 2848
64 2847
ظات 2847
فيفة 2847
خليج 2846
دعي 2846
الدست@@ 2844
وبر@@ 2844
أمر@@ 2843
باع@@ 2843
فرانسيسكو 2843
للفنون 2843
انض@@ 2842
ثه 2842
فارقة 2842
الإلكتروني 2841
واضحة 2841
وبذلك 2841
نب 2840
25@@ 2838
العموم 2838
عرب 2838
مقرا@@ 2838
الأنشطة 2837
جز 2837
وسام 2837
وسي 2836
مركب 2835
يره 2835
البقاء 2834
بلج@@ 2834
حها 2834
وسية 2834
يأتي 2834
بكل 2833
تدمير 2832
تقدير 2831
التعلم 2830
يتي@@ 2830
اخ 2828
يرجع 2827
خوا@@ 2826
آذ@@ 2825
تنتج 2825
وحيد 2825
1917 2824
جاز 2824
الاجتماع 2823
الدخول 2823
ونها 2823
اثر 2822
كلها 2822
كوا@@ 2822
نقاذ 2822
الأسترالي 2821
الفيروس 2821
النحو 2821
سقوط 2821
مري 2821
الأمثلة 2820
علمية 2820
مناق@@ 2819
يلة 2819
اجستير 2818
استطاع 2818
الغالب 2818
بيك 2818
كاست@@ 2818
للمست@@ 2818
السج@@ 2817
القديس 2817
للغ@@ 2815
جودة 2814
قطعة 2814
ثقافية 2812
واقع 2812
سوء 2811
منفص@@ 2811
التنفيذي 2810
الكي@@ 2809
1000 2808
جول@@ 2808
التنظ@@ 2807
فارس 2807
مناسبة 2807
R 2806
أقيمت 2806
85 2805
فلسط@@ 2805
مط 2804
صبح 2803
متلك@@ 2803
المباشر 2802
لاز@@ 2802
لث 2802
عملها 2801
ريت 2800
سبا@@ 2800
إلي@@ 2799
ساحل 2799
وعدم 2799
كتش@@ 2798
ونيو 2798
خلي@@ 2797
فاهيم 2797
وظائف 2797
القانوني 2795
أبد@@ 2794
الاقترا@@ 2794
ترتبط 2794
ساد 2794
ثًا 2793
بوط 2791
توقف 2791
سيين 2790
ادم 2789
ملائ@@ 2789
اتفاق@@ 2788
البالغ@@ 2788
قيب 2788
أدب 2787
التجاري 2786
17@@ 2785
بنفس@@ 2785
أجن@@ 2784
تاج@@ 2783
سمة 2782
شان@@ 2782
عيسى 2781
ونه 2781
حاق 2780
فما 2780
تن 2779
نسب 2779
جوز 2778
دبي 2778
سلامة 2778
شغ@@ 2778
الكروية 2777
عراق 2777
ميلة 2777
الشب@@ 2776
وقة 2776
الأخضر 2775
لع@@ 2775
يتم@@ 2775
الكاث@@ 2774
95 2772
افتتاح 2772
باول 2772
دوم@@ 2772
سيف 2772
1925 2771
قيه 2771
العلوي 2770
الاش@@ 2769
جير 2769
واقف 2769
خلص 2767
ويح@@ 2767
دران 2766
طا 2765
لقت 2765
ائز 2764
الصف@@ 2764
الفرا@@ 2764
ضوء 2764
فيلا@@ 2762
ريز 2761
ليو 2760
ستن 2758
البيت 2757
الشمسية 2756
دستور 2756
49 2755
تاب 2754
آرثر 2753
دال@@ 2753
غذ@@ 2753
كيني@@ 2752
41 2751
وكات@@ 2751
نًا 2750
لوحة 2749
نبات@@ 2748
عيم 2746
1927 2745
مساعد 2744
ميخائيل 2742
وربما 2741
جيم 2738
صحيح 2738
بناءً 2736
حمد 2735
داث 2735
جنوب@@ 2734
جات@@ 2731
العاملة 2728
بيين 2728
فاي@@ 2727
مرتين 2727
مسار 2727
اللقب 2725
لج@@ 2725
يقو@@ 2723
الاد@@ 2722
فقدان 2722
born 2720
خليفة 2720
ورك 2720
بق 2719
جع@@ 2719
النح@@ 2718
مخص@@ 2718
الوطن 2715
{ 2714
الإعلا@@ 2714
بيري 2714
الموس@@ 2713
زيل 2713
غالبا 2713
قصص 2712
تمي 2710
الغ 2709
دفاع 2709
الحس@@ 2702
فى 2702
غرس 2701
داف 2698
جُ@@ 2697
خان@@ 2696
حلق@@ 2694
198@@ 2693
رسول 2693
هِ 2693
1914 2692
فظ 2692
اردو 2690
تداء 2690
ارض@@ 2689
تراوح 2689
بنك 2688
شيئ@@ 2687
براء 2685
سات@@ 2683
زوج 2682
سبي@@ 2682
سلحة 2682
فلا 2682
مكن 2682
منط@@ 2682
قنا@@ 2680
الحج@@ 2678
توي@@ 2678
رح 2678
رسوم 2677
M 2673
رن 2671
رين@@ 2671
وأيض@@ 2671
ساف@@ 2668
حف 2665
بدلا 2658
معتم@@ 2657
غام@@ 2656
باش@@ 2655
d@@ 2654
ترجم 2654
فِ@@ 2654
وائي 2654
1926 2653
سول@@ 2650
ساح@@ 2648
ابر 2647
طل 2647
عباس 2647
اكي 2646
متاز 2644
فاد@@ 2640
كوس 2640
اتصال 2639
ونت 2635
باك@@ 2634
رِ@@ 2634
لاه@@ 2629
يكو 2628
بلي@@ 2627
الأمريك@@ 2625
شا 2623
44 2621
فلوري@@ 2621
ليون@@ 2619
شال 2616
تابع 2614
طيف 2610
1912 2607
صيل 2607
7.@@ 2605
صالات 2605
v 2602
ريو 2602
علامات 2602
تات 2601
لاق 2601
ميني@@ 2601
46 2600
ٌ@@ 2599
الحسين 2596
الشيو@@ 2596
وزراء 2596
6.@@ 2594
47 2593
لبن@@ 2590
داول 2589
لاد 2588
الاعتق@@ 2587
I 2585
التاريخ@@ 2582
المجمو@@ 2576
معرض 2569
p 2561
تاد 2561
ويك@@ 2561
عود@@ 2560
فلور@@ 2558
ترنت 2556
52 2554
جزئ@@ 2552
الساد@@ 2551
هوم 2550
ضرب 2545
لاية 2544
إز@@ 2542
شاع@@ 2539
بلد 2537
بوس 2537
تمام 2532
خبر@@ 2531
لنا 2530
مقدار 2530
L 2527
متعدد 2527
الحكوم@@ 2526
موز@@ 2525
العمل@@ 2523
رئ@@ 2522
William 2521
رت@@ 2520
يور@@ 2520
53 2519
نك@@ 2518
الذك@@ 2516
قصى 2516
جهزة 2515
سبع 2515
عادت 2512
صندوق 2510
y@@ 2508
سمع@@ 2506
196@@ 2503
مب 2503
is 2502
ثقاف@@ 2500
غرق 2500
قان 2495
وام 2495
e 2493
بجانب 2491
e@@ 2486
صُ@@ 2486
نجوم 2482
باخت@@ 2480
s@@ 2479
150 2478
رود 2477
مقبر@@ 2477
U@@ 2474
جوان@@ 2473
نص 2473
son 2471
قار@@ 2469
عقاب 2461
قضاء 2461
متص@@ 2461
مخط@@ 2458
صيلة 2457
غوا@@ 2456
197@@ 2455
57 2455
زرا@@ 2454
كلارك 2453
بورن 2452
دري 2451
محتر@@ 2450
البق@@ 2449
المعر@@ 2446
اني@@ 2446
تينية 2445
00 2444
56 2443
أمريك@@ 2443
فاس@@ 2442
فش@@ 2439
ولاد 2439
شاف 2437
لج 2435
مشرو@@ 2435
شعر@@ 2434
o 2432
بشر@@ 2431
ارنة 2428
ثابت 2428
54 2427
دوق 2426
مثلا 2425
المقابل 2424
جس@@ 2424
مند@@ 2420
موقف 2420
F 2419
66 2417
تمع 2416
صال 2416
بوت 2410
جيم@@ 2410
سالم 2410
فضاء 2410
ابن@@ 2408
43 2407
تنام 2406
كاري 2404
اكل 2399
84 2398
ملو@@ 2395
اجتماع 2393
المسر@@ 2393
} 2392
الموسيق@@ 2392
بالش@@ 2391
سند@@ 2391
احتج@@ 2390
c@@ 2388
شعاع 2387
زيز 2386
اتفاق 2384
لغات 2384
51 2381
Y@@ 2380
نظمة 2380
c 2379
اث 2379
دما@@ 2375
1910 2374
دب@@ 2373
72 2368
حدو@@ 2368
9.@@ 2362
James 2362
8.@@ 2361
تصني@@ 2361
ريل 2360
عمرو 2360
بوب@@ 2358
H 2356
13.@@ 2355
اسات 2354
تداد 2354
يلي@@ 2354
صاد@@ 2353
ائص 2352
18@@ 2351
99 2350
1915 2348
صاح@@ 2347
الْ@@ 2346
رمضان 2345
شات 2343
الزرا@@ 2339
غالباً 2338
67 2335
فرن@@ 2331
ناث 2331
فنون 2327
58 2325
سلا 2323
طراز 2322
وسلا@@ 2322
صحي@@ 2316
غالب@@ 2311
62 2308
العث@@ 2308
تمام@@ 2308
عر 2307
رضي 2304
الملح@@ 2299
خام@@ 2299
خم 2297
محافظ@@ 2296
صنعاء 2295
71 2293
X@@ 2291
العائ@@ 2288
ويلي@@ 2288
النف@@ 2287
صور@@ 2286
ing 2284
الشخص@@ 2282
تقي@@ 2282
86 2281
مناز@@ 2276
باتات 2275
نور 2274
وست 2274
النمس@@ 2271
رج 2271
96 2270
ثالث 2270
نفو@@ 2270
88 2269
الأفري@@ 2267
00@@ 2266
آد@@ 2266
شام 2264
es 2261
شاه 2261
63 2255
زاد 2251
خصوص@@ 2250
سكر 2247
وران 2247
حضور 2245
نجلي@@ 2243
انستان 2242
2021 2241
بند@@ 2241
عال 2241
b 2240
فاض 2240
ڤ@@ 2239
77 2238
فقت 2237
X 2236
1916 2234
تصف 2234
1913 2231
الواق@@ 2231
ناً 2231
آدم 2230
مارات 2228
ناز@@ 2227
انح@@ 2226
تمر 2224
حصول 2221
amp 2219
اوس 2218
قبال 2218
رمز@@ 2216
موضع 2216
عراض 2215
ورن 2214
بلس 2212
تعال@@ 2212
الوا 2209
ولكن@@ 2209
93 2204
رع@@ 2202
انف@@ 2200
195@@ 2193
زف 2191
1908 2189
30@@ 2188
ولف 2187
ٍ@@ 2186
ميون@@ 2184
واف 2184
81 2182
فيصل 2182
دن@@ 2180
فرت 2177
ابا 2176
نال 2174
اعل@@ 2170
اليه@@ 2170
61 2168
05 2167
79 2167
لاحات 2167
600 2166
فون@@ 2166
um 2165
مستقل 2163
جرائم 2160
وبل@@ 2159
القادر 2157
فال@@ 2157
73 2152
الإنس@@ 2152
وول@@ 2149
ليد 2148
ناول 2147
L4 2146
إِ@@ 2146
الس 2143
عاية 2142
معبد 2142
ينس 2141
82 2140
59 2138
t@@ 2137
الاق@@ 2136
يانا 2135
زيرة 2133
76 2129
68 2126
حجر 2125
احتم@@ 2122
متن 2121
دام@@ 2120
تبر 2118
98 2116
استقلال 2113
عنصر 2111
باغ@@ 2106
سى 2106
شت 2105
19@@ 2104
78 2104
74 2102
ابت 2101
اعدة 2101
علان 2101
p@@ 2100
باف@@ 2100
ينا@@ 2099
الغذ@@ 2097
بابا 2096
ورم 2094
شيخ 2093
إدو@@ 2092
فات@@ 2089
ليك 2087
ماج@@ 2087
69 2084
سانتا 2080
0,000 2078
1911 2075
واج 2074
جَ@@ 2073
حيد 2073
تدل 2071
سلي@@ 2071
طبقات 2071
° 2070
83 2069
حديث 2067
G 2064
1905 2062
k 2060
ئر 2059
افتتا@@ 2058
حفظ 2055
القل@@ 2052
تق 2052
خصوصا 2052
برا 2051
عضاء 2051
Z@@ 2049
اوا 2048
تور 2037
كال 2037
مجد@@ 2036
حان 2033
ذور 2033
مالا 2032
12.@@ 2030
َّا 2026
قاسم 2025
الكهرب@@ 2023
نخ@@ 2023
91 2022
معر@@ 2022
b@@ 2018
ضبط 2013
وور@@ 2013
متم@@ 2010
الدما@@ 2009
جعفر 2009
دعا 2009
دوس 2009
1909 2004
شب 2003
87 2002
ديش 2002
شمس 1999
تِ@@ 1995
ساس@@ 1995
ستا 1991
لفزي@@ 1991
نْ 1991
متف@@ 1990
عث@@ 1988
درا 1987
بْ@@ 1985
جذب 1984
ندوق 1984
الطي@@ 1983
قابل 1982
92 1976
ضائع 1976
o@@ 1975
مثلاً 1974
250 1973
a@@ 1973
اتب 1972
بام@@ 1970
المنظ@@ 1969
قرط@@ 1968
راج 1967
زن@@ 1967
ونس 1966
n@@ 1965
r 1965
الحاج 1965
بروس 1965
بران@@ 1964
اسم@@ 1961
طقة 1958
89 1956
94 1956
ارو 1955
حافظ@@ 1955
روية 1952
عامر 1950
al 1949
ذب 1948
الين@@ 1947
أوروب@@ 1945
N 1944
1906 1939
خطاب 1937
زاب@@ 1935
جامعات 1934
ولوج@@ 1934
بدل 1933
قاط 1932
اضط@@ 1930
George 1929
آلات 1929
800 1928
وطات 1928
وأص@@ 1927
سعو@@ 1924
دوب@@ 1923
حرف 1917
الوسط@@ 1916
الأوروب@@ 1913
حافظ 1909
المحي@@ 1906
حوا@@ 1905
الأستر@@ 1903
اجد 1902
راضي 1902
فال 1902
لُ@@ 1894
آب 1893
رْ@@ 1892
شان 1891
نْ@@ 1890
المباش@@ 1889
جناح 1889
لند@@ 1888
97 1887
نفس@@ 1887
04 1884
إسرائ@@ 1884
1907 1883
استن@@ 1882
01 1881
08 1881
ثار 1881
— 1880
حصار 1878
ia 1877
1900 1876
استغ@@ 1876
برى 1875
رول 1874
سوع 1874
منصور 1870
الفضل 1861
فريق@@ 1860
لعب@@ 1860
توف@@ 1858
رسائل 1852
مطلع 1852
متوا@@ 1851
x@@ 1850
i@@ 1848
تمعات 1848
وغير@@ 1846
Re@@ 1843
ton 1843
اختلاف 1843
مسا@@ 1842
1904 1840
194@@ 1840
صلات 1840
مطالب@@ 1835
02 1834
قصد 1833
03 1832
صرا@@ 1832
David 1830
m 1830
ed 1827
شق@@ 1827
لاست 1827
al@@ 1825
el 1819
اغو 1819
خروج 1818
َا 1816
ساس 1815
آخ@@ 1813
الوط@@ 1811
استط@@ 1810
09 1804
V 1801
موجود 1801
ماس 1799
موية 1798
http 1797
خرا@@ 1796
بلوم 1794
افت 1793
كًا 1793
لح 1791
11@@ 1790
id 1788
علي@@ 1788
دث@@ 1786
وقوع 1786
وعد@@ 1785
سمت 1782
لغت 1782
وَّ@@ 1782
26@@ 1780
جدول 1780
انون 1776
1,@@ 1775
اريو 1773
قطار 1773
داع 1772
نام 1771
وفد 1771
ربا 1769
g 1768
g@@ 1767
بز 1766
www.@@ 1761
تاجر 1761
to 1760
تنا 1760
07 1759
1- 1759
العسك@@ 1757
غور 1757
سمية 1755
جينيا 1753
عسك@@ 1753
\ 1752
1901 1750
تخت@@ 1750
Robert 1749
جاع 1748
قم 1747
واب@@ 1746
درست 1745
مسلم 1744
التأث@@ 1742
دنا 1740
الحار@@ 1739
عاب@@ 1735
120 1734
حذ@@ 1733
1903 1730
ادو 1730
ذاك 1728
آل@@ 1726
لدي@@ 1726
عادل 1725
رضا 1723
مؤرخ 1723
جنا@@ 1720
داود 1718
دِ@@ 1716
حنا 1712
شام@@ 1711
إسب@@ 1709
جال 1707
كتوراه 1707
‌ 1704
رومان@@ 1703
شور 1703
طرت 1702
دال 1699
مستقبل 1698
نجليزية 1695
درت 1692
28@@ 1691
di@@ 1689
شائع 1689
موئ@@ 1688
2- 1687
جغرا@@ 1687
سخ@@ 1687
1898 1684
3,@@ 1684
فاط@@ 1684
تناسب 1678
06 1676
1902 1676
man 1673
in@@ 1672
فوج@@ 1671
وعات 1670
مقالات 1669
روح@@ 1668
شَ@@ 1667
.com 1666
193@@ 1663
آنا 1663
سنت 1659
كولوم@@ 1659
يأ@@ 1656
وانات 1653
التاس@@ 1650
l@@ 1646
زائ@@ 1646
10.@@ 1645
حلة 1645
عمومًا 1644
تصور 1643
23@@ 1642
احتمال 1642
جواز 1641
محور 1641
الاحترا@@ 1640
قات@@ 1638
حيين 1637
ac@@ 1636
× 1635
ستير 1634
حن@@ 1632
m@@ 1630
امنة 1629
وطن 1627
انضمام 1625
طفال 1624
واس@@ 1624
شرط 1623
عْ@@ 1622
المرج@@ 1620
رص@@ 1619
ى@@ 1618
دراست@@ 1612
دراج 1610
لْ@@ 1608
دش@@ 1607
an@@ 1606
27@@ 1605
نيسة 1605
Al@@ 1602
700 1600
بشر 1599
براطور 1598
u 1596
NGC 1594
1890 1593
سوم@@ 1592
1899 1591
f@@ 1589
داد@@ 1589
50@@ 1588
et 1581
en 1578
² 1577
قسم@@ 1577
قصور 1572
29@@ 1569
دفن 1569
Q@@ 1567
الخصوص 1563
خون 1563
ائمة 1558
سوا@@ 1557
المناف@@ 1553
سكان@@ 1553
1896 1552
سرائ@@ 1552
Charles 1551
جوم 1551
الإلكترو@@ 1549
Mc@@ 1547
بمو@@ 1547
السف@@ 1545
بطال 1545
السلط@@ 1544
عشرين 1544
المكسي@@ 1543
مناس@@ 1543
نجليزي 1540
40@@ 1539
ar 1539
جام 1538
on@@ 1535
صَ@@ 1533
نب@@ 1532
جند@@ 1531
اعت 1530
موم 1530
استف@@ 1529
ph@@ 1525
1897 1524
بدر 1524
تلو@@ 1524
ازت 1523
بادل 1523
عالمي 1523
f 1518
عاب 1515
سلمان 1514
en@@ 1513
or 1513
معام@@ 1513
موجو@@ 1510
11.@@ 1507
حاصل 1507
Mar@@ 1505
الفلس@@ 1502
80@@ 1501
Thomas 1498
فلو@@ 1494
غيرة 1493
لينا 1493
ناة 1491
تات@@ 1490
ريقة 1487
افت@@ 1486
1895 1483
وامل 1483
الاز@@ 1482
عِ@@ 1480
قرون 1478
ابو 1477
نصب 1477
ref 1476
الإسب@@ 1475
توث@@ 1466
رجان 1465
1892 1464
انتظار 1462
طب@@ 1460
احترا@@ 1459
بياً 1458
رل 1458
شور@@ 1458
اتذ@@ 1457
الخار@@ 1457
حدى 1455
or@@ 1454
ربت 1454
توت@@ 1453
Ch@@ 1452
تار 1452
باز 1449
ar@@ 1448
بعد@@ 1448
حاض@@ 1444
بوج@@ 1441
· 1439
هيم 1438
الولا@@ 1435
انج 1435
h 1433
l 1433
تسلسل 1432
سوس@@ 1432
طارق 1432
k@@ 1429
r@@ 1429
احمد 1429
W 1428
الجمه@@ 1427
زيف 1427
سنان 1427
as 1421
j@@ 1421
لَّ@@ 1421
يشن 1421
3000 1420
K 1420
ine 1418
تجاو@@ 1418
ol@@ 1415
حرم 1412
تباد@@ 1409
1889 1407
انقلاب 1407
اوت 1406
لفظ 1406
المدار@@ 1405
مغربي 1404
حار@@ 1403
3- 1402
ائس 1402
ويورك 1402
باس 1401
اين 1400
35@@ 1397
عدل 1396
واس 1395
American 1393
سطنط@@ 1393
5000 1392
است 1392
متعل@@ 1391
1885 1389
ation 1389
نوان 1389
العرا@@ 1388
1894 1387
الو 1387
ائرة 1386
’ 1386
خوار@@ 1384
1891 1381
وْ@@ 1381
ائنات 1378
داية 1376
النمو@@ 1375
اظ@@ 1374
v@@ 1373
لفت@@ 1373
روفة 1372
اورة 1369
رز@@ 1368
قادر 1367
مكاف@@ 1367
1893 1366
الاجتماع@@ 1362
w@@ 1361
امر 1361
مناص@@ 1361
مقب@@ 1359
خصوصاً 1356
at 1353
1888 1352
طاني 1351
4,@@ 1349
C. 1349
U 1349
روابط 1349
سْ@@ 1346
1880 1344
سطة 1341
حسن@@ 1338
اون 1337
وء 1336
أمم 1332
1884 1331
ابتد@@ 1330
راس@@ 1330
قلت 1330
ie 1328
بريل 1328
كذا 1326
دوس@@ 1325
h@@ 1324
بطة 1324
امام 1322
ماب@@ 1320
اوت@@ 1319
192@@ 1318
ic@@ 1318
ريتش@@ 1315
om@@ 1312
اتح@@ 1312
مْ 1311
باط@@ 1310
انتداب 1307
انتظام 1307
جوان 1306
اقب 1305
دوران 1300
1886 1299
واب 1299
1870 1298
1887 1295
داس 1295
مروان 1292
1500 1290
actor 1290
راشد 1290
مدع@@ 1289
ناد 1285
1878 1282
جنوبي 1282
اعترا@@ 1280
عمران 1278
سلسل@@ 1277
5,@@ 1276
طبع@@ 1274
مقدم 1273
1882 1272
New 1272
la 1270
نِ@@ 1268
بنو 1267
نار 1267
لع 1266
طار@@ 1265
1881 1263
جرات 1263
العاب@@ 1261
سرد 1260
ماكن 1260
اجتم@@ 1259
ڭ@@ 1258
جريت 1257
يحي@@ 1256
بالغ 1253
غال@@ 1253
وسلم 1251
2,@@ 1250
An@@ 1249
وو 1249
داع@@ 1248
دوم 1247
التمي@@ 1244
صفر 1242
el@@ 1240
عبور 1238
صوب@@ 1237
مراد 1236
1.5 1235
سند 1233
اِ@@ 1232
خال@@ 1232
رد@@ 1232
E. 1231
القاسم 1231
فاع 1231
Ar@@ 1230
مراء 1230
Sh@@ 1227
ley 1224
1861 1223
نسب@@ 1222
ی@@ 1222
إحص@@ 1221
Car@@ 1219
رفت 1218
1883 1212
1876 1209
شق 1209
وارث 1207
W. 1206
محاص@@ 1205
قز@@ 1203
ربون 1202
Henry 1201
سِ@@ 1201
تاً 1199
خَ@@ 1196
ate 1192
محدود 1192
1860 1190
لمان 1190
تخلص 1189
الإسرائ@@ 1186
1871 1185
غت 1185
تمت@@ 1180
عيل 1177
er@@ 1175
اسا 1175
خام 1174
اُ@@ 1173
1879 1172
دبل@@ 1172
استع@@ 1169
مقدون@@ 1169
for 1165
جور 1164
60@@ 1162
حامل 1159
جلد 1157
بست@@ 1156
شعور 1156
34@@ 1153
الثة 1152
بحي@@ 1152
إبرا@@ 1151
le 1149
as@@ 1148
القدي@@ 1148
طبا@@ 1148
نَ 1147
# 1146
ad@@ 1145
فوائد 1145
Michael 1144
لائل 1144
مهورية 1143
Le@@ 1141
مام@@ 1141
ch@@ 1135
تبت 1135
قلال 1135
قوط 1135
جابر 1133
مرق@@ 1133
Richard 1132
ter 1129
خسر@@ 1128
علاء 1127
ضل 1126
روان 1125
عموما 1125
$ 1124
ot@@ 1124
أستر@@ 1124
الشمس@@ 1124
z@@ 1123
مناسب 1123
ساد@@ 1122
باغ 1121
180 1119
بب 1118
روت 1118
نر@@ 1118
In@@ 1115
نادر 1115
1867 1113
الأرجن@@ 1113
خبر 1112
6,@@ 1111
مسعود 1111
وتوفي@@ 1111
زو@@ 1108
منظور 1108
بائ@@ 1106
2.5 1105
جس 1105
الإسلا@@ 1101
33@@ 1095
واز 1095
am@@ 1093
عرب@@ 1092
مقام 1092
الديمقرا@@ 1090
1877 1089
L. 1089
شج@@ 1089
عذ@@ 1089
Con@@ 1088
العالم@@ 1085
نفا@@ 1085
am 1084
Paul 1083
اختلا@@ 1083
جلال 1083
1873 1082
شامل 1081
تام 1080
محسن 1079
جال@@ 1078
قاتل 1078
تخب 1077
1848 1076
آباد 1076
اعر 1076
لص 1076
Bar@@ 1075
شاط 1075
معز@@ 1073
14.@@ 1071
900 1071
et@@ 1070
فرق@@ 1070
ana 1066
os@@ 1066
th@@ 1066
37@@ 1061
جبر 1060
روش 1060
160 1059
1875 1058
صدا@@ 1058
1866 1057
1865 1056
قبر 1055
1864 1053
طور@@ 1053
190@@ 1052
روش@@ 1051
1868 1050
قمر 1050
7,@@ 1049
ae 1049
إمكان@@ 1049
130 1048
صفحات 1048
فراز 1048
حمز@@ 1046
صادق 1046
110 1042
Smith 1042
بغي 1042
نشطة 1041
ic 1040
الاقتص@@ 1040
نوم@@ 1038
اوم@@ 1037
football 1036
شوا@@ 1036
شيك@@ 1036
خفض@@ 1035
مشر@@ 1034
Y 1031
توازن 1030
is@@ 1029
جلا@@ 1029
4- 1027
لمد@@ 1026
1872 1025
Br@@ 1025
عمار@@ 1022
1869 1020
مسئ@@ 1020
Co@@ 1019
قبرص 1019
والسك@@ 1018
جاس@@ 1017
نازل 1017
وِ@@ 1017
لفظ@@ 1014
رقص 1013
شخ@@ 1013
خوف 1012
قس@@ 1012
u@@ 1011
رجب 1008
1874 1007
ers 1007
اتم 1006
استقبال 1006
تال@@ 1006
روبن 1005
الث 1004
جزائر 1003
زونا 1001
وفان 1001
S. 1000
id@@ 1000
لار 1000
AS@@ 998
خدمت 992
توزي@@ 991
سد@@ 991
اصة 990
قائم 990
IS@@ 988
احترام 988
z 987
at@@ 986
خول 985
بيرة 984
جوع 984
مرا 984
خور@@ 983
لترا 983
re@@ 979
بابل 976
وجا 974
1863 973
عبر@@ 973
ab@@ 971
124@@ 969
R. 969
لازمة 969
اين@@ 967
II 964
it@@ 963
8,@@ 960
بنا 958
شل@@ 957
تجرب@@ 956
الزب@@ 955
قسطنط@@ 955
برس 954
شمالي 954
مقر@@ 953
B. 952
1857 951
os 947
داعش 947
38@@ 943
90@@ 943
جسم@@ 943
الإغ@@ 941
ey 940
oc@@ 940
برو 940
خيرة 939
1850 934
AC@@ 932
انخ@@ 932
مَا 932
le@@ 931
مقت@@ 931
1862 928
فوج 928
350 927
الإيط@@ 927
تكن@@ 927
co@@ 925
125 924
^ 923
بروز 922
es@@ 921
قطب 921
حيدة 920
عرو@@ 920
مطبو@@ 917
Cor@@ 915
Th@@ 915
ختم 915
كتورا@@ 915
1859 914
9,@@ 912
22@@ 911
حدات 910
D. 909
رن@@ 905
140 904
series 904
י@@ 904
CD@@ 903
ur@@ 900
De@@ 898
ag@@ 896
جلو@@ 896
موضوعات 896
der 895
ne 894
وَ 894
CO@@ 893
يرلندا 893
Di@@ 892
ul@@ 892
تجات 892
ورس 892
كى 891
حصر 890
عَلَ@@ 890
فوق@@ 889
خوف@@ 888
اختلافات 887
,000 885
مسائل 883
شنا@@ 882
طرابات 882
قبض@@ 881
لبر@@ 880
4000 878
ent 878
دستان 877
بورو 875
Joseph 874
Edward 872
مشق 872
نم 872
ti@@ 871
حفا@@ 871
ed@@ 869
1856 866
70@@ 866
خادم 865
? 863
Mor@@ 860
واع 859
رخص@@ 858
36@@ 857
st@@ 853
سنا 853
خات@@ 852
1849 850
39@@ 850
Australian 850
باز@@ 849
دِ 847
مساجد 844
مثال@@ 842
ter@@ 841
1840 839
افظ@@ 835
سوت@@ 835
2022 834
lo@@ 832
Frank 831
ــــ@@ 830
1854 829
مجر@@ 829
ورز 828
1830 827
1858 826
name 826
ina 825
Peter 822
by 821
زلز@@ 821
im@@ 820
po@@ 820
ورش 818
ضاب@@ 817
100@@ 814
محافظ 813
Col@@ 812
قرار@@ 811
مباب@@ 811
45@@ 809
CA@@ 807
Z 807
101 803
tr@@ 803
ler 802
الداخ@@ 802
1800 801
حاء 798
ناظ@@ 797
tri@@ 795
فخر 794
مخالف@@ 793
one 792
AD@@ 791
AR@@ 790
ap@@ 790
امر@@ 789
فتو@@ 786
مثيل 786
da 785
حلف 785
قرب@@ 785
450 783
قرض 783
ell 781
موسوم 781
li@@ 780
te 780
پ@@ 780
250@@ 779
اللَّ@@ 779
طانيا 779
ale 778
ro@@ 778
ممل@@ 778
em@@ 777
افس@@ 777
كنساس 777
sen 776
AM@@ 774
Tr@@ 774
طبع 774
محم@@ 773
الجنوب@@ 771
اوب@@ 771
حامد 770
قبر@@ 770
188@@ 769
حوال@@ 767
الأولمب@@ 765
ata 764
ob@@ 764
ו@@ 764
نبو@@ 764
15.@@ 763
مصنف@@ 760
El@@ 759
فاص@@ 759
وليكية 759
Se@@ 757
صلح 756
اَ@@ 755
زمان 755
St@@ 754
it 754
سطس 752
ea 751
ch 750
189@@ 748
عضو@@ 748
AT@@ 745
120@@ 743
Brown 741
1851 740
360 739
صلاح@@ 739
درس@@ 738
آن@@ 737
زور 736
غط 734
Cl@@ 733
J 733
1853 732
ئل 732
170 731
ev@@ 731
اتنا 731
ner 729
− 729
1200 728
Ro@@ 728
عنو@@ 728
كيلي@@ 728
0.000 726
3.5 726
op@@ 724
مخلو@@ 723
خطر@@ 722
دلال 722
65@@ 721
خاطر 721
Cr@@ 720
ensis 720
5,000 719
Martin 718
16.@@ 717
أعل@@ 717
1847 716
وفات 716
1835 715
حوص@@ 715
فط@@ 715
10000 714
المتعل@@ 714
1839 713
بحت 713
1852 712
1837 710
جواب 710
Scott 708
ec@@ 707
1845 706
SO@@ 706
ائر@@ 706
1832 705
IC@@ 705
w 705
1855 704
ؤلاء 703
كاون@@ 703
il@@ 702
لاسي@@ 702
ا- 701
SS 700
Er@@ 699
ir@@ 699
105 698
AC 698
راش@@ 698
اطق 697
مدد 696
Lee 693
17.@@ 692
55@@ 692
Bur@@ 692
آ 691
1820 690
codice 690
موال@@ 689
1844 688
راست@@ 688
187@@ 686
46@@ 686
طالبان 686
اطب 685
1834 684
Mark 683
جرم 683
1846 682
مرح@@ 682
ST@@ 681
G. 680
Par@@ 680
آش@@ 680
baseball 679
Q 678
Qu@@ 678
اشا 677
سود 677
Pr@@ 676
idae 676
Tom 675
ov@@ 675
1843 674
184@@ 674
Joe 674
ick 674
اتِ 674
فاض@@ 674
مسو@@ 674
1815 671
Bill 671
فاروق 671
تِ 669
ah 668
بِ 668
عزم 668
ma 667
ica 666
23.@@ 665
Per@@ 665
se 664
قار 664
Be@@ 661
واخر 661
حتم@@ 660
ظلم 660
نقش 659
1.2 657
ist 657
ab 656
Jack 655
ri@@ 655
ta 655
bi@@ 654
اسلا@@ 654
10,000 653
1838 653
عموماً 653
Alexander 652
La 652
Lo@@ 652
چ@@ 652
un@@ 651
مِ 651
1842 650
AL@@ 650
Daniel 650
ولس 650
اومة 649
نسل@@ 649
1812 648
اوس@@ 648
منظم 648
زد 647
AN@@ 646
ad 646
آز@@ 645
صوف@@ 645
1836 644
ni@@ 644
انص@@ 644
انتظ@@ 643
مقص@@ 643
مشغ@@ 642
2500 641
محفو@@ 639
ice 638
48@@ 636
1821 635
Ad@@ 635
eb@@ 634
‘ 634
115@@ 633
ella 633
فس 633
1841 632
Williams 631
ترجم@@ 631
علما 631
البرل@@ 630
لازم 630
47@@ 628
Na@@ 628
رسومات 628
ER@@ 626
0,@@ 624
Am@@ 624
ard 624
per 624
شاف@@ 624
لِ 623
ملا 623
75@@ 622
حضرات 622
نامج 622
ماجد 621
186@@ 618
se@@ 618
مولا 618
1833 617
اصمة 617
220 616
Jim 616
https 616
to@@ 616
نعت 616
25.@@ 614
جج 614
عوض 614
19.@@ 612
He@@ 612
اعتراض 612
لتا 612
CH@@ 611
20.@@ 609
SP@@ 608
th 608
خراسان 608
1831 607
TV 607
24.@@ 606
IM@@ 606
ay 606
وسف 606
na 605
135 603
ens 603
سفر@@ 603
Bob 602
us@@ 602
ly 601
محرم 601
José 599
Johnson 598
ناك 598
Ac@@ 597
18.@@ 596
Mo@@ 596
غالب 596
لور 596
128 595
Gr@@ 595
age 595
بالتر@@ 594
بندر 594
قيمت 594
49@@ 593
Bo@@ 593
240 592
Mike 592
ity 592
فائز 592
32@@ 590
Com@@ 590
تائج 590
100,000 589
22.@@ 589
Jones 588
Str@@ 588
ک@@ 588
de@@ 587
نسن 587
68@@ 586
Arthur 586
od@@ 586
Cal@@ 585
og@@ 585
21.@@ 584
6000 584
des 584
26.@@ 583
27.@@ 583
نِ 583
SA 582
sh@@ 582
102 581
Canadian 580
University 580
Mon@@ 579
حضرت 578
وسعت 577
Chris 576
Ex@@ 576
حروف 576
Walter 575
ra 575
بمب@@ 575
Mac@@ 573
SA@@ 573
av@@ 573
اغوا 573
ترال 572
نوح 572
وجام@@ 572
117@@ 571
1810 570
انسان 570
57@@ 568
ans 568
1826 567
1814 566
شم@@ 566
MA 565
ve 565
شم 565
67@@ 564
Sch@@ 564
ابرا@@ 564
2.0 563
نسخ@@ 563
نقاد 563
RA@@ 562
شروع 562
… 562
si@@ 560
دماغ 560
زبر@@ 560
وانين 560
گ@@ 560
1825 559
ir 559
53@@ 558
DNA 558
ak@@ 558
ence 558
750 557
ay@@ 556
اتر 555
ol 554
118@@ 553
مقبول 553
0.5 552
Taylor 552
be 552
محق@@ 552
4.5 551
ty 551
آغا 551
قدرت 551
104 550
خوذ 550
ملازم 550
نعم@@ 550
صنعت 548
320 547
Wil@@ 547
World 547
103 545
109 545
For@@ 545
28.@@ 544
ai 544
زمان@@ 544
56@@ 543
بند 543
yl@@ 542
1829 541
As@@ 541
ant 541
تناز@@ 541
ES@@ 539
az@@ 539
q@@ 539
Andrew 538
وإدار@@ 537
basketball 536
ig@@ 536
il 536
اندر 536
1828 535
1824 534
99@@ 534
are 534
115 533
Ph@@ 533
صنع@@ 530
44@@ 529
66@@ 529
AP@@ 529
MS 529
غرض 529
190 528
SE@@ 528
White 528
114@@ 527
COVID 527
امور 527
1600 526
107 525
قح@@ 524
قرآن 524
Wilson 523
ضلع 522
مشي 522
Li@@ 521
ci@@ 520
with 520
210 519
Ne@@ 519
111 518
1819 518
Gar@@ 518
all 518
امان 517
روان@@ 517
1822 516
ارتق@@ 516
اطلاع 515
OS 514
US@@ 514
no@@ 514
Francis 512
ance 512
مصط@@ 512
Or@@ 511
فرانس 511
1.3 510
58@@ 510
نسل 509
113@@ 508
qu@@ 508
mo@@ 507
جوش 507
اطلا@@ 506
106 505
108 505
7.5 505
Steve 505
ase 505
المطلب 505
أنفس@@ 503
1.6 502
بتا@@ 502
حقائق 502
سرو@@ 502
محمد@@ 502
→ 502
Fl@@ 501
Ger@@ 500
Sp@@ 500
les 500
Donald 499
Samuel 499
ep@@ 499
ker 499
PA 498
شفى 498
1808 497
230 497
ah@@ 497
ford 497
vi@@ 496
1806 495
un 495
~ 495
116@@ 494
RNA 494
WWE 494
Allen 493
رِ 493
En@@ 492
افراد 492
قوان@@ 492
cher 491
الملك@@ 491
نظر@@ 491
1827 490
ing@@ 489
section 489
der@@ 488
ya 488
AB@@ 487
ce 487
ik@@ 487
land 487
AS 485
Davis 485
ou@@ 484
ظفر 484
1.1 483
1804 482
ology 482
30.@@ 481
5.5 481
التجار@@ 481
مختار 481
والا 481
1789 480
29.@@ 480
Albert 480
III 480
do@@ 480
era 480
إلغ@@ 480
بخار@@ 480
ائيل 479
Ab@@ 478
ke 478
und 478
بولا 478
78@@ 477
IN@@ 477
131 476
1818 476
ak 475
di 475
par@@ 475
ھ@@ 475
175 474
0.1 473
Man@@ 472
ts 472
1.4 471
119@@ 471
CD 471
CS@@ 470
استاد 470
بالا 470
UN@@ 469
Al 468
ary 467
com@@ 467
185@@ 466
Lewis 466
سفار@@ 466
330 465
eg@@ 465
ممتاز 465
1823 464
Don 464
br@@ 464
oph@@ 464
طلح 464
قاف@@ 464
270 463
א@@ 463
فاضل 463
1813 462
59@@ 462
‍ 462
ver@@ 461
امتحان 461
لمب@@ 461
54@@ 460
day 460
الجب@@ 460
121 459
88@@ 459
ism 459
j 459
ous 459
شمول@@ 459
ano 458
مناظ@@ 458
Hol@@ 457
International 457
افرا@@ 457
1300 456
Gu@@ 456
Harry 456
Ma@@ 456
Miller 456
Stephen 456
per@@ 456
um@@ 456
المشتر@@ 456
1790 455
Sal@@ 455
ר@@ 455
1809 454
My@@ 454
ator 454
be@@ 454
hockey 454
القان@@ 454
جلوس 454
مرو 454
٬ 454
1,000 453
43@@ 453
اجن@@ 453
عقل 453
11,@@ 452
Ros@@ 452
محفوظ 452
st 451
مطلق 451
MP@@ 450
PS 450
ot 450
1811 449
Ap@@ 448
Ray 448
Anderson 447
عزت 447
Ver@@ 446
1798 445
2,000 445
Har@@ 445
1700 444
1816 444
550 444
74@@ 444
ارد@@ 444
اوق@@ 444
مبر 444
132 443
King 443
رابط@@ 443
قاس@@ 443
7000 442
زند@@ 442
ستم 442
منتق@@ 442
مغرب 441
69@@ 440
حج 440
112 439
1807 439
280 439
Brian 439
Fre@@ 439
أيض@@ 439
صاف 439
عارف 439
نما 439
1.8 438
from 438
123 437
Fred 437
ex@@ 437
عس@@ 437
كريك@@ 437
† 437
145 435
95@@ 434
α 434
1801 433
ە@@ 433
اسما@@ 432
Howard 431
Me@@ 431
ati@@ 431
122 429
8000 429
ATP 429
Nor@@ 429
PC@@ 429
ara 429
ber@@ 429
113 428
63@@ 428
98@@ 428
IP 428
Young 428
117 427
1776 427
1792 427
20,000 427
Ag@@ 427
re 427
260 426
ut@@ 426
اضاف@@ 426
تدار 426
1400 425
Alan 425
af@@ 425
AT 424
Her@@ 424
q 424
اجز@@ 424
Hall 423
So@@ 423
جماع@@ 422
36.@@ 421
do 421
ent@@ 421
CC@@ 420
NO@@ 420
musician 420
33.@@ 419
מ@@ 419
اثنا 419
عائد 419
مسلح 419
A. 418
1,0@@ 417
1799 417
1817 417
2.2 417
CT@@ 417
Mer@@ 417
SM 417
end 417
ins 417
قلم 417
AP 416
Frederick 416
RE@@ 416
pl@@ 416
Clark 415
Mat@@ 415
ite 415
onlyinclude 415
فورا 415
شاد 414
فوت 414
نزول 414
Gordon 413
mar@@ 413
mon@@ 413
10,@@ 412
116 412
Des@@ 412
راجا 412
Wal@@ 411
ack 411
actress 410
ant@@ 410
21@@ 409
77@@ 409
text 409
Pro@@ 408
bo@@ 408
ge 408
خدا@@ 408
صوم@@ 408
64@@ 407
sa 407
مسافر 407
2030 406
York 406
ada 406
فاتح 406
مشرف 406
ممالك 406
124 405
34.@@ 405
PC 405
ma@@ 405
car@@ 404
tic 404
ys@@ 404
CI@@ 403
Ge@@ 403
Jackson 403
ti 403
طاق 403
مانا 403
British 402
CP@@ 402
Rec@@ 402
1795 401
1803 401
Ber@@ 401
Reg@@ 401
eman 400
114 399
om 399
مخد@@ 399
1783 398
SS@@ 398
ps 398
رحم@@ 398
155 395
180@@ 395
K. 395
127 394
Kevin 394
ne@@ 394
1.7 393
CA 393
den 392
ics 392
RO@@ 391
You 391
ell@@ 391
ical 391
144 390
We@@ 390
im 390
ی 390
13,@@ 389
Ste@@ 389
TE@@ 389
126 388
1805 388
79@@ 388
Carlos 388
زبان 388
650 387
1793 386
340 386
J. 386
ach@@ 386
sp@@ 386
CE@@ 385
DE@@ 385
Patrick 384
Te@@ 384
con@@ 384
مدت 384
Jean 383
National 383
بود 383
か@@ 383
Green 382
Ir@@ 382
OH 382
Ryan 382
Thompson 382
احتجاج 382
Go@@ 381
class 381
دأ 381
صدار@@ 381
MI@@ 380
Walker 380
2.4 379
NH@@ 379
Po@@ 379
Wi@@ 379
field 379
tion 379
مارا 379
Arch@@ 378
able 378
vin 378
مشيخة 378
مناظر 378
6.5 377
Hor@@ 377
نجات 377
76@@ 376
Bruce 376
English 376
IP@@ 376
ome 376
زخ@@ 376
1780 375
35.@@ 375
Eric 375
pr@@ 375
129 374
Bi@@ 373
ira 373
ym@@ 373
زائد 373
85@@ 372
In 372
Mal@@ 372
gr@@ 372
133 371
a.@@ 371
IS 370
Pol@@ 370
kins 370
ذوق 370
كيرو@@ 370
.org 369
ב@@ 369
152 368
Alfred 368
معاملات 368
منفرد 368
12,@@ 367
1788 367
Mel@@ 367
Moore 367
Robinson 367
ath@@ 367
ino 367
ka 367
ns 367
136 366
Black 365
ME@@ 365
berg 365
138 364
Dan 364
IV 364
ates 364
ory 364
ov 364
امتح@@ 364
1775 363
1791 363
IC 363
Roy 363
225 362
AA 362
Im@@ 362
html 362
te@@ 362
نقص@@ 362
Juan 361
pi@@ 361
ini 360
اورا@@ 360
86@@ 359
Sim@@ 359
man@@ 359
منظر 359
1100 358
1802 358
انعقاد 358
حاضر 358
عطا 358
حجاج 357
134 356
AI@@ 356
au 356
ca 356
hi@@ 356
s.@@ 356
اعداد 356
منسوب 356
H2O 355
Love 355
جنت 355
Bro@@ 354
Hill 354
Kr@@ 354
dy 354
kh@@ 354
الأحي@@ 354
1784 353
CC 353
eh@@ 353
LE@@ 352
net 352
رسن 352
لال@@ 352
-- 351
1.0 351
300@@ 351
Mar 351
صورت 351
نن 351
201 350
Dis@@ 350
Zone 350
ks 350
اعمال 350
118 349
119 349
Du@@ 349
Gary 349
Pat@@ 349
atus 349
box@@ 349
برز@@ 349
معاش@@ 349
3,000 348
Harris 348
ade 348
su@@ 348
1796 347
io 347
me@@ 347
za 347
ميخ@@ 347
38.@@ 346
39.@@ 346
O2 346
est 346
89@@ 345
Billy 345
ess 345
án 345
نيوزي@@ 345
130@@ 344
Wright 344
yr@@ 344
الرحمان 344
AN 343
At@@ 343
he@@ 343
str@@ 343
ה@@ 343
14,@@ 342
1797 342
Dave 342
e.@@ 342
اخذ 342
154 341
Campbell 341
Russell 341
go@@ 341
style 341
tis 341
ל@@ 341
تلامذ@@ 341
380 340
De 340
سرب@@ 340
1794 339
Tony 339
yn@@ 339
حالي@@ 339
سوان@@ 339
tive 338
فرز@@ 338
معص@@ 338
2.3 337
235 337
Hy@@ 337
Louis 337
Sand@@ 337
ida 337
so@@ 337
184 336
Ross 336
لاش 336
Cas@@ 335
Inter@@ 335
Fe@@ 334
Ser@@ 334
ita 334
ong 334
ons 334
تلا 334
ومت 334
146 333
Sol@@ 333
MP 332
PE@@ 332
ang@@ 332
em 332
سالم@@ 332
Lawrence 331
32.@@ 330
Charlie 330
EC@@ 330
Far@@ 330
ho@@ 330
مائل 330
Fr@@ 329
dr@@ 329
end@@ 328
ise 328
oma 328
فرعون 328
Alex 327
Ian 327
School 327
Su@@ 327
ib@@ 327
ure 327
تاث@@ 327
ناز 327
142 326
143 326
1787 326
8.5 326
96@@ 326
97@@ 326
BS 326
ora 326
000@@ 325
Sam 325
model 325
á@@ 325
001 324
Benjamin 324
Luis 324
ok@@ 324
سوار 324
137 323
202 323
211 323
Baker 323
Herbert 323
Sa@@ 323
ings 323
مرشد 323
0.2 322
165 322
Un@@ 322
161 321
185 321
87@@ 321
Boy@@ 321
ire 321
ساؤ@@ 321
193 320
37.@@ 320
TS 320
ari@@ 320
ene 320
mann 320
tor 320
اولاد 320
206 319
CN@@ 319
Dr@@ 319
gen@@ 319
no 319
tic@@ 319
مختصر 319
153 318
205 318
30,000 318
850 318
Douglas 318
HD 318
unc@@ 318
رور@@ 318
157 317
1763 317
179@@ 317
Craig 317
Ed 317
Jo@@ 317
Kar@@ 317
Pe@@ 317
Stewart 317
بلح@@ 317
فرار 317
148 316
1785 316
FI@@ 316
NE@@ 316
Rob@@ 316
public 316
yl 316
● 316
168 315
Group 315
Hay@@ 315
50,000 314
Bell 314
Mas@@ 314
als 314
ש@@ 314
16,@@ 313
Andy 313
Carl 313
Graham 313
Tim 313
ated 313
كترو@@ 313
171 312
Ly@@ 312
ass@@ 312
ney 312
β 312
اصطلاح 312
151 311
BC 311
شراب 311
عثمان@@ 311
1.9 310
17,@@ 310
Le 310
Shar@@ 310
dis@@ 310
format 310
ge@@ 310
May 309
رحم 309
مخلوق 309
176 308
Lu@@ 308
Marshall 308
To@@ 308
tu@@ 308
é 308
1786 307
3500 307
49.@@ 307
Can@@ 307
Es@@ 307
Kelly 307
LC 307
ane 307
ian 307
تحفظ 307
139 306
CP 306
CR@@ 306
Evans 306
Val@@ 306
ang 306
co 306
زوال 306
سارا 306
0.3 305
181 305
ith 305
ā@@ 305
84@@ 304
Cy@@ 304
RI@@ 304
ald 304
خاتون 304
AM 303
DA 303
Simon 303
Anthony 302
RS 302
147 301
1781 301
Zealand 301
تأس@@ 301
تورا@@ 301
166 300
256 300
PO@@ 300
Roger 300
align 300
over@@ 300
1770 299
MS@@ 299
ani 299
mer 299
pp@@ 299
انِ 299
ثلا@@ 299
--@@ 298
1774 298
col@@ 298
ys 298
167 297
195 297
Christopher 297
LA 297
ations 297
del 297
lin@@ 297
ock 297
ry 297
wood 297
شرائط 297
156 296
2.6 296
48.@@ 296
94@@ 296
IT@@ 296
gi@@ 296
sch@@ 296
von 296
192 295
199 294
Cer@@ 294
P. 294
Sc@@ 294
ile 294
غزل 294
0.4 293
158 293
2.1 293
9000 293
Jason 293
Ri@@ 293
au@@ 293
ff@@ 293
vol@@ 293
إ 293
173 292
Larry 292
Mag@@ 292
Mil@@ 292
Adams 291
and@@ 291
du 291
النو@@ 291
سرور 291
212 290
310 290
Do@@ 290
ISO 290
Ken 290
Manuel 290
My 290
cr@@ 290
ist@@ 290
فرانسي@@ 290
169 289
208 289
film 289
ura 289
well 289
مند 289
١@@ 289
163 288
Adam 288
BA 288
PS@@ 288
our 288
sc@@ 288
آم@@ 288
141 287
2.7 287
20,@@ 287
4,000 287
DS 287
How@@ 287
ann@@ 287
ま@@ 287
1,4@@ 286
15,@@ 286
204 286
737 286
Hugh 286
Jimmy 286
if@@ 286
ion 286
DF 285
TO@@ 285
159 284
Ca@@ 284
217 283
Gal@@ 283
Norman 283
Vi@@ 283
ama 283
ow@@ 283
rey 283
い@@ 283
186 282
365 282
420 282
Morgan 282
3.2 281
Ron 281
sh 281
win 281
290 280
Jonathan 280
Mitchell 280
Willi@@ 280
sson 280
time 280
جلا 280
Conn@@ 279
Is@@ 279
Jeff 279
ight 279
sw@@ 279
لباس 279
215 278
DO@@ 278
Dennis 278
ER 278
ain 278
ens@@ 278
Kir@@ 277
Nelson 277
ole 277
tor@@ 277
بلن 277
2.8 276
Antonio 276
Christian 276
Tak@@ 276
osa 276
ur 276
נ@@ 276
غلام 276
1750 275
Keith 275
M. 275
type 275
نوج@@ 275
209 274
301 274
Ru@@ 274
cor@@ 274
ies 274
اعلان 274
194 273
216 273
West 273
ensen 273
pe@@ 273
value 273
vo@@ 273
الشعب@@ 273
مثبت 273
172 272
Hal@@ 272
Hir@@ 272
Murray 272
background 272
177 271
ABC 271
alis 271
si 271
مقدس 271
196 270
ISBN 270
Ward 270
ha 270
し@@ 270
179 269
Bor@@ 269
FA 269
RA 269
Terry 269
ek@@ 269
ger 269
ko 269
سی@@ 269
ضرو@@ 269
191 268
200,000 268
203 268
207 268
Ben 268
FC 268
New@@ 268
Os@@ 268
TP 268
bl@@ 268
inter@@ 268
tin 268
000,000 267
Bel@@ 267
Matt 267
TNA 267
hy@@ 267
ro 267
اصد 267
た@@ 267
1777 266
1779 266
AR 266
iz@@ 266
lu@@ 266
ru@@ 266
tes 266
ue 266
± 266
بازار 266
さ@@ 266
Dick 265
Miguel 265
ala 265
row 265
تمبر 265
164 264
480 264
Ed@@ 264
El 264
Min@@ 264
Morris 264
Pl@@ 264
ess@@ 264
ver 264
3.3 263
500@@ 263
8,000 263
Lind@@ 263
London 263
Vol@@ 263
ette 263
int 263
mi@@ 263
ser@@ 263
آغ@@ 263
ماؤ@@ 263
178 262
SH@@ 262
ez 262
mer@@ 262
23,@@ 261
Hamilton 261
Tim@@ 261
كش 261
ill@@ 260
ta@@ 260
انقلا@@ 260
1772 259
182 259
183 259
One 259
SD@@ 259
ales 259
chi@@ 259
fr@@ 259
up@@ 259
149 258
19,@@ 258
221 258
370 258
DC 258
Fin@@ 258
Stanley 258
Turner 258
ach 258
aw@@ 258
ment 258
und@@ 258
1778 257
222 257
228 257
232 257
787 257
AD 257
عشق 257
0.8 256
275 256
Bas@@ 256
Day 256
South 256
مضمون 256
0.6 255
162 255
3.1 255
4.2 255
47.@@ 255
Edwards 255
Hu@@ 255
II@@ 255
aceae 255
begin 255
ents 255
new 255
oke 255
ra@@ 255
ve@@ 255
٢@@ 255
Tre@@ 254
contributor 254
timestamp 254
خوا 254
علی 254
174 253
soccer 253
username 253
اديمية 253
田@@ 253
0.7 252
BM@@ 252
CM@@ 252
ore 252
طرز 252
1782 251
18,@@ 251
243 251
Bre@@ 251
Hel@@ 251
Ho@@ 251
IEEE 251
IF@@ 251
Ig@@ 251
Warren 251
fo@@ 251
ison 251
tro@@ 251
درد 251
طروا@@ 251
189 250
198 250
Griff@@ 250
IBM 250
Prot@@ 250
STS 250
Si@@ 250
ac 250
ele 250
me 250
pe 250
188 249
281 249
400@@ 249
Pi@@ 249
Tommy 249
comment 249
enti@@ 249
ett 249
lis 249
ה 249
اندا@@ 249
218 248
238 248
HTML 248
ick@@ 248
آند@@ 248
1,5@@ 247
110@@ 247
Bobby 247
Me 247
Ralph 247
SI@@ 247
Wor@@ 247
ki 247
آس@@ 247
حالت 247
187 246
AF 246
Black@@ 246
Lin@@ 246
US 246
ement 246
ili@@ 246
متعلق 246
AB 245
AE@@ 245
Francisco 245
Man 245
اقت 245
المرتب@@ 245
سراج 245
فوراً 245
213 244
Jac@@ 244
Red 244
Sur@@ 244
VA 244
Cook 243
Raymond 243
we 243
متبادل 243
Bu@@ 242
Lar@@ 242
SC 242
SN 242
United 242
aj@@ 242
du@@ 242
ium 242
ston 242
الشرق@@ 242
224 241
Em@@ 241
Matthew 241
die 241
mond 241
uc@@ 241
was 241
تصوف 241
توان@@ 241
1769 240
H2@@ 240
IE@@ 240
Journal 240
NS@@ 240
Park 240
TE 240
ao 240
ish@@ 240
A.@@ 239
Cam@@ 239
Mah@@ 239
Mr 239
ash@@ 239
ena 239
ott 239
van 239
ئن 239
الن 239
جانا 239
214 238
46.@@ 238
6,000 238
All 238
As 238
Dou@@ 238
Hum@@ 238
Jordan 238
Ol@@ 238
Ram@@ 238
San@@ 238
Trans@@ 238
org 238
sol@@ 238
223 237
Johnny 237
Max 237
est@@ 237
thi@@ 237
AL 236
GA 236
ML@@ 236
Mol@@ 236
No@@ 236
Roberts 236
ai@@ 236
ative 236
ly@@ 236
ola 236
out 236
ung 236
500,000 235
Gen@@ 235
Ham@@ 235
Les 235
Mur@@ 235
NA 235
cu@@ 235
توضي@@ 235
,@@ 234
242 234
27,@@ 234
40,000 234
Bennett 234
Cl 234
Oliver 234
if 234
iro 234
la@@ 234
oto 234
rett 234
رنز 234
وسر 234
Bernard 233
Carter 233
EC 233
ff 233
ja 233
nes 233
حرام 233
197 232
Ba@@ 232
que 232
دفتر 232
.000 231
IL 231
aria 231
aths 231
مزار 231
262 230
Ash@@ 230
Ben@@ 230
John@@ 230
ler@@ 230
ning 230
1765 229
255 229
Eddie 229
Ful@@ 229
cin@@ 229
lan@@ 229
sk@@ 229
we@@ 229
や@@ 229
21,@@ 228
26,@@ 228
460 228
IO@@ 228
Maria 228
Pre@@ 228
immer 228
التار@@ 228
باقر 228
رجوع 228
Donn@@ 227
Leonard 227
Murphy 227
kinson 227
ord@@ 227
ors 227
ten@@ 227
tra 227
ڨ@@ 227
ひ@@ 227
100.000 226
22,@@ 226
3D 226
Bl@@ 226
ek 226
اصول 226
ٱ@@ 226
241 225
Cooper 225
Dar@@ 225
Elli@@ 225
Gard@@ 225
Parker 225
Wallace 225
Wood 225
ori@@ 225
ō 225
ھا 225
CO 224
Chap@@ 224
Ernest 224
Franklin 224
GP@@ 224
Haw@@ 224
Price 224
ace 224
ters 224
ן 224
سماعيل 224
き 224
245 223
251 223
284 223
325 223
Lam@@ 223
Tom@@ 223
Tri@@ 223
dia 223
£ 223
ד@@ 223
تشدد 223
1768 222
239 222
24,@@ 222
99.@@ 222
Dean 222
MC 222
colspan 222
lin 222
اهز 222
فرائ@@ 222
226 221
Gray 221
IG@@ 221
Web@@ 221
ani@@ 221
bu@@ 221
ington 221
pro@@ 221
ran@@ 221
that 221
ting 221
way 221
احت 221
् 221
し 221
1,6@@ 220
264 220
440 220
Brand@@ 220
Cameron 220
Ni@@ 220
elle 220
مقرر 220
1,8@@ 219
Barry 219
Gi@@ 219
HA 219
Han@@ 219
Jerry 219
MO@@ 219
Op@@ 219
Sar@@ 219
ber 219
ect 219
li 219
singer 219
ע@@ 219
اخبار 219
ناظم 219
257 218
All@@ 218
BO@@ 218
Ker@@ 218
Mary 218
Philip 218
Res@@ 218
ez@@ 218
oth 218
son@@ 218
width 218
yc@@ 218
دبا@@ 218
1760 217
252 217
Con 217
DP 217
Jer@@ 217
Life 217
RT@@ 217
Ul@@ 217
all@@ 217
ari 217
yn 217
اخلا@@ 217
ڤ 217
430 216
Fox 216
Grant 216
Jay 216
McDonald 216
Men@@ 216
SN@@ 216
ath 216
of@@ 216
خلفاء 216
150@@ 215
1773 215
410 215
Award 215
Little 215
Music 215
Neil 215
System 215
TV@@ 215
Wayne 215
ii 215
lar@@ 215
wiki 215
شنطن 215
می@@ 215
وی@@ 215
227 214
285 214
313 214
375 214
CN 214
CS 214
Co 214
Kenneth 214
eb 214
دی@@ 214
A1 213
Ak@@ 213
Foster 213
Laur@@ 213
Micro@@ 213
NET 213
Nick 213
SI 213
Sam@@ 213
TA 213
ally 213
center 213
illa 213
lard 213
1596 212
247 212
249 212
30,@@ 212
Connor 212
House 212
It 212
Tel@@ 212
Time 212
ela 212
for@@ 212
ht@@ 212
ish 212
jpg 212
oney 212
up 212
1740 211
Aaron 211
Lev@@ 211
News 211
RI 211
WA 211
oa 211
ven@@ 211
286 210
390 210
AG@@ 210
Ang@@ 210
Byr@@ 210
Collins 210
Wat@@ 210
arr@@ 210
king 210
نسر 210
CF@@ 209
Char@@ 209
Fi@@ 209
Gil@@ 209
Gre@@ 209
don 209
ei 209
parentid 209
الخام@@ 209
رام@@ 209
فی 209
محض 209
مصنف 209
25,@@ 208
3.0 208
Dun@@ 208
Gene 208
Jar@@ 208
Pedro 208
ham 208
ide 208
low 208
min@@ 208
tics 208
معلوم 208
← 208
253 207
272 207
AG 207
González 207
Google 207
Pear@@ 207
Rogers 207
Watson 207
back 207
cer@@ 207
ima 207
محقق 207
1756 206
640 206
Harold 206
Long 206
On 206
Steph@@ 206
anti@@ 206
bar@@ 206
cal@@ 206
its 206
ox@@ 206
ula 206
1,7@@ 205
254 205
Blue 205
Edwin 205
FM 205
SH 205
Stone 205
Sw@@ 205
ato 205
اسد 205
244 204
263 204
BR@@ 204
Brooks 204
Dec@@ 204
Mic@@ 204
Mus@@ 204
Sub@@ 204
eng@@ 204
eri 204
ō@@ 204
ת 204
ادب 204
229 203
Fernando 203
H. 203
Ko@@ 203
LO@@ 203
Press 203
Windows 203
iv@@ 203
لی@@ 203
な@@ 203
269 202
Clar@@ 202
DS@@ 202
Danny 202
Lloyd 202
Met@@ 202
anus 202
233 201
248 201
Cre@@ 201
Curtis 201
Gilbert 201
Pierre 201
Sullivan 201
Vincent 201
anc@@ 201
ave 201
don@@ 201
oth@@ 201
ular 201
نگ@@ 201
の@@ 201
265 200
273 200
Austin 200
Ke@@ 200
Mes@@ 200
Todd 200
amp@@ 200
eli@@ 200
inae 200
مباح@@ 200
٠@@ 200
あ@@ 200
1,9@@ 199
Cur@@ 199
DR@@ 199
Don@@ 199
García 199
HT@@ 199
Harrison 199
VI@@ 199
ans@@ 199
augh@@ 199
cap@@ 199
ce@@ 199
line 199
ou 199
1689 198
1755 198
302 198
333 198
ML 198
Phillips 198
ito 198
ves 198
́ 198
اقسام 198
274 197
305 197
AF@@ 197
Cu@@ 197
Del@@ 197
IA 197
Pan@@ 197
Rand@@ 197
Washington 197
aka 197
uk@@ 197
ye 197
yp@@ 197
تحال 197
1759 196
Wh@@ 196
cl@@ 196
osis 196
sy@@ 196
the@@ 196
tia 196
1758 195
1771 195
306 195
March 195
ady 195
har@@ 195
oh@@ 195
onn@@ 195
ա@@ 195
باعث 195
15,000 194
237 194
258 194
45.@@ 194
EP 194
Earl 194
Harvey 194
Mir@@ 194
Mu@@ 194
PR@@ 194
adi@@ 194
ba@@ 194
kin 194
ling 194
براير 194
1766 193
950 193
CO2 193
Duncan 193
Prince 193
RC 193
Tro@@ 193
ado 193
ali@@ 193
anth@@ 193
ax 193
over 193
ub@@ 193
جائز 193
وائز 193
واسط@@ 193
1660 192
1764 192
1920@@ 192
234 192
7,000 192
Art 192
Bryan 192
Die 192
Karl 192
PP@@ 192
Research 192
Shel@@ 192
sin@@ 192
ther@@ 192
yg@@ 192
ón 192
י 192
1762 191
283 191
470 191
540 191
747 191
Av@@ 191
Az@@ 191
College 191
DM 191
Richardson 191
Ronald 191
Shaw 191
Star 191
port 191
sel@@ 191
é@@ 191
ó@@ 191
1,3@@ 190
323 190
Hunter 190
Pal@@ 190
Perry 190
Row@@ 190
Stuart 190
so 190
ری@@ 190
1757 189
246 189
288 189
CT 189
City 189
Pat 189
Power 189
Tor@@ 189
esis 189
بخش 189
مستند 189
1517 188
Allan 188
Association 188
Bla@@ 188
DVD 188
Dre@@ 188
Ford 188
ID 188
LS 188
Mul@@ 188
Por@@ 188
TC 188
Trav@@ 188
arg@@ 188
ech@@ 188
ok 188
ona 188
out@@ 188
ָ@@ 188
خراب 188
∈ 188
276 187
Bal@@ 187
Ellis 187
HP 187
She@@ 187
Tur@@ 187
ap 187
essman 187
gu@@ 187
ier 187
pa 187
vor 187
ּ@@ 187
اطراف 187
حفاظ@@ 187
قاز@@ 187
1492 186
303 186
Clarke 186
Ha@@ 186
Jacob 186
Marcus 186
Rodríguez 186
Sil@@ 186
Society 186
cas@@ 186
her@@ 186
key 186
och@@ 186
تراجم 186
1350 185
660 185
B.@@ 185
Pas@@ 185
Rose 185
Service 185
eth 185
ni 185
pal@@ 185
ئم 185
صحت 185
فورس 185
Center 184
Martínez 184
her 184
à 184
امراض 184
′ 184
‹ 184
297 183
720 183
Arnold 183
CE 183
CL@@ 183
Davies 183
Justin 183
Mason 183
RT 183
Steven 183
Ter@@ 183
Vir@@ 183
Whit@@ 183
ain@@ 183
dez 183
ms 183
pha 183
une 183
بمث@@ 183
داست@@ 183
نفاذ 183
25,000 182
293 182
296 182
312 182
Bailey 182
Corn@@ 182
GB 182
can@@ 182
edi@@ 182
els 182
ong@@ 182
system 182
فرمان 182
231 181
28,@@ 181
321 181
Gold@@ 181
Hughes 181
Live 181
North 181
T. 181
Victor 181
bul@@ 181
ef@@ 181
od 181
ut 181
عبدالرحمن 181
282 180
36,@@ 180
Club 180
DI 180
Ever@@ 180
Science 180
Spencer 180
UC@@ 180
air@@ 180
annon 180
eri@@ 180
ji 180
مولانا 180
1714 179
2,0@@ 179
267 179
277 179
324 179
520 179
610 179
Butler 179
List 179
Media 179
Robertson 179
ici@@ 179
ng 179
say 179
va 179
ملاز@@ 179
268 178
501 178
630 178
BBC 178
Bow@@ 178
IR@@ 178
Silva 178
ids 178
mat@@ 178
ness 178
sey 178
use 178
پس 178
1250 177
1720 177
Rick 177
Rob 177
XX 177
ba 177
ero 177
leyball 177
pu@@ 177
بقول 177
ین 177
﴾ 177
Daw@@ 176
Mari@@ 176
Mi@@ 176
ern@@ 176
non 176
tel@@ 176
ον 176
الفرنس@@ 176
خوس@@ 176
﴿ 176
219 175
278 175
322 175
560 175
680 175
Hernández 175
Porter 175
data 175
ning@@ 175
occ@@ 175
1742 174
236 174
33,@@ 174
@ 174
AI 174
EM@@ 174
IB@@ 174
Is 174
López 174
Rus@@ 174
Ti@@ 174
ail@@ 174
ax@@ 174
fil@@ 174
jo 174
1718 173
1754 173
287 173
Cox 173
Sher@@ 173
Vo@@ 173
br 173
cy@@ 173
fer@@ 173
inc@@ 173
pos@@ 173
sa@@ 173
vir@@ 173
كويك@@ 173
1550 172
1610 172
1648 172
1650 172
1745 172
4.0 172
Eugene 172
Knight 172
Mills 172
SL@@ 172
SM@@ 172
Super 172
Ther@@ 172
bit 172
cc 172
eo 172
ere 172
ich@@ 172
ko@@ 172
right 172
tur@@ 172
val@@ 172
› 172
1767 171
266 171
570 171
GE 171
Gl@@ 171
Health 171
Microsoft 171
Pérez 171
Ren@@ 171
SD 171
Sy@@ 171
aga 171
amb@@ 171
ard@@ 171
ody 171
onia 171
tan@@ 171
writer 171
yer 171
ος 171
آف 171
الر 171
اوائل 171
1730 170
29,@@ 170
338 170
Air 170
Eng@@ 170
Entertainment 170
History 170
Hod@@ 170
Lane 170
Mario 170
Medi@@ 170
Nov@@ 170
Star@@ 170
WHO 170
eter 170
lig@@ 170
oo 170
oy@@ 170
ם 170
اصحاب 170
ثبوت 170
1688 169
1741 169
1761 169
315 169
A2 169
Blo@@ 169
FDA 169
Gibson 169
Page 169
This 169
UR@@ 169
USB 169
aur@@ 169
fe@@ 169
isa 169
lam@@ 169
this 169
عجائب 169
10.000 168
304 168
Cun@@ 168
ES 168
St. 168
enc@@ 168
ger@@ 168
hu@@ 168
ila 168
sen@@ 168
tions 168
α@@ 168
تلفظ 168
Company 167
ME 167
No 167
Plat@@ 167
hi 167
mus@@ 167
ts@@ 167
ח@@ 167
ק@@ 167
تسلط 167
مداخ@@ 167
1748 166
317 166
Blu@@ 166
Brien 166
CR 166
Carroll 166
Fol@@ 166
LP 166
NXT 166
ars 166
fl@@ 166
por@@ 166
rom@@ 166
1707 165
307 165
America 165
Dev@@ 165
Henderson 165
Network 165
SR 165
State 165
Super@@ 165
ets 165
kin@@ 165
off 165
res@@ 165
بی@@ 165
34,@@ 164
490 164
AK@@ 164
Cap@@ 164
Royal 164
Sel@@ 164
Van 164
ashi 164
athle@@ 164
dium 164
ill 164
loc@@ 164
ty@@ 164
ə@@ 164
مصنو@@ 164
1640 163
271 163
Eli@@ 163
Kent 163
Night 163
P.@@ 163
RN@@ 163
Red@@ 163
Reed 163
Sho@@ 163
bert 163
ines 163
sub@@ 163
محبوب 163
مطلب 163
1620 162
35,@@ 162
Business 162
Colin 162
Fisher 162
GS 162
Institute 162
Sean 162
Ty@@ 162
Win@@ 162
art 162
cases 162
icus 162
ide@@ 162
ille 162
net@@ 162
web@@ 162
بابر 162
261 161
299 161
620 161
C.@@ 161
HS 161
High 161
Isaac 161
Jamie 161
Kay 161
Kennedy 161
Mem@@ 161
Poly@@ 161
Show 161
aki 161
color 161
ds 161
eira 161
ind@@ 161
ther 161
tw@@ 161
مرتب 161
نافذ 161
----@@ 160
EL@@ 160
EN@@ 160
FO@@ 160
FS 160
Greg 160
Hunt 160
Pay@@ 160
Reynolds 160
ex 160
hydro@@ 160
ika 160
inger 160
my@@ 160
oni@@ 160
ud@@ 160
ä@@ 160
ای@@ 160
0s 159
AO@@ 159
Bir@@ 159
Clif@@ 159
Foundation 159
Hart 159
Il@@ 159
Je@@ 159
NT 159
Neill 159
Net@@ 159
Owen 159
ack@@ 159
met@@ 159
oshi 159
pre@@ 159
return 159
tim@@ 159
انفرا@@ 159
انو@@ 159
خوب@@ 159
فارغ 159
298 158
311 158
395 158
Cli@@ 158
Crawford 158
Emer@@ 158
MT@@ 158
PG 158
Rub@@ 158
ast@@ 158
ides 158
ster 158
tom@@ 158
نواز 158
37,@@ 157
960 157
Best 157
Lucas 157
Mad@@ 157
Pa@@ 157
Ted 157
ema 157
erek 157
ese 157
sion 157
š@@ 157
دست 157
ー@@ 157
1603 156
Education 156
F. 156
LED 156
S.@@ 156
Wells 156
acteri@@ 156
ali 156
char@@ 156
ding 156
ein 156
eria 156
ie@@ 156
lan 156
lock 156
mag@@ 156
السكان@@ 156
425 155
AX 155
André 155
Bul@@ 155
Cle@@ 155
ED@@ 155
IT 155
July 155
Kim 155
Leslie 155
Maur@@ 155
NS 155
PD 155
PT@@ 155
Ran@@ 155
acy 155
ae@@ 155
ame 155
ister 155
1644 154
1715 154
294 154
295 154
39,@@ 154
Big 154
Fran@@ 154
Law@@ 154
RAM 154
Rom@@ 154
TH@@ 154
War 154
War@@ 154
ast 154
ee 154
ten 154
ung@@ 154
ws 154
ר 154
الاول 154
فی@@ 154
259 153
337 153
512 153
Cec@@ 153
Fer@@ 153
IX 153
Jan 153
Maurice 153
awa 153
tis@@ 153
مظفر 153
1749 152
1752 152
Anna 152
Deb@@ 152
Dor@@ 152
Fraser 152
Fu@@ 152
IL@@ 152
ON@@ 152
Oscar 152
Simpson 152
TT@@ 152
ache 152
des@@ 152
dic@@ 152
ester 152
ik 152
lia 152
more 152
ng@@ 152
ture 152
مندر 152
1701 151
279 151
291 151
309 151
Golden 151
IN 151
Jud@@ 151
LGBT 151
den@@ 151
wan 151
web 151
ú@@ 151
ִ@@ 151
اسلوب 151
بحال 151
ED 150
Gun@@ 150
Hil@@ 150
Nav@@ 150
Pap@@ 150
SL 150
Tal@@ 150
ating 150
atr@@ 150
enn@@ 150
ha@@ 150
sal@@ 150
tica 150
دوست 150
صحاف@@ 150
289 149
316 149
336 149
5.000 149
AV@@ 149
Armstrong 149
Brad 149
Bradley 149
DE 149
Hart@@ 149
Pres@@ 149
San 149
Tam@@ 149
ash 149
ation@@ 149
iss@@ 149
rell 149
і@@ 149
البشر@@ 149
قبائ@@ 149
مردم 149
1743 148
319 148
Anne 148
Bry@@ 148
DR 148
Nat@@ 148
Nicholas 148
Rod@@ 148
Sav@@ 148
Thomson 148
ace@@ 148
ago 148
cul@@ 148
fer 148
rec@@ 148
very 148
ville 148
ְ@@ 148
大@@ 148
山@@ 148
331 147
Ari@@ 147
Gerald 147
Hen@@ 147
Law 147
Pro 147
Rel@@ 147
Times 147
Will 147
bot@@ 147
ense 147
inn@@ 147
mu@@ 147
tical 147
الكويك@@ 147
عصمت 147
ゆ@@ 147
ら 147
31.@@ 146
404 146
978 146
Chuck 146
Cohen 146
EP@@ 146
Gregory 146
Gro@@ 146
Phil 146
Torres 146
Ur@@ 146
aph@@ 146
can 146
eck 146
he 146
into 146
ip@@ 146
micro@@ 146
ough@@ 146
ל 146
مخالف 146
お@@ 146
1735 145
292 145
354 145
760 145
An 145
Chi@@ 145
Cross 145
Mos@@ 145
SE 145
UM@@ 145
atum 145
bers 145
ine@@ 145
ome@@ 145
org@@ 145
tar@@ 145
via 145
1630 144
1746 144
Ali 144
Good@@ 144
LE 144
Malcolm 144
Project 144
Randy 144
V. 144
Wrestling 144
air 144
elli 144
uk 144
vers 144
مطالع@@ 144
つ@@ 144
510 143
Andrews 143
Fern@@ 143
Guy 143
María 143
PI@@ 143
Rafael 143
Rice 143
Sing@@ 143
Sun@@ 143
UT@@ 143
acid 143
alism 143
ass 143
face 143
go 143
oides 143
سوخ 143
مزاج 143
پ 143
い 143
1744 142
1751 142
355 142
Cole 142
Eth@@ 142
FL@@ 142
HC 142
Kn@@ 142
Na 142
Nik@@ 142
PI 142
States 142
Wo@@ 142
ius 142
op 142
ros@@ 142
نسبت 142
子 142
1450 141
530 141
580 141
Burns 141
David@@ 141
Leon 141
Meth@@ 141
Powell 141
Sm@@ 141
XX@@ 141
chi 141
eme 141
ey@@ 141
folia 141
ft 141
lat@@ 141
reg@@ 141
み@@ 141
1624 140
332 140
345 140
93.@@ 140
DI@@ 140
DL 140
Linux 140
Otto 140
Rem@@ 140
Shi@@ 140
Sánchez 140
bor@@ 140
cur@@ 140
ew@@ 140
fa@@ 140
los@@ 140
trans@@ 140
ul 140
گان 140
と@@ 140
も@@ 140
20.000 139
Burton 139
CI 139
Dav@@ 139
Ricardo 139
act@@ 139
eta 139
ken 139
ki@@ 139
401 138
April 138
August 138
Elec@@ 138
Ferguson 138
Holmes 138
Inc. 138
Stu@@ 138
avirus 138
bre@@ 138
che 138
ection 138
xon 138
π 138
פ@@ 138
محدث 138
318 137
32,@@ 137
AK 137
Carl@@ 137
Claude 137
For 137
Rap@@ 137
SW@@ 137
Wes@@ 137
ati 137
fi@@ 137
gar@@ 137
ku@@ 137
my 137
آس 137
Great 136
Nak@@ 136
Nathan 136
Office 136
PP 136
Rock 136
Tar@@ 136
U.S. 136
Women 136
ania 136
bas@@ 136
enzie 136
mayor 136
othy 136
ova 136
tz 136
ابو@@ 136
شوق 136
فرنس@@ 136
فورنيا 136
متناز@@ 136
معمول 136
نواع 136
だ 136
1,500 135
1680 135
Der@@ 135
FF 135
Hansen 135
Ltd 135
Mann 135
Marc 135
NBC 135
PR 135
To 135
Up 135
Virginia 135
act 135
ency 135
ico 135
oni 135
you 135
É@@ 135
1649 134
1753 134
Cham@@ 134
Li 134
NP 134
Nag@@ 134
Oli@@ 134
Paris 134
Ra@@ 134
Robin 134
SF@@ 134
Santos 134
Tyler 134
asp@@ 134
atic 134
eus 134
hand@@ 134
inf@@ 134
omy@@ 134
pard 134
phen@@ 134
ris 134
syndrome 134
ug@@ 134
توبر 134
دولت 134
1702 133
1710 133
1721 133
C1 133
COM 133
Corporation 133
Kyle 133
Management 133
Percy 133
Power@@ 133
Ril@@ 133
ality 133
att 133
aya 133
gs 133
has 133
icks 133
uli@@ 133
una 133
worth 133
γ 133
1521 132
1580 132
1616 132
1713 132
2,5@@ 132
326 132
386 132
999 132
Bet@@ 132
Dick@@ 132
Ep@@ 132
Fil@@ 132
Green@@ 132
Leo 132
Milton 132
NT@@ 132
PD@@ 132
Pete 132
Tan@@ 132
cus 132
iki 132
ins@@ 132
not 132
pedi@@ 132
1683 131
1733 131
314 131
Buc@@ 131
Gabriel 131
Jen@@ 131
Jesse 131
Joel 131
Kenny 131
Open 131
PL@@ 131
Pier@@ 131
Ramírez 131
Rich 131
SR@@ 131
Woods 131
agan 131
erry 131
iss 131
wer 131
én@@ 131
ַ@@ 131
تنازع 131
1570 130
1605 130
1727 130
2023 130
Ander@@ 130
Au@@ 130
Dur@@ 130
Fac@@ 130
God@@ 130
Greene 130
Hog@@ 130
Proc@@ 130
cha 130
leton 130
ost@@ 130
revision 130
ski 130
urus 130
כ@@ 130
ס@@ 130
قوت 130
中@@ 130
415 129
BB@@ 129
But@@ 129
CH 129
DV@@ 129
Ing@@ 129
Morrison 129
PE 129
Ras@@ 129
Systems 129
Union 129
eder@@ 129
ga 129
his 129
orum 129
ri 129
دادا 129
عقائد 129
381 128
911 128
Awards 128
Cel@@ 128
Cul@@ 128
Den@@ 128
Edgar 128
FL 128
France 128
Gor@@ 128
Gra@@ 128
Hip@@ 128
Pic@@ 128
Stevens 128
aa 128
action 128
artist 128
bel@@ 128
ck 128
enton 128
hom@@ 128
mb@@ 128
ological 128
نقصان 128
٩@@ 128
き@@ 128
こ 128
1737 127
1739 127
2,4@@ 127
CF 127
Cat@@ 127
Duke 127
ET 127
Lynn 127
Marie 127
OR 127
ST 127
Ta@@ 127
Web 127
ake 127
anna 127
app@@ 127
cre@@ 127
ello 127
igh@@ 127
iko 127
kar@@ 127
mas@@ 127
men@@ 127
wikitext 127
צ@@ 127
اتار 127
1662 126
BI 126
French 126
GP 126
Grand 126
Hard@@ 126
Lor@@ 126
Pil@@ 126
Sin@@ 126
Warner 126
ail 126
bri@@ 126
für 126
leg@@ 126
mal@@ 126
scale 126
sil@@ 126
war@@ 126
سخت 126
す@@ 126
0.0 125
1590 125
1672 125
1731 125
2,6@@ 125
2,7@@ 125
308 125
334 125
405 125
A4 125
Dam@@ 125
GM 125
GR@@ 125
Hugo 125
Liv@@ 125
Lynch 125
Palmer 125
Pen@@ 125
Preston 125
Saint 125
Street 125
bur@@ 125
firm@@ 125
left 125
mor@@ 125
onas 125
اعظم 125
کان 125
1453 124
Alberto 124
Data 124
GT@@ 124
Gom@@ 124
Montgomery 124
Pau@@ 124
Rot@@ 124
WCW 124
Yam@@ 124
ability 124
anne 124
arch@@ 124
asi@@ 124
del@@ 124
enberg 124
eth@@ 124
inn 124
mel@@ 124
sons 124
tig@@ 124
vis 124
ς 124
عقاد 124
€ 124
1642 123
Agu@@ 123
Cour@@ 123
Diego 123
FF@@ 123
Fab@@ 123
Global 123
Irish 123
LD 123
Rh@@ 123
Tuc@@ 123
UI 123
USA 123
elly 123
oyle 123
pan@@ 123
quot 123
sti@@ 123
zo 123
í@@ 123
ת@@ 123
ھ 123
1609 122
1729 122
2,8@@ 122
451 122
Adri@@ 122
Bou@@ 122
CM 122
Eur@@ 122
Hem@@ 122
Island 122
Jan@@ 122
Kath@@ 122
Ken@@ 122
Luc@@ 122
MT 122
Sk@@ 122
UL@@ 122
VI 122
ages 122
anda 122
ble 122
gen 122
ier@@ 122
mi 122
oz 122
plex 122
tion@@ 122
う@@ 122
1632 121
1747 121
BP 121
Fro@@ 121
Japan 121
Joh@@ 121
Mann@@ 121
Sarah 121
Syn@@ 121
West@@ 121
Wol@@ 121
awn 121
bs 121
disease 121
eng 121
kr@@ 121
lum 121
مسند 121
335 120
356 120
Academy 120
Ay@@ 120
CBS 120
Gib@@ 120
M.@@ 120
MB 120
MR 120
Mach@@ 120
Mart@@ 120
PN@@ 120
Pablo 120
Pur@@ 120
ROM 120
Richards 120
Sun 120
UK 120
ats 120
dec@@ 120
ear@@ 120
ert 120
language 120
ont 120
pur@@ 120
rie 120
set 120
اشرف 120
منافع 120
1631 119
1670 119
1734 119
3,0@@ 119
343 119
Ali@@ 119
Bern@@ 119
European 119
Fo@@ 119
Ga@@ 119
Go 119
Jeffrey 119
Khan 119
Lake 119
Lord 119
MIT 119
Maxwell 119
Rodrigu@@ 119
SV@@ 119
WWF 119
ami 119
aus@@ 119
bus 119
group 119
iki@@ 119
itz 119
mit@@ 119
olph 119
ted 119
ze@@ 119
ó 119
بزر@@ 119
لطف 119
مطابق 119
Ann 118
Barbara 118
Bau@@ 118
EA 118
First 118
Force 118
Human 118
India 118
La@@ 118
Mak@@ 118
Miles 118
Phil@@ 118
Scottish 118
Sky 118
VC 118
arab@@ 118
article 118
cat@@ 118
e.org 118
inus 118
isi@@ 118
ny@@ 118
pes 118
pol@@ 118
poly@@ 118
tal@@ 118
wal@@ 118
ware 118
yo 118
سز 118
お 118
は@@ 118
000.000 117
1520 117
1625 117
1699 117
Bat@@ 117
Berry 117
Blake 117
Buch@@ 117
Bud@@ 117
Der 117
Dw@@ 117
Fal@@ 117
Herman 117
Jenn@@ 117
Jeremy 117
Ku@@ 117
Nath@@ 117
Rad@@ 117
Series 117
burn 117
hal@@ 117
inde@@ 117
isti@@ 117
side 117
tus 117
افز@@ 117
حی@@ 117
شتر 117
گو@@ 117
ん@@ 117
1560 116
1712 116
1722 116
Ball 116
Flem@@ 116
Glenn 116
Sut@@ 116
Thi@@ 116
ahn 116
com 116
gol@@ 116
ial 116
icky 116
iti@@ 116
meth@@ 116
minor 116
uki 116
wen@@ 116
دفت@@ 116
راست 116
شروعات 116
■ 116
1.0@@ 115
1585 115
1690 115
Dem@@ 115
Edmund 115
Gam@@ 115
MTV 115
Server 115
ational 115
fol@@ 115
ker@@ 115
kl@@ 115
ond@@ 115
oy 115
ster@@ 115
yi 115
Ángel 115
اسباب 115
″ 115
1526 114
1654 114
2,9@@ 114
40,@@ 114
Barr@@ 114
East 114
Game 114
HD@@ 114
Javier 114
Kal@@ 114
Line 114
MD 114
Nu@@ 114
OR@@ 114
Radio 114
Roberto 114
ants 114
az 114
bie 114
ega 114
itch 114
je@@ 114
ones 114
sec@@ 114
ø@@ 114
1724 113
1725 113
38,@@ 113
Anti@@ 113
Ban@@ 113
Cos@@ 113
Fernández 113
GC 113
Hans 113
Kam@@ 113
Kap@@ 113
Kat@@ 113
Luke 113
Newton 113
Open@@ 113
Sab@@ 113
`@@ 113
esp@@ 113
ges 113
ges@@ 113
gl@@ 113
icum 113
men 113
mot@@ 113
pel@@ 113
pen@@ 113
self 113
top 113
گ 113
井@@ 113
1547 112
1623 112
1717 112
1732 112
1736 112
40.000 112
Brig@@ 112
Dol@@ 112
GPS 112
Jackie 112
Jane 112
Ju@@ 112
Luci@@ 112
Reichs@@ 112
Rhy@@ 112
Stan 112
What 112
Wisconsin 112
bal@@ 112
book 112
cli@@ 112
int@@ 112
ische 112
log@@ 112
ops 112
½ 112
Δ@@ 112
عور@@ 112
よ@@ 112
1540 111
1704 111
Bot@@ 111
Bruno 111
Championship 111
Christ@@ 111
Costa 111
Dow@@ 111
General 111
Jon 111
May@@ 111
Meg@@ 111
Of 111
Public 111
Schmidt 111
Sec@@ 111
Sig@@ 111
T.@@ 111
art@@ 111
aus 111
ector 111
gi 111
ike 111
new@@ 111
ock@@ 111
olan 111
red 111
which 111
§ 111
ée 111
آصف 111
طوفان 111
متعارف 111
مقصد 111
نذر 111
1598 110
202@@ 110
Cruz 110
Floyd 110
Good 110
Holland 110
Ja@@ 110
Logan 110
Michel 110
Mit@@ 110
PM 110
Sherman 110
aff@@ 110
arch 110
att@@ 110
ender 110
gie 110
ories 110
ple@@ 110
ren@@ 110
tery 110
xx 110
ū@@ 110
اسود 110
الی@@ 110
باؤ@@ 110
تخت 110
تعارف 110
کو@@ 110
1530 109
1618 109
1664 109
1665 109
1711 109
Ant@@ 109
DB 109
E.@@ 109
Ear@@ 109
Gir@@ 109
Harper 109
Leg@@ 109
On@@ 109
Rev@@ 109
Team 109
Wilhelm 109
aba 109
abe 109
aci@@ 109
bot 109
cho@@ 109
ental 109
form 109
ich 109
je 109
ocar@@ 109
ui 109
wor@@ 109
yan@@ 109
ג@@ 109
آرام 109
آزاد 109
اتر@@ 109
خدا 109
ری 109
سز@@ 109
فرم@@ 109
نی@@ 109
1655 108
1667 108
1685 108
African 108
Book 108
DF@@ 108
Dic@@ 108
Ferr@@ 108
Film 108
Josh 108
Kas@@ 108
Med@@ 108
Romero 108
ands 108
ares 108
congr@@ 108
director 108
ery 108
flu@@ 108
hr@@ 108
inal 108
iner 108
nd@@ 108
old 108
olog@@ 108
our@@ 108
ser 108
sur@@ 108
vel@@ 108
world 108
انور 108
1621 107
Cup 107
Field 107
GO@@ 107
German 107
Gill 107
ID@@ 107
Ivan 107
Jake 107
Kin@@ 107
Republic 107
The@@ 107
Wales 107
William@@ 107
oz@@ 107
tha 107
title 107
ائج 107
اباد 107
دی 107
ساز@@ 107
فتوحات 107
ⴰ@@ 107
1638 106
1666 106
1697 106
Bishop 106
Brad@@ 106
Brenn@@ 106
Forbes 106
June 106
Moreno 106
Saf@@ 106
Tit@@ 106
We 106
Your 106
ams 106
apo@@ 106
ech 106
iy@@ 106
judge 106
not@@ 106
ots 106
sky 106
su 106
true 106
ī@@ 106
جوزف 106
1604 105
1656 105
1738 105
200.000 105
Abraham 105
Apple 105
Bald@@ 105
Clay@@ 105
Cro@@ 105
Gall@@ 105
H.@@ 105
Julian 105
Kan@@ 105
League 105
Men 105
Out@@ 105
Pin@@ 105
Sat@@ 105
Sem@@ 105
` 105
alm@@ 105
anan 105
cell 105
chin@@ 105
chr@@ 105
ime 105
ky 105
mons 105
news 105
phys@@ 105
sor@@ 105
ual 105
ze 105
ç@@ 105
معاون 105
1572 104
BE 104
BT@@ 104
Be 104
Chry@@ 104
Core 104
EX@@ 104
Eduardo 104
Family 104
Geoff@@ 104
GmbH 104
HO@@ 104
Peg@@ 104
Potter 104
UTC 104
Wagner 104
coach 104
dison 104
function 104
hin@@ 104
ke@@ 104
less 104
mes 104
ori 104
ote 104
sim@@ 104
try 104
were 104
آسام 104
اسحاق 104
بلقان 104
شاخ 104
مباش@@ 104
と 104
む@@ 104
1659 103
1676 103
1708 103
1728 103
Acc@@ 103
Bol@@ 103
CW 103
Cla@@ 103
DT@@ 103
Dud@@ 103
HBO 103
Home 103
IF 103
Ireland 103
Kor@@ 103
Multi@@ 103
Sergio 103
Under@@ 103
archiv@@ 103
cel@@ 103
first 103
ocy@@ 103
ost 103
ota 103
ow 103
pH 103
ques 103
uch@@ 103
uld 103
ume 103
wing 103
ˈ@@ 103
شنز 103
عروج 103
村@@ 103
1525 102
1652 102
1716 102
BM 102
Banks 102
Bon@@ 102
Cad@@ 102
Che@@ 102
Digital 102
Gutiérrez 102
Gómez 102
Intel 102
Kon@@ 102
Land@@ 102
Mich@@ 102
Muñ@@ 102
PL 102
Ramos 102
SP 102
Sph@@ 102
Ster@@ 102
Texas 102
Wang 102
agn@@ 102
amm@@ 102
aud 102
entr@@ 102
igh 102
mac@@ 102
ste@@ 102
uh@@ 102
ush@@ 102
جاوا 102
قائل 102
う 102
1515 101
1627 101
1669 101
Canada 101
Di 101
François 101
Gonz@@ 101
Israel 101
Meyer 101
Morales 101
Nic@@ 101
Pot@@ 101
Psych@@ 101
Var@@ 101
Way 101
ange 101
borne 101
con 101
nor@@ 101
pher@@ 101
phy@@ 101
radi@@ 101
til@@ 101
ving 101
け@@ 101
ろ@@ 101
1687 100
44,@@ 100
Berg@@ 100
Brit@@ 100
Brow@@ 100
Dan@@ 100
England 100
Ev@@ 100
HIV 100
Hand@@ 100
Int@@ 100
Iv@@ 100
João 100
Not@@ 100
Oc@@ 100
River 100
SAR@@ 100
Shane 100
ag 100
def@@ 100
elec@@ 100
journalist 100
mis@@ 100
ny 100
oride 100
prot@@ 100
service 100
thr@@ 100
ua 100
ulus 100
water 100
® 100
شدت 100
نقش@@ 100
٠ 100
《 100
本@@ 100
1559 99
1606 99
1709 99
Aur@@ 99
California 99
Central 99
Gol@@ 99
Head 99
Kim@@ 99
Reb@@ 99
Sum@@ 99
Vit@@ 99
amine 99
ando 99
ays 99
dat@@ 99
ely 99
lo 99
nia 99
pos 99
sul@@ 99
ér@@ 99
ías 99
ör@@ 99
ør@@ 99
ט@@ 99
اوه@@ 99
1612 98
1645 98
1658 98
1661 98
1684 98
AE 98
Ach@@ 98
Ann@@ 98
Bus@@ 98
EF@@ 98
Harr@@ 98
Hom@@ 98
Hon@@ 98
Hopkins 98
I. 98
IV@@ 98
Kaz@@ 98
O. 98
SPD 98
Sou@@ 98
Tem@@ 98
acc@@ 98
ante 98
aul@@ 98
ault 98
down 98
eda 98
nom@@ 98
odi@@ 98
phosph@@ 98
stein 98
super@@ 98
sus 98
vin@@ 98
مقامات 98
نل 98
30.000 97
406 97
AO 97
Battle 97
Cab@@ 97
Chase 97
Est@@ 97
Klein 97
Kur@@ 97
L.@@ 97
Marco 97
Medical 97
Out 97
Radi@@ 97
Sidney 97
Solomon 97
Tas@@ 97
Video 97
WW@@ 97
acet@@ 97
asc@@ 97
ca@@ 97
ho 97
put 97
ross 97
state 97
theory 97
unders 97
uri 97
vo 97
ð@@ 97
ائيو 97
الی 97
اوقات 97
خالص 97
み 97
川@@ 97
1204 96
1607 96
1651 96
50.000 96
And 96
Card@@ 96
Ci@@ 96
Control 96
Elizabeth 96
Friedrich 96
Fun@@ 96
Garcia 96
Hudson 96
Jesús 96
Kh@@ 96
Laura 96
Mand@@ 96
Martín 96
Sor@@ 96
Vel@@ 96
Wolf 96
agen 96
ann 96
ev 96
ham@@ 96
orn@@ 96
rid 96
sive 96
ump@@ 96
uz@@ 96
ão 96
رانا 96
ٰ 96
藤@@ 96
1637 95
1675 95
BT 95
CL 95
Direc@@ 95
Ernst 95
Matthe@@ 95
Mun@@ 95
Rud@@ 95
Shir@@ 95
Spe@@ 95
Technology 95
ami@@ 95
ava 95
bet@@ 95
coron@@ 95
ean 95
fac@@ 95
have 95
min 95
oxide 95
sm@@ 95
tiv@@ 95
æ@@ 95
ö@@ 95
μ@@ 95
روشن 95
ە 95
1555 94
1686 94
Alejandro 94
Bank 94
Billboard 94
Bot 94
Ca 94
Calvin 94
Chem@@ 94
Enter@@ 94
Gas@@ 94
Girl 94
HMS 94
Heart 94
Hz 94
Jacques 94
Joan 94
Kum@@ 94
Nich@@ 94
Northern 94
O.@@ 94
Pennsylvania 94
Road 94
Roc@@ 94
Sul@@ 94
Three 94
VO@@ 94
Wend@@ 94
Who 94
af 94
alt@@ 94
ci 94
code 94
dom@@ 94
ences 94
hol@@ 94
ks@@ 94
other@@ 94
patr@@ 94
proc@@ 94
rest 94
sum@@ 94
wi@@ 94
zi 94
ē@@ 94
انی@@ 94
بلت@@ 94
1519 93
1636 93
Ahmed 93
Arm@@ 93
Castillo 93
Dal@@ 93
Denis 93
Hardy 93
Internet 93
Joyce 93
N. 93
Rhodes 93
Son@@ 93
TR@@ 93
anner 93
body 93
dule 93
err@@ 93
etta 93
ix 93
len@@ 93
mil@@ 93
mp@@ 93
rel@@ 93
rot@@ 93
tho@@ 93
tra@@ 93
usa 93
yo@@ 93
β@@ 93
σ@@ 93
ادوار 93
زِ 93
1611 92
1703 92
CIA 92
Chand@@ 92
Fischer 92
Fitz@@ 92
Georgia 92
Glen 92
Gold 92
Julius 92
October 92
Sn@@ 92
Tw@@ 92
Uni@@ 92
Vent@@ 92
arro 92
bol@@ 92
cop@@ 92
ect@@ 92
ji@@ 92
land@@ 92
let 92
lie 92
ography 92
osaurus 92
pon@@ 92
stati@@ 92
tional 92
vi 92
view 92
zi@@ 92
γ@@ 92
معاو@@ 92
》 92
1719 91
Beau@@ 91
Berlin 91
Bio@@ 91
Blan@@ 91
Bos@@ 91
Bret@@ 91
Bundes@@ 91
Clay 91
Development 91
Fe 91
G.@@ 91
IU@@ 91
Last 91
Ler@@ 91
Margaret 91
Nig@@ 91
Paulo 91
Pop@@ 91
Rol@@ 91
SB 91
Two 91
Whitney 91
ahl 91
arm@@ 91
asis 91
eti@@ 91
fill 91
ju@@ 91
ner@@ 91
obs 91
osh 91
pun@@ 91
string 91
two 91
wick 91
á 91
ā 91
اصلاح 91
Aqu@@ 90
BL 90
Clin@@ 90
D.@@ 90
EM 90
MHz 90
Mac 90
Ob@@ 90
Peters 90
Point 90
Queen 90
R.@@ 90
Singh 90
Tu@@ 90
ader 90
core 90
illi@@ 90
ites 90
lem@@ 90
lett 90
mod@@ 90
mus 90
ogen@@ 90
oi 90
omys 90
opus 90
pin@@ 90
ray 90
row@@ 90
wo@@ 90
اُن@@ 90
ٰ@@ 90
پي@@ 90
یا 90
1622 89
1629 89
45,@@ 89
Adrian 89
Android 89
Domin@@ 89
Jennifer 89
Ki@@ 89
Ober@@ 89
Social 89
Summer 89
any 89
band 89
dir@@ 89
eller 89
fin@@ 89
flora 89
frey 89
ih@@ 89
ingham 89
itor 89
ment@@ 89
ode 89
onal 89
onal@@ 89
scope 89
sin 89
team 89
tiz 89
val 89
Á@@ 89
بالخصوص 89
مشرق 89
か 89
り@@ 89
わ@@ 89
1615 88
1626 88
1641 88
1726 88
API 88
Aer@@ 88
Augustus 88
Aus@@ 88
Aut@@ 88
Bac@@ 88
Block 88
CPU 88
Chen 88
Cob@@ 88
Games 88
Gau@@ 88
Inc 88
LG@@ 88
Lang@@ 88
Mill@@ 88
Pav@@ 88
RE 88
Roland 88
Small 88
Sup@@ 88
Yu@@ 88
aer@@ 88
ais 88
amer 88
cle 88
composer 88
dre 88
ep 88
ever 88
imb@@ 88
ista 88
original 88
other 88
ough 88
ous@@ 88
p.@@ 88
peri@@ 88
sch 88
sia 88
var 88
xi@@ 88
δ@@ 88
λ 88
جاتا 88
1535 87
Andrés 87
Boy 87
Chil@@ 87
Cyc@@ 87
Death 87
Down 87
Enrique 87
GT 87
Hoff@@ 87
J.@@ 87
Jam@@ 87
Jiménez 87
Lang 87
Leon@@ 87
Lisa 87
Nar@@ 87
Ok@@ 87
Rivera 87
SU@@ 87
Schwar@@ 87
Spec@@ 87
Sto@@ 87
Sus@@ 87
Sz@@ 87
Wall 87
bo 87
busin@@ 87
cells 87
emia 87
eph@@ 87
essor 87
hem@@ 87
iles 87
kes 87
nch@@ 87
oid 87
ril 87
span 87
árez 87
å@@ 87
č@@ 87
سردار 87
مقاصد 87
نثر 87
٫ 87
1705 86
Benn@@ 86
Bush 86
Can 86
Computer 86
Daily 86
EL 86
Ern@@ 86
Jaime 86
Mayer 86
Name 86
Nev@@ 86
Nob@@ 86
Pul@@ 86
Records 86
Review 86
Schneider 86
Syst@@ 86
aca 86
aea 86
alia 86
anger 86
ate@@ 86
by@@ 86
chn@@ 86
cs 86
date 86
enia 86
file 86
history 86
ony@@ 86
opo@@ 86
ret@@ 86
rop@@ 86
sula 86
ton@@ 86
éc@@ 86
í 86
ֹ@@ 86
野@@ 86
1595 85
1635 85
1723 85
183@@ 85
ARC 85
Africa 85
Angel 85
Bull 85
Cros@@ 85
Deutsche 85
Gn@@ 85
Hope 85
Hur@@ 85
Hydro@@ 85
Kel@@ 85
Light 85
Loc@@ 85
Mam@@ 85
Mot@@ 85
NC 85
Nova 85
Soci@@ 85
Software 85
Van@@ 85
Winter 85
X. 85
aft 85
andi 85
arren 85
ather 85
bar 85
def 85
dem@@ 85
doc@@ 85
eau 85
een 85
elius 85
enne 85
house 85
illy 85
itt 85
kat@@ 85
les@@ 85
mes@@ 85
ologist 85
po 85
ship 85
site 85
ths 85
ulation 85
watch 85
ま 85
1565 84
1568 84
Ale@@ 84
BL@@ 84
Back 84
CG 84
Carey 84
Christi@@ 84
Díaz 84
EN 84
FIFA 84
Jr 84
Kend@@ 84
Lib@@ 84
Oper@@ 84
People 84
Pri@@ 84
RD 84
Real 84
Seg@@ 84
Sky@@ 84
Valent@@ 84
Western 84
amin@@ 84
baller 84
based 84
bin@@ 84
gram@@ 84
gre@@ 84
ig 84
ilia 84
ink 84
ith@@ 84
las 84
len 84
pat@@ 84
ν 84
اصلاحات 84
انصار 84
لاغر@@ 84
じ@@ 84
1,5 83
1569 83
1592 83
1628 83
1633 83
Adap@@ 83
BR 83
Cly@@ 83
Conrad 83
Dy@@ 83
Earth 83
Gav@@ 83
Hus@@ 83
Julie 83
Ka@@ 83
Mis@@ 83
Nam@@ 83
Nash 83
Noel 83
Ontario 83
Pand@@ 83
Pictures 83
Reyes 83
Te 83
Tran@@ 83
UN 83
Vic@@ 83
Welsh 83
aves 83
dan 83
estr@@ 83
gic 83
idi@@ 83
illon 83
ix@@ 83
list 83
o.@@ 83
off@@ 83
oper@@ 83
ric 83
struc@@ 83
trol@@ 83
trong 83
ust 83
vie 83
wa 83
én 83
ای 83
وفاد@@ 83
پر@@ 83
ン@@ 83
木@@ 83
1536 82
1634 82
Berg 82
Child 82
Da 82
Erik 82
Food 82
Nature 82
Susan 82
Test 82
Theodore 82
ben@@ 82
chem@@ 82
cos@@ 82
ein@@ 82
general 82
iggins 82
include 82
kom@@ 82
national 82
nh@@ 82
olen 82
page 82
phon@@ 82
print@@ 82
source 82
uv@@ 82
var@@ 82
vari@@ 82
ward 82
wer@@ 82
ín 82
ñez 82
ός 82
آف@@ 82
پرو@@ 82
ک 82
ず@@ 82
小@@ 82
1601 81
AW@@ 81
Bak@@ 81
Beck 81
CV 81
Chad 81
Dro@@ 81
Fire 81
Hi@@ 81
Honor 81
I.@@ 81
LM 81
Magazine 81
Mohammad 81
Moses 81
Obj@@ 81
Phone 81
Song 81
Sports 81
UV 81
V8 81
Weber 81
Yas@@ 81
about 81
aine 81
alb@@ 81
ask@@ 81
bro@@ 81
ders 81
dit 81
eon 81
eves 81
icul@@ 81
ived 81
lier 81
ont@@ 81
phyl@@ 81
than 81
uchi 81
virus 81
är@@ 81
ո@@ 81
بم 81
‚ 81
た 81
AV 80
Bay 80
Bay@@ 80
Das 80
Dom@@ 80
Emma 80
Fili@@ 80
Impact 80
Jefferson 80
Kurt 80
Lem@@ 80
Lun@@ 80
NY@@ 80
Now 80
PN 80
Party 80
Play@@ 80
Stor@@ 80
Story 80
Writ@@ 80
Year 80
any@@ 80
aton 80
bal 80
bi 80
computer 80
dra@@ 80
ements 80
enny 80
esh 80
lav@@ 80
light 80
long@@ 80
low@@ 80
max 80
ons@@ 80
ony 80
pil@@ 80
rh@@ 80
sier 80
sing 80
tam@@ 80
top@@ 80
ute 80
vić 80
wrest@@ 80
yon 80
کر@@ 80
ܐ 80
1653 79
Australia 79
Cass@@ 79
Dyn@@ 79
Free 79
Grim@@ 79
Il 79
Jas@@ 79
Julia 79
Kno@@ 79
Mass@@ 79
Mod@@ 79
Moh@@ 79
Old 79
Online 79
Post 79
Ret@@ 79
Roman 79
Standard 79
Sydney 79
aja 79
ature 79
da@@ 79
equ@@ 79
führer 79
gal@@ 79
jav@@ 79
macro@@ 79
mos@@ 79
oba 79
orus 79
ple 79
pres@@ 79
table 79
their 79
tin@@ 79
ust@@ 79
Ö@@ 79
ís 79
بالآخر 79
市 79
Act 78
Castro 78
Cop@@ 78
César 78
Dani@@ 78
EG 78
ET@@ 78
Flores 78
Grace 78
Hyper@@ 78
If 78
Know@@ 78
Kom@@ 78
Language 78
Lat@@ 78
Log@@ 78
Moon 78
NR@@ 78
Produc@@ 78
Publ@@ 78
Scot@@ 78
Short 78
Sinc@@ 78
Space 78
Studies 78
Tun@@ 78
UK@@ 78
Universal 78
alist 78
ering 78
ful 78
jas 78
lair 78
lip 78
lon 78
mic@@ 78
number 78
ods 78
osaur@@ 78
print 78
server 78
test 78
umi 78
under 78
wh@@ 78
works 78
xy 78
Álvarez 78
â@@ 78
ł@@ 78
▪ 78
Alice 77
Alonso 77
App@@ 77
Arts 77
Beh@@ 77
China 77
EF 77
Fi 77
GI 77
Greg@@ 77
Hello 77
Kit@@ 77
Lac@@ 77
Los 77
MI 77
Marion 77
Och@@ 77
Off@@ 77
Rich@@ 77
SF 77
Sonn@@ 77
Ven@@ 77
Wa@@ 77
Zo@@ 77
alus 77
atom@@ 77
einer 77
esc@@ 77
esti@@ 77
ido 77
line@@ 77
main 77
mun@@ 77
olo@@ 77
san@@ 77
sig@@ 77
ules 77
δ 77
π@@ 77
احمد@@ 77
سپ@@ 77
فرائض 77
ماح@@ 77
0,0@@ 76
1.5@@ 76
1619 76
2.000 76
ATA 76
Af@@ 76
Age 76
Bil@@ 76
Bond 76
Carolina 76
Cin@@ 76
County 76
Eg@@ 76
Fon@@ 76
Fried@@ 76
Glo@@ 76
Hamp@@ 76
Joshua 76
Julio 76
Jum@@ 76
KO 76
Mom@@ 76
Nur@@ 76
Over@@ 76
Pet@@ 76
Pter@@ 76
Ruiz 76
WH@@ 76
adi 76
aris 76
atri@@ 76
clus@@ 76
driver 76
duc@@ 76
etes 76
fal@@ 76
get@@ 76
ket 76
los 76
pri@@ 76
pul@@ 76
ses 76
unt 76
verse 76
yst@@ 76
ć 76
Ἀ@@ 76
50,@@ 75
Children 75
Design 75
Div@@ 75
Estr@@ 75
Europe 75
F.@@ 75
Fair@@ 75
Gran@@ 75
Hay 75
Joy 75
Kid@@ 75
Kol@@ 75
Lab@@ 75
Lim@@ 75
Maz@@ 75
Net 75
Neur@@ 75
Omar 75
Patr@@ 75
Pel@@ 75
Ruth 75
Samm@@ 75
Sant@@ 75
Sha@@ 75
Techn@@ 75
That 75
Walt 75
Way@@ 75
Wood@@ 75
cia 75
eer 75
ento 75
governor 75
ichi 75
isha 75
odon@@ 75
oidea 75
oll@@ 75
ores 75
oun 75
umb@@ 75
uni@@ 75
ía 75
Κ@@ 75
θ 75
ր@@ 75
داؤ@@ 75
ووا 75
こ@@ 75
わ 75
1597 74
1678 74
1980s 74
1990s 74
46,@@ 74
6.000 74
Asian 74
Class@@ 74
Final 74
HR 74
Middle 74
Mohamed 74
N.@@ 74
Nielsen 74
Py@@ 74
Ring 74
Sir 74
Tab@@ 74
Tag 74
Television 74
Tour@@ 74
Up@@ 74
Zh@@ 74
amura 74
andro 74
aq 74
ead 74
ebr@@ 74
fic@@ 74
gri@@ 74
ign@@ 74
lers 74
live 74
mea 74
med@@ 74
order 74
pa@@ 74
protein 74
px 74
she@@ 74
sis 74
uf@@ 74
weight 74
zy@@ 74
él@@ 74
فضا 74
كتيريا 74
وسكون@@ 74
چ 74
ܝ@@ 74
↑ 74
500.000 73
Associ@@ 73
Ath@@ 73
Hat@@ 73
Houston 73
How 73
Myr@@ 73
ND 73
Not 73
ON 73
Peter@@ 73
SV 73
Set@@ 73
Spir@@ 73
Us@@ 73
Wild 73
Will@@ 73
With 73
aden@@ 73
ames 73
anum 73
ases 73
aux 73
avi@@ 73
chen@@ 73
endr@@ 73
enz 73
eum 73
gro@@ 73
idan 73
ider 73
ists 73
mart 73
mm 73
officer 73
oscop@@ 73
syn@@ 73
ution 73
vor@@ 73
ye@@ 73
ysis 73
ائش 73
اخلاق 73
اشعار 73
شعرا 73
مزاح@@ 73
ち 73
1583 72
Anton 72
Astr@@ 72
Baby 72
Bah@@ 72
Body 72
Bour@@ 72
CV@@ 72
Ele@@ 72
Eva 72
Fel@@ 72
Helen 72
ICA@@ 72
Jessica 72
Ka 72
Lambert 72
Lyon 72
MO 72
Ma 72
Nucle@@ 72
Om@@ 72
PT 72
Plan@@ 72
Ramón 72
Reich@@ 72
Rotten 72
Stand@@ 72
ais@@ 72
arius 72
astr@@ 72
author 72
ban@@ 72
bio 72
cent@@ 72
dier 72
enz@@ 72
ety 72
form@@ 72
get 72
head 72
icio 72
idea 72
ini@@ 72
itas 72
like 72
media 72
mit 72
player 72
sit@@ 72
stone 72
tu 72
ull 72
ush 72
uta 72
zo@@ 72
ác@@ 72
án@@ 72
ئس 72
اسلام 72
تی@@ 72
وصال 72
1571 71
Catherine 71
Commun@@ 71
Dead 71
End 71
Environ@@ 71
Express 71
Fig@@ 71
Franz 71
Gil 71
Heinrich 71
Junior 71
Land 71
Ohio 71
Ox@@ 71
Phot@@ 71
Prim@@ 71
Sac@@ 71
Santiago 71
Sr@@ 71
Stein 71
Today 71
Top 71
Trust 71
VII 71
Werner 71
also 71
amoto 71
atos 71
burg 71
bury 71
cer 71
cy 71
din@@ 71
esia 71
etus 71
full 71
han 71
idi 71
inson 71
ket@@ 71
lab@@ 71
oli@@ 71
phis 71
plas@@ 71
sevi@@ 71
star 71
sten 71
tan 71
tre 71
trix 71
ures 71
version 71
will 71
ä 71
ω 71
جناب 71
شی@@ 71
مجسم@@ 71
٢ 71
1556 70
1643 70
4,5 70
Air@@ 70
CON@@ 70
Del 70
Drake 70
Franco 70
GO 70
God 70
HF 70
Johan 70
Lis@@ 70
Louise 70
Organization 70
Ot@@ 70
Quar@@ 70
Theory 70
Us 70
Victoria 70
Vil@@ 70
Zi@@ 70
anie 70
bs@@ 70
chen 70
cio 70
double 70
dri@@ 70
emb@@ 70
etic 70
far@@ 70
illus 70
istic 70
ital 70
kg 70
obi@@ 70
ose 70
play 70
point 70
private 70
sem@@ 70
sy 70
tre@@ 70
uke 70
vul@@ 70
yle 70
ב 70
نصاب 70
کان@@ 70
り 70
1,2 69
48,@@ 69
Alexandre 69
Andr@@ 69
Arab@@ 69
Army 69
BN 69
Barcelona 69
Bart@@ 69
Bird 69
By@@ 69
Cir@@ 69
Cru@@ 69
Din@@ 69
Do 69
Empire 69
F1 69
Fle@@ 69
Krist@@ 69
Linda 69
Müller 69
Pad@@ 69
Patricia 69
Rudolf 69
Se 69
Ses@@ 69
Squ@@ 69
Tol@@ 69
Ton@@ 69
Wel@@ 69
ado@@ 69
anti 69
ards 69
asy@@ 69
ater 69
eas@@ 69
eh 69
elds 69
emp@@ 69
erson 69
eu@@ 69
hor@@ 69
ight@@ 69
lac@@ 69
lar 69
memory 69
opath@@ 69
spec@@ 69
stell@@ 69
ud 69
Σ@@ 69
ז@@ 69
47,@@ 68
Ai 68
Alpha 68
Andreas 68
Arab 68
CLC 68
Camp@@ 68
Comp@@ 68
Diamond 68
Eu@@ 68
FBI 68
Flu@@ 68
Hid@@ 68
Hot 68
Keller 68
Like 68
Math@@ 68
Museum 68
Pseud@@ 68
Pu@@ 68
Ry@@ 68
Stefan 68
Vas@@ 68
Verlag 68
Wid@@ 68
Wrest@@ 68
ale@@ 68
arium 68
ayer 68
cho 68
comp@@ 68
dy@@ 68
edo 68
irus 68
ité 68
iz 68
law 68
method 68
mo 68
osus 68
ph 68
plan@@ 68
qui@@ 68
sn@@ 68
sta 68
tal 68
tors 68
tory 68
tric@@ 68
uses 68
xy@@ 68
yth@@ 68
Ó@@ 68
μ 68
شائر 68
مربوط 68
١ 68
じ 68
三@@ 68
1577 67
Anth@@ 67
Centre 67
Charlotte 67
Chester 67
Clem@@ 67
Council 67
DA@@ 67
Egypt 67
Fir@@ 67
Herrera 67
Hit@@ 67
Hubert 67
Kil@@ 67
Kingdom 67
Major 67
Midd@@ 67
Model 67
Mr. 67
Og@@ 67
Orlando 67
Pyr@@ 67
Rou@@ 67
Security 67
Services 67
Syl@@ 67
Urban 67
Vie@@ 67
XP 67
Xi@@ 67
Yo@@ 67
acter@@ 67
ades 67
aller 67
ator@@ 67
aun 67
ease 67
ett@@ 67
eur 67
gren 67
itis 67
ization 67
ld@@ 67
ll 67
mir@@ 67
phot@@ 67
plic@@ 67
process 67
quez 67
ski@@ 67
tem@@ 67
uck 67
ár@@ 67
یر 67
ら@@ 67
1.000 66
1970s 66
3.000 66
Abr@@ 66
Ass@@ 66
Ax@@ 66
Barb@@ 66
Bin@@ 66
Class 66
Cot@@ 66
DL@@ 66
Dami@@ 66
Dark 66
EB@@ 66
Ec@@ 66
Engineering 66
February 66
Horn 66
Information 66
Kem@@ 66
Koh@@ 66
Mg@@ 66
Michigan 66
Mik@@ 66
Nord@@ 66
Play 66
SK 66
Shin@@ 66
Stern 66
alg@@ 66
aster 66
aye 66
been 66
but@@ 66
ces 66
etti 66
fo 66
iOS 66
later 66
life 66
load 66
mine 66
mán 66
object 66
oko 66
onist 66
port@@ 66
producer 66
put@@ 66
que@@ 66
reo 66
ror 66
sho@@ 66
unk@@ 66
ν@@ 66
حارث 66
رواج 66
سادات 66
عباس@@ 66
وقار 66
の 66
Andrea 65
Cabr@@ 65
Division 65
IUCN 65
Ky@@ 65
Labour 65
Let 65
Lopez 65
Max@@ 65
Movie 65
Mr@@ 65
Phys@@ 65
Run@@ 65
Tap@@ 65
UR 65
Vog@@ 65
Víctor 65
aire 65
asa 65
bia 65
bin 65
bridge 65
campus 65
eland 65
enter 65
had 65
height 65
hum@@ 65
ifolia 65
medi@@ 65
nio 65
omi 65
osh@@ 65
pus 65
rain 65
ru 65
shire 65
tero 65
uer@@ 65
used 65
wat@@ 65
your 65
ρ 65
א 65
جی@@ 65
خانق@@ 65
سونا 65
مرث@@ 65
مشغول 65
ふ@@ 65
ろ 65
1668 64
2,5 64
Amp@@ 64
Ana 64
Anti 64
BB 64
Bab@@ 64
Berger 64
Blood 64
Books 64
Brand 64
Cand@@ 64
Felix 64
Gle@@ 64
Guide 64
HL 64
He 64
Hotel 64
Ish@@ 64
KA 64
Lag@@ 64
Lec@@ 64
Ludwig 64
Manit@@ 64
Penn@@ 64
Rho@@ 64
Rodrigo 64
SK@@ 64
Sea 64
Som@@ 64
Stur@@ 64
Type 64
Yang 64
Yu 64
adia 64
ads 64
but 64
conn@@ 64
following 64
fu@@ 64
hydr@@ 64
iPhone 64
ils 64
inda 64
information 64
ique 64
issa 64
ments 64
mont 64
orr@@ 64
pert 64
ps@@ 64
ran 64
rap@@ 64
ry@@ 64
shi@@ 64
tern@@ 64
tric 64
ummer 64
ungs@@ 64
vic@@ 64
war 64
yan 64
ás@@ 64
ô@@ 64
اپ@@ 64
رمض@@ 64
فائر 64
فارم 64
া@@ 64
く@@ 64
49,@@ 63
Am 63
Beach 63
Bru@@ 63
Brun@@ 63
Carol 63
DD 63
DT 63
Da@@ 63
Det@@ 63
Florida 63
From 63
Gill@@ 63
Haz@@ 63
Lady 63
Library 63
Lon@@ 63
Marcel@@ 63
Medina 63
Mut@@ 63
Reich 63
Sen@@ 63
Serge@@ 63
Snow 63
VP 63
Vicente 63
Wit@@ 63
Wu 63
Yos@@ 63
ains 63
aker 63
alan@@ 63
alization 63
anthus 63
atio 63
bil@@ 63
cape 63
eni 63
erra 63
esi 63
flo@@ 63
frame 63
fre@@ 63
hel@@ 63
ights 63
ij@@ 63
illo 63
ilo 63
ision 63
map@@ 63
mark 63
nam@@ 63
onic 63
press 63
properties 63
sac@@ 63
space 63
v. 63
à@@ 63
ère 63
ă@@ 63
ئر@@ 63
◊ 63
え@@ 63
上@@ 63
Anders 62
Bit@@ 62
Bran@@ 62
EE 62
Edition 62
Eff@@ 62
Felipe 62
Java 62
Kane 62
Koch 62
Liber@@ 62
Lov@@ 62
Luther 62
Map@@ 62
Martha 62
Mendoza 62
Mind 62
Nú@@ 62
Ori@@ 62
Over 62
Petr@@ 62
Princess 62
Ray@@ 62
René 62
Rum@@ 62
Sak@@ 62
Saw@@ 62
Stop 62
Tech 62
Vargas 62
Zero 62
active 62
antha 62
aqu@@ 62
arian 62
chem 62
das 62
elia 62
eral 62
hard 62
ilis 62
istr@@ 62
log 62
mal 62
mut@@ 62
neur@@ 62
oki 62
racing 62
sam@@ 62
tro 62
uti@@ 62
ü@@ 62
κ@@ 62
ד 62
دروا@@ 62
مستعمل 62
ملوث 62
け 62
ん 62
8.000 61
Bo 61
Bom@@ 61
Bridge 61
Cav@@ 61
Court 61
Fame 61
Fas@@ 61
Henri 61
Inf@@ 61
Ivan@@ 61
Jonas 61
KV@@ 61
Marcel 61
Ny@@ 61
Pach@@ 61
Pep@@ 61
Studio 61
Tour 61
UP 61
W.@@ 61
alo 61
andes 61
arry 61
aut@@ 61
axis 61
bat@@ 61
bos@@ 61
cal 61
case 61
cm 61
content 61
ective 61
escens 61
eva 61
ind 61
km 61
las@@ 61
lav 61
link 61
oe 61
ogr@@ 61
ols 61
only 61
par 61
part@@ 61
pour 61
pression 61
scar 61
second 61
tel 61
tex@@ 61
ticus 61
urs 61
wan@@ 61
³ 61
ázquez 61
ï@@ 61
ñ@@ 61
بسر 61
تی 61
خود 61
زی@@ 61
٣@@ 61
イ@@ 61
高@@ 61
Abel 60
Action 60
Anton@@ 60
Bell@@ 60
Four@@ 60
Fri@@ 60
Fritz 60
GN@@ 60
Guerrero 60
Has@@ 60
Hern@@ 60
Imag@@ 60
Ji@@ 60
Jo 60
Jung 60
Kab@@ 60
Kate 60
Lyn@@ 60
Mid@@ 60
Miy@@ 60
Mountain 60
NFL 60
Nicolás 60
North@@ 60
Order 60
Pharm@@ 60
Phyl@@ 60
Rights 60
So 60
Sony 60
St 60
There 60
Thom@@ 60
UE 60
aber 60
ajas 60
aro 60
avo 60
aw 60
buch 60
care 60
cycl@@ 60
ening 60
enthal 60
fon@@ 60
formes 60
gy 60
hat@@ 60
ication 60
ince 60
k.@@ 60
music 60
na@@ 60
nu@@ 60
omo 60
py@@ 60
res 60
show 60
thre@@ 60
tney 60
uca 60
uma 60
ux 60
uy@@ 60
who 60
yat@@ 60
és 60
احد 60
る 60
Are 59
Chron@@ 59
Dragon 59
Gamb@@ 59
Get 59
Ignacio 59
Juli@@ 59
Let@@ 59
Limited 59
Liu 59
Marcos 59
Mess@@ 59
Mode 59
Mohammed 59
Mé@@ 59
Oxford 59
PO 59
Raj@@ 59
Sach@@ 59
Special 59
Unit 59
agr@@ 59
agus 59
ancer 59
arc@@ 59
chard 59
che@@ 59
ches 59
control 59
dae 59
det@@ 59
domain 59
ects 59
ffe 59
gado 59
ien 59
itz@@ 59
opter@@ 59
osph@@ 59
psych@@ 59
qi 59
sk 59
sl@@ 59
under@@ 59
ven 59
wald 59
yd@@ 59
è@@ 59
Ι 59
φ 59
بین 59
་ 59
„ 59
リ@@ 59
Ado@@ 58
Adol@@ 58
Ah@@ 58
Alb@@ 58
Amy 58
Arabic 58
Asia 58
Bonn@@ 58
By 58
Cent@@ 58
Cha@@ 58
Chan 58
Cher@@ 58
DJ 58
Fred@@ 58
Hoffmann 58
Hong 58
Jav@@ 58
Jules 58
Just 58
KG 58
Key 58
Lep@@ 58
Lincoln 58
Lit@@ 58
Machine 58
Maj@@ 58
Medicine 58
Michelle 58
Pir@@ 58
Pod@@ 58
Pon@@ 58
Raúl 58
Ruf@@ 58
Terr@@ 58
UC 58
aun@@ 58
ban 58
blog@@ 58
chlor@@ 58
ej@@ 58
eno 58
family 58
four 58
game 58
hip 58
ige 58
kan@@ 58
mail 58
mic 58
orient@@ 58
pit@@ 58
rit@@ 58
strö@@ 58
ties 58
tionary 58
tt@@ 58
unit 58
urt 58
vit@@ 58
wil@@ 58
won 58
éri@@ 58
Η@@ 58
اقد@@ 58
زمباب@@ 58
قی@@ 58
ა@@ 58
ⵉ@@ 58
ー 58
松@@ 58
이@@ 58
Base 57
Bj@@ 57
Capital 57
Conservative 57
Contin@@ 57
Dr. 57
EU 57
Fur@@ 57
Future 57
Gabri@@ 57
Guillermo 57
Gustavo 57
Hal 57
ICC 57
Indian 57
Johann 57
Kaiser 57
Lima 57
Living@@ 57
Lorenzo 57
Magic 57
Main 57
Monte 57
Nixon 57
PF 57
Philippe 57
Port 57
Rah@@ 57
Richmond 57
Room 57
Sad@@ 57
Sara 57
Scienti@@ 57
Steel 57
Tsu@@ 57
Valley 57
Woman 57
Works 57
ading 57
ander 57
anz@@ 57
aro@@ 57
azar 57
bishop 57
cri@@ 57
dom 57
dor@@ 57
educ@@ 57
ement@@ 57
esh@@ 57
fur@@ 57
gel@@ 57
ices 57
ician 57
index 57
ior 57
ize 57
kal@@ 57
kan 57
lor 57
mak@@ 57
nier 57
ope 57
ović 57
owski 57
pag@@ 57
plus 57
rano 57
rea 57
tidae 57
tier 57
tun@@ 57
uno 57
vers@@ 57
vil@@ 57
vis@@ 57
yal@@ 57
Álvar@@ 57
ás 57
î@@ 57
İ@@ 57
τος 57
А@@ 57
اختتام 57
اردن 57
مصنوعات 57
BSD 56
Betty 56
Blanco 56
Ceph@@ 56
Command 56
Diana 56
Disney 56
Energy 56
Fem@@ 56
Gly@@ 56
Karen 56
Lanc@@ 56
Miss 56
Mobile 56
Monroe 56
Nas@@ 56
Neg@@ 56
Nem@@ 56
Nicolas 56
Operation 56
Peri@@ 56
Plus 56
Poli@@ 56
Pom@@ 56
RN 56
Sci@@ 56
Studios 56
When 56
Xen@@ 56
acea 56
acker 56
age@@ 56
ark@@ 56
ayn@@ 56
between 56
boy 56
bus@@ 56
chrom@@ 56
cian 56
cle@@ 56
din 56
dt 56
ef 56
eps 56
gas 56
gio 56
han@@ 56
iga 56
iller 56
jo@@ 56
kov 56
lit@@ 56
mad@@ 56
manuel 56
mati@@ 56
otis 56
people 56
pi 56
range 56
room 56
small 56
tom 56
uo 56
ying 56
ابلا@@ 56
اصف@@ 56
ايتد 56
石@@ 56
7.000 55
AU 55
Adler 55
Aff@@ 55
Alfredo 55
Back@@ 55
Boys 55
Bun@@ 55
Cath@@ 55
Chang 55
Christine 55
Comics 55
Cryp@@ 55
Encyclo@@ 55
Festival 55
Fire@@ 55
Flash 55
Hack@@ 55
Hood 55
Hyp@@ 55
Iron 55
Kun@@ 55
Leonardo 55
MG 55
Mack@@ 55
Mont@@ 55
Philosoph@@ 55
Quer@@ 55
Report 55
Rosa 55
Sciences 55
Speed 55
Sylv@@ 55
Zhang 55
assi@@ 55
bach 55
cast 55
charge 55
ching 55
cit@@ 55
diplom@@ 55
eous 55
eti 55
etz 55
fe 55
free 55
gil@@ 55
iri 55
ky@@ 55
lang 55
oso 55
tain@@ 55
tie 55
tle 55
tournament 55
urn@@ 55
ww@@ 55
yx 55
¤ 55
ία 55
ε@@ 55
ρι@@ 55
منسو@@ 55
ἀ@@ 55
や 55
郎 55
0,1 54
Ambro@@ 54
Box 54
Bri@@ 54
Claire 54
Cleveland 54
Community 54
Dich@@ 54
Dorothy 54
Dream 54
EV@@ 54
Full 54
Gener@@ 54
Gon@@ 54
Hab@@ 54
Hin@@ 54
Kos@@ 54
Kov@@ 54
Las@@ 54
Ne 54
Pos@@ 54
Prize 54
Rab@@ 54
Samp@@ 54
Staf@@ 54
Swift 54
Tyr@@ 54
Yi 54
alis@@ 54
ame@@ 54
anga 54
aper 54
ball 54
bon 54
chart 54
dos 54
dur@@ 54
eck@@ 54
fast 54
gin@@ 54
grap@@ 54
ili 54
imi 54
ls@@ 54
m2 54
opsis 54
pedia 54
pot@@ 54
rat 54
software 54
synth@@ 54
Ç@@ 54
öl@@ 54
ε 54
ка 54
ׁ@@ 54
راول@@ 54
سوال@@ 54
شاخ@@ 54
1st 53
Alliance 53
Aman@@ 53
Amaz@@ 53
Bad 53
Beta 53
Coll@@ 53
Culture 53
December 53
Dig@@ 53
Fif@@ 53
Flo@@ 53
Geor@@ 53
Girls 53
Guerra 53
Hed@@ 53
Hot@@ 53
Hun@@ 53
Les@@ 53
Massachusetts 53
Pick@@ 53
Pug@@ 53
Salvador 53
Second 53
See 53
Sophie 53
Spar@@ 53
Sv@@ 53
UB@@ 53
UE@@ 53
Vari@@ 53
Vega 53
Viol@@ 53
Water@@ 53
Xavier 53
ables 53
agon@@ 53
atory 53
aug@@ 53
berto 53
cell@@ 53
costa 53
dol@@ 53
eco 53
eline 53
esta 53
fa 53
fication 53
lib@@ 53
lis@@ 53
mathemati@@ 53
mental 53
most 53
multi@@ 53
network 53
nucle@@ 53
ois 53
oli 53
outs 53
part 53
pas@@ 53
phil@@ 53
phone 53
plasma 53
research 53
rou@@ 53
round 53
uster 53
word 53
´ 53
ż@@ 53
θ@@ 53
ρος 53
ו 53
بائل 53
مشيخ@@ 53
٥ 53
ڭ 53
ス@@ 53
25.000 52
3,5 52
Andre@@ 52
Becker 52
Case 52
Chicago 52
Clinton 52
Columbia 52
Common 52
Dat@@ 52
Doc@@ 52
Florence 52
Frank@@ 52
Gaz@@ 52
Got@@ 52
Hermann 52
Islands 52
Justice 52
MV 52
Mathemati@@ 52
Mount 52
Ort@@ 52
Ris@@ 52
Scar@@ 52
Stein@@ 52
Til@@ 52
UF@@ 52
Villa 52
XII 52
alie 52
aver 52
away 52
each 52
ebo@@ 52
effect 52
enes 52
gh@@ 52
gia 52
gn@@ 52
inas 52
ited 52
nis 52
nit@@ 52
rati@@ 52
ric@@ 52
soci@@ 52
some 52
tri 52
uss@@ 52
vier 52
win@@ 52
year 52
ylo@@ 52
÷ 52
Μ@@ 52
ֵ@@ 52
الاسلام 52
وّار 52
一 52
2. 51
Alg@@ 51
Bec@@ 51
Beg@@ 51
Cambridge 51
Cus@@ 51
Deep 51
Dum@@ 51
Et@@ 51
Heter@@ 51
Human@@ 51
IA@@ 51
Islam 51
Light@@ 51
Nacional 51
Ple@@ 51
Right 51
Southern 51
Spring 51
Theatre 51
U.@@ 51
Un 51
Vid@@ 51
WC 51
Ye@@ 51
ats@@ 51
ave@@ 51
bac@@ 51
bit@@ 51
cam@@ 51
coc@@ 51
cola 51
dii 51
dres@@ 51
egr@@ 51
eli 51
else 51
ended 51
ends 51
erst@@ 51
factor 51
hid 51
hir@@ 51
inum 51
ischer 51
kor@@ 51
let@@ 51
math 51
n.@@ 51
og 51
oga 51
ophy@@ 51
press@@ 51
rate 51
rio 51
sar@@ 51
see 51
spe@@ 51
tering 51
ularis 51
ury 51
using 51
vie@@ 51
where 51
ì 51
ś@@ 51
Νέα 51
σ 51
τ@@ 51
ն 51
ֶ@@ 51
گر@@ 51
正@@ 51
Alo@@ 50
Angela 50
Aub@@ 50
Beno@@ 50
Boh@@ 50
Broad@@ 50
Christmas 50
Country 50
Dallas 50
Day@@ 50
Dim@@ 50
Duf@@ 50
End@@ 50
Fall 50
Georg 50
Gesellschaft 50
Hub@@ 50
Integr@@ 50
It@@ 50
January 50
Johannes 50
Kob@@ 50
Liter@@ 50
Long@@ 50
NAS@@ 50
NBA 50
Nation 50
Nicol@@ 50
November 50
Olympics 50
Our 50
SQL 50
Sebastian 50
Si 50
Square 50
Sug@@ 50
Sweet 50
Tiger 50
Total 50
Turn@@ 50
UEFA 50
Volks@@ 50
Wr@@ 50
Ze@@ 50
ager 50
aldo 50
allo 50
analysis 50
andra 50
antum 50
arte 50
ason 50
aurus 50
back@@ 50
cat 50
ceph@@ 50
dig@@ 50
ecca 50
eg 50
eless 50
ext@@ 50
fish 50
gam@@ 50
hard@@ 50
icia 50
istry 50
itation 50
jan 50
lim@@ 50
lip@@ 50
lor@@ 50
nes@@ 50
ogen 50
ond 50
optera 50
osp@@ 50
osum 50
phus 50
pic@@ 50
pub@@ 50
sci@@ 50
science 50
then 50
thor@@ 50
tos 50
trac@@ 50
ule 50
union 50
utt@@ 50
vert 50
η 50
ն@@ 50
٨ 50
کی@@ 50
ܕ@@ 50
真@@ 50
AH 49
Arabia 49
Arti@@ 49
Autom@@ 49
Cog@@ 49
Dark@@ 49
Doug@@ 49
Dru@@ 49
Eas@@ 49
Ho 49
Jersey 49
Lara 49
Lionel 49
Lop@@ 49
Mars 49
Master 49
Masters 49
Mayo 49
Már@@ 49
Ner@@ 49
Nicole 49
Od@@ 49
Publishing 49
Richter 49
Rous@@ 49
Run 49
SO 49
Say@@ 49
Sid@@ 49
Sport 49
Stre@@ 49
angle 49
asse 49
bis 49
box 49
chl@@ 49
dans 49
dica 49
endron 49
enter@@ 49
esa 49
ete 49
historian 49
hyper@@ 49
icon 49
ident 49
ingen 49
leen 49
lists 49
lob@@ 49
long 49
make 49
ongo 49
ord 49
ostr@@ 49
own 49
pack@@ 49
pap@@ 49
pop 49
power 49
qui 49
ret 49
ris@@ 49
sel 49
teri@@ 49
through 49
thy 49
ö 49
ɪ@@ 49
٣ 49
≤ 49
≥ 49
だ@@ 49
1. 48
2.0@@ 48
AZ 48
Alfonso 48
Arg@@ 48
Aud@@ 48
Ball@@ 48
Bauer 48
Bed@@ 48
CAF 48
Chi 48
Church 48
Committee 48
Dawn 48
Drive 48
Dus@@ 48
Facebook 48
Gay 48
Illinois 48
KO@@ 48
Leh@@ 48
Lif@@ 48
Low 48
Nancy 48
Num@@ 48
Planet 48
Raw 48
Rein@@ 48
Resp@@ 48
Rhin@@ 48
SB@@ 48
SG 48
Sieg@@ 48
Sper@@ 48
Third 48
Vis@@ 48
Vol 48
Winston 48
abol@@ 48
aj 48
alli@@ 48
amo 48
ardo 48
arum 48
avi 48
bat 48
bird 48
bone 48
bons 48
ces@@ 48
dale 48
dem 48
enta 48
entin 48
eron 48
gene 48
har 48
home 48
hon@@ 48
ingo 48
ink@@ 48
isch 48
ishi 48
kel 48
ken@@ 48
lio 48
lower 48
mando 48
odon 48
oon 48
oxy@@ 48
play@@ 48
rique 48
roy 48
sei 48
serv@@ 48
squ@@ 48
troph@@ 48
wn 48
ê@@ 48
ī 48
р@@ 48
ע 48
تبص@@ 48
تعلقات 48
گا@@ 48
人 48
原@@ 48
和@@ 48
And@@ 47
Annie 47
Bad@@ 47
Beautiful 47
Carmen 47
Ced@@ 47
Century 47
DDR 47
Econom@@ 47
Emily 47
Eye 47
Football 47
Georges 47
Ind@@ 47
Jose@@ 47
Kaw@@ 47
Kids 47
Laborat@@ 47
Late 47
León 47
Lip@@ 47
Minnesota 47
Parti@@ 47
Rey 47
Sag@@ 47
Samsung 47
September 47
Sex@@ 47
Sl@@ 47
Tex@@ 47
USS 47
Vivi@@ 47
Weekly 47
abase 47
after 47
aging 47
artic@@ 47
asi 47
berry 47
ck@@ 47
cut@@ 47
dh@@ 47
dis 47
eine 47
elin 47
energy 47
eros 47
essa 47
him 47
icial 47
icle 47
ilar 47
ilus 47
imal 47
lag 47
lion 47
mers 47
ml 47
now@@ 47
ologies 47
person@@ 47
phi@@ 47
podium 47
pur 47
roc@@ 47
san 47
sea 47
som@@ 47
sph@@ 47
systems 47
udi@@ 47
wel@@ 47
when 47
work 47
zen 47
è 47
ē 47
ž@@ 47
ابوب@@ 47
٤ 47
٧ 47
کل 47
یل 47
۔ 47
্ 47
≈ 47
ⵎ@@ 47
15.000 46
4.000 46
Agustín 46
Bass@@ 46
Bra@@ 46
CB 46
Caroline 46
Charl@@ 46
Claudia 46
Cristi@@ 46
EST 46
Electric 46
Federation 46
Grap@@ 46
Homo 46
Ibrahim 46
Jay@@ 46
Lost 46
Luna 46
Meh@@ 46
Money 46
Neu@@ 46
No. 46
Post@@ 46
Psy@@ 46
Queensland 46
Sap@@ 46
Set 46
Source 46
Sti@@ 46
Storm 46
Suzuki 46
Thor@@ 46
Vera 46
Whe@@ 46
abr@@ 46
activ@@ 46
ango 46
anta 46
atis 46
bias 46
board 46
bon@@ 46
centr@@ 46
chol@@ 46
current 46
eds 46
eleg@@ 46
ems 46
entes 46
eu 46
eur@@ 46
extr@@ 46
fic 46
gener@@ 46
hab@@ 46
health 46
hur@@ 46
ib 46
isch@@ 46
lev@@ 46
match 46
may 46
mel 46
nan 46
nik 46
oceph@@ 46
ogy 46
ort 46
pic 46
place 46
ples 46
pper 46
ras@@ 46
ree 46
ries 46
rights 46
set@@ 46
spir@@ 46
sport@@ 46
structure 46
sur 46
tar 46
tera 46
tium 46
umin@@ 46
use@@ 46
was@@ 46
while 46
Å 46
Ω 46
λ@@ 46
на 46
ы@@ 46
ւ@@ 46
روپ@@ 46
محسوس 46
ぐ@@ 46
.-@@ 45
Benedic@@ 45
Bertrand 45
Bes@@ 45
Bever@@ 45
Code 45
Cri@@ 45
Crow@@ 45
Darwin 45
Department 45
Economic 45
Emilio 45
Emp@@ 45
Es 45
Franc@@ 45
Globe 45
Grey 45
Guz@@ 45
IGN 45
INE 45
Inst@@ 45
Lau@@ 45
Lou@@ 45
Partn@@ 45
Path@@ 45
Princip@@ 45
Rio 45
Script 45
Ski@@ 45
Spanish 45
Tat@@ 45
Ted@@ 45
Tower 45
Vill@@ 45
Vin@@ 45
Wad@@ 45
XI 45
aking 45
amba 45
ancy 45
app 45
aven 45
cript 45
edia 45
engine 45
etz@@ 45
fi 45
film@@ 45
gly@@ 45
hip@@ 45
hist@@ 45
ino@@ 45
inst@@ 45
isi 45
ives 45
kers 45
lad@@ 45
last 45
lic 45
mand@@ 45
methods 45
mode 45
mul@@ 45
nav@@ 45
nm 45
omor@@ 45
onom@@ 45
orders 45
otic 45
otr@@ 45
post 45
prof@@ 45
prop@@ 45
rech@@ 45
refer@@ 45
rich@@ 45
rik 45
spin@@ 45
stat@@ 45
tari@@ 45
tex 45
trop@@ 45
uni 45
wa@@ 45
ì@@ 45
ò@@ 45
Λ@@ 45
э@@ 45
ե@@ 45
اعز@@ 45
خود@@ 45
وزارت 45
ٳ@@ 45
پار@@ 45
ھم 45
ۡ@@ 45
美@@ 45
西@@ 45
AFC 44
Adolf 44
Aj@@ 44
Band 44
Brid@@ 44
Carlo 44
Chlor@@ 44
Cum@@ 44
Fort 44
Fut@@ 44
GNU 44
Ges@@ 44
Get@@ 44
Gh@@ 44
Legend 44
Louisiana 44
Magnus 44
Marqu@@ 44
Metal 44
Missouri 44
Má@@ 44
NHL 44
Nations 44
Neb@@ 44
Netflix 44
Pag@@ 44
Peña 44
Place 44
Polic@@ 44
Productions 44
Program 44
Ric@@ 44
Ritter 44
SMS 44
Santa 44
Single 44
Sunday 44
Tag@@ 44
Tomás 44
Um@@ 44
Vul@@ 44
YouTube 44
ael 44
alli 44
aly@@ 44
aru 44
aud@@ 44
bian 44
break 44
cht 44
confirmed 44
cont@@ 44
cott 44
ec 44
ells 44
erie 44
fied 44
figh@@ 44
flav@@ 44
fran@@ 44
gy@@ 44
hir 44
igo 44
isco 44
kar 44
lawyer 44
leri 44
lus 44
may@@ 44
mol@@ 44
nic@@ 44
non@@ 44
onis 44
open 44
park 44
pers 44
pyr@@ 44
related 44
rol@@ 44
sions 44
tak@@ 44
they 44
tual 44
ui@@ 44
user 44
ü 44
Δ 44
Ε@@ 44
ק 44
اوسط 44
علی@@ 44
ولی@@ 44
٥@@ 44
ژ@@ 44
کن 44
یم 44
美 44
Abdul 43
Abu 43
Again 43
Arn@@ 43
BO 43
Brothers 43
Cat 43
Change 43
Dance 43
Days 43
Dir@@ 43
District 43
Double 43
Electronic 43
Ellen 43
Equ@@ 43
Esp@@ 43
Ez@@ 43
Factory 43
Fall@@ 43
Films 43
Forest 43
Freedom 43
Félix 43
Generation 43
Gru@@ 43
Had@@ 43
Happy 43
Hav@@ 43
Hug@@ 43
Leopold 43
Maine 43
Motor 43
Natural 43
Nokia 43
Non 43
Pit@@ 43
Revolution 43
Six 43
Sle@@ 43
Sof@@ 43
Sym@@ 43
True 43
Ung@@ 43
Victor@@ 43
Wellington 43
XT 43
acher 43
acle 43
ait 43
alum 43
amo@@ 43
ander@@ 43
architect 43
ators 43
auss 43
bes@@ 43
bius 43
chia 43
come 43
cular 43
dam@@ 43
dre@@ 43
editor 43
ego 43
emi 43
enda 43
fel@@ 43
ference 43
fly 43
fred 43
icola 43
ider@@ 43
iger 43
illing 43
iti 43
ked 43
kus 43
lands 43
ledge 43
ligh@@ 43
management 43
mid@@ 43
mos 43
nal 43
nig@@ 43
ologie 43
onder@@ 43
ophora 43
path@@ 43
plication 43
post@@ 43
prin@@ 43
process@@ 43
production 43
quin@@ 43
sal 43
sap@@ 43
seau 43
stream 43
sun@@ 43
tas@@ 43
tos@@ 43
trav@@ 43
ushi 43
uth 43
valid@@ 43
vid@@ 43
za@@ 43
zer 43
ós 43
в@@ 43
н@@ 43
ի@@ 43
سمند@@ 43
ܪ@@ 43
べ 43
金@@ 43
Alex@@ 42
Arc@@ 42
Arturo 42
Baron 42
Centr@@ 42
Chinese 42
Chr@@ 42
Civil 42
Conference 42
Cou@@ 42
Def@@ 42
Deutsch 42
Domingo 42
Dynam@@ 42
Ernesto 42
Evil 42
Ferdinand 42
Frances 42
Gab@@ 42
Garr@@ 42
Giovanni 42
Gloria 42
Identi@@ 42
Index 42
Indi@@ 42
KS 42
Kai 42
King@@ 42
Kl@@ 42
Living 42
Lucy 42
Madison 42
Main@@ 42
Marx 42
Modern 42
NH 42
Non@@ 42
Other 42
Revol@@ 42
Roy@@ 42
Russian 42
Simone 42
Sir@@ 42
Some 42
Stap@@ 42
UA 42
Upper 42
VIII 42
View 42
Vladimir 42
WT@@ 42
Water 42
Years 42
alt 42
antes 42
berger 42
bits 42
culture 42
dar@@ 42
detail@@ 42
dings 42
edition 42
fiel@@ 42
force 42
fri@@ 42
has@@ 42
indic@@ 42
ingu@@ 42
keting 42
kir@@ 42
ku 42
learning 42
lyc@@ 42
mania 42
mir 42
nar 42
num@@ 42
olo 42
ords 42
oria 42
orio 42
oud 42
oul 42
ox 42
pent@@ 42
pith@@ 42
plat@@ 42
rag@@ 42
ram@@ 42
rugby 42
rup@@ 42
sha 42
these 42
tian 42
tot@@ 42
ucle@@ 42
ums 42
unds 42
xa 42
ño 42
ön@@ 42
ă 42
ş@@ 42
Φ@@ 42
Б@@ 42
у 42
اوراس 42
بلند 42
چو@@ 42
گا 42
ھو 42
ܘ@@ 42
ი@@ 42
オ@@ 42
ジ@@ 42
ッ@@ 42
也 42
佐@@ 42
太@@ 42
1,1 41
1,3 41
About 41
Angola 41
BD 41
Bar 41
Bayer 41
Blas@@ 41
Ble@@ 41
Bloom@@ 41
Boston 41
Car 41
Chile 41
Classic 41
Dé@@ 41
Ein@@ 41
Exper@@ 41
Extr@@ 41
Fa@@ 41
Feld@@ 41
Flor@@ 41
Forum 41
Galaxy 41
Game@@ 41
Grove 41
Heinz 41
Invest@@ 41
Isa@@ 41
Islamic 41
K.@@ 41
KK 41
Kentucky 41
Khar@@ 41
Liberal 41
Lich@@ 41
Lud@@ 41
Miranda 41
Mn@@ 41
More 41
Nan@@ 41
Nil@@ 41
Off 41
Olivier 41
Ou@@ 41
Peace 41
Plan 41
Ruby 41
SU 41
Sever@@ 41
Sign@@ 41
Soul 41
Tru@@ 41
VV@@ 41
Va@@ 41
Val 41
Was@@ 41
Yah@@ 41
acon 41
aks 41
alog@@ 41
amework 41
ano@@ 41
area 41
arriba 41
articles 41
atur@@ 41
bir@@ 41
cis 41
edr@@ 41
erine 41
eson 41
eto 41
etr@@ 41
fan 41
flow 41
gin 41
high 41
hood 41
ht 41
iliz@@ 41
illar@@ 41
inden 41
iting 41
kon@@ 41
layer 41
lies 41
maker 41
med 41
mid 41
mon 41
nt 41
omer@@ 41
onen 41
organ@@ 41
oter 41
parti@@ 41
poet 41
read 41
rest@@ 41
ritt 41
sian 41
size 41
sley 41
soc@@ 41
tac@@ 41
tec@@ 41
tern 41
thumb 41
times 41
trum 41
tur 41
uchs 41
utz 41
within 41
ya@@ 41
zaman 41
çal@@ 41
ː@@ 41
Π@@ 41
سامان 41
் 41
ἐ@@ 41
™ 41
∆ 41
∞ 41
⟩ 41
が@@ 41
ク@@ 41
一@@ 41
1950s 40
2,3 40
Ahmad 40
Alexis 40
Bach 40
Bam@@ 40
Buil@@ 40
Cant@@ 40
Cape 40
Catal@@ 40
Channel 40
Coc@@ 40
Dais@@ 40
Eagle 40
Enterprise 40
Federal 40
GDP 40
Gott@@ 40
Here 40
Hop@@ 40
Janet 40
Lancaster 40
Make 40
Mall@@ 40
Navy 40
Neum@@ 40
Only 40
Pacific 40
Person@@ 40
Phoenix 40
President 40
Rech@@ 40
Rib@@ 40
Roche 40
Rog@@ 40
SQ@@ 40
Saudi 40
Schw@@ 40
Seven 40
Some@@ 40
Ten@@ 40
Test@@ 40
Under 40
Universe 40
Voice 40
Wind 40
Yan@@ 40
aeus 40
aha 40
alar@@ 40
alc@@ 40
ana@@ 40
ances 40
asco 40
asty 40
bra 40
capit@@ 40
comedi@@ 40
dal@@ 40
dan@@ 40
dev@@ 40
dex 40
econom@@ 40
education 40
emat@@ 40
fall 40
final 40
help 40
host 40
i.@@ 40
ild 40
kel@@ 40
mg 40
mix@@ 40
nati@@ 40
nov@@ 40
ograp@@ 40
oug@@ 40
pass@@ 40
plate 40
product 40
sens@@ 40
speed 40
squad 40
teams 40
therap@@ 40
tice 40
tii 40
tox@@ 40
tural 40
ulata 40
vic 40
vá@@ 40
wall 40
ways 40
wr@@ 40
ymn@@ 40
ë@@ 40
š 40
Α@@ 40
ο@@ 40
ρ@@ 40
φ@@ 40
ό@@ 40
и 40
л@@ 40
اسلم 40
اقدام 40
مدی@@ 40
ܢ@@ 40
⟨ 40
・ 40
1960s 39
Alek@@ 39
Amer@@ 39
Artic@@ 39
Audi@@ 39
Aviation 39
Away 39
BAS@@ 39
Ce@@ 39
Christina 39
Clu@@ 39
Crim@@ 39
DOS 39
Dominique 39
Elisabeth 39
Eugen@@ 39
Flight 39
Four 39
Fron@@ 39
Garden 39
Grande 39
Hall@@ 39
Jesus 39
Jos@@ 39
Jun@@ 39
Mi 39
Morning 39
Muhammad 39
NCAA 39
NSDAP 39
Oh 39
Oxy@@ 39
Plant@@ 39
Rit@@ 39
Riv@@ 39
Sau@@ 39
Sebastián 39
Secret 39
Spr@@ 39
Talk 39
Telec@@ 39
Too 39
Tu 39
UFC 39
V.@@ 39
Visual 39
Wis@@ 39
Yel@@ 39
abstr@@ 39
afric@@ 39
aise 39
alp@@ 39
apping 39
aries 39
asha 39
ayan 39
azi@@ 39
ben 39
class@@ 39
crip@@ 39
development 39
duction 39
eca 39
eger 39
ential 39
essing 39
ester@@ 39
glut@@ 39
hou 39
iana 39
iel 39
imo 39
international 39
ion@@ 39
ises 39
isher 39
istan 39
kw@@ 39
led@@ 39
level 39
nec@@ 39
olina 39
orian 39
otro@@ 39
pet@@ 39
players 39
polis 39
ports 39
pot 39
proced@@ 39
racy 39
real 39
rem@@ 39
rin 39
sche 39
sts 39
unction 39
uz 39
ves@@ 39
xi 39
yro@@ 39
ça 39
Ž@@ 39
ά 39
ά@@ 39
ί@@ 39
όν 39
ש 39
انی 39
دید 39
فروغ 39
متحد 39
ملتان 39
نگ 39
ざ@@ 39
マ@@ 39
ル@@ 39
ン 39
天@@ 39
島@@ 39
海@@ 39
1,6 38
Aeg@@ 38
After 38
Aircraft 38
At 38
BMW 38
Bang 38
Bureau 38
Carol@@ 38
Cler@@ 38
Come 38
Communications 38
Corps 38
Coun@@ 38
Crown 38
Delta 38
Democ@@ 38
Emil 38
En 38
Federico 38
Fort@@ 38
Fos@@ 38
Gel@@ 38
Hammer 38
Hof@@ 38
Jor@@ 38
Josef 38
Kong 38
Laf@@ 38
Lak@@ 38
Lan@@ 38
Lav@@ 38
Lod@@ 38
Magn@@ 38
Mariano 38
Miss@@ 38
NCA@@ 38
Next 38
OT@@ 38
Orange 38
Paula 38
Schum@@ 38
Shim@@ 38
Sound 38
Take 38
Tan 38
Tos@@ 38
Trich@@ 38
Wall@@ 38
aco 38
adap@@ 38
aku 38
aling 38
angu@@ 38
austr@@ 38
beta 38
bra@@ 38
cic@@ 38
city 38
cot@@ 38
dro@@ 38
eff@@ 38
ehr@@ 38
ener 38
ener@@ 38
ente 38
fus@@ 38
gas@@ 38
heart 38
heim 38
imi@@ 38
immun@@ 38
inj@@ 38
ires 38
ished 38
ized 38
lec@@ 38
lep@@ 38
liga 38
luc@@ 38
mar 38
master 38
oly@@ 38
one@@ 38
pir@@ 38
poem 38
quer@@ 38
red@@ 38
rent 38
sat@@ 38
school 38
show@@ 38
ska 38
species 38
sport 38
sue 38
tax@@ 38
tner 38
vent@@ 38
volution 38
women 38
zano 38
zon 38
а@@ 38
н 38
دراز 38
مخصوص 38
نامور 38
٨@@ 38
٩ 38
پان@@ 38
کت@@ 38
ۚ 38
ܬ@@ 38
ⵜ@@ 38
東@@ 38
福@@ 38
谷@@ 38
雄 38
20th 37
Advanced 37
Alt@@ 37
Angelo 37
Arro@@ 37
Asp@@ 37
Atom@@ 37
Bag@@ 37
Bis@@ 37
Born 37
CNN 37
Call@@ 37
Claudio 37
Cold 37
Collection 37
Deutscher 37
Dr 37
Fat@@ 37
Freder@@ 37
Ghost 37
Giuseppe 37
Grav@@ 37
Heb@@ 37
Hend@@ 37
Herr@@ 37
Irene 37
Joaquín 37
Journ@@ 37
Lex@@ 37
Link 37
Mali@@ 37
Mau@@ 37
Military 37
Min 37
Prin@@ 37
Pun@@ 37
Quin@@ 37
RAF 37
Rocky 37
Russia 37
Sand 37
Silver 37
Sit@@ 37
Sol 37
Tad@@ 37
Tir@@ 37
Top@@ 37
Tra@@ 37
Trag@@ 37
Vinc@@ 37
aan 37
andi@@ 37
archi@@ 37
architecture 37
arts 37
auer 37
bad 37
bank 37
books 37
brand 37
cles 37
compon@@ 37
conditions 37
dor 37
eci@@ 37
elling 37
esi@@ 37
fier 37
fs 37
gate 37
gig@@ 37
gon 37
grac@@ 37
heter@@ 37
hio 37
hiz@@ 37
ici 37
ills 37
initi@@ 37
known 37
kur@@ 37
list@@ 37
lu 37
lyn 37
mart@@ 37
mission 37
ocarp@@ 37
oil 37
onne 37
oral 37
otes 37
phase 37
photograp@@ 37
plant 37
position 37
quel@@ 37
rock 37
scienti@@ 37
shar@@ 37
song@@ 37
tres 37
tron 37
uel@@ 37
ues 37
ult@@ 37
undo 37
unga 37
uru 37
usi@@ 37
vy@@ 37
west 37
what 37
ı 37
٭ 37
کار@@ 37
ῖ@@ 37
∙ 37
崎@@ 37
� 37
3,3 36
Ba 36
Bernardo 36
Bid@@ 36
Bog@@ 36
Boris 36
Brunswick 36
Caballer@@ 36
Christ 36
Cit@@ 36
Dimi@@ 36
Dod@@ 36
Educ@@ 36
Financial 36
Franç@@ 36
Free@@ 36
Gang@@ 36
Gem@@ 36
Gy@@ 36
Hollywood 36
Independent 36
Indonesia 36
Jur@@ 36
Las 36
Lef@@ 36
Mang@@ 36
Mih@@ 36
Never 36
Oil 36
Organ@@ 36
Orig@@ 36
Performance 36
Prom@@ 36
Ríos 36
Stars 36
Syria 36
UB 36
UM 36
Ves@@ 36
Wehr@@ 36
Work 36
Xbox 36
Yak@@ 36
Zen@@ 36
access 36
ador 36
agon 36
amaz@@ 36
anim@@ 36
anzen 36
apa 36
atz 36
av 36
azar@@ 36
ble@@ 36
car 36
cro@@ 36
dot 36
eld 36
emann 36
entry 36
eping 36
ept@@ 36
eter@@ 36
eye 36
figure 36
files 36
formis 36
found@@ 36
ful@@ 36
gar 36
gran@@ 36
graphy 36
human 36
icon@@ 36
iden 36
ikawa 36
iler 36
imp@@ 36
ird 36
ities 36
jam@@ 36
lag@@ 36
leg 36
letin 36
liber@@ 36
love 36
neg@@ 36
nie 36
ocer@@ 36
oir 36
once 36
onium 36
orn 36
oro 36
oval 36
pandemic 36
para 36
pter@@ 36
recep@@ 36
ride 36
rol 36
ron 36
skin 36
station 36
technology 36
thy@@ 36
toc@@ 36
tol@@ 36
tum 36
tés 36
uda 36
wave 36
zone 36
­ 36
ès 36
ħ@@ 36
Ş@@ 36
Ν@@ 36
Ρ@@ 36
В@@ 36
М@@ 36
О@@ 36
т 36
اک@@ 36
بنتا 36
جھ@@ 36
سک@@ 36
غیر 36
فرسن 36
فرنس 36
پر 36
گو 36
∪ 36
☆ 36
シ@@ 36
ト@@ 36
ラ@@ 36
口@@ 36
동@@ 36
1.500 35
2nd 35
3rd 35
Agency 35
Aki@@ 35
Aleksand@@ 35
Angel@@ 35
Anim@@ 35
Big@@ 35
Blues 35
Bob@@ 35
Brazil 35
Chir@@ 35
Cho@@ 35
Commission 35
Const@@ 35
Coul@@ 35
Cow@@ 35
Dep@@ 35
Develop@@ 35
Dmi@@ 35
Dog@@ 35
Emmanuel 35
Grou@@ 35
Ground 35
Hassan 35
Hep@@ 35
Hob@@ 35
Hul@@ 35
Industrial 35
Institut 35
Io@@ 35
Isab@@ 35
Isabel 35
Lombar@@ 35
Marvel 35
Merr@@ 35
Mother 35
NAT@@ 35
Nap@@ 35
Night@@ 35
Ocean 35
Panzer@@ 35
Pass@@ 35
Petit 35
Plas@@ 35
Pop 35
Rac@@ 35
Scre@@ 35
Sonder@@ 35
Strateg@@ 35
Style 35
Sultan 35
Tech@@ 35
Theodor 35
They 35
Tig@@ 35
Tree 35
WI 35
Zeitung 35
Zel@@ 35
acios 35
ación 35
actions 35
amide 35
arti@@ 35
aut 35
bad@@ 35
buil@@ 35
chor@@ 35
col 35
control@@ 35
depend@@ 35
drome 35
folium 35
gil 35
hion 35
hynch@@ 35
ications 35
igu@@ 35
isches 35
ising 35
jum@@ 35
kil@@ 35
lem 35
lut@@ 35
mam@@ 35
mechan@@ 35
member 35
met 35
nith@@ 35
phila 35
population 35
programming 35
quar@@ 35
rac@@ 35
radio 35
raz@@ 35
reaction 35
ren 35
rix 35
spr@@ 35
stage 35
sten@@ 35
syl@@ 35
tennis 35
ternal 35
tes@@ 35
thia 35
three 35
tronics 35
tz@@ 35
ulum 35
usion 35
wei 35
yne 35
zy 35
ū 35
ə 35
вич 35
к 35
с 35
ская 35
сь@@ 35
ш@@ 35
ס 35
آمد 35
بحران 35
سرح@@ 35
سی 35
صی@@ 35
لائنا 35
٤@@ 35
ٲ@@ 35
ば@@ 35
林@@ 35
대@@ 35
64,@@ 34
Administration 34
Airport 34
Ast@@ 34
Atlantic 34
August@@ 34
Auth@@ 34
Avi@@ 34
Bod@@ 34
Cast@@ 34
Cay@@ 34
Cinema 34
Cloud 34
Constant@@ 34
Count 34
Dad@@ 34
Dag@@ 34
Early 34
Faus@@ 34
Glas@@ 34
Groß@@ 34
Han 34
Hap@@ 34
Heli@@ 34
High@@ 34
Hind@@ 34
Hos@@ 34
Jug@@ 34
Jung@@ 34
Key@@ 34
Ki 34
Kuh@@ 34
Lap@@ 34
Lo 34
Lyc@@ 34
MVP 34
Margar@@ 34
Marine 34
Marino 34
Mechan@@ 34
Natur@@ 34
Nina 34
Orth@@ 34
Paramount 34
Physi@@ 34
Political 34
Sali@@ 34
Suc@@ 34
Suz@@ 34
Tennessee 34
Termin@@ 34
Tokyo 34
Tul@@ 34
Ulrich 34
Wiki@@ 34
Wolfgang 34
achi 34
adu@@ 34
agram 34
amin 34
amus 34
anos 34
atis@@ 34
band@@ 34
cep@@ 34
chron@@ 34
complex 34
dea 34
dé@@ 34
encer 34
eshi 34
fan@@ 34
gan 34
geb@@ 34
hii 34
ict 34
ieve 34
ily 34
iman 34
iner@@ 34
iso 34
iter 34
kun@@ 34
lati@@ 34
leist@@ 34
lich@@ 34
longi@@ 34
mah@@ 34
mass 34
metal 34
modi@@ 34
mur@@ 34
oll 34
onica 34
ool 34
otus 34
oxid@@ 34
por 34
princip@@ 34
ram 34
ré@@ 34
sper@@ 34
start 34
tag@@ 34
taine 34
thetic 34
thus 34
ticul@@ 34
u. 34
utions 34
variable 34
yond 34
zur 34
î 34
ɛ@@ 34
Β@@ 34
Γ@@ 34
И@@ 34
я 34
յ@@ 34
اختر 34
٦ 34
پا 34
ܡ@@ 34
რ@@ 34
ⵔ@@ 34
せ@@ 34
武@@ 34
Alain 33
Argentina 33
Baş@@ 33
Belgium 33
Bi 33
Bug@@ 33
Cardi@@ 33
Dut@@ 33
Dylan 33
Eb@@ 33
Foc@@ 33
Gan@@ 33
Graf 33
Greece 33
Guardian 33
Hell 33
Hydr@@ 33
Intelligence 33
Iowa 33
Iran 33
Jak@@ 33
Jes@@ 33
Joachim 33
Jorge 33
Kauf@@ 33
Kre@@ 33
Laurent 33
Maf@@ 33
Market 33
Medal 33
Memorial 33
Nom@@ 33
Of@@ 33
Panzer 33
Pey@@ 33
Portuguese 33
Pra@@ 33
Sas@@ 33
Saturday 33
Sco@@ 33
Société 33
Son 33
Stand 33
Stock 33
Su 33
Sud@@ 33
Tell 33
Town 33
Tud@@ 33
Unix 33
Version 33
Vor@@ 33
Watch 33
acer@@ 33
aching 33
aia 33
alla 33
aly 33
anic 33
ansen 33
apr@@ 33
aring 33
ario 33
ations@@ 33
auto@@ 33
ayo 33
aç@@ 33
ball@@ 33
bloc@@ 33
building 33
country 33
didae 33
ected 33
ei@@ 33
election 33
eling 33
els@@ 33
emati@@ 33
enf@@ 33
ers@@ 33
feld 33
hai 33
hil 33
ign 33
image 33
inen 33
inia 33
iste 33
japon@@ 33
jun@@ 33
ka@@ 33
kler 33
kre@@ 33
lass 33
late 33
lex 33
lic@@ 33
lieb 33
magazine 33
nas@@ 33
ned 33
next 33
ophyl@@ 33
orie 33
oru 33
philus 33
pin 33
prim@@ 33
program 33
project 33
rel 33
script 33
suff@@ 33
sum 33
tab@@ 33
tata 33
tique 33
town 33
tung 33
tures 33
uss 33
van@@ 33
vas@@ 33
vat@@ 33
ved 33
website 33
wide 33
wind 33
working 33
would 33
xin 33
ór@@ 33
Ми@@ 33
а 33
в 33
евич 33
р 33
э 33
ادی@@ 33
سالار 33
مرحوم 33
نی 33
گل@@ 33
یر@@ 33
ি@@ 33
え 33
カ@@ 33
彦 33
明@@ 33
橋@@ 33
水@@ 33
2,1 32
7,5 32
Abbey 32
Alberta 32
Alexandra 32
Att@@ 32
Brach@@ 32
Braun 32
Bros. 32
Chal@@ 32
Chrom@@ 32
Citi@@ 32
Civ@@ 32
Congress 32
Corr@@ 32
Deutsch@@ 32
Dietrich 32
Dipl@@ 32
Dra@@ 32
Edge 32
Fiat 32
Frédéric 32
Fund 32
German@@ 32
Gos@@ 32
Got 32
Gö@@ 32
Hak@@ 32
Hampshire 32
Hand 32
His 32
Hist@@ 32
Historical 32
Ich@@ 32
Jet 32
Jin 32
Khali@@ 32
Klaus 32
Kri@@ 32
Len@@ 32
Mb@@ 32
Movement 32
Musa 32
Naz@@ 32
Nick@@ 32
Nin@@ 32
Oro@@ 32
Pan 32
Petro@@ 32
Phili@@ 32
Phy@@ 32
Plant 32
Posi@@ 32
Pyth@@ 32
Rachel 32
Rak@@ 32
Rand 32
Rapha@@ 32
Rat@@ 32
Roll@@ 32
Ré@@ 32
Sed@@ 32
Shak@@ 32
Stat@@ 32
Station 32
Tel 32
Tet@@ 32
Tou@@ 32
Virgin 32
Wed@@ 32
Wik@@ 32
Wy@@ 32
Yves 32
aer 32
agi@@ 32
aliz@@ 32
anced 32
aps 32
aster@@ 32
bacteri@@ 32
base 32
bis@@ 32
cent 32
chel@@ 32
common 32
during 32
electr@@ 32
ellus 32
eters 32
eux 32
frag@@ 32
gan@@ 32
glau@@ 32
gon@@ 32
grandi@@ 32
guitar@@ 32
hex@@ 32
ican 32
identi@@ 32
iens 32
iji 32
inin 32
insky 32
isp@@ 32
isten 32
leb@@ 32
lot 32
mov@@ 32
nos@@ 32
now 32
nu 32
oid@@ 32
oking 32
ordin@@ 32
oss 32
othing 32
ovich 32
parent 32
publ@@ 32
quir@@ 32
ras 32
record 32
rid@@ 32
rig@@ 32
s. 32
scre@@ 32
search 32
sein 32
sep@@ 32
soft 32
star@@ 32
suya 32
sym@@ 32
third 32
total 32
tour@@ 32
ub 32
ulu 32
upp@@ 32
ural 32
urn 32
Öz@@ 32
ǎ@@ 32
ː 32
ι 32
χ@@ 32
ών 32
д@@ 32
اگ@@ 32
درخت 32
سامنا 32
عجائ@@ 32
ۡ 32
ὐ@@ 32
≠ 32
に@@ 32
タ@@ 32
健@@ 32
吉@@ 32
由@@ 32
---- 31
3. 31
Aleksandr 31
Apo@@ 31
Archi@@ 31
Baba 31
Beng@@ 31
Bertr@@ 31
Blin@@ 31
Brah@@ 31
Chev@@ 31
Clara 31
Clo@@ 31
Covid 31
Creek 31
Eve 31
Expl@@ 31
Fantas@@ 31
Frances@@ 31
Fuj@@ 31
Fus@@ 31
Führ@@ 31
Gat@@ 31
Gate 31
Germain 31
Gur@@ 31
Gustav 31
Hans@@ 31
Heaven 31
Henn@@ 31
Heroes 31
Hills 31
Ide@@ 31
Itali@@ 31
Khal@@ 31
Kiy@@ 31
Koz@@ 31
Kro@@ 31
Lad@@ 31
Loire 31
Lot@@ 31
Luigi 31
Maryland 31
Milan 31
NY 31
Nec@@ 31
Now@@ 31
Pakistan 31
Pas 31
Pearl 31
Pix@@ 31
Piz@@ 31
Production 31
Quir@@ 31
Sev@@ 31
Shah 31
Shan@@ 31
Spo@@ 31
Stage 31
Start 31
Survey 31
Tes@@ 31
Trade 31
Vik@@ 31
Vision 31
Well@@ 31
Youth 31
abor@@ 31
ados 31
aines 31
alba 31
ald@@ 31
allo@@ 31
ante@@ 31
bau@@ 31
block 31
broad@@ 31
channel 31
chap@@ 31
drei 31
echo 31
eil@@ 31
eler 31
encia 31
enger 31
enh@@ 31
enth@@ 31
eza 31
fin 31
flor@@ 31
ging 31
growth 31
hav@@ 31
host@@ 31
hyp@@ 31
idge 31
inga 31
iva 31
jug@@ 31
lane 31
m3 31
major 31
many 31
map 31
mari@@ 31
molec@@ 31
must 31
ocol@@ 31
olor 31
onian 31
open@@ 31
oux 31
painter 31
ping 31
pole 31
political 31
prec@@ 31
rad@@ 31
rap 31
region 31
representative 31
rier 31
same 31
schule 31
seg@@ 31
social 31
society 31
sub 31
sun 31
tag 31
terminal 31
teur 31
thal@@ 31
there 31
tum@@ 31
ult 31
unk 31
vention 31
venture 31
versi@@ 31
write 31
xu@@ 31
yon@@ 31
ything 31
äl@@ 31
ém@@ 31
τ 31
Ба@@ 31
к@@ 31
ь@@ 31
ף 31
عی@@ 31
غلط 31
غی@@ 31
ندما 31
گور@@ 31
یات 31
ব@@ 31
ὁ 31
ⵓ@@ 31
ち@@ 31
ゅ@@ 31
フ@@ 31
之 31
北@@ 31
사@@ 31
️ 31
.S. 30
2,4 30
AIDS 30
Ain 30
Aless@@ 30
Band@@ 30
Benz@@ 30
Bernhard 30
Call 30
Camp 30
Concer@@ 30
Dog 30
Dream@@ 30
Egyp@@ 30
Ferrari 30
Francesco 30
Fru@@ 30
Gust@@ 30
Gün@@ 30
Haj@@ 30
Harvard 30
Horiz@@ 30
Indiana 30
Innov@@ 30
Inter 30
Jour@@ 30
Kuz@@ 30
Labor 30
Lati@@ 30
Lus@@ 30
March@@ 30
Maya 30
Mexican 30
Milli@@ 30
Miz@@ 30
Montana 30
Nog@@ 30
Notes 30
Nus@@ 30
Oh@@ 30
Ost@@ 30
Pascal 30
Prof@@ 30
Professional 30
Province 30
Renn@@ 30
Rico 30
Rita 30
Scr@@ 30
Sens@@ 30
Shu@@ 30
Side 30
Spi@@ 30
Statis@@ 30
Technical 30
Teleg@@ 30
Temple 30
Torre 30
Trump 30
Viv@@ 30
Wak@@ 30
Wasser@@ 30
Week 30
Wide 30
abri@@ 30
acr@@ 30
alls 30
alog 30
ape 30
asing 30
azy 30
baum 30
ception 30
chain 30
chil@@ 30
child 30
comput@@ 30
ded 30
defensive 30
dop@@ 30
eal 30
elt 30
enni@@ 30
entos 30
eper 30
etary 30
etti@@ 30
fle@@ 30
fluor@@ 30
fort 30
front 30
gery 30
green 30
hardt 30
hibit@@ 30
how 30
ically 30
idel@@ 30
ingi@@ 30
integr@@ 30
iron 30
isc@@ 30
jan@@ 30
kii 30
ld 30
lex@@ 30
ling@@ 30
lock@@ 30
lois 30
melan@@ 30
mobile 30
mol 30
mont@@ 30
note 30
nus 30
obo 30
oker 30
oku@@ 30
oning 30
otte 30
oğlu 30
phyllum 30
pig@@ 30
ply 30
pol 30
pon 30
pora 30
positive 30
quit@@ 30
rester 30
rev@@ 30
ron@@ 30
sav@@ 30
sequ@@ 30
sim 30
sion@@ 30
stor@@ 30
study 30
tide 30
tific@@ 30
tit@@ 30
uli 30
video 30
vila 30
wak@@ 30
white 30
years 30
zh@@ 30
än@@ 30
æ 30
ène 30
ów 30
ƒ 30
στ@@ 30
м@@ 30
ский 30
у@@ 30
կ@@ 30
ֲ@@ 30
ابوال@@ 30
الرحمٰن 30
خی@@ 30
عدالت@@ 30
عمارت 30
史 30
山 30
李@@ 30
神@@ 30
0,5 29
Academ@@ 29
Ada 29
Agr@@ 29
Angeles 29
Architecture 29
Board 29
Bon 29
Boot 29
Brom@@ 29
Chel@@ 29
Circle 29
Colombia 29
Comput@@ 29
Did@@ 29
Eil@@ 29
Explorer 29
Fav@@ 29
Germany 29
Gilles 29
Gim@@ 29
Gusta@@ 29
Hell@@ 29
Historia 29
Ins@@ 29
Korea 29
Krish@@ 29
Lay@@ 29
Leb@@ 29
Lob@@ 29
Local 29
Lug@@ 29
Lux@@ 29
Maxim@@ 29
Mens@@ 29
Mine 29
Mississippi 29
Palestine 29
Prime 29
Progr@@ 29
Real@@ 29
Romano 29
Say 29
Schools 29
Scor@@ 29
Sierra 29
Stan@@ 29
Train 29
Turkey 29
Universit@@ 29
Valle 29
Venezuela 29
Wars 29
Wer@@ 29
Yor@@ 29
Yosh@@ 29
adh@@ 29
agh 29
amer@@ 29
ancing 29
ardi 29
aten 29
atin 29
banks 29
bee 29
bel 29
blood 29
borg 29
bun@@ 29
business 29
carri@@ 29
change 29
children 29
company 29
countries 29
cross 29
days 29
della 29
due 29
dus 29
ehouse 29
elas 29
elop@@ 29
embr@@ 29
emic 29
ende 29
eton 29
evich 29
eze 29
former 29
fru@@ 29
ga@@ 29
gers 29
gesch@@ 29
graph@@ 29
hes@@ 29
hormon@@ 29
horn 29
iP@@ 29
igher 29
ilit@@ 29
illi 29
imm@@ 29
implement@@ 29
inski 29
ister@@ 29
kul@@ 29
lam 29
led 29
length 29
libr@@ 29
liz@@ 29
mia 29
mé 29
nan@@ 29
nar@@ 29
ographic 29
opp@@ 29
oti@@ 29
pages 29
pep@@ 29
plo@@ 29
pm 29
polog@@ 29
pp 29
professor 29
psy@@ 29
raph 29
run@@ 29
running 29
sing@@ 29
single 29
sites 29
sman 29
step 29
stri@@ 29
such 29
sv@@ 29
them 29
torney 29
trade 29
tree 29
tura 29
ucture 29
udo 29
ular@@ 29
unes 29
ustr@@ 29
vous 29
yu@@ 29
zen@@ 29
zu 29
ég@@ 29
ław 29
Š@@ 29
Ο@@ 29
η@@ 29
Т@@ 29
г@@ 29
й 29
ћ 29
افغ@@ 29
ایا 29
سید 29
کا@@ 29
کن@@ 29
ܐ@@ 29
ަ@@ 29
ი 29
♦ 29
ア@@ 29
ニ@@ 29
新@@ 29
森@@ 29
英@@ 29
3,4 28
Alt 28
Amt 28
Anci@@ 28
Aph@@ 28
Arena 28
Austria 28
Barth@@ 28
Blu 28
Britain 28
Bub@@ 28
Buck@@ 28
Bund@@ 28
Cau@@ 28
Ces@@ 28
Champions 28
Choice 28
Chu@@ 28
Chung 28
Cran@@ 28
Cultural 28
Cyr@@ 28
Dame 28
Deg@@ 28
Differ@@ 28
Docum@@ 28
Du 28
Ek@@ 28
Ella 28
Ey@@ 28
Fantasy 28
Film@@ 28
Foreign 28
Formation 28
Gas 28
Gig@@ 28
Gros@@ 28
Guillaume 28
Hag@@ 28
Hai 28
Her 28
Hero 28
Hospital 28
Hut@@ 28
Id@@ 28
Illustr@@ 28
Instrum@@ 28
Kinder@@ 28
Kiss 28
Lorraine 28
Mania 28
Mix@@ 28
Nad@@ 28
Ng@@ 28
Number 28
Pa 28
Pac@@ 28
Pati@@ 28
Paz 28
Perf@@ 28
Poin@@ 28
Private 28
Quebec 28
Québec 28
Rau@@ 28
Roh@@ 28
Rolling 28
Sib@@ 28
Slam 28
Sonic 28
Spider 28
Stephan 28
Superior 28
Swe@@ 28
Ten 28
Text 28
Tib@@ 28
Transport 28
Trig@@ 28
Wald@@ 28
Work@@ 28
Yuc@@ 28
abilis 28
acial 28
adier 28
agi 28
agu@@ 28
alle@@ 28
aming 28
amu 28
anensis 28
ause 28
benz@@ 28
bic@@ 28
bois 28
boy@@ 28
brach@@ 28
chus 28
cla@@ 28
construc@@ 28
coun@@ 28
court 28
dar 28
dei 28
dens@@ 28
designer 28
dir 28
direc@@ 28
dova 28
down@@ 28
drug 28
edit@@ 28
edra 28
endi 28
ending 28
eni@@ 28
enko 28
enna 28
ensi@@ 28
erg@@ 28
escu 28
exp@@ 28
fera 28
fir@@ 28
friend 28
gesetz 28
had@@ 28
hill 28
iber 28
ieu 28
integ@@ 28
isme 28
iter@@ 28
itude 28
itus 28
jar@@ 28
ju 28
kies 28
kol@@ 28
kum@@ 28
leuc@@ 28
liche 28
lied 28
linear 28
lines 28
lov 28
machine 28
ming 28
multi 28
nat@@ 28
nation 28
nos 28
née 28
olia 28
onde 28
onym@@ 28
othe@@ 28
otom@@ 28
otype 28
ows 28
p. 28
ped@@ 28
person 28
polo 28
pre 28
pseud@@ 28
published 28
relations 28
ring 28
sex 28
sii 28
song 28
stadt 28
status 28
test@@ 28
thing 28
thro@@ 28
tras@@ 28
tru@@ 28
tuber@@ 28
uel 28
uria 28
voc@@ 28
werke 28
yev 28
zon@@ 28
Ø@@ 28
ères 28
ð 28
û@@ 28
ül@@ 28
üt@@ 28
ή 28
ι@@ 28
κα@@ 28
ј@@ 28
آتا 28
خوش@@ 28
سورت 28
لی 28
می 28
مین 28
٦@@ 28
٧@@ 28
چل@@ 28
یع@@ 28
ℓ 28
二 28
介 28
伊@@ 28
安@@ 28
宮@@ 28
平@@ 28
渡@@ 28
김@@ 28
2,2 27
Adv@@ 27
Afric@@ 27
Alphon@@ 27
Analy@@ 27
Ans@@ 27
Astronom@@ 27
Atlas 27
Avenue 27
Barn@@ 27
Batt@@ 27
Benito 27
Bergen 27
Bill@@ 27
Bron@@ 27
Campus 27
Castle 27
Compu@@ 27
Contr@@ 27
Cord@@ 27
Dam 27
Defense 27
Deutschland 27
Dist@@ 27
Eduard 27
Fen@@ 27
Forever 27
Front 27
Gw@@ 27
Hannah 27
Hasan 27
Imp@@ 27
Jakob 27
Kati@@ 27
Kern 27
Kw@@ 27
Label 27
Lah@@ 27
Lamb@@ 27
Latin 27
Laz@@ 27
Mail 27
Marina 27
Merc@@ 27
Most 27
Muslim 27
Nep@@ 27
Person 27
Player 27
RCA 27
Race 27
Rin@@ 27
Sanc@@ 27
Sin 27
Six@@ 27
Stadium 27
Still 27
Sund@@ 27
Tow@@ 27
Village 27
Wikipedia 27
Wir@@ 27
abil@@ 27
acia 27
acio 27
alam@@ 27
alogue 27
ank 27
anom@@ 27
argent@@ 27
asia 27
aza 27
bab@@ 27
bec@@ 27
before 27
bell 27
bu 27
champ@@ 27
classes 27
contr@@ 27
counter 27
course 27
cus@@ 27
design 27
dil@@ 27
dle 27
edi 27
egel 27
elo 27
elt@@ 27
ensa 27
entation 27
eres@@ 27
ero@@ 27
esses 27
even 27
evol@@ 27
fried 27
garten 27
gli@@ 27
glu@@ 27
ground 27
gun 27
hand 27
hic 27
ief 27
igen@@ 27
ilde 27
imar@@ 27
inning 27
instance 27
ionale 27
islam@@ 27
ismus 27
itar 27
itte 27
ić 27
jet 27
jur@@ 27
king@@ 27
lei 27
lesias 27
local 27
lose 27
ls 27
mach@@ 27
manager 27
maz 27
meg@@ 27
membran@@ 27
mess@@ 27
mis 27
move 27
natur@@ 27
obj@@ 27
olar 27
ondo 27
onds 27
onius 27
opa 27
opot@@ 27
orph@@ 27
oting 27
phi 27
points 27
poli@@ 27
pu 27
qua 27
resp@@ 27
ria 27
rif@@ 27
run 27
saf@@ 27
sax@@ 27
since 27
solution 27
standard 27
tif@@ 27
til 27
tile 27
trach@@ 27
tran@@ 27
venti@@ 27
vern@@ 27
w.@@ 27
windows 27
wit@@ 27
µ@@ 27
Æ@@ 27
ío 27
ú 27
ě@@ 27
ı@@ 27
Ō@@ 27
Τ@@ 27
Бе@@ 27
Р@@ 27
г 27
с@@ 27
ч@@ 27
ائی@@ 27
احساس 27
الرحم@@ 27
امداد 27
بطور 27
دین 27
ربی@@ 27
رین 27
سرخ 27
شمار@@ 27
نبوت 27
نشان 27
نیا 27
کتاب 27
ۆ@@ 27
ܒ@@ 27
ল@@ 27
⁄ 27
て@@ 27
で@@ 27
内@@ 27
夫 27
田 27
長@@ 27
한@@ 27
Aper@@ 26
BAFTA 26
BW@@ 26
Belle 26
Canal 26
Comedy 26
Convention 26
Discovery 26
Doctor 26
Down@@ 26
Eis@@ 26
Elena 26
Elis@@ 26
Emmy 26
Erich 26
Esteban 26
Exchange 26
Forces 26
Gallery 26
Hali@@ 26
Hard 26
Hi 26
Industry 26
Intel@@ 26
Italia 26
Jack@@ 26
Jol@@ 26
Korean 26
Kot@@ 26
Lebanon 26
Lotus 26
Luz@@ 26
Léon 26
MW 26
Madrid 26
Mind@@ 26
Mission 26
Monica 26
Moscow 26
Mustafa 26
National@@ 26
Naval 26
Oliv@@ 26
Or 26
Oregon 26
Orient 26
Oz@@ 26
Pall@@ 26
Paolo 26
Papa 26
Parad@@ 26
Param@@ 26
Pf@@ 26
Philadelphia 26
Poland 26
Port@@ 26
Pow@@ 26
Rag@@ 26
Rav@@ 26
Record 26
Rodol@@ 26
Schu@@ 26
Schul@@ 26
She 26
Soc@@ 26
Swiss 26
Tetr@@ 26
These 26
Thr@@ 26
Through 26
Tob@@ 26
Tot@@ 26
Training 26
Triple 26
Twitter 26
Uri@@ 26
Ve@@ 26
Viktor 26
XIII 26
Ya 26
Yıl@@ 26
aat 26
abl@@ 26
abu 26
address 26
adr@@ 26
aen@@ 26
agent 26
aid 26
alty 26
anor 26
atha 26
atia 26
aver@@ 26
bay 26
bed 26
being 26
bera 26
camp@@ 26
cel 26
ched 26
chemical 26
dius 26
done 26
dynam@@ 26
e- 26
ebe 26
eding 26
edy 26
electric 26
enburg 26
engineer 26
escope 26
esse 26
europ@@ 26
fes@@ 26
ffer 26
fib@@ 26
gruppe 26
hak@@ 26
icked 26
icz 26
iku@@ 26
inform@@ 26
iwa 26
laine 26
lateral 26
leiter 26
lov@@ 26
mani 26
medicine 26
million 26
ms@@ 26
mt@@ 26
oci@@ 26
odo@@ 26
olf 26
omen@@ 26
onau@@ 26
online 26
oring 26
oton 26
ours 26
pas 26
plant@@ 26
products 26
reduc@@ 26
rum 26
sar 26
shell 26
sof@@ 26
speci@@ 26
specific 26
sta@@ 26
straße 26
tage 26
tent 26
tico 26
tig 26
transfer@@ 26
ump 26
utionary 26
uş 26
valu@@ 26
vera 26
vet@@ 26
vid 26
viol@@ 26
virtual 26
wehr 26
wi 26
ß 26
ù 26
ý@@ 26
Č@@ 26
ę@@ 26
ř@@ 26
ǔ 26
Γ 26
Θ@@ 26
ζ@@ 26
ξ@@ 26
ρο@@ 26
το@@ 26
ω@@ 26
ύ@@ 26
т@@ 26
х@@ 26
ц@@ 26
ח 26
آئ@@ 26
ابی@@ 26
اقبال 26
الک@@ 26
بزرگ 26
سرم@@ 26
مندر@@ 26
کر 26
کلا@@ 26
ید 26
ე@@ 26
ῦ@@ 26
₹ 26
ⵏ 26
ⵏ@@ 26
る@@ 26
ャ@@ 26
ロ@@ 26
下@@ 26
岡@@ 26
清@@ 26
1,8 25
Asi@@ 25
Auto 25
Bach@@ 25
Blanc 25
Bus 25
But 25
Casa 25
Challenge 25
Clau@@ 25
Continental 25
Devil 25
Dop@@ 25
Dubai 25
Dul@@ 25
Ecuador 25
Esc@@ 25
Eyes 25
Face 25
Fine 25
Friends 25
Ga 25
Gerhard 25
Git@@ 25
Gren@@ 25
Horse 25
Ice 25
Illus@@ 25
Initi@@ 25
Japanese 25
Jard@@ 25
Jess@@ 25
Ji 25
Kings 25
Kingston 25
Lig@@ 25
Luft@@ 25
Moder@@ 25
Mum@@ 25
Norway 25
Pak@@ 25
Palest@@ 25
Paraguay 25
Pink 25
Police 25
Politi@@ 25
Sah@@ 25
Scotland 25
Serbia 25
Sex 25
Stud@@ 25
Tac@@ 25
Tok@@ 25
Toledo 25
Vig@@ 25
Von 25
Wein@@ 25
Winter@@ 25
Yer@@ 25
affen 25
ahi 25
algorith@@ 25
aman 25
americana 25
anthro@@ 25
apar@@ 25
arma 25
asaki 25
auc@@ 25
bes 25
burger 25
cos 25
dad 25
dev 25
digital 25
dow 25
dru@@ 25
eko 25
eles 25
elles 25
elli@@ 25
endi@@ 25
fili@@ 25
fire 25
française 25
fs@@ 25
gericht 25
got 25
hen 25
ias 25
ification 25
ilian 25
imin@@ 25
ions 25
irat@@ 25
kap@@ 25
languages 25
lida 25
lidae 25
mill@@ 25
mtDNA 25
nak@@ 25
neum@@ 25
operation 25
oue 25
ought 25
ouv@@ 25
pattern 25
pod@@ 25
pro 25
pus@@ 25
result 25
rian 25
sir@@ 25
sound 25
swe@@ 25
temp@@ 25
theor@@ 25
thias 25
tista 25
trich@@ 25
uga 25
umbo 25
unda 25
uri@@ 25
users 25
usti@@ 25
vio 25
vs. 25
witz 25
yes 25
yla 25
Å@@ 25
ét@@ 25
ɔ@@ 25
ψ 25
افضل 25
الدین 25
بای@@ 25
تین 25
ذوال@@ 25
رحمت 25
نساس 25
پور 25
پول@@ 25
پی@@ 25
ۃ 25
្ 25
ト 25
島 25
明 25
智@@ 25
樹 25
男 25
輔 25
鈴@@ 25
￼ 25
4. 24
5th 24
Abdullah 24
Acro@@ 24
Animation 24
Area 24
Argentine 24
Aul@@ 24
Bart 24
Beat 24
Berliner 24
Bh@@ 24
Bois 24
Building 24
Butter@@ 24
Cann@@ 24
Carr@@ 24
Compos@@ 24
Ef@@ 24
Eugène 24
F.C. 24
Fair 24
Fakültesi 24
Figh@@ 24
Fit@@ 24
Format 24
Found@@ 24
Frankfurter 24
Gis@@ 24
Government 24
Haf@@ 24
Hex@@ 24
Hous@@ 24
Institu@@ 24
Investig@@ 24
Jagu@@ 24
Jose 24
Julien 24
KP 24
Kle@@ 24
Kul@@ 24
Liberty 24
Lic@@ 24
Madeleine 24
Mans@@ 24
Maroc 24
Mini 24
Monster 24
Motor@@ 24
NASA 24
Nam 24
Nebraska 24
Nel@@ 24
Netherlands 24
Note 24
Ortho@@ 24
Pent@@ 24
Personal 24
Peru 24
Popular 24
Pru@@ 24
Rach@@ 24
Rain 24
Re 24
Register 24
Rosario 24
Rug@@ 24
Saints 24
Senior 24
Sep@@ 24
Sophia 24
Spain 24
São 24
Traf@@ 24
Trib@@ 24
Uruguay 24
Ut@@ 24
Vide@@ 24
XV 24
XVIII 24
You@@ 24
acht 24
actylus 24
acu@@ 24
acul@@ 24
adv@@ 24
against 24
ags 24
ahr@@ 24
aman@@ 24
anian 24
assen 24
asure 24
avy@@ 24
azine 24
azu 24
bau 24
beck 24
bium 24
blue 24
bom@@ 24
both 24
brasili@@ 24
brid@@ 24
capital 24
comm@@ 24
commun@@ 24
cum 24
dil 24
dimin@@ 24
dog@@ 24
dot@@ 24
ean@@ 24
ece 24
ecia 24
ections 24
efe 24
ehr 24
eil 24
ern 24
error 24
essed 24
ests 24
example 24
exec@@ 24
ext 24
fen@@ 24
fos@@ 24
func@@ 24
g. 24
goals 24
gor@@ 24
half 24
hen@@ 24
hep@@ 24
hiv@@ 24
icro@@ 24
iff 24
igg@@ 24
iness 24
inge 24
inos 24
iny 24
iris 24
isis 24
isters 24
its@@ 24
jazz 24
lich 24
mans 24
marks 24
means 24
movement 24
nen 24
obus 24
ograph@@ 24
oka 24
olith@@ 24
onidae 24
onna 24
ovi@@ 24
param@@ 24
path 24
punc@@ 24
rab@@ 24
rise 24
security 24
sequence 24
services 24
sid@@ 24
sign 24
sm 24
stand 24
standing 24
stock 24
stre@@ 24
support 24
tad@@ 24
tav@@ 24
tee 24
termin@@ 24
thal 24
tial 24
tius 24
trial 24
tus@@ 24
ucci 24
urg@@ 24
values 24
vet 24
wen 24
yr 24
yu 24
º 24
École 24
äger 24
énez 24
éo 24
ë 24
ān 24
ın 24
Χ@@ 24
ί 24
αμ@@ 24
ει@@ 24
ιον 24
μα 24
Г@@ 24
К@@ 24
С@@ 24
Х@@ 24
е 24
ץ 24
اضلاع 24
اعزاز 24
تاریخ 24
حک@@ 24
طی@@ 24
مصروف 24
کور@@ 24
ین@@ 24
ু@@ 24
ょ@@ 24
ス 24
久@@ 24
会@@ 24
四@@ 24
江@@ 24
直@@ 24
部@@ 24
青@@ 24
국 24
서@@ 24
3,2 23
5. 23
6. 23
Ail@@ 23
Airlines 23
Alabama 23
Ami@@ 23
Antoine 23
App 23
Auf@@ 23
Auguste 23
Aydın 23
BK 23
Buz@@ 23
CAR 23
CDU 23
Carre@@ 23
Chamber 23
Chat@@ 23
Cic@@ 23
Colorado 23
Construc@@ 23
Cub@@ 23
Cycl@@ 23
Dest@@ 23
Dres@@ 23
Epi@@ 23
Ere@@ 23
Five 23
Gli@@ 23
Gri@@ 23
Gul@@ 23
Hier@@ 23
Him@@ 23
However 23
Internationale 23
Istanbul 23
Jon@@ 23
Jürgen 23
Kampf@@ 23
Kav@@ 23
Ket@@ 23
Know 23
Lieb@@ 23
Lower 23
Luxembourg 23
Marc@@ 23
Mati@@ 23
McCar@@ 23
Mej@@ 23
Mez@@ 23
Micha@@ 23
Minister 23
Mov@@ 23
Myster@@ 23
Nach@@ 23
Nau@@ 23
Neue 23
Noël 23
Observat@@ 23
Oklahoma 23
Olga 23
Pam@@ 23
Part 23
Peak 23
PlayStation 23
Quint@@ 23
Raf@@ 23
Region 23
Rig@@ 23
Roman@@ 23
Round 23
Semin@@ 23
Sic@@ 23
Sour@@ 23
Spirit 23
Sten@@ 23
Store 23
Stra@@ 23
Suff@@ 23
Switzerland 23
Tai@@ 23
Together 23
Ts@@ 23
Uz@@ 23
Venez@@ 23
Wester@@ 23
Wii 23
Wild@@ 23
Wonder 23
Yuk@@ 23
abad 23
aces 23
activity 23
ague 23
airo 23
ample 23
anca 23
anya 23
anza 23
apor@@ 23
arom@@ 23
asser 23
atrice 23
aup@@ 23
bara 23
bay@@ 23
black 23
blo@@ 23
bol 23
bor 23
cancer 23
celer@@ 23
chester 23
chir@@ 23
chu@@ 23
cial 23
colum@@ 23
compar@@ 23
cou@@ 23
cover 23
cu 23
dat 23
death 23
det 23
deutsche 23
door 23
ear 23
early 23
eing 23
eki 23
ellan 23
emen 23
ender@@ 23
enza 23
esser 23
fat@@ 23
flex@@ 23
foot 23
ft@@ 23
gence 23
given 23
good 23
haus 23
hid@@ 23
hr 23
igi 23
images 23
impl@@ 23
ina@@ 23
irs 23
isation 23
istics 23
journ@@ 23
kad@@ 23
kes@@ 23
kham 23
kho@@ 23
kind 23
km2 23
krieg 23
lands@@ 23
lango 23
law@@ 23
lik 23
lik@@ 23
location 23
loss 23
lus@@ 23
mad 23
maj@@ 23
metabol@@ 23
miss@@ 23
mm@@ 23
morph@@ 23
mu 23
nice 23
oca 23
ologi@@ 23
omb@@ 23
omen 23
option 23
osom@@ 23
osper@@ 23
pad@@ 23
phr@@ 23
pis@@ 23
pren@@ 23
programs 23
protoc@@ 23
province 23
quot@@ 23
rep@@ 23
response 23
rot 23
rt 23
spin 23
stic@@ 23
stop 23
tain 23
tax 23
teen 23
television 23
thi 23
thly 23
too 23
tribu@@ 23
tribut@@ 23
ups 23
urg 23
urs@@ 23
va@@ 23
wie 23
work@@ 23
yel@@ 23
z. 23
zz@@ 23
àn 23
å 23
ôme 23
ą@@ 23
αν@@ 23
ερ@@ 23
της 23
ψ@@ 23
о 23
տ@@ 23
ג 23
آزاد@@ 23
اسی@@ 23
الحاق 23
انصاف 23
جری@@ 23
حجاز 23
خوش 23
ذرائع 23
شیخ 23
مضبوط 23
میز 23
نمائ@@ 23
ڨ 23
یان 23
ლ@@ 23
中国@@ 23
南@@ 23
坂@@ 23
大 23
志 23
文@@ 23
永@@ 23
삼@@ 23
🏣 23
2,6 22
5,5 22
Anat@@ 22
Another 22
Atlan@@ 22
Augusta 22
Austr@@ 22
Bath@@ 22
Berkeley 22
Bowl 22
Crystal 22
DAP 22
Dakota 22
Democratic 22
Den 22
Dj@@ 22
Drama 22
Duch@@ 22
EMI 22
Eastern 22
Ehr@@ 22
Emperor 22
Euro@@ 22
Europ@@ 22
Fiction 22
Frag@@ 22
Gast@@ 22
Giac@@ 22
Gior@@ 22
Glass 22
Henri@@ 22
Hey@@ 22
Holy 22
Hr@@ 22
Inn@@ 22
Iraq 22
Italy 22
Jov@@ 22
Klu@@ 22
Kultur@@ 22
Landes@@ 22
Libr@@ 22
Lion 22
Lithu@@ 22
Marsh@@ 22
Martin@@ 22
Mikha@@ 22
Mob@@ 22
Nikol@@ 22
Nine 22
Né@@ 22
Pant@@ 22
Parti 22
Poc@@ 22
Protection 22
Pseudo@@ 22
Pub@@ 22
Raz@@ 22
Rep@@ 22
Rif@@ 22
Satur@@ 22
Schreib@@ 22
Schwe@@ 22
Section 22
Sega 22
Shanghai 22
Sport@@ 22
Toronto 22
Trou@@ 22
Vista 22
Voy@@ 22
Walk 22
Was 22
Yen@@ 22
ainst 22
aint 22
alized 22
amar@@ 22
amt 22
anes 22
anger@@ 22
anny 22
application 22
aren@@ 22
assa 22
atch@@ 22
autom@@ 22
aven@@ 22
bil 22
branch 22
buc@@ 22
cab@@ 22
cad@@ 22
carbon@@ 22
century 22
char 22
chu 22
cip@@ 22
cir@@ 22
cock 22
coll@@ 22
conf@@ 22
corpor@@ 22
cycle 22
cylin@@ 22
decor@@ 22
dio 22
division 22
ectiv@@ 22
ectus 22
elo@@ 22
ember 22
enci@@ 22
engineering 22
engu@@ 22
enzo 22
erk@@ 22
este 22
eurs 22
evi 22
evi@@ 22
fare 22
features 22
finals 22
fit@@ 22
formation 22
fra@@ 22
fun@@ 22
gender 22
gens 22
gian 22
global 22
idem@@ 22
ile@@ 22
iment 22
island 22
ism@@ 22
ismo 22
itu@@ 22
jk 22
kab@@ 22
kit 22
kt@@ 22
lieg@@ 22
main@@ 22
market 22
mec@@ 22
middle 22
mith@@ 22
mom@@ 22
multiple 22
neb@@ 22
nica 22
normal 22
nova 22
objects 22
occo 22
odes 22
ogie 22
oles 22
omas 22
omin@@ 22
ono 22
ood 22
party 22
pay@@ 22
pays 22
pend@@ 22
period 22
plan 22
pool 22
porter 22
president 22
pros@@ 22
rand@@ 22
rant 22
ress@@ 22
rich 22
rios 22
rod@@ 22
rog@@ 22
sberg 22
season 22
sed 22
seudo@@ 22
sie 22
sius 22
soni 22
sou@@ 22
spek@@ 22
ste 22
story 22
suc@@ 22
tn@@ 22
tube 22
uka 22
unter@@ 22
uya 22
vidence 22
vival 22
without 22
wth 22
yas@@ 22
ycl@@ 22
zek@@ 22
Ü@@ 22
àng 22
éd@@ 22
ónica 22
ński 22
ț@@ 22
έ@@ 22
ια 22
λι@@ 22
υ 22
б@@ 22
ва 22
ь 22
ז 22
آسم@@ 22
انجام 22
تھا 22
شنل 22
وی 22
ٓ@@ 22
کث@@ 22
یس 22
ო@@ 22
Ἐ@@ 22
ῆ@@ 22
ῦ 22
ほ@@ 22
め 22
サ@@ 22
城 22
日本@@ 22
治 22
王 22
白@@ 22
義@@ 22
雅@@ 22
📺 22
.C. 21
2,7 21
Ab 21
Adi@@ 21
Affairs 21
Akh@@ 21
Alexand@@ 21
Allgem@@ 21
América 21
Aran@@ 21
Authority 21
Ayuntamiento 21
Bris@@ 21
Burn@@ 21
Capr@@ 21
Chang@@ 21
Chic@@ 21
Córdoba 21
Dieter 21
E9E9E9 21
Emb@@ 21
Exec@@ 21
Flying 21
Form@@ 21
Gag@@ 21
Geb@@ 21
Gest@@ 21
Glad@@ 21
Grand@@ 21
Grund@@ 21
Ha 21
Hau@@ 21
Histoire 21
Horst 21
Imperial 21
Infr@@ 21
Kah@@ 21
Kay@@ 21
Kho@@ 21
Kind 21
Kru@@ 21
Lands@@ 21
Lenn@@ 21
Leopol@@ 21
Ley@@ 21
Luc 21
Matthias 21
Mehmet 21
Mend@@ 21
Mercedes 21
Mong@@ 21
Monum@@ 21
Musical 21
Nah@@ 21
Ni 21
Ostr@@ 21
Pale@@ 21
Premier 21
Prix 21
Religi@@ 21
Religion 21
Rid@@ 21
Roll 21
SSR 21
Said 21
Salt 21
Santo 21
Satell@@ 21
Secretary 21
Shadow 21
Shr@@ 21
Site 21
Smo@@ 21
Soccer 21
Sok@@ 21
Soy@@ 21
Stad@@ 21
Sussex 21
Sá@@ 21
Sé@@ 21
Tali@@ 21
Teresa 21
Tin@@ 21
Tum@@ 21
U. 21
Ultimate 21
Utah 21
Vienna 21
Vita 21
Wander@@ 21
Wing 21
XV@@ 21
Zin@@ 21
aches 21
acking 21
adas 21
adem@@ 21
aden 21
administr@@ 21
afe 21
again 21
ako 21
algo 21
alifor@@ 21
allah 21
ambo 21
annual 21
approach 21
arus 21
associated 21
atlan@@ 21
atori@@ 21
auth@@ 21
bak@@ 21
best 21
blog 21
bodies 21
bright 21
called 21
cas 21
cau@@ 21
chan@@ 21
chant 21
character@@ 21
clo@@ 21
club 21
cogni@@ 21
community 21
cons@@ 21
continu@@ 21
cord 21
cros@@ 21
cue 21
culus 21
cyc@@ 21
cz@@ 21
dance 21
dial 21
dian 21
dich@@ 21
eas 21
eba 21
ecr@@ 21
ecti@@ 21
edes 21
edge 21
eins 21
eke 21
eon@@ 21
esch@@ 21
etc 21
eting 21
etry 21
eño 21
fas@@ 21
fem@@ 21
hao 21
hat 21
hil@@ 21
hold 21
ife 21
ifer@@ 21
ific@@ 21
ift 21
igi@@ 21
ime@@ 21
inde 21
inger@@ 21
inking 21
inv@@ 21
invent@@ 21
ischen 21
ition 21
ivi@@ 21
iya 21
ladi@@ 21
lau@@ 21
lif@@ 21
lug@@ 21
made 21
motor 21
named 21
naval 21
night 21
nik@@ 21
nutri@@ 21
oba@@ 21
och 21
oder@@ 21
office 21
oku 21
olus 21
ophi@@ 21
oration 21
ore@@ 21
organization 21
ority 21
ospel 21
pf@@ 21
pping 21
ppo 21
price 21
reading 21
ref@@ 21
release 21
rim@@ 21
ring@@ 21
roof 21
score 21
senti@@ 21
stan@@ 21
studies 21
tabl@@ 21
take 21
tiz@@ 21
toral 21
transfer 21
treatment 21
té 21
ufac@@ 21
ulin 21
vec@@ 21
vies 21
views 21
vil 21
wagen 21
werk 21
wid@@ 21
wir@@ 21
wn@@ 21
yak@@ 21
Þ@@ 21
ò 21
üm@@ 21
ğ@@ 21
Σ 21
οι 21
τα 21
ко@@ 21
не 21
ный 21
ы 21
آور 21
اسلح@@ 21
امارات 21
انگ@@ 21
تھ@@ 21
طری@@ 21
طلاح 21
فری@@ 21
مشن 21
وَّار 21
کل@@ 21
کون@@ 21
یز 21
یل@@ 21
یوم 21
ਾ@@ 21
ர@@ 21
ு@@ 21
ნ@@ 21
ἔ@@ 21
ἰ@@ 21
ῶ@@ 21
ド@@ 21
国@@ 21
日@@ 21
生 21
辺@@ 21
阿@@ 21
성@@ 21
조@@ 21
8. 20
Aar@@ 20
Abdul@@ 20
Abteilung 20
Activ@@ 20
Alc@@ 20
Algérie 20
Alle@@ 20
Augus@@ 20
Before 20
Bolivia 20
Box@@ 20
Broadway 20
Brooklyn 20
Buddh@@ 20
Buff@@ 20
Bund 20
Burg@@ 20
Bé@@ 20
CEO 20
Capit@@ 20
Champion 20
Chin@@ 20
Concep@@ 20
Deutschen 20
Dil@@ 20
Dos 20
Drag@@ 20
Ein 20
España 20
Fam@@ 20
Far 20
Fast 20
Fest 20
Fid@@ 20
Flora 20
Guar@@ 20
Haupt@@ 20
Head@@ 20
Heil@@ 20
Hes@@ 20
Holding 20
Hymen@@ 20
Inform@@ 20
Islam@@ 20
Iz@@ 20
Jus@@ 20
Kern@@ 20
Konrad 20
Kus@@ 20
Lach@@ 20
Lan 20
Level 20
Lé@@ 20
Malaysia 20
Ment@@ 20
Metz 20
Mexico 20
Nab@@ 20
Nes@@ 20
Nintendo 20
Organiz@@ 20
Ow@@ 20
Partido 20
Patri@@ 20
Philipp 20
Portugal 20
Premi@@ 20
Racing 20
Range 20
Regierungs@@ 20
Romeo 20
Rut@@ 20
Sang@@ 20
Sask@@ 20
Sche@@ 20
Shakespeare 20
Silv@@ 20
Slav@@ 20
Slo@@ 20
Strat@@ 20
Tales 20
Theo 20
Tito 20
Tor 20
Trail 20
Turkish 20
Tut@@ 20
Unter@@ 20
Vy@@ 20
Where 20
Without 20
XIX 20
adan 20
afa 20
aggreg@@ 20
ahl@@ 20
aim@@ 20
aires 20
aji 20
alit@@ 20
amen 20
americ@@ 20
analy@@ 20
ande 20
ared 20
arias 20
asso 20
atidae 20
auf@@ 20
awi 20
ayi 20
azz@@ 20
añ@@ 20
b. 20
bezirk 20
bio@@ 20
bow 20
bre 20
bt 20
cardi@@ 20
cha@@ 20
chan 20
cher@@ 20
circuit 20
circum@@ 20
cite 20
collection 20
communications 20
condition 20
conver@@ 20
cryp@@ 20
cual 20
dell 20
dies 20
dow@@ 20
ered 20
esper@@ 20
executive 20
extension 20
failure 20
fj@@ 20
found 20
fur 20
galax@@ 20
gaz@@ 20
ged 20
gem@@ 20
glo@@ 20
government 20
grav@@ 20
grave 20
hausen 20
hu 20
icop@@ 20
ied 20
ifer 20
inian 20
intervention 20
intr@@ 20
islat@@ 20
isto 20
iç@@ 20
kh 20
kle@@ 20
kn@@ 20
laf 20
lager 20
lak 20
lay@@ 20
legi@@ 20
lemente 20
links 20
liter@@ 20
lop@@ 20
loss@@ 20
lot@@ 20
mai 20
mam 20
medical 20
mem@@ 20
mini 20
mut 20
nam 20
nem@@ 20
nitr@@ 20
noch 20
obi 20
oj 20
ole@@ 20
oman 20
omp@@ 20
ored 20
orial 20
ott@@ 20
outh 20
plac@@ 20
polit@@ 20
present 20
presidential 20
prime 20
produc@@ 20
quel 20
rah@@ 20
rak@@ 20
rank 20
rau@@ 20
records 20
rine 20
sab@@ 20
safety 20
sera 20
ses@@ 20
she 20
stars 20
states 20
storage 20
super 20
sz@@ 20
tech@@ 20
temps 20
tens 20
term 20
till@@ 20
ting@@ 20
tiva 20
toler@@ 20
training 20
trat@@ 20
tron@@ 20
uan 20
uerta 20
uj@@ 20
unos 20
utz@@ 20
versity 20
vey 20
viv@@ 20
water@@ 20
wo 20
xe 20
ylon 20
yph@@ 20
zar@@ 20
zer@@ 20
äm@@ 20
ël 20
ît 20
þ@@ 20
δι@@ 20
πολι@@ 20
ώ@@ 20
е@@ 20
з@@ 20
ла 20
ло@@ 20
о@@ 20
ъ@@ 20
ї@@ 20
آباد@@ 20
آج 20
اوران 20
بھا 20
سین 20
لین 20
میر@@ 20
پنجاب 20
پُ@@ 20
ম@@ 20
ে@@ 20
ា@@ 20
ṣ@@ 20
な 20
ブ@@ 20
ル 20
光@@ 20
八@@ 20
尾@@ 20
昌@@ 20
池@@ 20
澤@@ 20
社 20
裕@@ 20
민@@ 20
주@@ 20
19th 19
7th 19
Alber@@ 19
Albrecht 19
Alcal@@ 19
Amazon 19
Apollo 19
Assembly 19
Aster@@ 19
Atel@@ 19
Aug@@ 19
Bail@@ 19
Blum@@ 19
Boeing 19
Boul@@ 19
Caes@@ 19
Chan@@ 19
Chief 19
Comic 19
Commerce 19
Construction 19
Cov@@ 19
Czech 19
Dublin 19
Dunk@@ 19
Edi@@ 19
Eich@@ 19
Escu@@ 19
Et 19
FK 19
Fabr@@ 19
Faith 19
Fédération 19
Gramm@@ 19
Greek 19
Guy@@ 19
Gü@@ 19
Heritage 19
Hou@@ 19
Ich 19
Industries 19
Iran@@ 19
Jeanne 19
Joaqu@@ 19
Joint 19
Jér@@ 19
Kop@@ 19
Kou@@ 19
Kö@@ 19
Mai 19
Mou@@ 19
Moy@@ 19
Opera 19
Pfe@@ 19
Pho@@ 19
Polo 19
Pope 19
Problem 19
Professor 19
Proj@@ 19
Rainbow 19
Reh@@ 19
Resol@@ 19
Roch@@ 19
Rosen@@ 19
Sa 19
Sax@@ 19
Serv@@ 19
Servic@@ 19
Shah@@ 19
Singapore 19
Sis@@ 19
Sob@@ 19
Songs 19
Sot@@ 19
Stadt@@ 19
Süd@@ 19
Tang 19
Tek@@ 19
Thel@@ 19
Tomatoes 19
Touch 19
Toy@@ 19
Toyota 19
Treaty 19
Trinity 19
Ukraine 19
Venus 19
Vé@@ 19
Wiener 19
Yok@@ 19
Zap@@ 19
Zy@@ 19
abi 19
above 19
acias 19
aded 19
aign 19
alists 19
alle 19
allow 19
anch@@ 19
anese 19
apo 19
arin 19
arina 19
ater@@ 19
auch 19
bass@@ 19
berg@@ 19
bet 19
bind@@ 19
blan@@ 19
call 19
chang@@ 19
close 19
coin 19
compl@@ 19
compos@@ 19
construction 19
count 19
cour@@ 19
cula 19
czy@@ 19
dep@@ 19
develop@@ 19
dice 19
differ@@ 19
direct 19
dist@@ 19
dol 19
east 19
ede 19
emer@@ 19
endo 19
engers 19
ennes 19
entrepren@@ 19
estes 19
ew 19
five 19
geh@@ 19
generation 19
glass 19
graphi@@ 19
guide 19
hap@@ 19
held 19
high@@ 19
igan 19
ilk 19
indi@@ 19
induc@@ 19
iser 19
isés 19
iye 19
izi@@ 19
jana 19
key@@ 19
kid@@ 19
lah 19
lez 19
loy@@ 19
mata 19
maya 19
md@@ 19
members 19
mez 19
minutes 19
museum 19
naz@@ 19
ners 19
neutr@@ 19
nin 19
obr@@ 19
oda 19
official 19
ogo 19
oj@@ 19
olig@@ 19
oms 19
oren 19
ornis 19
orth@@ 19
pass 19
philosoph@@ 19
pion@@ 19
plane 19
policy 19
pound 19
problem 19
prote@@ 19
reco@@ 19
reference 19
resc@@ 19
rhy@@ 19
role 19
rus@@ 19
sag@@ 19
saw 19
sburg 19
schw@@ 19
shi 19
signed 19
sine 19
sist@@ 19
sle@@ 19
stand@@ 19
still 19
stimul@@ 19
street 19
tail 19
tap@@ 19
tas 19
tek@@ 19
tend@@ 19
thu@@ 19
tima 19
tou@@ 19
transport 19
trig@@ 19
ulo 19
unge 19
ungen 19
uro 19
v.@@ 19
vation 19
voice 19
wise 19
yet 19
zil@@ 19
zin@@ 19
¯ 19
¾ 19
ê 19
ń 19
ŋ@@ 19
ρα 19
ρα@@ 19
ль 19
ма@@ 19
п@@ 19
ра@@ 19
ски 19
ازب@@ 19
ایران 19
برابر 19
بلتستان 19
بچ@@ 19
سرحد@@ 19
مای@@ 19
محروم 19
منی@@ 19
وک@@ 19
پو@@ 19
ۖ 19
ா@@ 19
∗ 19
⛪ 19
ⴰ 19
ⵜ 19
ⵣ@@ 19
っ@@ 19
ど@@ 19
ナ@@ 19
バ@@ 19
パ@@ 19
京@@ 19
司 19
和 19
子@@ 19
幸 19
式@@ 19
星@@ 19
株@@ 19
沢@@ 19
河@@ 19
정@@ 19
1,4 18
4th 18
6,5 18
7. 18
Adel@@ 18
Alban@@ 18
Alman@@ 18
Americ@@ 18
Archit@@ 18
Are@@ 18
Art@@ 18
Assist@@ 18
Baj@@ 18
Baptiste 18
Batman 18
Between 18
Camille 18
Chim@@ 18
Coast 18
Critical 18
Delhi 18
Denmark 18
Diff@@ 18
Domen@@ 18
Ech@@ 18
Edinburgh 18
Emir@@ 18
Eri@@ 18
Fah@@ 18
Feuer@@ 18
Flam@@ 18
Gad@@ 18
General@@ 18
Gottfried 18
Grec@@ 18
Guil@@ 18
Gérard 18
HK 18
Helena 18
Helmut 18
Hit 18
Ib@@ 18
Ira@@ 18
Isid@@ 18
Italian 18
Its 18
Jag@@ 18
Jou@@ 18
Juni@@ 18
Kak@@ 18
Kang@@ 18
Kara 18
Kok@@ 18
Lam 18
Lamp@@ 18
Liga 18
Linn@@ 18
Luk@@ 18
Lut@@ 18
Malay@@ 18
Malm@@ 18
Manager 18
Marguerite 18
Metacritic 18
Metro 18
MiG 18
Montenegro 18
Much@@ 18
Munich 18
Myth@@ 18
Napoleon 18
Notre 18
Original 18
Palma 18
Po 18
Preis 18
Pé@@ 18
Regional 18
Rest@@ 18
Rhein@@ 18
Ridge 18
Rock@@ 18
Roma 18
Rome 18
Seb@@ 18
Second@@ 18
Secre@@ 18
Shō@@ 18
SmackDown 18
Somerset 18
Spin@@ 18
Stanford 18
Student 18
Swedish 18
Tav@@ 18
Tay@@ 18
Tch@@ 18
Theater 18
Tod 18
Universität 18
Vermont 18
Virgin@@ 18
Wag@@ 18
XIV 18
Yes@@ 18
Yusuf 18
abilities 18
abra 18
acks 18
acon@@ 18
actus 18
aircraft 18
aku@@ 18
alier 18
amos 18
anni 18
aran 18
aras@@ 18
arms 18
association 18
atar 18
atives 18
atu 18
audi@@ 18
beau@@ 18
bei 18
bing 18
biot@@ 18
calcul@@ 18
card 18
cav@@ 18
cid@@ 18
cine 18
cities 18
civil 18
could 18
cru@@ 18
dates 18
dee 18
determin@@ 18
deutsch@@ 18
deux 18
different 18
display 18
dn 18
doctor 18
dou@@ 18
draw 18
eded 18
effects 18
elis 18
ellip@@ 18
ench@@ 18
enti 18
entum 18
eres 18
essel 18
estone 18
etto 18
event 18
eville 18
evo 18
fam@@ 18
food 18
fron@@ 18
functions 18
fund 18
fy 18
gir@@ 18
girl 18
glob@@ 18
groups 18
gul@@ 18
head@@ 18
heit 18
hot@@ 18
iTunes 18
icas 18
iche 18
icide 18
idal 18
idas 18
igen 18
iled 18
iment@@ 18
ised 18
isie 18
jen@@ 18
jer@@ 18
just 18
kal 18
khe@@ 18
know 18
lak@@ 18
lery 18
lets 18
lights 18
m. 18
making 18
mass@@ 18
ministerium 18
miz@@ 18
noc@@ 18
odor@@ 18
offensive 18
oise 18
olla 18
oper 18
orb@@ 18
orium 18
others 18
paci@@ 18
pale@@ 18
pan 18
pau@@ 18
peti@@ 18
phe 18
politics 18
pressure 18
primary 18
profit 18
prol@@ 18
quad@@ 18
qualif@@ 18
quarter@@ 18
receiv@@ 18
regul@@ 18
rico 18
robus@@ 18
rée 18
sak@@ 18
says 18
schaft 18
segment 18
separ@@ 18
sex@@ 18
short 18
sil 18
sio 18
som 18
something 18
sour@@ 18
sozial@@ 18
spot 18
spring 18
sult@@ 18
sup@@ 18
surface 18
symp@@ 18
talk 18
techni@@ 18
templ@@ 18
those 18
tien 18
tik@@ 18
track 18
travel 18
tries 18
tris 18
tí@@ 18
ube 18
ude 18
unde 18
ungo 18
university 18
utes 18
uti 18
utnant 18
visa 18
vs 18
western 18
yar@@ 18
yer@@ 18
yna 18
ynam@@ 18
Émile 18
Étienne 18
ân@@ 18
än 18
ème 18
éli@@ 18
ód@@ 18
ım 18
ş 18
ˉ 18
άκ@@ 18
ικ@@ 18
ού@@ 18
υ@@ 18
Л@@ 18
ли@@ 18
ль@@ 18
ная 18
ц 18
і 18
Ա@@ 18
Հ@@ 18
ׁ 18
اجداد 18
اری 18
انحصار 18
داؤد 18
عظمت 18
گر 18
گرا@@ 18
އ@@ 18
़ 18
‰ 18
❪ 18
❫ 18
ぎ@@ 18
ず 18
め@@ 18
ボ@@ 18
ム@@ 18
ュ@@ 18
之@@ 18
俊@@ 18
保@@ 18
信@@ 18
十@@ 18
國@@ 18
多@@ 18
太 18
州 18
康@@ 18
秀@@ 18
貴@@ 18
국@@ 18
수@@ 18
신@@ 18
영@@ 18
이 18
장@@ 18
2,8 17
8,5 17
Abbas 17
Académie 17
Afr@@ 17
Alba 17
Alli@@ 17
Amar@@ 17
Amat@@ 17
Around 17
Au 17
Aw@@ 17
Baden 17
Beth@@ 17
Bib@@ 17
Cho 17
Chor@@ 17
Clim@@ 17
Coch@@ 17
Comm@@ 17
Connecticut 17
Corpor@@ 17
Defin@@ 17
Dek@@ 17
Dendro@@ 17
Deux 17
Dutch 17
Eh@@ 17
Elite 17
Executive 17
Fighter 17
Fra@@ 17
Grammy 17
Guard 17
Hig@@ 17
Honda 17
Idaho 17
Infin@@ 17
Jazz 17
Jewish 17
Kansas 17
Kau@@ 17
Kis@@ 17
Legacy 17
List@@ 17
Lom@@ 17
Lour@@ 17
Match 17
Mayor 17
Mega 17
Mercury 17
Miami 17
Mim@@ 17
Mittel@@ 17
Moritz 17
Muk@@ 17
Murat 17
Musée 17
Native 17
Nest@@ 17
Nih@@ 17
Particip@@ 17
Peti@@ 17
Phase 17
Pittsburgh 17
Population 17
Programm@@ 17
Publi@@ 17
Que@@ 17
Rang@@ 17
Rat 17
Reis@@ 17
Rhode 17
Ron@@ 17
Rue 17
Salv@@ 17
Schn@@ 17
Schutz@@ 17
Sent@@ 17
Sloven@@ 17
Solo 17
Staats@@ 17
Stef@@ 17
Stic@@ 17
Syr@@ 17
Tam 17
Tin 17
Tod@@ 17
Track 17
Trans 17
Typ@@ 17
Unic@@ 17
Vend@@ 17
WTA 17
Waffen 17
Wen@@ 17
While 17
XVII 17
Yale 17
Yus@@ 17
Za@@ 17
Zeit 17
aal@@ 17
academic 17
acre 17
ails 17
alay@@ 17
aler 17
ament 17
ament@@ 17
archae@@ 17
arn 17
ativ@@ 17
atra 17
attack 17
available 17
awards 17
bed@@ 17
brain 17
chet 17
cois 17
communication 17
compati@@ 17
conduc@@ 17
conductor 17
configur@@ 17
connected 17
contact 17
cord@@ 17
cosa 17
cost@@ 17
curr@@ 17
cyclo@@ 17
dead 17
density 17
device 17
died 17
diff@@ 17
div@@ 17
echn@@ 17
eka 17
ellen@@ 17
elor 17
embran@@ 17
emin@@ 17
emo 17
endorf 17
endra 17
enem@@ 17
enge 17
ennis 17
enzyme 17
esian 17
established 17
esto 17
ettes 17
eval 17
eve 17
far 17
fici@@ 17
fik 17
forms 17
fu 17
geome@@ 17
german@@ 17
haw@@ 17
him@@ 17
histoire 17
hour 17
icht 17
ichte 17
iger@@ 17
imus 17
including 17
indica 17
ineers 17
instruction 17
inter 17
ios 17
ip 17
irk 17
isia 17
itter 17
iv 17
ive 17
kam@@ 17
kara 17
kio 17
kreis 17
lap@@ 17
large 17
latitu@@ 17
lave 17
leges 17
liqui@@ 17
lit 17
literature 17
liv@@ 17
located 17
look 17
lug 17
manufactur@@ 17
matches 17
message 17
mez@@ 17
minister 17
mouth 17
mundo 17
mé@@ 17
nationale 17
nature 17
nea 17
ngh@@ 17
obs@@ 17
officially 17
omel@@ 17
opti@@ 17
ordnung 17
organ 17
owa 17
paper 17
pec@@ 17
ped 17
pes@@ 17
physical 17
pia 17
pian@@ 17
plants 17
police 17
popular 17
pped 17
quality 17
rah 17
rd 17
reported 17
resources 17
rit 17
robot@@ 17
roll 17
sau@@ 17
schi@@ 17
sculp@@ 17
should 17
sig 17
slo@@ 17
stad@@ 17
stantin 17
suy@@ 17
tea 17
testing 17
toon 17
tout 17
tral 17
tress 17
trom@@ 17
uba 17
uer 17
uko 17
uls 17
ults 17
unif@@ 17
unter 17
util@@ 17
uts 17
various 17
veda 17
vida 17
vig@@ 17
wang 17
xo@@ 17
yar 17
ã@@ 17
ç 17
öy 17
ø 17
ù@@ 17
ń@@ 17
ŏ@@ 17
œ@@ 17
Ś@@ 17
ș@@ 17
Μακεδ@@ 17
Παλαι@@ 17
Φ 17
ή@@ 17
ης 17
θος 17
κλ@@ 17
ρυ@@ 17
τα@@ 17
ων 17
П@@ 17
Рес@@ 17
Са@@ 17
У@@ 17
д 17
до@@ 17
область 17
ս@@ 17
آلو@@ 17
احاط@@ 17
افواج 17
جرمن 17
حسین 17
دادی 17
دعوت 17
سمندر 17
سوال 17
ماتح@@ 17
متاث@@ 17
میم 17
ویب 17
پاشا 17
ڠ@@ 17
کام@@ 17
کم@@ 17
گل 17
ত@@ 17
দ@@ 17
় 17
া 17
์ 17
ག@@ 17
် 17
ს@@ 17
ṇ@@ 17
√ 17
ⴻ@@ 17
ⵍ@@ 17
ⵙ@@ 17
げ@@ 17
ァ@@ 17
エ@@ 17
ダ@@ 17
レ@@ 17
五@@ 17
奈@@ 17
岩@@ 17
戦 17
政@@ 17
法 17
行 17
谷 17
기 17
다 17
2550 16
9,5 16
Acanth@@ 16
Afrique 16
Alaska 16
Album 16
Andro@@ 16
Antarc@@ 16
Arizona 16
Armenia 16
Arth@@ 16
Aş@@ 16
Banda 16
Baseball 16
Bey@@ 16
Biography 16
Blanca 16
Boden 16
Bosnia 16
Broadcasting 16
Buffalo 16
Carp@@ 16
Catholic 16
Cola 16
Cres@@ 16
Dau@@ 16
Des 16
Dik@@ 16
Dong@@ 16
Doğ@@ 16
Eber@@ 16
Engel@@ 16
Euc@@ 16
Eul@@ 16
Famili@@ 16
Farm 16
Ferg@@ 16
Fres@@ 16
Gand@@ 16
Heavy 16
Herschel 16
Herzeg@@ 16
Hitler 16
Inn 16
Jap@@ 16
Just@@ 16
Kid 16
Kod@@ 16
Kost@@ 16
Kut@@ 16
Lai 16
Ley 16
Los@@ 16
Lub@@ 16
Manchester 16
Mark@@ 16
Mec@@ 16
Metropolitan 16
Mog@@ 16
Motors 16
Mountains 16
Moz@@ 16
Mud@@ 16
Must@@ 16
Mw@@ 16
Neo 16
Nieder@@ 16
Olympi@@ 16
Organisation 16
Partisi 16
PhD 16
Pietro 16
Pig@@ 16
Pis@@ 16
Ra 16
Regiment 16
Reina 16
Sant 16
Schrö@@ 16
Sham@@ 16
Song@@ 16
Status 16
Sub 16
Sud 16
Symb@@ 16
Terminal 16
Treat@@ 16
Trophy 16
Türk 16
UNESCO 16
Ud@@ 16
Ug@@ 16
Université 16
Ush@@ 16
Vietnam 16
Việt 16
Wan@@ 16
Week@@ 16
Welt 16
Werke 16
Wilhel@@ 16
Wiz@@ 16
Ya@@ 16
Zam@@ 16
Zor@@ 16
abo 16
acked 16
acqu@@ 16
addres@@ 16
aged 16
allen 16
alphab@@ 16
anat@@ 16
andt 16
ark 16
ata@@ 16
atan 16
atur 16
atura 16
aur 16
award 16
azi 16
aï@@ 16
behavior 16
bek@@ 16
bid@@ 16
big 16
bility 16
blatt 16
bles 16
bou@@ 16
bound 16
brevi@@ 16
bund 16
canc@@ 16
cen@@ 16
cili@@ 16
ción 16
concre@@ 16
coordin@@ 16
cover@@ 16
crit@@ 16
cultural 16
cum@@ 16
dal 16
dav@@ 16
dic 16
did@@ 16
digit@@ 16
distance 16
drive 16
drop 16
ecting 16
ede@@ 16
engo 16
eren 16
esen 16
faces 16
fair@@ 16
fat 16
gel 16
gency 16
gesetz@@ 16
gr 16
guard 16
heimer 16
here 16
hl 16
hn 16
holz 16
however 16
iba 16
idad 16
idence 16
iet 16
industri@@ 16
influ@@ 16
installed 16
interest 16
isions 16
isol@@ 16
ival@@ 16
jin 16
kings 16
kit@@ 16
kov@@ 16
kreuz 16
kri@@ 16
kut@@ 16
lain 16
lay 16
lea 16
leader 16
leur 16
ley@@ 16
lon@@ 16
lı 16
magne@@ 16
mann@@ 16
mas 16
mean 16
mobil@@ 16
monde 16
mund 16
mw@@ 16
national@@ 16
natural 16
nership 16
nous 16
occident@@ 16
oder 16
offic@@ 16
ois@@ 16
ombe 16
omon 16
oslav 16
ources 16
ovina 16
pain 16
pera 16
performance 16
pers@@ 16
platz 16
podi@@ 16
pop@@ 16
porting 16
power@@ 16
preis 16
present@@ 16
pris@@ 16
problems 16
prom@@ 16
pt 16
race 16
ratio 16
ray@@ 16
refl@@ 16
resear@@ 16
review 16
road 16
rose 16
rules 16
seas 16
secre@@ 16
sell 16
sexual 16
shu@@ 16
smo@@ 16
sos@@ 16
sous 16
sports 16
steine 16
sters 16
store 16
tai 16
temperature 16
tens@@ 16
tent@@ 16
teri 16
tests 16
thm 16
tically 16
tification 16
trad@@ 16
transmission 16
tras 16
tán 16
uela 16
ugu 16
ulty 16
umbr@@ 16
undi 16
usia 16
ventures 16
versary 16
vision 16
vol 16
wait 16
wam@@ 16
wara 16
warf 16
wich 16
yen@@ 16
ylus 16
zel@@ 16
zin 16
À@@ 16
Édouard 16
ál@@ 16
év@@ 16
ön 16
üb@@ 16
ʲ@@ 16
Α 16
Νέ@@ 16
αγ@@ 16
λε@@ 16
ρά@@ 16
τι@@ 16
Д@@ 16
ни@@ 16
ре@@ 16
ի 16
ׂ@@ 16
استنبول 16
اقوام 16
بندر@@ 16
جارج@@ 16
ربی 16
رجحان 16
لک 16
نمبر 16
وسی@@ 16
پال@@ 16
پور@@ 16
کری 16
ڵ@@ 16
ݒ@@ 16
र 16
र@@ 16
র 16
র@@ 16
ம@@ 16
მ@@ 16
⋅ 16
▄ 16
☉ 16
ⵢ@@ 16
々@@ 16
さ 16
ガ@@ 16
区 16
區 16
土@@ 16
城@@ 16
有@@ 16
章 16
경@@ 16
공@@ 16
라@@ 16
의 16
자 16
지@@ 16
🚿 16
1930s 15
Aber@@ 15
Agriculture 15
Airbus 15
Akadem@@ 15
Armee 15
Bachelor 15
Bey 15
Bir 15
Cam 15
Cem@@ 15
Chall@@ 15
Chart 15
Chelsea 15
Christian@@ 15
Ciudad 15
Commer@@ 15
Copa 15
Detroit 15
Deu@@ 15
Dob@@ 15
Europa 15
Form 15
Frit@@ 15
Fund@@ 15
Geschichte 15
Glen@@ 15
Gut@@ 15
Halle 15
Haute 15
Hawaii 15
Hein@@ 15
Hoch@@ 15
Holocaus@@ 15
Inde@@ 15
Independ@@ 15
Individ@@ 15
Jab@@ 15
Jama@@ 15
Je 15
Jerusalem 15
Kish@@ 15
Kriegs@@ 15
Kunst@@ 15
Langu@@ 15
Lil@@ 15
Lê 15
Mab@@ 15
Malta 15
Manz@@ 15
Master@@ 15
Mia 15
Milit@@ 15
Mill 15
Ministry 15
Nati@@ 15
Negro 15
Nguy@@ 15
Nice 15
Niv@@ 15
Nord 15
Obr@@ 15
Oriental 15
Orleans 15
Ov@@ 15
Palace 15
Palm 15
Pass 15
Pek@@ 15
Pont 15
Porto 15
Qatar 15
Rain@@ 15
Raw@@ 15
Rhône 15
Rund@@ 15
Sala 15
Sen 15
Siemens 15
Sik@@ 15
Slovakia 15
Species 15
Stal@@ 15
Stil@@ 15
Stro@@ 15
TRT 15
Tah@@ 15
Telef@@ 15
Telev@@ 15
Temper@@ 15
Then 15
Thir@@ 15
Türkiye 15
Vall@@ 15
Vu@@ 15
Völ@@ 15
Wind@@ 15
Zar@@ 15
Zw@@ 15
abi@@ 15
ablan@@ 15
aders 15
adis 15
afi 15
afr@@ 15
ago@@ 15
aid@@ 15
ained 15
ait@@ 15
akes 15
album 15
als@@ 15
amino 15
amor@@ 15
anol 15
ape@@ 15
aper@@ 15
apos@@ 15
appears 15
argum@@ 15
astronom@@ 15
atta 15
atti 15
aub@@ 15
aught 15
auri 15
author@@ 15
azo 15
azzo 15
bahn 15
bai 15
beat 15
bek 15
bomb@@ 15
boys 15
bran@@ 15
cari@@ 15
caused 15
chs 15
clar@@ 15
clin@@ 15
command 15
complete 15
consum@@ 15
cost 15
cot 15
deb@@ 15
deutschen 15
dim 15
disco@@ 15
discrimin@@ 15
dorf 15
ebel 15
ellidae 15
emon 15
enas 15
enfeld 15
enor@@ 15
enses 15
espace 15
eston 15
evalu@@ 15
explor@@ 15
fax 15
fee 15
films 15
flag 15
frac@@ 15
frequency 15
funk 15
gau 15
gets 15
gies 15
gle 15
got@@ 15
gres@@ 15
gut 15
habit@@ 15
hara 15
heads 15
hiy@@ 15
homme 15
hot 15
human@@ 15
idar@@ 15
iidae 15
iler@@ 15
ilio 15
imag@@ 15
ingia 15
istin 15
itali@@ 15
iterran@@ 15
iver 15
ja@@ 15
jit@@ 15
kop@@ 15
lee 15
legal 15
leit@@ 15
library 15
lim 15
limited 15
marketing 15
mation 15
meister 15
mf@@ 15
mich@@ 15
might 15
minton 15
modern 15
need 15
nius 15
oes 15
oft 15
oh 15
oks 15
olm 15
ombi@@ 15
onda 15
osi 15
oster@@ 15
ovic 15
ovo 15
pair 15
partic@@ 15
pen 15
phin 15
pino 15
placement 15
played 15
polar@@ 15
poli 15
positi@@ 15
pra@@ 15
prob@@ 15
property 15
ption 15
quadr@@ 15
rar@@ 15
ratic 15
reci@@ 15
regi@@ 15
rei 15
report 15
reser@@ 15
rim 15
riv@@ 15
ros 15
rov@@ 15
rug@@ 15
rí@@ 15
sdorf 15
seen 15
semin@@ 15
sent@@ 15
separate 15
shared 15
shop 15
shot 15
sic@@ 15
sign@@ 15
six 15
ský 15
special 15
square 15
stag@@ 15
stelle 15
sto@@ 15
stric@@ 15
syst@@ 15
tape 15
tard 15
target 15
tillo 15
toms 15
topo@@ 15
tour 15
traf@@ 15
trau@@ 15
unia 15
units 15
universit@@ 15
uth@@ 15
vag@@ 15
verband 15
violence 15
virtu@@ 15
want 15
writ@@ 15
young 15
zan 15
¼ 15
Í@@ 15
Österreich@@ 15
ß@@ 15
ège 15
ément 15
érie 15
éro@@ 15
ý 15
ɛ 15
ʊ@@ 15
˚ 15
Η 15
Κάτω 15
Νε@@ 15
ας 15
μη 15
πος 15
ρύ@@ 15
τί@@ 15
ва@@ 15
ви@@ 15
гъ@@ 15
да@@ 15
и@@ 15
ко 15
ла@@ 15
на@@ 15
но@@ 15
ор@@ 15
ро@@ 15
ха@@ 15
؜ 15
برطان@@ 15
برگ 15
بی 15
دری@@ 15
رسوخ 15
رک@@ 15
فتار 15
لارنس 15
مشتمل 15
مصطف@@ 15
ملی@@ 15
موسی 15
وری 15
وری@@ 15
وین 15
کا 15
ێ@@ 15
ܝ 15
ܟ@@ 15
ܥ@@ 15
ް@@ 15
प 15
ल@@ 15
য 15
ி@@ 15
ტ@@ 15
უ@@ 15
↔ 15
≡ 15
ぶ@@ 15
仁@@ 15
元@@ 15
功 15
成@@ 15
文 15
江 15
王@@ 15
生@@ 15
菊@@ 15
隆@@ 15
香 15
麻@@ 15
龍@@ 15
리@@ 15
보@@ 15
성 15
스@@ 15
연 15
1,9 14
ANU 14
Administr@@ 14
Ajax 14
Algeria 14
Ame@@ 14
Anast@@ 14
Apol@@ 14
Arbeits@@ 14
Arkansas 14
Arsen@@ 14
Bang@@ 14
Basil@@ 14
Bible 14
Bibli@@ 14
Bing@@ 14
Blanche 14
Bomb@@ 14
Bras@@ 14
Bros 14
Bulgaria 14
Camb@@ 14
Captain 14
Carrera 14
Ce 14
Challenger 14
Champ@@ 14
Chen@@ 14
Christoph 14
Circuit 14
Conseil 14
Conservation 14
Constitu@@ 14
Cra@@ 14
Dar 14
Director 14
Distr@@ 14
East@@ 14
Edit@@ 14
Element@@ 14
Ener@@ 14
Esk@@ 14
Estonia 14
Eugen 14
Ex 14
Gog@@ 14
Govern@@ 14
Greater 14
Greatest 14
Grün@@ 14
Génér@@ 14
Hann@@ 14
Haus@@ 14
Hesse 14
Hill@@ 14
Hung@@ 14
Hô@@ 14
Interpre@@ 14
Isla 14
Jah@@ 14
Jal@@ 14
Juvent@@ 14
Kash@@ 14
Kes@@ 14
König 14
König@@ 14
Lept@@ 14
Lid@@ 14
Ling@@ 14
Luftw@@ 14
Macedonia 14
Mant@@ 14
Many 14
Marin@@ 14
Mek@@ 14
Member 14
Mey@@ 14
Michel@@ 14
Mig@@ 14
Militär@@ 14
Monde 14
Montreal 14
Nationale 14
Nis@@ 14
Niz@@ 14
Nos@@ 14
Ná@@ 14
Olympic 14
Osman 14
Paral@@ 14
Part@@ 14
Phar@@ 14
Philippines 14
Princ@@ 14
Priv@@ 14
Progres@@ 14
Provincia 14
Put@@ 14
Refer@@ 14
Represent@@ 14
República 14
Rip@@ 14
Romania 14
Route 14
République 14
Schl@@ 14
Sebasti@@ 14
Sheikh 14
Silver@@ 14
Speci@@ 14
Sty@@ 14
Tamil 14
Tari@@ 14
Tax@@ 14
Tennis 14
Territ@@ 14
Town@@ 14
Township 14
Ukrainian 14
Unternehmen 14
Vamp@@ 14
Ville 14
Wach@@ 14
Wah@@ 14
Wet@@ 14
Yol@@ 14
Zan@@ 14
Zer@@ 14
abled 14
abo@@ 14
addition 14
affin@@ 14
agar 14
aining 14
ajo 14
akar@@ 14
alan 14
alco@@ 14
alen 14
amas 14
anche 14
anco 14
angers 14
animal 14
annes 14
anted 14
aret 14
associ@@ 14
asti@@ 14
atal 14
atas@@ 14
atures 14
atz@@ 14
auch@@ 14
auf 14
axe 14
aze 14
bah@@ 14
became 14
blues 14
brill@@ 14
burg@@ 14
camp 14
categ@@ 14
cester 14
chanti@@ 14
china 14
classi@@ 14
cn 14
college 14
colon@@ 14
consci@@ 14
consol@@ 14
cred@@ 14
cup 14
dad@@ 14
ded@@ 14
deg@@ 14
dienst 14
diz@@ 14
document@@ 14
dog 14
eder 14
element 14
elsen 14
emy 14
endor@@ 14
enin 14
enus 14
environment 14
enzen 14
erb@@ 14
erc@@ 14
eten 14
eus@@ 14
fact 14
fall@@ 14
fav@@ 14
fet@@ 14
ford@@ 14
foundation 14
fro@@ 14
fuel 14
fund@@ 14
fung@@ 14
further 14
future 14
games 14
gee 14
gir 14
gu 14
haz@@ 14
hem 14
hib@@ 14
hol 14
hop@@ 14
hua 14
ibe 14
iker 14
ikh 14
illet 14
imperi@@ 14
industry 14
inet 14
ional 14
iri@@ 14
ishes 14
ishing 14
issu@@ 14
issue 14
kett 14
kim@@ 14
kis@@ 14
kö@@ 14
lah@@ 14
lang@@ 14
ldwide 14
lera 14
liqu@@ 14
lou@@ 14
lows 14
lun@@ 14
mark@@ 14
mig@@ 14
motion 14
mph 14
much 14
má@@ 14
nchron@@ 14
nd 14
neu@@ 14
nis@@ 14
niti@@ 14
notes 14
nuclear 14
ober@@ 14
oc 14
onga 14
orch@@ 14
osc@@ 14
otop@@ 14
pharm@@ 14
pler 14
pom@@ 14
popul@@ 14
portal 14
possible 14
prepar@@ 14
progr@@ 14
proj@@ 14
prov@@ 14
quanti@@ 14
quet 14
quis@@ 14
rad 14
regular 14
religion 14
rement 14
request 14
resistance 14
retr@@ 14
revol@@ 14
rew 14
river 14
rob@@ 14
rom 14
royal 14
sali@@ 14
sand@@ 14
sang@@ 14
scher@@ 14
screen 14
scrip@@ 14
seconds 14
sector 14
sels 14
several 14
shan 14
sible 14
skaya 14
sol 14
sole 14
soph@@ 14
spo@@ 14
started 14
statis@@ 14
stitu@@ 14
stur@@ 14
such@@ 14
sé@@ 14
tat@@ 14
tem 14
teria 14
terior 14
terms 14
than@@ 14
theatre 14
thel@@ 14
thers 14
tige 14
tim 14
tir@@ 14
titude 14
tly 14
together 14
topl@@ 14
tower 14
traditional 14
trag@@ 14
uman 14
ungs 14
unique 14
veget@@ 14
vertebr@@ 14
vill@@ 14
vir 14
vivo 14
wall@@ 14
whe@@ 14
who@@ 14
xis 14
yat 14
yk@@ 14
zip 14
zu@@ 14
¥ 14
Ä@@ 14
Î@@ 14
Über 14
áng 14
ät@@ 14
ör 14
ünde 14
ür 14
č 14
ħ 14
ţ@@ 14
ʁ@@ 14
Ι@@ 14
Λ 14
Ξ@@ 14
Παρ@@ 14
Ψ 14
Ω@@ 14
άς 14
αι@@ 14
ακ@@ 14
αρ@@ 14
εια 14
μος 14
να@@ 14
ον@@ 14
οχώ@@ 14
σι@@ 14
τας 14
ων@@ 14
Е@@ 14
Н@@ 14
б 14
вка 14
по@@ 14
ү@@ 14
ө@@ 14
ּ 14
ادی 14
ارشاد 14
رائج 14
زی 14
قابو 14
قری@@ 14
قی 14
نفرت 14
کش@@ 14
گان@@ 14
ۆ 14
ܢ 14
ܩ@@ 14
ܫ@@ 14
ݣ@@ 14
ރ@@ 14
ާ@@ 14
ު@@ 14
द@@ 14
व@@ 14
स 14
ক@@ 14
่ 14
้ 14
ོ@@ 14
ა 14
ბ@@ 14
გ@@ 14
ვ@@ 14
ẟ@@ 14
ἄ@@ 14
⇌ 14
ⴳ@@ 14
ⴷ@@ 14
ⵉ 14
ⵔ 14
〜 14
ご@@ 14
ア 14
ウ@@ 14
デ@@ 14
メ@@ 14
前@@ 14
千@@ 14
平 14
年@@ 14
弘 14
後@@ 14
志@@ 14
村 14
沙@@ 14
玉@@ 14
町 14
章@@ 14
紀 14
良@@ 14
道@@ 14
里 14
나@@ 14
미@@ 14
아@@ 14
우@@ 14
인@@ 14
🕰 14
Abo@@ 13
Advis@@ 13
Afro@@ 13
Alternative 13
Alto 13
Amad@@ 13
Anglo 13
Artem@@ 13
Autonom@@ 13
Bass 13
Beat@@ 13
Benz 13
Bez@@ 13
Bezirks@@ 13
Birmingham 13
Blat@@ 13
Branch 13
Brandenburg 13
Brut@@ 13
Caesar 13
Centro 13
Christophe 13
Compagnie 13
Cuc@@ 13
Cór@@ 13
Defence 13
Demographics 13
Diplom@@ 13
Dram@@ 13
Dub@@ 13
Edel@@ 13
Einstein 13
Era 13
Fan@@ 13
Finn@@ 13
Fland@@ 13
Fond@@ 13
Francia 13
Friday 13
Glou@@ 13
Governor 13
Gregor 13
Grig@@ 13
Guadal@@ 13
Hang@@ 13
Haut 13
Heim@@ 13
Herald 13
Hits 13
Hoh@@ 13
JR 13
Kaf@@ 13
Kais@@ 13
Kreis@@ 13
Kug@@ 13
Kō@@ 13
Lok@@ 13
Luftwaffe 13
Lö@@ 13
Mahmud 13
Mal 13
Mama 13
Materi@@ 13
Mediterran@@ 13
Melbourne 13
Mozart 13
Méd@@ 13
Oy@@ 13
Palais 13
Parall@@ 13
Ped@@ 13
Pes@@ 13
Pok@@ 13
Reser@@ 13
Ring@@ 13
Rober@@ 13
Rush 13
Salon 13
Sek@@ 13
Sey@@ 13
Sheffield 13
South@@ 13
Sri 13
Stern@@ 13
Straße 13
Sur 13
Sweden 13
Their 13
Trom@@ 13
Tō@@ 13
Vegas 13
Volk@@ 13
Vos@@ 13
Wies@@ 13
Windsor 13
XVI 13
Xu@@ 13
Yar@@ 13
Yeni 13
Yorkshire 13
academ@@ 13
adies 13
agne 13
agog@@ 13
aille 13
ainer 13
airs 13
alar 13
alisme 13
anchi 13
ancia 13
ange@@ 13
aning 13
anl@@ 13
anstalt 13
apolis 13
applications 13
arc 13
arda 13
ardt 13
arf 13
arm 13
assi 13
atac@@ 13
atsu 13
attribu@@ 13
auto 13
average 13
bekistan 13
big@@ 13
birds 13
border 13
borough 13
break@@ 13
bud@@ 13
buildings 13
bula 13
capac@@ 13
castle 13
category 13
chez 13
church 13
clav@@ 13
clu@@ 13
colonial 13
comes 13
conc@@ 13
conflict 13
constant 13
controlled 13
cricket 13
dag@@ 13
dark 13
developed 13
dial@@ 13
dida 13
diffusion 13
dition 13
does 13
dov@@ 13
dul@@ 13
eby 13
ej 13
eks 13
elen 13
eler@@ 13
emas 13
enbach 13
encies 13
enden 13
engl@@ 13
enk@@ 13
eor@@ 13
ept 13
eran 13
erne 13
erung 13
escul@@ 13
ete@@ 13
event@@ 13
every 13
exper@@ 13
fair 13
fak@@ 13
fasci@@ 13
fest 13
figur@@ 13
fit 13
flag@@ 13
fres@@ 13
för@@ 13
gab@@ 13
genes 13
govern@@ 13
grad@@ 13
gris@@ 13
heb@@ 13
hik@@ 13
hours 13
ided 13
iden@@ 13
idential 13
idia 13
ika@@ 13
ikan@@ 13
illed 13
illustr@@ 13
imler 13
inci 13
internationale 13
isse 13
kav@@ 13
km@@ 13
kowski 13
l. 13
last@@ 13
lear@@ 13
leo 13
letter 13
limit@@ 13
lina 13
mant@@ 13
matr@@ 13
mini@@ 13
mix 13
[...]
