de 50659965
, 48354455
. 40055625
la 25299147
et 20522098
le 18462795
à 17118606
en 15170906
&quot; 13607370
l&apos; 13581477
des 12842784
est 12530692
@-@ 12464928
du 11825689
les 11223307
d&apos; 10358977
un 9256782
( 8317844
) 8314780
une 8256421
dans 6949164
par 6379995
au 6246924
’ 5444266
il 5226078
pour 5187327
que 4893706
a 4755909
é 4748784
qui 4605504
Le 4241614
sur 3962127
se 3556370
son 3452293
Il 3430050
ée 3416443
avec 3360359
La 3261119
: 3033021
aux 2903109
plus 2801061
er 2787598
l 2734673
ant 2722666
ent 2685489
sont 2631001
En 2544690
és 2475641
ou 2388163
elle 2294257
Les 2242115
sa 2208347
dé@@ 2187299
été 2145429
é@@ 2143092
« 2095312
» 2090741
d 2056588
ées 1968747
es 1926559
ce 1897211
s&apos; 1882348
qu&apos; 1847389
ne 1839991
ré@@ 1812723
ses 1812635
ation 1780211
ie 1778483
comme 1712692
deux 1600754
on 1563214
L&apos; 1563116
ont 1499372
s 1476831
y 1445685
pas 1439304
ement 1404341
fait 1352839
re@@ 1348583
; 1293331
entre 1290496
mais 1242408
in@@ 1218706
aire 1209419
ait 1206167
Elle 1189968
te 1188006
ale 1163529
cette 1148551
sous 1120076
age 1038896
même 1031781
ité 1026194
être 1021975
c@@ 1021877
était 1009340
lui 1003844
leur 997803
n&apos; 994991
ch@@ 985531
p@@ 976898
dont 976350
ques 976181
après 975276
% 948493
où 941027
&apos; 929902
S@@ 928856
v@@ 917904
ans 910345
également 909203
commune 900403
France 896658
ations 896385
in 894158
e 891381
ville 884666
ère 864564
ine 850934
is 849110
alors 846616
aussi 825662
autres 825118
P@@ 823680
el 820130
nom 816220
ainsi 815207
Saint 814934
s@@ 813875
par@@ 804462
C@@ 801888
L@@ 800612
partie 798433
an 787896
ons 787102
tes 786895
u 782660
né 780305
premier 779382
M@@ 779278
fut 777173
us 763287
n@@ 759483
première 755582
ou@@ 755184
ces 741413
r@@ 739564
aires 734091
ens 733702
D@@ 732996
T@@ 714079
lors 713716
À 712148
ar@@ 707139
G@@ 705611
puis 705535
en@@ 692734
at 688031
re 687719
i 686593
années 685538
contre 681121
t@@ 678822
peut 675986
it 671758
B@@ 671741
is@@ 669046
pré@@ 667455
con@@ 665972
ér@@ 660185
trois 654124
A@@ 647510
elles 645758
ils 643766
F@@ 638514
g@@ 637231
depuis 633818
al 629520
d@@ 629422
N@@ 623278
V@@ 622299
b@@ 618866
R@@ 617148
ants 613322
l@@ 611195
avant 607992
vers 604707
ag@@ 604086
po@@ 602526
groupe 600183
2 598045
plusieurs 596946
an@@ 596107
ite 594903
ers 589467
di@@ 584929
Cette 581977
t 579933
eur 579231
im@@ 577457
or@@ 577123
f@@ 576773
très 576505
qu@@ 575741
Dans 574055
enne 573420
fois 571713
ise 571143
É@@ 568075
on@@ 564314
ue 563964
ères 556498
tr@@ 551009
li@@ 547993
ante 544671
jusqu&apos; 543404
ac@@ 541611
iste 541066
1 539303
c 535856
ad@@ 535465
ts 534304
al@@ 531275
m@@ 528714
année 528156
/ 527765
fin 527278
o@@ 524250
ab@@ 523539
sans 523241
avoir 522278
O@@ 520321
eux 520005
eau 517207
Paris 516916
- 514468
ique 511484
pl@@ 510540
H@@ 508024
mort 507605
Jean 507359
avait 507285
tout 506878
ales 506472
j@@ 506144
place 505862
français 505844
o 504899
aient 504672
De 502060
ins 498912
co@@ 498492
ance 495713
temps 495030
notamment 490464
famille 487784
suite 484533
Ce 482687
ent@@ 478834
Au 474156
cours 472673
monde 472475
ul@@ 471906
it@@ 468659
y@@ 467064
a@@ 467031
saison 464467
sou@@ 463435
ur@@ 462363
Ch@@ 461582
équipe 460213
che 459135
ure 459053
Après 458199
i@@ 458195
ages 457588
at@@ 456632
am@@ 454249
3 454168
able 450504
sud 447747
leurs 446384
ence 446127
me 443375
inter@@ 440606
lieu 440421
tant 439549
us@@ 439208
pays 438814
nord 437231
ét@@ 435954
om@@ 434036
ap@@ 430740
pendant 428244
ex@@ 427990
E@@ 426873
forme 426643
ir 425470
per@@ 425191
br@@ 421774
ill@@ 420455
ti@@ 419213
Biographie 418485
autre 418251
mar@@ 417856
faire 416860
partir 416296
États 416250
grand 415851
Une 415691
région 415624
titre 414414
non 414403
isme 414278
déc@@ 413065
bien 412956
devient 412713
ci 411682
bi@@ 411142
peu 411023
mo@@ 408633
ette 407809
ateur 407655
K@@ 407228
pr@@ 406604
&amp; 405998
ter 404614
Un 404588
tion 403365
eurs 403033
film 402947
ég@@ 402555
ille 400894
els 398316
h@@ 397640
ph@@ 396962
n 396157
vie 396021
moins 395644
com@@ 392897
guerre 392839
quatre 392829
soit 392075
J@@ 391672
té 390611
ents 389330
si@@ 387577
C&apos; 387186
encore 386555
4 386325
av@@ 386300
e@@ 386276
ire 385819
el@@ 385799
ir@@ 385369
teur 384150
gr@@ 383914
nouveau 383676
ï@@ 382956
as@@ 380962
ro@@ 380670
Son 379001
én@@ 377497
général 373547
ligne 373260
tous 372633
I@@ 372244
éri@@ 372242
politique 370980
es@@ 370555
au@@ 368202
ais 367496
its 365601
série 365512
mé@@ 364552
Con@@ 364456
u@@ 364443
onn@@ 364361
L 363178
mon@@ 363127
or 361967
si 361590
men@@ 361015
ements 359579
dis@@ 357276
tions 353865
début 353685
z@@ 351715
Ar@@ 351572
è@@ 351251
située 351249
em@@ 350288
celle 349644
th@@ 349300
Unis 348641
ines 347956
ente 346926
vi@@ 344311
État 344067
lo@@ 342483
ot@@ 341700
nombre 341296
W@@ 340961
tard 336456
celui 336329
fils 336079
ass@@ 336058
Mar@@ 335960
française 335676
mes 335531
sur@@ 335446
grande 334497
er@@ 332598
ci@@ 331463
Z@@ 331439
qu 331301
ol@@ 331213
ach@@ 330766
club 329679
donc 327153
selon 327035
village 325407
ver@@ 325168
ités 324981
aine 324462
as 324154
Pour 323347
6 322660
ouest 322287
On 321855
album 320178
histoire 319105
ni@@ 315333
trouve 315041
nouvelle 314588
dit 314425
os 313775
ain 313316
ig@@ 312349
ic@@ 309701
Histoire 309578
ensuite 309511
quelques 309409
département 308069
centre 307605
il@@ 307307
f 306780
compte 305902
père 305731
and 305561
rem@@ 305428
tique 305093
ard 304920
car@@ 304884
c&apos; 303593
président 303580
ge 303535
époque 303305
ologie 303112
deuxième 301646
cu@@ 300541
étaient 300181
oc@@ 299488
part 299416
ren@@ 297883
ayant 296967
év@@ 296918
so@@ 296875
ateurs 296771
istes 296588
5 296466
porte 295937
dernier 295858
appar@@ 295701
population 295018
trans@@ 294603
situé 293887
Al@@ 292992
gu@@ 291705
Ré@@ 291688
min@@ 291621
étant 291554
période 291047
acc@@ 290820
2010 290762
ign@@ 287918
ile 287809
ème 287664
op@@ 287497
face 287315
cr@@ 286985
cour@@ 286417
èrent 286168
environ 286049
sion 285209
pi@@ 282291
sé@@ 281664
roi 281572
ès 280973
id@@ 280508
près 279744
église 279439
teurs 279000
nombreux 278894
ellement 278814
ains 278447
ve 277443
nommé 277256
col@@ 276784
mois 276144
tour 275524
ar 274328
origine 273891
esse 272072
Ils 271541
gouvernement 270606
Ces 270261
to@@ 270132
ues 269131
spéci@@ 268792
Europe 267751
jour 267347
ences 266750
Pierre 266681
ies 266540
chez 266238
él@@ 265339
of 265256
alité 265188
rel@@ 265102
nationale 264487
k@@ 264455
Y@@ 264230
espèce 264215
ats 263431
ables 262889
service 262623
ec@@ 262377
comp@@ 262131
prend 262123
ensemble 261961
car 261915
ouv@@ 261869
for@@ 260991
x 260902
ton 260686
cinq 260612
tre 260082
cl@@ 259486
homme 259269
fin@@ 256550
The 256071
chef 255745
se@@ 255183
permet 253895
communes 253763
ser@@ 253576
â@@ 253515
ailleurs 253406
afin 253077
ancien 251647
Louis 251408
2018 250262
site 250221
ances 249918
urs 249628
7 248968
onne 248514
mer 248161
hui 247242
souvent 246531
ites 246043
Dé@@ 245981
reste 245314
carrière 245100
ma@@ 244250
née 244171
durant 243879
cas 243846
mis 243712
contr@@ 243704
action 243157
os@@ 242879
jeu 242787
effet 242771
Car@@ 242202
armée 242167
res 241631
études 241282
sol@@ 240818
cor@@ 240726
Nord 240365
membre 240352
k 240214
Tr@@ 239800
niveau 239617
tres 239212
nes 238587
pour@@ 237218
doit 237205
société 237151
An@@ 237071
U@@ 236850
le@@ 236096
ém@@ 236056
rue 235692
et@@ 235607
ène 235006
no@@ 234806
fi@@ 234416
ches 234236
ob@@ 234149
ia 233884
rôle 233762
fer@@ 233738
8 233476
national 233264
membres 233080
ai 233063
gé@@ 232961
A 232711
ade 232408
ri@@ 232372
10 231877
tu@@ 231638
jours 231243
man@@ 230995
cou@@ 230766
ant@@ 230630
peuvent 230205
sera 230168
Qu@@ 229993
américain 229969
habitants 229815
m 229047
rap@@ 229023
projet 228620
mise 227603
chaque 227266
ennes 226264
der 225403
end@@ 225037
use 224495
um 224125
Cor@@ 224037
ur 223989
œuvre 223872
cré@@ 223823
Sa 223353
all@@ 222627
Selon 222262
mondiale 221963
point 221890
présente 221761
territoire 221386
ane 221023
ter@@ 220980
era 220007
troisième 219970
aines 219909
isation 219537
un@@ 219510
2011 219464
cher 219437
ore 219215
système 218901
ba@@ 218654
alement 218616
premiers 218452
the 217914
Par 217495
dès 217464
ets 217332
finale 217054
antes 216971
eu 216957
exemple 216765
sein 216702
toujours 216652
bo@@ 216346
travail 216306
Sud 216214
Mais 216126
base 215781
2000 215583
att@@ 215284
rec@@ 215260
ra 214947
r 214584
poste 213968
droit 213864
de@@ 213722
2014 213549
st@@ 213504
eaux 213438
_ 213266
match 213171
quement 212565
ess@@ 212519
toute 211785
pro@@ 210607
Charles 210579
ate 210408
personnes 210187
In@@ 209964
ê@@ 209628
pos@@ 209416
enfants 209163
Guerre 209028
production 208984
bat@@ 208624
C 208307
ve@@ 208134
ux 207640
connu 207419
but 206506
met 206401
cet 206378
atique 206314
thé@@ 206224
Mon@@ 206084
nombreuses 206014
vo@@ 205991
mor@@ 205967
x@@ 205864
gi@@ 205648
2015 205470
toutes 205434
2009 205389
enti@@ 205007
Lors 204886
élec@@ 204727
long 204347
raison 203392
certains 203306
Des 203197
cro@@ 203054
one 202941
entes 202735
gar@@ 202198
château 202128
ven@@ 201747
inc@@ 201316
│ 200991
z 200874
ordre 200566
six 200504
succès 200251
New 198906
prix 198732
ier 198730
Di@@ 198704
2008 198574
jou@@ 198420
ing 198173
tête 198160
art 198155
va 198000
enc@@ 197824
rapport 197810
ice 197511
université 197499
maison 197212
du@@ 197034
école 196924
ang@@ 196796
construction 196478
ov@@ 196283
représent@@ 196153
ures 196094
siège 195730
championnat 195550
por@@ 195426
aise 195109
ili@@ 195093
2012 195092
fille 194930
vol@@ 194553
musique 194043
type 193675
agit 193593
jeune 193329
ô@@ 193208
af@@ 193197
Grand 192910
h 192140
grâce 192023
province 191963
écrit 191421
points 191406
voir 191366
2013 191276
lu@@ 191222
île 190765
9 190715
bou@@ 190479
sa@@ 190352
na 190291
ner 190291
ment 189985
Par@@ 189719
mi@@ 189686
hommes 189300
laquelle 189010
développement 188469
loi 188279
remporte 188227
Marie 187953
su@@ 187724
II 187529
2020 187454
conserv@@ 187007
état 186970
ministre 186837
Gu@@ 186747
passe 186493
la@@ 186258
principale 186212
ép@@ 185986
Th@@ 185786
femme 185542
formation 185451
– 185417
présent@@ 185352
éc@@ 184800
bar@@ 184602
élections 184431
participe 184314
qué 184282
éch@@ 184198
Gr@@ 183878
pouvoir 183871
be 183774
âge 183082
isi@@ 182959
ète 182730
fr@@ 182691
joue 182428
compl@@ 182336
aujourd&apos; 182286
corps 181604
da 181421
entr@@ 180754
ges 180739
rencontre 180564
version 180564
public 180478
Depuis 180420
moyenne 180297
pe 179998
ta@@ 179715
ot 179670
création 179626
enn@@ 179541
tionn@@ 179505
position 179228
res@@ 179090
Paul 178715
tur@@ 178695
ises 178644
2016 178631
préc@@ 177758
Am@@ 177718
Br@@ 177690
2007 177400
Allemagne 177306
2017 177249
man 177091
ides 177044
route 176409
demi 175992
commence 175873
Bar@@ 175695
euse 175691
formula 175383
Col@@ 174927
joueur 174875
côté 174811
ten@@ 174562
2006 174453
Com@@ 174439
Coupe 174282
dernière 174129
mis@@ 174049
François 173879
20 173756
né@@ 173709
femmes 173478
suivante 173353
iques 173344
ais@@ 172751
football 172402
seul 171867
ancienne 171436
grands 170891
zone 170610
lé@@ 170605
ceux 170504
sor@@ 170460
plan 170378
furent 170268
1990 169852
devant 169710
En@@ 169439
form@@ 169096
erie 168828
lég@@ 168611
petit 168301
déjà 168000
15 167841
ori@@ 167566
endre 167530
produit 167350
ay 167108
ann@@ 167070
travaux 166974
retour 166555
bre 166261
ain@@ 165996
ati@@ 165738
oir 165722
til@@ 165337
obtient 165227
vient 165182
indi@@ 165048
son@@ 164985
ne@@ 164801
militaire 164707
prendre 164683
direction 164598
og@@ 163989
République 163800
différentes 163793
sub@@ 163748
éd@@ 163663
Italie 163630
hi@@ 163539
terme 163537
bl@@ 163379
fort 163357
I 163308
date 163230
di 163035
Ro@@ 162990
tor@@ 162990
John 162611
ture 162399
chanson 162358
ac 162270
anglais 162252
mère 161969
pass@@ 161930
um@@ 161898
can@@ 161022
parmi 160816
Avec 160792
vis@@ 160446
D&apos; 160322
rest@@ 160276
ologique 160066
édition 159625
genre 159309
ta 159296
réseau 159268
ni 159178
ru@@ 159021
sept 158883
milieu 158822
gt 158723
tandis 158681
cal@@ 158392
parti 158117
p 158100
abord 158041
espèces 157927
15@@ 157688
voie 157564
ole 157276
quant 157117
12 157082
dix 156686
division 156681
and@@ 156662
oire 156588
do@@ 156525
2005 156390
élu 156376
frère 156334
parfois 156240
Mor@@ 156094
5@@ 156088
seur 155970
ond@@ 155852
tri@@ 155775
2019 155706
communauté 155660
liste 155370
ge@@ 155357
Cependant 155307
sols 155029
ois 154987
donne 154704
atif 154689
B 154679
cer@@ 154642
seulement 154583
tourn@@ 154536
déf@@ 154467
utilisé 154345
Sur 154151
particulier 154032
ler 153999
eil 153970
mal@@ 153640
Po@@ 153462
ion 153341
Description 153224
rég@@ 153065
cadre 152906
ini 152821
atiques 152695
Ber@@ 152678
proche 152499
mag@@ 152492
are 152403
beaucoup 152215
sup@@ 152159
britannique 152120
Ma@@ 152088
Mo@@ 152016
am 151738
huit 151662
directeur 151546
ban@@ 151356
14@@ 151284
commun@@ 150993
iss@@ 150749
zones 150720
marque 150622
York 150480
Re@@ 150326
américaine 150113
tis@@ 150039
Pr@@ 149999
coll@@ 149947
aurait 149913
Ses 149812
différents 149654
ément 149551
Union 149468
Jacques 149441
Ver@@ 149366
rou@@ 149361
rée 149322
recherche 149251
Or@@ 149174
ête 149160
second 149129
créé 148819
international 148630
identi@@ 148622
Mont@@ 148532
scène 148483
réalisé 148404
font 148371
sorti 148324
livre 148266
ace 147947
aff@@ 147840
Per@@ 147739
Mal@@ 147456
bois 147137
Lo@@ 146790
bataille 146679
fonction 146673
épouse 146464
fa@@ 146432
bas@@ 146000
fon@@ 145873
gare 145733
anti@@ 145720
ves 145704
occupation 145495
conn@@ 145253
sens 145213
fac@@ 145210
ç@@ 145161
aide 145125
principalement 144932
auteur 144911
autour 144847
2004 144770
ires 144673
victoire 144573
ra@@ 144349
Bo@@ 144290
dép@@ 144282
existe 144267
... 143906
cependant 143846
objet 143751
end 143647
ina 143540
aur@@ 143343
xe 143310
surtout 143298
premières 142878
Mé@@ 142750
Canada 142533
rivière 142381
sions 142339
fréqu@@ 142169
petite 141921
équipes 141604
enregistr@@ 141476
publié 141420
tour@@ 141137
13@@ 141054
plupart 141018
pay@@ 141010
mouvement 140985
millions 140899
mission 140839
vue 140682
lt 140652
St@@ 140628
seconde 140541
Jeux 140497
œuvres 140481
est@@ 140293
Sh@@ 140224
1999 140177
ché 140161
Se@@ 139811
tels 139790
rejoint 139663
style 139611
administr@@ 139586
Le@@ 139551
ut 139251
Université 139223
Conseil 139147
allemand 138984
ran@@ 138891
ju@@ 138841
mé 138779
ules 138767
cause 138614
lig@@ 138475
fer 138463
tom@@ 138325
activité 138272
ient 138261
î@@ 137916
ma 137847
te@@ 137795
conf@@ 137790
Espagne 137735
mettre 137681
dr@@ 137533
quartier 137318
Co@@ 137245
30 137138
mesure 137132
rom@@ 137004
domaine 136890
entreprise 136836
langue 136699
comté 136611
4@@ 136564
Au@@ 136515
demande 136475
ch 136431
lequel 136426
termin@@ 136347
bourg 136302
là 136055
venir 136030
reçoit 136007
juin 135693
isé 135659
char@@ 135573
avaient 135443
haut 135410
intégr@@ 135059
suivant 134946
cur@@ 134919
Be@@ 134906
dou@@ 134826
hum@@ 134752
pression 134741
Afrique 134690
val@@ 134644
serv@@ 134553
od@@ 134481
Char@@ 134326
port 134080
som@@ 134046
16 133909
tive 133883
ades 133854
dire 133826
amp 133676
construit 133416
trouv@@ 133219
irs 133170
tient 133122
Ser@@ 133035
ême 133020
dispar@@ 133001
Val@@ 132933
occup@@ 132912
int@@ 132880
Parti 132838
Angleterre 132708
autor@@ 132551
emb@@ 132483
die 132443
11 132427
ana 132382
données 132357
appelé 132325
seule 132302
g 132157
classe 132106
gén@@ 131970
inst@@ 131931
roman 131814
manière 131687
14 131654
parti@@ 131652
istique 131575
aï@@ 131373
finalement 131317
réc@@ 131313
ano 130992
w@@ 130879
not@@ 130854
0 130848
our 130728
montr@@ 130724
S 130710
ev@@ 130683
issant 130667
pris 130608
ari@@ 130598
pu@@ 130584
ber@@ 130392
station 130350
aut 130313
réalis@@ 130274
dic@@ 130231
ay@@ 130189
18 130119
tures 130080
gauche 129918
jamais 129912
conseil 129880
R 129567
onyme 129497
pens@@ 129442
ti 129392
onné 129277
D 129242
propre 129171
2002 129152
mai 129050
inf@@ 129024
européenne 129013
historique 128983
étude 128883
lorsque 128814
6@@ 128728
important 128466
nouvelles 128380
mars 128233
possède 128133
tier 128109
vers@@ 128061
sépar@@ 127926
anc@@ 127843
1998 127821
septembre 127763
moment 127726
article 127670
ley 127602
Bel@@ 127491
organis@@ 127316
élev@@ 127201
ut@@ 127150
éli@@ 127148
ka 126948
donné 126920
mat@@ 126816
présence 126723
cul@@ 126696
génér@@ 126622
quer 126611
tir@@ 126490
For@@ 126299
terre 126216
certaines 126144
tin 126108
organisation 125833
uc@@ 125727
tel 125362
matchs 125287
porter 125260
2003 125204
éré 125175
Robert 125155
9@@ 125127
principal 125074
Ligue 124870
occasion 124775
1980 124737
lan@@ 124723
Tour 124645
ettes 124569
prim@@ 124564
cela 124537
groupes 124425
Henri 124371
13 124298
des@@ 124200
observ@@ 124083
parc 123981
référence 123981
E 123974
prom@@ 123846
quand 123806
ège 123806
2001 123783
&#91; 123773
entrée 123741
axe 123728
sal@@ 123688
constitu@@ 123619
8@@ 123585
œ@@ 123442
annonce 123430
rant 123428
voit 123274
&#93; 123062
jeunes 123006
juillet 122991
uses 122980
habit@@ 122926
Historique 122919
généralement 122892
part@@ 122883
! 122873
octobre 122856
termine 122802
° 122780
Ab@@ 122762
Sal@@ 122670
canton 122522
celles 122429
7@@ 122419
az@@ 122265
17 122244
fl@@ 122213
per 122197
19 122098
Carrière 122045
èse 121966
publique 121749
ing@@ 121718
travers 121690
théâtre 121646
off@@ 121506
permettant 121481
classement 121472
pas@@ 121418
Géographie 121417
défin@@ 121388
extr@@ 121342
atta@@ 121222
grandes 121017
eff@@ 120870
issent 120804
vari@@ 120713
= 120704
Joseph 120543
aband@@ 120518
ord@@ 120318
rép@@ 120150
court 120090
sort 119880
M 119644
professeur 119629
capitale 119626
course 119611
prés@@ 119455
Michel 119378
Ainsi 119256
lar@@ 119241
Londres 119008
taux 118917
25 118861
Est 118810
tenu 118678
ty@@ 118649
Québec 118473
plan@@ 118349
don@@ 118207
1970 118206
Japon 118140
arr@@ 118124
ève 118101
culture 117991
villes 117928
effectu@@ 117921
politiques 117877
Nouvelle 117647
compétition 117380
bâtiment 117042
ative 116951
ak@@ 116909
ol 116803
sc@@ 116763
cer 116294
compagnie 116147
administration 116117
rapidement 116035
hé@@ 115975
12@@ 115946
2021 115824
composé 115777
janvier 115491
meurt 115448
district 115446
tif 115369
résultats 115272
portant 115221
to 115206
F 115163
ame 115132
mètres 115016
décide 115014
rac@@ 114994
éro@@ 114876
internationale 114848
Bou@@ 114774
compos@@ 114773
b 114654
retrouve 114585
ell@@ 114517
musée 114514
meilleur 114504
formes 114412
importante 114384
étudi@@ 114302
Ex@@ 114279
semble 114248
propos@@ 114020
troupes 113897
fond@@ 113876
avril 113718
services 113637
uni@@ 113610
activités 113552
Me@@ 113455
esc@@ 113400
1950 113356
Liste 113341
lier 113309
acteur 113301
ins@@ 113288
adop@@ 113207
Ang@@ 113039
auprès 112922
serait 112687
San 112597
isant 112577
do 112572
ff@@ 112546
fier 112527
eng@@ 112479
sen@@ 112434
campagne 112422
Empire 112340
décembre 112218
tir 112193
films 112178
alli@@ 112146
climat 112123
Pays 112111
août 112071
dev@@ 112052
comprend 112042
édi@@ 111988
3@@ 111946
lande 111852
fs 111796
Grande 111656
ceinture 111612
lanc@@ 111485
sortie 111354
limit@@ 111312
équip@@ 111289
carte 111259
tre@@ 111224
remplac@@ 111195
iser 111189
rés 111072
Si 110957
Fin@@ 110881
créée 110835
marqu@@ 110779
dem@@ 110726
tés 110626
sec@@ 110436
programme 110402
èmes 110389
X@@ 110267
nom@@ 110220
ino 110138
app@@ 110135
ler@@ 110125
sh@@ 109951
prépar@@ 109870
Pendant 109860
alisation 109846
Église 109677
novembre 109610
comte 109590
tra@@ 109517
abilité 109497
actuelle 109486
24 109441
viol@@ 109402
unique 109151
cap@@ 109111
oug@@ 108993
aud 108924
droite 108892
bres 108798
Li@@ 108426
viennent 108402
populaire 108396
V 108351
be@@ 108330
ouvre 108220
onc@@ 108205
supérieur 108196
télé@@ 108193
lie 108169
bal@@ 108165
imp@@ 108044
Rome 107899
situ@@ 107758
atteint 107637
Man@@ 107633
isse 107554
connue 107551
générale 107432
T 107345
ographie 107263
faisant 107111
argent 106970
texte 106962
Cr@@ 106945
droits 106940
lac 106929
install@@ 106888
ad 106825
économique 106772
terrain 106586
voy@@ 106584
voix 106484
direc@@ 106456
forces 106453
dur@@ 106302
Pologne 106084
Seconde 106046
total 106040
départ 106005
ah@@ 106000
équ@@ 105978
Comme 105869
gen@@ 105748
El@@ 105737
conten@@ 105700
Chine 105687
class@@ 105623
G 105619
terres 105604
possible 105524
Sainte 105384
bes 105370
he 105340
destin@@ 105283
cinéma 105206
nor@@ 105184
particulièrement 105180
association 105115
amp@@ 105025
rédu@@ 104995
signe 104974
Sch@@ 104904
ition 104834
contrôle 104831
modèle 104727
page 104695
découvert 104676
cle 104671
russe 104652
iles 104623
1960 104608
honneur 104594
mont 104448
mer@@ 104444
donn@@ 104438
prise 104396
élection 104367
bless@@ 104316
inv@@ 104205
atoire 104190
reven@@ 104091
nous 103951
parties 103930
aus@@ 103885
ôt 103833
produits 103787
aqu@@ 103765
compr@@ 103693
eb@@ 103533
intérieur 103470
ov 103448
Ac@@ 103293
hér@@ 103238
cas@@ 103234
èle 103229
espace 103215
Gal@@ 103208
bonne 103186
amb@@ 103114
différ@@ 103067
mari@@ 103062
P 103047
Q@@ 103026
champion 102980
ien 102976
Ouest 102959
nouveaux 102689
Belgique 102636
vé@@ 102564
ed@@ 102503
bre@@ 102482
traditionn@@ 102476
désormais 102364
eté 102339
façon 102315
10@@ 102301
chang@@ 102299
large 102274
our@@ 102262
uel 102170
eg@@ 102021
pén@@ 102009
caractér@@ 101953
positions 101782
? 101652
lat@@ 101607
opération 101486
etc. 101483
tiques 101464
maire 101460
municipalité 101440
pan@@ 101426
Prix 101414
iter 101380
isée 101344
technique 101242
jug@@ 101179
… 101166
idée 101123
pose 101113
territoires 101101
reconn@@ 101099
critique 101067
oppos@@ 101065
Cet 100979
Russie 100971
— 100971
arrivée 100970
v 100915
Ne@@ 100885
loc@@ 100844
mét@@ 100823
sionn@@ 100784
1991 100755
Philippe 100728
Deux 100558
Cal@@ 100553
ident 100521
domin@@ 100436
éléments 100346
yr@@ 100307
sign@@ 100298
personnage 100283
Royaume 100246
cher@@ 99964
pe@@ 99949
Plusieurs 99947
ager 99939
ail@@ 99856
utilis@@ 99789
aller 99743
combat 99680
Pi@@ 99581
N 99580
iv@@ 99506
joueurs 99337
sert 99318
Ri@@ 99314
cat@@ 99265
aucun 99220
sol 99177
Cl@@ 99095
main@@ 98994
ez 98975
Sé@@ 98941
ates 98908
titres 98901
ange 98900
attribu@@ 98761
exist@@ 98754
alités 98742
centrale 98733
prof@@ 98624
février 98574
Lé@@ 98436
û@@ 98393
fié 98354
acqu@@ 98332
Cas@@ 98272
Amérique 98247
contrat 98147
altitude 98069
out 98069
David 98049
ect@@ 98046
importance 98034
Fl@@ 98004
personn@@ 97991
cs 97942
consac@@ 97858
vingt 97763
bon 97749
accès 97737
fication 97635
rit@@ 97634
dessus 97625
olympiques 97571
montre 97554
assez 97547
Centre 97475
décor@@ 97409
chemin 97406
source 97398
met@@ 97360
pal@@ 97320
Min@@ 97282
As@@ 97150
gues 97122
airement 97093
actions 96897
ath@@ 96794
1997 96655
march@@ 96621
U 96483
buts 96440
allemande 96417
devenu 96297
publie 96291
ey 96093
100 96038
21 96004
double 95988
FC 95976
force 95961
historiques 95866
III 95859
duc 95732
illes 95726
attaque 95720
tiers 95712
continu@@ 95662
température 95624
astéroïdes 95567
1995 95533
tien 95487
Pl@@ 95470
Bi@@ 95452
outre 95425
Durant 95377
Her@@ 95364
ède 95337
ï 95331
évolution 95312
nommée 95284
École 95210
émission 95183
1996 95171
travaille 95152
liv@@ 95124
évêque 95098
trop 95074
surface 95026
pon@@ 94981
tot@@ 94956
issement 94917
quitte 94884
jeux 94877
organ@@ 94861
situation 94759
if@@ 94750
trou@@ 94730
charge 94673
quatrième 94582
vic@@ 94577
taille 94527
bas 94505
aci@@ 94481
devenir 94452
ami 94438
associ@@ 94391
interpr@@ 94391
So@@ 94358
érieure 94354
journal 94174
libre 94118
tim@@ 94081
ah 94031
50 94022
X 93972
marché 93961
Pro@@ 93823
passage 93807
ps 93771
situe 93719
artistes 93618
hom@@ 93585
rouge 93575
missions 93570
seurs 93559
aliste 93557
nier 93540
dre 93448
kilomètres 93356
emment 93346
améli@@ 93325
ènes 93279
cad@@ 93248
pont 93149
affaires 93098
Martin 93048
passé 93036
22 92957
tic@@ 92930
impos@@ 92921
me@@ 92804
tent 92800
chap@@ 92790
tenir 92784
bord 92740
main 92732
anciens 92479
engag@@ 92447
O 92418
ard@@ 92379
atives 92354
personne 92328
produ@@ 92321
apparaît 92296
ble 92253
ang 92223
command@@ 92207
Es@@ 92199
ide 92185
inscrit 92166
uv@@ 92155
Bien 92131
ger 92123
majorité 92117
Vi@@ 92089
air 92033
aj@@ 92006
financi@@ 91947
assur@@ 91933
ples 91876
oph@@ 91854
bles 91835
0,@@ 91813
italien 91801
ports 91763
salle 91740
lignes 91688
ajou@@ 91599
principaux 91566
ologiques 91520
porté 91483
rend 91400
sau@@ 91303
santé 91273
pu 91181
.@@ 91013
journ@@ 90993
ection 90966
agn@@ 90961
chaîne 90940
1992 90911
semb@@ 90883
ist@@ 90578
ices 90559
rés@@ 90547
compris 90472
rent 90426
fo@@ 90419
pièces 90329
ong@@ 90302
représente 90229
De@@ 90219
intérêt 90164
évolu@@ 90158
ous 90116
éti@@ 90112
He@@ 90016
astéroïde 89958
utilisation 89947
aiss@@ 89940
plutôt 89906
ouvrage 89865
+ 89852
fit 89806
Nor@@ 89795
arts 89784
1994 89759
viv@@ 89752
entraî@@ 89717
ens@@ 89701
ich@@ 89666
lin@@ 89654
rier 89609
Georges 89576
heures 89511
modi@@ 89431
co 89427
saint 89410
Première 89387
ski 89312
étique 89205
ik@@ 89192
Société 89116
lois 89107
grav@@ 89070
suit 88985
divers 88956
alis@@ 88948
toutefois 88905
23 88738
berg 88708
élimin@@ 88644
derniers 88643
condu@@ 88626
vidéo 88579
recensement 88570
atrice 88560
succes@@ 88556
fu@@ 88456
dom@@ 88413
êtes 88406
faible 88324
agricoles 88279
oles 88275
ali@@ 88257
arrière 88234
agne 88144
télévision 88101
unité 88094
ai@@ 88080
reçu 88077
valeur 88074
vallée 88065
orient@@ 88024
Mc@@ 88016
Du@@ 87955
tar@@ 87889
Du 87878
bil@@ 87862
simple 87852
ond 87803
coup 87784
ome 87784
entaire 87776
sécurité 87671
Is@@ 87613
telle 87575
précéd@@ 87550
oise 87493
multi@@ 87335
nu@@ 87296
chant 87286
puiss@@ 87271
cité 87201
Beau@@ 87111
ment@@ 87111
côtés 87090
malgré 87086
go@@ 86973
cour 86970
H 86947
Bas@@ 86933
gl@@ 86885
1981 86873
Go@@ 86856
Str@@ 86851
plac@@ 86820
km 86685
Bretagne 86659
appr@@ 86616
sciences 86608
chré@@ 86575
Parmi 86500
pein@@ 86492
pres@@ 86381
ly@@ 86360
ulaire 86301
és@@ 86296
suff@@ 86160
Thomas 86136
chapelle 86130
illon 86118
peintre 85966
travers@@ 85963
aucune 85931
fique 85856
longueur 85790
dée 85683
considéré 85658
ret@@ 85638
Sp@@ 85627
armes 85590
alisme 85545
étr@@ 85505
André 85455
forte 85438
idae 85431
pratique 85425
oy@@ 85381
fé@@ 85374
tournoi 85328
mariage 85322
issue 85297
clubs 85198
secteur 85194
péri@@ 85181
1993 85168
savoir 85167
saire 85076
alistes 84989
vice 84959
quit@@ 84897
condam@@ 84869
Vo@@ 84762
Suisse 84744
moitié 84711
érique 84681
chan@@ 84623
Bal@@ 84605
pel@@ 84553
-@@ 84527
conditions 84465
bande 84291
livres 84255
rich@@ 84250
William 84223
conse@@ 84184
Av@@ 84171
ètes 84125
petits 84122
opér@@ 84091
bri@@ 84080
provo@@ 84047
Rou@@ 84045
Lu@@ 84024
ération 84013
40 84010
sac@@ 83985
16@@ 83884
Club 83873
propose 83798
ya 83744
Elles 83728
dessin@@ 83665
reprises 83658
fonctionn@@ 83657
utilisée 83623
section 83602
endant 83569
1@@ 83537
milli@@ 83418
remarqu@@ 83395
Plus 83358
explo@@ 83326
tra 83307
ici@@ 83290
ys@@ 83220
anim@@ 83217
yl@@ 83204
onnement 83203
épo@@ 83192
presse 83098
maître 83033
abbaye 83005
pron@@ 82891
ré 82890
célèbre 82817
police 82656
Ros@@ 82652
mot@@ 82603
influence 82580
ici 82572
défense 82553
témo@@ 82546
représentant 82519
batt@@ 82516
gestion 82499
Cer@@ 82470
régions 82456
ande 82432
comm@@ 82424
fonctions 82420
proximité 82380
Su@@ 82376
time 82342
1975 82339
lorsqu&apos; 82299
longue 82275
gique 82200
catholique 82191
ki 82177
libér@@ 82161
1988 82140
hauteur 82120
no 82106
nuit 82105
Fr@@ 82103
ailles 82053
comptait 82029
Sol@@ 82020
deur 81982
presque 81960
faut 81911
neuf 81883
natur@@ 81875
qualité 81873
empereur 81746
patr@@ 81728
tent@@ 81720
secrétaire 81715
moteur 81714
passer 81683
recu@@ 81669
sujet 81656
1971 81624
port@@ 81584
mus@@ 81581
pierre 81565
député 81461
médaille 81459
commerce 81410
rencontr@@ 81403
Institut 81371
Dès 81308
sélection 81111
évolue 81087
correspond@@ 81062
ût 81054
accord 81017
jus@@ 80980
soci@@ 80938
four@@ 80872
union 80857
enseignement 80793
vitesse 80746
tableau 80736
entreprises 80724
personnages 80711
types 80698
jusqu 80688
Claude 80591
appelle 80514
protection 80446
réalise 80407
Har@@ 80396
tran@@ 80395
Bas 80364
mot 80360
écr@@ 80343
soutien 80339
io 80313
alisé 80267
employ@@ 80227
Rom@@ 80216
appel 80130
royaume 80115
isent 80109
certain 80051
trav@@ 80040
lance 79980
profon@@ 79948
lieux 79923
doivent 79866
Tro@@ 79849
bor@@ 79815
détermin@@ 79781
favor@@ 79733
arrondissement 79707
construite 79706
Académie 79678
Ou@@ 79659
relations 79560
vit 79515
ablement 79505
artiste 79490
Del@@ 79483
prince 79479
mêmes 79429
siècle 79407
bert 79380
land 79275
hiver 79212
prati@@ 79205
fondé 79157
ak 79127
aliment@@ 79111
tait 79107
sig@@ 79094
major 79093
médic@@ 79059
ards 79042
actuel 79040
James 78958
enfant 78892
nature 78859
26 78810
déclar@@ 78794
Tou@@ 78774
hor@@ 78774
von 78759
uti@@ 78695
permis 78670
sélec@@ 78654
hu@@ 78639
iti@@ 78614
Entre 78552
log@@ 78548
principales 78529
em 78520
chev@@ 78506
voïvodie 78457
George 78410
Uni 78405
Mer@@ 78362
suivi 78354
appelée 78334
Des@@ 78296
orbite 78289
ira 78238
épisode 78233
hors 78232
adi@@ 78222
bat 78150
publi@@ 78109
phot@@ 78060
probablement 78045
her@@ 78030
cultur@@ 77972
ache 77941
moyen 77877
Ad@@ 77808
Championnat 77795
directement 77787
ographique 77780
quée 77765
continue 77752
structure 77741
vu 77740
débuts 77726
mécan@@ 77688
pap@@ 77663
via 77617
fen@@ 77605
commerci@@ 77582
ume 77539
terr@@ 77529
militaires 77430
tron@@ 77371
1989 77336
monuments 77220
bur@@ 77134
Vil@@ 77125
Loire 77114
zi@@ 77080
28 77029
oni@@ 77005
ica 76997
tou@@ 76989
fondée 76957
professionnel 76931
27 76905
contempor@@ 76864
appu@@ 76862
mode 76841
oth@@ 76738
rend@@ 76732
Australie 76705
Nicolas 76702
cla@@ 76695
igu@@ 76694
oblig@@ 76536
çon 76527
éra 76418
parents 76397
vend@@ 76377
localité 76359
composée 76267
arrive 76259
ball 76089
industri@@ 76087
ani 76086
pol@@ 76043
joué 76037
eur@@ 75918
décrit 75916
naissance 75906
offre 75894
2@@ 75854
suiv@@ 75764
haute 75749
ouver@@ 75742
pièce 75730
sociale 75709
Lyon 75702
Sar@@ 75690
blanc 75638
arrê@@ 75592
sin@@ 75583
bâtiments 75497
Can@@ 75495
rendre 75463
str@@ 75439
arm@@ 75432
matéri@@ 75399
éta@@ 75371
ed 75354
régime 75325
Premier 75295
lam@@ 75256
circonscription 75251
acte 75229
sch@@ 75222
ôme 75215
pied 75182
ouverture 75165
amment 75117
pil@@ 75079
Ag@@ 75056
former 75049
patrimoine 75022
dispose 74999
présent 74971
traité 74957
ata 74947
étés 74936
gé 74933
navire 74926
ara 74923
Prés@@ 74890
laiss@@ 74890
jouer 74873
énergie 74869
noms 74832
ote 74802
Bor@@ 74735
obtenir 74732
ule 74731
dite 74701
enfin 74681
souha@@ 74614
minutes 74607
chansons 74565
développ@@ 74528
bul@@ 74506
aître 74429
gence 74411
éducation 74379
phase 74228
Pal@@ 74224
diverses 74177
chargé 74169
mi 74163
initi@@ 74160
disput@@ 74151
tournée 74148
concernant 74146
derrière 74138
ie@@ 74111
question 74109
del 74105
figure 74089
locale 74008
moderne 73995
000 73975
forêts 73963
îles 73959
portent 73941
catégorie 73929
Mat@@ 73776
ésie 73755
collec@@ 73728
Mag@@ 73705
solution 73659
compar@@ 73650
q 73623
syn@@ 73602
élève 73569
classique 73532
augment@@ 73468
id 73455
usse 73430
couver@@ 73403
feu 73345
garde 73338
exécu@@ 73331
transport 73271
travaill@@ 73239
découverte 73220
classé 73199
considér@@ 73184
chois@@ 73099
êtres 73083
lettres 73079
rien 73041
techniques 73016
cartes 73001
der@@ 72987
arriv@@ 72919
cent@@ 72906
Er@@ 72896
ani@@ 72856
Berlin 72831
cont@@ 72820
indépend@@ 72779
capitaine 72751
bâ@@ 72702
ministère 72670
écrivain 72665
individ@@ 72630
Pol@@ 72620
ho@@ 72617
déroul@@ 72594
ex 72574
pat@@ 72538
Cour@@ 72501
rive 72491
fir@@ 72470
choix 72398
belge 72302
Por@@ 72295
lis 72293
camp 72291
mée 72249
ser 72242
fourn@@ 72208
créer 72192
courant 72175
cel@@ 72131
autant 72125
je 72123
cant@@ 72098
bel@@ 72091
yn@@ 72044
kh@@ 72028
dure 72016
eut 72003
Richard 71959
caractéristiques 71939
aque 71924
lée 71921
usage 71875
iment 71850
sculp@@ 71811
constitue 71801
spor@@ 71793
pourrait 71789
couleur 71784
ep@@ 71762
sy@@ 71759
aî@@ 71689
cô@@ 71623
taine 71619
statut 71605
noir 71578
cycl@@ 71573
ouvert 71546
ones 71544
éditions 71530
donner 71495
ographi@@ 71430
spect@@ 71317
reprend 71311
1986 71134
reg@@ 71133
vin@@ 71104
lot 70966
évo@@ 70948
esti@@ 70935
itaire 70834
Mus@@ 70829
mal 70822
manifest@@ 70813
particip@@ 70797
este 70787
élo@@ 70770
Terre 70763
appel@@ 70732
utilise 70695
cit@@ 70694
ud@@ 70656
bassin 70622
bour@@ 70604
économie 70575
regroup@@ 70561
vol 70508
lo 70489
euses 70461
érieures 70456
Association 70434
ong 70405
coul@@ 70355
divis@@ 70337
strat@@ 70323
Alors 70315
á@@ 70232
revient 70224
navires 70059
crée 70056
désigner 70053
puissance 70041
ly 70030
portée 70024
techn@@ 70022
pri@@ 70020
dispos@@ 69994
tro@@ 69993
endra 69971
actuellement 69946
Bour@@ 69935
Mari@@ 69925
frères 69890
tours 69890
obten@@ 69772
ea 69769
conseiller 69762
inform@@ 69759
fil@@ 69748
pé@@ 69737
hy@@ 69734
Sou@@ 69711
dernières 69711
Révolution 69710
occupe 69699
social 69662
aissent 69647
commenc@@ 69644
hôtel 69644
théorie 69619
clo@@ 69602
Caractéristiques 69601
égi@@ 69539
entation 69538
lique 69517
fou@@ 69507
exploitation 69491
voyage 69468
quent 69361
Synopsis 69358
fér@@ 69337
collection 69286
stade 69253
vert 69253
suivantes 69246
gion 69210
peuple 69184
constru@@ 68949
problèmes 68939
dirige@@ 68933
accus@@ 68927
emploi 68876
prot@@ 68876
industrie 68862
architecte 68860
latin 68803
Né@@ 68758
ature 68750
Gar@@ 68747
ple@@ 68733
scientifique 68717
participation 68712
Kar@@ 68708
numéro 68707
essentiellement 68705
afric@@ 68683
enseign@@ 68658
introdu@@ 68656
seront 68629
ze 68627
rie 68609
sœur 68581
aît 68562
reli@@ 68561
cœur 68558
soldats 68514
einte 68506
vois@@ 68503
Dan@@ 68501
lev@@ 68497
1984 68426
frontière 68341
mondial 68307
ords 68300
lent 68278
détru@@ 68258
fiée 68242
consid@@ 68222
dot@@ 68212
entraîneur 68137
objectif 68128
za 68101
alisée 68047
exposition 68023
mont@@ 68023
image 68010
anie 68009
atifs 67942
record 67941
défaite 67919
ib@@ 67902
auteurs 67897
Guillaume 67886
assemb@@ 67872
Tar@@ 67829
décision 67763
sources 67762
ars 67749
K 67742
ours 67739
resp@@ 67734
ense 67718
officiellement 67709
Sa@@ 67684
coupe 67683
ver 67654
figur@@ 67614
estim@@ 67612
br 67596
quar@@ 67595
lir 67527
Mac@@ 67450
1987 67436
sage 67430
supérieure 67392
saisons 67354
devait 67337
langues 67322
équi@@ 67279
aye 67272
palais 67195
tionné 67181
ulté 67122
empê@@ 67040
gouverneur 66988
act@@ 66904
landais 66888
1985 66881
central 66874
arrêté 66863
Malgré 66860
Ger@@ 66852
commencé 66843
auto@@ 66763
conduit 66693
sites 66654
illustr@@ 66640
obtenu 66633
soviétique 66603
auté 66599
29 66587
littérature 66535
1930 66523
mâ@@ 66465
tend@@ 66406
actrice 66405
1968 66383
déclare 66370
fond 66349
chi@@ 66221
arché@@ 66218
naturel 66201
remporté 66201
existence 66157
revue 66154
vel@@ 66152
Antoine 66080
ça 66078
formé 66054
Haute 66014
ym@@ 65991
Seine 65973
60 65947
gag@@ 65927
dig@@ 65887
ida 65880
Bat@@ 65829
Montréal 65806
médi@@ 65782
80 65774
ca 65764
loin 65759
tenue 65746
ison 65668
van 65642
réd@@ 65615
retraite 65590
Pe@@ 65587
èn@@ 65582
concours 65556
single 65542
graphique 65525
importants 65525
aises 65480
fix@@ 65475
boul@@ 65464
dét@@ 65417
1945 65393
propriété 65355
Alexandre 65340
oue 65330
pape 65328
épreuve 65327
igne 65321
cre@@ 65308
physique 65275
opposition 65267
européen 65263
étape 65256
construire 65255
Hol@@ 65193
environnement 65193
Dr@@ 65189
mieux 65132
taire 65116
quanti@@ 65108
changement 65066
Moyen 65061
neurs 65009
telles 65007
partis 64967
asse 64953
indépendance 64943
bie 64937
entaires 64922
otte 64900
ell 64894
gal@@ 64894
largement 64888
Ni@@ 64882
1940 64854
ger@@ 64841
expos@@ 64822
ray@@ 64819
densité 64811
disposition 64776
1982 64726
critiques 64711
om 64702
meilleure 64622
alg@@ 64601
objets 64584
indé@@ 64551
Dame 64548
établissement 64541
graphie 64527
Inter@@ 64501
No@@ 64416
ots 64392
cherch@@ 64370
ke 64349
studio 64305
Lib@@ 64279
ors 64254
National 64242
semaine 64236
françaises 64231
phon@@ 64189
Cela 64182
remplacé 64180
Ph@@ 64170
ologue 64165
architecture 64133
ces@@ 64127
quotidi@@ 64118
conqu@@ 64021
béné@@ 63962
proven@@ 63962
rep@@ 63943
illé 63939
êt 63866
Assemblée 63834
lib@@ 63821
côte 63796
recherches 63782
famili@@ 63753
ko 63698
arc@@ 63640
semaines 63615
Californie 63614
permettent 63593
ug@@ 63582
dimin@@ 63580
pou@@ 63577
magazine 63576
suivants 63502
Ren@@ 63495
iller 63491
passant 63454
flu@@ 63422
ha@@ 63422
contrô@@ 63398
ime 63392
tab@@ 63365
ouvent 63357
Royal 63356
inté@@ 63324
ix 63322
sus 63287
relation 63265
dés@@ 63262
Autriche 63257
familles 63227
montagne 63213
particu@@ 63174
commandant 63163
inaugur@@ 63162
Gi@@ 63141
hau@@ 63137
entour@@ 63060
gouvern@@ 63039
lutte 63016
Français 62994
Anne 62993
rejoindre 62988
regroupe 62975
départem@@ 62959
textes 62954
préf@@ 62945
capacité 62936
olog@@ 62934
religieux 62910
japonais 62909
suivre 62899
mau@@ 62881
1983 62865
peinture 62860
hydro@@ 62851
communication 62831
─ 62831
bus 62830
référ@@ 62813
personnel 62794
maisons 62791
rois 62778
processus 62753
saires 62747
matière 62738
championnats 62678
anci@@ 62658
mol@@ 62656
forêt 62649
vie@@ 62632
ō 62629
anti 62615
inscr@@ 62605
den 62578
document@@ 62484
desc@@ 62475
extérieur 62462
limite 62455
prison 62384
isés 62378
ize 62359
Mas@@ 62339
iz@@ 62334
journaliste 62327
rement 62321
arg@@ 62298
superficie 62269
1972 62242
pér@@ 62238
dat@@ 62235
onde 62197
ama 62188
commun 62154
ouvrages 62150
ala 62142
longtemps 62138
couleurs 62120
distance 62087
régulièrement 62080
org@@ 62078
utiliser 62076
projets 62069
atures 62057
Mexique 62014
constitué 62009
Notre 62001
Ap@@ 61974
accep@@ 61955
utilisés 61911
vid@@ 61911
Dieu 61907
gmina 61867
na@@ 61845
décl@@ 61843
liers 61840
Cro@@ 61836
tradition 61819
voul@@ 61799
aw@@ 61739
mobil@@ 61705
retrouv@@ 61691
fus@@ 61673
Cré@@ 61669
eint 61654
El 61653
animaux 61628
ref@@ 61627
onnes 61625
scol@@ 61614
royale 61604
règne 61582
écar@@ 61558
marquée 61550
dirig@@ 61538
ae 61524
Bernard 61514
rev@@ 61493
radio 61490
parten@@ 61477
Maurice 61472
arch@@ 61427
Bl@@ 61422
forc@@ 61392
ett@@ 61384
diamètre 61345
M. 61344
durée 61339
Albert 61281
lem@@ 61263
ton@@ 61221
sommet 61217
locaux 61216
fabri@@ 61211
1973 61078
ł@@ 61078
label 61067
out@@ 61058
devint 61054
Bre@@ 61024
agent 61022
cinquième 61014
Toutefois 60984
intitulé 60977
éo 60919
Op@@ 60914
négoci@@ 60884
quelque 60831
Tour@@ 60809
IV 60776
espagnol 60767
sp@@ 60763
esp@@ 60737
antage 60723
ami@@ 60719
ari 60706
by 60701
construc@@ 60700
Si@@ 60692
atteindre 60690
aéri@@ 60683
odi@@ 60663
dollars 60659
signifie 60641
veut 60629
couple 60625
quali@@ 60625
faveur 60619
cop@@ 60612
information 60605
aison 60590
marine 60585
sait 60529
seau 60516
autorités 60512
bu@@ 60480
vot@@ 60480
souff@@ 60478
régiment 60438
écoles 60434
1976 60429
concer@@ 60416
fondateur 60399
seigneur 60391
désign@@ 60388
31 60375
ro 60356
Sous 60341
mas@@ 60336
chiff@@ 60322
cam@@ 60302
crise 60300
réalisée 60286
bronze 60274
lettre 60250
musici@@ 60246
réserve 60240
perd 60222
prit 60218
1979 60211
urban@@ 60205
édifice 60179
lour@@ 60171
comporte 60136
caractère 60087
1920 60081
paroisse 60079
1977 60065
ois@@ 60064
har@@ 60060
fic@@ 60039
ault 60035
écriv@@ 60035
Enfin 60021
1974 59987
ita 59978
importantes 59967
trouver 59962
originaire 59951
séries 59939
plantes 59930
isées 59929
tement 59894
Thi@@ 59889
deven@@ 59887
éni@@ 59833
Certains 59824
Vienne 59811
enter 59806
sexu@@ 59774
Hom@@ 59755
Sén@@ 59739
américains 59716
ordin@@ 59701
pen@@ 59699
lit 59687
paix 59672
sén@@ 59642
cell@@ 59641
fau@@ 59640
inclu@@ 59622
contient 59614
expérience 59598
Tur@@ 59592
débute 59591
dor@@ 59572
chr@@ 59511
Gé@@ 59488
don 59467
sav@@ 59454
su 59444
connaît 59435
étation 59423
responsable 59403
side 59401
chacun 59384
comité 59374
méd@@ 59335
rati@@ 59329
fédér@@ 59321
néces@@ 59291
entièrement 59286
trouvent 59274
répartition 59259
train 59239
monte 59214
chambre 59186
catég@@ 59156
oux 59156
affaire 59154
cimetière 59153
mann 59153
Cam@@ 59112
événements 59098
décr@@ 59097
rattach@@ 59097
up@@ 59077
1978 59061
vent 59050
agé 59042
mascul@@ 59029
Inde 59002
faisait 58981
conflit 58967
Pé@@ 58965
hab@@ 58952
nouvel 58952
effic@@ 58950
ic 58934
rurale 58924
protest@@ 58893
onnée 58881
ètre 58808
mil@@ 58788
participé 58776
Jo@@ 58764
ectifs 58749
ther@@ 58736
dan@@ 58735
retr@@ 58734
diocèse 58717
Michael 58700
étudiants 58684
charg@@ 58667
articles 58644
Festival 58631
front@@ 58620
yp@@ 58619
Vol@@ 58587
vég@@ 58570
trice 58567
tements 58533
Los 58464
ds 58462
Avant 58415
civile 58406
Bos@@ 58367
ouvrir 58353
To@@ 58345
Parlement 58341
im 58318
nour@@ 58318
Bruxelles 58316
Tri@@ 58282
communale 58273
ast@@ 58250
appartient 58246
étend@@ 58215
Cat@@ 58208
irement 58186
jo@@ 58141
champ 58136
Trois 58076
déroule 58068
privée 58063
contin@@ 58062
desserv@@ 58057
apparition 58051
juste 58027
Henry 57977
Leur 57958
néanmoins 57946
Fédération 57868
attraction 57866
demand@@ 57862
ind@@ 57852
Asie 57846
filles 57799
dessous 57768
powiat 57755
Ko@@ 57695
réus@@ 57683
adap@@ 57682
ressort 57681
colon@@ 57676
Fon@@ 57668
Ban@@ 57647
ks 57635
Kr@@ 57629
esses 57629
C. 57608
éran@@ 57602
uss@@ 57593
traitement 57557
commandement 57554
hô@@ 57551
Trans@@ 57546
parvient 57488
lycée 57483
pê@@ 57454
simil@@ 57441
poly@@ 57418
ber 57408
nav@@ 57371
Brésil 57282
dédi@@ 57266
petites 57240
justice 57230
installe 57219
Bé@@ 57215
urbaine 57178
usine 57175
romaine 57169
200 57166
Ann@@ 57146
Lorsque 57120
maladie 57119
tifs 57118
transform@@ 57114
épisodes 57112
hockey 57111
réalité 57089
syndic@@ 57082
actu@@ 57077
lumière 57043
blan@@ 57039
ativement 57035
ick 57013
vin 57005
isti@@ 56992
atr@@ 56987
composition 56946
artistique 56888
difficile 56855
lement 56844
mains 56787
renom@@ 56786
Chambre 56727
ître 56695
vision 56624
ja 56602
tel@@ 56590
lieutenant 56566
variables 56556
informations 56552
clim@@ 56457
beau 56455
hôpital 56441
unités 56437
Hu@@ 56425
ax@@ 56421
cin@@ 56420
totale 56402
1967 56376
heur@@ 56324
élevé 56280
principe 56257
féminin 56244
faits 56216
Dou@@ 56205
explique 56137
Aff@@ 56127
apo@@ 56093
érie 56081
duc@@ 56072
amis 56061
Ven@@ 56057
itali@@ 56048
appell@@ 56023
mule 56019
trac@@ 56012
contribu@@ 55967
Je@@ 55940
alier 55910
analyse 55897
maintenant 55893
étudie 55887
ste 55856
ands 55842
italienne 55835
pot@@ 55825
çant 55808
indique 55805
nég@@ 55765
ura 55759
autom@@ 55742
oires 55735
origin@@ 55723
w 55698
prennent 55696
ek 55667
anciennes 55630
commission 55616
ési@@ 55599
sement 55587
diffusée 55558
jeunesse 55551
positi@@ 55545
comport@@ 55524
local 55524
organisé 55522
diffusion 55513
érés 55490
nuclé@@ 55481
lit@@ 55460
professionnelle 55450
problème 55422
infanterie 55389
ros@@ 55382
baptis@@ 55381
Âge 55377
vis 55363
70 55343
tan@@ 55340
mandat 55332
approche 55268
Cour 55265
vous 55249
vont 55234
gré 55228
couronne 55226
mu@@ 55174
itement 55150
poids 55150
fonds 55122
ret 55096
armées 55033
doute 55008
mun@@ 54989
45 54973
marche 54965
amour 54936
compositeur 54920
vente 54918
ram@@ 54916
décret 54914
art@@ 54908
tisme 54903
cathédrale 54901
opérations 54884
publiée 54874
permettre 54866
rugby 54866
villages 54825
fortement 54805
Bur@@ 54802
q@@ 54784
futur 54770
lendemain 54741
propriétaire 54726
Tch@@ 54696
envoy@@ 54692
municipal 54688
ye 54673
citoy@@ 54670
ase 54645
finit 54641
0@@ 54631
code 54613
œurs 54597
victoires 54596
métr@@ 54592
Bri@@ 54570
Cin@@ 54531
j 54527
manque 54491
Gen@@ 54475
sit@@ 54470
ories 54456
score 54454
tienne 54448
milit@@ 54444
conc@@ 54432
Jus@@ 54431
diffic@@ 54430
développé 54397
commer@@ 54361
absence 54351
élèves 54347
nos 54329
devenue 54314
traduc@@ 54302
Gau@@ 54293
érieurs 54292
chinois 54267
priv@@ 54250
termes 54237
35 54200
ignent 54192
sil@@ 54176
ella 54158
1969 54080
uniquement 54067
collaboration 54055
publication 54047
Al 54039
étend 54030
Tor@@ 54025
avent@@ 54015
républic@@ 54013
oli@@ 53991
Puis 53962
meilleurs 53962
acteurs 53954
mique 53932
š@@ 53932
pouvant 53879
Dev@@ 53871
Do@@ 53808
recev@@ 53778
voiture 53776
connaissance 53758
Alpes 53754
systèmes 53749
mix@@ 53746
mémoire 53745
ement@@ 53729
tiv@@ 53713
exerc@@ 53690
exer@@ 53676
basé 53652
tis 53650
Laurent 53594
réun@@ 53570
Esp@@ 53565
psych@@ 53561
neur 53523
tombe 53500
tig@@ 53496
onner 53475
fid@@ 53468
écriture 53460
dirige 53430
rées 53424
èvement 53413
tiennent 53410
agriculture 53394
fleuve 53392
soient 53312
num@@ 53305
appartenant 53304
invent@@ 53304
morts 53285
tée 53284
mesures 53246
sorte 53237
régionales 53236
vra@@ 53176
sauv@@ 53156
Ba@@ 53155
modèles 53130
ao 53128
expression 53077
grec 53062
cons@@ 53051
resse 53044
sent 53039
outil 53038
offici@@ 53024
établir 53019
risque 53009
urba@@ 53009
institu@@ 53002
ford 52996
réalisateur 52992
conséqu@@ 52973
ous@@ 52973
candidat 52960
fron@@ 52928
fonde 52922
NGC 52906
attach@@ 52894
Pas@@ 52867
super@@ 52853
liberté 52837
archi@@ 52824
sti@@ 52824
dispute 52808
ifs 52798
prolong@@ 52790
éré@@ 52755
otes 52747
proch@@ 52721
toire 52706
iche 52694
nov@@ 52673
voc@@ 52667
Maison 52664
rang 52660
électrique 52652
ambi@@ 52643
publics 52632
Moscou 52631
festival 52611
idi 52610
dia 52594
aut@@ 52585
bureau 52581
quoi 52579
journée 52574
alb@@ 52565
commande 52538
régional 52517
90 52509
Gir@@ 52478
douze 52477
Mol@@ 52444
plein 52436
rock 52429
entales 52423
lesquels 52409
ouverte 52400
jur@@ 52378
combin@@ 52371
déplac@@ 52366
pouss@@ 52330
faite 52319
mari 52298
socialiste 52256
propres 52226
parcours 52222
accompagn@@ 52207
souver@@ 52199
1964 52175
mp@@ 52174
Commission 52169
activ@@ 52153
titu@@ 52148
poin@@ 52147
résultat 52122
restaur@@ 52120
tente 52119
Algérie 52110
agricole 52107
poursuit 52069
1962 52030
éph@@ 52026
Daniel 52017
esprit 52013
actifs 52005
fondation 52004
blo@@ 52003
édie 52000
protég@@ 51995
éviter 51989
ok@@ 51978
tives 51975
dépend@@ 51973
Marseille 51972
étiques 51962
Ter@@ 51956
aille 51941
quel@@ 51934
chute 51911
valeurs 51900
nomination 51888
littér@@ 51887
note 51884
bi 51871
implant@@ 51867
mut@@ 51867
portes 51866
radi@@ 51864
philosophie 51820
1944 51806
ri 51755
vote 51727
At@@ 51719
accor@@ 51719
fiant 51714
li 51706
participer 51695
célébr@@ 51689
nécessaire 51689
naturelle 51676
enquête 51660
vil@@ 51652
parce 51651
tal@@ 51638
sport 51612
visite 51608
quet 51598
aill@@ 51596
he@@ 51594
effectue 51586
application 51567
ha 51556
peine 51545
proches 51545
suffis@@ 51526
avion 51517
véritable 51516
once 51499
médecine 51482
cho@@ 51469
public@@ 51464
actif 51447
ena 51442
Irlande 51405
Art 51404
eli@@ 51402
iers 51391
basse 51371
lé 51349
conver@@ 51347
suisse 51333
compose 51319
reprise 51306
océ@@ 51302
désigne 51285
Championnats 51282
isol@@ 51276
ach 51265
présenté 51249
Lou@@ 51241
Vie 51240
histori@@ 51240
produire 51192
1965 51185
mises 51163
ols 51156
dû 51131
capit@@ 51124
if 51122
mati@@ 51107
ris@@ 51091
scientifiques 51079
méthode 51065
Fil@@ 51046
rej@@ 51046
maîtr@@ 51012
City 51005
travailler 50999
équival@@ 50993
relativement 50965
profes@@ 50947
fusion 50925
camp@@ 50915
32 50823
Ti@@ 50820
1966 50808
agr@@ 50803
reine 50789
pur@@ 50776
senti@@ 50772
procé@@ 50770
collabor@@ 50716
pes 50710
annuelle 50684
Marc 50639
isses 50635
isson 50632
gaz 50618
collège 50611
verse 50607
quel 50571
séqu@@ 50568
Ed@@ 50557
cheval 50552
plat@@ 50543
Sau@@ 50531
grec@@ 50501
toral 50493
bass@@ 50488
mour@@ 50473
fran@@ 50466
places 50461
enant 50436
fili@@ 50434
Arm@@ 50430
Thé@@ 50422
officier 50411
conception 50407
nés 50405
confi@@ 50395
Peter 50393
uch@@ 50368
officiel 50360
ferme 50358
visi@@ 50350
pilote 50344
congr@@ 50337
neau 50316
Im@@ 50314
législatives 50302
entrer 50205
iterran@@ 50196
Fer@@ 50179
supplém@@ 50178
mène 50162
ein@@ 50152
alog@@ 50146
René 50145
phe 50145
rach@@ 50137
nat@@ 50135
moyens 50134
La@@ 50096
chanteur 50078
Mi@@ 50069
caractérisée 50062
photos 50028
puisque 50023
rate 50014
World 49951
promotion 49938
thème 49908
Pré@@ 49902
centr@@ 49872
assurer 49865
ola 49834
mir@@ 49799
essenti@@ 49793
communiste 49782
lin 49763
euros 49758
Distribution 49723
nie 49721
troph@@ 49715
domicile 49713
Toulouse 49692
mur 49681
monument 49669
Ha@@ 49654
Sor@@ 49641
voire 49633
qués 49629
domaines 49628
Quelques 49604
juge 49588
bé@@ 49587
angle 49583
Mel@@ 49576
lic@@ 49567
meur@@ 49565
isine 49559
ciel 49550
voies 49546
ienne 49535
onie 49483
irent 49441
reti@@ 49420
Et 49415
masse 49374
nies 49358
dés 49336
Chaque 49319
Pan@@ 49299
parlem@@ 49292
1939 49272
ige 49265
age@@ 49251
trente 49247
laisse 49243
complexe 49242
assassin@@ 49220
accept@@ 49213
assi@@ 49210
canal 49201
vér@@ 49124
Tout 49122
rév@@ 49105
crois@@ 49100
raisons 49072
Cou@@ 49071
universit@@ 49064
pouvait 49063
rapide 49051
ier@@ 49042
mand@@ 49040
disque 49033
coup@@ 49020
tél@@ 49001
Maria 48960
biens 48943
Hor@@ 48914
engage 48911
footballeur 48882
eh@@ 48872
arabe 48870
polonais 48855
intègre 48852
procès 48850
ferroviaire 48848
fun@@ 48838
idé@@ 48820
put@@ 48818
yc@@ 48811
écrite 48809
autorité 48805
Sc@@ 48804
calcul@@ 48797
que@@ 48791
économiques 48789
Aux 48788
dériv@@ 48760
uer 48749
my@@ 48726
ez@@ 48721
avions 48706
gros 48701
arrêt 48700
1958 48666
Musée 48661
ignement 48626
science 48605
Don@@ 48601
sauf 48599
étranger 48599
Angeles 48582
tem@@ 48555
phone 48550
tric@@ 48529
élus 48518
Sur@@ 48503
bin@@ 48477
eter 48418
Chi@@ 48416
ulation 48400
atis@@ 48385
Comité 48355
météor@@ 48351
résistance 48348
sif 48332
pul@@ 48324
aériennes 48321
chi 48308
ames 48306
Fo@@ 48305
renouv@@ 48259
Land 48235
manche 48229
&#124; 48225
dirigé 48210
ty 48203
canadi@@ 48195
adver@@ 48189
distribution 48166
auparavant 48150
illy 48149
députés 48130
concurr@@ 48111
Ju@@ 48105
prenant 48099
naît 48081
hommage 48080
ambass@@ 48044
1866 48026
chin@@ 48020
réaliser 48009
Celui 47999
emp@@ 47999
contexte 47987
lec@@ 47984
Démographie 47947
vir@@ 47946
tiens 47902
fro@@ 47894
heure 47889
ham@@ 47864
nant 47861
ba 47854
lon@@ 47846
voirs 47845
ada 47812
diction 47798
populations 47777
aud@@ 47750
fem@@ 47750
concept 47744
tera 47732
andes 47726
endémique 47725
yer 47699
mesur@@ 47681
ul 47670
Wil@@ 47665
tch@@ 47642
perdu 47640
yst@@ 47623
officielle 47601
Étienne 47598
Franc@@ 47557
ationn@@ 47554
princ@@ 47548
utilisant 47546
matériel 47542
semi 47541
amén@@ 47525
universitaire 47500
Lim@@ 47499
rassemb@@ 47493
Suède 47456
progr@@ 47433
Aut@@ 47432
1963 47426
prises 47409
uy@@ 47409
elli 47402
Kh@@ 47385
effets 47357
ow@@ 47355
littéraire 47352
illi@@ 47321
Pon@@ 47300
riers 47283
albums 47281
Bro@@ 47253
hol@@ 47245
découvre 47226
décédé 47202
pand@@ 47202
décou@@ 47200
doc@@ 47176
urg@@ 47174
naturels 47169
parle 47164
volon@@ 47128
Frédéric 47114
montag@@ 47112
due 47095
ora 47084
Ho@@ 47064
ceau 47051
parisi@@ 47050
entreti@@ 47042
doubl@@ 47026
Lav@@ 47004
démoc@@ 46953
neu@@ 46912
organise 46878
ker 46855
ek@@ 46850
ów 46849
appliqu@@ 46829
ts@@ 46819
meub@@ 46810
mouvements 46799
èlement 46796
aura 46781
tribue 46762
culturel 46759
Ir@@ 46734
mod@@ 46727
grade 46713
pa@@ 46713
issons 46688
hypoth@@ 46667
exploit@@ 46647
entier 46644
producteur 46632
montée 46614
mél@@ 46612
climats 46602
Ru@@ 46595
faites 46582
ordres 46544
èche 46534
èque 46534
édé 46531
Ca@@ 46530
idents 46522
initialement 46512
ives 46508
Arts 46492
besoin 46485
glace 46483
cep@@ 46474
échelle 46472
gens 46463
Bu@@ 46448
ave@@ 46396
Nouveau 46370
potenti@@ 46367
ario 46348
inspir@@ 46347
zaine 46340
développe 46336
façade 46335
Mil@@ 46296
Sim@@ 46295
aéroport 46294
roy@@ 46288
respectivement 46283
eu@@ 46281
grille 46265
500 46262
Victor 46235
ó@@ 46209
Patr@@ 46205
tôt 46193
consci@@ 46173
criptions 46156
adr@@ 46149
eth@@ 46139
Sam@@ 46130
pa 46130
ètement 46127
chasse 46118
rus@@ 46117
correspond 46109
pauv@@ 46052
1956 46024
ètres 46007
oniques 45999
uelle 45984
êts 45964
eusement 45950
4,@@ 45940
érer 45927
marins 45922
circuit 45892
concerne 45889
Bordeaux 45882
1914 45869
affirme 45868
Jér@@ 45862
expér@@ 45862
préfecture 45833
érée 45831
diplom@@ 45819
colonel 45814
table 45814
Armée 45801
entale 45793
plans 45792
symb@@ 45792
lancé 45782
Anci@@ 45777
circul@@ 45772
post@@ 45759
ico 45755
Division 45735
ys 45727
historien 45723
idées 45710
tu 45708
refus@@ 45666
sult@@ 45664
gagne 45649
traverse 45647
més 45608
Orig@@ 45520
J 45519
Tun@@ 45506
titulaire 45502
médecin 45492
thi@@ 45480
ignon 45449
Bon@@ 45439
ôle 45413
fre@@ 45403
Mir@@ 45387
Croix 45386
feu@@ 45379
tionnelle 45375
accueille 45359
1948 45339
pris@@ 45334
Sy@@ 45323
atoires 45298
Mah@@ 45294
ert 45294
ji 45259
vais 45258
rait 45257
affron@@ 45244
tourner 45237
croix 45225
International 45221
St 45213
éen 45203
ern@@ 45198
retourne 45198
entre@@ 45187
début@@ 45169
titude 45145
vais@@ 45128
Compagnie 45124
div@@ 45122
monastère 45118
accompag@@ 45105
compens@@ 45096
frag@@ 45091
mots 45082
ennent 45032
caus@@ 45003
rencontres 45003
1946 44998
Est@@ 44983
génération 44981
vit@@ 44973
romain 44972
bras 44951
agglomération 44930
raient 44924
succ@@ 44924
réalisation 44909
tionne 44890
établissements 44890
anglaise 44888
nécessit@@ 44886
individu@@ 44864
lou@@ 44860
Ben@@ 44859
fédération 44844
britanniques 44841
croissance 44835
tionnel 44807
Washington 44796
ry 44777
vainqueur 44756
Te@@ 44738
diff@@ 44727
33 44711
1961 44697
ode 44694
Ol@@ 44686
inclinaison 44683
Écosse 44674
rav@@ 44661
sen 44660
prê@@ 44659
č@@ 44657
lien 44653
oni 44642
propos 44641
way 44634
Reg@@ 44633
ori 44628
achev@@ 44591
ans@@ 44569
ey@@ 44520
ométrie 44517
stat@@ 44517
Grèce 44503
sociétés 44502
disponible 44498
connus 44483
Han@@ 44475
jour@@ 44471
annoncé 44427
publiés 44396
Val 44394
alogue 44394
fusi@@ 44365
Records 44337
périhélie 44328
2,@@ 44327
ague 44306
Ra@@ 44301
Juifs 44265
piste 44264
considérée 44259
lie@@ 44255
versions 44255
Culture 44251
sive 44248
1820 44234
alt@@ 44231
5,@@ 44227
issu 44219
pologie 44219
Os@@ 44218
long@@ 44214
bro@@ 44202
icien 44201
ë@@ 44195
aug@@ 44172
locales 44169
considère 44156
lard 44140
dram@@ 44139
èg@@ 44137
atri@@ 44132
compéti@@ 44124
décès 44105
télévisée 44096
guerres 44095
abou@@ 44089
poète 44080
idé 44067
exprim@@ 44049
ze@@ 44047
franch@@ 44027
polici@@ 44022
1959 44010
automobile 43996
choisi 43996
olympique 43978
Jules 43946
all 43944
nois 43944
Groupe 43920
ignant 43918
ectif 43908
médias 43906
by@@ 43902
tières 43885
bénéfici@@ 43875
victimes 43867
représentation 43866
orchestre 43850
ult@@ 43839
échange 43839
Ta@@ 43831
Égypte 43831
éto@@ 43825
représentants 43775
princip@@ 43770
Ville 43762
chevaux 43761
US 43748
envoyé 43738
oul 43732
rer 43719
combats 43718
plaç@@ 43690
sain@@ 43688
révél@@ 43681
Gas@@ 43680
sk@@ 43679
thèse 43649
publiques 43639
proj@@ 43617
vivant 43616
présidence 43612
ox@@ 43608
contact 43590
résid@@ 43590
accessibles 43589
ière 43577
marqué 43573
final 43561
élector@@ 43554
nomme 43549
ball@@ 43540
compag@@ 43540
majeure 43531
cli@@ 43523
Van 43492
delà 43490
Wal@@ 43489
riche 43480
Île 43472
icule 43456
bot@@ 43454
signific@@ 43447
ny 43444
itions 43427
concert 43421
Dom@@ 43417
sum@@ 43411
avanc@@ 43409
hal@@ 43384
abbé 43370
érant 43368
1936 43340
investis@@ 43340
avance 43334
intéress@@ 43334
réseaux 43330
officiers 43320
75 43317
Fran@@ 43295
1947 43291
accueil@@ 43268
ato 43255
régionale 43243
changements 43235
soir 43221
den@@ 43218
facil@@ 43215
lant 43204
uf@@ 43200
diplô@@ 43199
environn@@ 43196
lesquelles 43194
ordonn@@ 43179
emplo@@ 43178
déclaré 43165
oun 43165
ingénieur 43120
japonaise 43114
usion 43100
3,@@ 43077
diplôme 43050
religion 43035
impose 43023
murs 43023
musicale 42983
exception 42982
fil 42975
trains 42949
sièges 42941
Mont 42938
José 42917
ématique 42907
organisée 42888
bon@@ 42881
ich 42876
We@@ 42872
Oc@@ 42868
exp@@ 42864
Chicago 42837
Ur@@ 42835
Hal@@ 42825
flor@@ 42801
och@@ 42801
vieux 42789
dépos@@ 42773
jardin 42733
transports 42731
explor@@ 42729
lang@@ 42726
Roger 42708
départemental 42706
reç@@ 42697
réussit 42695
Pic@@ 42690
latér@@ 42685
aces 42684
judici@@ 42678
erg@@ 42675
fe 42665
excentricité 42645
anes 42600
anger 42600
émie 42592
agu@@ 42584
culte 42578
quitter 42572
Château 42562
Air 42560
IS@@ 42558
élé@@ 42553
bibliothèque 42541
signé 42534
dav@@ 42531
milieux 42524
Bau@@ 42514
estimé 42509
enci@@ 42490
feuilles 42480
révolution 42476
Tous 42455
const@@ 42445
mén@@ 42432
reconnaissance 42406
développer 42399
physiques 42395
Dur@@ 42394
itation 42382
los 42376
morte 42369
questions 42369
honor@@ 42362
A. 42361
restauration 42346
Maz@@ 42335
augmentation 42323
gros@@ 42321
estime 42318
xi@@ 42306
Insee 42281
ave 42270
distingu@@ 42269
front 42268
ryth@@ 42266
appréci@@ 42254
galax@@ 42241
refuse 42240
Denis 42232
itre 42222
révoluti@@ 42222
devi@@ 42221
Rhône 42219
registre 42200
Quand 42179
héri@@ 42170
trique 42167
human@@ 42163
mass@@ 42157
demeure 42147
ressources 42146
espagnole 42135
orité 42130
véhicules 42117
Christian 42116
régu@@ 42115
Pu@@ 42106
temple 42082
té@@ 42082
originale 42076
sociales 42063
taines 42063
top@@ 42043
printemps 42041
anne 42019
certaine 42006
précipitations 41998
héros 41990
chir@@ 41937
dien 41920
différence 41911
tué 41905
écliptique 41898
avocat 41896
bout 41892
triques 41878
Situation 41874
tail 41850
th 41836
surve@@ 41833
air@@ 41828
1949 41810
Jé@@ 41787
endroit 41768
rares 41767
beaux 41745
ust@@ 41745
fis@@ 41736
documents 41734
Dor@@ 41705
partage 41703
pp@@ 41703
active 41702
essais 41702
San@@ 41690
1942 41661
Orléans 41659
conserve 41652
Portugal 41644
vivre 41631
adul@@ 41623
oiseaux 41620
empr@@ 41615
mani@@ 41607
manus@@ 41607
AR@@ 41596
1918 41578
vite 41574
conférence 41572
secondes 41566
règ@@ 41561
expliqu@@ 41546
Ham@@ 41526
compéten@@ 41525
chimi@@ 41518
mettant 41515
nations 41515
athl@@ 41511
franc@@ 41507
majorit@@ 41499
fémin@@ 41496
gué 41482
land@@ 41478
Ay@@ 41460
flotte 41451
partic@@ 41447
Fond@@ 41445
ception 41445
int 41441
Em@@ 41434
devrait 41421
tempor@@ 41416
ive 41409
pin@@ 41402
coû@@ 41394
igny 41391
illi 41376
incar@@ 41373
branche 41365
ular@@ 41345
Orient 41341
neaux 41318
eci 41273
embl@@ 41272
retir@@ 41268
territori@@ 41262
annex@@ 41261
Hongrie 41244
ext@@ 41238
als 41235
Liv@@ 41234
ments 41227
cé@@ 41213
rière 41195
sie 41195
èdent 41179
proc@@ 41167
affec@@ 41164
mit 41155
scén@@ 41154
associé 41149
époques 41147
métropole 41145
umes 41142
réserv@@ 41117
serbe 41111
tie 41104
1957 41100
1954 41072
chanteuse 41069
profit 41063
ont@@ 41036
xième 41034
cir@@ 41023
inage 41015
1943 41010
Luc@@ 41005
line 40985
Alain 40982
sociaux 40981
Cy@@ 40971
Ram@@ 40955
1938 40952
fête 40951
distinc@@ 40943
1955 40940
Ste@@ 40934
sus@@ 40930
aun@@ 40927
expédition 40927
enfance 40901
réforme 40877
Mad@@ 40866
respons@@ 40861
excep@@ 40847
vaste 40829
kin 40821
6,@@ 40810
chœur 40808
consiste 40801
ieu 40796
Vier@@ 40786
aliers 40780
exemplaires 40776
yeux 40771
Ath@@ 40767
consommation 40745
san@@ 40738
for 40732
étage 40728
Rev@@ 40726
36 40714
ca@@ 40703
élément 40688
édit@@ 40685
permet@@ 40675
Santa 40673
adaptation 40666
tol@@ 40660
traduit 40609
envis@@ 40604
chanti@@ 40599
criv@@ 40584
juridi@@ 40583
nation 40578
sixième 40570
établi 40566
âg@@ 40556
forment 40554
thique 40538
Léon 40516
étrangères 40516
mou@@ 40512
volonté 40512
je@@ 40501
Simon 40500
présents 40494
candidats 40487
onnaire 40486
piano 40472
accident 40461
basée 40461
noire 40461
revanche 40456
allemands 40450
agers 40448
1941 40438
égation 40410
inférieur 40402
ores 40392
AS@@ 40391
exter@@ 40371
améric@@ 40356
manie 40355
cot@@ 40334
otype 40322
seuls 40320
tire 40313
atelier 40311
humaine 40303
ner@@ 40299
commercial 40289
progressivement 40284
Bru@@ 40271
règles 40266
gam@@ 40265
change 40256
bé 40254
consom@@ 40252
aves 40242
Auguste 40236
Corée 40235
ima 40234
possibilité 40232
onte 40220
spécialiste 40220
privil@@ 40204
cycle 40203
hong@@ 40203
ona 40176
massif 40168
adjoint 40161
Stade 40157
scènes 40117
Israël 40088
ruisseau 40075
Petit 40062
appelés 40056
sang 40046
Hab@@ 40040
prévoit 40030
révol@@ 40025
auss@@ 40013
assure 40007
aider 40000
sme 40000
tribunal 39991
versité 39984
signi@@ 39982
Laur@@ 39958
issait 39927
cathol@@ 39920
logici@@ 39895
Commun@@ 39888
voyageurs 39878
estre 39876
Genève 39873
asc@@ 39866
images 39861
espo@@ 39842
Climat 39834
libération 39833
rig@@ 39819
reconnu 39816
placé 39812
ail 39810
appro@@ 39779
événement 39779
tue 39769
1952 39767
XV 39758
Rég@@ 39754
résidence 39751
bibli@@ 39750
tière 39739
posséd@@ 39737
doctor@@ 39726
identité 39717
numér@@ 39715
fos@@ 39706
ony@@ 39705
illers 39688
Boul@@ 39686
Nov@@ 39686
IN@@ 39676
suédo@@ 39676
Chev@@ 39671
emplacement 39667
Baptiste 39665
Congrès 39662
présentant 39646
34 39639
travaillé 39629
original 39626
aint 39625
rot@@ 39625
législ@@ 39616
complète 39608
connaître 39584
romans 39579
sist@@ 39577
chant@@ 39565
dro@@ 39559
Madrid 39540
plateau 39535
navig@@ 39517
Comté 39513
discours 39512
ub@@ 39503
notre 39502
illa 39493
utilisées 39478
ciné@@ 39468
uz@@ 39456
chemins 39450
consult@@ 39438
communal 39434
tenant 39434
trait@@ 39432
amour@@ 39423
Radio 39408
extrémit@@ 39402
ix@@ 39395
38 39394
Un@@ 39391
roul@@ 39386
Dis@@ 39380
ution 39375
fabrication 39373
ali 39333
erlandais 39328
so 39320
1953 39298
Améric@@ 39296
sel@@ 39289
gènes 39288
Men@@ 39283
Jac@@ 39280
Fam@@ 39279
simplement 39267
suites 39258
servir 39244
irie 39240
constituée 39231
Œ@@ 39229
médiév@@ 39223
2022 39222
ondre 39219
alm@@ 39217
omb@@ 39215
puisqu&apos; 39191
College 39183
imprim@@ 39183
élabor@@ 39177
enf@@ 39176
Provence 39170
erry 39170
Britanni@@ 39162
cinqu@@ 39158
League 39153
champions 39128
Sant@@ 39116
espaces 39100
asi@@ 39075
May@@ 39065
lon 39060
êque 39017
volume 39006
archev@@ 38975
écos@@ 38972
drap@@ 38967
Far@@ 38960
siècles 38954
rê@@ 38949
Comp@@ 38947
privé 38915
Peu 38896
amm@@ 38893
Nations 38880
repris 38849
prévu 38840
cule 38836
programmes 38836
Équi@@ 38835
Répartition 38813
Park 38802
Ge@@ 38783
mention 38776
sim@@ 38768
détaillée 38767
Occupation 38743
Édouard 38743
crit 38741
démén@@ 38740
obj@@ 38733
Étymologie 38731
hétéro@@ 38723
réper@@ 38722
régulière 38721
Maroc 38717
apprend 38716
proté@@ 38715
qualifi@@ 38714
prair@@ 38688
émer@@ 38665
religieuse 38664
Fi@@ 38662
féré 38655
indic@@ 38651
chefs 38650
plant@@ 38637
royal 38637
envers 38634
concerts 38630
Rec@@ 38619
métro 38603
professionnels 38582
Strasbourg 38573
tenait 38572
Sil@@ 38571
Toponymie 38571
second@@ 38571
accomp@@ 38549
èles 38526
définitivement 38524
Catherine 38523
eil@@ 38515
sbourg 38502
yg@@ 38501
avi@@ 38498
ider 38484
internationales 38466
denses 38465
1937 38462
orer 38457
Côte 38451
artillerie 38450
eries 38450
direct 38449
convain@@ 38438
Fre@@ 38423
personnalités 38419
produc@@ 38418
gh@@ 38417
AC 38413
ras@@ 38405
déta@@ 38397
ît 38390
ith 38381
Jeanne 38374
chaî@@ 38373
tempér@@ 38366
spectacle 38365
occidentale 38354
consacré 38343
ini@@ 38343
dehors 38341
Neu@@ 38330
précédente 38318
niveaux 38309
majeur 38308
1,@@ 38307
issus 38306
Milan 38276
difficultés 38270
sier 38257
cent 38252
rendu 38212
ello 38210
ision 38210
abrite 38201
vr@@ 38193
pâ@@ 38190
routes 38180
connues 38170
Or 38150
Savoie 38146
Hy@@ 38143
jaune 38133
st 38131
emi 38129
huiti@@ 38127
nationales 38121
Économie 38105
sujets 38087
Pom@@ 38083
immédiatement 38083
habitu@@ 38082
battre 38075
concentr@@ 38075
scénar@@ 38061
Der@@ 38059
intitul@@ 38054
riv@@ 38051
logements 38032
écrits 38024
conçu 38012
baie 37991
tionnaire 37973
quartiers 37971
diffus@@ 37957
commen@@ 37933
ose 37933
éditeur 37931
démocratique 37916
dist@@ 37912
transfer@@ 37907
symbol@@ 37905
39 37897
var@@ 37894
rôles 37889
á 37886
échec 37867
1933 37866
danse 37863
parler 37860
liaison 37836
J. 37833
constitution 37832
mines 37828
national@@ 37822
Marine 37807
comparer 37804
seigneur@@ 37804
gende 37797
véh@@ 37791
distingue 37786
classi@@ 37784
çons 37784
légèrement 37775
42 37772
parallèle 37763
Allemands 37762
datant 37761
taires 37759
acles 37745
CA@@ 37734
fiction 37734
initiative 37729
voitures 37729
audi@@ 37728
encour@@ 37724
municip@@ 37709
Marcel 37705
échap@@ 37682
Communauté 37670
univers 37664
flam@@ 37635
fédéral 37625
Bibli@@ 37616
dynam@@ 37613
1919 37590
lut@@ 37540
courses 37539
lis@@ 37518
succède 37504
atre 37495
erre@@ 37489
Théâtre 37441
européens 37420
intermédiaire 37420
décidé 37419
aménagement 37409
Arthur 37377
scrutin 37375
bourge@@ 37365
prop@@ 37363
rup@@ 37350
onymie 37299
administrative 37287
autrich@@ 37265
relati@@ 37263
tit 37261
désig@@ 37249
64 37245
prisonniers 37242
allant 37238
univers@@ 37223
Urbanisme 37204
dy 37200
iger 37200
Gor@@ 37191
entraîn@@ 37184
1951 37183
ort 37169
automne 37166
blanche 37165
maje@@ 37165
écla@@ 37155
visit@@ 37151
performance 37145
portug@@ 37142
marin 37138
atte@@ 37136
dynastie 37136
fais@@ 37105
ings 37092
sû@@ 37084
absolue 37080
franco@@ 37079
ary 37074
peupl@@ 37065
Mur@@ 37048
Politique 37039
Franç@@ 37032
onds 37025
tourne 37020
animation 37015
vig@@ 37015
suivent 37003
dique 36999
7,@@ 36994
cultiv@@ 36983
étée 36977
Atlantique 36973
ench@@ 36968
érieur 36968
normale 36964
évalu@@ 36942
Sav@@ 36936
Aus@@ 36934
requ@@ 36910
Barcel@@ 36905
Mét@@ 36905
ajout@@ 36895
mettent 36893
archie 36888
qualifié 36887
établit 36874
Ordre 36870
Zé@@ 36863
1935 36858
lac@@ 36829
établie 36820
dessinée 36806
donnant 36804
reur 36804
arbres 36779
Lang@@ 36776
écrire 36755
associations 36753
enseigne 36753
Vincent 36749
récit 36748
Christ 36743
Lam@@ 36742
estr@@ 36733
Nav@@ 36729
chevalier 36729
sour@@ 36729
cérémonie 36725
interprète 36725
tax@@ 36716
épreuves 36714
accue@@ 36713
présidentielle 36713
pourtant 36710
combatt@@ 36709
Nantes 36708
statue 36699
ariat 36696
artis@@ 36667
belle 36667
Administration 36661
mobili@@ 36624
internation@@ 36621
étro@@ 36620
propri@@ 36604
vê@@ 36597
chim@@ 36587
Napoléon 36586
del@@ 36585
peur 36566
échal 36543
Cap@@ 36541
exécut@@ 36539
énie 36539
protéger 36537
écologique 36534
cab@@ 36528
chron@@ 36528
prêtre 36502
communautés 36501
fortes 36494
Pyrénées 36492
ff 36476
forts 36476
ilien 36476
Luci@@ 36469
ister 36467
Ly@@ 36463
onze 36459
aéro@@ 36458
autonom@@ 36443
réfugi@@ 36408
départementale 36392
field 36390
nef 36377
rir 36376
acité 36367
intervention 36364
échelles 36351
Génér@@ 36335
rues 36332
mathématiques 36318
Argentine 36312
défense@@ 36302
Monde 36297
Lar@@ 36296
européennes 36294
SN@@ 36293
lait 36292
agnes 36288
océanique 36285
Francisco 36279
Vers 36273
tennis 36270
ara@@ 36265
pav@@ 36259
consécu@@ 36233
48 36232
Haut 36227
cach@@ 36209
stations 36199
dessin 36197
CD 36187
basket 36186
oses 36161
barr@@ 36153
oute 36148
secondaires 36148
alisés 36144
chacune 36136
ceaux 36132
gien 36125
Cassini 36114
débar@@ 36109
sivement 36093
soul@@ 36093
enses 36092
progres@@ 36086
aspect 36084
entu@@ 36081
conséquence 36078
fleurs 36072
ium 36071
spati@@ 36064
aliser 36051
ash@@ 36042
Pont 36032
dos 36031
fonctionnement 36029
cabinet 36025
sibles 36017
canadien 36015
chose 36009
ev 36004
param@@ 36001
gol@@ 35998
bleu 35996
duction 35970
étoiles 35968
étrangers 35966
terie 35959
humains 35950
IGN 35946
cos@@ 35927
join@@ 35921
baron 35909
ennement 35900
Typologie 35897
phénomène 35885
1929 35878
eils 35877
thodes 35872
constat@@ 35861
van@@ 35850
venant 35839
37 35838
mos@@ 35830
impliqu@@ 35820
ko@@ 35818
ā@@ 35808
Organisation 35779
gagn@@ 35772
trafic 35765
ame@@ 35762
ble@@ 35758
inspiré 35756
vet@@ 35754
mes@@ 35747
popul@@ 35740
statisti@@ 35738
féminine 35736
Arch@@ 35724
52 35713
voû@@ 35699
écou@@ 35656
ulin 35655
patri@@ 35653
avenue 35650
1934 35648
vécu 35634
graphi@@ 35599
arri@@ 35593
archives 35590
isa 35584
éné@@ 35578
mine 35564
oiseau 35560
Roi 35559
franco 35540
lab@@ 35525
distribu@@ 35516
quinze 35499
liés 35498
Ker@@ 35496
auquel 35490
trône 35486
appareil 35475
promu 35469
vention 35443
menée 35429
surviv@@ 35420
exig@@ 35415
moteurs 35403
évê@@ 35400
perte 35393
onique 35387
ophysique 35381
firme 35371
québé@@ 35367
guit@@ 35357
of@@ 35337
opp@@ 35336
réponse 35334
érées 35334
í@@ 35309
Celle 35302
stes 35297
humain 35289
crit@@ 35253
égal 35238
classes 35235
Localisation 35231
ics 35231
proportion 35228
rais 35224
Tom@@ 35223
1932 35222
igueur 35215
courte 35210
laborat@@ 35208
300 35193
classification 35187
limitée 35186
autonome 35184
ki@@ 35183
délé@@ 35178
dier 35170
détruit 35167
├ 35164
rut@@ 35156
retrouver 35151
impériale 35140
confér@@ 35118
anmoins 35098
exper@@ 35096
tenus 35090
religie@@ 35082
1900 35075
Maur@@ 35069
actes 35065
awa 35054
ogie 35047
diffusé 35040
but@@ 35031
vas@@ 35028
gran@@ 35022
Service 35005
ancement 35000
Méd@@ 34973
odes 34968
Aur@@ 34960
mans 34939
phil@@ 34935
lais 34924
ensis 34920
iens 34907
assist@@ 34904
nationaux 34898
Disney 34894
44 34882
polonaise 34876
chau@@ 34874
châ@@ 34874
temp@@ 34860
tentative 34848
matin 34846
Mes@@ 34837
Il@@ 34824
septi@@ 34822
AS 34819
isie 34815
circulation 34811
âte@@ 34806
sements 34804
sugg@@ 34797
fut@@ 34794
Class@@ 34788
con 34781
Normandie 34779
Bol@@ 34759
vern@@ 34757
venue 34751
J.-@@ 34738
évol@@ 34731
musical 34720
explic@@ 34719
sk 34718
lière 34676
Patrick 34662
bit 34640
captur@@ 34612
grap@@ 34600
ES@@ 34591
ish@@ 34589
extension 34577
hydr@@ 34546
Coll@@ 34545
Bourgogne 34530
quart 34525
jum@@ 34524
ō@@ 34524
astronom@@ 34523
8,@@ 34502
oppose 34500
55 34492
cav@@ 34492
1928 34483
salles 34482
Marne 34470
46 34466
pense 34463
struc@@ 34461
inn@@ 34460
licence 34455
Cre@@ 34452
ick@@ 34438
igner 34422
sab@@ 34387
dres@@ 34383
ON@@ 34341
Smith 34340
ombie 34340
Lille 34314
modernes 34302
oration 34296
Fin 34287
èvre 34284
Contr@@ 34278
School 34271
sule 34255
ator@@ 34236
ties 34218
400 34205
isions 34200
quin@@ 34192
Cur@@ 34190
onci@@ 34178
format 34155
Lor@@ 34149
rang@@ 34128
fle@@ 34124
20@@ 34120
race 34100
Cover 34093
uk@@ 34077
1924 34072
résist@@ 34066
constituent 34051
Hér@@ 34048
41 34045
attention 34045
Hô@@ 34044
cardinal 34033
ela 34030
intellectu@@ 34019
ova 34003
hist@@ 34000
alie 33988
Dar@@ 33956
1910 33955
oh@@ 33952
tro 33924
empire 33910
ban 33908
cha 33907
Guy 33905
prime 33904
TV 33886
ack 33883
institutions 33878
Mich@@ 33850
découver@@ 33843
dits 33831
itch 33828
chauff@@ 33822
oti@@ 33811
Rus@@ 33786
embar@@ 33781
aques 33768
Occ@@ 33767
Bay@@ 33743
Juan 33724
musul@@ 33720
ification 33691
Mot@@ 33682
Je 33666
fam@@ 33662
cut@@ 33658
ab 33653
lingu@@ 33642
cru@@ 33627
incen@@ 33626
inal 33625
aisse 33612
Pau@@ 33606
ges@@ 33577
islam@@ 33568
architec@@ 33544
pique 33542
provis@@ 33539
oto 33523
Vall@@ 33517
chal@@ 33508
indre 33507
naz@@ 33503
alise 33500
san 33465
Port 33463
adapt@@ 33454
Math@@ 33437
Af@@ 33403
Lev@@ 33377
SC 33376
dos@@ 33352
Jeunesse 33351
grad@@ 33323
intér@@ 33323
qua 33307
net 33301
acu@@ 33285
cy 33282
usa 33282
modern@@ 33274
ron 33251
ancer 33228
phones 33226
CLC 33218
analy@@ 33197
col 33178
ati 33168
eine 33165
Let@@ 33163
Antonio 33157
ogne 33157
My@@ 33149
az 33148
Pap@@ 33106
venti@@ 33106
ingéni@@ 33100
ling 33093
1870 33082
atie 33077
Super 33076
Music 33057
structures 33054
Turqu@@ 33051
Ferr@@ 33049
lion 33043
CE@@ 33029
installation 33023
prol@@ 33019
ap 33011
uri@@ 33011
Tokyo 33010
liqu@@ 33005
orn@@ 32998
aceae 32989
Lorraine 32986
ef@@ 32980
65 32954
Ari@@ 32934
performances 32927
uli@@ 32927
51 32888
occu@@ 32872
eta 32871
9,@@ 32868
loy@@ 32866
ster 32856
cens@@ 32853
Vic@@ 32823
toile 32792
sel 32760
contrain@@ 32754
centres 32732
organisations 32732
ky 32730
ël 32724
itz 32722
exempl@@ 32704
1925 32679
Na@@ 32661
rester 32661
las 32652
stein 32649
entin 32595
harmon@@ 32595
fiques 32546
nou@@ 32538
istiques 32535
accu@@ 32527
bli@@ 32523
arde 32512
crimin@@ 32510
trait 32501
mondi@@ 32484
W 32481
phy@@ 32466
cultures 32447
Rem@@ 32418
spé@@ 32418
1912 32415
Pou@@ 32405
étab@@ 32379
eds 32351
transition 32347
maximum 32334
civil 32328
Raymond 32323
plu@@ 32313
1931 32303
preuve 32298
provinces 32287
aro 32270
Sec@@ 32252
dir@@ 32225
tun@@ 32203
47 32195
amiral 32190
arab@@ 32185
visible 32180
comple@@ 32176
jard@@ 32155
inscription 32145
sibil@@ 32137
Enf@@ 32113
icul@@ 32105
mur@@ 32098
43 32095
confir@@ 32074
influenc@@ 32072
pluvi@@ 32068
intr@@ 32057
tion@@ 32043
Châ@@ 32038
57 32009
ament@@ 31999
Év@@ 31989
sem@@ 31987
cy@@ 31971
oz@@ 31957
SA 31956
suc@@ 31953
comment@@ 31952
instruments 31930
Mos@@ 31916
interne 31909
tâ@@ 31908
ess 31899
conclu@@ 31898
ester 31881
Sab@@ 31878
avis 31878
idente 31873
propriéta@@ 31873
pier@@ 31861
nir 31842
aile 31830
ere 31818
Kir@@ 31805
cip@@ 31804
mond 31802
ck 31785
tradu@@ 31772
apes 31765
affluent 31741
Constitution 31734
sing@@ 31730
dan 31725
abil@@ 31698
Bil@@ 31692
antique 31689
ical 31688
Ke@@ 31684
aux@@ 31682
troit 31670
Az@@ 31641
barrage 31629
Paci@@ 31627
xes 31626
solo 31616
lus 31613
beso@@ 31610
Cu@@ 31608
tus 31606
oi 31588
und@@ 31584
capable 31578
Texas 31558
Population 31545
Lee 31537
Luxembourg 31535
Max 31529
tec@@ 31492
andi@@ 31484
Camp@@ 31477
Palais 31477
galerie 31470
invasion 31469
emark 31464
ouch@@ 31456
95 31454
1921 31453
aillon 31451
63 31447
origines 31436
spir@@ 31416
1926 31409
Trav@@ 31404
85 31399
Bir@@ 31393
United 31382
geant 31381
ions 31372
Ukraine 31349
lecture 31349
arc 31338
élite 31317
Alfred 31308
Vie@@ 31305
vac@@ 31249
tin@@ 31247
1922 31246
pouv@@ 31241
atmosph@@ 31226
destruction 31202
Tre@@ 31196
Ul@@ 31185
West 31183
yn 31167
AC@@ 31152
condition 31132
ian 31132
Fort 31118
ney 31098
notion 31098
arme 31075
tari@@ 31042
teau 31036
American 31020
can 31016
War@@ 31009
alco@@ 31007
ost@@ 31001
collections 30997
PC@@ 30993
Liège 30988
icité 30985
maritime 30980
mit@@ 30976
atur@@ 30960
genres 30937
prob@@ 30935
aga 30929
observations 30922
Vill@@ 30916
ental 30910
Football 30871
let@@ 30862
illet 30852
49 30844
aim@@ 30840
ok 30837
qualif@@ 30832
rage 30829
rejo@@ 30824
calend@@ 30816
Saison 30803
gren@@ 30792
Ben 30780
Jack 30763
plante 30752
Rhin 30751
Bes@@ 30748
ele 30742
aven@@ 30740
Fab@@ 30731
Mary 30724
mul@@ 30724
noble 30694
matern@@ 30683
programm@@ 30683
Force 30668
Gro@@ 30668
Lac@@ 30656
PS 30656
concep@@ 30645
excell@@ 30643
Blo@@ 30625
mic@@ 30620
champs 30607
entis@@ 30598
impéri@@ 30582
Hel@@ 30573
vain@@ 30571
astr@@ 30564
exc@@ 30562
onale 30548
Dem@@ 30545
dez 30545
zi 30533
seig@@ 30530
budget 30520
cylin@@ 30520
dispositi@@ 30520
Ali@@ 30516
Hil@@ 30512
1917 30505
abor@@ 30482
fie 30473
bloc@@ 30462
Tom 30456
Louise 30454
âce 30454
Mul@@ 30426
micro@@ 30419
zo@@ 30419
tile 30409
Nice 30400
illée 30389
* 30387
1927 30386
unes 30384
ado 30373
adolesc@@ 30360
amo@@ 30359
endr@@ 30332
gul@@ 30308
Hav@@ 30286
Eugène 30282
Ét@@ 30279
CN@@ 30267
sam@@ 30257
B. 30252
convo@@ 30245
Internet 30237
CF 30236
sis 30236
times 30229
insec@@ 30215
uil 30202
installations 30187
Pat@@ 30177
matr@@ 30173
tac@@ 30166
inten@@ 30157
table@@ 30151
Peti@@ 30149
Roy@@ 30144
Uni@@ 30142
ciales 30134
sportif 30132
Mou@@ 30124
démocrati@@ 30116
Garonne 30112
ef 30110
test@@ 30093
divisions 30070
Caroline 30051
onal 30039
fonc@@ 30033
ila 30025
illance 30021
caval@@ 30003
mage 30000
66 29999
anni@@ 29999
pseud@@ 29986
SS 29958
office 29958
voi 29947
procur@@ 29934
Rio 29931
lia 29929
ten 29927
58 29924
Gabriel 29922
mon 29916
ving@@ 29905
Dro@@ 29878
asse@@ 29869
ective 29860
da@@ 29857
ieux 29835
èv@@ 29833
parts 29832
sir 29829
fices 29828
succession 29824
alliance 29795
74 29790
sons 29789
sac 29785
Syst@@ 29784
Fe@@ 29767
animal 29763
ctu@@ 29751
duo 29749
quasi 29715
ares 29713
rar@@ 29706
glob@@ 29704
Francis 29693
concentration 29689
Bern@@ 29688
pre 29686
ric 29683
parole 29667
off 29664
pom@@ 29635
Bul@@ 29633
popular@@ 29625
esta 29619
imagin@@ 29614
monstr@@ 29614
Sand@@ 29594
heim 29593
sar@@ 29591
siles 29583
1923 29565
Black 29563
pic@@ 29553
jon 29525
suppos@@ 29518
Noël 29505
Olivier 29504
got@@ 29497
annonc@@ 29484
62 29478
ologne 29463
Gl@@ 29462
ense@@ 29462
versi@@ 29461
brigade 29460
Tak@@ 29447
í 29444
Parc 29436
und 29434
peu@@ 29417
million 29413
53 29408
fol@@ 29407
étrang@@ 29397
accord@@ 29386
disponibles 29347
finales 29345
spatial 29330
Var@@ 29319
Int@@ 29316
hi 29311
Kal@@ 29307
iert 29303
dieu 29302
FI@@ 29301
ga 29301
Gérard 29288
grave 29271
Renaissance 29255
Bass@@ 29247
54 29244
infr@@ 29238
din@@ 29236
Mass@@ 29232
Lie@@ 29229
FF 29228
Frank 29221
Nar@@ 29209
tori@@ 29208
Mark 29191
sais 29182
VI 29179
trol@@ 29178
Bois 29161
ref 29159
Christophe 29156
Mau@@ 29142
ih@@ 29133
orthodo@@ 29121
variations 29102
primer 29096
cial 29093
dér@@ 29085
veau 29079
philosoph@@ 29073
nobl@@ 29068
onnais 29068
61 29065
Alsace 29063
RE@@ 29062
jazz 29033
ander 29023
sir@@ 29016
77 29011
flan@@ 29007
magnitude 28999
fe@@ 28989
adies 28965
SA@@ 28961
URSS 28957
Kat@@ 28948
criti@@ 28939
Camer@@ 28938
allem@@ 28937
télévis@@ 28936
RA@@ 28911
impact 28878
étu@@ 28870
Land@@ 28869
Pin@@ 28857
formations 28855
âtre 28855
symp@@ 28848
comman@@ 28841
isra@@ 28833
aly@@ 28827
gratu@@ 28827
engagement 28808
célè@@ 28799
remon@@ 28772
chem@@ 28766
embre 28765
Beno@@ 28760
coloni@@ 28757
qualification 28751
go 28734
tex@@ 28725
berg@@ 28720
omorph@@ 28712
Journal 28707
Jou@@ 28702
Emmanuel 28700
1913 28686
artifici@@ 28686
uni 28680
ito 28679
73 28667
bombard@@ 28636
correc@@ 28636
án 28621
ung@@ 28574
aches 28565
82 28562
aujour@@ 28553
exclusiv@@ 28535
men 28530
nev@@ 28522
ogr@@ 28517
Edward 28514
Gre@@ 28497
1905 28493
conservation 28482
Hall 28481
tér@@ 28480
Tal@@ 28462
ik 28451
ero 28450
pages 28450
fications 28436
lections 28428
let 28421
Rab@@ 28408
limi@@ 28385
iner 28383
agon@@ 28379
Émile 28376
usalem 28374
orientation 28365
Marguerite 28337
flex@@ 28330
ón 28329
Yves 28320
istère 28314
1911 28312
67 28308
industrielle 28305
asser 28302
supr@@ 28268
nation@@ 28264
tram@@ 28234
propag@@ 28204
standard 28202
dé 28193
cession 28192
inger 28184
Star 28179
uls 28175
Chap@@ 28165
acre 28151
tho@@ 28148
seaux 28138
enta 28132
dh@@ 28130
bac@@ 28119
céré@@ 28115
lever 28114
Red 28101
traces 28097
Prince 28092
Cap 28074
envir@@ 28066
CO@@ 28065
lave 28056
nomin@@ 28040
88 28022
Cav@@ 28020
portrait 28013
Et@@ 28010
ung 28007
Ty@@ 28005
empar@@ 27995
meille@@ 27988
Lord 27976
erland@@ 27961
68 27935
Munich 27934
maç@@ 27928
placement 27901
Florence 27893
Fri@@ 27890
Ing@@ 27883
ei 27878
bases 27859
Lis@@ 27836
Germain 27833
faces 27823
leader 27815
tic 27806
Gol@@ 27794
alphab@@ 27792
impres@@ 27791
Vau@@ 27787
aka 27784
yd@@ 27783
lov@@ 27776
favorable 27767
pole 27764
81 27715
ash 27683
cien 27683
72 27654
Long@@ 27638
prosp@@ 27627
Luc 27617
list@@ 27598
93 27596
lim@@ 27595
mathém@@ 27591
far@@ 27580
Eur@@ 27573
zo 27558
neur@@ 27556
56 27551
chor@@ 27545
accessible 27535
annul@@ 27528
discipline 27514
bos@@ 27497
vec@@ 27492
AN@@ 27481
Company 27476
Prague 27468
mér@@ 27447
relief 27428
bandes 27401
atom@@ 27400
danger@@ 27398
min 27397
amen@@ 27395
serie 27395
description 27371
itié 27347
Congo 27319
Dominique 27317
vall@@ 27306
estig@@ 27294
embr@@ 27290
che@@ 27285
Super@@ 27267
amie 27264
oli 27260
1908 27255
Julien 27255
violence 27242
myth@@ 27238
cois 27234
sul@@ 27233
les@@ 27231
71 27220
othèque 27219
mac@@ 27212
Plan@@ 27203
Ak@@ 27191
unit 27186
Scott 27180
hél@@ 27165
qui@@ 27145
volumes 27143
insp@@ 27142
chen@@ 27135
Eng@@ 27131
consist@@ 27113
descend@@ 27108
possession 27101
enni@@ 27093
ophi@@ 27091
habitat 27089
Mand@@ 27083
cite 27081
bru@@ 27080
Doc@@ 27079
lers 27059
Hir@@ 27053
Syn@@ 27049
Dj@@ 27040
agog@@ 27032
util@@ 27010
Sic@@ 26998
Sig@@ 26991
79 26983
Hon@@ 26983
Mit@@ 26980
cri@@ 26970
hos@@ 26949
Bran@@ 26931
polé@@ 26930
King 26924
etti 26918
96 26896
aki 26886
Den@@ 26879
Rad@@ 26874
ograp@@ 26852
Fal@@ 26849
Dam@@ 26833
putation 26831
machine 26824
Jan@@ 26823
Iran 26822
document 26820
bach 26799
sang@@ 26795
# 26789
glaci@@ 26785
Cos@@ 26779
Olympi@@ 26776
responsables 26774
eo 26769
relev@@ 26759
Lan@@ 26747
acher 26747
user 26739
Champ@@ 26738
dict@@ 26728
vul@@ 26727
Person@@ 26721
confirm@@ 26712
municipales 26711
fruits 26707
rare 26688
traite 26683
Vend@@ 26681
ministr@@ 26659
we@@ 26657
jan 26652
Open 26630
Pa@@ 26626
Ci@@ 26622
76 26621
ory 26620
correspondent 26609
absor@@ 26604
machines 26601
fas@@ 26595
four 26595
Plat@@ 26588
anges 26566
Nu@@ 26565
Ori@@ 26548
contest@@ 26546
radic@@ 26545
Direction 26543
anthro@@ 26540
Anna 26539
Nom@@ 26523
una 26512
glo@@ 26502
Lab@@ 26485
utes 26481
test 26479
.. 26455
bol@@ 26447
86 26429
Cab@@ 26426
Vit@@ 26422
Walter 26420
DVD 26415
evard 26403
ham 26399
Arab@@ 26383
Sel@@ 26382
isser 26381
Comm@@ 26376
orth@@ 26352
alp@@ 26344
heb@@ 26336
ute 26330
Direc@@ 26326
Karl 26318
ington 26316
Fa@@ 26314
Dol@@ 26309
Roch@@ 26292
Rap@@ 26287
sible 26277
Situ@@ 26272
pyr@@ 26264
EP 26263
enqu@@ 26261
150 26254
cho 26253
Kor@@ 26227
Bâ@@ 26212
Mer 26207
transformation 26190
ourg 26184
pis@@ 26184
Boston 26178
innov@@ 26168
91 26162
RC 26161
ord 26159
\ 26158
eri 26156
affirm@@ 26150
consol@@ 26145
lies 26145
Lig@@ 26142
Kam@@ 26120
ine@@ 26114
efforts 26087
agents 26085
Loc@@ 26079
Fland@@ 26074
Nic@@ 26072
tropolit@@ 26071
Street 26066
Pre@@ 26053
fera 26053
Pen@@ 26050
ron@@ 26046
sym@@ 26041
94 26040
baseball 26030
alien 26023
abol@@ 26021
usi@@ 26019
transmission 26010
oll@@ 26000
erre 25998
aph@@ 25985
ist 25978
secret 25959
Nancy 25957
ć 25947
rose 25930
recher@@ 25923
champi@@ 25910
78 25905
Bab@@ 25899
Chili 25891
ius 25888
ament 25882
1906 25873
austr@@ 25872
1880 25868
comment 25862
aul@@ 25860
sent@@ 25854
dri@@ 25851
propul@@ 25843
Vel@@ 25841
Tra@@ 25839
Guy@@ 25810
acle 25802
han 25779
Ford 25749
continent 25742
spec@@ 25741
Hau@@ 25727
aç@@ 25710
Pres@@ 25682
Jones 25670
pel 25670
Roc@@ 25657
asti@@ 25656
iro 25640
séri@@ 25618
well 25616
ock 25614
oyer 25614
hectar@@ 25609
uve 25609
Front 25606
introduction 25594
cup@@ 25593
recens@@ 25592
cht@@ 25583
ech@@ 25582
Rob@@ 25577
touch@@ 25577
sports 25573
wa 25573
caract@@ 25572
terror@@ 25569
99 25568
US@@ 25568
publications 25551
fal@@ 25549
edi 25548
ui 25543
pollu@@ 25536
syst@@ 25535
1907 25530
coalition 25530
vière 25491
pre@@ 25475
Grenoble 25465
tonnes 25464
Red@@ 25459
intention 25422
sanctu@@ 25419
aste 25411
ke@@ 25410
changes 25401
Guin@@ 25375
Wor@@ 25374
agres@@ 25364
économ@@ 25362
enterr@@ 25359
dition 25350
ral@@ 25341
02 25336
Rouen 25330
définiti@@ 25329
collectiv@@ 25328
vier 25328
uf 25325
allo 25321
Lec@@ 25291
cm 25284
84 25274
german@@ 25272
89 25265
traj@@ 25265
bone 25259
mm 25253
Q 25246
atus 25246
instrument 25240
nées 25212
destination 25209
franchise 25207
fant@@ 25202
méda@@ 25180
ua 25171
Dau@@ 25167
hie 25146
expres@@ 25136
facilit@@ 25136
92 25128
appe 25109
institution 25103
rection 25096
productions 25090
Rel@@ 25081
cler@@ 25072
Naples 25066
59 25059
rey 25051
Z 25049
alim@@ 25046
adj@@ 25044
Anti@@ 25025
ika 25020
onom@@ 25002
mente 24998
canon 24988
anda 24985
istre 24974
Mis@@ 24969
ficie 24964
Not@@ 24953
Cham@@ 24949
vé 24947
influ@@ 24946
domesti@@ 24940
wood 24937
Y 24930
Victoria 24925
Ali 24924
Varso@@ 24922
eccl@@ 24914
cost@@ 24897
Tu@@ 24893
ill 24887
dimension 24881
porta 24881
crist@@ 24880
itage 24876
Cot@@ 24871
quer@@ 24846
approxim@@ 24844
PC 24838
Awards 24836
1904 24831
offensive 24824
Dal@@ 24810
Ig@@ 24807
régi@@ 24789
Isab@@ 24784
ä@@ 24781
ases 24776
1901 24775
Rich@@ 24772
Slov@@ 24771
osa 24763
87 24758
1915 24755
kar@@ 24749
stock@@ 24740
Manuel 24734
sculpture 24719
ury 24712
rab@@ 24710
Sin@@ 24708
hon@@ 24707
Pier@@ 24705
Montpellier 24701
cu 24691
clin@@ 24684
Blan@@ 24680
Lin@@ 24668
red@@ 24662
ath 24660
restr@@ 24639
Pel@@ 24637
IE@@ 24627
lan 24620
Lors@@ 24618
amateur 24612
mê@@ 24609
figures 24602
orph@@ 24602
clip 24591
trom@@ 24586
Adam 24570
Williams 24567
Don 24565
assistant 24561
guitar@@ 24554
lav@@ 24551
aver@@ 24540
1860 24535
ny@@ 24534
serve 24525
vidence 24509
maximale 24507
Parall@@ 24503
Pri@@ 24501
stell@@ 24501
Salon 24495
val 24491
Rouge 24481
op 24478
poss@@ 24474
los@@ 24469
1890 24466
andi 24461
civ@@ 24460
vide 24448
ago@@ 24444
pers@@ 24437
ald 24409
norm@@ 24390
otr@@ 24387
acces@@ 24384
Activ@@ 24376
expansion 24372
Ferdinand 24363
Tours 24344
Composition 24343
dres 24340
ener 24332
èrement 24330
elier 24322
Man 24316
AR 24313
apos@@ 24304
oué 24295
dil@@ 24286
Carlos 24271
attr@@ 24269
Corn@@ 24265
Les@@ 24253
P. 24239
Auvergne 24229
etta 24208
simples 24207
ulu 24185
1909 24171
ax 24171
acquisition 24168
parall@@ 24168
César 24158
fich@@ 24156
Pas 24154
98 24151
Metz 24136
perman@@ 24132
charges 24126
idi@@ 24124
fur@@ 24122
Ka@@ 24120
reb@@ 24102
Ł@@ 24102
Rh@@ 24093
oride 24090
Sen@@ 24072
faç@@ 24072
relative 24063
ende 24062
dies 24061
Mu@@ 24055
the@@ 24051
Joe 24041
proclam@@ 24033
roch@@ 24032
haus@@ 24031
Sir 24030
orbitales 24026
participants 24023
compren@@ 24019
pros@@ 24016
éry 24007
Ga@@ 24006
Buc@@ 24005
ivent 23997
Nat@@ 23994
Alexander 23993
fort@@ 23988
Tourn@@ 23968
Giovanni 23957
emis 23945
épis@@ 23938
Ot@@ 23934
escope 23932
Fac@@ 23931
uns 23926
Gilles 23925
rique 23925
Ach@@ 23918
pharm@@ 23907
verg@@ 23906
quin 23902
reconstruction 23888
Society 23876
pit@@ 23867
1916 23860
gares 23857
gn@@ 23855
RT@@ 23846
Mak@@ 23840
ado@@ 23825
traits 23824
ffe 23818
ibl@@ 23818
cio 23814
dis 23814
minim@@ 23808
ett 23807
incorpor@@ 23798
XIII 23797
propor@@ 23796
gor@@ 23769
nau@@ 23757
acts 23756
Chem@@ 23754
cum@@ 23754
observation 23752
S. 23749
uri 23739
Maj@@ 23736
communications 23727
IC@@ 23725
claves 23720
divor@@ 23719
Pot@@ 23716
08 23703
ever 23700
applications 23697
01 23695
ann 23693
Versailles 23692
sph@@ 23690
zy@@ 23675
Lem@@ 23659
villa 23647
Hans 23639
Love 23634
err@@ 23629
Cel@@ 23627
cules 23610
Pav@@ 23583
Tit@@ 23574
Sac@@ 23569
bord@@ 23566
fum@@ 23566
conces@@ 23564
Capit@@ 23556
Acc@@ 23554
espagn@@ 23554
Vir@@ 23549
astron@@ 23549
aper@@ 23546
ids 23545
Samuel 23540
cham@@ 23536
ech 23507
ingen 23496
pop 23492
oxy@@ 23485
virus 23481
çu 23481
pes@@ 23471
expéri@@ 23466
dimensions 23461
import@@ 23456
ota 23447
Win@@ 23441
Chapelle 23434
écol@@ 23433
1848 23429
oul@@ 23424
NBA 23422
len@@ 23398
crime 23396
danger 23390
laur@@ 23376
œur 23374
Pér@@ 23368
convention 23366
po 23360
urgie 23343
magné@@ 23338
confl@@ 23330
Son@@ 23325
On@@ 23307
Carl 23292
acier 23286
abe 23283
raf@@ 23283
tige 23282
bis@@ 23274
trophe 23262
oque 23250
lés 23243
mam@@ 23236
spiritu@@ 23231
ce@@ 23229
Rennes 23223
signature 23222
mail@@ 23211
Adri@@ 23205
oy 23201
Tol@@ 23172
SP@@ 23162
ava 23155
Tam@@ 23144
anth@@ 23140
Antiqu@@ 23131
yle 23113
bons 23105
hand@@ 23096
inqui@@ 23094
Johnson 23090
occ@@ 23076
rog@@ 23076
Kon@@ 23071
Jos@@ 23066
Ky@@ 23066
adis 23056
Lac 23051
tend 23051
abl@@ 23050
TE@@ 23048
terrestre 23028
stru@@ 23027
erne 23022
ander@@ 23005
enz@@ 22997
mo 22985
1902 22968
post 22957
ouvr@@ 22956
ew@@ 22940
rain 22933
Toronto 22930
dent 22924
za@@ 22921
ço@@ 22921
Jam@@ 22917
Virgin@@ 22909
çoit 22908
candid@@ 22902
Fou@@ 22896
FA 22895
junior 22887
All@@ 22886
RS 22876
06 22867
Hay@@ 22861
istan 22860
cousin 22853
Palmar@@ 22852
Oise 22847
69 22846
migration 22839
Hug@@ 22836
sid@@ 22824
Mic@@ 22819
immédi@@ 22802
ukrain@@ 22800
Dun@@ 22796
quier 22792
1830 22782
ters 22764
Jan 22761
indig@@ 22759
lun@@ 22736
éroï@@ 22736
uter 22734
Dre@@ 22724
bau@@ 22716
Ontario 22710
Amsterdam 22708
R. 22708
camps 22707
Aix 22701
Wol@@ 22683
bo 22675
annes 22668
Tim@@ 22666
itr@@ 22665
L. 22659
VII 22658
inj@@ 22646
Racing 22628
abr@@ 22628
ū@@ 22626
cible 22621
orial 22617
champ@@ 22606
Brown 22573
1903 22572
carr@@ 22570
satis@@ 22565
tern@@ 22556
Gil@@ 22554
libres 22531
gaz@@ 22528
non@@ 22516
tific@@ 22513
consul@@ 22508
ections 22506
Barr@@ 22487
od 22484
ee 22467
examen 22464
env@@ 22457
Cant@@ 22455
Da@@ 22439
Alliance 22432
niers 22423
All 22422
Ernest 22420
Ami@@ 22418
capac@@ 22412
clients 22406
Hill 22396
manif@@ 22395
Arn@@ 22382
SE@@ 22382
Boh@@ 22365
Kong 22361
UA 22352
anime 22333
DC 22324
hen@@ 22320
capital 22317
tru@@ 22316
salon 22304
refl@@ 22303
Deu@@ 22293
D. 22291
protec@@ 22282
Dum@@ 22277
bus@@ 22271
mess@@ 22270
cancer 22266
Félix 22264
respect 22252
gue 22248
Temple 22247
Ku@@ 22245
music@@ 22238
Sem@@ 22237
Fol@@ 22236
urn@@ 22229
paro@@ 22225
Cup 22216
aya 22212
ese 22211
gies 22209
Cass@@ 22205
ducation 22205
Ob@@ 22196
jury 22195
Bot@@ 22193
group@@ 22185
AM@@ 22178
mobile 22171
trag@@ 22169
Mart@@ 22163
Bill 22160
Cad@@ 22151
burg 22132
ress@@ 22132
gri@@ 22131
servant 22120
Gren@@ 22119
Jackson 22119
Kan@@ 22108
minimum 22105
Harry 22070
White 22069
Ard@@ 22066
Mars 22065
Bavi@@ 22064
Chris 22064
ouvern@@ 22052
colonies 22044
Som@@ 22014
Aub@@ 22011
cass@@ 22005
web 22004
pertur@@ 21999
tap@@ 21993
atten@@ 21980
ene 21977
gard@@ 21972
opo@@ 21956
Herz@@ 21948
molé@@ 21943
Four@@ 21942
pos 21941
bin 21937
Tem@@ 21921
admir@@ 21907
Convention 21905
E. 21887
adémie 21877
afflu@@ 21876
doctr@@ 21876
Blanc 21874
Navy 21848
dial@@ 21841
Bag@@ 21840
07 21837
sag@@ 21818
omb 21806
83 21801
discus@@ 21791
Chan@@ 21789
Bruno 21783
préci@@ 21783
repos@@ 21771
établ@@ 21770
PS@@ 21768
attend@@ 21760
cus 21754
oa 21747
Flor@@ 21742
Tan@@ 21742
obst@@ 21738
perspective 21735
ę@@ 21732
Reims 21717
Rose 21717
Tony 21712
provin@@ 21710
itude 21708
Nationale 21700
psychi@@ 21698
ums 21692
arron@@ 21659
stati@@ 21655
House 21653
Van@@ 21651
narr@@ 21651
ë 21650
mom@@ 21649
homosexu@@ 21646
Martin@@ 21641
cide 21639
color@@ 21626
gris 21618
1793 21608
bal 21601
Hum@@ 21597
pren@@ 21595
Constantinople 21589
oud 21580
ignan 21577
modific@@ 21575
confront@@ 21564
Field 21553
podium 21531
sections 21531
chanc@@ 21528
branches 21523
sey 21523
Pir@@ 21519
hou@@ 21511
1898 21491
dol@@ 21478
ingue 21462
gio 21451
hosp@@ 21451
Museum 21448
Saône 21445
aspects 21436
Clermont 21431
tribu 21431
ec 21424
Concer@@ 21423
cardi@@ 21423
Hou@@ 21417
inspec@@ 21410
optim@@ 21408
message 21400
Cau@@ 21397
Rock 21397
ved@@ 21395
West@@ 21393
Wat@@ 21392
gel@@ 21392
conflu@@ 21388
conduc@@ 21375
1871 21374
AN 21374
low 21374
Nag@@ 21364
tam@@ 21358
Team 21350
prestigi@@ 21349
Big 21335
Lau@@ 21334
Mike 21330
mexic@@ 21328
Sw@@ 21326
Liber@@ 21320
Fu@@ 21313
Ash@@ 21287
tons 21270
enberg 21266
ago 21265
Lit@@ 21258
Maine 21236
You 21231
médec@@ 21229
ergie 21225
abeth 21224
iy@@ 21223
rh@@ 21221
has@@ 21219
regard 21211
ake 21207
Ball@@ 21205
maî@@ 21200
Sport 21195
Europ@@ 21191
Young 21183
ip@@ 21183
itat 21182
Envir@@ 21172
Roland 21161
ension 21161
Aquitaine 21159
Steve 21159
plas@@ 21156
nien 21151
Rue 21141
Canal 21138
tiles 21137
lines 21127
professionn@@ 21124
cription 21119
Production 21101
One 21093
arre 21084
nobles 21082
Wi@@ 21076
tension 21076
05 21068
Bell@@ 21065
Vis@@ 21059
Orch@@ 21052
Sports 21052
1896 21040
agan 21040
IX 21028
Cul@@ 21025
Ret@@ 21022
sanc@@ 21020
Hen@@ 21019
tut@@ 21016
proces@@ 21014
14,@@ 21008
curr@@ 20999
wan 20995
Shi@@ 20994
amor@@ 20981
Log@@ 20974
synth@@ 20973
Pass@@ 20972
Fle@@ 20970
Kur@@ 20968
Mans 20967
syl@@ 20960
esté 20958
eti@@ 20951
Off@@ 20950
naval 20950
endro@@ 20945
Diff@@ 20944
Hong 20932
pion@@ 20925
Calais 20924
Kin@@ 20913
lès 20906
Chau@@ 20901
11@@ 20899
Top 20897
cen@@ 20888
ity 20883
mensu@@ 20873
jo 20872
OS 20870
ube 20863
Conn@@ 20861
guer@@ 20843
Jar@@ 20837
Bob 20834
Code 20815
impul@@ 20812
gau@@ 20793
vus 20793
Bureau 20790
eth 20789
magistr@@ 20782
diz@@ 20766
fres@@ 20764
Sk@@ 20757
path@@ 20754
conventi@@ 20747
Conservat@@ 20738
australi@@ 20737
Sz@@ 20727
opinion 20722
Arg@@ 20717
1889 20709
olo 20705
house 20702
Bulgar@@ 20695
sovi@@ 20692
moy@@ 20683
CI@@ 20665
asin 20664
Chal@@ 20661
satellite 20658
CS@@ 20653
Pro 20644
portraits 20643
lante 20638
Lincoln 20635
ř@@ 20632
aviation 20628
Gou@@ 20627
physi@@ 20619
97 20617
esque 20605
Cher@@ 20586
sprint 20576
neutr@@ 20575
Madeleine 20570
Charlotte 20562
Six 20552
vet 20541
super 20533
impossible 20520
ž@@ 20519
vill@@ 20510
ibles 20503
notes 20489
Soc@@ 20480
inspiration 20480
iment@@ 20471
rez 20469
anique 20463
UN@@ 20457
affili@@ 20451
internet 20448
ieur@@ 20437
garanti@@ 20433
chien 20432
Johann 20430
liber@@ 20425
1895 20423
flot@@ 20409
Pad@@ 20406
Eric 20404
Award 20400
Bonn@@ 20382
grandi@@ 20380
Nam@@ 20369
Bus@@ 20368
argum@@ 20368
AD@@ 20364
CA 20364
Leg@@ 20360
fantas@@ 20357
04 20349
bs 20349
clan 20345
gen 20344
North 20339
Bak@@ 20330
wall@@ 20329
hr@@ 20321
suscep@@ 20309
alla 20307
erte 20307
king 20306
probable 20306
circons@@ 20302
Pascal 20300
restaurant 20281
{ 20281
ensi@@ 20276
han@@ 20271
└ 20266
1850 20256
prest@@ 20223
× 20205
Deb@@ 20201
$ 20190
ras 20185
Ble@@ 20180
tribus 20178
eville 20174
ologi@@ 20163
top 20150
Clar@@ 20148
Cir@@ 20144
bar 20133
instruction 20130
ø@@ 20130
anz@@ 20128
occidental 20124
ther 20114
prison@@ 20113
bury 20108
Diego 20103
Miss 20089
cous@@ 20076
tor 20051
Post@@ 20041
Star@@ 20035
kr@@ 20026
H. 20024
Route 20011
1885 20005
1899 20004
Mario 19995
conform@@ 19994
support 19991
Toul@@ 19990
600 19988
03 19968
Res@@ 19966
Sing@@ 19963
tox@@ 19955
traditions 19953
urt 19938
photograp@@ 19936
tois 19929
Kol@@ 19928
variable 19918
Garde 19915
Sophie 19909
chrom@@ 19902
Prot@@ 19901
solutions 19889
urg 19885
technologies 19878
Group 19877
Island 19863
evi@@ 19847
Sul@@ 19844
aria 19844
sax@@ 19844
din 19839
Bla@@ 19832
circu@@ 19811
elin 19806
Benjamin 19805
sold@@ 19804
09 19803
Eff@@ 19797
lu 19796
portation 19788
ader 19784
enter@@ 19776
Donald 19754
studios 19750
over@@ 19726
Blanche 19725
asa 19722
foss@@ 19720
dra@@ 19718
Alexand@@ 19716
800 19709
primiti@@ 19709
gâ@@ 19705
fra@@ 19702
distinction 19699
future 19691
1893 19682
café 19673
sky 19672
“ 19668
matches 19666
AP@@ 19662
sessions 19659
1897 19649
morph@@ 19638
tibles 19612
Elizabeth 19605
Center 19599
continental 19597
MA 19584
incap@@ 19574
kilom@@ 19573
G. 19567
ska 19563
chance 19562
auto 19543
phénom@@ 19535
arti@@ 19531
diver@@ 19531
aristoc@@ 19523
Friedrich 19522
osp@@ 19521
vo 19504
metal 19502
graph@@ 19493
Cri@@ 19487
13,@@ 19486
aum@@ 19478
net@@ 19466
minute 19459
cus@@ 19452
Brest 19449
investi@@ 19442
Hamilton 19439
Princip@@ 19437
Carlo 19431
extra@@ 19430
migr@@ 19427
ons@@ 19418
stric@@ 19417
fasc@@ 19415
ish 19410
Indi@@ 19385
chers 19381
Alice 19379
isième 19365
descendants 19364
DA 19359
pli@@ 19355
approv@@ 19349
Kn@@ 19348
plic@@ 19340
incendi@@ 19331
dém@@ 19321
emble 19321
diagnos@@ 19319
rates 19319
Centr@@ 19287
Luis 19282
set 19281
nit@@ 19274
eng 19273
indis@@ 19270
A.@@ 19268
DE@@ 19267
gi 19255
Hitler 19245
CH@@ 19243
ple 19230
Dec@@ 19229
tia 19225
thiop@@ 19222
Architecture 19221
virtu@@ 19221
oma 19214
Office 19189
Wo@@ 19184
Tab@@ 19179
paci@@ 19162
Gran@@ 19161
act 19160
courts 19159
ause 19150
leg@@ 19148
Point 19144
ism@@ 19144
Alli@@ 19143
1867 19138
simultan@@ 19122
Hugo 19121
répon@@ 19091
divin@@ 19064
1790 19061
Adol@@ 19061
Gusta@@ 19061
Lag@@ 19057
Sciences 19056
ondes 19056
fabric@@ 19051
noi 19050
Alphon@@ 19042
surprise 19040
pic 19039
bran@@ 19038
ruption 19030
enl@@ 19028
thr@@ 19028
Place 19023
umin@@ 19014
Publ@@ 18999
seu@@ 18995
mad@@ 18994
omp@@ 18993
ud 18993
imb@@ 18992
imoine 18966
écu@@ 18957
banc@@ 18954
Chin@@ 18951
Survey 18947
pro 18946
Justice 18944
Sho@@ 18944
Moselle 18919
Riv@@ 18916
mini 18904
arrang@@ 18902
Phil@@ 18893
MS 18891
Formation 18886
alis 18881
Bah@@ 18878
tum@@ 18875
serves 18874
liqui@@ 18873
Bertrand 18862
Kou@@ 18859
Fern@@ 18851
Fig@@ 18850
incer@@ 18850
ER@@ 18837
suppl@@ 18835
12,@@ 18830
Covid 18824
Nik@@ 18824
plate 18823
Irak 18811
larg@@ 18803
pilot@@ 18803
vertic@@ 18801
Mod@@ 18791
amide 18782
Ry@@ 18780
” 18776
patients 18763
pian@@ 18762
eva 18760
Corps 18754
deste 18754
rass@@ 18747
compati@@ 18741
opol@@ 18735
aran@@ 18728
MP 18709
Pos@@ 18709
substitu@@ 18699
entreten@@ 18684
shire 18684
grand@@ 18672
lumin@@ 18668
Haw@@ 18661
tests 18652
AT@@ 18651
ū 18645
tunnel 18644
oc 18639
ando 18637
mill@@ 18637
Illinois 18627
Roy 18625
server 18622
1892 18612
Sub@@ 18601
tan 18596
Lewis 18583
eto 18582
miss@@ 18566
Wilson 18565
00@@ 18555
Sydney 18549
British 18541
constante 18539
oslav@@ 18538
photo 18537
ú@@ 18531
entrepren@@ 18522
ident@@ 18512
Natur@@ 18502
ji@@ 18488
till@@ 18488
licenci@@ 18483
artisti@@ 18475
Bay 18473
initial 18466
XIV 18461
Chamb@@ 18456
onge 18456
concili@@ 18436
bien@@ 18434
romanti@@ 18433
rur@@ 18429
bis 18425
Augus@@ 18419
1789 18418
drome 18414
eures 18414
RI@@ 18413
Gh@@ 18411
dus 18400
configur@@ 18397
ula 18385
ister@@ 18374
Ric@@ 18368
kl@@ 18367
iteur 18365
nombres 18364
win 18360
èves 18356
1840 18353
ken 18352
sul 18351
Pil@@ 18350
Om@@ 18343
Monaco 18341
God@@ 18340
frac@@ 18337
Ass@@ 18332
hyper@@ 18329
oine 18327
endum 18315
tribut@@ 18308
Xavier 18302
1881 18294
Hauts 18281
Dist@@ 18275
tification 18275
sl@@ 18260
municipal@@ 18250
gan@@ 18236
issues 18235
Lausanne 18230
ST@@ 18230
opus 18230
option 18225
subst@@ 18223
auth@@ 18218
affa@@ 18207
laine 18199
Shar@@ 18197
occas@@ 18194
onal@@ 18194
SO@@ 18191
æ@@ 18169
enten@@ 18164
signal 18150
Anton@@ 18143
Had@@ 18143
Brun@@ 18134
arbi@@ 18120
élém@@ 18118
1876 18114
notables 18113
1878 18111
izi@@ 18103
anus 18099
IC 18093
Canton 18089
Oxford 18083
Rous@@ 18082
philos@@ 18073
Esc@@ 18069
euve 18060
Times 18053
eck 18044
culmin@@ 18039
Zur@@ 18033
Cla@@ 18032
Alb@@ 18024
1894 18023
compilation 18023
Dav@@ 18015
Gilbert 18014
émique 18014
South 18013
terri@@ 18006
iture 18003
dans@@ 18002
Davis 17990
Rol@@ 17973
core 17966
possé@@ 17962
stabil@@ 17957
rag@@ 17955
orch@@ 17946
F1 17935
Din@@ 17934
F. 17933
simul@@ 17932
susp@@ 17927
onge@@ 17919
1886 17910
trib@@ 17905
onau@@ 17903
mang@@ 17888
CD@@ 17887
permanente 17884
refu@@ 17866
olet 17853
Rav@@ 17842
Windows 17841
ight 17835
Ant@@ 17829
ye@@ 17819
vera 17816
oton 17813
ín 17812
compositions 17807
cap 17805
Jersey 17803
joint 17802
ator 17798
Ober@@ 17793
Renault 17782
eton 17781
W. 17778
patron 17765
Champagne 17760
iefs 17750
Alex 17746
Research 17738
interrog@@ 17726
Hamb@@ 17720
onia 17717
ó 17715
live 17712
iff@@ 17711
Mik@@ 17706
Ki@@ 17696
uma 17678
Fem@@ 17670
etto 17668
London 17652
ayer 17643
In 17641
Voy@@ 17640
Championship 17630
quelle 17630
Live 17623
Philadel@@ 17621
algorith@@ 17617
istr@@ 17611
infrastr@@ 17604
Rot@@ 17602
brill@@ 17591
Sher@@ 17587
ast 17586
chet 17578
bombar@@ 17571
São 17569
Vladimir 17564
Mid@@ 17557
District 17549
graves 17542
Explorer 17541
cyc@@ 17539
ectives 17534
Taylor 17533
we 17531
120 17520
Porto 17517
Jacob 17511
enger 17510
airs 17508
roy 17505
UCI 17504
iki 17503
las@@ 17500
zan@@ 17491
Boy@@ 17489
CC@@ 17488
arbus@@ 17477
Blue 17469
Lat@@ 17467
Canadi@@ 17466
Juli@@ 17458
adi 17452
rebel@@ 17452
Kim 17447
Venezuela 17445
1888 17442
VIII 17439
Hydro@@ 17432
ption 17425
But@@ 17423
éten@@ 17421
250 17420
amas 17417
ft 17412
cau@@ 17407
kg 17407
kov 17406
districts 17401
Tran@@ 17395
1882 17389
idar@@ 17386
Max@@ 17383
kov@@ 17378
imag@@ 17375
Met@@ 17366
sex@@ 17362
Rub@@ 17360
Real 17359
Stan@@ 17357
filtr@@ 17347
Turin 17339
gs 17333
ack@@ 17330
agi@@ 17329
ido 17325
pir@@ 17325
state 17323
sson 17320
nam@@ 17317
1891 17316
créd@@ 17315
lob@@ 17315
talent 17313
Me 17302
Bres@@ 17301
Nan@@ 17298
ude 17291
report@@ 17282
merc@@ 17280
satell@@ 17247
das 17234
Mess@@ 17233
design 17230
timents 17227
1884 17226
eri@@ 17225
ignor@@ 17225
Moul@@ 17224
fa 17218
Lanc@@ 17216
preuves 17209
agement 17207
eure 17206
Long 17195
dir 17190
tal 17189
dévelop@@ 17187
ticul@@ 17172
Gon@@ 17154
ista 17142
1000 17140
anna 17139
Aires 17136
ilde 17132
ologies 17132
Ast@@ 17127
Bourbon 17117
mono@@ 17108
Cuba 17107
éal 17102
kan@@ 17100
Pod@@ 17095
ope 17092
Castil@@ 17086
contribution 17077
avant@@ 17076
isons 17073
centrales 17069
Green 17054
Arc@@ 17051
aid@@ 17050
Mill@@ 17047
ng@@ 17043
University 17039
Š@@ 17035
undi 17034
manipul@@ 17027
invit@@ 17023
yes 17021
Sun@@ 17020
Film 17017
Pennsyl@@ 17012
wald 17012
alle 17010
azi 16988
Madame 16987
Cannes 16980
argent@@ 16959
mir 16959
orie 16957
Kas@@ 16954
radio@@ 16951
bit@@ 16944
Stephen 16941
oke 16941
ect 16938
atori@@ 16929
yan@@ 16926
musulman@@ 16924
Oscar 16916
Franz 16914
Laf@@ 16906
lige 16906
Fiat 16893
DF 16891
Institute 16891
ă@@ 16890
Vé@@ 16888
esclav@@ 16880
causes 16876
Che@@ 16865
mel@@ 16864
motiv@@ 16860
Sum@@ 16859
implic@@ 16851
nik 16850
Mohamed 16837
BBC 16836
Nam 16831
Emp@@ 16820
indu@@ 16817
yo 16809
titr@@ 16805
ö@@ 16805
oslov@@ 16802
maj@@ 16800
Suz@@ 16796
Francesco 16790
kin@@ 16788
rural 16786
sap@@ 16784
1887 16773
blin 16765
monum@@ 16760
ken@@ 16753
Div@@ 16746
Ev@@ 16746
Mér@@ 16745
River 16742
hir 16740
II@@ 16739
icon@@ 16734
partement 16723
rand@@ 16718
Brian 16702
key 16701
Gaulle 16695
† 16692
Tibet 16690
Î@@ 16678
tables 16673
Face 16652
tri 16650
Profes@@ 16641
Jim 16637
Indon@@ 16636
Sm@@ 16632
ept 16631
Orange 16629
ombe 16629
brut@@ 16623
curité 16604
anal@@ 16598
brig@@ 16598
Wilhelm 16596
1875 16591
Concep@@ 16576
essor 16575
tropic@@ 16572
suspen@@ 16568
insur@@ 16562
Eli@@ 16558
tz 16554
coc@@ 16541
ashi 16539
Sup@@ 16529
Pedro 16519
Syl@@ 16519
Ind@@ 16518
cryp@@ 16510
gend@@ 16510
Andr@@ 16508
Wall@@ 16508
ône 16506
Hus@@ 16502
cé 16502
Seg@@ 16486
Villa 16485
My 16479
Wide 16479
Kl@@ 16476
psy@@ 16475
Brunswick 16461
volution 16459
FM 16458
ept@@ 16445
protoc@@ 16444
Chir@@ 16442
icop@@ 16442
effort 16440
variante 16439
more 16429
Territ@@ 16425
prud@@ 16423
Kaz@@ 16412
Gros@@ 16393
fans 16393
Chron@@ 16388
Sain@@ 16387
Andrew 16382
She@@ 16373
Ran@@ 16371
cend@@ 16364
conv@@ 16362
musicales 16359
1863 16345
Jane 16342
East 16340
Ivan 16327
absol@@ 16321
00 16319
apie 16318
Premi@@ 16317
Buenos 16315
parent 16300
oo 16299
berger 16297
nh@@ 16286
carre@@ 16284
iments 16273
1883 16264
Philippines 16257
Mach@@ 16244
10,@@ 16237
Lady 16236
coordin@@ 16233
Infr@@ 16231
Mam@@ 16231
dal@@ 16231
1868 16225
Ohio 16221
inclin@@ 16221
Sarah 16218
Central 16212
Alan 16203
nombr@@ 16203
vacc@@ 16200
Forces 16197
tribun@@ 16188
gre@@ 16172
fruit 16170
Card@@ 16168
Douglas 16168
ATP 16165
rit 16161
eller 16160
ben 16149
singles 16137
eman 16136
17@@ 16131
Whit@@ 16128
cord@@ 16123
ications 16120
amin@@ 16113
tube 16111
NE@@ 16110
yen 16092
bic@@ 16089
1872 16084
Anthony 16080
alter@@ 16077
ili 16076
ô 16074
suicide 16071
Chel@@ 16066
Kab@@ 16066
Tel@@ 16062
conversion 16057
isc@@ 16056
Sib@@ 16048
mif@@ 16047
agon 16042
1815 16035
Manchester 16033
ike 16023
mar 16018
Const@@ 16014
comprom@@ 16013
teuse 16013
Prin@@ 16010
Johnny 16006
å@@ 16002
Nou@@ 15996
ace@@ 15995
puis@@ 15993
Cast@@ 15988
habilit@@ 15985
berge 15981
asses 15980
idence 15976
umi@@ 15976
Ji@@ 15975
interview 15975
tante 15974
Reb@@ 15972
did@@ 15965
ker@@ 15962
instruc@@ 15958
Cambridge 15956
New@@ 15950
ś@@ 15946
Reich 15942
Trin@@ 15939
ster@@ 15937
ão 15930
up 15929
Hur@@ 15927
réuss@@ 15911
Kit@@ 15908
issance 15908
Petr@@ 15906
1877 15905
Costa 15895
Gra@@ 15892
abri@@ 15891
Monte 15874
Alban@@ 15873
issements 15866
Euro 15862
Xi@@ 15862
App@@ 15859
Rech@@ 15856
corpor@@ 15855
Bible 15846
mig@@ 15845
1865 15843
pend@@ 15836
ku@@ 15827
Lap@@ 15825
Département 15824
ocy@@ 15823
appropri@@ 15822
politi@@ 15822
Nouv@@ 15818
orit@@ 15818
1861 15815
ric@@ 15812
Yam@@ 15809
immun@@ 15801
Camille 15791
Cru@@ 15786
enfer@@ 15782
worth 15779
inae 15776
IM@@ 15775
Manche 15764
ski@@ 15764
rum@@ 15761
ador 15759
ott 15754
rad@@ 15753
Fro@@ 15745
libr@@ 15741
Cath@@ 15737
avoc@@ 15727
session 15720
Bog@@ 15719
1873 15715
1864 15707
Sam 15707
eni 15707
attein@@ 15704
suspension 15703
Actu@@ 15702
Dic@@ 15687
AL@@ 15680
Sak@@ 15680
Vos@@ 15675
1874 15669
jud@@ 15668
ag 15660
Entertainment 15658
Rod@@ 15657
Cé@@ 15653
mini@@ 15638
DJ 15625
ebr@@ 15624
name 15623
Lon@@ 15621
Series 15620
lus@@ 15613
Tos@@ 15601
ting 15595
èce 15569
Cô@@ 15565
Kom@@ 15559
Burkina 15553
lad@@ 15551
Agriculture 15548
campus 15548
assistance 15542
incident 15539
Bad@@ 15535
dates 15531
ń 15530
1879 15526
condi@@ 15522
feld 15520
Massachusetts 15513
ho 15502
pist@@ 15500
rectang@@ 15496
cali@@ 15482
subs@@ 15477
1792 15471
dur 15467
astre 15457
variantes 15457
HMS 15456
tain 15456
fall@@ 15453
agricul@@ 15445
ared 15444
instrum@@ 15444
valor@@ 15439
Mun@@ 15434
pair 15434
ays 15419
ush@@ 15417
confes@@ 15413
Aud@@ 15410
Sour@@ 15403
pid@@ 15383
humor@@ 15382
Lake 15378
phys@@ 15377
illo 15375
Faso 15371
stantin 15371
pun@@ 15370
aba 15340
Roche 15322
clar@@ 15321
èze 15315
Arizona 15314
Ful@@ 15310
1862 15309
Corporation 15299
corruption 15295
Laz@@ 15294
dige 15293
toman 15293
Jer@@ 15289
vainqu@@ 15281
wi@@ 15275
coff@@ 15266
issa 15260
FF@@ 15258
ust 15258
sens@@ 15252
RA 15248
comb@@ 15240
Anj@@ 15232
put 15222
Od@@ 15221
chlor@@ 15221
adh@@ 15218
Alexis 15215
lor@@ 15200
intern@@ 15199
any 15183
visu@@ 15180
uts 15175
Soci@@ 15174
participa 15174
raine 15169
America 15165
irland@@ 15159
Abraham 15156
Belle 15154
influences 15151
GT 15149
tible 15148
crimes 15147
old 15146
permanent 15145
esser 15144
‘ 15138
islature 15135
phosph@@ 15127
intens@@ 15120
gram@@ 15114
nez 15112
1869 15100
1,5 15085
adu@@ 15078
uh@@ 15073
PA 15062
hip@@ 15061
artic@@ 15056
Action 15055
1800 15043
clandest@@ 15038
Kevin 15036
bill@@ 15034
ost 15019
AM 14994
aveur 14983
lements 14983
rival@@ 14983
simpli@@ 14977
VI@@ 14967
Hi@@ 14963
AP 14958
apparti@@ 14957
anien 14955
Somme 14953
dest@@ 14953
Villen@@ 14951
war@@ 14942
ein 14932
acul@@ 14930
Bra@@ 14924
AI@@ 14922
marqués 14922
edi@@ 14916
Pop@@ 14910
Khan 14907
bir@@ 14901
aus 14898
Barth@@ 14896
Dani@@ 14891
not 14885
efs 14881
Là 14878
onna 14868
Mong@@ 14851
manga 14841
Cop@@ 14836
destroy@@ 14836
phrase 14831
Hollywood 14825
Jud@@ 14825
pard 14825
Fé@@ 14816
Earth 14815
Paulo 14813
ns 14813
S.@@ 14810
Vid@@ 14804
Bac@@ 14793
gis@@ 14785
ADN 14784
amer@@ 14780
Leb@@ 14775
I. 14774
TA 14773
iss 14766
ustr@@ 14764
• 14757
Gold@@ 14754
Nad@@ 14751
ning 14750
Wa@@ 14739
² 14739
Plan 14732
Express 14726
ape@@ 14714
gea 14711
Vich@@ 14708
anga 14706
ston 14703
Japon@@ 14700
Wood@@ 14700
ino@@ 14697
1851 14696
Vig@@ 14694
.com 14689
tit@@ 14679
audience 14676
rel 14664
plication 14662
extraordin@@ 14656
fri@@ 14656
any@@ 14655
iti 14655
Brig@@ 14654
ry@@ 14654
islam 14652
styl@@ 14649
Fur@@ 14645
addi@@ 14637
No 14633
trio 14626
Maxim@@ 14608
mortal@@ 14605
va@@ 14600
anticip@@ 14597
Duch@@ 14584
hier 14584
igh@@ 14582
Hip@@ 14574
Claire 14569
Ever@@ 14559
roc@@ 14549
Las 14547
inus 14547
bom@@ 14542
current 14542
Cit@@ 14541
Flam@@ 14533
ód@@ 14532
Anderson 14531
terres@@ 14529
guide 14519
AF 14516
Pyr@@ 14513
Suc@@ 14513
aro@@ 14511
sch 14508
Emper@@ 14504
bag@@ 14504
15,@@ 14495
sister 14490
star 14484
High 14483
Macédoine 14479
Wur@@ 14468
Donn@@ 14465
Med@@ 14464
MC 14446
ott@@ 14433
1801 14428
Azerba@@ 14423
Spe@@ 14417
Life 14412
Franco 14409
nouv@@ 14409
Entr@@ 14405
nu 14403
oriental 14402
Otto 14401
isis 14393
pain 14385
Lot@@ 14384
Pakistan 14384
accident@@ 14383
Coc@@ 14381
Eurovision 14381
bes@@ 14380
Billboard 14379
Budapest 14369
1855 14364
Castel@@ 14361
tice 14358
Occitanie 14355
Cher 14353
Gun@@ 14353
124@@ 14352
NH 14347
zant@@ 14343
Stanley 14340
Itali@@ 14338
borough 14336
yl 14335
Grec@@ 14324
Aragon 14323
ü@@ 14322
è 14318
Stockholm 14316
kins 14316
Camb@@ 14314
arbitr@@ 14311
Ferrari 14310
Tin@@ 14307
ulus 14304
Initi@@ 14290
Howard 14285
hibi@@ 14281
Academy 14279
Extr@@ 14274
omo 14274
ication 14270
passes 14269
restric@@ 14269
ebo@@ 14262
registr@@ 14262
Ray 14260
Maritime 14253
hard 14251
T. 14249
1859 14246
11,@@ 14237
Giuseppe 14236
Province 14227
Missouri 14226
Bom@@ 14222
sibl@@ 14222
1814 14205
Ivoire 14204
ě@@ 14194
pig@@ 14185
Pet@@ 14183
Statisti@@ 14182
Mem@@ 14180
iko 14176
Bonaparte 14170
Bud@@ 14168
hou 14142
Christine 14139
dule 14138
abb@@ 14135
agues 14133
Tib@@ 14119
ilit@@ 14119
Heinrich 14112
MP@@ 14099
Franche 14092
autobi@@ 14090
Fox 14084
athlon 14074
Carr@@ 14071
State 14060
assass@@ 14057
records 14054
stable 14054
Madagascar 14049
horiz@@ 14042
otyp@@ 14040
ka@@ 14038
triple 14033
125 14029
Hubert 14029
intelligence 14029
SI@@ 14026
Aqu@@ 14021
Coul@@ 14020
Stal@@ 14019
jet@@ 14019
ril 14017
Nak@@ 14014
dec@@ 14014
exact@@ 14014
ź 14011
Cord@@ 14001
ion@@ 14000
Miami 13992
itan 13989
bir 13986
Jard@@ 13981
irat@@ 13981
radical 13980
DS 13978
examin@@ 13978
Big@@ 13975
festivals 13965
enti 13956
Yu@@ 13953
olo@@ 13953
} 13937
acha 13933
Baz@@ 13930
ason 13926
expul@@ 13923
Rugby 13918
mant@@ 13917
fru@@ 13914
Aux@@ 13913
pus 13903
onales 13899
fortific@@ 13898
lich@@ 13893
lap@@ 13890
Pay@@ 13889
Proj@@ 13885
row 13882
phin 13881
Ais@@ 13880
volcan@@ 13879
quad@@ 13874
Bon 13872
Ton@@ 13871
Sun 13862
eines 13845
Bow@@ 13840
bec 13839
mb@@ 13839
oz 13828
acous@@ 13827
Michigan 13805
résult@@ 13799
pent@@ 13797
Berg@@ 13794
cord 13786
Sto@@ 13779
asp@@ 13776
Got@@ 13774
Science 13766
chine 13756
box@@ 13754
fug@@ 13750
aa 13748
cérémon@@ 13747
bel 13744
instance 13740
jal@@ 13740
Tir@@ 13739
2,5 13733
Arti@@ 13730
1856 13721
Palestine 13716
discrimin@@ 13715
massi@@ 13703
AA 13702
oro 13699
issi@@ 13692
Thor@@ 13691
migrants 13691
Champion 13690
XX@@ 13690
hip 13687
Poin@@ 13686
Rapha@@ 13685
len 13681
inet 13674
Astr@@ 13661
ymnas@@ 13655
1857 13652
umul@@ 13650
Road 13649
pur 13648
Fid@@ 13643
Second 13642
unif@@ 13641
mart@@ 13638
case 13626
dominant 13623
Vinc@@ 13610
aspir@@ 13610
zer@@ 13607
orro 13606
uer@@ 13604
ör@@ 13593
Gér@@ 13592
lio 13590
Lub@@ 13588
ania 13585
play 13585
paras@@ 13578
Lind@@ 13575
Jur@@ 13571
UEFA 13569
fan@@ 13563
Nintendo 13559
industries 13554
igr@@ 13551
suspend@@ 13551
Colorado 13547
cles 13546
auxili@@ 13534
ingu@@ 13532
V. 13530
nd@@ 13526
North@@ 13524
adron 13522
1852 13521
itte 13513
m. 13505
illac 13502
alternative 13499
Notes 13494
Columbia 13490
Aster@@ 13489
Dan 13485
ater@@ 13476
umi 13474
ass 13472
occident@@ 13469
notable 13468
diam@@ 13467
Miguel 13464
logo 13459
ouver 13459
ectiv@@ 13452
CF@@ 13443
vent@@ 13442
fice 13436
Time 13434
eck@@ 13434
Duc@@ 13430
Yo@@ 13426
amér@@ 13425
nar@@ 13425
institut@@ 13420
clusi@@ 13414
dale 13398
ben@@ 13397
Observat@@ 13396
aix 13395
atu@@ 13389
Litu@@ 13388
présidenti@@ 13386
1846 13384
lage 13381
aissance 13376
ku 13376
motor@@ 13376
Dublin 13374
effectiv@@ 13368
triang@@ 13362
Ny@@ 13359
Ris@@ 13358
Lot 13355
ms 13354
capture 13346
General 13344
sept@@ 13343
tw@@ 13343
Vas@@ 13341
C.@@ 13339
kat@@ 13338
Hun@@ 13328
mel 13320
1854 13318
Naz@@ 13318
folkl@@ 13318
Allem@@ 13317
IS 13317
yon 13314
deb@@ 13303
pon 13302
Vati@@ 13294
Fel@@ 13293
controvers@@ 13289
location 13288
Vin@@ 13286
Viv@@ 13282
Us@@ 13268
Bruce 13266
Guil@@ 13264
cine 13256
Crim@@ 13251
hin@@ 13250
Bis@@ 13248
AB@@ 13246
Marco 13245
composit@@ 13244
ycl@@ 13239
ango 13238
sci@@ 13234
terminus 13230
24@@ 13229
deu@@ 13225
ider@@ 13220
Beach 13217
RO@@ 13213
week 13212
Gam@@ 13202
Ne 13201
ital 13200
Domin@@ 13195
discipl@@ 13192
Mali 13189
Ah@@ 13187
oria 13187
Jimmy 13186
aume 13186
1858 13176
Black@@ 13173
poli@@ 13172
etz@@ 13171
Little 13164
ento 13163
eron 13158
1849 13154
ij@@ 13152
lav 13152
yo@@ 13148
pin 13129
alit@@ 13119
Ave@@ 13116
ema 13116
ial 13113
rat 13113
Atlanta 13098
dium 13096
nay 13096
Ma 13092
nati@@ 13089
Arist@@ 13079
nig@@ 13075
XVI 13072
oth 13072
Barbara 13065
OT@@ 13065
tif@@ 13065
altern@@ 13063
try 13052
It@@ 13051
trich@@ 13050
K. 13047
secre@@ 13042
Spir@@ 13039
Sanc@@ 13030
Golden 13029
Grim@@ 13028
intel@@ 13027
expuls@@ 13021
s. 13020
protagon@@ 13016
vi 13010
oshi 13002
Gab@@ 12994
Ostr@@ 12982
valid@@ 12980
Lambert 12975
lar 12975
atte 12965
mémo@@ 12965
riz 12955
lem 12951
Game 12950
déput@@ 12944
styles 12940
700 12937
Kiev 12936
Mili@@ 12933
ucture 12915
Radi@@ 12901
eus 12898
eda 12897
Restaur@@ 12896
Prim@@ 12894
inter 12894
CE 12892
dau@@ 12881
bras@@ 12870
xi 12866
iri 12861
Gordon 12859
Ng@@ 12840
Pey@@ 12840
Bank 12830
Township 12830
ñ@@ 12827
udi 12824
obs@@ 12822
zon 12821
noc@@ 12819
Ges@@ 12816
Gaz@@ 12810
contradic@@ 12809
zy 12805
Charlie 12802
ck@@ 12802
stimul@@ 12790
Miller 12787
š 12787
ichi 12786
AT 12781
CO 12781
low@@ 12773
ados 12771
Fres@@ 12770
iz 12768
And@@ 12759
osaur@@ 12758
alan 12753
Mac 12751
Roh@@ 12751
Ale@@ 12746
Wit@@ 12743
orum 12740
aco 12733
Tw@@ 12732
Classi@@ 12730
sin 12728
NA 12725
cars 12723
della 12723
Dr 12722
plasti@@ 12719
rival 12718
Kansas 12714
width 12706
Li 12705
confin@@ 12699
certain@@ 12694
udi@@ 12687
certific@@ 12686
Poly@@ 12679
igo 12679
lors@@ 12679
juni@@ 12677
Fernando 12669
Kath@@ 12669
Sat@@ 12666
Se 12665
Fili@@ 12655
Ler@@ 12654
opportun@@ 12654
Jonathan 12653
ow 12646
possibil@@ 12639
iler 12636
Ō@@ 12635
Show 12631
UE 12629
Mexico 12626
10.@@ 12623
atern@@ 12622
races 12622
Č@@ 12618
tz@@ 12617
Tas@@ 12613
impl@@ 12613
Boris 12612
Christopher 12608
Iv@@ 12606
victor@@ 12605
ops 12591
vies 12591
Ja@@ 12589
seg@@ 12589
etti@@ 12587
orange 12584
alumin@@ 12583
tes@@ 12577
Robin 12575
Bell 12573
Minnesota 12573
dote 12570
Ensemble 12569
topo@@ 12565
alo 12564
Pac@@ 12559
lag@@ 12557
lai 12556
UNESCO 12545
Andrea 12534
Brab@@ 12533
ire@@ 12521
Meg@@ 12514
civiles 12512
ams 12508
1791 12506
1831 12505
igh 12503
Clo@@ 12500
ș@@ 12493
egr@@ 12489
onien 12488
sho@@ 12488
The@@ 12484
Afghanistan 12483
motion 12482
Day 12480
moto 12478
Carp@@ 12477
Sir@@ 12477
aute 12467
réqu@@ 12464
eler 12460
ater 12458
Ahmed 12451
Jum@@ 12450
ven 12450
ME@@ 12447
Jura 12446
icus 12442
Journ@@ 12437
Kos@@ 12435
Imp@@ 12434
Las@@ 12434
Isaac 12428
Lyc@@ 12428
Leipzig 12427
Apol@@ 12422
ep 12419
Andre@@ 12417
ą@@ 12417
auc@@ 12400
Ras@@ 12399
Services 12398
adres@@ 12397
back 12393
zz@@ 12391
Dim@@ 12389
är@@ 12388
3D 12365
magaz@@ 12364
punk 12361
abs@@ 12352
neum@@ 12343
Égl@@ 12335
uit 12323
char 12317
day 12317
1795 12316
Act 12316
Ernst 12313
Microsoft 12312
normal@@ 12303
Hot 12302
adel@@ 12302
polis 12298
NO@@ 12290
Prom@@ 12290
Han 12289
Ken@@ 12283
30@@ 12277
Nikol@@ 12277
persu@@ 12269
oko 12261
Sylv@@ 12256
Ridge 12242
tenance 12241
María 12239
ôles 12236
Ves@@ 12229
1794 12225
gon@@ 12225
ses@@ 12219
Bet@@ 12210
PE@@ 12207
TV@@ 12207
isi 12205
1853 12204
119@@ 12202
Allen 12197
export@@ 12197
Garr@@ 12193
Johannes 12193
Clark 12192
1845 12189
Kennedy 12185
dre@@ 12184
cia 12182
Santiago 12179
Geoff@@ 12171
amo 12171
Morgan 12170
Fré@@ 12167
exclu@@ 12165
ran 12161
tine 12160
Magazine 12158
compil@@ 12147
Hat@@ 12144
own 12139
Die 12135
Green@@ 12133
€ 12131
ask@@ 12130
lara 12129
Anat@@ 12127
Joh@@ 12126
zu@@ 12124
Sap@@ 12123
py@@ 12122
provincial 12115
Type 12112
PL@@ 12101
uck 12096
gir@@ 12091
Fos@@ 12090
Mut@@ 12089
assa 12088
180 12084
Herbert 12080
inien 12074
contamin@@ 12071
tica 12065
Lak@@ 12063
By@@ 12060
stone 12054
endi@@ 12052
spons@@ 12051
XI 12046
pi 12046
bud@@ 12043
amer 12041
Kil@@ 12038
asso 12034
Non 12033
Honor@@ 12026
1837 12024
cle@@ 12023
œuv@@ 12016
Phili@@ 12015
alia 12015
ović 12015
ket 12011
rech@@ 12008
gest@@ 11995
polit@@ 11995
entra 11988
Gis@@ 11976
territorial 11975
Nick 11974
rin 11972
Louisi@@ 11971
1812 11970
Tul@@ 11970
box 11966
massive 11961
sine 11961
MI@@ 11957
Wh@@ 11952
Alberto 11948
patient 11941
owski 11936
auch@@ 11932
bu 11927
jan@@ 11924
110 11923
Studio 11923
Gri@@ 11922
1.@@ 11920
osph@@ 11919
án@@ 11912
vor@@ 11910
itz@@ 11902
ks@@ 11902
1847 11900
Billy 11897
religi@@ 11892
AF@@ 11891
Russell 11884
aler 11884
esi 11882
wick 11879
March@@ 11872
imi 11870
lera 11868
vesti@@ 11868
Nelson 11865
noctur@@ 11864
Helsinki 11859
Margaret 11850
1832 11848
Grand@@ 11847
Philip 11846
Ain 11833
pag@@ 11822
cz@@ 11809
kil@@ 11802
wich 11799
Pit@@ 11790
lux@@ 11785
An 11784
Sag@@ 11784
Nigeria 11781
dens@@ 11780
pt 11779
chester 11778
Fred 11776
jam@@ 11776
autés 11773
Hermann 11771
Station 11770
Liverpool 11767
esa 11766
Eg@@ 11756
Internationale 11756
Janeiro 11756
trail@@ 11756
Lad@@ 11752
USA 11751
prin@@ 11750
Ep@@ 11748
AG@@ 11743
spon@@ 11740
Vor@@ 11737
Ther@@ 11727
oid 11726
Match 11725
Mission 11725
lock 11725
Houston 11719
tril@@ 11717
Web@@ 11715
Google 11712
anatom@@ 11709
Clu@@ 11706
Magdalena 11705
apti@@ 11705
RD 11703
cha@@ 11696
chard 11696
Uruguay 11694
exclus@@ 11691
NASA 11687
atlan@@ 11685
last 11680
Gom@@ 11675
outh 11671
Rud@@ 11669
syndrome 11669
Beg@@ 11668
obus 11666
Stadium 11659
Sym@@ 11656
ris 11655
Sl@@ 11648
Ten@@ 11644
libre@@ 11634
mers 11634
1836 11633
vić 11629
votes 11625
Geor@@ 11622
alternati@@ 11621
yth@@ 11613
Julie 11612
japon@@ 11604
1833 11600
Ross 11598
Dy@@ 11589
solid@@ 11587
Web 11585
yal@@ 11572
Fut@@ 11561
Chr@@ 11552
ć@@ 11541
1841 11538
Shanghai 11538
tuber@@ 11537
evo 11528
1835 11527
bra 11519
Georg 11514
iga 11514
avier 11512
Sad@@ 11498
Gabri@@ 11496
wer@@ 11495
Protection 11494
Gall@@ 11479
Masters 11479
Temp@@ 11472
positive 11467
quadr@@ 11466
tron 11465
Ryan 11461
atin 11461
Conse@@ 11460
adier 11457
ovo 11450
carri@@ 11447
interven@@ 11445
Bob@@ 11443
Bowl 11441
Rein@@ 11435
nec@@ 11435
ocol@@ 11435
Len@@ 11433
Studios 11431
edo 11427
Dod@@ 11425
extinc@@ 11421
ig 11414
ends 11407
bomb@@ 11402
aret 11401
Num@@ 11394
wo@@ 11394
Bré@@ 11393
locomot@@ 11390
Bach@@ 11388
Vancouver 11388
Christi@@ 11380
ár@@ 11378
unk@@ 11375
Has@@ 11368
chen 11366
Bar 11361
Kel@@ 11360
gas@@ 11358
Analyse 11357
conclus@@ 11357
osc@@ 11356
Andy 11355
Zone 11348
estu@@ 11347
nan 11336
Roman 11335
pera 11335
architectural 11333
Lov@@ 11330
wan@@ 11328
aja 11327
Stu@@ 11326
dam@@ 11326
radar 11325
Apple 11322
eno 11322
ects 11319
Salvador 11317
Fron@@ 11314
eh 11308
Iz@@ 11306
manager 11304
Wes@@ 11301
tabl@@ 11295
Song 11292
Abr@@ 11282
Ces@@ 11281
dose 11278
eli 11277
Ple@@ 11274
unt 11270
Lus@@ 11268
Zo@@ 11268
ej@@ 11267
exhaus@@ 11267
tation 11263
ecti@@ 11259
1806 11257
WWE 11254
ambul@@ 11250
Verd@@ 11248
nia 11246
1842 11242
hell@@ 11242
ahi 11235
Chef 11229
unanim@@ 11221
1839 11219
Lach@@ 11216
uta 11209
Lucas 11208
Yan@@ 11206
Main 11205
achi 11203
foc@@ 11203
Lun@@ 11199
tropicales 11197
Ze@@ 11190
Bad 11189
Matt 11189
CC 11188
Jun@@ 11187
LO@@ 11187
ls 11182
Ludwig 11181
master 11177
bits 11176
say 11169
zur 11166
letin 11165
Tah@@ 11160
1843 11157
tics 11152
Bret@@ 11151
1834 11149
new 11148
26@@ 11142
RN 11137
toires 11123
AO@@ 11116
CS 11116
moral 11110
BC 11104
Moore 11103
Dunk@@ 11102
dy@@ 11096
Aug@@ 11094
Jason 11094
arn 11091
etz 11091
anos 11090
ky@@ 11090
accompl@@ 11089
ław 11088
Harvard 11086
det@@ 11083
cog@@ 11079
als@@ 11076
R.@@ 11067
Mikha@@ 11063
lyc@@ 11059
Agr@@ 11057
Sus@@ 11056
Terr@@ 11056
dial 11055
Shin@@ 11053
Inst@@ 11049
Mec@@ 11046
BA 11045
Sark@@ 11039
Tim 11039
Stone 11037
Dak@@ 11036
Dir@@ 11036
Blu@@ 11035
Poz@@ 11032
ppe 11029
recru@@ 11029
Comics 11026
23@@ 11016
disper@@ 11016
bet@@ 11010
Galerie 11009
Dres@@ 11007
SM 11007
States 11006
Tech@@ 11006
1838 11000
ange@@ 10999
Mohammed 10996
sten@@ 10995
öl@@ 10994
Ibn 10990
lins 10985
Eu@@ 10984
Indien 10983
1844 10979
lot@@ 10979
Associ@@ 10976
com 10973
conven@@ 10970
Cha@@ 10968
bonus 10967
ock@@ 10961
Zh@@ 10957
coin 10954
zen@@ 10950
Jol@@ 10945
orn 10941
EC 10936
Ron@@ 10934
ery 10933
Obj@@ 10930
ega 10928
rid@@ 10923
dop@@ 10917
persist@@ 10917
tos 10913
Walt 10911
Artic@@ 10910
ampli@@ 10908
Autom@@ 10905
ady 10901
ongo 10900
ń@@ 10893
ide@@ 10892
auss 10889
Vari@@ 10888
Dave 10886
Nobel 10886
Europa 10885
fur 10885
Jupiter 10884
uth 10882
ivi@@ 10881
esh@@ 10880
orien 10875
udo 10869
fine 10868
fib@@ 10867
omon 10867
118@@ 10866
Copenh@@ 10864
copies 10850
AD 10849
intermédi@@ 10848
exéc@@ 10847
Rig@@ 10844
uves 10840
Berry 10838
occidentales 10837
Tat@@ 10834
Go 10824
Emma 10823
eder@@ 10815
scor@@ 10815
amine 10812
kel 10806
amba 10805
contributions 10798
anche 10790
Audi@@ 10789
latitu@@ 10789
membran@@ 10788
ouse 10787
Moh@@ 10783
Ottawa 10780
alom 10771
imi@@ 10771
Oli@@ 10770
Mr 10761
GT@@ 10758
uro 10757
ark@@ 10754
Ec@@ 10752
secré@@ 10752
ste@@ 10750
Water@@ 10742
GC 10738
brun@@ 10738
my 10737
supervis@@ 10737
XII 10723
1810 10722
combus@@ 10719
én 10716
ries 10709
destruc@@ 10708
with 10708
120@@ 10704
corte 10695
over 10693
Gos@@ 10688
Abo@@ 10685
Bec@@ 10683
agi 10679
manuel 10678
Nob@@ 10673
eb 10670
Rangers 10669
Sed@@ 10669
tage 10668
ingham 10666
dot 10664
News 10662
Viol@@ 10660
arios 10660
fi 10658
stadt 10658
wal@@ 10658
2.@@ 10657
exam@@ 10657
Lour@@ 10655
Nicol@@ 10648
Christ@@ 10642
yi 10632
aca 10629
cerc@@ 10629
Saf@@ 10628
Scar@@ 10622
card 10616
PlayStation 10614
global 10613
Ander@@ 10612
Vik@@ 10609
manu@@ 10606
oba 10605
show 10605
Techn@@ 10603
Kelly 10602
PI@@ 10602
Asp@@ 10598
vement 10597
roqu@@ 10590
paqu@@ 10589
bay@@ 10583
rop@@ 10583
ort@@ 10580
Nev@@ 10579
alar@@ 10575
Co 10573
Gén@@ 10570
sug@@ 10569
Brand@@ 10567
eld 10566
Hall@@ 10565
Tig@@ 10565
cut 10561
Amaz@@ 10559
olle 10555
Mercedes 10552
ui@@ 10546
Night 10543
Franklin 10541
improvis@@ 10539
cami@@ 10536
vic 10536
yan 10532
Dipl@@ 10530
sy 10527
16,@@ 10526
Ele@@ 10526
Clau@@ 10521
eter@@ 10521
oga 10521
borg 10518
af 10516
crip@@ 10515
Panama 10513
Avenue 10512
vive 10506
Tribunal 10505
Grant 10504
longu@@ 10501
Melbourne 10496
Nur@@ 10491
bine 10486
130 10482
Mississippi 10482
Stuart 10477
gres@@ 10474
poli 10473
Challenge 10472
dera 10470
Lom@@ 10468
nin 10468
NFL 10461
Nath@@ 10457
Bit@@ 10454
IT@@ 10453
Sovi@@ 10453
nich@@ 10452
mano 10448
zer 10446
140 10443
atch@@ 10440
hospit@@ 10440
affin@@ 10438
imo 10431
umb@@ 10423
arin 10417
cross 10415
PD@@ 10414
Proc@@ 10413
oku 10413
couples 10411
ibn 10410
miner@@ 10410
ding 10409
originales 10409
Village 10405
convers@@ 10401
LA 10398
gain 10398
Rac@@ 10392
stig@@ 10392
inn 10389
Rand@@ 10388
fo 10388
ray 10385
27@@ 10380
Saints 10379
series 10378
Indiana 10377
wa@@ 10377
Mob@@ 10376
gia 10376
Cleveland 10371
Boliv@@ 10367
Pietro 10366
Pes@@ 10364
Parti@@ 10362
aha 10358
normal 10356
3,5 10353
audio 10353
icz 10350
Monte@@ 10343
orbit@@ 10342
horizont@@ 10341
zar@@ 10341
AE@@ 10337
TS 10334
Rid@@ 10333
Sid@@ 10333
Commonwealth 10332
colonial 10330
Out@@ 10324
Line 10323
tain@@ 10316
film@@ 10313
Jazz 10307
hur@@ 10304
usias@@ 10304
valle 10304
perfec@@ 10303
Roberto 10301
apo 10301
Aer@@ 10299
hop 10296
zen 10295
Jeff 10283
Jr 10283
nis@@ 10279
IP 10278
acht 10276
ii 10276
lat 10274
Games 10271
Satur@@ 10271
inos 10271
partition 10267
XV@@ 10262
margin@@ 10259
GM 10256
Transport 10256
Quin@@ 10250
outs 10250
probl@@ 10250
immer@@ 10247
Dig@@ 10239
acres 10239
attrac@@ 10237
Edgar 10235
Marvel 10226
lex@@ 10226
Pur@@ 10220
25@@ 10218
wo 10218
Hesse 10217
115@@ 10213
Langu@@ 10211
opini@@ 10209
Dragon 10188
arium 10187
tas 10184
rat@@ 10183
Alber@@ 10176
CP@@ 10176
Boc@@ 10175
employe@@ 10175
Anton 10174
Medi@@ 10172
Raf@@ 10169
wen@@ 10168
Alg@@ 10162
Gold 10162
Adolf 10161
cic@@ 10161
ley@@ 10159
ete 10154
ore@@ 10152
ape 10148
Jordan 10146
Cle@@ 10144
Rog@@ 10144
101 10140
uki 10136
Kent 10135
Henri@@ 10134
Lut@@ 10134
cél@@ 10128
EN@@ 10122
Cec@@ 10112
160 10106
press@@ 10105
Atlan@@ 10104
f. 10104
hall 10101
zon@@ 10096
cipe 10089
Hain@@ 10086
MO@@ 10085
Stat@@ 10085
Til@@ 10084
ros 10082
attend 10079
atin@@ 10077
magn@@ 10076
Boy 10070
Master 10068
ieur 10068
ż@@ 10067
Rosa 10066
AL 10063
Arnold 10062
Air@@ 10060
Iowa 10055
ano@@ 10051
ling@@ 10046
Duf@@ 10045
dération 10043
Ian 10039
islas 10037
Murray 10036
itt 10032
Kob@@ 10030
tha 10028
Aj@@ 10027
gig@@ 10025
insist@@ 10021
Sach@@ 10019
ía 10014
Drag@@ 10012
AG 10003
Tennessee 10003
Commerce 10000
Media 9998
kab@@ 9995
Princ@@ 9994
TC 9993
draft 9991
114@@ 9990
Lic@@ 9985
intensi@@ 9984
Yos@@ 9979
oscop@@ 9978
Peter@@ 9972
alias 9971
E.@@ 9967
tropole 9966
incur@@ 9964
Ambro@@ 9959
Power 9956
ionale 9955
ga@@ 9953
escal@@ 9952
caf@@ 9947
demanda 9947
esqu@@ 9946
composer 9942
17,@@ 9939
enny 9937
inge 9936
uli 9936
LE@@ 9934
Main@@ 9929
Inter 9927
Nas@@ 9926
oker 9924
Estr@@ 9919
ness 9914
Á@@ 9914
diesel 9913
Wer@@ 9912
gro@@ 9910
plo@@ 9909
lands 9908
point@@ 9907
uk 9907
sw@@ 9905
SK 9902
habil@@ 9902
get 9899
Luigi 9889
Pul@@ 9889
det 9888
eme 9886
Bach 9884
PR 9884
acy 9881
Robinson 9879
Forum 9878
auer 9878
Lionel 9877
inces 9877
soc@@ 9871
Sierra 9868
Hard@@ 9866
blues 9864
sion@@ 9862
portion 9861
disciplin@@ 9858
Lion 9855
Argent@@ 9851
Carter 9850
Fir@@ 9850
Gan@@ 9850
~ 9847
Major 9846
Source 9846
Pra@@ 9843
Kad@@ 9842
Reich@@ 9838
à@@ 9837
kur@@ 9832
Press 9830
Great 9828
marketing 9825
Valenci@@ 9820
Buch@@ 9819
1824 9811
itable 9811
1825 9806
Bug@@ 9806
Oliver 9802
Cho@@ 9798
Gard@@ 9793
cal 9790
paral@@ 9790
rot 9789
Sep@@ 9788
SE 9785
ór@@ 9785
· 9782
rio 9780
bad@@ 9779
DE 9777
ī@@ 9777
1802 9769
portu@@ 9767
Best 9766
PR@@ 9766
uld 9766
IR@@ 9763
ough 9762
nus 9761
ult 9761
HC 9760
Dami@@ 9759
Jon@@ 9758
Sign@@ 9757
Lombar@@ 9756
Ner@@ 9755
Marcus 9754
Gary 9752
gly@@ 9751
Isle 9742
inclus@@ 9742
Kenya 9740
Lug@@ 9740
borne 9740
thon 9739
pot 9732
itures 9731
1803 9730
clav@@ 9727
thor@@ 9727
Steven 9725
Glasgow 9718
oll 9716
Cruz 9714
CP 9712
WTA 9712
roman@@ 9710
Brit@@ 9709
YouTube 9708
revi@@ 9708
Car 9705
CR@@ 9694
sun@@ 9690
Fay@@ 9689
Square 9682
Trump 9682
Warner 9677
hiz@@ 9677
Vent@@ 9675
aer@@ 9674
ES 9673
SS@@ 9669
violent 9663
iron 9660
bot 9656
opath@@ 9654
Police 9653
1808 9649
festiv@@ 9645
ody 9645
tium 9641
Bed@@ 9637
Laura 9637
Prov@@ 9636
Adams 9629
automati@@ 9627
dog@@ 9627
Nicole 9624
infin@@ 9621
Seattle 9620
28@@ 9619
kon@@ 9618
ally 9614
EP@@ 9606
Pablo 9606
ibil@@ 9602
Marshall 9596
It 9595
Marc@@ 9586
mpi@@ 9584
117@@ 9582
anta 9582
trop@@ 9580
Jour@@ 9575
Simone 9575
abi 9575
Kot@@ 9574
1813 9569
1828 9569
Art@@ 9565
Marqu@@ 9563
SD@@ 9561
Cooper 9560
doubles 9560
Dallas 9558
angu@@ 9548
assign@@ 9548
Austr@@ 9545
Barry 9543
aller@@ 9542
evin 9538
Ax@@ 9534
bio 9532
Blues 9524
Parker 9523
Gav@@ 9522
Alex@@ 9521
imal 9517
vez 9514
DP 9511
TP 9504
édo@@ 9500
Amér@@ 9497
gab@@ 9494
Home 9487
Bod@@ 9485
Inn@@ 9481
cath@@ 9479
fav@@ 9478
tiges 9477
ablan@@ 9475
sacrif@@ 9474
sale 9469
dent@@ 9451
Unter@@ 9443
candidate 9437
Nord@@ 9434
Cyr@@ 9431
ono 9431
Ok@@ 9430
titul@@ 9430
Stein@@ 9429
Java 9426
stage 9426
Kosovo 9425
León 9425
Queen 9424
Vog@@ 9421
Lawrence 9418
Rib@@ 9416
promot@@ 9415
Chang@@ 9414
tt@@ 9410
1821 9405
fat@@ 9400
gy 9398
nica 9398
Baltimore 9394
Rum@@ 9393
DI 9392
Austin 9391
Peugeot 9387
Corr@@ 9383
alo@@ 9382
Histori@@ 9381
Thur@@ 9379
1,2 9376
Ey@@ 9376
Kun@@ 9373
Style 9373
Afric@@ 9371
Lamb@@ 9367
Gru@@ 9356
hex@@ 9356
Copa 9353
lip 9353
enton 9351
p. 9351
angs 9350
dyn@@ 9350
Fun@@ 9348
otti 9345
owo 9344
Ann 9342
country 9340
oka 9338
nis 9334
relevant 9333
trau@@ 9330
Stewart 9329
Valent@@ 9329
Broadway 9325
Mey@@ 9323
mographie 9323
1809 9321
1826 9316
ogo 9313
Alaska 9308
cim@@ 9308
Fair@@ 9304
Gonz@@ 9301
Nation 9299
Laborat@@ 9296
PP@@ 9296
1827 9293
lum 9293
Lep@@ 9292
Leon@@ 9290
Charl@@ 9285
Justin 9279
ako 9279
squ@@ 9278
Grav@@ 9276
1500 9275
ME 9275
ellip@@ 9275
porno@@ 9270
ego 9268
Theatre 9266
asy@@ 9266
v. 9265
nith@@ 9262
tamb@@ 9261
angers 9259
1829 9258
Construction 9258
Hid@@ 9258
tet 9256
ways 9255
awa@@ 9253
soph@@ 9253
ws 9250
Quer@@ 9248
Good@@ 9247
bap@@ 9242
ely 9237
rob@@ 9237
Sah@@ 9235
FIFA 9233
GA 9233
Harris 9229
Cent@@ 9228
ishi 9227
Jay 9224
Kurt 9220
Play@@ 9220
350 9215
M.@@ 9215
aris 9213
Fitz@@ 9211
Julia 9209
Arena 9205
Valley 9205
900 9202
rain@@ 9202
continua 9201
Garcia 9199
supporters 9199
voyag@@ 9199
Post 9198
zin@@ 9196
ABC 9195
ingi@@ 9194
ecture 9191
manufac@@ 9191
Cli@@ 9190
hyp@@ 9186
Hit@@ 9181
her 9180
gers 9179
pec@@ 9179
elo 9177
sailles 9176
ency 9172
ole@@ 9172
Creek 9169
gie 9168
1816 9157
invest@@ 9157
1807 9154
Compos@@ 9153
Brooklyn 9152
Ž@@ 9152
augh@@ 9151
Camp 9150
maintenance 9149
ativ@@ 9148
aup@@ 9148
J.@@ 9145
Civ@@ 9139
raid 9138
Jerry 9134
water 9133
5.@@ 9128
azar 9127
Nog@@ 9126
tail@@ 9126
Sporting 9124
disci@@ 9120
Freder@@ 9112
CI 9110
Py@@ 9110
Rach@@ 9108
sh 9105
Griff@@ 9103
cogni@@ 9100
Ley@@ 9099
Agu@@ 9092
pital 9091
erc@@ 9089
Monuments 9088
supports 9088
under@@ 9086
Guill@@ 9079
flo@@ 9077
Alberta 9075
Kap@@ 9075
Mang@@ 9075
Clem@@ 9070
Junior 9070
Rafael 9067
apar@@ 9061
Beng@@ 9060
Raj@@ 9057
jet 9055
Dest@@ 9049
nel 9045
0,0@@ 9041
Grou@@ 9041
Ray@@ 9041
carbon@@ 9037
Rep@@ 9030
pendi@@ 9030
Hong@@ 9027
monast@@ 9026
eppe 9025
ić 9022
Joan 9021
Lisa 9017
Lah@@ 9011
Patri@@ 9008
alan@@ 9008
Manhattan 9007
Lef@@ 9006
Wrestling 9002
Space 8995
Hand@@ 8983
ä 8979
avi 8978
xon 8978
Graham 8977
1823 8972
Elisabeth 8971
Tes@@ 8967
frage 8959
Bron@@ 8955
Top@@ 8949
Cros@@ 8948
Atlas 8947
ultés 8946
Roth@@ 8941
Nem@@ 8939
Zi@@ 8937
natal 8928
Cog@@ 8926
Gö@@ 8926
dad 8926
Pittsburgh 8924
usses 8924
Evans 8922
Mant@@ 8922
ascend@@ 8920
sal 8914
insul@@ 8910
Anth@@ 8905
1822 8904
1798 8900
Wright 8900
angla@@ 8900
Productions 8899
Frederick 8895
Campbell 8891
Mozart 8887
Sky@@ 8880
Cyc@@ 8878
elia 8871
pol 8871
Testament 8863
fes@@ 8863
Town 8859
ferrovi@@ 8859
ilia 8857
rap 8856
Montre@@ 8855
System 8850
diers 8842
Ve@@ 8841
archiv@@ 8840
Anto@@ 8838
vamp@@ 8835
Pep@@ 8832
tant@@ 8832
Dub@@ 8831
Merc@@ 8831
Cic@@ 8829
stock 8828
â 8825
Fen@@ 8819
ê 8819
IP@@ 8818
Hart@@ 8813
Paolo 8811
opot@@ 8810
ellan 8808
oms 8807
Rah@@ 8804
Sony 8801
29@@ 8795
mouv@@ 8793
Istanbul 8792
1818 8791
Moy@@ 8789
GP@@ 8785
tuy@@ 8773
D.@@ 8772
ink 8769
aton 8768
Shel@@ 8765
ers@@ 8765
Is 8762
Tax@@ 8761
ahn 8758
Wagner 8754
icon 8753
dal 8751
Hot@@ 8750
para 8749
sto@@ 8747
intersection 8746
Afr@@ 8744
exces@@ 8733
urus 8731
Dick@@ 8730
cis 8728
FK 8726
Alt@@ 8722
mas 8722
landes 8717
B.@@ 8714
enko 8712
acr@@ 8711
Walker 8704
Publi@@ 8703
sah@@ 8702
ated 8700
township 8696
Nature 8695
Wel@@ 8695
18,@@ 8693
IA 8686
King@@ 8684
kir@@ 8681
Cun@@ 8680
convic@@ 8680
1804 8678
lain 8678
Alabama 8677
atum 8674
culp@@ 8674
imm@@ 8673
1811 8671
yne 8671
wh@@ 8667
amar@@ 8666
canc@@ 8664
ombi@@ 8662
Thompson 8660
jav@@ 8656
Schum@@ 8655
Hak@@ 8652
Champions 8647
kom@@ 8647
Ib@@ 8645
1817 8643
Band@@ 8642
forcement 8642
infrastructure 8639
Gy@@ 8638
saga 8637
Will 8635
Monum@@ 8634
Gior@@ 8632
Origin@@ 8620
chol@@ 8620
lay 8620
Jord@@ 8614
Map@@ 8614
pers 8614
indo 8610
Conrad 8605
1,3 8604
Fav@@ 8599
50@@ 8597
pha 8594
cue 8592
BD 8586
ilo 8584
into 8584
escor@@ 8579
ernes 8577
Barn@@ 8576
aw 8574
ð@@ 8574
enth@@ 8573
40@@ 8572
García 8571
mouth 8566
rol 8566
Andal@@ 8565
FL@@ 8561
Rotterdam 8551
évision 8546
Bourg@@ 8540
Will@@ 8538
IF@@ 8537
Capr@@ 8534
Old 8532
zu 8530
Phil 8528
segment 8519
Aless@@ 8518
Sci@@ 8516
1780 8514
1799 8514
ML@@ 8511
Hem@@ 8508
TO@@ 8507
eira 8507
athon 8505
Landes 8503
abstr@@ 8501
asi 8499
0,5 8498
lum@@ 8497
atra 8489
tat@@ 8488
Simpson 8487
Just@@ 8484
Cler@@ 8478
116@@ 8476
Boeing 8475
rell 8475
andro 8474
Micha@@ 8471
3.@@ 8468
Di 8464
7,5 8463
ampa 8461
Chen@@ 8460
apa 8460
Jorge 8457
Shakespeare 8456
kel@@ 8455
Joachim 8454
DO@@ 8451
eland 8450
Pis@@ 8447
etc 8445
SV 8443
Stars 8442
Chil@@ 8439
town 8439
1819 8438
Was@@ 8437
Stuttgart 8436
Kō@@ 8434
grou@@ 8432
Cum@@ 8429
Rat@@ 8429
fax 8426
ingt 8425
Apo@@ 8424
Call@@ 8424
Scor@@ 8423
Harrison 8418
Nig@@ 8413
Pent@@ 8413
Wang 8409
gir 8406
Jor@@ 8405
Network 8402
AB 8394
Forest 8394
aman@@ 8390
PO@@ 8387
Spor@@ 8384
other@@ 8383
robot@@ 8383
î 8383
onga 8379
Rudolf 8378
bet 8376
È@@ 8376
Rodol@@ 8371
terminal 8371
orium 8366
Eus@@ 8365
els@@ 8365
Bond 8363
Bun@@ 8360
Trou@@ 8360
ump@@ 8356
nic@@ 8354
Matthew 8351
colombi@@ 8350
Ghana 8349
corr@@ 8349
Army 8339
ng 8339
multi 8335
incul@@ 8328
Magn@@ 8325
Boys 8316
eim 8313
BM@@ 8311
Bangladesh 8311
Aman@@ 8309
édrale 8309
got 8306
Gamb@@ 8305
Neil 8305
Vice 8303
Mann@@ 8301
Hos@@ 8300
RT 8300
Marx 8298
Atel@@ 8296
Cook 8295
allo@@ 8295
cid@@ 8294
invasi@@ 8292
zan 8292
Silva 8291
wilaya 8291
Hell@@ 8290
hem 8287
insk 8287
EC@@ 8284
rid 8284
Linux 8280
Imag@@ 8277
Note 8277
than@@ 8276
BS 8274
Angel 8273
dorf 8272
sar 8268
Hag@@ 8259
Mog@@ 8259
Stefan 8252
You@@ 8250
1805 8248
August 8247
Cous@@ 8247
First 8247
Pag@@ 8247
azi@@ 8244
Bobby 8240
Harold 8240
codice 8240
Cao 8237
Mai 8237
Impact 8236
tort 8234
Jose@@ 8233
Annie 8231
ats@@ 8230
Universit@@ 8228
sheim 8218
1,6 8216
GP 8216
GE 8214
Tru@@ 8213
ö 8204
War 8203
Jack@@ 8202
dem 8197
olig@@ 8197
Dark 8195
Mans@@ 8193
Cay@@ 8189
aries 8189
Og@@ 8182
1796 8180
Vietnam 8180
Liga 8179
jar@@ 8179
105 8177
Shir@@ 8177
lair 8176
Wayne 8175
Lorenzo 8171
tral 8171
Maryland 8169
NS@@ 8169
ás 8167
Pun@@ 8166
Hydr@@ 8165
Yor@@ 8162
kal@@ 8162
ikh 8160
att 8159
file 8159
Hudson 8155
hat@@ 8155
ector 8153
Ost@@ 8152
Bush 8151
Industrie 8151
occasions 8151
dar@@ 8145
Party 8142
Willi@@ 8141
Morris 8140
Net@@ 8140
azzo 8140
Baker 8139
robus@@ 8139
Aul@@ 8137
Giac@@ 8137
nch@@ 8135
Up 8131
maf@@ 8127
IF 8119
ellen@@ 8112
Eddie 8111
Identi@@ 8111
inflam@@ 8110
iges 8107
tos@@ 8103
ae@@ 8101
sis@@ 8100
Hend@@ 8099
Oslo 8098
1797 8086
biot@@ 8085
Band 8084
Bras@@ 8084
aj 8084
ardo 8083
50,@@ 8082
elt 8082
encer 8081
Sofia 8080
phyl@@ 8073
Faus@@ 8072
aman 8066
High@@ 8065
serg@@ 8062
Collection 8060
Hub@@ 8057
Oregon 8057
Sang@@ 8057
cape 8057
Kim@@ 8048
polar@@ 8048
Gel@@ 8045
Lil@@ 8045
aki@@ 8044
Castell@@ 8043
empl@@ 8043
gang@@ 8043
Tel 8040
Carl@@ 8038
isch 8038
pan 8038
Syr@@ 8037
Coch@@ 8033
otro@@ 8026
obi@@ 8024
exten@@ 8023
Programme 8022
luc@@ 8021
enus 8020
Finale 8019
inser@@ 8015
bril@@ 8014
see 8010
IG@@ 8009
Sey@@ 8007
catal@@ 8004
Birmingham 8000
24,@@ 7998
Inf@@ 7993
Nati@@ 7993
enburg 7990
gel 7989
stri@@ 7988
Western 7986
113@@ 7980
LP 7980
Liu 7980
Colin 7979
Beatles 7978
pres 7978
bra@@ 7976
Airlines 7972
burn 7972
Brid@@ 7970
aze 7969
unc@@ 7969
Vegas 7968
dit@@ 7968
nutri@@ 7968
alternatif 7967
iva 7967
Connecticut 7965
Domen@@ 7965
ambre 7963
nad 7958
wer 7958
Tommy 7955
alc@@ 7955
fines 7954
Luke 7953
Norman 7949
quot@@ 7944
Att@@ 7940
band@@ 7940
4,5 7939
ender 7939
elius 7938
verb@@ 7938
Marina 7937
dei 7937
e.@@ 7937
Exempl@@ 7931
Raw 7929
Sev@@ 7929
Sky 7925
USS 7925
Bam@@ 7924
Railway 7922
Fame 7920
iner@@ 7915
Nab@@ 7908
Omar 7905
Haz@@ 7904
copal 7904
coron@@ 7904
Johan 7903
Mitchell 7903
Jas@@ 7901
Standard 7900
charts 7896
18@@ 7895
Hoh@@ 7895
lip@@ 7894
Turner 7891
CAF 7890
Key@@ 7890
sic@@ 7888
20,@@ 7887
Pérez 7879
Ralph 7879
ios@@ 7873
ectu@@ 7866
ough@@ 7861
Portu@@ 7859
icide 7859
4.@@ 7858
360 7857
Sha@@ 7856
adia 7853
eti 7851
golf 7850
Rico 7849
Films 7845
Arsenal 7837
Nassau 7835
Kentucky 7834
35@@ 7832
Â@@ 7832
Tag@@ 7831
Human@@ 7825
Byr@@ 7823
andin@@ 7818
yu 7816
Project 7813
Angel@@ 7812
dimen@@ 7808
colspan 7806
ventr@@ 7805
Gat@@ 7801
ffer 7801
Wolfgang 7799
substanti@@ 7799
Spar@@ 7798
clus@@ 7798
star@@ 7798
MI 7796
Sax@@ 7796
Jon 7793
standards 7793
euro 7790
Kazakhstan 7786
Phase 7786
stars 7786
CB 7785
Facebook 7779
management 7777
ymologie 7773
Cincinnati 7772
inaug@@ 7771
dio 7770
Warren 7767
MS@@ 7766
Daw@@ 7765
19,@@ 7764
blind@@ 7762
Va@@ 7760
Fat@@ 7758
Gram@@ 7758
tarde 7757
170 7755
sat@@ 7755
Rin@@ 7750
Jug@@ 7745
Stre@@ 7745
uj@@ 7744
Ś@@ 7744
dha 7743
nas@@ 7736
Site 7735
chair 7733
Disco@@ 7731
oe 7730
Pokémon 7729
Cov@@ 7728
N. 7728
boy 7727
enda 7726
Qatar 7725
Dog@@ 7723
Mountain 7720
bec@@ 7720
1,4 7719
Universal 7719
Ivan@@ 7717
fiscal 7717
fan 7716
Batt@@ 7713
transport@@ 7710
lama 7707
Tap@@ 7705
agnol 7705
CM 7701
osaurus 7698
stal@@ 7695
acer@@ 7693
esco 7693
og 7692
P.@@ 7689
dioc@@ 7689
emple 7689
emann 7687
Sebastian 7683
Clara 7681
lez 7681
Elec@@ 7680
entrev@@ 7679
Double 7675
O. 7675
How@@ 7672
RI 7672
down 7672
Roosevelt 7668
Rhodes 7667
Gul@@ 7665
Channel 7658
sand@@ 7656
Dick 7654
Mom@@ 7654
tial 7652
Ken 7651
oso 7646
Sri 7645
Gest@@ 7644
applic@@ 7643
Collins 7640
lah 7640
Bris@@ 7638
Danny 7637
Gand@@ 7637
Sas@@ 7635
tag@@ 7634
Stor@@ 7632
ward 7632
Dru@@ 7629
Mode 7629
Tac@@ 7629
now@@ 7628
Baron 7624
Gustav 7622
Pacific 7622
Shim@@ 7622
red 7621
him@@ 7619
dice 7618
Lloyd 7616
siv@@ 7616
Guatemala 7612
mation 7612
Um@@ 7609
amental 7609
vier@@ 7608
ondo 7607
emy 7605
infl@@ 7605
Dimi@@ 7604
I.@@ 7604
aku 7603
fel@@ 7601
nova 7598
May 7595
Lud@@ 7591
McCar@@ 7591
Marion 7589
Antarc@@ 7588
Der 7588
Produ@@ 7588
chs 7588
Josef 7587
Pont@@ 7587
anor@@ 7584
transpor@@ 7584
extra 7581
CIA 7579
Rica 7579
yor@@ 7578
Wik@@ 7577
Presse 7572
Just 7570
vor 7565
icient 7564
FO@@ 7561
Islam 7561
Oklahoma 7561
Rho@@ 7560
mites 7559
ror@@ 7558
agh 7557
Gem@@ 7556
SF@@ 7555
Bill@@ 7552
Lima 7548
Sot@@ 7548
pati@@ 7548
Cra@@ 7543
pak@@ 7542
Salz@@ 7541
umière 7541
č 7540
Vivi@@ 7538
Cycl@@ 7534
tar 7534
33,@@ 7528
map@@ 7524
Angola 7523
Italien 7523
sz@@ 7523
insky 7519
22,@@ 7517
Hul@@ 7515
Chat@@ 7508
Wisconsin 7508
Cand@@ 7507
Who 7507
dex 7505
conspir@@ 7504
uke 7504
Particip@@ 7495
Phoenix 7490
arius 7490
aker 7487
embran@@ 7485
Utr@@ 7482
ensus 7481
kol@@ 7478
tide 7475
Colomb@@ 7472
Fritz 7467
erra 7467
To 7466
www.@@ 7464
ymn@@ 7461
Bang@@ 7460
gives 7460
Benn@@ 7457
ps@@ 7456
ester@@ 7455
sche 7455
Serie 7454
iji 7454
Osaka 7453
Rick 7453
utions 7453
Fan@@ 7451
L.@@ 7446
perform@@ 7444
Paler@@ 7440
Cloud 7438
sia 7438
leton 7435
AO 7430
Julius 7430
isch@@ 7430
omi 7430
Newton 7429
uno 7427
bridge 7426
Alonso 7424
echt 7424
dor 7417
Eth@@ 7416
leaders 7416
Pie@@ 7405
Steph@@ 7405
2,4 7404
NS 7404
polo 7402
Unic@@ 7400
Niger 7398
PN@@ 7398
anom@@ 7397
European 7395
Wolf 7393
Jen@@ 7391
Queensland 7389
Adap@@ 7384
azz@@ 7382
eption 7381
Wood 7379
Holstein 7378
xy@@ 7376
Bristol 7375
fail@@ 7375
kan 7373
Out 7372
ograph@@ 7369
bab@@ 7368
ât 7368
1788 7365
Tō@@ 7365
û 7365
Bull 7363
36@@ 7360
dispon@@ 7360
Foundation 7359
Vul@@ 7359
Cob@@ 7358
Santos 7358
Tuc@@ 7357
idge 7356
incor@@ 7356
senior 7354
Gray 7353
Harvey 7353
atu 7352
Sask@@ 7351
yin 7350
Biz@@ 7348
effective 7347
Hassan 7343
López 7341
tico 7341
nchron@@ 7340
arina 7338
lass@@ 7338
may@@ 7337
ael 7336
200@@ 7335
endor@@ 7335
een 7330
Milit@@ 7328
lop@@ 7327
agin@@ 7325
Strat@@ 7324
ingo 7322
Utah 7321
forma 7319
from 7318
onial 7318
Bj@@ 7316
Hey@@ 7316
Gur@@ 7313
Girl 7308
Port@@ 7308
Rock@@ 7307
25,@@ 7306
sberg 7306
til 7305
Schw@@ 7304
1775 7303
aks 7301
mark 7300
Chrys@@ 7299
Micro@@ 7299
Of 7298
arom@@ 7297
eria 7296
CM@@ 7295
bey 7295
33@@ 7293
Cross 7291
EL@@ 7289
kam@@ 7287
tex 7287
Mati@@ 7286
Sud@@ 7284
eston 7282
pora 7281
1784 7277
ren 7275
octo@@ 7272
UC@@ 7267
John@@ 7266
inski 7263
Freud 7262
1,8 7261
elly 7261
Keith 7257
Terry 7256
mons 7255
1770 7253
lets 7253
Ce@@ 7252
eon 7251
otive 7249
Erik 7247
ISO 7244
Tang 7241
uan 7241
Churchill 7239
Ster@@ 7238
Castro 7235
LC 7232
liner 7232
Wis@@ 7229
Business 7227
tul@@ 7227
paravant 7223
Sali@@ 7221
Sti@@ 7219
Kle@@ 7212
casting 7211
Shō@@ 7210
ring 7208
Beth@@ 7206
Rey 7205
Squ@@ 7205
Nova 7204
dar 7203
kes 7202
onius 7199
Dag@@ 7193
German@@ 7193
escu 7193
2,3 7190
Gallery 7190
Base 7186
ayn@@ 7186
Amp@@ 7184
alet 7182
vial 7175
Tob@@ 7174
1,1 7173
Kum@@ 7171
otop@@ 7164
Pand@@ 7162
NT 7159
Tad@@ 7159
ostr@@ 7154
Eva 7151
DS@@ 7150
ju 7148
Row@@ 7147
ylo@@ 7147
mach@@ 7146
0,1 7145
uchi 7145
esia 7144
fluor@@ 7144
Portland 7143
Libre 7142
emper@@ 7140
Brad@@ 7139
Dra@@ 7139
Gag@@ 7138
Your 7138
Box 7134
Over@@ 7131
Wehrmacht 7130
Holmes 7127
Via 7126
α 7126
Berkeley 7124
ony 7124
Tot@@ 7122
ate@@ 7120
ible 7119
igan 7117
itu@@ 7116
Westminster 7110
27,@@ 7109
gin@@ 7108
Andreas 7106
maxim@@ 7106
Deutsche 7105
imit@@ 7104
male 7103
Wak@@ 7101
juris@@ 7101
Citroën 7100
kor@@ 7100
amoto 7099
Meyer 7097
Lob@@ 7096
odor@@ 7094
Emer@@ 7089
Be 7084
Leo 7083
igt 7082
1783 7080
aven 7073
Twitter 7069
rail 7068
1600 7066
bio@@ 7064
termina 7063
Global 7060
elis 7057
rak@@ 7057
Men 7056
Sof@@ 7055
suj@@ 7052
34,@@ 7046
Bin@@ 7046
Public 7042
yro@@ 7042
kay@@ 7040
aft 7038
sels 7037
cros@@ 7036
rol@@ 7034
Que@@ 7033
1750 7032
Mack@@ 7031
Grandes 7028
anch@@ 7027
Hugh 7025
hel@@ 7025
Him@@ 7018
Church 7014
sets 7012
Say@@ 7009
pert 7004
tas@@ 7003
ò 7003
Heid@@ 7002
macul@@ 7001
oki 6999
Clinton 6998
Do 6997
Larry 6997
Armstrong 6996
Brothers 6994
Paraguay 6989
Lions 6988
Sergio 6988
SG 6987
berto 6986
rements 6986
Wimbledon 6982
iden 6982
Sph@@ 6981
NR@@ 6980
atrième 6980
tak@@ 6980
Alexandra 6978
ynam@@ 6973
arp@@ 6972
Julian 6971
Werner 6971
Olymp@@ 6970
mail 6969
AV@@ 6968
Pictures 6967
nik@@ 6966
Ron 6965
Ts@@ 6964
Lenn@@ 6962
37@@ 6954
Book 6951
rik 6949
thel@@ 6949
Lyn@@ 6947
HS 6946
102 6945
39@@ 6944
anny 6942
tista 6941
SI 6939
Zhang 6939
Ish@@ 6937
Flo@@ 6936
Gin@@ 6932
Sieg@@ 6929
Kre@@ 6928
aper 6927
0.@@ 6925
wn 6922
34@@ 6920
Miy@@ 6919
Müller 6916
Río 6914
Niv@@ 6903
Sonn@@ 6900
Susan 6900
locom@@ 6899
ā 6897
kar 6895
Æ@@ 6895
6.@@ 6894
mos 6894
80@@ 6893
uru 6893
Hass@@ 6892
ovi@@ 6890
Lieutenant 6889
Allan 6888
Elli@@ 6888
ulg@@ 6888
1787 6887
Angelo 6887
ao@@ 6887
26,@@ 6883
Wild 6882
Tex@@ 6881
Dead 6880
FL 6878
wen 6878
animales 6877
aza 6877
ú 6877
Roman@@ 6876
Neg@@ 6875
Wells 6874
Fabr@@ 6873
Kate 6871
450 6867
eline 6867
´ 6865
Santo 6864
Under@@ 6862
Leh@@ 6861
uka 6859
F.@@ 6855
combustible 6855
Tall@@ 6854
Wy@@ 6853
bia 6853
enr@@ 6853
VA 6852
orig@@ 6852
æ 6849
orb@@ 6848
sm@@ 6848
quez 6846
ympi@@ 6845
Day@@ 6844
Rachel 6843
einture 6842
constant 6841
Light 6839
alto 6838
Information 6836
Cohen 6830
sburg 6828
Free 6826
oon 6824
Sea 6823
contra 6815
ński 6814
Kaw@@ 6812
SM@@ 6811
Porsche 6810
einer 6809
Schneider 6806
21,@@ 6805
Richmond 6804
etière 6802
Vand@@ 6801
odon@@ 6797
Nathan 6796
eros 6793
lane 6792
Glo@@ 6787
Promotion 6784
Sv@@ 6784
Gabon 6779
Dom 6777
folk 6772
Race 6769
Hin@@ 6767
Sok@@ 6764
Story 6764
Perry 6763
loo 6758
Io@@ 6757
Nich@@ 6756
Spr@@ 6754
1785 6752
UC 6749
lice 6748
inci 6738
Hog@@ 6735
Sn@@ 6735
inga 6733
Down 6730
Elena 6730
Oliv@@ 6730
nio 6727
1778 6724
Nes@@ 6723
inales 6723
Bid@@ 6722
Rwanda 6716
traf@@ 6715
Triple 6714
aru 6714
ders 6714
ovice 6712
dura 6711
glu@@ 6707
Madonna 6706
Nau@@ 6706
Ed 6703
shi@@ 6703
annon 6702
CR 6700
Coast 6700
Dow@@ 6699
Dioc@@ 6695
écolo@@ 6694
informe 6693
neg@@ 6692
kers 6691
osh@@ 6691
BMW 6689
osom@@ 6688
38@@ 6685
Congr@@ 6684
andra 6684
his@@ 6683
Beethoven 6681
aver 6679
dom 6679
Grace 6678
104 6677
7.@@ 6676
book 6675
hen 6675
vio 6675
1,7 6673
Law@@ 6672
Inc 6670
gan 6668
ingrad 6668
éclip@@ 6668
jer@@ 6664
Suff@@ 6663
Fus@@ 6662
Aber@@ 6658
Ç@@ 6657
Four 6655
Jo 6649
czy@@ 6649
HD 6647
Albums 6646
Roll@@ 6646
T.@@ 6646
facto 6645
hav@@ 6644
cev@@ 6643
Dean 6642
Japan 6642
ț@@ 6640
Sis@@ 6639
iris 6639
Hut@@ 6634
Magnus 6634
Ox@@ 6633
Chelsea 6632
Orlando 6632
unter 6631
Leonard 6630
23,@@ 6628
Gibraltar 6628
Sept@@ 6626
rine 6626
Ronald 6625
Tang@@ 6621
Aaron 6617
Hardy 6616
Hob@@ 6615
Yas@@ 6615
chwitz 6615
tidae 6613
Vu@@ 6611
jiang 6609
enh@@ 6607
nitr@@ 6607
rod@@ 6607
inves@@ 6606
model@@ 6605
bay 6600
Hein@@ 6597
Tanz@@ 6597
Brigade 6596
yat@@ 6596
Sean 6593
ù 6590
head 6589
1760 6588
ru 6588
Section 6587
expl@@ 6586
Secret 6585
Klein 6584
ayo 6582
superfici@@ 6582
Ö@@ 6580
Hyp@@ 6577
Dance 6575
Now@@ 6572
Jak@@ 6571
ld 6571
nac@@ 6571
Jin 6570
mite 6569
alle@@ 6568
orian 6568
3000 6566
Electric 6566
ał@@ 6563
tors 6562
wag@@ 6560
Alpha 6558
orio 6558
gar 6557
Rolling 6555
Way 6555
Ye@@ 6555
Dus@@ 6554
Hills 6548
perf@@ 6539
bei 6536
Greg 6532
UR@@ 6531
mental 6526
Palm@@ 6524
Jal@@ 6522
Quar@@ 6522
gradu@@ 6522
Institu@@ 6521
chel@@ 6521
sian 6521
1776 6520
ias 6519
Bask@@ 6518
enga 6518
22@@ 6512
Garden 6511
fj@@ 6507
Ż@@ 6505
tribu@@ 6504
icks 6499
ome@@ 6498
48,@@ 6496
Diam@@ 6496
135 6495
wor@@ 6494
Abel 6489
emin@@ 6489
Kings 6487
square 6486
ør@@ 6486
1763 6485
Anim@@ 6480
Girls 6480
Hosp@@ 6480
Design 6476
IV@@ 6476
Doh@@ 6475
auses 6475
stra@@ 6475
Galil@@ 6473
tari 6472
Cameron 6471
Pig@@ 6468
Crist@@ 6467
MTV 6466
Stef@@ 6458
Chré@@ 6457
Tu 6456
enza 6456
effici@@ 6455
Classic 6454
comparti@@ 6453
Grammy 6449
Miles 6448
ocar@@ 6448
Batman 6441
Athletic 6440
Put@@ 6439
phi@@ 6435
Abd 6433
hausen 6431
zin 6431
Pok@@ 6430
Machine 6429
PT@@ 6429
ict 6429
Schwar@@ 6426
Memorial 6425
hin 6424
lington 6423
Bridge 6422
Miss@@ 6422
Rodrigu@@ 6422
isition 6421
1700 6417
Spencer 6417
game 6417
Delta 6416
Hart 6416
e. 6415
ás@@ 6413
LM 6409
fried 6409
xu@@ 6409
Ball 6408
leuc@@ 6400
delta 6399
essa 6399
29,@@ 6398
cole 6397
ño 6395
Watson 6390
vog@@ 6390
Nicholas 6388
Recon@@ 6388
aldo 6387
pler 6381
→ 6381
Avi@@ 6380
Mr@@ 6380
jk 6377
edr@@ 6376
Hunter 6373
Dmi@@ 6370
Lanka 6370
Pam@@ 6369
ily 6369
Meh@@ 6367
Dah@@ 6364
EF 6364
eum 6364
Quel@@ 6363
avirus 6363
fast 6363
Harr@@ 6360
Felix 6359
González 6355
Khal@@ 6355
eer 6354
Wu 6353
former@@ 6352
ppo 6351
109 6345
1786 6344
Mali@@ 6341
LG@@ 6340
iel 6340
uba 6340
ER 6339
Chim@@ 6338
nombre@@ 6336
PG 6333
uo 6332
Ruth 6330
SD 6328
Technology 6328
Khar@@ 6325
orama 6325
quième 6325
Xbox 6322
Del 6321
LE 6319
ather 6316
Hed@@ 6306
Sound 6303
UK 6301
V8 6301
Dakota 6297
Rob 6296
Archi@@ 6295
Religion 6295
Circuit 6294
cester 6293
Hop@@ 6292
Wallace 6289
olan 6289
Cub@@ 6288
auff@@ 6288
iler@@ 6288
BO@@ 6285
subj@@ 6285
28,@@ 6283
2,2 6278
We 6278
Gib@@ 6277
eka 6276
commander 6275
born 6273
vat@@ 6273
postul@@ 6272
103 6266
Abd@@ 6264
Encyclo@@ 6263
Magic 6263
esh 6263
Hockey 6262
yse 6261
Arkansas 6260
Ltd 6260
teri@@ 6259
tropical 6256
Rag@@ 6254
teil@@ 6250
Weimar 6249
Fra@@ 6247
ife 6247
vag@@ 6247
Mab@@ 6246
Blake 6245
Final 6241
thy@@ 6241
Butler 6240
ney@@ 6239
Abu 6238
iba 6238
Amar@@ 6237
Barb@@ 6236
Organ@@ 6235
upe 6235
gang 6234
Jennifer 6233
Apollo 6232
Edo 6230
chu 6229
estes 6229
oper@@ 6228
Schmidt 6225
Sug@@ 6224
var 6224
Soy@@ 6219
Yah@@ 6219
lars 6216
Eas@@ 6212
Jab@@ 6210
iter@@ 6210
stand 6208
Eug@@ 6205
Adel@@ 6204
Fischer 6204
jeun@@ 6201
Good 6200
tney 6199
Capital 6198
meeting 6198
Pall@@ 6197
rett 6197
1782 6194
Helen 6194
align 6191
1200 6188
pant@@ 6186
Council 6185
Virginia 6185
Are@@ 6184
Nevada 6184
PD 6183
arro 6183
inda 6183
Constant@@ 6182
Muhammad 6182
poem 6182
1,9 6181
ross 6181
Kis@@ 6179
cret 6178
Labr@@ 6177
Sara 6176
Slo@@ 6173
Lomb@@ 6172
SR 6172
FBI 6171
Pow@@ 6171
oj@@ 6166
Mail@@ 6164
Zel@@ 6164
scope 6162
County 6160
sormais 6159
iya 6157
robot 6157
Michelle 6154
Tradi@@ 6154
Zar@@ 6154
ambigu@@ 6154
Haus@@ 6152
Mall@@ 6152
Wellington 6152
Management 6151
HF 6150
rail@@ 6150
eke 6148
sep@@ 6147
Manit@@ 6143
PP 6143
bers 6142
Yok@@ 6141
3,2 6140
Dennis 6140
Bus 6135
Must@@ 6132
Court 6131
alls 6129
chia 6129
Sahara 6128
persp@@ 6128
Scot@@ 6126
macro@@ 6126
Carol@@ 6124
kow@@ 6124
Carmen 6121
Quint@@ 6121
Murphy 6119
satisfac@@ 6119
bron@@ 6114
onym@@ 6114
Craig 6112
Motor@@ 6112
Lotus 6111
Shu@@ 6111
Rain@@ 6109
Tau@@ 6109
Moon 6107
Death 6103
Gw@@ 6103
Sty@@ 6101
vali@@ 6100
Lane 6097
Olga 6095
1777 6093
220 6092
1774 6091
eren 6090
ship 6089
zel@@ 6089
Atlantic 6088
Weber 6087
thy 6087
deg@@ 6085
yon@@ 6085
108 6084
Inv@@ 6083
Open@@ 6083
Rodríguez 6082
asco 6082
Tag 6081
oral 6081
Sit@@ 6080
isha 6080
kW 6079
phé@@ 6077
Nin@@ 6076
Chanc@@ 6075
Memphis 6075
ausen 6073
pper 6071
kw@@ 6070
Emily 6069
NCAA 6069
ear@@ 6069
Madison 6068
gli@@ 6068
Hali@@ 6067
alty 6066
bak@@ 6066
Tai@@ 6065
XVIII 6065
45@@ 6064
Tech 6064
hil@@ 6064
eca 6063
omen@@ 6063
Raz@@ 6061
def@@ 6060
ology 6060
asis 6058
Alc@@ 6057
EA 6054
Kus@@ 6054
diger 6052
Ses@@ 6050
oca 6050
sta 6048
Law 6047
Loy@@ 6046
Buffalo 6044
Ana 6040
Aviation 6039
CBS 6038
Kru@@ 6036
trum 6033
Fas@@ 6031
Fried@@ 6027
zes 6027
Prof@@ 6025
TR@@ 6025
Grig@@ 6024
Buck@@ 6020
Netflix 6020
icia 6020
Baby 6019
podi@@ 6016
xa 6012
ern 6011
provoc@@ 6011
soul 6011
Hampshire 6009
Nacional 6009
Commer@@ 6008
106 6007
Indian 6006
Railroad 6006
mid@@ 6005
Arte 6003
Whe@@ 6003
carp@@ 6003
Bail@@ 5999
Phot@@ 5999
Eul@@ 5998
Peg@@ 5997
Psych@@ 5997
yards 5997
maximal 5995
Brah@@ 5991
Da 5991
elec@@ 5991
mak@@ 5987
G.@@ 5984
Luther 5981
veaux 5978
alus 5977
ubil@@ 5977
Obama 5976
ths 5976
ț 5974
actylus 5973
mat 5973
.S. 5972
Mobile 5972
ön@@ 5972
6,5 5969
Pach@@ 5967
Tok@@ 5966
Dream 5965
Buz@@ 5964
Ellen 5963
Mi 5962
Roberts 5957
win@@ 5957
Sánchez 5956
19@@ 5953
Album 5953
Mim@@ 5952
Play 5949
uy 5949
hâ@@ 5948
Chand@@ 5947
prov@@ 5947
ís 5947
Grey 5946
phus 5944
Bonif@@ 5942
elen 5942
vertical 5942
Lang 5940
appe@@ 5938
uto 5936
engu@@ 5933
Hod@@ 5932
Pist@@ 5932
tang@@ 5930
Administr@@ 5927
partici@@ 5926
36,@@ 5924
PN 5923
ST 5923
Pop 5922
Bundesliga 5920
Fred@@ 5918
bid@@ 5918
Orchestra 5916
CT@@ 5913
Gouverneur 5912
lau@@ 5912
Bryan 5910
acks 5910
August@@ 5909
kinson 5909
Nick@@ 5904
wat@@ 5901
Ricardo 5899
O.@@ 5897
112 5895
hang@@ 5895
Berger 5892
Jefferson 5885
NBC 5883
disco@@ 5883
Audi 5882
allah 5879
icules 5878
2,6 5877
Jag@@ 5877
UE@@ 5876
cos 5876
aster 5875
LGBT 5874
dam 5871
wil@@ 5871
asaki 5869
gon 5866
Schleswig 5858
hit 5858
uss 5856
ós 5856
End 5855
Fire 5854
arien 5853
ensen 5852
Airbus 5851
Guar@@ 5851
Television 5851
obe 5850
hard@@ 5849
hispan@@ 5848
illar@@ 5848
Sex@@ 5847
ègre 5847
Amy 5845
Honda 5845
Liz@@ 5840
borde 5840
5,5 5839
lava 5837
cht 5836
Six@@ 5833
ith@@ 5831
alli 5826
uple 5826
hat 5822
Heart 5821
Ted 5819
stand@@ 5818
glom@@ 5817
sius 5817
8.@@ 5815
uries 5815
Anast@@ 5814
DR 5813
Potter 5813
teil 5809
Montana 5808
Buff@@ 5806
ül@@ 5806
atti 5804
agen 5802
wel@@ 5800
Patricia 5797
Spo@@ 5796
Serv@@ 5794
Wend@@ 5793
CG 5792
dru@@ 5791
itas 5790
sidi@@ 5790
clusive 5789
Pan 5785
olin 5785
Burg@@ 5779
gin 5779
agglom@@ 5777
aurus 5777
Opera 5773
omar 5772
Diana 5770
Page 5770
Yu 5768
Edwards 5767
Globe 5767
Thom@@ 5766
ince 5764
Midd@@ 5763
nan@@ 5761
tras 5759
Lati@@ 5758
Nah@@ 5756
km@@ 5752
litz 5750
Halle 5749
offic@@ 5749
Kak@@ 5748
western 5747
SH@@ 5746
Viktor 5746
1772 5745
liga 5745
Düsseldorf 5744
Bien@@ 5743
Daily 5741
zel 5738
cot 5737
Cus@@ 5736
acon@@ 5736
esch@@ 5736
1740 5735
Zor@@ 5735
Kay@@ 5734
Lip@@ 5733
icher 5733
128 5729
N.@@ 5729
Norfolk 5727
auf@@ 5727
offices 5725
Plant@@ 5724
arro@@ 5724
For 5723
Penn@@ 5723
enzo 5723
Lucy 5721
esis 5721
édr@@ 5721
As 5719
aan 5716
Nos@@ 5714
cac@@ 5713
oides 5712
Kö@@ 5711
Monter@@ 5711
eg 5711
Kri@@ 5708
Jav@@ 5707
ques@@ 5706
fici@@ 5701
ainer 5700
Yang 5699
Mih@@ 5697
Marin@@ 5694
Guang@@ 5690
timent 5689
berland 5688
CL@@ 5686
Herman 5680
ific@@ 5677
AI 5676
Gog@@ 5676
Path@@ 5676
break 5674
Clin@@ 5673
Did@@ 5673
107 5670
BB 5670
für 5669
Koh@@ 5665
TE 5665
1779 5664
iller@@ 5663
Rogers 5657
pith@@ 5655
tenberg 5653
bach@@ 5652
Dul@@ 5648
Nina 5648
Ich@@ 5645
Cole 5642
tane 5642
Yorkshire 5638
oty@@ 5638
Henn@@ 5637
Yel@@ 5635
RN@@ 5630
44@@ 5629
KO 5629
omy@@ 5628
Ibrahim 5622
Autor@@ 5621
Vy@@ 5618
person@@ 5617
Ent@@ 5616
Guide 5615
IBM 5615
Joy@@ 5615
HP 5614
Tower 5614
Café 5613
Eisen@@ 5613
Lum@@ 5613
anza 5612
views 5610
stre@@ 5609
Kov@@ 5606
Pru@@ 5606
1781 5605
Silver 5603
lati@@ 5602
Kingston 5601
cat 5599
ý@@ 5599
This 5597
otom@@ 5596
China 5590
ahl 5590
ucci 5590
£ 5589
3,3 5586
Heb@@ 5582
Digital 5581
nivel@@ 5579
Constitu@@ 5578
Lod@@ 5578
2,7 5577
Stur@@ 5577
1768 5576
IT 5576
ican 5574
orqu@@ 5571
Leon 5568
dérou@@ 5568
Zen@@ 5567
fortun@@ 5567
lov 5567
Michel@@ 5565
Braz@@ 5564
Montr@@ 5564
Ward 5564
endorf 5564
Chen 5562
X. 5562
tav@@ 5562
Form@@ 5561
very 5559
Hotel 5557
Krist@@ 5557
Pete 5556
Rak@@ 5556
NT@@ 5554
relativ@@ 5554
Iron 5551
Pant@@ 5550
Duke 5549
onen 5548
0,2 5547
Sant 5544
blog 5541
Cis@@ 5540
enz 5540
halle 5539
hap@@ 5538
tom 5538
Denver 5536
isl@@ 5534
121 5532
2,8 5532
Jessica 5527
0,6 5524
Edmund 5522
assi 5522
115 5521
khe@@ 5520
Run@@ 5517
Myr@@ 5516
Palace 5516
ful@@ 5514
Kenneth 5510
Tigers 5509
Cann@@ 5507
inas 5507
Hist@@ 5503
gom@@ 5503
aur 5502
Dob@@ 5495
ping 5493
Zu@@ 5490
respectiv@@ 5490
GB 5486
Rut@@ 5486
nam 5484
soccer 5483
BR@@ 5482
oci@@ 5481
Catal@@ 5479
Darwin 5479
eval 5479
Adrian 5478
Toyota 5478
Women 5478
script 5476
Mary@@ 5475
amaz@@ 5475
odon 5475
Cran@@ 5473
Clarke 5471
rico 5469
1720 5468
111 5467
Spi@@ 5467
Newcastle 5466
Chic@@ 5463
&apos;@@ 5461
Country 5460
PM 5458
Romeo 5458
miles 5458
under 5458
35,@@ 5457
Chor@@ 5457
dius 5456
Lich@@ 5454
Montgomery 5452
Za@@ 5452
anni 5450
sini 5450
acent 5448
Atlético 5442
acker 5441
South@@ 5439
Jung 5435
Luk@@ 5435
Communications 5434
Two 5434
Kid 5432
Sever@@ 5432
Tyr@@ 5430
9.@@ 5429
VO@@ 5429
EM@@ 5428
Special 5428
Version 5428
750 5427
Africa 5427
Spider 5424
Boulevard 5422
.C. 5421
Non@@ 5421
Stevens 5418
final@@ 5418
Total 5416
Edmon@@ 5415
Andor@@ 5414
Derby 5411
hit@@ 5411
Honduras 5409
atsu 5408
Carol 5406
yr 5403
SPD 5401
Glou@@ 5400
RAF 5400
Inform@@ 5396
Heidelberg 5395
ET 5394
nen 5393
Bundes@@ 5388
Cathol@@ 5388
Luz@@ 5386
Hamp@@ 5384
KA 5383
Mozambi@@ 5377
Gil 5375
Greg@@ 5374
Pog@@ 5374
ī 5374
Riga 5373
him 5373
Zak@@ 5370
CV 5369
scr@@ 5369
band 5367
ails 5363
EN 5360
Juni@@ 5360
Moder@@ 5357
Cow@@ 5355
ardi 5355
Gregory 5352
bor 5352
8,5 5351
avo 5351
Eduardo 5350
west 5348
Kok@@ 5347
Klaus 5346
Feder@@ 5345
SF 5344
9,5 5342
sper@@ 5341
Bry@@ 5340
bourne 5340
Hughes 5339
essin 5339
sdorf 5339
Aran@@ 5334
Rhy@@ 5333
Sut@@ 5333
Isid@@ 5332
ML 5331
lidae 5331
Berg 5330
Uz@@ 5330
elt@@ 5330
Mez@@ 5329
arte 5329
Pat 5328
karat@@ 5324
Alfa 5322
Nim@@ 5321
oney 5320
Southern 5318
ophy@@ 5318
set@@ 5318
Owen 5316
dov@@ 5316
templ@@ 5315
anner 5314
kug@@ 5313
60@@ 5305
1758 5304
French 5300
chu@@ 5300
João 5296
Tsu@@ 5296
Tyler 5295
IL 5293
icht 5293
1660 5292
1773 5291
3,6 5290
ads 5290
Dat@@ 5289
Infrastr@@ 5289
TH@@ 5286
Aviv 5285
Mount 5285
inde 5285
Spec@@ 5284
fordshire 5283
imen 5283
playoffs 5282
Bart 5281
ation@@ 5280
Augusta 5278
Juventus 5278
fli@@ 5278
Adi@@ 5276
open 5276
ová 5275
Oakland 5273
ild 5272
lett 5272
3,4 5271
Edwin 5271
gate 5270
schild 5269
123 5268
Pearl 5266
haf@@ 5266
stopp@@ 5263
Martín 5262
0,3 5260
gem@@ 5260
1769 5257
127 5256
Barbar@@ 5256
Mar 5256
Board 5252
Auto 5251
Bennett 5251
nick@@ 5251
law 5248
inen 5247
Physi@@ 5246
1755 5244
alif@@ 5244
rats 5244
Sik@@ 5243
30,@@ 5240
ID 5239
amen 5239
ights 5238
Duncan 5233
onium 5232
Trust 5231
Id@@ 5228
ampton 5228
124 5227
egel 5225
piè@@ 5225
β 5224
Family 5223
aser 5223
Mayer 5222
actr@@ 5222
Å@@ 5221
andal@@ 5218
dance 5216
Drive 5215
anum 5215
http 5212
Leeds 5211
sten 5211
anj@@ 5210
Bros 5208
gau 5207
History 5206
Milwaukee 5206
1765 5201
ige@@ 5201
Linda 5199
mus 5198
dic 5197
ib 5197
2,1 5196
Zagreb 5196
nius 5193
ET@@ 5191
IN 5191
ush 5191
Kag@@ 5184
atha 5183
1756 5182
Giants 5182
Ein@@ 5180
Wild@@ 5179
Tav@@ 5177
Fort@@ 5173
icky 5173
aden 5171
1762 5168
Last 5168
Wein@@ 5167
alition 5167
chus 5164
mare 5164
Fall@@ 5163
leb@@ 5163
ante@@ 5162
H.@@ 5159
kus 5159
än@@ 5159
37,@@ 5153
Econom@@ 5151
inver@@ 5150
nem@@ 5150
Sullivan 5148
õ@@ 5147
SU@@ 5145
Shaw 5145
ld@@ 5144
122 5143
Beh@@ 5140
1771 5138
vik 5137
Randy 5136
Malcolm 5134
Windsor 5133
Gill 5132
illus 5132
gets 5131
Dylan 5129
Fantas@@ 5129
addition 5128
yk@@ 5128
Zimbabwe 5126
PO 5125
afr@@ 5123
49@@ 5120
PE 5120
Togo 5119
OR@@ 5117
Scho@@ 5115
didae 5115
ocul@@ 5115
cargo 5113
Chuck 5111
engo 5111
Fe 5110
Hok@@ 5109
ische 5109
pide 5106
Sidney 5105
AE 5104
Nicaragua 5102
SL 5101
ân@@ 5101
Malm@@ 5100
DV@@ 5097
Back 5093
Hoch@@ 5091
Mercury 5090
Fernández 5088
Hof@@ 5088
Price 5087
erine 5086
comic 5085
Brow@@ 5083
Casa 5083
this 5083
Rost@@ 5082
light 5082
sino 5082
Andes 5078
Dies@@ 5078
benz@@ 5077
Castle 5076
akh 5075
asha 5072
117 5069
Anc@@ 5069
princi@@ 5068
Doctor 5067
Ez@@ 5067
DR@@ 5066
Termin@@ 5066
enland 5066
center 5065
nice 5063
enzyme 5061
sha 5060
otus 5059
Thomson 5058
enj@@ 5055
Metropolitan 5054
aten 5053
Po 5052
ovic 5052
Soccer 5051
ă 5051
oter 5050
Ili@@ 5049
aska 5046
Vol 5045
U.S. 5044
Dud@@ 5043
SR@@ 5043
oshima 5043
Ins@@ 5042
Fru@@ 5041
Josh 5041
anapolis 5038
jas 5037
namo 5034
Wolf@@ 5032
Auckland 5031
straße 5027
cock 5026
enthal 5022
1730 5021
kowski 5018
Akh@@ 5017
endi 5016
Shah 5014
mide 5014
Parad@@ 5011
plum@@ 5011
Frances@@ 5009
EM 5008
Nept@@ 5007
imin@@ 5006
program@@ 5005
Angela 5004
enbach 5004
río 5004
Conference 5003
Khali@@ 5003
1759 5001
NP 4997
Android 4995
Up@@ 4993
Rit@@ 4991
Summer 4991
you 4991
lik@@ 4990
SMS 4988
eson 4985
Bros@@ 4984
dae 4984
designer 4984
Yuk@@ 4981
ph 4981
Yak@@ 4980
Emil 4978
Bh@@ 4977
Mend@@ 4977
ja@@ 4977
Gug@@ 4975
Bonn 4974
Brom@@ 4974
Carre@@ 4974
Lex@@ 4973
eni@@ 4973
Alek@@ 4972
Laos 4972
Federico 4970
podr@@ 4970
itis 4967
sio 4967
tier@@ 4967
Von 4965
1757 4963
aland 4963
Leslie 4962
igi 4961
Eugene 4960
participantes 4959
web@@ 4959
auf 4958
ò@@ 4958
1766 4955
AV 4955
Cly@@ 4955
onic 4955
Chevrolet 4950
Ó@@ 4950
46@@ 4948
Delhi 4948
wak@@ 4944
Alo@@ 4943
apolis 4941
Autr@@ 4938
Lamp@@ 4938
Tud@@ 4938
Progr@@ 4937
Wall 4937
aber 4936
auti@@ 4933
ede 4932
gun 4932
aler@@ 4931
kh 4931
Hill@@ 4930
Train 4930
beck 4930
consolid@@ 4930
gris@@ 4930
pit 4930
Yun@@ 4929
Poc@@ 4928
Stanford 4928
stages 4928
Rober@@ 4927
Felipe 4926
ink@@ 4926
obs 4926
sala 4926
113 4924
Resp@@ 4923
Mb@@ 4921
iman 4920
Samoa 4919
Yosh@@ 4917
heimer 4917
Nec@@ 4915
SmackDown 4915
yak@@ 4915
Jamie 4914
avia 4914
Phillips 4913
causa 4913
kaz@@ 4912
Pens@@ 4911
gil@@ 4911
Byzant@@ 4910
DT 4909
Martha 4906
`@@ 4906
Torres 4905
− 4905
Glob@@ 4904
Schl@@ 4904
Ptol@@ 4903
Dil@@ 4902
Kno@@ 4902
Écos@@ 4902
Yale 4901
yang 4900
Isa@@ 4899
Lay@@ 4899
Ail@@ 4897
abi@@ 4897
Todd 4896
Sent@@ 4895
Nap@@ 4894
cari@@ 4894
Head 4892
1640 4891
Edi@@ 4891
Miz@@ 4889
49,@@ 4887
bek@@ 4887
curs@@ 4887
pie 4887
invol@@ 4886
Gaza 4885
Italia 4885
Kid@@ 4885
Kro@@ 4885
kho@@ 4884
bank 4881
excentr@@ 4881
enas 4880
Kul@@ 4878
devr@@ 4878
ansen 4877
brid@@ 4877
California 4876
Qué@@ 4876
osh 4876
firma 4875
sak@@ 4875
Kop@@ 4874
Bey 4873
lam 4872
CL 4868
Salv@@ 4867
UL@@ 4867
yenne 4867
1764 4866
niti@@ 4865
Curtis 4864
Stan 4864
ying 4864
Kenny 4862
offs 4862
Rita 4858
music 4858
Foster 4857
Gerald 4856
hir@@ 4854
Theater 4853
Docum@@ 4849
Priv@@ 4848
ilis 4848
Mao 4847
Suzuki 4847
Baden 4845
Euph@@ 4845
quem@@ 4845
Kem@@ 4843
Villar@@ 4840
Ago@@ 4839
Dw@@ 4837
quis@@ 4836
Ern@@ 4835
1650 4834
Tut@@ 4832
fred 4832
Haf@@ 4830
arry 4830
plex 4830
vos 4830
fes 4829
ý 4829
240 4828
Jonas 4828
Mig@@ 4827
126 4826
apor@@ 4826
aming 4823
manufactur@@ 4823
Grap@@ 4822
haus 4822
1648 4820
alcal@@ 4819
Einstein 4817
Jov@@ 4817
Mug@@ 4817
boys 4814
Powell 4811
Tach@@ 4811
Tay@@ 4810
uca 4807
Traf@@ 4806
ador@@ 4806
atis 4803
Kay 4802
Metal 4802
Pseud@@ 4802
kies 4802
Herschel 4801
Knight 4800
shi 4797
48@@ 4796
PF 4796
unga 4795
azy 4794
argu@@ 4791
isp@@ 4790
Model 4788
Auch 4787
Sek@@ 4787
kham 4786
zia 4786
idan 4785
Falls 4783
kas 4783
spin 4782
Reynolds 4780
Social 4780
Bath@@ 4779
Kho@@ 4776
ancia 4776
Theodor 4774
kad@@ 4773
WA 4772
Glenn 4771
NH@@ 4771
isseau 4771
2023 4770
38,@@ 4770
Davies 4770
war 4770
abo 4769
juli@@ 4769
Reyn@@ 4768
Fisher 4767
Oh@@ 4767
Oz@@ 4767
Deg@@ 4766
Sco@@ 4766
bera 4766
usu@@ 4766
Karen 4765
azar@@ 4765
disc@@ 4761
Mek@@ 4760
bun@@ 4759
201@@ 4758
Schu@@ 4757
Jul@@ 4755
Limited 4755
190 4754
Trinity 4753
emie 4753
icum 4752
Canadian 4751
torio 4751
Bergen 4750
1767 4747
Palmer 4746
toria 4742
atic 4740
yx 4736
Wars 4732
photograph@@ 4731
Rau@@ 4723
Margar@@ 4722
osi 4722
tries 4720
sue 4719
Holland 4716
MR 4716
Ulrich 4716
Gibson 4714
Marcel@@ 4712
Kiel 4711
gorod 4711
230 4708
bol 4708
pei 4706
Hunt 4704
320 4703
Kane 4703
A1 4700
big@@ 4700
Jin@@ 4699
eps 4698
Gad@@ 4695
Pf@@ 4691
ogen@@ 4691
ted 4689
ving 4686
‰ 4686
tenstein 4685
47@@ 4684
c. 4681
skie 4681
Campo 4680
Ril@@ 4680
Hann@@ 4678
elas 4678
ana@@ 4677
Guadal@@ 4676
ő@@ 4676
peri@@ 4675
Trib@@ 4673
1300 4671
Gay 4671
Eis@@ 4670
Horn@@ 4670
had@@ 4670
scrip@@ 4668
Gó@@ 4664
DM 4663
Lup@@ 4662
SL@@ 4662
chil@@ 4662
Euro@@ 4661
stor@@ 4661
Toy@@ 4660
Fantasy 4655
Hospital 4654
Erich 4653
Schön@@ 4652
Winston 4652
AH 4651
polog@@ 4651
1630 4650
Gim@@ 4644
Age 4643
opsis 4643
1761 4642
hibition 4641
mah@@ 4641
sacer@@ 4640
Benz 4638
Springs 4638
ener@@ 4638
BM 4637
remix 4636
ief 4635
1715 4634
CT 4634
strö@@ 4634
UR 4633
less 4633
Lopez 4632
anon 4632
cricket 4632
GR@@ 4628
Bayern 4627
aron 4626
DB 4623
har 4623
dt 4622
surg@@ 4622
Alle@@ 4621
islat@@ 4621
mol 4621
äl@@ 4621
SP 4618
Neill 4616
ilio 4615
board 4614
gae 4613
Bilbao 4611
Teresa 4611
ladi@@ 4611
possibl@@ 4611
vili 4611
Bever@@ 4609
Hind@@ 4609
ehr@@ 4609
value 4609
yph@@ 4609
actus 4607
Gill@@ 4606
Burton 4605
Javier 4604
Trail 4604
ecca 4603
Cen@@ 4601
eco 4600
enia 4600
Égyp@@ 4600
Miner@@ 4599
Soul 4599
Jeremy 4596
than 4596
Koz@@ 4595
fig@@ 4595
IB@@ 4594
Vermont 4593
seconds 4592
umba 4592
multiple 4591
anger@@ 4590
ighton 4587
Eber@@ 4583
Puerto 4583
olph 4583
Data 4579
stad 4578
Reed 4577
1670 4576
América 4575
Gig@@ 4575
anas 4575
AFC 4574
Flash 4573
1680 4571
Gle@@ 4571
buc@@ 4569
zano 4569
ratio 4567
Jesse 4566
shu@@ 4566
Fati@@ 4565
tural 4563
Sund@@ 4561
Symb@@ 4561
Vera 4561
Nest@@ 4559
eins 4559
flag@@ 4559
rug@@ 4558
Winter@@ 4557
iat 4557
Jagu@@ 4555
Thr@@ 4551
Herr@@ 4550
Dyn@@ 4549
Silver@@ 4549
index 4548
obi 4548
thus 4548
trig@@ 4548
Contin@@ 4547
Ear@@ 4547
Amad@@ 4546
Leone 4546
sai 4546
Hope 4545
Ek@@ 4541
Run 4541
Nashville 4539
gay 4537
1748 4536
unda 4532
Ú@@ 4532
Shak@@ 4531
Energy 4528
inde@@ 4526
DI@@ 4525
arum 4525
0,4 4524
Philipp@@ 4524
Kyle 4523
cast 4523
ht 4523
Coh@@ 4522
Side 4521
RE 4518
onis 4517
tem 4517
Gener@@ 4514
Dynam@@ 4513
Percy 4512
Harbor 4511
Milton 4511
Northern 4511
Luna 4510
ulos 4509
Princeton 4508
pod@@ 4508
ods 4506
sea 4506
gun@@ 4505
Regiment 4504
adan 4503
lil@@ 4503
Lok@@ 4502
PI 4502
Vicente 4501
Pear@@ 4500
Programm@@ 4500
oslav 4500
Carey 4499
Leonardo 4498
pus@@ 4497
thode 4496
Phyl@@ 4495
Det@@ 4494
Vision 4491
Fey@@ 4490
Frances 4490
Monica 4490
ald@@ 4489
Bismarck 4486
bro 4485
Leicester 4482
sley 4482
Pyth@@ 4480
Jr. 4478
zig 4477
Morrison 4472
has 4472
Aph@@ 4471
fia 4470
Nis@@ 4469
Hern@@ 4467
oss 4467
Hes@@ 4465
Martínez 4465
afa 4465
1754 4464
Schul@@ 4463
Rest@@ 4462
ña 4462
GS 4459
Sul 4458
Banks 4456
Clif@@ 4456
Gün@@ 4455
Spring 4455
Colonel 4452
1685 4448
h. 4448
Bald@@ 4444
clave 4444
jin 4441
Bez@@ 4438
Bib@@ 4432
anor 4431
onder@@ 4431
Gut@@ 4430
Seb@@ 4430
fu 4430
Infanterie 4428
hardt 4428
jun@@ 4428
Jackie 4427
hut@@ 4427
1753 4425
Human 4425
funk 4425
essel 4423
hu 4422
tech@@ 4421
transporte 4421
Ted@@ 4420
horizontal 4420
onnat 4420
Bella 4415
mili@@ 4415
ural 4413
hara 4411
rano 4410
dry 4405
1690 4402
imar@@ 4401
2.0 4400
EL 4400
Mason 4399
Morning 4399
polon@@ 4399
Alejandro 4398
Flu@@ 4398
Reichs@@ 4398
WWF 4398
hai 4398
ei@@ 4397
More 4395
digit@@ 4395
Calvin 4392
32,@@ 4390
Mann 4390
best 4390
Zeus 4389
Murat 4388
Mex@@ 4386
Library 4384
inho 4384
onica 4384
obile 4382
puls@@ 4381
Am 4380
Bradley 4380
Set@@ 4379
bow@@ 4379
üt@@ 4379
Robertson 4378
118 4377
Three 4377
Moreno 4375
heavy 4374
Teatro 4373
haz@@ 4373
Milli@@ 4372
Asi@@ 4371
Victor@@ 4371
Betty 4370
Industries 4370
Stol@@ 4369
acia 4369
CDU 4367
ems 4367
Anglo 4366
Yi 4366
hao 4366
ril@@ 4365
Essex 4364
bad 4363
Pug@@ 4362
SB 4362
Systems 4358
Isra@@ 4357
Motors 4357
Pink 4357
Wid@@ 4353
Modern 4352
sei 4352
ina@@ 4351
Hig@@ 4350
Bird 4349
abo@@ 4349
atio 4349
monta@@ 4349
Sang 4348
mani 4347
aat 4346
rov@@ 4346
omor@@ 4345
Scre@@ 4344
astie 4344
Zw@@ 4342
Minas 4341
ional 4340
Marse@@ 4339
Buffy 4338
Valle 4336
Pak@@ 4335
plane 4334
SN 4333
Alp@@ 4332
Piz@@ 4332
Ring 4331
Sega 4330
pore 4330
Haj@@ 4329
Plata 4328
tle 4328
ufac@@ 4327
Blood 4326
Motor 4325
enzie 4325
ș 4325
API 4324
Ni 4323
1620 4321
andinav@@ 4320
ł 4320
abel 4319
nar 4319
Multi@@ 4318
DF@@ 4317
David@@ 4317
114 4315
oly@@ 4315
Sta@@ 4314
English 4312
Harmon@@ 4311
tens 4310
Cardiff 4309
aly 4308
And 4307
Gn@@ 4305
Ski@@ 4304
erk@@ 4304
330 4302
ien@@ 4302
intend@@ 4301
Psy@@ 4300
andt 4300
org 4300
aban 4299
bek 4299
Record 4298
ál@@ 4298
210 4297
Illustr@@ 4297
baz@@ 4297
Te 4295
Zer@@ 4294
jana 4287
teo 4286
Sonic 4285
river 4281
Libr@@ 4279
ì 4277
Jake 4276
Nation@@ 4276
distr@@ 4276
Miranda 4275
1751 4274
Bart@@ 4274
132 4273
IO@@ 4273
Irish 4272
dison 4272
sters 4272
tius 4272
Luftwaffe 4269
foot 4268
DL 4267
Kut@@ 4265
Sol 4264
Drake 4262
Video 4261
Deep 4260
distinct 4258
esi@@ 4258
Gloria 4257
Software 4257
rapid@@ 4257
rif@@ 4257
NXT 4255
aliforni@@ 4255
Giov@@ 4253
UP 4251
Connor 4250
Arrondissement 4249
Shan@@ 4249
investigation 4249
tez 4249
asia 4248
Heinz 4247
001 4244
Linn@@ 4243
olls 4240
urn 4240
horn 4239
Archit@@ 4238
Jakob 4238
Maf@@ 4238
Alfredo 4235
thias 4235
kos@@ 4233
vas 4233
eff 4232
39,@@ 4231
Homer 4231
écrit@@ 4230
Gang@@ 4229
Yar@@ 4229
Horiz@@ 4228
ambo 4228
55@@ 4227
Angels 4226
What 4226
Andrews 4225
med@@ 4224
Euc@@ 4222
Hyper@@ 4222
Jung@@ 4222
oya 4222
roll 4222
So 4220
yers 4220
Petro@@ 4219
ebel 4219
gol 4219
a.@@ 4218
1745 4216
India 4215
XX 4215
Floyd 4213
Nazar@@ 4213
ahan 4213
parte 4213
sik@@ 4212
précipit@@ 4211
olf 4209
iso 4207
Cres@@ 4205
Moun@@ 4202
isto 4202
onas 4200
Century 4199
aps 4198
Eb@@ 4195
trin@@ 4194
Water 4193
Ê@@ 4193
Sport@@ 4192
Enrique 4191
ardt 4191
Cong@@ 4190
Gene 4190
Typ@@ 4190
enzy@@ 4190
reproduc@@ 4190
atar 4189
Chi 4187
Oy@@ 4187
Dong@@ 4185
induc@@ 4184
staff 4184
ík 4184
balance 4183
Ars@@ 4182
contribut@@ 4182
plasma 4182
rah@@ 4177
Má@@ 4176
ind 4176
abad 4175
Guardian 4174
ân 4174
Brus@@ 4172
Wind@@ 4172
ale@@ 4172
Bav@@ 4171
cir 4171
Anhalt 4169
Virgin 4169
zhou 4169
0,8 4168
Plaza 4168
FS 4166
Joel 4164
116 4162
Building 4162
Dorothy 4162
Warriors 4162
Zam@@ 4162
Watch 4160
Ellis 4159
Kah@@ 4159
Mathemati@@ 4159
Mayo 4157
dish 4157
Sob@@ 4156
Edge 4154
Wan@@ 4153
Education 4152
Newport 4152
Christoph 4151
lerin 4151
yar@@ 4151
Naval 4148
oft 4147
vik@@ 4147
Gran 4146
Aston 4145
Fed@@ 4145
stan@@ 4145
tum 4145
Development 4143
Swe@@ 4143
ean 4143
wang 4141
People 4140
Janet 4136
Silv@@ 4136
hibit@@ 4135
MT@@ 4134
Spin@@ 4134
UF@@ 4133
oqu@@ 4132
berry 4131
Bang 4129
recht 4129
ria 4128
view 4128
añ@@ 4126
mem@@ 4124
Battle 4123
Rivera 4123
asser@@ 4121
ead 4121
inne 4119
Chan 4116
Pho@@ 4115
U.@@ 4114
pH 4113
280 4112
world 4112
Mohammad 4110
tros 4110
tape 4109
21@@ 4108
Nun@@ 4108
onz@@ 4108
Sle@@ 4106
cel 4106
rom 4106
Sich@@ 4105
Stir@@ 4105
Well@@ 4105
eberg 4104
GNU 4103
Sussex 4103
vivi@@ 4102
Philipp 4101
awn 4099
ē@@ 4099
ety 4098
tura 4097
Mills 4096
thers 4096
Crom@@ 4095
ück 4095
Woman 4094
Bernhard 4093
CH 4093
sat 4093
Storm 4092
1710 4091
Cey@@ 4091
1747 4089
Dut@@ 4088
away 4088
Captain 4084
NC 4084
Exper@@ 4083
coach 4083
Forbes 4082
cases 4081
aar 4080
évrier 4080
Philosophie 4079
100@@ 4078
260 4078
Ya@@ 4078
anal 4077
owa 4075
kai 4074
ozo@@ 4074
70@@ 4073
1752 4072
Tik@@ 4071
Wester@@ 4071
129 4070
Ahmad 4068
Telec@@ 4068
okie 4068
Australian 4067
ological 4065
hof 4064
liger 4064
BE 4063
Command 4063
Quir@@ 4062
Wilhel@@ 4060
endel@@ 4060
KS 4058
franqu@@ 4058
Scr@@ 4057
shan 4057
Ports@@ 4056
Singles 4056
aram@@ 4056
amus 4055
dev 4055
Lein@@ 4052
Torre 4052
footbal@@ 4051
BP 4050
tad@@ 4050
Porter 4049
sing 4048
rim@@ 4046
Songs 4044
Sultan 4044
1713 4042
Hous@@ 4042
Liberty 4041
ahl@@ 4041
bern@@ 4041
1400 4040
leen 4040
Beck 4039
wara 4039
yu@@ 4039
Saw@@ 4038
1550 4037
Fraser 4037
Jay@@ 4036
Matthias 4036
Sherman 4036
aia 4035
ayan 4035
ram 4034
Format 4033
@ 4032
pau@@ 4032
sad@@ 4031
Burn@@ 4030
Instrum@@ 4028
Eduard 4027
asit@@ 4027
Bél@@ 4026
Schi@@ 4025
Vega 4025
Fall 4024
Queens 4023
park 4023
Minh 4021
dee 4021
omin@@ 4021
Eich@@ 4020
Raw@@ 4019
Somerset 4019
olia 4019
1741 4018
s.@@ 4013
175 4012
equ@@ 4008
Salt 4005
Stand@@ 4005
Sophia 4003
Monroe 4001
row@@ 3999
âteau 3997
Mark@@ 3996
Sheffield 3996
Aar@@ 3995
Mov@@ 3995
deaux 3994
Harper 3993
Krasno@@ 3993
entry 3993
valu@@ 3990
mali@@ 3989
rix 3989
Arth@@ 3988
background 3988
Richardson 3985
Celtic 3984
Hull 3984
Review 3984
ful 3984
Fleet 3983
650 3981
Brenn@@ 3981
MG 3981
CN 3979
orf 3979
Assist@@ 3978
Rup@@ 3978
Vladi@@ 3978
erek 3976
nic 3974
ait@@ 3973
Julio 3971
Richards 3966
tical 3966
later 3960
ahr@@ 3958
ya@@ 3958
Steel 3957
Tet@@ 3956
Horse 3955
Ped@@ 3955
57@@ 3954
NCA@@ 3954
ü 3953
Heil@@ 3952
IL@@ 3952
echn@@ 3950
viz@@ 3950
Desp@@ 3947
cland@@ 3947
fugi@@ 3946
maz@@ 3946
Samp@@ 3944
sev@@ 3944
Key 3943
46,@@ 3942
Lara 3942
90@@ 3940
asu 3940
baum 3940
ʻ@@ 3940
right 3939
AK@@ 3938
Alto 3938
Montevideo 3938
Hoff@@ 3937
ellus 3937
Probl@@ 3936
wski 3934
gren 3933
A2 3929
inson 3929
pad@@ 3929
CV@@ 3926
Ajax 3925
Brad 3925
Yang@@ 3924
uel@@ 3923
LS 3922
Prus@@ 3922
utz 3922
Wrest@@ 3921
Aleksand@@ 3920
lee 3920
Este 3919
uda 3919
xy 3917
Als@@ 3916
abis 3916
tory 3915
1749 3913
Rä@@ 3911
enfeld 3911
Goethe 3910
Like 3909
Chester 3907
SW@@ 3907
Chu@@ 3906
Oh 3906
Kamp@@ 3905
oyle 3904
Palma 3903
Plymouth 3901
Potsdam 3901
Wen@@ 3901
iri@@ 3901
Kron@@ 3900
Los@@ 3900
uga 3900
Equ@@ 3899
Light@@ 3899
5000 3898
weight 3897
hib@@ 3896
Tell 3895
estan 3895
1610 3894
He 3894
ED@@ 3892
EMI 3892
William@@ 3890
alte 3890
1636 3889
Winter 3888
Conservation 3886
Ere@@ 3885
Mini 3884
Ling@@ 3883
Ruh@@ 3883
Henderson 3882
Posi@@ 3882
nos@@ 3881
1707 3879
Becker 3879
Engagement 3879
Intelligence 3879
Brien 3878
Campus 3878
ailler 3878
Sham@@ 3876
ambu@@ 3876
onda 3875
ree 3875
Hispan@@ 3871
Mariano 3868
bog@@ 3868
glut@@ 3868
Hannah 3866
Year 3866
pac@@ 3866
Kand@@ 3865
eki 3865
verd@@ 3865
ikan@@ 3863
Bartolom@@ 3862
Brooks 3862
550 3858
Homo 3858
Claudia 3857
anno@@ 3857
erina 3857
scru@@ 3853
Nixon 3852
antha 3846
scher 3846
supp@@ 3846
icio 3845
1540 3844
Cryp@@ 3843
Koch 3843
edia 3842
vil 3841
Zero 3840
arqu@@ 3839
elo@@ 3838
eus@@ 3837
mez@@ 3836
.-@@ 3835
1688 3834
1689 3834
HL 3834
Paula 3833
mund 3833
Thu@@ 3832
Eugen@@ 3830
resc@@ 3829
Sand 3827
pep@@ 3827
Tari@@ 3826
encia 3826
Hoffmann 3825
Wii 3824
beau@@ 3824
anic 3823
urugu@@ 3823
por 3822
ulio 3822
Baj@@ 3821
Dais@@ 3821
Durham 3821
Göttingen 3821
Scienti@@ 3821
Tus@@ 3821
oman 3821
Dietrich 3819
amura 3819
atos 3818
osus 3818
COVID 3815
Nieder@@ 3815
frame 3814
Dad@@ 3813
Isabel 3813
trix 3813
Volkswagen 3812
hol 3812
liz@@ 3812
ning@@ 3812
Hansen 3809
obo 3807
Mal 3805
Alfonso 3804
anca 3804
och 3804
1743 3803
Claudio 3803
1742 3802
Power@@ 3802
reform@@ 3802
י@@ 3802
Helena 3801
dul@@ 3801
hua 3801
Joshua 3799
ood 3799
ulo 3799
say@@ 3798
teste 3796
chn@@ 3795
enst@@ 3795
MT 3794
Works 3794
bai 3793
ual 3793
Ramón 3791
igg@@ 3790
Neb@@ 3789
uman 3789
1580 3786
VP 3786
47,@@ 3785
Philharmon@@ 3785
African 3784
Niz@@ 3783
Cali@@ 3782
orr@@ 3780
Diamond 3779
dong 3779
44,@@ 3778
Bernardo 3778
arra 3777
nitz 3777
vocal 3775
edra 3773
erson 3773
toon 3773
Feld@@ 3771
his 3771
mam 3771
45,@@ 3770
Slav@@ 3770
pies 3770
Das 3768
Rug@@ 3768
Edition 3767
dich@@ 3767
visa 3766
SO 3765
Vita 3764
iggins 3763
1100 3762
Aun@@ 3761
Metacritic 3760
ket@@ 3760
kett 3760
Anti 3758
izi 3758
1672 3756
Def@@ 3756
lif@@ 3756
Andrés 3755
Federation 3755
ffen 3754
Wag@@ 3752
Can 3751
oper 3751
155 3750
ancy 3750
145 3749
Glen 3749
Horn 3748
ün@@ 3748
1560 3747
Trich@@ 3747
Zap@@ 3746
irus 3746
tras@@ 3746
lecht 3744
Glad@@ 3743
Stern 3743
Tek@@ 3743
techni@@ 3743
ophyl@@ 3741
Maxwell 3740
Roma 3740
Zan@@ 3740
annis 3739
Chamber@@ 3738
idas 3738
Fis@@ 3736
wol@@ 3736
1635 3734
wall 3734
1744 3733
Foc@@ 3733
Lynn 3732
Stein 3731
Nissan 3729
acon 3729
Crystal 3727
Mania 3727
cott 3727
ular 3726
unds 3726
Joyce 3725
zt 3725
Now 3724
Gör@@ 3723
ming 3723
VC 3721
vel 3721
Neum@@ 3718
nes@@ 3718
stands 3717
1530 3716
Nebraska 3716
ank 3715
aun 3715
Perth 3714
holding 3714
Test@@ 3713
270 3712
131 3711
plut@@ 3711
Golf 3710
Kod@@ 3710
Rotten 3710
Lif@@ 3709
estat@@ 3706
vir 3704
thal 3703
Emilio 3702
1746 3700
Clay@@ 3700
bann@@ 3700
sty@@ 3700
Diz@@ 3699
ells 3699
life 3699
1667 3698
Bih@@ 3698
Get@@ 3698
Paz 3698
Ruf@@ 3698
aq 3698
Woods 3697
eph@@ 3695
académ@@ 3694
Cz@@ 3692
IA@@ 3692
Albi@@ 3691
hot@@ 3691
1738 3689
Get 3689
ñez 3689
Asia 3688
leva 3688
Ki 3687
obr@@ 3687
Hopkins 3686
Wed@@ 3685
65@@ 3683
Ice 3682
Marathon 3682
eve 3682
ew 3680
BL 3679
altitu@@ 3679
1734 3678
Cola 3678
cola 3677
56@@ 3676
Oper@@ 3676
1701 3675
1735 3675
concre@@ 3675
Whitney 3672
Deportivo 3671
etus 3671
NAS@@ 3668
opo 3668
1642 3667
Su 3667
kid@@ 3667
Leopold 3664
Buk@@ 3662
Figh@@ 3662
itor 3661
Logan 3660
Manz@@ 3659
Jet 3658
sta@@ 3658
qi 3656
JR 3653
onome 3653
Dep@@ 3652
sole 3652
Trade 3649
1661 3648
Rhin@@ 3648
Jenn@@ 3647
get@@ 3646
Okinawa 3645
egu@@ 3645
anyon 3644
ebe 3644
oh 3643
olympi@@ 3642
Ech@@ 3640
alaya 3640
Lo 3639
C1 3638
Box@@ 3634
Emmy 3632
kön@@ 3632
lex 3632
Brisbane 3630
1733 3629
Karab@@ 3629
Challenger 3628
Mum@@ 3627
lose 3627
1714 3626
Kirch@@ 3625
Gerhard 3624
Theodore 3622
eon@@ 3622
138 3620
IU@@ 3619
Ort@@ 3619
domic@@ 3619
odo@@ 3619
arta 3618
ovich 3618
Kiss 3612
Alvar@@ 3611
1675 3610
DD 3610
Galaxy 3610
Wad@@ 3609
1590 3607
Chart 3607
Fi 3607
1520 3605
uti 3605
43@@ 3604
God 3603
pool 3603
SAR@@ 3602
conserva 3601
Kant@@ 3600
atement 3599
1709 3598
gall@@ 3598
was 3598
big 3597
1739 3594
Index 3593
Superman 3593
flav@@ 3593
Music@@ 3592
ushi 3592
Comman@@ 3591
From 3591
1644 3590
Ukrain@@ 3590
ering 3590
zh@@ 3590
Frank@@ 3589
opl@@ 3587
akes 3586
Chase 3584
Jeffrey 3584
Lost 3584
Singh 3584
Tennis 3584
Yer@@ 3584
come 3584
ism 3584
revol@@ 3581
ikawa 3578
Leib@@ 3577
igi@@ 3577
Burns 3575
Hell 3575
eves 3575
expon@@ 3575
BT@@ 3574
Initiative 3574
PT 3573
enge 3573
esty 3572
trach@@ 3571
Staf@@ 3570
Hop 3569
girl 3569
1725 3568
Rights 3567
utt@@ 3567
Đ@@ 3567
UT@@ 3566
Tito 3565
fare 3565
Progres@@ 3564
hid 3563
eras 3562
hes 3562
Five 3561
ox 3561
HK 3560
4000 3559
lide 3559
tima 3559
usi 3559
Town@@ 3558
uster 3558
Amer@@ 3557
Geh@@ 3556
zur@@ 3556
p.@@ 3555
Highway 3554
mith@@ 3554
árez 3554
Lö@@ 3553
Mega 3553
Rail 3553
som 3553
ticus 3552
tiller@@ 3552
Blu 3551
Song@@ 3551
https 3551
1666 3550
Basketball 3550
1570 3548
141 3547
Money 3546
BO 3545
Springfield 3544
That 3543
rand 3542
Bangkok 3540
Hip 3539
lower 3538
Swift 3537
aea 3537
erst@@ 3536
sko@@ 3535
Stock@@ 3534
Freedom 3532
Stap@@ 3531
Cabr@@ 3529
Fine 3529
manch@@ 3529
ulia 3529
Kav@@ 3528
Braun 3527
Damp@@ 3524
Och@@ 3524
bili@@ 3524
eger 3524
sali@@ 3524
Crawford 3519
Eagles 3519
Lynch 3518
lich 3518
Bailey 3517
inz@@ 3517
Happy 3515
bos 3515
célé@@ 3515
1727 3514
Hang@@ 3514
Israel 3514
Nash 3514
Politi@@ 3514
Tamb@@ 3513
ahu@@ 3513
Detroit 3512
spl@@ 3512
Mind@@ 3511
acqui@@ 3509
Bauer 3508
Moritz 3508
tern 3508
1723 3507
report 3506
Rang@@ 3505
ación 3503
mud 3503
Ut@@ 3502
ockey 3502
Bo 3501
205 3500
Deh@@ 3500
Gómez 3500
eling 3499
inals 3498
Kati@@ 3495
inger@@ 3495
PL 3494
Are 3493
Alba 3492
64,@@ 3490
sohn 3489
hay@@ 3488
ác@@ 3488
Ow@@ 3487
Sinc@@ 3487
wand@@ 3485
adas 3483
alt 3482
Canterbury 3481
works 3481
1718 3480
Darmstadt 3478
kong@@ 3478
Peak 3473
ə@@ 3473
Jess@@ 3472
Studies 3471
Delaware 3469
Ruiz 3469
convoc@@ 3467
1737 3465
1536 3464
afe 3463
enstein 3462
Burgos 3461
Voc@@ 3460
1668 3459
Stil@@ 3457
instrumental 3457
119 3455
Pick@@ 3455
alba 3454
gy@@ 3453
tone 3453
Kost@@ 3452
Lili@@ 3452
Kang@@ 3451
elds 3450
raz@@ 3450
1603 3447
uku 3447
Pion@@ 3445
black 3444
round 3444
Abbas 3443
Ced@@ 3440
utnant 3440
Wies@@ 3439
Jesus 3438
Thir@@ 3437
ees 3437
137 3434
Joaqu@@ 3433
dow@@ 3432
oja 3432
1665 3431
Din 3431
INSEE 3431
Serge@@ 3430
ating 3430
Lew@@ 3428
oda 3428
tham 3428
torn@@ 3428
Gate 3427
Columbus 3426
kit 3426
leg 3425
night 3425
Trans 3423
lag 3423
start 3423
insig@@ 3419
isco 3418
Chang 3416
Ex 3416
Kra@@ 3416
atil@@ 3416
Tiger 3415
1732 3414
380 3414
Rich 3413
1722 3412
1724 3412
Díaz 3412
hart 3412
rea 3412
Off 3411
ror 3411
had 3410
Cape 3407
quot 3407
Sao 3405
tur 3405
1697 3403
agua 3403
edy 3403
Catalina 3402
Indians 3400
Mein@@ 3399
1625 3398
Christina 3396
58@@ 3394
av 3394
Sais@@ 3393
coinc@@ 3393
ň 3393
2030 3392
Produc@@ 3392
tropo@@ 3391
Kids 3389
MD 3388
Münster 3385
thro@@ 3385
1678 3384
adem@@ 3384
AX 3383
Brut@@ 3382
fab@@ 3381
Lux@@ 3378
Bek@@ 3377
Bub@@ 3377
Rhein@@ 3377
refer@@ 3377
1736 3376
Roll 3376
Scottish 3373
anya 3373
wing 3373
Idaho 3371
Myster@@ 3371
Rez@@ 3371
Cox 3370
đ@@ 3370
ID@@ 3369
Sacram@@ 3369
iders 3369
sv@@ 3368
Ocean 3367
Plas@@ 3367
rd 3367
dn 3366
math@@ 3366
won 3365
nach 3364
Fit@@ 3363
SU 3363
sobre 3363
Alf@@ 3362
anan 3362
max 3362
ו@@ 3362
vy@@ 3361
KV@@ 3360
Ángel 3360
one@@ 3359
1664 3358
Volks@@ 3358
onidae 3358
1702 3357
Git@@ 3356
jar 3356
khan 3355
HO@@ 3354
tara 3354
Fuj@@ 3352
Grab@@ 3351
Eagle 3349
1250 3348
1659 3347
HT@@ 3347
Nd@@ 3347
68@@ 3345
Jes@@ 3345
brit@@ 3345
emba 3345
investig@@ 3345
hal 3344
Kingdom 3343
See 3343
othy 3340
thi 3340
1717 3339
eks 3338
AZ 3336
Pradesh 3335
Ans@@ 3334
Vista 3334
ational 3334
BW@@ 3333
1683 3331
ample 3331
Blin@@ 3330
endo 3330
infer@@ 3327
utu 3326
boy@@ 3324
utar@@ 3324
Aw@@ 3321
Na 3320
lug@@ 3320
RAM 3319
Vamp@@ 3319
phab@@ 3319
Tomatoes 3318
Polo 3315
Flying 3314
opter@@ 3314
Dortmund 3313
Himm@@ 3313
Australien 3312
ios 3312
MB 3309
kit@@ 3309
Hans@@ 3306
LD 3306
aji 3306
illas 3306
Game@@ 3304
wi 3304
Rice 3303
Southampton 3303
assen 3303
ías 3303
V.@@ 3301
1721 3300
Karlsruhe 3300
Airways 3299
Rhode 3299
bius 3299
gur@@ 3299
East@@ 3298
Poli@@ 3297
Preston 3296
1708 3295
GN@@ 3295
TNA 3295
empres@@ 3295
Infantry 3291
bail@@ 3288
Animation 3287
Beat 3287
ills 3286
lern 3285
mil 3285
vá@@ 3285
USD 3284
minton 3284
nal 3281
1716 3280
Continental 3280
thu@@ 3280
134 3279
b. 3279
Univers@@ 3278
Wander@@ 3278
amu 3278
dea 3278
Hex@@ 3276
orus 3276
rich 3276
136 3275
ting@@ 3274
venture 3274
With 3273
1621 3272
aeus 3272
bour 3272
folia 3271
Chry@@ 3270
tadores 3270
nues 3268
1629 3266
Landtag 3266
Metro 3266
Swan@@ 3266
media 3266
Keller 3264
lep@@ 3264
Link 3263
tina 3263
GPS 3262
1632 3261
165 3261
Eastern 3261
Planet 3261
Palest@@ 3260
alen 3260
sud@@ 3260
Committee 3259
Sweet 3259
elling 3259
Cari@@ 3258
MIT 3258
fire 3258
chan 3257
cyclo@@ 3257
152 3256
1641 3256
1645 3256
Fire@@ 3256
iny 3256
Dür@@ 3253
Intel 3252
Smo@@ 3252
RCA 3251
iral 3251
133 3249
Ho 3249
tag 3249
Kw@@ 3247
furt 3245
hl 3245
Mine 3244
Store 3244
Cat 3243
Helmut 3243
Books 3241
Call 3241
Flem@@ 3240
spo@@ 3239
1699 3237
Innov@@ 3237
Amazon 3236
Part 3236
Papa 3235
Hello 3234
anco 3234
hormon@@ 3234
mina 3234
1726 3233
Weekly 3231
ehr 3231
other 3231
Under 3229
Zah@@ 3228
Carroll 3227
aff 3227
1719 3226
Earl 3226
Not 3226
atta 3226
inden 3226
GO@@ 3225
Dark@@ 3224
Jah@@ 3224
Loh@@ 3224
weg 3224
agus 3223
144 3222
1731 3222
wn@@ 3222
spin@@ 3220
ground 3219
Calli@@ 3218
Rodrigo 3218
illing 3218
kum@@ 3216
dell 3215
ˈ@@ 3215
ising 3214
Rif@@ 3213
Maya 3211
Wald@@ 3211
enco 3210
pio 3209
MV 3207
Spirit 3207
-- 3206
Kaiser 3206
cara 3205
Over 3204
Rocky 3204
esti 3204
1728 3202
AU 3202
Bomb@@ 3202
340 3200
KK 3200
inia 3200
lise 3199
1643 3198
Born 3198
eber@@ 3198
Test 3197
führer 3197
1450 3196
eci@@ 3194
street 3194
Hiv@@ 3193
iOS 3193
itus 3193
ll 3193
mart 3193
Equi@@ 3192
Days 3191
Future 3191
Mendoza 3191
icos 3191
Bachelor 3190
aub@@ 3190
Ef@@ 3189
Ket@@ 3189
1704 3188
Come 3188
1703 3185
Seven 3185
zem@@ 3185
Aleksandr 3184
abes 3184
Romano 3183
sex 3183
53@@ 3182
54@@ 3181
Nil@@ 3181
1729 3180
Oly@@ 3179
uela 3179
Nih@@ 3178
Panzer@@ 3177
Bloom@@ 3175
Franken@@ 3174
d. 3174
Zin@@ 3173
far 3173
leadership 3173
oidea 3173
Albrecht 3172
arch 3171
sville 3170
Voice 3168
Taxonom@@ 3167
Ud@@ 3167
bah@@ 3167
émon 3167
Ayr@@ 3166
Cristi@@ 3166
sales 3165
Wonder 3164
mens 3164
ulan 3164
850 3162
Hard 3161
ovsky 3161
ween 3161
Rush 3160
1622 3158
Shah@@ 3158
11.@@ 3157
Viz@@ 3156
1705 3155
ilian 3154
slo@@ 3154
stead 3154
saf@@ 3153
1711 3152
Control 3152
Innsbruck 3152
frey 3151
Acro@@ 3149
Aper@@ 3149
BK 3145
ensa 3145
histor@@ 3145
Abdul 3144
Wir@@ 3143
otis 3143
Yol@@ 3141
commod@@ 3141
Kass@@ 3140
phis 3140
Sex 3139
Noel 3138
thia 3138
Aircraft 3137
Auth@@ 3137
Dh@@ 3137
ischer 3137
ARC 3136
topl@@ 3136
1669 3133
ayr@@ 3132
uten 3132
Emb@@ 3131
Kai 3131
cier@@ 3131
Uran@@ 3130
mim@@ 3130
Sunday 3129
anchi 3129
º 3125
ø 3125
K.@@ 3123
inum 3123
Lop@@ 3122
Mannheim 3122
Anders 3120
Grove 3120
Muz@@ 3120
git@@ 3120
EF@@ 3119
Humboldt 3119
Konrad 3119
Gregor 3118
ÿ 3118
Hap@@ 3117
́ 3117
content 3116
led@@ 3116
1618 3115
235 3115
boro 3115
kö@@ 3113
médico 3113
1712 3112
Factory 3112
Latin 3112
alles 3112
MVP 3110
59@@ 3109
esk@@ 3109
lik 3109
stan 3109
1598 3108
Shane 3107
12.@@ 3106
Stock 3106
Carolina 3105
stag 3105
Historic 3102
Kras@@ 3102
Renn@@ 3102
undo 3101
Conserv@@ 3099
Sied@@ 3099
entino 3099
Neur@@ 3097
Marcos 3096
iTunes 3096
brand@@ 3095
1634 3094
1638 3093
Champi@@ 3092
Ha 3092
Joy 3092
eza 3089
GmbH 3088
uso 3087
Malawi 3086
Rosen@@ 3085
Samsung 3085
UV 3085
Gott@@ 3083
chl@@ 3083
mara 3083
225 3082
aku@@ 3082
1684 3081
kas@@ 3081
Botswana 3080
Córdoba 3079
Kriegs@@ 3079
Uri@@ 3079
MO 3078
Pix@@ 3078
chini 3077
underground 3075
Friends 3074
kis@@ 3074
Merr@@ 3073
kle@@ 3073
tiva 3072
idor 3070
Spiel@@ 3068
alu 3067
Bolívar 3066
Clay 3066
Dream@@ 3066
ners 3064
even 3063
ean@@ 3061
kul@@ 3061
ank@@ 3060
elli@@ 3059
England 3058
Guz@@ 3057
1686 3056
ecker 3056
tau@@ 3056
1656 3054
Arturo 3054
Engineering 3053
Squadron 3052
its@@ 3052
sti 3050
1626 3047
Ten 3047
Dram@@ 3046
ime@@ 3046
Glass 3045
Hack@@ 3045
Medical 3045
featuring 3045
1627 3044
Dach@@ 3044
Kenn@@ 3044
Municipal@@ 3044
agara 3044
BR 3042
SV@@ 3041
bahn 3040
dle 3040
mates 3039
Mail 3038
ators 3038
Civil 3037
Rosario 3037
Valladolid 3037
1649 3035
Fair 3035
Agency 3033
watch 3031
uz 3030
vey 3029
Domingo 3028
awi 3027
Kepler 3025
new@@ 3023
thm 3022
Health 3021
Manga 3021
candidates 3021
Exchange 3020
Jürgen 3020
Perf@@ 3020
excav@@ 3020
Breslau 3019
Kes@@ 3019
Kaf@@ 3018
Chu 3017
142 3016
witz 3016
Már@@ 3015
Tow@@ 3015
aina 3015
range 3014
Chall@@ 3013
Mix@@ 3013
Fren@@ 3012
Jose 3012
abandon@@ 3012
oti 3012
Vf@@ 3011
laf 3011
nah@@ 3011
146 3010
Ankara 3010
Jaime 3010
Spring@@ 3010
1637 3009
± 3009
Caracas 3007
Mord@@ 3007
Allah 3006
Wr@@ 3005
Movie 3004
Kub@@ 3003
1654 3001
Hal 3000
Olden@@ 2999
chall@@ 2999
Wyoming 2998
sam 2997
Cerro 2996
bian 2996
Week 2993
âr@@ 2993
1628 2992
Dog 2992
Ø@@ 2992
ows 2991
1652 2990
Magde@@ 2990
Sold@@ 2989
écu 2989
ilus 2988
Zab@@ 2986
mán 2985
team 2985
tero 2985
162 2984
asons 2984
Peace 2979
ags 2977
Ring@@ 2975
eiro 2975
urs@@ 2975
Palm 2974
aen@@ 2974
CAR 2973
yna 2973
1633 2972
stream 2972
gr 2971
1615 2969
Eil@@ 2968
Rip@@ 2968
partem@@ 2968
step@@ 2968
COM 2967
1676 2966
Sten@@ 2966
Sno@@ 2965
trai 2965
1525 2964
dol 2964
Arro@@ 2963
olor 2963
Guerrero 2962
Punk 2962
wes@@ 2961
1572 2960
stop 2960
bil 2959
dil 2959
Hr@@ 2957
brook 2957
eleg@@ 2957
hisp@@ 2956
sula 2956
Riz@@ 2955
fen 2954
gu 2954
unge 2954
ān 2954
1609 2953
bias 2953
irk 2953
atz 2952
Industri@@ 2951
zam@@ 2951
147 2948
apr@@ 2948
atia 2946
avy@@ 2946
Coca 2945
Ji 2945
Oro@@ 2945
Uc@@ 2945
Pass 2942
suy@@ 2942
Authority 2941
Independent 2941
pru@@ 2940
Sie@@ 2939
sim 2939
sman 2939
How 2938
Ireland 2937
allas 2937
Sog@@ 2936
medi@@ 2936
Instagram 2935
Youth 2935
gem 2934
Oriental 2933
ED 2932
Night@@ 2932
TT@@ 2931
Zep@@ 2930
caud@@ 2930
then 2930
plants 2928
32@@ 2926
dings 2926
kal 2926
kirchen 2926
nin@@ 2926
Jup@@ 2925
sts 2925
Dawn 2924
Baba 2923
Christmas 2923
Wales 2923
locations 2923
Discovery 2922
Bier@@ 2921
W.@@ 2921
shore 2921
abu 2920
ugu@@ 2920
ß@@ 2919
stic@@ 2918
zor@@ 2918
ʿ@@ 2918
Phys@@ 2915
ON 2914
Paramount 2914
Glen@@ 2913
Ung@@ 2912
bass 2912
sil 2912
Sail@@ 2911
border 2911
itar 2911
1350 2910
Teleg@@ 2910
76@@ 2906
Ernesto 2903
Hohen@@ 2903
Pharm@@ 2902
business 2901
Olympic 2900
Sr@@ 2900
afor@@ 2900
bara 2900
rest 2900
1662 2899
ika@@ 2899
1559 2898
ecr@@ 2896
xelles 2895
Burundi 2894
tiz 2894
aso 2893
ival@@ 2893
Crown 2892
properties 2891
lim 2890
Leningrad 2889
tili@@ 2889
Down@@ 2888
Mill 2888
1623 2887
Ferguson 2887
Fak@@ 2886
Sebasti@@ 2886
151 2885
Richter 2885
Dar 2884
Alten@@ 2883
Emin@@ 2883
Prime 2883
AK 2882
Brand 2882
1624 2880
Frédé@@ 2880
Romero 2880
Ziel@@ 2879
power 2879
Guillermo 2878
1st 2877
Adler 2876
Florida 2876
erne@@ 2876
1687 2874
Imperial 2874
67@@ 2873
Ehr@@ 2872
emin 2871
ities 2871
hak@@ 2870
ól@@ 2870
1585 2869
201 2869
Siemens 2869
Inc. 2868
downs 2868
fest 2868
kn@@ 2867
Gli@@ 2866
March 2866
Jam 2865
1655 2864
EX@@ 2864
Engel@@ 2864
Fighter 2864
liche 2864
kus@@ 2863
Klu@@ 2862
wers 2862
Hep@@ 2861
verde 2860
Eve 2859
Fest@@ 2859
Bronze 2858
Cortes 2858
atidae 2858
Advanced 2857
acio 2855
lana 2855
quarter@@ 2855
Say 2852
ospel 2852
148 2851
Computer 2851
Hier@@ 2850
Net 2848
dion 2848
Wing 2847
cker 2847
inaugural 2845
Ame@@ 2844
Brach@@ 2844
Back@@ 2843
1658 2842
Urban 2842
ality 2842
yev 2840
Ciudad 2838
irat 2838
ves@@ 2837
S.A. 2835
GI 2833
Snow 2833
erh@@ 2832
208 2831
88@@ 2830
Case 2829
dat 2829
Citi@@ 2828
Never 2828
Lancaster 2827
otion 2827
self 2827
atz@@ 2826
1604 2825
Pers@@ 2825
206 2824
eso 2824
pen 2824
D.C. 2823
disco 2822
Xu@@ 2821
anot@@ 2821
§ 2821
Expl@@ 2820
hab 2820
jen@@ 2820
linge 2819
zw@@ 2819
ß 2819
Paraná 2817
angi 2817
Nel@@ 2816
66@@ 2814
scienti@@ 2814
zar 2814
azu 2813
etes 2812
lyn 2812
40,@@ 2811
challenge 2811
166 2810
1492 2809
Child 2808
Graz 2808
sola 2808
opar@@ 2807
156 2806
Moz@@ 2806
utive 2806
202 2805
Here 2805
Sá@@ 2805
1595 2804
His@@ 2804
hio 2804
expan@@ 2803
Take 2802
OH 2801
1653 2800
Cristina 2799
Doug@@ 2799
respond@@ 2799
Beat@@ 2798
Nielsen 2796
Wiz@@ 2792
sides 2792
Evil 2791
Frag@@ 2790
free 2790
Aç@@ 2789
480 2788
Benito 2788
Prad@@ 2788
Lieb@@ 2787
oring 2787
algo 2786
mann@@ 2786
1651 2785
Santander 2785
1612 2784
Fah@@ 2784
Sper@@ 2784
alu@@ 2783
azo 2783
75@@ 2782
DT@@ 2780
Guadalajara 2780
males 2780
engl@@ 2779
Oberliga 2776
olep@@ 2776
214 2775
pp 2775
Solomon 2774
adv@@ 2774
ej 2774
Enter@@ 2773
kun@@ 2773
pues 2772
eko 2771
1607 2770
Infin@@ 2770
Way@@ 2769
ms@@ 2769
obil@@ 2769
215 2767
Phy@@ 2767
arian 2767
legi@@ 2766
Adv@@ 2765
cke 2765
Occidental 2759
Witt@@ 2759
256 2758
etr@@ 2757
Inn 2756
hynch@@ 2756
teri 2756
Eye 2754
ull 2753
Ov@@ 2751
imba 2751
1568 2750
310 2750
Amateur 2750
Kiy@@ 2750
aders 2750
idea 2750
spe@@ 2750
Satell@@ 2749
UTC 2749
burgh 2749
haw@@ 2749
Hood 2748
Myth@@ 2748
Fiction 2747
raph 2747
Artiller@@ 2746
Secre@@ 2746
oner 2746
Shadow 2745
Sos@@ 2744
essen 2744
má@@ 2744
bau 2743
154 2742
Llan@@ 2740
eir@@ 2740
Shab@@ 2739
DOS 2738
omer@@ 2738
Bundest@@ 2737
Ord@@ 2737
lery 2737
1619 2736
Tottenham 2735
Oil 2734
alter 2732
Elite 2731
Esper@@ 2731
jin@@ 2731
1605 2730
emo 2729
Gottfried 2728
nj@@ 2727
911 2726
wave 2724
aid 2723
Ghost 2722
Ital@@ 2722
Ultimate 2722
1616 2721
engers 2720
continues 2718
Ban 2717
Department 2716
USB 2715
Ug@@ 2715
arak 2713
blog@@ 2713
enna 2712
Geb@@ 2711
Flora 2710
trad@@ 2710
Eri@@ 2708
esca 2708
iff 2708
Bey@@ 2707
ío 2707
Hä@@ 2706
bare 2706
pez 2706
umbo 2706
å 2706
ïvodie 2706
quil@@ 2705
osis 2704
Community 2702
esen 2702
langu@@ 2700
mu 2700
sub 2700
ROM 2699
europ@@ 2699
interrup@@ 2699
Sonder@@ 2697
appen 2696
they 2696
Pati@@ 2695
situ 2695
Bishop 2694
Kuh@@ 2694
NY@@ 2693
161 2692
rhy@@ 2692
Alem@@ 2690
143 2689
Jesús 2689
Natural 2689
alta 2689
lingen 2689
ilg@@ 2688
sbach 2686
utz@@ 2686
Electronic 2684
Gly@@ 2684
139 2683
love 2681
ppen@@ 2680
Hammer@@ 2679
death 2679
lina 2679
toc@@ 2678
Greene 2677
Islam@@ 2677
icola 2677
Some@@ 2676
Symph@@ 2676
iscus 2676
UM 2675
Mustafa 2674
marc@@ 2674
Ka 2672
Crow@@ 2671
atan 2671
UFC 2670
jed@@ 2670
ppen 2669
Gaga 2668
Reh@@ 2668
1515 2667
185 2667
Ignacio 2667
NSDAP 2666
azine 2665
Fes@@ 2663
emon 2662
estro 2662
iku 2662
olla 2660
Draft 2659
r. 2659
Gang 2657
Government 2656
ã@@ 2656
168 2655
Tier@@ 2655
itia 2655
Writ@@ 2653
rah 2653
platz 2652
Symphony 2650
Tod@@ 2649
inidae 2649
1592 2648
1631 2646
ulata 2645
Muk@@ 2644
CON@@ 2642
oceph@@ 2642
1569 2641
Australia 2641
Galax@@ 2640
167 2639
Walk 2639
emer@@ 2639
If 2638
ún 2638
1555 2637
yam@@ 2637
ät@@ 2636
Schwer@@ 2635
Abbey 2634
eder 2634
eres@@ 2634
xx 2634
Municipal 2633
lein 2633
mila 2632
Kik@@ 2631
Reading 2630
tell 2630
211 2629
Publishing 2629
Hernández 2628
GO 2627
Scotland 2627
Tri 2627
anl@@ 2627
Castillo 2626
Stad@@ 2626
Stephan 2626
Brook@@ 2625
Wet@@ 2625
umo 2625
chos 2622
Obr@@ 2621
kara 2621
tian 2621
Lagos 2620
gente 2620
phr@@ 2620
1611 2619
Königsberg 2619
Circle 2618
Lid@@ 2618
Schwarz@@ 2618
deon 2618
eber 2618
Ba 2617
Jeun@@ 2616
Kie@@ 2616
Herald 2615
ool 2615
Rovers 2614
sell 2613
Online 2612
trus@@ 2611
wei 2611
192 2609
Living@@ 2609
Our 2609
Philosoph@@ 2609
EE 2608
Honor 2608
egan 2605
pet@@ 2605
Kara 2603
212 2601
Athletics 2601
Moses 2601
Stra@@ 2599
gios 2599
mich@@ 2597
real 2595
Argum@@ 2594
Borussia 2594
maya 2594
elos 2592
1601 2591
Mia 2591
assault 2591
Blanco 2589
Coun@@ 2588
scar 2587
When 2586
nas 2586
stedt 2585
Performance 2584
Security 2584
Siv@@ 2584
olus 2582
420 2581
Ada 2581
Augusto 2581
that 2580
Kauf@@ 2578
Enterprise 2577
yer@@ 2576
leben 2575
Joaquín 2574
At 2573
Rö@@ 2573
Ment@@ 2571
Mud@@ 2571
chem 2571
bere@@ 2570
docum@@ 2570
Tub@@ 2569
sos@@ 2569
Iran@@ 2568
Wiener 2568
Aziz 2567
Generation 2567
Taf@@ 2566
Georgia 2565
Ramos 2564
Speed 2564
Scher@@ 2563
kings 2563
litt 2561
Low 2560
UM@@ 2560
deo 2560
sth@@ 2560
Basil@@ 2559
Comic 2559
Mün@@ 2554
ekw@@ 2554
alion 2553
kard 2553
brach@@ 2551
deck 2551
dij@@ 2551
anat@@ 2550
Federal 2548
Revolution 2548
sle@@ 2548
was@@ 2548
Lübeck 2547
182 2546
aliz@@ 2545
Bass 2544
Esteban 2544
gave 2544
upon 2544
Hz 2543
aster@@ 2543
División 2542
enk@@ 2542
Param@@ 2541
cum 2541
late 2541
HBO 2540
eig@@ 2539
spr@@ 2539
Short 2538
opa 2538
Morales 2537
bird 2536
cili@@ 2536
lí@@ 2534
Biel@@ 2533
Quart@@ 2533
Ferro@@ 2532
assy 2532
gus@@ 2532
premi@@ 2532
ſ@@ 2532
Phan@@ 2529
plen@@ 2529
wah@@ 2529
Bü@@ 2528
Mk 2528
Princess 2525
Trophy 2525
Bartol@@ 2524
Nicolás 2523
tell@@ 2523
requi@@ 2522
give 2521
mid 2521
153 2520
1565 2520
Ella 2520
Stro@@ 2520
Middle 2519
trit@@ 2519
iP@@ 2518
Timor 2517
Lept@@ 2516
Lil 2516
americana 2516
beat 2514
left 2514
upp@@ 2514
199@@ 2513
monit@@ 2512
Économ@@ 2512
99@@ 2511
True 2511
lod@@ 2511
Program 2510
estone 2510
MW 2509
Tree 2509
ancing 2509
DL@@ 2508
Got 2508
Oak 2508
HA 2507
Zimmer@@ 2507
telenov@@ 2507
adam@@ 2504
group 2504
olm 2504
iwa 2503
Sche@@ 2502
Xen@@ 2502
brick 2502
draf@@ 2502
221 2501
XVII 2501
isten 2501
Gali@@ 2500
Sankt 2500
rem 2499
After 2498
pick 2498
thing 2497
trat 2497
look 2496
meister 2494
Mind 2493
ersch@@ 2493
lièrement 2493
sas 2493
ships 2493
Bayer 2492
Den 2492
1606 2490
737 2489
Rainbow 2489
Mahar@@ 2488
Schrö@@ 2488
163 2487
Tenn@@ 2487
isen 2487
End@@ 2486
Texte 2486
pia 2486
àn 2486
Dry@@ 2485
Liberia 2485
Butter@@ 2484
222 2483
mec@@ 2483
enen 2482
iana 2482
Illus@@ 2481
ombo 2481
Nach@@ 2480
Tum@@ 2480
acial 2480
Faith 2479
Solo 2479
Market 2476
Medal 2475
Elis@@ 2474
Matthe@@ 2474
Rath@@ 2474
porters 2474
tn@@ 2474
DA@@ 2473
Historia 2473
fass@@ 2473
stitu@@ 2473
Next 2472
esto 2472
Ruby 2471
Schn@@ 2471
bü@@ 2471
eba 2471
203 2468
Astronom@@ 2468
Laguna 2467
Nomin@@ 2467
2500 2466
disc 2464
leri 2464
play@@ 2464
Tec@@ 2463
erb@@ 2463
vation 2463
Graf 2462
Peters 2462
Wang@@ 2462
body 2462
217 2461
Venus 2461
arias 2461
177 2460
eim@@ 2460
tsch@@ 2460
Min 2459
1521 2458
entras 2458
fit@@ 2458
Liter@@ 2455
Flores 2454
Analy@@ 2453
anthus 2453
tek 2453
anto 2452
Minn@@ 2451
fly 2451
idal 2451
unk 2450
Kip@@ 2449
Mara 2449
Stop 2449
close 2449
195 2448
³ 2448
akan 2447
lida 2447
stag@@ 2445
ź@@ 2445
1535 2444
kes@@ 2443
tival 2442
tig 2441
158 2440
Essen 2440
Eugen 2438
gyp@@ 2438
dissement 2437
Financial 2436
hion 2436
othe@@ 2436
Cuc@@ 2435
Hud@@ 2434
ede@@ 2434
nen@@ 2434
Albre@@ 2433
Negro 2433
Herrera 2432
U. 2432
gas 2432
issen 2432
Caract@@ 2431
aras@@ 2429
Sin 2428
Organis@@ 2426
eor@@ 2426
Partn@@ 2424
303 2423
430 2422
Fif@@ 2422
Re 2422
ware 2421
Children 2420
Kau@@ 2420
Touch 2420
uled 2419
1453 2418
Vargas 2417
oman@@ 2417
pher@@ 2417
Invest@@ 2416
a. 2416
Erd@@ 2415
alam@@ 2415
anach@@ 2415
sau 2415
unders 2415
etas 2414
uham@@ 2414
Euphor@@ 2413
A4 2411
Let 2411
dek 2411
door 2411
marks 2411
repe@@ 2411
Anah@@ 2410
enes 2409
Eind@@ 2407
Hay 2407
lay@@ 2407
Hung@@ 2405
Phar@@ 2405
color 2404
lor 2404
tner 2403
XIX 2402
1547 2401
188 2401
EG 2401
ayet 2401
uch 2400
1526 2398
Forever 2398
eze 2398
translation 2398
fic 2397
ḥ@@ 2397
Farm 2395
dile 2395
onio 2395
Formula 2393
tains 2393
Holocaus@@ 2392
Corona 2391
data 2391
ender@@ 2391
eles 2389
eres 2389
BT 2388
hous@@ 2388
Bio@@ 2387
Musical 2386
Toledo 2386
Broad@@ 2385
Free@@ 2384
Artem@@ 2383
Bertr@@ 2383
church 2383
Flag@@ 2382
hot 2381
ázquez 2381
Food 2379
Aven@@ 2378
osper@@ 2378
Cl 2377
157 2376
vein@@ 2376
1. 2375
Yoh@@ 2375
alin 2375
McDonald 2374
sey@@ 2374
Upper 2373
Gaul@@ 2372
Muh@@ 2372
akers 2372
Far 2368
hold 2367
193 2364
sit 2364
icle 2363
Anh@@ 2362
Taiwan 2361
mission@@ 2360
room 2360
weiler 2358
Maw@@ 2357
172 2356
nak@@ 2356
149 2353
burger 2353
ht@@ 2353
uen@@ 2353
AW@@ 2352
Again 2352
Quelle 2352
Baseball 2351
Wav@@ 2351
ists 2351
Room 2350
Wind 2350
370 2349
apon 2348
000@@ 2347
Prob@@ 2347
kim@@ 2347
oten 2346
Tübingen 2345
educ@@ 2345
Heights 2344
imler 2344
sn@@ 2344
Álvar@@ 2344
Heli@@ 2341
burg@@ 2341
chain 2341
747 2339
Bernh@@ 2339
Samm@@ 2339
sun 2339
Panzer 2337
gado 2337
440 2336
etown 2336
1556 2334
asure 2334
ifer 2334
Yes@@ 2333
Í@@ 2333
ón@@ 2333
Meth@@ 2332
Zuc@@ 2332
Thel@@ 2331
egen 2331
ight@@ 2331
contrario 2330
Ark@@ 2329
Irene 2329
Kend@@ 2329
hil 2329
Reyes 2327
ő 2325
Heritage 2324
Eyes 2323
Linz 2323
culus 2323
orno 2323
204 2322
Alman@@ 2322
gemeinde 2322
Cold 2321
Hammer 2321
eshi 2321
arren 2320
Kiv@@ 2319
Nac@@ 2319
Label 2318
ligence 2318
Amat@@ 2317
Nine 2317
Ai 2316
Raúl 2316
Wah@@ 2315
Small 2314
tank 2314
Aki@@ 2313
Dop@@ 2313
Heavy 2313
adio 2313
Centro 2312
iken 2312
mens@@ 2312
ž 2311
231 2310
estruc@@ 2310
iki@@ 2310
olas 2310
1577 2309
Grün@@ 2309
bee 2308
esper@@ 2306
lea 2304
ls@@ 2304
BI 2303
Parks 2303
Zul@@ 2303
Order 2302
enty 2300
plant 2300
rein 2300
1596 2299
Yaz@@ 2299
ů@@ 2297
64@@ 2296
linois 2296
alda 2295
ambi 2295
acruz 2293
ose@@ 2293
164 2292
Trag@@ 2291
69@@ 2290
text 2290
Most 2289
engen 2289
Us 2288
hid@@ 2288
ularis 2286
Monster 2285
gil 2285
mere 2285
ride 2284
uck@@ 2284
ylon 2283
UB 2282
blu@@ 2282
Area 2281
Nokia 2280
Trig@@ 2280
agram 2280
idel@@ 2277
Master@@ 2274
Huy 2273
Nairobi 2273
imini 2273
ín@@ 2273
207 2272
301 2272
Republic 2272
1583 2271
Hö@@ 2271
vs 2271
nt 2270
365 2269
wig 2268
^ 2266
brand 2266
.org 2265
cita 2265
Gü@@ 2264
adir 2264
mile 2264
vs. 2264
wehr 2263
Position 2261
Block 2260
drama 2260
shows 2260
Klo@@ 2258
app 2258
thal@@ 2258
Single 2257
ös@@ 2256
itzer 2255
lech@@ 2255
lows 2255
eting 2254
olith@@ 2253
menta 2252
305 2251
onder 2251
vid 2251
Gord@@ 2250
KO@@ 2250
hindi 2250
1571 2249
Local 2248
iPhone 2248
Lower 2247
irt 2247
Norte 2246
Unit 2245
ahu 2245
bey@@ 2245
oru 2245
209 2242
yard 2242
Hero 2240
crim@@ 2240
Heter@@ 2239
Staff 2239
iria 2239
169 2238
Augustus 2238
Tales 2238
öh@@ 2238
Pope 2237
Abdullah 2236
CW 2236
Choice 2236
HR 2236
ocer@@ 2236
Airport 2235
Sound@@ 2235
Sebastián 2234
sum 2233
ob 2232
1597 2231
77@@ 2231
Hawaii 2231
ectus 2231
quir@@ 2231
goci@@ 2229
ortho@@ 2229
soni 2228
Beijing 2227
Theo 2227
1204 2223
Industry 2222
Samb@@ 2222
kei 2222
tree 2219
erin 2217
Polic@@ 2216
186 2215
yar 2215
elde 2214
kopf 2214
optera 2214
Legend 2212
ň@@ 2212
159 2211
Gustavo 2210
König@@ 2210
run@@ 2210
panel 2209
schw@@ 2209
Religi@@ 2208
emen 2208
List 2207
290 2206
ching 2205
kup@@ 2204
Acanth@@ 2202
Kash@@ 2202
Mund@@ 2202
SH 2202
Zealand 2201
timi 2200
unter@@ 2200
Beta 2199
Rund@@ 2198
sanat@@ 2198
dim 2197
Fund 2196
Full 2195
Saar@@ 2195
extrem@@ 2195
lic 2195
iano 2194
sych@@ 2194
alas 2193
174 2192
Critics 2190
Führ@@ 2190
acri@@ 2190
Kais@@ 2189
Tomás 2189
Bisch@@ 2187
repar@@ 2187
78@@ 2185
Lokom@@ 2185
Shang@@ 2185
adjacent 2185
nig 2185
Philadelphia 2184
déj@@ 2184
Broadcasting 2183
Chlor@@ 2183
232 2182
oder@@ 2182
6000 2181
Prize 2180
evi 2179
uw@@ 2179
ר@@ 2179
Alta 2178
fair 2178
470 2177
shot 2177
176 2176
Hik@@ 2176
intent@@ 2176
Uru@@ 2175
shausen 2175
work 2175
thouse 2174
Know@@ 2173
Igu@@ 2172
Trom@@ 2172
care 2172
171 2171
lieb 2171
Heroes 2170
provid@@ 2170
Show@@ 2169
Vak@@ 2169
angel@@ 2169
imus 2169
cable 2168
clas@@ 2168
Apr@@ 2167
Dem 2165
aber@@ 2165
ě 2165
embargo 2162
Krish@@ 2161
Core 2160
estyle 2160
ön 2160
Player 2158
shin@@ 2158
verso 2157
UN 2156
Tunnel 2155
Bev@@ 2154
Nú@@ 2153
ungen 2153
EV@@ 2152
184 2151
Class 2150
Soh@@ 2150
1.1 2149
vila 2148
Jap@@ 2147
terns 2147
Senior 2146
jah@@ 2146
Bahn 2145
Unix 2145
hop@@ 2145
üs 2144
ṣ@@ 2143
Boot 2141
ark 2141
fest@@ 2141
Tsch@@ 2140
class 2140
Magdal@@ 2139
Work@@ 2139
immer 2139
Gutiérrez 2138
ople 2138
General@@ 2137
Script 2137
tador 2137
ė 2137
craft 2136
cula 2136
ece 2136
Rai@@ 2135
buz@@ 2135
275 2134
ppi 2132
Con 2131
endron 2131
189 2130
181 2129
196 2129
Christian@@ 2129
Deutsch@@ 2129
museum 2129
rist@@ 2128
Only 2127
Oxy@@ 2127
iran 2127
ip 2126
kent 2126
school 2126
Gramm@@ 2125
Revol@@ 2125
Claus@@ 2123
Torino 2123
hiss@@ 2123
410 2122
950 2122
Zamora 2120
460 2119
aran 2118
omys 2118
eters 2117
rá@@ 2117
197 2116
Heaven 2114
iden@@ 2114
Leopol@@ 2113
Swiss 2113
WCW 2113
Verband@@ 2112
nad@@ 2112
Alternative 2111
View 2110
Pter@@ 2109
Reserve 2109
Sens@@ 2109
communic@@ 2109
ventures 2109
Agnes 2108
Blum@@ 2108
isches 2108
325 2107
HTML 2107
Nit@@ 2106
spi@@ 2106
Tali@@ 2105
Purple 2104
ND 2103
191 2102
Living 2100
tei 2100
216 2099
lemente 2099
Horst 2098
Metro@@ 2098
mate 2098
them 2098
Rail@@ 2097
fish 2097
urt@@ 2096
74@@ 2095
hig 2095
ský 2095
Devil 2093
Investig@@ 2093
SK@@ 2093
Kran@@ 2092
Slam 2092
acking 2092
oks 2092
usha 2090
EB@@ 2089
Rain 2089
alum@@ 2088
Dek@@ 2087
EST 2087
ieve 2087
talk 2087
Send@@ 2086
iç@@ 2086
will 2085
Tetr@@ 2084
yal 2084
Today 2083
rim 2083
hét@@ 2082
song@@ 2082
218 2079
Tan 2079
Too 2078
space 2078
espè@@ 2077
mitt@@ 2077
227 2076
ups 2076
Part@@ 2075
178 2074
icts 2072
Talk 2071
ophie 2070
Eh@@ 2068
Capitol 2067
arist@@ 2067
eye 2067
Beautiful 2066
icho 2066
mey@@ 2066
O2 2065
É 2065
183 2064
XP 2064
üs@@ 2063
Benedic@@ 2062
Lincol@@ 2062
press 2062
tronics 2061
arma 2060
lak@@ 2060
375 2059
Common 2059
Álvarez 2058
BAS@@ 2057
Medina 2057
Pseudo@@ 2057
Kli@@ 2056
Ramírez 2055
dini 2055
sant@@ 2055
187 2054
Change 2054
orte 2054
stad@@ 2054
γ 2054
Admir@@ 2053
Wali@@ 2052
yok@@ 2052
dub@@ 2051
Server 2050
guil@@ 2050
Holding 2049
Round 2049
ornis 2049
Armen@@ 2048
BL@@ 2048
Rand 2048
hr 2048
yas@@ 2048
Stand 2047
kadi 2047
wal 2047
introduc@@ 2046
א@@ 2044
Cricket 2043
Dieter 2043
ejo 2043
vival 2043
uya 2042
Cinema 2041
Süd@@ 2041
Amph@@ 2040
Body 2040
Frit@@ 2039
173 2037
Kib@@ 2037
garten 2037
raf 2036
visita 2036
geb@@ 2035
Johannes@@ 2034
kind 2034
224 2033
Range 2033
iday 2033
Groß@@ 2031
Neo 2031
chas 2031
atorio 2030
ographic 2030
LED 2029
Luxemb@@ 2028
1517 2027
Berliner 2027
Flight 2027
Wand@@ 2027
acea 2027
baden 2027
cil@@ 2027
Ambi@@ 2026
Name 2026
m3 2026
event 2025
But 2024
cano 2024
Institut@@ 2023
Plant 2022
Quan 2022
Gast@@ 2021
Guay@@ 2021
Festiv@@ 2020
SQL 2020
etings 2020
Zeitung 2018
aer 2018
′ 2018
Atom@@ 2017
3.0 2016
full 2016
ilk 2016
enca 2015
½ 2015
Ca 2014
Teams 2014
egas 2014
238 2013
ulas 2013
anensis 2012
1519 2011
ening 2010
Caractér@@ 2009
hill 2008
179 2007
302 2007
BB@@ 2006
same 2006
isel 2005
boa 2003
Hasan 2000
athan 2000
dad@@ 1999
Schal@@ 1998
alog 1998
estra 1998
reloc@@ 1998
iger@@ 1997
auri 1996
nor 1995
Guard 1994
WC 1994
conflic@@ 1993
divid@@ 1992
Protest@@ 1991
list 1991
By 1990
She 1990
edt 1990
About 1988
hus@@ 1988
suya 1988
Industrial 1987
194 1985
Schne@@ 1985
Chad 1984
Chief 1984
kow 1984
mix 1984
308 1983
Mp@@ 1983
Marino 1982
hn@@ 1982
iv 1982
izer 1982
Foreign 1981
Right 1981
hem@@ 1980
rum 1980
Pek@@ 1979
yla 1979
Stud@@ 1978
Ta 1978
MiG 1977
train@@ 1977
pop@@ 1976
uria 1976
Cemetery 1975
Construc@@ 1975
OR 1975
grad 1974
Anime 1973
urb@@ 1973
where 1973
Finn@@ 1972
afi 1972
gru@@ 1972
eless 1970
i.e. 1970
mala@@ 1969
kri@@ 1968
Head@@ 1967
hak 1966
Pulitzer 1965
Zy@@ 1965
icas 1965
Rat 1964
stein@@ 1964
werk 1964
theater 1962
198 1959
INSE@@ 1958
fom@@ 1958
meng@@ 1955
akos 1954
ellen 1954
jia 1954
size 1954
304 1953
Fass@@ 1953
form 1953
Oro 1952
onian 1952
üh@@ 1952
chac@@ 1951
rostr@@ 1951
199 1950
Medicine 1950
amos 1950
ele@@ 1950
kill 1950
digital 1949
ã 1949
223 1948
79@@ 1948
Polit@@ 1947
yana 1947
Tep@@ 1945
mata 1945
tionary 1945
Gum@@ 1944
Theory 1943
about 1942
thly 1942
zis@@ 1942
242 1941
ainst 1941
trong 1941
Boz@@ 1940
acho 1940
salv@@ 1940
Metall@@ 1939
Ndi@@ 1939
Said 1939
213 1938
Original 1938
hawa@@ 1938
tea 1938
251 1937
Oak@@ 1937
uko 1936
312 1935
Tamil 1935
trat@@ 1935
uth@@ 1935
nee 1934
pup@@ 1934
2nd 1933
ought 1933
viera 1933
ür@@ 1933
Famil@@ 1931
kee 1931
spot 1931
ungs@@ 1931
Kreuz@@ 1929
Zanzibar 1929
Chik@@ 1927
rule 1927
Ô 1927
Fund@@ 1926
198@@ 1925
Fast 1925
ondo@@ 1925
HD@@ 1924
king@@ 1924
Ado@@ 1923
schen 1923
eper 1922
Stoc@@ 1921
apping 1921
gener@@ 1921
isters 1920
dific@@ 1918
Schen@@ 1917
Shr@@ 1917
Strateg@@ 1917
meg@@ 1917
kap@@ 1916
allen 1915
ned 1915
Antigu@@ 1914
Islands 1914
Saturday 1914
Zwe@@ 1914
Arsen@@ 1913
His 1913
trip 1913
Bing@@ 1912
Gardens 1910
amarca 1910
bile 1910
Ya 1909
made 1909
occo 1909
Peña 1907
Years 1907
atory 1907
open@@ 1907
265 1906
Dos 1906
Evangel@@ 1906
FIBA 1906
Know 1906
height 1906
ulum 1906
[...]
