, 1
. 1
в 1
и 1
@-@ 1
на 1
) 1
( 1
— 1
« 1
» 1
с 1
В 1
года 1
&quot; 0.32622209000079333
году 1
по 1
к 1
не 1
из 1
: 1
ной 1
был 1
у 1
по@@ 1
а 1
ных 1
от 1
что 1
не@@ 1
ли 1
ской 1
за 1
но 1
у@@ 1
ла 1
л 1
ского 1
ного 1
на@@ 1
ный 1
ные 1
ы 1
его 1
т 1
за@@ 1
для 1
при@@ 1
ки 1
с@@ 1
про@@ 1
е 1
в@@ 1
как 1
ский 1
вы@@ 1
; 1
ль@@ 1
до 1
ная 1
ка 1
й 1
он 1
м 1
о 1
ли@@ 1
д@@ 1
А@@ 1
ре@@ 1
та 1
ным 1
о@@ 1
ном 1
ро@@ 1
до@@ 1
т@@ 1
н 1
я 1
пере@@ 1
к@@ 1
со@@ 1
С@@ 1
ш@@ 1
О@@ 1
но@@ 1
м@@ 1
ни@@ 1
ное 1
С 1
ль 1
ко@@ 1
ра@@ 1
ке 1
также 1
ю 1
э@@ 1
ка@@ 1
ва@@ 1
ри@@ 1
от@@ 1
х 1
ле@@ 1
и@@ 1
ская 1
том 1
ло@@ 1
была 1
были 1
во@@ 1
ских 1
р 1
во 1
то@@ 1
ти@@ 1
л@@ 1
ви@@ 1
г 1
го@@ 1
ском 1
ма@@ 1
з@@ 1
ж@@ 1
было 1
й@@ 1
б@@ 1
У@@ 1
мо@@ 1
ве@@ 1
д 1
время 1
а@@ 1
п@@ 1
ет 1
ны 1
ди@@ 1
1 1
ты 1
И@@ 1
та@@ 1
де@@ 1
ло 1
са 1
да 1
лись 1
ную 1
или 1
н@@ 1
же 1
те@@ 1
Э@@ 1
то 1
се@@ 1
си@@ 1
при 1
ть 1
ми@@ 1
те 1
я@@ 1
ра 1
ба@@ 1
ми 1
́ 1
ру@@ 1
2 1
ров 1
лся 1
ния 1
раз@@ 1
ку 1
г@@ 1
ма 1
х@@ 1
ме@@ 1
под@@ 1
ными 1
В@@ 1
Г@@ 1
ний 1
де 1
ют 1
ков 1
го 1
П@@ 1
лась 1
бо@@ 1
ф@@ 1
после 1
тов 1
бе@@ 1
р@@ 1
ром 1
ние 1
да@@ 1
ч@@ 1
К@@ 1
па@@ 1
нии 1
га@@ 1
ь@@ 1
чи@@ 1
са@@ 1
На 1
су@@ 1
га 1
жи@@ 1
ку@@ 1
ла@@ 1
Ка@@ 1
По@@ 1
ы@@ 1
их 1
ские 1
ги@@ 1
Т@@ 1
ва 1
под 1
По 1
М@@ 1
3 1
области 1
ить 1
ь 1
ко 1
Ко@@ 1
лось 1
ды 1
ё@@ 1
вой 1
е@@ 1
пи@@ 1
ля 1
/ 0.8467031624254284
об@@ 1
ан@@ 1
% 0.9536758294227995
ется 1
ст@@ 1
ста@@ 1
ду@@ 1
ское 1
ать 1
ля@@ 1
пе@@ 1
Б@@ 1
ность 1
где 1
она 1
ции 1
сто@@ 1
Ма@@ 1
её 1
км 1
кой 1
ле 1
лет 1
который 1
че@@ 1
Д@@ 1
ским 1
А 1
того 1
Р@@ 1
со 1
4 1
це@@ 1
После 1
ин@@ 1
пре@@ 1
му 1
же@@ 1
нов 1
ности 1
вер@@ 1
ше@@ 1
стал 1
год 1
это 1
сти@@ 1
нию 1
ки@@ 1
ча@@ 1
ства 1
хо@@ 1
более 1
России 1
зо@@ 1
ге@@ 1
ей 1
За@@ 1
цы 1
ни 1
ши@@ 1
из@@ 1
лей 1
Ш@@ 1
ю@@ 1
би@@ 1
ком 1
5 1
пу@@ 1
ников 1
скую 1
цию 1
вал 1
Со@@ 1
является 1
так 1
кон@@ 1
ха@@ 1
му@@ 1
человек 1
К 1
них 1
ник 1
мы 1
Н@@ 1
состав 1
рас@@ 1
Л@@ 1
з 1
Ф@@ 1
ней 1
ц@@ 1
ре 1
ту@@ 1
льной 1
&amp; 0.9991828018826465
зи@@ 1
вых 1
ем 1
На@@ 1
ления 1
ня@@ 1
ме 1
ры@@ 1
нием 1
ры 1
рии 1
дом 1
которые 1
воз@@ 1
6 1
ство 1
только 1
льного 1
10 1
льный 1
города 1
ат@@ 1
Се@@ 1
мен@@ 1
ту 1
Х@@ 1
льных 1
вать 1
гу@@ 1
ника 1
Са@@ 1
жа@@ 1
бы@@ 1
ша@@ 1
СССР 1
пол@@ 1
ри 1
Ли@@ 1
И 1
бу@@ 1
войны 1
ст 1
стве 1
вали 1
ются 1
бы 1
ев 1
ья 1
Е@@ 1
этого 1
ду 1
Ми@@ 1
они 1
Ку@@ 1
этом 1
годах 1
Не@@ 1
лу@@ 1
дов 1
7 1
б 1
ран@@ 1
8 1
ному 1
ар@@ 1
се 1
ря@@ 1
района 1
ление 1
ция 1
США 1
ники 1
льно 1
ца 1
История 1
п 1
против 1
между 1
ско@@ 1
вая 1
лю@@ 1
Про@@ 1
Биография 1
лов 1
ну@@ 1
него 1
составе 1
лен@@ 1
лом 1
сти 1
стра@@ 1
ти 1
жен@@ 1
части 1
При@@ 1
ью 1
ье 1
когда 1
зна@@ 1
ен@@ 1
Он 1
Бо@@ 1
Го@@ 1
мая 1
цев 1
Ба@@ 1
тан@@ 1
вого 1
вые 1
Де@@ 1
реки 1
Ю@@ 1
Ар@@ 1
ор@@ 1
Я@@ 1
сть 1
ций 1
фи@@ 1
ги 1
сы 1
рен@@ 1
Ро@@ 1
стро@@ 1
ц 1
род@@ 1
Ле@@ 1
З@@ 1
которых 1
Мо@@ 1
20 1
Ре@@ 1
ками 1
Та@@ 1
годы 1
чтобы 1
ци@@ 1
вания 1
той 1
15 1
льные 1
января 1
чи 1
ди 1
Ч@@ 1
все 1
около 1
Су@@ 1
ман@@ 1
Ра@@ 1
место 1
обще@@ 1
сло@@ 1
откры@@ 1
им 1
12 1
9 1
районе 1
пред@@ 1
мира 1
июля 1
ак@@ 1
лы 1
сов 1
века 1
оста@@ 1
фе@@ 1
скому 1
бер@@ 1
населения 1
аль@@ 1
М 1
ках 1
Си@@ 1
лё@@ 1
нения 1
ч 1
пер@@ 1
хи@@ 1
несколько 1
через 1
сте@@ 1
декабря 1
ещё 1
ска@@ 1
Ме@@ 1
уже 1
ще@@ 1
получил 1
2010 1
ён 1
которой 1
ческой 1
часть 1
марта 1
чем 1
которая 1
вание 1
фа@@ 1
ха 1
августа 1
кар@@ 1
мы@@ 1
над 1
сентября 1
вает 1
Ки@@ 1
ста 1
октября 1
территории 1
полу@@ 1
апреля 1
вы 1
ником 1
пло@@ 1
своей 1
кан@@ 1
Бе@@ 1
ж 1
Бу@@ 1
тра@@ 1
30 1
Ви@@ 1
вала 1
июня 1
два 1
ством 1
бра@@ 1
Па@@ 1
может 1
До@@ 1
ван@@ 1
поло@@ 1
№ 1
Га@@ 1
пла@@ 1
один 1
ческих 1
О 1
Мар@@ 1
ш 1
гра@@ 1
.@@ 1
ит@@ 1
ему 1
ке@@ 1
гор@@ 1
ях 1
вен@@ 1
18 1
Ц@@ 1
рия 1
других 1
тре@@ 1
затем 1
ком@@ 1
ёт 1
стов 1
ющий 1
жения 1
ве 1
гла@@ 1
ос@@ 1
ним 1
качестве 1
11 1
ноября 1
У 1
Ла@@ 1
Да@@ 1
Население 1
нами 1
группы 1
Ж@@ 1
ро 1
лен 1
вым 1
вод@@ 1
жение 1
обра@@ 1
находится 1
лин@@ 1
льная 1
нов@@ 1
район 1
16 1
вместе 1
Ве@@ 1
ур@@ 1
февраля 1
ческого 1
ющих 1
П 1
14 1
лет@@ 1
высо@@ 1
теле@@ 1
ск@@ 1
25 1
_ 1
Ру@@ 1
щ@@ 1
Однако 1
тив@@ 1
Му@@ 1
евич 1
фо@@ 1
однако 1
среди 1
вом 1
сом 1
участие 1
чной 1
ба 1
которого 1
Кар@@ 1
составляет 1
лан@@ 1
Н 1
&#93; 1
&#91; 1
сы@@ 1
13 1
работал 1
име@@ 1
нение 1
си 1
ностью 1
городе 1
ров@@ 1
всех 1
город 1
ями 1
- 0.35255780184026514
тро@@ 1
Лу@@ 1
г. 1
период 1
вра@@ 1
17 1
использо@@ 1
числе 1
ск 1
кла@@ 1
Ха@@ 1
лу 1
вый 1
представ@@ 1
двух 1
итель@@ 1
ниях 1
То@@ 1
стан@@ 1
свою 1
ге 1
цией 1
начале 1
скими 1
Пе@@ 1
три 1
обо@@ 1
мом 1
зу@@ 1
соб@@ 1
быть 1
ер@@ 1
зе@@ 1
вич 1
ших 1
стала 1
три@@ 1
годов 1
Ва@@ 1
мер@@ 1
этой 1
жизни 1
ска 1
кого 1
Ан@@ 1
себя 1
уч@@ 1
ческий 1
ня 1
ден@@ 1
ате@@ 1
йской 1
ться 1
авто@@ 1
прав@@ 1
эн@@ 1
армии 1
своего 1
нее 1
название 1
тер@@ 1
есть 1
ких 1
пар@@ 1
данным 1
За 1
отде@@ 1
Во@@ 1
рин@@ 1
времени 1
льным 1
способ@@ 1
свя@@ 1
тель@@ 1
лем 1
19 1
мм 1
тия 1
I 0.6370541912909677
Че@@ 1
эк@@ 1
без 1
всего 1
При 1
жа 1
ско 1
стар@@ 1
кра@@ 1
Это 1
чных 1
боль@@ 1
имени 1
конце 1
там 1
работы 1
село 1
фор@@ 1
Ди@@ 1
па 1
деревня 1
ход@@ 1
человека 1
можно 1
рами 1
ёр@@ 1
мой 1
2011 0.8081932333472017
щи@@ 1
зы@@ 1
ды@@ 1
Ри@@ 1
раз 1
йского 1
Во 1
чего 1
шей 1
ческие 1
ок@@ 1
ший 1
ющие 1
2012 0.8616939522660135
ну 1
кие 1
истории 1
гре@@ 1
Аль@@ 1
кре@@ 1
гу 1
тах 1
он@@ 1
кры@@ 1
мест@@ 1
призна@@ 1
лич@@ 1
пор@@ 1
няя 1
Но@@ 1
formula 1
сла@@ 1
много 1
24 1
вается 1
ал@@ 1
2008 0.8757549609542098
ев@@ 1
5@@ 1
Ни@@ 1
ков@@ 1
2014 0.8481690257231345
2009 0.8649359703547024
им@@ 1
ата@@ 1
первый 1
тами 1
пле@@ 1
мов 1
ств 1
0@@ 1
кор@@ 1
чно 1
gt 1
тем 1
ща@@ 1
лов@@ 1
чен@@ 1
тор@@ 1
Также 1
ству 1
22 1
II 1
имеет 1
льное 1
бор@@ 1
этот 1
цен@@ 1
сси@@ 1
21 1
Гу@@ 1
рова@@ 1
стре@@ 1
ится 1
связи 1
шего 1
Вы@@ 1
вший 1
Кон@@ 1
гру@@ 1
Пер@@ 1
це 1
2007 0.8954572632846644
lt 1
ман 1
ство@@ 1
тся 1
встре@@ 1
состоя@@ 1
2013 0.8303552290601597
2015 0.8221154105494077
Те@@ 1
ган@@ 1
вался 1
об 1
4@@ 1
зан@@ 1
ис@@ 1
ске 1
вое 1
второй 1
э 1
° 1
пра@@ 1
ча 1
вин@@ 1
чу@@ 1
Ло@@ 1
2006 0.891286026792126
ниями 1
совет@@ 1
От@@ 1
зы 1
род 1
Ду@@ 1
ша 1
Хо@@ 1
зем@@ 1
2002 1
город@@ 1
гов 1
Г 1
мя@@ 1
ру 1
ера 1
лена 1
част@@ 1
рабо@@ 1
спи@@ 1
выпу@@ 1
23 1
электро@@ 1
Бер@@ 1
поли@@ 1
начала 1
ян@@ 1
шие 1
кий 1
стали 1
чный 1
переписи 1
рей@@ 1
став@@ 1
ет@@ 1
лы@@ 1
Его 1
сон 1
своих 1
2016 0.786889755093683
отме@@ 1
2000 0.9834077913808897
рав@@ 1
производ@@ 1
бро@@ 1
вар@@ 1
образом 1
ф 1
само@@ 1
другие 1
жи 1
ходе 1
сельского 1
Лю@@ 1
шен@@ 1
ше 1
ху@@ 1
кро@@ 1
явля@@ 1
дер@@ 1
вос@@ 1
Ту@@ 1
Ор@@ 1
100 1
Пи@@ 1
результате 1
28 1
ённых 1
26 1
сты 1
собой 1
котором 1
вели@@ 1
Фе@@ 1
каз@@ 1
фильм 1
одной 1
Би@@ 1
дви@@ 1
ющего 1
участ@@ 1
кли@@ 1
актив@@ 1
мар@@ 1
Д 1
27 1
Ин@@ 1
ав@@ 1
образ@@ 1
центра 1
сотруд@@ 1
ям 1
течение 1
… 1
нен@@ 1
тин@@ 1
сен@@ 1
истори@@ 1
дан@@ 1
роль 1
тен@@ 1
одним 1
лишь 1
Ти@@ 1
² 1
ген@@ 1
национа@@ 1
точ@@ 1
ых 1
ким 1
коро@@ 1
чного 1
Украины 1
6@@ 1
Для 1
стом 1
C 0.9008299081109137
язы@@ 1
ван 1
сь 1
очень 1
поселения 1
ты@@ 1
нах 1
сня@@ 1
2017 0.7748275339301389
ждения 1
су 1
льном 1
дней 1
день 1
кру@@ 1
ней@@ 1
ющей 1
прове@@ 1
страны 1
ственной 1
область 1
Ста@@ 1
ствует 1
сту@@ 1
юго 1
итель 1
сле@@ 1
Ал@@ 1
Российской 1
вались 1
сборной 1
3@@ 1
2005 0.9225571703293731
физи@@ 1
The 0.04896861538347807
шения 1
вую 1
Об@@ 1
Ша@@ 1
ница 1
Пре@@ 1
вают 1
ственных 1
7@@ 1
ез@@ 1
сил 1
смерти 1
северо 1
ита@@ 1
лия 1
спо@@ 1
Александр 1
щения 1
ниче@@ 1
ственного 1
2018 0.713996090858108
2004 0.9551282566127639
Согласно 1
бере@@ 1
мат@@ 1
начал 1
являются 1
ссо@@ 1
ато@@ 1
низ@@ 1
бан@@ 1
округа 1
Б 1
чер@@ 1
бе 1
дар@@ 1
назначен 1
кое 1
дия 1
дра@@ 1
графи@@ 1
много@@ 1
щих 1
вших 1
эта@@ 1
учё@@ 1
дии 1
кур@@ 1
ниям 1
рой 1
1941 1
уда@@ 1
дами 1
фа 1
Ча@@ 1
мет@@ 1
2001 1
свой 1
йский 1
кам 1
29 1
нам 1
даже 1
ан 1
команды 1
рах 1
чные 1
рон@@ 1
метров 1
ителя 1
кая 1
Республики 1
вз@@ 1
поль@@ 1
сс 1
Ф 1
грани@@ 1
жд@@ 1
разме@@ 1
1990 1
первой 1
иться 1
еди@@ 1
2019 0.7271418804603416
ун@@ 1
центр 1
ясь 1
рус@@ 1
приня@@ 1
ем@@ 1
американ@@ 1
сель@@ 1
дру@@ 1
могут 1
основ@@ 1
50 1
созда@@ 1
работа@@ 1
чная 1
церкви 1
Л 1
ати@@ 1
ряд 1
8@@ 0.9651931364297963
ённые 1
тя@@ 1
’ 0.1591699181505068
кино@@ 1
Фи@@ 1
един@@ 1
сни@@ 1
разде@@ 1
согла@@ 1
круп@@ 1
партии 1
нем 1
стороны 1
ву@@ 1
цами 1
тру@@ 1
ева 1
нова 1
рода 1
льную 1
ён@@ 1
шим 1
сер@@ 1
извест@@ 1
две 1
гово@@ 1
ски 1
пода@@ 1
гар@@ 1
изда@@ 1
наук 1
кова 1
университета 1
мор@@ 1
зии 1
проек@@ 1
свои 1
суще@@ 1
Из 1
вой@@ 1
компании 1
этих 1
Пу@@ 1
жил 1
дения 1
клуб 1
чение 1
называ@@ 1
немец@@ 1
над@@ 1
поэ@@ 1
будет 1
од@@ 1
ровать 1
восто@@ 1
сме@@ 1
занима@@ 1
музыка@@ 1
впервые 1
логи@@ 1
ённый 1
1944 1
ход 1
дела@@ 1
менее 1
лли@@ 1
лек@@ 1
31 1
ителем 1
География 1
вет@@ 1
чей 1
ствен@@ 1
ые 1
ющим 1
специаль@@ 1
Но 1
установ@@ 1
моло@@ 1
сты@@ 1
переда@@ 1
цу 1
Кри@@ 1
например 1
водо@@ 1
щен@@ 1
Бар@@ 1
ём 1
француз@@ 1
родился 1
шли 1
ственный 1
лой 1
обы@@ 1
выми 1
тот 1
бу 1
мо 1
Кроме 1
цо@@ 1
Сер@@ 1
семье 1
0 0.8229988734089272
9@@ 0.891040984307579
чемпионате 1
нет 1
ви 1
ницы 1
щий 1
техниче@@ 1
лл 1
жении 1
гом 1
сезона 1
анти@@ 1
ходит 1
дво@@ 1
Ги@@ 1
Ке@@ 1
Франции 1
важ@@ 1
сса 1
ый 1
40 1
Т 1
пря@@ 1
послед@@ 1
испол@@ 1
которое 1
группа 1
либо 1
Гор@@ 1
вед@@ 1
образования 1
чения 1
возвра@@ 1
лю 1
рования 1
Совета 1
дет@@ 1
Ге@@ 1
Европы 1
лей@@ 1
ть@@ 1
тов@@ 1
2020 0.6825720559426846
тил 1
берегу 1
жда@@ 1
ровал 1
количество 1
! 0.9423546131039284
Мак@@ 1
луч@@ 1
расска@@ 1
жителей 1
лены 1
тор 1
ят 1
яв@@ 1
шение 1
зов 1
перед 1
Кор@@ 1
заня@@ 1
пара@@ 1
15@@ 0.9494906869808916
если 1
рован 1
женщин 1
1999 1
бое@@ 1
все@@ 1
тных 1
тур@@ 1
цкий 1
бли@@ 1
выпол@@ 1
вского 1
никами 1
вича 1
села 1
син@@ 1
br 1
Дже@@ 1
ья@@ 1
– 0.1153835892675014
ителей 1
вид 1
Ген@@ 1
верну@@ 1
системы 1
лением 1
1945 1
че 1
14@@ 0.9602233207953307
шла 1
щение 1
ер 1
одного 1
нович 1
аться 1
часто 1
рий 1
тон 1
вана 1
зе 1
шая 1
нок 1
распростра@@ 1
гии 1
опреде@@ 1
Родился 1
всё 1
ваться 1
школы 1
источ@@ 1
работ@@ 1
1943 1
обнару@@ 1
ору@@ 1
пы 1
гон@@ 1
Входит 1
воло@@ 1
тной 1
плат@@ 1
окончил 1
селе 1
куль@@ 1
зер@@ 1
тар@@ 1
цов 1
дой 1
нь 1
дей@@ 1
альбом 1
дне@@ 1
станции 1
атов 1
план@@ 1
управления 1
образо@@ 1
шёл 1
ческое 1
2003 0.8890729140907319
диа@@ 1
тё@@ 1
жена 1
Германии 1
Раз@@ 1
ныне 1
художе@@ 1
прода@@ 1
почти 1
До 1
мати@@ 1
организации 1
нин@@ 1
детей 1
ющая 1
вский 1
Санкт 1
ват@@ 1
кими 1
чил 1
оп@@ 1
вновь 1
сред@@ 1
тный 1
закон@@ 1
типа 1
эти 1
заклю@@ 1
Кры@@ 1
гро@@ 1
каза@@ 1
мир@@ 1
власти 1
уз@@ 1
вя@@ 1
хотя 1
слу@@ 1
тый 1
культуры 1
ждение 1
тие 1
ступ@@ 1
сам 1
значитель@@ 1
широ@@ 1
игры 1
мон@@ 1
нер@@ 1
представля@@ 1
жизнь 1
тер 1
Федерации 1
дах 1
уче@@ 1
Од@@ 1
Как 1
честь 1
пове@@ 1
крас@@ 1
Вер@@ 1
ССР 1
чемпионата 1
Москве 1
стоя@@ 1
назва@@ 1
Фран@@ 1
площадь 1
больше 1
лено 1
игра@@ 1
имя 1
класси@@ 1
льского 1
Она 1
губернии 1
общества 1
пен@@ 1
мен 1
настоящее 1
проце@@ 1
коло@@ 1
значения 1
воен@@ 1
частности 1
направ@@ 1
ческая 1
ляется 1
рез@@ 1
йн 1
дж@@ 1
людей 1
M@@ 0.16579987769065874
нос@@ 1
ток 1
лями 1
ству@@ 1
одно@@ 1
сса@@ 1
льской 1
ены 1
доро@@ 1
официаль@@ 1
кин 1
британ@@ 1
посе@@ 1
социаль@@ 1
принима@@ 1
Кур@@ 1
хра@@ 1
Р 1
вол@@ 1
окру@@ 1
нём 1
вид@@ 1
науч@@ 1
право@@ 1
ланд@@ 1
хи 1
популяр@@ 1
лении 1
клуба 1
генерал 1
организо@@ 1
лях 1
собствен@@ 1
миче@@ 1
многих 1
ши 1
вил 1
автомоби@@ 1
13@@ 1
пан@@ 1
чё@@ 1
прожи@@ 1
стало 1
мента@@ 1
1980 1
10@@ 1
оказа@@ 1
стиче@@ 1
рок 1
сохрани@@ 1
соеди@@ 1
выс@@ 1
12@@ 1
рован@@ 1
ся 1
деятельность 1
момент 1
1991 1
щая 1
самолё@@ 1
смо@@ 1
1992 1
Эн@@ 1
би 1
степени 1
членом 1
ян 1
цар@@ 1
дь@@ 1
“ 0.1650367979180401
Глав@@ 1
жены 1
наиболее 1
собра@@ 1
хоро@@ 1
основном 1
англи@@ 1
работу 1
льский 1
мировой 1
различных 1
филь@@ 1
сезоне 1
профессиона@@ 1
Восто@@ 1
опера@@ 1
права 1
нови@@ 1
требо@@ 1
ад@@ 1
стер@@ 1
Ман@@ 1
дивизии 1
XIX 1
нес@@ 1
S@@ 0.125753409126412
ностей 1
виде@@ 1
Вол@@ 1
кто@@ 1
завер@@ 1
хода 1
цкого 1
шко@@ 1
руковод@@ 1
должность 1
Воз@@ 1
побе@@ 1
входит 1
ью@@ 1
1942 1
проводи@@ 1
Великой 1
первого 1
совета 1
мости 1
матче 1
использу@@ 1
Ново@@ 1
Ши@@ 1
стат@@ 1
кри@@ 1
вле@@ 1
рию 1
бри@@ 1
спе@@ 1
Крас@@ 1
поме@@ 1
народ@@ 1
вре@@ 1
+ 1
стью 1
принял 1
тора 1
1960 1
нескольких 1
Отечественной 1
вшие 1
содержа@@ 1
шу@@ 1
анд@@ 1
здесь 1
дал 1
комму@@ 1
сп@@ 1
лат@@ 1
чески 1
таких 1
Пет@@ 1
1970 1
запа@@ 1
мин@@ 1
кин@@ 1
Бы@@ 1
своим 1
Свя@@ 1
Гер@@ 1
Все@@ 1
ыва@@ 1
лению 1
вской 1
тысяч 1
дин@@ 1
шее 1
бал@@ 1
лых 1
Из@@ 1
Так 1
вили 1
лах 1
экономиче@@ 1
создан@@ 1
щие 1
Ше@@ 1
бле@@ 1
ствуют 1
нача@@ 1
бой 1
ед@@ 1
своё 1
гло@@ 1
дости@@ 1
емых 1
новых 1
лег@@ 1
моря 1
бин@@ 1
дены 1
существо@@ 1
действия 1
держа@@ 1
украин@@ 1
програм@@ 1
рование 1
P@@ 0.14446150018596765
личе@@ 1
ранее 1
шед@@ 1
Я 1
примерно 1
верх@@ 1
отсут@@ 1
месте 1
новой 1
советский 1
счита@@ 1
лин 1
рует 1
пис@@ 1
линии 1
войск 1
ствовал 1
жен 1
спа@@ 1
щего 1
ули@@ 1
веду@@ 1
фак@@ 1
Фа@@ 1
дро@@ 1
„ 0.22474761721036332
помо@@ 1
фильма 1
логии 1
первым 1
Север@@ 1
вшись 1
1998 0.9200557831080047
участвовал 1
дома 1
яр@@ 1
чу 1
строитель@@ 1
роди@@ 1
персона@@ 1
рай@@ 1
мини@@ 1
тного 1
сов@@ 1
назна@@ 1
иде@@ 1
лла 1
формы 1
Пере@@ 1
самого 1
трёх 1
чь 1
серии 1
названием 1
ора 1
год@@ 1
чном 1
число 1
000 1
Александ@@ 1
све@@ 1
обла@@ 1
образование 1
пат@@ 1
дивизи@@ 1
Союза 1
1930 1
1994 1
зи 1
полка 1
Нью 1
награ@@ 1
тон@@ 1
вало 1
бит@@ 1
новый 1
ита 1
отправ@@ 1
Ак@@ 1
зыва@@ 1
1997 0.9818679731058214
цион@@ 1
лер 1
of 0.009759827164300024
которую 1
возрасте 1
причи@@ 1
кс 1
золо@@ 1
которым 1
сс@@ 1
Пав@@ 1
Владимир 1
1996 0.9747482906453145
III 1
позже 1
воды 1
1995 1
меня@@ 1
Николай 1
получила 1
2021 0.6809693807352764
виде 1
жением 1
освобо@@ 1
вышел 1
60 1
владе@@ 1
учеб@@ 1
фото@@ 1
мать 1
слож@@ 1
убе@@ 1
Мин@@ 1
тура 1
голо@@ 1
полностью 1
сын 1
1920 1
нове@@ 1
тно 1
ек@@ 1
нил 1
Бело@@ 1
ново@@ 1
следу@@ 1
городской 1
тиче@@ 1
шую 1
деятельности 1
игр 1
люб@@ 1
мах 1
отли@@ 1
Под@@ 1
ходя@@ 1
деревни 1
мощ@@ 1
ден 1
чёр@@ 1
вернулся 1
провод@@ 1
современ@@ 1
попа@@ 1
международ@@ 1
зада@@ 1
коллек@@ 1
объя@@ 1
1993 1
D@@ 0.14034540323299313
Центра@@ 1
исследовате@@ 1
ённого 1
показа@@ 1
рей 1
уничто@@ 1
гг 1
случае 1
административ@@ 1
ственно 1
крити@@ 1
ённой 1
ил 1
член 1
закры@@ 1
первых 1
дат@@ 1
XX 1
общи@@ 1
2@@ 1
см 1
продолжа@@ 1
ходи@@ 1
без@@ 1
йская 1
независи@@ 1
япон@@ 1
Чер@@ 1
валась 1
др 1
зат@@ 1
лии 1
вое@@ 1
пись@@ 1
выра@@ 1
городского 1
многие 1
Вели@@ 1
млн 1
Второй 1
Был 1
нару@@ 1
поч@@ 1
альбома 1
коми@@ 1
лами 1
железнодорож@@ 1
тек@@ 1
гер@@ 1
мужчин 1
&apos; 0.08527344324237045
стей 1
выступа@@ 1
Росси@@ 1
Хи@@ 1
тых 1
провёл 1
жений 1
спек@@ 1
н. 1
уезда 1
живо@@ 1
ётся 1
рак@@ 1
прекра@@ 1
пов 1
вне@@ 1
Когда 1
ъ@@ 1
утвер@@ 1
Они 1
вии 1
щей 1
муж@@ 1
чат@@ 1
1989 1
играл 1
четыре 1
места 1
лок 1
империи 1
опублико@@ 1
пос@@ 1
прави@@ 1
необходи@@ 1
Международ@@ 1
кино 1
решение 1
крат@@ 1
доб@@ 1
руководством 1
себе 1
1950 1
ься 1
тные 1
древ@@ 1
нового 1
вов 1
хов 1
деся@@ 1
эй@@ 1
глу@@ 1
тии 1
Олимпийских 1
некоторые 1
рий@@ 1
тому 1
гну@@ 1
ствия 1
жан@@ 1
жде@@ 1
1940 1
плани@@ 1
ен 1
дол@@ 1
некоторых 1
Кла@@ 1
движения 1
произ@@ 1
ара 1
кол@@ 1
держ@@ 1
связан@@ 1
писал 1
помощью 1
шки 1
ительно 1
буду@@ 1
Влади@@ 1
население 1
выде@@ 1
песни 1
противо@@ 1
реали@@ 1
основе 1
атом 1
йти 1
дает 1
Андре@@ 1
стен@@ 1
Ком@@ 1
= 0.5939370609195985
ствие 1
ено 1
веке 1
Пред@@ 1
восстанов@@ 1
треть@@ 1
ред@@ 1
лова 1
дам 1
видов 1
Среди 1
чки 1
мя 1
уго@@ 1
хов@@ 1
церковь 1
зма 1
развития 1
рам 1
ана 1
поскольку 1
ите@@ 1
нар@@ 1
политиче@@ 1
сельсовета 1
Тре@@ 1
она@@ 1
итальян@@ 1
культур@@ 1
совер@@ 1
йских 1
Мат@@ 1
государственного 1
Мон@@ 1
ванием 1
особ@@ 1
Иван 1
работ 1
ву 1
кую 1
удалось 1
Зе@@ 1
включая 1
рамках 1
лый 1
тогда 1
док 1
лина 1
сами 1
ити@@ 1
мето@@ 1
длин@@ 1
искус@@ 1
федера@@ 1
бло@@ 1
циях 1
нер 1
Кан@@ 1
лые 1
дли@@ 1
вшей 1
дороги 1
вшего 1
вопро@@ 1
мана 1
центра@@ 1
s 0.07380680255872099
генера@@ 1
уро@@ 1
одна 1
языка 1
1918 1
чка 1
F@@ 0.1384022814521455
возмож@@ 1
взя@@ 1
C@@ 0.14019742688995265
T@@ 0.1241791221521708
ху 1
играх 1
заме@@ 1
острова 1
Основ@@ 1
ё 1
Юж@@ 1
1939 1
версии 1
имеют 1
росси@@ 1
академии 1
пя@@ 1
Затем 1
стри@@ 1
окончания 1
объеди@@ 1
йн@@ 1
зар@@ 1
чным 1
другой 1
компания 1
ссии 1
изобра@@ 1
деревне 1
G@@ 0.13089756777715514
корот@@ 1
предло@@ 1
вода 1
рев@@ 1
реб@@ 1
такие 1
ины 1
ними 1
внеш@@ 1
следо@@ 1
учре@@ 1
оборо@@ 1
Государ@@ 1
съ@@ 1
концер@@ 1
самых 1
дел 1
бар@@ 1
коле@@ 1
ще 1
Ай@@ 1
поле 1
конца 1
обе@@ 1
йском 1
обычно 1
наход@@ 1
зда@@ 1
Эр@@ 1
голов@@ 1
поез@@ 1
тирова@@ 1
R@@ 0.13633690593824516
института 1
глав@@ 1
положение 1
войска 1
льными 1
руется 1
расши@@ 1
Никола@@ 1
фици@@ 1
благодаря 1
тех 1
медицин@@ 1
Е 1
компози@@ 1
река 1
мии 1
Ио@@ 1
чает 1
ника@@ 1
совершен@@ 1
Дэ@@ 1
L@@ 0.11665172602551381
Дру@@ 1
тыс. 1
зу 1
? 1
подоб@@ 1
сообще@@ 1
рая 1
ковой 1
союз@@ 1
стер 1
университете 1
горо@@ 1
влия@@ 1
ственным 1
Мор@@ 1
шка 1
май@@ 1
Фё@@ 1
объек@@ 1
сли 1
70 1
тай@@ 1
европей@@ 1
здание 1
чается 1
фон 1
сбор@@ 1
геро@@ 1
ставля@@ 1
дели@@ 1
пы@@ 1
хе@@ 1
фестива@@ 1
поэтому 1
ческом 1
фон@@ 1
селе@@ 1
уни@@ 1
шо@@ 1
ье@@ 1
настоя@@ 1
200 1
ктора 1
Кре@@ 1
сли@@ 1
защит@@ 1
школу 1
присут@@ 1
мире 1
выступал 1
дена 1
тая 1
рос@@ 1
град@@ 1
вла@@ 1
мент 1
чик 1
Тер@@ 1
опы@@ 1
ители 1
работе 1
цкой 1
школе 1
став 1
большой 1
ющее 1
побед@@ 1
ся@@ 1
жу@@ 1
роли 1
сторо@@ 1
Кара@@ 1
постро@@ 1
меха@@ 1
Сан@@ 1
перешёл 1
дать 1
реда@@ 1
ут@@ 1
тона 1
пригла@@ 1
моно@@ 1
зва@@ 1
ландии 1
вод 1
кат@@ 1
Рус@@ 1
участво@@ 1
юще@@ 1
80 1
вшая 1
провинции 1
радио@@ 1
пози@@ 1
самым 1
W@@ 0.14214380288734985
сре@@ 1
ссе@@ 1
лож@@ 1
коль@@ 1
Хар@@ 1
национальной 1
Шу@@ 1
N@@ 0.1434717745223698
жей 1
Красно@@ 1
дате@@ 1
чены 1
включа@@ 1
Москов@@ 1
вании 1
нат 1
запад@@ 1
Первый 1
клю@@ 1
главным 1
мате@@ 1
кина 1
ваются 1
тической 1
чное 1
З 1
пыта@@ 1
сан@@ 1
постав@@ 1
края 1
туре 1
насел@@ 1
меж@@ 1
позиции 1
Иванович 1
языке 1
Гар@@ 1
зации 1
мир 1
ался 1
королев@@ 1
округ 1
симво@@ 1
ца@@ 1
разработ@@ 1
1917 1
правитель@@ 1
Запад@@ 1
команда 1
хом 1
обви@@ 1
согласно 1
нике 1
интер@@ 1
памят@@ 1
постоян@@ 1
искусства 1
0,@@ 1
спор@@ 1
ступа@@ 1
B@@ 0.11339659479747144
земли 1
авиа@@ 1
нин 1
составля@@ 1
тная 1
поддерж@@ 1
ственные 1
производства 1
скры@@ 1
35 1
поселение 1
Мэ@@ 1
шта@@ 1
най@@ 1
сной 1
хар@@ 1
впоследствии 1
должен 1
миро@@ 1
частью 1
тина 1
тол@@ 1
Дж@@ 1
промышлен@@ 1
сторон@@ 1
новые 1
кти@@ 1
струк@@ 1
российский 1
герцо@@ 1
фер@@ 1
вати@@ 1
кло@@ 1
происходит 1
благо@@ 1
област@@ 1
Зем@@ 1
сентябре 1
мия 1
ас@@ 1
Гра@@ 1
гия 1
парти@@ 1
сия 1
граждан@@ 1
кита@@ 1
мнению 1
вызва@@ 1
язык 1
сем@@ 1
форма@@ 1
Михаил 1
полк 1
создания 1
ответ@@ 1
стви@@ 1
стран 1
получи@@ 1
тые 1
1988 0.9537101538201269
серебря@@ 1
нему 1
юж@@ 1
Вен@@ 1
ент@@ 1
служи@@ 1
уби@@ 1
звание 1
еся 1
мета@@ 1
ческим 1
мае 1
Пар@@ 1
волости 1
спорта 1
тий 1
всей 1
завод 1
карьеру 1
Ху@@ 1
форми@@ 1
− 1
другими 1
сам@@ 1
смер@@ 1
Верховного 1
бо 1
Алексе@@ 1
состоит 1
воро@@ 1
лки 1
неё 1
избран 1
январе 1
литератур@@ 1
составляло 1
Чу@@ 1
рения 1
отношения 1
рова 1
данных 1
театра 1
должности 1
выстав@@ 1
рим@@ 1
постанов@@ 1
особенно 1
целью 1
профессор 1
the 0.004150807661475741
имел 1
ото@@ 1
нитель@@ 1
подготов@@ 1
Май@@ 1
поддержи@@ 1
недо@@ 1
Джо@@ 1
води@@ 1
капита@@ 1
метал@@ 1
фина@@ 1
марте 1
ым 1
деятель 1
Ниж@@ 1
счит@@ 1
тин 1
Сергей 1
кто 1
чел 1
ус 1
образова@@ 1
вскоре 1
стана 1
коммуны 1
каз 1
нении 1
аэро@@ 1
бур@@ 1
именно 1
температура 1
сыграл 1
комплек@@ 1
Москва 1
игро@@ 1
поро@@ 1
станция 1
неболь@@ 1
расположен 1
сохра@@ 1
выступ@@ 1
близ@@ 1
дня 1
сро@@ 1
дер 1
посёлок 1
ваны 1
октябре 1
короля 1
занял 1
поз@@ 1
РФ 1
продолж@@ 1
РСФСР 1
фильме 1
государства 1
слав@@ 1
первом 1
августе 1
рес@@ 1
Сан 1
дре@@ 1
мость 1
декабре 1
исследо@@ 1
проект 1
тки 1
так@@ 1
Италии 1
следующие 1
снова 1
рядом 1
институт 1
остав@@ 1
семьи 1
возможно 1
альбо@@ 1
хан@@ 1
види@@ 1
аре@@ 1
математи@@ 1
Кра@@ 1
священ@@ 1
лица 1
вше@@ 1
тран@@ 1
шин@@ 1
A 0.12824648696849306
запре@@ 1
дел@@ 1
возможность 1
семейства 1
заве@@ 1
приобре@@ 1
относится 1
нюю 1
иг@@ 1
шло 1
тур 1
образу@@ 1
технологи@@ 1
ене@@ 1
ктором 1
лий 1
Бра@@ 1
право 1
массо@@ 1
противника 1
располага@@ 1
ал 1
евре@@ 1
служ@@ 1
дри@@ 1
ктор 1
этим 1
станов@@ 1
микро@@ 1
умер 1
служил 1
Этот 1
ковского 1
русской 1
пехот@@ 1
чита@@ 1
90 1
команду 1
расстоянии 1
хро@@ 1
подчи@@ 1
пе 1
кси@@ 1
опис@@ 1
щена 1
первые 1
45 1
гри@@ 1
пти@@ 1
женщины 1
челове@@ 1
Бур@@ 1
1938 1
Все 1
футболь@@ 1
дан 1
находился 1
неф@@ 1
север@@ 1
емые 1
ковых 1
правления 1
1937 1
двумя 1
контракт 1
выигра@@ 1
книги 1
зм 1
востоку 1
пит@@ 1
отца 1
поня@@ 1
повы@@ 1
вида 1
действи@@ 1
мся 1
управля@@ 1
сборную 1
Несмотря 1
печат@@ 1
вате@@ 1
E@@ 0.14593731370758675
зах@@ 1
представляет 1
вве@@ 1
йские 1
вила 1
проис@@ 1
сю@@ 1
долларов 1
лям 1
1986 0.9540374773786993
фикации 1
чен 1
середине 1
службу 1
ски@@ 1
Жи@@ 1
уровнем 1
состав@@ 1
кле@@ 1
Александра 1
июле 1
йся 1
нал 1
церков@@ 1
осуществ@@ 1
школа 1
премии 1
тела 1
Располо@@ 1
корпуса 1
емый 1
Гру@@ 1
значение 1
силы 1
спортив@@ 1
западу 1
мской 1
лес@@ 1
Ря@@ 1
1987 0.9383821379913074
дина@@ 1
A@@ 0.1212313452829463
региона@@ 1
вка 1
лод@@ 1
риа@@ 1
молод@@ 1
двор@@ 1
цей 1
кладбище 1
1919 1
испан@@ 1
операции 1
проекта 1
бело@@ 1
орга@@ 1
цве@@ 1
Джа@@ 1
разви@@ 1
государ@@ 1
гой 1
Ос@@ 1
1985 0.9621272215009072
1946 1
празд@@ 1
отец 1
столи@@ 1
применя@@ 1
поте@@ 1
совет 1
многочислен@@ 1
Рабо@@ 1
Описание 1
Ленин@@ 1
жной 1
домаш@@ 1
дебютировал 1
жили 1
публи@@ 1
Тур@@ 1
осно@@ 1
шах@@ 1
своём 1
Поли@@ 1
гвардей@@ 1
оборудо@@ 1
службы 1
расположен@@ 1
успе@@ 1
ано 1
эту 1
разных 1
1@@ 1
подо@@ 1
выда@@ 1
ёт@@ 1
москов@@ 1
32 1
Сте@@ 1
валось 1
Зна@@ 1
преде@@ 1
университет 1
первую 1
пор 1
ходят 1
известно 1
камен@@ 1
Ир@@ 1
система 1
казыва@@ 1
июне 1
внутрен@@ 1
дов@@ 1
сра@@ 1
рово@@ 1
нений 1
Если 1
&#124; 0.836919552219568
Верх@@ 1
примене@@ 1
работать 1
Кубка 1
ём@@ 1
определ@@ 1
ологи@@ 1
Сто@@ 1
1965 1
друг 1
цом 1
мер 1
поступил 1
кня@@ 1
запис@@ 1
Ис@@ 1
любо@@ 1
помощи 1
коне@@ 1
погиб@@ 1
воору@@ 1
бург@@ 1
арти@@ 1
апреле 1
таким 1
нико@@ 1
Иль@@ 1
гла 1
вто@@ 1
Гре@@ 1
используется 1
другим 1
Фор@@ 1
становится 1
цем 1
ниж@@ 1
чин@@ 1
Тем 1
писа@@ 1
титул 1
рио@@ 1
Национа@@ 1
центром 1
ноябре 1
дон@@ 1
H@@ 0.10845367103411345
подвер@@ 1
дополнитель@@ 1
позволи@@ 1
ковский 1
оби@@ 1
отра@@ 1
поста@@ 1
сво@@ 1
ственная 1
лон@@ 1
исполня@@ 1
русский 1
территориаль@@ 1
вно 1
цам 1
т. 1
сен 1
ссе 1
колхо@@ 1
гг. 1
1984 0.9193291202765338
Через 1
месяца 1
даль@@ 1
сум@@ 1
Мари@@ 1
должны 1
экономи@@ 1
штат 1
ственное 1
посвя@@ 1
куп@@ 1
жо@@ 1
1979 0.9963212881737972
пять 1
наблю@@ 1
пути 1
стату@@ 1
16@@ 0.9301354592403103
реаль@@ 1
ждён 1
лью 1
Великобритании 1
нить 1
Гри@@ 1
раб@@ 1
1966 1
нё@@ 1
разру@@ 1
транспор@@ 1
Московской 1
иногда 1
ам@@ 1
V@@ 0.13915833323301163
Серге@@ 1
сыгра@@ 1
русского 1
V 0.660377251085864
подтвер@@ 1
тым 1
джа@@ 1
1968 1
ата 1
цвет@@ 1
1975 0.9683248135562023
us 0.14584382833326806
Пор@@ 1
Ран@@ 1
сона 1
сад@@ 1
1926 1
ордена 1
русские 1
утвержда@@ 1
ряда 1
500 0.9892755479874992
Джон 1
феврале 1
1948 1
аны 1
рассматри@@ 1
кроме 1
числен@@ 1
ителями 1
ённая 1
государственный 1
дерев@@ 1
бре@@ 1
эта 1
развед@@ 1
проходи@@ 1
всегда 1
K@@ 0.11014442549921781
обороны 1
приве@@ 1
бронзо@@ 1
ляр@@ 1
архите@@ 1
получа@@ 1
евна 1
востоке 1
вор@@ 1
Ам@@ 1
проте@@ 1
здания 1
дочь 1
духов@@ 1
зам@@ 1
лений 1
остро@@ 1
нику 1
Вар@@ 1
чай@@ 1
отве@@ 1
тат@@ 1
1963 1
цо 1
итоге 1
рели@@ 1
комитета 1
1973 1
забил 1
меся@@ 1
Рес@@ 1
пли@@ 1
училище 1
протяжении 1
лле@@ 1
нина 1
1976 0.9993263972879848
второго 1
вышла 1
войне 1
практически 1
щены 1
гах 1
менты 1
класса 1
ката@@ 1
Воро@@ 1
грам@@ 1
отличие 1
бира@@ 1
стой 1
начало 1
Дон@@ 1
1959 1
туры 1
кир@@ 1
дил 1
Москвы 1
готов@@ 1
ане 1
продол@@ 1
правительства 1
рил 1
1972 0.9500102519953117
матчей 1
четвёр@@ 1
этому 1
a 0.007856253453772864
Пра@@ 1
чился 1
тяжё@@ 1
ляет 1
похо@@ 1
аль 1
Пол@@ 1
фу@@ 1
четы@@ 1
рина 1
пом 1
ментов 1
ню 1
сах 1
дере@@ 1
хе 1
впа@@ 1
располо@@ 1
фронта 1
писи 1
президента 1
вшим 1
чную 1
мского 1
эт@@ 1
1971 0.9974894797644068
1958 1
покры@@ 1
1956 1
расположена 1
стин@@ 1
риаль@@ 1
Украин@@ 1
Поль@@ 1
район@@ 1
Климат 1
систе@@ 1
меры 1
составляли 1
мени@@ 1
слав 1
уча@@ 1
1982 0.9194008089777754
лли 1
информа@@ 1
эпизо@@ 1
ску 1
стами 1
рин 1
вёл 1
торгов@@ 1
мас@@ 1
вшийся 1
пу 1
сезон 1
музыкан@@ 1
X 0.6905712228765852
действо@@ 1
жено 1
ограни@@ 1
клу@@ 1
состоянию 1
граф 1
сына 1
йна 1
порт 1
всем 1
кам@@ 1
ково 1
жению 1
меда@@ 1
гидро@@ 1
холод@@ 1
1974 0.962583511153825
сдела@@ 1
мента 1
Рай@@ 1
ул 1
стране 1
двух@@ 1
воду 1
щим 1
женный 1
1929 1
состава 1
ид@@ 1
сразу 1
рен 1
членов 1
общей 1
карьера 1
вместо 1
али@@ 1
куда 1
держи@@ 1
оне 1
1983 0.903874909625127
1978 0.9591332570480742
Член 1
изо@@ 1
реша@@ 1
государствен@@ 1
управ@@ 1
авиацион@@ 1
организа@@ 1
программы 1
являлся 1
сту 1
льности 1
бов 1
1981 0.9107945885190565
награждён 1
мин 1
словам 1
рэ@@ 1
контро@@ 1
фин@@ 1
времен@@ 1
улица 1
Воло@@ 1
военного 1
охра@@ 1
1967 1
результатам 1
стандар@@ 1
центре 1
архи@@ 1
позднее 1
Филип@@ 1
надц@@ 1
рик 1
свобод@@ 1
улицы 1
большое 1
издате@@ 1
демокра@@ 1
вах 1
гене@@ 1
воздуш@@ 1
прото@@ 1
1954 1
конец 1
1964 1
люди 1
Хе@@ 1
сел@@ 1
1957 1
рованных 1
дель@@ 1
выполня@@ 1
Уэ@@ 1
цах 1
жных 1
маршру@@ 1
вер 1
кну@@ 1
дение 1
ниц 1
IV 1
дор 1
Тор@@ 1
четвер@@ 1
Фо@@ 1
ган 1
зин@@ 1
1962 1
Чи@@ 1
клад@@ 1
64 1
автор 1
тических 1
взаимо@@ 1
ог@@ 1
команду@@ 1
1949 1
дий 1
гли 1
безопасности 1
свидетель@@ 1
милли@@ 1
мед@@ 1
регуляр@@ 1
неде@@ 1
Золо@@ 1
внимание 1
завода 1
град 1
Англии 1
очередь 1
дав@@ 1
сте 1
измене@@ 1
Японии 1
слова 1
дено 1
турнира 1
мог 1
XVIII 1
ющими 1
журнала 1
Тру@@ 1
чий 1
обеспечи@@ 1
1936 1
ее 1
нали@@ 1
65 1
вшихся 1
чена 1
случа@@ 1
1961 1
результ@@ 1
Кана@@ 1
сельское 1
ждении 1
мало@@ 1
жела@@ 1
Первой 1
религиоз@@ 1
творче@@ 1
лан 1
нан@@ 1
произо@@ 1
край@@ 1
защи@@ 1
Аб@@ 1
вали@@ 1
нор@@ 1
академи@@ 1
1977 0.9724169853621321
вари@@ 1
восточной 1
брь 1
тность 1
газе@@ 1
реги@@ 1
преподавате@@ 1
главе 1
нима@@ 1
главного 1
пост 1
ческую 1
ёл 1
западе 1
уез@@ 1
соору@@ 1
Кам@@ 1
графа 1
исследования 1
западной 1
Кол@@ 1
оло@@ 1
бран@@ 1
тем@@ 1
спустя 1
рение 1
военных 1
дву@@ 1
написал 1
футбо@@ 1
старо@@ 1
юр@@ 1
рон 1
летом 1
Послед@@ 1
мей@@ 1
лёг@@ 1
Ры@@ 1
строительство 1
Код 1
вано 1
лиги 1
B 0.3165074231052818
1947 1
лети@@ 1
Ленинград@@ 1
Стар@@ 1
соответствии 1
превра@@ 1
кали@@ 1
получили 1
одновременно 1
ченко 1
вши@@ 1
Дан@@ 1
ятся 1
лагер@@ 1
пору@@ 1
Таким 1
жать 1
зоне 1
мена 1
льства 1
музе@@ 1
граф@@ 1
мел@@ 1
гото@@ 1
кисло@@ 1
одном 1
строй@@ 1
1969 0.9742425673943729
бес@@ 1
Бен@@ 1
штаба 1
стрел@@ 1
практи@@ 1
1935 1
ум 1
Щ@@ 1
вну@@ 1
мину@@ 1
Бел@@ 1
чался 1
Сол@@ 1
начальник 1
мых 1
сельсовет 1
33 1
вклю@@ 1
американский 1
объ@@ 1
хозяй@@ 1
действу@@ 1
номе@@ 1
ванию 1
Позже 1
жает 1
шан@@ 1
АО 1
лья@@ 1
уэ@@ 1
срав@@ 1
научных 1
строительства 1
действ@@ 1
доку@@ 1
упомина@@ 1
четырёх 1
площади 1
нео@@ 1
интере@@ 1
-@@ 0.5405661348429148
населённых 1
развитие 1
зен@@ 1
щении 1
кни@@ 1
цик@@ 1
хорошо 1
сто 1
Россия 1
роман@@ 1
шоу 1
есте@@ 1
зрения 1
футболист 1
реш@@ 1
Йор@@ 1
O@@ 0.12970576381700505
гами 1
преду@@ 1
стол@@ 1
принадлежа@@ 1
разв@@ 1
Авто@@ 1
ьи 1
соответственно 1
емой 1
говори@@ 1
свобо@@ 1
рё@@ 1
Северной 1
ена 1
собира@@ 1
новым 1
статус 1
одино@@ 1
ведён 1
Лин@@ 1
цвета 1
руко@@ 1
дебю@@ 1
начали 1
Прав@@ 1
Испании 1
выше 1
Бри@@ 1
Ев@@ 1
Це@@ 1
Лат@@ 1
дя@@ 1
революции 1
сай@@ 1
движение 1
чении 1
фе 1
проходит 1
ум@@ 1
сей 1
командо@@ 1
полож@@ 1
насчит@@ 1
турнире 1
36 1
кома 1
ати 1
начальника 1
млад@@ 1
цент@@ 1
шими 1
продю@@ 1
дивизия 1
Ива@@ 1
ительной 1
решения 1
влияние 1
ционных 1
студен@@ 1
флота 1
финансо@@ 1
ционной 1
смотре@@ 1
Мария 1
льд 1
жё@@ 1
точки 1
основате@@ 1
заявил 1
бой@@ 1
мыс@@ 1
графии 1
мастер@@ 1
водного 1
множество 1
сор@@ 1
основан@@ 1
1924 1
S 0.41715466099450826
семь 1
боевых 1
одно 1
Нор@@ 1
финале 1
сочи@@ 1
мян@@ 1
торго@@ 1
пока 1
копи@@ 1
восста@@ 1
выиграл 1
зом 1
правительство 1
вече@@ 1
предо@@ 1
ссия 1
Советского 1
пассажи@@ 1
34 1
сол@@ 1
сим@@ 1
циона@@ 1
Сла@@ 1
пробле@@ 1
йки 1
мест 1
метро@@ 1
показате@@ 1
дали 1
Израи@@ 1
ющихся 1
рю@@ 1
ровали 1
1921 1
торов 1
Не 1
километров 1
фло@@ 1
хся 1
тыся@@ 1
сокра@@ 1
бор 1
шел 1
исто@@ 1
моби@@ 1
Сюжет 1
Син@@ 1
Всего 1
мона@@ 1
завое@@ 1
Нача@@ 1
Бре@@ 1
главный 1
периода 1
лка 1
зву@@ 1
список 1
Народ@@ 1
хозяйства 1
ывает 1
считается 1
традицион@@ 1
озера 1
назы@@ 1
38 1
темпера@@ 1
никам 1
сне@@ 1
потеря@@ 1
Три@@ 1
орденом 1
деву@@ 1
стил 1
тики 1
эле@@ 1
стать 1
нато@@ 1
37 1
in 0.005378305434333889
храни@@ 1
нского 1
пон@@ 1
Евро@@ 1
находятся 1
Карьера 1
христиан@@ 1
принци@@ 1
химиче@@ 1
относительно 1
чено 1
y 0.017507542334461272
ленные 1
большинство 1
известный 1
1922 1
предполага@@ 1
группу 1
реке 1
музыки 1
медали 1
шем 1
Петро@@ 1
щается 1
Тро@@ 1
Длина 1
захват@@ 1
Королев@@ 1
земе@@ 1
условиях 1
имели 1
Э 1
ровки 1
свет@@ 1
присоедини@@ 1
Ленина 1
1953 1
российской 1
рована 1
двигате@@ 1
понима@@ 1
I@@ 0.1700957930574587
чек 1
ктов 1
одну 1
развити@@ 1
оригина@@ 1
Алексей 1
жем 1
правило 1
баш@@ 1
ново 1
Киев@@ 1
рь@@ 1
Эта 1
военной 1
группе 1
скло@@ 1
ран 1
несмотря 1
300 1
создан 1
Эд@@ 1
количе@@ 1
1928 1
днев@@ 1
Оль@@ 1
которому 1
вариан@@ 1
ёв 1
реши@@ 1
75 1
категории 1
самой 1
записи 1
Бори@@ 1
преступ@@ 1
экспери@@ 1
прин@@ 1
тился 1
Харь@@ 1
совместно 1
самостоятель@@ 1
Анто@@ 1
пункт 1
Сим@@ 1
скри@@ 1
кафед@@ 1
состоялась 1
пита@@ 1
дворов 1
использовать 1
реше@@ 1
победу 1
Афри@@ 1
лев@@ 1
лым 1
достаточно 1
дела 1
Окончил 1
известен 1
различные 1
Список 1
нена 1
1955 1
контра@@ 1
полити@@ 1
Эти 1
крестьян@@ 1
вось@@ 1
дей 1
лог 1
воль@@ 1
узна@@ 1
1934 1
ённым 1
кресть@@ 1
Вя@@ 1
могли 1
требу@@ 1
зывает 1
выбра@@ 1
замен@@ 1
различ@@ 1
Занимает 1
обеспе@@ 1
Совет@@ 1
1952 1
чиков 1
хокке@@ 1
альный 1
муниципа@@ 1
днее 1
Вскоре 1
деревян@@ 1
джи@@ 1
твор@@ 1
действие 1
большин@@ 1
оно 1
научно 1
Сти@@ 1
трудо@@ 1
гори@@ 1
уме@@ 1
Дне@@ 1
вру@@ 1
сь@@ 1
характер@@ 1
форме 1
против@@ 1
основной 1
матч 1
команд 1
мым 1
жества 1
сильно 1
Ст@@ 1
занимался 1
код 1
теории 1
Бан@@ 1
1932 1
Европе 1
Гро@@ 1
окра@@ 1
последовате@@ 1
циями 1
названия 1
отноше@@ 1
1933 1
соответ@@ 1
прямой 1
няется 1
стра 1
тера 1
ец 1
тным 1
лая 1
тического 1
учился 1
Деревня 1
лам 1
вдо@@ 1
мина@@ 1
наи@@ 1
маши@@ 1
Андрей 1
укра@@ 1
фир@@ 1
ште@@ 1
владель@@ 1
Бор@@ 1
Полу@@ 1
информации 1
ща 1
Нар@@ 1
студи@@ 1
исследований 1
тика 1
чила 1
месяцев 1
чар@@ 1
уровне 1
министра 1
целом 1
Нов@@ 1
зон@@ 1
посёлка 1
дальнейшем 1
журнали@@ 1
чие 1
находи@@ 1
ука@@ 1
песен 1
1931 1
лович 1
Хан@@ 1
туре@@ 1
бассейн 1
1923 1
кораб@@ 1
такой 1
преж@@ 1
чением 1
документа@@ 1
угро@@ 1
Некоторые 1
русских 1
шен 1
писан 1
Лей@@ 1
вия 1
потому 1
Обще@@ 1
рождения 1
услови@@ 1
участок 1
острове 1
лиге 1
жить 1
оз@@ 1
Её 1
ционного 1
кт 1
музы@@ 1
аб@@ 1
мами 1
пунктов 1
вице 1
успеш@@ 1
брат 1
летия 1
штата 1
первен@@ 1
ствами 1
значительно 1
Тай@@ 1
щу@@ 1
автоно@@ 1
позволя@@ 1
педагоги@@ 1
42 1
объяв@@ 1
de 0.003979989962196724
игре 1
принимал 1
Московского 1
вокруг 1
заведу@@ 1
состоялся 1
ато 1
йским 1
площад@@ 1
рабат@@ 1
Гон@@ 1
двину@@ 1
39 1
лян@@ 1
губер@@ 1
стр 1
числа 1
включает 1
работает 1
Красной 1
представителей 1
специали@@ 1
прини@@ 1
супру@@ 1
звёз@@ 1
44 1
муниципалите@@ 1
смог 1
эр@@ 1
быстро 1
инте@@ 1
Название 1
ющую 1
кавале@@ 1
убий@@ 1
вли@@ 1
действий 1
факультет 1
руют 1
Ю 1
атив@@ 1
транс@@ 1
муниципального 1
Василий 1
выборах 1
ствах 1
промышленности 1
путеше@@ 1
Вин@@ 1
неж@@ 1
ющиеся 1
побереж@@ 1
судь@@ 1
участник 1
скульп@@ 1
мую 1
поля 1
i 0.11785240395759146
Азии 1
компа@@ 1
дене@@ 1
электри@@ 1
дно 1
нной 1
казывает 1
производство 1
Пен@@ 1
команде 1
науки 1
молодёж@@ 1
военно 1
тором 1
мужчины 1
моде@@ 1
чув@@ 1
странах 1
летних 1
Александрович 1
гат@@ 1
ната 1
Кали@@ 1
Чар@@ 1
песня 1
ссы 1
Административный 1
воздуха 1
заво@@ 1
титу@@ 1
тяже@@ 1
1951 1
продук@@ 1
чемпиона@@ 1
Баш@@ 1
ницей 1
мень@@ 1
гли@@ 1
зал 1
ожи@@ 1
сков 1
Гла@@ 1
хо 1
чемпионат 1
Николаевич 1
прош@@ 1
нем@@ 1
экра@@ 1
нау@@ 1
президент 1
явления 1
Рас@@ 1
тические 1
коммер@@ 1
око@@ 1
доль@@ 1
Дей@@ 1
административного 1
1927 1
чал 1
Вто@@ 1
нский 1
мые 1
Име@@ 1
счёт 1
системе 1
емо@@ 1
жный 1
Ах@@ 1
бом 1
друго@@ 1
Сло@@ 1
лучших 1
сё@@ 1
досто@@ 1
Южной 1
орке@@ 1
дороге 1
ходил 1
мно@@ 1
рованы 1
Иоан@@ 1
штур@@ 1
Высо@@ 1
искусств 1
просто 1
соответству@@ 1
бен@@ 1
ровка 1
Сара@@ 1
опер@@ 1
Род@@ 1
вро@@ 1
Памя@@ 1
кана@@ 1
Джи@@ 1
дже@@ 1
ап@@ 1
фф 1
доме 1
мере 1
ност@@ 1
первое 1
границы 1
попы@@ 1
щее 1
войсками 1
1925 1
девя@@ 1
дочери 1
серьёз@@ 1
суда 1
суб@@ 1
последний 1
уси@@ 1
экипа@@ 1
первая 1
сначала 1
Академии 1
жет 1
следует 1
знамени@@ 1
оцен@@ 1
вок 1
никах 1
ящи@@ 1
преимущественно 1
тое 1
рией 1
комби@@ 1
энер@@ 1
явление 1
Даль@@ 1
Вос@@ 1
предлага@@ 1
жиз@@ 1
стера 1
удар@@ 1
верси@@ 1
1914 1
эль 1
зан 1
Же@@ 1
Автор 1
Под 1
каждый 1
официально 1
посвящ@@ 1
подня@@ 1
вин 1
Коро@@ 1
музей 1
нице 1
сек@@ 1
Джон@@ 1
произведения 1
соста@@ 1
матча 1
Стро@@ 1
медаль 1
работа 1
отношении 1
емого 1
Цент@@ 1
and 0.0055804054816177544
Президен@@ 1
берг 1
тическая 1
бат@@ 1
пье@@ 1
своими 1
изи@@ 1
женщи@@ 1
стан 1
тен 1
ционный 1
армия 1
долго 1
заместитель 1
ниже 1
следующий 1
регионе 1
эн 1
подразде@@ 1
структуре 1
Дани@@ 1
данные 1
гате@@ 1
Нико@@ 1
заболе@@ 1
работала 1
Бли@@ 1
старший 1
броне@@ 1
веща@@ 1
тю@@ 1
ждена 1
уста@@ 1
ритель@@ 1
перево@@ 1
Здесь 1
Умер 1
боро@@ 1
историю 1
Алек@@ 1
всю 1
распреде@@ 1
бомбарди@@ 1
гит@@ 1
совмест@@ 1
книг 1
улице 1
солдат 1
лиде@@ 1
числе@@ 1
сторону 1
запи@@ 1
базе 1
театра@@ 1
храм 1
изготов@@ 1
Кита@@ 1
силь@@ 1
сва@@ 1
XVII 1
Помимо 1
стка 1
Боль@@ 1
графия 1
Казан@@ 1
власть 1
включ@@ 1
реестра 1
герман@@ 1
тив 1
большую 1
монасты@@ 1
предыду@@ 1
рал 1
активно 1
позволяет 1
железной 1
определя@@ 1
море 1
занимал 1
еты 1
зя@@ 1
Виктор 1
чет@@ 1
округе 1
заключ@@ 1
призва@@ 1
психо@@ 1
Пос@@ 1
amp 0.20814196238710225
Президиума 1
c 0.14374460022602825
юриди@@ 1
вами 1
юри@@ 1
ыми 1
половине 1
дь 1
военный 1
визи@@ 1
жав@@ 1
провин@@ 1
нены 1
вшиеся 1
возник@@ 1
кен@@ 1
лета 1
часов 1
Петербург@@ 1
инстру@@ 1
артилле@@ 1
щи 1
Хотя 1
трав@@ 1
эффектив@@ 1
общего 1
фамилия 1
государственной 1
сфер@@ 1
Дмитрий 1
1905 1
ленных 1
олимпи@@ 1
решил 1
веще@@ 1
рее 1
долго@@ 1
потреб@@ 1
Бай@@ 1
.. 1
литературы 1
прия@@ 1
льство 1
груп@@ 1
d@@ 0.08615405913037413
евского 1
студии 1
средств 1
рейтин@@ 1
умень@@ 1
щем 1
бригады 1
Сы@@ 1
пяти 1
Бак@@ 1
Лан@@ 1
одноим@@ 1
ительный 1
восток 1
общество 1
кг 1
городов 1
тюрь@@ 1
гео@@ 1
Кру@@ 1
кции 1
будут 1
дело 1
стороне 1
арен@@ 1
4,@@ 1
добав@@ 1
Кир@@ 1
глубо@@ 1
48 1
существует 1
происхождения 1
пяти@@ 1
Село 1
фом 1
прежде 1
голосо@@ 1
ёр 1
консу@@ 1
J@@ 0.1146907274719583
Коло@@ 1
купи@@ 1
чить 1
отдела 1
формирова@@ 1
46 1
лья 1
нич@@ 1
актё@@ 1
фрон@@ 1
сельскохозяй@@ 1
умер@@ 1
желез@@ 1
эска@@ 1
сть@@ 1
лите@@ 1
ради@@ 1
книге 1
обнов@@ 1
директор 1
тренер 1
e@@ 0.07688371651921974
Ско@@ 1
районного 1
региона 1
доби@@ 1
раза 1
41 1
фре@@ 1
Чемпи@@ 1
ковые 1
мал@@ 1
мого 1
Луч@@ 1
резер@@ 1
следующем 1
собо@@ 1
храма 1
гол 1
вной 1
привле@@ 1
числи@@ 1
уровня 1
вера 1
буд@@ 1
бед@@ 1
ковая 1
Мол@@ 1
лого 1
ари 1
шек 1
административно 1
длиной 1
чика 1
средней 1
онов 1
нало@@ 1
Лит@@ 1
средне@@ 1
гражда@@ 1
степень 1
прибы@@ 1
линей@@ 1
окончате@@ 1
тное 1
замет@@ 1
втором 1
соци@@ 1
52 1
55 1
обозна@@ 1
ую 1
новский 1
Чемпионат 1
люби@@ 1
вооруж@@ 1
газеты 1
проживало 1
местного 1
большая 1
процесс 1
ссов 1
чия 1
управление 1
части@@ 1
пру@@ 1
сказал 1
звания 1
Фу@@ 1
Кли@@ 1
зелё@@ 1
турни@@ 1
гов@@ 1
огром@@ 1
Рим@@ 1
Воен@@ 1
техники 1
ленный 1
форма 1
Вла@@ 1
кому 1
жу 1
зако@@ 1
жды 1
рублей 1
бого@@ 1
католиче@@ 1
Суще@@ 1
фильмов 1
оши@@ 1
дении 1
зей 1
00 1
рана 1
строе@@ 1
путь 1
Бал@@ 1
нас 1
музея 1
защиты 1
вести 1
пи 1
война 1
Ара@@ 1
нен 1
итогам 1
гин@@ 1
основных 1
Федера@@ 1
каж@@ 1
образован 1
Наиболее 1
Мер@@ 1
возможности 1
ана@@ 1
артиллерий@@ 1
вому 1
пункты 1
сериала 1
полага@@ 1
модели 1
измени@@ 1
мон 1
зрите@@ 1
долж@@ 1
эф@@ 1
on 0.015882561383688237
вступил 1
ждений 1
международных 1
последние 1
Сар@@ 1
зависимости 1
партий@@ 1
Выс@@ 1
ску@@ 1
командира 1
чин 1
тех@@ 1
высту@@ 1
служа@@ 1
художник 1
арми@@ 1
помощь 1
сии 1
офи@@ 1
тера@@ 1
отделения 1
пересе@@ 1
сили 1
жал 1
коллед@@ 1
шает 1
жерт@@ 1
средства 1
географи@@ 1
дата 1
щено 1
падает 1
охран@@ 1
пто@@ 1
вошёл 1
сюже@@ 1
должна 1
ГУ 1
политической 1
возра@@ 1
довольно 1
паро@@ 1
населе@@ 1
семей@@ 1
гер 1
мени 1
известных 1
бассей@@ 1
рал@@ 1
версия 1
напря@@ 1
доступ@@ 1
наси@@ 1
1915 1
Куз@@ 1
раст@@ 1
самом 1
Бель@@ 1
опас@@ 1
Зи@@ 1
исключ@@ 1
испыта@@ 1
кварти@@ 1
Гос@@ 1
ленной 1
подписал 1
улуч@@ 1
крупных 1
Мал@@ 1
пуска@@ 1
полномо@@ 1
высота 1
поселе@@ 1
Жу@@ 1
вёр@@ 1
смен@@ 1
расположены 1
боях 1
далеко 1
местных 1
Петербурге 1
сно 1
выбор@@ 1
нистиче@@ 1
5,@@ 1
чет 1
Пан@@ 1
теперь 1
хот@@ 1
истреб@@ 1
начина@@ 1
комиссии 1
нией 1
осу@@ 1
председатель 1
жила 1
космиче@@ 1
G 0.41584398383352206
хол@@ 1
Науч@@ 1
Ян@@ 1
3,@@ 1
достига@@ 1
тации 1
пользо@@ 1
400 1
неуда@@ 1
революцион@@ 1
ЦК 1
сце@@ 1
ённое 1
Пётр 1
Семья 1
председателем 1
карьеры 1
сообща@@ 1
тан 1
останов@@ 1
партия 1
жского 1
Первая 1
уст@@ 1
рованной 1
значи@@ 1
руп@@ 1
Кро@@ 1
поле@@ 1
Роди@@ 1
аври@@ 1
Большо@@ 1
Святого 1
дорога 1
частей 1
путём 1
пенси@@ 1
ин 1
форму@@ 1
выступил 1
Васильевич 1
ностях 1
труд@@ 1
сегод@@ 1
евский 1
театр 1
осуществля@@ 1
устро@@ 1
упо@@ 1
трёх@@ 1
суд 1
пись 1
НИ@@ 1
центральной 1
кара@@ 1
чности 1
вки 1
Сред@@ 1
чемпионом 1
сиг@@ 1
дор@@ 1
43 1
колле@@ 1
суме@@ 1
гле@@ 1
тей 1
дови@@ 1
след@@ 1
дин 1
портре@@ 1
корпус 1
футболу 1
Юрий 1
фигу@@ 1
Впервые 1
пока@@ 1
вошли 1
тический 1
Коман@@ 1
Черно@@ 1
сения 1
окон@@ 1
товари@@ 1
лизации 1
йт 1
учи@@ 1
предме@@ 1
звез@@ 1
указа@@ 1
чле@@ 1
компанией 1
добы@@ 1
чина 1
пов@@ 1
среднем 1
шу 1
ани@@ 1
тури@@ 1
групп 1
бай@@ 1
Х 1
Василь@@ 1
еписко@@ 1
потом 1
брига@@ 1
сети 1
покину@@ 1
никогда 1
обязате@@ 1
магази@@ 1
национального 1
стиле 1
запу@@ 1
мый 1
Слу@@ 1
47 1
Объ@@ 1
оне@@ 1
Ган@@ 1
езда 1
Мен@@ 1
миллионов 1
КПСС 1
севере 1
уве@@ 1
зано 1
Ура@@ 1
креп@@ 1
использования 1
нач@@ 1
ворота 1
шесть 1
плений 1
говорит 1
животных 1
юге 1
Вместе 1
Кал@@ 1
чемпион@@ 1
Финлян@@ 1
Остро@@ 1
Вален@@ 1
финал 1
­ 1
Один 1
засе@@ 1
щик 1
рованный 1
бывший 1
полков@@ 1
ресур@@ 1
дра 1
форму 1
L 0.27837981499243275
обслужи@@ 1
изуча@@ 1
альной 1
летний 1
чь@@ 1
казом 1
худож@@ 1
оса@@ 1
мель@@ 1
цкая 1
R 0.34760474982759554
растений 1
рис 1
десяти@@ 1
наслед@@ 1
именем 1
швед@@ 1
чными 1
D 0.3217993455127425
входила 1
Пло@@ 1
получить 1
председателя 1
туру 1
приняли 1
лизо@@ 1
республики 1
скла@@ 1
иска@@ 1
Михайлович 1
Хор@@ 1
Ок@@ 1
основан 1
иностранных 1
фар@@ 1
Павел 1
сексу@@ 1
дважды 1
эксплуата@@ 1
малень@@ 1
дес@@ 1
пило@@ 1
редко 1
Фер@@ 1
гло 1
уг@@ 1
уезд 1
систем 1
произошло 1
ря 1
нили 1
езд 1
дальней@@ 1
рес 1
M 0.39008199817247025
Эк@@ 1
построен 1
инди@@ 1
вив 1
Нидер@@ 1
концеп@@ 1
тка 1
Тю@@ 1
Джей@@ 1
команд@@ 1
щиков 1
направлении 1
увеличи@@ 1
лес 1
ницу 1
родилась 1
разли@@ 1
православ@@ 1
скре@@ 1
слов 1
своему 1
временем 1
присвоено 1
Париже 1
выпуска@@ 1
знач@@ 1
Йо@@ 1
ляции 1
игра 1
режи@@ 1
стром 1
Смолен@@ 1
коммуна 1
крупней@@ 1
принято 1
борьбы 1
депутатов 1
сообщи@@ 1
изменения 1
предназна@@ 1
XVI 1
маль@@ 1
заяв@@ 1
конструкции 1
Рей@@ 1
Указом 1
U@@ 0.15997553049851918
оке@@ 1
фла@@ 1
участия 1
нец 1
рабочих 1
министр 1
мото@@ 1
льность 1
мыш@@ 1
вай@@ 1
счётом 1
ровала 1
Площадь 1
высоко@@ 1
участников 1
мино@@ 1
осадков 1
Тар@@ 1
командир 1
проведения 1
рито@@ 1
современной 1
усло@@ 1
Эй@@ 1
мина 1
выхода 1
свер@@ 1
Ли 1
гля@@ 1
7,@@ 1
поддержку 1
вплоть 1
Америки 1
мусуль@@ 1
сделать 1
командованием 1
автор@@ 1
рубе@@ 1
F 0.38808068560986453
дорович 1
приблизительно 1
нных 1
почто@@ 1
работали 1
премьер 1
Например 1
00@@ 1
князя 1
началось 1
тием 1
инициати@@ 1
вам 1
стади@@ 1
метри@@ 1
высоте 1
Первые 1
бывшего 1
ительство 1
написан@@ 1
сколько 1
Моло@@ 1
пут@@ 1
мп@@ 1
ительные 1
следующих 1
борьбе 1
c@@ 0.07794227842837186
скоро@@ 1
t 0.0555678510502648
началась 1
51 1
призёр 1
скан@@ 1
окончании 1
57 1
150 1
54 1
хозяйств 1
выпущен 1
рованные 1
гда@@ 1
анали@@ 1
ительного 1
мани@@ 1
1912 1
директором 1
взгля@@ 1
входят 1
фи 1
тепло@@ 1
фы 1
стров 1
1,@@ 0.8942602960880963
остров 1
Большой 1
кости 1
журна@@ 1
монастыря 1
данный 1
составляла 1
матери 1
58 1
ходов 1
возглавил 1
любов@@ 1
жие 1
богат@@ 1
финала 1
законодате@@ 1
матчах 1
чере@@ 1
сделал 1
оба 1
морской 1
1913 1
упоминается 1
домо@@ 1
судеб@@ 1
кает 1
нологи@@ 1
переве@@ 1
императора 1
кон 1
бии 1
увиде@@ 1
рази@@ 1
6,@@ 1
секре@@ 1
прошёл 1
Австралии 1
низации 1
гие 1
зре@@ 1
Армии 1
теоре@@ 1
собы@@ 1
диссертацию 1
держал 1
сопротив@@ 1
избе@@ 1
широко 1
Рос@@ 1
Николая 1
перегово@@ 1
материа@@ 1
повто@@ 1
АССР 1
ющийся 1
жёл@@ 1
1910 1
От 1
Али@@ 1
ани 1
протекает 1
некоторое 1
волю@@ 1
президентом 1
лист 1
леген@@ 1
Казах@@ 1
Карл 1
Пал@@ 1
директора 1
произведений 1
низи@@ 1
ступи@@ 1
Ас@@ 1
Средняя 1
метра 1
построен@@ 1
эти@@ 1
Бру@@ 1
тую 1
Кэ@@ 1
Сибир@@ 1
заслу@@ 1
проблемы 1
дано 1
Ещё 1
дипло@@ 1
аппара@@ 1
песню 1
лизи@@ 1
жесто@@ 1
сер 1
пределах 1
заняла 1
король 1
новую 1
правом 1
втор@@ 1
хам@@ 1
институте 1
зая@@ 1
атмосфер@@ 1
Ци@@ 1
писатель 1
нению 1
емая 1
Летом 1
жители 1
вина 1
сных 1
переехал 1
расположено 1
воспит@@ 1
друга 1
вшейся 1
лиц 1
взры@@ 1
они@@ 1
структура 1
повре@@ 1
Джор@@ 1
мат 1
Андже@@ 1
советской 1
Пари@@ 1
режиссёра 1
тт 1
вез@@ 1
история 1
Брю@@ 1
лега@@ 1
фран@@ 1
общ@@ 1
минут 1
южной 1
жской 1
хан 1
вская 1
занимает 1
в. 1
террито@@ 1
ческими 1
армию 1
ссу 1
вока@@ 1
создание 1
ляют 1
представители 1
функции 1
гры@@ 1
62 1
кового 1
сан 1
Находится 1
ряд@@ 1
Робер@@ 1
нования 1
автобу@@ 1
моти@@ 1
Дмитри@@ 1
альных 1
ун 1
ген 1
помощ@@ 1
генерала 1
превы@@ 1
Дю@@ 1
пери@@ 1
оказыва@@ 1
Среднегодо@@ 1
постоянно 1
весь 1
фра@@ 1
силу 1
оказался 1
Индии 1
сочета@@ 1
ьев 1
Й@@ 1
тили 1
мён 1
университе@@ 1
тече@@ 1
набра@@ 1
чемпион 1
мероприя@@ 1
Само@@ 1
ственном 1
советских 1
остат@@ 1
вдоль 1
вопрос 1
начальником 1
тить 1
Их 1
здоров@@ 1
зия 1
53 1
x 0.2081842394017304
епархии 1
новое 1
тип 1
главной 1
кер 1
театре 1
назад 1
Уча@@ 1
Герой 1
ходы 1
85 1
моз@@ 1
1916 1
умеренно 1
вероятно 1
нова@@ 1
появился 1
ходить 1
пото@@ 1
топо@@ 1
штат@@ 1
изме@@ 1
систему 1
X@@ 0.3396934883983457
исклю@@ 1
Генера@@ 1
пришлось 1
жного 1
фил@@ 1
кторов 1
распростран@@ 1
ровано 1
АН 1
Похоронен 1
ево 1
49 1
пят@@ 1
Тогда 1
роз@@ 1
выборов 1
имеется 1
зим@@ 1
раун@@ 1
дают 1
группой 1
запад 1
насле@@ 1
Особ@@ 1
доли@@ 1
играть 1
ологии 1
деле 1
Является 1
сопер@@ 1
Бат@@ 1
лаборато@@ 1
обита@@ 1
сде@@ 1
заверши@@ 1
ительных 1
озеро 1
ряде 1
эпо@@ 1
хло@@ 1
енью 1
дание 1
природ@@ 1
2,@@ 1
Z@@ 0.10396438769552988
поверхности 1
Интер@@ 1
создании 1
отделение 1
ционные 1
ственную 1
бази@@ 1
две@@ 1
плен@@ 1
магни@@ 1
логия 1
рек 1
следования 1
дили 1
началом 1
мало 1
Пла@@ 1
даны 1
парк 1
книга 1
круг 1
семья 1
цер@@ 1
ничего 1
спектак@@ 1
профессора 1
появились 1
ристи@@ 1
строй 1
бю@@ 1
находились 1
і@@ 1
мной 1
успешно 1
Премь@@ 1
лию 1
зло@@ 1
боя 1
Поч@@ 1
кно@@ 1
Современ@@ 1
брата 1
Откры@@ 1
гам 1
форм 1
окружа@@ 1
ительность 1
выступи@@ 1
употреб@@ 1
Впоследствии 1
хор@@ 1
соревнова@@ 1
борь@@ 1
ровского 1
коно@@ 1
польского 1
Хай@@ 1
леги@@ 1
каче@@ 1
$ 0.2391422482385363
появилась 1
простран@@ 1
основании 1
леса 1
жные 1
трени@@ 1
дека@@ 1
стской 1
гвардии 1
французский 1
лесо@@ 1
Васи@@ 1
художника 1
событий 1
картины 1
стя@@ 1
народа 1
которыми 1
социации 1
Стра@@ 1
o 0.04774676094587539
стран@@ 1
очеред@@ 1
биологи@@ 1
Макси@@ 1
пользовате@@ 1
эр 1
укреп@@ 1
век 1
новая 1
уры 1
тского 1
Мед@@ 1
льда 1
Пя@@ 1
ваний 1
дя 1
режиссёр 1
Исто@@ 1
нской 1
дж 1
Город 1
фикация 1
отря@@ 1
функ@@ 1
E 0.33457398123603366
бил 1
Западной 1
имела 1
Восточной 1
95 1
стаби@@ 1
фили@@ 1
дания 1
Министерства 1
библиоте@@ 1
труда 1
северной 1
догово@@ 1
ремон@@ 1
йный 1
цы@@ 1
НК 1
союза 1
кандидат@@ 1
Чёр@@ 1
АТ@@ 1
блю@@ 1
Дар@@ 1
большим 1
Льво@@ 1
Шар@@ 1
рат 1
досту@@ 1
нка 1
комплекс 1
иты 1
63 1
стые 1
полковник 1
пусти@@ 1
максима@@ 1
Университе@@ 1
каждой 1
новому 1
гале@@ 1
Офици@@ 1
наступ@@ 1
шин 1
Марии 1
экономики 1
спу@@ 1
конкур@@ 1
приток 1
языков 1
виду 1
называют 1
клубе 1
родо@@ 1
реи 1
главных 1
КО@@ 1
стоит 1
эй 1
полови@@ 1
руд@@ 1
народов 1
Кубок 1
сельский 1
проходил 1
Северо 1
T 0.3197813106908594
дений 1
ляются 1
Поло@@ 1
почёт@@ 1
ковый 1
местности 1
мили@@ 1
стрелковой 1
ЭС 1
секретарь 1
памятник 1
неактив@@ 1
игру 1
исполнитель@@ 1
книгу 1
доктор 1
зала 1
района@@ 1
ведения 1
зами 1
образовате@@ 1
пожа@@ 1
предприятия 1
политики 1
ны@@ 1
мбо@@ 1
основа@@ 1
хождение 1
напа@@ 1
Гали@@ 1
Тол@@ 1
турнир 1
щён 1
вшегося 1
заводе 1
современного 1
механиз@@ 1
um 0.08010178988928823
тоже 1
ванных 1
Многие 1
необ@@ 1
чаются 1
сила 1
76 1
кса 1
парт@@ 1
большого 1
бург 1
подви@@ 1
кад@@ 1
Борис 1
профессо@@ 1
льному 1
N 0.41229524941796736
чёт@@ 1
исче@@ 1
Кин@@ 1
баро@@ 1
Ван@@ 1
создал 1
концу 1
обучения 1
Американ@@ 1
били@@ 1
роман 1
Азербайджа@@ 1
факультета 1
Уилья@@ 1
моне@@ 1
новил 1
дворян@@ 1
покинул 1
ните@@ 1
Основные 1
двой@@ 1
земле 1
создана 1
правил 1
памяти 1
данной 1
Фри@@ 1
посо@@ 1
слава 1
зимой 1
Благодаря 1
плав@@ 1
ступила 1
победы 1
тво@@ 1
крей@@ 1
состоял 1
Йорк 1
том@@ 1
Об 1
пес@@ 1
регули@@ 1
фабри@@ 1
джа 1
войну 1
Белоруссии 1
актёр 1
Фло@@ 1
канала 1
начинает 1
нением 1
немецкий 1
церемо@@ 1
выпуск@@ 1
измен@@ 1
56 1
отправился 1
Пуш@@ 1
возглав@@ 1
y@@ 0.09420728137327088
стых 1
Спи@@ 1
окрест@@ 1
шер@@ 1
бол@@ 1
дета@@ 1
испы@@ 1
льская 1
заместителем 1
Динамо 1
отряд 1
построена 1
Владимира 1
члены 1
длитель@@ 1
гая 1
рису@@ 1
НК@@ 1
гне@@ 1
ровался 1
чис@@ 1
потом@@ 1
третий 1
вен 1
внутри 1
находилась 1
открыт 1
Ден@@ 1
автором 1
трас@@ 1
Национальный 1
ченных 1
аналоги@@ 1
тари@@ 1
весьма 1
Петербург 1
зависи@@ 1
уровень 1
1900 1
сеть 1
ходом 1
сосед@@ 1
тренером 1
мит@@ 1
лай@@ 1
момента 1
стру@@ 1
лейб@@ 1
номина@@ 1
пора@@ 1
лично 1
степен@@ 1
ие@@ 1
Виль@@ 1
виды 1
сейчас 1
82 1
сви@@ 1
территория 1
тской 1
слом 1
фика@@ 1
жай@@ 1
араб@@ 1
разо@@ 1
коп@@ 1
тном 1
упраздн@@ 1
имуще@@ 1
издания 1
встречается 1
отношений 1
лом@@ 1
гося 1
основания 1
шена 1
вынужден 1
Мекси@@ 1
Мит@@ 1
рем 1
входил 1
морского 1
слова@@ 1
носит 1
разработан@@ 1
каждого 1
O 0.2519331816679452
изм 1
цвет 1
шеви@@ 1
бою 1
P 0.348211378414177
эпи@@ 1
8,@@ 1
това@@ 1
сова 1
вме@@ 1
меди@@ 1
армей@@ 1
Москву 1
монастырь 1
шены 1
иностран@@ 1
отвер@@ 1
шос@@ 1
охот@@ 1
пытался 1
щен 1
художников 1
использование 1
распоря@@ 1
тила 1
времена 1
Эсто@@ 1
округу 1
лежа@@ 1
вошла 1
Лондоне 1
1911 1
передачи 1
сопровожда@@ 1
66 1
Государственной 1
другом 1
ограниче@@ 1
поряд@@ 1
территорию 1
1000 1
Кле@@ 1
известна 1
1907 1
используются 1
органи@@ 1
Там 1
югу 1
потер@@ 1
ровской 1
агент@@ 1
ступил 1
особен@@ 1
автомати@@ 1
серд@@ 1
премию 1
устра@@ 1
Леони@@ 1
Вильгель@@ 1
внутренних 1
това 1
1906 1
замени@@ 1
зки 1
жество 1
d 0.05642172883554052
зная 1
рих 1
ёнными 1
ник@@ 1
m 0.09171776005430429
Доб@@ 1
начинается 1
льском 1
дель 1
стане 1
моги@@ 1
присво@@ 1
ау@@ 1
млрд 1
привело 1
мам 1
n 0.08433264055384079
Тан@@ 1
ровский 1
бах 1
оружия 1
кано@@ 1
Сей@@ 1
чит 1
тности 1
шил 1
Кни@@ 1
Героя 1
e 0.05519019190597898
лье@@ 1
ссы@@ 1
провер@@ 1
учения 1
ссив@@ 1
особо@@ 1
арх@@ 1
торы 1
конструк@@ 1
выя@@ 1
неоднократно 1
районов 1
новского 1
Британ@@ 1
рам@@ 1
переме@@ 1
энергии 1
мое 1
женился 1
рекомен@@ 1
чив 1
отда@@ 1
относи@@ 1
гель@@ 1
МВ@@ 1
сел 1
сад 1
мол@@ 1
прав 1
Польши 1
епископ 1
скон@@ 1
избра@@ 1
фов 1
состоянии 1
публике 1
Евгений 1
стрем@@ 1
фамили@@ 1
Ну@@ 1
подвод@@ 1
общины 1
ального 1
мович 1
большей 1
бата@@ 1
Казахстана 1
сон@@ 1
слишком 1
попал 1
лага@@ 1
предложил 1
дского 1
полно@@ 1
брать@@ 1
нос 1
паралле@@ 1
ёж@@ 1
индивиду@@ 1
1908 1
найти 1
Эль@@ 1
туда 1
Валь@@ 1
российских 1
обсу@@ 1
допол@@ 1
61 1
ванной 1
интервью 1
спут@@ 1
подготовки 1
психи@@ 1
экспер@@ 1
Бол@@ 1
лейтенан@@ 1
Звез@@ 1
фило@@ 1
сх@@ 1
кан 1
72 1
составил 1
американской 1
вонача@@ 1
причём 1
армян@@ 1
67 1
приме@@ 1
сбо@@ 1
альные 1
парламен@@ 1
присоеди@@ 1
мисси@@ 1
полё@@ 1
облада@@ 1
Новый 1
лейтенант 1
Комму@@ 1
рэн@@ 1
объектов 1
прив@@ 1
Начи@@ 1
сар@@ 1
обладате@@ 1
лучшим 1
гает 1
опу@@ 1
сингл 1
горы 1
ене 1
Кири@@ 1
Ад@@ 1
русском 1
хии 1
Позднее 1
оном 1
нес 1
устанавли@@ 1
Майк@@ 1
сий 1
инженер@@ 1
ени 1
Музы@@ 1
поверх@@ 1
стить 1
ох@@ 1
a@@ 0.11926518170678999
объё@@ 1
называется 1
небольшой 1
Тихо@@ 1
оры 1
Петрович 1
74 1
писала 1
назвал 1
Самар@@ 1
меня 1
чают 1
наблюда@@ 1
скончался 1
табли@@ 1
военные 1
демонстри@@ 1
Украине 1
руются 1
обуча@@ 1
ВВС 1
Поэтому 1
знаком@@ 1
кер@@ 1
Расстояние 1
Анна 1
доброво@@ 1
Ала@@ 1
журнал 1
тения 1
домов 1
относятся 1
шению 1
1,5 1
воин@@ 1
Дол@@ 1
Экономика 1
Петра 1
нической 1
специализи@@ 1
няет 1
рян@@ 1
кии 1
содержит 1
означает 1
государств 1
семина@@ 1
модер@@ 1
грамо@@ 1
пл@@ 1
рос 1
меньше 1
Кен@@ 1
Первоначально 1
Эм@@ 1
пах 1
Ник@@ 1
корпу@@ 1
Побед@@ 1
шаяся 1
b@@ 0.06420790977485312
происхо@@ 1
сест@@ 1
Иванов@@ 1
чению 1
фактически 1
Пау@@ 1
цио@@ 1
Данные 1
издание 1
трет@@ 1
исполните@@ 1
снаб@@ 1
Иг@@ 1
забо@@ 1
Росто@@ 1
писания 1
масшта@@ 1
свет 1
соревнованиях 1
бить 1
Отец 1
связь 1
Кавказ@@ 1
пунк@@ 1
ночь 1
философии 1
мене@@ 1
коричне@@ 1
самый 1
лиза@@ 1
нических 1
VI 1
раство@@ 1
мато@@ 1
заниматься 1
корреспон@@ 1
ительности 1
кораблей 1
меру 1
Румы@@ 1
численность 1
ковым 1
ар 1
кафедры 1
гита@@ 1
газо@@ 1
древне@@ 1
ровна 1
организация 1
голов 1
археологи@@ 1
ковод@@ 1
уде@@ 1
фронт 1
граде 1
остался 1
характер 1
Ла 1
синте@@ 1
Работал 1
ано@@ 1
ул@@ 1
австри@@ 1
лон 1
ллы 1
переимено@@ 1
s@@ 0.03882674183567773
ковской 1
Ц 1
рекла@@ 1
состояние 1
зоны 1
водство 1
шь 1
наме@@ 1
объявил 1
лик@@ 1
удосто@@ 1
гно@@ 1
Шот@@ 1
Старо@@ 1
постепенно 1
Роберт 1
кило@@ 1
дный 1
товой 1
видео 1
президент@@ 1
старше 1
мимо 1
вероя@@ 1
час 1
снима@@ 1
провозгла@@ 1
Фон@@ 1
сове@@ 1
Маль@@ 1
рович 1
командиром 1
квали@@ 1
мс 1
архитектуры 1
объедин@@ 1
план 1
российского 1
второе 1
Лос 1
городах 1
био@@ 1
Джу@@ 1
большие 1
сцен@@ 1
события 1
Бро@@ 1
йское 1
порядка 1
оны 1
команди@@ 1
исла@@ 1
Фильм 1
ауди@@ 1
Олимпи@@ 1
клубом 1
материалов 1
народного 1
международного 1
наро@@ 1
иллю@@ 1
военно@@ 1
гря@@ 1
вей 1
очков 1
ьё@@ 1
топли@@ 1
возвы@@ 1
71 1
9,@@ 1
Института 1
бка 1
сей@@ 1
лист@@ 1
чики 1
чность 1
этапе 1
стон 1
81 1
брат@@ 1
спорт@@ 1
1904 1
началу 1
отдельных 1
Фла@@ 1
Выступа@@ 1
Ие@@ 1
совой 1
нический 1
яко@@ 1
свой@@ 1
гун@@ 1
метр 1
берт 1
современных 1
принят 1
20@@ 0.8739769930049298
политических 1
отставку 1
бук@@ 1
рованного 1
необходимо 1
тонн 1
криста@@ 1
лье 1
подъ@@ 1
курс 1
последо@@ 1
вклад 1
игры@@ 1
индекс 1
Вре@@ 1
пер 1
ально 1
начиная 1
73 1
будучи 1
получения 1
агре@@ 1
шении 1
96 1
Новой 1
архитектур@@ 1
пас@@ 1
драмати@@ 1
2022 0.6883418823807262
игроком 1
сравнению 1
нис 1
организаций 1
сформирова@@ 1
абсолютный 1
Чет@@ 1
лине 1
выска@@ 1
отказа@@ 1
телем 1
перевод@@ 1
Екатери@@ 1
ква@@ 1
ими 1
ченные 1
шить 1
создать 1
такого 1
шина 1
йдя 1
земле@@ 1
пры@@ 1
колон@@ 1
льских 1
града 1
чины 1
нуж@@ 1
компьютер@@ 1
стики 1
Кай@@ 1
Кер@@ 1
золотой 1
бассейна 1
результат 1
претен@@ 1
новка 1
игроков 1
Тран@@ 1
предше@@ 1
игрок 1
поль 1
вопросам 1
частично 1
ядер@@ 1
Вене@@ 1
актриса 1
чрез@@ 1
Географи@@ 1
Герма@@ 1
отряда 1
группи@@ 1
защитил 1
миру 1
Скон@@ 1
устрой@@ 1
68 1
насе@@ 1
ванный 1
Кат@@ 1
Трои@@ 1
Новая 1
ходили 1
сведения 1
каза 1
результаты 1
Зу@@ 1
дить 1
неу@@ 1
напомина@@ 1
слово 1
контроль 1
объекта 1
канал 1
баскет@@ 1
нала 1
59 1
Граждан@@ 1
государственном 1
77 1
соз@@ 1
лез@@ 1
горе@@ 1
замуж 1
вило 1
семей 1
завоевал 1
линия 1
дек@@ 1
джи 1
непосредственно 1
император@@ 1
высокой 1
смешан@@ 1
выпущен@@ 1
обеспечения 1
Жа@@ 1
88 1
мери@@ 1
образ 1
яд@@ 1
пишет 1
p 0.14419440022750588
располагается 1
98 1
щает 1
началь@@ 1
тивно 1
рить 1
Анти@@ 1
уреат 1
местах 1
битве 1
ющи@@ 1
фанта@@ 1
Европей@@ 1
ент 1
эффек@@ 1
Гал@@ 1
льское 1
мигра@@ 1
модель 1
маги@@ 1
ехал 1
бок 1
упа@@ 1
ствовали 1
гать 1
Архан@@ 1
асси@@ 1
Викто@@ 1
парка 1
ьями 1
ing 0.02078347736120272
препода@@ 1
мский 1
лоша@@ 1
рика 1
чаще 1
недостато@@ 1
Узбе@@ 1
Участник 1
лён 1
решением 1
1909 1
Сен 1
космо@@ 1
99 1
режиссё@@ 1
веков 1
стой@@ 1
Семё@@ 1
продолжил 1
командой 1
отказался 1
Орга@@ 1
Зо@@ 1
Заслуженный 1
дит 1
пато@@ 1
союз 1
диалек@@ 1
ори@@ 1
Специ@@ 1
минимум 1
перееха@@ 1
оце@@ 1
86 1
еще 1
подпис@@ 1
иметь 1
корабля 1
ывается 1
исторических 1
лить 1
рь 1
удостоен 1
машины 1
заказ@@ 1
терро@@ 1
фаль@@ 1
нического 1
удо@@ 1
совершил 1
Ат@@ 1
Пара@@ 1
Сам@@ 1
контак@@ 1
иту@@ 1
министер@@ 1
километрах 1
капитан 1
лур@@ 1
женных 1
Конститу@@ 1
льд@@ 1
стого 1
родствен@@ 1
Пат@@ 1
каса@@ 1
дово@@ 1
Октябрь@@ 1
проблем 1
знания 1
яй@@ 1
назван 1
попыт@@ 1
поражение 1
тную 1
святой 1
высшей 1
термин 1
k 0.07481685330817829
данного 1
сою@@ 1
станови@@ 1
дети 1
78 1
Джона 1
is 0.010216812057801743
деяте@@ 1
случаях 1
теат@@ 1
Григорь@@ 1
зарегистри@@ 1
континентальный 1
тропи@@ 1
тата@@ 1
реку 1
Бразилии 1
стоимо@@ 1
оккупа@@ 1
ждению 1
Группа 1
конститу@@ 1
шести 1
ока@@ 1
островов 1
выпуск 1
шири@@ 1
Стани@@ 1
жом 1
дни 1
предста@@ 1
напада@@ 1
последнего 1
84 1
er 0.015877227273257584
нера 1
руки 1
возглавлял 1
слы@@ 1
энерге@@ 1
Ари@@ 1
штаб 1
уголов@@ 1
американского 1
рю 1
рёх@@ 1
прошли 1
евреев 1
конференции 1
северу 1
приводит 1
прось@@ 1
проигра@@ 1
обработ@@ 1
польский 1
едино@@ 1
ребён@@ 1
столько 1
сул@@ 1
канад@@ 1
направлен 1
положительно 1
ступле@@ 1
сыном 1
эро@@ 1
обучение 1
рации 1
солне@@ 1
нила 1
левом 1
вторым 1
боло@@ 1
потенци@@ 1
характеризуется 1
дного 1
длина 1
дати@@ 1
реак@@ 1
лик 1
корабль 1
чили 1
органов 1
Дер@@ 1
эфи@@ 1
хирур@@ 1
больших 1
эваку@@ 1
беспо@@ 1
лял 1
тео@@ 1
Тат@@ 1
манов 1
митрополи@@ 1
структуры 1
установлены 1
встречаются 1
Константин 1
дию 1
процессе 1
живу@@ 1
следующим 1
доктора 1
левой 1
положения 1
орде@@ 1
дон 1
КП@@ 1
батальона 1
ченный 1
Большая 1
юни@@ 1
сда@@ 1
чо@@ 1
посеща@@ 1
кандид@@ 1
бюро 1
раско@@ 1
полиции 1
фикси@@ 1
Михаила 1
Белару@@ 1
деньги 1
царя 1
пами 1
руководство 1
ровая 1
эпохи 1
фини@@ 1
Дом 1
оре 1
усили@@ 1
ничества 1
мастер 1
порта 1
Пес@@ 1
Проис@@ 1
изнача@@ 1
предостав@@ 1
голосов 1
уво@@ 1
Карла 1
ходу 1
зона 1
атой 1
деятель@@ 1
Следу@@ 1
сериал 1
принадлежит 1
далее 1
вшее 1
единственный 1
память 1
Яков@@ 1
93 1
изобре@@ 1
оче@@ 1
бет 1
Уже 1
щать 1
лять 1
экспеди@@ 1
экземпля@@ 1
хле@@ 1
сомо@@ 1
аген@@ 1
моди@@ 1
политический 1
отлич@@ 1
кость 1
94 1
связано 1
восстания 1
вел 1
вском 1
грузо@@ 1
опи@@ 1
ВО 1
тивный 1
79 1
91 1
зана 1
финанси@@ 1
продолжал 1
латин@@ 1
шением 1
расстре@@ 1
тский 1
цу@@ 1
лое 1
бир@@ 1
Совет 1
ближай@@ 1
Перед 1
Греции 1
Мини@@ 1
комплекса 1
Болга@@ 1
зон 1
гор 1
отправи@@ 1
успех 1
оцени@@ 1
писате@@ 1
майор 1
Шо@@ 1
госп@@ 1
вся@@ 1
Бого@@ 1
имен@@ 1
кс@@ 1
Соедин@@ 1
традиции 1
крепости 1
регион 1
душ@@ 1
научной 1
цеп@@ 1
основана 1
Швеции 1
ённом 1
тически 1
призё@@ 1
Миха@@ 1
Балти@@ 1
дар 1
сом@@ 1
желе@@ 1
Еги@@ 1
Труда 1
оформ@@ 1
участи@@ 1
като@@ 1
1897 1
государственных 1
ьше 1
двадц@@ 1
срок 1
Ур@@ 1
Ивана 1
тёп@@ 1
Камен@@ 1
болез@@ 1
контроли@@ 1
мун@@ 1
ставляет 1
исключением 1
тит@@ 1
вит@@ 1
сные 1
92 1
мок 1
составила 1
основал 1
произве@@ 1
Сверд@@ 1
статьи 1
хоронен 1
Олимпиа@@ 1
K 0.3426700321718658
возника@@ 1
o@@ 0.07101322708880377
Сын 1
журнале 1
ьер@@ 1
средневе@@ 1
мело@@ 1
нный 1
Тал@@ 1
обре@@ 1
бина 1
сборная 1
жат 1
ждая 1
представлены 1
романа 1
тренера 1
технологии 1
строения 1
мет 1
литературе 1
говой 1
жит 1
f@@ 0.05293305707899374
известны 1
республикан@@ 1
кризи@@ 1
аку@@ 1
тери@@ 1
погиб 1
примечате@@ 1
Степа@@ 1
арестован 1
природы 1
лец 1
спортсме@@ 1
консервато@@ 1
возраста 1
t@@ 0.042789647019404534
вариант 1
скорость 1
крепо@@ 1
Первым 1
пр 1
Ита@@ 1
69 1
принять 1
съём@@ 1
выступает 1
чку 1
Сент 1
судов 1
кона 1
относ@@ 1
Награды 1
тана 1
Украина 1
именова@@ 1
норма@@ 1
шается 1
лее 1
рец 1
поедин@@ 1
p@@ 0.0505251182044144
Жан 1
дной 1
Уол@@ 1
замок 1
дора 1
сена 1
дорож@@ 1
Хер@@ 1
характе@@ 1
рекор@@ 1
описание 1
поя@@ 1
карьер@@ 1
пользу 1
лера 1
резо@@ 1
кампании 1
чих 1
пребы@@ 1
Цер@@ 1
Покров@@ 1
пресси@@ 1
тировал 1
Елиза@@ 1
ваго@@ 1
паль@@ 1
Лен@@ 1
татар@@ 1
восточ@@ 1
философ@@ 1
квадра@@ 1
кот@@ 1
раунде 1
транспорта 1
g@@ 0.056659287740602665
пулем@@ 1
нави@@ 1
чая 1
известного 1
сси 1
бурга 1
ничество 1
600 1
Кё@@ 1
сериале 1
ственности 1
Всемир@@ 1
перемен@@ 1
кологи@@ 1
Джеймс 1
ловской 1
йс 1
офицеров 1
Дмит@@ 1
Хол@@ 1
пев@@ 1
элементов 1
десан@@ 1
Псков@@ 1
нд 1
Миро@@ 1
бель 1
одеж@@ 1
изма 1
Русской 1
провед@@ 1
гол@@ 1
середины 1
тр@@ 1
английский 1
десят@@ 1
рит 1
лём 1
объединения 1
стрелкового 1
муниципальное 1
Им@@ 1
проду@@ 1
щика 1
уника@@ 1
Ката@@ 1
емым 1
Национальной 1
какой 1
сосредо@@ 1
династии 1
юг 1
120 1
экспедиции 1
одо@@ 1
Шан@@ 1
Нат@@ 1
получает 1
Большинство 1
аресто@@ 1
младший 1
Распростра@@ 1
силами 1
тыми 1
канале 1
Ярослав@@ 1
Петербур@@ 1
Тео@@ 1
кап@@ 1
особенности 1
рея 1
компаний 1
лато@@ 1
рын@@ 1
Более 1
студентов 1
прито@@ 1
Прин@@ 1
87 1
обязанности 1
предприятий 1
ракет@@ 1
увеличе@@ 1
Китая 1
Пале@@ 1
цком 1
болезни 1
чело@@ 1
ностями 1
щаяся 1
ъ 1
крупнейших 1
Известные 1
сцене 1
Куль@@ 1
немецких 1
b 0.13381152506807129
напис@@ 1
Уильям 1
администрации 1
сно@@ 1
гражданской 1
авиации 1
мися 1
зывы 1
бума@@ 1
дила 1
бизне@@ 1
Церковь 1
разные 1
мяг@@ 1
n@@ 0.050113074610697715
воспомина@@ 1
дет 1
говор@@ 1
отече@@ 1
бом@@ 1
Татар@@ 1
Вал@@ 1
всему 1
зывал 1
радио 1
зало@@ 1
Ау@@ 1
медици@@ 1
предваритель@@ 1
Венгрии 1
ленд 1
греб@@ 1
собора 1
Том@@ 1
Лон@@ 1
биографи@@ 1
звезды 1
ответ 1
сих 1
направления 1
близ 1
прие@@ 1
Владимирович 1
отношение 1
сматри@@ 1
бер 1
Советской 1
x@@ 0.15994764153193744
созыва 1
свыше 1
руководитель 1
последних 1
дных 1
избиратель@@ 1
пуль@@ 1
трен@@ 1
мед 1
щими 1
сный 1
изде@@ 1
лиш@@ 1
ительное 1
мульт@@ 1
материал@@ 1
хозяйственный 1
стратеги@@ 1
гимна@@ 1
ловский 1
es 0.015632866696731584
дево@@ 1
Геор@@ 1
довой 1
89 1
Америке 1
Поскольку 1
входили 1
Абсолю@@ 1
игрока 1
Георги@@ 1
каби@@ 1
характери@@ 1
Именно 1
считает 1
фронте 1
завод@@ 1
дипломати@@ 1
православной 1
публика 1
князь 1
жан 1
Кубке 1
участием 1
магистра@@ 1
Арген@@ 1
1890 1
наде@@ 1
голу@@ 1
Азербай@@ 1
зой 1
формирования 1
произведён 1
преподавал 1
турой 1
переименован 1
Авст@@ 1
талан@@ 1
программе 1
цин@@ 1
никнове@@ 1
птиц 1
Сво@@ 1
циям 1
посёлке 1
бурге 1
наци@@ 1
наряду 1
стрель@@ 1
щ 1
появляется 1
Ада@@ 1
получив 1
ию@@ 1
ито 1
шему 1
основным 1
серия 1
01 1
Систе@@ 1
Социалистического 1
ств@@ 1
давно 1
сорев@@ 1
писали 1
руководил 1
тело 1
специальности 1
носи@@ 1
достижения 1
нынеш@@ 1
элементы 1
реа@@ 1
масте@@ 1
демон@@ 1
ментом 1
Дет@@ 1
Доро@@ 1
сухо@@ 1
посла@@ 1
премь@@ 1
СМИ 1
плен 1
РАН 1
музыку 1
уров@@ 1
Стре@@ 1
× 1
астроно@@ 1
ентов 1
мне 1
фигур@@ 1
месторо@@ 1
полице@@ 1
усадь@@ 1
входи@@ 1
надцать 1
командовал 1
вок@@ 1
97 1
пункта 1
мост 1
совхо@@ 1
фаши@@ 1
02 1
инжене@@ 1
следовате@@ 1
здании 1
главы 1
произведе@@ 1
Анатолий 1
депутатом 1
венгер@@ 1
Константи@@ 1
лето@@ 1
Воору@@ 1
чом 1
фри@@ 1
зато@@ 1
льник 1
юся 1
Новосибир@@ 1
дка 1
писателей 1
Ль@@ 1
Игорь 1
83 1
ала 1
жин@@ 1
следование 1
познакоми@@ 1
сезо@@ 1
интересо@@ 1
Тра@@ 1
установлен 1
констру@@ 1
Со 1
роваться 1
статей 1
факульте@@ 1
изуче@@ 1
первоначально 1
ступили 1
известным 1
Париж 1
Исполь@@ 1
взял 1
вест@@ 1
хозяйство 1
Первое 1
акаде@@ 1
Арме@@ 1
ительства 1
самы@@ 1
Records 0.5072370050720285
коллекти@@ 1
трак@@ 1
дове@@ 1
этно@@ 1
власт@@ 1
зав@@ 1
педаго@@ 1
безу@@ 1
композиции 1
опа@@ 1
вело@@ 1
координа@@ 1
переселе@@ 1
et 0.010158648591596386
хана 1
дие 1
существования 1
квар@@ 1
тяну@@ 1
ствовать 1
опубликовал 1
Верхов@@ 1
ia 0.09295461573355429
ленно 1
осна@@ 1
Португа@@ 1
чит@@ 1
морских 1
утра@@ 1
Председате@@ 1
мова 1
принадле@@ 1
гонь 1
Сал@@ 1
неза@@ 1
Франция 1
дзе 1
городом 1
бак@@ 1
даёт 1
Почтовый 1
Право@@ 1
вец 1
Средне@@ 1
конкре@@ 1
ланд 1
Атлан@@ 1
1903 1
Швейца@@ 1
синг@@ 1
ите 1
Сталин@@ 1
чиком 1
училища 1
XV 1
дт 1
юноше@@ 1
дочер@@ 1
должно 1
телевизион@@ 1
номер 1
Бон@@ 1
еве 1
мини 1
наступление 1
тей@@ 1
ВД 1
ходится 1
устройства 1
гран@@ 1
знак 1
тате@@ 1
страда@@ 1
сформи@@ 1
шно 1
Союз 1
1902 1
СП@@ 1
бн 1
Юго 1
прояв@@ 1
има 1
Кос@@ 1
стоян@@ 1
to 0.004459614584526668
гин 1
хозя@@ 1
освя@@ 1
доктор@@ 1
африкан@@ 1
дири@@ 1
статистиче@@ 1
бек 1
назначения 1
Теат@@ 1
дисципли@@ 1
вес@@ 1
пола 1
зация 1
считал 1
писателя 1
кав@@ 1
2,5 1
уру 1
жная 1
корпора@@ 1
ографи@@ 1
Тимо@@ 1
лицен@@ 1
техни@@ 1
Пру@@ 1
Гоме@@ 1
зя 1
Турции 1
бели 1
мемо@@ 1
Иса@@ 1
Инди@@ 1
Y@@ 0.11527088556401352
Анато@@ 1
Брай@@ 1
евка 1
ствии 1
разгро@@ 1
литов@@ 1
уре@@ 1
Вну@@ 1
лько 1
текст 1
старто@@ 1
дации 1
дут 1
нца 1
убит@@ 1
клон@@ 1
победил 1
характеристи@@ 1
рестав@@ 1
ас 1
250 1
отмен@@ 1
Дра@@ 1
монар@@ 1
функциони@@ 1
оли@@ 1
Германия 1
инженер 1
паци@@ 1
фраг@@ 1
актри@@ 1
Сам 1
чинов@@ 1
Литера@@ 1
пада 1
ООН 1
U 0.24212850871286998
славян@@ 1
замест@@ 1
Ино@@ 1
кров@@ 1
шни 1
идеи 1
тс 1
карти@@ 1
мнение 1
вей@@ 1
продукции 1
говор 1
юн@@ 1
XIV 1
Ниже@@ 1
Мир@@ 1
бригада 1
РККА 1
дея@@ 1
стояние 1
брю@@ 1
Абду@@ 1
прибли@@ 1
газ@@ 1
Соло@@ 1
лана 1
ВКП 1
сада 1
стика 1
компью@@ 1
смот@@ 1
успеха 1
количества 1
достав@@ 1
катастро@@ 1
обстоя@@ 1
оператив@@ 1
i@@ 0.07176288371187381
прово@@ 1
обеща@@ 1
автора 1
пари@@ 1
активи@@ 1
казал 1
жно 1
публика@@ 1
стая 1
дова 1
обще 1
рена 1
обу@@ 1
впечат@@ 1
сит 1
диссерта@@ 1
спец@@ 1
Ер@@ 1
нужно 1
мышлен@@ 1
08 0.9134235326879429
наказа@@ 1
отлича@@ 1
условия 1
нег@@ 1
устойчи@@ 1
гон 1
енко 1
строен@@ 1
Резу@@ 1
удовлетво@@ 1
сержан@@ 1
бел@@ 1
социалистиче@@ 1
Марк 1
сок 1
кови@@ 1
Произ@@ 1
Пь@@ 1
дю@@ 1
вит 1
Телефон@@ 1
VII 1
Уст@@ 1
дент 1
Коми@@ 1
кович 1
Администра@@ 1
нят 1
непре@@ 1
ктор@@ 1
Военно 1
гда 1
Клуб@@ 1
an 0.010733680314654702
бюдже@@ 1
Ана@@ 1
ента@@ 1
носите@@ 1
степ@@ 1
сборник 1
Мур@@ 1
1901 1
установи@@ 1
трам@@ 1
Император@@ 1
бота@@ 1
рун@@ 1
Михайлов@@ 1
Благо@@ 1
Приме@@ 1
жени@@ 1
край 1
После@@ 1
XIII 1
джан@@ 1
шал 1
Дви@@ 1
подроб@@ 1
кнове@@ 1
библиотека 1
стя 1
циони@@ 1
иск@@ 1
тта 1
сереб@@ 1
звезда 1
Гам@@ 1
методи@@ 1
интерес 1
новременно 1
ци 1
крае@@ 1
институ@@ 1
манд@@ 1
Гол@@ 1
Сай@@ 1
Патри@@ 1
тради@@ 1
моду@@ 1
цифро@@ 1
Оста@@ 1
закон 1
зор@@ 1
формат@@ 1
избира@@ 1
мигран@@ 1
Сю@@ 1
вес 1
Григорий 1
Томас 1
перио@@ 1
вследствие 1
абсолю@@ 1
скор@@ 1
Архи@@ 1
звуча@@ 1
пале@@ 1
Вале@@ 1
Вой@@ 1
Француз@@ 1
форд 1
могла 1
убийства 1
историк 1
конкурен@@ 1
Ву@@ 1
щую 1
тели 1
Сити 1
хотел 1
чате@@ 1
лечения 1
испо@@ 1
сет@@ 1
лев 1
Проек@@ 1
але 1
фер 1
ансамб@@ 1
вои@@ 1
цели 1
Департа@@ 1
Доне@@ 1
еже@@ 1
тюр@@ 1
схе@@ 1
Обла@@ 1
разработки 1
XII 1
декора@@ 1
появи@@ 1
Тех@@ 1
ума 1
кви 1
гет@@ 1
Георгий 1
жар@@ 1
800 0.9618019995812291
рее@@ 1
Бю@@ 1
сели@@ 1
периоди@@ 1
фун@@ 1
света 1
тение 1
инвести@@ 1
мю@@ 1
зова 1
азербайджан@@ 1
льт@@ 1
Хри@@ 1
чеб@@ 1
интен@@ 1
дистанции 1
Боб@@ 1
ства@@ 1
Англи@@ 1
разно@@ 1
аспиран@@ 1
Аре@@ 1
мпи@@ 1
Спа@@ 1
Древ@@ 1
пропа@@ 1
супер@@ 1
рост 1
дз@@ 1
тел 1
лови@@ 1
Жан@@ 1
Моги@@ 1
Истори@@ 1
мно 1
никова 1
стила 1
дки 1
видео@@ 1
кинемато@@ 1
Цар@@ 1
щин@@ 1
фу 1
фрак@@ 1
Краснояр@@ 1
гей@@ 1
Пит@@ 1
скорости 1
z@@ 0.05565427639746779
Игра@@ 1
мар 1
фан@@ 1
поражения 1
07 0.968956256373294
тик 1
изра@@ 1
инфра@@ 1
лага 1
дина 1
Бей@@ 1
Меди@@ 1
ьо@@ 1
свето@@ 1
корен@@ 1
30@@ 0.9234295488511678
лил 1
палат@@ 1
бин 1
05 0.9449877741717747
терна@@ 1
прогре@@ 1
кост@@ 1
ведение 1
k@@ 0.0513257995713291
размер 1
уса 1
удоб@@ 1
кол 1
Тома@@ 1
чества 1
03 1
сама 1
выбо@@ 1
несколь@@ 1
вета 1
тира@@ 1
зор 1
рас 1
рую 1
лона 1
бит 1
нк@@ 1
еле@@ 1
Черни@@ 1
ранен 1
центри@@ 1
мора@@ 1
мур@@ 1
Стат@@ 1
владения 1
Констан@@ 1
Ради@@ 1
построе@@ 1
двора 1
деление 1
1896 1
глава 1
марки 1
Гран@@ 1
партизан@@ 1
1880 1
Али 1
ежегод@@ 1
урав@@ 1
Норве@@ 1
типи@@ 1
лище 1
ющем 1
ери 1
противоре@@ 1
вень 1
непосред@@ 1
Гей@@ 1
Сиби@@ 1
комитет 1
банка 1
ВС 1
анг@@ 1
Иркут@@ 1
водохрани@@ 1
Зак@@ 1
Оли@@ 1
Спор@@ 1
после@@ 1
1899 1
метод 1
Стру@@ 1
Бере@@ 1
близо@@ 1
1898 1
бъ@@ 1
озна@@ 1
оте@@ 1
архиеписко@@ 1
пограни@@ 1
ай@@ 1
пии 1
флот 1
уточ@@ 1
нг 1
Оде@@ 1
иници@@ 1
твер@@ 1
приказ@@ 1
Между 1
Мест@@ 1
лед@@ 1
ведом@@ 1
обшир@@ 1
ключе@@ 1
многи@@ 1
09 0.9174749584073313
фро@@ 1
резиден@@ 1
лото 1
Сле@@ 1
зь 1
организато@@ 1
лева 1
губернатора 1
СК@@ 1
Соб@@ 1
оставил 1
Профе@@ 1
зер 1
ситуации 1
сход@@ 1
пки 1
лища 1
ежегодно 1
компонен@@ 1
конгре@@ 1
водит 1
стихотво@@ 1
гастро@@ 1
предприятие 1
убит 1
чеш@@ 1
доказате@@ 1
листа 1
Супер@@ 1
Представ@@ 1
ОО@@ 1
носители 1
поля@@ 1
свое@@ 1
06 0.9310134162515021
ИК 1
тат 1
чемпи@@ 1
Ян 1
Пон@@ 1
Доктор 1
изображения 1
лога 1
опере@@ 1
Гран 1
реч@@ 1
Компа@@ 1
брон@@ 1
циклопе@@ 1
равни@@ 1
Худо@@ 1
запове@@ 1
кажд@@ 1
u 0.07255785384257742
ситуа@@ 1
задачи 1
1870 1
Елена 1
прак@@ 1
стки 1
лово 1
лока@@ 1
ске@@ 1
1860 1
способности 1
ави@@ 1
неш@@ 1
КП 1
низация 1
доход 1
йо@@ 1
Сре@@ 1
русали@@ 1
препят@@ 1
север 1
предприя@@ 1
октя@@ 1
фунда@@ 1
позна@@ 1
Джордж 1
Харак@@ 1
Мона@@ 1
Транспорт 1
видно 1
1.@@ 0.452277155340771
атри@@ 1
ито@@ 1
временно 1
Окон@@ 1
аре 1
W 0.3535285691859915
договор 1
серий@@ 1
устройство 1
нарко@@ 1
дала 1
услу@@ 1
духо@@ 1
1895 1
неме@@ 1
ват 1
л. 1
покуп@@ 1
португа@@ 1
програ@@ 1
хин@@ 1
счё@@ 1
схо@@ 1
тни 1
нации 1
Константино@@ 1
Сева@@ 1
чемпио@@ 1
фай@@ 1
цилин@@ 1
консер@@ 1
Стан@@ 1
вис 1
зин 1
Ази@@ 1
страции 1
целе@@ 1
Бир@@ 1
атор 1
вынуж@@ 1
on@@ 0.053583013620320925
преодо@@ 1
лян 1
Желез@@ 1
отстав@@ 1
баталь@@ 1
кола 1
en 0.004553739018713405
ДР 1
Вит@@ 1
австрали@@ 1
Свет@@ 1
Мей@@ 1
щина 1
восп@@ 1
оба@@ 1
принце@@ 1
гар 1
ужа@@ 1
сценари@@ 1
епископа 1
жден 1
ино@@ 1
жертво@@ 1
апосто@@ 1
руб@@ 1
черно@@ 1
обратно 1
разнообраз@@ 1
Обо@@ 1
множе@@ 1
вед 1
Институт 1
рекорд 1
мра@@ 1
знание 1
нит 1
фект 1
парламента 1
Уил@@ 1
плана 1
ционно 1
ic@@ 0.08682441258468593
Рожде@@ 1
Киев 1
качества 1
дна 1
Сою@@ 1
лика 1
Фар@@ 1
Демо@@ 1
акти@@ 1
Луи 1
Юр@@ 1
IX 1
пад@@ 1
здраво@@ 1
годо@@ 1
итер 1
кура@@ 1
разве@@ 1
сч@@ 1
большо@@ 1
равно@@ 1
ина 1
хими@@ 1
каме@@ 1
пом@@ 1
лам@@ 1
Жен@@ 1
рецен@@ 1
предложение 1
Ван 1
мона 1
преимуще@@ 1
бокс@@ 1
заслуги 1
Бос@@ 1
нане@@ 1
герба 1
конкурса 1
погре@@ 1
Ска@@ 1
надеж@@ 1
византи@@ 1
Управ@@ 1
Вита@@ 1
соби@@ 1
постройки 1
In@@ 0.08748202810930654
праз@@ 1
ar 0.03205881826841613
шины 1
стен 1
Бит@@ 1
al@@ 0.040108742899032865
героя 1
Шах@@ 1
очер@@ 1
решено 1
БА 1
гал 1
дире@@ 1
экс@@ 1
04 0.9189982834843597
петро@@ 1
печ@@ 1
СС 1
укре@@ 1
сестра 1
гна@@ 1
христи@@ 1
Мака@@ 1
учение 1
офицер@@ 1
картина 1
1859 1
еро@@ 1
вертика@@ 1
диапа@@ 1
Сбор@@ 1
слуш@@ 1
слов@@ 1
вард 1
ология 1
цент 1
ента 1
акт@@ 1
вни@@ 1
пони@@ 1
Олег 1
минера@@ 1
противополож@@ 1
протя@@ 1
бух@@ 1
рато@@ 1
литера@@ 1
батальон 1
лит@@ 1
печата@@ 1
информация 1
враже@@ 1
Анд@@ 1
# 0.4512736441140743
обли@@ 1
NGC 1
дик@@ 1
ливо@@ 1
рово 1
Сту@@ 1
сут@@ 1
полез@@ 1
рак 1
единица 1
красо@@ 1
сфе@@ 1
Без@@ 1
VIII 1
герой 1
ресто@@ 1
ила 1
Калу@@ 1
пля@@ 1
краси@@ 1
иденти@@ 1
пси@@ 1
доров@@ 1
тена 1
Музей 1
Таш@@ 1
откло@@ 1
пуск@@ 1
пой 1
1892 1
оценки 1
Сем@@ 1
редактор 1
ост@@ 1
Теле@@ 1
Бала@@ 1
гай@@ 1
ок 1
хин 1
цир@@ 1
поче@@ 1
закона 1
символ 1
щате@@ 1
национали@@ 1
свойства 1
хва@@ 1
яния 1
сче@@ 1
факт 1
секретар@@ 1
деб@@ 1
ФК 1
Оле@@ 1
Около 1
стах 1
Ш 1
спас@@ 1
рока 1
психологи@@ 1
див 1
l 0.039453987590108264
дера 1
гиган@@ 1
Роман 1
блоки@@ 1
популя@@ 1
етна@@ 1
моста 1
брак 1
Колум@@ 1
лис 1
мата 1
зали@@ 1
24@@ 0.8457371850338513
брака 1
кари@@ 1
зад@@ 1
подразделения 1
шев 1
коме@@ 1
библиотеки 1
достиг 1
Образование 1
хова 1
сив@@ 1
New 0.05742426571589628
дц@@ 1
благотво@@ 1
фт 1
канди@@ 1
ура 1
опе@@ 1
жив 1
осве@@ 1
тал 1
низма 1
Сви@@ 1
флан@@ 1
рит@@ 1
лс 1
парата 1
внима@@ 1
жки 1
оти@@ 1
гола 1
адми@@ 1
динами@@ 1
el 0.007892775750752224
нета 1
молеку@@ 1
пел 1
либера@@ 1
били 1
Югосла@@ 1
ориенти@@ 1
Казахстан 1
1885 1
жда 1
лар@@ 1
Кав@@ 1
обязан@@ 1
Категория 1
рита 1
спорт 1
корре@@ 1
чём 1
композитор 1
Вил@@ 1
функциона@@ 1
атаки 1
пуска 1
спон@@ 1
пара 1
Жо@@ 1
Яку@@ 1
рар@@ 1
700 1
соли@@ 1
деви@@ 1
кого@@ 1
Свобо@@ 1
император 1
вита@@ 1
ктура 1
евро 1
снаря@@ 1
Китай 1
максимум 1
наличие 1
h 0.0764071490937856
Награ@@ 1
покров@@ 1
профи@@ 1
... 0.20885137964983824
дом@@ 1
Бара@@ 1
матри@@ 1
уско@@ 1
шотланд@@ 1
Але@@ 1
ситуация 1
темати@@ 1
H 0.304892240525236
предотвра@@ 1
Един@@ 1
дес 1
la 0.003405941497195931
вели 1
Джер@@ 1
Чехослова@@ 1
нки 1
Billboard 0.7824112367308107
домини@@ 1
огра@@ 1
Кло@@ 1
Варшав@@ 1
130 1
костю@@ 1
концентра@@ 1
ари@@ 1
Роб@@ 1
шко 1
1894 1
рев 1
Тем@@ 1
Ави@@ 1
Санта 1
анализа 1
установки 1
гарни@@ 1
4.@@ 0.5325848658921282
Так@@ 1
* 0.1444625358640479
1889 1
Глу@@ 1
Кня@@ 1
проф@@ 1
радика@@ 1
щины 1
чан 1
шев@@ 1
диагно@@ 1
симфо@@ 1
империя 1
спози@@ 1
суль@@ 1
вна 1
орган 1
опти@@ 1
колони@@ 1
гора 1
импера@@ 1
Re@@ 0.07789954188114548
машин@@ 1
фли@@ 1
1893 1
минима@@ 1
Сино@@ 1
корей@@ 1
3.@@ 0.48597896628054044
дат 1
сток 1
рат@@ 1
Занима@@ 1
дъ@@ 1
стеро@@ 1
йка 1
спомина@@ 1
Клу@@ 1
Калифор@@ 1
11@@ 0.801514677583055
поря@@ 1
изображение 1
Институ@@ 1
мал 1
дух 1
престол 1
францу@@ 1
реди@@ 1
тно@@ 1
отрас@@ 1
Мюн@@ 1
припис@@ 1
Дебю@@ 1
Св 1
унд@@ 1
уна 1
al 0.017997572072922623
отрицате@@ 1
idae 0.2948306120495529
галакти@@ 1
поко@@ 1
1878 1
1891 1
верто@@ 1
социали@@ 1
кой@@ 1
Music 0.28066227353817874
преми@@ 1
преда@@ 1
яне 1
отбо@@ 1
перси@@ 1
заря@@ 1
l@@ 0.03771359225743593
квалифика@@ 1
пур@@ 1
Евге@@ 1
вери@@ 1
циан@@ 1
направление 1
Авгу@@ 1
департамента 1
интернет 1
типо@@ 1
коали@@ 1
парат 1
Ричар@@ 1
лекар@@ 1
ура@@ 1
World 0.09593427237532103
ed 0.01508034409508174
живопис@@ 1
сино@@ 1
ирланд@@ 1
разу 1
статисти@@ 1
Ё@@ 1
ит 1
алгори@@ 1
вата 1
прозви@@ 1
безопас@@ 1
ac@@ 0.05788530460835338
убийство 1
публико@@ 1
брази@@ 1
изгна@@ 1
доста@@ 1
стоят 1
часа 1
лос 1
тура@@ 1
номинации 1
проя@@ 1
at 0.010807430250255587
ити 1
Наи@@ 1
пан 1
точно 1
деми@@ 1
кардина@@ 1
XI 1
гим@@ 1
мерно 1
Извест@@ 1
ак 1
Испо@@ 1
ори 1
йл 1
син 1
чень 1
режима 1
v@@ 0.04735429860581472
Богороди@@ 1
5.@@ 0.5171727353698029
Михай@@ 1
построено 1
грузин@@ 1
ню@@ 1
бла@@ 1
яна 1
Пле@@ 1
кция 1
ликвиди@@ 1
звуко@@ 1
Фин@@ 1
пин@@ 1
категори@@ 1
бей@@ 1
епархи@@ 1
увели@@ 1
2.@@ 0.414424632193118
огне@@ 1
припа@@ 1
кварта@@ 1
Любо@@ 1
рист 1
коли@@ 1
Фридрих 1
Сезон 1
Кристи@@ 1
23@@ 1
азиат@@ 1
вет 1
Екате@@ 1
Мил@@ 1
поколения 1
Два 1
Нан@@ 1
Ля@@ 1
увелич@@ 1
пост@@ 1
ография 1
намере@@ 1
текста 1
обя@@ 1
арт 1
1886 1
Монго@@ 1
иза 1
проекти@@ 1
1864 1
1862 1
рус 1
110 1
гат 1
Ч 1
губерния 1
er@@ 0.03135564554600853
зеф 1
Уи@@ 1
труп@@ 1
защитник 1
чан@@ 1
Сен@@ 1
дана 1
Хал@@ 1
кос@@ 1
Уни@@ 1
ТВ 1
щер@@ 1
жка 1
атак@@ 1
Италия 1
бора 1
Валерий 1
Юнайтед 1
кафе@@ 1
1887 1
гера 1
Оре@@ 1
лата 1
удар 1
уд@@ 1
машино@@ 1
ува@@ 1
дворец 1
добро@@ 1
сение 1
ёз@@ 1
Лондон 1
or 0.01874196932825656
ята 1
Ричард 1
1877 1
заим@@ 1
редак@@ 1
Ch@@ 0.059145338852256306
or@@ 0.044250984398992374
j@@ 0.04904626310811005
Кей@@ 1
1812 1
тата 1
лак@@ 1
Хен@@ 1
1861 1
секретаря 1
еха@@ 1
1500 1
теку@@ 1
Пис@@ 1
читате@@ 1
см@@ 1
Конгре@@ 1
спокой@@ 1
Фридри@@ 1
личности 1
бои 1
трибу@@ 1
тра 1
бун@@ 1
топ@@ 1
стин 1
in@@ 0.026242913796580773
веро@@ 1
вален@@ 1
Ав@@ 1
Числе@@ 1
Отде@@ 1
12,@@ 1
княже@@ 1
el@@ 0.03930007103569088
Дво@@ 1
сна 1
Физи@@ 1
розо@@ 1
рата 1
комите@@ 1
дого 1
1884 1
св 1
Мартин 1
законо@@ 1
1863 1
вку@@ 1
фос@@ 1
ванге@@ 1
Уч@@ 1
m@@ 0.043996964863134896
лекате@@ 1
мбу@@ 1
намест@@ 1
освобод@@ 1
Windows 0.8952529540540082
гено@@ 1
инду@@ 1
контин@@ 1
разби@@ 1
шено 1
виз@@ 1
r@@ 0.037744229377865465
Пин@@ 1
Клю@@ 1
лекции 1
мигри@@ 1
ос 1
пати@@ 1
Хосе 1
Мета@@ 1
ae 0.23075965834047013
ид 1
поп 1
океан@@ 1
См@@ 1
рецеп@@ 1
Парти@@ 1
Мно@@ 1
питания 1
You 0.39546883115161424
истин@@ 1
деж@@ 1
сервато@@ 1
вир@@ 1
en@@ 0.02516390481667208
боле@@ 1
кала 1
публикации 1
меч@@ 1
h@@ 0.04128469064899695
преоблада@@ 1
зен 1
почита@@ 1
Турк@@ 1
норве@@ 1
лингви@@ 1
зави@@ 1
кул@@ 1
сед@@ 1
7.@@ 0.5663391710985208
боли@@ 1
бизнес 1
Нау@@ 1
1888 1
g 0.08417602646714117
позво@@ 1
Андер@@ 1
конфликта 1
Демокра@@ 1
приз@@ 1
секун@@ 1
депутат 1
олог 1
зани 1
растения 1
швейцар@@ 1
Пот@@ 1
Ната@@ 1
тиви@@ 1
пропове@@ 1
зуется 1
вете 1
имена 1
вена 1
гана 1
r 0.10753926386410063
циф@@ 1
кат 1
католи@@ 1
заму@@ 1
сопрово@@ 1
тря@@ 1
ману@@ 1
договора 1
сками 1
Инте@@ 1
кай@@ 1
политика 1
опро@@ 1
двигателя 1
Вай@@ 1
доне@@ 1
незакон@@ 1
чо 1
мах@@ 1
Три 1
чах 1
Гай@@ 1
Яро@@ 1
лосо@@ 1
кия 1
оправ@@ 1
Бек@@ 1
6.@@ 0.5308458213064989
бав@@ 1
жден@@ 1
журналист 1
Калифорния 1
труд 1
клет@@ 1
Кот@@ 1
КНР 1
ад 1
пет@@ 1
Творчество 1
Екатерина 1
патриар@@ 1
пространства 1
Еди@@ 1
инструмента@@ 1
линг 1
див@@ 1
Рейн@@ 1
рона 1
17,@@ 1
Комитета 1
след 1
Брон@@ 1
уми@@ 1
астро@@ 1
гур@@ 1
низа@@ 1
гаран@@ 1
кал 1
двор 1
мети@@ 1
ара@@ 1
Барсе@@ 1
ционе@@ 1
поста 1
сент@@ 1
Запа@@ 1
Бран@@ 1
материал 1
часов@@ 1
демо@@ 1
1879 1
зонта@@ 1
рд 1
бра 1
специалист 1
сл 1
лати@@ 1
ут 1
сис 1
1873 1
южно@@ 1
мони@@ 1
лате@@ 1
номини@@ 1
финан@@ 1
гал@@ 1
Осман@@ 1
произведение 1
терми@@ 1
Диа@@ 1
дуар@@ 1
правила 1
Ама@@ 1
Th@@ 0.09195267340298828
обстре@@ 1
кате@@ 1
атам 1
1882 1
Лар@@ 1
z 0.0776020479267327
Уор@@ 1
рация 1
инспе@@ 1
Яко@@ 1
3,5 1
сена@@ 1
Тей@@ 1
буква@@ 1
Софи@@ 1
помина@@ 1
Лео@@ 1
quot 1
Каза@@ 1
шпи@@ 1
кален@@ 1
Мате@@ 1
бас 1
годи@@ 1
Лиг@@ 1
10,@@ 1
дир 1
прило@@ 1
гнез@@ 1
200@@ 0.9437360535559992
Он@@ 1
посё@@ 1
Зим@@ 1
Игна@@ 1
яние 1
нено 1
изобраз@@ 1
политик 1
чник 1
Антонио 1
карто@@ 1
него@@ 1
бан 1
Мари 1
пова 1
Афгани@@ 1
специфи@@ 1
префек@@ 1
метра@@ 1
Таджи@@ 1
Де 1
творчество 1
Мя@@ 1
шили 1
андар@@ 1
Дор@@ 1
лер@@ 1
Публи@@ 1
драматур@@ 1
залива 1
Съ@@ 1
ката 1
обстанов@@ 1
³ 1
чук 1
авторите@@ 1
ar@@ 0.03487655942616949
Уай@@ 1
1881 1
зо 1
анализ 1
Al@@ 0.0585141633129685
тенден@@ 1
режим 1
лас 1
персо@@ 1
1871 0.958971567740564
Мах@@ 1
11,@@ 1
организ@@ 1
рала 1
Вест@@ 1
стро 1
рите@@ 1
достато@@ 1
пин 1
Осно@@ 1
1876 1
док@@ 1
вс@@ 1
8.@@ 0.5876441348910362
докла@@ 1
Джо 1
пропаган@@ 1
молит@@ 1
водил 1
АР 1
плодо@@ 1
Йе@@ 1
интерпре@@ 1
ВМ@@ 1
Лет@@ 1
Tr@@ 0.0761582223947173
Джен@@ 1
мара 1
Тен@@ 1
дс 1
конструкция 1
ch@@ 0.02983622244315787
Пол 1
вар 1
An@@ 0.05153269550713456
Среди@@ 1
Фут@@ 1
водоро@@ 1
секу@@ 1
комен@@ 1
европе@@ 1
ордина@@ 1
филосо@@ 1
номера 1
нев@@ 1
справед@@ 1
Великобритания 1
интегра@@ 1
изло@@ 1
Ол@@ 1
защ@@ 1
Архите@@ 1
Министерство 1
нужда@@ 1
дете@@ 1
импе@@ 1
место@@ 1
фонд 1
ваш@@ 1
бру@@ 1
кут@@ 1
Мла@@ 1
1883 1
Оскар 1
антро@@ 1
относя@@ 1
псевдо@@ 1
пуск 1
Македо@@ 1
поход 1
Sh@@ 0.09049684058737491
разновид@@ 1
интерес@@ 1
певица 1
равно 1
посредством 1
Ред@@ 1
Вет@@ 1
Сат@@ 1
Слова@@ 1
12.@@ 1
мило@@ 1
лектро@@ 1
порта@@ 1
an@@ 0.030415638154282738
идея 1
ране 1
Музе@@ 1
Мет@@ 1
160 1
Чикаго 1
Ори@@ 1
провинция 1
Кем@@ 1
рым 1
предпоч@@ 1
Гур@@ 1
писана 1
1865 1
визу@@ 1
посред@@ 1
Като@@ 1
аз@@ 1
ширина 1
колонии 1
Сак@@ 1
кар 1
пожар@@ 1
зра@@ 1
плати@@ 1
am 0.027537635650404898
Cr@@ 0.1810874864079895
сег@@ 1
нав@@ 1
бек@@ 1
пространство 1
лун@@ 1
наименование 1
9.@@ 0.6156013414397336
Библи@@ 1
Участ@@ 1
зени@@ 1
говорят 1
Вир@@ 1
Гви@@ 1
лат 1
пейза@@ 1
1867 1
обез@@ 1
аро@@ 1
манитар@@ 1
Стю@@ 1
вещества 1
теория 1
арте@@ 1
Яв@@ 1
реакции 1
сак@@ 1
мян 1
торпе@@ 1
Ar@@ 0.06359363137941751
кампа@@ 1
писе@@ 1
Соци@@ 1
Рим 1
ph@@ 0.0723964518926318
w@@ 0.0410767011061628
рано 1
лого@@ 1
конфликт 1
позиция 1
мб@@ 1
служба 1
10.@@ 0.887337342622177
Хей@@ 1
полузащитник 1
историко 1
Сиг@@ 1
случай 1
гни@@ 1
прокуро@@ 1
императри@@ 1
Дал@@ 1
чев 1
13,@@ 1
НР 1
служе@@ 1
мексикан@@ 1
1868 1
семейство 1
телефон@@ 1
1850 1
благоприя@@ 1
140 1
распо@@ 1
сериа@@ 1
родители 1
теро@@ 1
носят 1
менти@@ 1
om@@ 0.06393062452261108
Ней@@ 1
народ 1
море@@ 1
Рио 1
180 1
кред@@ 1
крепост@@ 1
р. 1
дома@@ 1
ол@@ 1
локо@@ 1
25@@ 0.543783243041562
кори@@ 1
ференци@@ 1
1869 1
инфек@@ 1
профе@@ 1
Токио 1
лив 1
площа@@ 1
голе@@ 1
признание 1
мор 1
религи@@ 1
принадлеж@@ 1
дизай@@ 1
хия 1
марк@@ 1
египет@@ 1
it@@ 0.0484342648673605
конфлик@@ 1
Гло@@ 1
Геро@@ 1
Хам@@ 1
1866 0.8307588018810063
1830 1
вести@@ 1
комеди@@ 1
1848 0.9053802647522622
аристокра@@ 1
точка 1
озву@@ 1
пен 1
йско 1
кана 1
u@@ 0.0530631157116885
подзем@@ 1
Уру@@ 1
хен@@ 1
вере@@ 1
Смит 1
волей@@ 1
St@@ 0.06526143803149663
Иде@@ 1
0,5 1
окси@@ 1
дона 1
отне@@ 1
сражения 1
Group 0.2524667003120996
рио 1
характеристики 1
протестан@@ 1
говора 1
чайно 1
Con@@ 0.0685287443666701
Фреде@@ 1
Z 0.4901538096567679
имо@@ 1
Велико@@ 1
клави@@ 1
ради 1
УЕФА 1
губернатор 1
Фила@@ 1
et@@ 0.0580879462395179
фю@@ 1
коди@@ 1
кандидат 1
основано 1
Сала@@ 1
банд@@ 1
сайта 1
аван@@ 1
морф@@ 1
Отече@@ 1
слабо@@ 1
линг@@ 1
пети@@ 1
епархия 1
СД@@ 1
1856 1
ранже@@ 1
Лай@@ 1
as@@ 0.038269102247928094
Кари@@ 1
клетки 1
хай@@ 1
Парк 1
1872 1
учред@@ 1
for 0.0065787513183258465
княз@@ 1
Университета 1
Мю@@ 1
свиде@@ 1
анима@@ 1
вара 1
тация 1
ot@@ 0.05967768053185049
универса@@ 1
роб@@ 1
товар@@ 1
Хро@@ 1
вато@@ 1
Анаста@@ 1
ica 0.11736037347520285
поляр@@ 1
община 1
f 0.09813252957793764
одоб@@ 1
Q@@ 0.159712155302111
Тек@@ 1
1875 0.9678260716248435
Корне@@ 1
балан@@ 1
отри@@ 1
архе@@ 1
наре@@ 1
Кристо@@ 1
нист 1
ьера 1
бен 1
ринг 1
Академи@@ 1
насти@@ 1
свое 1
тна 1
Чили 1
нон 1
риту@@ 1
возраст@@ 1
стиму@@ 1
прину@@ 1
патри@@ 1
ol@@ 0.049356747809077686
операция 1
приклю@@ 1
сани@@ 1
курор@@ 1
Буда@@ 1
бакала@@ 1
Кала@@ 1
Най@@ 1
бия 1
мону@@ 1
бог@@ 1
лекту@@ 1
кове 1
господ@@ 1
лея 1
зеро 1
гиз@@ 1
28@@ 1
написана 1
le 0.006008884799526905
отдел 1
администра@@ 1
дуард 1
разуме@@ 1
блок 1
повлия@@ 1
нами@@ 1
следствие 1
1874 0.95436699179598
der 0.003738956610500427
Наполе@@ 1
Берлин@@ 1
XXI 1
нападения 1
1840 1
земно@@ 1
Y 0.37819945749892303
Тере@@ 1
AS@@ 0.38347802131071784
Мала@@ 1
ряду 1
парламент 1
зина 1
бара@@ 1
лидер 1
Австри@@ 1
кал@@ 1
владение 1
танка 1
зеле@@ 1
Пана@@ 1
лизма 1
Режи@@ 1
Бул@@ 1
План@@ 1
пиано 1
Кова@@ 1
циви@@ 1
Манче@@ 1
департамент 1
International 0.1319999086704496
125 1
могу@@ 1
прести@@ 1
Спе@@ 1
лз 1
май 1
публици@@ 1
жба 1
Рели@@ 1
дент@@ 1
ers 0.024071957849508267
ниси@@ 1
ир@@ 1
Флорен@@ 1
купа@@ 1
ис 1
as 0.005306523924675208
моря@@ 1
юно@@ 1
Каме@@ 1
риан@@ 1
санд@@ 1
континента@@ 1
стадион 1
гови@@ 1
як 1
гимнази@@ 1
Вашинг@@ 1
Коб@@ 1
бус 1
осе@@ 1
цера 1
концерт 1
сят 1
хит 1
пол 1
хон@@ 1
кет 1
сма@@ 1
начи@@ 1
транспорт 1
йска 1
Опера@@ 1
Давид 1
Максим 1
Гот@@ 1
дис@@ 1
иран@@ 1
делега@@ 1
Река 1
Мел@@ 1
фей 1
сиф 1
3000 1
критик 1
остана@@ 1
лд 1
ad@@ 0.03503198338518018
акции 1
псевдони@@ 1
Спо@@ 1
писание 1
изго@@ 1
кван@@ 1
Смо@@ 1
просве@@ 1
Сток@@ 1
Известно 1
ване 1
СА@@ 1
кау@@ 1
is@@ 0.04031108972813781
внезап@@ 1
Подоб@@ 1
забе@@ 1
Рафа@@ 1
офицер 1
тар 1
Дон 1
26@@ 0.8906832877775241
чество 1
адап@@ 1
сми@@ 1
расстоя@@ 1
дорф 1
нари@@ 1
Успе@@ 1
27@@ 0.9491333171213933
― 1
Фернан@@ 1
дим 1
гент@@ 1
втори@@ 1
Божи@@ 1
коман@@ 1
кистан 1
референ@@ 1
Цвет@@ 1
ьо 1
Иванов 1
фур@@ 1
предстоя@@ 1
ine 0.04167814176526446
мле@@ 1
конферен@@ 1
раке@@ 1
кани 1
тока 1
тел@@ 1
емы@@ 1
​ 1
победа 1
ида 1
набор 1
Антон 1
включена 1
разрешение 1
сайт 1
Дире@@ 1
Франк@@ 1
Све@@ 1
рами@@ 1
хран@@ 1
ссиона@@ 1
Awards 0.2799942288200711
Стати@@ 1
Тони 1
J 0.32811704801984964
хал@@ 1
тино 1
вене@@ 1
случайно 1
предпочита@@ 1
льян@@ 1
каде@@ 1
at@@ 0.04045478411700807
спан@@ 1
Марти@@ 1
рови@@ 1
пия 1
Берлин 1
жур@@ 1
морфо@@ 1
фен@@ 1
туристи@@ 1
Car@@ 0.07763883905465008
Нем@@ 1
oc@@ 0.060108184990973694
чко 1
Марга@@ 1
TV 0.15504096490957703
фео@@ 1
1858 1
виру@@ 1
орден 1
Ирина 1
кора@@ 1
Co@@ 0.08868283196493996
вица 1
означа@@ 1
взаим@@ 1
хард 1
чков 1
лано 1
ета 1
иконо@@ 1
Христи@@ 1
Министер@@ 1
• 0.9267632947931408
носа 1
DVD 0.5690856233679309
То 1
Акаде@@ 1
кас 1
Сул@@ 1
ориента@@ 1
серти@@ 1
ВИ@@ 1
AR@@ 0.3527335996297825
Спар@@ 1
зай@@ 1
независимо 1
помещения 1
Никола 1
кримина@@ 1
Дона@@ 1
Love 0.36069045380828385
база 1
Юли@@ 1
Док@@ 1
хим 1
архиепископ 1
нидер@@ 1
ФИ@@ 1
14,@@ 1
Пед@@ 1
инжен@@ 1
350 1
неодно@@ 1
услуги 1
Хра@@ 1
навод@@ 1
поведение 1
1800 1
граница 1
лке 1
дис 1
вян@@ 1
лие 1
ей@@ 1
Вашингтон 1
Византи@@ 1
пещер@@ 1
сдел@@ 1
д. 1
желание 1
мба@@ 1
es@@ 0.03386958343225171
хищ@@ 1
лизация 1
105 1
Григо@@ 1
INSEE 1
палу@@ 1
Груп@@ 1
АС@@ 1
конкурс 1
водят 1
вие 1
избирате@@ 1
мага@@ 1
губ@@ 1
задача 1
Реги@@ 1
приви@@ 1
Каро@@ 1
метео@@ 1
Меж@@ 1
зар 1
тис 1
бя@@ 1
Мето@@ 1
сценарий 1
става 1
сати@@ 1
депутат@@ 1
упразд@@ 1
лига 1
ВМС 1
Вод@@ 1
апре@@ 1
сина 1
1857 1
лили 1
хара 1
ког@@ 1
11.@@ 0.9794563952626218
дино@@ 1
сцена@@ 1
заре@@ 1
подчер@@ 1
Импера@@ 1
термо@@ 1
посет@@ 1
совете 1
ana 0.061942380055313696
сна@@ 1
Парла@@ 1
Рот@@ 1
конструи@@ 1
ландия 1
пал 1
техника 1
подход 1
сколь@@ 1
Перу 1
лар 1
социация 1
охла@@ 1
ада@@ 1
диск 1
th@@ 0.03609712199444468
Sp@@ 0.11491401146967442
18,@@ 1
Касти@@ 1
хит@@ 1
осман@@ 1
папа 1
двиг 1
Комите@@ 1
инци@@ 1
помощник 1
Ex@@ 0.09203887275849473
Фро@@ 1
движ@@ 1
Hot 0.6179350157439202
Да 1
прием@@ 1
клуб@@ 1
офице@@ 1
дец 1
зали 1
Герман@@ 1
изве@@ 1
4,5 1
диску@@ 1
стина 1
цла@@ 1
март 1
Луис 1
Дек@@ 1
os@@ 0.06316501537374518
кух@@ 1
стати@@ 1
растение 1
Иван@@ 1
пка 1
1855 1
Христо@@ 1
гроб@@ 1
драв@@ 1
успехи 1
170 1
Кю@@ 1
фин 1
второ@@ 1
Com@@ 0.09457595129535598
теж@@ 1
нера@@ 1
лд@@ 1
матика 1
Стефа@@ 1
пци@@ 1
тара 1
OS 0.6039038605600064
900 1
Генерал 1
17@@ 0.6007828161501256
теч@@ 1
цена 1
жанра 1
нар 1
индуст@@ 1
Entertainment 0.5723448223152957
Канада 1
вити@@ 1
славя@@ 1
1849 1
Дис@@ 1
Спартак 1
1829 1
Me 0.4304665955056215
лабо@@ 1
традиционно 1
CD 0.30054969489502037
бита 1
гата 1
КС 1
митрополит 1
бар 1
отличия 1
Тон@@ 1
тема 1
атели 1
фера 1
с. 1
жер@@ 1
функция 1
Бла@@ 1
ru 1
ve 0.02679138132781244
фор 1
Бой@@ 1
80@@ 1
Фели@@ 1
сите@@ 1
id@@ 0.05386439053995207
codice 1
ter 0.03167314737708551
ЕС 1
Бун@@ 1
op@@ 0.060642221726181625
индустри@@ 1
Хуан 1
рене@@ 1
ремонт 1
De@@ 0.09702128541076485
лакти@@ 1
гс 1
Распо@@ 1
режисс@@ 1
правед@@ 1
разнообрази@@ 1
Уа@@ 1
РС@@ 1
Times 0.3334057762667522
департа@@ 1
тинг 1
La 0.01612391792292525
страна 1
15,@@ 1
усилия 1
ch 0.05330756408189023
машина 1
вечер@@ 1
ренно 1
Бела@@ 1
Том 1
нан 1
40@@ 0.7993036864503583
стойчи@@ 1
1854 0.99064541601723
Ата@@ 1
главно@@ 1
чувств@@ 1
пехо@@ 1
ation 0.01405280360060879
изя@@ 1
1853 1
Поз@@ 1
Вселе@@ 1
.-@@ 1
йд 1
Сици@@ 1
клад 1
госпо@@ 1
one 0.017975910749090204
ta 0.06143920596201127
ясно 1
тира 1
тим 1
горе 1
фия 1
Qu@@ 0.08103084036485213
Ог@@ 1
тивен 1
НЕ@@ 1
Le@@ 0.06443074666663531
стия 1
северо@@ 1
Жене@@ 1
Англия 1
доче@@ 1
едва 1
Мати@@ 1
газ 1
Испа@@ 1
Шве@@ 1
сие 1
Форму@@ 1
am@@ 0.036135729274368374
орбит@@ 1
Виктория 1
ител@@ 1
лаго@@ 1
16,@@ 1
член@@ 1
ur@@ 0.0410591915085439
Тради@@ 1
50@@ 0.7683845966085133
сражение 1
забра@@ 1
казате@@ 1
нати@@ 1
летие 1
принц 1
Мех@@ 1
разруш@@ 1
Be@@ 0.06004481914954174
онлайн 1
5000 1
Q 0.419524302586779
Япония 1
просвет@@ 1
Маро@@ 1
горь@@ 1
фоку@@ 1
ad 0.07203337243211656
принцип 1
it 0.011177936351230038
w 0.09177886228951208
da 0.0358460951949463
навли@@ 1
хово 1
общин@@ 1
души 1
ключ@@ 1
1852 1
Квин@@ 1
Неа@@ 1
мла@@ 1
1820 0.8913412967599494
перь 1
ap@@ 0.047093260200904555
1842 1
Димит@@ 1
ie 0.030084878816108603
ul@@ 0.04193058909366523
люс 1
Пове@@ 1
дев 1
созы@@ 1
качество 1
страте@@ 1
Австра@@ 1
Край@@ 1
оча@@ 1
тях 1
доба@@ 1
маться 1
os 0.02240798091680166
ti@@ 0.03770528423572382
Франциско 1
1834 1
v 0.1073979088267582
IS@@ 0.309920318551511
Люксем@@ 1
Саму@@ 1
пример 1
февра@@ 1
одобре@@ 1
наши 1
слой 1
лице 1
граду@@ 1
Microsoft 0.8243775780174833
расте@@ 1
XX@@ 1
нс 1
бке 1
Испания 1
иска 1
доров 1
мили 1
социа@@ 1
Company 0.17091192985633538
возгла@@ 1
водосбор@@ 1
35@@ 0.9836713406722167
101 1
1814 1
Ж 1
Алжи@@ 1
хау@@ 1
хре@@ 1
мология 1
Образо@@ 1
1,2 1
115@@ 1
ina 0.060422918691351954
лост@@ 1
вий 1
ов@@ 1
блу@@ 1
One 0.12477794678474008
le@@ 0.04001103142245383
уд 1
размно@@ 1
гард 1
Гю@@ 1
1831 1
наб@@ 1
ec@@ 0.049848385304536044
мож@@ 1
хла@@ 1
Mar@@ 0.04345407345210736
председате@@ 1
цин 1
зови@@ 1
inae 1
ata 0.11496073181937955
певец 1
кор 1
Индоне@@ 1
ni@@ 0.06496309717273792
ам 1
Фили@@ 1
Андро@@ 1
марка 1
импер@@ 1
Апосто@@ 1
1838 1
Ун@@ 1
Лондо@@ 1
Вра@@ 1
склю@@ 1
отсе@@ 1
венство 1
Алба@@ 1
студент@@ 1
ent 0.017915591176619228
Швар@@ 1
Моск@@ 1
имену@@ 1
НАТО 1
Монте@@ 1
1836 1
благород@@ 1
124@@ 1
публику@@ 1
повтор@@ 1
My 0.3529469904827235
кен 1
дже 1
Леона@@ 1
скус@@ 1
льо 1
шо 1
вул@@ 1
фабрика 1
Am@@ 0.08062699237130445
En@@ 0.0874626026148984
ЦСКА 1
des 0.004241685063562399
деле@@ 1
1813 1
ag@@ 0.03207822053546026
племен@@ 1
преди@@ 1
западно@@ 1
1846 0.9991995312108185
AM@@ 0.4642697564970864
Берн@@ 1
Вероятно 1
албан@@ 1
эксплу@@ 1
Str@@ 0.0875966370553395
Япо@@ 1
трудно 1
ate 0.02113451838956283
Аг@@ 1
Амери@@ 1
декла@@ 1
450 1
age 0.025500818634843297
мити@@ 1
половина 1
дели 1
мур 1
ел 1
архипе@@ 1
ллю@@ 1
He@@ 0.09029505840078458
прими@@ 1
лита 1
фган@@ 1
била 1
st@@ 0.02476205248437018
Браун 1
чат 1
ститу@@ 1
Фре@@ 1
1851 0.9059596841840214
чета 1
em@@ 0.03780540029544122
Уин@@ 1
ферен@@ 1
хт 1
38@@ 1
Mon@@ 0.07449975106593268
1802 1
лем@@ 1
гр 1
1839 1
бей 1
na 0.06196488803316246
пр@@ 1
стот@@ 1
пое@@ 1
напра@@ 1
сков@@ 1
изви@@ 1
135 1
сар 1
лечение 1
1847 0.9670618687735598
хар 1
Социалистиче@@ 1
топ 1
1837 1
бани 1
Шек@@ 1
менно 1
нев 1
проник@@ 1
т.@@ 1
шков 1
Произве@@ 1
1828 1
сценарист 1
19,@@ 1
август 1
лищ@@ 1
ази@@ 1
дебют 1
ред 1
Преображен@@ 1
бара 1
СП 1
дера@@ 1
разу@@ 1
.com 0.5415616601128302
поток 1
бон 1
ор 1
Шарло@@ 1
Водо@@ 1
полиция 1
гара 1
102 1
Епи@@ 1
декс 1
29@@ 0.8460023747602059
сибир@@ 1
Br@@ 0.061095507787930825
залив 1
Роман@@ 1
man 0.030737692958593504
случаи 1
1826 1
Ново 1
драма 1
1845 0.9622774849668396
така 1
Аф@@ 1
бя 1
Рек@@ 1
критика 1
сово 1
плу@@ 1
Франци@@ 1
Адам 1
ma 0.07546206036952184
подно@@ 1
тет 1
рания 1
сара@@ 1
зел 1
ливо 1
Un@@ 0.09508455562490506
уса@@ 1
блиоте@@ 1
дене 1
кос 1
само 1
Di@@ 0.06589738146319299
подходя@@ 1
гиня 1
матери@@ 1
Анри 1
серь@@ 1
академия 1
ed@@ 0.04747579549340253
115 1
зас 1
партн@@ 1
шав@@ 1
най 0.6322805648935843
графство 1
жина 1
литература 1
мпе@@ 1
реду@@ 1
вмест@@ 1
il@@ 0.0394563256840426
сет 1
Санд@@ 1
пера@@ 1
коре@@ 1
lo@@ 0.03784582057389701
Col@@ 0.0730578078552489
7,5 1
1844 1
Air 0.15705287021693182
Синга@@ 1
хер@@ 1
Мило@@ 1
турне 1
городи@@ 1
Австро 1
гражданин 1
se 0.0068184036049850905
вино 1
Известен 1
километра 1
престо@@ 1
осад@@ 1
публикан@@ 1
лна 1
тово 1
регу@@ 1
1835 0.9943854498103252
1796 1
Ени@@ 1
Мек@@ 1
дизайн 1
Cor@@ 0.07166879580037659
фред 1
Адри@@ 1
тя 1
Родо@@ 1
остан@@ 1
GC 1
Основан 1
лум@@ 1
ES@@ 0.36479247181052915
лит 1
│ 0.40645524525759963
диза@@ 1
тания 1
адмирал 1
футбол 1
ква 1
вулка@@ 1
рие 1
Боли@@ 1
Pr@@ 0.07255509608523995
минист@@ 1
надле@@ 1
спира@@ 1
RA@@ 0.4272328064564168
1806 1
1832 1
Австралия 1
звук 1
видеокли@@ 1
марки@@ 1
1200 1
ro@@ 0.03665861713754454
1825 1
20,@@ 1
евро@@ 1
li@@ 0.035243874867932866
дем 1
архитек@@ 1
отстра@@ 1
Тя@@ 1
Хил@@ 1
тали@@ 1
1815 0.8758749605606231
чна 1
фол@@ 1
ini 0.11058323054187721
пости@@ 1
стие 1
Две 1
1817 1
Мори@@ 1
Ro@@ 0.08005840424093572
язви@@ 1
un@@ 0.01798324746772898
Бог 1
слабо 1
Кристиан 1
re@@ 0.00952220915697862
поколение 1
осуще@@ 1
пур 1
104 1
Август 1
1841 0.9730850017865668
Египет 1
зания 1
въ@@ 1
220 1
ensis 0.25429991076429265
рид 1
проби@@ 1
tr@@ 0.023336059844646262
рота 1
гот@@ 1
атаку@@ 1
прости@@ 1
22@@ 1
ели 1
шан 1
1810 1
стани@@ 1
керами@@ 1
і 1
In 0.00686240430698662
1843 0.9854020555760908
Mo@@ 0.0879696045265933
It 0.016793873011251386
Bo@@ 0.0840468992639315
Black 0.18460476260401962
мл@@ 1
1833 1
po@@ 0.036208396049978074
Цве@@ 1
1821 1
Пей@@ 1
ремо@@ 1
чувства 1
1805 1
Над 1
od@@ 0.06611868024541123
вани 1
льм 1
трене@@ 1
108 1
бета 1
деш 1
109 1
мунд 1
Коста 1
престола 1
парта@@ 1
толе@@ 1
изоли@@ 1
Георг 1
АТО 1
Си 1
цикло@@ 1
леп@@ 1
нелега@@ 1
яну@@ 1
CA@@ 0.29372391402973497
конвен@@ 1
свободно 1
акт 1
спря@@ 1
климат 1
Над@@ 1
Чо@@ 1
Дя@@ 1
нодорож@@ 1
Мора@@ 1
Se@@ 0.06266646016781693
York 0.04941654767262245
Inter@@ 0.10573837253985231
гство 1
оконча@@ 1
Live 0.36166454784006
Веро@@ 1
Ne@@ 0.06910924255073315
103 1
насо@@ 1
стато@@ 1
by 0.004530176321555051
мос 1
обща@@ 1
Венг@@ 1
уе@@ 1
ралле@@ 1
Стефан 1
носе@@ 1
попу@@ 1
входа 1
1795 1
мей 1
34@@ 1
упраж@@ 1
1807 1
лень@@ 1
шест@@ 1
1809 1
ято 1
гуа 1
ic 0.0370901307837666
Par@@ 0.059704638794653694
122 1
ат 1
45@@ 1
om 0.13951591173979772
Блан@@ 1
All 0.09459266113984421
37@@ 1
рено 1
бол 1
Or@@ 0.0718049833916411
Франц 1
106 1
ty 0.054270174301037664
ai 0.07246315809219858
герои 1
рица 1
Петер@@ 1
мала 1
шево 1
112 1
im@@ 0.02775671721554639
отка@@ 1
има@@ 1
Pro@@ 0.08379864675489025
Ан 1
1811 1
арда 1
оценка 1
югослав@@ 1
автомобили 1
120@@ 0.9817904373380719
PlayStation 0.9737429895732856
гина@@ 1
ници@@ 1
128 1
швей@@ 1
Life 0.20107221524192057
te 0.013395454428434674
onlyinclude 0.5422360926651578
популяри@@ 1
Gr@@ 0.05833723658914223
36@@ 1
American 0.0355552858413343
000@@ 1
Сало@@ 1
ab@@ 0.0202766778608576
сни 1
Индия 1
вло@@ 1
1,3 1
1827 1
вай 1
107 1
вал@@ 1
Lo@@ 0.08750272758749221
Архе@@ 1
рополи@@ 1
хер 1
чева 1
Великобрита@@ 1
км2 1
плато 1
to@@ 0.04665439634448643
Живо@@ 1
di@@ 0.02752588599327684
Обе@@ 1
метрах 1
Ge@@ 0.07745517182613143
Октя@@ 1
145 1
подобно 1
Либе@@ 1
джу@@ 1
Маргаре@@ 1
1816 1
что@@ 1
BBC 0.29114534297689587
употре@@ 1
1808 1
ляне 1
ka 0.07687303729438283
дале@@ 1
1793 1
вале@@ 1
Time 0.3217982523726473
Франческо 1
кото@@ 1
ir@@ 0.035785472065317944
ФА 1
подготовка 1
Вис@@ 1
биз@@ 1
цио 1
33@@ 0.9442743668999121
Белору@@ 1
und 0.0029133068070305405
пови@@ 1
ьор@@ 1
Лау@@ 1
ваку@@ 1
защита 1
ant 0.017157774677783198
360 0.9640563794505022
администрация 1
1,6 1
1824 1
Австрия 1
YouTube 0.640619152361077
Мадри@@ 1
зена 1
защити@@ 1
Сел@@ 1
AC@@ 0.25156714156921284
Rock 0.24532028034691863
фек@@ 1
→ 1
Корея 1
средство 1
скоро 1
us@@ 0.038481423599651586
ето 1
рест@@ 1
Ad@@ 0.0871398284157854
1792 1
ity 0.03473958467800761
Marvel 0.9252566014399697
сфера 1
хор 1
гас 1
119@@ 1
Кост@@ 1
111 1
бана 1
хтен@@ 1
КА 1
48@@ 1
5,5 1
ance 0.03688275185450612
нара@@ 1
дисци@@ 1
ale 0.031454187241465766
Te@@ 0.11154553835036234
est 0.005124118592479572
документ 1
Ной@@ 1
Ac@@ 0.0958742651753076
стота 1
рите 1
100@@ 1
ea 0.10554663834487563
цер 1
чисто 1
60@@ 0.7245097104421211
Саксо@@ 1
евреи 1
Северо@@ 1
Бог@@ 1
имено@@ 1
0.@@ 0.14862204349566657
жия 1
преки 1
1803 1
240 1
Карлос 1
повторно 1
24,@@ 1
1823 1
обособ@@ 1
монт 1
PC 0.3965437810339261
1790 1
бат 1
маг@@ 1
поги@@ 1
шир@@ 1
Америка 1
Еле@@ 1
ял 1
зидент@@ 1
брь@@ 1
разделена 1
важно 1
свети@@ 1
152 1
сбург 1
едо@@ 1
Малай@@ 1
Марко 1
Зиг@@ 1
ell 0.060329031232341866
племена 1
сус 1
HD 0.7184032841532472
изби@@ 1
25,@@ 1
опера 1
София 1
1818 0.9693646077550581
1797 1
Google 0.647219920648341
1822 1
царство 1
Ся@@ 1
останки 1
1,8 1
Или@@ 1
революцио@@ 1
Независи@@ 1
1784 1
дово 1
og@@ 0.06828174552100162
ref 0.496105728629673
1819 1
нст 1
кис 1
менена 1
1780 1
ученик 1
Ma@@ 0.07866010090163189
кара 1
ri@@ 0.041417048908764076
пояс 1
Попу@@ 1
нау 1
” 0.039683749867325153
127 1
Колумбия 1
публики 1
114 1
Пала@@ 1
Ы@@ 1
Нобе@@ 1
1801 1
рино 1
Лом@@ 1
ов 1
750 1
трети 1
AT@@ 0.34988745092993345
Фердина@@ 1
1,4 1
пота@@ 1
птица 1
Брат 1
депу@@ 1
Петров 1
Локомотив 1
стор 1
лм 1
приш@@ 1
чак 1
1804 1
Corporation 0.2919678618609884
хри@@ 1
брони@@ 1
align 0.40687714353033205
еро 1
поли 1
зани@@ 1
COVID 0.37935821498500844
MTV 0.7502859586387397
Ели@@ 1
Швеция 1
револю@@ 1
продукт 1
ak@@ 0.04051370961947167
190 1
Постро@@ 1
философи@@ 1
фирма 1
кономиче@@ 1
118@@ 1
116 1
id 0.06269877444565021
Турция 1
124 1
лива 1
CO@@ 0.29550223298057005
дума 1
Швейцария 1
co@@ 0.02485370557435441
рка 1
IN@@ 0.2973931628611519
em 0.05916078699771911
зате@@ 1
комедия 1
нападение 1
пей@@ 1
сберг 1
Club 0.08306674956814707
di 0.07781696355351288
39@@ 1
приложения 1
Много 1
оно@@ 1
1799 1
Гай 1
гане 1
son 0.01034055607791192
si@@ 0.03886284087525654
Уо@@ 1
ER@@ 0.3150800453628397
ter@@ 0.032782608252613726
прияте@@ 1
1782 1
126 1
á@@ 0.06003493729455921
двигатели 1
Прод@@ 1
наше@@ 1
резуль@@ 1
3D 0.6359720290696439
идентифици@@ 1
сцена 1
глас 1
революция 1
DC 0.3225363480448851
губерна@@ 1
j 0.15775362740357787
мото 1
Каролина 1
произведен 1
Apple 0.6072945780230682
лип@@ 1
{ 0.34569012263790133
Флорида 1
113 1
Иран 1
Конго 1
Иск@@ 1
qu@@ 0.02763217719992557
мито@@ 1
мит 1
1794 1
Попов 1
1798 1
Studios 0.45137582614317706
117 1
инструмент 1
невро@@ 1
vi@@ 0.04318621327955634
Airlines 0.7596986906044166
смя@@ 1
ig@@ 0.036397458988999015
Зам@@ 1
бул 1
FI@@ 0.31280506626092264
Семей@@ 1
день@@ 1
Те 1
практика 1
проб@@ 1
1.0@@ 1
Red 0.150652694602447
114@@ 1
ite 0.03962920475901509
6,5 1
yr@@ 0.13054542597222665
Do@@ 0.1381149261919477
155 1
Man 0.16432092865803125
гвар@@ 1
ard 0.05060093592307013
Nintendo 0.7804714741452441
случая 1
Ph@@ 0.10836376948365763
рад 1
ella 0.08861865744273223
Cre@@ 0.14880524568962186
RE@@ 0.39242715947000145
68@@ 1
26,@@ 1
реакция 1
1783 1
23,@@ 1
ес 1
22,@@ 1
йно 1
550 1
27,@@ 1
230 1
55@@ 1
Open 0.18824826127078814
Виз@@ 1
1600 1
ak 0.057132144422814425
освобожда@@ 1
No 0.14427012060442232
сним@@ 1
Хон@@ 1
WWE 0.7232563492993979
65@@ 1
хора 1
For@@ 0.06826874241986063
Кате@@ 1
Boeing 0.9155059258106423
Fe@@ 0.14598746936003504
Церков@@ 1
210 1
Sony 0.7028599662047428
пена 1
гария 1
мил 1
ol 0.06304472183907354
Ver@@ 0.024382069403365236
пал@@ 1
AC 0.21969793094591447
un 0.003739738300478479
Top 0.22843571310052793
70@@ 0.8296965196598907
лимпи@@ 1
подар@@ 1
Зав@@ 1
Вел@@ 1
ts 0.018059437218602804
вза@@ 1
Европа 1
4000 1
Me@@ 0.059247756929752864
СС@@ 1
мь@@ 1
пилот 1
Административно 1
121 1
123 1
СМ@@ 1
117@@ 1
ver@@ 0.013581040528685289
era 0.027449523214854204
висо@@ 1
столица 1
· 0.048222325001517505
Games 0.17946832616006242
eb@@ 0.04501347808430018
Бразилия 1
нация 1
Per@@ 0.05334457862258194
poem 0.5039051003205613
Мада@@ 1
Дит@@ 1
Linux 0.9191308119963432
нея 1
li 0.12784422590478584
46@@ 1
македон@@ 1
ler 0.03401053951891999
Award 0.10271951436977597
ci@@ 0.04003737467750371
Sol@@ 0.10541962665808319
Анге@@ 1
mo@@ 0.04013248016350952
Tour 0.12816450480414848
ton 0.03049941137387023
конфли@@ 1
кипа@@ 1
28,@@ 1
USD 0.8983915196802679
320 1
47@@ 1
IM@@ 0.39776386531818814
MA 0.33383838112852304
av@@ 0.03822226552383757
um@@ 0.030525689971916195
Й 1
ight 0.12599388569239278
кампания 1
Dis@@ 0.1199167435586282
лят 1
Касте@@ 1
Bank 0.18914374275700024
0,1 1
скуль@@ 1
подкреп@@ 1
no 0.015799101810271353
варя 1
держит 1
ay 0.04662007641363101
El@@ 0.050080130515628166
ориен@@ 1
гава 1
HMS 0.6405811893919818
паша 1
Украи@@ 1
1770 1
Media 0.24391766777949042
re 0.02721059968261849
Йозеф 1
понен@@ 1
1,7 1
Рейн 1
21,@@ 1
116@@ 1
ator 0.06263601031683567
SA@@ 0.2627560584209385
Star 0.17421732684390115
ce 0.021614820461821043
Уз@@ 1
кратно 1
Твор@@ 1
no@@ 0.051182232835466336
физика 1
рез 1
are 0.007665507669760202
2,4 1
Super 0.19478285958182756
Rolling 0.7934358865504968
1789 0.8645892245969174
Фил@@ 1
ov@@ 0.059882193153382265
наследство 1
Game 0.2765536355046276
Вирджи@@ 1
нах@@ 1
Radio 0.15411994279612587
Фол@@ 1
ens 0.024206703389916782
Man@@ 0.057850727172765896
Cl@@ 0.11111490543416704
1791 1
18@@ 0.4710568221271623
2,3 1
154 1
кава 1
федерация 1
фектив@@ 1
конференция 1
линко@@ 1
ent@@ 0.021852943776800877
включен 1
степенно 1
хослова@@ 1
ons 0.026732153813785325
чени 1
поне@@ 1
катего@@ 1
1700 1
Брази@@ 1
йе@@ 1
As@@ 0.07035035758173507
175 1
113@@ 1
Максимили@@ 1
Близ@@ 1
теми 1
Лим@@ 1
Hol@@ 0.09220752221594632
sh@@ 0.024849586730045847
118 1
Дуна@@ 1
конку@@ 1
еги@@ 1
134 1
44@@ 1
1,1 1
131 1
132 1
Фердинанд 1
IP 0.5307093936774055
Sch@@ 0.02141825136035569
ob@@ 0.042388195455972597
между@@ 1
хайм 1
De 0.05336759980250067
Балкан@@ 1
зова@@ 1
отбора 1
награда 1
Sim@@ 0.12806171927449014
1775 1
Цари@@ 1
Дре@@ 1
исторически 1
рани 1
ut@@ 0.04527721918847796
Pol@@ 0.08709680626096923
дят 1
Stone 0.3629318913417508
per@@ 0.023869041044905212
ot 0.06313219606077795
отраз@@ 1
положен 1
So@@ 0.08249058752940738
Трен@@ 1
Мадрид 1
традиция 1
CD@@ 0.2695391138430055
ik@@ 0.040266258667806705
ous 0.029886995973669356
океан 1
City 0.0425183297024227
650 1
ans 0.01985664562114917
AD@@ 0.33428060905956736
зиди@@ 1
фигура 1
co 0.04757893846550784
чуж@@ 1
ber@@ 0.03476987948253535
AN@@ 0.2792421063593091
тук 1
News 0.24177989760091453
Le 0.012380438281588147
памя@@ 1
165 1
теше@@ 1
ly 0.02112619651360046
129 1
СКА 1
наимено@@ 1
SP@@ 0.327053116717379
Бавария 1
colspan 0.4132646755794607
Армения 1
de@@ 0.01979102037244214
NE@@ 0.43372136411101114
pi@@ 0.048606588562723506
рум 1
ел@@ 1
Хот@@ 1
1774 1
деля 1
риал@@ 1
0,3 1
зап@@ 1
eg@@ 0.035746908179804304
IC@@ 0.24779807744604546
Li@@ 0.07882000287863905
Po@@ 0.0673945989634312
280 1
ing@@ 0.041028857243096926
SA 0.2369468301705367
Браун@@ 1
BA 0.3372917842179566
ne 0.018622765265467696
RI@@ 0.4229501409958436
Локо@@ 1
1787 1
29,@@ 1
EP 0.2339358092892505
IB@@ 0.9929476426678954
регистри@@ 1
сектор 1
ема 1
нта 1
atus 0.1999863044154976
Освобо@@ 1
ST@@ 0.3592888456026434
атака 1
фал@@ 1
диалект 1
середи@@ 1
0,2 1
IT@@ 0.4605833918162649
духа 1
безо@@ 1
полуостров 1
небе@@ 1
MS 0.30497764537268596
Теодор 1
стена 1
Blue 0.21277341294981525
CG 1
bi@@ 0.030504368234986607
pl@@ 0.0260435516551353
2,2 1
Co 0.2739320514810954
Die 0.008602442576604415
SS 0.21595983968867896
отбор 1
US@@ 0.1699684023586816
Радо@@ 1
рожден@@ 1
Bre@@ 0.08981607032760841
Бава@@ 1
National 0.030807064387106807
Ste@@ 0.09194591712683699
59@@ 1
Наполеон 1
Луиза 1
многократно 1
Disney 0.3140068253883107
Mc@@ 0.04769631413312075
Vol@@ 0.105302228646991
маршал 1
ach@@ 0.03505322933612924
8,5 1
http 1
Sc@@ 0.1239281865674703
Mac@@ 0.08852439284697813
Лига 1
огла@@ 1
133 1
43@@ 1
Bl@@ 0.08741673347857708
хок@@ 1
Mor@@ 0.04746393243953938
рида 1
млн. 1
вис@@ 1
Team 0.11797364665300517
ra 0.03169260028692074
ings 0.029155261879594732
фюр@@ 1
снение 1
1788 1
зв@@ 1
Bar@@ 0.03693117086770023
Анг@@ 1
136 1
144 1
9,5 1
style 0.07396393908134244
Tri@@ 0.0874405638981715
260 1
SE@@ 0.23461796801928494
НС 1
Ел@@ 1
карта 1
шру@@ 1
ML@@ 0.3931985253119489
фен 1
3,6 1
Min@@ 0.07476854846868253
137 1
бре 1
~ 0.6984980163247342
les 0.004095239731084304
1785 1
141 1
ics 0.05016437854099247
зале@@ 1
Азия 1
наука 1
Оу@@ 1
клон 1
гел 1
Mercedes 0.6912016271917821
UK 0.1091765444718103
лек 1
2500 1
Is 0.2971745750214775
1764 1
270 1
119 1
ru@@ 0.045195852085632954
рел 1
Сли@@ 1
BC 0.1745406912196036
380 1
AT 0.4087906350148072
land 0.024820825448836265
ранг 1
Ford 0.2565270994340058
58@@ 1
плавате@@ 1
q 0.16952800143679178
90@@ 0.8051934030402256
ure 0.03233536150969208
Night 0.27508815990451746
MP@@ 0.3400751754880499
ks 0.027564390717596803
2,6 1
Can@@ 0.09567297150564714
ki 0.08201134835427311
рали 1
Xbox 0.9691182873224401
县 0.16705271232828067
0,6 1
цате@@ 1
1781 1
th 0.026627630450842838
US 0.039062921145038655
проти@@ 1
Свер@@ 1
лиза 1
слад@@ 1
Hy@@ 0.15145256445025795
ore 0.05264168249330528
My@@ 0.19197365778106243
ok@@ 0.06340322902335245
Ню@@ 1
Journal 0.24018841853051798
On 0.01683354570539665
201 1
СР 1
alis 0.25710805370521667
201@@ 0.6707272977872899
вят 1
Заслу@@ 1
110@@ 1
Саксония 1
ne@@ 0.03406023669817832
www.@@ 0.7362805802904944
1778 1
Er@@ 0.02889681491346239
AP@@ 0.264810053141085
взи@@ 1
15.@@ 0.644877691370598
Коле@@ 1
Your 0.3958914502937726
барди@@ 1
par@@ 0.019250277064550007
A.@@ 0.24887032502987302
ико@@ 1
School 0.03391741693559383
гент 1
автом@@ 1
даго@@ 1
ā@@ 0.11039856070136769
Pictures 0.541484583126816
142 1
Ag@@ 0.08992792296560381
Pi@@ 0.07321513034954118
ker 0.05225204065212341
Формула 1
ca 0.05907301514495888
149 1
Gu@@ 0.0476634521148783
мерикан@@ 1
династи@@ 1
Хел@@ 1
br@@ 0.023697112956159647
Pro 0.25955400587802796
тени 1
AG 0.25025280460609817
DE@@ 0.3329897676473246
SO@@ 0.3296340102314832
q@@ 0.11843131825739533
2,7 1
330 1
формата 1
ys 0.08468620897224925
AB@@ 0.3252780930723848
56@@ 1
Su@@ 0.071683696235091
se@@ 0.02088106878852066
два@@ 1
ti 0.0781555877970942
виг 1
146 1
49@@ 0.6735813686693668
приложение 1
ati@@ 0.038771930208588164
Big 0.14766932983067485
Bi@@ 0.06218434889982496
do 0.025201100765931225
ley 0.0336881932321521
SS@@ 0.43501486572717685
53@@ 1
Sonic 1
Street 0.06947695301670714
вестник 1
To@@ 0.09734784586193278
Адриа@@ 1
лите 0.7423987996058016
tra 0.09634090279337101
ó@@ 0.05827137951541384
1300 1
зидиума 1
Inc 1
Френ@@ 1
ue 0.04305266423115756
Of 0.21473603691554033
Go@@ 0.08118676496553076
67@@ 1
ence 0.029950943314484058
14.@@ 0.5376745412413123
UN@@ 0.22335486291212156
138 1
du 0.003874899202924061
3,2 1
als 0.005780740212861477
консул 1
стове 1
RO@@ 0.37091680526848814
AN 0.36130650296452166
эксп@@ 1
Star@@ 0.15954517826362205
ото 1
ise 0.026077748529908906
148 1
AS 0.2447918474955385
визия 1
Wor@@ 0.09628374094731408
2,8 1
ino 0.042441502578313216
макси@@ 1
0,8 1
1776 0.9845937846248894
be 0.006617701996630099
шава 1
139 1
квартал 1
1773 1
151 1
aceae 0.14573328474933034
лива@@ 1
ә@@ 1
госу@@ 1
спери@@ 1
фрид 1
Fox 0.24473668817412383
so@@ 0.03410756037161668
ade 0.04785018410548
ke 0.03506281735291937
НАС@@ 1
ion 0.05812907199285969
Hal@@ 0.10080773339850861
даря 1
ist 0.005395753054642584
20.@@ 0.6989592847815002
aw@@ 0.049384071327218074
РК@@ 1
} 0.28180706924076476
Гене@@ 1
‘ 0.1237000135844811
ps 0.05518310043627463
ick 0.056180849447968494
ters 0.043286146722246004
FM 0.20419742120763787
ah 0.04873687957040374
Швей@@ 1
н.@@ 1
гау 1
UFC 0.9886924964766116
президен@@ 1
den 0.003841243185094998
патриарх 1
War@@ 0.10297373039251478
147 1
Best 0.10654872063835968
варе 1
среда 1
com@@ 0.028218331051700195
区 0.12623334782888027
143 1
ess 0.0391510950405028
лайн 1
with 0.0025661133196621566
pr@@ 0.026822981556531924
ge 0.027637785318662504
Норвегия 1
1772 1
IC 0.3355426278968142
карь@@ 1
РО 1
долина 1
do@@ 0.04989974020904964
System 0.16524250005230398
,@@ 1
6000 1
AL@@ 0.3099169043129785
1786 1
тре 1
ja 0.06748063660685015
α 0.17444551975044323
Bur@@ 0.05944026288365335
Res@@ 0.08857571794363103
ack 0.08539470473295546
причина 1
Up 0.3187321625721596
me 0.03310280415231451
203 1
3,3 1
me@@ 0.03771130983766648
ave 0.12675911407897977
1779 1
Out 0.31509653589721
185 1
Grand 0.06957198937480372
2,1 1
Tur@@ 0.08247298743696346
ick@@ 0.060271207780019674
нически 1
156 1
почи@@ 1
name 0.02659176071246685
Fl@@ 0.054034164148322246
0,4 1
13.@@ 0.4680414868816559
Op@@ 0.11506012325565995
1,9 1
Африка 1
щите 1
VI@@ 0.37029665682045043
ия 1
256 1
Art 0.06688146231509999
воде@@ 1
копия 1
хаузен 1
Хайн@@ 1
Comics 0.4723321197242767
ical 0.031964272343558066
Pe@@ 0.07955617601904248
Super@@ 0.1351092235317029
CH@@ 0.2691658397121237
1768 1
MI@@ 0.4212754413284588
ath@@ 0.05370559338896941
225 1
1100 1
im 0.00470696955571811
io 0.05107881131004568
DS 0.34037096467442174
sp@@ 0.025540736706582287
64@@ 1
Хит@@ 1
Video 0.3304181415157967
Her@@ 0.04818913902284321
st 0.030878039444836334
Mus@@ 0.07877910671025416
bl@@ 0.032967972831966334
спира 1
сериал@@ 1
нио 1
ys@@ 0.08110830917907047
No@@ 0.12001982503185972
ology 0.0496716050030727
153 1
te@@ 0.026427827108293108
é 0.008106056256058439
Конрад 1
PS 0.2282640702607869
17.@@ 0.6017414649923413
Go 0.3581535278997075
отно@@ 1
All@@ 0.1513069467827256
63@@ 1
ist@@ 0.04247409543466761
Ханс 1
oph@@ 0.09287128772195945
категория 1
реж@@ 1
1777 1
\ 0.4121567982997046
писатели 1
ya 0.021376820361816533
Дания 1
ou@@ 0.027219680284779287
Ирландия 1
Android 0.8138695748923291
лиан@@ 1
end@@ 0.02760983465189777
специ@@ 1
206 1
Studio 0.3276366684023015
Dr@@ 0.0824523178894096
ə@@ 1
бите 1
30,@@ 1
атова 1
отво@@ 1
Warner 0.39204021641050774
88@@ 1
Sw@@ 0.12655457802811768
Поб@@ 1
We 0.16688455262310803
IBM 0.6398648516963837
az@@ 0.040495899691064104
1400 1
Баден 1
Ab@@ 0.02262213237953771
22.@@ 0.7032071994829925
con@@ 0.015810626684204875
Христос 1
Day 0.1258510931307817
1763 1
205 1
ell@@ 0.035231490900858524
лва 1
ting 0.02417910469451391
za 0.05006717536297245
1762 1
167 1
Sun 0.2049659192292857
pe@@ 0.036842562622378255
3,4 1
Im@@ 0.08107457491216662
Mer@@ 0.06310504620911694
ATP 0.4560600551514461
and@@ 0.03258845404686347
тев 1
222 1
ire 0.0426708489136646
ner 0.028587735078485523
University 0.018657970552378212
ones 0.044365918698300415
архитектура 1
AA 0.22119151075532298
1760 1
дове 1
168 1
Songs 0.3291578914261377
повя@@ 1
162 1
bo@@ 0.02703231461724144
ma@@ 0.04247929082856775
ABC 0.31256325442048155
RS 0.3550570970340216
кала@@ 1
sa 0.014742902316003486
Don 0.13977166994116508
color 0.12092458513700452
hi@@ 0.045733798158832085
tic 0.04279797573162384
атмо@@ 1
Rec@@ 0.07995298800503134
авгу@@ 1
химия 1
ч. 1
Ltd 0.38639728314518906
Gen@@ 0.07532774572309964
ax 0.24856295519799798
Cy@@ 0.14254900136468532
зно 1
19.@@ 0.651135628666605
мотив 1
Network 0.22997641546221514
Vi@@ 0.08278255961312919
UTC 0.7001405462688504
венту@@ 1
S.@@ 0.2513932211478762
щица 1
TE@@ 0.31094667063141346
стент 1
ant@@ 0.03522590924150213
Mag@@ 0.07766724796419479
sch@@ 0.01600189644658108
гори 1
Es@@ 0.06554188369840967
тове 1
NO@@ 0.3459322989457993
ill@@ 0.032650704114125906
Ap@@ 0.0845501915648901
159 1
33,@@ 1
57@@ 0.9394902320247367
173 1
результат@@ 1
une 0.004672764372284558
бассе@@ 1
Sho@@ 0.170759488844943
цки 1
é@@ 0.015399559026387198
здра@@ 1
202 1
ex@@ 0.015916024651862017
ѣ@@ 1
вения 1
Boy 0.3393712489302837
философия 1
America 0.0661511365379439
сор 1
gr@@ 0.020422189238124076
Benz 1
King 0.05850416487235736
172 1
75@@ 0.7600040856971682
Мюнхен 1
хен 1
yl@@ 0.0647864482441452
Open@@ 0.5235291665180197
To 0.097584857854768
свобода 1
We@@ 0.05665767823484117
произвед@@ 1
300@@ 1
Magazine 0.27627059029849826
Por@@ 0.08565018822334214
ken 0.03394030780694968
итуа@@ 1
1740 1
Beatles 0.6790032278583463
ep@@ 0.040151358380968574
per 0.031110913257009366
163 1
ey 0.044467994303943575
Press 0.22177023281520017
ect 0.056690531180371054
su@@ 0.024124869373442683
Mel@@ 0.08445483717254927
https 0.9201520727083159
Chart 0.37888291727192125
династия 1
β 0.5163086923000715
Space 0.2694871033446026
Pan@@ 0.08937772308242224
21.@@ 0.6594957036124182
und@@ 0.04156237119393611
Intel 1
Ser@@ 0.05399227408302408
огро@@ 1
tic@@ 0.05793115218812811
Луций 1
Изда@@ 1
18.@@ 0.5804675868216225
ary 0.018964191846396545
John 0.02151346852054278
WTA 0.9397847984187945
етнам 1
чете 1
74@@ 1
Mot@@ 0.10920710635867362
166 1
Des@@ 0.07588307940841454
чни 0.8517040849551004
il 0.0061768619719275285
tu@@ 0.03963912262746993
Косово 1
General 0.04364026875064821
Be 0.398979619334619
ho@@ 0.03635300628460069
Гео@@ 1
204 1
1771 1
340 1
China 0.05856328466229478
for@@ 0.023405056854406026
16.@@ 0.5131301524662784
нове 1
йни 1
кит@@ 1
161 1
Trans@@ 0.0753497154930293
ab 0.026647626286209872
плоть 1
вено 1
1750 0.9224147069687679
Digital 0.37615634650461466
LC 0.38347343982436766
ake 0.07303803007818446
end 0.016279137205867402
158 1
Sega 1
tor 0.04193535045866235
157 1
Cal@@ 0.05400242984242248
кула 1
164 1
ang@@ 0.025507678734939292
IP@@ 0.431256161883652
IR@@ 0.6319319227565324
ora 0.0594775786381543
сажи@@ 1
Хю@@ 1
½ 0.9210068392750007
all 0.011033167236162043
гвай 1
Metacritic 0.9337760818821376
Del@@ 0.10272181177557432
yp@@ 0.109889053890138
ens@@ 0.024350303802099044
ura 0.06631847422753517
ur 0.038343383097513714
Har@@ 0.04828921670479894
SM 0.4383802241636042
Народно 1
House 0.04553654802831788
ong 0.04155143883708955
ISBN 1
Tel@@ 0.13939295101891297
CE@@ 0.23708877038608134
алистиче@@ 1
ari@@ 0.044510578652817934
миш@@ 1
Симе@@ 1
Series 0.12346892108843885
ory 0.05319931032651262
Fr@@ 0.05683461755630546
Global 0.2960584147891262
буди@@ 1
ok 0.09566536679861294
ano 0.026836294112304603
гимназия 1
ела 1
± 1
Осве@@ 1
36,@@ 1
тези 0.9809022731967378
176 1
211 1
Прага 1
Cas@@ 0.058764162155376935
Ho@@ 0.06722432502056624
ile 0.02506951253051958
Gam@@ 0.3035013612729695
Mat@@ 0.06814571052986088
PS@@ 0.2557320207007924
tion 0.019676834718950802
30.@@ 0.8599749286325244
Rem@@ 0.15097665523727566
Ros@@ 0.06412699088213149
AI@@ 0.2671146146694241
Ri@@ 0.05890016497802434
набро@@ 1
Play@@ 0.1402266756230783
mi@@ 0.039039270487740835
š@@ 0.0957980723887575
ena 0.05270757552456708
Поп@@ 1
25.@@ 0.6612713489474026
стихот@@ 1
Show 0.15075943017337884
High 0.05410606842412849
Bal@@ 0.054721073446134194
шат 1
RT@@ 0.3166138507864989
Почто@@ 1
Daily 0.3489396871440742
die 0.0017068398904878197
AM 0.21383302348116598
Pre@@ 0.06899324428047544
1730 1
бище 1
195 1
AL 0.3814143632786961
del 0.0036253752635767166
Universal 0.3414641609109376
ISO 0.6362955441364738
be@@ 0.011876397593830943
новь 1
дация 1
Post 0.14975892822035666
192 1
48,@@ 1
ow@@ 0.043617062719787214
ł@@ 0.11801796748739873
Facebook 0.4621493879014411
low 0.049273151415722936
23.@@ 0.5879345684634518
Sur@@ 0.0842261282618056
чево 1
Av@@ 0.09908817136673327
1765 1
af@@ 0.026572555894809727
178 1
MC 0.3314464489434815
FC 0.0549741032577822
Чика@@ 1
310 1
трона 1
Game@@ 0.6144335894081099
Венеция 1
мирович 1
Wrestling 0.29944204381288764
гласно 1
загла@@ 1
Сил@@ 1
35,@@ 1
This 0.014719685242648259
212 1
850 1
47,@@ 1
средо@@ 1
MS@@ 0.37083075992690645
беле@@ 1
Power 0.20350664074281793
близки 1
A. 0.06790445454831812
Ber@@ 0.03217578822604717
54@@ 0.9359620691125524
1769 1
дол 1
que 0.0021289774415680527
174 1
ev@@ 0.03141154313754488
la@@ 0.052322491550383925
гради@@ 1
Bel@@ 0.0359053474903524
Ь@@ 1
Park 0.04239595595135143
183 1
专@@ 0.47882308174579474
Mas@@ 0.06428190320001533
Rotten 0.8789823095399645
GP@@ 0.5070838435787908
78@@ 1
1648 1
CA 0.20356902712096678
Film 0.04912693324537421
Country 0.21514890739332185
from 0.002767894644231138
Fo@@ 0.10965196075464478
бата 1
182 1
Чем@@ 1
Хаб@@ 1
tri@@ 0.03106453329687844
215 1
бестсел@@ 1
able 0.014051503731706041
ated 0.009012759670773562
001 1
420 1
определена 1
TA 0.23995043335319097
dr@@ 0.02556085867809026
CI@@ 0.25041403649667354
305 1
White 0.08047688863764274
Бя@@ 1
171 1
ex 0.09941513253544083
основа 1
ї@@ 1
El 0.008988726804343967
Укра@@ 1
ватия 1
169 1
ni 0.05271166677542237
left 0.035531504019392444
1710 1
Center 0.06690522888321869
Югославия 1
66@@ 0.9925411010626027
32@@ 1
text 0.13177598617028263
Португалия 1
193 1
Line 0.11975963084426287
няко@@ 1
What 0.24418130220833756
background 0.19299812158178767
Pl@@ 0.05013243244927687
І@@ 1
ette 0.034982791813903416
графиня 1
ff@@ 0.046691495652061814
28.@@ 0.6909907425884804
AR 0.3038793117361238
ash 0.0968805660718803
ek@@ 0.03322432823203998
38,@@ 1
mar@@ 0.017628788286907504
gi@@ 0.029851848639001838
Band 0.08561186085066909
oth@@ 0.0743987463985798
ib@@ 0.05537941323525476
der@@ 0.025453237457372498
янов 1
Eur@@ 0.18303888009461
if@@ 0.037507634557066495
Prot@@ 0.10786179021608042
235 1
Dance 0.2898113570956606
osa 0.06880179327146768
27.@@ 0.6417781774866858
Tomatoes 0.9409175784571696
Val@@ 0.056452410029023695
Mir@@ 0.10924107178921523
оси@@ 1
Ni@@ 0.07500220249241918
BS 0.25196956438516005
куро@@ 1
CP 0.4013361368429164
United 0.015066762885810157
разрабо@@ 1
lu@@ 0.04112119553017305
1767 1
Свето@@ 1
208 1
dia 0.09503288805807751
Дел@@ 1
маха@@ 1
истре@@ 1
Express 0.2649938401500991
Община 1
dy 0.08048503580802657
col@@ 0.022498530685152406
DJ 0.2921901516412725
od 0.09649776741954628
26.@@ 0.6255897710312863
Championship 0.06059802295711984
ay@@ 0.02923668896878909
Ен@@ 1
cor@@ 0.031155446654642843
бря 1
king 0.036931677159569444
ir 0.024142730392328813
177 1
Ul@@ 0.09800605198227673
фурт 1
uc@@ 0.05154346305455923
49,@@ 1
Eng@@ 0.11657410356104499
Science 0.10626630918445673
Reg@@ 0.0400185033610679
a.@@ 0.3423738908073577
Кул@@ 1
69@@ 1
нати 1
пролет@@ 1
стически 1
ates 0.020441102483675627
ei 0.07836553356812913
Зал@@ 1
лени 1
orum 0.3163267561177522
статистика 1
соф@@ 1
ess@@ 0.028384559154658186
1660 0.9998508561420213
£ 0.1312616992483942
34,@@ 1
24.@@ 0.5864252726607454
Final 0.15319806105384687
au 0.004525147159019292
Royal 0.048961099782797786
чини 1
46,@@ 1
yc@@ 0.11383102677552892
ko@@ 0.0859396181271536
CBS 0.30573994887653744
DA 0.2736688164905257
NBC 0.3152198195401694
Forbes 0.6796785423326154
Dead 0.3684714675316648
sk@@ 0.042192033140911536
1758 1
str@@ 0.023426395884650973
ala 0.04837756340677703
ү@@ 1
way 0.02380251256295264
1720 1
188 1
Si@@ 0.07042188250406382
жна 1
ice 0.035199247104937444
ara 0.03987384314888755
tor@@ 0.028094602884620123
Fre@@ 0.041831865843008915
Само 1
enti@@ 0.03336302801649137
ors 0.018093212763053368
€ 0.32236337379917435
1766 1
ations 0.01051126027133828
iz@@ 0.027517346037210722
29.@@ 0.7026943113011123
au@@ 0.021132245884789003
Sal@@ 0.04083542365744471
1654 1
370 1
муску@@ 1
CC 0.23194689466733542
Филип 1
410 1
бик 1
лта 1
cu@@ 0.027476459160175437
ere 0.029203907864278896
RT 0.3218602923255883
Racing 0.23455527486564764
Gi@@ 0.061291960803165305
290 1
лектри@@ 1
ленбург 1
Kar@@ 0.036505095072741175
1727 1
ola 0.07886754437146516
Aer@@ 0.2523493964450023
si 0.03559088642293167
ME 0.47160378506349265
illa 0.06631581791916372
ML 0.549995018849034
1676 1
Bad 0.1716481802714956
196 1
1761 1
186 1
удов@@ 1
наследник 1
гато 1
1756 1
von 0.0025331105299892026
CO 0.3418689514450238
Ferrari 0.5047778557114214
Hel@@ 0.08322847091908313
† 0.05163271810317062
Fantasy 0.6282927230610902
Software 0.3803328899229852
net 0.08752048090934009
CC@@ 0.2223347251706182
спеди@@ 1
ac 0.062185368543684505
184 1
скет@@ 1
Tor@@ 0.05393383172081009
ain 0.03651891784709182
ain@@ 0.04686981729015894
пизо@@ 1
Cup 0.03622671351742489
TV@@ 0.25737390599722754
ning 0.04418754926279989
ill 0.07137328592485848
─ 0.37022320100099376
MO@@ 0.3386453873850252
out 0.012032427132916121
181 1
217 1
ните 0.11794231712200681
eh@@ 0.02762653904384512
icus 0.30269733992249054
Sk@@ 0.11819458905818213
Ti@@ 0.0713356724539611
yn@@ 0.0664667643148007
187 1
Festival 0.060859977707198594
ast 0.06266710157399996
1708 1
брехт 1
ge@@ 0.014466274978215428
вя 1
214 1
ace@@ 0.11749917094641263
ales 0.01565195040882408
ida 0.034275972517018895
AP 0.23672186618652993
врата 1
Дина@@ 1
купа 1
Mi@@ 0.07652582091943343
TS 0.3542264468108107
дирек@@ 1
Boys 0.25294645517411357
Les 0.013244671521274879
ike 0.1114685824069308
скар 1
RC 0.22651581839291293
ta@@ 0.050159270406380733
TO@@ 0.43757291160198264
Home 0.14734293615779345
time 0.008843510388372508
32,@@ 1
Albums 0.33409162971587764
Death 0.1699192728237144
ьор 1
ten@@ 0.01943795673242178
480 1
British 0.026419910676642552
ita 0.042167941848924126
приблиз@@ 1
лича 1
Can 0.3599764028556041
ds 0.04769023887904833
ra@@ 0.03341236430004735
ä@@ 0.02171669216332867
aj@@ 0.040710924660058996
BMW 0.5769842602804149
IS 0.2590262683971489
207 1
France 0.019991794890358558
Македония 0.8718803849154718
Чехия 1
189 1
Ultimate 0.8239594805208796
Metal 0.3427083040434069
1722 1
1650 1
бив@@ 1
Like 0.17739611097467697
row@@ 0.34416992609996927
our 0.031117089085888196
изли@@ 1
Mac 0.3620980887532795
1755 1
Meg@@ 0.2165055919375525
Vo@@ 0.12635294348955003
198 1
232 1
2.0 0.4878536353440229
Dark 0.3285874244262947
Ever@@ 0.16525749387482727
масо@@ 1
1721 1
псе@@ 1
фут@@ 1
191 1
Nor@@ 0.040539003721506706
à 0.001765022339385968
Toyota 0.625547552319665
фаза 1
els 0.02142824896959325
Little 0.1257095785699642
center 0.06507160935826449
Heart 0.27816651320025393
PO@@ 0.3721911598032007
ang 0.03399628792911877
1719 1
1620 1
ets 0.02303564959501931
Cam@@ 0.07594289350511388
Gal@@ 0.05702722974562821
301 1
ro 0.06994905484676897
ber 0.045424403143647124
рове 1
Air@@ 0.20214581260864276
est@@ 0.02050958667661014
парла@@ 1
1735 1
Foundation 0.12111468876823929
немато@@ 1
199 1
PP@@ 0.4410463775612773
сове 1
179 1
GM 0.3572726039161326
Sil@@ 0.10017188697473671
забав@@ 1
238 1
Майка 1
cr@@ 0.024870347049536806
ass@@ 0.019347164328593198
Pink 0.6712264519972997
ep 0.11070116511150273
Dream 0.39796774219651404
NCAA 0.18523738857451508
194 1
man@@ 0.020151948690181398
45,@@ 1
Java 0.38799230574449506
меро@@ 1
254 1
Белград 1
1757 1
che 0.026852513326150452
ha 0.022325699355207392
275 1
варя@@ 1
Girl 0.2663634145765605
440 1
окли@@ 1
стве@@ 1
ada 0.01018239608740879
1741 1
430 1
мести 1
1759 1
min@@ 0.025373210752739565
150@@ 1
sub@@ 0.02058534572171489
PA 0.1636324411728019
Sound 0.25742574369452276
Нова 1
County 0.02175393224885297
1745 1
War 0.025019605349569343
ME@@ 0.2556623343683814
tis 0.09444315738037487
Sun@@ 0.13200013785758988
зни 1
216 1
car@@ 0.018809400024412913
Ня@@ 1
CR@@ 0.41889654758148837
Electric 0.35111891772610593
ba@@ 0.03822622453702499
Limited 0.2996488464821476
209 1
ach 0.03114746672095414
1640 1
Renault 0.4754029798630724
IGN 0.48484725665278455
ee 0.0529033872023028
ym@@ 0.06765593724060308
That 0.1036266426796739
ez@@ 0.052612238141375924
ah@@ 0.029422371176260082
1704 1
255 1
ser@@ 0.02529287995431153
Mark 0.08062589401193268
AV@@ 0.3835621638720472
ero 0.0428366707991568
проф 1
1680 1
8000 1
West 0.028788640579285044
44,@@ 1
375 1
mon@@ 0.01856339775172407
е. 1
Cer@@ 0.07891563781914818
213 1
TP 0.4623954477875425
IT 0.333807331340927
For 0.03267606716688393
рич 1
що@@ 1
245 1
Два@@ 1
шинство 1
ars 0.03728339251868286
Guardian 0.4150497851216271
San 0.020548934974811087
op 0.09468510642523922
факта 1
1743 1
Kr@@ 0.038620164497299866
eo 0.05593759753393545
76@@ 0.7914786165756439
IA 0.3202674866947511
lin@@ 0.038922574768851394
197 1
Lin@@ 0.08702080078806165
vo 0.0922866367011814
Em@@ 0.0653938803492309
Singles 0.19965073748933115
1723 1
ani 0.043990106186766006
LE@@ 0.29401871986132044
маса 1
ьон@@ 1
Arts 0.06836185777290921
Light 0.20472703516980567
M. 0.0789714433836003
DE 0.32067760764730563
ko 0.06199427975748213
Do 0.20107665255795257
ө@@ 1
SI@@ 0.3657730212238544
Japan 0.05281580772240647
Project 0.1763864467537622
ium 0.09634266600422087
ops 0.1145643646948239
go 0.04520892137487884
19@@ 0.4226061986424116
ari 0.05972110245185833
span 0.3041366889680507
ë@@ 0.23278009072877384
Dol@@ 0.11701935190812589
Research 0.08715577250568597
1747 1
Hu@@ 0.06163731420389192
CS@@ 0.16331931798653757
SC 0.11499643152150907
iv@@ 0.05146885305482118
чели 1
Queen 0.09660023377651583
шия 1
Ул@@ 1
460 1
VA 0.30938526048224113
tica 0.08586199145835889
ა@@ 1
Elec@@ 0.1137869160324251
LA 0.16081116386216177
Vir@@ 0.1356474666041052
Play 0.25600912857511027
ord@@ 0.03820044183210992
Fi@@ 0.08219674537611486
1748 1
New@@ 0.09159919314983388
USS 0.29126287704451626
218 1
ef@@ 0.04473146486405011
va 0.033109911582297896
pa 0.08114779949914676
tus 0.17672790612604194
mer@@ 0.021739907323247532
Way 0.25760327753542267
1744 1
Mit@@ 0.07849280755343362
Dec@@ 0.07619994039466757
ek 0.04810714400657669
Sa@@ 0.05691048193854863
Индонезия 1
1678 1
ins 0.01721126768574833
ry 0.04335486770879591
aria 0.0516825772597955
сали@@ 1
Mal@@ 0.034298969395109936
Net@@ 0.21380639302634422
Down 0.30337763857934563
1628 1
242 1
сил@@ 1
ua 0.08367262284878874
нали 1
пак 1
1754 1
Good 0.22063216900630186
Bor@@ 0.04704793730782377
Bros 1
224 1
ish 0.03937608577809079
London 0.028995689294443357
ID 0.4238010291930247
1742 1
7000 1
FO@@ 0.38081984811059516
Бранденбург 1
ann@@ 0.027736849467041694
Cur@@ 0.062425836593718205
50,@@ 1
77@@ 0.9157690820873645
gen@@ 0.018424775265879982
pel@@ 0.050791776445177336
tes 0.01595769480178216
Productions 0.3590123617352719
ich@@ 0.04306433394225999
самолета 1
Leg@@ 0.06695652110427898
Airways 0.7109614001719856
Sub@@ 0.06674438654435186
Win@@ 0.08756532757043206
I.@@ 0.3582314125270876
ничи 1
Char@@ 0.04627923636932903
Channel 0.16887789163598038
igh@@ 0.059538803577340975
AG@@ 0.32014363098376186
гория 1
37,@@ 1
ong@@ 0.045458956724298345
Road 0.05178010734054368
737 1
GE 0.5900991709245068
Hor@@ 0.0620278949701828
стено@@ 1
P. 0.10857672252705458
1630 1
221 1
Young 0.09470575831866218
ble 0.0477049820423644
1711 1
AB 0.3063765603500567
At@@ 0.054396111596314516
Met@@ 0.10239299525624812
Дерев@@ 1
ai@@ 0.05609831644867128
йнт 1
Гвинея 1
RA 0.2062212269326705
ran@@ 0.026630745981469837
iTunes 0.6650629646916392
ung@@ 0.027613904317659
Lar@@ 0.09647969112512379
uk@@ 0.05207524416010237
Wh@@ 0.12226931709245936
Fil@@ 0.08767405207513423
Green 0.08610838672507397
252 1
1701 1
ели@@ 1
Association 0.040058576492041954
милия 1
своя 1
3500 1
Ban@@ 0.07635397674531164
ment 0.018307013768222472
Ы 1
1670 1
Back 0.2732448754542708
1667 1
Bas@@ 0.046572480050187
po 0.09726777194760423
подкре@@ 1
PG 0.46114705174364745
365 1
Rev@@ 0.10502551731988873
978 1
Who 0.24249037724484174
ona 0.04439268371279519
застра@@ 1
Last 0.2508665255406535
234 1
ines 0.02647511930531355
du@@ 0.027821519941951908
Pri@@ 0.08149390561728295
ae@@ 0.174683647078013
PE@@ 0.2711456414694977
енен 1
Samsung 0.8127609457412799
1753 0.8173360726402128
1724 1
Sports 0.1162241245174215
жете 1
ителен 1
1736 1
Girls 0.23497030159874657
row 0.054081202077073794
DO@@ 0.2974910707951108
eli@@ 0.0681047309166819
field 0.02345207299723041
ish@@ 0.03974853561776093
қ@@ 1
39,@@ 1
Мексико 1
Na@@ 0.11885429060422419
юго@@ 1
HS 0.3477650670215018
Ke@@ 0.07607283948805572
1550 1
Weekly 0.4338162704101091
219 1
ი@@ 1
1715 0.8918419247311364
241 1
ap 0.05833610129720824
ash@@ 0.03991794249508442
Bu@@ 0.06832868397448132
1739 1
Brothers 0.2328205413222302
ius 0.12161905601947856
265 1
325 1
Преобра@@ 1
GT 0.3577215600377221
oh@@ 0.06060731392727132
LP 0.21002985032563715
223 1
1703 1
Russia 0.09030721497841675
ця@@ 1
Cat@@ 0.08507473524213877
mat@@ 0.037188124613289
ut 0.04807399492844714
he@@ 0.022050320951157273
Вюртем@@ 1
1618 1
Edition 0.37991501116367515
CS 0.2555127740611505
Du@@ 0.054116357457645564
Nov@@ 0.09020625703490567
ock 0.062376233330568576
99@@ 0.7363580465728192
Systems 0.2540013750868093
pp@@ 0.059528016663189985
тег@@ 1
либе@@ 1
227 1
č@@ 0.08265329910240875
anus 0.17653052854715653
tro 0.12010270283862957
1627 1
1737 1
PC@@ 0.1740313991988071
Sky 0.2715591735527654
anti@@ 0.03454100487212656
ula 0.12511504289974104
Cos@@ 0.13971881134342792
влади@@ 1
228 1
Mad@@ 0.0635720281161119
play 0.02552362626314518
Нос@@ 1
League 0.018755743090077177
eus 0.19592324607886497
API 0.869284232081766
Classic 0.2931709104096696
зви@@ 1
GT@@ 0.36764876278709463
ama 0.03864610396643577
верса@@ 1
elle 0.008273726386809805
air 0.039471954769250334
226 1
251 1
Ju@@ 0.07509134480250076
NA 0.24825756774726715
Raw 0.509512846306286
ou 0.00949097169351903
1702 1
DOS 0.7773778106602615
депут@@ 1
нама@@ 1
aur@@ 0.06828858591051112
Tw@@ 0.14377618386147734
тика@@ 1
1746 1
Let 0.32339546771782024
1734 1
ili@@ 0.036976960713135415
ast@@ 0.036299062815839625
Force 0.06772324854417298
M.@@ 0.1948219396449122
фести@@ 1
ляз@@ 1
all@@ 0.02453013266517878
1725 1
can@@ 0.036404526138758345
Loc@@ 0.08803967810029463
Society 0.04984767749056112
политически 1
osaurus 0.4063585694588688
каф@@ 1
cus 0.16036409657582962
Song 0.10750237486754115
хове 1
ler@@ 0.033105600070392725
ug@@ 0.04648737487970112
Baby 0.33853858798580866
Sy@@ 0.0701621256676317
eng@@ 0.026188839189570736
как@@ 1
ace 0.040187284074736686
Ali@@ 0.13602951051238002
II@@ 0.31077554000731716
day 0.017516983581240233
pe 0.03829023544299149
yg@@ 0.13902117802436093
98@@ 0.9930736781404943
AE@@ 0.292555623109071
1709 1
Columbia 0.09296667755580301
Deep 0.43920659551284225
85@@ 0.8746890899042334
AF 0.18677400117589255
das 0.003785418884827996
tro@@ 0.03755971501435549
Преми@@ 1
1717 1
Cap@@ 0.09847857963123957
1690 1
470 1
Dre@@ 0.07485420920989418
236 1
303 1
Fire 0.1953697767340467
239 1
Micro@@ 0.3157013524758567
AD 0.1581514558163196
South 0.018152612964936213
ome 0.05847224362580622
LO@@ 0.34686950402090483
т.е. 1
Sky@@ 0.3403696494031915
роля 1
иму@@ 1
bar@@ 0.02149684960848813
0,0@@ 1
1649 1
екс@@ 1
E.@@ 0.22271096164696122
oni 0.08955246085074883
ains 0.03449722147112774
itch 0.10056462352267097
ye 0.03707069630995934
ts@@ 0.025197347277365896
DF 0.2212547658707472
Machine 0.40799092365087847
HT@@ 0.6153942142120927
Red@@ 0.07097540534919344
og 0.16751883800498982
учи 1
самолет 1
1610 1
Shi@@ 0.09114652605013956
рёх 1
Netflix 0.4706281741390075
HP 0.3676562840342589
ness 0.03783459116796197
1705 1
1707 1
Fi 0.7575709930207976
USA 0.061099227802675724
243 1
229 1
Los 0.016039318759557476
su 0.004526850971156442
железо@@ 1
ver 0.03905538886760505
10000 1
Gl@@ 0.06676958789640083
86@@ 0.9369621707854195
Europe 0.03255392638596196
цбург 1
чета@@ 1
Figh@@ 0.4237305613844182
Book 0.13054959174698072
ents 0.014968310555105965
84@@ 1
1570 1
D.@@ 0.30125535003850706
Roc@@ 0.11078156867923905
so 0.010862624659458522
1751 0.9945471266096428
ski 0.06326475717499323
231 1
263 1
Paul 0.028366513802532547
Вюртемберг 1
500@@ 1
BM@@ 0.27840014082514497
Aut@@ 0.09151213447698317
D. 0.06560090864179247
St 0.05102232811762427
EN@@ 0.37937128345442384
sa@@ 0.03575070399253329
ki@@ 0.05481689608757281
Plat@@ 0.06770933144484549
tur@@ 0.020158520560824393
244 1
седа@@ 1
1672 1
264 1
Оби@@ 1
con 0.0036986821487816715
‑ 1
237 1
ie@@ 0.04540435222825875
мна 1
Black@@ 0.12944303183144973
First 0.04549358869792346
its 0.004114435613389232
1718 1
Арх@@ 1
Sab@@ 0.08001791430813801
Tal@@ 0.07523876223796899
1689 0.9592516353424819
MP 0.14575544595260936
ten 0.005783380546639173
1699 1
1752 0.949544531527866
over 0.008914923377192399
ali@@ 0.03317667664874934
Pal@@ 0.043806352691470374
Mid@@ 0.10038567171965766
Bir@@ 0.0781807091965062
La@@ 0.08612232390461232
Ty@@ 0.09359533285405261
eta 0.052651304284251
Drive 0.30502589140611486
Get 0.428297843373429
1520 1
ON@@ 0.22226075871071124
oo 0.12835819204465054
tom@@ 0.04310912303480072
iOS 0.7212379352947726
tal 0.06377267471400619
Mobile 0.3464717054239457
Tro@@ 0.056659437313078355
Wal@@ 0.04459204401846072
kin 0.08403015073335966
zi@@ 0.04592512800428959
TC 0.20855286575486232
гне 1
285 1
Da@@ 0.1547718642821817
ba 0.052835072704614724
Direc@@ 0.11155198547520505
eri 0.08835488528062702
ori@@ 0.03384543252558278
262 1
Tre@@ 0.049340447710658736
sc@@ 0.03371792758426725
1655 1
1712 1
Airbus 0.7737720050550794
oma 0.07062346802312741
ger 0.03158297160231033
540 1
Bul@@ 0.0835677848793427
tu 0.12988690430427544
amb@@ 0.04424392308688002
253 1
Fin@@ 0.0469131674425848
233 1
520 1
Bro@@ 0.05174813665322333
ii 0.20230334438542297
рибо@@ 1
ny@@ 0.12135581488649384
lan@@ 0.03378321495067014
Ir@@ 0.05357704212212621
390 1
Tom@@ 0.0845195453904708
chi@@ 0.05398849642828523
PR 0.30942010181407176
скохозяй@@ 1
1733 1
ловина 1
пред 1
затвора 1
1714 0.9960116227288691
284 1
1738 1
eme 0.06001444549671906
ene 0.023364741035547656
fo@@ 0.04730159932777392
революционер 1
mor@@ 0.03312413092632165
затво@@ 1
Land 0.05953987023812925
400@@ 1
á 0.03965686269551863
ense 0.05388789941369867
Ca@@ 0.12759325598296528
1732 1
1728 1
79@@ 0.877807055281631
sol@@ 0.01850499521968916
ено@@ 1
ass 0.059002980996394984
cer@@ 0.0322501955876814
Pap@@ 0.07895456034534443
iss@@ 0.048645637903748006
ези@@ 1
246 1
Great 0.05493428629992827
302 1
ven@@ 0.02682431845818416
Server 0.669313491634971
C.@@ 0.18243447773612104
266 1
List 0.05927932779102615
R.@@ 0.2520042684972287
лове 1
Nokia 0.9336379416588667
UCI 0.3102477186240294
lar@@ 0.03705119743444255
1688 0.9439152650715255
Hall 0.042649839104123496
Sum@@ 0.0861169596164125
North 0.02070807497213613
286 1
esis 0.08661794656987001
ung 0.006800612139557664
пата 1
ft 0.02988377905910931
inus 0.20190876528565388
Ran@@ 0.09331864643610967
ern@@ 0.03658781401312647
Eth@@ 0.14245640881254718
ety 0.14513719862449062
1658 1
ima 0.059331973723504974
Катарина 1
530 1
Ru@@ 0.04682284327172708
ard@@ 0.035732397394409046
стате@@ 1
257 1
312 1
Golden 0.11741194228867344
ky 0.06121064408184539
306 1
зана@@ 1
копа@@ 1
Cu@@ 0.06966209868501708
мни 1
Lu@@ 0.040231943402989676
SL@@ 0.4201450533049314
1716 1
Out@@ 0.11412377135176754
1713 0.968456710295463
1726 1
EA 0.4442423872751999
1629 1
ms 0.042599454606629575
GmbH 0.1752136192385849
ve@@ 0.03950048000464179
Симеон 1
Free 0.15090947941655475
1686 1
ota 0.08014547690232172
Pop 0.23267086732996753
Capital 0.21255751100563866
Mak@@ 0.09332378387998748
Pin@@ 0.10208316013102293
Юго@@ 1
пун@@ 1
1580 0.9825413731025288
Gar@@ 0.041628545294698296
NH@@ 0.27711088310746634
width 0.2489122959154349
Света 1
HBO 0.6013795442361696
SQL 1
IG@@ 0.3760450745903557
ights 0.09554088585412365
Ger@@ 0.029384474827287024
308 1
ative 0.019340941308876383
ze@@ 0.042235084892586955
V8 0.6150200054759214
282 1
Television 0.144595806363196
Je@@ 0.07823523412787221
Rel@@ 0.06207456181191764
Rom@@ 0.04404188933300479
248 1
Kor@@ 0.05547802703629665
Medi@@ 0.09376384921567173
2.0@@ 1
Honda 0.43821376234567505
272 1
1603 0.9671526475485939
приема 1
ST 0.3409476526129202
ati 0.08581146703429138
berg 0.024998891711624914
ster 0.03132675604708013
софи@@ 1
NS 0.2520605562022575
1623 1
249 1
ov 0.036561260683065464
сравнение 1
1634 1
.н. 1
NT 0.4349499777065077
560 1
SL 0.4299261036221633
UR@@ 0.43560099586065015
Myr@@ 0.4060211757623489
1656 1
music 0.019910718760645006
onia 0.08954344139723518
Deutsche 0.12398498014953262
Is@@ 0.04330727193675907
SD@@ 0.37239726019720787
Type 0.22953621148318826
atr@@ 0.03959050416502891
зна 1
Gold 0.10302366569418059
1731 1
Ko@@ 0.046480446851421574
нски 1
Century 0.26355367658959683
пис 1
ket 0.09005743235192601
Moon 0.21340479769516524
Astr@@ 0.16158909774609603
ies 0.019265342429567553
STS 1
стар 1
of@@ 0.041339098776694526
269 1
640 1
1625 1
Luc@@ 0.0788951950290372
Nissan 0.7307689122635119
ame 0.05490599363013002
Сирия 1
Not@@ 0.07283046180459263
State 0.01826847583501942
asi@@ 0.05033731833454261
ī@@ 0.18082181781138149
1590 1
′ 0.5011758105192982
Motors 0.45749131928879966
засел@@ 1
мите 0.8233840590549543
полета 1
tari 0.5012443588299429
type 0.03819200599503149
Голе@@ 1
ole 0.04413756510651505
College 0.02119328312406739
Между@@ 1
1560 1
Ang@@ 0.03436921388869983
295 1
IE@@ 0.27475892903211163
Arc@@ 0.1871952330796792
Ga@@ 0.12567408277555384
ico 0.02964724490868768
Vari@@ 0.11463033469403608
ich 0.037506890827124
Wi@@ 0.09878313249571759
ody 0.1093681968262176
Погре@@ 1
Sport 0.1367475452861225
Under@@ 0.16854029058745537
2023 0.587684843128005
1642 0.924685913605969
1645 1
Are 0.35433008944066685
Lov@@ 0.17599839416089452
шот@@ 1
ER 0.3566314075275228
AX 0.5057271496058965
Blo@@ 0.12319698729314965
line 0.016012435361186246
Now 0.19107591923470502
And 0.13030504372894872
повод 1
1697 1
Spe@@ 0.06060832328893294
1749 0.9311464714949437
87@@ 0.8911538098538345
Blu@@ 0.1590913044064369
aft 0.07542529344686834
Zo@@ 0.20722036376717207
сас 1
Museum 0.0417280525407486
ane 0.03254874779432646
610 1
History 0.021877778688621813
PR@@ 0.2670350980883604
1729 1
ost@@ 0.06662209540795723
512 1
God 0.09363018959339438
304 1
Model 0.21975799729619822
sus 0.011893050711772843
247 1
Ob@@ 0.08944824149855292
Pas@@ 0.046571605485649384
Kom@@ 0.04302045300380347
Motor@@ 0.164291459151671
ian 0.024309400129391406
inger 0.042897451292979845
gu@@ 0.01873186331543227
BAFTA 1
art@@ 0.05040372050807605
mann 0.027518599399210274
oni@@ 0.051895067383585534
нито 1
Ангел 1
C. 0.041769292299142315
Dragon 0.28672610407700894
fl@@ 0.02272083680927829
och@@ 0.06123796770241579
F1 0.405903825813702
нини 1
тори 1
Fac@@ 0.09093112211982807
§ 0.30487006713037423
David 0.0275007017889977
ato 0.034908307741256
EC@@ 0.28134616086347486
Der 0.006874368496082211
Ter@@ 0.06340979004492303
Two 0.05741356051694722
1685 0.9240099603829142
less 0.027607225393007463
NT@@ 0.38912604699523184
Square 0.14667505529787986
Vel@@ 0.1061087606889307
B.@@ 0.1793140014610586
Union 0.0269727137289369
Dev@@ 0.06719538245708284
Twitter 0.2978504262411398
288 1
Plant 0.42402271281222575
Review 0.19987432154186907
1683 0.9586002326117522
месе@@ 1
технически 1
пома@@ 1
307 1
boy 0.11132560206313019
258 1
Fal@@ 0.07609925680829166
Works 0.1599505273970688
int@@ 0.03290216538284044
NS@@ 0.16324942602708165
обеди@@ 1
1621 1
Radi@@ 0.11414988460127158
Hill 0.05601912446126325
ე@@ 1
People 0.07870924576840621
WWF 0.6265763613122912
BO 0.7228782463971388
1632 1
Blood 0.33202150534518377
ath 0.04451294991763951
274 1
1675 1
офици@@ 1
Kon@@ 0.03599227471405194
fer@@ 0.01855128406358507
Institute 0.042081883794142516
1612 1
GA 0.21501196897173153
Hollywood 0.1231133502221809
1637 1
Island 0.040219602973826735
USB 0.7718544348723161
European 0.030220963619579544
Ur@@ 0.03570008639566889
T.@@ 0.34963795228691497
пет 1
aus@@ 0.010070821087407115
199@@ 0.7382017998582578
315 1
Service 0.06061592263680884
bu@@ 0.02609990128339038
стата 1
1609 1
Sof@@ 0.20047410457720827
ly@@ 0.056368548196134044
СШ@@ 1
sion 0.02022758847353537
IF@@ 0.2804329318613101
Techn@@ 0.10830207923273749
мис@@ 1
1651 1
309 1
1598 1
1638 1
Angel 0.2571824642136197
276 1
311 1
SH@@ 0.3467424155440462
Ci@@ 0.0965052481146533
Arch@@ 0.053315772231786386
1668 1
amp@@ 0.032804791391724035
Electronic 0.5106569713671084
1626 1
95@@ 1
ische 0.011304874220938725
GNU 0.8958107804453923
Pres@@ 0.04396103848774077
министра@@ 1
Porsche 0.4931251992900766
com 0.20543265894720839
Йохан 1
Computer 0.24498076023905285
wa 0.036053903774435174
DP 0.157394292729753
art 0.019193165628304715
1611 1
1644 0.8697160123462614
490 1
Ben@@ 0.04618267485622666
Mes@@ 0.08383929708630183
ely 0.01871760374586429
ement 0.009455439713161993
opter@@ 0.4039591360458108
Not 0.16387740213181734
opsis 0.2532088705716157
Wo@@ 0.08698259538117378
cl@@ 0.02010340844751145
ета@@ 1
1250 0.9942083995142171
A1 0.42509929061900303
Jo@@ 0.05777055397776001
Paris 0.018918943311021615
SE 0.27095597391476245
bat 0.10411695823536496
Technology 0.11288374014937881
up@@ 0.022285362708376468
Dem@@ 0.060887524929266613
tics 0.04282397359220364
Fiat 0.44742449770396736
1661 0.9067427747310236
21@@ 0.6980978230782229
port 0.033817374855800275
V. 0.08989134500262189
fr@@ 0.01645036319253427
326 1
SN@@ 0.19683869322158645
273 1
Dream@@ 0.6096170445091633
arg@@ 0.05684544019097445
321 1
Martin 0.03884684548773517
ž@@ 0.1350259944322637
верен 1
япо@@ 1
Online 0.2640403073419532
Am 0.020517307643954347
ling 0.02527867587625766
sel@@ 0.03080544390680968
Syn@@ 0.11987360500801386
Dr 0.3003582287014321
WA 0.26330135000772165
Alice 0.16513867367439983
ema 0.06627433488191817
1605 1
chem 0.4525112239835303
405 1
the@@ 0.028916757112491795
More 0.13482518326889242
жава 1
прите@@ 1
FA 0.09143763352740555
oto 0.0602321690491826
Gro@@ 0.08270718363394396
ishi 0.2577590892117263
259 1
ack@@ 0.03391399222097686
1635 0.9187457743024801
pro@@ 0.02157033566833392
star 0.06907855829907789
било 1
ture 0.02925559114931115
Scre@@ 0.2467779294754319
CP@@ 0.20588799095929247
wood 0.03896906268242984
тенан@@ 1
ust 0.05846559386713979
267 1
ud@@ 0.03878465817946773
950 0.9546877882048777
Cl 1
eri@@ 0.04925766818947692
1643 0.9629887298630883
1666 1
Human 0.14254703450738967
East 0.028297724006678928
active 0.04041654633484134
ats 0.019818933370651062
ke@@ 0.030327624597844913
пропаганда 1
747 1
Хаджи@@ 1
268 1
Sl@@ 0.1777207560797377
Вюр@@ 1
1615 1
ѣ 1
1. 0.030958133987158427
1652 1
630 1
Ra@@ 0.06834659170088316
mer 0.02413476939181019
oth 0.0829387721183989
1540 0.8491122460862232
храна 1
720 1
Films 0.1701840845345495
Gun@@ 0.12414564900958647
271 1
Mk 0.6854714744711169
bus 0.06479231207767742
праж@@ 1
1665 1
BO@@ 0.30294791561290374
Nik@@ 0.13048760384641336
key 0.04921566267103721
дем@@ 1
Wii 0.6686572982386225
277 1
pos@@ 0.019732721383820404
матур@@ 1
1530 0.8851649409282093
Stu@@ 0.07600947466603465
cal@@ 0.03528215411929277
ey@@ 0.04977416093273192
Cel@@ 0.09581990695224743
Dor@@ 0.05567388459281462
ax@@ 0.053378660541406865
Academy 0.04254982640964443
Audi 0.6736398747584307
Pop@@ 0.11983254104767388
CL@@ 0.3897664860850747
Rap@@ 0.10624357925943033
ce@@ 0.04208691471266914
333 1
Form@@ 0.19152121280823767
ants 0.013744094591495943
Web@@ 0.0934852475468531
местообита@@ 1
1653 1
ї 1
283 1
Atlantic 0.10234554388432548
Как@@ 1
up 0.007201987365872381
89@@ 0.8299758464340036
Office 0.07986502563847087
í@@ 0.018735111057257565
side 0.016962749057290834
64,@@ 1
Earth 0.09107336815039727
Fu@@ 0.07109891104864222
SI 0.32184144712632257
aster 0.13207931895227631
Magic 0.276499816215604
bo 0.0990819447915096
DM 0.31557564758502377
279 1
1616 1
tel@@ 0.02827851701937397
1633 1
SM@@ 0.32045856087214597
ney 0.04285390736098385
Floyd 0.45081417801951973
Master 0.09785421022146976
лния 1
1572 1
Volkswagen 0.6464903522986049
Pacific 0.06478413749387098
Mol@@ 0.04908567346239657
With 0.03552766048002933
Business 0.104237197021275
aris 0.28791214824344297
West@@ 0.043233281800945614
гаш@@ 1
Washington 0.03195919284490783
цел 1
From 0.02985024871156631
Year 0.06829980663785307
кио 1
261 1
DS@@ 0.31681298805165725
Instagram 0.7045411173410566
í 0.04199589936864159
inc@@ 0.021403749665335356
1619 1
Internet 0.09474145472315167
Store 0.3926921459861047
1624 1
Bon@@ 0.08216168584127209
278 1
медицина 1
сента 1
fe@@ 0.014803039701900134
292 1
ech@@ 0.03985967856591474
Агнес 1
1622 0.93053587204382
dic@@ 0.034351422975674575
Never 0.4035014982956792
So 0.04831261252280023
TH@@ 0.2872522279334535
пише@@ 1
oidea 0.817162584704279
1585 1
house 0.022087285690327113
Family 0.08640883853700883
ams 0.054376957779778023
406 1
SR 0.10431027086757605
urus 0.36712325801439855
Web 0.2745756501835662
ici@@ 0.03577858094457602
Management 0.11466955179839718
293 1
DV@@ 0.33653864879035805
aph@@ 0.11623543306452032
ides 0.03131248626471767
324 1
IN 0.2904274051791408
æ@@ 0.1739977610585847
джик 1
Story 0.19524228538985142
322 1
335 1
Fall 0.1149700940908326
130@@ 1
Railway 0.06787588128324822
sen 0.02361381586813815
ted 0.0076511811870927735
345 1
Sin@@ 0.06152559884069301
Al 0.028050239087708814
Wil@@ 0.0378436352487538
yn 0.06713851822258846
425 1
314 1
нично 1
Chrys@@ 0.43156470528460983
вски 1
Collection 0.25787594219000104
ume 0.044965726916664985
1569 1
GP 0.2943122904653817
289 1
Ba@@ 0.06623153349547085
1659 0.9991359838038676
313 1
Spec@@ 0.2182495367672715
Russian 0.04432216189083925
ror 0.1322390556485105
vo@@ 0.037045998398958786
І 1
анга@@ 1
пече@@ 1
Box 0.24028783507785334
ela 0.04624593496991996
ez 0.038601315755574815
Rad@@ 0.06063753071183972
беля@@ 1
ga 0.04973832200013516
Iron 0.18566821382935972
287 1
1687 1
281 1
Mem@@ 0.08518475585125652
Chem@@ 0.09752802492721481
Cin@@ 0.11343350724018242
ny 0.07663730012878774
Ev@@ 0.06590951133544272
620 1
Албания 1
добра 1
смес@@ 1
Max 0.07608270485873976
Mic@@ 0.14227119426914092
Standard 0.16619940301038777
oides 0.19533855344072656
ories 0.04201549972324978
you 0.04490294892987187
299 1
Over 0.10754933019055027
OH 0.5113237921299946
Paramount 0.4802038451454202
Stre@@ 0.07676375033149438
Uni@@ 0.07874516324575452
eth 0.06566622217777228
Ь 1
atum 0.16121081160676734
----@@ 1
für 0.003382028879851805
Haw@@ 0.07944043845898359
bat@@ 0.028347009083024045
kar@@ 0.04159818053679241
298 1
Central 0.03169520311765345
190@@ 0.3678385905202958
Sm@@ 0.11813831820595588
драта 1
680 1
AF@@ 0.18352337011131512
Kir@@ 0.0587191325508012
inn@@ 0.025582195975923257
mag@@ 0.04067113036607391
mod@@ 0.05028768128620441
570 1
her@@ 0.013263479468954576
580 1
Площа@@ 1
1641 0.9151341972471728
Canada 0.02533278656081668
Just 0.17644638299558502
DR@@ 0.3994362443951853
Point 0.09941867901077452
O.@@ 0.3561833590405733
cin@@ 0.04061710454429193
Климент 1
ego 0.14043802216391987
1662 0.9328767692145261
right 0.028096312112761587
ғ@@ 1
Evil 0.568249537409378
Virgin 0.23226812476997388
eum 0.13697943577208685
mac@@ 0.10986366410274492
Dro@@ 0.11872421944827136
amm@@ 0.04033912926863492
sy@@ 0.06550424302917507
равнина 1
Добру@@ 1
1595 1
Pic@@ 0.08486562845213731
1606 1
ლ@@ 1
Fire@@ 0.39225946977465037
маке@@ 1
къ@@ 0.7347094530561764
k.@@ 0.47406716222123224
lat@@ 0.02908829453990912
lin 0.05283030042946845
Party 0.027454324409988497
Sec@@ 0.10103599194722726
e.@@ 0.25106934809231135
SmackDown 0.6086218337541361
316 1
Mu@@ 0.04747028634631201
etta 0.11064042518962147
1664 0.9406555137701804
331 1
Old 0.06228132133815126
Pep@@ 0.18480069336290889
ito 0.039698785855295286
Chi@@ 0.04366339274193905
1565 1
1684 0.9865320299392791
296 1
510 1
H.@@ 0.226162000468764
aga 0.06459849974800014
Metro 0.15099212150713354
ith 0.04341330947920586
AK@@ 0.3157569584569373
Bom@@ 0.10546678719458917
ix 0.10432935573996237
1669 1
Off@@ 0.057369999662146676
323 1
iga 0.12694854779290535
地区 0.09612905511807125
HL 0.2381237947403393
Hotel 0.09963225617641606
1636 0.9248103708224727
tig@@ 0.03767389405952668
├ 0.4854496242519554
1631 0.9912911947709168
Bell 0.12656692989615131
uch@@ 0.033737041716615165
Power@@ 0.37551373607750616
San@@ 0.043433572246788
dings 0.12286213193232773
Син 1
Fun@@ 0.14792965025286398
356 1
EL@@ 0.31629557734985264
Pit@@ 0.15241171969945633
гани 1
Š@@ 0.12836667505689472
son@@ 0.026940920187881554
198@@ 0.6291258843248915
s.@@ 0.4051730309220698
Blu 0.48904955483419077
ase 0.029191917785682808
покри@@ 1
stein 0.03900484418295287
зат 1
TE 0.3092082756344499
ji 0.0569559000643949
Liv@@ 0.11537377900503025
Tim@@ 0.07955899619218003
je 0.03977662077152419
Arti@@ 0.09958003685280468
Sav@@ 0.06721437011249297
40,@@ 1
DI 0.2277348492875536
IO@@ 0.263295206656147
1350 0.9697706489813068
kh@@ 0.025945795197886916
til@@ 0.032995940771774396
Вероя@@ 1
ա@@ 1
Mr 0.2256704200233084
1547 1
Ha@@ 0.04709397689802629
Ak@@ 0.03612388282837515
Special 0.10027182273302705
Dom@@ 0.061579592326339784
1450 0.88908148686076
Hell 0.3470748306177324
L.@@ 0.19450810532586826
sal@@ 0.0258963439845675
å@@ 0.12105212858620637
Douglas 0.11044378145062603
ew@@ 0.03585064573710987
Kiss 0.4708495848766865
1571 1
CT 0.3090916745643711
ыду@@ 1
End 0.15854590041407376
1607 0.9973833990324384
GPS 0.6326672421661944
Run@@ 0.14976170738150682
Kn@@ 0.060466188113015615
Script 0.7417290533581499
Sel@@ 0.05419702662453823
Ta@@ 0.06447628132107817
Alfa 0.6455743492949387
Long 0.0683258163027959
Michael 0.027802175069021037
O2 0.5971424507257483
Siemens 0.5757508462063703
tom 0.13424088057684372
Lil 0.6808589990475269
May@@ 0.08000867665914435
660 1
Motor 0.13704351969596038
Ly@@ 0.06008461021485892
Take 0.40231082558655695
1577 1
ik 0.033961686773467496
Lim@@ 0.06995411980587934
arum 0.5157717921630873
Фамилия 1
BSD 1
ES 0.3205785329729348
1604 0.9137501541789051
cas@@ 0.02005162580905879
кратко 1
bor@@ 0.031927855359341346
336 1
Soul 0.27810696929116135
сред 0.6113270029731268
318 1
rec@@ 0.014689612679736822
sti@@ 0.027369214416642803
IV@@ 0.4136332805373729
icon 0.18299117918514618
живот 0.8601506518241393
LE 0.4902732214448632
Cru@@ 0.13818184219090657
1601 0.99923408144754
294 1
енер@@ 1
char@@ 0.03455414068014719
291 1
денбург 1
кули 1
1555 1
Public 0.06018753092129561
ado 0.00426874946469414
Pen@@ 0.04432760899769393
ub@@ 0.044211303616396816
William 0.019226447843072775
Comic 0.4230236969939989
Mur@@ 0.048578928609486795
old 0.017816502850955655
1596 1
ali 0.04602981312051906
332 1
CN@@ 0.15451962208138623
Mod@@ 0.06840218512448078
317 1
Prix 0.06667975498147174
James 0.020707112809037993
mes 0.029726006455740323
Car 0.20730805504037372
Chron@@ 0.14880115075593187
go@@ 0.03460586304076495
Homo 0.7335044344032133
por@@ 0.024173711281840957
Bet@@ 0.09844856749870252
CI 0.3146842957828838
pal@@ 0.03486032217435036
sur@@ 0.013589027176038505
Wall 0.1878306842696691
Ep@@ 0.10745945401276191
pH 0.49264203376008175
ty@@ 0.04084330001843955
Hom@@ 0.0626548128136289
fa 0.14126282293031794
Fol@@ 0.06609531226526942
Today 0.11360018392593844
297 1
Blues 0.17244493454819756
Money 0.36514276712955046
ail@@ 0.042507395372086615
down 0.018447027883865954
MG 0.4114700981549892
355 1
light 0.03309451305994987
Pa@@ 0.07776053422559075
ader 0.0673546620554565
ols 0.04463958898165063
ждан@@ 1
ждане 1
Ton@@ 0.09788863244567236
E. 0.06057076669725257
Masters 0.1790821307613896
venture 0.12055263312096057
401 0.9193328069222776
Gold@@ 0.0699084034493983
alus 0.2995996315853
ray 0.1564533289154316
iPhone 0.6516925254015437
Lab@@ 0.1245284333395239
vir@@ 0.06531033635845819
Real 0.06427641129169047
ze 0.028510969570269013
343 1
The@@ 0.052469817696593916
CE 0.1133427556138494
ind@@ 0.02667505041350167
ots 0.027614260443221197
Sam@@ 0.04333805187021083
opus 0.2952375517520474
van 0.03893119409605916
anth@@ 0.08520241931646946
az 0.055983846979079536
1492 0.9554621645329976
потен@@ 1
@ 0.48898923573249947
Shar@@ 0.07262866176320333
Tokyo 0.10220236445347478
cur@@ 0.022324704857196988
don 0.047092695359323575
Men 0.06871063970921164
386 1
G.@@ 0.29186652362924
alm@@ 0.045598406826839924
enc@@ 0.02206641890263144
гове 1
ă@@ 0.11076594225691805
Hed@@ 0.22488050486311845
NET 0.6621003237075782
SN 0.5859432358518332
cel@@ 0.04668594811426933
ha@@ 0.036504886891295475
uz@@ 0.05574790002073357
Come 0.35214782989416493
Morning 0.2755788218585541
mi 0.05384342869735143
Lib@@ 0.09054355763025523
mas@@ 0.026814258963915847
Lost 0.26268038208228267
нага 1
ковски 1
ami 0.06151817825889473
1592 0.940947299391544
381 1
As 0.011340794866429353
tan@@ 0.0264269519177844
Cro@@ 0.04930993027818574
319 1
When 0.02173043930734846
acle 0.1593845241676206
ider 0.051704001647624655
501 0.658785174668696
ff 0.04048235468332233
музи@@ 1
1525 0.8079062895653794
cul@@ 0.03658213152000904
Mega 0.5336178955375652
Oc@@ 0.06667355933555451
T. 0.09110485123472219
DB 0.2916727834932516
occ@@ 0.2139578655646246
Run 0.23360633465925365
добро 1
Ig@@ 0.09661302285228643
Ple@@ 0.1400964842822252
1568 0.9423262599727787
1559 0.9232505425670798
Az@@ 0.059581407789454074
Cha@@ 0.2133190660655338
Opera 0.14171827367516102
-- 0.2851462718594796
ful 0.032395076409870834
Fighter 0.318871958085332
uck 0.08803531281735207
ube 0.17252915181325104
eon 0.20482873480144936
Han@@ 0.043126606626490795
estr@@ 0.026983866193130143
сау 1
dis@@ 0.005598308214647294
edi@@ 0.03697591192602796
los@@ 0.0530308524066152
Jean 0.01933865208785737
денти@@ 1
Far@@ 0.03890303911176634
Bab@@ 0.08247050815777032
Hav@@ 0.06196813130274627
`@@ 0.6573810387301087
optera 0.41467468095305676
Словения 1
sen@@ 0.019559685529645078
lis 0.05965511879484535
Қ@@ 1
Stars 0.15130761812514362
mm 0.034034691207852956
Design 0.10016142034296663
Age 0.144542546768498
зад 1
OR@@ 0.31336561141821945
Tan@@ 0.06182451321511609
1521 0.8803515236173103
ng@@ 0.03794499704579431
He 0.0023883261334018938
P.@@ 0.23321558856256094
9000 1
Auto 0.23769812179759062
Mil@@ 0.03831976810593922
Control 0.1859988782073629
ö@@ 0.019212376065880252
Cle@@ 0.11225430818921933
важна 1
Щ 1
Cryp@@ 0.4447957879849502
ache 0.04488385787999593
ier 0.02506189529963089
Судан 1
Hon@@ 0.05216431208762152
Wild 0.1782721073195668
PN 0.24391959672523814
Плов@@ 1
зае@@ 1
западно 1
1536 0.8306415083075317
Plus 0.12422222230796236
des@@ 0.008685911157560818
Малайзия 1
י@@ 0.6264464882797403
If 0.05418606318654215
jpg 1
É@@ 0.022316862818262513
337 1
Chevrolet 0.47159415413239913
EMI 0.49573121140816306
Os@@ 0.04415297667072959
Top@@ 0.1611731084039177
aurus 0.3629261367625723
lia 0.0855216812109741
гани@@ 1
EC 0.199939132268059
вди@@ 1
Bos@@ 0.060505889053101274
CL 0.40162124905129193
Il@@ 0.05981018660526831
Sound@@ 0.45971142000764315
1526 0.8919608888986423
una 0.0025442521979340254
att@@ 0.020391214997126664
we@@ 0.01570366223037646
ET 0.2953063543063422
Modern 0.12214702747757523
Sar@@ 0.03551783420155683
FS 0.42816504994667925
ender 0.03927633258812792
^ 0.7238169667192401
Over@@ 0.08313264402397029
osp@@ 0.1150724464762108
George 0.019531357437163045
вите 0.5315253232683945
250@@ 1
ans@@ 0.028150922844639943
Autom@@ 0.11160759863599506
ao 0.03412382346230118
ier@@ 0.019257780672183242
ip@@ 0.06565050530363138
tia 0.07189664302332067
Rh@@ 0.09811169119124831
338 1
Sex 0.34295532869913614
96@@ 0.7605743919724807
kr@@ 0.03437824147202979
395 1
ova 0.06893715924679034
Дим@@ 1
On@@ 0.07625136003391762
Sea 0.06844178399295091
atic 0.03752823214036257
ello 0.03954043112188898
сьма 1
ІІ 1
бни 1
Ball@@ 0.07217200922858802
2. 0.04653958701426771
Battle 0.05139686597821845
Camp@@ 0.06481549836504033
Secret 0.25484937238916977
tive 0.018594026985920307
works 0.020882970625322267
334 1
южно 1
Cir@@ 0.1163183842473433
icum 0.3414737828437683
Audi@@ 0.14848801932218794
404 1
Industries 0.3483832078802337
don@@ 0.027136893936915617
Est@@ 0.03195224910007295
NASA 0.1963704961446905
Romeo 0.3882836118831618
Sor@@ 0.06573801467514409
LS 0.40469535758183683
ś@@ 0.18822041930471756
354 1
Animation 0.48494374042456007
Challenge 0.15778683981519784
wo@@ 0.03922035122094844
Album 0.05576814790194177
war@@ 0.017099864465057204
sin@@ 0.028045234725578874
table 0.05180455715555787
well 0.007384735554217766
отбра@@ 1
tis@@ 0.036145123393560165
reg@@ 0.015754815050605688
Poly@@ 0.11212496667204865
cap@@ 0.023773681500333325
Amazon 0.2931212699232221
Nick@@ 0.2155338889817692
Fair@@ 0.10866148561966303
sey 0.06331021188102803
Vog@@ 0.13983280860154848
Angeles 0.03805009668881017
F.@@ 0.23196038873572336
Max@@ 0.17018035194212938
Services 0.10287978727640626
Theatre 0.06103300445635072
itz 0.03619700357857436
dit 0.032267620727434755
tar@@ 0.02243502086233161
Chicago 0.035680185453961594
iP@@ 0.6610658198257875
Стой@@ 1
Galaxy 0.3616731362179975
SW@@ 0.2543750702611188
nik 0.09829255243777071
lam@@ 0.03340842691533269
loc@@ 0.02400749866968398
FF 0.16394683122512282
Hard 0.3343028180589908
vs 0.3315461928077995
Some@@ 0.19330326643847026
цеговина 1
jo 0.03194557673182292
18,7 1
Here 0.15830715381369292
Robert 0.02018136955432493
hy@@ 0.045819077758982765
Jazz 0.1095885564098404
რ@@ 1
1583 0.9465281674358748
ira 0.04105040427104203
my 0.05220783479628762
тец 1
Reb@@ 0.07794664856182872
Wol@@ 0.05517798363185558
1556 0.9860964278890244
Kin@@ 0.05978889359025401
Jav@@ 0.28107245859474483
Kids 0.32546072080530974
обили 1
км@@ 1
Batt@@ 0.2034138801706054
tidae 0.25778670952815197
ו@@ 0.673130321078387
Days 0.23068224222108533
EM@@ 0.25971927634350533
Mis@@ 0.06530325670833384
mu@@ 0.02952991032002695
Don@@ 0.04326429388676134
ē@@ 0.4146918083036408
415 1
Om@@ 0.11318912499353344
Tit@@ 0.06388055197101823
Vic@@ 0.07792878062146671
определен 1
head 0.020470355046680547
ison 0.03869353314259033
ws 0.03536237885084165
Head 0.10820620390700988
Rob@@ 0.06960622989756061
Zep@@ 0.5338480300563361
isi@@ 0.02447748132623589
IL@@ 0.33622760886918296
pic 0.13820372717285453
Action 0.159231938123431
HC 0.18192841057066814
pha 0.17490806094669195
Солу@@ 1
Watch 0.3271592058718271
bre@@ 0.016535137593159825
uli@@ 0.06418203240616954
world 0.016848777893918237
Vision 0.3120409159987682
let 0.040165973701081596
Jam 0.466008798855284
SR@@ 0.37959190349839556
box 0.07586082345592736
изво@@ 1
ila 0.05122445110505682
ä 0.23546511048559723
леку@@ 1
DI@@ 0.3805893492546123
Zero 0.34167264597231883
mit@@ 0.027490676391743494
BR@@ 0.3506718054337381
CH 0.35670996067425637
Van 0.05859873243822499
azy 0.2917340161799851
back 0.012008456419335662
RCA 0.4217152276370473
Lady 0.07450308178207744
section 0.03274363639104722
важен 1
960 0.993247124172554
Jum@@ 0.29506963574918615
Pyth@@ 0.4526705239339196
офор@@ 1
elli 0.05936907662298269
pu@@ 0.022139574592001388
Lotus 0.4325155950617888
Mario 0.12246240419257322
Associ@@ 0.11569180021468588
GO@@ 0.28543352974870534
Ray 0.10534351562526698
yd@@ 0.10612390340455513
ysis 0.21068703125053395
Got 0.42065392127575957
anc@@ 0.025433275114345257
hu@@ 0.0212840053091018
ante 0.009816852314325693
atis 0.3956005505042123
Mars 0.16637518558504868
pa@@ 0.08005623378148546
дите 0.770599842293868
Chr@@ 0.16840598093905937
гнат 1
HTML 0.7800980231577336
97@@ 0.7864507860189787
Again 0.29765096069853847
Metall@@ 0.28427086613706226
Steel 0.2601280513447582
XP 0.73873973077915
Arena 0.12463252876824167
Sn@@ 0.17161785510501595
oa 0.06172234053546909
ual 0.034907091844284525
zi 0.077206843934004
ista 0.022277005927957318
leg@@ 0.020759162455610918
trum 0.1577690692608309
wi@@ 0.06827133534921795
win 0.019097970371437456
ител 0.737514966001086
Dur@@ 0.06548498166754542
Energy 0.14351304135981277
Tek@@ 0.32047752466659546
ani@@ 0.04177446342239661
fer 0.026757389323303037
Spider 0.26048979133535727
kl@@ 0.028145051208640665
1535 0.885732841746412
cher 0.019447285290781328
1597 0.9255819171815917
Ice 0.18437288935788662
сира 1
760 1
2030 0.7229758439520417
епи@@ 1
ump@@ 0.03717792267064214
Peter 0.023920133629761548
Walt 0.2683409136635856
thumb 0.8014024288924919
911 0.723280336671717
arr@@ 0.01875956311235225
olog@@ 0.04679921406236645
Summer 0.04511532828100219
юли 0.41669631718132505
Future 0.21078036706130662
chi 0.038594186662184594
94@@ 1
Sem@@ 0.06463674849937874
men 0.009547685124980344
pol@@ 0.023063746418354066
N.@@ 0.21850558737492237
Rus@@ 0.06011128984993327
Let@@ 0.10334615538567872
len@@ 0.029447875900178912
rom@@ 0.030928086742586933
затвор 1
Gre@@ 0.04143032980770537
Rhy@@ 0.16779016049543355
ady 0.06599921861173763
Ther@@ 0.05902266678077462
ays 0.03417203771711909
res@@ 0.009431556261134594
red 0.01843706613105189
ister 0.04479783126888934
3.0 0.46226440004176766
ford 0.01942600040456809
PL@@ 0.22368567174160467
Data 0.22857738717928683
Development 0.06201244904000471
удовлет@@ 1
Div@@ 0.07643523413689367
Gor@@ 0.057732894065345
Kal@@ 0.03571783288876774
oft 0.07105187570366017
Trav@@ 0.10259312310185284
Dog@@ 0.19724174900243743
‰ 1
Dam@@ 0.06447761725978822
aus 0.0035941932083701426
Ret@@ 0.0890451539645687
DR 0.1835624042995355
Maz@@ 0.08746651168167592
val@@ 0.028013687494461884
Forever 0.4708238820667076
ever 0.0277679937570384
Saint 0.010412428367494182
How 0.19675921910725747
An 0.020222169118684248
ality 0.03658591270722985
Охри@@ 1
Ща@@ 1
Bell@@ 0.12185281738052375
Heroes 0.439479565867055
aun@@ 0.046999363443113326
low@@ 0.03457934294823208
ā 0.18343312431773856
州 0.026169094946249534
451 1
enn@@ 0.01837667269062971
Maria 0.03599077044506626
Free@@ 0.40246233969734274
hr@@ 0.04219289853001704
Bol@@ 0.04057400845089272
Hur@@ 0.06916599717047803
Williams 0.050322947713969446
core 0.06733208305444978
наги 1
Infin@@ 0.4257245520322081
lo 0.007397712929343089
iti@@ 0.02215917024581888
Independent 0.11867408134275896
del@@ 0.023640804197048983
Western 0.030769185877122837
Ed@@ 0.04284478481503147
Lif@@ 0.2434213820321137
ll 0.20084458523867424
Amaz@@ 0.1930788362803415
raph 0.22791512332386707
Mind 0.36710431794737775
NAS@@ 0.2302871869861487
Beach 0.0751476636368536
ania 0.050916183659308036
Ass@@ 0.126334491883492
Asia 0.05334013107937808
Plan@@ 0.04803743881858506
ologies 0.18455176188671207
Ol@@ 0.03842044367536091
Teleg@@ 0.3300806154926857
ée 0.004089066113434101
Dark@@ 0.3393718778309241
бря@@ 1
cha 0.031451050500923484
vol@@ 0.019334251043833996
Extr@@ 0.157059676739373
рур@@ 1
Ram@@ 0.04209718317820488
Sweet 0.29653804735612366
adi@@ 0.027080462423343388
≈ 1
use 0.008093183369977835
Cros@@ 0.11729560876545672
Empire 0.03794707473592208
NP 0.4357360272570598
ision 0.07347491300220377
ide 0.03246570086801512
idea 0.04821498755480761
Йоа@@ 1
Acc@@ 0.10063483955184635
Pent@@ 0.20087710358165903
ust@@ 0.05661773207803669
Bus@@ 0.05608623313604906
Hi@@ 0.0789095077890026
pf@@ 0.037748644577798404
Bot@@ 0.04764323742770577
Lat@@ 0.06219910291478622
Nav@@ 0.06293748249716372
Tak@@ 0.0517987870453251
Il 0.004100757461577601
isa 0.06076141856269357
Като 0.9041096108390975
IEEE 0.5492242094592739
ground 0.03516785417131604
Imag@@ 0.2167515568638489
Will 0.12950273897921324
Gaz@@ 0.16653879207035896
Nature 0.18720580175886134
Phys@@ 0.10604893967830527
Fri@@ 0.05737686464701405
set 0.013231129008821577
Tar@@ 0.03953182617894634
Ven@@ 0.055577597152552505
Call 0.2722156123434051
Flash 0.3452112025963486
Four 0.08322849314106133
She 0.007191838237049152
HD@@ 0.49385189196756346
Thomas 0.019616685005513498
FL@@ 0.3777610555232708
Hand@@ 0.043153382001800286
Van@@ 0.1077619733044022
Son@@ 0.05786546373573333
khe@@ 0.1912071441626691
Ky@@ 0.07310437425768514
ster@@ 0.029923391336256728
DD 0.42344274785814606
Trophy 0.14692619629137726
1453 1
правител@@ 1
Ker@@ 0.04631766513631376
Bay 0.036336924361010145
Mode 0.3879871230892927
Saf@@ 0.09656838373966403
olo@@ 0.09704342985960632
ul 0.05087496611041727
Perf@@ 0.3376237581359653
arts 0.048235138388777556
very 0.012036521111348094
сиона@@ 1
River 0.01597886956783643
hi 0.049041153742397654
Under 0.059657598204125216
Us 0.27027558471705204
Silver 0.13838874430425518
1515 0.9323092102045151
Roll 0.2955185160412967
ends 0.03294297054003556
Sen@@ 0.040602220665949075
тога@@ 1
1204 1
Movie 0.27858007280303865
ident 0.048513445075825765
ille 0.022712511556376245
isti@@ 0.04186566737716878
pre@@ 0.008959579037338945
ku@@ 0.03971444698226518
Pon@@ 0.06439859841156316
iden 0.04320296654484537
Republic 0.03723676214875955
зиден@@ 1
Dar@@ 0.030580011317972087
MVP 0.33740263278275107
tronics 0.24116573688514809
гъ@@ 0.8049970884450396
Na 0.24207546514353145
not 0.0031656820984521995
пари 1
Hot@@ 0.11995947837220368
Choice 0.3270667683930013
Fe 0.18803468626299227
Only 0.10800673878029401
тичен 1
NXT 0.592085620692349
aro 0.0708064011640043
Roy@@ 0.11146864399794443
Stop 0.42181289872180444
geh@@ 0.04141478663388894
Brown 0.044087038929264875
tions 0.00864668869281303
Sunday 0.09444399596237793
Ec@@ 0.10296659503888153
Net 0.41739038281786994
hin@@ 0.039540436158531825
1.0 0.37371446765610683
RAM 0.36194439432503867
scope 0.15765282040556897
ј@@ 1
кото 0.8779976218846048
UT@@ 0.3658596580338402
under@@ 0.015227722814309482
Das 0.006452848045734471
Guide 0.23584440542459664
Лите@@ 1
cho 0.011777533346640761
ns 0.016298036660460428
197@@ 0.5379224591412223
ческо 1
Prim@@ 0.05731872988778048
ington 0.03556277833947611
Pix@@ 0.4566151777115012
Ster@@ 0.09444508554332287
cape 0.09694775490994349
top 0.017307832952197066
Rock@@ 0.12954926661050542
ods 0.042174086055402814
our@@ 0.028184668161273328
Cop@@ 0.08065619506680549
he 0.001418502759456318
MI 0.27944634275318436
hor@@ 0.026669586888135824
ush 0.0880714913894824
1517 0.9600814913204826
Good@@ 0.10726300995476187
night 0.037123759042821725
ux 0.048987188219825055
Dog 0.2837654472500756
Smith 0.03085321003886
ska 0.10957705582880842
we 0.021580630785682276
лато 1
хата 1
Apo@@ 0.179457896445879
Око@@ 1
майка 1
Dir@@ 0.11984746312919471
Госу@@ 1
Pil@@ 0.05540029317571387
Planet 0.28710354939923727
SB@@ 0.5134139206412945
odon 0.326976404934508
Know 0.38846167700162526
ide@@ 0.04247093998940288
ism 0.013400891513801997
sur 0.0031070552704978117
A2 0.4190782169278664
CM@@ 0.22221551038663317
tin@@ 0.06604775967760974
Fas@@ 0.1333391631755212
Visual 0.37130893725827285
pot 0.10177915463138885
йски 0.39368861241032177
Sand@@ 0.037630493012170405
odi@@ 0.04274864382705654
ə 1
Med@@ 0.04861208308702231
elo@@ 0.20325981852897687
bur@@ 0.020398699817319794
can 0.006140126476066128
Него@@ 1
Town 0.04705202624489674
ika 0.050953528590378425
Sph@@ 0.24170142713013268
чне@@ 1
Dynam@@ 0.2610967163024767
act@@ 0.053108430018608974
lock 0.059582226732232964
tical 0.025964945859414123
194@@ 0.13013812720439483
Side 0.1802777306234175
off 0.011117229069881569
льям 1
френ@@ 1
Christmas 0.09642708593156757
ў@@ 1
Voice 0.22850722342838187
BAS@@ 0.4782213159729093
fi@@ 0.015763439502290286
pes 0.06246429487011237
Anth@@ 0.13970701440300048
Kat@@ 0.040822930443816303
Sle@@ 0.23131804757594307
AW@@ 0.3559653541700724
PL 0.39042863747829576
Sciences 0.07640501704654117
html 1
zy@@ 0.07070465116289322
Garden 0.11685158090939428
ū@@ 0.0776664801481283
Publ@@ 0.09087848367134319
Trust 0.11286768211099396
augh@@ 0.07145262160506535
lers 0.029893686017073245
ori 0.0598965086674148
onidae 0.5551452933068614
Comp@@ 0.10531894924357935
xe 0.04550586173916648
Rosa 0.1391574365509971
SP 0.24570100761803793
ger@@ 0.012917115293125557
Generation 0.1748128425139412
anger 0.06217409591860801
bel@@ 0.01731216803688863
tw@@ 0.029002595465176428
ond@@ 0.03020366374087015
nom@@ 0.04331683899530409
series 0.008831235565539594
еми 1
унгар@@ 1
ites 0.02504862866173491
sil@@ 0.03338542114366144
Населе@@ 1
вси@@ 1
ech 0.08470964056526319
Woman 0.15998923634751394
Cad@@ 0.09911111680810884
MD 0.20785079731878048
ø@@ 0.05959768465463606
EX@@ 0.5020480659774398
är@@ 0.020153997347279417
точен 1
aen@@ 0.4684606858594549
COM 0.4462762022273875
CR 0.1887041149664838
Core 0.4188540189820064
Purple 0.44549281220896186
gar@@ 0.022457467207782546
GS 0.2575268003076858
Ze@@ 0.05735551493386826
lum 0.09434975633300037
Centre 0.038531576240932286
Aus@@ 0.010108762614696325
Pul@@ 0.10492683867736353
Bit@@ 0.13909949625681317
ote 0.02868768225828632
tim@@ 0.022942171078387585
wer@@ 0.018003175803419397
ი 1
AI 0.21020865349267748
ç@@ 0.030201906151605677
Kur@@ 0.03208527763213115
CT@@ 0.23296963229925668
кономи@@ 1
ele 0.03307559657676363
31.@@ 0.7425131333976343
egr@@ 0.07083788968350378
продуци@@ 1
ო@@ 1
Inc. 0.08469377980332664
Mary 0.030449898475628064
Nu@@ 0.08488924704531843
acks 0.06905633879249413
xx 0.5203028930574859
Mul@@ 0.056016308386302956
любов 1
Alliance 0.10441013405642101
Post@@ 0.07456046606809001
not@@ 0.018873193179087266
196@@ 0.5257039004037841
MT@@ 0.307454423443021
ink 0.08073571626163378
S. 0.04149951453382342
mel@@ 0.02838283443631221
Heaven 0.29366736460173937
ң 1
air@@ 0.02017339069177196
gh@@ 0.05335795337753797
deon 0.39517329361801756
Pseud@@ 0.17265550020729742
har@@ 0.01699998543786263
Jet 0.40647639732476726
Publishing 0.26277637010208954
Got@@ 0.05808857703224204
Fam@@ 0.13363236971586823
SD 0.19982763816201354
Si 0.0549247020444716
ski@@ 0.09318296939809143
AO@@ 0.23296178823948932
TR@@ 0.28695994294024174
sson 0.08778222789146786
Three 0.05883351068433691
Unix 0.6134887062508129
dium 0.10976597777996204
uss@@ 0.03655806716905928
шва 1
1519 0.9133646839283275
ures 0.03220461492638712
живота 0.8653541745623312
Che@@ 0.09946516195005624
SMS 0.5256521683473431
Women 0.03031806391786309
den@@ 0.01347615849189968
нична 1
Happy 0.278316596511745
Aviation 0.19173507203884863
Fle@@ 0.0850373896309405
Lam@@ 0.06130665728808601
pop 0.05053288050822839
Sig@@ 0.058657564805413065
group 0.010686722624833436
vers 0.011343743226838612
1.1 0.2816428012021535
ръ@@ 0.3542944432295739
пие@@ 1
BP 0.3066922788490905
ological 0.02239182379528569
BB 0.23877883453864696
Lep@@ 0.19685886277131576
γ 0.5050104472744094
Anim@@ 0.18154036732266357
onic 0.08266798820329949
Dod@@ 0.11771411794397837
Avenue 0.05527266821655956
Natural 0.12652809172543417
aha 0.1021897283541139
дружество 1
Tales 0.2935369361641104
men@@ 0.013699105262122289
sz@@ 0.1201613836116978
ther@@ 0.024479681588713106
vet 0.17342224635597173
ther 0.03909303657283906
Moscow 0.09144542214461668
ō@@ 0.05865750165455103
Ado@@ 0.5672382115612702
Dic@@ 0.12408128319328438
EP@@ 0.21250933716774273
Next 0.19195354094193787
Sup@@ 0.07131754526925935
trol@@ 0.0781822700693548
yi 0.08064398152506932
BE 0.20552795225024437
GB 0.10236885431524395
Peugeot 0.47307795483311044
ˈ@@ 0.9147718574872037
горь 1
Eyes 0.3783999393820974
Fall@@ 0.13284642193777987
Financial 0.19861230072301408
PM 0.1913699448837508
Production 0.07962332130408345
македо@@ 1
ATA 0.44310035761805056
Ring 0.15493538006932597
Sac@@ 0.11041529606772071
ett 0.027311866124336653
nu@@ 0.040106218454188686
action 0.016070532826936455
бити@@ 1
скали 1
Diamond 0.22036317806541805
ng 0.08464859441591215
esta 0.014180652961143323
eti@@ 0.03437632626480604
Dat@@ 0.1795681078343049
Tech 0.15765308621174223
Tower 0.1190254389597369
ail 0.037255151748482575
ein 0.0022142104120800245
yo@@ 0.061728733831115726
отго@@ 1
px 0.9991768914834394
мически 1
B. 0.02424880020045091
ava 0.06465509214069162
ally 0.005902404279312538
iller 0.04588703352524677
Č@@ 0.13274713535411967
Pot@@ 0.062095385554420963
iss 0.08269722662061174
pan@@ 0.027334996772975902
английски 1
Ath@@ 0.07061506561808681
Canadian 0.028777630267189477
Eff@@ 0.09690178040622566
India 0.01810244686072376
Invest@@ 0.17394052886113678
маркграф 1
серта@@ 1
Od@@ 0.10205858770181586
body 0.023207560231211545
if 0.013534642704854539
more 0.004517335862135879
Santa 0.025598879320729198
Texas 0.027130567885998217
мум 1
Total 0.21894868733603365
obi@@ 0.13563999366084653
Christian 0.02403440479647936
R. 0.04778377421948868
cast 0.03496346798162763
ebr@@ 0.057835264782893234
ton@@ 0.035049046079099554
enta 0.032414662287546935
ham 0.03959394108702708
pin@@ 0.05187482956007677
under 0.006025561256015715
999 0.7956427881964798
3. 0.04450558401838073
Lit@@ 0.06684214112119351
Pat@@ 0.036717915527474755
arch@@ 0.022229610601982794
oria 0.08339470373775226
sim@@ 0.042337936710179734
Hits 0.25435789725210173
Liber@@ 0.05228532403228283
посто@@ 1
Louis 0.01972006536137593
ser 0.011401107305064996
Con 0.046115965630966614
193@@ 0.6081767007219223
Mess@@ 0.0816953994159207
Ren@@ 0.0403563122735116
EN 0.31631988166708824
fin@@ 0.011196162209268137
mark 0.0463053374177677
188@@ 0.25742163145164826
Soci@@ 0.06561321632056498
смет@@ 1
Division 0.0164926740910665
Gir@@ 0.058812073003427084
KO@@ 0.3424583969779213
полет 1
BI 0.22701225611661
Enter@@ 0.23936155312386856
Nam@@ 0.07371606153271222
ę@@ 0.11730323966637737
BD 0.2915485527742035
web 0.06746973730217012
App@@ 0.08647068079551849
Богородица 1
After 0.007208359758941684
Hello 0.47552404697749906
Hum@@ 0.057590375171055315
Lon@@ 0.11490934002590088
aja 0.052634860076773746
otus 0.3353586343387199
апри@@ 1
UC@@ 0.1340836232261323
bun@@ 0.10078495851592288
U.@@ 0.16471572129061535
Vol 0.3312630036831852
CN 0.32498961162005413
трите 1
Att@@ 0.20541914511301443
Books 0.14124004727631229
bis@@ 0.10822011729433377
face 0.019885999326586017
Adv@@ 0.23111147860486175
ks@@ 0.03717189927448159
oy@@ 0.028384420500106873
ě@@ 0.13602546600831542
ime 0.04187604647521327
Tran@@ 0.07889826897353612
Charles 0.015397444265690279
Mach@@ 0.07157462961880155
cre@@ 0.012662411927037655
alia 0.0832248011275931
Edge 0.2667306248844319
Kepler 0.42132615843900456
Trig@@ 0.47003146886378305
aci@@ 0.028501199715100546
san@@ 0.02776643628412675
ush@@ 0.05252461127592205
ough 0.052102740100006
ulus 0.17364180415588876
ands 0.025868806294754652
Conn@@ 0.07007389186628248
Beat 0.3137134877686999
ET@@ 0.23296063151184068
Greatest 0.3201394635502571
Berlin 0.016791908730487297
Tem@@ 0.05405544383215477
ein@@ 0.006122055903466603
Pir@@ 0.06594039276982655
Dig@@ 0.12358880855901214
Comedy 0.22084298938135508
ony 0.04267491721339967
tera 0.08413909298830967
Ash@@ 0.04610954968039966
нъ@@ 1
Bull 0.19916071933102433
Off 0.20859762313706656
int 0.08276812667187793
mal@@ 0.018657329526651497
mus@@ 0.02402763059816339
yan@@ 0.06965308147465649
ature 0.05327831279091927
ci 0.021851159905068175
Engineering 0.09030509123559786
ship 0.011639062076485285
Revolution 0.06695771296722847
рени 0.8943975211111378
CF@@ 0.1782949613132921
Land@@ 0.015755539123571097
Village 0.09076778093332255
Junior 0.06395378558952428
Vent@@ 0.14644896836421475
Away 0.3468833829647488
Department 0.027212198592441846
Lou@@ 0.06420021536183859
non 0.010640415362157539
Child 0.17983873827126476
Ъ 1
Ann@@ 0.05422247774604194
ear@@ 0.023044294878039367
нира 1
oi 0.08501056285852869
esti@@ 0.030097067080672144
craft 0.15404138768530182
aya 0.03050058854429674
ery 0.042061291159213934
аспи@@ 1
вни 0.9978789058223105
дете 1
яни 1
Station 0.037903344931406735
ag 0.051674758862677805
Beautiful 0.342488358003155
KO 0.23726368890883587
Mail 0.2681969597105619
Ей@@ 1
Aircraft 0.24347544262651627
Mercury 0.23876786657669555
You@@ 0.2769516166894865
dae 0.28504868643969267
ert 0.010817974231832552
GI 0.3679731518802943
lidae 0.3087757683478608
mo 0.04292256689267028
MT 0.276328299260714
SV@@ 0.33997539858996134
Vista 0.3070861686943371
J.@@ 0.12041717008790646
Football 0.02549201693419907
Heavy 0.28240690762412496
urs 0.025750817732140517
della 0.18221587641869325
Hero 0.2887840290400495
didae 0.3383360495596307
omy@@ 0.31746431662774444
Communications 0.14502106031578757
Show@@ 0.2658480614111398
Squ@@ 0.12897344069636615
Thr@@ 0.08065458029367988
енбург 1
CF 0.13282394176646609
LG@@ 0.24461343812294475
awa 0.0486723416259167
ido 0.012792083704977308
Continental 0.16654078658183286
AV 0.2538582494388592
Gra@@ 0.06694925144816428
dis 0.10619131201209638
mic@@ 0.1058863015117475
erry 0.05592324683716607
sky 0.04091129762060099
Mari@@ 0.030570987497114444
Ori@@ 0.07660539428356514
EF 0.24931571377883444
Laborat@@ 0.12608920178975627
Alpha 0.19768192163830697
unk@@ 0.04544724500989936
.org 0.5606873761427796
Trib@@ 0.24571897972193749
ind 0.10708570132150691
ost 0.05413553952444152
wn 0.03390809713561887
ң@@ 1
Da 0.03990292809576255
FDA 0.44502248081445944
Men@@ 0.03420895526423958
met@@ 0.020479526234303057
California 0.017087377362747604
ese 0.010647072624056925
iki 0.04212731271334208
stream 0.054872175163514454
app@@ 0.030257034015403025
Lee 0.03386809087161782
Rain 0.3615445674760041
Cloud 0.24268793805289385
почва 1
G. 0.05703905317986611
bis 0.003349564502245754
--@@ 0.43867035040007996
Spirit 0.19745809549597315
Вся@@ 1
sions 0.025007102145210045
arius 0.17739919107880867
cm 0.032972034127299
west 0.015533549788736042
Lor@@ 0.04659383737154996
Pay@@ 0.1256835120200085
Sym@@ 0.11922252362763941
alb@@ 0.036754288790623584
ს@@ 1
GO 0.26087920080555077
қ 1
HO@@ 0.32747552302428423
SO 0.312575819498151
tin 0.02124544234493055
worth 0.040748922305461496
α@@ 0.06769320675520821
W.@@ 0.25238410849698373
sive 0.017867570691335107
L. 0.05156418705168278
Oil 0.22132987255573325
form@@ 0.017556759968122258
bra 0.08204454998176183
Cent@@ 0.10390269388760784
ети@@ 1
195@@ 0.5027218752992951
Econom@@ 0.08380949392848816
nia 0.08705477253692909
1,0@@ 0.24462137805418777
Wat@@ 0.05229082838095708
Yam@@ 0.09690989783394512
act 0.01907645237271272
oll@@ 0.03270540363209838
ó 0.003386043619465996
Kod@@ 0.3018382137238993
ties 0.011470427597220391
Emer@@ 0.07975521801065939
ses 0.004699505901488287
Ble@@ 0.11113096562313284
1.5 0.12047626876864112
uv@@ 0.04026338769232373
Proc@@ 0.1315792033297304
zu 0.00200586539735166
CW 0.3483765994867867
bal@@ 0.02303010428086982
opo@@ 0.0764660522119078
ute 0.03091802518064788
Dan@@ 0.04484049183164892
Valley 0.037463404034750965
cy 0.061855603957123174
fol@@ 0.030606098137583315
Hop 0.26363188938568244
Ka@@ 0.06791267643227517
Record 0.19108061182471356
Din@@ 0.06275785802507737
Telec@@ 0.2302760586379209
Fer@@ 0.03684080138570732
Mail@@ 0.20964162263952008
阳@@ 0.19495214837276006
Hard@@ 0.08573769351057488
Mut@@ 0.09751272051399186
ords 0.05231767496724341
CO2 0.35811616792897777
Som@@ 0.06455051982056269
Australian 0.02152037347919222
Rainbow 0.3740491599201577
Talk 0.3042612611388444
land@@ 0.016358296641945814
U.S. 0.014565036951885256
Shadow 0.2749548195391347
Ki@@ 0.04431658752683801
formes 0.06718624504349356
that 0.0008068861306826654
180@@ 0.3913646129741543
Children 0.0939852406270808
Nine 0.211543320925299
ld@@ 0.1522891770629195
elec@@ 0.03185271971235633
ine@@ 0.044731626855703595
othing 0.10938694579258525
qui@@ 0.03944709679684159
e.org 1
EM 0.18440930813479742
LM 0.3336338327668386
ck 0.037333840758425905
един 0.17265458083493007
ұ@@ 1
At 0.009779767856414094
Au@@ 0.027660451223099295
anda 0.0465243572121425
жени 0.3080617113219662
Devil 0.25744893199137475
Aur@@ 0.07291524399485222
Hip 0.2585982609844954
ett@@ 0.028932586199268657
oz@@ 0.04531469086793696
Cour@@ 0.042647275596205424
Cul@@ 0.07370486856870716
North@@ 0.049703541240718664
Wel@@ 0.06149555108499069
Concer@@ 0.10358095759173046
Parad@@ 0.215237456665559
Satur@@ 0.16940522195779845
Fro@@ 0.0894106356761016
PN@@ 0.19503555490233396
SB 0.23748447312219678
come 0.02684858497906412
Lex@@ 0.15691036463676836
Psych@@ 0.0878901642827683
Sau@@ 0.05377303761043554
ARC 0.35503991326516215
ega 0.05884773327688204
.S. 0.1441409167756913
ads 0.04068732625614221
ple@@ 0.028419937521443273
Phot@@ 0.13448416924005024
Prize 0.07226266485340561
Security 0.08651722710297816
Wars 0.13332429814994712
aka 0.043887605218870425
pers 0.059012947433196565
view 0.029894391169796575
гите 0.9312732178811334
H2O 0.661565055773594
Make 0.32345434023173897
Rose 0.06816662461739315
ything 0.10142341629350861
треш@@ 1
Mos@@ 0.04069713148608255
Eagle 0.19358912609113113
SG 0.13001581933574993
There 0.009937617289014433
mit 0.001340806528089812
20th 0.04765443077652765
cat@@ 0.016741943983341855
var@@ 0.03841676672597515
Mania 0.4180989097425268
CNN 0.33206238234403473
Kingdom 0.0310488393130901
SF@@ 0.19417261087172327
ection 0.025270891808209673
I. 0.02799773369978089
Patr@@ 0.04705336187503756
ческа 0.7292715925113157
ami@@ 0.06286675761815506
att 0.10753685954856965
vor 0.008038427719989543
‎ 0.9259939322596848
Pac@@ 0.15110033576435522
aer@@ 0.0593849334534317
изва@@ 1
ular 0.01763001693730227
uy@@ 0.03288459135770549
DA@@ 0.40812791679142685
Explorer 0.2810503839381922
bian 0.0726184851400141
nh@@ 0.022927865040780794
ways 0.02981862101692662
gl@@ 0.02017908996201158
lig@@ 0.02095128753684129
plex 0.09815653665693162
tory 0.0873563869307736
ead 0.12829804884738205
Night@@ 0.27437882994817236
Wit@@ 0.054677959670454954
ces 0.011428487657008591
Cinema 0.22848411852740944
fire 0.02712833584740088
self 0.03162722706695276
CM 0.23627674979832775
Say 0.34999484090513006
Arg@@ 0.08960232116218218
ischen 0.004720755744330619
otr@@ 0.1017934180590481
Full 0.24572207140608587
Mini 0.3063108874502934
â@@ 0.027363844900323987
є@@ 1
Mountain 0.061663685457899464
Richard 0.02036946536979412
ect@@ 0.032777104568076885
Five 0.09336650660152858
ente 0.007511042065117041
ros@@ 0.04260431042578893
ste@@ 0.015743570935837274
ange 0.035493389405005626
ham@@ 0.04093766946030419
Sir@@ 0.08550704330482933
Pun@@ 0.10143400684931937
Social 0.050918514784415184
Zone 0.09862487060023382
pul@@ 0.024627076865935776
Bra@@ 0.09513342228398163
Delta 0.1395331560087788
Stor@@ 0.10894796974964233
vin@@ 0.03580365616103027
Христо 1
Holding 0.32899065332837163
Smo@@ 0.21513324394181818
Spir@@ 0.13147723432218497
ago 0.030685311508711486
ding 0.01690923428309532
icle 0.1433131792216266
ornis 0.42160331302886045
Fut@@ 0.11888042352277425
iy@@ 0.04180581582019514
peri@@ 0.04164571565478327
uma 0.05696453423573795
смотря 1
Ball 0.12455187134084136
EB@@ 0.4425960073269457
Wa@@ 0.06887292933710089
Right 0.18746688763710653
ult 0.13793440457148867
192@@ 0.6194416783654428
Up@@ 0.11300214169682993
Георгиев 1
Boston 0.036677114621650256
Hip@@ 0.1496171638336015
V.@@ 0.38940327554925314
gen 0.015031357657403058
афри@@ 1
OR 0.417887317888652
SU@@ 0.23742509183865218
Tom 0.040253150306000664
fly 0.07041902632478987
DF@@ 0.1620348525018613
eria 0.07521822719946139
yst@@ 0.053937512704488676
BR 0.25439022946618
Kong 0.04619471840736765
nes 0.023478730060054406
tre 0.02744346548896013
ü@@ 0.012953196720154887
Gallery 0.08801110175918882
ose 0.03241886371354005
Roll@@ 0.1817355754211748
web@@ 0.12130090825589487
факуль@@ 1
Tu@@ 0.041903210130772806
Lake 0.02370927323075293
Terr@@ 0.07103610648271876
mot@@ 0.024202262490666503
About 0.08123794625558795
Jay 0.11743403857958438
lem@@ 0.0358402305262616
Alexander 0.030139747918211328
Face 0.21981605803699722
Orchestra 0.08722405555100328
Rot@@ 0.0445597766740696
ards 0.02439679059546238
astr@@ 0.050753020463223164
dier 0.07255251484439157
дори 0.6913786629178095
ying 0.0146212579488641
Димитров 1
Sz@@ 0.06253753566171542
TT@@ 0.40269000688759177
ri 0.044725772600607706
Class@@ 0.09321863035357465
дола@@ 1
изне@@ 1
SK 0.16157275926343018
Eas@@ 0.10914486727279708
cat 0.15924393731513475
Box@@ 0.12160959724673469
Orange 0.09970138486553748
God@@ 0.07225807296143127
zy 0.1556320428820839
Act 0.024997886556828254
bul@@ 0.020619101262368
ins@@ 0.015892972969268705
Freedom 0.1315108732450711
sor@@ 0.022330583986698287
unds 0.033257052914746725
Aqu@@ 0.0707304080666231
Report 0.16625976238625462
pon 0.15427494950968249
Shu@@ 0.13799405577655588
Years 0.14641425741809025
org@@ 0.05123226136518718
тото 1
Prom@@ 0.10182513782818305
esty 0.1809758477231637
уто 1
Factory 0.23359567298226216
cop@@ 0.027805877936945902
thr@@ 0.0348734403535097
версите@@ 1
Youth 0.08132533533217638
4. 0.04413577711175227
las 0.0018178901125366477
PI 0.2594228879797023
own 0.009898309128468622
ow 0.026211606917907544
xi@@ 0.060062283712592486
H. 0.03867650475705911
pri@@ 0.026693111227570888
Seven 0.11773144540744394
inter@@ 0.00512760185579945
Discovery 0.2147747319936635
idi@@ 0.03655984084294904
ves 0.011483696444161782
dom@@ 0.031854465561813074
uld 0.10326207165041609
седате@@ 1
ado@@ 0.09155913357449702
Bridge 0.05436796163824151
Def@@ 0.1546980752304706
ask@@ 0.05025995116095152
ë 0.1613900306247017
Nation 0.11046846878349657
itar 0.1521137276523484
Торино 1
SF 0.25206842721039036
WCW 0.5855321943778482
Kit@@ 0.061625049479493335
.е. 1
CV 0.24623480472971826
Mom@@ 0.11998070586657396
Rho@@ 0.15533379935092323
Too 0.3195582964325802
Vis@@ 0.05130467132021636
English 0.012511572662668542
life 0.00681443340786873
онова 1
Born 0.0561522985403784
Hil@@ 0.03795049090657423
ages 0.009564149241601639
án 0.012316963232755445
da@@ 0.07721432196162065
data 0.028560108777721402
Ku@@ 0.04169177421592336
AE 0.18948524061930705
IL 0.15745276269339256
редо@@ 1
Eye 0.24333650285457778
eps 0.06973435931530503
FIFA 0.07889357760365533
Bri@@ 0.03428189932399939
Hit@@ 0.09450618435611906
Horiz@@ 0.21673998357373617
Bla@@ 0.08777185802503544
Pos@@ 0.07643378051345359
ating 0.007084186513206254
lev@@ 0.04615957611730636
onn@@ 0.017510820733867744
rit@@ 0.02057532352292589
Jack 0.036208106591400245
inf@@ 0.017463601532684184
Rol@@ 0.05369291916459738
Scor@@ 0.13801049815185926
Spar@@ 0.0748590726978054
je@@ 0.028528038601479667
tra@@ 0.030418655265721274
CV@@ 0.29203976296136847
2.5 0.12503719968566288
Meth@@ 0.08132416168161864
Pu@@ 0.04694570612866579
Yel@@ 0.10777709228221218
Hak@@ 0.1197588691874255
Part 0.12140715907028812
Tas@@ 0.057570587437262837
Theater 0.05366419207889786
bi 0.04244158632836758
pus 0.13115623504486412
нето 1
Laur@@ 0.04714652868020211
ects 0.02166401723748936
yo 0.051934788791399705
ec 0.10645038909411786
hynch@@ 0.48046500207612053
tho@@ 0.05992747550302911
ă 0.24084298159696613
Henry 0.019387995429011495
stone 0.02746611173046267
неско@@ 1
Touch 0.39836201065752247
aux 0.003406311529098186
ostr@@ 0.1593941605044232
Link 0.21649321816320327
Lac@@ 0.08528364155175984
Advanced 0.17829228264958852
imal 0.07009305828623173
Miss 0.0560772078459319
unc@@ 0.01866137458091981
ices 0.023355938612417238
ren@@ 0.010813005680513015
real 0.024122186146692332
ville 0.0070299306539413605
Australia 0.014684747114590271
Code 0.08976139050053278
Storm 0.1405635403743191
ker@@ 0.027918548739406576
ome@@ 0.07780839303758653
Bac@@ 0.09646762433337189
NR@@ 0.1278116484349943
bot 0.05772664703483224
ont@@ 0.05224955696708748
uth 0.05494790276159837
南@@ 0.021383577133082952
州@@ 0.1098031446416426
Pokémon 0.3305235019621639
ą@@ 0.14906671197464666
Double 0.1675472312186279
IF 0.17618482041658903
Wrest@@ 0.2912446030373556
Capitol 0.21120624957425957
She@@ 0.04950755762661623
Southern 0.035060783925534196
Where 0.19204005862627505
Илия 1
израз@@ 1
Beau@@ 0.048351432996472904
Friends 0.15678587646782008
сите 0.7885803768931375
Cross 0.05204312072922458
пристани@@ 1
Prince 0.03607158649650133
osaur@@ 0.1496773822821672
tel 0.023389105248326936
yond 0.24949049232697287
Tour@@ 0.03760412119722787
ective 0.023759322044305156
kon@@ 0.01606217098442074
ylo@@ 0.229608221808586
зира 0.7055217038025503
Class 0.07294186141577849
маси@@ 1
Kan@@ 0.030765942711850017
Our 0.10677939018391064
Pur@@ 0.05390640896312392
RI 0.18905933951307888
emp@@ 0.02145413881114846
ბ@@ 1
Herald 0.20922716162838906
long@@ 0.036949280121438326
Oh 0.21975610150424246
abase 0.17323427110232206
ör@@ 0.019630080473671027
Dist@@ 0.07102065449184303
E9E9E9 0.6077491150975378
Whit@@ 0.04528242173833374
ando 0.006447893039584234
los 0.0010929382935590556
Cand@@ 0.1369663283946678
Rum@@ 0.06515822225502567
bit 0.04010774500871177
джиев 1
ather 0.04519212257477073
eck 0.030445301706728125
onder@@ 0.10364959688496675
osus 0.2731646376544119
K.@@ 0.23983061101189293
Sat@@ 0.05898147241177208
Water 0.07987601174441071
anum 0.18902076554945368
ault 0.04447734740707781
ão 0.070158913070534
Bat@@ 0.02823668477718629
Gener@@ 0.052855197577678675
Lic@@ 0.10724426869030768
mart 0.1413333665960621
0.000 0.07390482049991982
UL@@ 0.34040283336564436
Ал 1
Der@@ 0.04051535943016453
PP 0.18662788413765088
sec@@ 0.014141776898155248
ː 1
dig@@ 0.031012062588405612
sts 0.0474365901600169
Multi@@ 0.12529350102906803
PO 0.295113128971072
Rights 0.09100345501272099
Var@@ 0.05183891894231449
kw@@ 0.06064548920923443
ope 0.055728535055071284
Vul@@ 0.12385507258800953
zen 0.019980122771816076
ō 0.029874737262364885
Biz@@ 0.21964604189955522
Enterprise 0.22693763409677364
Ten@@ 0.06470226756026529
atio 0.2568282690829137
uf@@ 0.02921722326351738
atra 0.10396334711339414
osh 0.1722025409424953
yth@@ 0.14802817573478755
аси@@ 1
Xi@@ 0.0852842283505468
ox@@ 0.04449984959871515
Ari@@ 0.05544433133322657
Pass@@ 0.05171822756828202
ED@@ 0.2146499515436562
Lev@@ 0.041629645918488
Main@@ 0.09966032653057183
Room 0.1766930315508385
sport 0.041269505444659155
местообитание 1
chin@@ 0.061201627585934566
wal@@ 0.021235120954641407
entr@@ 0.016264345031075947
phone 0.053623335808249434
Cli@@ 0.10322421568138504
Ele@@ 0.08082541285024673
ў 1
BL@@ 0.35637379520412565
Pist@@ 0.2095248898633649
mil@@ 0.027842364931019815
Anime 0.334393093268824
inum 0.13511844690125266
itas 0.08146542735727862
Георги 0.452541931114393
Eu@@ 0.12440096817738183
Ex 0.22369496643002695
Speed 0.23444352212121733
ails 0.07072304423971221
bank 0.032208581652225246
C1 0.3358639000526941
zo 0.03855160551804203
Nak@@ 0.08053285786771651
Sug@@ 0.12395695874751493
his 0.0008728600585508206
App 0.38555738110222354
Fort@@ 0.10456512155324013
NC 0.212196090838928
Nar@@ 0.043650761872690506
alt@@ 0.01988481915995819
form 0.009067305484324056
Band@@ 0.06752932781531269
PT@@ 0.20507926600310894
Place 0.08185224124028743
out@@ 0.012077782659300517
ox 0.2577646891982906
Ast@@ 0.11370351480775899
Name 0.02855307944434941
Six 0.08658564095844484
By 0.01596338302537172
ron 0.09938689799870373
Cola 0.3245813792749869
Ten 0.0968439078415163
1.2 0.19047076661663742
ih@@ 0.03314516885912237
ú@@ 0.02455768442263631
Adi@@ 0.22589781853586033
yx 0.26426950278030786
мяна 1
ვ@@ 1
Ocean 0.07932726702920938
SK@@ 0.359839227952874
Far 0.1971204663797471
abr@@ 0.04708860076551552
Bub@@ 0.24545969312159358
bas@@ 0.013066012853744367
свеще@@ 1
Crim@@ 0.07891703006138191
ICA@@ 0.38138780326351324
Scar@@ 0.10112036923735475
omo 0.07414658307047724
tal@@ 0.01971569314414632
учител@@ 1
icul@@ 0.08928754188099124
max 0.24745261057583995
комп@@ 1
Pan 0.10353668720617643
thi@@ 0.03754295587219755
esa 0.021590950756218318
UM 0.38774295815540744
Yah@@ 0.19719205008813945
Hem@@ 0.0762130889723507
Joseph 0.01725157311533677
gn@@ 0.06478903022176417
Foc@@ 0.2644494307887726
d. 0.08293883838026753
eph@@ 0.056875071776117274
liz@@ 0.05092624264210089
ons@@ 0.025302301044803174
rel@@ 0.00939370658344923
Anti@@ 0.04635530881920737
Fab@@ 0.07039420958898963
View 0.2197703877697021
ento 0.022944159970116968
ry@@ 0.09733667216889895
Cat 0.21334768056098477
Fair 0.13649164043629675
Phili@@ 0.18164770234841854
Rub@@ 0.07191989066719155
ades 0.019306598407732724
Partn@@ 0.19389274976295315
esp@@ 0.025791566836231367
log@@ 0.027339871561889273
æ 0.5509509795816421
pro 0.036629819605569755
лята 1
Arm@@ 0.041536763049236924
Blin@@ 0.17980504862343547
acy 0.019423300392180032
itor 0.05268582664318857
thing 0.047742438638513726
vic@@ 0.02254795877669189
ais@@ 0.02451053921788661
Cit@@ 0.12830180106432326
Coll@@ 0.08750502345975279
Kam@@ 0.03283037551534132
etus 0.21198729666351054
pen@@ 0.01375605536349272
Kings 0.11047351298493513
Beh@@ 0.06210320331073064
Saturday 0.09002932122653409
Poc@@ 0.19886115360480391
dor@@ 0.028550221729212188
pedi@@ 0.07405188751671087
tier 0.029855034971088622
º@@ 0.4376203907959881
sis 0.09039014463073222
тинген 1
новен 1
book 0.011659595129357311
ches 0.013169104529989033
trix 0.10486294910679407
MIT 0.23284025098438227
ward 0.027158251481490044
KA 0.20411284190159698
bird 0.08575781125599649
Federation 0.05921817551479565
aff@@ 0.015489631008110237
her 0.001975933863719939
lex 0.2691442470813259
pres@@ 0.012552632885441055
ć 0.04861692661692769
2.1 0.29256696694093287
Pearl 0.14834459093748822
Note 0.09892929710114866
Source 0.14526190292363347
vi 0.06831975084142188
EST 0.3820201460234867
High@@ 0.059053595607496755
aire 0.006826856713437353
aves 0.02684985194070274
orium 0.07773264702276206
Legend 0.24669885280439882
See 0.04464503222544673
Still 0.19088090015248957
ket@@ 0.06322974664978218
scale 0.049729205949658156
vel@@ 0.03547764720100322
Bang 0.20654751957250175
Living 0.18466915159203898
tube 0.12087293064658605
деец 1
Phone 0.5894702758221456
FF@@ 0.1502760358479091
UI 0.3583443738555154
hal@@ 0.01439995233664045
Bud@@ 0.05177294126278089
Mah@@ 0.02554227761667103
Log@@ 0.07706926015541159
Player 0.09051918509373053
ca@@ 0.061888966749669906
FL 0.05453155845759832
Marie 0.024823427221556536
Tree 0.18709072106764435
Victoria 0.03363754720480367
Coun@@ 0.06402453301980518
Hunter 0.10628569697107923
aks 0.04265822292592186
gs 0.024846571291680337
мач 0.7836279128097082
Hyp@@ 0.16284381965320657
cli@@ 0.02703769861928967
eder@@ 0.03677899332594807
нако 1
4.0 0.3746552207978136
Army 0.014752413072183071
ON 0.3539640347401162
eu@@ 0.040487034640083304
thly 0.11146877704383847
тично 1
Was@@ 0.09483839963935409
ye@@ 0.03990036519409302
реле@@ 1
худо@@ 1
א@@ 0.6736049962343559
But@@ 0.06487037978680364
CAR 0.17846497114646137
Joe 0.037786895622424925
enia 0.18385507729597966
mp@@ 0.039279789111888744
ксем@@ 1
Ghost 0.2224548105157354
Universe 0.1914216236034794
обх@@ 1
т.н. 1
787 0.8396416240004331
vit@@ 0.0581344632726985
Elite 0.23410962651606057
Sing@@ 0.06096889838784051
Train 0.194721560526694
š 0.10311637424649223
Health 0.04085518705085
Hen@@ 0.048563139988884195
ainst 0.20250063074262284
tion@@ 0.021305112284721553
安@@ 0.02530388078912898
illi@@ 0.054537974027671035
тите 0.270612217869961
3.5 0.15435831923453433
Long@@ 0.06381424358165409
Wind 0.13707793669464716
pp 0.23601773280440674
sum@@ 0.019805803872520275
sw@@ 0.016893648919109678
Py@@ 0.10011818758864038
Scienti@@ 0.11729058744730493
chr@@ 0.07158679286468421
Back@@ 0.1262890070816291
lip@@ 0.08021412444732053
Gol@@ 0.04209618355603039
Indi@@ 0.031433610601049385
Dun@@ 0.03743093064399848
Fest 0.234426570786169
phus 0.18897657033150636
Thi@@ 0.05111759074098694
Hi 0.32345864757209997
Obj@@ 0.09145976870082709
hip 0.03171545330647972
ә 1
VC 0.17976558171469273
ate@@ 0.08138345787686621
via 0.015458235600346242
резу@@ 1
Spr@@ 0.0517434403230342
star@@ 0.04222744902034193
urn 0.08873428306057801
aea 0.18844866854538983
ign@@ 0.015076858362981624
kat@@ 0.03451958671215388
porter 0.0335557176332948
ury 0.04450882142231894
Mother 0.14644604323497618
тъ@@ 0.306096839441295
Alli@@ 0.06521044914697055
Nucle@@ 0.19719340895164858
imler 0.2553590836407451
Стара 1
af 0.06398995400214501
eca 0.07565914003499756
ნ@@ 1
gi 0.07302881901642977
Злат@@ 1
my@@ 0.034905163776531814
Den@@ 0.034427966339304165
Ing@@ 0.04265493661331802
eine 0.0016883240264896724
into 0.0029352178078624618
ware 0.07668740001393991
Citroën 0.42092812937520147
DT@@ 0.28067942161994563
ells 0.04516301970058393
na@@ 0.053207484269382904
Ax@@ 0.09890797238031053
Fel@@ 0.03781272639219615
.C. 0.12006021737419785
Beg@@ 0.03584462043973609
Oper@@ 0.03613878931654619
Peace 0.09369888118253636
esia 0.07407718451313433
new 0.0038097227077771687
sig@@ 0.015323970944150327
VO@@ 0.234871472757199
Tennis 0.1313531966031158
Wan@@ 0.17884063311552806
amo@@ 0.04623968448041418
value 0.04077959491370557
Maj@@ 0.05537210093341289
Yo@@ 0.0740065854316688
Original 0.11384185718149785
ilus 0.23766511714245997
Flo@@ 0.101942034148816
Moz@@ 0.35981191704493953
ý@@ 0.2026225001362809
Jones 0.029587727798157482
esi@@ 0.06811368754241323
Heter@@ 0.31835521695475016
Nin@@ 0.11378995497405843
Tes@@ 0.11695862827506477
Vit@@ 0.05791962428947646
Vor@@ 0.007203812115835485
din@@ 0.03044388135765936
phy@@ 0.06882448537742328
ix@@ 0.08420654432417526
mf@@ 0.2031731759025137
owski 0.08906929552252503
тури 1
EG 0.2465216844709787
Nova 0.09124936182790906
Week 0.08676841750245055
tre@@ 0.015413840822952215
volution 0.17599175958914404
хори@@ 1
Index 0.16987898439055465
Johnson 0.03150927323808246
True 0.21238689922079138
Zeitung 0.10189654910760808
5. 0.040820697348845233
BL 0.15533265133071292
Magn@@ 0.1471037646861887
Sign@@ 0.07640501263113177
Studies 0.061578460982378944
Tech@@ 0.1716543633307947
duc@@ 0.035233362295194595
Produc@@ 0.06925315488880489
Stage 0.14199271854464482
ju@@ 0.021859230851091652
сата 0.7727219261696373
Monster 0.2493954015518809
bri@@ 0.03038328203093172
cho@@ 0.029508083005229037
org 0.18568268218136266
mail 0.09615990256421317
Hyper@@ 0.1945695903362842
UM@@ 0.2742359732977215
ban@@ 0.020603538483047436
net@@ 0.031304621242695355
rot@@ 0.02405358621817417
თ@@ 1
where 0.0035347154139279088
UP 0.20585466799763566
ational 0.021105782630616167
eless 0.052012304561271275
mol@@ 0.033304447467235584
ono 0.09387466437481617
бира 1
RAF 0.103114472026814
xy 0.17209191464700413
ais 0.018007995195921597
lie 0.029633960253213975
news 0.03920085398505053
aming 0.07091639843457745
ev 0.03830036133769711
ources 0.20662039380261055
Fir@@ 0.06147281503702778
Sport@@ 0.04009776047688589
fic 0.10000486129003812
загу@@ 1
MO 0.2664238614046124
WC 0.2708648013339969
folia 0.19030194179903487
Wild@@ 0.05909639099872361
o.@@ 0.40963829972981874
point 0.010219009691802401
Chap@@ 0.03701733394309675
Gate 0.1556256726686705
Kas@@ 0.03415381344423972
bol@@ 0.03493374451474603
icz 0.11939813273665845
Bug@@ 0.12668558597012902
Map@@ 0.10848091122460846
pur@@ 0.014384555142076491
try 0.02227681785089318
was 0.00027616916831277565
Phil@@ 0.04886431561914363
Yor@@ 0.0902504581683546
illy 0.04096711425305649
Francisco 0.019692551169668816
Tap@@ 0.1172249729110645
agon@@ 0.04729175628180112
iva 0.07372828156491286
Лове@@ 1
Flam@@ 0.0972503014113366
get 0.019497556589737747
ord 0.03897160129087226
Coc@@ 0.10234493561679449
ores 0.015613604741578364
wor@@ 0.012586073147218957
ален 0.8194075849403155
ҡ@@ 1
Green@@ 0.048223201203187425
Wr@@ 0.17658642870038774
ort 0.027319392624575705
PE 0.261761722998331
eer 0.0477512983976085
emb@@ 0.013452416584465577
rain 0.051323038249346926
0,000 0.038786035712215415
Mov@@ 0.15896316433863472
istr@@ 0.04978219032011054
ments 0.0112500009525732
ð@@ 0.11770139381918328
mun@@ 0.03189923544828654
tek 0.13518908984586625
дава 0.3439844330411867
ologie 0.013952089680093642
ids 0.02241223916804691
ż@@ 0.17139073612995137
Mand@@ 0.03904648907556932
ef 0.034354795929996414
media 0.017037264187909656
Body 0.2264741333642721
dol@@ 0.03944299303647099
Race 0.10483509646560464
UF@@ 0.25948449962133563
etti 0.03859220633892845
Bun@@ 0.06583015506944093
ROM 0.3210102916211085
ври 1
Centr@@ 0.09321029430670988
Lem@@ 0.07172996672628558
arium 0.11136047259664415
oon 0.052915599297963745
езе@@ 1
MV 0.18311721369563222
iro 0.03922009978722156
orus 0.17274322878234874
Light@@ 0.15906176662106125
Whe@@ 0.0734733873744183
start 0.02414632946848252
клас 1
enz@@ 0.017503239028356533
oke 0.03322120626866872
Dawn 0.22407273521992804
tura 0.0418062121463621
поет 1
Morgan 0.06764118101169826
Rail 0.12044265275098019
ged 0.03220667102602411
ho 0.07837986918770669
lit@@ 0.03196738864580646
Gran@@ 0.05238314953508261
Jour@@ 0.19327356557277536
Master@@ 0.2256650218730313
ret@@ 0.017332905429660254
Circle 0.1544996377049979
Day@@ 0.09239220547847203
Domin@@ 0.04529794955974939
Fran@@ 0.03365184787577195
ball 0.022216970043968696
ku 0.08338440499071359
зите 1
стои 1
Hit 0.22526171489945637
Jackson 0.03548499976632839
Jagu@@ 0.21773725586918447
mus 0.08625213275202068
qua 0.03223569767990068
Kl@@ 0.02312568339493805
map@@ 0.07314340848254904
Bio@@ 0.2402811390744537
Castle 0.04623903950021263
Key@@ 0.08425033244513801
iti 0.08167219504810826
nis 0.02934777748808366
Mam@@ 0.0845607447982833
AK 0.1990957480970445
Avi@@ 0.17077053303063994
Lis@@ 0.0532966624974525
asa 0.04672204511143402
Industry 0.120315957130592
ilis 0.23177774636086634
hab@@ 0.017951769495637093
kins 0.0444190742649001
pon@@ 0.03023539542479306
Sto@@ 0.037981668088710986
eck@@ 0.02368025488609226
other 0.0027619584466970245
Donn@@ 0.08773472807123188
S.A. 0.2151838209677879
oceph@@ 0.3606103988903947
индиви@@ 1
Las@@ 0.08333035509595993
Sex@@ 0.0996301303029344
Viol@@ 0.08033830225833376
действа 1
BB@@ 0.25811655626419616
ign 0.100617807911648
sit@@ 0.020039767168881114
ér@@ 0.00978346136584178
Fantas@@ 0.18916028664144108
medi@@ 0.021692958396731854
Boy@@ 0.05525458909116306
ires 0.025715954442207627
Hell@@ 0.13140487116132016
Illustr@@ 0.18171981008160865
Season 0.07951568537632676
Education 0.023541752362768127
any 0.007601894579421983
cs 0.028869739630479466
Crystal 0.17196669081220642
icial 0.10113591304103296
ities 0.02607578647387354
vis 0.06229181650668394
ID@@ 0.2558306038867961
Jac@@ 0.03600249122241814
ango 0.07032785888380456
hion 0.21754852013854115
weight 0.029632443382745642
Drag@@ 0.12351959204266692
Order 0.035934848199354726
Orig@@ 0.07612599688877189
anz@@ 0.021346572453186115
azi@@ 0.15449744284171474
lon 0.07004837566342455
odes 0.08333631020157944
йто 1
Ear@@ 0.07322647672132715
Flying 0.14714144012854652
HR 0.218304887837366
ony@@ 0.061767790795362154
Atlas 0.1614126062217929
aco 0.04867763082960343
ple 0.06245112845579143
Ful@@ 0.04865597486451065
Civ@@ 0.14894014428522453
Coast 0.03917720513637369
onen 0.021889566505276292
layer 0.1089456344038656
Херман 1
aro@@ 0.06529171801230425
sm@@ 0.03964491839778492
uta 0.0552879858270754
Library 0.04446361683986013
Down@@ 0.11989028220082121
Italia 0.052252171994713006
cy@@ 0.05411339934105972
nig@@ 0.12344022245250179
adr@@ 0.04226473862587922
eli 0.04837303502084684
kard 0.2510608755897352
unter 0.005259108174433014
BT@@ 0.1994473258382391
Coca 0.3346007572180566
Common 0.10932647017876718
PhD 0.12216326892056732
res 0.01836205328347531
Fron@@ 0.09317698934589101
185@@ 0.2330375261267241
Revol@@ 0.06761598279140822
gal@@ 0.027082496685942876
õ@@ 0.16261352498180004
A4 0.4398029578130622
Premier 0.030019336094202913
Triple 0.1273239118700406
ר@@ 0.595446289218241
Kid 0.18784207730863434
Mob@@ 0.11801180499863856
bia 0.11493083275268663
fe 0.019333105822127317
Natur@@ 0.034989190135107734
Soc@@ 0.10873327023864136
мъ@@ 0.27414375758917453
Broadcasting 0.10885953329674106
Dy@@ 0.07238216342735475
fu@@ 0.022367686080708025
Crown 0.08296672428140134
Dest@@ 0.12074222120671264
Information 0.0725060204433053
LD 0.2672773236226951
Tou@@ 0.06593543383761452
kom@@ 0.019249262581765573
ental 0.02350738333051884
tem@@ 0.025843352611596246
β@@ 0.04072030008407893
IA@@ 0.26551450139269456
Pter@@ 0.2305791599237192
bit@@ 0.04144740899615461
jo@@ 0.02840663088381743
Another 0.03599162644828121
Clar@@ 0.04363630189864409
PT 0.23346479097209397
Wolf 0.08334102576259818
esc@@ 0.021113292087238087
като 0.021427630110636347
Latin 0.0341847051508944
Style 0.16797881745171164
ous@@ 0.038917586211455836
pedia 0.20435024020867007
town 0.007097485496440039
Second 0.02479507953001603
Pel@@ 0.047198257362682274
RE 0.23373268384201323
aca 0.041272295867105846
illus 0.2755157731978525
ion@@ 0.041942129191592806
ӏ@@ 1
Language 0.11556686673505004
Shin@@ 0.10452271423319147
dem@@ 0.011279844898423317
eni 0.059495028945116074
ild 0.07847827717861468
Liter@@ 0.059985469600182764
pic@@ 0.025699535509057254
2- 0.5887715612038223
Brit@@ 0.05625083035041096
ater 0.04175972825561598
Base 0.07743761039954257
Gibson 0.14968293588474482
acc@@ 0.010218822564575195
mis@@ 0.01063379802969257
pil@@ 0.02658004109499983
ticus 0.2769331263929554
вече 0.28471419504264667
מ@@ 0.6739924978029158
Mill@@ 0.05518017382086369
endron 0.391777917493109
kin@@ 0.039620795924211534
ocer@@ 0.24751888148420462
tum 0.06530618848842265
gre@@ 0.019261976162564604
hom@@ 0.01639939497954842
″ 0.35600667992449775
Key 0.12090779920436572
PD@@ 0.24683655921890096
vil@@ 0.049970715886146155
BT 0.22318400487216628
BW@@ 0.20972552908653355
EF@@ 0.24323444795623167
Emp@@ 0.049791853378173025
Li 0.06479005081177394
Musical 0.10735900529794362
Northern 0.0265575634823087
Sanc@@ 0.13830930008621203
dem 0.0012048079930405205
Eg@@ 0.06460768445415078
apo@@ 0.02119194002188087
Has@@ 0.06091280119146457
Jr 0.04717608746775998
Kol@@ 0.020072024797830886
word 0.02515839822784682
Bru@@ 0.03658644660431729
Det@@ 0.05452434289304859
Ses@@ 0.1025386031090721
Week@@ 0.19919645208240164
uk 0.05006120556740334
Dou@@ 0.043083979112152435
GR@@ 0.2705189563806022
् 0.000936841519966305
Cold 0.13810858140843432
arc@@ 0.03714815097940754
eller 0.02324354529561028
‒ 1
Carl 0.03227533028316174
Globe 0.1524082218674786
Punk 0.2564731156196409
ario 0.011342336661944072
Bau@@ 0.009889321744231893
Ji@@ 0.06184312065325005
States 0.005065488100257254
chil@@ 0.0737764269421654
вени 0.4338702089566432
pat@@ 0.015347937159682482
Andr@@ 0.08261878163168306
Jud@@ 0.04019014058450236
Lord 0.025359596916008576
fen@@ 0.03151160125047061
Pom@@ 0.06338724033040283
fre@@ 0.013668118224719538
туга@@ 1
Scott 0.029975169577238996
archiv@@ 0.130968029859811
ned 0.01989753341033998
vor@@ 0.007042608097402428
ր@@ 1
DL 0.221765911448642
ner@@ 0.019969042104959502
Math@@ 0.06074083876317992
by@@ 0.037255858168527035
cep@@ 0.04325522947845023
ité 0.007659300335973725
фрай@@ 1
ize 0.031181440653202365
usa 0.03862192806831044
Hammer 0.2166928211209332
Industrial 0.09957467487175087
gro@@ 0.017472042391430683
Jesus 0.05728135703347592
uri 0.04374960415637029
Fem@@ 0.06112220813545424
SU 0.15323677924424425
lag 0.031790957334663285
this 0.0020494884281643446
Vita 0.3298998248849429
aa 0.08272739154867126
nic@@ 0.09352626019649446
Lamb@@ 0.13707745464662932
Tab@@ 0.03630011893497649
chen 0.010972175636346108
ency 0.019766494963661032
lies 0.014888691171097462
Ö@@ 0.033025291160421806
Exper@@ 0.06982440280695908
aru 0.15472793119402806
Slam 0.16269083829711428
asis 0.06659731404577705
bin@@ 0.025227842632542657
ა 1
Xen@@ 0.27408556528506867
fa@@ 0.018196181495633356
ges 0.012499246566807237
÷ 1
Bil@@ 0.030205923438042168
ems 0.03950220517767739
gio 0.0510637892036036
onds 0.050536207897202576
EV@@ 0.3087144135744853
Re 0.22094434672651342
Instrum@@ 0.07064546127304942
Mathemati@@ 0.08383717693536737
Ry@@ 0.055584728483532915
XT 0.6223560289073238
enger 0.07052093011650605
2.2 0.22226584100890506
Bus 0.10983598349799925
frame 0.06778631689557572
metal 0.03192305152448202
osis 0.03839566483435346
CEO 0.06795957120063624
O. 0.09897112059618271
var 0.0755033148248159
Bad@@ 0.036549516797323024
Call@@ 0.09894063964511893
SAR@@ 0.299337137549652
buch 0.05620985422480133
nam@@ 0.020774252939854836
tan 0.01971816682200196
π 0.14982679871349677
реца 1
GN@@ 0.32774044081070985
Roland 0.10889119539619914
ode 0.04321518226928168
DL@@ 0.3007540727819928
zo@@ 0.06874013347945297
Alternative 0.15416865237495103
Taylor 0.036644323197075314
зони 1
HF 0.1194918123568568
Ruby 0.254810048661417
zur 0.004015800866800087
Af@@ 0.05746722039175472
Syst@@ 0.05451980694878498
ule 0.023936428091731615
Set 0.18110593014436818
Sno@@ 0.17504039284438924
oh 0.1755390834222935
187@@ 0.1938280685763408
H2@@ 0.6248184372554483
Ox@@ 0.08765881140866702
Was 0.16311253986240057
jet 0.11629398000374858
rem@@ 0.012125721156240828
ric@@ 0.03906335091235143
Eastern 0.030480801135222692
away 0.014971695520526676
err@@ 0.021756460301522923
tual 0.09925529266513342
Ric@@ 0.08419112386022959
lands 0.020458008436558622
nor@@ 0.015446637861825397
Church 0.012045865777189552
ici 0.057463107349274796
win@@ 0.05041749565976148
гва 1
link 0.07221811820441981
Δ@@ 0.06824344867981222
Horse 0.12503054167421312
PI@@ 0.18767456181186068
Walk 0.19978367838834676
ilia 0.09015201141308729
mos@@ 0.034575639072353656
orn 0.05782164408083224
Citi@@ 0.12602836677769447
top@@ 0.030438500311035694
vers@@ 0.01644597630671089
цего@@ 1
Pra@@ 0.08018703548660087
[...]
