, 0.9698479689180242
. 0.9140130899807811
του 1
και 1
της 1
το 1
&quot; 0.915383197929831
την 1
από 1
ο 1
με 1
η 1
) 1
( 1
να 1
τον 1
που 1
των 1
σε 1
στην 1
για 1
στο 1
τη 1
τα 1
είναι 1
οι 1
Η 1
τους 1
Το 1
ή 1
Ο 1
@-@ 0.4439255884591398
ήταν 1
στη 1
ως 1
τις 1
: 1
ών 1
ος 1
στις 1
ένα 1
Σ@@ 1
ου 1
ική 1
ότι 1
ικό 1
μια 1
στον 1
ία 1
ες 1
ων 1
στα 1
ό 1
« 1
» 1
ίας 1
αν@@ 1
σ@@ 1
ά 1
ής 1
ους 1
δεν 1
β@@ 1
α 1
φ@@ 1
ές 1
εν@@ 1
Οι 1
Κ@@ 1
ικά 1
τ@@ 1
ός 1
χ@@ 1
ο@@ 1
ι@@ 1
Π@@ 1
΄ 1
ικής 1
είχε 1
μ@@ 1
προ@@ 1
Τ@@ 1
Α@@ 1
ν@@ 1
Ν@@ 1
Μ@@ 1
Β@@ 1
ού 1
α@@ 1
ι 1
θ@@ 1
έχει 1
δ@@ 1
κατά 1
κ@@ 1
ης 1
π@@ 1
αλλά 1
ικού 1
γ@@ 1
Λ@@ 1
στ@@ 1
ικές 1
ας 1
απο@@ 1
ί@@ 1
εκ@@ 1
αν 1
ου@@ 1
λ@@ 1
ενώ 1
ά@@ 1
έ@@ 1
ικών 1
ό@@ 1
οποία 1
ω@@ 1
θα 1
δι@@ 1
όπως 1
δύο 1
ρι@@ 1
&apos; 0.9553466129472974
- 1
άν@@ 1
εξ@@ 1
η@@ 1
ς 1
Ρ@@ 1
ζ@@ 1
ε@@ 1
συν@@ 1
ύ@@ 1
Χ@@ 1
ε 1
μετά 1
Ε@@ 1
τ 1
επι@@ 1
υπο@@ 1
μα 1
μπ@@ 1
ρ@@ 1
Φ@@ 1
όταν 1
ιν@@ 1
ευ@@ 1
ού@@ 1
παρ@@ 1
όπου 1
έν@@ 1
επίσης 1
ει 1
υ@@ 1
ερ@@ 1
ακ@@ 1
τι@@ 1
Δ@@ 1
ον@@ 1
γκ@@ 1
ίου 1
απ@@ 1
ρο@@ 1
μία 1
ούς 1
Ο@@ 1
ια 1
/ 1
αρ@@ 1
κα@@ 1
Ι@@ 1
ν 1
λι@@ 1
Τα 1
ικ@@ 1
ατ@@ 1
κατα@@ 1
επ@@ 1
ουν 1
ικός 1
ση 1
καθώς 1
ισ@@ 1
λ 1
οποίο 1
Μπ@@ 1
Α 1
τική 1
ορ@@ 1
Γ@@ 1
τσ@@ 1
αντι@@ 1
ή@@ 1
το@@ 1
θε@@ 1
άρ@@ 1
στους 1
ίες 1
ασ@@ 1
μέχρι 1
ανα@@ 1
μεταξύ 1
εία 1
αλ@@ 1
ί 1
κ 1
αγ@@ 1
ρα@@ 1
ξ@@ 1
2 0.941957791557938
ώ@@ 1
έχουν 1
αυτό 1
σης 1
σκ@@ 1
έγινε 1
χρόνια 1
τος 1
μετα@@ 1
τικό 1
ρί@@ 1
τα@@ 1
ησε 1
προσ@@ 1
ρ 1
πρώτη 1
1 0.7913118948960894
προς 1
σι@@ 1
ελ@@ 1
να@@ 1
πιο 1
ομ@@ 1
πλ@@ 1
Β 1
οί 1
ίων 1
Στις 1
ει@@ 1
Ζ@@ 1
; 0.3685288995280853
τρ@@ 1
αι@@ 1
περιοχή 1
ήθηκε 1
πόλη 1
μπορεί 1
θέση 1
τες 1
αυτή 1
άλ@@ 1
περι@@ 1
Γκ@@ 1
ήσει 1
κο@@ 1
βι@@ 1
ομάδα 1
λε@@ 1
τικά 1
σαν 1
ιο 1
ένας 1
διάρκεια 1
Αν@@ 1
ίν@@ 1
αφ@@ 1
3 0.9200152959099926
υπ@@ 1
κλ@@ 1
αμ@@ 1
αιώνα 1
τά@@ 1
μ 1
ηση 1
ολ@@ 1
δια@@ 1
Έ@@ 1
έρ@@ 1
ρά@@ 1
οποίος 1
όρ@@ 1
εται 1
οδ@@ 1
Από 1
είχαν 1
εί 1
όν@@ 1
θεί 1
&amp; 1
ώντας 1
ρος 1
Στην 1
ψ@@ 1
λα@@ 1
% 0.6824613417687735
έναν 1
– 0.4284250349511853
έκ@@ 1
ενός 1
μα@@ 1
περίοδο 1
μέρος 1
οπ@@ 1
μόνο 1
ρα 1
ότητα 1
πολύ 1
πο@@ 1
Ά@@ 1
οσ@@ 1
μαζί 1
Μετά 1
4 0.9034257070482324
Τζ@@ 1
μον@@ 1
Δι@@ 1
έως 1
ικούς 1
ήσεις 1
είται 1
ον 1
ωση 1
Με 1
εί@@ 1
άσ@@ 1
τικές 1
μά@@ 1
έλ@@ 1
ων@@ 1
τερ@@ 1
Θ@@ 1
περίπου 1
βρίσκεται 1
είο 1
μι@@ 1
ερ 1
όμως 1
υλ@@ 1
ίσ@@ 1
άς 1
εγ@@ 1
ονται 1
γι@@ 1
τη@@ 1
είας 1
άκ@@ 1
εύ@@ 1
μένη 1
ρε@@ 1
κά@@ 1
φορά 1
τικής 1
εν 1
όνομα 1
αργότερα 1
είου 1
Στο 1
τότε 1
εφ@@ 1
εισ@@ 1
μάτων 1
τι 1
κάθε 1
Τσ@@ 1
Κατά 1
τζ@@ 1
είς 1
Προ@@ 1
αυ@@ 1
πι@@ 1
ούν 1
όν 1
μέσα 1
οντας 1
5 0.8942658400161394
ίδια 1
Παρ@@ 1
τικών 1
ματα 1
θηκαν 1
&#93; 1
λλ@@ 1
ισμό 1
τρι@@ 1
καλ@@ 1
έ 1
&#91; 1
αρχ@@ 1
ήματα 1
πως 1
Γι@@ 1
.@@ 1
οκ@@ 1
Τον 1
Είναι 1
Σε 1
πρώτο 1
αστ@@ 1
λόγω 1
γεν@@ 1
ρου 1
άγ@@ 1
όσ@@ 1
μαν@@ 1
ογ@@ 1
μέ@@ 1
ιστ@@ 1
Συν@@ 1
πριν 1
ούσε 1
τε@@ 1
ισμού 1
υπό 1
ταινία 1
κυρίως 1
σειρά 1
ηγ@@ 1
Την 1
Η@@ 1
μη 1
αντ@@ 1
ιλ@@ 1
συνέχεια 1
ώθηκε 1
ρού@@ 1
όπ@@ 1
ιά 1
τού 1
με@@ 1
αί@@ 1
10 0.8540612827971834
π 1
ματ@@ 1
ετών 1
μένο 1
Για 1
οχ@@ 1
ποι@@ 1
πάνω 1
φορ@@ 1
6 0.8026444605258409
ικοί 1
οφ@@ 1
ημ@@ 1
πέ@@ 1
πρ@@ 1
Μαρ@@ 1
έργο 1
ησης 1
παν@@ 1
φορές 1
μιας 1
ξη 1
άν 1
τέ@@ 1
τελ@@ 1
βασ@@ 1
βλ@@ 1
διά@@ 1
όλ@@ 1
καθ@@ 1
αβ@@ 1
μερ@@ 1
οποι@@ 1
τικού 1
φ 1
ειας 1
τυ@@ 1
Ελλάδα 1
υρ@@ 1
ίδα 1
θηκε 1
δε@@ 1
τών 1
Στη 1
2011 1
ζ 1
ίστηκε 1
ντ 1
χωριό 1
Ήταν 1
καν@@ 1
τί@@ 1
ρέ@@ 1
Αλ@@ 1
νε@@ 1
ίζει 1
σήμερα 1
τά 1
ίκ@@ 1
ηθεί 1
σία 1
χωρίς 1
έφ@@ 1
Καρ@@ 1
έχ@@ 1
ώσει 1
οβ@@ 1
ρο 1
ησαν 1
αθ@@ 1
ότητας 1
ιών 1
όλα 1
συ@@ 1
ημα 1
σπ@@ 1
ίλ@@ 1
ουν@@ 1
θη@@ 1
Γου@@ 1
ρω@@ 1
ετ@@ 1
ιμ@@ 1
αλλ@@ 1
αυτά 1
ειδ@@ 1
Ου@@ 1
Αρ@@ 1
14@@ 1
Γ 1
ίδιο 1
ϊ@@ 1
τας 1
Κα@@ 1
μεν@@ 1
ματος 1
τεχν@@ 1
σσ@@ 1
περ@@ 1
σύμφωνα 1
8 0.8261493046806749
7 0.7953292380391542
Επίσης 1
ώς 1
μέσω 1
σίας 1
θέ@@ 1
πρό@@ 1
Σύμφωνα 1
μεγάλη 1
Αγ@@ 1
ισμός 1
αποτέλεσμα 1
τές 1
καρ@@ 1
τή 1
13@@ 1
μέλος 1
πόλης 1
εποχή 1
κτ@@ 1
_ 1
έλαβε 1
εδ@@ 1
χω@@ 1
ομάδες 1
ιστορία 1
ήσουν 1
όσο 1
Ό@@ 1
έτσι 1
20 0.8997511944749704
τού@@ 1
δυ@@ 1
τικός 1
πολλές 1
12 0.8848756968059797
τμήμα 1
ω 1
κιν@@ 1
μπο@@ 1
εκλογές 1
στοιχεία 1
γραφ@@ 1
ήθηκαν 1
αδ@@ 1
κυ@@ 1
λά@@ 1
έκανε 1
τρεις 1
όγ@@ 1
άλλα 1
σχ@@ 1
δο@@ 1
νομ@@ 1
αρχές 1
εργ@@ 1
υπερ@@ 1
π.Χ. 1
ορι@@ 1
αναφέρεται 1
άμ@@ 1
Καλ@@ 1
οι@@ 1
5@@ 1
ουλ@@ 1
τον@@ 1
μένων 1
τέλος 1
του@@ 1
ην@@ 1
οργαν@@ 1
υγ@@ 1
ούνται 1
χώρα 1
Ωστόσο 1
επί 1
χαρ@@ 1
ονταν 1
= 1
κοντά 1
4@@ 1
μο 1
ούν@@ 1
αποτελεί 1
τίτλο 1
πολλά 1
φιλ@@ 1
ών@@ 1
κι 1
τόσο 1
15 0.8956299069943909
έσ@@ 1
ωσε 1
ωσης 1
Υ@@ 1
άλλες 1
ταν@@ 1
όκ@@ 1
μο@@ 1
υν@@ 1
άστηκε 1
όμ@@ 1
ηλικία 1
έδρα 1
γκ 1
σα 1
ψη 1
ξεκίνησε 1
ρά 1
γιος 1
χ 1
μένα 1
μένος 1
σύν@@ 1
The 0.07140626368123554
αχ@@ 1
ζωή 1
υπάρχει 1
λογ@@ 1
νη 1
6@@ 1
ρίας 1
εκ 1
λί@@ 1
πε@@ 1
πρωτάθλημα 1
9 0.7701153316333398
εμ@@ 1
κόρη 1
ιν 1
ολογία 1
15@@ 1
μεγάλο 1
2010 0.7189685273383947
πα@@ 1
κατοίκους 1
συμβ@@ 1
ώστε 1
έργα 1
ύ 1
σμ@@ 1
χρ@@ 1
κρατ@@ 1
χρήση 1
τής 1
εια 1
Ανα@@ 1
υ 1
μέλη 1
αζ@@ 1
Ιουλίου 1
Αυγούστου 1
τησε 1
ριν@@ 1
3@@ 1
of 0.02075927124397744
κας 1
όχ@@ 1
8@@ 1
Μαρτίου 1
νο@@ 1
Εθνική 1
χρόνο 1
όλη 1
β 1
αυτές 1
παρα@@ 1
αφού 1
ότητες 1
υπάρχουν 1
ήμ@@ 1
30 0.897403141378705
16 0.9439740329385439
Σεπτεμβρίου 1
ώσεις 1
Οκτωβρίου 1
βάση 1
11 0.850952869572296
λέ@@ 1
14 0.9726584981204539
εκτός 1
όβ@@ 1
σει 1
ακόμη 1
λη@@ 1
νης 1
τελικά 1
formula 1
υσ@@ 1
’ 0.2276847795956295
12@@ 1
σεις 1
Ιουνίου 1
7@@ 1
Στα 1
οποίες 1
Ε 1
είτε 1
Μαΐου 1
γύρω 1
έα 1
9@@ 1
περιοχές 1
Όταν 1
ολογ@@ 1
Ιανουαρίου 1
Με@@ 1
τοπ@@ 1
ιερ@@ 1
μου 1
σύστημα 1
έπ@@ 1
Θε@@ 1
άζει 1
ξης 1
πά@@ 1
δεύτερη 1
επαν@@ 1
πρέπει 1
στο@@ 1
οξ@@ 1
μηχαν@@ 1
18 0.8279031652766844
βά@@ 1
τε 1
συχνά 1
Απριλίου 1
εβ@@ 1
ακόμα 1
σεζόν 1
Εν@@ 1
μβ@@ 1
ομάδας 1
ιζ@@ 1
Άν@@ 1
τερ 1
ώνει 1
ιδ@@ 1
ουσ@@ 1
όφ@@ 1
κυβέρνηση 1
ελ 1
μορφή 1
αρχικά 1
Αυτό 1
Αγίου 1
Λου@@ 1
ίζεται 1
νέα 1
όρος 1
ηλ@@ 1
ότερα 1
Νοεμβρίου 1
τελευταία 1
ούσαν 1
δημιουργ@@ 1
κατ@@ 1
εκεί 1
τικ@@ 1
13 0.9494369296761485
Δ 1
Ιστορία 1
ριο 1
άσει 1
10@@ 1
ντε 1
θέσεις 1
αρκ@@ 1
Κορ@@ 1
συνεχ@@ 1
ητή 1
λεγ@@ 1
δρ@@ 1
ρυ@@ 1
Αθήνα 1
εναντίον 1
άβ@@ 1
ονομασία 1
άλλων 1
μυ@@ 1
πρώην 1
ίσει 1
2012 0.7576993023794579
αντί@@ 1
Μα@@ 1
κοινότητα 1
17 0.950784149347335
αγώνες 1
όλο 1
όχι 1
ύρ@@ 1
σχετικά 1
κι@@ 1
εμπ@@ 1
ρίου 1
βί@@ 1
Μπο@@ 1
γλώσσα 1
ματική 1
μένες 1
Έχει 1
Εκ@@ 1
δηλαδή 1
25 0.9117655765382107
ότ@@ 1
συνήθως 1
κέντρο 1
αξι@@ 1
Δεκεμβρίου 1
Ντ@@ 1
πήρε 1
πολ@@ 1
ώ 1
σω@@ 1
τρία 1
2009 0.7537867143213708
βασιλιά 1
ύν@@ 1
στα@@ 1
ανακ@@ 1
ωρ@@ 1
ότερο 1
gt 1
Βι@@ 1
de 0.013806640159783069
κατά@@ 1
Κά@@ 1
2008 0.7519861340041547
θρ@@ 1
εσ@@ 1
ρόλο 1
νω@@ 1
ξει 1
ασκ@@ 1
κρι@@ 1
2014 0.7282603915666908
πρώτος 1
μπορούν 1
χή 1
ίδες 1
ώνεται 1
μέτρα 1
έβ@@ 1
αϊ@@ 1
πλέον 1
s 0.1489617458409762
έζ@@ 1
ειες 1
lt 1
Φεβρουαρίου 1
νι@@ 1
κατηγορία 1
άλλη 1
2015 0.7261577235692692
ονομ@@ 1
φω@@ 1
κα 1
διακ@@ 1
ήματος 1
ίνα 1
2013 0.7273736580433589
μένοι 1
ίνη 1
σχηματ@@ 1
χρον@@ 1
μεγαλύτερο 1
τικούς 1
Απο@@ 1
γεννήθηκε 1
θούν 1
σή 1
χν@@ 1
Ευ@@ 1
τέλη 1
Βιογραφία 1
ιος 1
εις 1
άλμπουμ 1
έγ@@ 1
κατάσταση 1
τρα 1
δικα@@ 1
αγώνα 1
S@@ 0.19611191732315955
Μά@@ 1
φυ@@ 1
μεσ@@ 1
γίνει 1
υφ@@ 1
τό 1
τς 1
ξι@@ 1
άρχισε 1
βαρ@@ 1
M@@ 0.24191576434871132
ανάμεσα 1
κυκλοφόρησε 1
ητ@@ 1
γεγονός 1
κου@@ 1
0 0.9778087742315631
κάτω 1
παιδιά 1
Ως 1
19 0.839687896624295
έτος 1
μόν@@ 1
Πανεπιστήμιο 1
Γεν@@ 1
τιμ@@ 1
μας 1
2007 0.7434589671468392
ευση 1
στική 1
πρόεδρος 1
κέρδισε 1
μεγαλύτερη 1
αμπ@@ 1
Περ@@ 1
ίδ@@ 1
πρώτα 1
Αν 1
στι@@ 1
διατ@@ 1
P@@ 0.22679949516725806
2016 0.7003412890782819
Μον@@ 1
δεύτερο 1
πολιτική 1
Κατ@@ 1
ΗΠΑ 1
χώρας 1
γνωστή 1
χρονιά 1
αγων@@ 1
ροφ@@ 1
απλ@@ 1
Αντι@@ 1
σχεδόν 1
σε@@ 1
τούν 1
δεκαετία 1
μένου 1
ρό@@ 1
κύ@@ 1
αία 1
διασ@@ 1
ιγ@@ 1
τύ@@ 1
υπήρξε 1
είων 1
μουσ@@ 1
Ελλάδας 1
λιο 1
οτ@@ 1
όλες 1
γνωστό 1
ρου@@ 1
21 0.9332204083971
πολυ@@ 1
ιτ@@ 1
Συ@@ 1
σχέση 1
ιδιαίτερα 1
Κου@@ 1
άδα 1
παλαι@@ 1
χώρες 1
-@@ 1
περιοχής 1
Έτσι 1
2006 0.7293118493302726
όμενη 1
έας 1
πέντε 1
επειδή 1
ίζουν 1
ουμε 1
χος 1
T@@ 0.2231146352104253
C@@ 0.2513378571424916
κατασκευ@@ 1
πορ@@ 1
οποίοι 1
the 0.00861913400419588
ουρ@@ 1
πολη 1
ίο 1
εγκ@@ 1
πους 1
πτ@@ 1
περισσότερο 1
λο 1
τρο@@ 1
επί@@ 1
υπολογ@@ 1
θάνατο 1
Επ@@ 1
συμμετείχε 1
μαχ@@ 1
κόσμο 1
τρο 1
οικ@@ 1
ώθηκαν 1
ίδιος 1
22 0.958495472624997
γράφ@@ 1
τρόπο 1
ωθεί 1
24 0.862371168111287
2019 0.7195838591609046
Ευρώπη 1
άρα 1
ΐ@@ 1
μάχη 1
παραγωγή 1
γίνεται 1
θ 1
ητές 1
όνα 1
τολ@@ 1
κάνει 1
περί@@ 1
δί@@ 1
πληθυσμό 1
τηκε 1
σφ@@ 1
ναν 1
εμπο@@ 1
ότερη 1
Κλ@@ 1
εκείνη 1
ημάτων 1
Επι@@ 1
ωστόσο 1
ιάς 1
Λε@@ 1
ρία 1
έμ@@ 1
άρι 1
έδωσε 1
μη@@ 1
ψε 1
αγι@@ 1
κολ@@ 1
απογραφή 1
αυξ@@ 1
πολι@@ 1
άφ@@ 1
ούλ@@ 1
ψει 1
οδηγ@@ 1
αση 1
Μπρ@@ 1
πατέρα 1
ραγ@@ 1
δος 1
ελλ@@ 1
2017 0.6664845385032654
καταστ@@ 1
χρησιμοποιείται 1
ρού 1
νη@@ 1
ενεργ@@ 1
F@@ 0.2310564888209137
νέο 1
Απ@@ 1
όλων 1
συμ@@ 1
2018 0.6376873442940846
σον 1
άλλους 1
ντ@@ 1
μή@@ 1
μετρ@@ 1
παράδειγμα 1
D@@ 0.20948134436219162
ίδας 1
αρκετά 1
τορ@@ 1
όρι@@ 1
2@@ 1
άτομα 1
ανά 1
πέθανε 1
οικογένεια 1
ιού 1
Αθηνών 1
χιλιόμετρα 1
ψηφ@@ 1
Γαλλία 1
Μια 1
Εξ@@ 1
2004 0.8213307594899745
θεωρείται 1
L@@ 0.19851996320014442
Ένα 1
βόρεια 1
ζε 1
άδες 1
Αρχ@@ 1
ιδρύθηκε 1
2000 0.7376428901226784
23 0.9415310670698599
αριθμός 1
στά@@ 1
H@@ 0.22663654013864265
βασιλ@@ 1
άλλο 1
ίστηκαν 1
Παν@@ 1
τεί 1
Πρωτάθλημα 1
Πλ@@ 1
Βρεταν@@ 1
αυτο@@ 1
ιρ@@ 1
νότια 1
δυνάμεις 1
χημ@@ 1
ναυ@@ 1
κορ@@ 1
χρησιμοποι@@ 1
ζωής 1
ήγ@@ 1
αρι@@ 1
πατέρας 1
νό@@ 1
θη 1
επιτυχία 1
μαρ@@ 1
μφ@@ 1
έων 1
αρχαι@@ 1
ιστεί 1
οικισμός 1
B@@ 0.1983092477678412
υψηλ@@ 1
δυο 1
28 1
βρίσκονται 1
άδ@@ 1
έγραψε 1
μακ@@ 1
περιλαμβάνει 1
ογραφία 1
R@@ 0.22106758103157562
διαφ@@ 1
αναπ@@ 1
ειρ@@ 1
G@@ 0.20903602732240856
τραγούδι 1
κο 1
δύ@@ 1
ις 1
παρά 1
ίνο 1
αερ@@ 1
πρόσ@@ 1
σημ@@ 1
αυτός 1
ργ@@ 1
ήδη 1
στερ@@ 1
2005 0.7351082110809856
πόλεις 1
Ξ@@ 1
σχολ@@ 1
υμ@@ 1
κομ@@ 1
χώρο 1
οπο@@ 1
σεων 1
ιστές 1
ελληνική 1
ώσ@@ 1
διάστημα 1
C 0.6916652784233102
λει@@ 1
ταρ@@ 1
ητής 1
ύλ@@ 1
Σου@@ 1
Πι@@ 1
ειο 1
όμενο 1
ώρα 1
διοικ@@ 1
ίνης 1
έγιναν 1
εθν@@ 1
Σι@@ 1
πον@@ 1
βαθμ@@ 1
μουσική 1
ακή 1
Γεννήθηκε 1
άνο 1
μήκος 1
ξ 1
βα 1
κατέ@@ 1
άντα 1
μελ@@ 1
δε 1
τελικό 1
αργ@@ 1
έρα 1
ωνα 1
εστ@@ 1
ταλ@@ 1
27 0.971853613646112
χαμηλ@@ 1
ιστική 1
σημείο 1
αυτού 1
μει@@ 1
πρω@@ 1
φαν@@ 1
αυτών 1
Παπ@@ 1
ιδι@@ 1
δρα@@ 1
γνωστός 1
amp 0.5643083873214669
Βαλ@@ 1
θαν@@ 1
βασιλιάς 1
ψυχ@@ 1
εμφαν@@ 1
σκι 1
ήλ@@ 1
όμενος 1
λευ@@ 1
&#124; 1
ανάπτυξη 1
Παλαι@@ 1
πολεμ@@ 1
άσεις 1
ανέλαβε 1
παρά@@ 1
δημ@@ 1
όρο 1
υχ@@ 1
πίσω 1
ωμα 1
επισκ@@ 1
πιστ@@ 1
ανά@@ 1
τάν@@ 1
ήν@@ 1
βολ@@ 1
θεωρ@@ 1
26 0.9541454432796849
συνα@@ 1
2001 0.8599196361435169
Στον 1
Σ 1
ορο@@ 1
γιο 1
Γερμαν@@ 1
παί@@ 1
συμπ@@ 1
ότερες 1
Αντ@@ 1
ρύ@@ 1
οποίων 1
αυτόν 1
περιόδου 1
κάποια 1
είες 1
ηθ@@ 1
ηματ@@ 1
Αυτή 1
εκατομμύρια 1
ται 1
εποχής 1
έκδοση 1
κοιν@@ 1
A@@ 0.217035524195866
ουσι@@ 1
κατοικ@@ 1
Ερ@@ 1
Γερμανία 1
εντός 1
16@@ 1
αυτής 1
Μερ@@ 1
ήσεων 1
σιο 1
ήρ@@ 1
Ί@@ 1
δη 1
μένης 1
μετ@@ 1
πυ@@ 1
είδος 1
ίζονται 1
όλου 1
επίπεδο 1
μπορούσε 1
όπουλος 1
Ελλην@@ 1
συγκ@@ 1
αποφ@@ 1
συγ@@ 1
φθ@@ 1
διάφορες 1
ούνταν 1
Χά@@ 1
κάτι 1
ικα 1
όνομά 1
στεί 1
μικρ@@ 1
τιο 1
δηλ@@ 1
άπ@@ 1
ολόγ@@ 1
πλευρά 1
χθηκε 1
ιση 1
μέν@@ 1
άλλ@@ 1
μένους 1
ώματα 1
επέστρεψε 1
ολογίας 1
πόλεμο 1
φυσ@@ 1
άζ@@ 1
τηση 1
Δεν 1
Νέα 1
είδη 1
ίγ@@ 1
Στα@@ 1
N@@ 0.21777643571711738
ούρ@@ 1
νησί 1
100 0.7768462348564287
αριθμό 1
Μέ@@ 1
δεκαετίας 1
Έλληνας 1
ταν 1
τυπ@@ 1
λύ@@ 1
έχοντας 1
εξής 1
εταιρεία 1
· 0.8106451801329739
μητέρα 1
έξ@@ 1
Κυ@@ 1
πλο@@ 1
οντα 1
ασε 1
αναφέρει 1
πολιτι@@ 1
ξε 1
ακολουθ@@ 1
Γαλλίας 1
πολέμου 1
συμμετοχή 1
Παγκόσμιο 1
29 0.995496161553569
βρισκόταν 1
δική 1
μν@@ 1
περισσότερα 1
Κοιν@@ 1
Σαρ@@ 1
μόλις 1
Νε@@ 1
Μουσ@@ 1
μος 1
ρον@@ 1
αριθμ@@ 1
Μαρία 1
Φιλ@@ 1
Μικ@@ 1
έτη 1
αγωγ@@ 1
στικό 1
τυχ@@ 1
Πέ@@ 1
Δημ@@ 1
βο@@ 1
Άλ@@ 1
χορ@@ 1
ρη@@ 1
χαρακτηριστικά 1
κάτοικοι 1
γραφή 1
Ένωση 1
τρί@@ 1
γέν@@ 1
άστηκαν 1
πος 1
θμ@@ 1
ονομάζεται 1
ταγ@@ 1
όδ@@ 1
τροφ@@ 1
νόμ@@ 1
τικοί 1
ρακ@@ 1
λίγο 1
λη 1
ροι 1
κοινων@@ 1
ραν@@ 1
μαν 1
in 0.011528592870785588
σχε@@ 1
παρουσι@@ 1
ωνίας 1
κατασκευή 1
χλμ. 1
στρατιω@@ 1
δημιουργία 1
θεση 1
μή 1
1990 0.9252816430581071
καριέρα 1
ποτέ 1
αγγ@@ 1
50 0.9228108651935077
Κύπελλο 1
Σύ@@ 1
μήνες 1
φέρει 1
νέ@@ 1
δικ@@ 1
o 0.14715172258223497
έξι 1
ηδ@@ 1
y 0.03723808701347149
έι@@ 1
τεύ@@ 1
ίζοντας 1
! 0.786007550633142
βιβλίο 1
θυ@@ 1
E@@ 0.23619244701766937
Περι@@ 1
άι@@ 1
επόμενη 1
γυ@@ 1
ανήκει 1
συνεργ@@ 1
σκοπ@@ 1
Κο@@ 1
ρι 1
παρέμεινε 1
έν 1
Ιταλία 1
2002 0.7666299697741723
a 0.01423300346673165
γνω@@ 1
σημαίνει 1
χωριού 1
νά@@ 1
έφερε 1
παραδ@@ 1
εμβ@@ 1
Πολ@@ 1
ίζ@@ 1
επιτυχ@@ 1
ευρωπαϊκ@@ 1
προβλ@@ 1
άζεται 1
σύγχρον@@ 1
ζει 1
ισε 1
έλ 1
από@@ 1
πρωτεύουσα 1
Κον@@ 1
2020 0.5677101179628037
σημαντικό 1
ξαν 1
περίπτωση 1
βαθμό 1
Άρ@@ 1
ανδρών 1
ικαν@@ 1
2003 0.7661867947186455
ανό 1
δομ@@ 1
Αμερικαν@@ 1
ρας 1
περισσότερες 1
καν 1
ιστικό 1
άρ 1
ρό 1
αντ 1
Ιωάννης 1
Νομ@@ 1
Παλ@@ 1
1@@ 1
σταθερ@@ 1
γον@@ 1
σύ@@ 1
αξ@@ 1
οποίηση 1
νικ@@ 1
... 1
ισχυ@@ 1
ώνοντας 1
ίν 1
Ιωάννη 1
Ω@@ 1
προσωπ@@ 1
Ισ@@ 1
γαλλικά 1
στη@@ 1
αρχή 1
νίκη 1
λειτουργ@@ 1
πάλι 1
άκη 1
Ορ@@ 1
άρια 1
ημένη 1
Πά@@ 1
τέρ@@ 1
αποτελούν 1
οί@@ 1
ητική 1
τακ@@ 1
τοκ@@ 1
άχ@@ 1
σκοπό 1
κορυφ@@ 1
κυρι@@ 1
1999 0.8217205461423872
σκοτ@@ 1
τευ@@ 1
επαρχία 1
οποίου 1
σμό 1
ιου 1
λυ@@ 1
θύ@@ 1
τέσσερις 1
σώμα 1
άνα 1
ιστο@@ 1
τάφ@@ 1
χει@@ 1
Μακ@@ 1
άρχ@@ 1
ρούς 1
K@@ 0.1830394909332674
ανι@@ 1
γκα 1
άνει 1
Κολ@@ 1
ώσεων 1
εζ@@ 1
εκδ@@ 1
φαίνεται 1
αστεί 1
άζουν 1
ταινίες 1
δο 1
ημερ@@ 1
έκταση 1
όνο 1
στρ@@ 1
σημαντική 1
Κύ@@ 1
ακό 1
επο@@ 1
Α.@@ 1
κερ@@ 1
ρεύ@@ 1
ράς 1
ιστορ@@ 1
ριακ@@ 1
μικρό 1
ανθ@@ 1
πληθυσμού 1
Ιταλ@@ 1
χώ@@ 1
επικεφαλής 1
Πολι@@ 1
ψης 1
ανατολ@@ 1
ταμ@@ 1
δύναμη 1
κατέκτησε 1
κυβερν@@ 1
V@@ 0.21972708703053517
πολης 1
επίσημα 1
έστ@@ 1
αυτήν 1
Σκ@@ 1
έρν@@ 1
πρόγραμμα 1
άκι 1
κω@@ 1
Λι@@ 1
στασ@@ 1
όνων 1
δημοσι@@ 1
κατάφερε 1
μό@@ 1
A 0.18219831429146752
Εθνικής 1
1η 1
τό@@ 1
σημει@@ 1
ύλου 1
εχ@@ 1
Θεσσαλονίκης 1
1997 0.9350113829211388
ραβ@@ 1
άρι@@ 1
θρησκευ@@ 1
παλ@@ 1
ίμ@@ 1
τή@@ 1
Έλληνες 1
ρη 1
ξανά 1
εκκλησία 1
λή@@ 1
ρική 1
Παρίσι 1
σύνολο 1
εξουσία 1
πρώτες 1
κη 1
άσκ@@ 1
δέ@@ 1
ισαν 1
δρομ@@ 1
μ. 1
όρους 1
W@@ 0.1798248255740944
αποτελείται 1
επικ@@ 1
γερμαν@@ 1
31 0.9355055178630178
αίνει 1
νεκ@@ 1
γυναίκες 1
ασσ@@ 1
συνολικά 1
διάφορα 1
διπλ@@ 1
άλλοι 1
οπότε 1
Πολέμου 1
μικρή 1
χριστιαν@@ 1
ειν@@ 1
μεγάλες 1
τησαν 1
ρίες 1
έλα 1
έπειτα 1
κοπ@@ 1
τελε@@ 1
στρατηγ@@ 1
θαλ@@ 1
Ομ@@ 1
O@@ 0.22611430812093464
δημο@@ 1
Σχολή 1
Πρω@@ 1
1.@@ 1
κρα@@ 1
ητικό 1
στής 1
λεκ@@ 1
ωσαν 1
απέκτησε 1
γάμο 1
μην 1
εύει 1
άκης 1
ϊκ@@ 1
ειών 1
τομ@@ 1
σχέδιο 1
ατρ@@ 1
παι@@ 1
Ή@@ 1
βοηθ@@ 1
έρ 1
απόσταση 1
ώνα 1
υδ@@ 1
ικότητα 1
πο 1
αντα@@ 1
συγκρότημα 1
κε@@ 1
40 0.8720111787481233
σπίτι 1
ρατ@@ 1
φων@@ 1
i 0.22721251663619468
Ιερ@@ 1
επέ@@ 1
ανατολικά 1
δίας 1
ίδης 1
φυλ@@ 1
Βυζαντιν@@ 1
παραγωγής 1
Ναυ@@ 1
αυτούς 1
and 0.011226822544521918
γλ@@ 1
χι@@ 1
τοι 1
μέτρων 1
διαλ@@ 1
οικονομ@@ 1
μό 1
όρια 1
αγωνίστηκε 1
ερν@@ 1
εθνική 1
κανον@@ 1
Δημοκρατίας 1
αναγ@@ 1
θέματα 1
οδήγησε 1
πληθυσμός 1
Ιν@@ 1
σωματ@@ 1
νο 1
Μάρ@@ 1
1998 0.7985791089164923
πατ@@ 1
έφτασε 1
δυτικά 1
ζεται 1
ησι@@ 1
λερ 1
προέρχεται 1
Νέ@@ 1
δου@@ 1
ισης 1
ωνία 1
οχή 1
στρατό 1
εξελέγη 1
μαζ@@ 1
1991 0.9172444572432552
Ακ@@ 1
στικά 1
γεω@@ 1
προκειμένου 1
παράγ@@ 1
κοινό 1
κε 1
1980 0.9650103706791875
τηκαν 1
γαλλ@@ 1
παρατηρ@@ 1
όζ@@ 1
Α. 1
είδ@@ 1
κακ@@ 1
κρί@@ 1
νυ@@ 1
γαλ@@ 1
ιαν@@ 1
Δημοκρατία 1
υπήρχε 1
φίλ@@ 1
Πόλεμο 1
Σαλ@@ 1
ίους 1
μονα@@ 1
Δήμου 1
ωγ@@ 1
όμενα 1
ακολούθησε 1
Βασιλ@@ 1
υψόμετρο 1
διδ@@ 1
στιγμή 1
ασία 1
Βασίλειο 1
ματο@@ 1
ηφ@@ 1
τσι@@ 1
άμπ@@ 1
μερικές 1
ημέρα 1
1996 0.8418851256503239
άξ@@ 1
I@@ 0.2894349739923953
σμού 1
ώρ@@ 1
Χριστιαν@@ 1
φύ@@ 1
χο 1
αποκ@@ 1
μέσο 1
στατ@@ 1
θεωρού@@ 1
δικό 1
αρκετές 1
δου 1
θος 1
τσα 1
επίθεση 1
σημαντικά 1
χθεί 1
λος 1
ινή 1
.. 1
ορθ@@ 1
παγ@@ 1
άνεται 1
όνου 1
άτες 1
us 0.20315289972071843
ωμένη 1
πραγματοποι@@ 1
απεβίωσε 1
ηθούν 1
ημι@@ 1
ήσ@@ 1
ρίζεται 1
σειράς 1
τούσε 1
άλα 1
ποδοσφαίρου 1
Αργότερα 1
όδου 1
Καν@@ 1
σιος 1
συγκεντρ@@ 1
br 1
πηγές 1
Τρι@@ 1
πρωταθλήματος 1
φάση 1
ρών 1
σας 1
λάβ@@ 1
σημαντικ@@ 1
δρο@@ 1
βοήθεια 1
δημοκρατ@@ 1
αφορά 1
κόμμα 1
ώσουν 1
γου@@ 1
όρων 1
μαγ@@ 1
παρουσία 1
λέξη 1
που@@ 1
άνης 1
Ελ@@ 1
οτήτων 1
υψ@@ 1
βαν@@ 1
ίνι 1
Νικ@@ 1
Μου@@ 1
πολλούς 1
έρας 1
όνι 1
νερό 1
θέμα 1
Ένωσης 1
+ 1
τοποθε@@ 1
υπουργ@@ 1
ποδ@@ 1
ουσα 1
αρχαία 1
ώματος 1
αναγνω@@ 1
Νέας 1
Χρυσ@@ 1
1970 0.995788540273549
ανέ@@ 1
ητών 1
π.χ. 1
ισχυρ@@ 1
ημέρες 1
ρίν@@ 1
ότερος 1
ομιλ@@ 1
σίες 1
ελι@@ 1
τια 1
μέγεθος 1
σχέσεις 1
αγγλικά 1
ορισ@@ 1
οστ@@ 1
στες 1
ασαν 1
ριζ@@ 1
ρίων 1
καθαρ@@ 1
κράτος 1
πρωταγων@@ 1
on 0.031368323839775454
ύτερ@@ 1
τήρ@@ 1
καλοκαίρι 1
βραβείο 1
κυκλ@@ 1
μύ@@ 1
δίδ@@ 1
ζω@@ 1
περί 1
ώνουν 1
1992 0.8174921072019233
ταινίας 1
πλοκ@@ 1
άδας 1
έλεγχο 1
ίστ@@ 1
ζουν 1
Κατα@@ 1
διεξ@@ 1
αίο 1
νευ@@ 1
οπλ@@ 1
πολιτικός 1
Εργ@@ 1
διαδικασία 1
συλλ@@ 1
οικογένειας 1
σμός 1
Μεσ@@ 1
εντ 1
στρατ@@ 1
2021 0.5658895597219329
τοί 1
τουν 1
Κύπρου 1
Σήμερα 1
λόγο 1
αποτελ@@ 1
1960 1
Π.@@ 1
περιλαμβάνουν 1
ωμ@@ 1
Πολιτείες 1
άσεων 1
ήχ@@ 1
άνη 1
χαρακτη@@ 1
Νό@@ 1
άει 1
ούδ@@ 1
ασι@@ 1
τμήματα 1
τύπου 1
έλλ@@ 1
άλ 1
παράδοση 1
ίτ@@ 1
Γερμανίας 1
δημιουργήθηκε 1
γυναίκα 1
κατε@@ 1
καμπ@@ 1
υπουργός 1
απέ@@ 1
Εβρα@@ 1
Κι@@ 1
δούκα 1
αριστερ@@ 1
Κόμμα 1
αιν@@ 1
τρίτη 1
κλί@@ 1
Ρωμα@@ 1
καιν@@ 1
Ντι@@ 1
ίδων 1
δήμο 1
ωνική 1
1994 0.8083419695237211
Αυτοκρατορίας 1
στή 1
ταξη 1
έγκ@@ 1
ηλεκτρ@@ 1
κλασ@@ 1
πλη@@ 1
χρυσ@@ 1
1993 0.8539873912764608
αλ 1
ρίζει 1
μάν@@ 1
60 1
άζονται 1
ιπ@@ 1
λαμ@@ 1
μορφ@@ 1
αποφασ@@ 1
Επιπλέον 1
Μέχρι 1
τρέ@@ 1
υκ@@ 1
S 0.6077353055743604
πτυχ@@ 1
80 1
Ηνωμένες 1
γιατί 1
υπόλοι@@ 1
ματά 1
ελλην@@ 1
όλους 1
λα 1
δόθηκε 1
Γαλ@@ 1
ητικά 1
τέσσερα 1
Βρίσκεται 1
o@@ 0.19996958480193017
νέου 1
έπρεπε 1
βιομηχαν@@ 1
Κρι@@ 1
χα@@ 1
ελεύθερ@@ 1
αναπαρ@@ 1
Σύν@@ 1
ακολουθεί 1
τρα@@ 1
ρυθμ@@ 1
αθλη@@ 1
μέρα 1
λου 1
αγωγή 1
ίσουν 1
καταλ@@ 1
ήλθε 1
πολλοί 1
δράση 1
ριστ@@ 1
βουλευτής 1
γμα 1
τουρκ@@ 1
εξωτερ@@ 1
πί@@ 1
σί@@ 1
πό@@ 1
λειτουργία 1
άγνω@@ 1
εκτελ@@ 1
πρωτο@@ 1
βιτς 1
1995 0.7790409289869676
επηρε@@ 1
κατοίκων 1
Αλεξ@@ 1
Υπο@@ 1
τηλεοπ@@ 1
μεταλλ@@ 1
1989 0.8814940053672793
βαλ@@ 1
Αστ@@ 1
γυναικών 1
βολή 1
όνια 1
έμεινε 1
ίνου 1
νομού 1
ανδ@@ 1
κον@@ 1
άρχης 1
δαν@@ 1
παιχνίδι 1
άνι 1
ίρ@@ 1
μπουργκ 1
ισμα 1
υδρο@@ 1
γύ@@ 1
ψουν 1
ασχολ@@ 1
ισμούς 1
Υπ@@ 1
γι 1
τιν@@ 1
ώρες 1
Ιανουάριο 1
Σα@@ 1
τροπ@@ 1
Πανεπιστημίου 1
διάσ@@ 1
t 0.11013369431654299
Βασίλ@@ 1
παντρεύτηκε 1
διαθέ@@ 1
ιβ@@ 1
πάντα 1
κεντρ@@ 1
φόρ@@ 1
Κάρ@@ 1
πέρασε 1
συνέχισε 1
δεύ@@ 1
1974 1
Οικογένεια 1
° 0.9328479120388198
ιακή 1
ορίζεται 1
Ρώμη 1
εύτηκε 1
μαλ@@ 1
ρισε 1
αμερικαν@@ 1
οφόρ@@ 1
σουν 1
ραφ@@ 1
Μουσείο 1
τραγούδια 1
απέναντι 1
έτ@@ 1
d 0.12886435730447154
Μετα@@ 1
ανίας 1
ομάδων 1
κάποιο 1
ράφ@@ 1
προστ@@ 1
σκλη@@ 1
περιπτώσεις 1
φι@@ 1
άρκ@@ 1
ιστών 1
ψεις 1
ερω@@ 1
Υπάρχουν 1
ζη@@ 1
απ 1
πορεία 1
φή 1
Αγώνες 1
άμε@@ 1
Και 1
Τρ@@ 1
συγγραφέας 1
όγκ@@ 1
και@@ 1
διώ@@ 1
ματικά 1
αύ@@ 1
εργασία 1
γκολ 1
αιο 1
άνια 1
ώνης 1
κλη@@ 1
κυβέρνησης 1
x 0.4172823482967113
αμέσως 1
σπουδ@@ 1
διατηρ@@ 1
ησ@@ 1
αδελφ@@ 1
άνδρες 1
Ατ@@ 1
ποταμού 1
ξέν@@ 1
αισ@@ 1
νεαρ@@ 1
I 0.23102862495391235
Ευρώπης 1
Αφ@@ 1
70 1
λιος 1
Ρωσία 1
ϊ 1
ιστής 1
μετέ@@ 1
ίοι 1
ριακή 1
ινγκ 1
Ένας 1
πνευ@@ 1
άσης 1
ειακ@@ 1
Γεώργιος 1
γραμμή 1
περιέχει 1
ρκ@@ 1
οδο 1
Φλ@@ 1
αποφάσισε 1
πιθαν@@ 1
εμφάνιση 1
εων 1
Οκτώβριο 1
προηγούμεν@@ 1
άθ@@ 1
δήμου 1
αγρο@@ 1
κύκλ@@ 1
σαρ@@ 1
ταξι@@ 1
Οικονομ@@ 1
ίος 1
Ανατολ@@ 1
πληρ@@ 1
άου@@ 1
επισ@@ 1
τουλάχιστον 1
Ελλάδος 1
Σεπτέμβριο 1
ικο 1
μνημ@@ 1
ψαν 1
Κ 1
ημένο 1
κάστρο 1
ανατ@@ 1
Λού@@ 1
μάλιστα 1
θέν@@ 1
διοργαν@@ 1
ογράφ@@ 1
ριος 1
ώνονται 1
θερ@@ 1
ούτε 1
Αγίας 1
μεθ@@ 1
αλλαγή 1
μέρη 1
Βαρ@@ 1
καλλιτεχν@@ 1
ποσοστό 1
τω@@ 1
πει@@ 1
Ιούνιο 1
θεατρ@@ 1
όρου 1
ιλι@@ 1
Πρώ@@ 1
φρά@@ 1
προβλήματα 1
ατών 1
Εθνικό 1
άνω 1
καλύτερ@@ 1
λόγ@@ 1
Πρόεδρος 1
Άγιος 1
ασης 1
παραλ@@ 1
ηθοποιός 1
όλοι 1
Αυ@@ 1
δίν@@ 1
στεν@@ 1
αποκαλ@@ 1
ύψος 1
τιμή 1
20@@ 1
τάσεις 1
ίδη 1
συλλογή 1
n 0.18261243286159515
ευσε 1
Εκεί 1
εμφανίζεται 1
ακόλου@@ 1
έτους 1
Γαλλ@@ 1
μικ@@ 1
τρου 1
μαθηματ@@ 1
Βεν@@ 1
ηλι@@ 1
U@@ 0.2889430020734856
αμβ@@ 1
βρεταν@@ 1
οδος 1
Σχ@@ 1
κόμη 1
τεν@@ 1
μ.Χ. 1
ιστή 1
συνθήκες 1
Λέ@@ 1
στές 1
φυλακ@@ 1
Ρου@@ 1
Ε.@@ 1
εκείν@@ 1
ωμένο 1
Φραν@@ 1
μης 1
θησαν 1
τοπική 1
οιν@@ 1
μην@@ 1
συνεργασία 1
ταχ@@ 1
τραυματ@@ 1
ρίστηκε 1
Μπαρ@@ 1
Μάιο 1
θερμ@@ 1
Μελ@@ 1
ηκε 1
κάποι@@ 1
άδων 1
αρ 1
χρησιμοποιούνται 1
Κάτω 1
ιον@@ 1
έδ@@ 1
εντ@@ 1
συγκεκριμένα 1
ντε@@ 1
τρια 1
1940 1
γ 1
εφ 1
ξεις 1
εξ 1
τελευταίο 1
αλληλ@@ 1
επιστήμ@@ 1
σιμο 1
ματικό 1
Όλ@@ 1
συνδέ@@ 1
ικ 1
συμπερι@@ 1
κίνηση 1
μέσ@@ 1
ελληνικό 1
θεωρία 1
Μάρτιο 1
τουργ@@ 1
απαι@@ 1
κος 1
λλα 1
αποικ@@ 1
Πατρι@@ 1
κύρια 1
γαλλική 1
οφ 1
στήριο 1
επεξ@@ 1
ισμένη 1
λεύ@@ 1
δυναμ@@ 1
Ιούλιο 1
στ 1
ιδιω@@ 1
90 1
τούς 1
προκαλ@@ 1
πηγ@@ 1
συχν@@ 1
υπήρχαν 1
διαι@@ 1
νομό 1
κοσμ@@ 1
αντά@@ 1
μέση 1
έρχεται 1
ποι 1
λατιν@@ 1
ταξ@@ 1
ισσ@@ 1
συγκροτήματος 1
έπαιξε 1
Στρατ@@ 1
ρασε 1
ογραφ@@ 1
χαρακτήρα 1
Αύγουστο 1
Γεωργ@@ 1
άσσ@@ 1
πραγματοποιήθηκε 1
ιδρύ@@ 1
βυζαντιν@@ 1
νες 1
Γερ@@ 1
Κομ@@ 1
επίσημη 1
προσπάθεια 1
κύριο 1
Οίκο 1
βρέθηκε 1
οποίας 1
Αγγλίας 1
βρα@@ 1
Ασ@@ 1
ναός 1
πλού@@ 1
ιμα 1
Δήμος 1
ατική 1
δραστηρι@@ 1
τημα 1
Παγκοσμίου 1
κορυφή 1
διοίκηση 1
ανού 1
Αμερική 1
ιμο 1
παράλληλα 1
ρες 1
Αμ@@ 1
ύγ@@ 1
Κωνσταντινούπολη 1
p 0.32184461246741963
επιστημον@@ 1
s@@ 0.08365177175320589
κατηγορίας 1
επτά 1
Συμ@@ 1
σελ@@ 1
γενικά 1
διαφορε@@ 1
κλει@@ 1
ικότερα 1
σταθμ@@ 1
er 0.03674736118282146
αντίθεση 1
ιώ@@ 1
γειτον@@ 1
έργ@@ 1
Παναγ@@ 1
εως 1
ρίζ@@ 1
κυκλοφορ@@ 1
ότη@@ 1
δευ@@ 1
επεκ@@ 1
Μαλ@@ 1
Τρί@@ 1
αρχία 1
ριση 1
χαλ@@ 1
αλλαγές 1
κράτους 1
ολογική 1
σταση 1
έδαφος 1
νου 1
εργάστηκε 1
άντ@@ 1
αρχαί@@ 1
διά 1
Ρωσ@@ 1
Βόρεια 1
επόμενο 1
υπέγραψε 1
Δεκέμβριο 1
φερ@@ 1
άρχη 1
Μπι@@ 1
200 0.8862696496255394
έβαλε 1
ίσως 1
δω@@ 1
επαγγελματ@@ 1
δα 1
ισμένο 1
Τζον 1
θεσης 1
λιγ@@ 1
αγορ@@ 1
μικρο@@ 1
πολέμ@@ 1
e 0.11141693439814941
ρωμαϊκ@@ 1
διορ@@ 1
Πρ@@ 1
ασίας 1
επικρά@@ 1
Αυτοκρατορία 1
αποτελέσματα 1
ερμην@@ 1
χρή@@ 1
ειδικά 1
υποστήριξη 1
Εκκλησία 1
διοργάνωση 1
ίσεις 1
φλ@@ 1
1981 0.9546522640173721
άνου 1
άνιο 1
ισπαν@@ 1
Αγία 1
έρευνα 1
πετ@@ 1
έργου 1
αντίστοιχα 1
μελέτη 1
Πρά@@ 1
ψηλ@@ 1
άνθρωποι 1
όμενες 1
άλη 1
κό@@ 1
σπουδές 1
λαϊκ@@ 1
Νοέμβριο 1
μοι@@ 1
αίου 1
m 0.18133440689309052
στρατού 1
μισ@@ 1
αναφερ@@ 1
ζονται 1
Πολωνίας 1
φέρ@@ 1
εδάφη 1
καθολ@@ 1
Ψ@@ 1
ιμη 1
φαιν@@ 1
Καστ@@ 1
ωπ@@ 1
μιλ@@ 1
1950 0.9412567213603554
πού@@ 1
Σερ@@ 1
λλο 1
ένωση 1
ορισμένες 1
συμμετείχαν 1
περιστ@@ 1
σο@@ 1
17@@ 1
Π 1
παρακάτω 1
σχέ@@ 1
συστήματος 1
μές 1
ίκο 1
Όπως 1
υπηρε@@ 1
Κερ@@ 1
θρόνο 1
Μαν@@ 1
βα@@ 1
συμβολ@@ 1
Αγγλία 1
δημοφιλ@@ 1
τώρα 1
ιδρυ@@ 1
σ 1
ίνος 1
Πα@@ 1
εύεται 1
αρντ 1
Μιλ@@ 1
στών 1
φρ@@ 1
Απρίλιο 1
Ρε@@ 1
ορού@@ 1
Εκτός 1
κόρης 1
τέχνης 1
δεκ@@ 1
οποίους 1
500 0.9442383109594646
σύνθεση 1
ίνας 1
ώνες 1
γλώσσες 1
όντων 1
Καζ@@ 1
ωματ@@ 1
αδελφός 1
φασ@@ 1
δεί@@ 1
αξιωματ@@ 1
ιω@@ 1
Μιχαήλ 1
αισθη@@ 1
βάλλ@@ 1
τελική 1
2.@@ 1
εκλογ@@ 1
αφιερ@@ 1
ξε@@ 1
αζε 1
περν@@ 1
Αμπ@@ 1
ώδη 1
βη@@ 1
παραγωγ@@ 1
απεικον@@ 1
εμφανίστηκε 1
τικότητα 1
βιβ@@ 1
δυν@@ 1
et 0.024874631730182638
διαθέτει 1
Παρά 1
αποτελεσ@@ 1
πληροφορίες 1
δήλωσε 1
ομοσπον@@ 1
αγγελ@@ 1
βιβλία 1
O 0.4700285870994608
έμπ@@ 1
πλευ@@ 1
Δικα@@ 1
διαπ@@ 1
τηλε@@ 1
Πολων@@ 1
πόν@@ 1
ισσα 1
ονες 1
ανθρώπους 1
ηθοποι@@ 1
ανατολική 1
αρμ@@ 1
κέρ@@ 1
κλι@@ 1
Λιγκ 1
αντίστοιχ@@ 1
ώνων 1
Ελλήνων 1
τραγουδι@@ 1
λόγους 1
ανός 1
εντά@@ 1
λιγότερο 1
λαμβάνει 1
δρά@@ 1
ονα 1
Κιν@@ 1
εξαιτίας 1
επαρχίας 1
περίοδος 1
όριο 1
αίας 1
μέρες 1
Τη 1
σχολείο 1
διαστ@@ 1
Σ. 1
κόσμου 1
ορισμό 1
ίδιου 1
R 0.5300335349911881
δοκ@@ 1
ίκης 1
χών 1
Φω@@ 1
Σά@@ 1
δήμος 1
ποί@@ 1
Σημ@@ 1
έξω 1
τισμού 1
πεδ@@ 1
Σταυ@@ 1
χά@@ 1
Οθωμαν@@ 1
εργασίας 1
οικονομική 1
έρι 1
ασφαλ@@ 1
μουσικής 1
Δήμο 1
συμφωνία 1
ηλεκτρον@@ 1
1945 0.6893430870030398
τσι 1
επιφάνεια 1
ρεκόρ 1
αντιπροσωπ@@ 1
1985 0.8330373799922395
ήθ@@ 1
αστική 1
σημερινή 1
1944 0.9093582649563964
ομοι@@ 1
Είχε 1
ζητ@@ 1
ing 0.04283944122975971
εσωτερ@@ 1
ζωνταν@@ 1
Βερ@@ 1
συμφ@@ 1
άρχισαν 1
ίνες 1
ιατρ@@ 1
περιφέρεια 1
σμα 1
e@@ 0.10851259416967195
Μπου@@ 1
γνώ@@ 1
εκπαιδευ@@ 1
ακ 1
Να@@ 1
πολύ@@ 1
νησιού 1
διν@@ 1
Φι@@ 1
Κέν@@ 1
χρησιμοποιήθηκε 1
γραφές 1
όνη 1
ιες 1
απόφαση 1
ανία 1
απε@@ 1
τρίτο 1
δίνει 1
συνδυ@@ 1
γράφει 1
διοικητική 1
ήττα 1
εντάχθηκε 1
αντί 1
ιοι 1
δημιούργησε 1
δελφ@@ 1
ύχ@@ 1
κρυ@@ 1
σβ@@ 1
μίας 1
θο 1
Αργ@@ 1
ήτη 1
αποτέλεσε 1
κάποιες 1
πυρ@@ 1
αρχηγός 1
Διοικ@@ 1
ρισ@@ 1
ρή 1
σου@@ 1
ατο@@ 1
1988 0.7324176685649717
υπέρ 1
Βορ@@ 1
L 0.4122987382027796
γλωσσ@@ 1
εκπαίδευση 1
περιοδικό 1
Σί@@ 1
τελευτα@@ 1
αναφέρονται 1
δικαι@@ 1
1986 0.7901761230921888
Πολωνία 1
ικώς 1
τροχ@@ 1
χές 1
γελ@@ 1
πηγή 1
μετάλλ@@ 1
τίτλος 1
Χρ@@ 1
θέατρο 1
μεγάλα 1
Δημο@@ 1
σεν@@ 1
έργων 1
αρχική 1
ούμεν@@ 1
μμ@@ 1
σημεριν@@ 1
Τελικά 1
ντεμπούτο 1
ιακό 1
ζαν 1
πρωτ@@ 1
ιχ@@ 1
κατηγορίες 1
καθηγητής 1
ολογικό 1
λαβ@@ 1
ινο 1
γραμ@@ 1
περιφερ@@ 1
κεν@@ 1
αγορά 1
ίδρυση 1
υλικό 1
19ου 1
Κό@@ 1
Αρμεν@@ 1
δό@@ 1
πολλών 1
Όμως 1
κατέλαβε 1
κόμματος 1
τέθηκε 1
ιου@@ 1
αγκ@@ 1
ξεκιν@@ 1
ελληνικής 1
ολο@@ 1
11@@ 1
J@@ 0.15493626987478823
ευρ@@ 1
an 0.026049876284898427
ουά 1
Ρωσίας 1
διαβ@@ 1
κωμ@@ 1
Μακεδονίας 1
ξεχωριστ@@ 1
Πο@@ 1
γράψει 1
Πε@@ 1
ειξη 1
1987 0.7703304019375234
Ιταλίας 1
Στ@@ 1
παραπάνω 1
ακριβ@@ 1
εδρ@@ 1
χωριά 1
δευτερ@@ 1
ίτες 1
σύνορα 1
μετέπειτα 1
πλαίσιο 1
ιας 1
εύουν 1
λογία 1
ίχ@@ 1
ότητά 1
ορίστηκε 1
Βου@@ 1
προσκ@@ 1
θεώρ@@ 1
Χαρ@@ 1
θάνατό 1
αναφορά 1
λλαγ@@ 1
κομμάτι 1
διο 1
ενδιαφέρον 1
τήσει 1
Ισπαν@@ 1
λογοτεχν@@ 1
νεο@@ 1
στό 1
ιστικής 1
ωνικά 1
θεραπεία 1
κόλ@@ 1
στρατιώτες 1
αυτοκράτορα 1
ηκαν 1
Τέ@@ 1
ανακοίνωσε 1
σχέδια 1
κατάλληλ@@ 1
ίτσ@@ 1
πρώ@@ 1
Χ 1
συλλόγου 1
ρίζουν 1
δύνα@@ 1
λάβει 1
F 0.5621774480402473
ϋ@@ 1
B 0.32350583623466944
σημαντικές 1
προεδρ@@ 1
τηθεί 1
έχασε 1
πόντους 1
άσουν 1
γερ@@ 1
άρων 1
Δημοκρατ@@ 1
στικής 1
el 0.022725409474767425
ζήτησε 1
δεικνύ@@ 1
1920 1
ειλ@@ 1
Λονδίνο 1
υθ@@ 1
ήρθε 1
λευκ@@ 1
φιλοξεν@@ 1
Γεωργίου 1
ίδρυσε 1
Θεσσαλονίκη 1
δεκα@@ 1
πν@@ 1
χώρησε 1
πλοία 1
οργάνωση 1
1975 0.8232547489530739
Δια@@ 1
επίδραση 1
οκτώ 1
κοινότητας 1
Ειρ@@ 1
περισσότεροι 1
1984 0.7712750064639018
μεγαλύτερ@@ 1
σοβαρ@@ 1
δης 1
δυνατότητα 1
επιστ@@ 1
ιστούν 1
1982 0.817284084235964
έστειλε 1
0.000 1
32 0.9599548376440726
Κωνσταντίνος 1
λόφ@@ 1
Ολυμπιακ@@ 1
ναό 1
ρευ@@ 1
εικον@@ 1
Καλλικράτης 1
ιστάν 1
τοτε 1
Ενώ 1
Παράλληλα 1
κλάδ@@ 1
σι 1
Λα@@ 1
Στρ@@ 1
οκρατ@@ 1
Αιγ@@ 1
Ντά@@ 1
παιδί 1
ίσματα 1
εκστρατεία 1
θάλασσα 1
um 0.1312583104268878
δρόμ@@ 1
Φεβρουάριο 1
ατζ@@ 1
όμα 1
Ηνωμένων 1
τομέα 1
ανθρώπιν@@ 1
Σαν 1
νερού 1
συρ@@ 1
στρα@@ 1
περιφέρ@@ 1
Ευρω@@ 1
Ελληνική 1
μού 1
τοιχ@@ 1
εξέλιξη 1
σχήμα 1
εντοπ@@ 1
τησης 1
Αρχικά 1
ήνης 1
έτα 1
δυνατ@@ 1
όσεις 1
Αγγλ@@ 1
Αντί@@ 1
Ντα@@ 1
θεν@@ 1
οντ@@ 1
τερο 1
Μέγ@@ 1
δέν@@ 1
35 0.8739437424690506
δών 1
ώνη 1
πληθυσμ@@ 1
1979 0.8163756420358974
δού@@ 1
ιταλ@@ 1
πραγματικότητα 1
δώσει 1
βέρ@@ 1
συμπεριλαμβανομένων 1
άποψη 1
πήγε 1
σμούς 1
άζοντας 1
προγραμματ@@ 1
διέ@@ 1
Βασιλείου 1
Γκα@@ 1
ξουν 1
αρχίας 1
1967 0.921476580987252
άδια 1
τορας 1
βαθ@@ 1
διεξήχθη 1
Χάρ@@ 1
Κύπρο 1
δομή 1
Μάν@@ 1
κατάρ@@ 1
κόμ@@ 1
διορίστηκε 1
θυμ@@ 1
χιλι@@ 1
άι 1
συμβόλαιο 1
ψήφ@@ 1
Δού@@ 1
θηση 1
γυναικ@@ 1
ελληνικά 1
ενα@@ 1
αύξηση 1
εαυτό 1
παραμ@@ 1
Αρχι@@ 1
μπου@@ 1
στόχο 1
τεν 1
Πατ@@ 1
μπορούσαν 1
παρουσιάζει 1
ανήκε 1
τρας 1
συνταγ@@ 1
1941 0.8793171702488533
σου 1
κληρονομ@@ 1
1912 1
ίτη 1
νέων 1
κρέ@@ 1
σύντομα 1
Κυπ@@ 1
Σω@@ 1
έμβ@@ 1
στά 1
D 0.43490095574886717
κης 1
όσον 1
ριών 1
ΠΑ@@ 1
Κρά@@ 1
χής 1
χαρακτηριστ@@ 1
κυκλοφορία 1
μπι 1
έννοια 1
θω@@ 1
ητο 1
αραβ@@ 1
ίρ 1
Συμβούλιο 1
κίν@@ 1
τριών 1
ώνας 1
τοξ@@ 1
πρόσωπο 1
εφημερίδα 1
” 0.2810758615739315
Αθήνας 1
Ισπανία 1
Ρώσ@@ 1
ουλίου 1
ουργ@@ 1
προϋ@@ 1
Δυ@@ 1
ρωσ@@ 1
δέκα 1
ιστικές 1
συγχ@@ 1
κου 1
ήτ@@ 1
γεγονότα 1
σο 1
δικαιώματα 1
όνους 1
απειλ@@ 1
ασθεν@@ 1
νησιά 1
στρατιωτική 1
διαδέχθηκε 1
έι 1
Σού@@ 1
αποστολή 1
δεύτερος 1
αυτοκιν@@ 1
κων 1
ίβ@@ 1
εκκλησι@@ 1
ητικές 1
δικαίωμα 1
Ασία 1
Στέ@@ 1
τισε 1
Εθν@@ 1
Μεταξύ 1
ιές 1
Ολλανδ@@ 1
ζωγράφ@@ 1
λεπτά 1
Κόμματος 1
ίπ@@ 1
ταυ@@ 1
στικές 1
es 0.03158869630452294
αϊκ@@ 1
ουδ@@ 1
k 0.1373644711237245
τιος 1
έναντι 1
λαχ@@ 1
ιδέα 1
ηχογραφ@@ 1
“ 0.08590015553128263
Ι 1
βου 1
συγκεκρι@@ 1
μοντέλο 1
ναλ@@ 1
1978 0.8143972774814293
μορφές 1
εάν 1
μαθη@@ 1
Τ 1
ιντ 1
εργασίες 1
ήχθη 1
στηρι@@ 1
1983 0.7696592219158012
λειτουργεί 1
λιν 1
Σαμ@@ 1
σταυ@@ 1
πραγματ@@ 1
ενέργεια 1
γρ@@ 1
κτη@@ 1
τισ@@ 1
λιά 1
πεζ@@ 1
is 0.01877290039709245
συστήματα 1
περιβάλλ@@ 1
Πρωταθλ@@ 1
ολογικά 1
πυρο@@ 1
παπ@@ 1
μάρ@@ 1
στερ 1
τεχνική 1
Εφ@@ 1
συνέ@@ 1
πα 1
1973 0.8240247031607462
Νά@@ 1
ώνυμο 1
Μητρο@@ 1
ανεξάρτη@@ 1
εικόνα 1
Αχ@@ 1
γρήγορα 1
κρ@@ 1
ην 1
ia 0.18947581433473995
Ύ@@ 1
χα 1
κεφαλ@@ 1
πέμπ@@ 1
έζησε 1
ταση 1
γνωστοί 1
πολιτικής 1
Οικ@@ 1
ερχ@@ 1
Ε. 1
νας 1
πολογ@@ 1
διευθυντής 1
1976 0.7988287365383256
προσωριν@@ 1
Z@@ 0.15178163229611832
Ρά@@ 1
Επιτροπής 1
συζύγου 1
to 0.009236744577664728
βεν@@ 1
όμορφ@@ 1
συλλογ@@ 1
1930 0.9656622236360913
λέγεται 1
επιρροή 1
Κού@@ 1
ταυτόχρονα 1
ηψη 1
ραν 1
Κατηγορία 1
είπε 1
στε 1
παρο@@ 1
Παναθηναϊκ@@ 1
ρίζονται 1
ότες 1
αρν@@ 1
είν@@ 1
al 0.049233449884228356
1977 0.8368853955923248
εφαλ@@ 1
τως 1
νών 1
άγεται 1
γραφική 1
εκδοχή 1
χώρ@@ 1
σημασία 1
απαραίτη@@ 1
σύλλογος 1
αμά@@ 1
1971 0.8021168834045167
γύρο 1
ούσ@@ 1
Μό@@ 1
είδους 1
κριτική 1
μερικά 1
σκορ 1
αδελφό 1
υπό@@ 1
γράφεται 1
αρνη@@ 1
πύργ@@ 1
Επιτροπή 1
Πριν 1
μπα@@ 1
οδυ@@ 1
θανά@@ 1
δίκτυο 1
είσ@@ 1
n@@ 0.09638773509943413
ωνικό 1
γη 1
δημοσιεύ@@ 1
H 0.7885713195837845
στρια 1
εσωτερικό 1
χη 1
συναντ@@ 1
ύς 1
οικογεν@@ 1
Νι@@ 1
έδρας 1
κη@@ 1
θεια 1
περιβάλλον 1
προσπαθ@@ 1
χρόν@@ 1
1972 0.750885085175207
δολοφον@@ 1
άνοντας 1
διού 1
Ρό@@ 1
1968 0.7805110609050132
πάρει 1
οθ@@ 1
δρόμο 1
ΕΠ@@ 1
γκο 1
αρτ@@ 1
ατα 1
επιπλέον 1
θερμοκρασία 1
χρησιμοποιεί 1
δοχ@@ 1
ειά 1
δεδο@@ 1
τηγ@@ 1
χρόνου 1
ξεν@@ 1
ταγμα 1
ξη@@ 1
κτίριο 1
σύζυγος 1
1964 0.8677413175090565
εφαρμογή 1
μετανά@@ 1
πρώτου 1
όρ 1
εταιρείας 1
γγ@@ 1
καταγωγή 1
Λί@@ 1
τείας 1
βραβ@@ 1
V 0.5146373127367441
Νο@@ 1
ανώ@@ 1
λω@@ 1
Μεγάλη 1
Λαϊκ@@ 1
d@@ 0.09983134490626751
ακριβώς 1
θετα 1
Άννα 1
δες 1
ζόταν 1
αποτελούσε 1
ίτης 1
ανάλογα 1
κατ 1
Τότε 1
σώ@@ 1
ήτρια 1
ανταγων@@ 1
δίου 1
κεντρική 1
Κ. 1
μάχ@@ 1
ίκη 1
1961 0.9647189890184444
ζή@@ 1
συστη@@ 1
Έχ@@ 1
θεραπ@@ 1
a@@ 0.18735067791144414
Άγγλ@@ 1
εξωτερικό 1
Εκκλησίας 1
ουσία 1
πλά@@ 1
Αφρική 1
αγωγής 1
ότερους 1
Τσι@@ 1
ραμ@@ 1
τερματ@@ 1
υποψήφ@@ 1
ποταμό 1
χρονικό 1
δημόσια 1
συγκέντρ@@ 1
45 0.7811150482583266
Βιογραφικά 1
ευγεν@@ 1
1939 0.8529201048493436
προστασία 1
πλειοψηφία 1
υποστήρι@@ 1
δ 1
φρου@@ 1
άλια 1
ρή@@ 1
φοιτη@@ 1
Μπλ@@ 1
πη 1
τοπο@@ 1
Ιστο@@ 1
εμφ@@ 1
δεσμ@@ 1
ωδία 1
λεπ@@ 1
εξέ@@ 1
ποδοσφαι@@ 1
ροί 1
ερι@@ 1
οντες 1
αι. 1
ατικό 1
P 0.509137883561221
θήκης 1
δολάρια 1
χώρος 1
Ιπ@@ 1
Κοινότητα 1
αγωνίζεται 1
κάνουν 1
σημεία 1
Φρ@@ 1
διαγ@@ 1
άλης 1
σφαίρισης 1
c 0.15997965068859799
αυτοί 1
X 0.5518502346022347
καθημερ@@ 1
καταγωγής 1
μπεργκ 1
καλύπ@@ 1
1821 1
γαρ@@ 1
Πασ@@ 1
κράτη 1
ρν@@ 1
Ολυμπιακούς 1
έτο 1
επίσκοπος 1
εγγ@@ 1
Λόγω 1
CH@@ 1
πρώτης 1
έφεραν 1
τύπος 1
κομμουν@@ 1
1963 0.9059676350120205
φαρ@@ 1
Θεοδ@@ 1
τεκ@@ 1
βη 1
λεια 1
πολλαπλ@@ 1
διαφορετικές 1
καθεστώς 1
ινγκ@@ 1
γνωστά 1
θαρ@@ 1
μιο 1
ποδοσφαιριστής 1
οσία 1
άνοδο 1
ετο@@ 1
γραμμ@@ 1
δυνάμεων 1
παραμένει 1
δίπλα 1
υπηρεσίες 1
h 0.1910326112462547
βολές 1
εργαστ@@ 1
εφημερ@@ 1
αναδείχθηκε 1
παρακ@@ 1
απογ@@ 1
0@@ 0.6081536159492723
Κάρολος 1
έκαναν 1
μεγαλ@@ 1
γονείς 1
Νότια 1
ίδρυ@@ 1
πίνακα 1
αστυνομ@@ 1
μεγαλύτερος 1
Αξι@@ 1
Καθώς 1
παιδ@@ 1
ασπ@@ 1
Μαυ@@ 1
επιλογή 1
δια 1
υπηρέτησε 1
εγκαταλεί@@ 1
ανασ@@ 1
βάρος 1
ποσ@@ 1
θεσε 1
ορ 1
μονή 1
επιστροφή 1
διεθν@@ 1
λέγ@@ 1
κρά@@ 1
Ειδ@@ 1
ύπαρξη 1
αποσπ@@ 1
ισμών 1
# 1
ανοιχ@@ 1
μετάλλιο 1
τήρια 1
τούσαν 1
y@@ 0.13535450682977918
πολιτικό 1
μπροστά 1
Δ. 1
ητα 1
ησή 1
ιστορικό 1
μοναχ@@ 1
προπονητής 1
παράγεται 1
φοράς 1
Αφού 1
ήριο 1
άτ@@ 1
νησι@@ 1
ολοκληρω@@ 1
οση 1
θέσεων 1
χωρη@@ 1
k@@ 0.10782967362499075
εικ@@ 1
ιστικά 1
ονό@@ 1
προσπάθησε 1
εμφανίσεις 1
διετέλεσε 1
αρχος 1
ονομάστηκε 1
άρη 1
πρόβλημα 1
υπόθεση 1
μήνα 1
T 0.43534264648155785
είτο 1
κόσ@@ 1
γράφηκε 1
βερ@@ 1
βουλευ@@ 1
σύγχρονη 1
ιδε@@ 1
Γκου@@ 1
δέχτηκε 1
εκδόσεις 1
φαντα@@ 1
αποκλ@@ 1
ετερ@@ 1
1943 0.8294210530452456
γλώσσας 1
ηχ@@ 1
θλ@@ 1
έλεγ@@ 1
Χριστ@@ 1
βρ@@ 1
1969 0.7855251531489374
βου@@ 1
έφυγε 1
75 0.9655110013526599
Χαλ@@ 1
ουσες 1
ύπ@@ 1
ανθρώπων 1
μικρά 1
αίν@@ 1
Ερρίκος 1
συσκευ@@ 1
δία 1
νίκες 1
1946 0.8765489706915228
ηγεσία 1
βελτι@@ 1
αποστολ@@ 1
χρησιμοποιώντας 1
κατόπιν 1
λιμάνι 1
άνθρακα 1
πρακ@@ 1
χωρ@@ 1
Περί@@ 1
καλά 1
Ρομ@@ 1
νέες 1
ωρι@@ 1
κερδίσει 1
ήρια 1
ανθρωπ@@ 1
πύ@@ 1
πυκν@@ 1
Μο@@ 1
πεί@@ 1
Αλβαν@@ 1
αναγνώ@@ 1
επαναλ@@ 1
σταδιοδρομία 1
t@@ 0.07377700686434109
χρει@@ 1
ιστορίας 1
εγκλ@@ 1
ονόματα 1
στρατεύματα 1
Όσκαρ 1
Κυπέλλου 1
τάν 1
ανή 1
3.@@ 1
To 1
ημο 1
ιακ@@ 1
χρώμα 1
επιχειρήσεις 1
ροπ@@ 1
Πέθανε 1
άνουν 1
ναού 1
Άγιο 1
φέρουν 1
εξοπλ@@ 1
αίνουν 1
άτι 1
αναπτύ@@ 1
στοιχείο 1
αντιμετωπ@@ 1
μένως 1
γνωστ@@ 1
Σε@@ 1
οδό 1
la 0.008226636662789095
Μεξ@@ 1
ανδρ@@ 1
στεγ@@ 1
χειρο@@ 1
ψευδ@@ 1
Εύ@@ 1
ουντ 1
τζ 1
οπαδ@@ 1
χειρ@@ 1
πρωθυπουργ@@ 1
στάδιο 1
ιτς 1
έλη 1
μυθ@@ 1
τέχνη 1
Στά@@ 1
εξαιρετικά 1
Αλέξανδρος 1
στροφ@@ 1
καλύτερη 1
τύπο 1
Επισ@@ 1
θου 1
έπαι@@ 1
στρατός 1
τήριο 1
έκθεση 1
επισκέπ@@ 1
σκα 1
αρχηγ@@ 1
συνθέ@@ 1
Υπήρξε 1
ιους 1
μάχης 1
δεδομένων 1
ενάντια 1
φωτο@@ 1
Συμβουλίου 1
αντζ@@ 1
γενε@@ 1
μεί@@ 1
αζόταν 1
δεξι@@ 1
Αι@@ 1
ραδι@@ 1
Ευρωπαϊκό 1
Βελ@@ 1
αιρε@@ 1
μεγάλου 1
Ιρλανδ@@ 1
έδειξε 1
σημείωσε 1
υπηρεσία 1
Αθηνα@@ 1
1965 0.7985742836833611
συμφων@@ 1
απο 1
Υπουργ@@ 1
j@@ 0.12584978209340883
ενσωματ@@ 1
χθηκαν 1
αεροπο@@ 1
δήμ@@ 1
πρωταθλήματα 1
σκηνή 1
καφ@@ 1
προκάλεσε 1
πεδίο 1
πλήρ@@ 1
συντά@@ 1
χυ@@ 1
αξία 1
πρωθυπουργός 1
χωρι@@ 1
αι 1
τιν 1
M 0.444962003923617
ίδι@@ 1
αδερφ@@ 1
όνας 1
όροι 1
Μι@@ 1
υπέ@@ 1
άσματα 1
ειακή 1
σχεδιασ@@ 1
Χαλκ@@ 1
σει@@ 1
κατο@@ 1
φάν@@ 1
έδρες 1
αγγλ@@ 1
ρεμ@@ 1
σκηνοθεσία 1
στικών 1
οντάς 1
Ανδρ@@ 1
ωνε 1
Βραβείο 1
Χαν@@ 1
πάν@@ 1
συνέχ@@ 1
αυτ@@ 1
ίωση 1
εκατο@@ 1
άτομο 1
ήρω@@ 1
αρχι@@ 1
δεδομένα 1
παιχνίδια 1
γνώρισε 1
ειακό 1
δακ@@ 1
Καμ@@ 1
1918 0.9252341453323745
σελίδα 1
χρω@@ 1
ονίας 1
χρησιμοποιηθεί 1
ιακά 1
ικότητας 1
τειν@@ 1
πιθανώς 1
όρθ@@ 1
μήκους 1
τοποθεσία 1
χέρια 1
Ιωάν@@ 1
προηγ@@ 1
ολόγος 1
300 0.971313264289866
σώματος 1
καθηγ@@ 1
μπερ@@ 1
Μάχη 1
φύγ@@ 1
όλε@@ 1
p@@ 0.08350207428540213
Ρα@@ 1
τερμάτισε 1
προσπάθειες 1
επίσημ@@ 1
έσει 1
ς@@ 1
οργ@@ 1
Εμ@@ 1
καιρό 1
μαρτυ@@ 1
ήγαγε 1
1966 0.7901773874850858
Άνω 1
ποίηση 1
αποστ@@ 1
έναρξη 1
Ηνωμένο 1
Πρέ@@ 1
ξυλ@@ 1
Οδ@@ 1
καλλιτέχ@@ 1
Μπερ@@ 1
σιμη 1
κατηγ@@ 1
ύστερα 1
Πορ@@ 1
τετρ@@ 1
Σπούδασε 1
ειρα 1
ογεν@@ 1
μελών 1
χαρακτηριστικό 1
χρυσό 1
λις 1
Έπειτα 1
c@@ 0.0919137204848469
συνο@@ 1
Ορθόδο@@ 1
σχεδ@@ 1
μάν 1
οικογένειες 1
ύθηκε 1
αια 1
γεωγραφ@@ 1
τρό@@ 1
καθιερ@@ 1
απαιτ@@ 1
γραφο 1
Αυστ@@ 1
Μ 1
u 0.1475454716900682
Μία 1
στασης 1
Δρά@@ 1
θήκη 1
εω@@ 1
προκρι@@ 1
χάρη 1
τέκνα 1
ήνη 1
πραγματοποίησε 1
Διακ@@ 1
ολοκληρώθηκε 1
χρονιάς 1
έλευσης 1
ήρυ@@ 1
Ισπανίας 1
ινό 1
γραμμές 1
εση 1
άλυ@@ 1
συνήθ@@ 1
φά@@ 1
Του@@ 1
μεγάλης 1
αντικείμενο 1
εχθρ@@ 1
αρνήθηκε 1
Βραζ@@ 1
δεχ@@ 1
καμία 1
οντος 1
αμυν@@ 1
σοβιε@@ 1
Κασ@@ 1
Βασ@@ 1
μετατρ@@ 1
Κρήτης 1
ασίες 1
μετά@@ 1
Ν 1
έτ 1
ωλ@@ 1
εθνικής 1
σχολή 1
Αδ@@ 1
ωνο 1
θητεία 1
0,@@ 1
Ζω@@ 1
ενέργειας 1
άνθ@@ 1
έλαβαν 1
εκφρά@@ 1
μι 1
φον 1
οποί@@ 1
κοινή 1
ξεων 1
εργασ@@ 1
ζωγραφ@@ 1
κού@@ 1
ουλευ@@ 1
1928 1
Σύστημα 1
βολής 1
en 0.009423950143240831
ίλ 1
ανακαλύ@@ 1
ατομ@@ 1
33 0.9054567263698968
Γεωγραφία 1
αναλ@@ 1
κυβ@@ 1
νταν 1
οίκ@@ 1
ερευν@@ 1
Κίνα 1
δίσ@@ 1
δων 1
λίμνη 1
ρικών 1
τορα 1
βαθμούς 1
υβ@@ 1
φυσική 1
τελευταίος 1
πασ@@ 1
υποστη@@ 1
πρόταση 1
δραστηριότητες 1
ήθελε 1
σκ 1
ολόκληρη 1
κίνημα 1
ίμων 1
ικη 1
όμενοι 1
δρόμου 1
φαν 1
τέτο@@ 1
Γυνα@@ 1
ίκου 1
ίως 1
σπούδασε 1
Μαγ@@ 1
μάχες 1
ΣΤ 1
γα 1
υνση 1
αποδ@@ 1
κυριαρχία 1
ιστικού 1
λι 1
m@@ 0.10853503234388086
βασίλειο 1
π. 1
1947 0.8747407801365689
τάται 1
l 0.08524936080091006
πριγκ@@ 1
Ντε@@ 1
δραστηριότητα 1
φημ@@ 1
εύγ@@ 1
Βο@@ 1
παρελθόν 1
χρησιμοποιούν 1
άλλαξε 1
λεί@@ 1
βο 1
σταθμός 1
λίγ@@ 1
μετακιν@@ 1
Νικολ@@ 1
Καναδά 1
εισβολή 1
περ 1
σημερινό 1
ίκα 1
μακα 1
πρωταθλ@@ 1
μαγνη@@ 1
γν@@ 1
γραφία 1
βίντεο 1
διάσημ@@ 1
ίνων 1
συμμετοχές 1
Στί@@ 1
Ιαπωνία 1
τύπ@@ 1
Τουρκία 1
ελε@@ 1
g 0.20893439095664462
ρασι@@ 1
αδελφή 1
πεν@@ 1
ευσης 1
άλι 1
G 0.42460272334585264
τός 1
δήλ@@ 1
x@@ 0.2563780873030618
ίσματος 1
νέος 1
πολίτες 1
ατόμων 1
βελ@@ 1
περαιτέρω 1
ρικό 1
08 1
επιτρέ@@ 1
καλλιτέχνες 1
διαφορά 1
σιακ@@ 1
χιλιάδες 1
αποτυχ@@ 1
ισμοί 1
διευ@@ 1
Αρχαι@@ 1
ιάν@@ 1
χλ@@ 1
σιν@@ 1
ελληνικού 1
Τε@@ 1
μορ@@ 1
συγγεν@@ 1
οξύ 1
Σοβιετική 1
αντικείμενα 1
Πηγ@@ 1
άτης 1
σαφ@@ 1
πολιτικές 1
αγαπ@@ 1
μευ@@ 1
έσπασε 1
σκηνοθέ@@ 1
παίκτης 1
1948 0.790924912478077
Αμερικής 1
σύζυγό 1
ήλ 1
1958 0.8176814432284307
δείχνει 1
Κάθε 1
Τέλος 1
κάτο@@ 1
όνιο 1
νομοθε@@ 1
h@@ 0.10080048119471918
φάρ@@ 1
αφορού@@ 1
διεθνή 1
πτώση 1
ελευθερ@@ 1
αρτη@@ 1
Έκ@@ 1
ζήτηση 1
καταστροφ@@ 1
γιορ@@ 1
πρίγκιπα 1
δικά 1
επαφή 1
αγωνιστική 1
κανείς 1
μεταφορά 1
i@@ 0.12399855927946107
Καριέρα 1
1962 0.7793876137987935
χρώματα 1
τάξη 1
Μονή 1
ίστ 1
επανάσταση 1
συγκεκριμένη 1
Κρί@@ 1
ξεκίνησαν 1
Που@@ 1
σκόπ@@ 1
1956 0.8041775821124534
Ζαν 1
ρός 1
Μυ@@ 1
Γιώργος 1
ακού 1
Σουλ@@ 1
άτα 1
διακρίν@@ 1
Μορ@@ 1
μοναστήρι 1
πλοίο 1
κτι@@ 1
Πρόκειται 1
στόχ@@ 1
χερσ@@ 1
Βικ@@ 1
άτο 1
αντιστοιχ@@ 1
34 0.9119752454008115
b 0.20853779690492816
φρα@@ 1
μοναδικό 1
λεξ@@ 1
39 1
Μπέ@@ 1
Ελισάβετ 1
ήγηση 1
Αραβ@@ 1
διών 1
Δύο 1
Λονδίνου 1
οθε@@ 1
συνηθ@@ 1
διότι 1
E 0.3920400699992529
ΦΚ 1
προϊόντα 1
σσεται 1
Σικελ@@ 1
ar 0.0647018003843014
Πειραιά 1
διαγων@@ 1
υποψηφι@@ 1
Ουρ@@ 1
Ακαδημία 1
X@@ 0.38389912228090467
Καθολ@@ 1
διαφορετικά 1
ορειν@@ 1
πλήρω@@ 1
στήρι@@ 1
άλληλ@@ 1
ματικές 1
ερμηνεία 1
πίεση 1
Τουρκ@@ 1
εκπομπ@@ 1
μάτια 1
τοντας 1
ημένα 1
θει 1
κεντρικό 1
λέει 1
ουσας 1
ούζ@@ 1
42 0.979664317275255
κυρί@@ 1
βάλ@@ 1
Γη 1
βρο@@ 1
κομμάτια 1
Φαρ@@ 1
Ανατολικής 1
έρες 1
όπουλου 1
σες 1
εθνικ@@ 1
επίπεδα 1
τήθηκε 1
χώρηση 1
μενη 1
Οργαν@@ 1
βιομηχανία 1
εδώ 1
Τελ@@ 1
ήμα 1
καταστροφή 1
κατηγορ@@ 1
μεγαλύτερες 1
δεκαετίες 1
πουλ@@ 1
όρισε 1
διαρκ@@ 1
ειακής 1
55 1
Ηλ@@ 1
36 0.8857442493068467
Δεύ@@ 1
δίσκο 1
κατάκτηση 1
ισσας 1
οσφαι@@ 1
μικρές 1
οικονομικά 1
εκτιμ@@ 1
ίλι@@ 1
διαδικα@@ 1
μυθιστόρημα 1
παθ@@ 1
ονία 1
ηλικ@@ 1
Τι@@ 1
Αυτός 1
αποκλειστικά 1
δυτική 1
χου 1
Σελ@@ 1
όντα 1
Y@@ 0.18714257104977275
ίλλ@@ 1
μεταφέρθηκε 1
μπα 1
σκευ@@ 1
μετονομάστηκε 1
ρίσει 1
μεθυλ@@ 1
αρχικό 1
1919 0.9139399356990338
Ομοσπονδία 1
Στους 1
θρω@@ 1
μασε 1
επόμενα 1
γή@@ 1
τιά 1
Υόρκης 1
έστερ@@ 1
δουλειά 1
πράξη 1
Τούρκ@@ 1
μόνη 1
ροφορ@@ 1
τερη 1
64 0.8306420418162006
ρίς 1
ποικ@@ 1
Σοσιαλ@@ 1
αντίδραση 1
μεταφέρ@@ 1
Γρηγ@@ 1
κέν@@ 1
σιμ@@ 1
μισό 1
πόλεως 1
απλά 1
ογράφος 1
ετή 1
μάλλον 1
ρούν 1
ορισμένα 1
άλυψε 1
φρον@@ 1
βρά@@ 1
Τιμ@@ 1
κείμενο 1
ζοντας 1
δισκ@@ 1
κάποιος 1
δοκιμ@@ 1
1955 0.8515172113779426
απορ@@ 1
ακού@@ 1
διαγωνισμό 1
δυσκολ@@ 1
Χατζ@@ 1
ρασης 1
θες 1
πόλεμος 1
Πολιτειών 1
ηβ@@ 1
φυσικό 1
Βλ@@ 1
Σάν@@ 1
απομακρ@@ 1
απόκ@@ 1
μακριά 1
ανεξαρτησία 1
βγ@@ 1
ελάχι@@ 1
συγκεκριμένο 1
gr 1
Τά@@ 1
Κρ@@ 1
άλου 1
ενότητα 1
βρεθεί 1
εξέγερση 1
ετ 1
οποίησης 1
ολοκληρ@@ 1
τιδα 1
πρεσβ@@ 1
σενάριο 1
άντ 1
37 0.9710189389840508
κατοχή 1
φύση 1
1959 0.7970310201523437
καταργ@@ 1
νά 1
επιτε@@ 1
όδρο@@ 1
ίλια 1
φωτογραφ@@ 1
γερμανική 1
ακής 1
άδης 1
γρα@@ 1
διαπραγματ@@ 1
διοικητής 1
μεσαι@@ 1
πέτυχε 1
μός 1
σκην@@ 1
ταυτ@@ 1
επιστρέψει 1
b@@ 0.08177341703658424
ιππ@@ 1
σιμα 1
συνδυασμό 1
επιχειρηματ@@ 1
καλαθοσφαίρισης 1
38 0.8901381308752451
αρχιτέκ@@ 1
ταχύτητα 1
έπει 1
ανο@@ 1
εύσεις 1
θεω@@ 1
18@@ 1
μιν@@ 1
ούμενη 1
οτεχν@@ 1
Ευρωπαϊκ@@ 1
δούκας 1
θέτει 1
Τύ@@ 1
Βρετανία 1
σημαν@@ 1
ενς 1
ητό 1
σεως 1
συνέπεια 1
υποστηρικ@@ 1
Άμ@@ 1
1942 0.6929311936004631
άτων 1
αναφορές 1
πλήρως 1
έθηκε 1
γιου 1
οθωμαν@@ 1
παλιά 1
λιθ@@ 1
χρονολογ@@ 1
τικότητας 1
— 0.039565679693978464
Χέν@@ 1
σταθμό 1
Κέντρο 1
διασκ@@ 1
ρίσ@@ 1
Άλλ@@ 1
αξίωμα 1
επίδ@@ 1
φυσικά 1
βαση 1
l@@ 0.07892824746979436
δημόσι@@ 1
Λευκ@@ 1
αναλογ@@ 1
μβούργου 1
Λει@@ 1
εται@@ 1
Βά@@ 1
άνος 1
ζώνη 1
μέρ@@ 1
ρικής 1
Μαδ@@ 1
διεθνής 1
4.@@ 1
σειρές 1
τεται 1
Δήμ@@ 1
όλης 1
ιδιοκτη@@ 1
Ελληνικής 1
λέχθηκε 1
Σλοβ@@ 1
Σπ@@ 1
αίων 1
τσο 1
ρέφ@@ 1
τία 1
65 0.7071753774435904
Βαλκαν@@ 1
αστικό 1
αίος 1
μονάδες 1
σκοπο@@ 1
Λογ@@ 1
ήρου 1
λο@@ 1
αθλ@@ 1
ζώα 1
αποκτήσει 1
85 1
Μακεδονία 1
κόμης 1
εθνικό 1
κατασκευάστηκε 1
ref 1
ηγε@@ 1
Μαζί 1
ήση 1
ίς 1
σύμβ@@ 1
ποδόσφαιρο 1
1951 0.8940205775068363
τοποι@@ 1
Ενότητα 1
ακολούθησαν 1
Κέρκυ@@ 1
βάν 1
Χρον@@ 1
υπόλοιπο 1
διεκδικ@@ 1
Στρατού 1
σχεδί@@ 1
ενι@@ 1
ματι 1
ρικές 1
g@@ 0.08154591802476986
εξασφαλ@@ 1
ερς 1
κί@@ 1
πλήρη 1
τωση 1
Κρατ@@ 1
κατατά@@ 1
Έν@@ 1
νησ@@ 1
γραφής 1
επιδ@@ 1
1922 1
52 1
ματικής 1
ληση 1
απαγορ@@ 1
Ντέ@@ 1
τισμό 1
σταδιακά 1
επιθε@@ 1
μπά@@ 1
ΦΕΚ 1
μεγάλος 1
Υπουργείο 1
οικονομία 1
προσωπικό 1
δυσ@@ 1
κλίμα 1
ράν 1
Επανάσταση 1
πλαίσια 1
ισχύ@@ 1
z@@ 0.09364440657944754
αλία 1
ΑΣ 1
1936 0.8122045033437407
όπουλο 1
κή@@ 1
αέρα 1
ρικά 1
βία 1
μελε@@ 1
Ακαδημίας 1
48 0.9104585228141667
πωλ@@ 1
βάρ@@ 1
Γιου@@ 1
λαν@@ 1
μολ@@ 1
υπάγεται 1
εστι@@ 1
οικισμό 1
τηρ@@ 1
λίγα 1
Ολυμπ@@ 1
ουσιαστικά 1
Εθνικού 1
έρων 1
φυσι@@ 1
νει 1
κυβερνη@@ 1
μείωση 1
Πέρ@@ 1
Ρο@@ 1
γυμ@@ 1
φοβ@@ 1
αίτηση 1
ατιν@@ 1
κατασκευής 1
επιβ@@ 1
πέδου 1
άγγελ@@ 1
ίζονταν 1
Καπ@@ 1
1949 0.7645852113934476
or 0.04015177822284707
Αυστρίας 1
βασίζεται 1
λαμβ@@ 1
σύγκρουση 1
ψυ@@ 1
ειδών 1
αστερ@@ 1
βρίσκονταν 1
χρησιμοποίησε 1
Βόρειας 1
Σ.@@ 1
ετία 1
εκλεγ@@ 1
πουν 1
απαρ@@ 1
έμειναν 1
γερμανικά 1
άνων 1
βραβεία 1
ντα 1
όμηση 1
N 0.45048650943009877
δά@@ 1
Al@@ 0.13818932546081805
κατάλ@@ 1
μέρους 1
μαθ@@ 1
Κωνσταντίνου 1
ανήκουν 1
αυλ@@ 1
σεξουαλ@@ 1
θερμοκρα@@ 1
επιθέσεις 1
σφαί@@ 1
95 1
Πί@@ 1
at 0.022243260934112826
απελευθερ@@ 1
πανεπιστήμιο 1
ρισης 1
σύζυγο 1
έσκ@@ 1
αστικά 1
σερ@@ 1
Αίγυπτο 1
εϊ 1
προ 1
χτίστηκε 1
αλφ@@ 1
ανέφερε 1
φέρεται 1
Μόν@@ 1
Χι@@ 1
εγκαταστάθηκε 1
ολογικές 1
μετακόμισε 1
ούμενος 1
όσα 1
γματα 1
καλλιεργ@@ 1
μπού@@ 1
φαλ@@ 1
Αλλά 1
λανδ@@ 1
άρθρο 1
γκα@@ 1
επισκοπ@@ 1
Καλύτερ@@ 1
ωδ@@ 1
1957 0.7786629419412212
Έγινε 1
δεται 1
κρύ@@ 1
al@@ 0.07371468526515991
χώρου 1
μετο@@ 1
λου@@ 1
διαν@@ 1
μαθητές 1
Ασίας 1
χων 1
Νικόλαος 1
παρόμοια 1
Αριστο@@ 1
1938 0.7454517683339031
Μπα@@ 1
Λουδοβίκος 1
φυγ@@ 1
44 0.8388064499876628
Κόλ@@ 1
f 0.2553210054948515
κάτοικοί 1
ονομαζόταν 1
ουστ@@ 1
διάδ@@ 1
πίνακας 1
υπεύθυν@@ 1
παγκόσμια 1
λεπτο@@ 1
πια 1
γράμματα 1
θους 1
διακοσμ@@ 1
Κοινοβ@@ 1
τοποί@@ 1
καλύ@@ 1
μέτρ@@ 1
βόρ@@ 1
41 0.9676570003398378
ανακοινώθηκε 1
οφείλεται 1
λόγος 1
νίκησε 1
ίσθηκε 1
πιθανότατα 1
ώμα 1
Σικ@@ 1
Μονα@@ 1
διάδοχ@@ 1
ανάπτυξης 1
αναπτύχθηκε 1
1952 0.7786657568309892
πες 1
ιστορική 1
δοκι@@ 1
κατακτ@@ 1
v@@ 0.09581764400828242
επιθυμ@@ 1
βρέθηκαν 1
κ.ά. 1
Ισραήλ 1
γήπεδο 1
άζονταν 1
Πολυ@@ 1
ημένες 1
όρα 1
ολα 1
παραδοσι@@ 1
τετραγ@@ 1
βασίλισσα 1
ινά 1
Αττικής 1
Σερβίας 1
Φεστιβάλ 1
πληροφορ@@ 1
ούρα 1
τί 1
βορ@@ 1
ωμένα 1
κοινού 1
1924 0.9671489830963445
λατρ@@ 1
πτη@@ 1
Αποτελ@@ 1
Νήσ@@ 1
άνθρωπος 1
αμφι@@ 1
Αυτές 1
αιγ@@ 1
αρσεν@@ 1
πεθ@@ 1
46 0.9705966476443432
Κώ@@ 1
Λύ@@ 1
Δου@@ 1
Αυτά 1
άδι 1
πυροβολ@@ 1
ακά 1
ανάκ@@ 1
Ζ 1
άκ 1
σιδηροδρομ@@ 1
ωφ@@ 1
ελπ@@ 1
φως 1
επεν@@ 1
Μπέρ@@ 1
άσι@@ 1
μακρο@@ 1
προσαρ@@ 1
ψι@@ 1
Ινδ@@ 1
Ινστιτούτο 1
διεξήχθησαν 1
εκστρατ@@ 1
αποκλει@@ 1
ευκαιρία 1
πρώτοι 1
ολυμπ@@ 1
οποιήθηκε 1
φτάσει 1
1927 0.9948660025284595
κοντιν@@ 1
όνος 1
Απεβίωσε 1
θή@@ 1
κοινωνική 1
ταξης 1
Λιθου@@ 1
βρίσκ@@ 1
συνδέεται 1
Εμφ@@ 1
αλι@@ 1
κατακτήσει 1
άλλου 1
ξή 1
άκα 1
έντον@@ 1
δουλ@@ 1
Ποδοσφαι@@ 1
εμπόριο 1
Φρειδερ@@ 1
ανεπ@@ 1
ευρύτερ@@ 1
τελει@@ 1
λεϊ 1
πρόκειται 1
Επο@@ 1
άτη 1
αλο 1
γίνονται 1
Ινδία 1
U 0.353464196467753
μουσείο 1
r 0.22887944605472688
Σφ@@ 1
ισθ@@ 1
δεξιά 1
χαρακτηρίζεται 1
Μπεν@@ 1
Ρώμης 1
υδρογ@@ 1
έρι@@ 1
οργάν@@ 1
σπίτια 1
Λιβ@@ 1
σημαία 1
400 0.8591605109610552
Σαν@@ 1
πιλ@@ 1
πρι@@ 1
ντα@@ 1
47 1
αιρέ@@ 1
μενε 1
μνημείο 1
ομένου 1
έλφ@@ 1
Νορμαν@@ 1
βασιλείας 1
Νορβηγ@@ 1
όμενης 1
ετα@@ 1
κατάστασης 1
οικογένειά 1
απελευθέρωση 1
παγκοσμίως 1
περιλαμβάνονται 1
ύλακ@@ 1
δύσκολ@@ 1
66 1
µ@@ 1
επαναστατ@@ 1
οδηγεί 1
Τραγ@@ 1
διατήρ@@ 1
τιμές 1
υποστήριξε 1
πλατ@@ 1
άκια 1
τάθηκε 1
συγγραφείς 1
άνοι@@ 1
βρήκε 1
υρό 1
φορο@@ 1
εξαιρε@@ 1
ιθ@@ 1
λίγες 1
περισσότερους 1
σκέ@@ 1
λαντ 1
ωνύ@@ 1
επιτρ@@ 1
στέ@@ 1
παλι@@ 1
ώνται 1
πέρα 1
ιστορικός 1
ουγ@@ 1
τίτλους 1
1953 0.7878440995341925
εκδόθηκε 1
παρουσί@@ 1
82 1
Ανατολική 1
Σχολής 1
άλων 1
κοινωνία 1
επιβεβαι@@ 1
μελέτες 1
παραδοσιακ@@ 1
ροφή 1
συμπεριφορά 1
κριτικές 1
ειδικ@@ 1
φιλοσοφ@@ 1
χωρήσει 1
σύμβολο 1
υκλ@@ 1
όξ@@ 1
φαινόμενο 1
71 1
Άρη 1
Φερ@@ 1
μόνος 1
εντολή 1
παρέχει 1
απόλυ@@ 1
υιοθε@@ 1
ώδης 1
ανοικ@@ 1
Υόρκη 1
δέχεται 1
Δημήτριος 1
επιχείρ@@ 1
ίλα 1
αναγκάστηκε 1
1929 0.8756062648191728
ιστορικά 1
ικος 1
θηλυκ@@ 1
1954 0.7550992221459611
όπερ@@ 1
Μάλ@@ 1
γάμος 1
ευρέως 1
πόλ@@ 1
χωρών 1
βόρειο 1
όμενους 1
Εδουάρ@@ 1
Βί@@ 1
έπεσε 1
ήσεως 1
Αυτοκράτορα 1
παλαιότερα 1
έρον@@ 1
Μπολ@@ 1
κείμενα 1
περιλαμβ@@ 1
61 1
Δυτικής 1
αρχίζει 1
54 1
γενική 1
τμήματος 1
όλ 1
διακή 1
πλατεία 1
προστατ@@ 1
όμενων 1
Κυκλ@@ 1
οποιείται 1
Γκά@@ 1
εμφανίζονται 1
τίου 1
τείν@@ 1
1935 0.8416770959756604
Διεθν@@ 1
άτου 1
ανατολικό 1
χάρ@@ 1
μπαν@@ 1
πρόσβαση 1
ώνιο 1
κύριος 1
αρτ 1
ευρώ 1
συστατ@@ 1
διακρι@@ 1
θανάτου 1
καλύπτει 1
Ροδ@@ 1
άμ 1
ημερολόγιο 1
Βίκ@@ 1
εκτετα@@ 1
μένουν 1
5.@@ 0.9517895010609994
άνδ@@ 1
Φραγκίσ@@ 1
Δυτική 1
Τσεχ@@ 1
καλύτερα 1
παρατ@@ 1
προσώπων 1
τοπικό 1
κους 1
σταθεί 1
συλλόγ@@ 1
ήφ@@ 1
επε 1
αλγ@@ 1
διαλύ@@ 1
μεγάλ@@ 1
χιλιομέτρων 1
απέκτησαν 1
υποβιβ@@ 1
ευε 1
συγγραφέα 1
φερε 1
χορηγ@@ 1
τισμός 1
μματα 1
Νίκος 1
συνολ@@ 1
συμμαχ@@ 1
en@@ 0.05131352383563064
Λυ@@ 1
υδρ@@ 1
ίδι 1
δεσ@@ 1
ενισχύ@@ 1
τομα 1
Θέ@@ 1
νόμο 1
Θεόδω@@ 1
57 1
μενος 1
παγκόσ@@ 1
Λάν@@ 1
εκλογή 1
λημα 1
άμεσα 1
Άλλες 1
κτισ@@ 1
λίστα 1
62 1
αγώνων 1
Μιν@@ 1
Νί@@ 1
ματικός 1
επιστρέφ@@ 1
Κροατ@@ 1
αρχαίας 1
γης 1
εκατ@@ 1
επιχείρηση 1
θέα 1
αντιπ@@ 1
μυθολογία 1
μοναδική 1
στούντιο 1
Γεω@@ 1
καταγ@@ 1
αρχείο 1
δολοφ@@ 1
θετο 1
τίθεται 1
αξε 1
in@@ 0.05206950438223126
Βουλή 1
άριος 1
αγώνας 1
μεγάλων 1
Χα@@ 1
04 1
Χου@@ 1
λοβ@@ 1
Ρού@@ 1
Γραφ@@ 1
μονάδα 1
ιζε 1
Ch@@ 0.1155596298061503
συμμετάσχει 1
07 1
63 1
Αϊ@@ 1
παραμον@@ 1
Σοβιε@@ 1
ασμ@@ 1
χολ@@ 1
έρια 1
ελέγχ@@ 1
δοθεί 1
Πόλεμος 1
δολοφονία 1
Σοφ@@ 1
ιδιότητες 1
παίκτες 1
ίσταται 1
δημιουργήσει 1
58 1
έντονα 1
περιγράφει 1
παραγ@@ 1
Re@@ 0.1416305105154748
Τμήμα 1
αίνοντας 1
έδωσαν 1
τάξης 1
εξηγ@@ 1
Ε.Π.Σ. 1
Ξεκίνησε 1
ότερ@@ 1
αναγκα@@ 1
μπ 1
διαίρεση 1
σπι@@ 1
διοργανώσεις 1
Τεχν@@ 1
πόδια 1
τηρίου 1
διαταρα@@ 1
μνήμη 1
πρώτους 1
βορει@@ 1
τέτοια 1
δημοσίευσε 1
Υπηρε@@ 1
Φινλανδ@@ 1
πράσ@@ 1
εξυπηρε@@ 1
οθέ@@ 1
αυτοκρατορ@@ 1
διεθνείς 1
παίζει 1
Κινηματογράφου 1
ατμ@@ 1
ed 0.027924399119869398
δημοτική 1
ερευνη@@ 1
ειος 1
Μεγάλ@@ 1
εδαφ@@ 1
ιζόταν 1
Ν. 1
ηλικίας 1
στάν 1
1926 0.9228295640254721
88 1
ΑΕΚ 1
όντος 1
Ιησ@@ 1
ασμό 1
ακολουθούν 1
Ar@@ 0.14230032710598364
ραντ 1
επαρχίες 1
όνες 1
Ού@@ 1
ορκ@@ 1
74 1
ρασ@@ 1
άνα@@ 1
πλήθος 1
οϊ@@ 1
ωσ@@ 1
αιτ@@ 1
στοιχ@@ 1
πρόσωπα 1
Φυσ@@ 1
αντικει@@ 1
είσοδο 1
χρόνων 1
κινηματογραφ@@ 1
κύκλο 1
σού@@ 1
όγειο 1
Αριστ@@ 1
ηχογράφ@@ 1
τονομ@@ 1
on@@ 0.08630226984274349
Χέρ@@ 1
Αγων@@ 1
κυν@@ 1
Γιάννης 1
εορ@@ 1
ρικαν@@ 1
κατάληψη 1
πραγματικό 1
Χρησιμ@@ 1
ούμενο 1
Καλλι@@ 1
επέκταση 1
Κάστρο 1
43 0.9649373319901822
μής 1
προσώπ@@ 1
93 1
ποντας 1
χλμ 1
γινόταν 1
μάζ@@ 1
Μέσα 1
δεύτερ@@ 1
διδασκαλ@@ 1
νοτι@@ 1
Σύνταγμα 1
άνοιξε 1
ανάλυση 1
r@@ 0.07389925171808692
Λα 1
Κυβερν@@ 1
γενν@@ 1
Αιγύπτου 1
εξελί@@ 1
βασικό 1
K 0.41318408146182317
86 1
Δύ@@ 1
καλή 1
θεωρούνται 1
ώπου 1
συνθήκη 1
81 1
www.@@ 1
διαφόρων 1
χρήματα 1
αμφ@@ 1
εβραϊκ@@ 1
μέγι@@ 1
ικανότητα 1
μικρότερο 1
νεφ@@ 1
παντρε@@ 1
Πρε@@ 1
Τοπ@@ 1
άσμα 1
Ιστορικό 1
εβδομάδες 1
Παγκόσμι@@ 1
ντι 1
οποιαδήποτε 1
ορία 1
Στάδιο 1
Τί@@ 1
2η 1
περιόδους 1
Σιδη@@ 1
άδεια 1
γεωργ@@ 1
1933 0.7234102226501723
σεν 1
Τζέιμς 1
άριο 1
αίες 1
δεξ@@ 1
Γενικά 1
πρόεδρο 1
ασχολήθηκε 1
μά 1
ογραφική 1
Επιστ@@ 1
καρδι@@ 1
ογραφίες 1
ίνια 1
επικοιν@@ 1
Ουγγαρίας 1
Αβ@@ 1
Ιδρύθηκε 1
μελλον@@ 1
76 1
Θέατρο 1
Κωνσταντινούπολης 1
ίχν@@ 1
ιαπ@@ 1
αρχιτεκτονική 1
θει@@ 1
Εγ@@ 1
Υπάρχει 1
79 1
Ντου@@ 1
αμ 1
μεγαλύτερα 1
γρά@@ 1
οικισμού 1
ηπ@@ 1
f@@ 0.06513905691793055
έδριο 1
ήμης 1
τόμ@@ 1
δείξει 1
φθεί 1
ch@@ 0.06300089717998258
67 1
αυστη@@ 1
ισμένα 1
στάση 1
Ρόμπερτ 1
ποταμός 1
όδους 1
νται 1
Μάρκ@@ 1
γλυκ@@ 1
στρά@@ 1
ομίλ@@ 1
άφησε 1
αυτοκράτορας 1
εταιρείες 1
Αθλη@@ 1
1934 0.8065607198609354
Ρέ@@ 1
εργαλ@@ 1
μυθιστορ@@ 1
μητέρας 1
ταξί@@ 1
οειδή 1
πλέ@@ 1
υποψήφιος 1
84 1
-- 1
λης 1
διαδοχ@@ 1
υπήρξαν 1
όπο@@ 1
Αφρικής 1
περιορι@@ 1
χρονολογείται 1
ar@@ 0.07217787451163707
Καρόλου 1
τηλεοπτική 1
ποτά@@ 1
λειτουργίας 1
αντίπαλ@@ 1
ότεροι 1
Ευρωπαϊκή 1
Παρισιού 1
λεξε 1
1937 0.7318396688750057
π.@@ 1
Μω@@ 1
er@@ 0.05791122056444555
Στε@@ 1
εννέα 1
φτι@@ 1
χέρι 1
πακ@@ 1
Περσ@@ 1
φος 1
πολιτικών 1
γράφτηκε 1
Αιτωλ@@ 1
z 0.15567469712450926
γλυπ@@ 1
στηκαν 1
Ονομ@@ 1
στήρια 1
κ.α. 1
94 1
Γουλιέλ@@ 1
γέννηση 1
εύσει 1
ζωγράφος 1
51 0.9336468853004262
Βούλ@@ 1
μαθήματα 1
πώς 1
επιτρέπει 1
ιακές 1
δήποτε 1
Πύργ@@ 1
Συνολικά 1
αναλάβει 1
δίσκος 1
τρόφ@@ 1
όργανα 1
Αυστραλία 1
στολ@@ 1
1923 0.9230235173724092
συνεπ@@ 1
ιδών 1
κεφάλι 1
96 1
ηλεκτρο@@ 1
Αχαΐας 1
ντο 1
βιβλιο@@ 1
ασθέν@@ 1
Ελευθερ@@ 1
έντονη 1
Καλλ@@ 1
πρότεινε 1
βιβλιοθήκη 1
κίνδυνο 1
παραστάσεις 1
μπορ@@ 1
πολίτης 1
δας 1
πληρω@@ 1
02 1
Αικατερ@@ 1
Σέρβ@@ 1
78 1
ακτές 1
ανασκαφ@@ 1
εκτέλεση 1
Τράπεζ@@ 1
72 1
αξιωματού@@ 1
εύκολα 1
Δελ@@ 1
Θεσσαλ@@ 1
μεύ@@ 1
ερα 1
1932 0.8396680999019769
αιώνες 1
ότου 1
Σχολ@@ 1
ίκων 1
ενέργειες 1
ιδιαίτερη 1
Πολλοί 1
αρίου 1
πολιορκία 1
Κί@@ 1
προπονητή 1
ριβ@@ 1
ωμένος 1
73 1
Ολυμπιακό 1
κατεύθυνση 1
ομώνυμο 1
Ούγ@@ 1
56 1
https 1
χαρακτήρες 1
δέχ@@ 1
φωτός 1
λια 1
ριά 1
υπόλοιπα 1
αθλητές 1
Βέλ@@ 1
μπάσκετ 1
πρωτεύ@@ 1
εγγον@@ 1
εκκλησίας 1
έθ@@ 1
προγράμματος 1
Κρήτη 1
ημένος 1
έλι@@ 1
εγέρ@@ 1
μπαρ@@ 1
στιγ@@ 1
όφιλ@@ 1
Χίτλερ 1
ηπειρω@@ 1
καρκ@@ 1
όπλων 1
Κοζ@@ 1
Όσ@@ 1
Αμερικανός 1
πυρην@@ 1
σή@@ 1
Τεχνών 1
Τορ@@ 1
κοινοβ@@ 1
κάλ@@ 1
Γερμανοί 1
Ερρίκου 1
εκτελε@@ 1
τραγουδ@@ 1
ταξίδι 1
τουριστ@@ 1
ανών 1
εγκαταστάσεις 1
κτίρια 1
παραιτήθηκε 1
πολιτικά 1
χαρακ@@ 1
βασιλική 1
δυνα@@ 1
συμπεριλαμβ@@ 1
δίσκου 1
ρονομ@@ 1
χώρους 1
ότυπο 1
κέντρα 1
σοσιαλ@@ 1
φήμη 1
δίκη 1
άλογ@@ 1
αναγνώριση 1
αντιμετώπι@@ 1
κάν@@ 1
Καμπ@@ 1
68 1
Μιχ@@ 1
αρχο 1
λαμβάνοντας 1
‘ 0.8118656173826209
συνεισ@@ 1
Παρασκευ@@ 1
στάθηκε 1
τέτοιο 1
ημερομηνία 1
δηλώνει 1
οικοδομ@@ 1
δρομές 1
ομορφ@@ 1
ητήριο 1
θυν@@ 1
ουσίας 1
έκλει@@ 1
τείνει 1
49 0.9262116245521324
εγκαταστάθηκαν 1
Φίλιππος 1
στυλ 1
Εν 1
δάσκαλ@@ 1
θαυ@@ 1
ενθ@@ 1
έμβαση 1
επικεντρ@@ 1
53 0.9840074751674385
Ίν@@ 1
κανένα 1
τεράστι@@ 1
Γιώργ@@ 1
Βουλγαρία 1
Ναπολέ@@ 1
ισμένος 1
μεν 1
1917 0.8025413969348147
καταρ@@ 1
Κέ@@ 1
βοηθήσει 1
υπτι@@ 1
θάλασσας 1
Κίν@@ 1
σερβ@@ 1
ένιο 1
κατέλαβαν 1
Κουρ@@ 1
δράσεις 1
πνεύ@@ 1
σύγ@@ 1
μοιρά@@ 1
Υ 1
ιδιαίτερ@@ 1
πού 1
1925 0.8701152058789574
Πολεμ@@ 1
γερμ. 1
ριακό 1
κυπ@@ 1
υγείας 1
δείχ@@ 1
προκρί@@ 1
Τερ@@ 1
ρασαν 1
ρεί 1
Αυλ@@ 1
Γκι@@ 1
στοιχείων 1
ΕΛ@@ 1
πατρι@@ 1
el@@ 0.07130352226999524
Συνθήκη 1
προσφέρει 1
Ορισ@@ 1
ιστικών 1
Πτολεμα@@ 1
στηκε 1
εύθηκε 1
άμεση 1
Λουδοβίκου 1
ακτή 1
όμενου 1
κήρυ@@ 1
σα@@ 1
Σερβ@@ 1
κοινότητες 1
Κόν@@ 1
Όθ@@ 1
αρχαιότητα 1
πλούσια 1
ρίζοντας 1
Διαδ@@ 1
προέρχονται 1
γων@@ 1
επανα@@ 1
περιοδεία 1
Μεν@@ 1
Ο.@@ 1
ητικής 1
φυλάκ@@ 1
Βαυαρ@@ 1
βοήθησε 1
γραμματ@@ 1
μικρότερη 1
99 1
ονομάζονται 1
ραδιοφ@@ 1
τριες 1
Ελληνικό 1
μεταφρά@@ 1
εντελώς 1
συμμετέχει 1
09 1
συμφών@@ 1
πίνακες 1
τραγ@@ 1
νύ@@ 1
ανάγκη 1
μπερτ 1
τοποθετ@@ 1
Κοσ@@ 1
ωνικής 1
νοι@@ 1
συμπεριλαμβανομένου 1
απόψεις 1
Γ. 1
συνάν@@ 1
ιατρική 1
μειον@@ 1
ίλιαμ 1
οβιτς 1
πετρ@@ 1
επιτροπή 1
πόλεων 1
νι 1
00 0.7453520676434293
διαδ@@ 1
θαλάσ@@ 1
σμοί 1
Αθη@@ 1
εμπλ@@ 1
στερε@@ 1
or@@ 0.07838545135761743
εκείνος 1
οδήγησαν 1
γιους 1
μεταβλ@@ 1
ουσίες 1
ϋ 1
στρω@@ 1
Αλ 1
Βόρ@@ 1
ναύ@@ 1
οσύνης 1
ιων 1
νάσιο 1
κάτο 1
όλος 1
Παρα@@ 1
επεισόδιο 1
παράσταση 1
Λίγο 1
σύλλογο 1
άκρο 1
Κεντρική 1
Όμιλ@@ 1
δωρε@@ 1
κύπελλο 1
Πολιτική 1
θν@@ 1
Επειδή 1
περιορισ@@ 1
υπέστη 1
άνδρα 1
ιδιοκτή@@ 1
τηλεόραση 1
ίτσα 1
υποχρε@@ 1
91 1
επίσημο 1
an@@ 0.06124129359506536
κρε@@ 1
κυνηγ@@ 1
σχεδι@@ 1
θέλ@@ 1
Σμύρ@@ 1
αυλή 1
ικάν@@ 1
νου@@ 1
ακαδημαϊκ@@ 1
06 1
Γης 1
Σαιν 1
άγο 1
εκπρόσω@@ 1
τελευταίες 1
98 1
ac@@ 0.09703281474306588
τάς 1
υλικά 1
έγιο 1
αμερ@@ 1
περιέχουν 1
Κομμουν@@ 1
σταϊν 1
Πρωθ@@ 1
εναλλακ@@ 1
ποικιλία 1
πρακτική 1
Ίδρυ@@ 1
Βραβεία 1
όντ@@ 1
92 1
τετρα@@ 1
ήτης 1
γραπ@@ 1
ΟΥ@@ 1
παρουσίασε 1
w@@ 0.08351095945098629
59 1
πατρίδα 1
1914 0.7598856599044502
καθιστώντας 1
λιου 1
05 1
77 1
Αερ@@ 1
έσεις 1
Βολ@@ 1
έφθηκε 1
διακοπ@@ 1
κόν@@ 1
Πεν@@ 1
έλλειψη 1
θεί@@ 1
πίστευ@@ 1
Μάλιστα 1
φη 1
Γουλιέλμος 1
στρατόπεδο 1
τω 1
κάρ@@ 1
παρασκευ@@ 1
όφων@@ 1
Παγκόσ@@ 1
Χαρακτηριστ@@ 1
θια 1
ουραν@@ 1
ούμενα 1
συμβούλιο 1
υρία 1
όλια 1
άδη 1
ρές 1
Συγκεκριμένα 1
θενται 1
πειρα@@ 1
ητικού 1
ύρη 1
ιδίως 1
κύτταρα 1
ογραφικό 1
ρια 1
διαμέρισμα 1
ταρα@@ 1
ἐ@@ 1
εξίσ@@ 1
ημά@@ 1
ώνιος 1
αίθ@@ 1
μαχία 1
οικο@@ 1
μετανα@@ 1
νότιο 1
προέδρου 1
1,@@ 0.6745959159066861
εκπαίδευσης 1
Αργεντιν@@ 1
ωνας 1
μπήκε 1
Δανίας 1
σπάνια 1
εσης 1
Αεροπο@@ 1
εξέδωσε 1
ς.@@ 1
σκηνές 1
κρίση 1
Έδρα 1
γραφεί 1
διάφορους 1
δαλ@@ 1
εμφάν@@ 1
εργάζεται 1
ΕΡ@@ 1
εξουσίας 1
ενημέρω@@ 1
πράξεις 1
Συμφ@@ 1
Eurovision 1
di 0.328128792218534
Περιφέρεια 1
μικρός 1
αιώνας 1
επιφαν@@ 1
σεβ@@ 1
τίτ@@ 1
Εταιρείας 1
προγράμματα 1
στρατηγός 1
άσθηκε 1
Τζό@@ 1
καταφύγ@@ 1
ύρω@@ 1
Γάλλος 1
et@@ 0.12090325782892773
Ασφ@@ 1
ποδοσφαιρική 1
χλω@@ 1
όκου 1
εξά@@ 1
Μπό@@ 1
εχθ@@ 1
am 0.05448150275167343
Φιλίπ@@ 1
άλους 1
σχετίζεται 1
έδρ@@ 1
υψηλή 1
βουλευτικές 1
τοποθέ@@ 1
φυλακή 1
Σερβία 1
ακών 1
αλλαγ@@ 1
θεωρήθηκε 1
ροσ@@ 1
ταινιών 1
υποστηρίζει 1
La 0.04251739667712801
άρκο 1
αστές 1
εμπορική 1
μβαναν 1
υνας 1
Παύ@@ 1
είγματα 1
Ιερουσαλήμ 1
εκπομπή 1
σχολεία 1
Γλ@@ 1
βρει 1
οσι@@ 1
μουσικό 1
τίνα 1
χρήσης 1
διοργάνωσης 1
Εδ@@ 1
Βελι@@ 1
κληρονόμ@@ 1
87 1
In@@ 0.12819363010636722
βας 1
Th@@ 0.16788743846967746
ευθύν@@ 1
τούτου 1
άλας 1
έθν@@ 1
στικός 1
απόσ@@ 1
διάδοχος 1
φτάνει 1
Δε@@ 1
κτήριο 1
πληθ@@ 1
τρόπος 1
καριέρας 1
ρέφεται 1
συμβαίνει 1
ανθρω@@ 1
κίτρι@@ 1
Μαρίας 1
τρε@@ 1
83 1
Φρανσ@@ 1
Μασ@@ 1
τείνεται 1
as 0.01171969015932658
Επαρχία 1
μετε@@ 1
απάν@@ 1
καταλήγ@@ 1
λελεύθερ@@ 1
νήσ@@ 1
εισαγωγή 1
απόδοση 1
μου@@ 1
νέας 1
τέλε@@ 1
Δυν@@ 1
Κυβέρνηση 1
τροπής 1
ώδες 1
Κεντρικής 1
Παι@@ 1
δέκα@@ 1
τεια 1
Ιωαννίνων 1
μητρο@@ 1
στος 1
ερείπια 1
Τούρκους 1
ασμός 1
Ρουμαν@@ 1
Σιν@@ 1
απεικόν@@ 1
μερ 1
προετοιμ@@ 1
Μπάρ@@ 1
ine 0.09424706458778694
Σπάρ@@ 1
Αυγ@@ 1
έπεται 1
απόλυτο 1
μπλ@@ 1
εκπροσωπ@@ 1
97 1
τιμήν 1
πρόσφ@@ 1
ad@@ 0.07756312857834399
άνονται 1
τραγουδιού 1
New 0.08672076604673502
κινητήρ@@ 1
ers 0.052432255909598845
εργαζ@@ 1
λογική 1
03 1
προϊ@@ 1
is@@ 0.08952390655002093
ιώτης 1
Βασιλιά 1
Μπαλ@@ 1
τέταρτη 1
τέκ@@ 1
ευτεί 1
οκομ@@ 1
πολί@@ 1
συμμετ@@ 1
Πέτρος 1
Τζι@@ 1
le 0.01279196280502637
άλλος 1
έρτο 1
Νικολάου 1
προσδι@@ 1
Κοινοβούλιο 1
καταδικ@@ 1
19ο 1
δι 1
Λάρι@@ 1
πάρ@@ 1
Δομ@@ 1
άσα 1
αξιοσημείω@@ 1
δείχνουν 1
κουλ@@ 1
ορφ@@ 1
ήν 1
αιο@@ 1
1913 0.9061061222859476
1931 0.7925155597494604
βασιλείου 1
χε 1
ίδιας 1
ρισμός 1
όμου 1
έδει@@ 1
Σοβιετικής 1
πολιορκ@@ 1
τουρνουά 1
συνολικό 1
Mar@@ 0.12092277111913882
Θ 1
Ματ@@ 1
ενίσχυ@@ 1
λους 1
Νότιας 1
Σοφία 1
Φραγκ@@ 1
θηκ@@ 1
αγόρ@@ 1
κραν@@ 1
τουρκική 1
ήσιο 1
ούντα 1
καλοκα@@ 1
νηση 1
ρίδα 1
όφ 1
ανικά 1
εδάφους 1
παράγει 1
χειμώνα 1
6.@@ 0.8887710387341741
αναφορ@@ 1
κόμματα 1
ριες 1
παράγοντες 1
άντρες 1
αλυσ@@ 1
βουν@@ 1
Τρο@@ 1
εκτιμάται 1
σκοτώθηκε 1
ιερό 1
μόρφωση 1
κανάλι 1
συνέλευση 1
όπλα 1
όργανο 1
Βιβλιοθήκη 1
γραμμής 1
μένει 1
έος 1
αγγέλ@@ 1
δράσης 1
νησης 1
Sh@@ 0.17008855922278546
πτει 1
89 1
ακές 1
πρίγκιπας 1
παράνομ@@ 1
περιοχών 1
Αποτελεί 1
ριακής 1
Κόμ@@ 1
μων 1
δολ@@ 1
θέσης 1
ιδέες 1
ύρου 1
Αυστρία 1
λιν@@ 1
ωνίου 1
φεστιβάλ 1
Γ.@@ 1
λαμβάνουν 1
εκείνο 1
ξεκινήσει 1
Αζ@@ 1
ενδιαφ@@ 1
χάρι@@ 1
βραχ@@ 1
κυριαρχ@@ 1
κ. 1
μενο 1
τορ 1
Επίσ@@ 1
ευτική 1
Χό@@ 1
εκδηλώσεις 1
ορισμός 1
μπαλ@@ 1
Διεθνές 1
Μίλ@@ 1
άγει 1
βό@@ 1
Λατιν@@ 1
ίζα 1
φαγ@@ 1
όχου 1
Ομοσπονδίας 1
ie 0.07987664628698879
έσπ@@ 1
γει@@ 1
πιθανόν 1
άνοιξη 1
νήσου 1
ήκ@@ 1
αποχώρησε 1
επίσ@@ 1
συμμετέχουν 1
Γκλ@@ 1
Ηνω@@ 1
νύχτα 1
οξυγ@@ 1
φτω@@ 1
Φορ@@ 1
συμμάχ@@ 1
διαμαρτυ@@ 1
επιστολή 1
τέρου 1
γέφυρα 1
69 1
Λευκω@@ 1
όρε@@ 1
Μετ@@ 1
Αί@@ 1
Αυτοκρά@@ 1
ίστα 1
έχουμε 1
αστεροειδής 1
ισχύ 1
άζ 1
An@@ 0.0944040463121117
ατη 1
Φερδινάν@@ 1
θρησκεία 1
διακυβ@@ 1
όνησ@@ 1
Κώστας 1
αστής 1
κυκλοφόρησαν 1
άγκ@@ 1
απαγόρ@@ 1
βλέ@@ 1
τίμ@@ 1
χους 1
ποιητής 1
Δω@@ 1
θησης 1
πελ@@ 1
ικες 1
σκεύ@@ 1
ύσ@@ 1
Τόμας 1
δίκα@@ 1
μόνιμ@@ 1
περιελάμβανε 1
ωθούν 1
γά@@ 1
διω@@ 1
μέθοδος 1
προσω@@ 1
λογαριασμό 1
ξύ@@ 1
περισσότερ@@ 1
γκεν 1
ζευγάρι 1
Γραμματ@@ 1
Στρατιω@@ 1
έλθει 1
ακολού@@ 1
Τουρκίας 1
καλαθ@@ 1
διαδρομή 1
ζυγ@@ 1
οικισμούς 1
τεράστια 1
χεί@@ 1
γνωστές 1
βάσει 1
Εκλογ@@ 1
Παγ@@ 1
προκαλεί 1
επικοινων@@ 1
μπόρε@@ 1
ρισμό 1
ελί@@ 1
Πελοπον@@ 1
γεννη@@ 1
βασιλεία 1
γραψε 1
έφτασαν 1
στευ@@ 1
υψηλής 1
ανώτα@@ 1
σταματ@@ 1
τισαν 1
Ροβ@@ 1
Ευρωπαϊκής 1
θήκες 1
ανάγκες 1
επάνω 1
κλιν@@ 1
ορά 1
γκλ@@ 1
ελέγχου 1
σκόρερ 1
χειρουργ@@ 1
Πρωταθλήματος 1
επιστημι@@ 1
άντο 1
πρωτοβουλ@@ 1
συμμαχία 1
συνεδ@@ 1
ίκ 1
αίρε@@ 1
πλευρές 1
όντο 1
άρτη@@ 1
ντόπ@@ 1
τυπο@@ 1
πτέρυγ@@ 1
σχετίζονται 1
φρούριο 1
έρρι@@ 1
ήτων 1
πραξικ@@ 1
ρισαν 1
σύμβουλος 1
σύζυγός 1
τέρ 1
Κιλ@@ 1
δελ@@ 1
προτιμ@@ 1
Βουλής 1
Χόλ@@ 1
δικός 1
Μόσχα 1
αντιδράσεις 1
Αδρι@@ 1
βίας 1
μεγέθους 1
προώθηση 1
διέταξε 1
ενεργό 1
ομένων 1
προστά@@ 1
χτισ@@ 1
ΟΚ 1
γά 1
πράγμα 1
βελτί@@ 1
τούνται 1
II 0.1683578376375083
ισχυρή 1
σις 1
νόμου 1
ρίτης 1
άλω@@ 1
προσέγγιση 1
Βάλ@@ 1
φόρο 1
Αρκα@@ 1
Ευρ@@ 1
ποιν@@ 1
1900 0.8163674607887641
Μ. 1
Γερμανούς 1
επιχειρ@@ 1
Στι@@ 1
σώματα 1
τεχνικές 1
τολές 1
ατσ@@ 1
Επιστημών 1
έλος 1
όνης 1
Λακ@@ 1
καρν@@ 1
μοντέλα 1
ρεια 1
man 0.08882647083100978
μέλλ@@ 1
περιοδ@@ 1
Ανατολή 1
επαρχ@@ 1
Λος 1
Φυσικά 1
άνθρωπο 1
ὶ 1
ήρα 1
επιτυχίες 1
Υπουργός 1
φιλοσοφία 1
έλι 1
παιχνιδιού 1
Λίγ@@ 1
σύνθε@@ 1
ανε@@ 1
απώλεια 1
εκκλησίες 1
παραδοσιακά 1
ταφ@@ 1
ανν@@ 1
δρόμους 1
συνεχώς 1
χοι 1
Λαμ@@ 1
προσοχή 1
01 1
Παντρεύτηκε 1
μπρ@@ 1
αποκτ@@ 1
νωρίτερα 1
ΐας 1
νερ 1
τομο 1
εκλογών 1
μητ@@ 1
πρά@@ 1
πρόσφατα 1
Ανδρέα 1
εξαφαν@@ 1
Ερυ@@ 1
Ρω@@ 1
άται 1
θι@@ 1
ορχή@@ 1
απορρί@@ 1
ασμένο 1
τροποποι@@ 1
Αμβ@@ 1
έροντας 1
αντίσταση 1
ασμένη 1
προηγούμενη 1
οειδ@@ 1
επιφάν@@ 1
οκα@@ 1
Ρωμαϊκή 1
ήσι@@ 1
νοτιοδυτικά 1
ρικ@@ 1
Ιατρ@@ 1
δείξεις 1
.000 1
δείκ@@ 1
ότερων 1
ογγ@@ 1
οικοδ@@ 1
όδευ@@ 1
Χο@@ 1
οδα 1
θρησκ@@ 1
κατοικία 1
είνει 1
Ελληνικού 1
Κόσ@@ 1
ροταφ@@ 1
Διετέλεσε 1
Επικ@@ 1
έλλα 1
ωνι@@ 1
Δημήτρης 1
ελά@@ 1
τροπή 1
λαίου 1
4,@@ 0.8531310266286021
Εταιρεία 1
Ιστορικά 1
Σκω@@ 1
κάποιον 1
Con@@ 0.13033959710153878
ελαφ@@ 1
παίρνει 1
περάσει 1
διαταγ@@ 1
μισθ@@ 1
ξενοδοχ@@ 1
ποταμ@@ 1
φορντ 1
ενώσεις 1
ρόλους 1
στικού 1
τευξη 1
Έργ@@ 1
βορειοδυτικά 1
Ρωμαϊκής 1
Μεγάλου 1
άση 1
εξαίρεση 1
εριν@@ 1
θημα 1
πρωτό@@ 1
άνδρας 1
τσας 1
κοιλάδα 1
Δημοτικό 1
ολογικής 1
αντά 1
συνελήφθη 1
Δί@@ 1
Χω@@ 1
εικόνες 1
3η 1
ΙΙ 1
Μόσχας 1
άου 1
κανόνες 1
μπλε 1
προϊόντων 1
τροφία 1
Ανακαλύφθηκε 1
επιγραφή 1
επιστημονική 1
δεικ@@ 1
ακου@@ 1
πιθανό 1
da 0.08995932701308756
Ζώνης 1
Το@@ 1
νεύ@@ 1
αρχών 1
στρα 1
Ακόμη 1
ετές 1
συνοικία 1
τζι 1
γραφα 1
150 0.9068250659184779
1921 0.7565228753382672
άγου 1
βορειο@@ 1
Tr@@ 0.13199831370442835
λογισμ@@ 1
σύλλ@@ 1
υρο 1
ίκας 1
χείρ@@ 1
Βουργουν@@ 1
προσθήκη 1
στρεψε 1
κόκκινο 1
der 0.007432468531203527
καύ@@ 1
αντικ@@ 1
ριζε 1
Κλε@@ 1
απου@@ 1
χαν 1
Κ.@@ 1
πλάτος 1
άλυψη 1
κυβερνήτης 1
σκηνοθέτης 1
τομη 1
Θεοτ@@ 1
Πορτογαλ@@ 1
άρης 1
κερδίζοντας 1
ρεψαν 1
Γκρ@@ 1
Εκείνη 1
Εξωτερικών 1
αναγκ@@ 1
βασική 1
βουλγαρ@@ 1
σκότ@@ 1
Η.@@ 1
ηττήθηκε 1
κινδύ@@ 1
δάσ@@ 1
δασ@@ 1
παγκόσμιο 1
ρύθμιση 1
βε@@ 1
Πομ@@ 1
απόφ@@ 1
League 0.18914829355903556
μητρ@@ 1
κει@@ 1
μεγάλωσε 1
εξαρ@@ 1
τ.χλμ. 1
Νυμφεύτηκε 1
κοιλ@@ 1
λογοτεχνία 1
αρίων 1
αυτοκρατορίας 1
μεταρρυθμ@@ 1
ταξε 1
Θεωρείται 1
δορυφ@@ 1
γενιά 1
ευρήματα 1
Μεγάλο 1
Τουρκο@@ 1
αντικαταστάθηκε 1
εθνικές 1
Φράν@@ 1
έρευνες 1
μελετη@@ 1
Πάρ@@ 1
ευνο@@ 1
ματικών 1
θαν 1
Επανάστασης 1
Ουγγαρία 1
λύση 1
μέτα@@ 1
24@@ 1
γένος 1
τραπεζ@@ 1
εγκατέλειψε 1
Μπρά@@ 1
Παπαδ@@ 1
Πρωτο@@ 1
for 0.012471673576281952
άσια 1
δυτικό 1
ιλία 1
ένοπλ@@ 1
πωλήσεις 1
Οίκου 1
έληξε 1
μπο 1
ατικής 1
θεσμ@@ 1
νους 1
25@@ 0.9440723446173577
έμφ@@ 1
ρόλος 1
Πλά@@ 1
αινε 1
τεσσάρων 1
τιση 1
Φίλιπ@@ 1
Αντίθετα 1
εβιτς 1
τόν@@ 1
καταναλ@@ 1
Ηπείρου 1
Ταρ@@ 1
δέρ@@ 1
μορφω@@ 1
Κόρ@@ 1
καθορ@@ 1
ροφής 1
συνολική 1
Άγ@@ 1
καθυ@@ 1
Αλέ@@ 1
Π. 1
ατμόσφαι@@ 1
ειπ@@ 1
άντως 1
ζήτημα 1
ύφος 1
ανέβηκε 1
φα 1
Πειραιώς 1
Σουηδία 1
κάνοντας 1
πισ@@ 1
Μπρο@@ 1
Προσ@@ 1
ποδοσφαιριστ@@ 1
τοπικές 1
ακτ@@ 1
ογραφίας 1
οια 1
Διοίκ@@ 1
σύμ@@ 1
επιρρο@@ 1
αλή@@ 1
διαφέρ@@ 1
γματος 1
Άλλα 1
τερα 1
as@@ 0.0715135735801418
Φρειδερίκος 1
ηματική 1
αιχ@@ 1
Ηλιακό 1
τομείς 1
ωτικό 1
ουμεν@@ 1
χρονη 1
ανταλλαγ@@ 1
μέτρηση 1
μείνει 1
ίπισσα 1
ότζ@@ 1
Σύλλογ@@ 1
επεισόδια 1
είχ@@ 1
20ού 1
Μεσογ@@ 1
υπερβολ@@ 1
θέρ@@ 1
κυπέλλου 1
Εθνών 1
επέτρεψε 1
κύρι@@ 1
αίσ@@ 1
δίω@@ 1
διαχει@@ 1
ναζ@@ 1
συνέβη 1
Καθ@@ 1
τέθηκαν 1
ώπ@@ 1
Αραγ@@ 1
δεψε 1
αποτελούσαν 1
δικές 1
ωμένες 1
600 0.9770554547979357
Τζέ@@ 1
γαμ@@ 1
καταστράφηκε 1
τρομ@@ 1
έθεσε 1
ίλι 1
ειδική 1
ειρήνη 1
κατάφεραν 1
λήφθηκε 1
ναϊκ@@ 1
Έλ@@ 1
Ανδρέας 1
Ζα@@ 1
Μηχαν@@ 1
μετάφραση 1
έρχ@@ 1
διατηρεί 1
υποστηρί@@ 1
βιβλίων 1
έβαλαν 1
χρη@@ 1
Παρόλο 1
υιοθέ@@ 1
λέξεις 1
πήραν 1
άμου 1
λεηλ@@ 1
σύγκριση 1
ΑΤ@@ 1
πρότυπο 1
συζητ@@ 1
Γιουγκοσλαβ@@ 1
ώνυμη 1
Καταλ@@ 1
βορειοανατολικά 1
εκκλ@@ 1
σύμπ@@ 1
απόπ@@ 1
κινηματογράφου 1
Αλέξ@@ 1
δικτύου 1
ληψη 1
Ματθ@@ 1
αίθουσα 1
πεπ@@ 1
ατικά 1
οσκ@@ 1
Βερολίνο 1
παρόλο 1
Θάλασσα 1
ολοκλήρωσε 1
έντο 1
υπηρέ@@ 1
δίνοντας 1
ευθυν@@ 1
κυτ@@ 1
νοσ@@ 1
ώδ@@ 1
ισοδ@@ 1
κόμβ@@ 1
Σαβ@@ 1
παρουσιάστηκε 1
αναλαμβ@@ 1
ομαδ@@ 1
συνεργάστηκε 1
απλώς 1
Υγ@@ 1
Βαρσοβ@@ 1
ήσι 1
ψήφων 1
όδων 1
Εσωτερ@@ 1
Παιδ@@ 1
Σαξονίας 1
ευθύ@@ 1
στόχος 1
ήλθαν 1
παρατήρ@@ 1
συμπεριλαμβανομένης 1
αυτόνομ@@ 1
πεντα@@ 1
γεννημένος 1
παραγωγός 1
Αλφόν@@ 1
Σκο@@ 1
ολόκληρο 1
οφυλ@@ 1
κουζ@@ 1
αναφέρουν 1
μπελ 1
Αμφ@@ 1
Καρλ@@ 1
εβδομάδα 1
1910 0.7645507220221337
ol@@ 0.09250948856313373
λευκό 1
παίρν@@ 1
Κίνας 1
αγγλική 1
νοτιοανατολικά 1
τει 1
Βενετία 1
ευρύτερη 1
νοσοκομείο 1
7.@@ 0.8338776913480792
Διεθνούς 1
ανε 1
τάγματος 1
έκρινε 1
συνάρτηση 1
πέρασμα 1
παιδιών 1
εκμεταλλ@@ 1
εποχών 1
καταλάβει 1
ελαφρ@@ 1
απόγον@@ 1
μονής 1
πλανήτη 1
αφορ@@ 1
Records 0.5018433888686292
αιτία 1
δημοσί@@ 1
σαλ@@ 1
συγγραφ@@ 1
Αντρ@@ 1
Καρλ 1
εξω@@ 1
ριμπάουντ 1
ραι@@ 1
ύρων 1
εντα@@ 1
επέστ@@ 1
ολόγηση 1
ροκ 1
Αλεξάν@@ 1
μορι@@ 1
αμερικανική 1
Σουηδίας 1
Car@@ 0.1572364636767775
ΕΕ 1
συμμετοχής 1
φωνή 1
Σέρ@@ 1
διοικητικά 1
πρώτων 1
στάλ@@ 1
Ελβ@@ 1
ποια 1
Α.Ο. 1
ανα 1
αυτοκίνητο 1
κάστρου 1
φτ@@ 1
διαμορφ@@ 1
ιέρ@@ 1
συνέν@@ 1
ΕΛ 1
δισεκατο@@ 1
δότη@@ 1
εγκατα@@ 1
ζώων 1
βαρι@@ 1
Περιγραφή 1
οπά@@ 1
ic@@ 0.10905808099675056
Μάικλ 1
γκου@@ 1
αληθ@@ 1
αντέ@@ 1
ασφάλεια 1
πόρ@@ 1
χόλ@@ 1
ph@@ 0.12421034891655507
συνδεδε@@ 1
πρεμιέρα 1
Οθωμανική 1
επιλογ@@ 1
θου@@ 1
χτ@@ 1
αξίας 1
ται@@ 1
ούλα 1
συνασπ@@ 1
είδιο 1
γη@@ 1
επικρατ@@ 1
πραγματοποιήθηκαν 1
ρικ 1
χειρό@@ 1
τάση 1
τιδας 1
ικου 1
ρώ@@ 1
άγονται 1
ούχος 1
οργάνωσε 1
τάρ 1
αποδίδ@@ 1
ψία 1
Γεώργιο 1
Καλιφόρνια 1
ανώτερ@@ 1
Βιέννη 1
εταιρία 1
ξεκινά 1
σταλ@@ 1
Συγκ@@ 1
λιών 1
κιθ@@ 1
προφ@@ 1
ότα 1
es@@ 0.07036962549454522
έψει 1
αριστοκρατ@@ 1
ύμν@@ 1
αζαν 1
αμφισβ@@ 1
ισή 1
πολιτισμού 1
στολή 1
αποφοίτησε 1
δυναστ@@ 1
μού@@ 1
Παναγίας 1
καθεδρ@@ 1
ξανα@@ 1
δημό@@ 1
μοί@@ 1
πιθανότητα 1
χρηματο@@ 1
Δούκα 1
παρέ@@ 1
Μαυροβ@@ 1
ζεύγ@@ 1
World 0.13305239092402496
Άντζελες 1
ινε 1
κατάλογο 1
Προσωπική 1
επιθυ@@ 1
καθήκοντα 1
ωσή 1
Γυμνα@@ 1
Πλατ@@ 1
αεροσκάφη 1
προέκυ@@ 1
ηγέτης 1
5.000 1
κατείχε 1
μακρ@@ 1
έλευση 1
εκδό@@ 1
ag@@ 0.08073086910684321
Κέρ@@ 1
μί@@ 1
Μί@@ 1
Πρίγκιπ@@ 1
δεύτηκε 1
Ανδ@@ 1
Θερ@@ 1
απονε@@ 1
λοιπόν 1
λέγοντας 1
στίχους 1
σφαι@@ 1
5,@@ 0.8520180036795277
αυτοκ@@ 1
διεύθυνση 1
εθελον@@ 1
ενημερ@@ 1
νό 1
πολιτεία 1
ρίστηκαν 1
ότα@@ 1
γεγονό@@ 1
os 0.053176209914990086
ot@@ 0.10670334821248821
Πέτρου 1
στρο@@ 1
Βενετίας 1
ακτινοβολ@@ 1
διοίκησης 1
τέταρτο 1
ώνυμ@@ 1
Χιλ@@ 1
άτ 1
αρμογ@@ 1
ρί 1
αρα 1
υπέρ@@ 1
ιστορίες 1
στρατιωτικό 1
όμιλο 1
σιμες 1
τόξ@@ 1
εξετά@@ 1
θεμελι@@ 1
προσαρτήθηκε 1
St@@ 0.11374766044046974
Κατάλογος 1
φο 1
συμπτώματα 1
όλυ@@ 1
ιακής 1
ιτ 1
συντηρη@@ 1
υλικού 1
στρατιωτικές 1
ψήφους 1
Κάν@@ 1
δημιούργ@@ 1
νομίσματα 1
Εσ@@ 1
πράγματα 1
Κλη@@ 1
τρίτος 1
Περιφερ@@ 1
διέθετε 1
Βουλγαρίας 1
είδε 1
οπτική 1
Θα 1
άστ@@ 1
εξελ@@ 1
σχετική 1
800 0.9721474875919691
Όλα 1
Βασιλιάς 1
Πάπας 1
ύγει 1
αρχίσει 1
γραμματέας 1
προηγουμένως 1
δει 1
καλύτερο 1
ύνει 1
ab@@ 0.06224110074165331
Αζερμπαϊτζάν 1
Αψ@@ 1
Μεγάλης 1
τίν 1
βάλει 1
Πάπα 1
ανησυχ@@ 1
απευθείας 1
απέχει 1
πολλ@@ 1
ρυθμό 1
φύλλα 1
περιοδικά 1
πων 1
Διεθνής 1
ασμα 1
προστατευ@@ 1
ous 0.12575197004019564
ανεβ@@ 1
διευθύν@@ 1
ράβ@@ 1
καιρ@@ 1
αφήν@@ 1
Ιωσήφ 1
καταστήσει 1
λων 1
παράδ@@ 1
αεροδρόμιο 1
διακρίσεις 1
BBC 0.8926452692047311
δοσης 1
ραμα 1
τικο 1
ώνου 1
single 0.22552374742484682
2ο 1
οργάνωσης 1
ΦΑ 1
ετη@@ 1
ζούσε 1
ιταλική 1
συνε@@ 1
αντίπαλο 1
πειρο 1
γραφείο 1
ανή@@ 1
Τού@@ 1
προσωπική 1
1915 0.8049552079286038
ευμάτων 1
Καποδίστριας 1
ετε 1
Περιφερειακή 1
Πριγκ@@ 1
βάθος 1
κινήματος 1
Ακολούθησε 1
Ντέιβιντ 1
διαφορετική 1
αδελφού 1
τελετή 1
ανοίγ@@ 1
Τζάκσον 1
οργανώσεις 1
κόστος 1
δημιουργώντας 1
εκατομμυρίων 1
οξειδ@@ 1
Σεβ@@ 1
αυξαν@@ 1
Αρι@@ 1
Ποδοσφαίρου 1
μάζα 1
μικρού 1
τόπο 1
αίματος 1
ουμ 1
Πετρού@@ 1
όου 1
περικ@@ 1
σταμάτησε 1
άσματος 1
οριστεί 1
τιμήθηκε 1
τιου 1
γκερ 1
ολι@@ 1
αντιπολίτευ@@ 1
στοχ@@ 1
Κύριας 1
περιοδικού 1
νερά 1
αντίτυπα 1
μεταγενέστερ@@ 1
ολοκλήρωση 1
1908 0.8421881797481957
όπλ@@ 1
ανθρώπου 1
νος 1
άγνωση 1
δικαιωμάτων 1
οσης 1
Ρουμανία 1
διαφορές 1
Ιάκωβ@@ 1
Συμμετείχε 1
Έρ@@ 1
υποχρεω@@ 1
διεξαγωγή 1
καμ@@ 1
κτηνο@@ 1
σύνδεση 1
πληροφοριών 1
Σπουδ@@ 1
κράτησε 1
οτε 1
αντάται 1
Λίν@@ 1
έκρη@@ 1
διδακτορ@@ 1
ειές 1
Σημαν@@ 1
αδέλφια 1
λεν 1
ούλιο 1
Γερμανός 1
ελληνικών 1
Γιού@@ 1
Ιερά 1
πολιτ@@ 1
one 0.03955248786918742
Θεού 1
ανάγ@@ 1
Γαλλική 1
Λέν@@ 1
ασχολείται 1
στησαν 1
αναγνωρίστηκε 1
όφσκι 1
Ελένη 1
ρικός 1
τηρού@@ 1
it@@ 0.08132693956728217
Πρώτα 1
Εισ@@ 1
γυμνα@@ 1
κόπ@@ 1
υσή 1
προσπαθεί 1
χαρακτήρας 1
at@@ 0.0775223618816954
ροβ@@ 1
ειακές 1
επρόκειτο 1
ερευνητές 1
κιλ@@ 1
οδηγήσει 1
φυλή 1
Τέχνης 1
αυτό@@ 1
ρίζες 1
συγκέντρωσε 1
επόμενες 1
νόσ@@ 1
τηλ@@ 1
βέβ@@ 1
Πάν@@ 1
βάλλει 1
μεί 1
μες 1
έρονται 1
κίνησης 1
κλπ. 1
βυθ@@ 1
ίστας 1
οριστικά 1
Α1 1
ΠΟ@@ 1
Χρήσ@@ 1
ίτα 1
κατώ@@ 1
Όρ@@ 1
αγάπη 1
απώλειες 1
είστηκε 1
Τούρκοι 1
βούργ@@ 1
μέρει 1
ολό@@ 1
ύλιο 1
ώτες 1
Κρο@@ 1
ανδρο 1
οσύνη 1
Συγ@@ 1
αστυνομία 1
δεύτερης 1
κερδ@@ 1
στούν 1
Πανελλήνιο 1
γίου 1
τονία 1
διαφορ@@ 1
προσφορά 1
λόγια 1
οδευ@@ 1
στρατο@@ 1
Μακεδον@@ 1
Σχε@@ 1
ερασι@@ 1
πλεον@@ 1
ητικών 1
διεθνές 1
ισορροπ@@ 1
στέγ@@ 1
Εσθ@@ 1
Λά@@ 1
Λευκορ@@ 1
ίσκο 1
ουλμαν@@ 1
Μπορεί 1
ακρο@@ 1
φθηκε 1
όδια 1
εξασφάλι@@ 1
ομηχαν@@ 1
des 0.010208253241081183
von 0.018340544815522934
όλογ@@ 1
όντας 1
εθ 1
ημέρ@@ 1
τιζ@@ 1
φυλλ@@ 1
παραχωρ@@ 1
βομβαρδι@@ 1
κόρ@@ 1
ροή 1
συνεργασίας 1
δικτα@@ 1
επιστήμη 1
ετίας 1
ελευθερία 1
Πρόεδρο 1
φιλόσοφ@@ 1
χρησιμοποιήθηκαν 1
Μπά@@ 1
απόδ@@ 1
ώδεις 1
* 0.18496350636684714
θάνατος 1
μάς 1
έδιο 1
διπλωματ@@ 1
σί 1
Ερζ@@ 1
αγγλ. 1
γε@@ 1
ασμού 1
Βυζ@@ 1
Ντί@@ 1
γενικές 1
γνωστο@@ 1
κατευθύν@@ 1
ιακών 1
λεσε 1
τανίας 1
αμμ@@ 1
ανάγκα@@ 1
αποδεκ@@ 1
Βόλ@@ 1
ριας 1
Ουκρανία 1
Κατο@@ 1
ωνικών 1
Ντο@@ 1
αεροπλ@@ 1
ειρην@@ 1
πάει 1
δρα 1
ύλη 1
Πόρ@@ 1
ορεύει 1
αρμον@@ 1
ενήλ@@ 1
στρο 1
ακός 1
ξύλ@@ 1
John 0.12593936949740261
ύψους 1
πιν@@ 1
τμ@@ 1
Φόρ@@ 1
αίρεση 1
περιγραφή 1
Μεσσηνίας 1
διαχείριση 1
πώ@@ 1
τοπικής 1
ωτές 1
όδοξ@@ 1
ίτ 1
εφαρμό@@ 1
στίβου 1
διάκριση 1
Ρίτσ@@ 1
αγωνιστεί 1
περιλάμβανε 1
πρωταθλητής 1
τούργησε 1
λαδ@@ 1
συγκρούσεις 1
δήμαρχος 1
νέους 1
πρωτεΐ@@ 1
Ωκε@@ 1
βιν@@ 1
κλεί@@ 1
κόρες 1
οχώ@@ 1
προωθ@@ 1
Κομνην@@ 1
εύονται 1
τευσε 1
αλκο@@ 1
αντίθε@@ 1
ώρας 1
Πολιτ@@ 1
στηρίου 1
αυτοκρατορία 1
ολόκλη@@ 1
ιδρυτής 1
κάλεσε 1
th@@ 0.07175315561192692
Ακολού@@ 1
εθ@@ 1
μ.@@ 1
απάντηση 1
ητες 1
παρακολουθ@@ 1
διαδηλ@@ 1
αφήνοντας 1
Ολυμπιακός 1
εκδηλ@@ 1
οθέατα 1
σύνδεσμοι 1
βιβασ@@ 1
πίστη 1
Πρόγραμμα 1
λαό 1
Βερολίνου 1
ήντα 1
βράδυ 1
καπν@@ 1
νόμος 1
1916 0.7914602123679615
αρκετούς 1
$ 0.16379519252809838
πυρήνα 1
έτες 1
βενζ@@ 1
ελληνικές 1
ανακάλυψη 1
υνα@@ 1
γεγραμ@@ 1
ώτης 1
αλογ@@ 1
ενδιαφέρον@@ 1
μέθοδο 1
8.@@ 0.8445783000554503
Γκέ@@ 1
δισε 1
ζούσαν 1
σίου 1
βαθμολογία 1
Ολλανδία 1
άσο 1
περιουσία 1
εμπειρία 1
θυγ@@ 1
αιθ@@ 1
συνοικ@@ 1
γραψαν 1
διασχ@@ 1
ουζ@@ 1
1ο 1
? 0.35735104656702776
σκηνοθε@@ 1
θεάτρου 1
Καρα@@ 1
κλήθηκε 1
διπλό 1
μελέ@@ 1
περιστατ@@ 1
ονόματος 1
Γιάννη 1
όγου 1
κινηματογράφο 1
χάλκιν@@ 1
χώρησαν 1
διατηρού@@ 1
τύπων 1
αιχμαλω@@ 1
ζητήματα 1
ποσότητα 1
σιών 1
ουήλ 1
Λέσ@@ 1
εσωτερική 1
νούμερ@@ 1
2,@@ 0.6809460724437901
τοκος 1
λό@@ 1
οβα 1
6,@@ 0.883066095694971
Εξωτερικοί 1
ασθενείς 1
αστρονομ@@ 1
ιάν 1
παρόμοι@@ 1
δημιουργήθηκαν 1
om@@ 0.10158021207738267
Κω@@ 1
ιδίου 1
ικανοποι@@ 1
τουρ@@ 1
έρευνας 1
Καίσ@@ 1
αστρονόμο 1
Μολδαβ@@ 1
μουσουλμάν@@ 1
σηματο@@ 1
τινγκ 1
γας 1
διαδρα@@ 1
βάθ@@ 1
ανής 1
ελα@@ 1
έφθασε 1
αγοράς 1
επικίν@@ 1
κινη@@ 1
γραμμα 1
επίσκοπο 1
Ψυχ@@ 1
διάλυση 1
λεω@@ 1
πρωταθλήτρια 1
Β. 1
αγωνιζόταν 1
ενότητας 1
οιο 1
ρεαλ@@ 1
φοίτησε 1
ήσου 1
μοντέ@@ 1
Τις 1
άνες 1
ήτου 1
ύπαρ@@ 1
ημιτελ@@ 1
συνδε@@ 1
ἀ@@ 1
1905 0.7718049503661463
s.@@ 1
ενδεχ@@ 1
Πολλά 1
βλε@@ 1
έλο 1
συναυλίες 1
3,@@ 0.6663790286227473
κατέφυγ@@ 1
κομητεία 1
πραγματική 1
9.@@ 0.903447302872974
έγερση 1
παντρ@@ 1
Μεσσ@@ 1
έριο 1
εκτ@@ 1
σημασίας 1
άρθρα 1
αφηγ@@ 1
βιο@@ 1
δημοτικό 1
ωκε@@ 1
ισμένες 1
υπηρεσιών 1
κ.λ@@ 1
ριστής 1
όλι@@ 1
Επί 1
δομές 1
σχηματισμό 1
Θράκης 1
Ον@@ 1
επιβλ@@ 1
χτυπ@@ 1
ξεως 1
τίζεται 1
ae 0.31051713398583075
φίλος 1
Βοημ@@ 1
ιέ 1
νοτιο@@ 1
έρνησης 1
δρομή 1
πετο@@ 1
18ου 1
λεί 1
ούχο 1
You 0.5250942849724517
συνεχίζει 1
Απόλλωνα 1
έρχονται 1
ινη 1
ομίλου 1
Απέχει 1
Γέν@@ 1
αναλυ@@ 1
μόνον 1
προέλευση 1
ριστεί 1
ράκ@@ 1
φρού@@ 1
όκ 1
ΕΣΣΔ 1
Ουκρανίας 1
πήγ@@ 1
Διοικητικά 1
γνώση 1
εκτίμηση 1
αίμα 1
δέχθηκε 1
ανακηρύχθηκε 1
κινητήρα 1
πραγματικά 1
δισαν 1
Βασιλική 1
βιβλίου 1
επαγγελματική 1
ούργ@@ 1
Αυστραλ@@ 1
Δημητρίου 1
Πλη@@ 1
λίμ@@ 1
πολεμική 1
καταν@@ 1
άπηκε 1
ιακού 1
Ιουδ@@ 1
Μαργαρίτα 1
αθλητής 1
ητη 1
Music 0.34500488529451745
Φράγκ@@ 1
πας 1
απού@@ 1
τονται 1
Γρηγορι@@ 1
κατοχής 1
σχεδιασμό 1
αξιόλογ@@ 1
ύβ@@ 1
νευρ@@ 1
στέρ@@ 1
αντα 1
προσχ@@ 1
ύλες 1
0.@@ 0.4447522249817715
J 0.5757468702287936
ασθένεια 1
σημαντικός 1
τοποθετήθηκε 1
Αφγαν@@ 1
ακαδημ@@ 1
συστ@@ 1
υγεία 1
χρειάζεται 1
Πορτογαλίας 1
εργοστάσιο 1
ολογικού 1
παραθ@@ 1
οίν@@ 1
τόπος 1
Σάβ@@ 1
Α2 1
έγερ@@ 1
εορτα@@ 1
ηρέ@@ 1
θεατ@@ 1
Κάρολο 1
ηκ@@ 1
ιταλικά 1
προϊόν 1
ορεινό 1
Μολ@@ 1
Πατρών 1
ηλε@@ 1
υσμ@@ 1
Ναβ@@ 1
Πλα@@ 1
γίν@@ 1
δερ@@ 1
τύχ@@ 1
Ρι@@ 1
μηδ@@ 1
ανάλογ@@ 1
αρχηγό 1
ετό 1
σχεδια@@ 1
ευγενείς 1
Μισ@@ 1
Ντάν@@ 1
Γιουγκοσλαβίας 1
Ταϊ@@ 1
αναπτύσσ@@ 1
βις 1
ποτα 1
προκαλέσει 1
αστή 1
πή@@ 1
30@@ 0.869504355660099
ειάς 1
ομώνυμης 1
ανεξαρτη@@ 1
πολυάρι@@ 1
Ράι@@ 1
Σολ@@ 1
ΚΚΕ 1
ίκι 1
αρχιτεκτον@@ 1
γεωργία 1
ζημι@@ 1
αντιμετώπισε 1
κες 1
ύλης 1
ιπά@@ 1
ρείται 1
σήμα 1
ισμ@@ 1
Μνημ@@ 1
Οθωμανικής 1
σλαβ@@ 1
θελ@@ 1
7,@@ 0.8905022124318344
u@@ 0.08336024734338952
Κόκκιν@@ 1
Παρ 1
βασί@@ 1
είλει 1
σπουδών 1
Co@@ 0.1589861526588623
ανική 1
διαμερίσματα 1
πολιτισμό 1
Έκανε 1
βάσεις 1
γεμά@@ 1
εφαρμογές 1
τοπικά 1
Τα@@ 1
γάμου 1
δευτερόλεπ@@ 1
οδρο@@ 1
περιορ@@ 1
Πανι@@ 1
Πρώτη 1
ηγέτες 1
Πετ@@ 1
συμβολή 1
διευθυν@@ 1
προτού 1
τούρα 1
Br@@ 0.1435927211381545
Ανώτα@@ 1
οικισμοί 1
Αστεροειδών 1
Πον@@ 1
Σκωτίας 1
αιότητα 1
έντα 1
χρέ@@ 1
Be@@ 0.12479938342648401
Πολλές 1
κυττ@@ 1
Αλβανία 1
Ηρακλ@@ 1
αστικές 1
Δευ@@ 1
ελεύθερη 1
ερχόταν 1
Υπερ@@ 1
βιλ 1
κά 1
στενά 1
Καρο@@ 1
αστικής 1
οικονομικών 1
ύρωση 1
ίτσι 1
δυναστείας 1
συνδέονται 1
έρα@@ 1
αρχαίο 1
ατς 1
τραγουδίστρια 1
Ολ@@ 1
ανάδ@@ 1
κλε@@ 1
χρωμ@@ 1
Γιαν@@ 1
άρκα 1
ανακαλύφθηκε 1
πρόσφυγες 1
τούτοις 1
ατόμ@@ 1
τορες 1
βαλλον@@ 1
κώδικα 1
εκείνης 1
εμπορικό 1
συνειδ@@ 1
ad 0.14931997410609338
κατέληξε 1
υση 1
τάξεις 1
ξεπ@@ 1
ξεπερν@@ 1
ταχύτη@@ 1
τρέχουσα 1
Σταθμ@@ 1
ονας 1
Έσ@@ 1
φαρμακ@@ 1
αρχεία 1
παλιό 1
δημοφιλής 1
ινγκτον 1
μόρ@@ 1
γραμμάτων 1
ρωσική 1
ποσό 1
ρίθηκε 1
στήρ@@ 1
Στρατηγ@@ 1
διήρ@@ 1
επιν@@ 1
ηγεμόν@@ 1
τρων 1
Εθνο@@ 1
Ευαγγελ@@ 1
Σουηδ@@ 1
λήξη 1
οσοφ@@ 1
Κυβ@@ 1
Τρα@@ 1
ονγκ 1
τριβ@@ 1
Ντέι@@ 1
λόγου 1
παλάτι 1
συνεχίσει 1
πιστεύεται 1
• 1
συνθε@@ 1
De@@ 0.18987586596917855
μετάδ@@ 1
τράπεζ@@ 1
έστηκε 1
λέχ@@ 1
όσημο 1
ton 0.10586396883135282
Λόρ@@ 1
Τοπο@@ 1
άξεις 1
αλλάξει 1
επαγγελματίας 1
Βιβλ@@ 1
αύξ@@ 1
κοινωνικής 1
οικονομικής 1
Βε@@ 1
W 0.36543761450064727
Πρόσ@@ 1
περσ@@ 1
ΚΑ@@ 1
ωνικού 1
Διονύ@@ 1
ελέγη 1
1906 0.8088755478869382
Δυνα@@ 1
βουλ@@ 1
περιεχόμενο 1
Ανάμεσα 1
δώδεκα 1
πυρκαγι@@ 1
Ποσ@@ 1
Ριχάρ@@ 1
Συνέλευση 1
τυλ@@ 1
Μεσαίωνα 1
κανονική 1
σουλτάν@@ 1
διαχωρι@@ 1
ταμ 1
χ. 1
ανακοίν@@ 1
διαφορο@@ 1
θέσει 1
οστά 1
πάπα 1
διαμάχη 1
εμπει@@ 1
ημέν@@ 1
καθ 1
νικητής 1
οριών 1
πρότυπα 1
son 0.03271324777569739
αμοιβ@@ 1
κατανομή 1
πει 1
φυτά 1
ητη@@ 1
συνθέτης 1
ΚΑ 1
έλου 1
δύσκολο 1
θρα@@ 1
Πυ@@ 1
διατήρηση 1
άρας 1
έδρου 1
Συνα@@ 1
μαύρο 1
οχυρ@@ 1
Ινδίας 1
Ναός 1
σος 1
αγιά 1
απέτυχε 1
εύοντας 1
σφαγ@@ 1
ation 0.027804173299280845
Βενιζ@@ 1
Βουλγαρ@@ 1
αγό@@ 1
αρο 1
επιχειρήσεων 1
εντυπωσι@@ 1
παίδευ@@ 1
Εί@@ 1
Ελβετία 1
Πάτρα 1
ακτι@@ 1
ανέπτυξε 1
θεται 1
κηρύ@@ 1
μέτωπο 1
χαλκ@@ 1
− 1
Ισαβ@@ 1
μαξ@@ 1
Βισ@@ 1
βιντε@@ 1
αποσύρθηκε 1
κοινοβουλευ@@ 1
δυνατό 1
επαναστά@@ 1
Ντό@@ 1
θέλει 1
κυμαίν@@ 1
ρωσικά 1
τίστηκε 1
προφαν@@ 1
align 1
ana 0.11298871193901044
γενιάς 1
Βοσνίας 1
άλωση 1
υψηλότερη 1
ισχύει 1
τούμεν@@ 1
ζημ@@ 1
οπαι@@ 1
im@@ 0.07393152603426534
άσου 1
Δημιουργ@@ 1
Μακεδ@@ 1
Μεγαλ@@ 1
λειτουργούν 1
ταξινομ@@ 1
Δικαι@@ 1
Λατ@@ 1
παντρευτεί 1
άφι@@ 1
καρ 1
κινεζ@@ 1
πάρκο 1
Ηρακλείου 1
έλυ@@ 1
αριθμού 1
ντου@@ 1
τοίχ@@ 1
Γκρέ@@ 1
αιτίας 1
Ακολου@@ 1
ισοπ@@ 1
αγαθ@@ 1
ακρίβ@@ 1
ουλα 1
τυγχ@@ 1
δυνατή 1
ιμος 1
ψηφοφορία 1
Κάποι@@ 1
χρωματ@@ 1
Κλί@@ 1
περιγράφ@@ 1
ταρχ@@ 1
καθιστ@@ 1
μιά 1
κεφάλ@@ 1
Τζορτζ 1
συνάντηση 1
τακτική 1
Εμπο@@ 1
άχ 1
ik@@ 0.14831520849027588
Τρικ@@ 1
Αρκ@@ 1
εγκατάσταση 1
Ιμπ@@ 1
διανο@@ 1
οδοι 1
διανομ@@ 1
ρων 1
Di@@ 0.15166123215834407
Le@@ 0.12690028027592154
ολιθ@@ 1
άξει 1
Φιλιπ@@ 1
αχθεί 1
θεωρεί 1
μαχος 1
πλησι@@ 1
χρηματοδότη@@ 1
γίνουν 1
δημοσιογράφος 1
σταφ@@ 1
Φλωρεντ@@ 1
τελείωσε 1
ul@@ 0.08505157452914967
ουχ@@ 1
ανακοιν@@ 1
ανεξάρτητα 1
φτερ@@ 1
βουνά 1
δικηγόρος 1
ισο@@ 1
ΐα 1
Ηρακλή 1
αλε@@ 1
οφεί@@ 1
προκύπτει 1
υπεύθυνος 1
φθινόπωρο 1
έγγραφα 1
θηκών 1
Σαβο@@ 1
9,@@ 0.9835809519215153
κρίν@@ 1
λς 1
στελ@@ 1
Χάν@@ 1
καθιέρ@@ 1
TV 0.2630570881849749
ιώτη 1
Μανου@@ 1
γνώμη 1
επανάστασης 1
v 0.2180276635236898
διαστημ@@ 1
Μπέν@@ 1
ασφάλ@@ 1
θησε 1
4η 1
βασικά 1
ρίσματα 1
αναφ@@ 1
ηλανδ@@ 1
Άρης 1
Μαχ@@ 1
ασμένα 1
αστρονόμ@@ 1
λαού 1
μπορού@@ 1
πολιτών 1
Νόμ@@ 1
άγαλμα 1
πλατφόρ@@ 1
αρχιτεκτονικής 1
έτο@@ 1
λεπτό 1
σοβαρά 1
τείχη 1
έκτασης 1
ετήσια 1
καλλιέργεια 1
ράφηκε 1
ρίδας 1
αναφέρθηκε 1
δημοψήφισμα 1
εκατοντ@@ 1
ζωγραφική 1
Κωνσταντίνο 1
κοινωνίας 1
ποσο@@ 1
ρισμού 1
τηρη@@ 1
Στέφανος 1
στροφή 1
ότερης 1
Μητρό@@ 1
Νορβηγία 1
στόλου 1
πρωταγωνίστησε 1
Disney 1
Ιδρ@@ 1
ασβ@@ 1
ωτών 1
Χριστού 1
αποφάσ@@ 1
επηρέ@@ 1
μπουρ@@ 1
νων 1
Αλεξάνδρου 1
Κατηγορίας 1
δάση 1
διάρκ@@ 1
δει@@ 1
όσι@@ 1
1904 0.818100641651767
Σπαρ@@ 1
λευθέρ@@ 1
στερα 1
συλλογές 1
Αναφέρεται 1
μεταφρα@@ 1
καθεστώ@@ 1
διαστάσεις 1
τιμωρ@@ 1
ΠΑΟΚ 1
είκοσι 1
οδήποτε 1
βουνό 1
εβο 1
συντον@@ 1
χρονικά 1
Windows 1
άκος 1
ιον 1
μαθε 1
πιστο@@ 1
παίκ@@ 1
λιβ@@ 1
Ρωμ@@ 1
Χορ@@ 1
καφέ 1
πετρε@@ 1
ώτη 1
εκδήλ@@ 1
Τάγ@@ 1
ηρε@@ 1
CO@@ 0.8710062600094747
οχής 1
Εάν 1
ανθρώπινη 1
τεστ@@ 1
λογίας 1
παρατηρούσε 1
ποικίλ@@ 1
ανέβ@@ 1
αναρ@@ 1
σινγκλ 1
Ιαπωνίας 1
αίσθηση 1
αεροσκάφος 1
Έντου@@ 1
κύριες 1
προσπάθ@@ 1
Ηλείας 1
ηφαιστ@@ 1
λαβε 1
διακόπ@@ 1
φόβ@@ 1
οζ@@ 1
προήλθε 1
ταχυ@@ 1
ραση 1
CD 0.540830061040366
ανεξάρτητη 1
1911 0.7011542991447591
Τάγματος 1
εγκαιν@@ 1
λίου 1
χρόνους 1
αποσαφήνιση 1
οχές 1
κόκκιν@@ 1
ζευγ@@ 1
γωνία 1
αντικατέστησε 1
λλανδ@@ 1
αναγνωρισ@@ 1
θρο@@ 1
ταχθεί 1
Συνήθως 1
Ερρί@@ 1
Υπήρ@@ 1
​ 1
8,@@ 0.9545226860958159
Πελοπόννησ@@ 1
DNA 1
φύλα@@ 1
όφωνο 1
Κρη@@ 1
Αθλ@@ 1
αντιμετωπίσει 1
Νορ@@ 1
οχαγ@@ 1
τωρ 1
στικ@@ 1
it 0.02180727355099885
αλβαν@@ 1
αρισ@@ 1
γράμμα 1
ανδρέου 1
re@@ 0.0224918928195481
Βουλ@@ 1
ίμ 1
ica 0.17439101045402663
ΡΙ@@ 1
Χει@@ 1
Επαρχ@@ 1
1896 0.9714306328223242
Αιγαίου 1
λει 1
Πρό@@ 1
κειμένου 1
te 0.03423683394578865
1907 0.7526403293398557
αναπληρω@@ 1
νώ@@ 1
όγον@@ 1
ρισμα 1
Cr@@ 0.24701055371223868
Γιάν@@ 1
μετονομ@@ 1
Cor@@ 0.16187470986338165
name 0.11867724514408381
Ουκραν@@ 1
πτώσεις 1
na 0.13074068521831636
2022 0.45759549986938475
ent 0.03639426432512578
γρήγ@@ 1
ερσ@@ 1
Μάγ@@ 1
διεκδ@@ 1
επαφ@@ 1
εύματα 1
ομώνυμ@@ 1
δεια 1
´ 1
ΕΣ@@ 1
Πελ@@ 1
θάν@@ 1
κώ@@ 1
εινε 1
ρον 1
Sp@@ 0.19597318562965785
στή@@ 1
προκύ@@ 1
παρόμ@@ 1
τείχ@@ 1
κατοίκ@@ 1
Επαν@@ 1
Πύ@@ 1
επιβεβ@@ 1
tr@@ 0.054004719846792115
Gr@@ 0.14534145685242938
συγκροτ@@ 1
1000 0.7500827181236507
οδήγ@@ 1
Γυμ@@ 1
όπιν 1
Στέφαν@@ 1
κ.@@ 1
λεύθερ@@ 1
ter 0.0565628673199045
καλλιέργ@@ 1
1909 0.7588203970208752
τίας 1
ρασμα 1
Σο@@ 1
ta 0.11162986305886635
τρεψε 1
πέν@@ 1
st@@ 0.050707440732462694
υπάρχ@@ 1
Συμβ@@ 1
αρκε@@ 1
φραση 1
διακρί@@ 1
όλλ@@ 1
ρεση 1
id 0.17590273741866155
ch 0.09489258683014187
περιεχ@@ 1
στας 1
χρησιμοποί@@ 1
li@@ 0.0781317199550978
Pr@@ 0.1592781007225505
Com@@ 0.16089375233809367
Qu@@ 0.14491742243866387
Απόλλ@@ 1
άλογος 1
Billboard 0.7718816901880845
εξε@@ 1
μφεύτηκε 1
μμύρια 1
μεγ@@ 1
10.000 1
μουν@@ 1
26@@ 1
ina 0.11350056898405021
αποτέλε@@ 1
ευρέ@@ 1
βασίλ@@ 1
δικηγ@@ 1
style 0.2643172958526255
Ομοσπον@@ 1
ate 0.04151934602803888
1.000 1
μενα 1
παραστ@@ 1
συγκρού@@ 1
στίχ@@ 1
em@@ 0.07487515754042157
συναυλ@@ 1
ξεχω@@ 1
τασης 1
ταγων@@ 1
ταξιν@@ 1
Φ 1
ύτη@@ 1
καταστάσεις 1
1897 0.8951542598294029
SS 0.734144531027856
τρες 1
Τουρ@@ 1
όσια 1
ογέν@@ 1
κάπο@@ 1
Q@@ 0.21707867385397894
am@@ 0.06335575856363829
Θρά@@ 1
τέταρ@@ 1
ξεκ@@ 1
120 0.9246640689611865
μαϊκ@@ 1
700 1
ήφθηκε 1
ίκος 1
ῶ@@ 1
Τμή@@ 1
ολο 1
ειο@@ 1
ale 0.07743677082785388
ka 0.182709693979223
προέ@@ 1
Ώ@@ 1
ελάχ@@ 1
2.000 1
le@@ 0.07257470301747183
He@@ 0.17101353040718653
Μητ@@ 1
ve 0.044252598827490656
θήκ@@ 1
κομητ@@ 1
ουλμάν@@ 1
σιδηρο@@ 1
00@@ 0.6915988243942596
1903 0.759533128395301
λάμβανε 1
αζί 1
καθή@@ 1
Βιέν@@ 1
Ιω@@ 1
ύψ@@ 1
oc@@ 0.08878874681405236
άστι@@ 1
τεκτον@@ 1
ττα@@ 1
w 0.1578441566490333
αποτελέσ@@ 1
ρίγκ@@ 1
συνέπ@@ 1
120@@ 1
ur@@ 0.07002899750826125
Βρα@@ 1
Δημήτρ@@ 1
αυτοκίν@@ 1
μαύ@@ 1
ec@@ 0.08875584905402582
Κεντρ@@ 1
συγκρο@@ 1
ήρε 1
Πανα@@ 1
ard 0.13836343459100336
ley 0.12414509995705685
Τσε@@ 1
lo@@ 0.07498411604435229
εύκολ@@ 1
ελλήν@@ 1
qu@@ 0.07382984775782209
είπ@@ 1
ζώ@@ 1
ομβαρ@@ 1
Ιαπ@@ 1
Str@@ 0.1598100036724199
ρισκ@@ 1
Mon@@ 0.13834821153617557
1878 1
τέχ@@ 1
εσε 1
sh@@ 0.07484462405829445
ελέγ@@ 1
Συμμετ@@ 1
1890 0.7917750456612233
άρτηση 1
έκα 1
δείχθηκε 1
φάλ@@ 1
Αστερ@@ 1
000 0.34896829381794364
Live 0.7487805156974152
age 0.04631910812649045
se 0.013389365498612348
μεταρ@@ 1
άφος 1
τολή 1
συγκρότη@@ 1
tic@@ 0.2544049617463212
άφη 1
εβί@@ 1
υνομ@@ 1
τέλεσε 1
Ex@@ 0.13878257822337622
ωβ@@ 1
ti@@ 0.06359591071214477
καθε@@ 1
εκεί@@ 1
κινηματο@@ 1
ens 0.07007038946369806
συμμε@@ 1
Λ 1
τηρούσε 1
βαλλ@@ 1
άλογο 1
τιας 1
ότε 1
οσφ@@ 1
λεον@@ 1
αθμ@@ 1
ρρο@@ 1
εταιρ@@ 1
επιστημ@@ 1
πρα@@ 1
Black 0.3683618428322435
τομέ@@ 1
1899 0.8010923931615083
Νικόλα@@ 1
Λουδοβ@@ 1
αίνεται 1
κατευ@@ 1
αίτη@@ 1
θλημα 1
International 0.1704929230693586
έκα@@ 1
ανεξ@@ 1
Ηλι@@ 1
Man 0.4198846939109098
21@@ 1
Αυτοκ@@ 1
έλλει@@ 1
ρονα 1
Αλεξάνδ@@ 1
σουλ@@ 1
Μεγ@@ 1
119@@ 1
Χριστο@@ 1
δίκ@@ 1
ακτη@@ 1
εκρι@@ 1
επεισ@@ 1
Bo@@ 0.16652193627753129
εφαρμογ@@ 1
μβούργ@@ 1
πληροφ@@ 1
αποδί@@ 1
δημοσ@@ 1
28@@ 1
ογραφικά 1
γυνα@@ 1
23@@ 1
βρε@@ 1
εντρ@@ 1
1870 0.8105644257213928
ic 0.076413635603828
os@@ 0.09211425239008514
θήματα 1
ed@@ 0.08656383363612553
un@@ 0.034718418289626365
il@@ 0.07262208147549014
πίσ@@ 1
pop 0.6502846021473678
ιώς 1
250 0.783487105671537
Αύγ@@ 1
διοδρομία 1
ευθ@@ 1
Ρ 1
υρα 1
́ 0.19268596659564288
Mo@@ 0.1708840120526114
1881 1
ώβ@@ 1
ni@@ 0.1067118142391222
γκο@@ 1
Κωνσταντιν@@ 1
Αυτοκρα@@ 1
ότυπ@@ 1
λαβαν 1
3.000 1
av@@ 0.10085109638948317
ρέψει 1
γέφ@@ 1
προσπά@@ 1
1902 0.6858122314481157
ειλε 1
ηματο@@ 1
σύλλογ@@ 1
1880 0.821184456627214
background 0.8850428954254673
τυγ@@ 1
έφυγ@@ 1
AR@@ 0.4545142345761234
Ro@@ 0.14830678125562832
id@@ 0.07835687630048051
Sch@@ 0.05902189835449709
διαχεί@@ 1
Θεωρ@@ 1
νερ@@ 1
ap@@ 0.07240305223610745
En@@ 0.1426358911993114
color 0.4592941207999323
σύνη 1
1895 0.7693406869947423
Περιφέρ@@ 1
όχρονα 1
1835 1
Θάλασ@@ 1
ῆ@@ 1
αιχμαλ@@ 1
λλου 1
… 0.31483956773304866
οειδών 1
ουνίου 1
Δεκ@@ 1
αυτοκρά@@ 1
κλήρω@@ 1
καρι@@ 1
όδω@@ 1
Γραμ@@ 1
Love 0.4526975941201618
Le 0.03412554162770355
γάμ@@ 1
καλεί 1
στρατόπεδ@@ 1
ητήρ@@ 1
ώπι@@ 1
ήθελ@@ 1
124@@ 1
un 0.009133428835904591
Χ. 1
Rock 0.4919481010233916
Τόμ@@ 1
No 0.3434089242938151
τ.@@ 1
ρίσκ@@ 1
27@@ 1
ναι 1
τίες 1
1901 0.6514732809307839
om 0.2634803727604828
Se@@ 0.11611479367296092
{ 0.7693181463533294
ino 0.13734676132518883
οφορ@@ 1
Ma@@ 0.16791735323691437
ro@@ 0.06418292114405416
έρνηση 1
Am@@ 0.12544820708776566
επιστημίου 1
ωγράφ@@ 1
Top 0.5396697382557903
όμιλ@@ 1
ant 0.034267552737856415
1,5 1
us@@ 0.07753459585496575
Ινστιτού@@ 1
πραγματοποί@@ 1
ano 0.10774623751690107
άπο@@ 1
Βοσν@@ 1
μέσως 1
πρόσω@@ 1
γιατ@@ 1
Me 0.5588427326323738
Αλλ@@ 1
Ρωμαϊκ@@ 1
μπροστ@@ 1
οδρόμιο 1
IS@@ 0.44107438217077155
τρέχ@@ 1
Αλέξανδ@@ 1
Βραβ@@ 1
οσφαίρισης 1
Φρά@@ 1
Cl@@ 0.2763053034378948
El@@ 0.12218967132206278
άλλον 1
Bar@@ 0.10371803442250177
Πανελλήν@@ 1
cm 0.4202725564342939
1898 0.6844476382796598
στησε 1
άτρου 1
ειδή 1
mm 0.30708103683369103
προπον@@ 1
ικοι 1
άφους 1
λοι@@ 1
000.000 1
NBA 0.7874352251932827
ήσια 1
εκτέλε@@ 1
Ελλ@@ 1
ανη@@ 1
Ac@@ 0.18856724921407023
πρωτε@@ 1
τογαλ@@ 1
υποψηφ@@ 1
All 0.17149718239816053
Λευ@@ 1
διάκ@@ 1
ler 0.07992823682618282
del 0.0144148205642277
Nissan 1
12,@@ 1
ωθ@@ 1
118@@ 1
AN@@ 0.6976745866910061
πρότ@@ 1
συνέβ@@ 1
NGC 0.9240282612488812
μέθ@@ 1
ig@@ 0.07966036138581332
Times 0.4284331131835584
Καναδ@@ 1
απεζ@@ 1
νοσοκομ@@ 1
πραγ@@ 1
ah 0.15125745753282904
si@@ 0.0822544582610363
πρε@@ 1
απελευθέρ@@ 1
νίκ@@ 1
11,@@ 1
όμετρο 1
One 0.1752766840360223
ζόν 1
1889 0.749772598313835
καταστάθηκε 1
di@@ 0.050346792114207485
Κωνσταντ@@ 1
παρουσ@@ 1
se@@ 0.060808141495866254
ma 0.11597236302946301
δη@@ 1
κίνδυν@@ 1
100.000 1
πλανή@@ 1
εκπαι@@ 1
πεδο 1
βρή@@ 1
ra 0.08415660241205516
III 0.217599346461475
ci@@ 0.09066477411484593
E9E9E9 1
Νυ@@ 1
οφιλ@@ 1
πολε@@ 1
Lo@@ 0.15648180263804903
od@@ 0.11053002935633917
ισχ@@ 1
σιδη@@ 1
ata 0.16001428688502137
2,5 1
τηλεό@@ 1
My 0.48803471393713305
πολίτευ@@ 1
νύχ@@ 1
Col@@ 0.11322115374513347
Y 0.38878456614215634
metal 0.5593327998665377
όμε@@ 1
δίκτυ@@ 1
ὸ@@ 1
κν@@ 1
ne 0.046599051768890405
Ορθ@@ 1
ραγκ@@ 1
ty 0.09389416137349858
Στρα@@ 1
χαρακτήρ@@ 1
1830 1
WWE 1
αριστ@@ 1
ons 0.06236120951896159
ήχθησαν 1
ύρια 1
1885 0.7338061721458544
Per@@ 0.11716487914955465
καλλ@@ 1
πλα 1
αδέλφ@@ 1
χή@@ 1
ak@@ 0.08017513373204015
19@@ 1
Par@@ 0.10110727466410664
φεραν 1
αδερ@@ 1
to@@ 0.08165003652399902
κατέστησε 1
Saint 0.09633183297291693
ανακηρύ@@ 1
1860 0.7583598673608886
ri@@ 0.0789693231039311
άμεων 1
Ο. 1
du 0.011039822049294682
Πειρα@@ 1
10,@@ 1
τωπο 1
φαι@@ 1
DVD 0.6012353725815794
όδο@@ 1
1848 0.8001209547141701
10.@@ 0.7644649190912031
Star 0.3829390819088898
Ουγ@@ 1
RNA 1
άνδρ@@ 1
ποτε 1
Or@@ 0.11964548283105308
ῦ 1
est 0.009263309173597222
OS 0.6787764567198585
York 0.0801617123446267
ts 0.038130267182769614
In 0.010842889526762028
180 1
Mor@@ 0.1179907342293855
εξέλι@@ 1
λλογ@@ 1
20.000 1
ΕΚ 1
ir@@ 0.061886495415298164
ver@@ 0.028778569086156634
διαίτερ@@ 1
Ne@@ 0.11118244116092622
AC 0.4503966872634187
² 0.17692932513929527
American 0.05968641250168642
τέ 1
Time 0.5373611370692386
× 0.5843592435567949
by 0.007305105188311854
Li@@ 0.18399833604064664
Βιβλιο@@ 1
εντυπω@@ 1
κάστ@@ 1
σύρ@@ 1
λιο@@ 1
40@@ 0.8947277059174554
ελήφ@@ 1
έπει@@ 1
po@@ 0.05606849939799799
προώ@@ 1
1866 0.712891703269448
Me@@ 0.12206116711601016
é 0.02408910168971418
Play 1
αμφισ@@ 1
εργο@@ 1
Gu@@ 0.12585796133124658
Σμ@@ 1
φοι@@ 1
It 0.025837667982732064
τώ 1
re 0.05795519708797191
ite 0.07824478670246544
1894 0.6948233633252219
op@@ 0.07113516296914944
mo@@ 0.08332327976603632
CE 0.8558187120878553
1879 0.8162629201375657
εξαφ@@ 1
Cup 0.14554624764447058
Q 0.49416116740117466
vi@@ 0.08375940502119866
άμεις 1
em 0.11040878917551283
ύν 1
ay 0.09726720296175763
De 0.11706327248681309
εγκατέλει@@ 1
νού@@ 1
ὐ@@ 1
μεσα 1
ner 0.08617546531618163
ou@@ 0.07963198350062169
Hot 0.6449816847071981
ini 0.16063824122160722
λευτα@@ 1
statis@@ 1
eg@@ 0.08062630723410674
οδρόμ@@ 1
ke 0.09483205876671048
les 0.009900019165850519
ure 0.07968344994357554
} 0.7502346478244538
ῖ@@ 1
ai 0.11315958613208563
καλα@@ 1
de@@ 0.044181917048934274
τιμάται 1
AS@@ 0.35323417764022685
census 0.34834850300121467
1892 0.670814379049127
School 0.08581030687755661
εύθυν@@ 1
­ 1
τορίας 1
National 0.07120431120300916
io 0.143949137752352
van 0.2857800624767066
υποχρ@@ 1
ans 0.04349398898978112
Un@@ 0.12836065540065913
Μιχα@@ 1
πράγ@@ 1
τεία 1
εφαλής 1
τελεί 1
έντρ@@ 1
στάσιο 1
ηνίας 1
Pi@@ 0.18294373757873209
ity 0.05700636178643215
νουν 1
Bur@@ 0.1611374314542084
γύρ@@ 1
co@@ 0.04460333165163981
j 0.28560049313214314
καλύφθηκε 1
Λόγ@@ 1
σύγκ@@ 1
έμου 1
πομπ@@ 1
Αμερ@@ 1
Δημητ@@ 1
1871 0.7060270171086286
Hall 0.2263544985420299
Microsoft 0.9146464364564361
ell 0.10176152049609416
ov@@ 0.12174557533741748
σύνης 1
4.000 1
UN@@ 0.5618443375281195
Po@@ 0.14653113580658197
Ισρα@@ 1
μάτισε 1
ηνία 1
ce 0.04338221174963203
βρέ@@ 1
ti 0.19380241078499802
ak 0.10726955502265215
UNESCO 1
900 0.9957943768073435
οικογέν@@ 1
ίσχυ@@ 1
ut@@ 0.09437557343926829
ρόμ@@ 1
1893 0.6360527728068018
Mc@@ 0.10624066331915
1822 1
um@@ 0.05949702740304348
1888 0.673613923057203
εναλλ@@ 1
a.@@ 1
λάχ@@ 1
29@@ 1
For@@ 0.12669916552391366
Jean 0.13985953633273382
Super 0.3809271765518304
1884 0.7136538098312699
ουλος 1
διαί@@ 1
προετο@@ 1
110 0.8829972459092514
Do@@ 0.24876445658211302
ούνιο 1
Αλφ@@ 1
επίπεδ@@ 1
Ad@@ 0.13655350228391205
ya 0.05821713537981185
ματοποι@@ 1
115@@ 1
Ver@@ 0.045381515854327925
υι@@ 1
den 0.00987856597474141
eb@@ 0.08484922903639652
ol 0.11635114790576892
δικτύ@@ 1
ὰ 1
era 0.05158960440443907
ότυπα 1
ψευ@@ 1
University 0.05207208673135279
αγάπ@@ 1
Bre@@ 0.19375214375376285
ήθος 1
King 0.16908595181036795
land 0.05659103930933109
Πρι@@ 1
11.@@ 0.8908620057912261
1867 0.7437079531274399
Citroën 1
Man@@ 0.11264659206492908
RA@@ 0.5460534984521133
.com 0.6410461285552388
FIFA 0.8781668519667184
As@@ 0.13795457014300563
off 0.0951030375089199
80@@ 0.9872508545047917
Ιωανν@@ 1
right 0.17594739845389398
1886 0.6737082909886695
Κάρο@@ 1
af@@ 0.08433678393360387
ent@@ 0.04275711619716781
per@@ 0.04791363959245103
1891 0.6291646608670234
do 0.060104552861880524
γιν@@ 1
ˈ@@ 1
Ag@@ 0.20972690961037374
παραπ@@ 1
Club 0.13958985670109278
ot 0.1258791099377625
Er@@ 0.06665585304149402
1500 0.8478531839413201
ca 0.13791222445690451
1864 0.6986527044311927
διδακ@@ 1
τυχε 1
μβαν@@ 1
€ 1
6.000 1
απώ@@ 1
αντιμετ@@ 1
1840 0.8692454150746435
αντι 1
1850 0.7253334826462843
Metal 1
ber@@ 0.06956030365484059
ly 0.04250291182163208
νοια 1
Paul 0.13213484226274794
Pol@@ 0.1704001422648504
θηναϊκ@@ 1
22@@ 1
0,0@@ 1
θηγ@@ 1
ανάγκ@@ 1
ice 0.1204773789587261
ja 0.16770227079109049
1887 0.663187182707166
λλην@@ 1
χαμ@@ 1
no 0.029090098359132392
ess 0.09595799528587487
il 0.01770698105941094
Fe@@ 0.253284031966761
James 0.13331616824100315
Z 0.3788452154062483
1882 0.6937581212652282
ατό 1
Studios 0.7308410441045478
1833 1
διαμερ@@ 1
David 0.14313640822984683
1883 0.7120988900080202
Life 0.27853521598325126
ανθρώ@@ 1
.-@@ 1
William 0.12226935775136447
So@@ 0.15819592148980233
co 0.0924673882381277
ette 0.11096300723971673
bo@@ 0.07131703858316557
IV 0.2919274154406336
SA 0.46125053764417584
13,@@ 1
1,2 1
FIBA 1
1828 1
ore 0.11463366467398649
ance 0.054272455197431936
σύνδε@@ 1
Pro@@ 0.11522127997639109
Ge@@ 0.10919966217984022
au 0.014914848582176201
az@@ 0.1035677863899407
Hol@@ 0.1717862492223518
Pe@@ 0.19529806599917945
za 0.12924142845209244
διάφορ@@ 1
παιχνιδι@@ 1
διοδρο@@ 1
1834 1
1877 0.711063579452779
ολοκλήρω@@ 1
ey 0.12102086379904471
Κωνστ@@ 1
ιτέχ@@ 1
gr@@ 0.054847752879527645
ea 0.15412926609012334
τίμηση 1
no@@ 0.09192058127658184
χειμ@@ 1
εκκλη@@ 1
bi@@ 0.060677103342714894
1815 1
ζύγ@@ 1
Deep 1
αναδ@@ 1
CA@@ 0.37223834505595327
3,5 1
50@@ 0.7286260622371328
play 0.1064800007174695
τροπο@@ 1
OH 1
met@@ 0.18584332021246996
κινηματογράφ@@ 1
Channel 0.6520860630864568
so@@ 0.07808733676559639
Ber@@ 0.09546672967335196
καταστάθηκαν 1
ing@@ 0.07834863480774287
ā@@ 0.2366319705820584
200@@ 0.5938926368829229
Awards 0.2356900432313556
μεγέ@@ 1
στρατιώ@@ 1
Mer@@ 0.1581562463497764
Te@@ 0.1579512737994623
έλευ@@ 1
οσμ@@ 1
160 0.9311891806535013
Φιλι@@ 1
ήγαγ@@ 1
ευγ@@ 1
1861 0.6487769977866289
1876 0.6628285826882013
ter@@ 0.05113838454453944
όδιο 1
φιλοξ@@ 1
ψηφοφορ@@ 1
ade 0.10798304867387203
ἰ@@ 1
Dis@@ 0.20278431261803492
αντιν@@ 1
ne@@ 0.07142053388637487
ver 0.16641816179144844
Μαργαρ@@ 1
Μη@@ 1
άλυση 1
Γρ@@ 1
1875 0.6807687587514788
ήνων 1
140 0.938476521316673
1863 0.6615940595626967
χάλ@@ 1
130 0.8298201824999654
Company 0.1726804959397014
pi@@ 0.08975086991139923
όσφαι@@ 1
υργ@@ 1
College 0.10068975416588802
συνελήφ@@ 1
House 0.12375150042290717
Ab@@ 0.05487214250759614
συχ@@ 1
1868 0.6752711872316508
οσημείω@@ 1
ώνυ@@ 1
1825 1
θε 1
μβανε 1
ματοποί@@ 1
Vol@@ 0.19975801798316106
ani 0.15678650083053347
q@@ 0.24737964460973108
Αιγύπ@@ 1
Robert 0.13220602740948342
Her@@ 0.11198777348675588
ist 0.01195532618311736
Black@@ 0.5462934647740749
IC@@ 0.4449869143350272
top 0.12869775432737204
Ρόμ@@ 1
φτά@@ 1
`@@ 1
Radio 0.259997081618956
έναρ@@ 1
παρχ@@ 1
Παρισ@@ 1
ήμη 1
σταθ@@ 1
To@@ 0.2034470763280542
γενέστερ@@ 1
εφαρ@@ 1
og@@ 0.09629880285885141
άρθ@@ 1
Inter@@ 0.12903115619284553
Association 0.1497712302903205
ίωμα 1
στημα 1
Grand 0.1552952187633364
Αυστρα@@ 1
th 0.053142463151983906
αποσύρ@@ 1
τηρεί 1
are 0.012848740195624018
τορία 1
Michael 0.15736581031308972
http 1
Go@@ 0.16935467249373234
εξου@@ 1
bit 0.3975041225787976
ge 0.060524928375715055
1862 0.6305332350182654
1873 0.6527840405254168
θάνα@@ 1
114@@ 1
City 0.07424951580085448
Cre@@ 0.22632222995794465
κατέκ@@ 1
άβει 1
μιση 1
Air 0.17214858453548326
ick 0.12081299020841246
ΚΕ 1
οβολ@@ 1
km 0.060538435471610384
Group 0.17629465109978257
1800 0.796511471030805
Πόλε@@ 1
ara 0.1191014427694282
Bal@@ 0.14528042335868435
pr@@ 0.0577332332077129
1836 1
Gi@@ 0.18381707431710598
Σαξ@@ 1
βίν@@ 1
ings 0.05372600525405117
me 0.0718778206631507
ερευ@@ 1
br@@ 0.04729868477074679
sp@@ 0.05648275846629255
1826 1
AC@@ 0.31815577046570764
á@@ 0.08664865425750606
1869 0.6821228631786804
ence 0.06119345846128144
117@@ 1
διακά 1
πλειοψηφ@@ 1
ise 0.05372757417911122
ειναν 1
UEFA 0.6337635400635974
έγι@@ 1
στήρι 1
12.@@ 0.7340662313883791
Τρά@@ 1
DC 0.45224145143228617
with 0.00544353771468174
ker 0.10252293408668293
φωση 1
1872 0.6406152869735586
Ελέν@@ 1
δορ@@ 1
ki 0.1544503713764615
θμιση 1
BMW 1
ash 0.2659755403168355
š@@ 0.2458417127942015
ραϊκ@@ 1
1865 0.5955262745900384
Purple 1
1874 0.6316749761087366
ορα 1
ρίσκεται 1
FI@@ 0.443052957348799
q 0.31336373120641586
ա@@ 1
βοή@@ 1
116@@ 1
γλω@@ 1
Entertainment 0.4614026953462198
όπεδ@@ 1
ir 0.06771227357635086
more 0.03432835553660843
ολόγιο 1
1.0@@ 1
AL@@ 0.6318131706776651
El 0.02427132317461483
όμετρα 1
30.000 1
Google 0.8032413376726345
pl@@ 0.04542960360619963
χρησιμ@@ 1
350 0.9054073321347927
Ph@@ 0.15657135804295666
Cas@@ 0.14821708992519295
Hal@@ 0.20374518894912838
60@@ 0.8657377720262499
Charles 0.11849143752820214
Mag@@ 0.17733792819308736
έρευ@@ 1
que 0.005596284780009356
Bl@@ 0.15261662207383703
Min@@ 0.13351190206351007
ok@@ 0.11777340470164048
Sal@@ 0.11647367931517907
ϊν 1
San 0.06644652755007369
Διον@@ 1
Young 0.3221031645305779
ΣΔ 1
yl@@ 0.14963278849273867
Καποδί@@ 1
ary 0.04477902865592747
ob@@ 0.06784137011542511
end 0.03913922148898674
Royal 0.13632468691339938
ίρι 1
ile 0.062354862503358366
Red 0.21115702518041132
par@@ 0.03603795582658036
1824 1
Cer@@ 0.2505975568204312
IN@@ 0.3922765825764638
πρόσωπ@@ 1
± 1
Na@@ 0.41555942877831936
Εκλ@@ 1
Κινηματο@@ 1
LA 0.5207456948190142
tra 0.18406407386634446
ella 0.12553067880287638
παραδο@@ 1
SA@@ 0.3919634433794516
τοις 1
codice 0.8451330218462345
ημερομ@@ 1
Hel@@ 0.23637484409062873
st 0.06428180984905749
Ros@@ 0.15745772788732204
und 0.003509840952656061
Σιδ@@ 1
Bel@@ 0.0916731286262947
1829 1
ωρο 1
ερμαν@@ 1
101 0.8324091128338438
κοπο@@ 1
ρισκόταν 1
πούδ@@ 1
Av@@ 0.24527556327440334
do@@ 0.09972443041450338
NH@@ 1
Sol@@ 0.15314340774908825
ξεκίν@@ 1
113@@ 1
λιμάν@@ 1
als 0.011035321726494941
be@@ 0.02936578219930463
βηγ@@ 1
aw@@ 0.09631447981495554
office 0.16789705667269153
SO@@ 0.5934807038202421
all 0.025975991706511034
1856 0.7147261001745187
θετε 1
Ἀ@@ 1
Maria 0.2206554966127814
Marvel 1
Τέχ@@ 1
1854 0.7438803430898703
Λον@@ 1
FC 0.13504394798563485
Ποδ@@ 1
ev@@ 0.07840837606235385
ES@@ 0.3582202843395623
Pan@@ 0.20021360485561923
κεφ@@ 1
1859 0.6482234720508516
ati@@ 0.0710703464898209
λυκ@@ 1
ur 0.089233552208515
Ξεκ@@ 1
ho@@ 0.08245745735457645
ane 0.13359888895225924
1844 0.9059971091378126
450 1
Night 0.46661426996658256
AT@@ 0.42567375143340086
ell@@ 0.0732180780127692
εβδ@@ 1
35@@ 0.7767250377468358
ue 0.07920211331628371
ire 0.08896531308929785
Apple 0.7541730242450961
sa 0.030962418933795012
όργαν@@ 1
ins 0.05386600029623609
τούργ@@ 1
mann 0.1123758966344566
κατέλη@@ 1
Game 0.3943374537531537
περιελά@@ 1
ks 0.047186438570391634
όμη 1
Ri@@ 0.1377308801670458
1814 0.8837253783535166
ήποτε 1
πόλε@@ 1
ko@@ 0.22343490959196075
συμμετάσχ@@ 1
Su@@ 0.12719591645067066
AB@@ 0.5631127986802543
νομή 1
George 0.1049701692664907
é@@ 0.032789837173943556
διαμέ@@ 1
District 0.10194970004451019
τημ@@ 1
1820 0.6777398454477987
NO@@ 0.7079600023650514
Pa@@ 0.38804117277972794
Award 0.141215623188625
Tur@@ 0.15686919159287765
τυπα 1
Kr@@ 0.11453235041741047
dr@@ 0.06212899995783947
Cal@@ 0.11971262346615652
ER@@ 0.3880007838208986
ator 0.08822913720348169
SE@@ 0.37278418330965674
ζων@@ 1
gi@@ 0.07335776731431475
ανου@@ 1
Si@@ 0.18064889009005747
1832 0.896873175119236
DS 0.6357839525399276
ὲ 1
→ 1
έφθ@@ 1
ens@@ 0.05388112085033051
8.000 1
Reg@@ 0.09988119579054475
con@@ 0.03129650949641991
μπή@@ 1
out 0.031894899099085945
1851 0.7336960440108476
au@@ 0.05427753464616631
Βιβ@@ 1
σύγκρου@@ 1
Best 0.19369036505005746
Eur@@ 0.4390880401878639
RI@@ 0.6145294129684866
ὴ@@ 1
ρακα 1
Is 0.4711963725860582
Kar@@ 0.09384190647731763
ma@@ 0.08481521298467681
50.000 1
αναφέρ@@ 1
1843 0.8849825237371015
ake 0.15661905254806896
Iron 0.8130464981452366
δικα 1
1,3 1
end@@ 0.05310815203294787
facto 1
ford 0.10875680958392264
sch@@ 0.032465711616691366
ena 0.11782174752544994
νια 1
Big 0.2501834623575928
ning 0.11495356326597557
ειγμα 1
ac 0.160513706997552
and@@ 0.06411731396237531
box 0.4084001701076243
met 0.1358759171003865
va 0.09763981754529653
ight 0.1681802308378926
όνομ@@ 1
ὸ 1
125 0.7503782972432529
1858 0.6829729039965097
On 0.027766289279643284
ησιμ@@ 1
li 0.16813436910729582
RE@@ 0.4814886282068439
ann@@ 0.08269811208442589
Σεπτέμβ@@ 1
be 0.01160557854443938
ερις 1
à 0.004730659402484257
ακτιν@@ 1
Mel@@ 0.17374702604021847
ones 0.0865325048281199
πτώ@@ 1
1841 0.8473871759483214
1845 0.7785640159534333
1827 1
ita 0.11024830851032472
4,5 1
Ford 0.4001880957149695
1823 1
Es@@ 0.1298996811361463
ΠΑ 1
Mot@@ 0.2237934234336836
els 0.056762626930611314
Προσωπ@@ 1
Fre@@ 0.102825451049847
ΰ@@ 1
τραγούδ@@ 1
1812 0.7433258015933649
όλου@@ 1
καταστά@@ 1
Film 0.11129013465596477
Mus@@ 0.1440830225660361
Mac@@ 0.13239014462620904
tri@@ 0.07072089967900891
Op@@ 0.20568928103363315
ff@@ 0.10827475161320875
Ανώ@@ 1
RO@@ 0.6102896080955502
ίδραση 1
ηρύ@@ 1
ory 0.11308802596854975
AM@@ 0.36875575083651324
Can@@ 0.1504725172171415
σοβ@@ 1
ay@@ 0.0691306746044854
Al 0.11808842690727515
σιαλ@@ 1
Har@@ 0.10113112437816905
Euro 0.45503428543771407
Tri@@ 0.1317550596791434
Your 0.6157963751848735
Tour 0.16354740329588766
1853 0.7179382102485161
Εταιρ@@ 1
Φίλι@@ 1
³ 0.9595310406835327
Fl@@ 0.09574186916163162
1793 0.9558367551977435
Ser@@ 0.10812585831611296
Blue 0.304161500754007
δοβ@@ 1
Os@@ 0.21585228632584177
ach@@ 0.05162126400204244
Οκτώβ@@ 1
πουργ@@ 1
τρά@@ 1
1849 0.6622362539838051
tu@@ 0.07982261019743216
ταιν@@ 1
1837 0.7941079927514256
ical 0.05670142750978854
σταμά@@ 1
τωπ@@ 1
NASA 0.9656730060426141
Park 0.09335270088843428
ister 0.2368566912309548
ps 0.09375306614230197
Day 0.23036227150909908
Ste@@ 0.13311628976563883
Thomas 0.1082310011864483
mar@@ 0.03998298292855637
γράμματος 1
Sc@@ 0.17936721756822957
MP@@ 0.507606308125236
κύττα@@ 1
Sonic 1
μετακόμ@@ 1
IM@@ 0.48565981808749553
ari 0.16282052278541417
105 0.8494079121322998
COVID 0.4113035121730649
Ho@@ 0.14000467730731103
ιωμάτων 1
1806 0.8762659864516432
κατερ@@ 1
33@@ 0.875607591652684
Football 0.16616666289942184
ερνη@@ 1
λογαρι@@ 1
Fr@@ 0.1163982961375568
Warner 0.6825643073487065
1.500 1
1831 0.8526504301985517
ill@@ 0.06161542970404038
όμεν@@ 1
per 0.06011121719765573
pp@@ 0.17672679895761353
Bor@@ 0.13048333509508805
1857 0.606471931346072
7.000 1
Martin 0.1468852434275046
Bi@@ 0.09842199305482896
Scre@@ 0.9299808266953179
1792 1
14,@@ 0.8548009418444155
ensis 0.22339367934019067
Les 0.03234739944268053
Ναπο@@ 1
ηλεκτ@@ 1
λαδή 1
οίτησε 1
ys@@ 0.14075388111268106
άστια 1
είωσε 1
oles 0.4538608305068577
αεροσκ@@ 1
σειρ@@ 1
1789 1
170 0.9163363675197554
com@@ 0.04688658479015105
No@@ 0.20606745654298006
Louis 0.12048362138052743
ek 0.12989406466002057
ain 0.08638168022782787
οκρα@@ 1
AS 0.3837963594349371
ῦ@@ 1
Richard 0.13949195569255504
Val@@ 0.12345910878925928
ada 0.025720623014824286
ion 0.0941842386732929
ist@@ 0.07310694653344905
tes 0.043619334321558026
προσέγ@@ 1
1847 0.7024611802000534
παρελθ@@ 1
Mat@@ 0.13663789683895336
My@@ 0.28188450280947913
London 0.07840334179300448
ριστο@@ 1
our 0.07522409138306092
aj@@ 0.09737575151340151
elle 0.024011915664812353
αιτέρ@@ 1
une 0.008535408023627806
US@@ 0.2297577241386515
υζ@@ 1
Peter 0.11786264722467212
St 0.15556120559603553
We@@ 0.10444879618809594
im 0.007898258168814253
~ 0.928139370400054
1855 0.6137379707070258
ab 0.050717596170995374
ou 0.027440374064293487
ters 0.06919646239451327
tor 0.08014871642145596
General 0.0821427348816517
MA 0.3872558769371057
ari@@ 0.08647787741814737
Super@@ 0.2215670128546836
Show 0.2961608472648834
elli 0.2849304168789445
1600 1
Φιν@@ 1
ack 0.13812405275272185
Im@@ 0.13986905900829844
Lord 0.22870351678923528
Sab@@ 0.24282847928368909
15.000 1
ra@@ 0.07849699382594112
from 0.005686128285457307
13.@@ 0.7310320082001579
ach 0.07720954823886965
κοπος 1
ep@@ 0.07321474005970771
ics 0.07024261077416073
1852 0.6425192978476475
Mega 1
kg 0.3796501713611297
Gal@@ 0.13567733357141532
dy 0.17084022841405155
Ger@@ 0.09485807441323962
βιβλ@@ 1
ψήφισμα 1
EP 0.30025796394572013
στίβ@@ 1
Sil@@ 0.2376304968384124
220 1
Καλιφόρ@@ 1
ant@@ 0.06174059962332432
μελι@@ 1
A.@@ 0.354911855193852
PlayStation 0.8052005190996097
Ti@@ 0.16113453024288948
σύνδεσμ@@ 1
ME@@ 0.608333608836877
mg 1
Dr@@ 0.13674574780223137
te@@ 0.0432619990467395
ola 0.17305351526852208
su@@ 0.04352774917516859
200.000 1
1204 1
detail@@ 0.7030605934466078
Εξωτερ@@ 1
ημέ@@ 1
FA 0.3213749540737745
ἔ@@ 1
ello 0.1758847114397689
500.000 1
Of 0.3143765038169054
Ακαδημ@@ 1
όλα@@ 1
ow@@ 0.08457730468691943
Ω 1
201@@ 0.8944685816895055
Sony 0.7309264084486136
rock 0.13886983387964205
βασιλι@@ 1
Art 0.10573098445983421
νήθηκε 1
τυπω@@ 1
Rom@@ 0.13858237901808473
ala 0.10292405413289737
ek@@ 0.06739882838602937
Don 0.23327204870206844
tic 0.0721944237641222
pe@@ 0.06114229188294647
360 0.8094815084744834
YouTube 0.5572408797995765
ro 0.1606770378878609
ότατα 1
34@@ 0.821038038062812
ath@@ 0.08466979365773228
lu@@ 0.08396759853132185
γράφου 1
Mal@@ 0.08578918626712818
ais 0.1410490116824909
ier 0.10775136649158554
1797 1
127 1
1700 1
Sur@@ 0.1599499449160503
ep 0.2543795435156704
ye 0.10449345756830779
ανέπτυ@@ 1
1842 0.7085568969085524
center 0.147290354471465
ib@@ 0.11106993521369717
Pictures 0.7283090308773222
eh@@ 0.06053581524323285
tion 0.03681540210845896
ken 0.05884723782344539
40.000 1
Cam@@ 0.1717098089142021
Des@@ 0.13310777875734414
36@@ 0.822078016160415
US 0.053576373269413696
ł@@ 0.221420722353903
mi 0.22105615965864223
λευθερ@@ 1
Lu@@ 0.12177207206100925
λληλ@@ 1
ef@@ 0.10949459078756713
up 0.02532380307644939
LE@@ 0.6877571863722639
άντια 1
Wor@@ 0.1395388382597654
Hor@@ 0.15577053749779765
ov 0.11280409507205223
διεύθυν@@ 1
EB@@ 1
car@@ 0.04376401053140478
ανάπτυ@@ 1
ta@@ 0.10934799182676955
Center 0.13027261433909024
Fame 0.4882286786426722
High 0.09992865898336492
περτ 1
εκτε@@ 1
ave 0.19023518638493328
1813 0.7833065006939551
berg 0.07640335272911064
1846 0.6352169139362406
Die 0.010819047091067116
Street 0.097663400960436
Αίγ@@ 1
δρυ@@ 1
102 0.8835560946961369
Sim@@ 0.14891543250301642
Nor@@ 0.08944771550850435
Tor@@ 0.11418005102774807
ting 0.03877482862891747
τοκρατ@@ 1
ato 0.11090040849325239
mi@@ 0.07124848055014231
Mir@@ 0.21368091847536702
ets 0.051095072338045
ors 0.03729799803203678
γαν@@ 1
Rolling 0.8284244828069912
gen@@ 0.045240317021935955
ger 0.0901196705459148
ko 0.14535334605436148
str@@ 0.04771747586377239
38@@ 0.8040861191786206
Lee 0.19400504361290236
bu@@ 0.0839043167700229
ran@@ 0.06599522476888695
1839 0.6975254394849202
45@@ 0.8171019592823094
Gar@@ 0.12352155182081931
Joseph 0.11955089776706988
MS 0.36424877032019504
Απρί@@ 1
1809 0.9051108898799487
enti@@ 0.06797080811202723
στιτού@@ 1
μμυ@@ 1
hi@@ 0.07329825202796145
art 0.06222945274480975
hp 1
ere 0.059662474962544315
A. 0.12556920471238237
μάται 1
BA 0.39150761286371283
70@@ 0.8053830815866835
ations 0.021306947191221292
υλ 1
ora 0.10248196437140047
έρον 1
1810 0.7567590227918317
Fo@@ 0.20273338306076977
Mercedes 0.8294210876026001
ST@@ 0.41859702339247407
Society 0.12982591073661512
Corporation 0.2695478424653597
Stone 0.40255964157310786
able 0.02621845816077614
Du@@ 0.13725012801782865
France 0.042441492842179664
width 0.7161902003415002
Mas@@ 0.11829075492804826
Wal@@ 0.1233272790797759
109 0.9722320768475778
Final 0.2990269303788408
sen 0.08136894210194888
εγκατέ@@ 1
Ben@@ 0.14663334566885108
la@@ 0.09528107335481216
22.@@ 1
Fox 0.33506381568047516
FM 0.28332884775161227
Europe 0.08651171047616742
Αίγυπ@@ 1
S.@@ 0.3879442873893874
Alpha 1
Cl 1
σχετί@@ 1
ήνα 1
CE@@ 0.39545859337576833
Festival 0.12360277689365842
der@@ 0.047593613537679255
126 1
MTV 0.648144827223303
CIA 1
Media 0.25306744756685523
1790 0.8332538918877077
1818 0.7891579279053555
Ιανου@@ 1
DE@@ 0.42556604019856065
ah@@ 0.06462875887137585
bl@@ 0.0481637997493814
AD@@ 0.3656961364707754
ass@@ 0.041199005640157625
News 0.26794774423391554
Res@@ 0.12495083829141088
ster 0.09007748223177285
CD@@ 0.294191200646137
field 0.05712489861440638
ασκαλ@@ 1
Out 0.43577003714555124
1838 0.6556860197313102
ten@@ 0.039718623033161024
tor@@ 0.05445965157286812
Ul@@ 0.1837968950033524
15,@@ 0.8366947731588702
CF 0.7104460469907157
ated 0.01620772370608418
cor@@ 0.05828252327218897
ft 0.08255891049146467
MI@@ 0.5802407612079208
1200 0.8373847927356904
ene 0.06345016411444854
ni 0.0948776530859763
Ε.Π.@@ 1
τέσσ@@ 1
Arts 0.1497206133599747
Queen 0.21396068945432034
στιαν@@ 1
Box 0.7896787488581252
kin 0.22208616183233576
est@@ 0.04249452777889727
Paris 0.057930981285557875
είμενο 1
1807 0.874955088017384
21.@@ 0.982954454338202
Pal@@ 0.11462820744656327
album 0.03169576329742152
CH 1
Gen@@ 0.11306233688217315
White 0.14208003946923267
AP@@ 0.3244168321794382
Who 0.5590146610714659
We 0.2393346263620973
PS@@ 0.4183283493135705
μαίν@@ 1
1803 0.7709650480665728
IP 0.5403795499670911
Renault 0.9686252371149717
συζύγ@@ 1
Wil@@ 0.12339079248942153
ain@@ 0.09097009569224536
ληρω@@ 1
System 0.22311552515892447
back 0.04863109233709358
1808 0.8026763183537589
United 0.027298319801089828
1804 0.9058180770475098
θάλασ@@ 1
alis 0.3100948148196972
me@@ 0.051680675715452117
orum 0.5679345478615809
si 0.06753702685383932
IP@@ 0.6647897836960355
iz@@ 0.05167961709651198
ura 0.10670932005967793
14.@@ 0.65982337039255
2,3 1
Sk@@ 0.2274470707423855
ουμένως 1
107 0.956118769239526
39@@ 0.8237924459648156
Journal 0.28804744448225383
ha 0.04568139013793703
υμπ@@ 1
ser@@ 0.05307900726522532
πρίγκιπ@@ 1
All@@ 0.2097683287005472
Be 0.6030898968723639
Nintendo 0.6823660318283291
oni 0.22029066008798037
ates 0.03725450093951094
Ru@@ 0.1251015399330024
for@@ 0.036729854388897955
mer@@ 0.04734312421828448
É@@ 0.08418961162794499
νημ@@ 1
1798 0.8907773109064165
Ετα@@ 1
bat@@ 0.09277041656935137
106 0.9053536481946738
240 1
CN@@ 0.536930188911834
mon@@ 0.03894633160073339
1795 0.8801173898094746
Ni@@ 0.13248341475515435
1770 1
100@@ 0.8174998173569411
Fiat 1
colspan 0.42816099225840065
κοντα 1
37@@ 0.7382252918635993
Bank 0.18348834260189711
Little 0.24589359565739674
βάλ 1
εμπειρ@@ 1
Vi@@ 0.12049346618875258
ski 0.1562065139556145
col@@ 0.03991359751949326
low 0.08098738454588593
ast 0.1186045917345147
Mario 0.47839266400639263
che 0.05365286437257465
kh@@ 0.08690224701480084
25.000 1
HMS 0.5924917764025893
Bas@@ 0.10389568221755584
European 0.08620053449580832
TA 0.39850778084960914
1819 0.8254971570034052
3000 0.5432403916790478
Sw@@ 0.17441956449091564
ois 0.2578095572927505
tro 0.27508185955333175
\ 0.5454036117999131
live 0.11378593378901271
ona 0.09953295235665253
Καλλικρά@@ 1
Death 0.3186008869806022
ISO 0.9746709727557334
Luc@@ 0.21293428411891768
PC 0.3110453194725765
Por@@ 0.12678616336618292
ds 0.0908962029166939
επιστη@@ 1
ille 0.09577551346191768
Gill@@ 1
ang@@ 0.039371289233964046
ba@@ 0.07697038588048186
γκοσ@@ 1
Free 0.3912572521877495
ανάπ@@ 1
δεκαε@@ 1
1794 0.8560782635070294
ρότη@@ 1
εγκαταλ@@ 1
AA 0.3052936963825612
Dar@@ 0.1287389242875353
LC 0.5659664624895978
λοιπ@@ 1
Glo@@ 0.9836176751619349
time 0.016679108984769417
Εκκλη@@ 1
ριστιαν@@ 1
Pre@@ 0.1101083897874374
ex@@ 0.023199980730635193
go 0.09306491606886783
ama 0.08852529818749699
Del@@ 0.1566692402310706
Hill 0.15565996119496736
ge@@ 0.02688993575364069
104 0.8050239340312593
1805 0.8424655602365452
Open 0.1688469982836172
Cy@@ 0.19973144092501297
he@@ 0.049708326090100695
ii 0.496947188325358
las 0.010036321571380246
ai@@ 0.12060040417836088
κτί@@ 1
ole 0.11774671094500486
č@@ 0.18562295083233954
αστεροειδ@@ 1
κοσμίου 1
115 0.8601724610963212
16,@@ 0.791801669474875
750 0.7767369497360074
CA 0.3277579004790362
ry 0.09017577723340224
πίνα@@ 1
Trans@@ 0.11243675169223542
ico 0.07914096631147748
Kil@@ 0.28903057263932813
Rec@@ 0.1111512536565507
West 0.05736553977436063
of@@ 0.10897912771641112
Αθή@@ 1
Πει@@ 1
108 0.8275591605059808
ó@@ 0.0700848669398938
Fi@@ 0.1678772840990976
Green 0.18342049729229065
bar@@ 0.049966520853910255
yn 0.20296576188445922
Pierre 0.13353076972862354
Pl@@ 0.08273058375207068
charts 0.5316147224432094
ë@@ 0.4619684467471798
135 0.8115210837744498
Home 0.26707830877998257
eo 0.11106586279324697
Mi@@ 0.13892320480523776
Up 0.39428337840366523
απώλει@@ 1
103 0.8210818086188811
ati 0.21868966758762462
ess@@ 0.04848956174351445
PS 0.29146508761469725
πτωση 1
Ko@@ 0.11947868965300065
War@@ 0.1267456444074201
1817 0.7616705764874718
sk@@ 0.07231195461272125
Bu@@ 0.14806262884536756
Cur@@ 0.12809863919804143
atus 0.20268742431640518
Friedrich 0.15974016401806143
ky 0.15164727900786842
tur@@ 0.04725336398762753
16.@@ 0.7119533201798307
υφή 1
ατρών 1
Jo@@ 0.15863518320391454
SM 0.6249470544559252
ill 0.12609002818681017
άτω 1
ante 0.036426173582892525
ru@@ 0.04963463022983449
μελλ@@ 1
ρωπα@@ 1
Boeing 0.7382965867175555
Marie 0.14882137051437144
und@@ 0.059097284391567875
1453 1
America 0.09176031754292356
Mark 0.15462167758525047
γράμ@@ 1
Jones 0.1836939121273407
O2 1
Airlines 0.600008473601466
ble 0.09802652657692323
Wrestling 0.45137259223313814
line 0.041416220236163905
soundtrack 0.6750682765358136
Char@@ 0.09423334347067246
1816 0.6929318951494253
ord@@ 0.07564825301721809
SP@@ 0.3138733603119651
pel@@ 0.10255784760774095
tica 0.16852799933614057
Ένω@@ 1
Je@@ 0.19370671212526605
At@@ 0.11093391797017611
όπος 1
1801 0.7160539475507729
ber 0.08277469120706495
fer@@ 0.04896028513586515
20.@@ 0.7820106755509323
Mad@@ 0.13645756454424385
ash@@ 0.08444289192397632
ō 0.1656000208713868
Αχα@@ 1
left 0.05591602696519088
ten 0.013327170716027842
Ap@@ 0.11349197597203171
Gl@@ 0.14993401601041254
IC 0.3939220976666852
απέκ@@ 1
1791 0.8931771355131531
Š@@ 0.38814089388535356
AF 0.40391184842907263
Men 0.2226436119678967
du@@ 0.05778897300482548
συμμετο@@ 1
if@@ 0.05958884339805746
ok 0.1387798483857724
uc@@ 0.08357234147947683
ung 0.016281801528038188
65@@ 0.9435285579632634
ish@@ 0.08281126051172696
ἄ@@ 1
συμβόλ@@ 1
1,4 1
Euro@@ 1
ima 0.14153518828777753
ενέργ@@ 1
1799 0.8804778747318467
AT 0.41890069589744605
Far@@ 0.12866656705258742
Press 0.297753153395833
ars 0.0701449230400522
ero 0.07992916716848751
17,@@ 0.715963868729075
ard@@ 0.08503614327019073
Φεβρου@@ 1
ang 0.06015025669673213
ines 0.05419361727374926
yr@@ 0.1070158185192844
90@@ 0.7885944021219476
od 0.15251538542736842
Σεπ@@ 1
bert 0.16404053205220545
cu@@ 0.04528415196479837
0,5 0.9892820953532542
text 0.20051003779531
і@@ 0.9861858647770064
Dark 0.5570612327773876
Medi@@ 0.223533028148216
Nov@@ 0.18548170358102786
Sa@@ 0.10867064220763552
ler@@ 0.07022976137336052
Pri@@ 0.16420376568212997
ian 0.06058505872778821
ith 0.12701177838266878
Κρή@@ 1
Sho@@ 0.2207140230775671
ick@@ 0.07142641087895128
ong 0.05822836155644941
πειτα 1
1630 1
ερμπ@@ 1
Video 0.38719449747415485
lin@@ 0.07168720934572502
Benz 1
Bro@@ 0.11671799457607013
Hu@@ 0.11495925870783591
Ju@@ 0.1551441427483926
190 0.9617765510001735
Hy@@ 0.1577647061703036
Linux 0.7167357828344373
480 1
Sun 0.25232919722415664
ish 0.07523129470034214
καγι@@ 1
ὁ 1
Tre@@ 0.1101670218192571
ABC 0.38340491583934977
Co 0.26015497110341473
PC@@ 0.3508080780107223
British 0.04457457812825818
Region 0.14168912071550982
1715 1
ez@@ 0.09441953035493791
CN 1
ace 0.0836651301979993
inger 0.10478393096695096
vo 0.1670394368548495
TE@@ 0.38565842818117796
IS 0.4265371673552053
ect 0.07446752438976124
Netflix 0.9595026548843144
ez 0.10675274085443812
Santa 0.10694644777775937
ling 0.06495679193431983
Γε@@ 1
ρεψε 1
όπουλ@@ 1
Can 0.5827634674016439
Mary 0.12087317541253938
128 0.7859460656425239
1583 1
man@@ 0.034888743797151345
AN 0.3827568019570962
ούσια 1
iss@@ 0.10884189622607268
1,1 1
pH 1
7,5 1
46@@ 0.8251411847035425
48@@ 0.8322927729997296
CI@@ 0.3588588377730217
Institute 0.10303779957598147
ales 0.0255921188611738
15.@@ 0.6278274921236807
CO 0.5302160204055679
Karl 0.1459206023768453
king 0.05606271156133944
17.@@ 0.6677865196573295
ys 0.08887488018990555
Columbia 0.18881095421893723
ik 0.09872776876873364
je 0.11323021522541427
pe 0.07775877631270203
ska 0.4065138377631918
Dr 0.7400152065605016
Em@@ 0.11562674665198354
ville 0.03496217149431238
Arena 0.4168633248362865
Ig@@ 0.2948422407731742
Los 0.03332020170777898
Sun@@ 0.22554054866400727
διοίκ@@ 1
AD 0.3189164289760507
Story 0.5133624872363038
die 0.00236312247523304
ji 0.16072570687191842
mer 0.06176542013030184
ut 0.09386640625602163
περισσ@@ 1
Boy 0.4133372263881627
tification 0.5932147473626819
βιε@@ 1
550 1
Max 0.20521290649939258
Rem@@ 0.2033695687529818
Studio 0.3740766929509363
chi 0.13028692149191978
so 0.022644586400273503
way 0.0365455956558084
Pro 0.26252740409248404
illa 0.10315601233313947
ori@@ 0.07231572714387045
po 0.18291252190128054
For 0.05690863284508447
Master 0.25258042994658797
ve@@ 0.08798691663418816
Κατηγορ@@ 1
ικρά@@ 1
GB 0.4032485920977495
dia 0.13970395396615767
ier@@ 0.06049886814812448
Ban@@ 0.1424647501701021
RS 0.4136956382166754
ug@@ 0.09231865164772415
ίστοιχ@@ 1
SU@@ 1
ie@@ 0.09434651935955525
Ang@@ 0.07885360988459006
DJ 0.42047743938223586
πρου 1
320 0.9596244871347529
Il 0.014325190095224108
Toyota 0.963736052274366
cl@@ 0.04897515573528809
ey@@ 0.12579738356798373
τώματα 1
υπόλ@@ 1
23.@@ 0.7610913126773556
ιστον 1
μμυρίων 1
οιβ@@ 1
Hz 0.8517848346809097
RT@@ 0.41615415386981
Space 0.3312842887063135
This 0.020365701373850683
Ur@@ 0.08502649460927007
vo@@ 0.09770957807381488
Champions 0.3636872449051165
VI@@ 0.3993535095923942
over 0.018597454632354557
Henry 0.09324867055208176
Is@@ 0.09714195204365696
anus 0.3350539335390072
tis 0.15784297308026649
Εκτ@@ 1
PE@@ 0.49913254821427505
κοπο 1
3D 0.439587719857231
BS 0.35640971566235324
πείρου 1
bourne 1
chi@@ 0.11363440103689805
Cat@@ 0.1607540007681367
wa 0.0863279491057613
zi@@ 0.09550982017376031
Dem@@ 0.14621860027693714
Γεώργ@@ 1
εδρο 1
EC@@ 0.6359214251477326
H2@@ 1
19.@@ 0.7288434204202185
43@@ 0.9539647493122961
Sir 0.14273809629029927
ents 0.03021258537201128
AG 0.24583607590841808
Project 0.29805469007438284
tin 0.08963053022060634
set 0.04537883149108138
ξικ@@ 1
18.@@ 0.6819814030868067
Ke@@ 0.1412125228758784
Universal 0.44138473246860155
ρίβ@@ 1
Bir@@ 0.15932460774013626
HIV 0.9554261614050956
άνθρω@@ 1
burg 0.08989557487001107
α. 1
War 0.0411252879604254
nik 0.3025580910269255
ze@@ 0.091573225178289
Mur@@ 0.13565479725540236
έου 1
εντιν@@ 1
AI@@ 0.3404680707720958
iv@@ 0.08782269025695386
sur 0.011052490541610036
What 0.33197133194521755
stein 0.10486364646998887
Play@@ 0.18077533399774381
Star@@ 0.16099172433736222
Bad 0.2524387361510508
Ir@@ 0.10997845597765854
itz 0.11074477887101662
row 0.09904740783889561
γκοσλαβ@@ 1
οιχ@@ 1
πρόκει@@ 1
5,5 1
Ed@@ 0.14192612436813412
SS@@ 0.4165299064287047
TS 0.5264913224897115
up@@ 0.05245405660190795
Facebook 0.5831587077094564
Last 0.44610764030267636
ment 0.0328981511210652
Ly@@ 0.16303650019597077
87@@ 1
Down 0.5087573892388514
Jan 0.294968590314319
ff 0.11639299194553869
gu@@ 0.041951482141932527
ō@@ 0.21999018897251202
πτέρ@@ 1
AIDS 1
Sar@@ 0.10548772611044413
ee 0.08634727484671435
lin 0.1375044023858518
ée 0.01356690304540918
ψ 1
Band 0.1176543149783868
IF@@ 0.6310519949738387
MVP 1
Lar@@ 0.1693324039861157
amb@@ 0.08942915672887658
έφερ@@ 1
CC@@ 0.32446114079993976
Go 0.37803123257805415
das 0.0072222904998207466
singles 0.21992170295096006
Android 0.8276083197694188
LP 0.37730817619652934
ado 0.011682264506406723
eng@@ 0.04937807578202051
video 0.07811886969070114
112 0.751030376851484
ius 0.2196801166702008
ome 0.1112229840293358
Ali@@ 0.2537959802768412
Hell 0.9003626064579592
330 1
280 1
Natur@@ 0.19764316433385948
ange 0.15269129476085955
eme 0.12125794755403838
εγον@@ 1
ich 0.08116243151697074
ock 0.11311267405354462
we 0.07429231862694836
1802 0.657082578091813
650 0.9814117993294386
Dir@@ 0.4098515337764691
Kon@@ 0.08058501465646443
well 0.022004235839748483
Dead 0.5059174126828414
UTC 0.7478239380626607
ὑ@@ 1
47@@ 0.7277287913096895
Edward 0.1387762282046886
ame 0.11724698455638399
iller 0.1712608102780669
Dance 0.38413503043902436
Smith 0.10544852635598921
aceae 0.14472339131837128
its 0.008030011183441717
ιούργ@@ 1
φθιν@@ 1
1811 0.6500691099479556
DP 0.353470344973517
Island 0.08969383797448585
Leg@@ 0.11383827891686099
ML@@ 0.3377825286058474
PO@@ 0.550640736576934
Tom@@ 0.1677904205650762
ology 0.052961672943776954
wood 0.0906608217638544
BAFTA 1
Άντζελ@@ 1
ative 0.0402685844515966
yn@@ 0.09747647197390052
£ 0.1818444878446621
Road 0.08819634375589924
cr@@ 0.03837349710310317
ito 0.10102363856521576
ny 0.18941099164233804
Χαρακτη@@ 1
117 0.865748166373257
Na 0.7909375225241126
eth 0.16299814124554582
75@@ 0.8155397488049024
C.@@ 0.3627328712848813
Dec@@ 0.12579370721573427
Οκτωβ@@ 1
Hil@@ 0.16758250757502788
Vo@@ 0.18856316407867496
all@@ 0.04481967159936981
ίσι 1
Cel@@ 0.22339361625167342
Sam@@ 0.11785432053369752
2,4 1
Ak@@ 0.09347604085178134
ei 0.10761622979652775
ele 0.11638309462148862
αιν 1
260 0.9926107294258524
ali@@ 0.0640320625824447
iOS 1
Ιρ@@ 1
Mil@@ 0.10828443530629508
NE@@ 0.3413282995431503
είω@@ 1
τραγουδί@@ 1
Cap@@ 0.18017716551754667
ese 0.04168112091163163
ili@@ 0.0667759193607101
ney 0.10121242556278515
1780 0.7996714281653788
44@@ 0.7852874700787486
Great 0.10913281612743943
Wat@@ 0.20737281936456858
ex 0.12914254679623213
AR 0.39101886783951334
Grammy 0.561713882545208
1788 0.8795529331385576
5000 0.5199734981483745
GT 0.6100509235127458
ies 0.040057698483506106
2,2 1
San@@ 0.10958075559799128
έφτα@@ 1
│ 0.20302722369507054
Mac 0.5186590306166277
PA 0.2478656512961053
ast@@ 0.06497883173193478
DE 0.495459131526603
σσαλ@@ 1
1796 0.7307588827748778
HD 0.4213476743077647
Tel@@ 0.1649068361917119
Fal@@ 0.16268529074613616
side 0.03935683441091463
ym@@ 0.10439268348214055
Wh@@ 0.20324462602254895
1,6 1
19,@@ 0.7961480165642362
AM 0.2576709147343233
Heart 0.4007863248555298
Μόσ@@ 1
230 0.8471166807227531
SI 0.7249042759870797
Wilhelm 0.16046407200681492
su 0.008340531522615007
val@@ 0.08587554854154512
194@@ 0.4288493895283438
Chevrolet 1
πειρω@@ 1
1783 0.84863931962006
123 0.8395610719682818
IT@@ 0.3611324386132453
Way 0.4034368306546522
RC 0.31756345222328913
ba 0.09982744710011544
uk@@ 0.08628486925298234
eta 0.09866687417798295
ium 0.14973394751052915
yp@@ 0.12776946445195056
αιτέρω 1
Office 0.18164636189390776
ven@@ 0.05198093194400557
1100 1
210 0.844166282841006
MO@@ 0.4605051767563197
Pas@@ 0.09641530225592744
Union 0.05670882534754512
ny@@ 0.22826308957454755
sc@@ 0.0635114718161807
show 0.04947641884735652
VI 0.2290104607624037
ats@@ 0.26368961107750216
Arch@@ 0.11407698629113269
Van 0.16942322576052304
aff@@ 0.07261300535351693
Chi@@ 0.10577878057596551
Dream 0.5656656643169552
Ferrari 0.664735708453295
ηξε 1
τραυ@@ 1
Bros 1
CO2 1
RA 0.33144305674365143
Volkswagen 1
Οκτ@@ 1
Internet 0.21568893105896705
Power 0.24646464359568007
etta 0.26518130302305826
Haw@@ 0.18744827868678438
Kn@@ 0.1500271602638651
Science 0.13791153580570614
Song 0.18632130177460138
Pic@@ 0.2020095442523263
fr@@ 0.035594073722278616
1300 0.9242730516186021
NA 0.4180037452644247
Off@@ 0.13829193993864033
ts@@ 0.04491041155221411
στριας 1
1787 0.8504072714252873
Fire 0.33792634177764574
La@@ 0.15750254015952297
ap 0.09755836841230363
ela 0.1073951013276407
pa 0.1260856593066767
ῷ 1
122 0.7883891519400202
CS@@ 0.24875298446511532
Johann 0.13537618256767173
Post 0.1770407662908011
reg@@ 0.04368146020568356
ze 0.07318610854154844
Τζάκ@@ 1
1400 1
Bol@@ 0.12143073733693002
Bri@@ 0.14351540496517406
Fac@@ 0.18517831985581323
Off 0.744693978283906
Sav@@ 0.16332159515654313
1772 1
Meg@@ 0.3012744720367219
RAF 0.50197143018745
ke@@ 0.06623993952720277
Walt 0.7637320425844277
house 0.050207899747672605
Blues 0.4301456126655956
fl@@ 0.04626205303683909
zi 0.22120929485670696
CP 0.4905402609224528
Four 0.25215195400544665
Audi 1
Girl 0.3765996408010977
δοση 1
ὺ@@ 1
Alexander 0.12102589716111911
aux 0.01426289971675853
sti@@ 0.06758207835915349
ua 0.12918125079925946
ung@@ 0.04409332461895453
Research 0.13161589055138018
mod@@ 0.11667947256833916
we@@ 0.04205024599753184
Οικογέν@@ 1
State 0.03597032483469376
ali 0.11397996557411783
ath 0.09099761014064293
ici@@ 0.08045854034376808
6,5 1
Ter@@ 0.12782875539841
18,@@ 0.6844247165992646
Championship 0.07655522645271895
Giovanni 0.3891504080976272
Woman 0.5111788688246538
her@@ 0.03073744895933983
ly@@ 0.11583613173026139
min@@ 0.03662432539439064
σκολ@@ 1
111 0.6692944982497415
121 0.8128391004299439
2.0@@ 1
306 1
Cro@@ 0.12631868244799513
Ven@@ 0.16646093714488627
ὰ@@ 1
Win@@ 0.13594132346092294
παραιτ@@ 1
1774 0.9597999101069906
Cos@@ 0.22942538040714588
Ga@@ 0.24442235856758826
Theatre 0.16498700573949857
ans@@ 0.07484091335408757
iPhone 1
less 0.0555377968306182
201 1
Brown 0.13465593159689002
Class 0.3051100425050683
Sports 0.18672679503880182
1648 1
Dre@@ 0.12705924510921446
Sand@@ 0.11753994955492485
Si 0.1800337184971054
TV@@ 0.33657573437961386
peri@@ 0.16228100311859203
1,8 1
1.5@@ 1
1785 0.8739961023752605
Christian 0.08209607915649958
Foundation 0.1682171997139731
fo@@ 0.08617362616042076
osa 0.08462370064351227
ida 0.046130980502080775
270 0.9503423959379717
Lady 0.20573089501502848
Albert 0.150468323808982
Pres@@ 0.0899761478882038
ains 0.05898637756421092
ail@@ 0.10408327547276847
ng@@ 0.09811635436621474
000@@ 1
Ba@@ 0.1470006167754155
Century 0.4926998934770175
Sky@@ 0.5606847383178617
bo 0.21289852126837436
e.@@ 0.5658376198513234
Aer@@ 0.31997071094854207
Inc 0.8473204116670142
Network 0.23031433826086203
Blood 0.6451979450919463
nes 0.09108642280072518
ori 0.1867125395590634
oth@@ 0.08992240836114464
3,4 1
BC 0.14096823646164927
aria 0.07745337130400497
ich@@ 0.0657489465821378
res@@ 0.02664655081968319
tro@@ 0.0629314167083284
32@@ 1
E.@@ 0.3695848074569404
Tar@@ 0.1158371885320969
διαπραγ@@ 1
ὴ 1
76@@ 1
GM 0.4780002146260762
Wi@@ 0.1886317986680888
oh@@ 0.09704304902898367
Basketball 0.3425374057373873
Daily 0.382576898604912
art@@ 0.09809544052551088
des@@ 0.02241337920070041
ə@@ 0.9136007091561785
Greece 0.3554976758753022
net 0.11317924250680178
North 0.03753421508046888
850 1
Gre@@ 0.11525963402657653
Mak@@ 0.17062743645601092
anti@@ 0.055662718723107164
ul 0.1488253750658789
′ 0.911566459340207
heavy 0.18270250668156796
ula 0.19958958264649213
Greek 0.1460348395040035
Mu@@ 0.10699501477937222
lo 0.021060738772738247
ture 0.06017325034786326
114 0.7591076532923775
Cad@@ 0.30631677699127574
Model 0.4149071213557141
αίωνα 1
P. 0.16319764756825103
action 0.052456253158972885
ass 0.10493975944255754
aus@@ 0.01992226507529991
head 0.054648412003009836
ī@@ 0.33615155323438295
1660 1
anger 0.19048962492934968
ci 0.07450572632463592
thr@@ 0.13476594117767757
J.@@ 0.4127180187620041
Lin@@ 0.12348726459584601
Thr@@ 0.27838335932060276
can@@ 0.059035153127211235
inc@@ 0.04558541955763738
ism 0.04041404922146779
τζελ@@ 1
ὲ@@ 1
116 0.7987920127483417
Division 0.05489406809773048
Han@@ 0.10717608743962957
aro 0.20741409696014892
ira 0.10785989254495186
mor@@ 0.05839962688361899
Nar@@ 0.18195536448067054
Dor@@ 0.11512278537341815
kat@@ 0.15334638984934962
ū@@ 0.23517720810695333
ὅ@@ 1
Ca@@ 0.22276644753438685
Taylor 0.18858873682259839
1577 1
Scott 0.15072778364598782
ax 0.23951297044680073
della 0.6177833450782821
καλλι@@ 1
Dom@@ 0.13992209682605955
ide 0.09157325813740833
int@@ 0.06332825875788754
ör@@ 0.07870626331406608
βομβαρ@@ 1
Pir@@ 0.21955331347869067
ats 0.040201590262074365
lan@@ 0.058266160477517086
Dig@@ 0.4093564711982363
Motors 0.8129176345999412
Ram@@ 0.11783041624972788
20,@@ 0.6931303414768356
55@@ 0.6873373096946896
CBS 0.3615104808761204
μυθιστόρ@@ 1
р@@ 0.05054703933506635
Jac@@ 0.17040225948851098
atr@@ 0.07197649044586336
type 0.07031601905321722
1650 1
Bon@@ 0.17047253600130002
FBI 0.6559759125695424
Mol@@ 0.10153560137668644
Tro@@ 0.09567832718394487
49@@ 0.5212625216453186
Fran@@ 0.15599356466043757
ind@@ 0.06280315294153943
ευθείας 1
224 1
Est@@ 0.08045211673091449
ISBN 1
aur@@ 0.10661817015993573
op 0.13033695440112236
pro@@ 0.04286088441581865
129 0.8813441037303288
enn@@ 0.050214854179477436
idae 0.06488497629586525
κατεύθυν@@ 1
Peugeot 1
Roc@@ 0.18005734155756412
ider 0.12330403402521062
kW 0.6286949805419728
tu 0.21743328147854896
use 0.022413291942891395
Hollywood 0.2314064165262579
Pin@@ 0.17862086483988315
South 0.029022154720359558
VII 0.28082156686822063
iki 0.1422783960114291
Cu@@ 0.12111273328297481
Ha@@ 0.10454720357965479
ento 0.0944973369665476
lie 0.13190087015567672
Museum 0.07656191918472686
ern@@ 0.06325902291816521
ki@@ 0.0895657737883157
Gold@@ 0.16102204881192209
port 0.06554886479429617
1750 0.8612336366456144
370 1
Johnson 0.1382014560508832
μέγε@@ 1
Land@@ 0.05156862563924247
Like 0.22305384952598434
adi@@ 0.074049785388384
ila 0.13137387131750783
sa@@ 0.058191327642098674
1640 1
Pat@@ 0.11632770765339694
είμενα 1
ј@@ 1
GC 0.5648647041022533
ement 0.01809175301526501
key 0.0974487401421774
1689 1
Loc@@ 0.13565515002820475
eri 0.14568225171412233
isi@@ 0.06214416760934938
‎ 1
MS@@ 0.39050978609746334
Mont@@ 0.10659100608162918
Sel@@ 0.1194349980377546
chart 0.19112704804546324
hu@@ 0.0547503759980612
προσέγγι@@ 1
ћ 1
Fol@@ 0.14938435141539005
Gro@@ 0.15917260802995095
Όμ@@ 1
124 0.7451008988250741
Ever@@ 0.20699907687835117
SD 0.5933805437434188
Good 0.30354420463127324
Vir@@ 0.1851332521228307
hip 0.13343065468082965
sel@@ 0.059032431365388945
ρονόμ@@ 1
Shi@@ 0.14279780150421822
air 0.05974810962348627
model 0.10636284958208107
ո@@ 1
Gra@@ 0.21850012964084695
Hard 0.8040505082326055
Sport 0.24118808647504006
Year 0.13622552718338776
inus 0.3355032904055859
ova 0.16609604262052508
Blo@@ 0.21783999902760975
Book 0.20502771814834614
Team 0.08521897993284164
Wit@@ 0.1904927482951518
eli@@ 0.09983035841155737
lis 0.14016044793341279
όκειται 1
IX 0.3033022467963884
Wall 0.41394629155764406
ž@@ 0.25389545557501664
Fer@@ 0.12376661731996416
East 0.054435519974883474
inn@@ 0.05302028617091543
mag@@ 0.08417752983011098
École 0.2844457472005104
145 0.7975395634614231
3,3 1
DA 0.3088860339921204
Pap@@ 0.13044904757879808
Sub@@ 0.09312592936786475
Wol@@ 0.13563550036227248
igh@@ 0.08336007051461326
195@@ 1
25.@@ 0.6423287737250374
Academy 0.08254617857066207
Back 0.38206542137803257
GA 0.38571187741734764
New@@ 0.12408650070148688
Intel 0.8782682974989053
ray 0.34611131267324924
Fin@@ 0.07603734637923334
HS 0.4906608285007061
Mr 0.47307483341927764
ack@@ 0.06411671318253273
fer 0.06770571452270642
hi 0.13217582548028697
á 0.06512857917160277
1784 0.7210965019553627
Out@@ 0.19011312058504795
Williams 0.1312694262550589
ր@@ 1
Earth 0.17631902657680137
Men@@ 0.11043598413670845
ax@@ 0.10265085506266407
lia 0.20005960091130795
Ἐ@@ 1
Bell 0.2629994478380631
Hotel 0.2070546449259026
ington 0.0977277818549284
307 1
ign@@ 0.06206116163475824
sion 0.03686985304162214
son@@ 0.056616008031189304
ud@@ 0.0732375741386569
σεκατο@@ 1
223 1
Az@@ 0.1355001631934178
ong@@ 0.06288363125793192
web 0.20642838959862653
Air@@ 0.24719081987891747
I.@@ 0.4781019740681127
Stadium 0.17751964892780156
cus 0.23645949813134784
As 0.02558671092146021
Jack 0.13087639331740214
Light 0.2641358637891996
Βοσ@@ 1
Ann@@ 0.1693781034267769
ase 0.06096533303808442
ck 0.12344065390662738
music 0.03384629552937812
1688 1
An 0.05175107838880707
Roll 0.7691319753659638
az 0.12362181416607805
^ 1
0,1 1
TP 0.571096153973584
Washington 0.06170731750911512
ness 0.0575319708516965
oph@@ 0.07938328512002205
let 0.09740421720949832
MC 0.3293135593671371
Series 0.12028141610145388
Tes@@ 0.479115493733877
Twitter 0.5099710155385239
ga 0.09808020312730077
sil@@ 0.09304010213922717
uck 0.19670297786319324
175 0.7390537882552647
340 1
Do 0.2556921998782608
Nick@@ 0.49778466535290516
STS 1
my 0.12378403933750688
ä@@ 0.02589305533724606
Pon@@ 0.16893513163396934
Sega 1
iti@@ 0.056332403341111156
ody 0.1845032498123635
oy@@ 0.08569006958762847
è@@ 0.09341133616115896
παγκοσμ@@ 1
118 0.7624176395376638
1570 1
1776 0.7009940604113498
God 0.15954126453229603
Lor@@ 0.14741427627816814
Mari@@ 0.09547344758327503
8,5 1
Mid@@ 0.15376847095456386
he 0.0038120844647027675
AP 0.27067458389292964
Cin@@ 0.2205483368361748
IA 0.3967364319154656
NS@@ 0.28106236459105927
eus 0.27611061720593344
Don@@ 0.10239892642203284
dem@@ 0.05009204549435711
ms 0.06892906233923059
zo 0.14373808828485926
Ϊ 1
Chicago 0.0829607631459001
Spe@@ 0.10241725847890573
the@@ 0.05235958170360536
Frank 0.1199816561862818
Ra@@ 0.1252783172169297
core 0.1682941798187102
mol 0.9730897168354002
tive 0.04269627603051097
1450 1
Orchestra 0.2945515514719844
UK 0.07676559203409673
con 0.00561248977527823
pol@@ 0.056243723074739384
sen@@ 0.043506762324969056
you 0.08749782533243547
Χίτ@@ 1
113 0.6570993107602044
Ty@@ 0.14212311287066803
VA 0.3883391915860226
air@@ 0.056417025842328425
tus 0.22598450571408069
168 1
Daniel 0.11672525382074378
Ran@@ 0.1470912082588551
Raw 0.6910560596263995
ika 0.13604645987497815
oni@@ 0.08801132736714357
oo 0.19428315123973008
pre@@ 0.023154797509518543
ser 0.033468601666857015
Ol@@ 0.09629741302367557
Long 0.13921236504976975
Prix 0.1386840286762039
ike 0.12760245517242197
sub@@ 0.025113081421835878
68@@ 0.7260725226696597
Golden 0.18450767518429123
Met@@ 0.135319873175176
oth 0.1500725717794124
ted 0.014551853993176642
í@@ 0.03465685243097975
2.0 0.5469436208610141
CC 0.2507062743755513
Sum@@ 0.13434819073983542
lar@@ 0.058058771306688906
Get 0.6230780788694931
Saf@@ 0.24391806439033667
cal@@ 0.06428324394469721
ωνστ@@ 1
1550 1
380 0.9202795117335983
Angel 0.4359171685654042
ao 0.07630410587753554
cher 0.046402317074333836
1775 0.6724255123898474
AU 0.7352398720606509
cas@@ 0.04098482978115511
sal@@ 0.052210318523558154
ᾶ@@ 1
Are 0.5665029235914836
First 0.06752398624712154
Hans 0.12494903359830052
eman 0.13990243959894536
tors 0.06770259001490926
zo@@ 0.3091699122153821
24.@@ 0.5946880629975411
960 1
Games 0.1011525269790864
tar@@ 0.05090087537802932
Πολλ@@ 1
1620 1
Force 0.09435648962674134
§ 0.4954100337460443
58@@ 0.8087698676202704
Business 0.18956137947690957
Deutsche 0.19707981214808573
rey 0.08508375149682695
ολικά 1
Bat@@ 0.09971070702862585
ET 0.6342534722329587
iden 0.10880283616905694
Tw@@ 0.19711527510640048
tics 0.07389494008255554
ote 0.07682543498639957
на 0.002659777469762101
155 0.7720592009103189
25,@@ 0.729194568761831
67@@ 0.8339995504964423
Digital 0.33062144621795686
Line 0.11983192740659077
Mes@@ 0.1428360746044595
Sky 0.3626103679647098
That 0.12393473173211816
ami 0.1291292359089111
χιλιο@@ 1
Lev@@ 0.1475417975948917
Ob@@ 0.14557970966268138
SC 0.1411312985138007
ebo@@ 0.35635136456745325
sol@@ 0.028098715135635072
Oc@@ 0.1397469953831834
Vil@@ 0.1244564358537633
har@@ 0.045844732635394576
≡ 1
Rev@@ 0.1367085211838277
eck 0.10574389293005529
1530 1
Laur@@ 0.1583799012264066
arg@@ 0.09719446304480817
sive 0.05369108396043822
σινγκ@@ 1
ταθλ@@ 1
217 1
M.@@ 0.2623058223089324
frame 0.2952830657333979
ox@@ 0.15571934585810732
Anth@@ 0.35627118745364955
Da@@ 0.22439490253524472
deon 1
int 0.2367850023457371
Arthur 0.12917219803897606
People 0.1289471652303286
Two 0.09340314483943139
λυμπ@@ 1
Carl 0.13702969007848786
Rotten 0.782755537909232
The@@ 0.10634984089779899
ø@@ 0.15486448206675282
θελον@@ 1
Bill 0.12785277211154591
Nav@@ 0.15104001025834962
Ci@@ 0.15952555670458138
Der 0.01116614900275798
Pep@@ 0.34333555991208087
mas@@ 0.055063074055588405
ost@@ 0.1062165128970718
pu@@ 0.05001964127625606
άσκετ 1
ett 0.07421532858472706
1758 0.9899547209089519
22,@@ 0.7114323978747963
Kal@@ 0.08298816462949338
Ltd 0.3082091478223351
Magazine 0.23112466183333905
Metall@@ 0.6300257510392662
ίστα@@ 1
Four@@ 0.28231588560104415
Heaven 0.754768469100489
Il@@ 0.1264099735110454
Whit@@ 0.15320205391437716
â@@ 0.08513329880941004
ρίτερα 1
BO@@ 0.5094937073022103
Let 0.4212888976668701
Petr@@ 0.24617320964230377
Walter 0.13231987663733852
ball 0.08777149789117067
domain 0.4191585644909809
fi@@ 0.03993690244730019
Ρώ@@ 1
Bos@@ 0.12734948551284328
EL@@ 0.5818740014327348
Reb@@ 0.16993435288680098
Vic@@ 0.17099327201624637
eto 0.11817490356040813
ew@@ 0.06872314162810533
24,@@ 0.704730115274318
Dol@@ 0.13891789433356258
Fro@@ 0.26885007132647054
Li 0.2684405397224105
ania 0.11940250737537829
Mah@@ 0.09220346038867898
SN@@ 0.3231541099922893
arr@@ 0.04251174599901569
τιμή@@ 1
1520 1
2- 1
Dev@@ 0.10716547636700216
Liber@@ 0.1425805528037544
eri@@ 0.08320826984283265
lu 0.2656044668329395
οδοχ@@ 1
420 1
Page 0.5676552514437687
1683 1
Jacques 0.1361036142605322
Kor@@ 0.08358047644564195
MP 0.20274756015995746
More 0.22282918754655825
Plat@@ 0.09416651239230941
Tom 0.1250225272197957
ham 0.10742027013767531
tel@@ 0.049053788309881455
tis@@ 0.07712943742422626
fe@@ 0.02595767875670221
ign 0.39439601744099806
1786 0.7348438047879217
D. 0.09068775715219995
Gun@@ 0.20840276251202022
by@@ 0.1547527776005079
dis@@ 0.011447779272625832
una 0.005311300793244801
1,7 1
Lif@@ 0.551752234368485
Mem@@ 0.15136638477579625
Mis@@ 0.1409421584521461
Old 0.11383576188698212
PR@@ 0.4059041326043256
Plan@@ 0.11118529274412957
Uni@@ 0.14052681876791415
י@@ 1
ა@@ 1
Dun@@ 0.13505158877626752
Victoria 0.11956880516349812
26.@@ 0.5790393683146597
Stu@@ 0.12776000267643983
day 0.023252431064773017
ani@@ 0.09191679062714801
hard 0.11541944132701205
map@@ 0.28087916648498157
ίστησε 1
Anna 0.1435962884632542
Comics 0.3368974139901387
History 0.0337004879900169
PP@@ 0.46322159548671343
Rob@@ 0.14900448968392652
Tomatoes 0.8285739331313781
isa 0.14030576540480372
itch 0.13413073010104593
Land 0.08461850703002967
Paramount 0.8169938886011987
enc@@ 0.04339122807057148
icus 0.30755014885431564
Boys 0.26044605777289537
MT 0.7510614597386026
sy@@ 0.11698356540873131
tan@@ 0.052273683635021814
ατρο 1
Evil 0.9658959503965642
FO@@ 0.4388425501242604
Prot@@ 0.10243850722864299
Ta@@ 0.1196123857278864
Xbox 0.5721940113718789
aya 0.08401514173278539
inter@@ 0.01600895194955376
21,@@ 0.7074794667509394
Television 0.21040744170622844
ng 0.21943402692762035
ther 0.10066363237768283
1521 1
Hay@@ 0.13780771072688155
Party 0.049160944652760954
eller 0.0936481296233921
uma 0.17101662846681942
199@@ 1
AL 0.3282975957892264
C. 0.06399641167968931
Cir@@ 0.237888135068792
Singles 0.22355480544569506
cur@@ 0.04328522552015872
325 1
IE@@ 0.4024718660379004
Kh@@ 0.07342278526037473
ants 0.022907739801428156
ische 0.01794317988554806
ns 0.038542280387369086
Gam@@ 0.2585283383460864
Tem@@ 0.14482123660078183
West@@ 0.07271590446996017
bul@@ 0.06297455726017633
132 0.7278657630630884
1610 1
Gor@@ 0.12683831162077527
SH 0.7220042120827017
Sy@@ 0.09020199961153172
cap@@ 0.049049474184969244
ense 0.07549657108620178
sey 0.13029021239462052
57@@ 0.681365084874551
media 0.06329342352275596
mo 0.11676442574693072
βλημα 1
Corn@@ 0.1426004571554256
ri 0.13484095773913377
Lewis 0.1658045979335297
ret@@ 0.0647900431155458
uv@@ 0.11302380082907017
ér@@ 0.037050943815733615
430 1
Red@@ 0.09262624800740596
franchise 0.26304779114505683
ó 0.00947156906686427
ήμερα 1
1768 0.8448806235362218
Real 0.12100843003760313
ωτερ@@ 1
1571 1
54@@ 0.7660179482711984
AE@@ 0.3647493299334196
del@@ 0.05227747873988989
ha@@ 0.06970553576087977
sky 0.11112004293349541
star 0.10986224222113253
165 0.7665826707797494
1777 0.7110482342345624
27,@@ 0.7152844418064258
LO@@ 0.4335373817502709
Machine 0.5108311561837168
Prince 0.11344793035180395
ask@@ 0.15254463648085723
hat@@ 0.2132288627815959
ush@@ 0.13775579835239243
146 0.8936231869991553
2,6 1
28.@@ 0.5957266004031766
B.@@ 0.26698229949375046
Drive 0.3988820096701305
Fair@@ 0.21887170255948166
Trav@@ 0.22113538124419455
Unix 1
anc@@ 0.053479665468067816
len@@ 0.06314075413442041
Guardian 0.4412257958264039
augh@@ 0.1690914007560079
online 0.16157149088731665
ώδεκα 1
ἡ 1
Critics 0.664094880165775
Just 0.2995078527071357
Moon 0.30334206445001943
Ren@@ 0.10383925886019113
Shar@@ 0.13607187558845915
460 1
DF 0.2797182362244019
Express 0.24165441637300264
Heinrich 0.12739625787205675
Ludwig 0.1655508882175233
PI 0.7638477630297524
act 0.05248586273330415
ely 0.02896724022581817
etti 0.1403440086820601
ῳ 1
1670 1
1782 0.6627715635713152
Bob 0.15268777949066362
FF 0.327433176033993
Homo 1
R.@@ 0.33993386797233655
Tal@@ 0.09898845368940001
go@@ 0.06340941772442728
kr@@ 0.06803024339855583
light 0.06111884821435787
æ@@ 0.2853683464098472
196@@ 1
225 0.8414360066146096
oma 0.09432494473176599
tw@@ 0.0685793272653433
ă@@ 0.20664506242825037
Electric 0.3643713652005966
IU@@ 1
Lov@@ 0.25251628436020584
Sound 0.26743348094811575
Sz@@ 0.18339973869938178
ean 0.1085178955435937
σπί@@ 1
28,@@ 0.7596892027593324
78@@ 0.8695675013970702
Bay 0.08076938116872327
Fri@@ 0.12626110499595003
Georg 0.16411943661149386
data 0.08585412360606609
lat@@ 0.04992664796608627
level 0.05184035516882331
ust 0.09155869829601318
¨ 1
1690 1
Bab@@ 0.15688558843789333
Bul@@ 0.11088518954593161
Sl@@ 0.27657137316673563
Sof@@ 0.29733705636920316
long@@ 0.11447921278073074
vol@@ 0.04215362463557866
Beau@@ 0.14836903552640954
Blu 0.8164391704464344
Productions 0.39693914680574
River 0.03548638856310385
1540 1
29,@@ 0.8146420306183155
Battle 0.1006231273676687
FDA 1
RT 0.3001703519960631
ert 0.028406797076476056
Div@@ 0.16079794628452254
Family 0.140088928544094
GP@@ 0.42316453555377476
Hen@@ 0.1628224819221129
Tu@@ 0.12106474089500481
estr@@ 0.051149318947867194
1778 0.6746724591244935
Jackson 0.1278533733929589
Sm@@ 0.19641253384825658
Steve 0.15263675879049932
face 0.05060679207153193
rec@@ 0.02620184196333694
Global 0.23805227688609687
Kir@@ 0.09813706693205405
Maz@@ 0.1839309153467556
NBC 0.28690261534203504
don 0.08643103359329932
leg@@ 0.04275629463195905
oto 0.09240102783263099
400@@ 1
9,5 1
Ev@@ 0.10866027401343366
Fried@@ 0.3142084115167152
RI 0.5708084772064206
SE 0.4005347556868117
UC@@ 0.3355400666107039
Vel@@ 0.15412365100058942
aci@@ 0.07244830661844721
ful 0.060657144927948714
gio 0.1978220077560548
qui@@ 0.10743038784004098
å@@ 0.20930825738964812
ετέλεσε 1
1580 1
56@@ 0.6743115061944244
66@@ 0.7979048491866558
Antonio 0.09951418319581529
Bom@@ 0.1778018156005941
ond@@ 0.06987736083190497
ç@@ 0.07102138193590965
Fil@@ 0.09988681473426839
Pink 0.6444989422637291
USA 0.07664289256625749
VIII 0.2745246239376012
Web 0.4328592049059591
ista 0.04556668266599291
ket 0.12544721376620394
pos@@ 0.030873367103526474
TE 0.5163732441967399
Ηρα@@ 1
310 1
Cru@@ 0.2409021939774186
PG 0.5086191462926914
Patr@@ 0.12946641905333212
Theater 0.15870903295922703
XX@@ 0.3770598054108193
jo 0.06271133293245568
vil 0.21614891614485457
E. 0.10814413775071526
Fel@@ 0.1273357966450831
With 0.05616324619803796
ins@@ 0.04564442180823987
θύν@@ 1
ו@@ 1
Baby 0.3980942814220135
Chart 0.28207445787696545
DO@@ 0.33729809884736484
Now 0.26605173761887274
Nu@@ 0.19730493098078208
down 0.032816632534809854
manga 0.34569557770596265
mel@@ 0.0665467935355092
war@@ 0.03310971017439131
1769 0.8659306396912613
AF@@ 0.29734728561884743
Campbell 0.2671474435713217
TO@@ 0.4088485344003658
ams 0.0864503087423194
mat@@ 0.043672415864617876
men 0.019502531067848907
1618 1
And 0.18176215159061573
Ath@@ 0.17153802416396444
Ep@@ 0.18833078435809264
IBM 0.42727687093762
illac 0.8869501677017707
onn@@ 0.05121484110282951
ots 0.049454915800246045
vin 0.1668980750872559
ö@@ 0.0360196816148346
έπτυ@@ 1
С@@ 0.022129229520116953
᾽ 1
1763 0.7296231091507872
1781 0.694893456364978
Acc@@ 0.21127772768179368
Van@@ 0.22861392314445605
bus 0.09895071694803785
ison 0.07601663210013881
ode 0.16512959238829025
69@@ 0.8757138515622173
Junior 0.160505649327329
Mit@@ 0.08454612301159388
She@@ 0.14669826068780473
UR@@ 0.5728201956055385
Vit@@ 0.19413815566988069
Wo@@ 0.12774025552204765
her 0.006335159146063913
ώργ@@ 1
1760 0.7535977033922062
205 0.8250673535338441
GNU 1
Gir@@ 0.14384489600256126
Mos@@ 0.10975863065336242
TH@@ 0.44187162853021683
esis 0.11351745400317743
iP@@ 1
mit@@ 0.05428205257203405
ː@@ 1
4000 0.5571864049119717
Liv@@ 0.19238464427111562
cin@@ 0.06622094944990263
1603 1
167 0.926146588247267
29.@@ 0.6026646831502909
Angeles 0.0726609977855184
aus 0.007363301429187562
ð@@ 0.4008454884559736
1492 1
1669 1
II@@ 0.3609303768577883
Service 0.08701643522653307
ding 0.04654957175929363
height 0.22645992818094723
oll@@ 0.08493968710971536
thumb 1
½ 0.6581960083302374
131 0.7219694905305284
1560 1
53@@ 0.6917644914115675
Dur@@ 0.12956113248660067
Head 0.20841718122866268
ech 0.18969749392194807
m3 1
sin@@ 0.053160063675525907
ub@@ 0.07607252515571085
uy@@ 0.08858176946907843
vir@@ 0.11433929646127403
Astr@@ 0.21672205489238558
HF 0.44837207420540287
Henri 0.14793216222397995
enberg 0.11817121581897223
ΐ 1
Elec@@ 0.11935885909891844
aka 0.11651689267183081
dan 0.08748850997602645
οδυτικά 1
ἶ@@ 1
185 0.8371034670346744
440 1
Athens 0.44784210139357494
Beatles 0.47371219364508177
Doctor 0.20584283614266
147 0.8524067411427113
Come 0.6034205845479752
Let@@ 0.2042236091711815
ON@@ 0.2722213521651795
Sac@@ 0.2572825194019932
Voice 0.4931572454737792
our@@ 0.06089968758505651
ιστόρ@@ 1
166 0.9270205035463587
Aur@@ 0.19034766978074616
Dan@@ 0.11554387723203868
Women 0.06955163191987217
odi@@ 0.09287446546285825
vers 0.02615076252464462
υζαντιν@@ 1
26,@@ 0.6445006600831713
64@@ 0.7231464005735906
IUCN 0.8475921488561521
Jr 0.17024034181922726
Pen@@ 0.07520391206321472
bor@@ 0.05379435462244011
ks@@ 0.08964283863011702
François 0.11156631058263641
Oli@@ 0.29416246698955295
Open@@ 0.36572733843374466
ail 0.08702908210521078
amp@@ 0.046754008889571
non 0.02610073210270855
por@@ 0.04123061387845099
εναντί@@ 1
EN@@ 0.44510496055125576
Lost 0.45090708634248317
M. 0.08056726533640864
Pau@@ 0.14918587603893904
Under 0.12387895519696604
agon 0.2938789830896291
amm@@ 0.06426675696635287
dic@@ 0.052554969951514326
urs 0.06368296674262028
ère 0.031160663457370247
ΐου 1
Πάπ@@ 1
27.@@ 0.5140364017066276
Dragon 0.3839126117819131
Hom@@ 0.1062720204866629
May@@ 0.13216331903787623
Premier 0.10522477827014382
V8 0.7612295744059712
alia 0.19903280197174072
itude 0.45885739836660594
133 0.7341533907533123
1740 0.7938639755306768
Fu@@ 0.10621178025652703
Grande 0.13449934963499185
Kan@@ 0.08864290951125439
Liga 0.08034193056518829
cul@@ 0.06425639652272767
ety 0.18356367697966475
station 0.023315212413192295
win 0.03704100981769287
Bil@@ 0.11030420813916601
CR@@ 0.39896108912544775
Fire@@ 0.6017889262726708
Joe 0.11802311243061299
MR 0.798358606724478
Sor@@ 0.1206637353565514
ῇ 1
1764 0.8358813359242918
198@@ 0.9611849112161539
59@@ 0.6910341122090512
bal@@ 0.05838460507152645
ega 0.15215429993593788
og 0.19542450628716349
τζάν 1
1250 1
99@@ 0.7704962589542853
Arti@@ 0.16042397343148745
Brothers 0.2544143615922558
Cour@@ 0.10958265888312772
Ham@@ 0.09271418498857308
ā 0.3590260057387266
23,@@ 0.5787508386317664
F.@@ 0.4188635486355983
Gol@@ 0.13166729470909813
ML 0.4667192149410664
Never 0.5873834839357199
Not@@ 0.0959888696176782
USB 0.9942118293029715
Wrest@@ 0.8088879251999728
ally 0.013659456552379497
Ker@@ 0.09435787802903572
Lam@@ 0.1372118775978247
Wild 0.3134348440522859
ace@@ 0.10676882194979104
cio 0.11952882060105091
ods 0.08860098138800308
Tim@@ 0.1272537296535908
cho 0.024587280707471765
ema 0.0941382552994889
ă 0.6596287161420221
παρελ@@ 1
138 0.7360520229763938
950 1
Central 0.0490587565934999
Econom@@ 0.2074920005350187
Ernst 0.17633132542096572
Gaz@@ 0.3310447281597964
Porsche 0.6582423005099899
den@@ 0.03008421404603863
tig@@ 0.05980364362373542
wi@@ 0.12960679652171628
year 0.012115740868140965
God@@ 0.19323504479241285
Over 0.16402700930680403
eum 0.210853484071667
tions 0.01784032564023395
119 0.6607912515887467
2,8 1
Rainbow 0.9107238098373195
Rap@@ 0.15332095002165982
Town 0.09904794410482151
560 1
Ay@@ 0.12747846939829854
Cop@@ 0.1670178518728031
Cou@@ 0.22710576916355515
Hum@@ 0.13340850361049245
Magic 0.3956538280565988
bel@@ 0.036995407493499756
dei 0.6138884185804029
onia 0.11488833877609803
ow 0.07067711849419189
yc@@ 0.0970971307440501
137 0.7345050504716486
1720 0.8728561472812724
323 1
Hur@@ 0.13477048525981364
Public 0.0982883725345358
ava 0.1460539169532645
dom@@ 0.08591238505974992
Child 0.41988521832084796
Kur@@ 0.0693452527072477
Med@@ 0.10138155643020032
Pop@@ 0.17136023137432854
Sin@@ 0.09166548337401441
elo@@ 0.418063416326398
enne 0.04259661340611681
ե@@ 1
Kat@@ 0.08572101176585911
Mul@@ 0.12104723921918978
anime 0.30335302447710105
gar@@ 0.048215408939707785
lem@@ 0.09437319830688697
nh@@ 0.05858241817571209
ωμα@@ 1
134 0.7303656715560229
Hon@@ 0.09078874825017846
Mé@@ 0.1267868186039271
Summer 0.08502713414222487
Zep@@ 0.9334324916622698
Τζέιμ@@ 1
235 0.911161666789417
Dam@@ 0.12311888682064802
Rh@@ 0.1714417874756256
bur@@ 0.04236192366875174
ucci 0.8496712191345525
í 0.06126257911321044
αποσ@@ 1
1526 1
AG@@ 0.32024295954182164
GT@@ 0.3902225686333926
Rel@@ 0.07793192594026342
Sea 0.12000883904237515
1590 1
37.@@ 0.9846164619731732
Brit@@ 0.1910121905859429
ME 0.3899029774838633
Vari@@ 0.14672711867998506
ć 0.1438551874152152
2,1 1
Ball@@ 0.1261384664950052
Bay@@ 0.1144263856478488
Rose 0.16971599141984348
gre@@ 0.06568328738321008
Μέχ@@ 1
όσφαιρο 1
148 0.833204349188888
1714 1
1730 0.8419685771001247
Atlantic 0.14475343243934874
aga 0.09861262754593411
eter 0.05493471396608826
ingen 0.05359105159389005
Αιτ@@ 1
144 0.6858101061000202
365 1
540 1
Francesco 0.38166627263091896
Hav@@ 0.10480803471953369
Kit@@ 0.1627762921593777
P.@@ 0.39106103584287893
Scar@@ 0.288397547489273
cer@@ 0.03887798723832408
ime 0.09527595941894529
sur@@ 0.021967757070666828
1667 1
1779 0.6737770165925003
3,2 1
att@@ 0.03518008601694837
jpg 1
offs 0.305517663689899
old 0.028552818037406506
pers 0.14582883651968193
ror 0.1927520147740525
ë 0.42075621450314876
ón 0.023992594924668813
1762 0.7985184567121133
Tam@@ 0.15050242017303933
ισορ@@ 1
1598 1
1699 1
1771 0.7998241270579266
Cab@@ 0.13700810300957098
Europa 0.08130385308504523
Simon 0.1284255727466066
dier 0.1859048348776534
ede@@ 0.6075774657925039
hop 0.3047763316774736
án 0.03252352997291578
1685 1
30.@@ 0.585924121253557
Am 0.02795441549358656
Blu@@ 0.20072528978898943
Game@@ 0.44043936962129154
Harris 0.2175401146340615
Will 0.24745009980768343
lam@@ 0.058675037225565024
web@@ 0.30734284940462103
1536 1
215 0.9013574517921566
BM@@ 0.3079508504186826
DL 0.7436326862230349
NCAA 0.1667836898627198
Plant 0.530247047603017
Ray 0.18900478949570332
eth@@ 0.07215548964817534
ides 0.045118122070425266
layer 0.35332554717331965
yl 0.12298544414836467
193 1
Fantasy 0.5059411436111624
Good@@ 0.2131459276210449
ader 0.10735832955127965
ads 0.09935961185417576
boy 0.1436366072677706
ware 0.23003068354952266
192 0.9263055967251882
2,7 1
Bern@@ 0.12551618142362028
Bou@@ 0.11802602168166056
Review 0.25424606386772663
Son@@ 0.11116509690957976
Wa@@ 0.17234148496542676
aki 0.12030233561490604
iro 0.12319090820049738
Δημήτρι@@ 1
1- 1
1680 0.9176397178124848
Ari@@ 0.15225095744030823
Eth@@ 0.1681493782107164
Gil@@ 0.14838488891785492
He 0.0040115883689381205
Mania 0.9892451355841154
NT 0.5143262336402901
Not 0.2150285663199068
uz@@ 0.09030013730858032
όπο 1
1627 1
1632 1
Dow@@ 0.23669569346514743
End 0.24039543462705787
Under@@ 0.20837949303125172
acc@@ 0.03380930535567847
ades 0.05473136664050708
anda 0.11153222035999717
ights 0.11511954156430647
αυτοκρα@@ 1
Alfred 0.14689472192038658
Associ@@ 0.20461881243318117
Douglas 0.1674996876923061
When 0.035414579020351146
cat@@ 0.04073165605509845
olog@@ 0.0846517154586202
DI 0.3380481936777765
ROM 0.9752251190173787
Sn@@ 0.30365885402934756
log@@ 0.07712381075678204
1,9 1
1625 1
Design 0.16428255512076265
Nic@@ 0.180770803860962
Pur@@ 0.14316691457725916
hr@@ 0.07803734428333643
zz@@ 0.22036678626379239
SH@@ 0.4371390290083974
Soci@@ 0.1428454002464954
Tit@@ 0.11096217191370489
VC 0.5191804710715442
cast 0.07571409210507223
remix 0.6671763297509988
Θεσσαλον@@ 1
† 0.043352776222195015
1718 1
1773 0.6924565436870936
Au@@ 0.06556534955564025
mus 0.2671683269380257
oria 0.17982937126384327
ury 0.12992489812259833
Again 0.5139860168814004
Cul@@ 0.17432898719307344
Mic@@ 0.2016424815436269
Pop 0.2706945292597387
Radi@@ 0.14408729833617642
Victor 0.1623184142526379
esta 0.030182817632802193
Καρι@@ 1
1572 1
1642 1
Aut@@ 0.10036625247374122
Butler 0.3653405615553073
Heavy 0.6212469624273462
Lim@@ 0.10586008704500934
Od@@ 0.21725302112776718
Soul 0.41438921151794483
ku@@ 0.0755065143111613
omo 0.2033960353608637
til@@ 0.04932200650954935
ux 0.09536994763886271
ɪ@@ 1
ἡ@@ 1
1350 1
1559 1
Bau@@ 0.03247377495699892
HC 0.31042528712064893
José 0.059617982054925696
L.@@ 0.28703300869023746
Sex 0.5541526291615149
aire 0.01930853922182909
ce@@ 0.05696970284847299
eca 0.21938891833922247
ron 0.26928738001759156
ship 0.02576982298787827
222 0.9057058047303788
AZ 0.7244216285201545
HO@@ 0.7308283896062455
Lib@@ 0.142776744884656
Satur@@ 0.39487031189228916
Wolf 0.2660314417689665
stream 0.12386869960604895
ś@@ 0.31135889114408843
θανε 1
1765 0.7562876990859418
Eng@@ 0.09093613182734703
Forbes 0.5087685073447613
Girls 0.23240790998086353
Net@@ 0.19964561535112302
Prim@@ 0.10996246720928457
Romeo 0.627678901838291
Roy@@ 0.21049080867557193
Standard 0.23275237803778906
asi@@ 0.06092784925036511
ger@@ 0.025607866448168717
kar@@ 0.059297497846353596
193@@ 1
39.@@ 0.9393850466719584
Mand@@ 0.11800947168061744
ag 0.11421184730393336
gl@@ 0.04821119053313936
los 0.0028714883716370295
mix@@ 0.12069130945901625
zy@@ 0.13845819145303015
ն@@ 1
212 0.8800911212003854
256 0.774420290167701
Children 0.2165147732393442
Francisco 0.05877816431107658
Peter@@ 0.2002716893232797
Tan@@ 0.09961027552693806
Web@@ 0.12488747148093876
How 0.3474128027627132
Ing@@ 0.12305170857119103
Place 0.21880426884543513
Point 0.14054700981118182
Tran@@ 0.1691532121434576
Wel@@ 0.1429444880260257
ays 0.060511160433028774
ellen@@ 0.17499833227860653
sus 0.014610165700296232
ασφάλι@@ 1
Dic@@ 0.2533652527853182
Stars 0.23954839761020913
Three 0.11913408444981732
bre@@ 0.02825592932495404
via 0.04404971851031603
τουρν@@ 1
1604 1
AB 0.28707328407190313
AX 0.5828091707474847
Alice 0.21084504605701274
Bot@@ 0.08687330648449172
Development 0.10936753056137524
Human 0.18469591256553095
Movie 0.5063256782190376
ald 0.12820112834888206
bit@@ 0.1304917573785736
latitu@@ 0.5318136641733282
mu@@ 0.04994106867478189
not 0.005944710532106513
under@@ 0.028820202003329628
ἑ@@ 1
395 1
lock 0.11440522323739963
ão 0.1819032851226441
84@@ 1
Autom@@ 0.17969866746305452
BL 0.4455355372724297
CP@@ 0.26245546651334134
D.@@ 0.3139047962787147
Hand@@ 0.07894040330422701
Run@@ 0.21743499765271937
Songs 0.1983146488484184
avi@@ 0.13091710931587286
px 1
auss 0.4339939217919698
emann 0.2992487518744118
ws 0.0594204785173633
ὀ@@ 1
1661 1
63@@ 0.7394081088888669
Ash@@ 0.09863954191529396
Billy 0.21932821730802615
MHz 0.5808320955790014
if 0.028148939677408974
1766 0.7897463252791767
197@@ 0.960470553194122
ards 0.05864044788075763
out@@ 0.03186762337135997
164 0.887327775181133
3,6 1
Elizabeth 0.10962833066573212
Library 0.1359434326001912
So 0.06471560662002251
arc@@ 0.1173500629520532
enz@@ 0.05193373243142312
lers 0.05731449566890918
Ç@@ 0.1400046752571611
εντελ@@ 1
и 0.001381069002247202
् 0.0029645141196850363
156 0.7431849339551395
Chris 0.11886916662906435
Days 0.37554534727390015
V. 0.1126947271341666
hard@@ 0.13977941330438107
ker@@ 0.06991023862848829
ols 0.0667689074306915
server 0.3435709028278408
151 0.7327534291285519
Alfa 0.8809108536392501
Bow@@ 0.14532506774104223
Chem@@ 0.13238801785846244
Opera 0.2168661979006974
Type 0.260654939821704
dis 0.22854808597187282
gh@@ 0.10476763240554769
tim@@ 0.04466004812138359
εδρος 1
1605 1
305 0.9483950359505271
74@@ 0.7836274260074989
G.@@ 0.43117155017355074
Guy 0.23396927239303075
ais@@ 0.0654596516886314
ders 0.058918092321487106
ente 0.017519043574916682
uli@@ 0.10626919914580432
AV@@ 0.3231369404387237
Anne 0.1146346351593722
Chrys@@ 0.5575281881892655
Juan 0.055119073641261285
Lake 0.056047262466282326
Tul@@ 0.23096853063315662
Water 0.20176908017626857
act@@ 0.09957696143841933
edi@@ 0.05719719754885767
oli 0.20259331468618794
0,2 0.9520791218246726
640 1
Act 0.05947473553010784
Lil 0.9196347947704874
USS 0.25654147751950773
red 0.031586521994782166
Bru@@ 0.11346664448185352
Mich@@ 0.1466361195877769
On@@ 0.12031981397087625
SM@@ 0.4058272974321915
Sig@@ 0.11518492216220982
Some@@ 0.3078521608171411
low@@ 0.05985848671224806
worth 0.08881190754096671
ʲ@@ 1
≤ 1
1655 1
Bull 0.41031869276543953
DS@@ 0.4026659805488892
IO@@ 0.3634268131207153
Ian 0.2582514735509373
Lem@@ 0.20730422085804237
guest 0.18565386412347576
ste@@ 0.03632080476898491
141 0.6597740838508765
1638 1
1767 0.7585506232871061
321 1
530 1
79@@ 0.8792002743127892
CV 0.5796116388384189
Empire 0.06639877553941492
H2O 1
Java 0.3139484853708757
anna 0.13937106582822112
da@@ 0.18497393298748016
gi 0.20049262080472005
ild 0.23835675181229363
ual 0.05820617631852676
1515 1
36.@@ 0.8530845506801212
410 1
Eg@@ 0.19788365572110136
Fun@@ 0.20357322740676037
Mass@@ 0.16326150090354177
Ori@@ 0.16237476025345216
ality 0.06265368147396884
bas@@ 0.033797834750838536
cy@@ 0.16144263858659336
ons@@ 0.06583237423809352
pan@@ 0.054948100641541854
136 0.6393377368700408
152 0.5958946806677485
154 0.7020881154012915
158 0.812057285476778
163 0.8267581840366524
1707 0.9502470604167338
999 1
Ret@@ 0.15079249828048066
Weekly 0.3985798786896782
je@@ 0.06873766271722376
ther@@ 0.04803125808496859
water 0.02835305770189748
н@@ 0.0260928650111413
Bet@@ 0.1415245209891405
Federation 0.15587355207881765
bi 0.1021816920483661
rem@@ 0.03844670343948694
202 0.7330958633342398
3- 1
88@@ 0.6647449892552723
Centre 0.07271817652376583
Mik@@ 0.1835411015149769
SI@@ 0.30774136996713686
Sau@@ 0.11895660329970083
Special 0.13915527798582078
body 0.04640304912851639
kl@@ 0.046568764089178406
own 0.023308260916955766
1635 1
1675 1
169 0.8993254403330856
1701 0.9478746139324622
Airways 0.6015230233336192
Concer@@ 0.2268230148198524
Nik@@ 0.16223443167755383
cop@@ 0.06493699281344689
Τζορ@@ 1
οπον@@ 1
747 1
77@@ 0.7538589131263522
Airbus 0.7537901533823681
Animation 0.7272141476226636
Challenge 0.24410160616433788
Pu@@ 0.1119440116983306
Sanc@@ 0.41494413280166476
Soccer 0.28937989559385907
Wood@@ 0.12348359108721266
bro@@ 0.062124856382646844
fur@@ 0.13202677466970275
sson 0.16725297454666524
ston 0.12282657148964578
vor 0.017913578353415623
χας 1
1651 1
1757 0.8021502464667096
38.@@ 0.79638811835944
85@@ 0.7933215487854722
Jer@@ 0.1228274257952756
ST 0.3665718632695341
Serie 0.09584109391938431
Symphony 0.3346020023055226
TNA 1
alt@@ 0.05012138073394867
ches 0.034316439232404544
ი@@ 1
142 0.6911475625960596
Hed@@ 0.3232363125449252
Law@@ 0.17933276272842066
WA 0.31314839328059557
ev 0.10589558543257481
section 0.05281779406504723
taine 0.2518282843989238
μπουμ 1
211 0.8243375484290937
ATP 0.25447858109222726
Emmy 0.4427605563325546
Hab@@ 0.09668490645218702
heim 0.06988783206849208
nm 0.8362836565945173
ories 0.05520190231477454
ī 0.3204885454756138
C1 0.8161119679296673
F1 0.4489086597085249
Mike 0.11071766429411768
Otto 0.13002124369853565
RAM 0.6188103998763927
Via 0.5442135507659936
Wilson 0.1099893893387389
ix 0.13929976747360973
mus@@ 0.04875796638695087
sw@@ 0.044650552505885004
ume 0.05809105816724154
1672 1
1745 0.8067765526488351
EF 0.5062068421171804
From 0.03771817510076876
T.@@ 0.3958176016865744
aun@@ 0.07834825695909588
eau 0.036671496434905845
ishi 0.3049898434376564
mes 0.041921862927694765
uri 0.13249631946139223
τμή@@ 1
,@@ 0.619459598027941
1665 1
978 1
Dro@@ 0.1555388868556749
Plus 0.18524420532163974
Sweet 0.4888855263881056
Town@@ 0.4152278842181498
eson 0.45082542871738457
für 0.0044406883090018666
pal@@ 0.049161992556491785
ward 0.06974905438417803
0,3 0.8985188958947237
1547 1
1568 1
1621 1
Choice 0.5534840385109968
Stephen 0.12971631333324285
Tak@@ 0.08760737371154344
Technology 0.13285032832661747
ating 0.016550168038052513
mail 0.25917395483931094
off@@ 0.03788791656542512
ren@@ 0.025600174447324417
1525 1
Ant@@ 0.11826002169842999
Away 0.6786960099282316
Om@@ 0.1758726680879238
vin@@ 0.07927496557552673
ἱ@@ 1
1596 1
1609 1
1649 1
1659 1
1697 1
290 0.8705994825608285
Gall@@ 0.2847925047785873
ICA@@ 0.9209680325466253
Mountain 0.1351081298389638
Ther@@ 0.09557741219404076
Us 0.45199976128314767
anz@@ 0.06076225583928657
mal@@ 0.037339022651176994
1569 1
1612 1
720 1
Cav@@ 0.13474627293953126
Johnny 0.1987849091190369
Kin@@ 0.09249690985991532
arium 0.30570594865775147
e.org 1
ech@@ 0.04991696578648361
fa@@ 0.05482207226648527
k.@@ 0.595426285014811
а 0.010124688069526348
161 0.7908058216214724
197 0.9977026935573227
Andrew 0.11531920617504911
Ball 0.27208019094972064
Bla@@ 0.2012741038752405
California 0.03494122939619638
HP 0.3469668822515284
Money 0.49294541848821904
Sou@@ 0.10172104927920134
Tony 0.13052564563302563
azzo 0.4825202020658833
illy 0.11097414123054904
mart 0.3352078366544395
1713 0.9316962262187903
Friends 0.363922606835065
Ward 0.2453434285043868
ony 0.08436169827616909
pard 0.32003796489393876
that 0.0016992188700095936
Ö@@ 0.09839980312643286
ú@@ 0.06020589439158172
1684 1
38,@@ 0.8952064196905029
Captain 0.1365075696897921
Chron@@ 0.2030139945242096
Kam@@ 0.08200943695132415
icon 0.24620414257637951
ip@@ 0.09733724482346978
men@@ 0.02563106770932463
night 0.06460050329091267
was 0.0007455305156443188
Ξ 1
ἱ 1
1616 1
162 0.7519548891797951
206 0.7661303939267586
But@@ 0.16486558369017593
Jacob 0.19957063734131075
Nat@@ 0.12508358086501306
SB 0.4932615997020213
Spider 0.4025347479879873
arum 0.6656184715954413
ough 0.10161049631667482
pp 0.5950964115848295
1644 0.9235832013482801
1645 1
610 1
Lab@@ 0.17170797465210016
Luftwaffe 0.5189894456464993
Rad@@ 0.07626128602381838
W.@@ 0.5058007946718417
agn@@ 0.10400702615651992
los@@ 0.07628725673761744
és 0.008468671197019112
0,6 0.9252573439938748
1711 1
Management 0.14076044708357027
Miller 0.1400568197141259
PN@@ 0.40392201382119064
Seven 0.2613736315354795
iti 0.22316625586173183
ves 0.025754714531687463
208 0.8058734715815327
CT 0.3997772237296773
EMI 0.6916797271907599
GR@@ 0.7677132083246473
Hell@@ 0.36074953357631623
Magn@@ 0.38237054717042607
af 0.16427947087914604
ham@@ 0.08804758553517612
org@@ 0.11317907133642227
After 0.013818621203689093
Hat@@ 0.18712031850322586
Sec@@ 0.12873125456583606
Secret 0.36796545669330605
ario 0.03281848110233025
awa 0.09653695653839502
ques 0.02022993217469024
uto 0.255568415725766
1654 1
1735 0.8862104819845248
186 0.914781200392493
490 1
Aqu@@ 0.1549379174697811
Computer 0.27305694049743107
Vog@@ 0.20593756178283087
Walk 0.5890495607718511
Years 0.31883974228196726
ection 0.05313899435789326
tom 0.17628341924252136
tz 0.167603278021186
Č@@ 0.24579157390692702
ακολου@@ 1
″ 0.9915057824172152
1585 1
1595 1
1666 1
390 1
451 1
Camp@@ 0.09472653577093122
EF@@ 0.6827398203548273
Hard@@ 0.1743507576117387
Limited 0.2318698158997762
OR 0.8696475546934995
Over@@ 0.1203349783408472
Say 0.720967864285206
Sem@@ 0.10066184570339087
Sen@@ 0.06730587575097083
Stor@@ 0.23135849853072155
Sup@@ 0.1303361902327455
iga 0.16205671651949308
vel@@ 0.08785661291976019
world 0.025664286473910478
143 0.6693531801592644
1519 1
CL@@ 0.4450817412156348
Jan@@ 0.11984755398812229
Lis@@ 0.14408638513178748
ache 0.06438888176665657
ty@@ 0.0551686280512424
wo@@ 0.057745199863771454
él@@ 0.05903267426740312
Καλι@@ 1
εκόρ 1
τρεύτηκε 1
1623 1
195 0.7283345271623561
36,@@ 0.6977423355681255
Board 0.07789513629315681
DF@@ 0.34356275168145706
Ober@@ 0.029685952018877828
Rum@@ 0.14969586237478077
Thi@@ 0.1283780266003952
ules 0.0827331352563169
ն 1
1611 1
1626 1
1628 1
1755 0.7018588993301907
238 1
375 0.8921015196903613
Adam 0.12363686611925145
Diamond 0.39724186808532236
Miss 0.1260525518542175
PL@@ 0.3431951954274238
ami@@ 0.1303702550338044
bar 0.03669150670524482
char@@ 0.04593627534545836
gen 0.03209623717073317
land@@ 0.03322406610574245
yer 0.054307300582435915
Φλωρ@@ 1
1606 1
1687 1
324 1
520 1
CAF 0.43776789398407695
Rod@@ 0.16482899035076093
SL@@ 0.41051963931954977
ages 0.02111282638094901
aud 0.093572741148301
ost 0.10600085018742195
tia 0.10310091389837062
Ό 1
August 0.012399029799385591
Bus@@ 0.08985684239302165
Gas@@ 0.10760342612508009
Hend@@ 0.3835019339252888
Mod@@ 0.09050861309456622
SAR@@ 0.8491556030055692
Sher@@ 0.12349790599606766
Ton@@ 0.13077163960765642
ein 0.004059772066067388
ota 0.08134163524158382
res 0.05045234130281597
σύζυγ@@ 1
1.5 0.23844558054653434
1710 0.7910315362214735
Arc@@ 0.1944031628998768
Country 0.13631888316281512
Cros@@ 0.18559699059478632
LG@@ 0.46520809525268053
Pul@@ 0.18144203095979927
Sle@@ 0.38669605736591234
aming 0.18222916378609666
don@@ 0.03927936501031708
ego 0.17264846063917422
ives 0.07604179529204387
stre@@ 0.07088435575190773
176 0.7977729972862064
275 0.8194917842119318
Hi@@ 0.12537699072326802
Pix@@ 0.7283937118533539
Sto@@ 0.10125469135530525
Stre@@ 0.09376536546301383
ady 0.10118179058943418
alm@@ 0.06182627687262457
ando 0.014654011812943603
fin@@ 0.020783945216784235
mac@@ 0.13531288635589683
1555 1
1759 0.7236418978905262
218 0.8944624258000594
35,@@ 0.7591973224137203
CS 0.21969614868231954
Chap@@ 0.09516461782132994
Deb@@ 0.10073759673724589
Fle@@ 0.1499295215730406
IG@@ 0.3689404629325867
hy@@ 0.06684525694879237
icum 0.47581912358378026
ores 0.040400610421719586
Cambridge 0.12458181287744104
DV@@ 0.3885848588858034
Direc@@ 0.10652793072831364
Got 0.6057622846076388
H. 0.08307939348495547
Luci@@ 0.19006716477562763
NP 0.6627150477944435
Var@@ 0.11798810907147983
erry 0.10744744079368604
nia 0.17038155063705768
sz@@ 0.21215452930577086
1622 1
1716 0.9951655681528013
630 1
Et@@ 0.08986817865528392
Take 0.49916949876688643
Tour@@ 0.08382662879354837
anti 0.058218879363142725
404 1
Jon 0.2890155836394068
ault 0.10009199362094244
mont 0.09090977316598735
ę@@ 0.2135432513861319
Anton@@ 0.21978485245409615
Bell@@ 0.1858649553533968
Collection 0.2999661963954558
EN 0.5620545135500452
Five 0.1906884131712376
Francis 0.10315414504708215
Franz 0.10609515476519754
Kom@@ 0.04521713087303249
LM 0.6442766372870382
Memorial 0.1367743568525309
Modern 0.16945274596674553
Siemens 0.6957210060859569
Square 0.15424102167034343
bank 0.07380307637879376
ebr@@ 0.10455792155316675
san@@ 0.05133481533197794
ses 0.009208919173890086
153 0.6900131543303997
1624 1
1754 0.758711832415049
179 0.9070024486884752
Arm@@ 0.09727116848312457
Fe 0.29817710010451015
Gri@@ 0.19677314356899028
Law 0.07969204580186348
Michel 0.11360612436931762
ae@@ 0.14662054097277985
ago 0.06311933196769419
ann 0.10077714661472231
bus@@ 0.08383774940921972
com 0.22020287601255376
ih@@ 0.0762227232641164
m2 1
zy 0.3234504892095339
š 0.2475067820775273
1601 1
1643 0.9839959410188756
2023 0.5729790810262496
Cloud 0.45547296879790816
MIT 0.5403451402596602
Racing 0.1580228065824079
lum 0.15913441884930146
pus 0.2808652015714685
uch@@ 0.04179204164636203
yo 0.11209245808345562
139 0.6613950972383554
1615 1
BSD 1
Bud@@ 0.12272270180929805
Edition 0.3153055254120971
Maj@@ 0.13614955092498815
Motor 0.17156739419844796
lois 0.1928493548460041
oz@@ 0.08944639803919101
159 0.7804491398842225
1634 0.9638200799106648
1742 0.8032123570369909
183 0.8009311600206721
470 0.9644876898192569
680 1
Age 0.19477113186402834
Anthony 0.14114558322331835
Boy@@ 0.1438857962433479
Lou@@ 0.11843695122502747
There 0.019807550732810982
aha 0.17660904458397755
class 0.04059604064785258
inf@@ 0.03739298177260287
olo 0.1725813662233232
super@@ 0.04259195398564831
Ή 1
ομάδ@@ 1
1517 1
1565 1
204 0.7867113694150195
ER 0.3531045210917388
Fab@@ 0.16154954361250856
IA@@ 0.6958753551178444
Ice 0.26786387763488567
Nature 0.28634058300674314
Pot@@ 0.10959545784028149
TC 0.19201851944134535
bach 0.05211928666979415
ids 0.056844063595375464
nu@@ 0.07032727754758973
tel 0.05103737331025925
ular 0.03524035911557558
yd@@ 0.15358507056275458
А@@ 0.014462208760462036
171 0.7978313730237844
Church 0.03392454561480149
Pil@@ 0.0895729229009192
Reichs@@ 0.13018053656292333
Ric@@ 0.2354914560911053
aise 0.07996728482121065
arts 0.0753355977093326
black 0.056032129466853764
ւ@@ 1
1633 1
1721 0.9036599615710417
1723 0.880162063551407
20th 0.09383395656984438
216 0.8843946293775738
232 0.8727481939924854
312 1
Action 0.22496390028122015
Album 0.07759255049323537
ID 0.3246231993040712
IL 0.3282248666154255
bury 0.08306678553706708
din 0.14708768657558918
master 0.08662122938985303
spin 0.3334066076698137
ηχαν@@ 1
1592 1
1709 0.9477573838074688
Hermann 0.15984526802446408
Vol 0.5770319840770877
azi@@ 0.3959422697696081
book 0.027037747532349745
lio 0.27049815432304547
zen 0.044100030656326165
ē@@ 0.5675053371066417
1629 0.9709335519520921
1717 0.8791142595466007
1761 0.7050381045650062
189 0.8689426320240106
App@@ 0.15319249182249356
Fas@@ 0.2124581488150318
GmbH 0.16720296751469602
Greatest 0.5618052263255099
SV@@ 0.6076675128682653
T. 0.11929620291360188
iTunes 0.5044396568994537
ido 0.023717778248792405
kins 0.11318395881512845
loc@@ 0.03356152810843687
och@@ 0.06269352439439191
trans@@ 0.01663862281325016
ασκευ@@ 1
αφος 1
Ἑ@@ 1
172 0.7559974413225296
1741 0.8031917260376595
Clar@@ 0.11472782436739151
EC 0.2658647549390173
NS 0.24213456081526094
Pay@@ 0.23379321942075873
Poly@@ 0.15397709337973572
Storm 0.29632992647002687
can 0.009891403766320812
eur 0.032720083366898536
wer@@ 0.029900511593588856
zu 0.0038208517546019487
196 0.8435207040605424
Lang@@ 0.07308637888257091
NT@@ 0.38548326128316046
Rot@@ 0.09013707574342758
arch@@ 0.03905350826114966
aris 0.315246337200404
cha 0.04747714766031439
gs 0.057709318651969335
imo 0.16698720822828098
iy@@ 0.08336295819305595
vs 0.4469616382698186
157 0.7391773631480709
33.@@ 0.6684101442912115
Den@@ 0.08188928968444296
Dream@@ 0.6137496860251184
Harry 0.10756462864302545
Kol@@ 0.053338541879479666
Lac@@ 0.17879770525315625
Moore 0.15255585738086247
Smo@@ 0.4202702664178889
eu 0.0783023931948365
occ@@ 0.27435658340903296
pin@@ 0.09046527014120802
tem@@ 0.06747663834036863
е 0.006186923718133313
221 0.8356549502159141
301 0.7051476549586002
ATA 0.7273449052675504
Ful@@ 0.12427900560367555
Ky@@ 0.11092457923339039
Lit@@ 0.11618189962915369
North@@ 0.09507104349171329
Side 0.28386191753237056
acy 0.04387363759649885
iss 0.1422835428700589
row@@ 0.23329649950101725
ï@@ 0.04994451571498349
Έγ@@ 1
0,4 1
188 0.773321481460793
335 1
Chan@@ 0.3013168006373204
Metro 0.17651160855263281
PL 0.6043719512041026
ju@@ 0.05252830661108407
ès 0.06440306928347357
Ξεκίν@@ 1
πρόσφυγ@@ 1
1656 0.993050647389127
1658 1
Cast@@ 0.20894703170656626
Gold 0.09947222178951692
MW 0.3893438689743679
Nacional 0.05452203664403003
OR@@ 0.40107529223403715
Pit@@ 0.17937050810606792
Pos@@ 0.15704511990286835
ango 0.1772772756522761
arius 0.32222526923566236
bs 0.052648832066123814
elec@@ 0.06019069785292602
hom@@ 0.0429967759581033
tre 0.054507944335443016
1703 0.9573847235787839
1704 0.912289630012206
203 0.6951313346046837
Alliance 0.16984830461323308
Circle 0.3787628894756278
Hoffmann 0.61462650167833
IL@@ 0.4530029766437115
Japan 0.03951854936640739
Next 0.3177566637205908
Oxford 0.10239958967125572
PT@@ 0.44133778400088236
Pra@@ 0.2186503113895396
Sax@@ 0.17932496578830295
etto 0.24041972285878968
pm 0.21539064408895517
sions 0.0458911719552978
tal 0.05737652203752075
209 0.8220167588275195
CF@@ 0.31169114544072474
DR 0.2627179506545928
Edge 0.4567579656321675
SN 0.704516110502995
Sus@@ 0.1423229799210017
Syn@@ 0.1253066098458959
Ultimate 0.5227433025780992
Valley 0.06968501614401423
eder@@ 0.0837662928458234
studio 0.05052662466751746
Πέτ@@ 1
1708 0.8775213194137282
1748 0.7482682582445933
2.5 0.2543002579593477
355 1
580 1
EP@@ 0.3488013969026649
Films 0.18009378414610483
Italia 0.13204733969022237
Run 0.29332074507640926
not@@ 0.03077434099254924
1619 1
178 0.787474994210149
303 0.8363315732647848
510 1
BD 0.4901221967519236
Council 0.033387135727236575
NCA@@ 0.6956231224042406
Rus@@ 0.08512022980414885
Terr@@ 0.139234110364297
aster 0.14219009020459986
ident 0.07300104636990928
sum@@ 0.04532253160755228
ка 0.012009879669295821
199 0.8684042239966684
@ 0.5835661058504995
Carlo 0.24896788237506254
Forum 0.2740529699848583
Ku@@ 0.08413289545388004
Long@@ 0.14498790102465753
anger@@ 0.33057775967929665
bits 0.3472305946597774
ef 0.08301436238667934
ever 0.039985250431952286
oro 0.09030929553751628
pa@@ 0.11103442662960923
1597 1
1751 0.7818012803692566
33,@@ 0.6337380169406509
35.@@ 0.7232754343747404
Alan 0.1463656389740654
Anim@@ 0.2943552250680614
Cle@@ 0.1444569360076833
Here 0.21066365966301903
eld 0.10307611641971362
trix 0.23121756368521693
Μάικ@@ 1
αδελ@@ 1
.org 0.951892580748632
1653 1
48,@@ 0.8932436370040278
95@@ 0.9824093725232633
ES 0.372267894831727
Mill@@ 0.1406409028785227
N.@@ 0.30158377931327884
Steel 0.3530311986237999
cel@@ 0.05825173745272681
fac@@ 0.03509641725379326
tice 0.2566614054655791
unk@@ 0.08086442102181784
ῃ 1
1631 1
1652 0.9970380015562852
1753 0.5988098135043521
337 1
570 1
Car 0.24630869549279685
MG 0.48224822917423416
Nova 0.21101790293691927
cy 0.11253978345134487
duc@@ 0.08202736064231934
html 1
position 0.022354954717357597
εξουαλ@@ 1
ская 0.019565592997602625
149 0.6699149009064439
177 0.7490195981260004
39,@@ 0.8519754131438092
AE 0.37257203425911295
Control 0.23497943416740483
Dog@@ 0.2748199275657345
Jud@@ 0.10323732703232182
Kiss 0.5295006561390259
PD 0.2718928852914607
Part 0.24231708800773724
Software 0.238833362416419
archiv@@ 0.3345764083789397
ml 1
new 0.008766989678806139
1736 0.846019438520559
Dou@@ 0.10971163737944392
H.@@ 0.2527670207513724
HT@@ 0.4887644298538257
Sing@@ 0.13590141234291112
animation 0.24796652235295363
ather 0.09336789912969597
dec@@ 0.01909223093293595
eer 0.11270546351710857
ink 0.12793261733222125
τεσσ@@ 1
ի@@ 1
Carlos 0.06616914056093105
Hul@@ 0.3163083902503468
Ple@@ 0.17298461319558944
dell 0.4440071709704756
eu@@ 0.08954631168188475
gia 0.04279777037999397
quot 0.26298275707855334
вич 0.08811823306352724
0,8 0.9493639407810667
1641 0.9353603823586139
Anti@@ 0.09921958152391518
Ass@@ 0.1787094973072005
Canada 0.028297927127276235
Cher@@ 0.1536855707749383
Cross 0.10525340269904039
DB 0.3529640727104857
Din@@ 0.11281043722207339
Eli@@ 0.12996768355258917
Foc@@ 0.5537447715232972
Green@@ 0.11283629888873092
HA 0.5319027353790744
Howard 0.12618432743386454
Unic@@ 0.5244273018216526
anum 0.38321252776916725
ind 0.18654033396956982
oy 0.12804211712919
ros@@ 0.08016006813205576
tan 0.051277191642087876
1607 1
198 0.8397896964072358
2500 0.5012788472496038
300@@ 0.85081811364686
Bour@@ 0.14197500325233067
Dog 0.4162553918973374
Virgin 0.2539074785186305
bra 0.14513240362897717
ube 0.21217660602834898
1664 0.9643850187125875
1737 0.8333423204435936
1746 0.7902671631671812
338 1
Auto 0.2934251948297945
GS 0.3915170740868298
istr@@ 0.11611822601545985
list 0.04105731351874269
project 0.043014606757425376
ą@@ 0.2955964618555426
1743 0.7952000250596778
181 0.7763148163762165
184 0.7720385680007806
Beh@@ 0.13276636958391905
Formula 0.2931267063682432
Pun@@ 0.1883064218064259
SR 0.11066221544651099
ands 0.04347819543067456
atic 0.04797063617747266
führer 0.15679168067474286
ges 0.03199364945912502
iko 0.14345823222700987
kers 0.09757425396660574
nam@@ 0.05347089106869412
ose 0.06131751841322273
1637 0.9847430130045718
192@@ 1
241 0.9529904694757548
500@@ 0.7906731954215135
English 0.024338219811280648
Kre@@ 0.07667825902146097
Mars 0.2203295596909113
NR@@ 0.251793940762698
Whe@@ 0.17148539401540258
Works 0.15259342469348694
Yam@@ 0.16980900841267402
azy 0.3784478910349938
ett@@ 0.05218761978153483
idi 0.1212413827202511
itas 0.16784535721538182
phone 0.11038720725941549
ween 0.7026268969236382
1662 0.9377199219195619
187 0.8075338287345597
AO 0.5047111497693562
Ben 0.10370727657086481
Civ@@ 0.3547240302962432
IN 0.3010978838728042
Samuel 0.11305051352978325
Store 0.3985410806715038
anga 0.15278192065735985
eti 0.16546875859180493
inum 0.27609297470129956
Buc@@ 0.10787468737097748
EM@@ 0.33185916236627316
Maur@@ 0.10905674682153015
Pier@@ 0.1767340152464585
Spirit 0.33649052465880797
agr@@ 0.07948855036662134
ancia 0.09552797999770607
cia 0.19825723816491922
works 0.026575731110370884
εκπαίδευ@@ 1
1725 0.8092184063292694
89@@ 0.7886037934931873
Eric 0.135065583636127
Ruby 0.6370861238807057
Sophie 0.27926398830374183
active 0.04081965936436131
alb@@ 0.06364673557055935
cape 0.14118302665546054
very 0.01719910277835834
.S. 0.25535352303112463
911 0.9063893606469121
CR 0.2823409410872644
FL 0.11649235381537015
Flash 0.4717867919713749
Ki@@ 0.07803715417220752
Lat@@ 0.08695065472138795
Pel@@ 0.11447548591723321
Wik@@ 0.5193309140747644
Zero 0.4347401180589553
Zi@@ 0.09102904295419342
dale 0.1341977055271557
esa 0.044831875176064094
hal@@ 0.030790936023102938
imi 0.1531642791489223
ité 0.019080297395192024
ond 0.06691580434661965
1702 0.8593657654590385
1752 0.7236045889374229
244 1
Floyd 0.445082540160026
Rol@@ 0.1031640534742557
Rush 0.4980827770380849
sk 0.08340794684207803
à@@ 0.3891631319981868
ὁ@@ 1
1668 0.9701771869544201
285 0.9284622286532608
30,@@ 0.5867115475566208
Christopher 0.1595584698003531
Davis 0.09611899581346743
Ele@@ 0.16283114386931774
Fur@@ 0.08214786908749687
Honda 0.3758893433139674
Perf@@ 0.462051121354128
Scor@@ 0.2621949058154056
kel 0.07527674925856766
oke 0.07628092605258624
1739 0.7974107101666034
190@@ 0.380511360119073
242 0.8880239464829387
245 0.8574578355433847
HTML 0.9519426436686876
IB@@ 0.3233453341856911
Jim 0.10690360676557344
anta 0.1501362917047731
osh 0.3399748699564204
sch 0.04740905141368141
table 0.06506033568177642
za@@ 0.23833902596595205
1686 0.9656440870457437
Fall 0.1186029644144372
Got@@ 0.088586452527131
Kas@@ 0.07626271074527191
Roger 0.11425239225534171
Vis@@ 0.09663827535126449
app@@ 0.05108280548452288
lig@@ 0.0374998195333106
mit 0.002381136576805034
én@@ 0.03161081058997086
207 0.7521593164885856
219 0.8763186290401065
251 0.9202202420788975
322 1
AI 0.31014798291702855
EA 0.37110838483177294
Eas@@ 0.1998027735480243
Haz@@ 0.21758672713569177
PR 0.25353717348945626
cre@@ 0.020511605062154478
esti@@ 0.04961614055893481
kom@@ 0.045711032125451426
О@@ 0.01489466480628943
Ἰ@@ 1
Christmas 0.13938379291158792
Extr@@ 0.2117226343602149
Kap@@ 0.09131125738139781
Sat@@ 0.11525495333435677
Tu 0.5163507726606248
Vie@@ 0.16806030626703714
ery 0.0691103439991773
hol@@ 0.033747178982000414
orth@@ 0.2427691977913288
ries 0.19321362448320006
self 0.056363673536569216
ster@@ 0.041476394513565724
uss@@ 0.055618896274559584
yan@@ 0.11304147608449734
έντο@@ 1
ακολ@@ 1
א@@ 1
1556 1
174 0.7319686689147193
Power@@ 0.3934641614826982
fol@@ 0.052308839631615735
four 0.013518941497914817
orio 0.1169724090424117
poem 0.15104490969754197
tical 0.0375687960301559
ump@@ 0.04850147416798486
urn 0.1878709539845541
εκα 1
1676 0.898913891409558
1744 0.7513052402690765
31.@@ 1
425 1
Beach 0.10100135216348
Conference 0.07276864634025305
Der@@ 0.07906941294760315
Garden 0.1684045917870764
Lic@@ 0.20749742995398576
Mind 0.4790537186115513
SPD 0.20227747681614006
Sierra 0.15590968940580846
Wind 0.28587469729436177
ames 0.09679289999813652
eli 0.11235584356760335
has@@ 0.12677453999172464
oa 0.07959464996916146
rom@@ 0.04054390232487316
uth 0.10457260623705755
vic@@ 0.04602675414717643
й 0.011947031470878972
ὡ@@ 1
1636 0.909288049147161
1749 0.766135870922601
184@@ 0.6409372588130164
331 1
737 0.712358191246829
98@@ 0.6968433447240724
Atlas 0.36701387438877614
Brian 0.11696320114516011
CT@@ 0.3385304146282795
Grace 0.24932673420908896
Kos@@ 0.15549668104585074
Viol@@ 0.18181518713422146
Vista 0.48874118604330574
dom 0.1121375544867635
fal@@ 0.05655930662038186
ites 0.03659351820306026
khe@@ 0.25786606679425794
ά. 1
1535 1
1733 0.7946991288373584
191 0.7639004727976668
246 0.9956561239295129
Flo@@ 0.2173970351662281
Forever 0.5952507715800196
Lincoln 0.12217485191125703
Metacritic 0.43075221122679874
States 0.01210863140339841
Tas@@ 0.1074455000671033
atum 0.16576841795911565
opus 0.32824383196039664
post 0.041375690294655876
rell 0.19772987765299774
tal@@ 0.03942111716843414
ust@@ 0.07630688310515177
315 0.9891325916799513
Bang 0.41673032674327876
Def@@ 0.2803567269260248
Hir@@ 0.08352130500026547
Imag@@ 0.2876219926862398
Kids 0.3936884191391052
Palace 0.16496226915270898
SL 0.3599824195771583
Sak@@ 0.12268262588594168
Sant 0.3846320826323462
Social 0.08978050923808556
pres@@ 0.02566115239417957
two 0.00479276996956842
32.@@ 0.6430135116765344
Af@@ 0.13961969635607843
LED 0.6917749081082212
Lon@@ 0.17863837001313657
Mart@@ 0.14326200344507145
UF@@ 0.560957337743073
ancing 0.11420895298194327
idi@@ 0.06659348022997759
ique 0.033941381523320595
kol@@ 0.11350749649346639
ome@@ 0.14541379210096395
onic 0.12364645006207767
test 0.06006904537530649
ush 0.12295631786797992
─ 0.21635630628482327
.C. 0.25146350752826097
1727 0.7314814461829091
3.0 0.5729988916695049
336 1
660 1
Cit@@ 0.2551923578392036
Eul@@ 0.38585187043653363
Kl@@ 0.05144560687818683
Systems 0.18407798774120346
Un 0.030242746051482965
VO@@ 0.4873820446373258
aves 0.054564656292021924
dio 0.0653729112522583
pen@@ 0.027672474963191494
sons 0.06054708279523103
279 1
313 1
333 0.8947462319366648
Core 0.5829506385922577
IV@@ 0.4352143024046362
Jane 0.1431023890042734
Order 0.08088330154416536
Pav@@ 0.12874449263248527
Slam 0.38363179692527116
clip 0.4190320726658079
1678 0.8588332645892088
1719 0.8080224815172248
1724 0.7726262703683768
1726 0.8589880372085258
1734 0.7739120991183811
228 0.8580988556586902
4- 1
49,@@ 0.8192720210502078
Libr@@ 0.33175163950306136
ature 0.08389405481677888
bie 0.12080072022530705
dor@@ 0.05708686186727639
ein@@ 0.00963815817087267
wen@@ 0.0620594762562713
αποφάσι@@ 1
Bask@@ 0.3863619762306308
Bra@@ 0.1641429126875609
Comp@@ 0.14797245055836655
Dest@@ 0.27313882908683823
Rub@@ 0.14147490028026052
wal@@ 0.04080364488110145
wiki 1
yg@@ 0.10383193015288943
ü@@ 0.022749738668197298
281 1
334 1
34,@@ 0.5881057764210555
37,@@ 0.6702464798067289
415 1
Frederick 0.1354063322967799
Ka@@ 0.11161420119586254
Living 0.36519160453792326
True 0.4391790253343175
Yor@@ 0.1916832435008043
aph@@ 0.11409637087298974
bun@@ 0.15415155888499904
dance 0.09842695160296434
edia 0.3252856472016777
fa 0.15326153401286258
lip 0.1508285592214277
1756 0.5728697565996294
284 1
Data 0.2849674465888894
How@@ 0.1739665372742767
UL@@ 0.6226170807710956
Wii 0.5972942954777765
Ze@@ 0.08163905577760969
rit@@ 0.037244845133754964
ū 0.17567970287635346
Angels 0.3705033274106494
Ble@@ 0.1797567907961228
Chev@@ 0.22739834559509522
Coll@@ 0.17087399808708342
County 0.013800690315571544
Kaz@@ 0.15268436009918798
Kingdom 0.05223283849408876
LS 0.4618744122848036
Planet 0.38487957304934
adi 0.1272297285634863
begin 0.12467062876803782
design 0.036512148312228904
na@@ 0.10946198592120392
rix 0.6589758223608119
vi 0.13517391978590312
τεο 1
0,000 0.08253803477197025
311 0.9980218903239508
Eyes 0.5381358365525826
Historia 0.06409942030813695
K.@@ 0.43794521341979914
PP 0.34389634606870567
Tab@@ 0.08445760190573376
aries 0.04658599682688739
bers 0.06549890827982802
bis 0.005369269366242583
group 0.015560721407959041
ili 0.11841569097459445
ort 0.05803186864748293
pic 0.1656905582459334
евич 0.07564921784329846
რ@@ 1
1728 0.7987262632822052
BR@@ 0.4133229157173083
Capital 0.17217494753226006
Clarke 0.2765067668463828
Devil 0.4147939793701782
HBO 0.47004268464587134
Madonna 0.28835962240723656
Nas@@ 0.1633529271724224
O.@@ 0.3471934040103218
Sciences 0.10528401995678645
cal 0.09492014936414539
mart@@ 0.2908785970515453
poli 0.36351885805104417
thi@@ 0.07209854636719353
ἴ@@ 1
Berlin 0.02569584759731073
Che@@ 0.14202553595539325
Highway 0.08036278601200582
Hot@@ 0.1580058700044853
Johannes 0.11471104400200897
KO 0.36155824437121403
Key@@ 0.18047178520879129
Name 0.05411777225783878
Nick 0.15772147687767837
Ring 0.22451174275227928
Sir@@ 0.14418497049926926
Techn@@ 0.0959854923171061
Urban 0.22849652104545212
cli@@ 0.05356986073226163
dium 0.15637262442266772
ici 0.13525266580783207
lot 0.05676109161972743
org 0.37878688838670066
sh 0.11629372091619934
1732 0.7600568774327859
231 0.8052290708966384
268 1
47,@@ 0.8846742335319473
Das 0.008642164295061334
Georges 0.12403499048654815
Night@@ 0.44795800473165526
Studies 0.1263164771457611
car 0.025203089844468205
kon@@ 0.029248248516422798
lev@@ 0.08180963627135966
wn 0.053244565368271816
αυαρ@@ 1
253 0.912298158186013
265 0.8009011674966041
405 1
A1 0.3668506292791206
Alex 0.1329512455161872
Bed@@ 0.08020962459569804
CI 0.32606277680011536
Mobile 0.26012338850083694
Port 0.08408680599512616
Ry@@ 0.12810701400706853
Silver 0.17876058770943973
Single 0.1626158331372922
anne 0.1092375211924076
fire 0.04520945448890903
itz@@ 0.06307747443359331
lands 0.04789308802679493
law 0.02523306159512149
ple@@ 0.046655007545603054
polis 0.15973200416657415
pul@@ 0.041487319879525225
ying 0.02511249795959581
κατεύ@@ 1
293 1
308 0.890987464874621
354 1
Bac@@ 0.17161429695120303
Books 0.20923275452111167
Boston 0.06190457547231408
CW 0.5397186938290524
Franc@@ 0.13385199810813206
Health 0.08057389899320636
Mess@@ 0.12066790561100477
Valent@@ 0.24471024911589961
Wright 0.1615467733963387
ark@@ 0.04927977771264534
power 0.027154694029346567
υργκ 1
50,@@ 0.776517883204944
Dod@@ 0.16664724407870038
Ferr@@ 0.13999898546167788
Freedom 0.2230549583684773
Ghost 0.428320866101154
Lind@@ 0.10570508541065896
Nak@@ 0.14923146948832353
aker 0.07734685186918532
ères 0.029989424463473045
έπρ@@ 1
ιδρ@@ 1
κτρ@@ 1
1.6 0.4224242360847324
214 0.6684769037440328
Aeg@@ 0.5502800969446728
MO 0.534358237901392
Mam@@ 0.17788995795069962
ational 0.043036206292258274
ear@@ 0.03498581263251573
eno 0.09038318190798209
ide@@ 0.05666773883167981
iens 0.2867981215490392
urn@@ 0.07254994352708195
vil@@ 0.11079521159307248
239 0.9352659810838668
255 0.7455018689798939
About 0.13632683430991377
Andrea 0.22415856878185902
Blin@@ 0.3355791724772366
Class@@ 0.15673743880280078
Face 0.3643296352877864
Max@@ 0.1933120664176561
Mercury 0.35579874640429654
Villa 0.10284604418257716
come 0.043317633950345005
esi 0.06779744249241412
mond 0.11234139489676227
nic@@ 0.20982423183202303
Dame 0.1270160089473651
Emer@@ 0.12439806772847428
You@@ 0.40959082093642185
fre@@ 0.030509344797495376
nor@@ 0.035491500754816045
solo 0.03213809775242747
span 0.1873605526469476
tier 0.056674687177300044
Συνήθ@@ 1
ר@@ 1
ー@@ 1
1729 0.7948875350999315
302 0.8219373526888627
At 0.015545662165050642
Bruce 0.14092264760673895
Jay 0.19487265874614979
Pet@@ 0.1426948805021283
Voy@@ 0.3616867526927064
atio 0.454829125748315
cep@@ 0.09622342900743495
cis 0.6041209228741784
itor 0.09872723741230657
lad@@ 0.060201168191795155
к 0.00517156570344137
1738 0.7488910358866874
32,@@ 0.6715055354519899
Cha@@ 0.22658458677880472
Giuseppe 0.2872660721994884
Les@@ 0.1031870869025844
aking 0.093209346848025
aut 0.055625645652654064
ayer 0.1690145717079385
eti@@ 0.04886358959467779
inda 0.25433854976755327
ous@@ 0.08410969023363248
pes 0.08275777361466713
progres@@ 0.10908062510010172
stone 0.04767218091031717
ties 0.017858841484429556
under 0.008721329946791692
ე@@ 1
261 0.9607110300132844
Bad@@ 0.08207285253256837
Domin@@ 0.09343474697570027
Fair 0.25115657950365555
Hun@@ 0.11422495268137733
Lap@@ 0.23263675157179578
Ross 0.1368944991198305
isti@@ 0.053077957459297484
ji@@ 0.12845834364525954
life 0.011627412223593368
1712 0.7850905078468616
173 0.6452299945653495
286 0.9064023350976288
760 1
Classic 0.19793268218947718
GP 0.26912778746616006
Hus@@ 0.10960257177496176
Independent 0.14401928786884857
María 0.06553592013070468
TR@@ 0.38480138890685617
Ten 0.17512678558783593
ashi 0.16197503460693785
att 0.1704699251459578
dig@@ 0.055209015853721045
uld 0.17279547737326525
venture 0.12415985582418786
1747 0.654822956494987
182 0.5791809419958599
272 0.9446774891601447
283 1
Conn@@ 0.10171183268608418
ET@@ 0.3329983272596572
Log@@ 0.14474088914186914
SmackDown 0.5547125892444791
amar@@ 0.20046280290028587
chen 0.024247795712076085
cros@@ 0.061821607548064574
dit 0.036339108587109856
emp@@ 0.03751705984922498
gers 0.11375190060308824
ising 0.0607332638032655
mb@@ 0.08025931188812566
other 0.005718291990253682
system 0.01659063406689992
unc@@ 0.03219394581839716
xi@@ 0.10021101747533696
Ş@@ 0.14305884637335137
յ@@ 1
1722 0.6970968833747657
86@@ 0.6169022660044755
Europ@@ 0.08666271692465488
Hits 0.3543359143083501
IT 0.19693622120685442
Mayer 0.3899650122026084
Micro@@ 0.21702775536326457
Morris 0.1722172214436806
Tat@@ 0.14977295593012177
ects 0.036947547300550124
iri 0.13315032707042987
ku 0.16938908949018508
try 0.044397382545649636
Ελισ@@ 1
295 0.8485355341763258
Crim@@ 0.1422317761265834
Fon@@ 0.10759795994516726
Fort@@ 0.1860901455390026
Too 0.5205867280252957
ho 0.158207487341686
onna 0.35651005782018336
Ελλάδ@@ 1
262 0.7979623236435798
304 0.869396236958893
Beat 0.43963675484167636
Coc@@ 0.20163376573882721
Ec@@ 0.1286399425093173
Fem@@ 0.13261040121191747
Monte 0.16915926511948662
Pass@@ 0.09112932171866377
Pom@@ 0.13650982630887964
Roy 0.14293921349839087
Sev@@ 0.2524647337875128
any 0.01566724015419294
asa 0.09493131187614895
club 0.012103653284109058
cs 0.05938444971120929
ec 0.1787990363807199
ece 0.11351626901130757
log 0.38561420897516796
orn 0.1286758250750722
rd 0.20189851107760712
yi 0.11027078440326202
001 0.4827816158510479
332 1
34.@@ 0.5907960997953896
BW@@ 0.4395276693498426
Born 0.09319546260530329
CDU 0.2377132042267852
CM@@ 0.2790531443749704
Cant@@ 0.12815000284232925
DOS 0.4913270243486365
Encyclo@@ 0.47170792503520687
Future 0.24110413634076927
Hello 0.6458936496468314
Mach@@ 0.10181886491788002
RN 0.485156083618238
Tek@@ 0.3597288020696626
Total 0.30120755507113045
Um@@ 0.03506419903131142
Wars 0.20529586155012108
acle 0.16451795619637932
ager 0.06035792435900297
arti@@ 0.10807740770449305
dex 0.3290762225013315
igo 0.15860863488933738
pat@@ 0.032995432625516664
ures 0.04347894667480096
ż@@ 0.3370682279050396
πρεσ@@ 1
ви@@ 0.015772345442997708
AK 0.3957930206592197
AK@@ 0.29236647526402376
Benjamin 0.13475677814055448
Claude 0.11728733070321401
Happy 0.3658732999937752
Number 0.3884895549606625
Peace 0.17806815499548567
RN@@ 0.3731350273297744
Stur@@ 0.16598222724734307
Yah@@ 0.34848218405483017
han 0.030747993063038194
iva 0.14420131803726635
jo@@ 0.0594172988765837
min 0.11196429205240982
yond 0.41716542601123
ò@@ 0.663207274654061
Legend 0.44330992475441827
PN 0.25483879585308794
See 0.08174918822553144
Uri@@ 0.6381062800779251
Wid@@ 0.24925337842728415
aca 0.08622594208242745
eni 0.12421732690846654
les@@ 0.03767593859680958
ographic 0.12693102211131396
olls 0.22236354341522285
var 0.16350069157066374
ár@@ 0.06845815567465652
1731 0.7757467091606831
EST 0.6746560120304318
Information 0.14954080509389372
Kath@@ 0.08312987119467066
Pyth@@ 0.4896752461566399
Vul@@ 0.21221971546541318
acks 0.09054646964567305
eck@@ 0.04758435278496665
nier 0.09100600667686327
πρεμι@@ 1
1.2 0.3296134217726742
213 0.7030215395309395
226 0.7892521307909361
326 1
Cass@@ 0.16168456679487947
Crown 0.1702601443215743
Education 0.04748260319340539
Fut@@ 0.18546381371033732
Gran@@ 0.10355651691976744
Liberty 0.2732866793347294
MiG 0.7385942299581745
Rab@@ 0.08589618918204275
illo 0.06760173597066639
lan 0.08849465276812779
lem 0.11540333292844973
tion@@ 0.03937090748545306
tory 0.1345469953485923
в 0.0006768284608865066
ὕ@@ 1
243 0.8529711462865446
356 1
Call 0.3184848989205786
Dark@@ 0.38937286534016213
Electronic 0.4017704798184485
Gener@@ 0.08991429904785672
Instagram 0.5813802179507351
MB 0.3826676475937757
Masters 0.17611290174159436
Patrick 0.09264648402165872
Publ@@ 0.11493961814321661
Soc@@ 0.22104720754593363
Village 0.12803790263555817
Was@@ 0.17226535780309568
alls 0.0954470468488971
ective 0.03996814152221199
ester 0.053984493631593494
gal@@ 0.05530127370908895
sem@@ 0.0464638762016317
sig@@ 0.02886325806744097
343 1
Naz@@ 0.151517885299324
Philip 0.11649094915342123
Teleg@@ 0.3772918125572128
Wan@@ 0.33102356312203174
cell@@ 0.0917941726556045
emb@@ 0.026072755656814446
itar 0.24296740626723898
ological 0.02974463696401666
pri@@ 0.04295304616731548
tera 0.1177922001130801
tle 0.09806447569478839
uk 0.10417705643257877
в@@ 0.009646886530717547
Antoine 0.15335679330408591
Bridge 0.08723526445399996
Fili@@ 0.11914519771558393
Hughes 0.23163751883450567
Iz@@ 0.2156406965363413
Jagu@@ 0.4200203642472481
Las@@ 0.16415266061237183
Philosoph@@ 0.1910193464658284
Pokémon 0.532103932319874
RCA 0.4494061069674035
Trust 0.14126778501669035
ground 0.041661158341622706
oi 0.11949923472126618
punk 0.1983117288221141
sim@@ 0.057806414621502884
tura 0.08156078190962988
uta 0.11102410614694723
var@@ 0.058247863677241524
yan 0.08946473171217888
AFC 0.27081163980933914
Itali@@ 0.14121304782438107
Jimmy 0.136910743392747
Mom@@ 0.1912601268444221
Pad@@ 0.08030391719658016
Som@@ 0.09502678362754727
Stop 0.49113924296353156
Turner 0.1775864877836846
oyo 1
shire 0.060132081535514956
ui 0.1240337264157362
ი 1
1.1 0.3593348514157138
386 1
620 1
DD 0.48222916197209503
Delta 0.21233340617035923
Motor@@ 0.12714148781792112
Roman 0.03750486199167073
SMS 0.6522726879674482
Spr@@ 0.09424886153951963
aeus 0.39519240291880803
amo@@ 0.08557984288800209
illing 0.10305937226182392
isi 0.07867972027202581
oir 0.05839944082354137
watch 0.19533963651074734
264 0.7240973410991456
BB 0.30546372014439094
Bran@@ 0.1106882119789672
Chr@@ 0.18336311003886865
Dy@@ 0.14475818300324747
Eagle 0.285091851951134
French 0.01939503807723232
GO 0.3671720756136478
Julius 0.1873934289425124
L. 0.07429766776196163
Nicolas 0.13115340572584525
Russell 0.13438150606720933
Samsung 0.47562229368528197
bin 0.09048138567298267
ont 0.010246835883271072
return 0.03916197880328368
xe 0.05674465101838298
är@@ 0.025480966510788253
δεκαετ@@ 1
ва 0.019025798740455856
с@@ 0.009175277028950072
ὄ@@ 1
ὶ@@ 1
Bernard 0.10901112908484964
Emin@@ 0.7409911241771291
Kid 0.36945408404820845
Lav@@ 0.11504284280938734
Lex@@ 0.22990821150141194
Louise 0.16604392999964196
Port@@ 0.26068352433568653
Sound@@ 0.45435299733821516
UP 0.37780819518365794
Vincent 0.13496641166322215
apo@@ 0.04322112448073231
dri@@ 0.050001396142896545
enta 0.043513853425551134
fo 0.1253534655833309
kan@@ 0.046401035413856206
pper 0.1877545366555383
sm@@ 0.07841128031499685
ton@@ 0.04700631403471215
229 0.805277209179061
249 0.8413508237834074
406 1
Allen 0.10885716355474709
May 0.01166091646871242
Pacific 0.055303260872067085
Rein@@ 0.10342426219660387
Sport@@ 0.07476790115947927
XI 0.15899264304661193
ces 0.017182601347861905
deg@@ 0.2778345012981813
get 0.03666568182847228
iles 0.055407233775117325
ott 0.10332396888583947
tom@@ 0.030109969448738658
া@@ 1
288 0.9091945996218613
314 1
46,@@ 0.7921837697959215
96@@ 0.7294472560096947
97@@ 0.7961848903802965
CNN 0.47786724272067393
Grim@@ 0.17756297334301666
High@@ 0.1030987622465865
alen 0.05307048330671877
into 0.005339626928818142
mis@@ 0.021396671918637266
scale 0.0869732945516052
ues 0.03501133283014985
Πελοπ@@ 1
1.0 0.42784955734410535
309 0.8993805793717653
Albums 0.17025150808353445
B. 0.031787023514395864
GO@@ 0.3006191930539145
If 0.05502581851604655
Kings 0.18912058952355074
Our 0.17191902136795248
Proc@@ 0.1865561409587768
She 0.00832725295311297
Texas 0.03588624190061741
UT@@ 0.4204496950987722
ails 0.11793446075708357
anim@@ 0.05739514325261509
bal 0.0820647498907946
board 0.03695294577373387
imb@@ 0.11844721559720714
onder@@ 0.16858843653216357
qua 0.06142408843360826
rel@@ 0.016041641277922878
tres 0.019995618613470097
wer 0.04620470090538456
ò 0.21523778334683155
ɛ@@ 1
Ϊ@@ 1
3.5 0.26956080001671934
Committee 0.04565224213576434
Gordon 0.1123200746579384
Guide 0.2735961009721766
Pac@@ 0.21992026195285896
Republic 0.043508898927714854
Water@@ 0.12239696702974091
Zo@@ 0.15462211061405223
eine 0.0030457691515729545
ij@@ 0.13696815613618157
inal 0.04338583160584733
lon 0.13477707955801335
mot@@ 0.036880043209722706
ont@@ 0.08345813573733275
ords 0.07482440428469547
point 0.018902543851243944
uck@@ 0.38575211086865885
ń@@ 0.2587860187483122
ργαν@@ 1
787 1
Adri@@ 0.15890600352448825
Boh@@ 0.10561180121797173
Explorer 0.4030873423394654
Kevin 0.12191158678763266
Lan@@ 0.09653590402431918
Parad@@ 0.30608274873518404
Psych@@ 0.1269369455700378
Script 0.6356425562220516
prim@@ 0.04338183249839119
ré@@ 0.008798396340133576
sec@@ 0.02311963755316667
ulus 0.2294567706673352
ye@@ 0.06957604836608955
273 0.9401196448044331
Gh@@ 0.1104577884177868
IR@@ 0.2508019316901442
Jav@@ 0.2870339894856405
Ka 0.545070373548601
Pedro 0.0709283805908759
Prom@@ 0.1543414801191283
Tiger 0.2752225104764471
XP 0.7389551306443818
asse 0.062359524853399094
etus 0.35453681929321396
max 0.4060823251127953
Ντέιβ@@ 1
316 0.9900214923237762
Cent@@ 0.14427143226487146
Gau@@ 0.09770133529128203
Harvard 0.11213789107385976
Las 0.022471155357191682
Margaret 0.12195312165716483
Olympic 0.07983627287333725
aa 0.16571913987001308
aks 0.07353328527250867
bot 0.09090583127634665
ency 0.03986578716527755
eva 0.10824453685295166
iki@@ 0.5256688752999682
lar 0.03070279091911333
sin 0.027093941402147624
sit@@ 0.03798179460741301
sor@@ 0.03388706135753887
tari 0.35353898632709846
value 0.0726900809927767
к@@ 0.011540633549153094
45,@@ 0.7593717371062325
Adolf 0.14833442952208448
Africa 0.04022834226401361
Cinema 0.32660240818734126
Flor@@ 0.10934043087844489
Gul@@ 0.15414093380489677
Know 0.4428695661255603
Ner@@ 0.16633350058069213
Online 0.20482520637374826
SD@@ 0.26178646277256207
Tokyo 0.09669771008296617
Triple 0.24310377256294127
osis 0.07761440473985687
uf@@ 0.04731971547143253
uli 0.24040849633150402
194 0.6620101123587576
252 0.7697069033625423
345 0.979332603723503
André 0.1001584611554902
Audi@@ 0.1482456888188059
Aus@@ 0.012330128587154736
Barr@@ 0.10926699658025056
Bio@@ 0.4385087321195953
Fir@@ 0.11054459056812355
Geor@@ 0.08492658013256264
Leb@@ 0.1288225562893304
Oil 0.3004903727602682
Today 0.1049760375795531
ave@@ 0.12479034622648302
ban@@ 0.036952546662294763
ete 0.03652884888915574
geh@@ 0.04762205194832196
raph 0.24705866721431158
room 0.0433728729172179
vit@@ 0.09990740933998156
õ@@ 0.3078267097135582
267 0.9046424672053783
Ach@@ 0.08645239401128621
Alb@@ 0.12964109899666748
Batman 0.29267941910774986
Bug@@ 0.2262822119715312
Cand@@ 0.21474842465456243
Dal@@ 0.08530466323732756
GE 0.3261383861031013
KV@@ 0.5802196407532971
LE 0.4277279071895345
Make 0.44802572142543867
Mother 0.2520912672633883
Reich@@ 0.0660820352769353
Ses@@ 0.199281957008048
Stand@@ 0.0758613903630278
band 0.015545857669151711
hit 0.04880863481273559
illi@@ 0.09360123008061268
inae 0.1531209231169949
ling@@ 0.0975687340405442
nom@@ 0.051773595131606
ord 0.07038474717889266
site 0.0180160120057269
som@@ 0.05713929423477082
ów 0.08592567575928331
248 0.8371890109976273
282 0.9362261870399148
299 0.9763526267199013
CL 0.3808043761610635
DM 0.2501741581042101
Hann@@ 0.34046772411586457
Hit@@ 0.14328952450057025
Kauf@@ 0.15420025361379447
Leon@@ 0.1461137924662079
Ryan 0.12124951448807077
Tommy 0.2107432037530754
achi 0.1782988454340071
ame@@ 0.08987348660462746
code 0.06621837919205076
ken@@ 0.03791857070540648
pour 0.003052800662651605
επαγγελ@@ 1
р 0.013888163508621479
254 0.720384232318165
298 1
401 0.7776658393321818
BE 0.2512559361083072
BT@@ 0.37060793886027205
Barbara 0.13514074384009903
Bros. 0.35710093029903944
Gaga 0.7340940822664317
Mg@@ 1
Mi 0.2914620594676862
Ni 0.5542986539151029
Phys@@ 0.11662642017910058
Spir@@ 0.18871187373526477
ben@@ 0.03745551408022893
bin@@ 0.04986128661126792
blog@@ 0.5391061924244519
ends 0.03700007421867907
kin@@ 0.07622935794233743
rier 0.08659421558366302
án@@ 0.055052595064158966
1705 0.7019013924523878
Arg@@ 0.12750348664736122
Broadway 0.12078743590548044
By 0.02575661979777553
Dawn 0.3996671885971044
Enter@@ 0.2999611663482173
Lot@@ 0.1487368458892633
Manuel 0.07263499299164222
Ot@@ 0.09062577362629747
PF 0.5502599571913557
SF 0.3695108653184325
Ten@@ 0.10216686373836872
dre@@ 0.038217456372644884
ll 0.2143877728406841
pas@@ 0.023486640584495632
town 0.013527105460476531
И@@ 0.015822469128849912
6000 0.4226985184540103
Bush 0.15492277850268987
Kle@@ 0.07751794379971502
President 0.027745673050554837
Satell@@ 0.3096196686540005
Universit@@ 0.23523326632128014
Wiz@@ 0.42083067550958314
acia 0.1220339019890952
acker 0.15276749616985866
aco 0.09010991440506828
ague 0.1121054250091163
asi 0.13993710525707825
ason 0.16039581320139873
bol@@ 0.061780535498578065
ender 0.03830125460009855
endi 0.2772765637974279
ering 0.030831537893424202
evi@@ 0.14837373755774247
ities 0.04813662893723183
kur@@ 0.05035511575827672
ouv@@ 0.05186540524577382
sters 0.17383310570741883
έδια 1
247 0.8251478577445446
Cli@@ 0.16243864137579636
Infin@@ 0.4389320792059376
Jazz 0.10892618183385892
Kaw@@ 0.287504424218088
Papa 0.35816608441272085
Quer@@ 0.18954586273510093
SW@@ 0.2471988343996021
Sunday 0.10530906972581382
esh 0.13637256012708732
ine@@ 0.06138046696529911
like 0.014010783262427442
mil@@ 0.04417393506890912
put 0.030789777864116238
sequ@@ 0.05812860929961996
status 0.0572573886252894
ulu 0.13139354483360619
uni@@ 0.0266313118117945
usa 0.07468932670170453
ɾ@@ 1
л@@ 0.013868074250661819
н 0.01070565314222636
44,@@ 0.761497117466742
Community 0.08913157891187537
DI@@ 0.3727475718354748
Dave 0.13170185150845906
Eye 0.3547801504950068
Fi 0.44484830181176255
Generation 0.200107145748112
Knight 0.1568882435244619
Son 0.03155451086574522
Sv@@ 0.25175615153777453
bot@@ 0.04767092554485541
esc@@ 0.03961383355020567
ingo 0.18705876968495289
my@@ 0.059455306021560884
this 0.003971376723929003
tum 0.1231361652640344
257 0.8334300842810727
258 0.8484813581722102
287 0.8612064576948728
317 1
Christ@@ 0.08877761281868504
Christi@@ 0.114340180960492
Jar@@ 0.10725536894525126
Justice 0.07287498993137922
Mut@@ 0.13114231218338587
Rand@@ 0.12250262602720222
Rep@@ 0.19503981303864232
SQL 0.7219361081151422
Vas@@ 0.1200934134086288
aqu@@ 0.047401004799567076
comp@@ 0.021209335344078418
fil@@ 0.037034037639748704
nd@@ 0.08169574329295765
nis 0.05271688634290745
tering 0.19502018663766238
wa@@ 0.06546207570333551
ía 0.009030945334760485
ław 0.2083407221086403
δαβ@@ 1
--@@ 0.5556561424679333
94@@ 0.9417573170621625
Bar 0.15283611424571264
CM 0.3235396849246784
Court 0.03197745167855226
Donald 0.09655529630300581
FF@@ 0.2433421203798348
Gustav 0.17582516739382092
Hey@@ 0.2073938897533194
Institut 0.07168316498772395
Shin@@ 0.19361810263098728
View 0.3452590521951454
Youth 0.11732771318382199
cat 0.22638476736383853
emy 0.35679189693085334
pedia 0.3739239932488258
que@@ 0.0660213049419616
è 0.2824548105799682
289 0.9888416450497342
Cat 0.3347193316511507
Fort 0.055054936185520785
Hof@@ 0.08970679768784168
Link 0.3164830988049512
S. 0.04878292565312555
Vision 0.3027809928225987
aine 0.03655153734529807
cho@@ 0.05048389332171097
sap@@ 0.2982958274594775
ven 0.04156633458080346
Ali 0.0757418663231555
Another 0.06622465303431328
Dé@@ 0.051970038369805495
England 0.019544598984655142
Flying 0.2621528253986555
Hein@@ 0.18503468820374985
ID@@ 0.4503233509667223
Mathemati@@ 0.15981674669530163
Nord@@ 0.03800795778493019
Oper@@ 0.06072056744360095
PE 0.4447709169545701
Pan 0.16201413385273672
Speed 0.35702939592973126
Sultan 0.16307302717994007
Train 0.3147463121421113
UI 0.5637382437887934
ben 0.02451904207209095
enni@@ 0.09923686312471618
ental 0.043217930234992916
esh@@ 0.06822484540343898
ision 0.07767436883145898
lif@@ 0.09883223348023494
mos 0.17337288217089014
oug@@ 0.07768502093758574
tre@@ 0.026189426636427978
unds 0.047586960745203924
ín 0.04311462053867618
В@@ 0.018283427999963846
294 0.991078186673919
Boul@@ 0.1453399689146452
Gallery 0.12314129235093373
Inc. 0.09777692715148413
Jour@@ 0.33438631050679196
Kel@@ 0.09311663998241478
Ny@@ 0.1531715236089735
Pietro 0.32433520309498415
ca@@ 0.09987498756025154
cent@@ 0.039823658620866224
dh@@ 0.08387381751900455
gel@@ 0.018127003923882664
tra@@ 0.0444810902909169
zer 0.06704601467172538
ù 0.3553659431805603
ş@@ 0.06324883411372263
ωματού@@ 1
о 0.009475148322369552
API 0.4696635649911904
Beautiful 0.42092833893833276
Flam@@ 0.16550293671656366
GPS 0.5075386441773521
Neu@@ 0.04887292776058632
SK 0.22529775246607894
Seg@@ 0.07244486682346964
Through 0.15752436299617217
Trou@@ 0.33783864810039754
aye 0.10537622925438038
beat 0.10184334118552586
feld 0.045633745901529736
fu@@ 0.04066999408306157
gro@@ 0.03283004511286425
ned 0.03722579213912533
tha 0.11370620345532237
vis 0.11052116270773703
1.3 0.3581837004128293
Army 0.02378088974844362
Baker 0.14649301513543658
Bundes@@ 0.03525426497044097
Meth@@ 0.11751577282957372
Mode 0.3980911153899488
Nord 0.04332567852705824
Tin@@ 0.1899141999016356
U.@@ 0.19954845730103998
Vamp@@ 0.397723766157471
Western 0.03193108156641954
bat 0.0760108470467229
err@@ 0.041618197265928907
ion@@ 0.07630188779538565
oud 0.10331736212553144
vie 0.03465200380071191
ü 0.09343556079916952
я 0.010564029237433136
ლ@@ 1
A2 0.4433906847198496
Anderson 0.0964945828200021
Castle 0.08030798852260865
Factory 0.322690310711719
Gabriel 0.11573831117066741
Lau@@ 0.08207662201568626
Lloyd 0.16288714337825527
Sant@@ 0.11083867054969482
Spec@@ 0.16998081799082715
Stand 0.0680897568429636
Ster@@ 0.10229467073179803
egr@@ 0.08071811301848539
eria 0.10368480118519595
league 0.029181324361270116
pic@@ 0.04670151853556931
rie 0.09358495664012233
ry@@ 0.1505185101750006
sort 0.07981494268815757
tam@@ 0.07629052854672418
ule 0.04542338152755488
öl@@ 0.043056341671099896
όρερ 1
1. 0.0232700517845206
[...]
