۔ 1
کے 1
میں 1
، 1
کی 1
ہے 1
اور 1
سے 1
کا 1
اس 1
نے 1
پر 1
کو 1
ایک 1
ہیں 1
) 0.926534296546432
( 0.9076007321614309
. 0.1642016251050433
جو 1
ان 1
کیا 1
یہ 1
کہ 1
تھا 1
&quot; 0.3397989974714869
واقع 1
بھی 1
کر 1
و 1
وہ 1
تھے 1
@-@ 0.4039811317611658
لیے 1
گیا 1
یا 1
بعد 1
: 1
جس 1
ہو 1
آبادی 1
ک@@ 1
بن 1
تھی 1
ساتھ 1
نہیں 1
مجموعی 1
افراد 1
کرنے 1
پ@@ 1
گ@@ 1
ی@@ 1
; 1
وں 1
تک 1
دیا 1
اپنے 1
تفصیلات 1
مشتمل 1
&amp; 1
طور 1
کاؤنٹی 1
جاتا 1
ہوئے 1
تو 1
ہ@@ 1
ہی 1
س@@ 1
ہ 1
آپ 1
ن@@ 1
پاکستان 1
ڈ@@ 1
و@@ 1
دی 1
چ@@ 1
ہوا 1
نام 1
سی@@ 1
متحدہ 1
ب@@ 1
بی@@ 1
ج@@ 1
ے 1
ٹ@@ 1
شہر 1
ر@@ 1
می@@ 1
نہ 1
م@@ 1
ل@@ 1
اللہ 1
گئے 1
ای@@ 1
زیادہ 1
ضلع 1
امریکا 1
ز@@ 1
د@@ 1
انہوں 1
اپنی 1
ان@@ 1
علاقہ 1
سطح 1
ری@@ 1
ریاستہائے 1
جب 1
شپ 1
گئی 1
ش@@ 1
آ@@ 1
میٹر 1
حاصل 1
دو 1
س 1
محمد 1
ٹ 1
لیکن 1
کرتے 1
لی@@ 1
مربع 1
ار@@ 1
رقبہ 1
ہوئی 1
ٹاؤن 1
ا 1
پی@@ 1
ک 1
کی@@ 1
بہت 1
بلندی 1
سب 1
کیلومیٹر 1
تی 1
سی 1
اسے 1
سال 1
وی@@ 1
وقت 1
ف@@ 1
کر@@ 1
کہا 1
ی 1
رو@@ 1
بر@@ 1
م 1
را@@ 1
پہلے 1
ہونے 1
ح@@ 1
شامل 1
ہوتا 1
ڈ 1
والے 1
کچھ 1
ن 1
/ 1
کسی 1
ا@@ 1
نی@@ 1
لے 1
رہے 1
gt 1
من@@ 1
خان 1
lt 1
ل 1
ائی 1
لا@@ 1
وجہ 1
ت@@ 1
یں 1
اسی 1
ری 1
کو@@ 1
لی 1
جن 1
آباد 1
ق@@ 1
طرح 1
ز 1
جنگ 1
‘ 1
حکومت 1
ت 1
نا 1
ش 1
رہائشی 1
خ@@ 1
علی 1
کام 1
تا 1
لا 1
ِ 1
مو@@ 1
کھ@@ 1
اس@@ 1
ال@@ 1
لو@@ 1
انی 1
طرف 1
سو 1
دے 1
ر 1
ڈی@@ 1
ہی@@ 1
دور 1
پر@@ 1
شی@@ 1
سمندر 1
اب 1
ام@@ 1
ہر 1
کوئی 1
ع@@ 1
خلاف 1
او@@ 1
لیا 1
شاہ 1
دی@@ 1
ور@@ 1
کم 1
ٹی@@ 1
حضرت 1
ٹی 1
نی 1
ون 1
استعمال 1
وا@@ 1
زبان 1
فلم 1
’ 0.7519840210329642
انہیں 1
غ@@ 1
بی 1
تعلیم 1
بھارت 1
ہو@@ 1
ین 1
مطابق 1
شروع 1
صوبہ 1
پیدا 1
رہا 1
والی 1
زندگی 1
وی 1
ص@@ 1
با@@ 1
تے 1
پھر 1
بھ@@ 1
اور@@ 1
ور 1
ہم 1
تھیں 1
تمام 1
سر@@ 1
دوران 1
اب@@ 1
جی@@ 1
دار 1
نا@@ 1
عام 1
مقام 1
صرف 1
گا 1
ملک 1
کرکٹ 1
ق 1
مع@@ 1
مشہور 1
رہ 1
انہ 1
لئے 1
کتاب 1
یہاں 1
مر@@ 1
ات 1
سو@@ 1
غیر 1
کیے 1
کئی 1
تین 1
نگ 1
ھ 1
ہوتی 1
پیش 1
خود 1
فی@@ 1
جہاں 1
تھ@@ 1
بے 1
ط@@ 1
اے 1
کرنا 1
کرتا 1
لوگوں 1
ون@@ 1
یوں 1
ڈی 1
مختلف 1
نگ@@ 1
اسلام 1
عبد 1
موجود 1
تاریخ 1
دہ 1
ار 1
د 1
ف 1
حصہ 1
جاتی 1
ب 1
&#124; 1
امام 1
سن 1
دنیا 1
عمر 1
چی@@ 1
جا 1
بات 1
فرانسیسی 1
جائے 1
گی@@ 1
قائم 1
را 1
دوسرے 1
اہم 1
اک@@ 1
پہلی 1
- 0.7300210920029023
چھ@@ 1
ابن 1
آف 1
پور 1
سینٹ 1
در@@ 1
ہوائی 1
احمد 1
دونوں 1
سن@@ 1
ریاست 1
اں 1
تی@@ 1
اد@@ 1
نو@@ 1
وفات 1
&#93; 1
لینڈ 1
کار 1
اری 1
پی 1
الدین 1
دریا 1
می 1
جانے 1
بین 1
دھ@@ 1
اردو 1
جنوبی 1
&#91; 1
سر 1
ئ@@ 1
دن 1
علاوہ 1
فی 1
یعنی 1
ہزار 1
ائے 1
سٹ@@ 1
زی@@ 1
بڑے 1
فہرست 1
ہوں 1
of 0.04374332538338753
؛ 1
مش@@ 1
کار@@ 1
ج 1
بار 1
&apos; 0.3953567042061659
دو@@ 1
پاس 1
جی 1
گی 1
فوج 1
دیگر 1
بو@@ 1
گ 1
کس 1
رہی 1
ال 1
علیہ 1
اش@@ 1
تر@@ 1
سلطنت 1
یونیورسٹی 1
سید 1
اگر 1
جیسے 1
اسٹیشن 1
اف@@ 1
بڑا 1
لوگ 1
فر@@ 1
بڑی 1
ہندوستان 1
ست@@ 1
ایران 1
علم 1
انے 1
گر@@ 1
ي 1
ہوتے 1
جبکہ 1
پ 1
, 0.010300164503761594
ابو 1
جو@@ 1
ھ@@ 1
خاندان 1
کل 1
گھ@@ 1
صدی 1
خواتین 1
اڈا 1
ك@@ 1
ول 1
ائ@@ 1
5@@ 1
بن@@ 1
ول@@ 1
ٹن 1
ریلوے 1
دوسری 1
قومی 1
شمالی 1
وری 1
ء 1
لہ 1
4@@ 1
مگر 1
ي@@ 1
ما@@ 1
ٹر 1
خاص 1
6@@ 1
جاری 1
صدر 1
اپنا 1
تر 1
جھ@@ 1
مغربی 1
کن@@ 1
بیان 1
بارے 1
جاتے 1
هٔ 1
گو@@ 1
تو@@ 1
عدد 1
گن 1
پنجاب 1
عمل 1
مح@@ 1
ابتدائی 1
درمیان 1
آئی 1
8@@ 1
اتی 1
9@@ 1
بنا 1
ذ@@ 1
تعلق 1
چار 1
ٹیسٹ 1
ام 1
جسے 1
آغاز 1
فرانس 1
7@@ 1
والا 1
کرتی 1
تاہم 1
ث@@ 1
والد 1
مان@@ 1
نیو 1
علاقے 1
2 0.4928366784297662
حسین 1
نظر 1
مہ 1
3@@ 1
کردار 1
کالج 1
بہ@@ 1
الاقوامی 1
گھر 1
تعمیر 1
امریکی 1
سکتا 1
انا 1
شن 1
گاؤں 1
سیاسی 1
ٹیم 1
مس@@ 1
ڑ@@ 1
گے 1
آر@@ 1
چ 1
ع 1
1 0.4136255235223462
ند@@ 1
ما 1
عرب 1
تعداد 1
پو@@ 1
وا 1
– 0.297641965905705
انگریزی 1
چین 1
صاحب 1
بار@@ 1
جگہ 1
ممالک 1
شادی 1
مسجد 1
ڑ 1
پیدائش 1
کیونکہ 1
شیخ 1
مسلم 1
اج@@ 1
مکمل 1
مل@@ 1
توں 1
مار@@ 1
کہتے 1
اسلامی 1
3 0.5310244513883555
“ 0.45781776298372984
قریب 1
لاہور 1
بد@@ 1
ذریعہ 1
وزیر 1
دین 1
وس@@ 1
مل 1
ائی@@ 1
حیثیت 1
من 1
ۃ 1
ات@@ 1
یونین 1
اسٹ@@ 1
بہ 1
رین 1
رے 1
شی 1
قبل 1
عربی 1
مشرقی 1
مین 1
سلطان 1
کا@@ 1
مولانا 1
کل@@ 1
مدد 1
قدیم 1
آئے 1
ۂ 1
تا@@ 1
اع@@ 1
ٹا 1
یر 1
جن@@ 1
روں 1
ٹھ@@ 1
زمین 1
الینوائے 1
رکھا 1
ایس 1
قتل 1
مت@@ 1
نظام 1
عظیم 1
ؓ 1
ٹر@@ 1
رات 1
شائع 1
فرمایا 1
حملہ 1
نو 1
نڈ@@ 1
نس 1
20 0.9648714818206956
وہاں 1
” 1
الی 1
مہ@@ 1
اپ@@ 1
بلکہ 1
علاقوں 1
ہر@@ 1
واپس 1
ِ@@ 1
آیا 1
ذکر 1
اختیار 1
بعض 1
نک@@ 1
ختم 1
بل@@ 1
تحریک 1
4 0.5448562226785235
فتح 1
بنایا 1
میچ 1
شخص 1
یو@@ 1
فوجی 1
است@@ 1
قرآن 1
سل@@ 1
الی@@ 1
مد@@ 1
وس 1
ویں 1
اگ@@ 1
دینے 1
ض@@ 1
پہلا 1
اعظم 1
پھ@@ 1
کوشش 1
ادا 1
تقسیم 1
سک@@ 1
ں 1
مزید 1
برطانوی 1
جان 1
پاکستانی 1
ایم 1
رسول 1
چو@@ 1
انھوں 1
رنز 1
مج@@ 1
انگ@@ 1
5 0.6048760023421226
جانب 1
ٹس 1
وغیرہ 1
لکھا 1
اہل 1
آخری 1
خدمات 1
تع@@ 1
اق@@ 1
حسن 1
جان@@ 1
اسکول 1
تیار 1
نس@@ 1
لوں 1
الم@@ 1
کاونٹی 1
بھائی 1
مارچ 1
ولی 1
ترکی 1
پانی 1
پانچ 1
كاونٹي 1
كاؤنٹي 1
اح@@ 1
مک@@ 1
جمہوریہ 1
بولا 1
یت 1
10 0.646568050133503
ترین 1
قرار 1
آج 1
خ 1
چند 1
فل@@ 1
دل 1
دا@@ 1
6 0.6126695718254441
این 1
بنیاد 1
انجام 1
ایسے 1
ئی 1
کن 1
از 1
ئے 1
روس 1
قسم 1
سم@@ 1
وم@@ 1
کبھی 1
خیال 1
کراچی 1
مسلمانوں 1
خدا 1
زی 1
از@@ 1
پرو@@ 1
ترقی 1
دان 1
موجودہ 1
مرکزی 1
شمار 1
لو 1
متعلق 1
حق 1
ئر 1
عالم 1
5ء 1
دیتے 1
تم 1
الح@@ 1
وار 1
کونسل 1
آزاد 1
کلی@@ 1
تحت 1
مینیسوٹا 1
چھ 1
سندھ 1
حدیث 1
مت 1
بادشاہ 1
نٹ 1
عالمی 1
ایسا 1
آزادی 1
کرکے 1
بنیادی 1
ذیل 1
اگست 1
موت 1
شر@@ 1
مقامی 1
قیام 1
سلسلہ 1
ٹو@@ 1
متعدد 1
وب@@ 1
گروپ 1
پارٹی 1
سرکاری 1
ادب 1
انڈیانا 1
اد 1
سا 1
ند 1
رکھنے 1
کرو@@ 1
ڑا 1
قانون 1
رکھتے 1
جنوری 1
سفر 1
آخر 1
ظاہر 1
ارہ 1
سنگھ 1
حکم 1
سکتے 1
مشی 1
اصل 1
بر 1
سٹ 1
2ء 1
زیر 1
پوری 1
تق@@ 1
ہند 1
اکتوبر 1
13@@ 1
میر 1
مسلمان 1
دسمبر 1
ستان 1
قبضہ 1
سین 1
دوبارہ 1
یل 1
8 0.6540103471820328
جون 1
جر@@ 1
انتخابات 1
ابی 1
قی@@ 1
4ء 1
آئ@@ 1
مئی 1
ذریعے 1
بیٹے 1
کافی 1
ہاتھ 1
فن 1
قابل 1
اعلان 1
کیں 1
7 0.6211164711539546
بنائے 1
داری 1
جدید 1
1ء 1
ستمبر 1
برا@@ 1
وار@@ 1
کری@@ 1
شمال 1
انوں 1
رکن 1
سپ@@ 1
تیں 1
چی 1
گئیں 1
اہ@@ 1
قوم 1
9 0.7206843089971702
بھارتی 1
وال@@ 1
جولائی 1
ري@@ 1
فری@@ 1
درجہ 1
صورت 1
جانا 1
ح 1
ٹری@@ 1
دس 1
نومبر 1
دہلی 1
ے@@ 1
12 0.6990542001085926
لاطینی 1
منتخب 1
آسٹریلیا 1
ملا 1
15 0.7745844696484038
بہترین 1
سامنے 1
6ء 1
9ء 1
مذہبی 1
وج@@ 1
عوامی 1
کیریئر 1
لفظ 1
شام 1
گری@@ 1
اکثر 1
جرمنی 1
لندن 1
198@@ 1
وت@@ 1
آنے 1
اول 1
بنانے 1
منٹ 1
نوں 1
ہار@@ 1
ؤ 1
اسمبلی 1
سا@@ 1
نج@@ 1
دار@@ 1
کان@@ 1
شکست 1
یم 1
ایسی 1
ڈاکٹر 1
جنوب 1
عبد@@ 1
دیں 1
روسی 1
اپریل 1
نش@@ 1
اروں 1
ڑی 1
فارسی 1
انتقال 1
گر 1
اثر 1
برطانیہ 1
رام 1
7ء 1
بطور 1
تن@@ 1
؟ 1
دا 1
ڈا 1
کریں 1
8ء 1
ٹو 1
آ 1
سوویت 1
فروری 1
مقرر 1
تقریباً 1
جامعہ 1
ه@@ 1
کرے 1
نڈ 1
جات 1
تحصیل 1
عل@@ 1
اون@@ 1
اٹھ@@ 1
جنرل 1
قبول 1
سکے 1
کامیاب 1
رائے 1
مص@@ 1
موں 1
ایڈ@@ 1
نئی 1
مال@@ 1
بند 1
عی@@ 1
ہا 1
ط 1
000 1
تاریخی 1
کاری 1
دہائی 1
11 0.7596364347114791
ڑے 1
دیکھا 1
پسند 1
گو 1
عہد 1
رو 1
14@@ 1
یات 1
ٹاون 1
بچوں 1
امیر 1
شاعری 1
روایت 1
ولی@@ 1
19 0.9035265600777261
ہوئیں 1
چنانچہ 1
السلام 1
کش@@ 1
لائ@@ 1
خانہ 1
15@@ 1
حالات 1
مرکز 1
شریف 1
14 0.841785643842336
لگ@@ 1
شاعر 1
ریہ 1
بری@@ 1
مذہب 1
اتے 1
پار@@ 1
انگ 1
آئیووا 1
ترک 1
صلی 1
پری@@ 1
ڈھ@@ 1
َ@@ 1
اندر 1
جے 1
جماعت 1
مار 1
شکل 1
بھر 1
سیاست 1
غلام 1
چھوٹا 1
نتیجے 1
197@@ 1
بنی 1
ّ@@ 1
کنساس 1
12@@ 1
ملی 1
موقع 1
نز 1
مشرق 1
3ء 1
رنگ 1
فیصد 1
اسرائیل 1
اي@@ 1
انداز 1
فٹ 1
_ 0.7567771206027575
اص@@ 1
میری 1
افغانستان 1
معلوم 1
قصبہ 1
حال 1
10@@ 1
نئے 1
او 1
چکے 1
کردہ 1
ظ@@ 1
الگ 1
شدہ 1
حصے 1
اِس 1
رہ@@ 1
الہ 1
تاکہ 1
اگرچہ 1
یہی 1
گاہ 1
16 0.766374848980592
یو 1
مب@@ 1
30 0.7269910707811635
کلومیٹر 1
سب@@ 1
18 0.6961821471882756
درج 1
ص 1
قہ 1
دریائے 1
انسان 1
کور@@ 1
داخل 1
تھ 1
لیگ 1
25 0.8237506554797783
اُس 1
فیصلہ 1
پڑا 1
پا 1
در 1
نمبر 1
انسانی 1
ہندو 1
13 0.8120498364121436
اوہائیو 1
پائی 1
وق@@ 1
ترجمہ 1
حد 1
حی@@ 1
علامت 1
حقوق 1
کردیا 1
نیا 1
بل 1
آر 1
مي@@ 1
سات 1
مز@@ 1
ُ@@ 1
فہ 1
ٰ 1
سان@@ 1
مصر 1
زر@@ 1
خواجہ 1
جواب 1
رب@@ 1
َ 1
مان 1
مر 1
فراہم 1
پہ@@ 1
ك 1
دیے 1
ایل 1
17 0.8110675244134392
والوں 1
جمع 1
کتب 1
رکھی 1
نار@@ 1
ہندوستانی 1
باہر 1
196@@ 1
پور@@ 1
کرا@@ 1
مقصد 1
0@@ 1
طی@@ 1
لڑ@@ 1
ندی 1
اُن 1
معروف 1
کمپنی 1
ایا 1
پھی@@ 1
نٹ@@ 1
اداکارہ 1
ادی 1
میل 1
زمانے 1
195@@ 1
وسلم 1
مراد 1
شاہی 1
وي@@ 1
ویل 1
ادارہ 1
سابق 1
لگا 1
سان 1
شہ@@ 1
راج 1
اجازت 1
تم@@ 1
محل 1
دوسرا 1
باوجود 1
ڈو@@ 1
سیریز 1
پس 1
مور@@ 1
وسطی 1
16@@ 1
کیوں 1
ثابت 1
قلعہ 1
مرتبہ 1
اط@@ 1
تشکیل 1
تش@@ 1
وم 1
حمایت 1
اُ@@ 1
عوام 1
17@@ 1
اتحاد 1
مون@@ 1
باقی 1
تنظیم 1
واشنگٹن 1
ڈے 1
حملے 1
چھوڑ 1
وز@@ 1
ضرورت 1
شا@@ 1
برائے 1
ہونا 1
بغیر 1
اسک@@ 1
تعلیمی 1
نق@@ 1
مغرب 1
فیلڈ 1
تیس 1
جل@@ 1
زمانہ 1
یہودی 1
ين@@ 1
مدینہ 1
بند@@ 1
خی@@ 1
ﷺ 1
منتقل 1
مست@@ 1
مقابلہ 1
کیلیفورنیا 1
الع@@ 1
قر@@ 1
وال 1
ﺎ@@ 1
الب@@ 1
سکتی 1
سمجھا 1
علامہ 1
کشمیر 1
دیتا 1
انگلینڈ 1
انڈ@@ 1
تح@@ 1
کمیون 1
با 1
خدمت 1
بول@@ 1
فت 1
ہائی 1
سٹی@@ 1
.@@ 0.8945556565249253
شن@@ 1
الفاظ 1
2@@ 1
ﺍ@@ 1
کھیل 1
کھلاڑی 1
سری 1
مق@@ 1
1,@@ 1
حالت 1
بال@@ 1
Saint 0.8664508396605094
193@@ 1
روز 1
گا@@ 1
سائ@@ 1
کس@@ 1
خلافت 1
اء 1
باز 1
شو@@ 1
پاک 1
جڑواں 1
24 0.79469115968039
بغاوت 1
چلے 1
اعلیٰ 1
ماں 1
رس@@ 1
نماز 1
واں 1
فلموں 1
بری 1
وان 1
لین 1
! 0.942555395595436
دست@@ 1
میرے 1
19@@ 1
0ء 1
مف@@ 1
نام@@ 1
وف@@ 1
اتا 1
ڈن 1
آگے 1
خط@@ 1
ؤ@@ 1
یورپ 1
چھوٹے 1
ٹری 1
ناول 1
سينٹ 1
نر 1
ٹیلی 1
علوم 1
فار@@ 1
غ 1
ایف 1
افواج 1
اولاد 1
بڑھ@@ 1
حلقہ 1
22 0.8567126105108113
جلد 1
معنی 1
تعلقات 1
حوالے 1
میدان 1
چکی 1
ژ@@ 1
گرا@@ 1
ْ@@ 1
ایوارڈ 1
طاقت 1
21 0.7859149252279316
تربیت 1
سنہ 1
ہوگا 1
یاں 1
ائیں 1
کامیابی 1
سماجی 1
رہتے 1
سخت 1
تبدیل 1
نسل 1
رہنے 1
متاثر 1
کول@@ 1
خاتون 1
= 0.8390955820681884
دیکھ 1
امن 1
23 0.8820101677953499
انتہائی 1
نہایت 1
رت 1
پنسلوانیا 1
اِ@@ 1
ولادت 1
پولینڈ 1
جرمن 1
نظ@@ 1
سائنس 1
اضافہ 1
نور 1
ادبی 1
مصنف 1
باعث 1
نامی 1
كي 1
گڑھ 1
سہ 1
وے 1
حقیقت 1
نقل 1
جنہوں 1
الق@@ 1
مملکت 1
وطن 1
کہانی 1
تص@@ 1
امی@@ 1
رن 1
صف@@ 1
عثمانی 1
پڑ@@ 1
کہ@@ 1
ہدایت 1
برو@@ 1
نیشنل 1
انی@@ 1
بتایا 1
ود 1
لینے 1
واقعہ 1
انھیں 1
the 0.007146859422090662
باب 1
ذیلی 1
کپ 1
بلند 1
علمی 1
گل 1
قیادت 1
گور@@ 1
T@@ 0.18308464458973916
الن@@ 1
موسیقی 1
بان@@ 1
لال 1
ائر 1
کلاس 1
جیسا 1
چونکہ 1
بندی 1
لگے 1
تہ@@ 1
گنتی 1
مثال 1
194@@ 1
خط 1
کٹ 1
یاد 1
ہلاک 1
محبت 1
چینی 1
بانی 1
وسیع 1
مالک 1
ارا 1
ڈر 1
الت@@ 1
سعودی 1
مابین 1
بیٹی 1
ولا 1
انڈیا 1
عی 1
Canton 1
عراق 1
نامہ 1
منظر 1
واقعات 1
لاکھ 1
فو@@ 1
28 0.8950773843732918
خو@@ 1
روزہ 1
محمود 1
بت 1
حوالہ 1
شک@@ 1
جا@@ 1
ئن 1
مہم 1
27 0.9042591982250325
اقبال 1
پہنچ 1
اک 1
نما 1
قدر 1
بنگلہ 1
اعزاز 1
ای 1
دیش 1
کوں 1
مختار 1
لس 1
الج@@ 1
بنے 1
نگر 1
برگ 1
مسائل 1
ویسٹ 1
شریک 1
مجھے 1
اضلاع 1
26 0.8969671375337763
ئی@@ 1
فق@@ 1
کٹ@@ 1
پورے 1
جارجیا 1
بت@@ 1
تسلیم 1
کال@@ 1
تب@@ 1
مال 1
ماہ 1
انس@@ 1
مکہ 1
پردیش 1
عددی 1
طویل 1
کون@@ 1
شہروں 1
جار@@ 1
نبی 1
صی@@ 1
بجائے 1
ورلڈ 1
جزیرہ 1
ارے 1
جائیں 1
ایرانی 1
ہسپانوی 1
واضح 1
تقریبا 1
ميں 1
سردار 1
پیر 1
چاہیے 1
ذمہ 1
ؒ 1
گرد 1
افریقہ 1
وک 1
کلام 1
قبیلہ 1
ٹیکساس 1
لکھی 1
پل 1
عباس 1
اف 1
ہندی 1
لحاظ 1
شاہ@@ 1
مے 1
عہ 1
ى 1
چل 1
نظاموں 1
لان@@ 1
آل 1
گز@@ 1
نگار 1
شہری 1
پولیس 1
انتخاب 1
وو@@ 1
اخ@@ 1
پایا 1
شکار 1
انات 1
چلا 1
ٹل 1
بلحاظ 1
خلیفہ 1
مقابلے 1
سام@@ 1
والدہ 1
ونی 1
مقبول 1
آٹھ 1
اسٹی@@ 1
ٹے 1
تحریر 1
اینڈ 1
نمایاں 1
پڑھ@@ 1
کینیڈا 1
اہمیت 1
e 0.1794063745946304
فرسٹ 1
کتابیں 1
نوا@@ 1
چکا 1
جاپان 1
قی 1
ملکی 1
محفوظ 1
لز 1
دان@@ 1
علما 1
لیں 1
تج@@ 1
3,@@ 1
توجہ 1
لي@@ 1
مز 1
اقوام 1
ریا 1
یورپی 1
رکھتا 1
مضامین 1
صوبے 1
ریکارڈ 1
مسیح 1
وادی 1
29 0.9191038870920822
مطلب 1
فلمی 1
گروہ 1
بیعت 1
حکمران 1
192@@ 1
ڈگری 1
نیز 1
رہیں 1
ائل 1
ایشیا 1
وسکونسن 1
كي@@ 1
ملا@@ 1
1@@ 1
بہتر 1
مقامات 1
نور@@ 1
ابھی 1
لڑائی 1
صحیح 1
County 0.6989397922608189
فورڈ 1
مخصوص 1
حیات 1
یون@@ 1
بچے 1
لائی 1
سنگ@@ 1
آتا 1
گورنر 1
پیمانے 1
-@@ 0.9807531499607886
تحقیق 1
شیعہ 1
عت 1
ہمیشہ 1
دل@@ 1
غز@@ 1
تف@@ 1
کردی 1
زبانوں 1
معاہدے 1
ہجرت 1
بنائی 1
لکھ@@ 1
سٹر 1
اکی@@ 1
موسم 1
بیٹا 1
2018 0.47792027437196427
ريلوے 1
گار@@ 1
جسم 1
ابراہیم 1
اظہار 1
بچ@@ 1
یوسف 1
بیس 1
گرو@@ 1
کان 1
مجموعہ 1
ماہر 1
چھوٹی 1
داد 1
آتے 1
بلا@@ 1
وائ@@ 1
اسٹيشن 1
کام@@ 1
پورا 1
اوسط 1
ضروری 1
شہرت 1
مط@@ 1
صحت 1
عم@@ 1
ائن 1
عمارت 1
انکار 1
ٹھ 1
ممتاز 1
بلے 1
ذاتی 1
معاہدہ 1
صح@@ 1
گول@@ 1
آب@@ 1
تھی@@ 1
ث 1
الا 1
لائن 1
پہاڑ 1
لر 1
ني@@ 1
رون 1
یارک 1
نواب 1
کنٹرول 1
سمیت 1
0 0.6136099754993715
طر@@ 1
ٹوں 1
چر 1
بال 1
پیچھے 1
معلومات 1
چیز 1
مختصر 1
نتیجہ 1
رار 1
عیسوی 1
قانونی 1
مانی 1
طریقہ 1
كے 1
مرا@@ 1
پروگرام 1
رائ@@ 1
کاروں 1
وف 1
ء@@ 1
ورجینیا 1
مبنی 1
تباہ 1
دولت 1
شخصیت 1
زہ 1
in 0.010234470002754866
روڈ 1
یس 1
ران 1
ڈز 1
زندہ 1
دگی 1
يا 1
پنجابی 1
حر@@ 1
رس 1
جنگی 1
اقتدار 1
یونانی 1
بي@@ 1
بیوی 1
جہاز 1
کہیں 1
خان@@ 1
آیت 1
انقلاب 1
چل@@ 1
دوں 1
کتابوں 1
جہ@@ 1
ثقافت 1
پہنچ@@ 1
میاں 1
باپ 1
سارے 1
واحد 1
ڈو 1
وجود 1
وٹ 1
برس 1
نصف 1
انعام 1
کھیلے 1
District 1
بع@@ 1
طالب 1
پن 1
سعید 1
دورہ 1
عبداللہ 1
عرصہ 1
بینک 1
شہید 1
اؤ 1
نسب 1
ریاستوں 1
اؤں 1
نک 1
ﮐ@@ 1
سلسلے 1
ٰ@@ 1
لان 1
حافظ 1
آواز 1
لیک 1
پورٹ 1
عرصے 1
ہاں 1
روانہ 1
شا 1
ایچ 1
سي@@ 1
وَ@@ 1
کشی 1
ملین 1
ونگ 1
عر@@ 1
تصور 1
سٹی 1
روم 1
طرز 1
ملتا 1
محکمہ 1
ندہ 1
ين 1
ادی@@ 1
جر 1
بیت 1
جہ 1
پرا@@ 1
کین 1
پک@@ 1
پارک 1
اوپر 1
شرح 1
لکھتے 1
پروفیسر 1
ست 1
بڑھ 1
نز@@ 1
پہنچا 1
مندرجہ 1
ونا 1
کھیلا 1
50 0.7614108814577041
راست 1
کریم 1
بننے 1
الحکومت 1
دوم 1
عورت 1
مطالعہ 1
الو@@ 1
زور 1
شرکت 1
نم@@ 1
مپ@@ 1
نیٹ 1
ملے 1
منصوبہ 1
ویب 1
یک 1
مرزا 1
زوں 1
نیوزی 1
فرماتے 1
چک 1
في@@ 1
لنکا 1
بھیجا 1
چار@@ 1
تار@@ 1
ہویں 1
بھی@@ 1
لایا 1
نمائندگی 1
ہمارے 1
وکٹیں 1
کمی 1
اخبار 1
ادہ 1
اداکار 1
ڑوں 1
تلاش 1
ئ 1
سیزن 1
لار@@ 1
الش@@ 1
بخش 1
لوک 1
معاشی 1
چا 1
داروں 1
اصطلاح 1
رک@@ 1
پائے 1
امور 1
نجی 1
ُ 1
حصوں 1
ٹک 1
سربراہ 1
جاسکتا 1
جنسی 1
تخ@@ 1
دہ@@ 1
مدرسہ 1
ابتدا 1
بوں 1
ٰی 1
تک@@ 1
دریافت 1
شے 1
انتظام 1
ثقافتی 1
سامنا 1
الس@@ 1
قبائل 1
پال 1
روایات 1
فضل 1
کہنا 1
چر@@ 1
کت@@ 1
كو@@ 1
نقصان 1
استاد 1
خر@@ 1
ؤں 1
ہند@@ 1
حل 1
خبر 1
ہیپلو 1
وت 1
اؤ@@ 1
تخت 1
علی@@ 1
اپ 1
مشترکہ 1
شدید 1
تجارت 1
خصوصی 1
40 0.8072262340147167
رہتا 1
زائد 1
سبب 1
امریکہ 1
مرد 1
گل@@ 1
2019 0.4355294336835173
پول@@ 1
آدمی 1
سنت 1
الف@@ 1
روایتی 1
ممکن 1
مالی 1
چہ 1
100 0.5794346023917343
رز 1
العلوم 1
میہ 1
عہدے 1
سالوں 1
الر@@ 1
ترتیب 1
لگایا 1
2,@@ 1
اتر 1
مخ@@ 1
رج@@ 1
عملی 1
تہ 1
عثمان 1
درس 1
فقہ 1
ازاں 1
اٹ@@ 1
31 0.8252198862585368
ادارے 1
جوا@@ 1
مجبور 1
آن 1
ﻣ@@ 1
ارت 1
سنبھ@@ 1
وو 1
دیر 1
اکبر 1
کوٹ 1
اری@@ 1
ہا@@ 1
ﻮ@@ 1
برقرار 1
زا 1
بیشتر 1
تس@@ 1
کیرولائنا 1
سہ@@ 1
رح@@ 1
ویژن 1
راستہ 1
قب@@ 1
سلا@@ 1
سون@@ 1
% 0.1300393561832769
سیوں 1
شہنشاہ 1
قاضی 1
انیہ 1
ض 1
ناکام 1
تشدد 1
عدالت 1
چے 1
ریل 1
میر@@ 1
بدھ 1
قید 1
ورا@@ 1
اگلے 1
صوبائی 1
اننگز 1
ریت 1
شیر 1
دری@@ 1
2013 0.3714538425824033
مضبوط 1
وسی 1
گرفتار 1
18@@ 1
پیشہ 1
خون 1
کمیونٹی 1
خت@@ 1
طے 1
شت 1
سال@@ 1
مات 1
بلوچستان 1
فت@@ 1
تیز 1
ایہ 1
فر 1
وسط 1
ns 0.8880787916897653
دینا 1
ذات 1
کرکٹر 1
رضا 1
نظم 1
ه 1
رہنما 1
کلا@@ 1
ازی 1
تجارتی 1
model 1
اعلی 1
دہشت 1
کرو 1
زم 1
قت 1
پہنچے 1
تعریف 1
رکھ 1
کمیٹی 1
َّ@@ 1
قص@@ 1
لڈ 1
کنارے 1
حالانکہ 1
مخالف 1
مض@@ 1
انٹرنیشنل 1
format 1
بہار 1
contributor 1
timestamp 1
سور@@ 1
مغل 1
وابستہ 1
کوڈ 1
گن@@ 1
فوجیوں 1
ہاتھوں 1
رک 1
تھو@@ 1
عب@@ 1
فرا@@ 1
مند 1
جیت 1
مشکل 1
راستے 1
کھی@@ 1
زمرہ 1
موضوع 1
نان@@ 1
‌ 1
کانگریس 1
لکھے 1
اق 1
روشنی 1
تفسیر 1
بش@@ 1
پتہ 1
کلب 1
ہجری 1
قل@@ 1
اہ 1
گان 1
حکمرانی 1
ملاقات 1
راہ 1
غی@@ 1
سنی 1
وہی 1
مسوری 1
ود@@ 1
نظریہ 1
زے 1
مستقل 1
نیو@@ 1
سل 1
لت 1
username 1
طلبہ 1
رم 1
190@@ 1
بہن 1
سرحد 1
ﮯ 1
حی 1
بنگال 1
br 1
نامزد 1
کوس@@ 1
مث@@ 1
ندر 1
فیض 1
موسیٰ 1
اث@@ 1
رکھتی 1
لگ 1
راجا 1
شعبہ 1
الص@@ 1
لیل 1
ٹنگ 1
4.@@ 1
خوش 1
کش 1
سابقہ 1
حیدرآباد 1
عطا 1
کشن 1
تبدیلی 1
ہری 1
ہار 1
دع@@ 1
دیتی 1
رضی 1
کٹر 1
باغ 1
نیچے 1
پن@@ 1
اند@@ 1
ابھ@@ 1
دور@@ 1
میچوں 1
نوازا 1
برابر 1
ہوگئے 1
محدود 1
ائیوں 1
سکا 1
بحیرہ 1
جنہیں 1
اختتام 1
انیوں 1
بیر 1
بارہ 1
پناہ 1
دنوں 1
نج 1
نائ@@ 1
راج@@ 1
اعداد 1
ویل@@ 1
اباد 1
h 0.2933977309349608
4,@@ 1
خیبر 1
دینی 1
میڈیا 1
ورا 1
وڈ 1
باد 1
زن 1
یافتہ 1
مبارک 1
امی 1
مری@@ 1
فائ@@ 1
نسبت 1
انتظامی 1
سزا 1
منعقد 1
نت@@ 1
ئر@@ 1
دری 1
ہوکر 1
یمن 1
تیہ 1
تعالیٰ 1
ائي 1
دوست 1
مزار 1
گیند 1
میرا 1
الے 1
ساری 1
ں@@ 1
بلدیہ 1
سوی@@ 1
اوی@@ 1
آن@@ 1
بور@@ 1
2018ء 1
mtDNA 1
دم 1
نزدیک 1
انگلستان 1
آئین 1
بالکل 1
بنت 1
خطے 1
and 0.009076025822964844
جھیل 1
ماد@@ 1
فلسطین 1
معمولی 1
لہذا 1
سلیمان 1
مخالفت 1
اٹ 1
لہ@@ 1
آب 1
دفاع 1
قط@@ 1
خد@@ 1
آتی 1
2.@@ 1
2015 0.3261561962558041
وز 1
مندر 1
تن 1
2013ء 1
كا 1
مغ@@ 1
چلی 1
comment 1
بورڈ 1
20@@ 1
بیرونی 1
لائے 1
2014 0.31810499484686355
فرق 1
کون 1
خود@@ 1
ارکان 1
تنقید 1
5.@@ 1
سین@@ 1
ملتان 1
لن@@ 1
دعوت 1
جامع 1
کمال 1
سکی 1
بازی 1
تصنیف 1
تل@@ 1
مدت 1
حاضر 1
نڈر 1
بیگم 1
ﯽ 1
بخ@@ 1
وکٹ 1
خوش@@ 1
کم@@ 1
آبشار 1
الزام 1
بازار 1
اداکاری 1
ستی 1
اختلاف 1
دفتر 1
روک 1
کری 1
اشاعت 1
وان@@ 1
لانے 1
پان@@ 1
اداروں 1
انت@@ 1
مجلس 1
کارکردگی 1
وش@@ 1
سعد 1
ثانی 1
حامل 1
اوقات 1
اصول 1
خوا@@ 1
پرست 1
رش@@ 1
مثلاً 1
نف@@ 1
اورا@@ 1
تیسری 1
مقدس 1
جاپانی 1
سورج 1
ملتی 1
بحری 1
شماری 1
وزارت 1
199@@ 1
مدر@@ 1
سنگ 1
مول@@ 1
نہ@@ 1
عبادت 1
منی 1
تعاون 1
یے 1
ذ 1
تب 1
Gmina 1
پابندی 1
ساز 1
وح@@ 1
1.@@ 1
لقب 1
روز@@ 1
شخصیات 1
حضور 1
۱@@ 1
6.@@ 1
جنھوں 1
سٹن 1
اندازہ 1
ذرائع 1
کھا 1
اکثریت 1
پہ 1
پیداوار 1
اعتبار 1
مضمون 1
محسوس 1
0.@@ 1
بح@@ 1
خیر 1
formula 0.39701369018235827
الل@@ 1
کثیر 1
فروغ 1
لشکر 1
منسلک 1
فض@@ 1
بو 1
ین@@ 1
کوریا 1
فری 1
Q@@ 0.7396840829061669
قوت 1
خطاب 1
اقسام 1
مفتی 1
چھو@@ 1
آمد 1
اڑ@@ 1
جیسی 1
تخلیق 1
جنگ@@ 1
سائٹ 1
بزرگ 1
ولا@@ 1
مَ@@ 1
فیصل 1
لیتے 1
عد@@ 1
میوں 1
قول 1
حقیقی 1
لاس 1
چیف 1
شوہر 1
2008 0.3018307955158552
ـ 1
نائب 1
لات 1
مطالبہ 1
7.@@ 1
رہتی 1
زر 1
مری 1
parentid 1
دشمن 1
جزائر 1
جنس 1
فکر 1
60 0.8504213290525203
سکھ 1
موا@@ 1
اوائل 1
ریاستی 1
سج@@ 1
تذکرہ 1
شہ 1
ملازمت 1
ووڈ 1
ہوگی 1
ریوں 1
انگریزوں 1
x 0.374204366727236
درخواست 1
کے@@ 1
نيو 1
ڈراما 1
قاب@@ 1
مردم 1
نشان 1
چاہ@@ 1
الحق 1
پہاڑی 1
مسلسل 1
تہذیب 1
رقم 1
دفعہ 1
ایئر 1
جام@@ 1
2012 0.2840861022590278
علاقائی 1
5,@@ 1
ریڈیو 1
ید 1
ایمان 1
آذربائیجان 1
شہادت 1
منظور 1
بس 1
اج 1
ندھ@@ 1
آگ 1
محض 1
آرمی 1
لَ@@ 1
آثار 1
سرا@@ 1
مُ@@ 1
تشریف 1
والدین 1
9.@@ 1
نان 1
مقیم 1
35 1
بابا 1
2010 0.2281730837796628
سلی@@ 1
چش@@ 1
ساحل 1
يل 1
کین@@ 1
80 0.9328282995924878
خوبصورت 1
3.@@ 1
غازی 1
مین@@ 1
چن 1
باقاعدہ 1
مؤ@@ 1
تجویز 1
دکھ@@ 1
دي@@ 1
معاشرے 1
شار@@ 1
پشاور 1
شان 1
یقین 1
70 0.9879129001301892
8.@@ 1
امہ 1
ٹنے 1
بغداد 1
عنوان 1
آسٹریا 1
خانے 1
لوٹ 1
رق@@ 1
لِ 1
عدم 1
بورو 1
جون@@ 1
ڈالر 1
ادے 1
سار@@ 1
عثمانیہ 1
مسیحی 1
رپورٹ 1
اچھی 1
معاملات 1
L@@ 0.09533557880864431
منہ 1
لینا 1
an 0.028245771428293254
قدم 1
لم 1
زار 1
پے 1
اول@@ 1
نت 1
تیزی 1
زخمی 1
اکیڈمی 1
رد 1
قبیلے 1
ڈویژن 1
2017 0.3068489820631019
انڈین 1
طریقے 1
روحانی 1
سي 1
الخ@@ 1
پزیر 1
ملی@@ 1
رہائش 1
صاف 1
ماؤنٹ 1
صحابہ 1
2016 0.2856098346931055
لف@@ 1
شناخت 1
تحفظ 1
لي 1
جارج 1
سامان 1
شو 1
چاہتے 1
فا@@ 1
آپ@@ 1
ایئرپورٹ 1
رنگ@@ 1
ارات 1
حہ 1
الد@@ 1
٪ 1
باری 1
صنعت 1
سونے 1
میونسپل 1
یک@@ 1
سمجھ@@ 1
کھانے 1
بالا 1
شہرستان 1
شیا 1
غور 1
شاید 1
جلال 1
راہ@@ 1
شمولیت 1
ہائے 1
فروخت 1
پتھر 1
بخاری 1
ير@@ 1
ﺮ@@ 1
ریس 1
خری@@ 1
دائ@@ 1
الک@@ 1
خالد 1
نکل 1
آئیں 1
دائیں 1
صبح 1
نسلی 1
بھو@@ 1
عمرو 1
واپسی 1
بدر 1
مای@@ 1
پالیسی 1
صلاحیت 1
45 0.9417158884380339
سلو@@ 1
مند@@ 1
ورک 1
ہمیں 1
دربار 1
گجرات 1
دیکھنے 1
سالہ 1
شور 1
تِ 1
سما@@ 1
کوئ@@ 1
اطلاع 1
تاج 1
وبا 1
ہرے 1
2011 0.24507170917584015
بلو@@ 1
غالب 1
نشانہ 1
ہٹ 1
حرکت 1
K@@ 0.1100085151475906
فران@@ 1
ہزاروں 1
گوا@@ 1
فائدہ 1
اك@@ 1
علا@@ 1
دارالحکومت 1
6,@@ 1
دھ 1
کاش@@ 1
بنو 1
رخ 1
ایک@@ 1
de 0.004981321586094015
پلا@@ 1
براہ 1
بولی 1
ٹورنامنٹ 1
ڈیبیو 1
2008ء 1
شاخ 1
فن@@ 1
قیمت 1
نوجوان 1
جگ@@ 1
بالآخر 1
دھا 1
باب@@ 1
فون 1
لیوں 1
اتفاق 1
صور@@ 1
بک 1
انت 1
نگی 1
روح 1
سازی 1
فارس 1
موجودگی 1
اسکور 1
خصوصیات 1
جانی 1
حروف 1
سفید 1
آہستہ 1
بدل 1
فار 1
یار 1
الرحمن 1
داخلہ 1
یکم 1
ریٹ 1
ران@@ 1
ٹاؤنشپ 1
آؤٹ 1
پٹ@@ 1
تصانیف 1
مرو@@ 1
جعفر 1
ساتھی 1
ورڈ 1
a 0.007819350017745344
نکل@@ 1
ﯿ@@ 1
غلط 1
لیہ 1
پختونخوا 1
D@@ 0.09113774013475814
بحر 1
حفاظت 1
صد@@ 1
بچپن 1
ملکہ 1
سوال 1
فلپائن 1
مردوں 1
پائ@@ 1
مائ@@ 1
الغ@@ 1
ڈائریکٹر 1
ہل 1
یاد@@ 1
فائز 1
بحث 1
جیل 1
ہوگئی 1
وہ@@ 1
اما 1
ہل@@ 1
افغان 1
مقدار 1
ہوگیا 1
قدرتی 1
راس 1
سرزمین 1
وفاقی 1
انڈیز 1
متعارف 1
نیویارک 1
رض@@ 1
لن 1
عین 1
ممبئی 1
نوبل 1
ٹک@@ 1
ہد 1
پون@@ 1
200 0.7668013646282739
دستخط 1
کوہ 1
الیس 1
حج 1
فور@@ 1
رفتار 1
مجھ 1
میکسیکو 1
جدوجہد 1
ڈکوٹا 1
90 0.892798909768948
مسیسپی 1
گار 1
سمجھتے 1
سلیم 1
آئرلینڈ 1
وہیں 1
ریڈ 1
شوں 1
مسلح 1
پاشا 1
اسماعیل 1
پا@@ 1
اثرات 1
یہودیوں 1
بلوچ 1
ترا@@ 1
خواہش 1
شعر 1
بکر 1
دراصل 1
روا@@ 1
ماؤنٹین 1
چرچ 1
کہہ 1
علاج 1
کپتان 1
ﻧ@@ 1
ٹرو@@ 1
لیس 1
امت 1
وین 1
سربراہی 1
قوانین 1
دورے 1
تیسرے 1
رسم 1
حملوں 1
خاتمہ 1
خلا@@ 1
مسئلہ 1
ائیس 1
ثبوت 1
دانوں 1
بہادر 1
نگٹن 1
تھائی 1
منگ@@ 1
ٹیوٹ 1
کمیشن 1
البتہ 1
اتنا 1
منصوبے 1
سکیں 1
ڈال 1
برصغیر 1
كر@@ 1
ٹرز 1
شمس 1
2020 0.30040979565518916
رانی 1
لون@@ 1
نر@@ 1
M@@ 0.08642900439475473
جذ@@ 1
فرم@@ 1
متعلقہ 1
کینٹکی 1
ﻭ@@ 1
بلی@@ 1
جانوروں 1
کور 1
کولمبیا 1
32 0.9325798709956614
خلی@@ 1
دیکھ@@ 1
کربلا 1
کمان@@ 1
تصویر 1
خاتمے 1
قبرص 1
احادیث 1
زید 1
فا 1
ڈرا@@ 1
خاص@@ 1
ظ 1
آز@@ 1
بیٹھ@@ 1
قاسم 1
33 1
شین 1
اسرائیلی 1
کنگ 1
الجزائر 1
فورس 1
آپریشن 1
مسل@@ 1
قو@@ 1
ٹائ@@ 1
صوفی 1
ماہرین 1
سول@@ 1
کوفہ 1
سندھی 1
2009 0.24475128243933633
تکمیل 1
تحری@@ 1
ابی@@ 1
آگ@@ 1
ذی@@ 1
کرلی 1
پوچھا 1
پیرس 1
نگرانی 1
کرایا 1
کارروائی 1
189@@ 1
انگریز 1
ونیا 1
نع@@ 1
حصول 1
ڑہ 1
وش 1
داد@@ 1
مارشل 1
2007 0.25833693322655193
ڑھ 1
طلب 1
پیش@@ 1
کرام 1
ناک 1
نیپال 1
s 0.049266518755891976
انس 1
عرض 1
عورتوں 1
خوف 1
اخت@@ 1
اَ@@ 1
جز@@ 1
ؑ 1
دلچسپی 1
دید 1
75 1
جع@@ 1
کمپیوٹر 1
2019ء 1
سز@@ 1
ڈر@@ 1
ہتھیار 1
اض@@ 1
عمران 1
سالانہ 1
دش@@ 1
وب 1
S@@ 0.06654995041835053
الم 1
فاطمہ 1
قطب 1
کانفرنس 1
ﺎ 1
اذ@@ 1
ڈنگ 1
نص@@ 1
تیاری 1
رومی 1
صفحات 1
گلی@@ 1
36 1
30@@ 1
تیل 1
ضد 1
مائی 1
وبی 1
24@@ 1
دفن 1
گرم 1
39 1
سلط@@ 1
والہ 1
نواز 1
پي@@ 1
34 1
اسلامیہ 1
ایل@@ 1
خوب 1
عمان 1
مک 1
دعا 1
عظ@@ 1
P@@ 0.07866378639633323
اتنی 1
42 1
اشارہ 1
پیک 1
تری 1
خل@@ 1
انسٹی 1
کاس@@ 1
ماضی 1
eh 1
مواد 1
اٹلی 1
زئی 1
معیشت 1
آرکنساس 1
مائی@@ 1
سرخ 1
مولوی 1
فاصلے 1
دادا 1
B@@ 0.0808443985929817
عنہ 1
ہلا@@ 1
دیوی 1
500 0.7690928870989538
ادات 1
بیماری 1
کاروبار 1
خارجہ 1
منی@@ 1
تال 1
درست 1
سوانح 1
گردی 1
منظم 1
دیو 1
ﮨ@@ 1
سینٹر 1
ولہ 1
ٹیکنالوجی 1
ضہ 1
سمت 1
عزیز 1
سائنسی 1
مرتب 1
ٹیوں 1
ستہ 1
7,@@ 1
بائیں 1
رب 1
شمار@@ 1
سوں 1
عائد 1
ﺳ@@ 1
ڑنے 1
آئی@@ 1
ماحول 1
ﺭ@@ 1
مونٹ 1
کنیت 1
نیبراسکا 1
بس@@ 1
فرار 1
اجلاس 1
ویوں 1
چاہتا 1
یزید 1
خی 1
مِ@@ 1
نظریات 1
رکھے 1
52 1
خاں 1
مذ@@ 1
La 0.07082903239166136
پرستی 1
سط@@ 1
انجین@@ 1
ٹھا 1
A@@ 0.09503253539210979
خواہ 1
لکھنے 1
چلتا 1
مہاراشٹر 1
abad 1
تصدیق 1
دستیاب 1
وات 1
عروج 1
مجاہ@@ 1
فات 1
قریبی 1
سوار 1
منوں 1
گیت 1
لکھنؤ 1
ورو 1
اوی 1
بیل 1
مقد@@ 1
راء 1
سرمایہ 1
غزل 1
قبضے 1
اؤن@@ 1
ير 1
ہنگری 1
188@@ 1
اسٹیٹ 1
اش 1
انتظامیہ 1
حاجی 1
صاحبز@@ 1
تفصیل 1
44 1
جزیرے 1
معاویہ 1
41 1
بلا 1
ہمراہ 1
مارے 1
الز@@ 1
انوے 1
خفیہ 1
فارم 1
ووٹ 1
ٔ 1
آس 1
ابہام 1
يك@@ 1
ڑیوں 1
تد@@ 1
تقری@@ 1
یوم 1
انہی 1
اہے 1
ثر 1
کورٹ 1
کثرت 1
بلی 1
لگی 1
عہدہ 1
کھ 1
بغ@@ 1
حرارت 1
مظ@@ 1
بجلی 1
برہ@@ 1
حج@@ 1
معر@@ 1
جم@@ 1
زي@@ 1
مظاہ@@ 1
ڈبلیو 1
ہرا 1
ساؤتھ 1
معاشرتی 1
آلہ 1
عن@@ 1
ویلی 1
نقطہ 1
اساتذہ 1
شہریوں 1
یونان 1
G@@ 0.08165077323721534
ﺑ@@ 1
38 1
ایسوسی 1
باشندوں 1
مارٹن 1
ذہ@@ 1
سپر 1
منسوب 1
توانائی 1
کیر@@ 1
48 1
55 1
مسعود 1
مینی@@ 1
احتجاج 1
ایسٹ 1
زیر@@ 1
لڑکی 1
23@@ 1
26@@ 1
روپے 1
انصاف 1
متحرک 1
کرم 1
ادری 1
انیس 1
تری@@ 1
سلام 1
اني 1
نامور 1
ایت 1
ایشن 1
دھی@@ 1
85 1
سربیا 1
2015ء 1
برادری 1
ضی 1
عات 1
فلوریڈا 1
وضاحت 1
2006 0.24139619719139377
نگاری 1
پڑے 1
احساس 1
لل@@ 1
جیتا 1
موضوعات 1
گلو@@ 1
2021 0.3396473552971199
امداد 1
لباس 1
بیچ 1
کھانا 1
گاندھی 1
57 1
انتخابی 1
يو@@ 1
کہلاتا 1
2016ء 1
بوس@@ 1
روشن 1
شر 1
مادہ 1
ّ 1
بٹ 1
طالبان 1
عالم@@ 1
58 1
دروازہ 1
پلی@@ 1
سند 1
گانے 1
سنچری 1
نتائج 1
گیر 1
عمر@@ 1
بیک 1
ریز 1
8,@@ 1
پیرو@@ 1
سک 1
چاند 1
ماس@@ 1
وقوع 1
کائنات 1
پارلیمنٹ 1
27@@ 1
65 0.8564460136662756
بون@@ 1
ملنے 1
عام@@ 1
زن@@ 1
اہتمام 1
ایشیائی 1
کھیلی 1
9,@@ 1
سلوک 1
46 1
زب@@ 1
آنحضرتﷺ 1
حت 1
مصروف 1
جلا@@ 1
حس@@ 1
گرو 1
وتوں 1
فرد 1
مظاہرہ 1
2014ء 1
47 1
حمل 1
مستقبل 1
خوب@@ 1
خطرہ 1
قلعے 1
کھیلنے 1
لیت 1
فرائض 1
وائٹ 1
سروس 1
ري 1
سول 1
چا@@ 1
اندا@@ 1
تدریس 1
نل 1
حیدر 1
روکنے 1
شاع@@ 1
قائد 1
ریلویز 1
شاپ@@ 1
کروڑ 1
کھلاڑیوں 1
بز@@ 1
ناگ@@ 1
ائیر 1
جرسی 1
نیل 1
زبردست 1
صحافی 1
پٹی 1
37 1
اسم 1
ہسپتال 1
رکھ@@ 1
الط@@ 1
سڑک 1
معیار 1
پھیل 1
گھروں 1
زون 1
کمزور 1
ریلیز 1
محافظہ 1
الله 1
​ 1
آنحضرت 1
برج 1
جنم 1
دھی 1
مرے 1
ملتے 1
مٹی 1
یاتی 1
دکھائی 1
چٹ@@ 1
توسیع 1
ہال 1
ادیب 1
مرہ 1
کھیلوں 1
بنگ@@ 1
عمل@@ 1
لم@@ 1
سور 1
فرو@@ 1
گفتگو 1
گنج 1
مہدی 1
کمپ@@ 1
آخ@@ 1
اسد 1
لٹ 1
درد 1
مینی 1
دباؤ 1
کلو 1
ہیر 1
چڑھ@@ 1
کھو@@ 1
امر 1
2000 0.2590988100524599
28@@ 1
اڈ@@ 1
سائی@@ 1
وط@@ 1
61 1
طب 1
قبرستان 1
ﯾ@@ 1
عط@@ 1
کوم@@ 1
ئیر 1
بھیج 1
راولپنڈی 1
سیاہ 1
میڈی@@ 1
جرا@@ 1
ویلز 1
کمیونسٹ 1
خلیج 1
اعت 1
این@@ 1
ہری@@ 1
جیکسن 1
وک@@ 1
ایوان 1
بالی 1
Z 1
عوں 1
ناتھ 1
نکال 1
گرام 1
یار@@ 1
فل 1
میرا@@ 1
جائ@@ 1
وري 1
25@@ 1
خواب 1
بان 1
طبی 1
ہز@@ 1
ہن@@ 1
اشعار 1
تجربہ 1
سف@@ 1
53 1
آبائی 1
کمانڈر 1
وك@@ 1
ٹہ 1
شوق 1
ڈالا 1
کاپ@@ 1
49 1
وند 1
کھڑے 1
تھیٹر 1
کروں 1
درجے 1
ریں 1
ہان 1
اسلا@@ 1
جناب 1
حکمت 1
دھما@@ 1
زائ@@ 1
مناسب 1
2017ء 1
شعبے 1
43 1
غریب 1
ویئر 1
تاب@@ 1
نیم 1
وروں 1
افی 1
زبانیں 1
پین 1
عقائد 1
رشتہ 1
ناموں 1
29@@ 1
خاطر 1
لیاں 1
نغ@@ 1
تنا@@ 1
سم 1
اندرونی 1
تز@@ 1
ماڈل 1
رجوع 1
صادق 1
مور 1
یز 1
گون@@ 1
برٹش 1
بھاری 1
درخت 1
عامر 1
72 1
الْ@@ 1
رل 1
سرگر@@ 1
پہلو 1
کرلیا 1
گزر@@ 1
خراسان 1
نافذ 1
H@@ 0.07790638009204451
درو@@ 1
پورہ 1
خیل 1
چلنے 1
گرین 1
جمال 1
ظلم 1
ابوال@@ 1
حزب 1
چون@@ 1
62 1
64 0.9027822453337252
دیکھتے 1
لنگ 1
مہارت 1
گورنمنٹ 1
185@@ 1
صہ 1
ڑھ@@ 1
95 1
سپر@@ 1
آسان 1
عموماً 1
63 1
جموں 1
پندرہ 1
ہماری 1
رَ@@ 1
نن 1
کوششوں 1
سند@@ 1
ڈیم 1
ﺗ@@ 1
برعکس 1
نفی 1
اختر 1
الاباما 1
زوال 1
سرگرمیوں 1
انج@@ 1
دروازے 1
دِ 1
عقی@@ 1
اغ@@ 1
عباسی 1
نصی@@ 1
یادگار 1
أَ@@ 1
حکام 1
سٹر@@ 1
شمالي 1
کنی@@ 1
ؔ 1
نگز 1
گذ@@ 1
خبر@@ 1
گھریلو 1
68 1
کت 1
96 1
بط@@ 1
ڈاک@@ 1
2011ء 1
افس@@ 1
پال@@ 1
86 1
آیات 1
سیر 1
ہاؤس 1
51 1
سری@@ 1
مارا 1
ٹوئنٹی 1
دھو@@ 1
چچا 1
88 1
باس@@ 1
بولنے 1
ویت 1
پہنچنے 1
شریعت 1
شہزادہ 1
ندوں 1
امات 1
کابل 1
93 1
انجمن 1
حدود 1
صدیوں 1
چوں 1
نوی@@ 1
کرنسی 1
امری@@ 1
الملک 1
اہل@@ 1
ایٹ@@ 1
فلمیں 1
چان@@ 1
آسانی 1
اح 1
اصلاح 1
جین 1
ڈین 1
دعویٰ 1
يون@@ 1
اردن 1
56 1
تبہ 1
حص@@ 1
کہنے 1
54 1
66 1
مزاحمت 1
بِ@@ 1
پڑی 1
رف@@ 1
ڈری@@ 1
99 1
انقلابی 1
تمہارے 1
300 0.9159491346093316
ادر 1
حبیب 1
حکیم 1
امین 1
عاش@@ 1
94 1
فلسفہ 1
ادوں 1
سکول 1
مراکش 1
جائزہ 1
صحابی 1
پرانے 1
73 1
اقدامات 1
فے 1
معز@@ 1
ڈیل 1
بول 1
مصری 1
74 1
ترو@@ 1
جانور 1
سیرت 1
+ 0.532058046743088
اسحاق 1
بلغاریہ 1
تینوں 1
عق@@ 1
ہرہ 1
جہاد 1
تمل 1
صوبوں 1
دہی 1
اوا 1
بشمول 1
دف@@ 1
مون 1
نادر 1
ولوں 1
ارشاد 1
مجید 1
مس 1
پاب@@ 1
ریاضی 1
معاون 1
پوں 1
کاموں 1
کوچ 1
وری@@ 1
ٹیاں 1
ar 0.06558496006156254
بیگ 1
طل@@ 1
مہینے 1
O@@ 0.1031199496625159
درا@@ 1
نوی 1
میک 1
چھی@@ 1
سکو 1
نشر 1
اعتماد 1
راؤ 1
حاکم 1
y 0.014675464539279818
ناصر 1
تَ@@ 1
سیل 1
مدھ@@ 1
98 1
سوسائٹی 1
صر 1
واق@@ 1
کیوبک 1
کولوراڈو 1
wiki 1
استنبول 1
مد 1
ہنگ@@ 1
تون@@ 1
شتہ 1
سنسکرت 1
ثہ 1
نم 1
فرمائی 1
يہ 1
لينڈ 1
77 1
یر@@ 1
امید 1
انڈونیشیا 1
59 1
جسمانی 1
ہارا 1
text 1
تحقیقی 1
67 1
میان@@ 1
گیارہ 1
حید 1
رسائی 1
عشق 1
کیو 1
افسر 1
فائنل 1
فرزند 1
شک 1
فیصلے 1
گھو@@ 1
187@@ 1
سکندر 1
مو 1
87 1
نیوز 1
92 1
سين 1
آسٹریلوی 1
سُ@@ 1
84 1
افریقی 1
صل 1
وکٹوریہ 1
97 1
کلو@@ 1
قبر 1
Ch@@ 0.13602264494221541
تیسرا 1
خیالات 1
مي 1
اصلاحات 1
حکمرانوں 1
محنت 1
مشن 1
مقاصد 1
شاندار 1
عائشہ 1
لک 1
82 1
وع@@ 1
1,0@@ 1
انٹر@@ 1
رہنماؤں 1
قلم 1
Rural 1
اسکواڈ 1
منگ 1
شاگرد 1
پیغام 1
کمی@@ 1
اکرم 1
تور@@ 1
سمجھ 1
ولیم 1
پڑھنے 1
کمار 1
2005 0.23982622726772698
رومانیہ 1
غرض 1
نوٹ 1
بمطابق 1
جات@@ 1
عَ@@ 1
نفسی@@ 1
ومی 1
کامل 1
91 1
ممکنہ 1
حساب 1
اوریگون 1
رواج 1
آباد@@ 1
دعوی 1
قین 1
ارادہ 1
اسپی@@ 1
76 1
خرا@@ 1
انڈيانا 1
امیدوار 1
شع@@ 1
عزت 1
فرقہ 1
نے@@ 1
تض@@ 1
سیک@@ 1
شائر 1
محلہ 1
مہر 1
پش@@ 1
یور@@ 1
جانشین 1
حاد@@ 1
کیرو@@ 1
ھی 1
تعارف 1
رئ@@ 1
پانے 1
ڈور 1
کُ@@ 1
ہیمپشائر 1
2009ء 1
لغ@@ 1
ٹینیسی 1
معاملہ 1
توڑ 1
83 1
الف 1
اصحاب 1
جناح 1
امتحان 1
راز 1
ڈل 1
اسپ@@ 1
اِن 1
78 1
باضابطہ 1
صوف@@ 1
يم 1
يں 1
ڈیو 1
نازل 1
حوصلہ 1
محدث 1
2004 0.24847963832973174
تاہے 1
رومان@@ 1
وزن 1
زیارت 1
N@@ 0.07733567200641377
علماء 1
ٹران@@ 1
قیدی 1
گروہوں 1
آندھرا 1
فوری 1
میت 1
ونڈ@@ 1
2012ء 1
revision 1
ارب 1
186@@ 1
اعتراف 1
برا 1
بیل@@ 1
جری@@ 1
لکھ 1
wikitext 1
داس 1
معاملے 1
نارتھ 1
بم 1
نامے 1
یہود 1
89 1
داؤد 1
سرو@@ 1
سکور 1
صدیق 1
1990 0.33629054137212366
اطالوی 1
تبلیغ 1
سوا 1
مقدمہ 1
ye 0.552150963580791
ناقابل 1
پہاڑوں 1
03 1
69 1
تقریب 1
جوش 1
راب 1
کیپ@@ 1
71 1
خطوط 1
شدت 1
گوئی 1
دیہ 1
ڈرامے 1
اوہائيو 1
قادری 1
اینڈ@@ 1
بج@@ 1
دیوار 1
زلز@@ 1
كنساس 1
پیپلز 1
d 0.06813519344114329
دب@@ 1
رقص 1
مڈ@@ 1
اچھا 1
دُ@@ 1
پرورش 1
الت 1
زیب 1
ونی@@ 1
کھر 1
عراقی 1
2020ء 1
79 1
راک 1
قریش 1
مینار 1
قات 1
پاس@@ 1
بلدیات 1
پیری 1
2007ء 1
انِ 1
دي 1
زراعت 1
تصوف 1
شرف 1
استع@@ 1
تھر 1
بھگ 1
پڑتا 1
2010ء 1
ماری@@ 1
کارکن 1
ہن 1
ستوں 1
فاس@@ 1
نوع 1
ٹین@@ 1
ساز@@ 1
ٹي 1
پانچویں 1
‎ 1
جائز 1
خیز 1
عبرانی 1
خاندانی 1
صنعتی 1
مساوات 1
وض@@ 1
کھیل@@ 1
سون 1
منافع 1
بنگالی 1
جرم 1
پشتو 1
مداخلت 1
مشورہ 1
منصور 1
پسند@@ 1
ہوگئیں 1
ﮧ 1
معین 1
گراؤنڈ 1
کامی@@ 1
لیتا 1
عبور 1
لگتا 1
انصاری 1
جد 1
سیم 1
مکان 1
ڈیزائن 1
گھنٹے 1
81 1
مکی 1
مذاہب 1
on 0.014749835573914757
جنت 1
روی 1
بوسنیا 1
township 1
پار 1
پریس 1
کیفیت 1
ئین 1
ربی 1
نمائند@@ 1
ھے 1
ائش 1
اچھے 1
غزوہ 1
نبوی 1
امیہ 1
تلا@@ 1
كيرو@@ 1
محمد@@ 1
معاش@@ 1
چارلس 1
گری 1
ہارون 1
مکر@@ 1
09 1
دستاوی@@ 1
انور 1
سس 1
ملکیت 1
ائیت 1
نکاح 1
بڑھا 1
تہران 1
نیک 1
ڑھی 1
فال@@ 1
امارات 1
توقع 1
حامی 1
عص@@ 1
وصول 1
عش@@ 1
ممبر 1
بچ 1
وسائل 1
روزنامہ 1
دائرہ 1
02 1
مونٹانا 1
گنی 1
توب@@ 1
اٹھایا 1
گزی@@ 1
* 0.27873700994247613
ارف 1
اسٹیڈیم 1
حم@@ 1
ریاستیں 1
مرحوم 1
دنی@@ 1
سلم 1
ظفر 1
فرما 1
پو 1
کھو 1
گھرانے 1
اقتصادی 1
انو@@ 1
کاروباری 1
اتھ@@ 1
1947ء 1
الينوائے 1
خز@@ 1
الیہ 1
عز@@ 1
آکر 1
لبنان 1
ذیر 1
جنگل 1
تال@@ 1
ساتھیوں 1
مرض 1
چندر 1
ڈائ@@ 1
گوشت 1
ہائ@@ 1
سادہ 1
شراکت 1
دیہی 1
ماسٹر 1
البر@@ 1
اولی@@ 1
منا 1
پرچم 1
عمومی 1
مبر@@ 1
مسی@@ 1
نوعیت 1
چالیس 1
آور 1
رومن 1
وول@@ 1
پرانی 1
2006ء 1
اتحادی 1
سسٹم 1
مقبرہ 1
ٹھی 1
اخلاق 1
لائنز 1
الحسن 1
ساس@@ 1
پہچان 1
00@@ 1
خراب 1
سبھا 1
ماسکو 1
وفد 1
یقینی 1
قائ@@ 1
ماہ@@ 1
پُ@@ 1
ہیڈ 1
ﻟ@@ 1
ﻨ@@ 1
خالی 1
مقبولیت 1
الہ@@ 1
بحریہ 1
سدھ@@ 1
فَ@@ 1
ائب 1
قد 1
کیم@@ 1
ہوا@@ 1
میٹر@@ 1
نشین 1
ویہ 1
دمشق 1
سنا 1
بھائیوں 1
ستر 1
سڑ@@ 1
فضائی 1
پنج@@ 1
امتیاز 1
برازیل 1
برقی 1
رحمہ 1
نین 1
پریفیکچر 1
چاندی 1
کیسے 1
The 0.012561707649498894
آرٹ 1
اعزازات 1
فیس 1
ہول@@ 1
شعرا 1
لاک 1
ڈي@@ 1
طبیعیات 1
پڑ 1
قابو 1
مخت@@ 1
بد 1
آہ@@ 1
فیہ 1
وزی@@ 1
چینل 1
تبدی@@ 1
يم@@ 1
J@@ 0.09648699278742083
میل@@ 1
تباہی 1
دکھایا 1
چوتھی 1
مِ 1
گیس 1
اسٹو@@ 1
ائمہ 1
08 1
بڑھتی 1
ادھ@@ 1
بائی 1
آدم 1
ترمیم 1
زند@@ 1
سٹھ 1
ماتحت 1
میڈیکل 1
پیڈیا 1
کئے 1
گرد@@ 1
آغا 1
ارد 1
محاصرہ 1
کسی@@ 1
دد 1
شہز@@ 1
صاح@@ 1
وآلہ 1
یحییٰ 1
پیغمبر 1
رائج 1
لیٹ 1
ورٹ 1
انسانوں 1
I 0.1132080798010305
بلیک 1
دکن 1
آپس 1
ازبکستان 1
بٹ@@ 1
جیمز 1
ضرور 1
جمہوری 1
لوی 1
بَ@@ 1
بچہ 1
لبر@@ 1
پیٹ 1
R@@ 0.06220912974640033
رمضان 1
شب@@ 1
تي 1
مانا 1
پڑھا 1
آمدنی 1
است 1
خوشی 1
سائنس@@ 1
کریک 1
اہی 1
بستی 1
تنگ 1
بہرائ@@ 1
دست 1
پچاس 1
گناہ 1
گنا 1
منڈی 1
ڑھے 1
ہوجاتا 1
05 1
دون@@ 1
لِ@@ 1
دیو@@ 1
سفیر 1
وعدہ 1
یہیں 1
احترام 1
عناصر 1
آد@@ 1
علمائے 1
عقیدہ 1
نبوت 1
کوک 1
07 1
برف 1
تات@@ 1
نمائش 1
وائی 1
سیف 1
لیتی 1
زرعی 1
لطی@@ 1
مجسم@@ 1
گول 1
افریقا 1
فارغ 1
فوجوں 1
مواقع 1
2003 0.257643119420299
شری@@ 1
قد@@ 1
ویٰ 1
بازو 1
جہلم 1
مسترد 1
ٹیکس 1
2004ء 1
دادی 1
وجوہات 1
جنوبي 1
خام@@ 1
خطہ 1
رسالہ 1
مْ 1
الاسلام 1
جوہر 1
فرق@@ 1
مستحکم 1
ئل 1
بھٹو 1
انٹرنیٹ 1
تاری@@ 1
روابط 1
ساہ@@ 1
کیشن 1
اون 1
سپرد 1
ئم 1
بورن 1
رت@@ 1
عظم 1
النے 1
انانکارپوریٹڈ 1
دودھ 1
سافٹ 1
ٹور@@ 1
کھی 1
ایتھ@@ 1
دہلوی 1
سفار@@ 1
میز 1
ابو@@ 1
دِ@@ 1
ائیاں 1
ارک 1
مجمع 1
اوکلاہوما 1
سوئ@@ 1
سوم 1
تقریر 1
جي@@ 1
رکھنا 1
شب 1
خار@@ 1
منفرد 1
کوہ@@ 1
کھڑا 1
بندرگاہ 1
تنظیموں 1
اشترا@@ 1
ثے 1
تغ@@ 1
سنی@@ 1
سکھوں 1
ویڈیو 1
بھاگ 1
تنازع 1
ریو 1
جاس@@ 1
جنگوں 1
رحمت 1
منزل 1
پارلیمان 1
آسمان 1
اشیاء 1
سمی@@ 1
سے@@ 1
C@@ 0.05985142630551492
بحال 1
دوسروں 1
خصوصیت 1
دیکھیے 1
سبز 1
اض 1
اٹھا 1
تحقیقات 1
متی 1
پت 1
گائے 1
لف 1
حکومتی 1
غر 1
کلاسیکی 1
اسپین 1
لام 1
ڈیرہ 1
کنگ@@ 1
06 1
بادشاہت 1
رسوخ 1
فوراً 1
معیاری 1
an@@ 0.06625620840460231
بارش 1
دیوان 1
رُ@@ 1
طاقتور 1
چرا@@ 1
اعی 1
ضل@@ 1
افت 1
سرگرم 1
ایوب 1
باہمی 1
دیئے 1
سز 1
ایڈیشن 1
بیرون 1
رابطہ 1
ٹون 1
الث@@ 1
جانتے 1
فاتح 1
پوسٹ 1
ہور@@ 1
بنی@@ 1
زین 1
فلا@@ 1
ملٹن 1
ﺟ@@ 1
انجی@@ 1
بحالی 1
باؤ@@ 1
جم 1
دف 1
زو@@ 1
یروشلم 1
نٹن 1
نیوں 1
ورہ 1
کہتا 1
غم 1
متن 1
پتا 1
عالیہ 1
غی 1
پڑھ 1
ادائیگی 1
تخلی@@ 1
طل 1
مساجد 1
پروگرا@@ 1
ﻠ@@ 1
ﺩ@@ 1
دھے 1
رفی@@ 1
سوس 1
ملکوں 1
400 0.7801640355970956
بصرہ 1
بنانا 1
دیوبند 1
سماج 1
مورخین 1
پہن@@ 1
04 1
تعلیمات 1
یوکرین 1
1990ء 1
اشی 1
افسانہ 1
غذ@@ 1
مہاراج@@ 1
ڑیاں 1
کرا 1
تي@@ 1
محبوب 1
نسی 1
ہسپانیہ 1
قاز@@ 1
مشاہ@@ 1
يووا 1
2002 0.2399124773188656
انو 1
پہنچی 1
پنڈ@@ 1
کابینہ 1
ترا 1
تصاویر 1
حرف 1
ظہ 1
فعال 1
مصط@@ 1
واب 1
یری 1
وصال 1
سع@@ 1
فعل 1
لکڑی 1
اولین 1
راضی 1
سکی@@ 1
طری@@ 1
ٹرل 1
اوری@@ 1
شاخ@@ 1
لائبریری 1
2005ء 1
لڑکے 1
وي 1
چودہ 1
ﺮ 1
شامی 1
شنل 1
عصر 1
لڑکیوں 1
مطالع@@ 1
منڈ 1
ٹرک 1
پاكستان 1
جغرافیائی 1
لڑنے 1
نَ@@ 1
اخذ 1
جاوید 1
داستان 1
1980 0.3580003739501266
مرکوز 1
نِ 1
ڈون@@ 1
پھول 1
اپور 1
فراہمی 1
اوٹ 1
حیرت 1
ماح@@ 1
چکوال 1
گھنٹ@@ 1
تمغ@@ 1
محاذ 1
مع 1
پٹ 1
اشرف 1
صدارتی 1
قرض 1
لینڈز 1
متبادل 1
پل@@ 1
ar@@ 0.07051856163558114
اص 1
بینک@@ 1
مات@@ 1
نشست 1
چیئرمین 1
ہائی@@ 1
بڑ@@ 1
دیوار@@ 1
سك@@ 1
گاڑی 1
بیٹنگ 1
مرک@@ 1
نار 1
کاؤنٹیاں 1
سفیان 1
ً 1
چیت 1
گز 1
ﺭ 1
صدیقی 1
طلاق 1
ذر@@ 1
عدالت@@ 1
ویک 1
پچ@@ 1
ہج@@ 1
جذبات 1
رز@@ 1
سنیما 1
عارضی 1
مہی@@ 1
کاٹ 1
la 0.005752843270088061
خت 1
رضوی 1
سیٹ 1
ئي 1
بحرین 1
مانہ 1
مشرف 1
میا 1
ناس@@ 1
نٹی 1
پسندوں 1
ﯿﮟ 1
زیریں 1
قطر 1
ربیع 1
قبائلی 1
ْ 1
ھا 1
ذا 1
عیس@@ 1
راجہ 1
سعود 1
منایا 1
چھاپ@@ 1
باتیں 1
عربوں 1
مہیا 1
کالم 1
ئیس 1
ایکٹ 1
بص@@ 1
تنازعات 1
منصب 1
منفی 1
اصط@@ 1
سٹک 1
قاف@@ 1
شراب 1
فخر 1
في 0.12675810643975463
چوہ@@ 1
ہرات 1
q 0.9837462236263539
خشک 1
سپی@@ 1
موسی 1
جمعہ 1
طریقوں 1
ٹوٹ 1
صد 1
١@@ 1
کمیون@@ 1
المن@@ 1
حالیہ 1
ہوجاتی 1
اٹک 1
جوہری 1
فرض 1
ﭘ@@ 1
ملائیشیا 1
وتی 1
قیات 1
لگانے 1
ذر 1
شعب@@ 1
عمدہ 1
مونٹ@@ 1
ٹون@@ 1
ڈچ 1
بخار@@ 1
ندے 1
کپور 1
پیار 1
ہیرو 1
آتش 1
اتحادیوں 1
بوس 1
پبلک 1
امل 1
محروم 1
کروایا 1
گیم 1
اڈے 1
واس 1
ﻤ@@ 1
مہاجرین 1
نکلا 1
ویتنام 1
ہے@@ 1
اخبارات 1
اسلحہ 1
خاک 1
خوراک 1
ظر 1
عقیدت 1
وقی 1
راوی 1
مشي 1
سخ@@ 1
پھانسی 1
اط 1
حسب 1
خور@@ 1
پردہ 1
بائبل 1
المعروف 1
سام 1
بنا@@ 1
سرور 1
پاپ@@ 1
ڈال@@ 1
گس 1
آرٹس 1
بہاؤ 1
تہوار 1
فوت 1
مرح@@ 1
بمبئی 1
تقی 1
جنازہ 1
ائز 1
برز@@ 1
باغ@@ 1
محتر@@ 1
واٹر 1
چک@@ 1
2021ء 1
ایجن@@ 1
بیہ 1
دوری 1
واقعے 1
ﮭ@@ 1
جایا 1
سمندری 1
ویر 1
العزیز 1
بُ@@ 1
خارج 1
عبید 1
وائرس 1
گیری 1
تیرہ 1
فنون 1
وث@@ 1
چاروں 1
کلی 1
ناٹ 1
ٹاونشپ 1
آئینی 1
بھرپور 1
علیحدگی 1
فائر 1
ڈالی 1
ہہ 1
01 1
ا- 1
الذ@@ 1
برداشت 1
برسوں 1
ساتویں 1
ظاہری 1
ہیلی 1
اُسے 1
جماعتوں 1
شمسی 1
قاد@@ 1
قیس 1
لفظ@@ 1
معص@@ 1
ارتق@@ 1
ارد@@ 1
سورت 1
عسکری 1
لازمی 1
متف@@ 1
نچ 1
پوزیشن 1
دفاعی 1
مانے 1
نائی 1
وید 1
گلی 1
حرام 1
رحمۃ 1
فس@@ 1
پرنس@@ 1
34@@ 1
سہولت 1
تعینات 1
نعت 1
راش@@ 1
ستم 1
کیمپ@@ 1
شاہراہ 1
صالح 1
آلات 1
اختیارات 1
امان 1
مارکیٹ 1
میوزک 1
چائی 1
کمان 1
منورہ 1
یل@@ 1
al 0.02941817858646374
بحران 1
يس 1
ڈالنے 1
احکام 1
سرے 1
گلوکار 1
شم 1
شي@@ 1
مائش 1
آنکھوں 1
بردار 1
ریجنل 1
وقف 1
گزر 1
الین 1
جگہوں 1
منظوری 1
گویا 1
شاہد 1
عبدالرحمن 1
عیسائی 1
سوچ 1
z@@ 0.07406296354499378
ابشار 1
بادشاہوں 1
ناروے 1
کیمپ 1
ایجاد 1
گرامی 1
یونی@@ 1
ماخذ 1
نمونہ 1
پنسلوانيا 1
1945 0.34363875191388527
حارث 1
حضرات 1
خدا@@ 1
سولہ 1
نعم@@ 1
پالی@@ 1
کالونی 1
گنج@@ 1
آل@@ 1
صوبهٔ 1
گردوں 1
2001 0.21969263546571952
صلی@@ 1
محقق 1
کوری@@ 1
استح@@ 1
دستی 1
دلیل 1
دیوں 1
كول@@ 1
پھیلا 1
طبقے 1
چنگ 1
القرآن 1
فان 1
قم 1
مقابلوں 1
W@@ 0.05796995487745826
دراز 1
ظم 1
ونس 1
چیک 1
184@@ 1
33@@ 1
اخلاقی 1
پولی@@ 1
ایوارڈز 1
کات@@ 1
ایڈیٹر 1
باشندے 1
بگ@@ 1
خانقاہ 1
صول 1
پیچی@@ 1
رچ@@ 1
شل 1
لنے 1
میوزیم 1
ٹین 1
آصف 1
ماء 1
چند@@ 1
یعقوب 1
محرم 1
ادي 1
ظہور 1
عجائب 1
اً 1
جرائم 1
جہازوں 1
کچ@@ 1
کیلئے 1
بجے 1
روپ@@ 1
كين@@ 1
to 0.005350555302124978
نسخہ 1
گاوں 1
بھیج@@ 1
قوم@@ 1
نژاد 1
یاس@@ 1
اُن@@ 1
عمری 1
کپڑے 1
اقب 1
گانا 1
سرحد@@ 1
مایا 1
مفہوم 1
وارڈ 1
راس@@ 1
روپ 1
سادات 1
قبہ 1
ہفتہ 1
کتاب@@ 1
گرہ 1
الان@@ 1
خرچ 1
مصنفین 1
مپ 1
چیزوں 1
صلح 1
بق@@ 1
فانی 1
چاہے 1
دانی 1
2000ء 1
جوان 1
درہ 1
شور@@ 1
تدری@@ 1
ستگی 1
گھوڑے 1
ref 1
باد@@ 1
عاب@@ 1
عبدالعزیز 1
عصمت 1
مبتلا 1
مثبت 1
وما 1
پیروی 1
آفس 1
حدی@@ 1
صحافت 1
منت@@ 1
منز@@ 1
جیتنے 1
رجحان 1
2002ء 1
تنازعہ 1
مراکز 1
مڈل 1
ناق@@ 1
نتیس 1
یدہ 1
حنی@@ 1
عہ@@ 1
فیروز 1
مریم 1
میم 1
ولید 1
آی@@ 1
ڈیا 1
اء@@ 1
شرائط 1
فطرت 1
11@@ 1
ءمیں 1
عمرؓ 1
آرمینیائی 1
ورانہ 1
الیک@@ 1
اکہ 1
سارا 1
وري@@ 1
پخت@@ 1
المع@@ 1
انعقاد 1
لڑی 1
1980ء 1
متاث@@ 1
الي@@ 1
تجزیہ 1
ریاض 1
فرمان 1
مشکلات 1
مظفر 1
ٹرافی 1
کارا 1
اضی 1
تالیف 1
تیوں 1
جد@@ 1
سپریم 1
V@@ 0.06640678357212003
محیط 1
وین@@ 1
کاشت 1
Z@@ 0.0850330438262651
al@@ 0.05669715789501089
اتوں 1
طاقتوں 1
میساچوسٹس 1
گریجویشن 1
ھو 1
انگلش 1
بست@@ 1
سویڈن 1
سیکی@@ 1
نری 1
یورو@@ 1
ابوبکر 1
دلی 1
لیم 1
مذکورہ 1
ورے 1
کوئٹہ 1
ہٹ@@ 1
دات 1
مشیر 1
کیپ 1
فلسطینی 1
ڈھان@@ 1
e@@ 0.05240526701316919
تازہ 1
خاندانوں 1
فیڈریشن 1
قاری 1
اگو 1
سنچریاں 1
شری 1
فک 1
ٹي@@ 1
کرناٹک 1
کرنل 1
۲@@ 1
اکا 1
فاؤنڈیشن 1
مختاری 1
نجات 1
امکان 1
کث@@ 1
کیتھولک 1
ہوم 1
حام@@ 1
نویں 1
پروڈیوسر 1
بون 1
بیا 1
عک@@ 1
انڈر 1
شنز 1
لسٹ 1
زو 1
ناد@@ 1
ٹیوب 1
گزار@@ 1
F@@ 0.04964049879334729
انیسویں 1
سیاح@@ 1
لت@@ 1
ہیل 1
... 0.3040687438515103
یونیور@@ 1
قرب@@ 1
پسندی 1
کرداروں 1
i 0.0717150837900353
ایجنسی 1
سرائے 1
متناز@@ 1
کلکتہ 1
استفادہ 1
ترجیح 1
سینئر 1
قز@@ 1
قصبے 1
مشاہدہ 1
مينيسوٹا 1
A 0.05434204763560069
ریح 1
وانی 1
ہیم 1
تبص@@ 1
منگول@@ 1
وفاد@@ 1
کویت 1
E@@ 0.06324385645649634
اتھ 1
اطراف 1
بران@@ 1
تیمور 1
جہانگیر 1
راجپوت 1
شعبوں 1
پیا 1
2001ء 1
الٹ 1
جوں 1
رائی@@ 1
عوض 1
عید 1
افسران 1
انگیز 1
رہنمائی 1
صلاحیتوں 1
اقدام 1
ریک 1
قرا@@ 1
مخدوم 1
چھوڑ@@ 1
کات 1
گت 1
شعری 1
کیاں 1
جہان 1
صفحہ 1
ننگ 1
وقار 1
تفری@@ 1
علاحدہ 1
فیئر 1
والی@@ 1
پتی 1
I@@ 0.09516067830412249
پاک@@ 1
تبادلہ 1
رشید 1
ظمی 1
مجموعے 1
نما@@ 1
حالی 1
كو 1
وکیل 1
چنے 1
گند@@ 1
d@@ 0.0561686067404694
افزائی 1
تیلگو 1
سفارتی 1
طاہر 1
کیچ 1
باز@@ 1
فنی 1
مذاکرات 1
اجتماعی 1
تیر@@ 1
دیکھی 1
مسیحیت 1
واقف 1
چوتھے 1
وارث 1
چوب@@ 1
کوی@@ 1
2003ء 1
ائف 1
بود 1
خال@@ 1
مرحلے 1
کٹی@@ 1
یان@@ 1
اٹھارہ 1
بروز 1
دخل 1
زمینی 1
لاتے 1
نگا 1
رسمی 1
ریسرچ 1
q@@ 0.6306588971203181
اين 1
بدولت 1
ریات 1
فاصلہ 1
بیٹھے 1
حکومتوں 1
کیمی@@ 1
انفرادی 1
سرائی@@ 1
سرحدی 1
لہٰذا 1
نفس 1
ورات 1
ٹیک 1
بچانے 1
سٹنٹ 1
وکٹوں 1
گولی 1
20ء 1
ابر 1
رائل 1
سانتا 1
طبقہ 1
لح@@ 1
واب@@ 1
پود@@ 1
کیات 1
اجی 1
اسم@@ 1
لاؤ 1
ٹیکل 1
ژن 1
اکی 1
شبہ 1
شرط 1
نٹس 1
ولے 1
يو 1
ٹیموں 1
پیرو 1
کتوں 1
ادیوں 1
اموں 1
برلن 1
لائٹ 1
ہے- 1
y@@ 0.07822343190527063
ایری@@ 1
خرید 1
زد 1
ڈار@@ 1
1970ء 1
بائ@@ 1
بیٹوں 1
زمبابوے 1
مالا 1
یع 1
فین 1
نسل@@ 1
نڈے 1
کیل 1
ینی 1
اطلا@@ 1
سہولیات 1
فتوحات 1
گیر@@ 1
اضافی 1
آرام 1
سورہ 1
شیں 1
ني 1
انٹرویو 1
اینگ@@ 1
جب@@ 1
دیوتا 1
فارمی@@ 1
کوششیں 1
کھنڈ 1
— 0.027702749805070204
ایئر@@ 1
ہتھیاروں 1
یش 1
c 0.08970336794700343
اراکین 1
شعور 1
فورسز 1
كل@@ 1
ممبر@@ 1
نیدر@@ 1
سیکھ@@ 1
عارف 1
قطع 1
ائنٹ 1
ادم 1
دماغ 1
قدیمہ 1
آرڈر 1
براؤ@@ 1
حاض@@ 1
قسطنطنیہ 1
لاحی 1
ہيں 1
آکس@@ 1
الرحمٰن 1
اچانک 1
غت 1
ّہ 1
احاطہ 1
سعادت 1
طان 1
فاضل 1
ِّ@@ 1
اترپردیش 1
انڈی@@ 1
اگر@@ 1
ترکوں 1
شہزادی 1
غیب 1
قرون 1
مرشد 1
ہم@@ 1
1970 0.3280777261866777
نْ 1
یرہ 1
لمبائی 1
مہمان 1
سفی@@ 1
قَ@@ 1
ماری 1
نہر@@ 1
جیو 1
حمید 1
رخ@@ 1
منہ@@ 1
وطنی 1
وق 1
سیل@@ 1
فاروق 1
نسن 1
نڈا 1
ووا 1
بیر@@ 1
درمیانی 1
كھ@@ 1
شکر 1
عجیب 1
سفارت 1
نیں 1
ورٹی 1
پچھلے 1
1992 0.27204115354039343
حر 1
زخ@@ 1
سلمان 1
سود 1
سینی@@ 1
لون 1
پاؤں 1
انکا 1
ایڈی@@ 1
بالخصوص 1
بیٹھ 1
تلوار 1
ربت 1
پارٹ@@ 1
چشتی 1
1991 0.2794465888076687
تناسب 1
جاسکے 1
جغرافیہ 1
جمہوریت 1
سالار 1
1948ء 1
1999 0.2192456253366136
باؤلنگ 1
باغی 1
بنتا 1
توا@@ 1
متوفی 1
يري 1
علي 1
مظہر 1
ٹاور 1
الاس@@ 1
نظری@@ 1
ورثہ 1
پرویز 1
اتنے 1
جوزف 1
سنائی 1
فقیہ 1
150 0.8686592990352535
سَ@@ 1
شات 1
قح@@ 1
چوٹی 1
کرنی 1
انحصار 1
اوق@@ 1
زدہ 1
موبائل 1
کنڈ@@ 1
اطلاعات 1
زیاد 1
لک@@ 1
چترال 1
الحدیث 1
تجرب@@ 1
سترہ 1
مذکور 1
پکڑ 1
ڈیموکری@@ 1
ہاشم 1
یونس 1
ایام 1
سکونت 1
صیل 1
طبع 1
لغت 1
میگزین 1
جاسکتی 1
جسٹس 1
ہندوؤں 1
ادو 1
تعالی 1
داخلی 1
بائی@@ 1
حرم 1
زیوں 1
سلامتی 1
کہلاتے 1
پائی@@ 1
چلانے 1
جزی@@ 1
قریشی 1
قیامت 1
آگیا 1
انیا 1
ریف 1
ریٹائرمنٹ 1
عظمت 1
مورخ 1
کہانیاں 1
1960 0.3534551118087633
بہاولپور 1
شافعی 1
شیو 1
قبی@@ 1
کوش@@ 1
ماہی 1
ٹریٹ 1
10.@@ 1
سیالکوٹ 1
عقل 1
عیسیٰ 1
محسن 1
ناز 1
نوجوانوں 1
1950 0.3856083004721358
صدارت 1
قدر@@ 1
مدیر 1
تیر 1
جملہ 1
ضبط 1
Municipality 1
آری@@ 1
تخت@@ 1
حن@@ 1
قدرت 1
ویٹ 1
اصر 1
زمان 1
صنف 1
طوفان 1
غزنوی 1
مراٹھی 1
فص@@ 1
گاہوں 1
بناتے 1
بھال 1
رچر@@ 1
لیف@@ 1
وسكونسن 1
بِ 1
بیسویں 1
ذہن 1
زاہ@@ 1
فرید 1
فضائیہ 1
مزاحیہ 1
نشی@@ 1
الخط 1
ساح@@ 1
سوشل@@ 1
ٹيكساس 1
حفظ 1
خراج 1
ہوسکتا 1
ایو 1
جل 1
ناظم 1
1947 0.5233474844622564
باللہ 1
ثت 1
ربی@@ 1
رہن 1
لسانی 1
نہر 1
پرتگ@@ 1
آنکھ 1
حق@@ 1
فورٹ 1
لانی 1
لز@@ 1
مزاج 1
پوجا 1
کرد 1
کٹو 1
کہاں 1
گرما 1
حض@@ 1
رع@@ 1
پروڈ@@ 1
ah 0.2568514721417911
بي 1
دیت 1
منص@@ 1
پتھ@@ 1
پرانا 1
Y@@ 0.11928922468533658
اوس@@ 1
قدمی 1
ناب@@ 1
ورز 1
بدلے 1
تکلیف 1
جام 1
ساخت 1
لاکھوں 1
متوا@@ 1
اسکولوں 1
دنا 1
مدار 1
آرمینیا 1
جال@@ 1
ستر@@ 1
قا 1
مسند 1
میڈ@@ 1
ویکی@@ 1
1999ء 1
ذخیرہ 1
شہاب 1
مبینہ 1
کوٹ@@ 1
گلگت 1
ایڈاہو 1
روای@@ 1
فضا 1
گنگا 1
سکری@@ 1
ہون 1
انک@@ 1
بھر@@ 1
جنگجو 1
حمد 1
دامن 1
زبیر 1
اعمال 1
ترج@@ 1
سرہ@@ 1
شائ@@ 1
عباس@@ 1
قیاس 1
ندا 1
b@@ 0.052889013896044564
دام@@ 1
رابرٹ 1
سیریل 1
نیت 1
ہڑ@@ 1
آپری@@ 1
بمب@@ 1
تمہیں 1
کیٹ 1
بیش 1
حسی@@ 1
روک@@ 1
زیانا 1
سیکرٹری 1
فرینکلن 1
ڈیوڈ 1
گیٹ 1
جارجيا 1
عد 1
فیل@@ 1
نگاہ 1
پھل 1
ڈراموں 1
کاو@@ 1
کینی@@ 1
نازی 1
ويل 1
پلیٹ 1
ہانی 1
ہندو@@ 1
اظ@@ 1
کنیکٹیکٹ 1
کیری@@ 1
اجداد 1
ناف@@ 1
گزار 1
اوراس 1
لب 1
مرنے 1
يَ@@ 1
کلے 1
اتار 1
راجستھان 1
فیٰ 1
ﻋ@@ 1
امراض 1
ایجو@@ 1
دیہ@@ 1
سیاحت 1
عثمانیوں 1
ٹار@@ 1
گرے 1
ریاض@@ 1
is 0.009063518886983276
المطلب 1
ماد 1
ایکشن 1
سرپرستی 1
صفر 1
كس 1
نصب 1
چیزیں 1
یونٹ 1
زل 1
قاہرہ 1
لنکن 1
مغربي 1
نکلے 1
يارك 1
پٹھ@@ 1
جنگلات 1
طی 1
مصنوعات 1
ڈبلن 1
کال 1
ہوسکتی 1
بھیجے 1
جمع@@ 1
ضیاء 1
کہانیوں 1
الن 1
جنکشن 1
منظ@@ 1
نظامی 1
کارکنوں 1
1998ء 1
آش@@ 1
مبار@@ 1
وج 1
چیمپئن 1
کشتی 1
1998 0.22498833740858482
ائیڈ 1
ضوں 1
یسوع 1
تاً 1
دہائیوں 1
مغلیہ 1
b 0.12509815935375204
امتی@@ 1
خیر@@ 1
ہمد@@ 1
ورجينيا 1
کشمیری 1
ہوچکی 1
h@@ 0.05979737571129063
جیکٹ 1
داء 1
دائی 1
شیوں 1
فورا 1
یکساں 1
1960ء 1
دیہات 1
سرد 1
سیا 1
عرف 1
مام@@ 1
ٹائم 1
کبیر 1
پارلی@@ 1
پڑھی 1
گنے 1
ﮐﮯ 1
اصولوں 1
اطالیہ 1
تلامذہ 1
خالص 1
خلیل 1
زمیند@@ 1
ڈینی@@ 1
اچ@@ 1
عذ@@ 1
متحد 1
ونٹ 1
at 0.01455548028905343
اختلافات 1
اخراجات 1
درا 1
روزانہ 1
تعین 1
سمجھنے 1
قفقاز 1
کاک@@ 1
کینیا 1
گنبد 1
القادر 1
ستانی 1
سلمہ 1
ضروریات 1
ضی@@ 1
ماخوذ 1
ٹیل 1
s@@ 0.031379135461566475
اوب@@ 1
خانوں 1
رور@@ 1
لائل 1
لمبی 1
مفید 1
00 0.5799863403069156
» 0.02185463493641883
اننگ 1
سازش 1
ژاں 1
گلیشیر 1
گہری 1
روی@@ 1
الرح@@ 1
کمپنیوں 1
باغیوں 1
سرکار 1
فیل 1
منصوبوں 1
ڈھانچے 1
بقول 1
خام 1
ویژ@@ 1
کعب@@ 1
0,@@ 0.5721330626283467
حَ@@ 1
موری@@ 1
نوری 1
کیمیائی 1
ﺘ@@ 1
تابعین 1
جزوی 1
ٹروں 1
چھٹی 1
گزشتہ 1
ماہنامہ 1
نوب@@ 1
ٹھے 1
آنا 1
بھاگ@@ 1
خاموش 1
سبھی 1
سين@@ 1
عمارتوں 1
پبل@@ 1
ڈیٹا 1
600 0.8768230695588657
district 0.25871422433404734
دوستی 1
عنصر 1
مہار@@ 1
ولس 1
خطرے 1
سڈنی 1
مسئ@@ 1
نوآبادیاتی 1
کھیلتے 1
آٹھویں 1
إِ@@ 1
انتہا 1
بچنے 1
خوار@@ 1
ذوق 1
زیشن 1
فحش 1
مخالف@@ 1
منسو@@ 1
موہن 1
پری 1
کوا@@ 1
اصلی 1
بالائی 1
تل 1
رفتہ 1
عہدوں 1
غالباً 1
دت 1
سوائے 1
سورۃ 1
معمول 1
نفرت 1
نون 1
وئی 1
ڈا@@ 1
ڈس 1
اڑ 1
ایگزی@@ 1
بگ 1
صلاح 1
لس@@ 1
مربوط 1
en 0.005252677116271682
تان@@ 1
قل 1
کونسلیں 1
گہرا 1
ہدایت@@ 1
اسما@@ 1
الحال 1
الوں 1
وص@@ 1
پرواز 1
مذمت 1
مہینوں 1
نصر 1
ورژن 1
گوئ@@ 1
یٰ 1
1,4@@ 1
لارڈ 1
پشتون 1
انصار 1
فسادات 1
اذ 1
ارٹر 1
انڈسٹری 1
ساحلی 1
سوشل 1
عہدی@@ 1
فاق 1
قرارداد 1
ليك 1
پریشان 1
چودھری 1
ادیا 1
الا@@ 1
انتداب 1
اہلیہ 1
ریٹائر 1
لگائے 1
1ھ 1
مول 1
میٹرو@@ 1
پہا@@ 1
اداک@@ 1
جاگ@@ 1
ذہنی 1
زان 1
سپاہ@@ 1
شروعات 1
صارفین 1
صال 1
معی@@ 1
نظر@@ 1
کیہ 1
ایلن 1
سینکڑوں 1
نڈی 1
کیس 1
تاجر 1
تجربات 1
سپاہی 1
شفی@@ 1
غلطی 1
ـ@@ 1
نسر 1
کول 1
اکائی 1
جلا 1
خش@@ 1
رن@@ 1
مم@@ 1
وسی@@ 1
چھوڑنے 1
گوار 1
وسط@@ 1
پوتے 1
بلایا 1
تاب 1
جاپ@@ 1
دستاویزات 1
دوس@@ 1
ساک@@ 1
علوی 1
قلب 1
Sh@@ 0.13747694658799106
عنو@@ 1
میڈیسن 1
کاغ@@ 1
United 0.09862283994828859
بلغ@@ 1
خلائی 1
مشر@@ 1
ونگ@@ 1
پھیلی 1
ہنری 1
1989 0.2759963696003024
ریٹ@@ 1
آفتاب 1
اقت 1
امامت 1
تلفظ 1
گرانٹ 1
j@@ 0.06556162643605833
انتظار 1
بات@@ 1
تحریری 1
تدفین 1
كار@@ 1
پہنچایا 1
چوک 1
1997 0.23135824754822323
بع 1
نمائندہ 1
يْ@@ 1
کیر 1
گورن@@ 1
یان 1
بسر 1
عن 1
غر@@ 1
لکش@@ 1
میزبانی 1
یوال 1
یوگنڈا 1
حتمی 1
شوکت 1
تھامس 1
قض@@ 1
کلارک 1
گلوکارہ 1
ہوچکا 1
ارجنٹائن 1
الزامات 1
بابر 1
زونا 1
سرگودھا 1
لانگ 1
میجر 1
جج 1
دشمنی 1
800 0.8833980672639417
اُردو 1
تنا 1
حلقوں 1
مدی@@ 1
پت@@ 1
کف@@ 1
گھاٹ 1
1,6@@ 1
امارت 1
حک@@ 1
رِ@@ 1
مدارس 1
پڑھتے 1
کوب@@ 1
زاد 1
سونا 1
لطف 1
لمح@@ 1
نظیر 1
ٹیک@@ 1
پلے 1
ہرزیگووینا 1
ادھر 1
برآمد 1
توپ 1
أ@@ 0.7157755787133127
اعل@@ 1
باتوں 1
پین@@ 1
دوا@@ 1
دوروں 1
بیمار@@ 1
خزانہ 1
اموات 1
ایلی@@ 1
سیکس 1
مقدون@@ 1
وچ 1
ٹز 1
پوپ 1
minor 1
آسٹریلی@@ 1
اولمپ@@ 1
رتی 1
رضاک@@ 1
مسو@@ 1
پنے 1
کشش 1
ہٹلر 1
u 0.07786357464539767
الام@@ 1
بای@@ 1
جور@@ 1
درآمد 1
سمجھے 1
وامی 1
چاہئے 1
آغ@@ 1
آمد@@ 1
حلقے 1
زادہ 1
متع@@ 1
1992ء 1
بریگی@@ 1
جیفرسن 1
شرا@@ 1
چز 1
ہفتے 1
1940 0.3862308611563317
ایشیاء 1
حیاتیات 1
غلا@@ 1
نصیر 1
وصی@@ 1
یق 1
یہودیت 1
بھرتی 1
تار 1
تمہاری 1
رخص@@ 1
کالا 1
کالی 1
تھوڑی 1
ستارے 1
معاشیات 1
ڈیز 1
افرا@@ 1
انق@@ 1
رہنا 1
نقش@@ 1
پچیس 1
ﷲ 1
1950ء 1
دلی@@ 1
مساوی 1
ٹائمز 1
کھڑی 1
municipality 0.8041317900621855
آگاہ 1
ئس 1
احد 1
اریوں 1
اسلوب 1
سمجھی 1
ڈرل 1
ہاکی 1
اسلم 1
اکر 1
راں 1
غلامی 1
فیئر@@ 1
قسم@@ 1
کرسکتے 1
ہؓ 1
1996 0.22367589486235936
آند@@ 1
انسانیت 1
جمعیت 1
زنی 1
ماؤ@@ 1
وایا 1
ویلا 1
پوچھ@@ 1
ائد 1
الدين 1
انجن 1
ناز@@ 1
پیٹر 1
اولمپکس 1
جاؤ 1
دستور 1
دول@@ 1
غا 1
وَ 1
پرتگالی 1
گان@@ 1
ہمارا 1
ایش@@ 1
بولتے 1
قائل 1
پھر@@ 1
ادوار 1
اپنایا 1
بزرگوں 1
رانا 1
مرکب 1
ناکامی 1
وسعت 1
گہر@@ 1
جوڑے 1
گوجران@@ 1
ہتر 1
ئیں 1
جاکر 1
مام 1
وتھ 1
ویسٹ@@ 1
يات 1
کمرے 1
دوستوں 1
1918 0.4638494704719595
الیکشن 1
سالم@@ 1
ورزی 1
کینٹ 1
بلتستان 1
تاج@@ 1
سپ 1
لٹن 1
میزائل 1
میک@@ 1
يت 1
یاب 1
مثالیں 1
پیٹر@@ 1
استحکام 1
اصفہان 1
فطری 1
قار@@ 1
مالیاتی 1
مباح@@ 1
مگ@@ 1
ٹرین 1
اثنا 1
تُ@@ 1
رنجیت 1
موسیقار 1
کیم 1
ھم 1
الرشید 1
es 0.013530579556231197
ائع 1
زیاد@@ 1
عنایت 1
لیبیا 1
مائل 1
ہاشمی 1
النہار 1
جینی@@ 1
ریاں 1
مرث@@ 1
نثر 1
ویر@@ 1
دلچ@@ 1
وْ@@ 1
گور 1
باط@@ 1
رول 1
كري@@ 1
لاش 1
ڈھاکہ 1
کارپوریشن 1
آزاد@@ 1
حي@@ 1
دوا 1
مسٹر 1
کشی@@ 1
بلقان 1
جید 1
حجر 1
حمز@@ 1
لائی@@ 1
کہلاتی 1
الاسکا 1
الحاق 1
بھار@@ 1
قیمتی 1
ملوث 1
منتقلی 1
چو 1
ڈاک 1
ہوچکے 1
ation 0.02745625533089287
افضل 1
اگلی 1
بٹلر 1
موقف 1
نیہ 1
گراف 1
اہلیت 1
تراجم 1
فور 1
محققین 1
کانگ 1
et 0.008939294916419505
الر 1
رف 1
رپور@@ 1
مید 1
پیرش 1
کرہ 1
گایا 1
سلسل@@ 1
مراحل 1
مسافر 1
کٹرز 1
گرینڈ 1
1997ء 1
رام@@ 1
بھتی@@ 1
دیکھے 1
لوب 1
پریمیئر 1
تحریروں 1
غلبہ 1
لوئس 1
مرق@@ 1
يني@@ 1
پلان@@ 1
گرجا 1
ہوٹل 1
1993 0.24037834299240948
الینڈ 1
تسلط 1
خطیب 1
نذر 1
ولد 1
ٹاریو 1
ٹھیک 1
چارج 1
یہو@@ 1
قندھ@@ 1
مالیہ 1
نظریاتی 1
یب 1
or 0.02327271507296042
sur 0.04732651233993193
آسام 1
انگو 1
اوران 1
بازنطینی 1
جیک 1
ذی 1
مارکس 1
مثلا 1
ملت 1
کرمان 1
کلیسیا 1
ترقیاتی 1
حلق@@ 1
دسویں 1
رر 1
شجرہ 1
ڈش 1
زبر@@ 1
ستانہ 1
علامات 1
لکھیں 1
پرائمری 1
چکر 1
اجز@@ 1
تیرے 1
جوڑ 1
روزگار 1
نبھ@@ 1
وزیر@@ 1
1920 0.40372357205933374
اوت@@ 1
بادشاہی 1
ومن 1
گریٹ 1
گیلانی 1
93.@@ 1
قدامت 1
مستعمل 1
موثر 1
کارروائیوں 1
گوری@@ 1
k 0.057146729924611304
اضافے 1
تیری 1
رابط@@ 1
عزم 1
لارنس 1
موضع 1
وائیومنگ 1
ڈومی@@ 1
۰@@ 1
a@@ 0.08273431338943749
داں 1
رازی 1
مرو 1
ولایت 1
خطرناک 1
ساوتھ 1
طارق 1
نصاب 1
کپتانی 1
States 0.12778274515447463
امجد 1
اونٹ 1
مچھلی 1
تخمینہ 1
جلدوں 1
حجاز 1
طالب@@ 1
نمودار 1
12.@@ 1
انوی 1
تحصی@@ 1
جک 1
روان@@ 1
شاف 1
لیکر 1
کیرئیر 1
گزرنے 1
1993ء 1
Ohio 0.7330579868106789
esh@@ 0.9122948094435593
ing 0.015584295169403555
اسی@@ 1
ریکار@@ 1
سروے 1
سوڈان 1
صوم@@ 1
کنی 1
ائم 1
انتق@@ 1
ستیں 1
قیدیوں 1
چائ@@ 1
ہرا@@ 1
1971ء 1
ایکسپریس 1
جمی@@ 1
ذوال@@ 1
شرعی 1
طیارے 1
گرفتاری 1
1996ء 1
ارض 1
ارڈ 1
جنگجوؤں 1
جنی@@ 1
قربانی 1
لور 1
نفاذ 1
نمو@@ 1
ووڈ@@ 1
250 0.9599142175125194
الٰہی 1
ستارہ 1
مانتے 1
میری@@ 1
نکالا 1
ونڈ 1
المومنین 1
بحیثیت 1
ترجم@@ 1
جدا 1
دیکھیں 1
مریض 1
مشغول 1
وینی@@ 1
کارڈ 1
t@@ 0.034083106334628896
مسلک 1
مطالب@@ 1
نقشہ 1
يلي 1
ّد 1
پالی 1
یوٹاہ 1
تشریح 1
فِ@@ 1
برٹ 1
دوب@@ 1
ستاروں 1
سیلاب 1
عور@@ 1
فوجیں 1
مقبر@@ 1
ایتھو@@ 1
ضرب 1
واسطہ 1
ہوجائے 1
ہیرو@@ 1
یلی 1
ضم 1
طبقات 1
میٹرک 1
ناڈو 1
هُ 1
پولیٹن 1
اوبلاست 1
برو 1
سختی 1
ماجد 1
نٹل 1
هِ 1
چوری 1
ڈان 1
بقیہ 1
خر 1
قری@@ 1
متوں 1
کرائی 1
کعب 1
700 1
آلو@@ 1
ازیں 1
منع 1
مکتب 1
ندیوں 1
ہمہ 1
فلی@@ 1
فیت 1
متعین 1
تکنیکی 1
خصوصاً 1
خلفاء 1
10,@@ 1
1941 0.3439523829136375
40@@ 1
n 0.05571805873733897
ابلا@@ 1
احمد@@ 1
بالترتیب 1
بوجھ 1
بڑھانے 1
ثق@@ 1
قلمی 1
پولین 1
1,3@@ 1
11.@@ 1
تعالٰی 1
زیں 1
میٹڈ 1
کریا 1
کھول 1
تاجکستان 1
ثی 1
جبل 1
رحیم 1
شد 1
صحاف@@ 1
ناد 1
کلنٹن 1
} 1
حامد 1
سوال@@ 1
مقالہ 1
ہٹا 1
1,8@@ 1
t 0.03142520222133954
فریڈ@@ 1
مقابل 1
آم@@ 1
بیب 1
رسالت 1
فراز 1
بہتری 1
قس@@ 1
مپی@@ 1
نقش 1
یقی@@ 1
تائید 1
سوی 1
طلباء 1
مہاج@@ 1
نْ@@ 1
گرا 1
تھر@@ 1
حسین@@ 1
فلو@@ 1
لمبے 1
مزدور 1
ہین 1
لاب 1
نسخ@@ 1
1,7@@ 1
آسٹ@@ 1
صنع@@ 1
وث 1
کیمبرج 1
1988 0.2589802645067362
کیلی 1
n@@ 0.039762488227470916
رسن 1
قات@@ 1
کیتھ@@ 1
البم 1
خوف@@ 1
فرن@@ 1
مریخ 1
ًا 1
ڈنمارک 1
جمہ@@ 1
روت 1
ملازم 1
دلال 1
مبی@@ 1
واک 1
پڑھائی 1
14.@@ 1
رون@@ 1
قبر@@ 1
نقاد 1
ٍ 1
1,5@@ 1
اتِ 1
13.@@ 1
زینب 1
اتر@@ 1
الاول 1
حقائق 1
p@@ 0.03871269343349802
بوت@@ 1
183@@ 1
اسود 1
پوس@@ 1
زِ 1
مخلو@@ 1
دَ@@ 1
راست@@ 1
ہدای@@ 1
ﺪ@@ 1
re@@ 0.021492400207596175
مستند 1
پچھ@@ 1
پیدائ@@ 1
le 0.008807023313997396
قواعد 1
0,000 0.8470709363781684
ed 0.01661098260610952
ابہ 1
as 0.007950774199700937
ۃ@@ 1
اسباب 1
انسی 1
افغ@@ 1
اوه@@ 1
رسائل 1
1939 0.3479343616589543
ٌ 1
1971 0.3153980408638776
Bot 1
رحم 1
لاحات 1
1944 0.3030357282001924
نتی@@ 1
واج 1
جاز 1
ریشن 1
فوائد 1
مصطف@@ 1
۹@@ 1
name 0.1125658537513089
جاوا 1
داخ@@ 1
وِ@@ 1
پہچ@@ 1
Kh@@ 0.4242618550591297
تحال 1
قمر 1
ٹرا@@ 1
باح 1
فورنيا 1
200@@ 1
« 0.017738460616456904
تہذی@@ 1
ساد 1
مناس@@ 1
ؐ 1
دوس 1
فون@@ 1
مخلوق 1
1995 0.2035894403935264
بين@@ 1
جز 1
غار 1
# 0.42471437701188797
سار 1
فرعون 1
الو 1
ريك@@ 1
شہر@@ 1
سوت@@ 1
عل 1
منط@@ 1
180@@ 1
تفصی@@ 1
عمار@@ 1
مبر 1
1948 0.3693815743917722
قادر 1
موسوم 1
راشد 1
رين 1
رِ 1
ستا 1
سوا@@ 1
عب 1
ڈن@@ 1
تصنی@@ 1
ابرا@@ 1
g@@ 0.041433072968872414
آس@@ 1
كان@@ 1
مقص@@ 1
ملاح@@ 1
گریجوی@@ 1
ﮩ@@ 1
اغوا 1
تسم@@ 1
120 0.9136596086544515
C 0.10962220239012237
om@@ 0.08277712303025683
العلماء 1
جیب 1
عکس 1
كيلي@@ 1
ﻮ 1
الوی 1
رجب 1
صف 1
یحی@@ 1
راد 1
مناظر 1
نَ 1
واخر 1
1994 0.19916378472681537
ابت@@ 1
تنظی@@ 1
جابر 1
سراج 1
فلس@@ 1
ولو 1
اجن@@ 1
باقر 1
by 0.010138486930837654
مطلق 1
ہد@@ 1
دث@@ 1
سرب@@ 1
لك@@ 1
انیاں 1
لتا 1
1000 0.6860835524160687
آئر@@ 1
اري 1
افات 1
خسر@@ 1
ۓ 1
ya 0.08891467586574393
ابت 1
اریہ 1
داعش 1
وضع 1
حان 1
لائنا 1
میٹ@@ 1
ومت 1
2022 0.41036386713849216
افر 1
تعل@@ 1
حجاج 1
علاق@@ 1
village 0.14854476905054392
ضر 1
کمز@@ 1
گھر@@ 1
11,@@ 1
1930 0.35317012132718256
22@@ 1
k@@ 0.04319669338089747
افتتاح 1
الرحمان 1
جنھ@@ 1
لیز 1
يور@@ 1
2,0@@ 1
اوت 1
دري@@ 1
شوا@@ 1
امر@@ 1
جڑ@@ 1
زبانی 1
طہ 1
اوس 1
بري@@ 1
لال@@ 1
ﺣ@@ 1
ایس@@ 1
متعل@@ 1
la@@ 0.2586916113636074
مصنو@@ 1
مين 1
o@@ 0.0489031055591879
خور 1
مقب@@ 1
ﮞ 1
سویں 1
محاص@@ 1
يني 1
تائی@@ 1
حد@@ 1
قي@@ 1
عادل 1
نایا 1
تاث@@ 1
خوان 1
مارک 1
شق@@ 1
معاو@@ 1
مولا 1
نزول 1
الاح@@ 1
مؤرخ 1
19ء 1
اعز@@ 1
واس@@ 1
اخلا@@ 1
بزر@@ 1
جال 1
جلو@@ 1
قصور 1
لمب@@ 1
1984 0.2531276990216039
دیوب@@ 1
مصنف@@ 1
1986 0.24670750573455963
مرا 1
us 0.04443486458638665
ناف 1
طق 1
35@@ 1
m 0.05201495953160841
اه@@ 1
حف@@ 1
ساب@@ 1
ﮔ@@ 1
جه@@ 1
داست@@ 1
لاً 1
ممالك 1
1979 0.270239373398902
تصل 1
جماع@@ 1
قاع@@ 1
۳@@ 1
شل@@ 1
عج@@ 1
كور@@ 1
رسومات 1
صحی@@ 1
قاس@@ 1
محافظ@@ 1
1,9@@ 1
v@@ 0.04686565802752769
فتا@@ 1
معاہ@@ 1
نوح 1
فري@@ 1
مطبو@@ 1
سات@@ 1
ak 0.15082732266552526
ئت 1
اع 1
التح@@ 1
بندر 1
ترجم 1
روش 1
ستون 1
مود 1
ﺴ@@ 1
p 0.08784852124429104
غب 1
in@@ 0.026914976442835012
عال 1
لاد 1
نوم@@ 1
وع 1
ارس 1
دون 1
واسط@@ 1
U@@ 0.07449923583648956
بابل 1
فقت 1
لازم 1
B 0.10227836961149128
اعتراض 1
تذ@@ 1
ملح@@ 1
کہلا@@ 1
1985 0.24446886333120907
ad@@ 0.04634961123185629
شان@@ 1
{ 0.8380332853757201
36@@ 1
انف@@ 1
لینڈ@@ 1
ثان@@ 1
آسم@@ 1
مروان 1
ناظ@@ 1
وظ@@ 1
پیدا@@ 1
النجوم 1
17.@@ 1
الزب@@ 1
عے 1
New 0.051248579258281156
أت 1
عار@@ 1
ملہ 1
وتم 1
سفر@@ 1
فصل 1
محک@@ 1
ورم 1
صلات 1
كُ@@ 1
گم 1
گون 1
الب 1
امين 1
فاط@@ 1
12,@@ 1
o 0.024258988815704915
روح@@ 1
زمان@@ 1
ﺷ@@ 1
لش@@ 1
ولف 1
.com 0.9030318673639891
16.@@ 1
ch@@ 0.03289592974194848
روا 1
عاص@@ 1
محم@@ 1
راف 1
َا 1
1987 0.23119933322762676
am 0.0311334619606082
بتا@@ 1
دود 1
ﺋ@@ 1
تنے 1
اتح@@ 1
سد@@ 1
ﻥ 1
un@@ 0.034093332487827005
ة 0.8661406641475786
تبر 1
فیسر 1
ریلوی 1
فال 1
1975 0.2513187756687351
باء 1
فوق@@ 1
1919 0.38569480329781974
48@@ 1
روبن 1
کاؤن@@ 1
كر 1
نسب@@ 1
حیات@@ 1
رد@@ 1
جَ@@ 1
حجم 1
اچھ@@ 1
حیت 1
طبع@@ 1
179@@ 1
تبت 1
الي 1
سكا 1
1974 0.2596441245959104
افسر@@ 1
رحم@@ 1
1942 0.2965347887190785
عوامل 1
مائے 1
نوا 1
دما@@ 1
r 0.10563197535349174
station 0.12588243334001595
تبلی@@ 1
ورد 1
1982 0.24429080962180996
شج@@ 1
فتو@@ 1
ينا 1
٭ 1
تسلسل 1
كى 1
گوج@@ 1
1978 0.25728781039293197
غل@@ 1
el@@ 0.037456041065012186
lu 1
روان 1
شاد 1
لاح 1
ماب@@ 1
1983 0.24294866580833502
er 0.0093576465356104
اگ 1
تول@@ 1
عبی@@ 1
ابہ@@ 1
وسف 1
گران@@ 1
سوٹا 1
مجد@@ 1
مسر@@ 1
مشق 1
انیت 1
تخلص 1
شرو@@ 1
متح@@ 1
ً@@ 1
w@@ 0.044472652521987024
درس@@ 1
شار 1
ia 0.060020544398005596
اطب 1
لور@@ 1
لوس 1
اين@@ 1
حب 1
فو 1
موز 1
وسلا@@ 1
زمی@@ 1
لينا 1
محافظ 1
ate 0.03386155121000016
i@@ 0.048554020851296
r@@ 0.035661150286470614
ur@@ 0.06017421613232349
صفات 1
وغ@@ 1
ّت 1
for 0.007457151926814511
اتب 1
يك 1
38@@ 1
المر@@ 1
توازن 1
لق 1
مقت@@ 1
مماث@@ 1
c@@ 0.033768192810483835
ارو 1
كون@@ 1
مپشائر 1
جاع 1
جي 1
شف@@ 1
1973 0.2535442124266086
50@@ 1
as@@ 0.04270528378254634
علي@@ 1
محور 1
اتم 1
عموما 1
مثل 1
موسم@@ 1
اکث@@ 1
معل@@ 1
1917 0.398488598846209
نال 1
ٹینی@@ 1
ﻗ@@ 1
15.@@ 1
l 0.031847842494828596
حاج@@ 1
رغ@@ 1
شید 1
www.@@ 1
حات 1
قُ@@ 1
هُ@@ 1
جبر 1
خلق 1
تان 1
حصر 1
وحد@@ 1
اوم@@ 1
مقر@@ 1
٫ 1
Ar@@ 0.06591222514995548
O 0.1202323157135573
حکوم@@ 1
مجر@@ 1
60@@ 1
جول@@ 1
زیہ 1
سوس@@ 1
ضر@@ 1
لُ@@ 1
سد 1
13,@@ 1
T 0.14432161036514138
اتي 1
ربط 1
استقبال 1
1956 0.3003405293054184
m@@ 0.03969308503079455
جُ@@ 1
سوم@@ 1
تکنی@@ 1
ساد@@ 1
سلا 1
نُ@@ 1
1967 0.26251537708472994
1969 0.25837133972029597
II 0.09245003746683718
موم 1
صب 1
مه@@ 1
37@@ 1
l@@ 0.03148958183890034
لق@@ 1
Ol@@ 0.3884182689490238
لاز@@ 1
1972 0.22944220441329422
داشت 1
g 0.07586123581312164
ثار 1
ضا 1
,@@ 1
انتظ@@ 1
سرطان 1
18.@@ 1
اللَّ@@ 1
المص@@ 1
بط 1
قان@@ 1
مچھ@@ 1
۵@@ 1
۸@@ 1
لَّ@@ 1
سِ@@ 1
عرو@@ 1
عَلَ@@ 1
َّ 1
علاء 1
پند@@ 1
… 0.2888918511743605
ﺖ 1
1914 0.3716568555567329
am@@ 0.04933504866488296
فق 1
فوج@@ 1
Airport 0.6972459175948852
جامعات 1
مسي@@ 1
جزي@@ 1
خادم 1
طبا@@ 1
انقلا@@ 1
نقص@@ 1
1981 0.22327906221620095
انص@@ 1
زي 1
ورش 1
بالش@@ 1
ریب 1
قبل@@ 1
واد 1
ادت 1
اسا 1
عمومًا 1
مك@@ 1
نط@@ 1
ad 0.09779895437121187
حلف 1
كن 1
ﻌ@@ 1
Al@@ 0.05465864457506585
D 0.12128770990638811
زاب@@ 1
لوان 1
International 0.14199998389112112
ثقاف@@ 1
kh@@ 0.20361048134187082
عطاء 1
en@@ 0.02180234064350297
وخ 1
ورس 1
ay 0.10670103778122657
x@@ 0.0894633771651875
130 1
توق@@ 1
ٸ@@ 1
۰ 1
45@@ 1
X 0.16650475431564632
اؤن 1
جور 1
خلف@@ 1
روب 1
ضائع 1
مخط@@ 1
پیغ@@ 1
39@@ 1
فش@@ 1
الاق@@ 1
پروڈی@@ 1
1949 0.29270797628709716
L 0.10295082099687117
sh@@ 0.0589380275741783
کولمب@@ 1
19.@@ 1
حال@@ 1
گاہ@@ 1
اجتماع 1
میئر 1
ہور 1
1976 0.22410522131401422
1977 0.23692063273514516
80@@ 1
° 0.1830389993130013
اہو 1
توث@@ 1
سکر@@ 1
ضاء 1
كلا@@ 1
هم 1
1946 0.26952348710119256
f 0.09942873058354443
طول 1
ra@@ 0.14707432285915042
روش@@ 1
؁ 1
سٹری 1
urban 0.7798810579386105
آف@@ 1
دراج 1
عم 1
عون 1
ﮑ@@ 1
تالی@@ 1
ثم 1
جاب@@ 1
گوں 1
110 1
1965 0.251326473819079
900 1
List 0.3488894979475732
قدی@@ 1
1958 0.27832816938854094
Mar@@ 0.05898365293268385
حُ@@ 1
صغیر 1
لين@@ 1
ag@@ 0.04480640629648429
الك@@ 1
النساء 1
جع 1
طر 1
عْ@@ 1
معد@@ 1
14,@@ 1
ic 0.062226976683770745
جیک@@ 1
وام 1
124@@ 1
اجات 1
کپ@@ 1
201@@ 1
49@@ 1
E 0.13474398994447684
حسن@@ 1
٢@@ 1
1936 0.298282562484457
بھا 1
جلوس 1
جواز 1
سرا 1
موئ@@ 1
يل@@ 1
کستان 1
1962 0.2620946649755006
جدول 1
شخص@@ 1
۷@@ 1
اث 1
صور 1
وخ@@ 1
65@@ 1
دستان 1
ذب 1
طاق@@ 1
لند@@ 1
مدع@@ 1
Province 0.48055975874816786
بح 1
دال 1
شای@@ 1
DI 1
ائیو 1
اشا 1
باقاع@@ 1
ذو 1
نفو@@ 1
سيد 1
کارہ 1
کیت 1
● 1
اسب 1
مانوں 1
سالم 1
صدا@@ 1
ضمن 1
طور@@ 1
فرانسی@@ 1
وینا 1
عادت 1
ارتی 1
حار@@ 1
غض@@ 1
لْ@@ 1
نمون@@ 1
وفا 1
20.@@ 1
N 0.16261427485814708
بالغ 1
واج@@ 1
16,@@ 1
ة@@ 1
جونز 1
ﺒ@@ 1
ﺧ@@ 1
Regional 0.8361342122609435
افتتا@@ 1
بيا 1
رفت 1
میز@@ 1
يد 1
180 1
جاسک@@ 1
مين@@ 1
ولک 1
طلا@@ 1
ورن 1
یع@@ 1
du 0.010470315640614826
حافظ@@ 1
عیت 1
ہسپان@@ 1
ﻓ@@ 1
F 0.13475547000381177
el 0.005501287383738069
جذب 1
عمار 1
کنالوجی 1
ائس 1
العاب@@ 1
town 0.10856206890501982
اخ 1
قاتل 1
قرط@@ 1
ومن@@ 1
140 1
لاحق 1
مناظ@@ 1
حفاظ@@ 1
نِ@@ 1
1957 0.2738692549879837
1968 0.20525343523112136
् 0.014445533479939
مَا 1
46@@ 1
آذ@@ 1
توج@@ 1
خواہ@@ 1
مناف@@ 1
Sof@@ 1
خات@@ 1
فع 1
مطلع 1
فورنیا 1
170 1
المقدس 1
1964 0.2262164820317237
47@@ 1
لاح@@ 1
به@@ 1
۴@@ 1
تھام@@ 1
رود 1
شام@@ 1
كلي@@ 1
لول 1
1963 0.2423148450563455
آسٹری@@ 1
on@@ 0.03312191190447407
روف 1
كَ@@ 1
ویز 1
160 1
ساو@@ 1
ّل 1
az@@ 0.11589831585823557
انح@@ 1
تانی 1
مشرو@@ 1
ٗ 1
city 0.09280034826305984
صيل 1
15,@@ 1
1935 0.30556975360538013
بلیو 1
داف 1
عرب@@ 1
ملاز@@ 1
ماس 1
https 1
موسی@@ 1
codice 1
z 0.0606227476330908
انتشار 1
راہی 1
سبق 1
نجم 1
ڈائری@@ 1
تشر 1
فاق@@ 1
1943 0.22319935034222693
R 0.11144071539050095
es@@ 0.03466580205825985
ul@@ 0.04895786809331856
بْ@@ 1
سرم@@ 1
لد 1
کونسل@@ 1
حز@@ 1
عا 1
وارد 1
G 0.1267675507954709
ol 0.11839950067321758
تباد@@ 1
• 0.8327160523563422
ir 0.08539042361861388
صوب@@ 1
صر@@ 1
واع 1
ہمی 1
دال@@ 1
کیوب@@ 1
ﺪ 1
درمی@@ 1
عامل 1
فع@@ 1
وران 1
1953 0.2737700311920146
202@@ 1
شق 1
ﻦ 1
An@@ 0.04088690271996241
باش@@ 1
عر 1
عمو@@ 1
ur 0.11861182781967831
الناس 1
مجموع@@ 1
ولوج@@ 1
الفق@@ 1
شَ@@ 1
طبی@@ 1
ــــ@@ 1
لًا 1
واح@@ 1
ﯼ 1
101 1
Maz@@ 0.6940318953629778
انخ@@ 1
تس 1
ملائ@@ 1
3,0@@ 1
تفع 1
حدہ 1
شنا@@ 1
Central 0.19858854696124065
ﺕ 1
قال 1
لنا 1
۶@@ 1
ابات 1
رح 1
شم@@ 1
ممل@@ 1
وض 1
ﻡ 1
er@@ 0.021482551237695952
um 0.029186210851332214
المؤ@@ 1
رْ@@ 1
المبار@@ 1
احتمال 1
فلور@@ 1
قي 1
موس 1
القاسم 1
موز@@ 1
ﺁ@@ 1
بعد@@ 1
بين 0.8291244612306207
واپ@@ 1
1937 0.2657724996618529
V 0.12466301854722703
جوی@@ 1
خَ@@ 1
زیل 1
غان 1
مصدر 1
68@@ 1
اعتق@@ 1
طب@@ 1
1951 0.2762777200842305
at@@ 0.037535089636606976
انضمام 1
طرا@@ 1
Jar@@ 0.7845837682977806
اقتص@@ 1
ثناء 1
حلب 1
1952 0.24985859929808857
70@@ 1
j 0.2630679597870695
لج 1
الس 1
120@@ 1
سْ@@ 1
حل@@ 1
ریم 1
٣@@ 1
350 1
خص@@ 1
عُ@@ 1
ﮦ 1
1912 0.32477792189642274
1959 0.23613971749821147
Republic 0.2954204730823848
الج 1
1938 0.23336549517367705
جرات 1
صار 1
لاء 1
63@@ 1
اعترا@@ 1
1961 0.22662408504654943
ab@@ 0.02865908762407398
ash@@ 0.16914693439590123
حصار 1
رسل 1
باً 1
مقالات 1
ولیت 1
20,@@ 1
المح@@ 1
بندر@@ 1
طبق@@ 1
متص@@ 1
Mor@@ 0.0976893762913205
عدل 1
ناء 1
نب@@ 1
1933 0.24872427798291538
44@@ 1
amp 0.05490182434386869
f@@ 0.022713753491798213
حسين 1
ولي@@ 1
17,@@ 1
متوسط 1
http 1
اجد 1
بوب@@ 1
شاه 1
1954 0.24301743538469198
th@@ 0.03418652508556678
امتح@@ 1
باع@@ 1
يس@@ 1
ﺍ 1
125 0.9796224204811121
1921 0.3129135815732958
III 0.16809250534053244
حت@@ 1
67@@ 1
Re@@ 0.047169177704827606
S 0.08986185196014665
سوان@@ 1
شاء 1
طن 1
اصف@@ 1
رال 1
المسل@@ 1
صَ@@ 1
ۡ@@ 1
نوف@@ 1
55@@ 1
75@@ 1
؍ 1
ثیت 1
داب 1
عاد 1
توم@@ 1
صدی@@ 1
مقدم 1
115@@ 1
\ 0.9727171466963228
باع 1
تابع 1
ضات 1
بادل 1
باط 1
فتہ 1
‏ 1
الفر@@ 1
ایشی@@ 1
دروا@@ 1
طاہ@@ 1
نح@@ 1
تون 1
كل 1
وائے 1
يز 1
23.@@ 1
Dar@@ 0.2301789530149497
Sainte 0.7416607665782843
ماج@@ 1
59@@ 1
كرا@@ 1
والم@@ 1
۲ 1
58@@ 1
اقی 1
بلغ 1
خصوصا 1
عائ@@ 1
علیٰ 1
فس 1
قان 1
1966 0.19579521224967775
ous 0.05476142128406978
عثمان@@ 1
نات@@ 1
$ 0.07493754220427451
or@@ 0.027686293485861165
ابا 1
تور 1
راً 1
ﻞ 1
ak@@ 0.06097840539102712
ثن@@ 1
رض 1
ab 0.07136052974636126
105 1
برطان@@ 1
ناً 1
21.@@ 1
ah@@ 0.1038578129504392
يان 1
ہوما 1
21@@ 1
24.@@ 1
تق 1
ضاب@@ 1
قر 1
قلت 1
کچر 1
ابوب@@ 1
1955 0.2300973174684089
is@@ 0.032739175610313115
le@@ 0.04078038396570412
ty 0.06919196917163777
لث 1
وست@@ 1
102 1
الرا@@ 1
ثالث 1
وعد@@ 1
ژ 1
ów 0.5456390086312748
المق@@ 1
انفرا@@ 1
فیص@@ 1
57@@ 1
باس 1
ولي 1
ay@@ 0.0869747358982837
ph@@ 0.05069935342695967
الاز@@ 1
تام@@ 1
تلق@@ 1
توت@@ 1
1934 0.25623674422871506
22.@@ 1
Bar@@ 0.07018399559385795
il@@ 0.04418276152228615
شت@@ 1
2,8@@ 1
66@@ 1
الاع@@ 1
جما@@ 1
وجا 1
2,5@@ 1
مزاح@@ 1
ناس 1
18,@@ 1
M 0.10354219344633836
de@@ 0.03510904370013468
it 0.0107222859747142
u@@ 0.03790136738827212
with 0.005610220095219401
موج@@ 1
ى@@ 1
1932 0.2684214532332802
رسوم 1
واز 1
ﺱ 1
.. 0.47679638086283815
99@@ 1
يش@@ 1
os@@ 0.054866221220801925
نحو 1
نخ@@ 1
ans 0.03440151358016755
جمہو@@ 1
ضل 1
قامت 1
25.@@ 1
andi 1
الٰ@@ 1
بشر 1
راع 1
ها 0.5019613764531817
ّا 1
افت@@ 1
ical 0.07004093830645049
ol@@ 0.03606995277475203
ł@@ 0.31126220438634083
جار 1
خض@@ 1
يُ@@ 1
ڈیشن 1
ﭼ@@ 1
ani 0.14817613166337582
ليا 1
Region 0.2601470343645269
موق@@ 1
ﺯ@@ 1
ac@@ 0.03199031077832184
نوج@@ 1
پائن 1
1913 0.30984267240145563
دخ@@ 1
صرا@@ 1
کیلی@@ 1
ity 0.04452749861224435
صلا@@ 1
عالمي 1
یاء 1
114@@ 1
ؤنڈ 1
احتج@@ 1
واض@@ 1
ٹيك@@ 1
90@@ 1
الخلا@@ 1
الوج@@ 1
تلا 1
صن@@ 1
۱ 1
117@@ 1
1922 0.2722179234848874
ot@@ 0.04184188744969119
حوال@@ 1
داع 1
عِ@@ 1
لع@@ 1
K 0.12257474488843668
X@@ 0.09344619314506522
تلو@@ 1
فلسط@@ 1
ﻲ 1
۳ 1
صل@@ 1
ﻴ@@ 1
ندق 1
19,@@ 1
220 1
امي 1
27.@@ 1
ابل 1
بام@@ 1
سٹس 1
منت 1
ناش@@ 1
ni@@ 0.06076310346361622
108 1
2,6@@ 1
240 1
5000 1
1931 0.2615599562971094
اله@@ 1
لار 1
کرین 1
2,4@@ 1
43@@ 1
In@@ 0.04170290189199307
ow@@ 0.11012564054879692
کھلا@@ 1
ﻢ 1
2,7@@ 1
be@@ 0.02994305262719002
enti@@ 0.09361099678292363
un 0.005467118148804506
كن@@ 1
القدر 1
تِ@@ 1
ذور 1
والح@@ 1
وور@@ 1
des 0.004027345110018464
خانق@@ 1
قف 1
مير 1
وين 1
are 0.011703902796523322
se@@ 0.03930648113645585
انیں 1
ريا 1
ریٹائر@@ 1
ضابطہ 1
كام@@ 1
104 1
av@@ 0.056617738459018595
الحار@@ 1
باتات 1
جند@@ 1
اك 1
ذخی@@ 1
مئ@@ 1
کمپیو@@ 1
ge@@ 0.0415215210378996
قصر 1
كت 1
ليس 1
ٓ@@ 1
1929 0.2325651620193522
2,9@@ 1
حا 1
فاؤن@@ 1
فول@@ 1
واف 1
Iowa 0.5901900130650266
برت 1
سیکر@@ 1
قت@@ 1
وزراء 1
پیچھ@@ 1
ڈکو@@ 1
ﻝ 1
California 0.13006141628793458
بلدی@@ 1
عان 1
٠@@ 1
115 1
تط@@ 1
فقط 1
فلوري@@ 1
78@@ 1
di 0.10155144475393314
اصد 1
ﺤ@@ 1
190 1
aj@@ 0.11602426400396798
ine 0.029765820239739952
تحقی@@ 1
56@@ 1
جس@@ 1
ونت 1
W 0.14993149997796898
· 0.06805371104484367
تونس 1
دوم@@ 1
رج 1
طف@@ 1
لبن@@ 1
لوا 1
100@@ 1
NA 0.833277875806578
P 0.09682182470186966
South 0.06412736377747207
1924 0.24122989027686956
ec@@ 0.043603628684085384
العل@@ 1
شيخ 1
130@@ 1
54@@ 1
احاط@@ 1
بور 1
فرنس@@ 1
ہاؤ@@ 1
‍ 1
1500 0.6387234715634581
H 0.14297611377646946
ari 0.18181067759012332
شتر 1
كتاب 1
ir@@ 0.04066481635120492
بحي@@ 1
بز 1
حوا@@ 1
وين@@ 1
64@@ 1
Haj@@ 1
ou@@ 0.05451976900579508
قرار@@ 1
لب@@ 1
پرت@@ 1
106 1
As@@ 0.10273824524006628
العب@@ 1
ضخ@@ 1
ana 0.0458548342822922
ستھ@@ 1
سنچ@@ 1
ظات 1
٩@@ 1
گنڈا 1
ﻼ@@ 1
👈 1
155 1
360 0.9833430532817858
é 0.01592690243869481
دران 1
ربا 1
De@@ 0.07545602086573429
it@@ 0.029579187269987015
ology 0.09677932364408517
بلس 1
٢ 1
107 1
114 1
Minnesota 0.44169471786222975
ism 0.08377132126525347
افری@@ 1
خروج 1
قرب 1
يون 1
109 1
235 1
الاعتق@@ 1
خم 1
فاف 1
معام@@ 1
۵ 1
112 1
122 1
126 1
Ab@@ 0.04501042835898555
id 0.07706711145513631
رؤ@@ 1
طان@@ 1
25,@@ 1
450 1
ارض@@ 1
تعال@@ 1
فان@@ 1
پنڈی 1
28.@@ 1
Am@@ 0.06942183124323292
me@@ 0.07058358754902318
بلوم 1
كرو@@ 1
میون@@ 1
نجد 1
ولیات 1
ed@@ 0.04387442722697073
les 0.0066211847246967276
ورت 1
116@@ 1
im@@ 0.02923521635891652
به 1
حذ@@ 1
طریق@@ 1
فہر@@ 1
commune 0.08356029506277762
ایکسپ@@ 1
شعر@@ 1
128 1
us@@ 0.042600849268676036
Car@@ 0.052495596608233386
ers 0.015505980932784453
سمند@@ 1
وص 1
135 1
32@@ 1
الرحم@@ 1
تسل@@ 1
23,@@ 1
Th@@ 0.04858577910130551
U 0.08470832671329546
الض@@ 1
بًا 1
وني 1
پس@@ 1
ka 0.08190357678868958
te 0.014003151354928954
فضاء 1
قع 1
دبا@@ 1
وُ@@ 1
يت@@ 1
118@@ 1
53@@ 1
eh@@ 0.07100749665812658
اسلح@@ 1
رش 1
روض 1
میونسپ@@ 1
103 1
3000 0.7361079687152678
نيك@@ 1
ang@@ 0.05373555104359021
اسکوا@@ 1
شخ@@ 1
شي 1
۴ 1
Tr@@ 0.04093087038612214
تمد 1
سنان 1
se 0.006183541361493506
الاش@@ 1
1915 0.2677776071464284
شغ@@ 1
مديرية 1
وراڈو 1
گزین 1
116 1
2.5 0.9524792491904022
21,@@ 1
76@@ 1
79@@ 1
98@@ 1
Y 0.22215189872253696
زع@@ 1
29.@@ 1
ICC 1
آرمینی@@ 1
على 0.12857809580448232
وتو 1
26.@@ 1
260 1
that 0.005621782702947418
طار 1
124 1
22,@@ 1
ai 0.07140055870365908
ent 0.014435633459468349
na 0.0517768791854373
تعامل 1
رمز 1
ريس 1
ٹوئ@@ 1
129 1
داود 1
Qu@@ 0.059344350337200244
العظ@@ 1
166 1
280 1
74@@ 1
ic@@ 0.03453607301209712
railway 0.21678754280599447
tr@@ 0.021530529727696774
ظاہ@@ 1
نات 1
88@@ 1
ang 0.08665322898085323
الوجی 1
نمائی 1
نيا 1
واست@@ 1
وك 1
توس@@ 1
لاف 1
نوائے 1
em@@ 0.03092531876391327
v 0.08078071831110839
י@@ 1
خي@@ 1
سقوط 1
قطار 1
مراہ 1
نف 1
وفی 1
يوسف 1
ﷺ@@ 1
121 1
الار@@ 1
جنا@@ 1
ساؤ@@ 1
عي@@ 1
متا@@ 1
نمو 1
ہید 1
,000 0.6658113250495808
1857 0.6033175126543534
320 1
بہاول@@ 1
175 1
1916 0.2639611977794133
الأ@@ 0.3821701601051989
لط@@ 1
ندي 1
132 1
210 1
Con@@ 0.037911440322139764
Par@@ 0.05661187647360086
gh@@ 0.31180923462752724
no@@ 0.06489492555082334
عس@@ 1
عض@@ 1
لح 1
واش@@ 1
1.5 0.7887466825360406
230 1
270 1
29,@@ 1
87@@ 1
aw@@ 0.08114193243134593
اي 1
حقی@@ 1
قنا@@ 1
ہران 1
1923 0.22385382408078938
ard 0.05874341595945134
da 0.026064399666365957
ديش 1
شري@@ 1
ﺠ@@ 1
Ali 0.372700658228432
المج@@ 1
مولی 1
نبات@@ 1
پرائ@@ 1
ہاتھ@@ 1
ﺅ@@ 1
1926 0.21163046571615332
Kar@@ 0.08391017542033737
ap@@ 0.0340105319161974
ary 0.03607585906341649
الحک@@ 1
بالع@@ 1
قِ@@ 1
يز@@ 1
کتہ 1
117 1
تدل 1
ٹائن 1
Township 0.35619961377866305
was 0.0023149776147031636
مثال@@ 1
ﺩ 1
1900 0.22382221673839203
li@@ 0.030032776464403707
الوا 1
تجاوز 1
حنا 1
رہائ@@ 1
24,@@ 1
69@@ 1
ac 0.1426776876656841
ali 0.19490227454098444
فقدان 1
ہتھ@@ 1
ﮏ 1
119@@ 0.9497716548621602
Martin 0.14017626725666618
مؤلف 1
يران 1
ﮕ@@ 1
111 1
144 1
77@@ 1
انھ@@ 1
رجال 1
۷ 1
123 1
آٹھ@@ 1
انڈونی@@ 1
لائبری@@ 1
يكا 1
113 1
118 1
137 1
الغ 1
الفضل 1
ﺻ@@ 1
113@@ 1
26,@@ 1
um@@ 0.035947802021062875
المال 1
وبر@@ 1
138 1
نجوم 1
131 1
150@@ 1
ton 0.03528366237544741
ازي 1
لل 1
ُّ@@ 1
145 1
Se@@ 0.05421364189399706
af@@ 0.05207192583652566
ing@@ 0.05258577000220799
باق 1
قصد 1
Bo@@ 0.07066593172227907
استغ@@ 1
عمال 1
ٹرول 1
چودھ@@ 1
ہمی@@ 1
85@@ 1
be 0.010004036736494457
community 0.10880133119963245
man 0.023587303146315405
poem 0.5439706523562736
تاريخ 1
درجات 1
وصف 1
ﻘ@@ 1
750 0.93308386999934
North 0.06358643742362788
Sal@@ 0.08785159552309532
Sar@@ 0.15512856192678257
one 0.011841789924285733
ti@@ 0.02597115190319592
تبع 1
کارکن@@ 1
330 1
Khan 0.41417595810688107
territorial 0.9150944383886662
142 1
City 0.052201900658374524
اختلا@@ 1
الاب@@ 1
الجام@@ 1
ایاں 1
لغات 1
ٖ@@ 1
ڪ@@ 1
۶ 1
119 1
27,@@ 1
region 0.11416816998125467
تبر@@ 1
لص 1
اتفاق@@ 1
تاح 1
داً 1
عضو 1
وتر 1
133 1
ابتد@@ 1
مشغ@@ 1
واع@@ 1
134 1
86@@ 1
الات 1
الدو@@ 1
ﻻ@@ 1
1,000 0.6585108019137107
28,@@ 1
il 0.010859269509166224
ère 0.0726301962205492
المش@@ 1
حیدر@@ 1
ده 1
فید 1
1878 0.4011868373342116
1905 0.23327063415806076
المد@@ 1
ته@@ 1
مہاراش@@ 1
1910 0.20673583259783618
ابع 1
توس 1
شرق 1
کارپو@@ 1
1925 0.19476737918233925
205 1
بروس 1
حوص@@ 1
كسي@@ 1
ملو@@ 1
موجو@@ 1
from 0.005271706923548311
os 0.01481192234926896
ā@@ 0.15027669895922524
سعيد 1
مذہ@@ 1
203 1
Be@@ 0.038576332487833355
ov@@ 0.06715213738490719
آذرب@@ 1
دوار 1
طا 1
وکٹو@@ 1
۸ 1
النا@@ 1
سرچ 1
وانات 1
192 1
1927 0.19064929987870147
et@@ 0.028193944797330315
ze@@ 0.12549361745080972
ו@@ 1
ارك 1
عقد 1
ــ@@ 1
قوس 1
چیمپ@@ 1
1928 0.17154304421770114
206 1
232 1
au 0.009065344990962723
level 0.10925130147305866
توف@@ 1
وّ@@ 1
کز 1
136 1
146 1
مانیہ 1
معظ@@ 1
مینہ 1
نشا@@ 1
والد@@ 1
وفر 1
201 1
225 1
India 0.09552241775809275
top 0.08295057613282673
ville 0.04515388390372152
؎ 1
ناٹک 1
نیوی@@ 1
ولات 1
185 1
94@@ 1
Es@@ 0.10484787506351526
no 0.017049990740547652
ثات 1
مرتب@@ 1
نمائ@@ 1
159 1
1908 0.23009535298019984
97@@ 1
ie 0.019070053839907116
قاط 1
يرا 1
يع@@ 1
یاف@@ 1
158 1
167 1
1870 0.3153361598594562
1911 0.2213561592345149
256 1
ki 0.10483682965788887
ra 0.03892558981139472
الور@@ 1
مناز@@ 1
153 1
193 1
650 1
الحاج 1
دیث 1
30.@@ 1
ong 0.07056311245405225
دفت@@ 1
مرات 1
184 1
1848 0.3794336678237183
1890 0.2887987689448937
Mon@@ 0.05048386268399969
Pakistan 0.3050212779123166
ian 0.0729211795457007
جہانگ@@ 1
حاک@@ 1
دين 1
رك@@ 1
عرا@@ 1
لين 1
262 1
Jean 0.07525283260377728
od@@ 0.050517034447411145
البا@@ 1
ﺸ@@ 1
1907 0.2374377281134596
المدارس 1
١ 1
165 1
255 1
Air 0.11000367652975462
Mal@@ 0.0780319287413383
القر@@ 1
قط 1
له 0.810583136432282
ﻔ@@ 1
152 1
186 1
1880 0.31924797598609495
Man@@ 0.061386624744309094
أ 1
درخوا@@ 1
كان 0.3496422826350002
كوم@@ 1
وبر 1
Ho@@ 0.11315078727425384
Tol@@ 0.3816146368487233
bot 0.3530266726041437
ne 0.02116969193685609
رسم@@ 1
سسٹ@@ 1
عود@@ 1
غالبا 1
معبد 1
181 1
550 1
Sa@@ 0.1271331571815463
ابي 1
اجتماع@@ 1
٣ 1
149 1
163 1
187 1
Br@@ 0.04115206717848745
incorporated 0.34379187515310283
qu@@ 0.026011453135945384
حك@@ 1
ذری@@ 1
هن@@ 1
واء 1
کلاسی@@ 1
156 1
194 1
96@@ 1
كاس@@ 1
هر 1
يان@@ 1
127 1
141 1
84@@ 1
China 0.0928018304443394
Col@@ 0.05031450191785734
ez@@ 0.1110907677809162
اوہ@@ 1
طي@@ 1
162 1
183 1
247 1
265 1
ics 0.05950913834245126
الشام 1
برٹ@@ 1
بلد 1
حرب 1
مة 0.6316517754414348
171 1
Gu@@ 0.05966541679151319
ala 0.08971992825013472
رمز@@ 1
221 1
Bol@@ 0.16964171962068375
West 0.060450716235458765
age 0.016250349127542967
ro@@ 0.025761246318664072
العرب 1
اند 1
عداد 1
فرینک@@ 1
میوزی@@ 1
176 1
217 1
3.5 0.9981280500035632
Com@@ 0.050846375316324285
ver@@ 0.013253612223890465
اسرائی@@ 1
الحر@@ 1
العلم 1
تعی@@ 1
سري@@ 1
متم@@ 1
148 1
154 1
1860 0.3359982142669581
195 1
oc@@ 0.029817904364032772
ائیہ 1
المت@@ 1
كا@@ 1
معظم 1
وطات 1
۹ 1
ﻭ 1
147 1
189 1
1909 0.23203960100883628
197 1
268 1
World 0.03285553431388083
id@@ 0.029589224655031138
ائر@@ 1
متر 1
٤@@ 1
204 1
Ag@@ 0.10933728413630882
Department 0.13558533120569755
Jersey 0.24217465628736226
li 0.12243650021403751
آبادیاتی 1
استقلال 1
اعل 1
سوي@@ 1
مورخ@@ 1
139 1
168 1
89@@ 1
Pierre 0.13851921621680632
to@@ 0.035889532515442316
الموت 1
بلن 1
درو 1
227 1
275 1
Bel@@ 0.05972281524442121
bi@@ 0.03346564134806693
Bal@@ 0.08758098736712654
po@@ 0.025563530536179015
re 0.026623849696530016
سڈ@@ 1
ومح@@ 1
يب 1
٠ 1
191 1
209 1
259 1
co@@ 0.02147286407251955
di@@ 0.020977235206335897
ice 0.06298176746122018
ri@@ 0.03436918897506599
زرا@@ 1
غرق 1
ﺐ 1
207 1
ari@@ 0.06895033507930114
ma@@ 0.059531661569546736
المست@@ 1
زت 1
ساس 1
صع@@ 1
ملك 1
161 1
164 1
241 1
domain 0.7140233991560078
tube 0.7409524577384757
دام 1
فعل@@ 1
182 1
1897 0.276604104021998
253 1
32.@@ 1
ci@@ 0.03757595632645649
w 0.05100996368127136
اضاف@@ 1
تد 1
2.2 1
London 0.06068066709068594
area 0.03999693829576945
tic 0.059497685177122735
ہف@@ 1
1895 0.27659882455295665
ik@@ 0.040602501747280736
تث@@ 1
تمث@@ 1
178 1
245 1
305 1
land 0.02786565287888701
الخط@@ 1
خلف 1
صنعاء 1
مدن 1
ميون@@ 1
وظائف 1
ّر 1
212 1
30,@@ 1
5,000 0.4844467611888845
br@@ 0.027691429170191736
county 0.18616863094829583
ha 0.04251409002753666
بري 1
سمع@@ 1
ينس 1
218 1
272 1
ai@@ 0.11723777101907938
st@@ 0.014809621691842304
ؒ@@ 1
آبادی@@ 1
موض@@ 1
وانوں 1
٦@@ 1
1200 0.7424959017202739
202 1
222 1
254 1
Sea 0.24069320704033012
ﻬ@@ 1
1876 0.35100586945057893
242 1
370 1
4000 1
خصوص@@ 1
رة 0.5147556940925084
ويا 1
38.@@ 1
Ro@@ 0.05190540658594365
University 0.02492301914570039
بوا@@ 1
وکٹ@@ 1
া@@ 1
169 1
1901 0.23587717889952325
? 0.08753211240353062
Mo@@ 0.057955946277286695
ance 0.02761767202922249
que 0.003327618663637386
الوا@@ 1
زوج@@ 1
ﺰ@@ 1
172 1
borough 0.2935097460991702
ts 0.015926949522944264
الست@@ 1
المنا@@ 1
بالغ@@ 1
بدلا 1
ةِ 1
حديث 1
شعار 1
وائی@@ 1
کاون@@ 1
143 1
284 1
القدس 1
عیات 1
196 1
198 1
Co@@ 0.03995077856826362
Japan 0.10114942739686071
Per@@ 0.04698262690146196
ons 0.024934939593076574
البلا@@ 1
المث@@ 1
ترجی@@ 1
عار 1
فرائ@@ 1
لوي 1
نع 1
پختون@@ 1
1906 0.2048614918044514
95@@ 1
St@@ 0.025686867168723534
ji 0.17262006285712828
ter 0.01582114242223312
باخت@@ 1
غون 1
173 1
213 1
244 1
Bag@@ 0.3514492776178102
te@@ 0.03286363627501658
الين@@ 1
دين@@ 1
كس@@ 1
ﭖ 1
177 1
1812 0.4936320357778088
380 1
ant 0.012257802906644561
مائي 1
151 1
1896 0.2564241850386559
271 1
310 1
34.@@ 1
Char@@ 0.09090508697078636
Le@@ 0.03254095842606176
Ne@@ 0.045338969947327876
agh 0.8592658494596688
ne@@ 0.03683017357465293
العالم 1
المس@@ 1
تورا@@ 1
روع 1
مري 1
302 1
36.@@ 1
Kal@@ 0.12950528962789043
المغ@@ 1
سباق 1
شارع 1
ونيا 1
269 1
299 1
340 1
lu@@ 0.064063398195053
og@@ 0.050853433368625675
ve 0.013017616300424506
روما 1
وراء 1
ٴ 1
1- 1
174 1
1877 0.34494525852427765
1904 0.2076735931452411
199 1
252 1
39.@@ 1
420 1
أُ@@ 1
اضطراب 1
نٹین 1
1898 0.24191666921363578
215 1
228 1
249 1
290 1
326 1
Ur@@ 0.08998644210151185
الدار 1
بوج@@ 1
دن@@ 1
شال 1
ولم 1
يلا 1
َّا 1
2- 1
224 1
ated 0.01341040248486334
é@@ 0.019975119571800506
اسي 1
كش@@ 1
ورة 1
157 1
188 1
216 1
37.@@ 1
Inter@@ 0.06688090286940031
ch 0.025698673939190425
ong@@ 0.08684674126030453
الوط@@ 1
مب 1
پاك@@ 1
ہرزی@@ 1
ہسپ@@ 1
﴾ 1
273 1
ins 0.03205529405974472
ويل@@ 1
1800 0.41420296005875806
211 1
223 1
239 1
251 1
National 0.029571788494261446
فيصل 1
كوس@@ 1
277 1
4.5 1
Pr@@ 0.04255894276549537
ce 0.0184589403465579
ure 0.032679502218752376
zy@@ 0.26864864178105413
وه 1
243 1
291 1
35,@@ 1
Park 0.06069524015972986
je@@ 0.14014005550961373
اسات 1
الات@@ 1
ترف 1
داؤ@@ 1
زيد 1
1.6 1
1899 0.23831123927460685
tion 0.026994631165025585
راض 1
سپی 1
فتاری 1
فتح@@ 1
فرت 1
ليل 1
کاررو@@ 1
2.3 1
208 1
279 1
301 1
ستان@@ 1
1.2 0.9646576790518289
233 1
Chapelle 1
Ma@@ 0.055497088092729775
aq 1
em 0.043566219711464495
بلج@@ 1
دوق 1
لگو 1
231 1
248 1
292 1
430 1
AC@@ 0.1630982856014426
San 0.03570731953408453
الرو@@ 1
واجد 1
واصل 1
پیپ@@ 1
کردگی 1
Cor@@ 0.040329449325719496
ie@@ 0.09373763270351947
ig@@ 0.027613514328297586
القض@@ 1
مصادر 1
وست 1
10,000 0.532332676029911
214 1
263 1
285 1
286 1
37,@@ 1
hi 0.17148123640619134
lo@@ 0.020950205492080144
رفع 1
قسطنط@@ 1
مير@@ 1
وادي 1
﴿ 1
234 1
all 0.01423316837474693
ev@@ 0.0433053073566481
ta 0.02819229304392226
th 0.02608829075426296
ابراہ@@ 1
الفت@@ 1
الواحد 1
ساب 1
فاء 1
ﺌ@@ 1
ﻳ@@ 1
1830 0.37707636951283163
283 1
288 1
303 1
33.@@ 1
34,@@ 1
Di@@ 0.03539552279976419
Pennsylvania 0.18823397876035855
du@@ 0.051615424150483216
ina 0.02936104103232501
pr@@ 0.028849335501183675
yn@@ 0.10242689796671699
تقسيم 1
33,@@ 1
Mont@@ 0.13267384890186865
man@@ 0.03275161465752361
ob@@ 0.03564181458223197
ok@@ 0.06137388038222466
á@@ 0.04335533144292617
التر@@ 1
بوا 1
تاء 1
ٹاہ 1
ﮢ@@ 1
219 1
35.@@ 1
اكي 1
الجن@@ 1
بادشاہ@@ 1
شهد 1
عث@@ 1
نقاط 1
يوم 1
ٖ 1
پیو@@ 1
ﮬ@@ 1
2.6 1
238 1
ly 0.018106648658711193
سكي 1
نبو@@ 1
٥ 1
ﻃ@@ 1
1882 0.2962520355829759
2,000 0.5854688045900084
2.7 1
he@@ 0.0407326217613266
human 0.1213613711726731
شاف@@ 1
وتع@@ 1
کینٹ@@ 1
1892 0.2545427557020282
257 1
293 1
ash 0.132241514511452
est 0.0033057851563715285
language 0.08676293291317073
op@@ 0.026358198404918452
za 0.05637126663765178
ؓ@@ 1
الدع@@ 1
بناء 1
عاد@@ 1
نشاط 1
وائل 1
يار 1
٧ 1
297 1
Gen@@ 0.08589972216316571
occo 0.8799517967060146
si@@ 0.027291411819052126
الظ@@ 1
1.1 1
246 1
258 1
281 1
295 1
Me@@ 0.04432904593641518
Or@@ 0.04213544211050217
ecture 0.47220144060405633
yr@@ 0.09342400391453429
آذربائی@@ 1
السل@@ 1
بلاد 1
226 1
278 1
306 1
307 1
Autonom@@ 0.8383472476400312
qi 0.5730156903773831
ahr@@ 0.35677715034480945
ain 0.05329977092417701
au@@ 0.030127730327462923
باف@@ 1
بوم@@ 1
تت@@ 1
صار@@ 1
فتار 1
٦ 1
ﮍ@@ 1
ﺏ 1
179 1
1881 0.28088733184868014
1894 0.24821859323356557
264 1
Go@@ 0.07843592043474869
Q 0.1784463497170479
Ta@@ 0.16789506006198898
and@@ 0.035888721627572416
ber@@ 0.028435896392271905
iv@@ 0.08397279278717026
ore 0.048448929597730436
البحر 1
بذ@@ 1
بك@@ 1
چیئر@@ 1
کوز 1
2.0 0.6953258118708285
266 1
312 1
Airlines 0.49063868800090255
Har@@ 0.058323278836377716
ish@@ 0.06967596859073846
uy@@ 0.1360549125131208
المط@@ 1
ريك 1
٨@@ 1
1871 0.2630010869459253
1902 0.1927962902957958
325 1
Bas@@ 0.0796613986407131
Kingdom 0.12726170320330235
ach@@ 0.02990324662035723
section 0.09805301348594749
ָ@@ 1
استن@@ 1
كار 1
٤ 1
236 1
294 1
31.@@ 1
Tar@@ 0.12588764384998208
Ver@@ 0.017553381027381288
Voivodeship 0.5114765515381368
أبو 1
بجانب 1
قب 1
نى 1
46.@@ 1
Mah@@ 0.12281528494991925
ek@@ 0.04337316256684174
har@@ 0.059262249820323604
غرب 1
كم 1
٧@@ 1
ٹیکس@@ 1
1903 0.1871225289933941
229 1
267 1
311 1
AD 0.28155168484223625
Bi@@ 0.05766464251695709
En@@ 0.04034099528011105
In 0.0036789614934452874
She@@ 0.21742743871934253
administrative 0.16963518741754297
az 0.14809172022774197
iy@@ 0.1719955468691236
العمل 1
ديا 1
صلاحی@@ 1
فاض@@ 1
پریفی@@ 1
ہیپ@@ 1
1815 0.41217206618913027
1887 0.26231725368396674
289 1
IS@@ 0.13156538368061627
ek 0.07674049014094113
ola 0.10808124191086854
par@@ 0.017432095457449098
تداد 1
تعلی@@ 1
مم 1
پرچ@@ 1
ہاش@@ 1
1.7 1
276 1
36,@@ 1
als 0.005430794168688447
han 0.07857608275088206
iz@@ 0.037351893573840736
بحی@@ 1
سك 1
شه@@ 1
٥@@ 1
Is@@ 0.08633484563800489
افظ 1
جسم@@ 1
ساچوسٹس 1
وآ@@ 1
ّم 1
ﻄ@@ 1
1.8 1
1884 0.26214636925728385
261 1
296 1
365 1
410 1
Ex@@ 0.03523334738771144
Mir@@ 0.13858291331848327
ara 0.053180251838373514
التف@@ 1
الواق@@ 1
الوقت 1
تها 0.668689411461485
عاز@@ 1
عود 1
فوق 1
چیس 1
298 1
DNA 0.3082617259303558
Lower 0.4588888044263023
Wisconsin 0.2540342178915478
ati@@ 0.03496696930812741
احترا@@ 1
الح 1
بشر@@ 1
تين 1
شير 1
محر@@ 1
1.3 1
237 1
282 1
309 1
Ber@@ 0.0389602735642469
England 0.05542358590762314
العزيز 1
جيم@@ 1
حفا@@ 1
1.4 1
2.4 1
Arch@@ 0.11075148945199488
Mi@@ 0.1045326218680188
a.@@ 0.4231003654750068
mar@@ 0.021984869693153896
province 0.10545474740915867
ר@@ 1
جاج 1
ربي 1
كت@@ 1
وير 1
يوان 1
ﮮ 1
2.1 1
2.8 1
287 1
Ah@@ 0.2674330433909172
Ru@@ 0.0877732306735201
ence 0.026944968138109007
hi@@ 0.047039158592802936
local 0.037913905526166046
ru@@ 0.03775296018011832
tri@@ 0.037591396229041354
إ@@ 0.2665096786676183
لاك 1
مرك@@ 1
ويك@@ 1
کانگری@@ 1
0.7 1
1879 0.2682922827302727
850 1
East 0.06029826541421936
ha@@ 0.09231060737077086
ho@@ 0.0396306190331926
ازات 1
حف 1
سعو@@ 1
سيل 1
سیال@@ 1
نه@@ 1
والي 1
يش 1
---- 1
274 1
321 1
Az@@ 0.1515067970174512
Le 0.009302926777061992
River 0.04785839652377832
ey@@ 0.10642465853360536
ographic 0.30982425968669797
توان@@ 1
ثلاث@@ 1
خلي@@ 1
شخصی@@ 1
عاً 1
يشن 1
ٌ@@ 1
8.5 1
Sey@@ 0.7389488800908358
Su@@ 0.061743416377034656
aire 0.03041890535270589
has 0.007387949834087574
ma 0.034503787140736146
البلد 1
فرسن 1
قبائ@@ 1
كاري 1
وه@@ 1
2500 1
Lo@@ 0.04665053452822559
eb@@ 0.030136767154015618
ex@@ 0.01647446032236489
its 0.007167310660363985
ּ@@ 1
غير 0.5521545599039479
1886 0.24038394998048326
1891 0.2253020436498004
aux 0.013712391297247625
dis@@ 0.014141263447693017
ent@@ 0.015390187415821785
type 0.07248908245963953
מ@@ 1
تك@@ 0.9156738751711169
حضر 1
ره 1
ريل 1
فرز@@ 1
قضاء 1
میکسی@@ 1
ويت 1
يرو 1
ﺼ@@ 1
313 1
460 1
Mohammad 0.9611500721610048
Mos@@ 0.14950665744139546
ica 0.03559194381684892
بازن@@ 1
سوخ 1
كيا 1
ويلز 1
் 1
333 1
375 1
Her@@ 0.04483562057235727
Islands 0.21394857342006585
were 0.004906834271649373
اريو 1
بيت 1
جوان@@ 1
رين@@ 1
عیل 1
يد@@ 1
1864 0.24692144931993046
6000 1
Pal@@ 0.07453311808240148
People 0.15130264811664773
اختی@@ 1
فوف 1
نقص 1
وجد 1
وح 1
0.8 1
1856 0.3188593587312442
1885 0.2145447037861607
Ph@@ 0.067106447631506
Ri@@ 0.06398300212962874
ill@@ 0.03234319326489267
per@@ 0.016820423455050644
خول 1
ساع@@ 1
ضعف 1
كوي@@ 1
1813 0.45907689662243145
3- 1
308 1
316 1
317 1
334 1
390 1
Shu@@ 0.5134733152769017
adi@@ 0.07544434106707959
eg@@ 0.025745784374331497
É@@ 0.05540267685957622
عي 0.9897809670752746
هن 1
کابی@@ 1
ﻀ@@ 1
1814 0.4016530752505889
324 1
Gr@@ 0.02956149205165292
Mac@@ 0.06548245005234381
pi@@ 0.03453111671137855
ę@@ 0.37587120052327605
تفاعل 1
طاق 1
عشر 1
304 1
315 1
Mississippi 0.2994886778042291
able 0.01577060416757037
gu@@ 0.034682384884931236
ille 0.0639360240399016
ter@@ 0.019279814768485903
بني 1
تبا@@ 1
خص 1
زات 1
صاد@@ 1
ماً 1
ٔ@@ 1
٨ 1
32,@@ 1
Al 0.05808817541230587
Po@@ 0.047505419864134694
Un@@ 0.0406862819729508
country 0.05233532536804859
ile 0.02652062164188599
this 0.01003630222483954
الآ@@ 1
حو 1
ریجن@@ 1
عند@@ 1
لوے 1
٬ 1
ۡ 1
1850 0.2481139577942783
480 1
787 1
CO@@ 0.16377317424262114
Germain 0.7015298262175355
ley 0.027290307845794285
الدر@@ 1
الرجال 1
ذت 1
رقام 1
مقاب@@ 1
نفس@@ 1
680 1
Gol@@ 0.17615462037544546
Mas@@ 0.0697808049709207
Shah@@ 0.8001565861015314
اده 1
بوت 1
تقد 1
ده@@ 1
سوق 1
فاس 1
ماني 1
هر@@ 1
ڙ@@ 1
0.5 0.8585518974118839
1.9 1
520 1
AR@@ 0.10890867354661567
BC 0.12950763864611278
Cy@@ 0.13142710092606388
J 0.09980029666081558
ba@@ 0.050063558231087
era 0.01697176670154685
́ 0.04516841409576463
ؔ@@ 1
رق 1
سكو 1
1889 0.20098212467021578
314 1
322 1
323 1
ama 0.0577159967625273
con@@ 0.014256845845015836
state 0.02750084012111274
أبي 1
البي@@ 1
العالم@@ 1
سليمان 1
لص@@ 1
چوس@@ 1
← 1
1893 0.2004658373490775
39,@@ 1
Ad@@ 0.04396127779250518
IN@@ 0.16085508246444483
York 0.022871777684777855
gen@@ 0.025507940606110602
ot 0.0417169295565626
الشر@@ 1
بير 1
بيل 1
ٍ@@ 1
4.2 1
Hu@@ 0.08176514286353767
Pro@@ 0.03973878602738746
bar@@ 0.03275986699365206
ou 0.014068549832941469
sp@@ 0.021886949240823107
بيب 1
داع@@ 1
طرت 1
عجائ@@ 1
ولت 1
يوس 1
1867 0.2378555970321342
332 1
Gar@@ 0.06910006933865562
State 0.03132906708155802
im 0.0040140375480531695
mo@@ 0.024305192204852492
ory 0.05275165716182613
ارجن@@ 1
انٹرو@@ 1
ذن 1
1888 0.20807836177593642
440 1
For@@ 0.03965019865592814
Ku@@ 0.14787117227658972
Mol@@ 0.09399730226855156
Pi@@ 0.05538473789998685
ge 0.022600528479128267
ran@@ 0.0366426208558281
ta@@ 0.05944132286497811
א@@ 1
أن 0.12726972497616762
اتل 1
الثق@@ 1
بير@@ 1
ةً 1
شعاع 1
عة 0.3806441780596658
ہتھی@@ 1
110@@ 1
Ger@@ 0.048431810774375056
Parish 0.5019610775293077
ca 0.04449151144569514
chi 0.0950636897111566
der 0.0010603678050222002
government 0.032673850839217394
not 0.008386558057201714
style 0.05160747869940227
شرات 1
فاص@@ 1
كلارك 1
منح@@ 1
٩ 1
40,@@ 1
7.5 0.9384845204998956
UN@@ 0.16834842177170659
ale 0.015560856050676164
do 0.019175563188638885
pl@@ 0.017651392545480624
كام 1
مندر@@ 1
نب 1
يلي@@ 1
1700 0.609865629724417
48.@@ 1
Far@@ 0.08598760034661894
Has@@ 0.27011042881949915
Nebraska 0.4667366123149209
Shar@@ 0.15537374508597984
U.S. 0.046487278336983025
com@@ 0.022518083067270978
end 0.015382176400041862
عقب 1
وتق@@ 1
وني@@ 1
335 1
38,@@ 1
381 1
45.@@ 1
Str@@ 0.03271217971727124
^ 1
ite 0.02197421297457834
ut@@ 0.028412619289578226
ys@@ 0.06659378588375153
اعتم@@ 1
الآثار 1
رونی 1
غار@@ 1
غل 1
مالك 1
گھن@@ 1
ﭽ@@ 1
ﻑ 1
ﻫ@@ 1
0.6 1
ania 0.12579981599791956
ator 0.03714100471865402
do@@ 0.039479740533439535
mon@@ 0.02298665913366742
str@@ 0.02546715638687619
ə@@ 0.7782724321526823
ريو 1
سري 1
ينز 1
پنس@@ 1
র@@ 1
345 1
395 1
560 1
AS@@ 0.10048934502038882
Indian 0.06745762455780159
Sol@@ 0.06018040321288766
hu@@ 0.049821842290289776
ment 0.024372399345676442
uk@@ 0.06856963265245984
world 0.03905425846826277
تناز@@ 1
ديم 1
مینیا 1
ﭩ@@ 1
Ac@@ 0.04543467491241203
Cal@@ 0.049500290934073314
Moh@@ 0.274597237350373
ast@@ 0.05039699927546533
dan 0.10359766447770605
den 0.0029717606563251886
ette 0.03553381997342901
gr@@ 0.017917546024640362
rural 0.13634626688717355
son 0.005428960070403612
اوي 1
ايا 1
اکیڈ@@ 1
كتب 1
وأ@@ 0.30357284406768253
يف@@ 1
318 1
336 1
354 1
44,@@ 1
47.@@ 1
El@@ 0.02883122119555962
Ham@@ 0.11182989882325794
Lan@@ 0.20706597325842804
Santa 0.0720049274743203
Tal@@ 0.1093933321779679
Val@@ 0.05753564865592297
del 0.0034815341090207908
ku@@ 0.09894109328843989
ó@@ 0.04252575151972956
ש@@ 1
المذ@@ 1
المه@@ 1
تحمل 1
رضي 1
سوسائ@@ 1
عليه 1
كوك 1
338 1
Sau@@ 0.16589075129536585
field 0.031127668277461412
states 0.09383176753931059
تز 1
ساء 1
-- 0.5779141046560174
1849 0.28818795319915175
20,000 0.6414041667385615
45,@@ 1
Ali@@ 0.1845853697032468
College 0.03357973758014315
John 0.018927475493123527
Sub@@ 0.08380574121563729
mad@@ 0.15154536925389853
كاون@@ 1
كوك@@ 1
موا 1
ينو 1
ٗ@@ 1
Chi@@ 0.08177549691407507
Li@@ 0.048218211662063346
Ser@@ 0.0467672903742655
ali@@ 0.04757417590270537
ano 0.024534018914719118
bu@@ 0.04288963737915419
our 0.03456365177851231
si 0.037587702164326324
ś@@ 0.3998444276853933
تعليم 1
وسي@@ 1
--@@ 1
1858 0.2793703137731352
49.@@ 1
570 1
8000 1
Korea 0.1782709625546528
est@@ 0.02302831495232002
ל@@ 1
الرؤ@@ 1
انگری@@ 1
حول 0.8934110107859671
دير 1
سيا 1
كير@@ 1
لاق 1
ملائی@@ 1
نص 1
1840 0.2554643570892652
540 1
Av@@ 0.0911325739021888
Bur@@ 0.04433354867274306
CA@@ 0.11657147434512627
CC 0.23406576980026136
Gal@@ 0.0630330642204027
aj 0.30514908628898463
ao 0.07165159966113951
cities 0.14386817430158966
ni 0.05063923917811391
ְ@@ 1
ادائی@@ 1
العصر 1
بارات 1
بكر 1
تمر 1
غرا@@ 1
كول 1
متز@@ 1
ٽ@@ 1
1873 0.21767357751357894
319 1
331 1
337 1
355 1
5.5 0.9644579155143175
Ab 0.10721760460852217
Laurent 0.39716406488955425
So@@ 0.04794264777556392
ens 0.013653833729738335
ess 0.028704503443205576
he 0.0034663500648688733
inter@@ 0.016251233257881758
ita 0.04517060615622069
mi@@ 0.03524140207411408
net@@ 0.11682135955439851
ؑ@@ 1
اه 1
فیڈری@@ 1
مقتل 1
ਰ@@ 1
ﮫ 1
1300 0.6912095774884855
3.3 1
530 1
Kur@@ 0.08094180055561781
ant@@ 0.02852926031709994
ard@@ 0.05197429787303015
ations 0.0106706315066262
jan 0.302714968822127
pa@@ 0.17404341344452473
ve@@ 0.057873298509460686
ב@@ 1
المخت@@ 1
تري@@ 1
غور@@ 1
معرض 1
0.2 1
1861 0.20102499412078056
356 1
AM@@ 0.15089216647803955
Bor@@ 0.05584393106536156
He@@ 0.030956079700668132
Time 0.13410834620875836
elle 0.010668740179997603
org 0.6695492851125502
ul 0.11794812166462286
ה@@ 1
بيع 1
ريم 1
عين 1
مجھ@@ 1
مراجع 1
والق@@ 1
گفت@@ 1
6.5 1
640 1
Lab@@ 0.23583913981356594
Pref@@ 0.4597842457337966
ane 0.049272827529957174
division 0.0601757294382574
end@@ 0.02091234248742814
ה 1
ازت 1
اویر 1
خصائص 1
فرنس 1
1875 0.2103482219043375
AN@@ 0.1554939107643478
Ba@@ 0.11289786450385468
Lah@@ 0.46393663062040547
ann@@ 0.03258675632318391
ign@@ 0.05308048803141179
ist@@ 0.03154751198404996
sa 0.011476716422644853
ti 0.05189315438943249
uch@@ 0.060372703552903896
براون 1
زين 1
0.3 0.9373869133157525
000@@ 0.8298218921152596
1804 0.46618409252347953
490 1
Loire 0.28015515268481533
ja 0.047844137157917146
object 0.3272881108364137
om 0.055304414457368674
tes 0.01869167850001206
اضي 1
ةٍ 1
روج 1
طراز 1
كاؤن@@ 1
كات@@ 1
3,000 0.49657323253128405
48,@@ 1
Shah 0.42404243990653734
include 0.03421546454343475
ome 0.07463289177813377
tics 0.06657151341294634
سلک 1
قفق@@ 1
يول@@ 1
﻿ 1
3.1 1
343 1
Em@@ 0.07155560575686669
Hil@@ 0.11412215390979093
bo@@ 0.020439115490861498
ess@@ 0.026899453012478022
× 0.1398934492683682
بعنوان 1
جين@@ 1
فري 1
كين 1
لما 1
مارس 0.7761411045634384
ٴ@@ 1
Ha@@ 0.08246366521040756
Sel@@ 0.09553684494646392
ath@@ 0.03797631830659325
ative 0.027067524886391824
ford 0.041040342552518386
ion 0.039215587520752784
السع@@ 1
بقاء 1
ماتح@@ 1
ﺨ@@ 1
1400 0.706156425121457
1839 0.32098550083315636
1872 0.2056198480378487
At@@ 0.062049997494969575
Lar@@ 0.11019687153801164
Sur@@ 0.07127437505563099
ais 0.06274102543894457
cr@@ 0.02561218976969393
ell@@ 0.025797438806627708
eng@@ 0.032274329287068027
go@@ 0.06207132673983269
her@@ 0.022255175658949713
lar 0.05884112898365052
ular 0.049267508833283964
المز@@ 1
النج@@ 1
ضي 1
عبر@@ 1
نك@@ 1
ّن 1
ﺲ 1
￼ 1
1600 0.4457379101817284
99.@@ 1
Bu@@ 0.08034550456755825
Ra@@ 0.10546135199798476
ji@@ 0.22100852776999605
ost 0.14105154490187047
so@@ 0.02261149031166848
ִ@@ 1
المقد@@ 1
اني@@ 1
انيا 1
بالم@@ 1
بلي@@ 1
جزئ@@ 1
راض@@ 1
غي@@ 1
ﺿ@@ 1
1865 0.18906130277286165
It 0.006118425355212272
Kor@@ 0.07556040238828152
Poland 0.12923833257304923
Si@@ 0.06493686833182681
ba 0.06798534456371294
system 0.028543409464449714
ym@@ 0.0703224293772597
ères 0.05001438679971259
ائق 1
الاد@@ 1
ثاني 1
كيمي@@ 1
نزدی@@ 1
نفا@@ 1
کاروب@@ 1
ݨ 1
ਾ@@ 1
་ 1
ﻏ@@ 1
ﻱ 1
IC@@ 0.13117721539884228
Lin@@ 0.09085147632474867
Russia 0.10437763250075646
arg@@ 0.08429090747025787
sk 0.1258108871659221
جغرا@@ 1
جمي@@ 1
خطر 1
ساتھ@@ 1
قار 1
ومي 1
يه@@ 1
ﺅ 1
1.0 0.7759433397527195
386 1
Cas@@ 0.047155577616302534
Now@@ 0.41778071931098726
ates 0.018294139941705565
jpg 1
trans@@ 0.022749286712403637
بم@@ 1
ریلو@@ 1
ساف@@ 1
صدي@@ 1
قري@@ 1
قصص 1
্ 1
0.1 0.7934043434888792
470 1
630 1
999 1
ada 0.010168979244614495
department 0.12859122841606746
ency 0.07310290762989712
ey 0.03317279051203282
hir 0.3743467012135974
lam@@ 0.06317504916185011
ly@@ 0.08017473617652911
me 0.021890204253213676
ng@@ 0.06904914572452471
ءت 1
استف@@ 1
القص@@ 1
بيد 1
دائرة 1
عقاب 1
فين@@ 1
− 0.1425809008786529
1828 0.34654348626382836
1859 0.2134400883699172
1862 0.18505937351368515
1883 0.18780414062857648
6,000 0.7531038241300119
Aub@@ 0.3580749933627937
Hasan 0.8946382052208774
Kam@@ 0.10104461849421915
Sy@@ 0.08154986004484605
arr@@ 0.036871386682653204
ata 0.03370119512736934
bl@@ 0.022112395719083824
pe@@ 0.025687608458411688
uv@@ 0.10281930526335148
المخ@@ 1
المقابل 1
باح@@ 1
خرج 1
زیز 1
فح@@ 1
مناصب 1
مه 1
1838 0.29797571450132304
4- 1
4.0 1
46,@@ 1
Bah@@ 0.12191098071122831
IM@@ 0.18088229894390367
Lake 0.06413162563759538
No@@ 0.07922899843468333
Peru 0.326874192525011
air@@ 0.04522204620562859
osis 0.14032356515933228
people 0.01857948432956927
res@@ 0.018552791348196783
vi@@ 0.019157389524714283
ès 0.08704504090706654
اہب 1
بوي@@ 1
رك 1
صوت 1
عيل 1
Cl@@ 0.053635805674896515
IV 0.07639823952510068
Nord 0.083025075171996
UTC 0.45666413658333055
car@@ 0.018479971456956047
che 0.025904364313280963
ets 0.021886288381178533
ą@@ 0.41518617127167556
الثاني 0.9648610763006227
بوب 1
صندوق 1
لد@@ 1
وكي 1
يق@@ 0.7514588097172543
1832 0.3000443797121607
1853 0.2561824315981815
50,@@ 1
Ban@@ 0.0810277327052375
Fer@@ 0.09201201654678377
Georges 0.19180109331960604
Lam@@ 0.13575988735170802
RE@@ 0.16690827347014342
ish 0.04072991557785795
languages 0.15629388230446986
their 0.005915891762983912
yg@@ 0.15645263688273747
ˈ@@ 1
ַ@@ 1
الشع@@ 1
تات 1
جت 1
صاص 1
صحيح 1
نساء 1
وَّ@@ 1
ية 0.15212846883559136
ﻒ 1
1863 0.17959266831643472
404 1
660 1
960 1
Ko@@ 0.05963328492175944
estan 0.615982388700658
geograph@@ 0.39108982443685836
gi@@ 0.024492367919314466
have 0.007042603322909602
istan 0.20442973204580223
lès 0.7728084018892529
sub@@ 0.0196961121578213
ush@@ 0.1217792657532216
العلا@@ 1
براء 1
فلوری@@ 1
ناہ 1
يف 1
ٹورنام@@ 1
1866 0.15314441762926195
405 1
610 1
720 1
AL@@ 0.186561108011662
Beau@@ 0.13280319522853454
Trans@@ 0.05438945938867543
Vil@@ 0.09985877233552391
bar 0.0444722778069343
tu@@ 0.02848196842639959
اللح@@ 1
بیو 1
تام 1
ته 0.30079967057241247
تکلی@@ 1
خوا 1
سندر 1
لکھن@@ 1
والع@@ 1
ٰن 1
1806 0.31121767957212115
49,@@ 1
510 1
Empire 0.07328598823576032
Lu@@ 0.0492149032029508
Maryland 0.17792901381492632
Ni@@ 0.06068467352283686
Paul 0.0325237869372157
ass@@ 0.017904089783155566
bot@@ 0.08520252941079484
ist 0.0032599199500761736
ko 0.060069657999042125
more 0.010104137197796709
pur 0.2049119202163186
use 0.015673961995325805
ä@@ 0.01947331808015517
الروا@@ 1
سوف 1
شك@@ 1
كون 1
وة 1
100,000 0.4147525561091024
1826 0.3412038417509532
1846 0.2562428962914058
1851 0.23893935758724774
1869 0.1917692335901268
3.2 1
401 1
760 1
Dyn@@ 0.3107956557053953
Julien 0.5855977770705938
Pl@@ 0.03965356397603737
San@@ 0.06617795754381776
St. 0.031992053317528656
Tom@@ 0.09883823811428644
anti@@ 0.03697922120288793
bi 0.1125909574687886
cas@@ 0.03153319236584918
mer@@ 0.021401730656329724
ze 0.046125392775257436
تخصص 1
ربع 1
فة 0.5224518189171854
قوب 1
425 1
Mat@@ 0.049801494870737026
over 0.010211821299320264
ؤٹ 1
ادل 1
خمس 1
ميد 1
وسي 1
وقعت 1
ومع@@ 1
یکس@@ 1
ﭨ@@ 1
406 1
47,@@ 1
Bon@@ 0.11456805548218818
Nas@@ 0.23655630623362636
Sad@@ 0.23305190427204858
ain@@ 0.03966651091458115
line 0.02003574357349354
oli 0.21447266467349016
الاست@@ 0.6141309855115524
النص@@ 1
انگل@@ 1
اکین 1
بوط 1
جارج@@ 1
داول 1
زال 1
″ 1
 1
1834 0.2852611294077655
1854 0.22098243578767673
50,000 0.59367837843331
620 1
Arabic 0.3507275889409659
Bois 0.4702382350821454
Ge@@ 0.026728707660504926
IA@@ 0.83325225989924
Reg@@ 0.031762646823298483
Stadium 0.12577163664580537
ib@@ 0.04277775271301053
mont 0.10747401895139577
oma 0.07974438471445972
ud@@ 0.05175973119116916
wa 0.046828987156026014
yn 0.09419256119406831
اظ 1
البق@@ 1
الصح@@ 1
جاء 1
دة 0.31392035439832905
دث 1
0.4 0.9792798107975785
English 0.03162785354723373
Nor@@ 0.03499533422580673
Sab@@ 0.0878348286147339
Union 0.033765817464920224
ological 0.04625649539857787
rah@@ 0.47210262202199327
خل 1
رہنما@@ 1
شغل 1
گلگ@@ 1
0,0@@ 1
1831 0.2875014733692949
LC 0.2501515527103117
Mus@@ 0.046821200945002445
Soci@@ 0.13882617743068018
ean 0.09009265944259184
ings 0.014449182187226624
non 0.023231128453204606
pol@@ 0.040455188327539505
sc@@ 0.037431165827863225
ut 0.04845356267437946
you 0.06291289808786293
تناول 1
جديد 1
ريز 1
ریاست@@ 1
ضي@@ 1
لك 1
ماي@@ 1
مشار@@ 1
کھوں 1
1821 0.280365391281071
1835 0.2626157581835667
4,000 0.571433399809065
Ash@@ 0.09876991538850208
Min@@ 0.0370143658807093
RA@@ 0.12158100526796686
SA@@ 0.11018895983182934
alist 0.05401071831843716
ire 0.026330987000923615
lat@@ 0.04114457355622446
tan@@ 0.041073712943996546
uz@@ 0.08580052732863121
way 0.0187629031176967
ye@@ 0.1105073057897644
الشمس 1
تصر 1
توم 1
دري 1
دز 1
ساك@@ 1
وزير 1
1790 0.33017635515740196
1818 0.31287839850825394
1820 0.2011605994196856
1845 0.24243014989388062
COVID 0.1352808313122281
Mad@@ 0.06338347119238671
Rom@@ 0.05055911287655138
bas@@ 0.03454077689189381
ju@@ 0.062533053735354
owo 0.4139047531062074
population 0.0184478185875913
اة 1
ديل 1
زه 1
ولاد 1
ٕ@@ 1
ۖ 1
1874 0.16713746984942976
Ang@@ 0.040071506522806194
Land@@ 0.03328067037725786
Now 0.22057206638953827
Ow@@ 0.416883555256497
Pan@@ 0.057085484366388
Pol@@ 0.03829269155863878
also 0.004029518492170424
appe@@ 0.15378288255941647
fac@@ 0.042452096679882374
ura 0.04410423999524067
which 0.003401533907283094
جزء 1
طيف 1
كوا@@ 1
يمي 1
1809 0.3368993277019482
1868 0.16383757876877542
415 1
950 1
Council 0.039565679230867505
Tri@@ 0.04154195504749774
adi 0.17024656661346596
alism 0.08342028721769451
asty 0.5638714276980338
single 0.023703635047539064
افع 1
الجز@@ 1
شمل 1
قاء 1
قوط 1
لج@@ 1
هـ 1
وجود@@ 1
وزي@@ 1
ٹاؤن@@ 1
1799 0.39856348400391056
7000 0.974242037115236
Im@@ 0.047589351400176436
Island 0.04774941652628895
Sav@@ 0.09298470171598332
aki 0.1092771319525351
fi@@ 0.029105561853108797
iki@@ 0.8042326796275537
ise 0.013791379133153285
od 0.07039431722588158
š@@ 0.06391108180565462
ابن@@ 1
الجرا@@ 1
الفار@@ 1
المُ@@ 1
انکارپو@@ 1
تقد@@ 1
وتي 1
وذ@@ 1
₹ 1
ﮪ 1
978 1
AT@@ 0.1183944057808635
Haute 0.25643781130103577
SA 0.10265506162726351
Tang 0.422136021763318
Western 0.05212695062162981
ting 0.014106665016189483
up@@ 0.026834514157492186
ë@@ 0.19682703378309946
المغرب 1
جہاز@@ 1
حدث 1
مسا@@ 1
هل 1
ولون 1
يزيد 1
ি@@ 1
001 0.6707728865015271
3.0 0.7229587065836293
30,000 0.6652601864650232
Bad@@ 0.11176368691357794
Do@@ 0.051090484689268384
Games 0.06897776625357123
Lag@@ 0.1520569801561529
Mag@@ 0.04595880866106602
Tak@@ 0.08774638997569649
can 0.011024018920237315
col@@ 0.01618342806824393
time 0.00690117023995229
va 0.028733272635085
ائص 1
افز@@ 1
حضرت@@ 1
حيات 1
شخصيات 1
لى 1
موسي@@ 1
نکھ 1
ڊ@@ 1
Borough 0.3509927227530122
Dow@@ 0.2088652057293132
Sam@@ 0.06133746717865137
Tur@@ 0.04409301403737523
ell 0.02012828811827691
ham@@ 0.08979875229871566
ke@@ 0.03659772398488556
mir 0.16569876283690357
ole 0.0486408473312436
yan 0.1269306619573027
التص@@ 1
تدار 1
صُ@@ 1
قوا@@ 1
كيم 1
ليون 1
متر@@ 1
پنسلو@@ 1
ਸ@@ 1
Cr@@ 0.029378815179480426
Great 0.056600761572527754
History 0.024198637252764783
Il@@ 0.08789436454347985
Islamic 0.19341782612383326
Ju@@ 0.06960836022753653
Lac@@ 0.19580654422296326
OS 0.12039740523902806
Punj@@ 0.344722849710455
US 0.018489787354242143
enc@@ 0.031219294708803007
ens@@ 0.015246072100907438
ep@@ 0.023997591577796042
gar@@ 0.04049900736391445
ik 0.04590023235894504
ke 0.01800317944807683
lements 0.26705879672682536
ors 0.013167898616181789
ous@@ 0.11158086771148053
ue 0.021476459308989355
Étienne 0.3415556764123183
ée 0.006756711068019378
ō@@ 0.10912114055415209
تنظيم 1
لاه@@ 1
️ 1
1100 0.5960512897359272
1855 0.19488112455552506
Ak@@ 0.04765478457627122
DB 0.4008763352943583
ES@@ 0.09433706146731582
Kr@@ 0.03152081996093822
Lou@@ 0.12510503768914874
Ou@@ 0.16983880663486317
Pas@@ 0.05100366366123235
System 0.0847148385775862
TV 0.029633146548019424
Wi@@ 0.10617584957804016
ability 0.039623152246298164
dr@@ 0.01711062143945698
hal@@ 0.03605858814090054
html 1
lah 0.33050325403292424
most 0.011116262390143185
ran 0.06071748935278026
sion 0.02293989230345307
space 0.06373181648903233
تیب 1
ظروف 1
مجتمع 1
یروش@@ 1
1,500 0.7480221744512952
1789 0.30634891152565535
737 0.8456764761150039
Bay@@ 0.09505453146191267
Can@@ 0.043669450966570024
Ray@@ 0.3073554016359601
US@@ 0.07214605817913367
aye 0.16182230188877855
ind@@ 0.03652948501615664
ino 0.02099370980191368
life 0.015147578663341458
nes 0.050494358679160724
number 0.015889321563592858
oph@@ 0.04944358522897862
pedi@@ 0.17989295256421614
sett@@ 0.09426787910689252
su@@ 0.014183742289591262
ts@@ 0.023801462915161532
war 0.004163087128561343
ادیث 1
ارتبا@@ 1
رًا 1
غام@@ 1
ماري 1
مالي 1
ناک@@ 1
نه 1
ਦ@@ 1
1801 0.2950174832598475
1847 0.21406972143275563
580 1
7,000 0.7467378903202218
André 0.14344885114574107
Bak@@ 0.12420792069473616
Bey@@ 0.7959078353985123
Spain 0.08831176492258326
nor@@ 0.045165232031937085
ren@@ 0.02424771868040921
sa@@ 0.033993793040910165
yk@@ 0.4969871705498221
נ@@ 1
اعتب@@ 1
البشر 1
الحديث 1
بعض@@ 1
جعل 1
جين 1
صنا@@ 1
صي@@ 1
़ 0.034978489486458125
ক@@ 1
ﭙ@@ 1
ﯽ@@ 1
1837 0.227429679893283
300@@ 0.9317773034694344
64,@@ 1
Deh@@ 0.7173278481180362
Gor@@ 0.08856612744482167
Mer@@ 0.03394641436638471
Romania 0.2677111541575417
VI 0.11700749918892443
act 0.03756757218852395
ae 0.03159389274275135
cs 0.07705527462626649
inn@@ 0.03139411399829631
mu@@ 0.04337444994919199
ny 0.09245963037226103
tor@@ 0.019445564285419697
آندھ@@ 1
أن@@ 0.37153357446194557
تؤ@@ 1
ثا 1
خليج 1
دفع 1
وتن@@ 1
1810 0.2548285352039737
1817 0.29915287819647673
Elec@@ 0.08989568561594441
Er@@ 0.01308501229823049
Jon@@ 0.3698919756688296
Muhammad 0.2207306850182791
Mur@@ 0.06275050831310791
NS@@ 0.1714978320667931
Pu@@ 0.10142600210405334
SE@@ 0.09807653797561273
Valley 0.07328440851409589
arch@@ 0.0402935842611784
ast 0.04439676283647594
ault 0.09938055016577857
der@@ 0.016613331113807056
ert 0.020413084255304338
ham 0.0715312008058225
kar@@ 0.0502196303872661
lin@@ 0.030348667207182333
oth@@ 0.0481305221352212
parish 0.1095856072451593
st 0.015813001914896953
البل@@ 1
بالت@@ 1
بض 1
سير 1
سيف 1
فرانسي@@ 1
مًا 1
نين 1
هو 0.08444119274851704
وبي 1
ੀ 1
ﻊ 1
1829 0.26495889953852314
1842 0.22473744996606249
8,000 0.6055852723627023
Du@@ 0.046279743810588456
Est 0.15364677843923513
House 0.02658050490974929
Hungary 0.19764990830326398
Jan@@ 0.11403277200742026
Ji@@ 0.16813566011389602
Las 0.030814445980332714
PO@@ 0.2601116932932347
Res@@ 0.04338292326472328
fl@@ 0.023653313004058478
tic@@ 0.03252776284150621
Ś@@ 0.43550065139222977
إلى 0.0473803033867066
المرا@@ 1
ديه 1
كث@@ 1
مى 1
ميل 1
وعمل 1
1520 0.8834465552559418
1844 0.22263089690746787
AC 0.07461483021655282
Dis@@ 0.04252510452634583
Dr@@ 0.04186497021783612
Mu@@ 0.05674289219498374
Tw@@ 0.12217611164655386
all@@ 0.02123994620336047
apo@@ 0.05682822382785596
ena 0.031181839447046788
io 0.025373386576825037
min@@ 0.018743315571744155
s.@@ 0.47325861767590677
we@@ 0.021414066197741756
will 0.01665272111273476
á 0.03746945378266363
Ł@@ 0.26084607094238643
ע@@ 1
حدگی 1
ديد 0.9719085343612514
طع 1
كوب@@ 1
محق@@ 1
مخد@@ 1
منتج 1
مني 1
1807 0.2998267044895519
AB@@ 0.14030694133223295
Hal@@ 0.04687775421339401
Kah@@ 0.4158788249544046
La@@ 0.077854114049522
Nar@@ 0.09620704193617999
Pe@@ 0.038724031379926055
RNA 0.27214697823527434
Ram@@ 0.06321404687072003
ST@@ 0.13695079497191384
Sp@@ 0.02151419588115747
Var@@ 0.11224918400987136
ach 0.023008661102420513
core 0.0997234885484842
countries 0.05545384189618671
fer@@ 0.019184881890624002
ip 0.43305175301106696
oh@@ 0.050333305117996024
rate 0.06326752542364414
ub@@ 0.0550174655312262
width 0.2339049271197934
الاغ@@ 1
المل@@ 1
تش 1
ريت 1
زيل 1
سى 1
طلق 1
كاب@@ 1
مجرد 1
يحي@@ 1
يكي 1
ﮈ@@ 1
ﺀ 1
ﺯ 1
ﻈ@@ 1
512 1
Ay@@ 0.09545417065006159
El 0.0055041892888039986
Fo@@ 0.06548490476486737
Road 0.04057071187270713
Ti@@ 0.048019072958954565
class 0.039014179385558546
form 0.019814431747130802
had 0.0035087219428295287
his 0.0019075723164995342
hou 0.2303736961450846
ko@@ 0.05514428678713455
ness 0.03295868591552853
net 0.05816077606078347
two 0.005306451474732031
uc@@ 0.03265868323983006
ć 0.10957263381456381
č@@ 0.06809917941716101
اتذ@@ 1
استط@@ 1
الجما@@ 1
بة 0.2804645083193514
سرائ@@ 1
لوك 1
ﷲ@@ 1
Bab@@ 0.1053956388374303
DA 0.16976193183894253
Des@@ 0.040691329585626566
Lat@@ 0.09135742335919182
Tor@@ 0.03563448482733011
VII 0.1489610201918365
ath 0.044690162928501795
ds 0.03234968792279754
electr@@ 0.09159002591624116
ography 0.06909198891113819
row 0.0434214817734686
tical 0.04047703846589637
une 0.00243851248513846
احت 1
البرو@@ 1
تاد 1
تکمی@@ 1
طلاح 1
عرص@@ 1
مباش@@ 1
مدي@@ 1
ਿ@@ 1
ﭦ 1
1707 0.7831852545011241
CEO 0.17731266818239452
Netherlands 0.132329778651301
Rah@@ 0.1863848103215259
anc@@ 0.03489559101349074
ki@@ 0.04718480192794764
ories 0.046867031701548385
poly@@ 0.09719559732176189
ten@@ 0.01301657516885993
they 0.006671647406634897
tions 0.012977596630345976
ابق 1
اكت@@ 1
الجزائ@@ 1
المف@@ 1
امز 1
بالن@@ 1
بدا@@ 1
بوم 1
تست@@ 1
تعلم 1
توقف 1
راجستھ@@ 1
فلا 1
قاط@@ 1
لاند 1
لقت 1
مؤلف@@ 1
وسر 1
ব@@ 1
․ 1
🔹 1
1526 1
A. 0.038913913212584236
ER@@ 0.09324505905805264
cell 0.10970047807686421
dar@@ 0.049842419918560366
dec@@ 0.018909136228176738
ement 0.009500939900695705
ira 0.05417000107162934
ost@@ 0.0635195551306137
ser@@ 0.01787462939945895
settlement 0.10747196284191747
sive 0.031742320716755715
urdu 1
well 0.009649157176025203
zi@@ 0.03988722405819126
â@@ 0.05123617691477951
ת 1
البح@@ 1
الملك 1
النس@@ 1
عند 0.5645463744312154
فط@@ 1
كلو@@ 1
مارك 1
ميت 1
ميم 1
هي@@ 0.447167748570731
ينا@@ 1
ন 1
ﮌ@@ 1
ﺫ@@ 1
Gir@@ 0.09662997587294564
Hill 0.053948297288603266
Kas@@ 0.07817877995896887
Quebec 0.16866494897660222
Sor@@ 0.08399030902306091
achi 0.2274664382474668
ago 0.05707539709245059
ids 0.05205126131677529
onne 0.062357260483869394
oux 0.1701357822412305
quot 0.2572751422254549
til@@ 0.03750061294029647
الإ@@ 0.2150025896685523
الإمام 1
باست@@ 1
حمل@@ 1
دًا 1
طبي@@ 1
ويد 1
1770 0.4112297499694198
1819 0.2752957220677055
American 0.009106652797595906
Burkina 0.5824005554091273
Khar@@ 0.43193674368171703
Les 0.008498153685100282
ME@@ 0.16911884074875114
MO@@ 0.20666444869202524
RC 0.14188030713392147
Sweden 0.13150906462760945
To@@ 0.040343646649054266
begin 0.13308924777483985
eli@@ 0.0518431144083613
esh 0.1748256298797422
function 0.09180047886383741
hol@@ 0.0343972880322348
illy 0.09264327568305072
iti@@ 0.030597921581409965
ner 0.013681117174187463
per 0.01568591501862727
ps 0.02397462652325715
tro@@ 0.030134488547171243
wi@@ 0.0903153709348387
ég@@ 0.04415860800857328
الواقع 1
برش@@ 1
ترقی@@ 1
حلول 1
روي@@ 1
ظل 1
كيني@@ 1
ومات 1
ਤ@@ 1
1795 0.2840552557895585
1824 0.24271636370336738
25,000 0.6090628078397001
Air@@ 0.12947156627546533
British 0.01678427938061652
CA 0.11115150234400685
Faso 0.5802390313009426
Kan@@ 0.05995655247889563
Sc@@ 0.04532574039501225
Shir@@ 0.21284843428011738
Vi@@ 0.03964024280573491
WT@@ 0.5507553079036354
ains 0.02763979638782397
ap 0.044088219512583966
ect 0.028216852280646222
ila 0.06597524674620495
ord@@ 0.026901367648489705
public 0.017230141540890635
ties 0.01971067047663857
£ 0.07716679013492425
ī@@ 0.16096041432904085
البص@@ 1
الشيخ 1
بيان 1
تاريخ@@ 1
طري@@ 1
فات@@ 1
قائق 1
قام@@ 1
قاً 1
مشک@@ 1
وط 1
ۂ@@ 1
1453 1
15,000 0.6303429196710483
1783 0.36543531490782377
1836 0.19818775986250395
451 1
911 0.872341036024273
CH@@ 0.11551406719123354
Fal@@ 0.07011774946874445
My@@ 0.07338424406191871
XI 0.18666660223247153
agne 0.13440288018070953
ase 0.0316901705538169
och@@ 0.05583999443807634
tra 0.03898748384934507
ֹ@@ 1
ارتفاع 1
ازب@@ 1
التن@@ 1
بب 1
نساس 1
ڈیز@@ 1
۞ 1
ﮯ@@ 1
1803 0.2372463209875634
1833 0.21323722213665508
501 0.7101570877656539
Bro@@ 0.04238387547403695
Ir@@ 0.04393468411591628
Mak@@ 0.07912105554455527
Seine 0.05092193498958323
`@@ 0.7188159254441419
ami 0.07061019307991913
amm@@ 0.04210505184958151
ars 0.024864634767141666
ati 0.07376681476905762
for@@ 0.011607976830010597
ft 0.02512606654495866
list 0.03853111163530302
national 0.017687515934228425
ora 0.02979968729293934
pp@@ 0.04420285126360035
pro@@ 0.020672512682564953
ubi 1
und@@ 0.020248750654622304
van 0.04414394193000883
án 0.02266199464010387
ם 1
اختبار 1
افي 1
التار@@ 1
السلا@@ 1
جاد 1
خوس@@ 1
ريد 1
سبع 1
سیع 1
غوا@@ 1
٘ 1
1793 0.22612855492949774
500@@ 0.7307951930116872
Colombia 0.11856091302794056
George 0.02312186772834065
IO@@ 0.2721337516578822
Jam@@ 0.1613424600535796
Maurice 0.1411538373724765
Na@@ 0.08527801613050878
Nag@@ 0.09098259025577797
Portugal 0.08475107824049743
Sz@@ 0.11020135971231401
This 0.007772894297304951
ade 0.019566449515539815
awa 0.07788916713776552
aza 0.15051246095352458
bat 0.09571754951141206
ebo@@ 0.19238147402533035
ee 0.03427393538280264
lands 0.0493557981644616
ok 0.04809646365426784
out 0.007219666233394358
tive 0.022209861222726304
uri 0.10288840070258445
ā 0.2339224452214677
أس@@ 0.40284330061057466
السي@@ 0.5839940819554257
النفس 1
اله 1
ترك@@ 1
تصف 1
جورج 1
ستي@@ 1
مراء 1
مرت 1
نشر@@ 1
نيل 1
ولاية 0.6812462051895006
يرا@@ 1
ڏ@@ 1
ڙ 1
10000 1
1788 0.35636054316347104
Asian 0.0803254878569054
Azerbaijan 0.2976358388327896
Bat@@ 0.052714046185306646
European 0.027057451972945467
Khal@@ 0.4712230705269672
Kol@@ 0.045999215628724915
Lang@@ 0.06281395002057642
Por@@ 0.039962870487465975
Sch@@ 0.006941436308767112
Sud 0.07923676383457809
Vol@@ 0.03644344493190507
berg 0.021073278524948582
book 0.023027979436169636
ene 0.018820323727045837
ht 0.07195479952832169
ier@@ 0.0225008570673913
lan@@ 0.026986468782597844
other 0.006041342837645134
ri 0.07786083412114472
tig@@ 0.03892677854514858
ud 0.10184053427919165
und 0.0007206391005658013
إل@@ 0.7669692027310878
سليم 1
غالبًا 1
مشتر@@ 1
وتر@@ 1
وريا 1
وفي 0.22876145986988397
ٶ 1
1792 0.248951320017062
1843 0.194570646527853
1852 0.16219373564344122
Bou@@ 0.07953623841254594
Cer@@ 0.04997451176542588
Company 0.030729618644124296
Division 0.024720876637615956
Egypt 0.15137222616074145
Hey@@ 0.24773949631188463
Islam 0.17392515164905736
Koh@@ 0.1239445406992417
Meh@@ 0.2868204287782738
Michel 0.09321135739531475
Tu@@ 0.07154045042602132
ag 0.07961026897091394
ask@@ 0.08775193180387954
ating 0.012578195501908496
ban 0.05449757362379402
co 0.01548138301523627
don 0.051325534471264624
ere 0.016565250705406126
historic 0.08860799072641198
ington 0.04755166416605195
onde 0.15399927861615934
wo 0.0288912410837746
wood 0.0358068305671943
yl@@ 0.029745763804797033
zi 0.0938143761093708
السلط@@ 1
تجاو@@ 1
تقدم 1
جوز 1
حي 0.952941530843667
دخول 1
عاب 1
كمال 1
ليو 1
ويلي@@ 1
ﮎ 1
ﻖ 1
0.0 0.6376537845337705
1791 0.29245259107223
1825 0.21282705042540734
3D 0.16094806988669633
AK@@ 0.3051730361507978
Airways 0.4374457247493513
Cre@@ 0.04136443537401882
atic 0.04265955751645458
esia 0.14744362435451352
etic 0.11036575665605507
ga 0.04800379800146263
if@@ 0.019799221501376446
sous 0.016071691757911854
table 0.0594704198574976
var 0.17158056515029024
الآخر 1
اللغ@@ 1
النوع 1
جغرافی@@ 1
خف@@ 1
قبال 1
مقاط@@ 1
وصل 1
ومي@@ 1
وى 1
يب@@ 1
ې 1
ー@@ 1
1762 0.5117876172862983
1776 0.3380604835789942
1805 0.255398342271061
200,000 0.5878807000202958
3500 0.8430461751548158
AI@@ 0.1256429836398863
AM 0.10211804772056472
Ap@@ 0.036940015157876004
Bri@@ 0.05887431223558457
CC@@ 0.1218719101688168
Denis 0.1953733343620053
Der@@ 0.07247362736638559
Diz@@ 0.7657807376897177
Gur@@ 0.17719458278466343
Human 0.12623712808742232
Hy@@ 0.05335198922537733
IX 0.14060020033795223
Kus@@ 0.2383405683914508
Metropolitan 0.15907617704125465
PA 0.09734000868785378
RO@@ 0.1350841834421636
SO@@ 0.11732008502576272
School 0.012354406958672362
Te@@ 0.026740092836069065
astr@@ 0.08437718213003019
burg 0.03309054674044928
enne 0.026869700796720554
ents 0.011050559274497806
esis 0.06724838641895084
ies 0.015724908079693452
ine@@ 0.07034255158736491
ines 0.017972266503752735
mad 0.7495583320569642
ov 0.02949213270606692
place 0.010482607402624935
tel@@ 0.026071508904713034
tier 0.05617351194796769
ung@@ 0.018316536853372506
we 0.028286000566249386
who 0.003959360090720576
ys 0.031065935113765274
الد 1
ایوار@@ 1
تأ@@ 1
فيت 1
كير 1
لة 0.17682779261822895
مبي@@ 1
يكو 1
يمي@@ 1
਼ 1
ﺝ 1
1808 0.22707791743161748
1827 0.23538996193632736
Ahmad 0.3513975344995109
Ben@@ 0.03960472576439876
CD 0.04643362555625424
Châ@@ 0.34052936008875595
Dam@@ 0.07699734915469203
Ouest 0.15944915195118473
War 0.01494310378100604
We@@ 0.02496849958452206
William 0.019560506044167418
Wor@@ 0.03588785417844568
amb@@ 0.03314097485549286
any 0.015791358806965063
cri@@ 0.04597397519751574
eng 0.0806174726048052
ente 0.012109118937585116
gene 0.14183553075620153
group 0.014689077773862958
ili@@ 0.02565624376604605
oy@@ 0.04094314671947504
up 0.0065096773835373765
wor@@ 0.025220653018520625
ן 1
ئين 1
اتذہ 1
البط@@ 1
القاد@@ 1
الیٰ 1
شہن@@ 1
فظ 1
كوريا 1
مركز 0.4129224837004838
نك 1
ورك 1
ۓ@@ 1
ﻐ@@ 1
@ 0.47681319626773916
Agu@@ 0.14285101217073226
Bl@@ 0.028322847412461827
Bre@@ 0.02880021457209697
Cau@@ 0.17505211892750433
Dom@@ 0.0599073411027933
Don@@ 0.048542313984961984
Eastern 0.06717441452425287
Mel@@ 0.0368563555584621
Mil@@ 0.04088989942689301
Oc@@ 0.06938907338843074
Sha@@ 0.2090557443785809
Vis@@ 0.08470511171784796
action 0.022140990032011747
ality 0.043337803147980934
arrondissement 0.18912933779365876
aur@@ 0.04638631537027234
aya 0.0443105606487641
constituency 0.12972622870049627
ich@@ 0.02728444232171661
ight 0.03537628473871294
onlyinclude 0.11330595683417521
than 0.008884864600218438
tis@@ 0.03975576316921746
try 0.043709283404214
أح@@ 0.8758332073762005
برز 1
دول 1
ديو 1
غالب@@ 1
فير@@ 1
قوق 1
يث 1
ٱ@@ 1
ﺬ@@ 1
AN 0.12593838809915084
Aer@@ 0.12988162894682273
Bank 0.05198141303817341
Chen@@ 0.4564226698034055
Chinese 0.04053491517368404
Cricket 0.1838264360434579
Cro@@ 0.05047923266050714
Development 0.07146642163977654
Louis 0.02727752590324377
Mand@@ 0.0762916006566867
Sil@@ 0.05631799519211182
Upper 0.16821868431483267
aine 0.040750260314472285
alu 0.5896539250231945
ans@@ 0.03002548166083313
arab@@ 0.1584342602035823
dar 0.0645068897027953
ding 0.026546635283025883
eter 0.033675075737969816
eu@@ 0.07390319021477144
hr@@ 0.04943052761035535
ini 0.021788024568966512
ks 0.009293475459509313
lar@@ 0.02758738650521219
sar@@ 0.09052166757403016
sch@@ 0.0067079807963327754
ski 0.044422839679735
ד@@ 1
الموس@@ 1
الموض@@ 1
النبي 1
جرت 1
جزر 1
طفل 1
غان@@ 1
فلسطين 1
كيل 1
موال@@ 1
ناك 1
هد 1
يمز 1
يه 0.47816314744814176
ম@@ 1
ਹ@@ 1
ி@@ 1
ﭔ@@ 1
.org 0.7556752874485098
1740 0.45323867497180415
1763 0.4015278211479561
1774 0.3747902274407455
1798 0.24384445134765864
1841 0.17294493019352677
747 0.7661784050883736
DF 0.14797301431137888
Fi@@ 0.04903926693788651
Grand 0.026046421924007343
L4 1
Pen@@ 0.04290139188022339
Ukraine 0.08781533246094547
Washington 0.027836435111061736
bad 0.11187356174550592
ea 0.024012948410626674
fe@@ 0.013003122601294312
inf@@ 0.0282997102053093
jiang 0.32354816853218826
king 0.018409299898094738
men 0.010776429702211184
mut@@ 0.04292977989801014
my 0.05632227612715325
ona 0.028178873703332604
pa 0.0484911610281855
ry 0.026146750318035195
uk 0.10300803492040374
would 0.006648398523725409
í 0.03659835922418232
ż@@ 0.32447550814499354
ائح 1
اتصال 1
الحفاظ 1
بلوچ@@ 1
تري 1
حاق 1
حدو@@ 1
مؤس@@ 1
مجال 1
। 0.010901604696677615
স@@ 1
AS 0.08418966937529966
Carolina 0.05524675622758475
Champ@@ 0.22771515525037328
Dec@@ 0.04495753470644911
Gh@@ 0.11255295150689683
IC 0.11820977282779005
James 0.01984352098248223
Kon@@ 0.02843182845737772
Maur@@ 0.08927748877473735
Missouri 0.0953341190597328
NH 0.46272989039030554
NO@@ 0.1356178195329658
Sim@@ 0.03641851858996501
Women 0.03895764011534964
ave 0.046354521312056085
bur@@ 0.024911027669652728
cu@@ 0.014007044530056736
des@@ 0.00892130530204664
din 0.11045234251140898
ern@@ 0.026497779381041194
ff@@ 0.02230788484830661
fr@@ 0.013423257219867365
gan 0.14157911863125755
ider 0.051338110800056326
iss@@ 0.034864096209263555
out@@ 0.02046460187252639
port 0.027504655484636254
privileg@@ 0.3211661278778868
tery 0.08658099971185039
war@@ 0.017960765214319562
ə 1
أهل 1
بالس@@ 1
بموجب 1
تين@@ 1
ذي 1
شعب 1
مراج@@ 1
وعات 1
ونات 1
چوسٹس 1
◼ 1
ﺛ@@ 1
ﺦ 1
1519 1
1540 0.637099620419675
400@@ 0.6490496689349383
App@@ 0.11389361358603928
Baba 0.5574485773944089
Bay 0.0418402744892606
Bengal 0.24127228216797336
Chal@@ 0.19189188463800066
Cur@@ 0.036876190137588534
Index 0.3031026420910975
Kash@@ 0.2733869952308057
MI@@ 0.14878735806106103
Northern 0.05288962319208693
Pri@@ 0.05008889353054457
Saf@@ 0.11042313480548165
alm@@ 0.044049889472860475
bers 0.05711408303462226
but 0.003579598867927902
cel@@ 0.04522848917679628
cl@@ 0.01600846639909786
dia 0.04523111951203506
elles 0.021789814062029775
eri 0.06061715361148601
ix 0.09265878394185405
mal@@ 0.025226329097837952
mer 0.01985261386522473
pe 0.024851207693445853
pref@@ 0.22194164790160062
set 0.015151518909454448
via 0.027383206056307896
xi@@ 0.0921651921668451
å@@ 0.1099614617088607
المدر@@ 1
تنظ@@ 1
جة 0.7279353687693894
جري@@ 1
كش 1
هما 0.45590190841810996
ু@@ 1
ਮ@@ 1
1750 0.3468100885196098
1765 0.45367080625809403
Af@@ 0.11618190636276789
Arab 0.13120553507734636
Chile 0.0626303563313062
Gi@@ 0.03014777802666933
Hor@@ 0.03644917383909065
Marie 0.04244178443875801
Naz@@ 0.14260802762874156
Pak@@ 0.12602125010123602
Party 0.02404559913726681
Sultan 0.17099453880154727
ages 0.014668670209202051
anner 0.18045421983044502
aska 0.9746958451890163
atr@@ 0.028717540775681193
bal 0.07991790247841171
court 0.02931520385762475
ef@@ 0.025558684848811578
ences 0.018676793043585594
ez 0.032870781250190016
first 0.002922494898194425
following 0.01225102219636591
ida 0.01747130727044729
land@@ 0.02301046026888665
ng 0.10687443066876025
nucle@@ 0.19426733079878308
oa 0.06533064765803193
ock 0.03854702904872653
site 0.018093406856493733
so 0.007192444845575774
ther@@ 0.030758181958202725
tur@@ 0.013410826975364857
za@@ 0.19184992202258697
­ 0.2064795758624925
أخ@@ 0.7015562653568
إن 0.5826751630483249
ادئ 1
الموا@@ 1
باي@@ 1
رص@@ 1
سرگو@@ 1
عنه 1
ينيا 1
ّف 1
ڈیمو@@ 1
া 1
ਾ 1
1780 0.2724733596379934
AD@@ 0.08976542036294384
Bonn@@ 0.18507630451329088
Dur@@ 0.06820303933914146
Fre@@ 0.020074349274185565
Ground 0.27207915763992946
IE@@ 0.19354792354392902
IT@@ 0.1266419321281391
Is 0.08862128956681128
Mes@@ 0.06398886870116717
Mot@@ 0.04354373471007099
PS 0.0806798125225711
Wal@@ 0.029627412056999678
acid 0.13678995516068704
aff@@ 0.025841153263242173
ational 0.037279235714512804
azi 0.16816789946168115
cells 0.09645017261384943
emb@@ 0.02416321943761865
eth@@ 0.041387807213061865
ick@@ 0.021182385952414208
lan 0.08129136291081031
les@@ 0.034349030819026544
million 0.018928082018394594
only 0.006783210357200433
osh@@ 0.20266835978410622
ted 0.006365437087903373
ug@@ 0.02904818622784809
ér@@ 0.018092471243577112
ת@@ 1
أم@@ 0.5747985289717987
اعت@@ 1
البرا@@ 1
الحسين 1
الفض@@ 1
سه@@ 1
طاء 1
ميني@@ 1
هي 0.10762493508469781
واسع 1
وقد 0.16918368234641645
يوم@@ 1
আ@@ 1
ল@@ 1
1699 0.675751230279732
1718 0.6287222276541912
1761 0.4951989484393661
1811 0.21424644091190498
CI@@ 0.10776100911150178
Cou@@ 0.12312638966635366
Dor@@ 0.04369357409200607
General 0.017326664639450127
Gulf 0.16064382976164807
IS 0.12608748516659513
KV@@ 0.5599220848407614
Lav@@ 0.10689978745281935
Pon@@ 0.0708576181446703
Pot@@ 0.0765358939353513
Power 0.08643793289022889
Pre@@ 0.029035400953656705
Sak@@ 0.09834609845768065
Saône 0.4570708448039357
St 0.03262562585072033
TE@@ 0.11391232192255825
Ter@@ 0.0461413915506163
ally 0.007317602992295516
ame@@ 0.08756626362772292
cor@@ 0.014293139618607452
istic 0.050384104337662
kan 0.11753329364751242
ond@@ 0.03504385497019815
ros@@ 0.060162009487804535
team 0.007687045757670875
tor 0.01689047336696887
ux 0.05530525480531534
دى 1
ذكر 0.8445420395398369
روي 1
كتاب@@ 1
لمان 1
هار 1
هذ@@ 1
يح@@ 0.6903200134716625
ো@@ 1
ਕ@@ 1
ਲ@@ 1
000,000 0.5778097934496308
1648 0.43802566082271677
1772 0.3474251064101506
1802 0.21153603163520449
Ari@@ 0.08493344134000277
Arrondissement 0.29432040101795615
Au@@ 0.037185179410524474
Bil@@ 0.057587371704507236
Cape 0.10090106757100703
Croix 0.23206754568434249
Garonne 0.38027782808125726
Green 0.04846596508164658
King 0.022100422807521853
Lim@@ 0.06032217038685351
M. 0.04177793918611872
Mexico 0.046212816048500215
Nigeria 0.13418285950504755
Sham@@ 0.3537220153521786
Soviet 0.04608624382656187
acc@@ 0.018936321046004328
cur@@ 0.020157371318662652
ew@@ 0.030747467693319108
fre@@ 0.025732893271551604
ide 0.03440192159300925
ium 0.05102657057966953
let 0.03981064666716689
mis@@ 0.019724240260632395
sur@@ 0.012028159859386284
the@@ 0.02182118060730099
uni@@ 0.02597314489467252
~ 0.18986216083481702
él@@ 0.03859624872447985
ū@@ 0.08758401667920654
כ@@ 1
أحمد 0.9040749999635743
أو 0.07192566026375366
البلاد 1
العق@@ 1
وجہد 1
ياس 1
يتي@@ 1
يوب 1
୍ 1
్ 1
1796 0.23908062067626046
AP@@ 0.07783157255126853
Asia 0.05510857514595588
CP 0.16851290347851913
Cam@@ 0.03718855301810742
Coast 0.06941253784841432
France 0.009667366947914825
French 0.017346168274587053
Hel@@ 0.03867278405859921
LO@@ 0.2016832713562853
Life 0.037607453111422426
PC@@ 0.09942602119101937
Rec@@ 0.02874302196990669
Sir 0.04357158544269671
Street 0.021565389852277326
ana@@ 0.2855988785849843
aran 0.14592359395156954
aro@@ 0.115566474690054
ax@@ 0.040458338394589545
been 0.003965001105548319
dynasty 0.15416666110460503
ih@@ 0.05077545513432716
ire@@ 0.3915889560123185
kr@@ 0.03214341999638064
pu@@ 0.02176880768446237
san 0.10421360694003681
web 0.08170328157997174
xi 0.18038474923259398
zar 0.15245336728362371
ń@@ 0.23575749816367672
ֶ@@ 1
الشرق 1
المرتب@@ 1
انیف 1
بالق@@ 1
بمع@@ 1
راول@@ 1
ريق 1
زيز 1
سيدي 1
موسى 1
وات@@ 1
್ 1
ﮟ 1
1660 0.3963768350839323
1720 0.44627529477660016
1775 0.27403174932615515
1816 0.18164786205795302
1822 0.19425643965067346
250@@ 0.8846153767668801
9000 0.9161498181559197
A.@@ 0.07251995517195689
Bos@@ 0.05493720384636829
Do 0.10139352082126064
EC@@ 0.18915138820148295
Fl@@ 0.017732358997962903
IA 0.15823555769664485
ISBN 0.6770974379069499
Lap@@ 0.19111522019672245
Lithu@@ 0.1634354987241216
Mam@@ 0.14342669202561753
Rem@@ 0.05907063906264091
Sind@@ 0.39209202239305213
Sum@@ 0.05480594192357284
agn@@ 0.06442185649870184
anj@@ 0.18893297979367563
bol@@ 0.057858911032332566
cin@@ 0.03229562674111038
electric 0.09676634168756203
face 0.023910542318701728
fication 0.04963243685491735
fra@@ 0.3662320859745897
ho 0.1321445816317144
ites 0.02764448999723719
ization 0.10415741651840556
lier 0.07077076059571542
low 0.019835312452656035
mus@@ 0.02927346493638532
ney 0.032390885485303215
of@@ 0.027678835303189344
ori 0.06534867039884203
sac 0.2892763701855983
su 0.0027263264197388663
vol@@ 0.019741659474945543
ח@@ 1
פ@@ 1
اليا 1
اُر@@ 1
بالف@@ 1
سنة 0.18224132090486167
عرض@@ 1
فى 1
قه 1
وقال 1
يين 0.3328479573500498
ਨ@@ 1
ﺡ 1
1739 0.5739299471405538
500,000 0.4346835195828522
Act 0.033801706230995786
As 0.00982437429349288
BE 0.22851972859751588
Beh@@ 0.09366339238151426
Cat@@ 0.04703890799540892
Ci@@ 0.06685336096085388
DC 0.06742481849469231
Est@@ 0.02908780640717824
Je@@ 0.05031281245624934
Liv@@ 0.09197365954863698
Maj@@ 0.08793978109008917
Mé@@ 0.0647081029370833
North@@ 0.06341923146724228
Sw@@ 0.04223317568195179
TH@@ 0.2101029299634508
TR@@ 0.3110546712354208
The@@ 0.044418634573967844
Tro@@ 0.034405614069187074
Ul@@ 0.04166470201448575
White 0.0329125338968785
about 0.0070319713031435855
ack 0.02726033068185471
ais@@ 0.036997134660950594
ann 0.06471534370127847
ella 0.019698741962790207
ely 0.013175264675795117
hem@@ 0.11692850280112597
ier 0.022319335516672346
money 0.048686380920577525
ning 0.02005140039075987
org@@ 0.06922784555819082
ota 0.05097983938692374
our@@ 0.0296427180509246
schools 0.036186999380211714
shan 0.33657161013931813
sil 0.19210304034285755
skie 0.4596110124090797
ster@@ 0.03043447091440558
tar@@ 0.020608373414281216
اره 1
اللغات 1
النظ@@ 1
انتخ@@ 1
سینک@@ 1
طلاب 1
فين 0.9806323405022267
مجموعات 1
محی@@ 1
مساعد 1
هنري 1
وائي 1
1570 0.5561270635141831
1580 0.5555392373822192
1687 0.6987391934458322
1784 0.26636185674020957
1823 0.19265129350653554
Abbas 0.5449575376225578
Anti@@ 0.06803053927836221
Assembly 0.05208588163499606
Baz@@ 0.20967337883704798
Church 0.021736198081811424
Fir@@ 0.09754060060962579
Guinea 0.14012179117731507
Ker@@ 0.0462563050214203
MS 0.07687808068656735
Mid@@ 0.05917005149373682
Op@@ 0.03617804714309746
Oxford 0.06769206758233991
RI@@ 0.10344654997989056
aa 0.1448754405742811
acy 0.028742218368784534
anga 0.10648957503576799
atom@@ 0.10397484122222277
bal@@ 0.02842823829609478
ble 0.024834000580466635
computer 0.07676288666095837
data 0.038638315897545156
date 0.028480329223103874
els 0.009943672293681632
energy 0.05671921676029373
ese 0.012864108789039307
fort 0.03557099884617087
ima 0.03675345898056592
ists 0.020519385865150425
khan 0.650442053430417
known 0.00680865836634327
ler@@ 0.01861189382124722
locality 0.1525635035176198
mag@@ 0.031064558757503413
mun@@ 0.05150737648159548
ow 0.03508145540050335
pre@@ 0.009045088279115222
rec@@ 0.011933226211189613
res 0.031046208849796225
second 0.007420335577116683
ska 0.11238907590201014
son@@ 0.02120932728275538
tem@@ 0.044050369178329794
vière 0.3469013684624002
work 0.008328522284715536
years 0.005608274024366702
السج@@ 1
انون 1
انکارپوریٹڈ 1
خطر@@ 1
شياء 1
صدار@@ 1
غال@@ 1
غو 1
محافظة 0.9934678157162845
ويب 1
ੰ@@ 1
市 0.032077847204100084
ﺶ 1
1515 0.8320153777350295
1556 0.794325954530921
1605 0.6444316283738942
1683 0.5685851811580833
1760 0.3437000501374506
1769 0.39076467389890496
Capital 0.12830079185958077
Day 0.040802470286781814
FI@@ 0.06440947493797729
Henry 0.026113666695459364
May@@ 0.06262879744417899
Mer 0.34225529328952764
R. 0.05331316131867781
Rad@@ 0.044674080816727364
SS 0.05443966893848674
Shi@@ 0.05119840454737603
Zar@@ 0.21245052767251063
abi 0.1850544988638301
arak 0.14756698814009522
arm@@ 0.035580891917838774
bat@@ 0.02120709454355443
ber 0.02078622387494175
cal@@ 0.024863556756238653
eville 0.18169764353319307
ex 0.039119836279394735
ges 0.021760280152817973
hid 0.278938681151941
ick 0.016944939781536827
int@@ 0.021711755287640147
lines 0.0386719477456357
ome@@ 0.1048564578593171
oni 0.05004185565338245
pos@@ 0.013919521128820295
sk@@ 0.017736394249398383
tan 0.03451450772946049
theory 0.05702409221457323
tis 0.04416505522959062
ula 0.06692436709775997
yp@@ 0.039732845522775874
ç@@ 0.03193211579139801
ń 0.22856349554326497
ارة 0.32897654484707683
ارع 1
التز@@ 1
بك 1
بيري 1
ترك 1
لأ@@ 0.6192654597259256
لفاء 1
معتم@@ 1
منش@@ 1
هذا 0.12151711816626505
واخت@@ 1
ﻩ 1
1550 0.47997175333372805
1757 0.43873526482279146
1st 0.033800576698964
AT 0.1045549978357661
America 0.02228761195849808
Cum@@ 0.11234314048116037
DE@@ 0.09012200702449569
De 0.012569516927268659
Federal 0.055136421341766446
Florida 0.03976307425540182
For 0.015399653760703267
How@@ 0.1257257219097933
Indi@@ 0.0463013575964484
Local 0.11772735910289303
Mem@@ 0.06153844523515217
Mong@@ 0.11742365106496312
Pont 0.2027377198435811
Vir@@ 0.06494773522035568
Xi@@ 0.11639174898223302
alan 0.07950808975082133
ands 0.028998758480968043
ass 0.03472890324456772
awn 0.18850353923722477
background 0.0742521676228477
bor@@ 0.024848547745364845
bridge 0.042025040415919
civil 0.040525522498225455
hy@@ 0.03993658314570154
inal 0.03608009211413501
mor@@ 0.019437448588431022
nin 0.049225121510382226
organ@@ 0.034950234403396334
ort 0.04230955206848924
sen@@ 0.016286995736392487
tim@@ 0.023780053571562147
title 0.019103066074735997
under 0.0066344494639289184
ves 0.014849771392220334
ón 0.011783189312999084
إن@@ 0.500979432158512
القمر 1
ترال 1
حة 0.22309860608009804
خلال 0.1474770647825359
ديات 1
رى 1
عه 0.7873152895724493
قاہ@@ 1
كم@@ 1
هار@@ 0.7523524177600309
وليد 1
ন@@ 1
র 1
ﺜ@@ 1
1250 0.5822654590149243
1492 0.6806715188972513
1560 0.5523102204575742
1618 0.5371307749025493
1686 0.6444328214918233
Ard@@ 0.18924059530513462
Armenia 0.2149523519800764
CE@@ 0.08178037528204728
Camp@@ 0.05414079060492795
D. 0.03609916471711394
FL 0.07742929359725122
Fu@@ 0.04852616683885856
Government 0.038599561840766315
Language 0.18505518756024963
Mau@@ 0.09217910140030942
Mc@@ 0.01187110385398608
Neu@@ 0.04314926378822577
Nov@@ 0.046301398415530146
PS@@ 0.08969453444867301
Pod@@ 0.10246959336286159
Rev@@ 0.05231903671500087
Sem@@ 0.05752895230791868
Town 0.04625085051345516
aga 0.047199228005059775
agu@@ 0.0539142500651248
ahi 0.23524719606507236
aman 0.15363500922296977
amp@@ 0.021225052927952875
animation 0.15903547718161462
aul@@ 0.06414684922698198
current 0.029549537322886694
day 0.009341554701547853
during 0.005584977273557177
edi@@ 0.030017438622188305
ense 0.031025658253312056
has@@ 0.0866613635012373
hat@@ 0.08880797788114536
isi@@ 0.021217013351788
je 0.02964750048426354
killed 0.03568824924603499
mat@@ 0.019146259308473926
new 0.005619950654927226
nica 0.2132506201801768
old 0.013747042573303616
oz@@ 0.0535232422065501
phot@@ 0.05408108228707276
power 0.019785681884404077
them 0.008265647330792745
thi 0.08533341471196004
university 0.04988652260663419
ush 0.08527362468419901
vi 0.09617350043226082
water 0.015133950752343878
ː 1
Рес@@ 0.19952675917597382
ֵ@@ 1
ائنات 1
البلدان 1
النظر 1
بالج@@ 1
تفسير 1
سلي@@ 1
سيم 1
طبق 1
فرط 1
فيد 1
مح 1
ورجی@@ 1
يج@@ 1
يع 0.9989141496546141
க@@ 1
ﭧ 1
1721 0.5313985372027104
1758 0.3739830245716404
AA 0.06767300850057366
AF 0.09613754495557725
An 0.018091619175071762
Centre 0.038230455934883514
Cos@@ 0.0703257921749915
Ed@@ 0.038623245383938354
First 0.024753307406536598
Ga@@ 0.07490806699057756
Greater 0.16926895913967224
Hab@@ 0.05153751280610025
Hat@@ 0.104069252738605
IP 0.11348729280738477
Ireland 0.03499836871041309
Juan 0.028348956196393885
Key@@ 0.12718555252338945
Kuh@@ 0.34927184955934604
Maritime 0.23432217333448324
My 0.04571259802998466
Nations 0.06009802104852255
Port 0.059775465457450994
Raj@@ 0.06547507191442987
Red 0.029895632869995935
Roche 0.36301426316365665
Ros@@ 0.022582480420604432
SH@@ 0.21158756386475044
Sen@@ 0.0377116615214295
UR@@ 0.2461528074635118
Vie@@ 0.11173213041106544
War@@ 0.02923661811240694
against 0.0075788568631809956
ato 0.02148959480863292
aum 0.11193995448066786
cap@@ 0.019760605732210102
capital 0.026146159764276023
eo 0.025375414845341254
ever 0.02477841222819651
fo@@ 0.026595187386856803
go 0.020762038912306408
hai 0.03609042202280933
independent 0.04290946772393964
into 0.004232148514729382
kin@@ 0.06303032195685647
last 0.015286925981377621
law 0.017949936701757024
ler 0.007207219737357667
lig@@ 0.024793771338342062
lim@@ 0.03670533634274876
link 0.11978178111017727
mathemati@@ 0.08212746629064348
micro@@ 0.058836158542864454
ms 0.024642188857037676
onal 0.03263492934325102
qui@@ 0.045391540389704034
reg@@ 0.013100780957295381
ro 0.03005809796827725
school 0.009206793032569579
sol@@ 0.01051113868612371
tin 0.023990788358710238
total 0.01257647042160683
ui 0.09614670393168236
very 0.011177477618970214
í@@ 0.012587172958636674
ская 0.012248831092017458
خطط 1
ريف 1
سجل 1
علام 1
هان 1
وفي@@ 0.8447426749724883
يانا 1
ত@@ 1
ਸ 1
ା@@ 1
1350 0.6270161260830508
1606 0.6580282390212633
1650 0.3771222611087266
1735 0.4801415749364626
1785 0.2615161471659672
1794 0.18408579153941548
Aur@@ 0.08241440485513485
Bus@@ 0.050052964502152894
CD@@ 0.0589961143585515
DE 0.13914005582431274
Ful@@ 0.07366364912949247
Group 0.022952615015920257
IP@@ 0.13777818971188135
Ind@@ 0.1345627065127296
Institute 0.02572705342072724
Kho@@ 0.313133775219265
LA 0.0721889858919986
Plan@@ 0.04256514472048478
Som@@ 0.072181687932178
Ste@@ 0.021792975309547765
Zone 0.1147710690069057
asi@@ 0.029482966789836213
body 0.023905533591618323
cell@@ 0.06915710830633455
divisions 0.08813208574824993
dy 0.030275285537026343
engineering 0.09188364745141481
ential 0.04980970361452864
ff 0.031174530357990126
gl@@ 0.02339465906560122
han@@ 0.11083948854537082
ichi 0.15065704096223353
inc@@ 0.014257986629839263
iri 0.09669881598654918
men@@ 0.013787115814935557
science 0.041785309851462886
sy@@ 0.045444401944528375
tar 0.062326383272508265
tric 0.10077984345284684
ty@@ 0.030375391242636073
ung 0.0038208604985999614
wan@@ 0.052324736833568634
yc@@ 0.04363352561875276
½ 0.2793416261590222
افترا@@ 1
الذي 0.10163500408316431
برات 1
موند 1
هور 1
وائز 1
وله 0.978525166462943
ومنین 1
ݙ@@ 1
ে@@ 1
ਪ@@ 1
﷤ 1
ﻪ 1
1571 0.6489377365744055
1598 0.5573409180057076
1603 0.49141676771520115
1746 0.47978194317933853
1747 0.461010388967684
1773 0.3212878009510537
40,000 0.45794034161757174
Cap@@ 0.04922221452490161
Center 0.023983610801697867
Fr@@ 0.018967563312353695
Hes@@ 0.3501349597298592
Jal@@ 0.2837026982810125
Long@@ 0.08607053367565981
Main 0.0580013301176733
Mey@@ 0.20693614069017413
Muslim 0.09081278883801945
NE@@ 0.09290661194278974
One 0.015481844538936354
Pap@@ 0.04274190734980239
Phys@@ 0.09245338898019947
Royal 0.01850410922845516
Sin@@ 0.0405353538014201
Singh 0.12054640241827393
Switzerland 0.10299722203020846
Wil@@ 0.025024161906075124
ban@@ 0.02893744558828464
bin@@ 0.039556538127729586
cad@@ 0.05451529032330409
canton 0.08345292642711825
del@@ 0.020464044719096873
gu 0.3754124455610176
gues 0.07525175561300064
igny 0.17015793968915127
ingen 0.02412485638740802
mi 0.04023506504091183
ocy@@ 0.18137558138495388
oll@@ 0.03555481634537933
olog@@ 0.03916968253780533
pak@@ 0.24577076709667148
sal@@ 0.018326123174590342
tum@@ 0.11853101299497842
value 0.05640963838004568
view 0.03349623516103934
¿ 0.2968952151099625
і@@ 0.22864982807294856
اطر 1
الري@@ 0.8946538168385376
النق@@ 0.9333383214159215
انه 1
بق 1
جري 1
جعل@@ 1
ريات 1
كه 1
مخص@@ 1
مطار 1
وتص@@ 1
يق 1
ٶ@@ 1
′ 0.2732369417155391
ﺹ 1
1620 0.4158434613740782
1659 0.5839394860125853
1690 0.4475780085390453
1737 0.49489499091804745
All 0.014450111796515543
Asi@@ 0.11864645922257869
Dag@@ 0.16766658007265983
Fe@@ 0.027854183942541993
GDP 0.3720420371236202
Gl@@ 0.03348754632775441
God 0.053176628524085105
Jab@@ 0.279715925667184
LE@@ 0.12223916590388208
Mari@@ 0.03184882869852152
Pat@@ 0.03638290940047633
Press 0.06722403536270201
Prot@@ 0.03822373421568322
Rab@@ 0.061516435608785835
Sultan@@ 0.4244564096556311
Tah@@ 0.19356359640071424
Tre@@ 0.025660984980201695
Vel@@ 0.061096237624583674
Vo@@ 0.050031081985967146
XVI 0.09671340116982684
af 0.08554041865052678
after 0.003554119158174852
air 0.018970422011686573
ales 0.006130073457136823
article 0.039166491677831
aus@@ 0.005953315670759033
century 0.011277046283067148
cer@@ 0.017175265566748265
cy@@ 0.07892732773875633
cz@@ 0.19108605444073304
das 0.0018701325366041104
down 0.013207594451831417
fa@@ 0.028004473909858385
flu@@ 0.03303140131299417
hab@@ 0.025733579960004194
munici@@ 1
ols 0.03197052164077169
order 0.015779883614144292
oug@@ 0.06250260911409225
own 0.011510702466334065
pel@@ 0.02269037985828695
ple@@ 0.031148795137611242
red 0.01529731752690526
sey 0.04922465474454335
tel 0.02828630598656805
territ@@ 0.1666321892872453
tors 0.02329907767898818
ua 0.03680057021156698
uan 0.19282116068849234
una 0.0019472081273476504
ust 0.03576008187404715
wan 0.09675442778231404
ó 0.0036150419794351244
Ż@@ 0.38896104970716716
י 1
؂ 1
الشرق@@ 1
الوث@@ 1
بالح@@ 1
فقد 0.4062422204293637
ماك@@ 1
هب 1
ٲ@@ 1
پوت 1
ې@@ 1
ۚ 1
ਵ@@ 1
1517 0.7600746082705038
1709 0.5131037684313101
1777 0.2648241134647125
1778 0.25872796689437233
Africa 0.030030314418356165
Association 0.017918737864962977
B. 0.023228385039509903
B.@@ 0.10022211520798556
Cant@@ 0.08830122895056083
Dev@@ 0.038067127598018474
Div@@ 0.06193209193821557
E. 0.04244010260798391
Gav@@ 0.19774339318744194
Gold 0.055649893031255164
Gon@@ 0.18684794197481583
IR@@ 0.18516524804524398
Ke@@ 0.034786947254722804
Lot 0.36752898423890507
Pir@@ 0.06522966937883855
Sho@@ 0.049822615246551426
Verde 0.28606336072328464
aba 0.01092924226371611
ail 0.035539379779319535
ake 0.022676069353528863
ani@@ 0.03327451723364823
ał@@ 0.3537285740797377
bert 0.03676815166070793
bury 0.04530422028984296
ches 0.01671682627793991
den@@ 0.012592615533021838
eas@@ 0.04133133008697332
eri@@ 0.029566280235829415
eux 0.021581131743807117
ger@@ 0.011622258771461558
gold 0.04090920807646271
har 0.17822470105768928
her 0.0025181036011931086
history 0.014936772454746654
igu@@ 0.05146730807805089
illa 0.024580811621965626
log@@ 0.03425895361123708
ony 0.0423873981196404
ping 0.0571475451908081
point 0.013873897096766199
some 0.006743449161681681
tal 0.03222052090629377
unc@@ 0.02185832590790581
ven@@ 0.01402438840716313
vo@@ 0.023611296018185644
à 0.0006957231969794639
âte@@ 0.26534317059337614
ē@@ 0.3086640883900096
التون@@ 1
النحو 1
بيك 1
جه 1
ضع@@ 1
عيد 1
فض 1
قة 0.21237181743406117
قًا 1
كثير 1
كلين 1
ليون@@ 1
منتق@@ 1
ميز@@ 1
والمع@@ 1
وتم@@ 1
ﻪ@@ 1
1565 0.6118069039068655
1610 0.4443630711236648
1622 0.5155552816782899
1689 0.4242942354545344
1759 0.3699815885192702
Bridge 0.060495497823419835
C.@@ 0.0917062658926283
CE 0.07770103840304053
Carroll 0.2690268260973853
Chad 0.3305449830709184
Congo 0.12410671198228727
Fort 0.04218723363543799
II@@ 0.14093735783742795
Kat@@ 0.0355768501684497
Las@@ 0.11373333470063525
Lub@@ 0.1930481064076066
M.@@ 0.08854730840703362
Men@@ 0.034194970267966446
Met@@ 0.04407406590234382
Mount 0.05343441996430707
PI@@ 0.2761592532027802
SI 0.18776822131316503
Sul@@ 0.07918265476758346
You 0.027605830361214844
ail@@ 0.02902856727190667
anian 0.060777004326428644
anne 0.06970813555673595
ave@@ 0.09139181839193368
aw 0.08290607840697117
colspan 0.0829183323477122
ein 0.0020751385486075242
enn@@ 0.01482481425386207
equ@@ 0.029963562734324076
ide@@ 0.03660022536715505
mechan@@ 0.043204794469759465
mes@@ 0.04713437306608921
military 0.02019157085867319
now 0.010348039953227311
ont 0.007201248038846061
orr@@ 0.11028377276296153
programming 0.09895553863935055
ray 0.1062514993202493
sian 0.06205825914669218
sky 0.0406903457764927
uss@@ 0.03324778528306476
year 0.004959829367740564
ō 0.035281189705286965
ž@@ 0.07732973896191327
ׁ@@ 1
ק@@ 1
اخرا@@ 1
رجان 1
شاه@@ 1
شهر 0.9523040774093122
فيل@@ 1
ੇ 1
ﮉ@@ 1
ﹰ 1
ﺰ 1
ﻇ@@ 1
ﻉ 1
� 1
1530 0.46858790366126085
1722 0.4504912467408999
AU 0.23401298386059025
CG 0.2842485876199185
Fin@@ 0.02293485365014299
Germany 0.02325998636903218
I.@@ 0.14504276742872305
Iv@@ 0.10572952157583297
Just 0.10785910825962526
Log@@ 0.09377941331245819
Man 0.02866013166786697
Of 0.050740869595495765
Paris 0.010638310164988524
Scre@@ 0.13786287950183423
Theory 0.28086467586253855
Turkish 0.08579970334650286
VIII 0.10202762036933447
aft 0.04000515923930457
aria 0.021258823451237745
att@@ 0.014565177526730831
between 0.0050811274725347634
dom 0.06616898448224498
ear@@ 0.02208853057758989
ec 0.11718393869614123
ich 0.019829873618378912
ides 0.01886696151614254
inde@@ 0.07078297496515434
ker 0.012256513298455299
na@@ 0.06699410425685279
ogne 0.2143786387293023
ote 0.02505381435081066
pap@@ 0.039372287002408114
shire 0.040933656135520524
tial 0.1349129906132928
tiv@@ 0.03482802525601661
uni 0.11934863521159753
val@@ 0.02192344125630943
wa@@ 0.0485742092242406
± 0.3122733134328889
ô@@ 0.04648926034797551
ôme 0.11439988864226132
إذا 0.4326645919938812
الحرب 0.34514073964138076
العام@@ 1
العد@@ 1
انستان 1
انع 1
بالر@@ 1
تداء 1
ثي 1
علان 1
غي 1
فاد@@ 1
مما 0.40047322664987234
وء 1
وبل@@ 1
ٸ 1
کورہ 1
है 0.010600452804247451
ੁ@@ 1
県 1
ﮓ 1
1697 0.4970367223992821
1753 0.319047176902538
1756 0.3392908473414119
Abu 0.12846223790863223
Akh@@ 0.3079765526725025
All@@ 0.03849193000976809
Aut@@ 0.04214164506625004
BR 0.25717419087254456
C. 0.021953233103399063
Christophe 0.26381063279808004
Computer 0.13040931260186192
Cour@@ 0.042355925424516695
Cruz 0.07334391550160611
Cup 0.012794382127824584
Del@@ 0.030003724217810356
Greece 0.09559129762823979
H. 0.040992439194706215
Highway 0.048599365767396985
Hur@@ 0.05309594581686894
I. 0.02820658029277408
Joseph 0.02006111004046624
Leg@@ 0.027357545448379796
Mans@@ 0.175203799085203
Middle 0.054109435900281756
Nam@@ 0.06685168293127103
Nucle@@ 0.23682122447686124
Oblast 0.1228890693186873
Rus@@ 0.045038211217579435
Sah@@ 0.1246862827839423
Southern 0.03853611811649724
Standard 0.09833382165340815
Teh@@ 0.29330105746547447
Victoria 0.04021519655934856
Wood 0.09851299884613283
ack@@ 0.01889246405920982
age@@ 0.09803122439726758
ait 0.008539825598909312
ami@@ 0.06312635899610286
app@@ 0.02894434223279048
art@@ 0.026423214465292312
bon 0.04863888377003653
cul@@ 0.024672936880395974
da@@ 0.08231253225600946
development 0.017047170533441503
elec@@ 0.03144368284210223
iki 0.040187028618593405
ize 0.04334561317115044
kh 0.37760504497108077
lin 0.03226279656264885
lon 0.09220156309367984
mass 0.06317565346810872
ments 0.014415310559839708
mir@@ 0.05326368764106967
mud@@ 0.20170135856875426
news 0.04932239108190719
ois 0.04849604045248381
organization 0.032849560789770624
ori@@ 0.016089738102423246
ret 0.07493473608505201
see 0.01778983978606193
small 0.012925365613006168
special 0.029321999197644315
subs@@ 0.11772511169334879
tw@@ 0.02435488874367601
uf 0.22762237560286125
uil 0.23382242783473525
ulation 0.03958078744547525
û@@ 0.0861074123974621
ר 1
الحص@@ 1
السلطان 1
المثال 0.9038302398556307
ساعد 1
سبور@@ 1
ستن 1
سلات 1
عبر 0.4705211650327932
عیسی@@ 1
قبض@@ 1
كوس 1
كولوم@@ 1
نائي 1
واحد@@ 1
وتف@@ 1
وروب@@ 1
ਗ@@ 1
් 1
 1
1666 0.49269363563620727
1729 0.4796900544291166
1768 0.28493541920238624
BA 0.06443261567489557
Blue 0.04205824596420982
Cher@@ 0.08145754044499602
Cir@@ 0.07948121444579836
Din 0.3090831684998827
Emir@@ 0.20391015111840283
Fron@@ 0.12094381102835097
GC 0.1568109432850089
Land 0.02802973839985276
Marne 0.1880774893025345
Mont 0.13887042246186382
New@@ 0.035533919308887066
No 0.02444025446241433
PE@@ 0.10976279979213036
Pur@@ 0.05804287449233777
Pyrénées 0.22808449814274537
Robert 0.014168512609267903
SP@@ 0.061717238310968814
SR 0.05928607941895246
Tam@@ 0.059473978197043746
ados 0.0054117175319633275
ants 0.007691638812360715
asa 0.05938196799633429
back 0.008621928696057771
che@@ 0.048562106105197116
death 0.013027027704960838
direct 0.03973945633035648
dol@@ 0.0494101806936439
dova 0.32564168655958986
e.@@ 0.14639284813050532
ebr@@ 0.05081589460493884
font 0.06399577292267797
him 0.005056788773062752
ju 0.16845241369399605
ken@@ 0.02612980728362317
lab@@ 0.036687499233379675
neur@@ 0.05862374648536682
ode 0.0595413969420914
sh 0.06862396399058776
side 0.009541758167261051
tional 0.019867534581998452
ver 0.01749198418638166
verse 0.03457186149348362
ws 0.025088632785237885
æ@@ 0.09843534814305997
ț 0.904110269775188
ؐ@@ 1
إلا 0.3618109783992068
الاخت@@ 0.8505894076871482
الخص@@ 1
الداخ@@ 1
الكبير 1
المار@@ 1
انض@@ 1
جنوب@@ 1
خصوصی@@ 1
فقال 1
قام 0.4430246134069306
قلال 1
نژ@@ 1
یووا 1
ਰ 1
ு@@ 1
ﻼ 1
1521 0.5245864981846057
1525 0.47572326864198067
1535 0.5718076853676941
1595 0.5331254889211464
1658 0.5089558497807779
1672 0.43972565063790897
1710 0.36507901373523693
1714 0.4096839548212421
Anj@@ 0.26316979425341336
CS@@ 0.06073470538129132
Category 0.13584766162176756
Cel@@ 0.05159386626459381
Cher 0.363987151540814
ET 0.19025043427251415
FA 0.04810437453708638
Hay@@ 0.04488290146231209
High 0.015663489515858667
Hol@@ 0.016814282221906868
J. 0.02418127207749081
Jah@@ 0.24640985521205852
Jav@@ 0.18827384981870285
KO@@ 0.2866077378221181
Ki@@ 0.04151259122122271
MP@@ 0.06908001281588853
Mul@@ 0.04564985421372788
Nav@@ 0.046794122298456406
No. 0.033324179095411174
Nu@@ 0.06890312958430797
Nur@@ 0.10956254549202996
On 0.0036101549733153927
Os@@ 0.029180299942339148
Philosoph@@ 0.12027309114217112
Rock 0.034055869483585424
Ré@@ 0.031878005717635695
S. 0.033984870000021934
Sat@@ 0.06258704628267081
VI@@ 0.08555167826481112
akh 0.31660038864067963
align 0.06016086745984716
amu 0.317727481515869
art 0.009994604149537886
aug@@ 0.06031944054730905
bel@@ 0.013864543713533467
bs 0.026196412586403033
cha 0.02332175866988566
cle 0.042764395394272146
con 0.0016486991538548555
cultural 0.03599380926545761
device 0.10863348426722229
eph@@ 0.06275280189687003
ial 0.036437971669236194
ili 0.06766078468457638
jus@@ 0.04076148518132238
las@@ 0.04462612637425638
ling 0.013359026105631408
nom@@ 0.03464940535090154
shi@@ 0.025922372830867135
ten 0.002589827703705357
ual 0.024707495205981752
ão 0.07441294795198165
èze 0.4348868293717022
ؕ 1
آي@@ 1
اختيار 1
اعي 1
الرق@@ 1
السر@@ 1
بلت@@ 1
تعرض 1
تقري@@ 1
حاء 1
حکمر@@ 1
سرح@@ 1
طرق 1
غري@@ 0.8074455629475958
غير@@ 1
فاظ 1
لوك@@ 1
ماريا 1
مسار 1
معين 1
نسي@@ 1
وقع 1
ٹاون@@ 1
ம@@ 1
ர@@ 1
⇽ 1
ﭜ@@ 1
1642 0.4023352469085108
1708 0.42551788908979166
1713 0.4013918507885254
1744 0.3975107159870375
1749 0.40673894746478745
1764 0.2964936255505122
2030 0.4638713961291585
Aj@@ 0.16085229055521563
Ann@@ 0.04696695017007744
Archi@@ 0.10950647564692145
Award 0.01718842528446009
BL 0.17757952822583012
Dakota 0.10336773904438219
Dan@@ 0.040683878325859915
Dav@@ 0.0648737528004342
Free 0.06870009933264136
Gand@@ 0.14317732954345813
German 0.012911940397865144
Hus@@ 0.06417957258479247
Jan 0.06403513214118776
Kab@@ 0.06903985479747628
Kaz@@ 0.08470799768208358
Khali@@ 0.2625385678650246
Lincoln 0.0656111351860379
Midd@@ 0.10986825961158095
Nan@@ 0.11505805674846278
Old 0.03540632024502327
Pres@@ 0.022209668942314905
Public 0.03597350442946684
Rand@@ 0.08238689188032354
Tan@@ 0.039350510989672634
Tir@@ 0.07418185627296195
West@@ 0.023259024882924247
Zey@@ 0.8387990198621165
Zi@@ 0.04720538587331149
ange 0.033752812941864635
atory 0.04780924756775431
center 0.022110676092623897
chen@@ 0.03978530007263278
cher 0.01348972723736573
ection 0.023630627772477698
ei 0.02430749694652432
eli 0.05991421570443689
eth 0.03656799016047111
illon 0.06980132887428049
ingham 0.0757400793380926
institution 0.0863463459264019
ities 0.03196973008518403
mac@@ 0.06157688995319901
mail 0.1109881488697705
nam@@ 0.027268097847381847
ny@@ 0.05341447306957497
otic 0.08801592210269292
penetr@@ 0.19678889241587336
played 0.006462322848677168
por@@ 0.014600506153235816
rights 0.028267567387274404
sub 0.07480253156058861
there 0.0056726287279938725
tu 0.056870440153057436
vers 0.009218580690332238
when 0.004123458422598836
ém@@ 0.03647512775213159
én@@ 0.016635694812742234
Š@@ 0.07344668503568506
ג@@ 1
ז@@ 1
ל 1
الأح@@ 0.820219071421215
الة 0.2783698282753116
الجمع@@ 1
الحج@@ 1
الحمراء 1
رجل 1
زوج 1
لع 1
وبات 1
وتح@@ 0.6301876281390156
وتش@@ 1
ودي@@ 1
وكي@@ 1
يخ@@ 0.9710972750175288
ٰذا 1
܂ 1
ह@@ 0.18391294160173813
த@@ 1
1627 0.4688907345771725
1656 0.46393051158588594
1684 0.49371409402125704
1703 0.4489260523115984
1920@@ 0.08058339972746766
Bot@@ 0.033711809366880376
Chap@@ 0.04234647308864749
Chem@@ 0.05246351877231463
Dem@@ 0.03015548325308259
Education 0.028103603665926586
FO@@ 0.1346718735882206
Fair@@ 0.06942085976985894
Gul@@ 0.0970326929273486
H.@@ 0.12318195636149092
Jac@@ 0.04300079053632361
Kel@@ 0.06215916063628739
Lach@@ 0.20461869619479658
Municipal 0.09097904956131075
Nicolas 0.07948672715731055
Norway 0.07682258552555526
Ori@@ 0.06557314322830374
Plat@@ 0.02836758548949595
Sain@@ 0.26180999561499835
Social 0.04716643356291231
Statis@@ 0.12174047322273486
XV 0.08407324510688459
Yam@@ 0.08454199529356586
Yu@@ 0.08921912722480962
Zh@@ 0.09925334162120833
abl@@ 0.043705476252126604
aka 0.03969297289651216
akan 0.4670182708891061
amo@@ 0.05167953457805961
any@@ 0.027727706421151205
asti@@ 0.09427692524707948
ats 0.01010981787410305
berland 0.16299738949376116
bit 0.04038638043246509
cal 0.051731298458859695
code 0.042277847931246816
college 0.026924752370668496
control 0.016624934721552395
coun@@ 0.028558124269069885
differ@@ 0.04405996825604234
enton 0.1306612393839662
ero 0.014950832367793928
ery 0.035672573433619424
force 0.020710736668783782
gas 0.036468513724681496
ignan 0.2855668149426048
ith 0.0241775858904479
itor 0.055680903033963405
las 0.0017466332479094335
light 0.019596719613534236
mail@@ 0.28413136500851927
mas@@ 0.016259598545731554
met@@ 0.017707770685844983
nay 0.07872592676815872
put 0.02001758896660489
right 0.01547808924005024
sam 0.07772103009388179
sin 0.017008089174909383
stan 0.17402353589419603
ters 0.009555224190688319
ule 0.030762435031399197
vel@@ 0.038164338735727714
wh@@ 0.021745085028521377
är@@ 0.015462634744203394
èvre 0.23653833750848713
ա@@ 0.617082729839281
اقتصاد 1
البع@@ 1
التعداد 1
باشا 1
ضع 0.7830121632745933
كات 0.5514014767824662
نة 0.2752904583346429
نًا 1
وافق 1
وفق 1
ومج@@ 1
ياب@@ 1
يتي 1
يث@@ 1
ਂ 1
☆ 1
1568 0.5073599867313655
1604 0.46635179122142084
1723 0.3907510393608899
1797 0.1587715735129919
Bir@@ 0.032308777145175695
Black 0.02142714321136782
Book 0.052448096211030165
Bud@@ 0.05431638476507159
CO 0.10159583124895286
Canada 0.013556240952777753
Château 0.13706019785440846
Commission 0.03108875349799203
Côte 0.1603598546556483
David 0.012784469650248214
Finland 0.1139370332139144
Franklin 0.08165163399448312
G. 0.048087795920241164
ISO 0.16051314993626992
KK 0.23744004747780945
Kav@@ 0.13948988469490212
L. 0.043873636967580495
Lak@@ 0.05910749142875596
Law 0.03507123169182524
MA 0.05188987471540998
Mach@@ 0.057700481681829334
Neg@@ 0.09288557593096097
Peace 0.10122213016027876
Pos@@ 0.07218477787918073
Radi@@ 0.05312707055706295
SC 0.03980501163574818
Sang@@ 0.14557346628240697
Sir@@ 0.07675337099383787
Society 0.019473531188469735
Sun@@ 0.04381212951165605
Super@@ 0.029841378824915558
TO@@ 0.13200499814674133
UC@@ 0.10672920029860315
V. 0.04337667084486331
W. 0.037862309339221495
Wyoming 0.20970578736514137
alia 0.06704686785769057
ame 0.024746918350315478
areas 0.01915369242011485
by@@ 0.04554453721280012
cat@@ 0.014845117617933704
civili@@ 0.08873880186061002
dier 0.06643226220229098
dish 0.10613120394365617
doc@@ 0.03307087428534064
ech@@ 0.020510789028812922
emp@@ 0.020942384252095235
entin 0.07942333705528322
fan 0.08841015136377676
idi 0.05880854521282371
ill 0.022125343605901102
iz 0.07319436638086002
lem@@ 0.032932136282973465
min 0.06369687390079434
mit@@ 0.017770108505248752
nan 0.11206813539651629
nia 0.07397705353293589
ond 0.032930932114883155
onia 0.039786307925833306
oth 0.041093726048701
partic@@ 0.06855286136041741
ruled 0.08218677026453382
stone 0.02629713980313505
sz@@ 0.09206552763269961
tab@@ 0.04021739665616571
tal@@ 0.0201049030867855
uz 0.1471738163640997
vor@@ 0.008621923754555333
worth 0.03466563708640818
zor@@ 0.20113515858441228
ár@@ 0.039123867957208694
ï@@ 0.02283931118325847
ɛ@@ 1
الطب 1
بما 0.3947683244039308
بيروت 1
جماعة 1
جير@@ 1
حتى 0.1458928943938007
سوء 1
ضرو@@ 1
عيسى 1
فورد 1
موسيقي 1
ميد@@ 1
يح 1
ينت@@ 1
ੋ@@ 1
ா@@ 1
ﭺ 1
ﻻ 1
1572 0.45507587707111186
1701 0.3630494219300648
1715 0.2981153048663353
1716 0.41732528693090964
1730 0.2873613616028149
1736 0.38769858226382514
1754 0.3220932350545753
1787 0.18506925776631952
AG@@ 0.10921841675440455
AP 0.07076649060439343
African 0.022900183772957813
Alpes 0.1030971201600447
Arab@@ 0.07151202000358504
Bau@@ 0.01172782928117118
Charles 0.012156975755627583
Corporation 0.03930484167187207
Din@@ 0.05252582790077445
Domin@@ 0.050315351239191834
Dou@@ 0.050742062288077594
ER 0.15256833315779575
Hed@@ 0.12585637447926176
IN 0.1422683042898102
Indonesia 0.07595176191005538
Internet 0.046965489084431114
Iran 0.040629239983827566
Kin@@ 0.03695935242176243
Ly@@ 0.032681316589395805
Nak@@ 0.07846761765095425
Nic@@ 0.0643176335518181
PL@@ 0.14204816234497872
Ran@@ 0.03896403584852199
Ras@@ 0.07392409043824849
SI@@ 0.11850357334419183
Sand@@ 0.02659574298749595
Science 0.03010886636734654
Trade 0.10033478527962714
Virginia 0.02556313142891337
Wayne 0.09696072016419933
Wo@@ 0.040554709111668814
aan 0.19365845241884597
aceae 0.02975392384226012
aches 0.030285011867860246
alities 0.05229812136338748
ark@@ 0.02584518608994026
aun@@ 0.030864234466136047
ava 0.04931247807682739
ax 0.05651924823794128
bei 0.002973796964130796
bes 0.030206618444452445
bro@@ 0.024133545364791828
dan@@ 0.04835316738440001
dom@@ 0.029029520998202687
effect 0.04072795173067314
engine 0.03682704004127525
esc@@ 0.024505669840144864
gen 0.01333733978904701
house 0.011115295731270578
if 0.010467939192799388
igh@@ 0.02093305944899997
ip@@ 0.039232211942867926
ison 0.024094453810016323
may 0.0066783958707572
mes 0.016522273449487174
mod@@ 0.026058996329295793
ombe 0.24175977306855329
oo 0.05143276017823701
osa 0.019187780113513155
oto 0.028623325629077837
ouv@@ 0.03179475710096655
pas 0.006472255711335335
plat@@ 0.03012994830545561
ples 0.021427963284529568
refer@@ 0.02802080900554145
rom@@ 0.019974639738567678
sea 0.02264181941496828
sin@@ 0.01709057054297344
test 0.03001567009177943
ture 0.014017209507488118
ute 0.025917319560119653
vet@@ 0.06204634764013891
ór@@ 0.06572901015529277
р@@ 0.012082488348348092
أم 1
اريا 1
الحجر 1
الغرب 1
القرا@@ 1
المجمو@@ 1
تنام 1
فيل 1
كاست@@ 1
كز 1
لفات 1
مناق@@ 1
میوز@@ 1
يحيى 1
ڄ@@ 1
ۤ 1
শ@@ 1
ﻢ@@ 1
1616 0.4553553548867734
1645 0.3996934745188858
1702 0.39748953187859676
1743 0.36055608493593155
1748 0.326102696995852
1752 0.3352609188455136
1766 0.28350365159793667
1786 0.20301588395948433
Allah 0.41688745956536305
And 0.05580527969635495
Army 0.014768863643780461
Authority 0.09931761841928227
Battle 0.030098161916686086
Belgium 0.09097911929216144
Bis@@ 0.09641761017727224
Earth 0.04338825938639163
Gaz@@ 0.10735108773205565
Green@@ 0.051078189131455065
Han@@ 0.024464150962566596
Haz@@ 0.1028865233201563
Hom@@ 0.03390477935285276
Mali 0.22176187239267825
Money 0.19106987733086894
Non 0.11361249701238782
P. 0.03703436677680612
Peter 0.014923787385967719
Regi@@ 0.36885826984058084
Richard 0.01736181488730139
Rud@@ 0.07813446395665889
Station 0.02966362325292102
Ty@@ 0.03653423209516305
USA 0.02324382569032864
Vas@@ 0.07248267991530445
Villen@@ 0.29479421194657895
WA 0.11855542037535324
achers 0.07223127358442563
ae@@ 0.06098509217233573
alp@@ 0.07974143297795948
ande 0.057930314610333364
chi@@ 0.02153356389164711
cricket 0.07474129622728778
czy@@ 0.2519956223397278
din@@ 0.031569701065111394
dium 0.07872852009182234
eal 0.14746436928306972
educational 0.07013856151163683
ems 0.04618977846351281
enberg 0.03699051161702921
ennes 0.0351929473134388
esti@@ 0.023510555057175177
even 0.012637161124615402
fourth 0.024453107265494
ful 0.018316745247585704
hal 0.23914086823614455
hu 0.1707271489081763
ieu 0.12894686210622355
kam@@ 0.10040298709575937
ky 0.025069455615338798
lis 0.03394543065114554
mam 0.3024630669583254
mic 0.09303206762138565
mur@@ 0.029206730714427556
ner@@ 0.023114599045862598
oid 0.0646049967844375
page 0.041098928161049215
path@@ 0.05472688689043074
political 0.01468842194916896
press 0.03909803785622712
prof@@ 0.023742141541518786
prot@@ 0.012857727431668443
rel 0.09811864016553201
rian 0.08051216292426476
rule 0.04535855337807194
sar 0.10576990071749207
self 0.026800316882213404
standard 0.030859858410675397
technology 0.0423873768169247
these 0.007439596395454095
three 0.004222697600074349
tom@@ 0.016969549674451
ton@@ 0.026375791462807906
tron 0.1950669886881996
è@@ 0.02366456028901318
ë 0.14107961164576285
استق@@ 1
الدم 0.8210999039314638
العاش@@ 1
العمال 1
العمر 1
القلب 1
جبال 1
رأ@@ 1
ريح 1
سبا@@ 1
سه 1
سيس 1
محفو@@ 1
والن@@ 1
وغير@@ 1
وهو 0.1316218602147504
يغ@@ 1
ښ@@ 1
ڪ 1
হ@@ 1
ମ@@ 1
ର@@ 1
ང 1
ﻕ 1
ﻦ@@ 1
1611 0.447652648254149
1629 0.39812228876482
1712 0.3974444119142708
1751 0.33412112805169103
1755 0.2730984656775777
Bang@@ 0.11035973590292493
Bres@@ 0.14510287632529528
Butler 0.12374890238290977
Cla@@ 0.10037006201718184
Dod@@ 0.08273770544676241
Econom@@ 0.06546805694917278
Global 0.06951119586219401
Gran@@ 0.0548018508445687
Hau@@ 0.09931882580975544
Haw@@ 0.038624081456873634
He 0.00133728611819966
IB@@ 0.1472861806707283
Laf@@ 0.12773564930819406
Laur@@ 0.04128480324572967
Luc@@ 0.03255853569130651
ML 0.14569972079346322
Maine 0.07742291913571389
Montana 0.12200909030459
ON@@ 0.08319288153543376
PG 0.14967141138872425
PT@@ 0.18634020254014766
Pad@@ 0.04321155281620896
Pau@@ 0.04610002559804111
Ple@@ 0.07575425231458817
Red@@ 0.026101551605197608
Rich@@ 0.05252978491120291
S.@@ 0.05431855707779738
Sag@@ 0.10746496033450643
Territory 0.13804212860170098
They 0.007198696389050106
Thomas 0.012554926560799092
UK 0.01914950546793547
Wh@@ 0.04083442896121028
XIII 0.08296391308413872
ado 0.0022390130287769394
amba 0.10194819704234698
ams 0.025757110232139925
archae@@ 0.09040811431674868
archiv@@ 0.14524177949035347
arian 0.0364840523362805
around 0.008838752457545347
asse 0.03485967334325004
audi@@ 0.055003832216937
aves 0.025845740496493342
based 0.0072146935555271454
come 0.02170525056423233
dic@@ 0.0162606868952949
duc@@ 0.03560352088425974
ector 0.07577253795422395
emia 0.08468653954469352
ental 0.025709900065793354
enz@@ 0.01833317072339404
gi 0.07220559066995864
head 0.012064599574449181
hor@@ 0.017684458857312315
inh 0.1965554195162771
inum 0.12324128846299937
jar 0.16343741929796005
jer@@ 0.06626870290085589
ken 0.0077418573513672985
kings 0.09381049509894142
long 0.007568830823596433
mine 0.048500851131858126
mit 0.0010928497030616446
nik 0.05643144486945973
original 0.009660159952647547
radi@@ 0.028764828803479452
scope 0.10165675709814936
ser 0.008385853248969092
ship 0.008790419824119818
soci@@ 0.021439185938646913
star 0.031086076534491986
sue 0.06369666912654283
tion@@ 0.0208514800174453
trix 0.09950555002236793
té 0.02184714320487552
val 0.06611181175395701
van@@ 0.06921733770450406
wave 0.08018200779404037
yi 0.05718759347490592
yo 0.04545232445051763
zan 0.1493178974674229
Év@@ 0.21041661092123645
ê@@ 0.034656099645562564
ö 0.1047446727675021
ī 0.11818997007291719
آيت 0.5469845733879934
الصحي@@ 1
الكر@@ 1
بها 0.1970873404394106
تخص@@ 1
تمتع 1
جح 1
جوؤں 1
حدي@@ 0.9946967061731178
درت 1
ریلو 1
طات 0.8946014401431186
فرع 1
لكي 1
للو@@ 0.8000935362011228
معاد@@ 1
ناطي@@ 1
هد@@ 1
ٓ 1
ړ@@ 1
ݨ@@ 1
জ@@ 1
ਬ@@ 1
ப@@ 1
1555 0.46088964092759643
1590 0.3707500548096237
1612 0.41986862318109447
1621 0.38188681792034196
1628 0.3879226986092528
1632 0.37832221392519594
1640 0.27240459077022294
1711 0.37142020707986684
1741 0.32134547956877185
1779 0.2123000385935018
2nd 0.031119782289127984
Aeg@@ 0.2649151592427353
Afghanistan 0.08298160470916952
Ahmed 0.12243598517616262
CT@@ 0.1528564685181467
Catedral 0.29262180182887737
Community 0.05051231581060674
Croatia 0.13987865984173622
DL@@ 0.32417505526206897
Dal@@ 0.04707887033830611
Dam 0.1461850254164811
Ecuador 0.09695832617742928
Eth@@ 0.0542881080035326
Fon@@ 0.05394670671622087
Grande 0.040539544333975455
Gre@@ 0.024510768347530815
Had@@ 0.08003002858768128
Hak@@ 0.10084706164724022
IT 0.09823901564606743
Ja@@ 0.1037116650768584
Jas@@ 0.1286336284735977
Kom@@ 0.017700707582787835
MS@@ 0.08776212584897347
Madagascar 0.1637395816727132
Mary 0.02052021037893232
Miy@@ 0.17607339895227275
Mug@@ 0.14572693142602836
Museum 0.017065700634137815
N. 0.08304165662186401
NET 0.32330913338296136
PN@@ 0.1499612237987602
PP@@ 0.12262119303083602
Pul@@ 0.06960983287290007
Raz@@ 0.1750027789463636
Rock@@ 0.08222788640928166
Seg@@ 0.04219962511151047
Sid@@ 0.09761926933691613
Tem@@ 0.039158114651629355
Tul@@ 0.07981748079226508
Val 0.09349468606129784
Ven@@ 0.03427804794357267
Za@@ 0.22770114694935964
alb@@ 0.02784007293043208
amarca 0.20351288249085478
aud@@ 0.04374008220698968
blog@@ 0.2984938112301257
cre@@ 0.0091673344630908
dou@@ 0.039064799015933925
eau 0.013249412643764285
economic 0.030783568466461173
ef 0.034625286781629315
eme 0.02268988964444586
ett 0.019065170863231586
euve 0.26092535529111277
ican 0.04179856617321206
ii 0.07460518019659175
ind 0.07954156177113467
ja@@ 0.3399005695796481
like 0.007911933745917156
los@@ 0.028358775443715362
mani 0.2555743175466549
metropolit@@ 0.11668315601688965
mill@@ 0.05741019009273871
obi@@ 0.09498930643771046
och 0.10609775941381322
ones 0.009329783311253701
onn@@ 0.01485106488091192
pil@@ 0.02848962496122033
popul@@ 0.04292411914898565
pur@@ 0.014341109485503345
sen 0.010962521146241905
sexual 0.04106388114617721
spec@@ 0.02667111996420881
ster 0.01243936081675419
story 0.01633545200561841
tag@@ 0.04792408325815593
towns 0.0642681609681482
uli 0.1312806862329572
unit 0.028968798543720007
urg 0.07522126377006336
women 0.011053265680009097
yd@@ 0.06098307179492402
yl 0.03942755602955355
ú@@ 0.022189585190618977
ă@@ 0.05755453921809647
التق@@ 0.42239771040362134
الحس@@ 1
الحم@@ 1
السما@@ 1
الصف@@ 1
الفي@@ 0.3975574940932712
النو@@ 1
الوق@@ 1
اليم 1
حصل 0.4683158587068931
دج 1
سمبر 1
فز 1
كارل 1
لقد 1
مرور 1
ويم 1
يخ 1
ڳ@@ 1
প@@ 1
ੂ@@ 1
ﺚ 1
0s 0.018649244292454577
1.5@@ 0.5919556693070007
1547 0.44573750689571995
1569 0.4615366492970011
1601 0.4400825084775556
1653 0.41968975545185055
1745 0.27985257243106637
1767 0.255257294808721
1781 0.1941880775474713
AR 0.07273871821743197
Anti 0.10724167468833115
Area 0.055076439800401944
Australia 0.012266552835362298
Bes@@ 0.031128961010712535
Bosnia 0.1483913188234907
Che@@ 0.0653863545708777
Crim@@ 0.06911991446739646
Cu@@ 0.02611619545022123
DO@@ 0.09405425438602714
Edward 0.02532503652621639
Eff@@ 0.06588158766598895
Fam@@ 0.08721730465659099
GB 0.0682380245105888
Hamilton 0.0505434048357954
Hindu 0.11751750641287004
Kad@@ 0.09051688596126531
Kit@@ 0.04994209746878332
Library 0.04511688075968916
Med@@ 0.030518460954345118
Point 0.04565199465872511
SE 0.11008565280161285
SF@@ 0.14607891084086966
See 0.04039873804158487
Sok@@ 0.16569263890059038
Sri 0.05625938223140458
To 0.020740006626636123
Tour@@ 0.03160876385766235
Tran@@ 0.0549232133382235
Uni@@ 0.0359242366176642
ace 0.013669858159586852
aci@@ 0.01999889444881339
aja 0.03655478485389347
azar 0.08424662842596954
bre@@ 0.009215939030805462
char@@ 0.016964388815397757
common 0.017285695985114084
comput@@ 0.07840809668859498
cos@@ 0.04618102925429596
disease 0.05139258593985898
eb 0.07222854216761951
eland 0.05017930831903066
ema 0.027928972372601366
eu 0.030857206913185057
hk 0.3670307726846097
ico 0.011670943428870073
ived 0.06908703127433762
ière 0.15878660385754978
jan@@ 0.13511158983110244
kin 0.03018058528849036
mal 0.01711368492469695
medi@@ 0.02174837066179356
op 0.02790523113604677
oscop@@ 0.15873365243621412
pal@@ 0.01727050448605439
part 0.003609897916147712
post 0.01824951832317947
regional 0.02936477637904814
sel@@ 0.01301513327735578
trib@@ 0.19289401498377975
ution 0.02457243665445744
vais 0.15051588710472785
vil@@ 0.052006181266954755
wala 0.580446199955933
án@@ 0.029732848741344468
ène 0.03290372840319333
ş@@ 0.035566337863062125
публика 0.2719557644040479
استبد@@ 1
الترا@@ 1
التي 0.03628019172322919
العام 0.2330024572378312
الفل@@ 1
القضاء 1
الورا@@ 1
باك 1
توي@@ 1
حقي@@ 1
دراسات 1
زمن 1
طي 0.6648018589035947
قق 1
كالي@@ 1
كبير 0.35927400023270417
وراق 1
ۀ 1
গ@@ 1
ੱ@@ 1
☃ 1
ﮅ@@ 1
🐢 1
1450 0.3759156435179396
1624 0.3863081731767712
1635 0.3425595298752004
1670 0.30865005982731314
1704 0.3490713015760832
1717 0.32900814209910045
AE@@ 0.09378140927028797
AL 0.08282906135053843
Arm@@ 0.03585685888698087
Boh@@ 0.053569489482429705
DP 0.062492225635266574
Delhi 0.09041434183216167
Europe 0.011066174535500966
Ev@@ 0.02904357264683628
Gan@@ 0.09134066323553286
Hen@@ 0.04319722612830857
K. 0.051770875646346234
Ka@@ 0.04887943824790122
Kir@@ 0.02617555900345037
Lé@@ 0.06387779965119099
May 0.005822144056326089
Name 0.02416302748654651
Ostr@@ 0.1240430613754387
PC 0.04330472900754477
Peri@@ 0.09314261004428205
Phot@@ 0.09817862611336503
Pin@@ 0.037218703069234416
RA 0.061949780262243015
RS 0.06799666914241329
Sang 0.3558659496173943
That 0.029176291927082643
Tib@@ 0.09954328111097113
U.@@ 0.10952755811242916
active 0.016777809823203114
agon 0.08263938717904507
agr@@ 0.03254285314491426
avi 0.10402578529735688
avi@@ 0.04164204536795104
ayi 0.37935180113693356
ays 0.019060715765959156
azi@@ 0.14862689196855827
bian 0.05395707865095303
bin 0.044755723238267334
brothers 0.055135925820049725
cancer 0.05245400857490683
ect@@ 0.024708322643173852
ected 0.018638519666213303
ective 0.01937854269909438
ela 0.020326980074879954
entr@@ 0.013667701447381725
ev 0.03560353885134885
genes 0.1072656682460081
graphy 0.0695020884317734
grav@@ 0.030552572639143467
hom@@ 0.016581929384559043
indi@@ 0.021827685218510723
international 0.011198003042102183
mand@@ 0.022779077303785634
modern 0.018350118629030247
negative 0.06050118017126565
new@@ 0.07227825011865606
ont@@ 0.04216390360911583
oper@@ 0.015208381263904504
operation 0.024037907682013186
ough@@ 0.0366745348813239
ox@@ 0.03708483899290986
parti@@ 0.016870394876567038
period 0.011862842561157935
plas@@ 0.04954436736410638
position 0.008853565236134514
reaction 0.08322271428160732
social 0.012438267213250913
spir@@ 0.028868714815440205
ston 0.041054211947333795
support 0.011767832987457103
theor@@ 0.05037884756170401
third 0.009422535627463254
tica 0.02510401989177156
uf@@ 0.0243313235860386
uj@@ 0.11215752190900759
ult 0.10365036287760969
uy 0.33328852428831135
var@@ 0.02846742077819009
ward 0.023730569058081494
western 0.017948666879038032
ève 0.06479887431593001
ín 0.023385175902280998
أر@@ 0.2721828958477162
أي 0.13951352084035543
أي@@ 0.33969949287370493
الوطن 1
امة 0.5516560819404563
جاح 1
حكم 0.8121543452912041
داف@@ 1
صلاح@@ 1
عسكري 1
قطاع 1
قيام 1
قيل 1
للا@@ 0.5454210414559144
مراكش 1
وحيد 1
ولين 1
ونظ@@ 1
ٻ@@ 1
र 0.027920631490539544
ফ@@ 1
ਜ@@ 1
ੇ@@ 1
ರ@@ 1
ﻆ 1
1585 0.3917512904897914
1630 0.2745016902536629
1644 0.3087036302921861
1680 0.26669107407957376
1688 0.2974767965410963
Academy 0.017305387065241908
Age 0.07004672817666481
Alli@@ 0.056785423145516066
Austria 0.04276524919315478
Bul@@ 0.028298784407696745
CP@@ 0.08064889315249989
Ca@@ 0.04373958419434818
Civ@@ 0.1395640348229955
Cop@@ 0.04686278301674805
Day@@ 0.08505186739165502
Dol@@ 0.032746824005066184
Dé@@ 0.027275954144985664
EL@@ 0.13607434287993703
Economic 0.09025346869293681
Four 0.04654048276099382
Francisco 0.01787054060172217
Golden 0.04094437995821533
Guy@@ 0.10778364634483768
King@@ 0.09351714878049065
Ky@@ 0.041095413668353384
Lau@@ 0.043862350912213154
Macedonia 0.16457952834083275
Mash@@ 0.480094941139363
Mog@@ 0.13384993518192803
Olympi@@ 0.06385668429038059
Pacific 0.026706881342855805
Paraguay 0.11402305965140225
Rel@@ 0.02221835468793962
Rio 0.045242892966710135
Service 0.023247679449065264
Syria 0.10284192382309305
TS 0.08725727510947459
Tag@@ 0.06049775526803404
Tat@@ 0.06795831078794455
Tel@@ 0.029158611344777867
Test 0.07033808350586422
Thailand 0.08213913816407116
Ther@@ 0.03173120300624033
Tit@@ 0.03301425983322311
Tour 0.01646264141162746
Up@@ 0.08253921165061277
Uz@@ 0.12675906546210522
Vill@@ 0.047378013803248104
Wood@@ 0.03994186321606076
ads 0.02904001612510008
aise 0.028983641580016754
alization 0.05979386359726867
andi@@ 0.06121748361584827
anz@@ 0.02018192943320197
aph@@ 0.04835282780247459
arc@@ 0.036520516405097125
band 0.00780629662799965
being 0.004356966433030021
bri@@ 0.02715552480671642
can@@ 0.011538117897120642
charge 0.028338120028515275
chia 0.08139585404120915
dev@@ 0.015200111383149683
dir 0.028592928575963985
een 0.04429702678072642
emy 0.1848669380944231
esi 0.029965188615245403
ett@@ 0.020542031630128646
fin@@ 0.0072859566298635
former 0.006452533395618513
gener@@ 0.015069251215586691
heim 0.022814521994344087
hen@@ 0.05237484732633054
home 0.00773577816041624
hur@@ 0.03377626405595416
ider@@ 0.0550806650177444
ins@@ 0.011951121780962467
isti@@ 0.023830480172199246
ized 0.01816330751047559
km 0.00492694866580999
kow@@ 0.16734657930795815
kö@@ 0.05835556503376523
ld@@ 0.1058003511571592
may@@ 0.04646375702933133
mil@@ 0.022668880535878587
oke 0.030646111696893918
polis 0.06944777420589893
press@@ 0.10381219334672288
published 0.008467922928898353
sec@@ 0.011360297087541715
such 0.0038489898477325887
sum@@ 0.017137066046400258
tak@@ 0.03604137184433244
thi@@ 0.031028966122774684
tile 0.04707977340782517
web@@ 0.08912784150774701
zhou 0.17059506127647198
ος 0.0281272532012588
احتم@@ 1
اعد 0.8116063918563892
الغر@@ 1
الكتاب 0.6938898116968455
اللا@@ 0.4312040186924352
المي@@ 0.3573480051696184
النار 1
بلدية 1
تمي@@ 1
تمہ@@ 1
جاك@@ 1
جزء@@ 1
سواء 1
سياسي 0.27392130883244725
شيك@@ 1
طار@@ 1
فير 1
فيه 0.2797307490929021
ماث@@ 1
مشروع 0.8105417215138934
مقر 1
يض@@ 1
ۤ@@ 1
ம 1
് 1
ﮠ 1
ﮧ@@ 1
ﺢ 1
----@@ 0.6339064014637326
1592 0.3942082302649774
1596 0.41376529423048386
1607 0.3915642718875068
1678 0.34595970021071376
1727 0.2929861712900634
1731 0.34579022540767135
1734 0.31208679708718895
BS 0.05569580678652106
BT@@ 0.18067991882557907
Band 0.019093181315618764
Boul@@ 0.07398987556606215
Boy@@ 0.050054275308647554
Caribbean 0.1031226029474243
Cham@@ 0.0694667863542197
Club 0.00944462562721666
Commun@@ 0.057650531692449554
EN@@ 0.11685231548299087
Encyclo@@ 0.2085328188943
Ey@@ 0.12145658550804413
Fay@@ 0.21525017357938792
Gang@@ 0.10560652174810282
Gel@@ 0.03559136751662408
Gro@@ 0.031589711559157116
Guang@@ 0.1289178069322474
Hill@@ 0.10791826979192856
Hum@@ 0.036200677471452225
Hydro@@ 0.10834139602239824
IL 0.11499029265500571
Industrial 0.0949116185249879
January 0.005778731350753205
Jo@@ 0.021807334470396168
Kang@@ 0.2288452552764297
Kos@@ 0.061841202235835425
Kul@@ 0.07721095322954567
Landes 0.06451621074280874
Lon@@ 0.07179583459573981
Lor@@ 0.030978952349056475
Lord 0.02423188398087987
Los 0.0050863229054134195
March 0.005632489803867126
Mehr@@ 0.07982399547180882
Military 0.04543136200437222
Mis@@ 0.03258393661546738
Mobile 0.10918539705447881
NH@@ 0.0928405513424913
Nev@@ 0.09642499952225692
Or 0.09886576576344268
Pay@@ 0.08279364829319777
Prince 0.027437850093568607
Puerto 0.04145384395669884
Right 0.1310257928743906
Rost@@ 0.2043185935723301
Ry@@ 0.0538625640722628
ST 0.11457627398263602
Savoie 0.16936156153138177
Second 0.02321916064570216
Sic@@ 0.08315540943635688
Son@@ 0.03148250665567581
Sou@@ 0.03283221145100893
TA 0.051596248996805504
Technology 0.04236950110513506
There 0.006901678427524213
Vall@@ 0.08567021031090925
W.@@ 0.1643083460974937
ader 0.030328566172678935
aks 0.03520648344818026
aqu@@ 0.023724932127221744
ara@@ 0.14157312313622253
aud 0.0313918831424926
ayan 0.06541685913197799
bank 0.025379379078429725
curr@@ 0.04739295465327893
dat@@ 0.03405265090289605
dem@@ 0.010600878562009202
direc@@ 0.01806143554993245
etary 0.10078553920626748
family 0.004793116620788902
here 0.03631037495512718
ht@@ 0.26165861875414526
hydro@@ 0.03491660413766255
ike 0.027340561660314296
institutions 0.04612713794401134
ited 0.010972340664312335
kan@@ 0.021572620290190036
kar 0.08049344326929488
ks@@ 0.023533303969526104
lard 0.05491975351724932
loc@@ 0.011878162989166633
mond 0.047970342640652766
nation 0.03244614544057423
off 0.006380318091940098
ogen@@ 0.048804633065967266
opo@@ 0.05135838075713693
ovina 0.14279943929249214
pedia 0.18724154215267455
qu 0.022699610340548144
ras@@ 0.025541504426024854
sul@@ 0.040816890400347264
sw@@ 0.014134864974904493
tre 0.01966204748822959
tus 0.04807756780964719
ult@@ 0.037033579492858966
ulu 0.06510912995907377
urs 0.016803478784499254
using 0.009866664351691956
vo 0.02470511718739424
west 0.010358290415506195
won 0.005323434868372554
Ş@@ 0.06250579204927599
и 0.00041610955247498526
о 0.004831756403182329
ס@@ 1
ادة 0.21458986047781506
التع@@ 0.4867857508325033
الشري@@ 1
تعريف 1
شراف 1
شمول@@ 1
شيو@@ 1
صات 1
صغير 1
ضت 1
ظه@@ 0.7314166834522664
علن 1
فه 0.7340441965900227
مداخ@@ 1
مذاک@@ 1
وإ@@ 0.21845373372522114
ە@@ 1
ल@@ 0.09930451729136679
ன 1
ར@@ 1
： 0.008278588027577022
1609 0.32829613605078983
1719 0.3144570514179706
1725 0.29746341954750777
1732 0.3049160354193614
1738 0.30984338580161336
1771 0.21453014831041714
AB 0.08186521247535776
AH 0.25350727227051156
Acc@@ 0.05199044766507284
Ach@@ 0.04048149552015896
Argentina 0.025503369719879702
Astronom@@ 0.12629454629901513
August 0.004032643488525095
Band@@ 0.05133715821559252
Bin@@ 0.1099327022531503
Black@@ 0.039833008675712434
By@@ 0.0752428371273306
Chang@@ 0.10548416483081717
Columbia 0.027579223212901394
Cot@@ 0.04488397630878188
Davis 0.03603221410272772
Dong@@ 0.22797538582502166
ES 0.13212383354227622
Express 0.05682795065989386
FC 0.011330531137328386
Fa@@ 0.07772989417055477
Field 0.039423088984186734
Forest 0.04498740181496008
GNU 0.2950750014899767
Gem@@ 0.043514934920949815
HP 0.10778013402995827
HTML 0.35419874151260694
Haut 0.11836449781893708
Hav@@ 0.028158058948700968
High@@ 0.046636582600983106
ID 0.10981032579763063
Information 0.06486727605565125
Islam@@ 0.13393905209397097
Kno@@ 0.057402743909832375
Langu@@ 0.20259344853008612
Lee 0.02163509234084087
MC 0.06602875228204647
Maria 0.018448087176242644
Oregon 0.051397694826999754
Pom@@ 0.05828050128156844
President 0.013232695782458071
Sep@@ 0.09619516985764852
Shel@@ 0.07284765348260994
Space 0.049650455729367445
Tav@@ 0.19891667496765203
Venezuela 0.04541774287323231
Wah@@ 0.15938115061983582
Win@@ 0.023800208773622007
Yan@@ 0.06279921731325044
Yar@@ 0.11717128866817494
aca 0.0372818531240189
aille 0.07595176191005538
ald 0.036636175801829804
angi 0.22841993122865964
anti 0.01921482282632479
ator@@ 0.04524096361673167
before 0.004520495503518872
blo@@ 0.032117669126542646
bu 0.018296227167101897
color 0.021560428285068798
die 0.0003489187531258109
eck@@ 0.020667671694678095
eign 0.21771367976929976
eira 0.08003342011952044
ele 0.018870462495169316
ements 0.008241055460372907
enty 0.12478105495673904
estim@@ 0.0331668593902611
eto 0.02595373716192273
fran@@ 0.050260592931549844
free 0.016372434631986402
gar 0.03900223475752053
get 0.016529826483227216
hin@@ 0.021275727250904833
ign 0.087371169415377
illac 0.21580847355582594
illo 0.029473858165025308
ils 0.007182065709746301
induc@@ 0.048650036098999594
inger 0.014975910129915258
ingu@@ 0.05271315663438735
iran 0.4334260601755124
itation 0.02860271020177194
ius 0.034625800469511615
jin 0.19870578501566005
just 0.010790206252293252
ker@@ 0.020374085004744562
leg@@ 0.010308075533528997
lev@@ 0.03310476178279728
many 0.004564012744741099
movement 0.022563770102227605
o.@@ 0.33053968356138785
odi@@ 0.02348432199320195
pas@@ 0.011152472108082618
pep@@ 0.18312539541405107
phen@@ 0.059558852535100994
ports 0.028994866077984537
positive 0.031089830192776106
process 0.01768070035105853
pul@@ 0.01686038583797557
rat 0.02365855606457873
rem@@ 0.011522384841565954
rit@@ 0.014800673925591304
ron 0.07540327445668432
rul@@ 0.040577025004767495
san@@ 0.017049225226802748
sburg 0.053541758470913914
sil@@ 0.018749832591013045
statis@@ 0.06646486189985316
teri@@ 0.041855159269392844
tia 0.033391400969436026
tt@@ 0.05062407953795867
ules 0.026641023723133532
ump@@ 0.018516707739791534
used 0.003311707492013721
wal@@ 0.01609493097391318
works 0.009833872311127572
yan@@ 0.042967752926460136
your 0.06321596184307537
² 0.01005594783127059
Ç@@ 0.04065359746900043
â 0.26449005337293485
èche 0.13524625780877178
î@@ 0.040574389719468085
ód@@ 0.12947241231790269
ö@@ 0.008864014305035656
ü@@ 0.008975677533846996
צ@@ 1
الدي@@ 0.5669215489152932
العراق 0.7378181835307388
المسجد 1
النف@@ 1
انتش@@ 1
انج 1
بعين 1
تتبع 0.5920374763370321
تحقيق 0.937707387474151
دوري 0.904120907242624
ذك@@ 0.7240651499764185
رأس 0.9217964543041728
سبي@@ 1
شف 1
طینی 1
فيس 1
قلي@@ 0.998797037417511
قى 1
كاف@@ 1
مصطفى 1
وإن 1
وجه 0.5995178378933097
ومست@@ 1
څ@@ 1
۽ 1
۾ 1
ਨ 1
ਲ 1
క@@ 1
ོ@@ 1
ﭤ@@ 1
ﮂ@@ 1
1623 0.33408298046039164
1631 0.3550349481476483
1649 0.3149164320518564
1675 0.3179916255028774
1724 0.2900622563167522
1742 0.2579193554597886
AK 0.16370890677285296
Bar 0.07144841041482507
Big 0.021777846906587427
Clark 0.04902330460911006
Commonwealth 0.054529708797972566
Dh@@ 0.14872493445898646
Dr. 0.02049314019379134
Fres@@ 0.06625566271212266
Heb@@ 0.06397880961982419
Hem@@ 0.05657907533874726
Heritage 0.06311911513871474
Ken@@ 0.045861383565408136
Kn@@ 0.024560702091052267
Kot@@ 0.07907529494194411
Lane 0.06627631502683806
Les@@ 0.04150598321314104
Liber@@ 0.030372073229291474
Marcel 0.09192570908906711
Medi@@ 0.030113851839652154
Modern 0.054184348662352555
Mountain 0.040348168030442506
Nob@@ 0.08627682703610669
PR@@ 0.0870560520006071
Pa@@ 0.03255907480017661
Pier@@ 0.06293887058429246
Pomer@@ 0.13213470077648765
Priv@@ 0.09177283605020013
RT 0.0690766959455584
Railway 0.02564636003910308
Rights 0.06531170148690386
Salvador 0.06745690517862062
Shak@@ 0.1165815451408227
Sig@@ 0.03279584819822264
Sloven@@ 0.09894775070396537
Smith 0.016267814644370267
South@@ 0.05176374868738214
Stu@@ 0.02767706466786785
Sus@@ 0.04805513051518529
Syn@@ 0.042318963712893246
São 0.05555597782272749
Three 0.03274563735933222
Tim@@ 0.03184005855229914
Ud@@ 0.14351381919247244
WW@@ 0.15549722772541813
Wa@@ 0.04540454982591425
XII 0.07586786879828743
Yang@@ 0.21923340755670706
ades 0.014516013738853122
ares 0.017446843215349117
bom@@ 0.04197422989132216
bul@@ 0.013946710525753869
census 0.020113296554726063
chain 0.06331591839146601
cir@@ 0.033546116325132665
cou@@ 0.02370889561119264
els@@ 0.04097060121724926
eni 0.05176486065076377
ering 0.014178697526173428
esa 0.016104015999230163
fruits 0.12928948608034366
gas@@ 0.03475871400154058
ger 0.009674784654892066
gian 0.02400865339190265
gir 0.22076655512680676
haz@@ 0.08219694842731569
hep@@ 0.12934500392160483
hey@@ 0.3918064936416679
hood 0.03159652450713037
hua 0.18498046657410033
ix@@ 0.06699927353273785
lic@@ 0.020328444085648528
lists 0.07929386436527822
make 0.010802991711109771
medicine 0.0766879706176265
mel@@ 0.015712932318836064
minute 0.03781349409294028
natural 0.018379158927391746
network 0.02402389227026105
oll 0.05952867329964686
oning 0.0656021126897259
oro 0.030815621810186086
ovi@@ 0.07091574159741826
peri@@ 0.02752196327033595
philosophy 0.0686027597238742
pot@@ 0.022252591379908992
production 0.008439929501117757
ques 0.006212139134402384
ram@@ 0.03470015270758693
riz 0.26554590119682686
say 0.033778252566033146
sciences 0.05231098804013412
since 0.005863562683758872
tax@@ 0.03187979456345739
tide 0.14521466392508314
uli@@ 0.0300128351448801
vir@@ 0.02754639806042728
where 0.0028601752349344577
yang 0.21080750048646707
ysis 0.0978508610474068
êt 0.10066590935169208
х@@ 0.008352557005906824
ابة 0.3512912004559218
اعات 0.9246893852881063
العين 1
الكريم 1
بنفس 1
جامعة 0.20412880457948368
حاب 1
ديان 1
دیق 1
عوا 1
كتي@@ 1
لاسي@@ 1
متاز 1
يست@@ 0.3616057229983201
يكن 0.6038945463355121
ۙ 1
দ@@ 1
ল 1
ী 1
ਜ 1
੍ 1
ა@@ 0.47504413288095776
1597 0.3866625564046319
1636 0.3210715185642004
1654 0.2952403692060305
1661 0.27970077807501276
1664 0.32290331951894763
1782 0.1442254219256856
AF@@ 0.06755366435560055
Amer@@ 0.08479363531235451
BO@@ 0.10314362475381139
Barr@@ 0.0472890793861124
Beng@@ 0.07541570249067243
Brown 0.021963252983054616
Bru@@ 0.031110641367099377
Business 0.037099757333160975
By 0.011356399128073397
Bé@@ 0.0637450797149384
Chel@@ 0.11049956611919035
Clinton 0.07649801834584945
Comp@@ 0.05412307803043773
Constitu@@ 0.0665011431335759
Democratic 0.026914956158428253
F. 0.030050905935995582
Fol@@ 0.026583392199688367
Freedom 0.08461841842624794
Hamp@@ 0.09383682674200321
Hon@@ 0.02231777723974991
Iran@@ 0.07783573722029778
Iz@@ 0.08821258620460727
Kak@@ 0.1384541102925416
Kum@@ 0.05905458564928481
Lawrence 0.05393062290256575
Lev@@ 0.02917963334287196
Lyon 0.04864284881639107
Manche 0.20411882907224724
Market 0.08755688315023637
Micro@@ 0.08526827693477612
Monroe 0.1401460082038329
NT 0.1302232157115678
NT@@ 0.12253525074823968
Nat@@ 0.03650311556092786
Nepal 0.09204401133791242
News 0.029081384187873593
Nova 0.06992027827113478
Ny@@ 0.06990132207559989
OR@@ 0.12912179889284772
Our 0.07245420702853833
Out@@ 0.03468112403605372
Palace 0.05923498094423212
Pel@@ 0.03956168934452301
Phil@@ 0.03826330503863442
Post 0.028122049185032992
Publ@@ 0.04669465516657606
Rhône 0.10320784963171772
Rob@@ 0.031205611632878164
Russian 0.01630680446165899
SQL 0.32121966895113474
Shan@@ 0.11685420931125982
Sk@@ 0.025711240620739678
Sow@@ 0.11041193759728775
Spanish 0.018141307215140075
Sud@@ 0.043400161254279826
Sup@@ 0.038714638186519434
Swedish 0.04021647987006928
T.@@ 0.11213893048388332
Tanzania 0.13412983691083008
Tas@@ 0.03847158990836741
Thi@@ 0.038363041862578
Tum@@ 0.15693838012329211
UR 0.2061498020524443
Urban 0.0853728466987441
Zak@@ 0.1905477819430939
abor@@ 0.03644559272032351
ace@@ 0.025669904221027877
act@@ 0.02715771418459825
acu@@ 0.044933019205505666
ador 0.008972311151549707
agent 0.03389392212624272
alg@@ 0.020943751644937083
aling 0.03219863030059107
arch 0.04580579205877819
asi 0.06188470780337087
asp@@ 0.1085762160070652
banks 0.067154196881357
bil@@ 0.015117861069989995
blood 0.04582327978876377
bo 0.035090720898802795
bra@@ 0.1306313010735207
cant@@ 0.030853215259843428
chemical 0.0674175874791446
ck 0.022832211092627976
cop@@ 0.01816644528518415
council 0.03206116429947355
cy 0.03733774211036436
dari 0.8089092104937244
dig@@ 0.02156570002604992
don@@ 0.011894483845050725
double 0.022378040296089467
dé@@ 0.003092263055721805
eer 0.037643622029346034
ej@@ 0.028205796626996443
ello 0.017179786101405907
eti@@ 0.01894005127290212
exchange 0.05039943722042912
fab@@ 0.3001540406807654
fal@@ 0.02019216983797179
fol@@ 0.018542813024926264
gan@@ 0.027039045543031895
geome@@ 0.11817332946593886
gre@@ 0.016312880150320896
hol 0.1692759310762065
ices 0.01580981514947787
ina@@ 0.1488352824387786
index 0.12663669987464513
ion@@ 0.035177607648040586
istry 0.05928795129800365
khi 0.01202590665916184
member 0.006236057088618371
my@@ 0.026555910741840334
ned 0.017091589244173866
nuclear 0.048740592923669834
olan 0.016946218495486814
oni@@ 0.016850684330748152
orial 0.02794829320835137
oun 0.07247381880702713
pen@@ 0.010026779471212223
pression 0.020105162021726866
px 0.49547848153088914
sym@@ 0.031698241326987404
tain@@ 0.024501961028685137
ube 0.07149504637474574
union 0.022497366702244385
yu@@ 0.18123171575312383
ás@@ 0.05193772272547463
ñ@@ 0.023997465167977718
А@@ 0.004532385812928234
н 0.004763303408537231
أص@@ 0.30957765222168326
الإسلام 0.90162837268605
البار@@ 0.7874969078630082
العش@@ 1
القانون 0.4961140725134687
المب@@ 1
النخ@@ 1
الوز@@ 1
اهر 1
بريل 1
ترض 1
ديك@@ 1
ریٹڈ 1
زرق 1
سائر 1
ضوء 1
فإن 0.24925606593537156
قين 0.7461385493578769
كامل 0.9602031262771024
للش@@ 1
والخ@@ 1
ڌ@@ 1
ನ@@ 1
‬ 1
√ 1
 1
ﮒ 1
1651 0.31644323343429154
ABC 0.048479248206292055
Alb@@ 0.054169927059663586
Arabia 0.11265481363956326
Aviation 0.09759891107015585
Barb@@ 0.10607615670943646
Bran@@ 0.04414103899155634
Chin@@ 0.06312511167434218
Cog@@ 0.1522858313465037
Corn@@ 0.029399054469269253
Data 0.10078480662544521
Douglas 0.04117744876804322
Ep@@ 0.04129532072029544
Gau@@ 0.04031246592411482
HO@@ 0.18206782855529904
HS 0.08555700904732505
Haf@@ 0.0614238338426403
Herzeg@@ 0.1271652364610276
Hun@@ 0.04270209192005033
IF@@ 0.08766237613394234
Israel 0.022268765608858532
Jer@@ 0.03320101837606675
Kand@@ 0.16292775087225123
Lig@@ 0.04186010441591406
Line 0.022751130013206566
Luis 0.025479419273785907
Nah@@ 0.06783125308400285
Prof@@ 0.04270263675637676
RT@@ 0.05562158243730946
Ren@@ 0.021794928145516843
SM 0.07358489673983212
SS@@ 0.057611145013560516
Sports 0.029263971201890254
Studies 0.04561124394801964
T. 0.036356605545700575
TE 0.11144875571228534
Turk@@ 0.16800250274416006
We 0.025688576350626966
XVIII 0.051088547853303794
Yus@@ 0.3837264226573933
aji 0.10363405661612586
ancy 0.04552934102051129
angle 0.04106226285371545
antum 0.10658286573627962
ature 0.02942140949416105
bacteri@@ 0.11790952469324589
base 0.009455667442902828
ben@@ 0.01580706675617188
board 0.015000310857714295
both 0.004224974147844581
building 0.0070806455953959825
business 0.0131017763031571
chrom@@ 0.07087130320951593
chron@@ 0.042462627772717046
cli@@ 0.01928882480516033
committee 0.036555751825872805
cus 0.04183420444755552
e.org 0.5365280311666856
elli 0.025930192903323608
evi@@ 0.06308465715584806
fa 0.05409637955369509
fil@@ 0.015981309921846328
hel@@ 0.01547681784239438
him@@ 0.08308166662739015
idi@@ 0.023105469107449938
int 0.04551664762809698
ked 0.017997364320071544
later 0.003110631193676417
lieu 0.014554357609359116
los 0.0007261390153473514
lower 0.015443965937971411
mo 0.02402922006574948
municip@@ 0.06204441463058756
nh@@ 0.013818729996873563
ods 0.020487520634776872
ogr@@ 0.035095653060041365
olith@@ 0.13186225630548962
onian 0.048285858576147284
onic 0.0428689140590453
ova 0.028670348979044892
oy 0.04139056595516705
pan@@ 0.01461843675602226
phys@@ 0.025522748810689833
plex 0.0587261472586511
po 0.024186722108008506
proj@@ 0.0273989329645427
ption 0.09267876381911484
rel@@ 0.006513526992585686
ré@@ 0.0036033578807653653
sia 0.09121254349379403
status 0.024481381155198646
tro 0.030791030566145808
uh@@ 0.029604492235180864
villages 0.03167022486520706
word 0.020576762474710103
zer@@ 0.03809073935068696
zh@@ 0.12781843680107638
Á@@ 0.03874691740809568
å 0.23745871498937776
ð@@ 0.08865976657751187
ø@@ 0.029922770303243494
ú 0.048460997327335685
ān 0.17906754010956286
ź@@ 0.5439840485035001
ɔ@@ 1
ский 0.0040981965212476875
א 1
آنحضرت@@ 1
الاتحاد 0.3330045130508716
التج@@ 1
الثالث 0.43257875900449594
العرا@@ 1
الفن 1
القط@@ 0.6143285349518695
القل@@ 1
القوا@@ 1
بدون 1
بلح@@ 1
بنك 1
تعمل 0.7123256057077333
تلامذ@@ 1
دية 0.15397073461921076
رسون 1
رير 0.7262367057432537
سانت 0.9880035006399364
ظهر 0.3884698344167819
فما 1
كه@@ 1
له@@ 0.7736620107299548
مصري 1
ها@@ 0.8800583377380449
وجام@@ 1
म 0.03459181481109407
ঙ 1
় 1
ా@@ 1
ಿ@@ 1
€ 0.0635838261758418
↑ 1
﷫ 1
ﺵ 1
.S. 0.08130851766578281
1.0@@ 0.19687422696575205
1619 0.31052357051136303
1625 0.26290707667793745
1669 0.3274215208479642
Anton@@ 0.06242689407167702
Aqu@@ 0.04234133315869264
Art 0.009617879759809716
Bac@@ 0.05990579453483002
Ben 0.032746490252260806
Beno@@ 0.13345741989952536
Bid@@ 0.1565249371111742
CB 0.13907531150659339
CT 0.1082524682562987
Chev@@ 0.07755125774685492
Chil@@ 0.04788892028290902
Committee 0.017864022640533495
Cz@@ 0.22908184264953643
Dad@@ 0.16387776109767793
Dul@@ 0.10908677692230374
Dun@@ 0.025948646708402235
E.@@ 0.05648414085194299
EU 0.04721058802731662
Eng@@ 0.021991925886173186
Eul@@ 0.12845269995926412
FIFA 0.04819565418516434
Faz@@ 0.2559027823727509
Fe 0.08486832241322485
Flor@@ 0.0434910375906043
Fou@@ 0.13146429558433195
Gil@@ 0.03484877528884654
Grant 0.052865185581405356
Grove 0.10283863214419464
Gun@@ 0.039752887559154126
Hind@@ 0.08854619919751622
Kil@@ 0.031912707863797594
LG@@ 0.12930567386031364
Lamb@@ 0.10809949984291609
Loc@@ 0.022207850427024656
Madison 0.07521742167059353
Medical 0.03859490665450724
Nad@@ 0.05429177735858522
Number 0.14283752930030555
OH 0.16635535798286596
ON 0.23363782606755915
Off@@ 0.020191086376971347
Oise 0.18612526482728883
On@@ 0.03044894010245472
Pey@@ 0.16687809406503093
Pic@@ 0.02942147954160801
Provence 0.09967851409499662
Pun@@ 0.05898799093202628
Put@@ 0.0968233903110256
Queen 0.021760761962073095
Revolution 0.03548791809008503
Rh@@ 0.03895592596867113
Rou@@ 0.041110978121159165
SD@@ 0.1039246804806842
Sac@@ 0.05550782838081791
Seoul 0.1256054489476573
Sev@@ 0.0922463755639762
Shab@@ 0.196242930773008
Square 0.043848044490738015
Sun 0.03056291327709412
Tab@@ 0.028964489595379665
Tunisia 0.2375679237000313
Two 0.017304827834766376
UP 0.14474546160968907
Um@@ 0.012899315824030132
VA 0.06822063791921085
Van 0.02449212661618616
Village 0.04800590751514401
Ville 0.09932108329591101
Virgin 0.07893057335022842
Vé@@ 0.14057830211901176
Web@@ 0.030348708158961294
Zah@@ 0.15554741402406433
access 0.023514337977532655
actions 0.017223335401148083
ado@@ 0.05527862885203185
anth@@ 0.032071183574868725
ation@@ 0.04639558978919126
aur 0.11802907148927608
bach 0.015069943875992933
books 0.01789895315548181
consci@@ 0.0381481214865249
cular 0.0681453982922453
defined 0.03798777935647613
div@@ 0.02878956460725408
eck 0.019431197591084918
ects 0.013430649355765517
eine 0.001192482315555543
eral 0.030658715383150268
eus 0.048117341840852326
extr@@ 0.014420819310782996
fu@@ 0.01723571602037971
general 0.0067642907710775925
hund@@ 0.07991412578082784
included 0.007260364949633869
insula 0.061673174733306586
jo@@ 0.02193914226071064
ka@@ 0.07943010306624326
kl@@ 0.011994890612294619
ky@@ 0.09784655675247657
lang 0.022816271723342375
less 0.008357100010094817
lic 0.09312332103705741
liz@@ 0.033733921823519065
main 0.006969021858437144
major 0.007280254377303719
met 0.010539101545711681
mph 0.137648332794151
ogen 0.03491182240951276
ogy 0.09192965434202868
otte 0.04188922562750741
pay@@ 0.019015247673129825
pin@@ 0.026732679510947908
plan@@ 0.011004229380966249
play 0.006393890227003046
proc@@ 0.02426196213881456
regul@@ 0.021011865466514117
rey 0.015392846749217651
ses 0.0026229678218473535
several 0.004889297804115477
shu@@ 0.06718146980337003
sor@@ 0.013433737855364416
sper@@ 0.08004253466732451
sti@@ 0.01005261730158619
sun 0.09074313024305793
tax 0.03775498976605531
urt 0.049006106860288175
ury 0.0309966367994238
usa 0.030650379998293124
usta 0.35901306040349446
various 0.009995512063044065
vor 0.004641837938225712
wi 0.1580183634525684
wing 0.011544780247967882
wr@@ 0.03767971976499717
à@@ 0.12413024973269483
ı 0.02097893860440914
š 0.0704934867115213
ы@@ 0.00941081115207782
الأس@@ 0.3015473847096268
الحض@@ 0.8586283762910405
الزي@@ 0.9355036785794361
السو@@ 1
الطر@@ 1
العربي 0.4887787912194529
الفرا@@ 1
القي@@ 0.5641273609131899
درب 1
دني 1
ذلك 0.05276924465745963
طين 1
فيلي@@ 1
كما 0.07455073052301901
ليب 1
مؤتمر 1
مج 1
وسيع 1
ولوجي 1
ومنگ 1
ٕ 1
टो 0.9203630432773054
त 0.021085984190903875
दूर 0.4981375789272982
न 0.030846653072974975
ारा 0.6818733837183942
१ 0.43144721150544824
ੀ@@ 1
♦ 1
1615 0.306257500471888
1633 0.2990155775425455
1676 0.2797794656984564
1733 0.24946227900383713
Abdul 0.11981916529474519
Ain 0.14702348802675652
Alexander 0.017239405123730393
Atom@@ 0.13553030105833716
Aw@@ 0.14879254420336147
Bad 0.032147596950781857
Bec@@ 0.05253159047239782
Bell 0.04255475195378939
Bon 0.1651308776308885
CIA 0.0995960961878756
Cathedral 0.06464582378401154
Cha@@ 0.07751266009828724
Change 0.1409430759958969
Circle 0.10824604629007617
Coun@@ 0.04180169576085205
Cyc@@ 0.10192363157048533
Da@@ 0.03969028673852114
Equ@@ 0.08668917789758614
Essex 0.09881620377870225
Exchange 0.09481341040921193
Eyal@@ 0.9206496964402338
Federation 0.03831243471937838
Force 0.016324900311186902
Fru@@ 0.07409105020018436
Gabriel 0.04739721860945081
Gom@@ 0.07763089262784076
Guatemala 0.07165310162881755
ICA@@ 0.23185218250399922
Jol@@ 0.12060999666050498
LE 0.16379567038563514
Li 0.04842705004906007
Little 0.025009445489240906
Love 0.01783416347718314
Marion 0.11489012927909413
Marseille 0.07483565219940118
Moselle 0.19132054863578735
Nos@@ 0.1440385886581074
O. 0.07583274824510793
Organization 0.06983778245941465
Palm@@ 0.09805311391590994
Prov@@ 0.13166198061891954
Rez@@ 0.09362847702687613
Riz@@ 0.1879685556281278
Roch@@ 0.08578469387895753
Sur 0.021228746417439902
Texas 0.013402044007688208
Tus@@ 0.10995850048189847
UM@@ 0.18300275829808102
Vic@@ 0.030825036637745138
Vienne 0.08826719727509351
Vit@@ 0.03934013351064102
Vos@@ 0.1660525756212243
Warren 0.06449484541377323
Was@@ 0.061861252443407004
Water@@ 0.0458535674784346
Wel@@ 0.033369417110485265
Yun@@ 0.13898049694174508
aban 0.012605082825516116
alar 0.07231869107133809
alar@@ 0.039738693275313125
ale@@ 0.08634640801302193
alized 0.024257876507154292
anus 0.041360909527091975
arde 0.11615568250728492
asc@@ 0.02601909667226657
assi@@ 0.03475355575708801
astronom@@ 0.043425280085526784
ate@@ 0.053934365208344055
ators 0.015014643054430897
ce@@ 0.013140267574279316
chol@@ 0.13081177261696209
chu@@ 0.08908439155608038
complex 0.02469186745744327
construction 0.009638311775726875
dered 0.05776459604244223
ech 0.038890700925743614
eds 0.020872653080242963
eman 0.02404814849905195
enni@@ 0.03990555870586265
esian 0.06454825029598789
etes 0.031104349900946147
eti 0.050030269067257487
gay 0.07091870581549747
gn@@ 0.04102612051223293
hist@@ 0.07097755747828825
ication 0.07132364109574395
ici@@ 0.011504466400434763
ily 0.044039860544282994
imal 0.041673834146446716
including 0.0032957808378023244
iny 0.09932141701996232
iron 0.0467602075922848
islam@@ 0.08868795914985848
kal@@ 0.020498652955315118
king@@ 0.04945611368135565
kon@@ 0.009728465728855775
lain 0.06045240278680191
ledge 0.10820800582468633
lers 0.013685493685277909
made 0.0027945330353554565
media 0.011991902782083149
molec@@ 0.0520749369550109
municipal 0.025583908317949725
museum 0.026027894300906265
nd@@ 0.032415126958041496
normal 0.033191899163973845
oe 0.04857334495029834
oi 0.043295526617467495
oire 0.03423899599404383
oka 0.08502900682759715
omb@@ 0.045256114785880756
onom@@ 0.04924610811266472
osh 0.10471748434717595
pat@@ 0.011632792427984782
plant@@ 0.02748030227888371
product 0.03458725305667947
pt 0.07499970551076268
quad@@ 0.07608195769178824
records 0.0257108029821798
resp@@ 0.015963009633674866
sab@@ 0.02796194000748617
sac@@ 0.022013475769223457
series 0.004078316851671216
sign@@ 0.025466366521469552
sm@@ 0.028899918435053705
stadt 0.01559174771433746
sy 0.06594095534306375
tas@@ 0.02420933672265532
then 0.002791485248456523
ther 0.018819718171421005
tian 0.04874482189944849
times 0.009523834725443889
uses 0.009464030655524872
ust@@ 0.02417910974623751
vic 0.05566606844097989
video 0.010118924750837966
wich 0.043907353174494484
wo@@ 0.015233216543410413
ying 0.008384938462539057
yst@@ 0.03052903731211908
zone 0.018262341217134548
Ö@@ 0.025263065175697492
és 0.0021960573762208743
ía 0.0035866279359350424
ș@@ 0.05530910006546248
к 0.0017673781225348874
м@@ 0.004747812231211614
э@@ 0.0055572332702448265
ֲ@@ 1
اجتم@@ 1
اعلات 1
البيضاء 0.9829570342360293
الشعر 1
الصد@@ 1
الفنون 1
القرن 0.14773596150774215
المك@@ 0.5592286432517911
النح@@ 1
بـ@@ 1
جدي@@ 1
جرى 1
جيا 1
خدم 0.9157213114481373
ريال 1
ريه 1
شارك 0.27307994410397424
شيئ@@ 1
ضابط 1
طت 1
فاع 1
فيا 0.5971902462653922
لاع 1
ملي@@ 1
هان@@ 1
وجي@@ 1
وسع 1
وكان 0.13153543123347267
ّة 0.28990800393036076
ٽ 1
ज 0.03849179825667377
म@@ 0.05577648397765331
য 1
வ@@ 1
 1
ﻛ@@ 1
1536 0.2755649733727218
1559 0.29639110751812925
1655 0.2776431405927272
1662 0.2684566981503646
1667 0.2520744980663857
20th 0.025013915234811546
AW@@ 0.14979343075005852
Ado@@ 0.24614420086144753
Agency 0.05834697165909209
Agr@@ 0.05577099641934975
Amp@@ 0.07872022332302482
Anne 0.02644873388987307
Antarc@@ 0.07514897008082391
Arthur 0.021926620152302487
Aux@@ 0.1283412177444125
Ax@@ 0.06342575664156366
Baj@@ 0.143670167580861
Blood 0.08974733934874152
Bolívar 0.17394510013038333
Bour@@ 0.04051584303146293
Bretagne 0.05829904166525105
Bulgaria 0.0774492067794165
But@@ 0.04068823777424554
CN@@ 0.05166631761087011
CS 0.05650066539557144
Cab@@ 0.02912717939611884
Castel@@ 0.1367080595714654
Celle 0.12691437465398275
Century 0.06845014084963455
Chu@@ 0.11648855717790854
Code 0.05109402509229402
Dig@@ 0.059399567102113617
EM 0.0937959088360902
FF 0.06055986995399571
Fac@@ 0.02492595547042473
Fil@@ 0.019034757014064225
Flu@@ 0.04314830292795257
Fri@@ 0.023572090626411815
Gate 0.10164406527497413
Gilles 0.14678121329683538
Gold@@ 0.02394191353488693
Hall 0.010912049096198508
Hello 0.2160849915926376
Holy 0.046254235342091096
Home 0.027335902131541877
Ing@@ 0.027483853357355887
Isle 0.09242863440789739
Jacques 0.02372284325188197
June 0.00442959275170894
L.@@ 0.06313074047558893
League 0.004311810821853402
Liter@@ 0.04256524724732309
Ltd 0.05272158161620454
ME 0.08137591344756308
Mal 0.028212717545142926
Management 0.034955415400591654
Mar 0.07000554854016736
Mass@@ 0.03816632998448396
Mic@@ 0.04416941137825377
Mill@@ 0.03933566748903366
Mob@@ 0.08218314434342938
Mom@@ 0.0664936940049364
Mother 0.09254625949842576
Mun@@ 0.03234464226545334
Méd@@ 0.14639089593954224
NS 0.06503783670989623
Om@@ 0.042647838970853405
Path@@ 0.09533830008602899
Pis@@ 0.1093238223272638
Pou@@ 0.11512032658722837
Prim@@ 0.024370723039495997
Produc@@ 0.0451405210343569
Quar@@ 0.060002820320009184
Rot@@ 0.024337695877037657
Roy@@ 0.04658749967031771
SN@@ 0.055835491727871896
Saudi 0.07841422884471913
Sci@@ 0.10250903835190124
Sciences 0.033212542334473974
Star@@ 0.01960688505708604
Story 0.05913658411789516
Sé@@ 0.046555833794232775
UN 0.06002911401362827
Van@@ 0.04418929243453013
Wat@@ 0.02654563709245291
Wy@@ 0.07097387638791856
XX@@ 0.07190962425459685
Yen@@ 0.22387035842259428
Zealand 0.01706459649643614
` 0.9791351181541391
aco 0.03373929978472347
aer@@ 0.0312674604321636
afa 0.15082130455795015
agar 0.09802267936057946
alis@@ 0.020034477158855785
alu@@ 0.18376729490282961
anda 0.02408424662404346
apa 0.04854922006771039
ark 0.10684315589522059
articles 0.030288498351057444
asis 0.04863821441040477
ayet 0.3522591119970877
bility 0.06353247412329373
central 0.010313524805285038
chester 0.029895434696275307
com 0.057510147628169896
cont@@ 0.012188992452986788
dale 0.03923139903438165
dat 0.3352958145955886
dens@@ 0.044060054983209924
depend@@ 0.023636599136532647
dian 0.09843053390173286
different 0.007860886741419517
districts 0.03730747273934575
dit 0.012061059794293269
dos 0.004446592646440939
enburg 0.035428669462329566
erry 0.027759211263084657
far@@ 0.019540931024489876
gel@@ 0.007011637746476968
gor@@ 0.06563205427092257
hiv@@ 0.17725315571784128
idal 0.1390411157987797
ika 0.022025496920102534
imperi@@ 0.16980331135241572
isa 0.02486576894358714
istics 0.04051667907620716
iti 0.055358503005613416
kg 0.03065593641784094
ku 0.05634501469075214
leges 0.07188066665220995
lia 0.03093282957766348
lion 0.03294615987837923
live 0.011246347372911863
located 0.004928440380166433
machine 0.03549035915755059
mission 0.011116519378384556
nar@@ 0.02601019513050542
nav@@ 0.029574378666074062
numbers 0.028546877402857853
oon 0.03561094038410333
osph@@ 0.07247052657835534
park 0.014096433988597654
person 0.015586282194220844
popular 0.009937808309992848
potential 0.030607511851346313
prime 0.04428863378607315
publi@@ 0.042612975800214864
reh@@ 0.24719782075686353
rière 0.12614521309780924
roc@@ 0.027204980883306553
sam@@ 0.022547625115084253
sav@@ 0.023990277885178962
saw 0.014946655343352705
sequ@@ 0.02187093432499026
sho@@ 0.01595163679469902
sites 0.02212161347324516
software 0.03164881189993177
stat@@ 0.02046555141619636
stead 0.04838531695004395
stop 0.028162001447741013
thr@@ 0.019262388312749103
through 0.0033513824162906673
tigen 0.014935892102152473
ull 0.11050100119712798
ump 0.06791427664831902
unction 0.07054801272893672
uta 0.038479980080973225
uth 0.031456644455562684
verty 0.056318079324766485
vis 0.042896298915774955
what 0.007646305693525182
while 0.0035417571049263124
yar 0.12611820474490004
yer 0.013786568594481375
yo@@ 0.028722404445104183
yth@@ 0.08634404172931064
zo@@ 0.05071570398559844
ément 0.037603028878673346
ô 0.05793208893493545
ź 0.14882081985839923
ʃ@@ 1
أثر 1
إ 1
اعر 1
الأر@@ 0.3361952440394556
الحدود 0.7656930808287146
الحكم 0.5499978404122596
الشه@@ 0.6080806101801693
الطب@@ 1
الكتب 1
المسلمين 0.8010984456433158
الولا@@ 1
تبلغ 0.8824684450659627
تمام@@ 1
جوم 1
خذ 1
خري@@ 1
سمي 1
شعبية 1
لاست@@ 0.8374291826578477
ميس 1
هذه 0.048461746874226046
واق 1
ونکہ 1
يط 0.7583003180761201
ڤ@@ 1
ڻ 1
क 0.01611758280679155
का 0.009736920887418406
ਆ@@ 1
ਭ@@ 1
ತ@@ 1
ි@@ 1
ე@@ 0.6672493057108406
ﭻ 1
ﮄ@@ 1
1638 0.258932899937457
1643 0.24358739861118045
1705 0.24778459025832356
1726 0.250477901022001
1728 0.2383319736411444
ATA 0.18708128172157307
Adam 0.029932168508439643
Alt@@ 0.027039235584749376
BM@@ 0.06266483803249721
BP 0.12998423196573683
Bangladesh 0.05739351545547401
Beach 0.02900256833002465
Bell@@ 0.046212935991960864
Bern@@ 0.025734957489916416
Bill 0.020800343010080234
Brazil 0.03215596611045465
CL 0.13380438632482697
Clar@@ 0.029465054327437304
Clay 0.12704145873476305
Coul@@ 0.12135733234356122
Court 0.011644465084882335
Cross 0.028588058440529987
DR 0.0688806556675472
EP 0.023303263452522444
Ele@@ 0.045738521476441266
Estonia 0.10594328419614264
Foundation 0.022223166972878277
GE 0.11417633761405756
GO@@ 0.10215340870865662
Google 0.04733135167424452
HIV 0.10875893000139032
Hack@@ 0.12719952769301146
Health 0.024639149889098207
Hip@@ 0.07622280860197485
IL@@ 0.11808484379498232
Italy 0.018728068221503108
Jun@@ 0.06692448964651826
Justice 0.02640360982067347
Kaf@@ 0.11914326112224013
Kay@@ 0.08947119728441662
Kut@@ 0.1089253762522642
Latin 0.02313175379572426
Lib@@ 0.03011218535255871
Lis@@ 0.03466454540049492
Ma 0.061964579651335984
Mahmud 0.3187306797881004
Manz@@ 0.16623486051743963
Mars 0.060571464667361984
Meth@@ 0.04373519536835542
Michael 0.008833961133940641
Morgan 0.04358399741213309
Mou@@ 0.09396741016665071
Moz@@ 0.2150923041253922
Not@@ 0.018597489968650578
Oper@@ 0.022304800433748318
Order 0.023740617810090688
Organisation 0.03701232875056366
P.@@ 0.07849135090586833
PR 0.07188626413876623
Page 0.09369651594970635
Philippines 0.03485601236194156
Pil@@ 0.022721948460514018
Post@@ 0.03186819047105697
Psych@@ 0.04360157201347642
Rav@@ 0.05434372568903677
Rid@@ 0.04645692361578338
SL@@ 0.0993046382462669
Sach@@ 0.047303478081368595
Say@@ 0.06709218817437747
Sheikh 0.1784653057240487
Siy@@ 0.27414568123558647
Source 0.08509614713797774
Taiwan 0.055417627680999386
Temple 0.036956619532429
Territ@@ 0.04574447526881674
Third 0.04592831407356301
UNESCO 0.07381814260393696
Vari@@ 0.029327046144956986
Vau@@ 0.10563279269086172
Vin@@ 0.05854325019930322
Water 0.04438423404988734
XIV 0.058950806480833284
acter@@ 0.07326125320384472
administration 0.017885871997193978
agan 0.042175625930240546
ahl@@ 0.04147563877744494
alla 0.050315688929134746
ango 0.0462300343033248
aus 0.001375306951211023
author 0.020073715199147028
born 0.0028122343476015216
bos@@ 0.039805514297843465
bus 0.018289100567734026
bus@@ 0.02093845116536285
chem@@ 0.025213687359102246
comp@@ 0.00768957914118422
dre@@ 0.013607730673792848
edi 0.06216256049774331
elected 0.008846999021546433
emi 0.0610900469593859
ento 0.013376841509331598
estimated 0.029713409582638656
eter@@ 0.04201144609260358
fic 0.06257626730186612
film 0.002321882175044393
game 0.0043585923167406395
great 0.013243191243341878
gro@@ 0.012175176686411514
had@@ 0.11517735102097337
hand 0.016167531455728718
ien 0.007287999328768936
igh 0.035467910945195726
imb@@ 0.04034504773145443
imm@@ 0.0436174689484282
internal 0.04780499517201345
ité 0.0053324961539697666
jo 0.011464893913793768
ket 0.02281099557852538
lag 0.022161415759061782
lip 0.044719587714775584
mann 0.007238023050211473
mat 0.17400822957143805
mental 0.022881359201990276
mobile 0.042678223581120465
onal@@ 0.024374367840325113
ord 0.02472256850211657
ordin@@ 0.02071886831898165
otr@@ 0.05148122508118439
over@@ 0.007419158429249865
ovo 0.07452553344920113
pic 0.049666353874585976
plo@@ 0.0783579012799013
pres@@ 0.007455844126653218
progr@@ 0.02799048149214396
protein 0.039574937162276204
pun@@ 0.021239481442004604
rah 0.16810356141299562
record 0.0070765926529028
record@@ 0.04554106768834794
regions 0.03578939010694612
research 0.01034593856195329
result 0.010996065088085967
ret@@ 0.01125617171976097
shi 0.11392648867653844
sim@@ 0.019137683360818364
sing@@ 0.025771523550444955
sions 0.012027431318914289
start 0.015593522459979529
stein 0.012182457370476593
struc@@ 0.018782307506745585
sup@@ 0.015595641779764009
tification 0.06524627130373392
ulan 0.19184304896591076
umb@@ 0.02303509271896023
unds 0.017483334905060176
ures 0.013993917147775444
vector 0.11054000554676756
veloc@@ 0.11618646778819437
vin@@ 0.01837348679234922
wat@@ 0.027216581097728267
watch 0.06508992315870854
ways 0.01509517946264112
win 0.0071137392044345405
xx 0.21086547617258122
ynam@@ 0.10808573311051071
ì 0.09810220574268304
Ō@@ 0.09020612080699927
ʁ@@ 1
π 0.10430422620702096
اته 0.2060060057940162
اقد@@ 1
الأن@@ 0.7487984980878782
القد@@ 1
المتع@@ 0.8900946528639985
المض@@ 0.5674937345722525
المعر@@ 1
برنامج 0.378634876911911
بسبب 0.14456543225540902
بض@@ 1
بعة 0.547810592570331
تشار 1
ثي@@ 0.7012631481843201
جوع 1
جيم 1
داث 1
رئيس 0.20213279369241394
رياض@@ 0.7570658303678307
ريان 1
رية 0.10715672972522255
سيمات 1
كست@@ 1
لتون 1
لدي@@ 1
لعب@@ 1
ليف 1
ندس 1
ودي 1
ګ@@ 1
य 0.01364203376861981
ে 1
ਅ@@ 1
ਤ 1
ସ@@ 1
ା 1
ୁ@@ 1
ನ 1
ი 0.7324121300171783
რ@@ 0.7178255996606508
大@@ 0.004901061342624455
ﺾ 1
1577 0.3084487629438659
2023 0.13582009722952432
Aff@@ 0.03684829845841015
Ais@@ 0.17051900947231102
Alaska 0.05463260802575502
Anth@@ 0.05469678123722925
Barth@@ 0.09115323290497311
Bav@@ 0.07697916987908193
Beth@@ 0.07047786911818028
Bit@@ 0.05573284528447754
Blo@@ 0.030113927104712838
Brunswick 0.07378748258261963
Bug@@ 0.07554246862567826
Calais 0.12617763839463844
Castle 0.0286105476014514
Channel 0.032551084879146895
Child 0.07865368702126016
Christian 0.010341510607029657
Co 0.02636011840425138
Country 0.031711973454625675
D.@@ 0.06425460731303642
Death 0.0286125349227563
[...]
