， 1
的 1
。 1
、 1
年 1
在 1
（ 1
） 1
是 1
. 0.14097685526127623
和 1
月 1
了 1
人 1
於 1
為 1
日 1
有 1
中 1
为 1
》 1
《 1
· 1
大@@ 1
- 1
一@@ 1
他 1
被 1
上 1
： 1
「 1
」 1
與 1
也 1
“ 1
” 1
由 1
後 1
而 1
以 1
中@@ 1
及 1
到 1
等 1
1 1
于 1
不@@ 1
" 1
位 1
斯 1
地 1
； 1
2 1
州 1
至 1
与 1
) 0.18059919715140826
名 1
但 1
( 0.17903349374190433
會 1
者 1
3 1
西@@ 1
長 1
, 0.029954278217551582
三@@ 1
下 1
子 1
南@@ 1
來 1
新@@ 1
其 1
部 1
大 1
后 1
一个 1
都 1
斯@@ 1
尔 1
市 1
4 1
用 1
時 1
出 1
站 1
高@@ 1
人@@ 1
對 1
省 1
多@@ 1
之@@ 1
性 1
德 1
5 1
或 1
之 1
公@@ 1
德@@ 1
道 1
克 1
克@@ 1
家 1
特@@ 1
北@@ 1
不 1
地@@ 1
山 1
任 1
6 1
法 1
10 1
阿@@ 1
安@@ 1
特 1
區 1
区 1
里 1
拉@@ 1
海@@ 1
日@@ 1
所 1
可以 1
并 1
7 1
力 1
8 1
前 1
並@@ 1
上@@ 1
金@@ 1
成 1
主@@ 1
小@@ 1
分@@ 1
生 1
出@@ 1
时 1
中国 1
12 1
加@@ 1
日本 1
行 1
有@@ 1
十@@ 1
使用 1
第 1
天@@ 1
文@@ 1
向 1
化 1
9 1
会 1
米 1
科@@ 1
利 1
拉 1
巴@@ 1
布@@ 1
新 1
爾@@ 1
作 1
國@@ 1
尔@@ 1
全@@ 1
山@@ 1
政府 1
县 1
入 1
以@@ 1
香港 1
将 1
面 1
对 1
就 1
; 0.44234657883523587
公司 1
曾 1
自@@ 1
多 1
線 1
包括 1
以及 1
年@@ 1
水@@ 1
法@@ 1
她 1
四@@ 1
其中 1
度 1
式 1
本@@ 1
11 1
一個 1
個 1
长 1
路 1
其@@ 1
人口 1
/ 0.8477694072504833
二@@ 1
期 1
軍 1
科 1
型 1
西 1
: 0.2869387888733185
次 1
王@@ 1
生@@ 1
主要 1
卡@@ 1
下@@ 1
國 1
东@@ 1
尼@@ 1
分 1
格@@ 1
士 1
原@@ 1
量 1
東@@ 1
局 1
馬 1
行@@ 1
縣 1
此 1
利@@ 1
定 1
相@@ 1
同@@ 1
軍@@ 1
重@@ 1
城 1
军 1
成@@ 1
马@@ 1
內 1
平@@ 1
該 1
爾 1
李@@ 1
事 1
外@@ 1
一 1
可@@ 1
又 1
夫 1
將 1
可 1
名@@ 1
稱 1
教@@ 1
个 1
起 1
場 1
車 1
亞@@ 1
河 1
首@@ 1
国 1
兩@@ 1
使 1
号 1
国@@ 1
這@@ 1
文 1
古@@ 1
前@@ 1
其他 1
五@@ 1
元 1
该 1
亦 1
通@@ 1
世界 1
美@@ 1
合@@ 1
林@@ 1
南 1
約 1
民@@ 1
平方公里 1
它 1
發@@ 1
海 1
明 1
已 1
本 1
得 1
来 1
因 1
美國 1
臺 1
學@@ 1
手 1
體 1
因此 1
要 1
明@@ 1
正@@ 1
外 1
此@@ 1
政@@ 1
保@@ 1
位于 1
器 1
哈@@ 1
基@@ 1
最 1
從 1
能 1
合 1
台 1
里@@ 1
方 1
神@@ 1
武@@ 1
院 1
制 1
自 1
体 1
色 1
安 1
两@@ 1
大学 1
普@@ 1
太@@ 1
伊@@ 1
理 1
清@@ 1
所@@ 1
球 1
格 1
村 1
地区 1
比@@ 1
发@@ 1
物 1
則 1
天 1
當@@ 1
交@@ 1
事@@ 1
號 1
隊 1
更 1
波@@ 1
並 1
王 1
派 1
水 1
總@@ 1
製 1
线 1
開@@ 1
後@@ 1
達 1
从 1
自己 1
学 1
代 1
属 1
改@@ 1
林 1
各@@ 1
% 0.6310063550848178
將@@ 1
集 1
级 1
會@@ 1
工@@ 1
比 1
時@@ 1
小 1
吉@@ 1
美国 1
石@@ 1
周@@ 1
中心 1
回@@ 1
屬 1
即 1
代表 1
高 1
成立 1
研究 1
可能 1
政治 1
尼 1
20 1
工作 1
率 1
電@@ 1
之一 1
罗@@ 1
理@@ 1
接@@ 1
星 1
賽 1
内 1
最@@ 1
白@@ 1
開始 1
开@@ 1
& 1
市镇 1
說 1
東 1
场 1
戰@@ 1
镇 1
學 1
音 1
座 1
长@@ 1
立@@ 1
流@@ 1
族 1
段 1
定@@ 1
表示 1
女@@ 1
手@@ 1
由@@ 1
常@@ 1
反@@ 1
府 1
任@@ 1
队 1
機 1
不同 1
間 1
威@@ 1
百@@ 1
去 1
片 1
無@@ 1
总@@ 1
洛@@ 1
打@@ 1
内@@ 1
處 1
官 1
數 1
家@@ 1
推@@ 1
部分 1
收@@ 1
电@@ 1
室 1
八@@ 1
光@@ 1
系 1
著 1
方@@ 1
市@@ 1
福@@ 1
商@@ 1
女 1
金 1
作@@ 1
沙@@ 1
提@@ 1
原 1
— 0.3265702646097966
語 1
代@@ 1
路@@ 1
經@@ 1
口 1
維@@ 1
第一@@ 1
指 1
法国 1
_ 1
機@@ 1
维@@ 1
塔@@ 1
界 1
為@@ 1
点 1
點 1
副 1
作品 1
塞@@ 1
子@@ 1
形 1
年代 1
亞 1
起@@ 1
称 1
学@@ 1
则 1
卡 1
开始 1
意@@ 1
因@@ 1
公里 1
氏 1
信@@ 1
这 1
六@@ 1
15 1
雷@@ 1
立 1
民 1
机 1
把 1
羅 1
光 1
字 1
中國 1
进行 1
台灣 1
瓦@@ 1
亚@@ 1
30 1
青@@ 1
江@@ 1
正式 1
指@@ 1
国家 1
一些 1
而@@ 1
对@@ 1
如 1
米@@ 1
工 1
英@@ 1
內@@ 1
意 1
该@@ 1
兵 1
曲 1
直@@ 1
受 1
种 1
勒 1
提供 1
城@@ 1
成为 1
同 1
案 1
進行 1
行政 1
建@@ 1
约 1
羅@@ 1
所有 1
和@@ 1
好 1
他們 1
才 1
華@@ 1
元@@ 1
城市 1
入@@ 1
地區 1
師 1
道@@ 1
戰 1
基 1
級 1
无@@ 1
數@@ 1
像 1
管 1
达 1
5@@ 1
選@@ 1
泰@@ 1
成為 1
北 1
伯@@ 1
语 1
轉@@ 1
動 1
員 1
黑@@ 1
花@@ 1
师 1
文化 1
心 1
國家 1
我 1
第一 1
军@@ 1
大學 1
九@@ 1
动 1
受@@ 1
蘭@@ 1
用@@ 1
2010 1
世@@ 1
台@@ 1
影@@ 1
主 1
目 1
發 1
列 1
演@@ 1
字@@ 1
4@@ 1
说 1
防@@ 1
放@@ 1
还 1
16 1
宣@@ 1
车 1
获得 1
万@@ 1
6@@ 1
均 1
18 1
兰 1
战@@ 1
埃@@ 1
今 1
車@@ 1
以下 1
較 1
生活 1
老@@ 1
得@@ 1
取 1
21 1
黨 1
平 1
非 1
因為 1
formula 1
火@@ 1
修@@ 1
正 1
建 1
人物 1
門 1
七@@ 1
后@@ 1
品 1
造 1
引@@ 1
加 1
面積 1
河@@ 1
没有 1
馬@@ 1
動@@ 1
部@@ 1
他们 1
列@@ 1
7@@ 1
那@@ 1
事件 1
校 1
死 1
考@@ 1
認為 1
塔 1
實@@ 1
客@@ 1
登@@ 1
運@@ 1
史@@ 1
區@@ 1
19 1
萬@@ 1
华@@ 1
在@@ 1
蘭 1
门 1
14 1
進 1
對@@ 1
電影 1
集@@ 1
頭 1
通过 1
流 1
目前 1
石 1
類 1
島 1
历史 1
便 1
程 1
例 1
業 1
傳@@ 1
着 1
永@@ 1
希@@ 1
置 1
通 1
宗 1
性@@ 1
當時 1
真@@ 1
奥@@ 1
堂 1
动@@ 1
經 1
江 1
13 1
奧@@ 1
2019 1
除 1
布 1
士@@ 1
机@@ 1
重 1
先@@ 1
数@@ 1
但是 1
帝 1
角 1
员 1
往 1
權 1
心@@ 1
2011 1
版 1
愛@@ 1
空@@ 1
物@@ 1
这@@ 1
森 1
共 1
校@@ 1
管理 1
足球 1
数 1
2009 1
姆 1
处 1
堡 1
弗@@ 1
17 1
陳 1
现@@ 1
8@@ 1
党 1
2016 1
連@@ 1
面@@ 1
托@@ 1
義@@ 1
传@@ 1
博@@ 1
再 1
田@@ 1
形@@ 1
认为 1
9@@ 1
加入 1
關@@ 1
過 1
同年 1
木@@ 1
M@@ 0.3582770411832553
共@@ 1
更@@ 1
設 1
官@@ 1
街 1
歷史 1
令 1
關 1
書 1
2018 1
該@@ 1
讓 1
重要 1
未 1
方面 1
政 1
25 1
半@@ 1
学院 1
情 1
第二@@ 1
2012 1
当@@ 1
郡 1
表@@ 1
港 1
田 1
下辖 1
社 1
排@@ 1
萨@@ 1
2013 1
達@@ 1
時間 1
书 1
迪@@ 1
源 1
知 1
身@@ 1
需要 1
圣@@ 1
3@@ 1
支持 1
2017 1
增@@ 1
团 1
委员会 1
2014 0.9999272978668452
治 1
教育 1
見 1
情@@ 1
乡 1
種 1
花 1
建立 1
生平 1
2015 1
群 1
时@@ 1
只 1
世 1
委 1
深@@ 1
張@@ 1
艾@@ 1
参@@ 1
地方 1
{ 1
苏@@ 1
信 1
美 1
獲得 1
汉@@ 1
獎 1
战 1
兰@@ 1
广@@ 1
每@@ 1
莱@@ 1
先 1
密@@ 1
現@@ 1
回 1
铁路 1
要求 1
zh 1
史 1
完成 1
T@@ 0.3255504706471696
作为 1
化@@ 1
千@@ 1
转@@ 1
2008 0.9728745737820064
体@@ 1
同時 1
黃 1
仍 1
如@@ 1
納@@ 1
星@@ 1
} 1
由于 1
車站 1
專@@ 1
黄@@ 1
2020 1
曼 1
恩 1
单位 1
少@@ 1
教 1
24 1
劇 1
夫@@ 1
依@@ 1
選 1
應 1
例如 1
制@@ 1
治@@ 1
承@@ 1
抗@@ 1
勒@@ 1
視 1
籍 1
纳 1
失@@ 1
州@@ 1
停@@ 1
] 1
奇 1
及@@ 1
整@@ 1
工程 1
播 1
[ 1
寺 1
成功 1
梅@@ 1
領@@ 1
帶 1
方式 1
開 1
參@@ 1
得到 1
展@@ 1
受到 1
甲@@ 1
署 1
進@@ 1
灣 1
精@@ 1
第二 1
很 1
权 1
鲁@@ 1
川 1
中央 1
知@@ 1
进@@ 1
张@@ 1
上海 1
支@@ 1
發展 1
分布 1
歲 1
湖 1
一般 1
纳@@ 1
廣@@ 1
風@@ 1
业 1
超@@ 1
第@@ 1
身 1
参加 1
公 1
航@@ 1
B@@ 0.30220329822105596
人民 1
次@@ 1
復 1
初@@ 1
索@@ 1
22 1
打 1
被@@ 1
聖@@ 1
展 1
每 1
通常 1
存在 1
系统 1
发 1
间 1
月@@ 1
居 1
亚 1
A 0.36533307691799405
單@@ 1
前往 1
龍 1
富@@ 1
體@@ 1
射 1
且 1
达@@ 1
助 1
球@@ 1
館 1
神 1
至@@ 1
件 1
东 1
车@@ 1
给 1
一種 1
首 1
蘇@@ 1
號@@ 1
之后 1
層 1
为@@ 1
投@@ 1
莫@@ 1
巴 1
值 1
發現 1
会@@ 1
商 1
系統 1
2001 1
北部 1
三 1
朝 1
章 1
人口密度 1
架 1
圖 1
湖@@ 1
報 1
做 1
2007 0.9208442026603579
口@@ 1
氣@@ 1
另 1
季 1
質 1
想 1
查@@ 1
常 1
－ 1
落 1
赛 1
23 1
攻@@ 1
就是 1
觀@@ 1
土@@ 1
非@@ 1
然而 1
同时 1
提出 1
届 1
男@@ 1
D@@ 0.28702585591404084
嘉@@ 1
射@@ 1
属于 1
空 1
瓦 1
越 1
一名 1
象 1
龍@@ 1
过 1
力@@ 1
冠 1
灣@@ 1
形成 1
沒有 1
配@@ 1
经@@ 1
樂@@ 1
耶@@ 1
另外 1
書@@ 1
岛 1
團 1
歌 1
类 1
兵@@ 1
帕@@ 1
組 1
近 1
國際 1
項 1
牌 1
担任 1
節 1
編@@ 1
張 1
所以 1
哥@@ 1
聯@@ 1
最大 1
2006 0.9066881878348079
端 1
升@@ 1
宗@@ 1
世纪 1
具有 1
G@@ 0.2923359934979213
票 1
波 1
步 1
店 1
组织 1
邊 1
班 1
摩@@ 1
封@@ 1
28 1
党@@ 1
感@@ 1
皮@@ 1
底 1
主席 1
佈 1
警@@ 1
宣布 1
北京 1
南部 1
延@@ 1
只有 1
胡@@ 1
最高 1
近@@ 1
佛@@ 1
守 1
境 1
报 1
預@@ 1
一种 1
歌曲 1
贝@@ 1
薩@@ 1
省@@ 1
漢@@ 1
P@@ 0.2572290575624893
擊 1
罗 1
英國 1
比賽 1
唐@@ 1
擔任 1
過@@ 1
頓 1
屆 1
司@@ 1
学校 1
编@@ 1
故事 1
萬 1
根據 1
系列 1
初 1
甲 1
向@@ 1
马 1
当 1
单@@ 1
施@@ 1
来@@ 1
合作 1
关@@ 1
遊戲 1
京@@ 1
員@@ 1
论 1
音@@ 1
一位 1
接受 1
料 1
園 1
2021 1
学名 1
述 1
此外 1
反 1
解@@ 1
出現 1
係 1
船 1
首次 1
等@@ 1
组 1
gt 1
食 1
附近 1
龙@@ 1
卻 1
= 1
言 1
这些 1
杜@@ 1
朱@@ 1
話 1
变@@ 1
夏@@ 1
景@@ 1
港@@ 1
小行星 1
专@@ 1
給 1
头 1
消@@ 1
2000 0.9468548586672386
實 1
造成 1
26 1
红@@ 1
然 1
角色 1
游戏 1
雷 1
印度 1
发展 1
察@@ 1
因为 1
27 1
即@@ 1
经 1
友 1
未@@ 1
影響 1
一直 1
发现 1
2005 0.9722090094993325
0 1
游@@ 1
岸 1
這些 1
交 1
恩@@ 1
社@@ 1
現 1
專輯 1
款 1
衛@@ 1
寫 1
追@@ 1
自由 1
德国 1
一座 1
轄 1
管@@ 1
K@@ 0.29151460308402627
女性 1
院@@ 1
印@@ 1
S@@ 0.1978736620165291
時期 1
角@@ 1
C@@ 0.2756850777724254
曾@@ 1
义 1
劇@@ 1
取得 1
000 1
层 1
增加 1
丹@@ 1
修 1
进 1
面积 1
曼@@ 1
劉@@ 1
时间 1
設計 1
強@@ 1
实@@ 1
魚 1
这个 1
托 1
选@@ 1
論 1
略 1
观@@ 1
中华人民共和国 1
lt 1
陈@@ 1
低 1
刘@@ 1
二十@@ 1
国际 1
這個 1
活動 1
带 1
沒 1
社會 1
果 1
的@@ 1
傳 1
命名 1
之間 1
任何 1
如果 1
微@@ 1
統@@ 1
当时 1
曲@@ 1
旅@@ 1
干@@ 1
移@@ 1
强@@ 1
房 1
歌@@ 1
司 1
期间 1
素 1
英 1
康@@ 1
相 1
左@@ 1
學校 1
创@@ 1
取@@ 1
好@@ 1
共有 1
殺 1
雙@@ 1
31 1
少 1
之前 1
海拔高度 1
還@@ 1
魯@@ 1
居@@ 1
阳 1
沿@@ 1
索 1
沃@@ 1
當 1
应 1
低@@ 1
复@@ 1
L@@ 0.2267557480600465
乌@@ 1
街道 1
蒙@@ 1
除了 1
裝@@ 1
朝@@ 1
并@@ 1
土 1
則@@ 1
不是 1
剧 1
典 1
萊@@ 1
各 1
产@@ 1
控制 1
瑞@@ 1
气@@ 1
2@@ 1
中国@@ 1
29 1
根据 1
设计 1
隨@@ 1
務@@ 1
接 1
解 1
一次 1
病@@ 1
查 1
岁 1
根 1
俄@@ 1
雅@@ 1
第三@@ 1
蒂@@ 1
时期 1
春@@ 1
华 1
B 0.8565026085490687
發行 1
奇@@ 1
桥 1
图@@ 1
足@@ 1
交通 1
霍@@ 1
義 1
創@@ 1
赫@@ 1
车站 1
存 1
皆 1
书@@ 1
活@@ 1
建筑 1
故@@ 1
斯特 1
看@@ 1
H@@ 0.2533144744446991
版本 1
' 1
短@@ 1
电影 1
害 1
們 1
资@@ 1
节 1
C 0.8208520097195957
問題 1
野@@ 1
命 1
納 1
主义 1
貝@@ 1
英国 1
無 1
见 1
F@@ 0.24585680763256115
木 1
節目 1
N@@ 0.27530149380663604
職 1
落@@ 1
平均 1
局@@ 1
清 1
氣 1
大量 1
二 1
期@@ 1
計 1
具 1
紅@@ 1
植物 1
登 1
目@@ 1
战争 1
母 1
資@@ 1
板 1
督 1
條 1
鄉 1
教授 1
出版 1
酸 1
革命 1
變@@ 1
装@@ 1
顿 1
地理 1
求 1
娜 1
縣@@ 1
走 1
批 1
副@@ 1
發生 1
哥 1
送 1
古 1
运@@ 1
菲@@ 1
都@@ 1
庄 1
舉行 1
一起 1
非常 1
應@@ 1
卫@@ 1
獲 1
联@@ 1
病 1
100 0.975091352255712
比赛 1
宋@@ 1
志 1
組@@ 1
服 1
馆 1
A@@ 0.256390533875317
直接 1
別 1
裡 1
備 1
之间 1
飛@@ 1
诺@@ 1
2004 0.8699789777359971
強 1
組織 1
位置 1
全国 1
裝 1
美元 1
问题 1
你 1
判 1
結@@ 1
影响 1
死@@ 1
主任 1
项 1
島@@ 1
0.@@ 1
推出 1
作為 1
期間 1
业@@ 1
爱@@ 1
已经 1
有限公司 1
越@@ 1
0@@ 1
方法 1
詞 1
中央@@ 1
業@@ 1
什@@ 1
降@@ 1
峰 1
賽@@ 1
介@@ 1
門@@ 1
10@@ 1
草@@ 1
佩@@ 1
望 1
十 1
血@@ 1
客 1
重新 1
法院 1
思@@ 1
電 1
让 1
甚至 1
該國 1
鐵@@ 1
電視 1
著名 1
他@@ 1
玉@@ 1
奖 1
楼 1
職@@ 1
运 1
医@@ 1
草 1
食@@ 1
已@@ 1
那 1
质 1
進入 1
职 1
雖然 1
速 1
视@@ 1
连@@ 1
志@@ 1
| 1
迪 1
包含 1
女子 1
止 1
告@@ 1
白 1
15@@ 0.9993010320901861
经济 1
育 1
造@@ 1
聚@@ 1
戶 1
出现 1
能@@ 1
图 1
O@@ 0.31626218141196377
发生 1
航空 1
宁@@ 1
假@@ 1
最佳 1
色@@ 1
四 1
利用 1
丁 1
E@@ 0.2856687324547301
西班牙 1
條@@ 1
告 1
形式 1
50 1
播出 1
称为 1
廳 1
E 1
藏 1
人民@@ 1
獲@@ 1
两个 1
照 1
守@@ 1
阳@@ 1
探@@ 1
张 1
第三 1
巡@@ 1
过@@ 1
班@@ 1
成員 1
松@@ 1
福 1
进入 1
包@@ 1
華 1
表 1
学家 1
谷 1
網@@ 1
風 1
直到 1
伊 1
核@@ 1
倫@@ 1
三年 1
丁@@ 1
列表 1
興@@ 1
選舉 1
郎 1
份 1
祖@@ 1
智@@ 1
季@@ 1
模@@ 1
留@@ 1
S 0.9966711055529568
變 1
址 1
徒 1
學院 1
放 1
言@@ 1
場@@ 1
突@@ 1
演 1
普 1
of 0.013154438023851604
行政区划 1
第十@@ 1
一年 1
击 1
完全 1
住 1
领@@ 1
並且 1
頭@@ 1
西部 1
最終 1
感 1
共同 1
R@@ 0.21416509369263573
彈 1
據 1
活动 1
出生 1
火 1
不能 1
議 1
风@@ 1
男子 1
密 1
总面积 1
盛@@ 1
察 1
技术 1
剧@@ 1
切@@ 1
众 1
抵@@ 1
美國@@ 1
容 1
諾@@ 1
五 1
分別 1
设 1
參加 1
一部分 1
音樂 1
再次 1
勢 1
欧@@ 1
演出 1
皇@@ 1
位@@ 1
计划 1
何@@ 1
丹 1
选 1
家族 1
認@@ 1
2003 0.9103998759373003
后来 1
就@@ 1
總 1
藏@@ 1
但@@ 1
證@@ 1
末 1
足 1
亡 1
乐@@ 1
致@@ 1
家庭 1
個@@ 1
收 1
這 1
民主 1
橋 1
權@@ 1
單 1
跟 1
烈 1
14@@ 0.9365647469140195
T 1
決定 1
政策 1
使@@ 1
油 1
附@@ 1
话 1
朗@@ 1
師@@ 1
種@@ 1
不過 1
祖 1
大陆 1
居民 1
領 1
陸 1
月台 1
希望 1
40 1
处@@ 1
园 1
能力 1
产 1
共和 1
藝@@ 1
生涯 1
逃@@ 1
費 1
朗 1
双@@ 1
歐@@ 1
互@@ 1
荷@@ 1
万 1
带@@ 1
意大利 1
洪@@ 1
父 1
许多 1
尚@@ 1
船@@ 1
老 1
塞 1
陸@@ 1
农@@ 1
徐@@ 1
巴士 1
廠 1
赛@@ 1
鐵 1
聲@@ 1
早期 1
而且 1
喜@@ 1
服務 1
条 1
通過 1
评@@ 1
半 1
右@@ 1
產@@ 1
勝@@ 1
景 1
隊@@ 1
预@@ 1
學生 1
調 1
極@@ 1
村@@ 1
洋@@ 1
功能 1
著@@ 1
持 1
写 1
諾 1
當地 1
技@@ 1
世紀 1
词 1
激@@ 1
失 1
典@@ 1
冰@@ 1
語@@ 1
眾 1
是@@ 1
沙 1
伦@@ 1
人士 1
最终 1
寶@@ 1
兴@@ 1
牛@@ 1
術 1
兩個 1
威 1
厂 1
作用 1
看 1
親@@ 1
易@@ 1
委員會 1
容@@ 1
離 1
龙 1
優@@ 1
安全 1
以上 1
平方千米 1
歐洲 1
秀 1
識 1
供@@ 1
圖@@ 1
列车 1
W@@ 0.21358631384313398
2002 0.8285071469087527
门@@ 1
周 1
律 1
大部分 1
戰爭 1
想@@ 1
經濟 1
仅 1
侧 1
殿 1
辦 1
克斯 1
唱 1
混@@ 1
调@@ 1
根@@ 1
边 1
早@@ 1
the 0.006602956643058565
敗 1
组@@ 1
農@@ 1
升 1
若 1
產 1
穆@@ 1
法律 1
運動 1
油@@ 1
隆@@ 1
民族 1
醫@@ 1
議@@ 1
标@@ 1
獎@@ 1
擊@@ 1
V@@ 0.24872343003346528
D 0.9032920288768068
判@@ 1
或@@ 1
稱@@ 1
森@@ 1
方向 1
会议 1
幾@@ 1
隆 1
調@@ 1
許多 1
今@@ 1
使得 1
中華民國 1
模式 1
艦 1
已經 1
最後@@ 1
厅 1
撤@@ 1
官方 1
域 1
环@@ 1
G 1
聲 1
吳@@ 1
記 1
保 1
气 1
良 1
… 1
八 1
溫@@ 1
熱@@ 1
站@@ 1
影 1
邦 1
决定 1
聯盟 1
計劃 1
声@@ 1
甘@@ 1
毛@@ 1
区@@ 1
秘@@ 1
二年 1
约@@ 1
关系 1
母@@ 1
+ 1
特別 1
最初 1
实 1
去世 1
称@@ 1
原因 1
中共 1
研究@@ 1
指出 1
加拿大 1
营 1
运动 1
務 1
政治@@ 1
拍 1
师@@ 1
請 1
据 1
聯 1
差@@ 1
梁@@ 1
族@@ 1
篇 1
装 1
X 1
鎮 1
翻@@ 1
終@@ 1
结@@ 1
離@@ 1
危@@ 1
標@@ 1
生物 1
魔@@ 1
售 1
边@@ 1
完@@ 1
野 1
s 0.09583816816553677
13@@ 0.9734791206017036
遊@@ 1
除@@ 1
热@@ 1
利亚 1
救@@ 1
仍然 1
支 1
很多 1
男 1
樓 1
側 1
旗 1
群@@ 1
描述 1
導@@ 1
团@@ 1
委员 1
监@@ 1
球隊 1
香@@ 1
進士 1
刊 1
尾 1
画 1
繼@@ 1
学生 1
道路 1
示@@ 1
載 1
死亡 1
槍 1
种@@ 1
聯賽 1
宮 1
底@@ 1
改 1
相關 1
相同 1
赤@@ 1
試 1
总人口 1
費@@ 1
環@@ 1
待 1
情况 1
年度 1
負責管 1
几@@ 1
全 1
占 1
畫@@ 1
溪 1
暴@@ 1
奧 1
晚@@ 1
注@@ 1
目的 1
戈@@ 1
組成 1
余@@ 1
兒 1
路線 1
舰 1
洲 1
片@@ 1
樂 1
態 1
酒 1
兼 1
尼亚 1
唯一 1
要@@ 1
强 1
昌 1
報@@ 1
歌手 1
武 1
社会 1
始@@ 1
M 1
极@@ 1
存@@ 1
J@@ 0.2684145687123911
偏@@ 1
权@@ 1
護@@ 1
率@@ 1
監@@ 1
擁有 1
評@@ 1
全球 1
计 1
巨@@ 1
遺@@ 1
防 1
杨@@ 1
注 1
O 0.7680175859766437
温@@ 1
1990 0.8735181423922483
结构 1
茨 1
应@@ 1
黎@@ 1
七 1
狀 1
認 1
讀 1
久 1
序 1
魚@@ 1
圍 1
阿尔@@ 1
雲@@ 1
临@@ 1
刻 1
占@@ 1
若@@ 1
資料 1
机构 1
錄 1
銀@@ 1
全部 1
驗 1
诺 1
德國 1
臣 1
麥@@ 1
觀 1
坑 1
辛@@ 1
再@@ 1
充@@ 1
第一次 1
恐@@ 1
男性 1
營@@ 1
無法 1
川@@ 1
分别 1
宁 1
坦@@ 1
封 1
併 1
务@@ 1
省份 1
結果 1
来自 1
12@@ 1
这种 1
效@@ 1
州市 1
從@@ 1
令@@ 1
陽@@ 1
成员 1
公路 1
四年 1
榜 1
招@@ 1
协@@ 1
運 1
法國 1
大型 1
总统 1
盃 1
K 1
范@@ 1
杀 1
办 1
组成 1
领 1
九 1
委@@ 1
最后 1
吉 1
松 1
呼@@ 1
獨立 1
裔 1
破@@ 1
必@@ 1
設有 1
黨@@ 1
具@@ 1
深 1
結束 1
及其 1
00 1
职@@ 1
项目 1
备 1
檢@@ 1
飾 1
簡@@ 1
情況 1
烏@@ 1
人员 1
什 1
每年 1
传 1
制度 1
移 1
楊@@ 1
總統 1
艇 1
露 1
一部 1
币 1
故 1
座@@ 1
F 0.9511754520072566
仁@@ 1
洛 1
留 1
建築 1
象@@ 1
營 1
續 1
私@@ 1
不久 1
背@@ 1
或者 1
卢@@ 1
1999 0.7735621446362212
姆@@ 1
屋 1
变 1
! 0.6940985629214467
靠 1
演唱 1
卷 1
开 1
町 1
康 1
超過 1
積@@ 1
結 1
培@@ 1
拜@@ 1
离 1
夏季 1
快 1
1998 0.8485691910169333
帶@@ 1
P 0.982830736138831
春 1
圈 1
產生 1
飞@@ 1
冠@@ 1
簽@@ 1
瑪@@ 1
富 1
尾@@ 1
用于 1
R 0.8127510641598971
線@@ 1
县@@ 1
桑@@ 1
列車 1
库@@ 1
获 1
度@@ 1
時代 1
名字 1
采用 1
铁@@ 1
部队 1
競@@ 1
參 1
导致 1
測 1
姓 1
建设 1
明朝 1
質@@ 1
U@@ 0.37707184691730444
功@@ 1
设@@ 1
翼 1
为了 1
秀@@ 1
散 1
生于 1
检@@ 1
繼續 1
优@@ 1
单 1
戴@@ 1
拥有 1
抗 1
視@@ 1
免@@ 1
当地 1
60 1
毕业 1
200 1
遭到 1
财@@ 1
a 0.011960969725331547
报@@ 1
許 1
哲@@ 1
崇@@ 1
轉 1
教堂 1
透過 1
境内 1
善 1
建造 1
並在 1
独立 1
議員 1
背景 1
采@@ 1
〉 1
導 1
并且 1
送@@ 1
幕 1
〈 1
乘@@ 1
罪 1
紀@@ 1
L 0.6283484370911904
示 1
费@@ 1
麗@@ 1
速度 1
集团 1
世界@@ 1
財@@ 1
坐@@ 1
录 1
土地 1
玩家 1
1980 0.9949217297931903
導致 1
西北 1
房@@ 1
视 1
佔 1
歷@@ 1
皮 1
吴@@ 1
休@@ 1
公園 1
僅 1
證 1
联赛 1
集團 1
扩@@ 1
之後@@ 1
算 1
獨@@ 1
末@@ 1
欧洲 1
产生 1
伯 1
接壤 1
佛 1
疑 1
书记 1
枚 1
奏 1
状 1
俄罗斯 1
默@@ 1
吸@@ 1
宗教 1
公尺 1
六 1
青年 1
征@@ 1
I@@ 0.29260400887740023
肯@@ 1
汉 1
太 1
往@@ 1
自然 1
地球 1
益 1
500 1
退 1
回到 1
引起 1
蒂 1
较 1
友@@ 1
套 1
勝 1
限 1
股 1
举行 1
規@@ 1
音乐 1
步@@ 1
别 1
从@@ 1
机场 1
1997 0.8589848869598591
學家 1
最早 1
清朝 1
傳統 1
設@@ 1
街@@ 1
调 1
研@@ 1
承 1
葉@@ 1
雪@@ 1
们 1
地位 1
採用 1
阿 1
苏联 1
輪 1
庫 1
三十@@ 1
單位 1
奥 1
熱帶 1
穿@@ 1
基本 1
五年 1
越南 1
韓@@ 1
国家@@ 1
旧 1
作家 1
主角 1
差 1
身份 1
品@@ 1
律@@ 1
需 1
夜 1
材 1
服@@ 1
維 1
乐 1
滿 1
语言 1
順@@ 1
I 0.2667740417187626
經過 1
个@@ 1
陶@@ 1
影片 1
美洲 1
元年 1
风 1
斯坦 1
证 1
攻 1
音樂@@ 1
類@@ 1
效 1
真 1
舉 1
僅@@ 1
简@@ 1
论@@ 1
郭@@ 1
主教 1
菌 1
遭@@ 1
畢業 1
舞@@ 1
营@@ 1
遗@@ 1
乙@@ 1
制作 1
纪@@ 1
惠@@ 1
取代 1
测@@ 1
機場 1
多次 1
中部 1
雄 1
导@@ 1
來@@ 1
转 1
股@@ 1
陵 1
佐@@ 1
旋 1
派@@ 1
險 1
头@@ 1
劳@@ 1
京 1
禮 1
出身 1
標 1
– 0.08193026459534004
贵@@ 1
亲@@ 1
服务 1
不少 1
乘 1
算@@ 1
语@@ 1
兴 1
眼@@ 1
婚 1
云@@ 1
！ 1
主持 1
有人 1
處@@ 1
任命 1
地面 1
满@@ 1
天主教 1
导 1
复 1
球队 1
发行 1
傷 1
拿@@ 1
切 1
艘 1
池 1
武器 1
加上 1
難 1
短 1
只@@ 1
1.@@ 1
军队 1
费 1
還 1
症 1
改革 1
退@@ 1
勞@@ 1
遠@@ 1
终@@ 1
席 1
反应 1
住@@ 1
予 1
技術 1
网 1
試@@ 1
护@@ 1
测 1
出任 1
仁 1
参与 1
豐@@ 1
鐵路 1
遠 1
息 1
西南 1
行動 1
部长 1
分析 1
80 1
亞洲 1
立法 1
The 0.027378877637612438
炮 1
換 1
內容 1
只是 1
电 1
全国@@ 1
击@@ 1
邊@@ 1
犯 1
論@@ 1
週@@ 1
秦@@ 1
曹@@ 1
便@@ 1
皇帝 1
势 1
動畫 1
這種 1
毫米 1
衛 1
基地 1
1996 0.7881332203606685
奖@@ 1
帝国 1
晚 1
原本 1
各地 1
採@@ 1
地下 1
i 0.19768697814723446
还有 1
关于 1
屬@@ 1
沈@@ 1
負責 1
泉 1
鄭@@ 1
助@@ 1
至今 1
说@@ 1
表演 1
节目 1
2.@@ 1
考 1
之外 1
卫 1
韓國 1
线@@ 1
议 1
點@@ 1
骨 1
杰@@ 1
义@@ 1
團@@ 1
网@@ 1
易 1
平台 1
妹 1
一定 1
35 1
过程 1
壓 1
试 1
结束 1
节@@ 1
生产 1
盟 1
父親 1
科技 1
興 1
晋@@ 1
徑 1
5.@@ 1
左右 1
早 1
英文 1
繁@@ 1
租@@ 1
日至 1
念 1
运动员 1
孔@@ 1
說@@ 1
70 1
发布 1
侵@@ 1
签@@ 1
病毒 1
居住 1
场@@ 1
泰 1
靈@@ 1
作者 1
刑 1
唱片 1
付 1
顺@@ 1
舍 1
節@@ 1
很@@ 1
新加坡 1
申@@ 1
單曲 1
行政@@ 1
舊 1
岩 1
货@@ 1
宫 1
同意 1
問 1
大多 1
擴@@ 1
藍@@ 1
到@@ 1
证@@ 1
圣 1
計@@ 1
辦@@ 1
48 1
继@@ 1
喬@@ 1
杯 1
限制 1
李 1
？ 1
概念 1
1994 0.7951804191523084
日起 1
凱@@ 1
45 1
却 1
孟@@ 1
盧@@ 1
一家 1
分子 1
统@@ 1
救 1
輕@@ 1
中学 1
公共 1
南京 1
召@@ 1
记 1
確@@ 1
伦 1
N 0.9153614626382658
拉斯 1
必須 1
宣 1
有些 1
降 1
3.@@ 1
範圍 1
骨@@ 1
梅 1
柯@@ 1
團體 1
韦@@ 1
划@@ 1
科学 1
系@@ 1
麻@@ 1
演員 1
魏@@ 1
Y@@ 0.34661635597429175
戲@@ 1
倫 1
破 1
太平洋 1
远@@ 1
網 1
经过 1
维 1
90 1
余 1
距 1
随后 1
城区 1
请 1
極 1
人口普查 1
控 1
執@@ 1
斷 1
票@@ 1
亿@@ 1
奉@@ 1
聖 1
澳門 1
題 1
量@@ 1
1992 0.7651453826087249
驻 1
独@@ 1
警察 1
兄弟 1
1995 0.7738319160632009
希 1
滿@@ 1
航 1
協@@ 1
酒@@ 1
冲@@ 1
乡镇级 1
br 1
蒙古 1
继续 1
我们 1
玛@@ 1
记@@ 1
初期 1
识 1
纽@@ 1
孙@@ 1
态 1
排名 1
陆@@ 1
候@@ 1
部份 1
黑 1
融@@ 1
挑@@ 1
中國@@ 1
4.@@ 1
雨@@ 1
快@@ 1
蔡@@ 1
学习 1
畫 1
变化 1
镇@@ 1
号线 1
征 1
轮 1
中華 1
负责 1
攝 1
竹@@ 1
元素 1
動物 1
傑@@ 1
烏克蘭 1
複 1
开发 1
1@@ 1
走@@ 1
呈 1
舉@@ 1
捷@@ 1
媒體 1
構@@ 1
途@@ 1
功 1
in 0.0077145572330516434
拜 1
會議 1
术 1
联合@@ 1
忠@@ 1
硬@@ 1
X@@ 0.683286845703277
百 1
6.@@ 1
找 1
這是 1
紀錄 1
主義@@ 1
刑@@ 1
壓@@ 1
曾任 1
二世 1
离@@ 1
相关 1
虽然 1
直 1
叶 1
叶@@ 1
藝術 1
宝@@ 1
赵@@ 1
乔@@ 1
32 1
第二次 1
力量 1
机车 1
毛 1
秋@@ 1
1993 0.797628922000403
夜@@ 1
廟 1
計畫 1
办@@ 1
始 1
急 1
巴西 1
補@@ 1
y 0.024751753795191494
U 0.7033280915198564
研究所 1
试@@ 1
动物 1
適@@ 1
审@@ 1
n 0.18542846373605337
伍 1
观 1
联盟 1
公布 1
蒙 1
逐@@ 1
对于 1
綫 1
认@@ 1
區域 1
海拔 1
1991 0.7529456499652698
岩@@ 1
享@@ 1
超 1
败 1
洋 1
歸@@ 1
孫@@ 1
審@@ 1
人員 1
随@@ 1
幼@@ 1
弱 1
術@@ 1
席@@ 1
流域 1
記@@ 1
巴黎 1
务 1
它们 1
顯示 1
连 1
规@@ 1
炮@@ 1
洞 1
異 1
督@@ 1
現時 1
叫 1
促@@ 1
民主@@ 1
麦@@ 1
有關 1
兹 1
透@@ 1
王朝 1
超过 1
慶@@ 1
信息 1
護 1
授 1
昆@@ 1
或是 1
首都 1
第四@@ 1
求@@ 1
所属 1
鼓@@ 1
海军 1
达到 1
做@@ 1
流行 1
琴 1
奈@@ 1
浙江 1
获@@ 1
部隊 1
照@@ 1
提 1
陽 1
尼亞 1
联 1
廢@@ 1
核 1
亮 1
北京@@ 1
公园 1
文物保护 1
結構 1
努@@ 1
1950 1
售@@ 1
题 1
一世 1
六年 1
連 1
医院 1
銷@@ 1
滑@@ 1
澳@@ 1
庆@@ 1
弹 1
昂 1
爭 1
标 1
仙@@ 1
方案 1
萨 1
民国 1
炸@@ 1
续 1
遇 1
創作 1
碼 1
围@@ 1
餘@@ 1
是否 1
游 1
雨 1
開發 1
么 1
新聞 1
妻子 1
決賽 1
配 1
捕 1
始建 1
标准 1
約@@ 1
保持 1
郑@@ 1
環境 1
散@@ 1
父亲 1
宮@@ 1
冠军 1
V 0.710068407007734
命@@ 1
返回 1
貨@@ 1
昌@@ 1
区域 1
现 1
榮@@ 1
市場 1
柴@@ 1
紀 1
零@@ 1
芬@@ 1
許@@ 1
汗 1
童 1
联邦 1
決@@ 1
如下 1
写@@ 1
别@@ 1
果@@ 1
調查 1
亂 1
裁@@ 1
领导 1
國際@@ 1
機構 1
1949 1
廷 1
第四 1
扎@@ 1
牧@@ 1
级@@ 1
夏 1
程度 1
画@@ 1
燃@@ 1
暗@@ 1
供 1
归@@ 1
and 0.008273505759428128
洲@@ 1
源@@ 1
棲息 1
過程 1
衣 1
搭@@ 1
隔@@ 1
坡 1
候 1
彈@@ 1
陣 1
幣 1
決 1
批准 1
少年 1
跨@@ 1
授@@ 1
国民@@ 1
凯@@ 1
传统 1
十年 1
启@@ 1
冷@@ 1
换 1
相當 1
振@@ 1
幅 1
术@@ 1
博士 1
爲 1
援 1
1988 0.8379270265185071
統 1
十分 1
代表@@ 1
紫@@ 1
公分 1
俱乐部 1
鎮@@ 1
給@@ 1
漫@@ 1
爵 1
银@@ 1
1970 0.8153371211696331
内容 1
库 1
克里@@ 1
300 1
君 1
我們 1
兼@@ 1
帝@@ 1
企@@ 1
重建 1
计@@ 1
执@@ 1
队@@ 1
博 1
細@@ 1
协会 1
名稱 1
外交@@ 1
下午 1
据@@ 1
禮@@ 1
北市 1
杀@@ 1
覺 1
企业 1
界@@ 1
境@@ 1
眾@@ 1
批@@ 1
舉辦 1
罪@@ 1
諸@@ 1
成績 1
當中 1
人類 1
竞@@ 1
藝 1
莱 1
按 1
共和国 1
雅 1
程序 1
旋@@ 1
沃 1
急@@ 1
選擇 1
庄@@ 1
声 1
毒@@ 1
确@@ 1
器@@ 1
另@@ 1
水域 1
缺@@ 1
文化@@ 1
改為 1
范围 1
丽@@ 1
蓋 1
斗@@ 1
不再 1
鄉@@ 1
报告 1
数据 1
银行 1
協會 1
因而 1
决@@ 1
』 1
職業 1
異@@ 1
『 1
知道 1
豪@@ 1
接近 1
设立 1
社区 1
潮 1
距離 1
皇家 1
軟@@ 1
菜 1
历@@ 1
親 1
1989 0.7633266875171781
柱 1
小时 1
7.@@ 1
这一 1
更名 1
谢@@ 1
理论 1
困@@ 1
宜@@ 1
时代 1
大臣 1
us 0.15330311720136403
压 1
圓@@ 1
掌@@ 1
磁@@ 1
正在 1
還有 1
估@@ 1
與@@ 1
改为 1
H 1
径 1
较@@ 1
上映 1
講@@ 1
似@@ 1
无 1
远 1
聯合 1
表現 1
媒体 1
瑟@@ 1
墓 1
众@@ 1
莉 1
四川 1
柏@@ 1
保护 1
旧@@ 1
某@@ 1
確 1
議會 1
建筑@@ 1
攝@@ 1
主演 1
户 1
難@@ 1
革 1
1945 0.7337758619711073
截至 1
君@@ 1
溪@@ 1
韋@@ 1
难 1
而是 1
支援 1
设有 1
提名 1
现在 1
譯 1
辽@@ 1
齐@@ 1
資 1
盖 1
奉 1
专业 1
標準 1
別@@ 1
控@@ 1
邦@@ 1
工业 1
著作 1
青 1
牙@@ 1
非洲 1
血 1
樹@@ 1
收入 1
16@@ 0.8992377767422557
限@@ 1
结果 1
替 1
中文 1
包 1
炎 1
取消 1
型@@ 1
特别 1
徵@@ 1
编 1
尚 1
程@@ 1
积@@ 1
井 1
未能 1
尤@@ 1
董@@ 1
奪@@ 1
坦 1
临 1
耳@@ 1
投 1
桃@@ 1
丽 1
彭@@ 1
荣@@ 1
迷@@ 1
on 0.023874957895078493
保留 1
累@@ 1
泽@@ 1
莉@@ 1
交流 1
交通@@ 1
良@@ 1
攻擊 1
竹 1
直至 1
赫 1
佛教 1
诸@@ 1
綠@@ 1
艺术 1
架@@ 1
1960 0.8476630465845055
尊@@ 1
旗下 1
晉@@ 1
藥@@ 1
善@@ 1
警方 1
養 1
岛@@ 1
祭@@ 1
眼 1
不會 1
x 0.3520691058527116
虎 1
碑 1
播@@ 1
肉 1
2022 1
停止 1
薩 1
材料 1
其它 1
澤@@ 1
看到 1
韩国 1
葬 1
自治区 1
逝世 1
千 1
压@@ 1
思想 1
绝@@ 1
迎 1
雪 1
新增 1
块 1
高中 1
購 1
倍 1
于@@ 1
一樣 1
雄@@ 1
赛季 1
父@@ 1
尋@@ 1
快速 1
活 1
赴 1
訴 1
謝@@ 1
又名 1
可達 1
建成 1
线路 1
橫@@ 1
西省 1
電子 1
隔 1
忠 1
斯特@@ 1
策@@ 1
诗@@ 1
億 1
麗 1
星期@@ 1
祖父 1
特殊 1
任务 1
趣 1
額 1
覆@@ 1
紅 1
刺@@ 1
博物馆 1
牛 1
拉克 1
将@@ 1
和平 1
宋 1
絲 1
网络 1
秒 1
威廉 1
引 1
西方 1
思 1
东北 1
投票 1
总 1
省级 1
发表 1
埃 1
鎮區 1
海岸 1
輸@@ 1
賽事 1
氏@@ 1
漢 1
再度 1
葛@@ 1
能夠 1
軍隊 1
丰@@ 1
遂 1
兩 1
隨著 1
主題 1
詩@@ 1
訂 1
湾 1
只能 1
符@@ 1
陕@@ 1
侍@@ 1
效力 1
20@@ 1
邀@@ 1
年间 1
验 1
物种 1
孩子 1
载 1
村落 1
无法 1
沉@@ 1
联合 1
行动 1
围 1
物理 1
工作@@ 1
芬 1
陆 1
如此 1
归 1
尚未 1
1985 0.8298659963594147
帝國 1
人民政府 1
俄羅斯 1
公民 1
天津 1
迁@@ 1
Z@@ 0.17180163349574273
固@@ 1
33 1
改名 1
梁 1
舊@@ 1
排 1
乱 1
歷 1
哈 1
協助 1
染@@ 1
致 1
映 1
朋友 1
設立 1
尤其 1
慈@@ 1
小時 1
測@@ 1
国际@@ 1
庙 1
36 1
福建 1
輯 1
孩 1
曆 1
假 1
程式 1
中學 1
文件 1
盤 1
环 1
公主 1
～ 1
童@@ 1
騎@@ 1
禁@@ 1
早年 1
命令 1
公開 1
以前 1
1984 0.8145291332106762
先生 1
文章 1
孝@@ 1
当选 1
干 1
播放 1
卿 1
寧@@ 1
名称 1
茲 1
構 1
項目 1
胜 1
灰@@ 1
簡稱 1
擊敗 1
伤 1
亦@@ 1
多年 1
現在 1
味 1
返 1
模型 1
普通 1
愛 1
隧道 1
擔 1
地震 1
庫@@ 1
持@@ 1
美国@@ 1
渡@@ 1
大樓 1
1986 0.7854089195391465
液 1
佳@@ 1
关 1
像@@ 1
爭@@ 1
傷@@ 1
环境 1
一度 1
安排 1
賓 1
憲@@ 1
军事 1
乃@@ 1
38 1
34 1
大利 1
樣 1
慕@@ 1
頂 1
集中 1
速@@ 1
规模 1
士兵 1
提高 1
皇 1
兩人 1
驻@@ 1
额 1
參與 1
广场 1
台北 1
瑞 1
选举 1
谷@@ 1
妮 1
搜@@ 1
献 1
8.@@ 1
槍@@ 1
南方 1
發表 1
以外 1
铁 1
七年 1
宇@@ 1
裁 1
失去 1
争@@ 1
葉 1
耶 1
小说 1
震@@ 1
堅@@ 1
坊 1
持續 1
否@@ 1
大道 1
1987 0.7666914597843592
珠@@ 1
漫畫 1
阻@@ 1
这是 1
莎@@ 1
移民 1
全國 1
拿 1
细@@ 1
满 1
m 0.1587165161735255
此后 1
至少 1
警 1
录@@ 1
市民 1
醫院 1
生產 1
伯特 1
保護 1
選區 1
俗 1
引擎 1
不明 1
灵@@ 1
潮@@ 1
掉 1
河南 1
有关 1
间@@ 1
以来 1
幕@@ 1
粉@@ 1
介 1
植@@ 1
懷@@ 1
工程@@ 1
語言 1
三个 1
津@@ 1
潘@@ 1
械 1
字母 1
遷 1
殺@@ 1
异@@ 1
顯@@ 1
股份 1
药@@ 1
拍@@ 1
t 0.08167405446758197
均@@ 1
规定 1
銀行 1
球員 1
价@@ 1
借@@ 1
樂團 1
群島 1
軍事 1
类似 1
表面 1
盟@@ 1
時候 1
实现 1
年間 1
酒店 1
o 0.07579409556097623
麼 1
严@@ 1
避免 1
基础 1
这样 1
乡@@ 1
犹@@ 1
輕 1
隻 1
以來 1
靈 1
塘 1
某些 1
之下 1
八年 1
断 1
险 1
陣@@ 1
国王 1
中国共产党 1
浦@@ 1
随着 1
伐@@ 1
投入 1
教區 1
彼@@ 1
衡 1
啟@@ 1
海域 1
整 1
牠 1
練 1
遊 1
高度 1
版@@ 1
礼 1
舞 1
有效 1
各種 1
序@@ 1
1982 0.8120594476203992
含@@ 1
p 0.265216179029115
設施 1
處理 1
操@@ 1
前身 1
阿拉@@ 1
基金 1
本地 1
一同 1
役 1
毁 1
将军 1
玻@@ 1
随 1
行为 1
執行 1
温 1
駐 1
健康 1
環 1
替@@ 1
得以 1
显@@ 1
时候 1
基督教 1
消息 1
现代 1
儀@@ 1
柳@@ 1
46 1
讲@@ 1
委会 1
创作 1
补@@ 1
尼斯 1
云 1
遭 1
嚴@@ 1
餘 1
75 1
屋@@ 1
弟 1
d 0.09358637288705032
核心 1
选择 1
貴@@ 1
瑞典 1
42 1
運動員 1
适@@ 1
盛 1
訪 1
三個 1
藤@@ 1
极 1
经济@@ 1
编码 1
東部 1
禁止 1
儿 1
叛@@ 1
同一 1
隸屬 1
运行 1
儿@@ 1
十二 1
晨 1
不过 1
瑞士 1
广州 1
壁 1
句 1
鱼 1
出口 1
河流 1
民國 1
免 1
J 1
徽 1
迴 1
曾經 1
彩 1
右 1
逐漸 1
合并 1
分为 1
轄@@ 1
恢复 1
澳洲 1
资 1
恒@@ 1
1983 0.79236108025559
反对 1
購@@ 1
積 1
凌@@ 1
特色 1
历 1
羽毛球 1
嚴重 1
议会 1
概@@ 1
珠 1
一系列 1
渡 1
64 1
与@@ 1
之中 1
委員 1
年底 1
作出 1
氧@@ 1
文字 1
墓@@ 1
鏡 1
英語 1
莫 1
榮 1
井@@ 1
c 0.17130830871370373
尽管 1
茨@@ 1
乘客 1
斯基 1
侯@@ 1
找到 1
空間 1
大区 1
安德@@ 1
香 1
旗@@ 1
难@@ 1
罗马 1
迫@@ 1
综@@ 1
译 1
唐 1
闻@@ 1
个人 1
溫 1
55 1
似 1
一条 1
必须 1
學習 1
本身 1
39 1
乎 1
策 1
9.@@ 1
平方米 1
距离 1
护 1
01 1
演员 1
訊@@ 1
宜 1
秋 1
属下 1
指定 1
hans 1
怀@@ 1
37 1
何 1
英尺 1
战役 1
知名 1
一段 1
趙 1
水平 1
于是 1
宇 1
錄@@ 1
东部 1
數據 1
侯 1
一颗 1
先后 1
歸 1
1979 0.7788242334502676
de 0.004295241305656258
专辑 1
讀@@ 1
以色列 1
彩@@ 1
提升 1
楚@@ 1
綜@@ 1
精神 1
容易 1
劃 1
济@@ 1
约翰 1
调查 1
产品 1
市场 1
鲁 1
执行 1
能够 1
电视@@ 1
衣@@ 1
勇@@ 1
范 1
涅@@ 1
截@@ 1
記者 1
儿子 1
跑 1
圆@@ 1
訊 1
價 1
塊 1
羽@@ 1
體長 1
夫人 1
停 1
桂@@ 1
緣 1
九年 1
地铁 1
空间 1
厄@@ 1
坚@@ 1
刺 1
部门 1
雕@@ 1
露@@ 1
条@@ 1
倒@@ 1
國立 1
翰@@ 1
基礎 1
庭 1
报道 1
爱 1
城鎮 1
决赛 1
400 1
樹 1
穿 1
运营 1
廣播 1
傑 1
齊@@ 1
大使 1
我@@ 1
特定 1
學者 1
略@@ 1
理論 1
砲 1
读 1
问 1
点@@ 1
雲 1
自由@@ 1
入侵 1
电视 1
生命 1
陰@@ 1
信仰 1
產品 1
迅速 1
人口数量 1
邨 1
援@@ 1
议员 1
岡@@ 1
社会@@ 1
议@@ 1
应用 1
喀@@ 1
幸@@ 1
禁 1
跳@@ 1
頒@@ 1
念@@ 1
配合 1
1978 0.7844969806305546
轻@@ 1
實際 1
濟@@ 1
印 1
大西洋 1
相似 1
離開 1
紐@@ 1
爵@@ 1
導演 1
邮政编码 1
皇后 1
藥 1
涅 1
雜誌 1
琳 1
聞@@ 1
印度@@ 1
珍@@ 1
祥 1
報告 1
顶 1
还是 1
素@@ 1
棄 1
慶 1
刻@@ 1
按@@ 1
運動會 1
餐@@ 1
目標 1
注意 1
选区 1
刀 1
骑@@ 1
徽@@ 1
剂 1
仲@@ 1
扎 1
构@@ 1
台湾 1
埃及 1
津 1
森林 1
给@@ 1
等等 1
航空@@ 1
部落 1
寬 1
圍@@ 1
商業 1
e@@ 0.0886913043638271
定义 1
袁@@ 1
轨道 1
古代 1
倒 1
主義 1
负@@ 1
同樣 1
迎@@ 1
44 1
h 0.1930056604351608
微 1
輸 1
感到 1
按照 1
绿@@ 1
應用 1
读@@ 1
減@@ 1
价 1
is 0.017345521510466356
连接 1
健@@ 1
旅客 1
旅 1
父母 1
獻 1
人们 1
肉@@ 1
生长 1
黃@@ 1
65 0.9053701219258993
礼@@ 1
品牌 1
韩@@ 1
交易 1
紧@@ 1
热 1
儘 1
风格 1
編號 1
負@@ 1
兹@@ 1
準 1
鐵道 1
顯 1
充 1
電視劇 1
孔 1
酸@@ 1
设置 1
譽 1
41 1
举办 1
第五 1
e 0.08273892272070765
讷 1
途 1
迷 1
遇@@ 1
颱 1
符 1
帮助 1
價@@ 1
病例 1
肯 1
人类 1
貢@@ 1
超級 1
树 1
撒@@ 1
才能 1
类型 1
表明 1
b 0.24086388492157412
毒 1
虎@@ 1
潜@@ 1
袖 1
聯合@@ 1
桥@@ 1
宽 1
很大 1
52 1
丘@@ 1
瑟 1
如何 1
1981 0.7206580844267579
買 1
英雄 1
敦@@ 1
電視台 1
顧@@ 1
巨大 1
晚上 1
amp 0.22462908079407126
tw 1
普遍 1
經營 1
旁 1
母親 1
妃 1
一样 1
兒子 1
° 0.6073034138586643
见@@ 1
本站 1
亭 1
仍@@ 1
英國@@ 1
h@@ 0.11362996928213515
各种 1
創 1
錢 1
佳 1
W 0.7793888221513073
輪@@ 1
記載 1
吕@@ 1
白色 1
入口 1
状@@ 1
準@@ 1
质@@ 1
寫@@ 1
朝鲜 1
授予 1
紀念 1
养 1
离开 1
意思 1
浮@@ 1
案件 1
玩@@ 1
首府 1
輔@@ 1
改變 1
訓練 1
大學@@ 1
设备 1
谋@@ 1
閣 1
举@@ 1
疾病 1
开放 1
拓@@ 1
北方 1
賓@@ 1
an 0.0211304990821894
％ 1
南省 1
工具 1
高速公路 1
事故 1
严重 1
简称 1
董事 1
電腦 1
飛 1
婚@@ 1
浪@@ 1
树@@ 1
都市 1
寄@@ 1
晶@@ 1
鱼@@ 1
改造 1
東京 1
飞机 1
菲 1
结 1
辑 1
章@@ 1
建議 1
处理 1
毀 1
新闻 1
捐@@ 1
旺@@ 1
尖@@ 1
舒@@ 1
效果 1
旦 1
损@@ 1
暫@@ 1
階段 1
出席 1
逐渐 1
确 1
疫情 1
糖 1
北省 1
尉 1
因素 1
太阳 1
许@@ 1
階@@ 1
責@@ 1
准@@ 1
51 1
甸 1
HD 1
衰@@ 1
全面 1
宿@@ 1
规划 1
函数 1
賣 1
小型 1
海外 1
廣 1
行為 1
仅@@ 1
症@@ 1
药 1
文物 1
唱@@ 1
工人 1
废@@ 1
監 1
hk 1
物種 1
規模 1
久@@ 1
司令 1
齒 1
绕 1
吃 1
京都 1
决 1
罕@@ 1
陷 1
魯 1
阿爾@@ 1
é 0.079734794501532
卓@@ 1
妻 1
缺乏 1
反應 1
刊@@ 1
也@@ 1
乾@@ 1
崔@@ 1
47 1
麥 1
销@@ 1
建制 1
陷@@ 1
絡 1
這樣 1
端@@ 1
飛機 1
本土 1
记载 1
台灣@@ 1
未來 1
细胞 1
溶@@ 1
害@@ 1
坎@@ 1
億@@ 1
法案 1
機會 1
企業 1
摩 1
泉@@ 1
不足 1
仪@@ 1
大區 1
描@@ 1
责@@ 1
科學 1
弹@@ 1
很快 1
更加 1
57 1
管理@@ 1
脱@@ 1
插@@ 1
規定 1
於@@ 1
隶@@ 1
识@@ 1
显示 1
马来西亚 1
維持 1
其後@@ 1
整个 1
涉@@ 1
被迫 1
魏 1
伐 1
逊 1
西亞 1
夺@@ 1
建築@@ 1
提到 1
43 1
折@@ 1
依 1
咸@@ 1
家人 1
第五@@ 1
诉 1
戈 1
誤 1
完整 1
默 1
收錄 1
絕@@ 1
k 0.11670315548989825
伴 1
它們 1
为主 1
冷 1
聽 1
分鐘 1
00@@ 1
換@@ 1
姐 1
玉 1
枪 1
指挥 1
壇 1
需求 1
高速 1
爆发 1
御@@ 1
西亚 1
／ 1
願 1
领导@@ 1
值@@ 1
埔@@ 1
遗址 1
领域 1
涉及 1
能量 1
植 1
惡@@ 1
1946 0.8467353058415511
贡@@ 1
Windows 1
稱為 1
損@@ 1
襲 1
鄰 1
而成 1
鹿@@ 1
鲜@@ 1
玄@@ 1
戰役 1
人工 1
段@@ 1
音乐@@ 1
梯 1
戏@@ 1
中华@@ 1
杰 1
延伸 1
遜 1
園@@ 1
滨@@ 1
自治 1
住宅 1
换@@ 1
分類 1
樓@@ 1
宇宙 1
改善 1
慢 1
芝@@ 1
大戰 1
寧 1
西藏 1
昭@@ 1
一切 1
泳 1
齐 1
r 0.2760628176460709
条件 1
工業 1
賞 1
统治 1
逢 1
1958 0.8712035069229007
臨@@ 1
62 1
然后 1
味@@ 1
厚 1
江西 1
四十@@ 1
尔德 1
蓝@@ 1
風格 1
1948 0.8397430910878074
借 1
帕 1
佔@@ 1
58 1
53 1
仔 1
宝 1
墙 1
國會 1
讨@@ 1
券 1
箱 1
葡萄牙 1
太子 1
齡 1
倫敦 1
战斗 1
少女 1
鼠 1
含 1
准 1
历史@@ 1
措施 1
歡@@ 1
勤 1
屏@@ 1
問@@ 1
退出 1
学者 1
宾 1
週 1
迹 1
柏林 1
左 1
操作 1
爭議 1
阵@@ 1
腹@@ 1
浪 1
頂@@ 1
卑@@ 1
整個 1
浦 1
天文 1
治療 1
獄 1
劇情 1
85 1
类@@ 1
幹@@ 1
阮@@ 1
染 1
網路 1
修改 1
职业 1
捕@@ 1
留下 1
广东 1
驱@@ 1
博物 1
敵@@ 1
惠 1
敬@@ 1
突 1
降低 1
幻@@ 1
56 1
大約 1
频道 1
而言 1
军区 1
揭@@ 1
泊 1
原名 1
燕@@ 1
ing 0.030467464793750693
撤销 1
緯 1
鳳@@ 1
爆@@ 1
吸引 1
用户 1
照片 1
明治 1
組合 1
请@@ 1
另一@@ 1
一帶 1
大小 1
卢瓦@@ 1
螺@@ 1
正常 1
样 1
一支 1
加盟 1
Y 1
敏@@ 1
国务院 1
1920 0.80320132289432
過去 1
g 0.20822853175460743
國民 1
棒 1
大约 1
逐 1
坦克 1
保存 1
約翰 1
舍@@ 1
时区 1
协议 1
一條 1
er 0.023552402062276916
争 1
星等 1
堂@@ 1
人次 1
俗@@ 1
横@@ 1
一天 1
凡 1
笑 1
翌@@ 1
行星 1
變化 1
投资 1
伊斯 1
湖南 1
裡@@ 1
連續 1
艺@@ 1
表现 1
1940 0.7217829893720558
54 1
楚 1
菲律@@ 1
興建 1
鳥 1
敏 1
答 1
寨 1
t@@ 0.06615710196051922
批評 1
铜@@ 1
西北部 1
尔斯 1
不可 1
評 1
鬼 1
真正 1
维尔 1
第一个 1
蛇 1
舞台 1
患者 1
夏令时 1
云南 1
案@@ 1
购@@ 1
即使 1
饰 1
1976 0.6551613880123784
朝鮮 1
魚綱 1
國民黨 1
莎 1
冬@@ 1
目标 1
INSEE 1
电视台 1
蟲 1
设施 1
展示 1
比例 1
49 1
相信 1
十二@@ 1
汽车 1
亞州 1
上午 1
嘉 1
車輛 1
出演 1
之子 1
1975 0.6192543442989834
那些 1
板@@ 1
制造 1
基因 1
墨西哥 1
西南部 1
迈@@ 1
宫@@ 1
譯@@ 1
輻鰭 1
顏@@ 1
形象 1
土耳其 1
弘@@ 1
赞@@ 1
嶼 1
食物 1
山东 1
76 1
事務 1
加利福@@ 1
英格@@ 1
最高@@ 1
确诊 1
國家@@ 1
儀 1
填@@ 1
呈@@ 1
滅 1
阿拉伯 1
首先 1
稳@@ 1
潛@@ 1
鄰@@ 1
後來 1
冬季 1
稿 1
合成 1
任務 1
緊@@ 1
奪 1
1972 0.6200888272850821
狀況 1
丘 1
河畔 1
s@@ 0.0520113490021833
蘇 1
汇@@ 1
戰鬥 1
y@@ 0.11605674826339
体育@@ 1
* 0.3100365721233191
連接 1
匈牙利 1
感染 1
输@@ 1
Q@@ 0.45753016272844643
官员 1
盾 1
寺@@ 1
臨 1
屯@@ 1
剩@@ 1
銷 1
1930 0.7785680019502895
两 1
幾乎 1
修建 1
息@@ 1
计算@@ 1
88 1
陵@@ 1
顾@@ 1
遷@@ 1
設置 1
訪@@ 1
澳大利亚 1
一步 1
多个 1
公共@@ 1
灌@@ 1
球季 1
to 0.007223124602584284
負 1
契@@ 1
習 1
智 1
1956 0.797973434492148
茶 1
66 1
報導 1
600 1
顶@@ 1
私人 1
終 1
床 1
今日 1
陳@@ 1
狀態 1
72 1
恢 1
残@@ 1
伊斯@@ 1
中国人民解放军 1
内部 1
阶段 1
乳@@ 1
投降 1
撞@@ 1
國王 1
習@@ 1
減少 1
一所 1
兼任 1
中山 1
疑@@ 1
小說 1
得知 1
隨後@@ 1
63 1
墨@@ 1
固 1
固定 1
配音 1
每个 1
票房 1
比如 1
焦@@ 1
紹 1
二人 1
資訊 1
阴@@ 1
认 1
呼 1
61 1
1937 0.9053589389689901
伊朗 1
坐 1
府@@ 1
宿 1
貌 1
相比 1
牌@@ 1
球會 1
艺 1
亨利 1
艺术@@ 1
母亲 1
函@@ 1
大多数 1
經歷 1
记录 1
词@@ 1
冊 1
大陸 1
詞@@ 1
次年 1
成本 1
钢@@ 1
锡@@ 1
用作 1
金牌 1
频 1
红 1
廊 1
埔 1
註 1
自治@@ 1
橋@@ 1
大致 1
JR 1
员@@ 1
原始 1
IS@@ 1
重点 1
扮演 1
顆 1
东南 1
符合 1
秘密 1
中國大陸 1
例子 1
弃 1
芳 1
异 1
中共@@ 1
1947 0.821751795779489
解放 1
絕 1
乾隆 1
錦@@ 1
路口 1
上述 1
1000 1
衍@@ 1
污@@ 1
列入 1
了解 1
庆 1
用途 1
北京市 1
釋 1
延 1
豪 1
自然@@ 1
1941 0.6493553387358125
黑色 1
年初 1
网站 1
通道 1
番 1
800 1
齊 1
擔@@ 1
方言 1
淘@@ 1
誉 1
祀 1
户@@ 1
液@@ 1
需@@ 1
拒絕 1
細胞 1
舰队 1
南北 1
歐 1
虛@@ 1
抽@@ 1
琴@@ 1
澳 1
一份 1
教育@@ 1
67 1
違@@ 1
突然 1
莫斯科 1
熱 1
深度 1
湯@@ 1
幫助 1
蒙古@@ 1
廣場 1
操 1
下降 1
广 1
駐@@ 1
狄@@ 1
避@@ 1
虫 1
重大 1
茲@@ 1
人大@@ 1
益@@ 1
續@@ 1
国会 1
捷 1
殘@@ 1
伏@@ 1
麦 1
59 1
苏 1
仔@@ 1
波兰 1
伍@@ 1
棋 1
凤@@ 1
他人 1
总理 1
英格蘭 1
路易@@ 1
冰 1
陨@@ 1
分為 1
粒@@ 1
屠@@ 1
爆發 1
基本@@ 1
甚@@ 1
斗 1
高雄@@ 1
茶@@ 1
1952 0.8288588254834892
杂志 1
曾经 1
戴 1
談@@ 1
有所 1
法官 1
肺@@ 1
支流 1
革@@ 1
技 1
廷@@ 1
斯蒂@@ 1
86 1
衝@@ 1
进攻 1
蘇聯 1
奥林匹克运动会 1
山西 1
1968 0.6033848837945925
喜 1
苦 1
熊@@ 1
頻道 1
大會 1
日期 1
里斯 1
新疆 1
制定 1
1973 0.6155105476661681
淡水 1
脫@@ 1
68 1
退休 1
缩@@ 1
卒 1
寸 1
裂 1
自行 1
TV 0.4591246870100599
摄@@ 1
奴 1
特征 1
敌@@ 1
辖 1
确定 1
壘 1
俄 1
烈@@ 1
電視@@ 1
脂 1
蛋白 1
歧@@ 1
建設 1
办事处 1
鰭 1
分钟 1
猶@@ 1
呂@@ 1
望@@ 1
火箭 1
d@@ 0.07597882318850045
占领 1
條件 1
源自 1
琉@@ 1
汽車 1
準備 1
代表大会 1
大会 1
娛樂 1
教會 1
敵 1
代码 1
化石 1
化合物 1
苗 1
三世 1
丙@@ 1
矿@@ 1
82 1
77 1
几乎 1
輝 1
網站 1
遵@@ 1
孤@@ 1
桑 1
这里 1
赢得 1
響 1
鋼@@ 1
奴@@ 1
旁@@ 1
还@@ 1
轮@@ 1
文学 1
状态 1
统一 1
雜@@ 1
73 1
成員@@ 1
藩 1
際 1
不斷 1
數量 1
印尼 1
电子 1
混合 1
寻@@ 1
膜 1
觉 1
香港@@ 1
分配 1
阁 1
籃@@ 1
孙 1
付@@ 1
1977 0.6223881771639145
公元 1
貿易 1
阵 1
每個 1
聯邦 1
還是 1
95 1
纪念 1
准备 1
苑 1
c@@ 0.0775292206932542
外交 1
城堡 1
最近 1
u 0.12516905524020258
課程 1
養@@ 1
勃@@ 1
醫療 1
解散 1
廉@@ 1
作战 1
中華@@ 1
引入 1
腳 1
业务 1
盘 1
攻击 1
海洋 1
属@@ 1
建于 1
答@@ 1
驅@@ 1
25@@ 1
氧化@@ 1
宏@@ 1
维奇 1
英语 1
獸 1
基于 1
的關 1
岭 1
變成 1
冒@@ 1
机关 1
精 1
家中 1
幻 1
體育@@ 1
辖@@ 1
辰 1
此次 1
隱@@ 1
觸 1
05 1
1955 0.8046614898191538
里克 1
广泛 1
佐 1
弟@@ 1
30@@ 1
以后 1
1964 0.646984864173312
實施 1
拆@@ 1
立即 1
粉 1
亮@@ 1
熟 1
政协 1
起来 1
74 1
1974 0.5740635777419271
上海市 1
塑@@ 1
资源 1
持续 1
1966 0.6628209187351004
71 1
盖@@ 1
高等@@ 1
退役 1
依然 1
利亞 1
人們 1
1938 0.7436734631257977
叙@@ 1
嶺 1
見@@ 1
一致 1
x@@ 0.22125745066449717
發出 1
女兒 1
去@@ 1
據@@ 1
显 1
已有 1
育@@ 1
夢 1
年前 1
导演 1
商业 1
葡萄@@ 1
做出 1
平原 1
不到 1
允许 1
藉@@ 1
須 1
奥斯@@ 1
駕@@ 1
怒 1
結婚 1
举 1
粗@@ 1
半島 1
逮捕 1
统计 1
81 1
殖民地 1
飾演 1
旬 1
日本@@ 1
發售 1
太人 1
一個@@ 1
伴@@ 1
脈 1
经常 1
金融 1
加州 1
請@@ 1
150 1
数量 1
78 1
御 1
习@@ 1
同样 1
浩@@ 1
步兵 1
觀眾 1
疫 1
努力 1
此時 1
士学位 1
食品 1
尼亚@@ 1
拍摄 1
估 1
伤@@ 1
側@@ 1
相对 1
誌 1
劑 1
际 1
服務@@ 1
反對 1
备@@ 1
练 1
疫@@ 1
循@@ 1
弗 1
农业 1
99 1
一場 1
风暴 1
廣告 1
業務 1
山大 1
今天 1
選手 1
姓@@ 1
邀 1
劃@@ 1
深圳 1
然@@ 1
評價 1
詩 1
1939 0.6285757500296246
轻 1
动机 1
民眾 1
奧林匹@@ 1
尊 1
针@@ 1
迁 1
使用@@ 1
紐約 1
邓@@ 1
册 1
閉 1
02 1
1954 0.7726569082040854
听@@ 1
銅@@ 1
缘 1
舰@@ 1
1944 0.545318661671885
偶@@ 1
亚洲 1
郵@@ 1
不会 1
平面 1
管辖 1
鳥@@ 1
心理 1
範@@ 1
公爵 1
坪 1
酶 1
協 1
铁路@@ 1
崎@@ 1
群岛 1
派遣 1
比较 1
施 1
软件 1
將會 1
淮@@ 1
颁@@ 1
1971 0.5634640364796606
绍 1
08 1
天皇 1
建议 1
垂@@ 1
陆军 1
钱@@ 1
下令 1
枝 1
拒绝 1
城镇 1
响@@ 1
纪念@@ 1
袭 1
朝廷 1
拔 1
犯罪 1
資格 1
殖@@ 1
享 1
較@@ 1
創立 1
允@@ 1
房屋 1
常見 1
调整 1
球場 1
多個 1
本人 1
钱 1
洗@@ 1
現場 1
责 1
办公室 1
击败 1
鋒 1
列出 1
內部 1
谈@@ 1
贏得 1
自身 1
山脈 1
水库 1
王國 1
往往 1
第六@@ 1
文學 1
揚 1
巡 1
从而 1
挪威 1
德语 1
迫 1
阶@@ 1
輛 1
79 1
雙 1
領域 1
斤 1
1965 0.621783271953273
走向 1
刺史 1
蓋@@ 1
泽 1
簡介 1
莊@@ 1
号@@ 1
证明 1
習性 1
更新 1
記錄 1
軌道 1
自動 1
沒@@ 1
身體 1
共和@@ 1
瓜@@ 1
剛@@ 1
設備 1
茂@@ 1
访 1
评价 1
宪法 1
69 1
近年 1
經常 1
專業 1
邻 1
針@@ 1
上海@@ 1
庭@@ 1
召开 1
冠軍@@ 1
奈 1
劍 1
社區 1
蕭@@ 1
魂 1
脉 1
瓜 1
1969 0.5840600522185867
管理局 1
89 1
扶@@ 1
某 1
87 1
間@@ 1
北美 1
名為 1
84 1
闭 1
洛杉@@ 1
碼@@ 1
柔@@ 1
原子 1
牙语 1
級@@ 1
事業 1
胜@@ 1
虑 1
国内 1
障@@ 1
訓 1
跡 1
責 1
际@@ 1
解釋 1
1959 0.7043117122802653
07 1
俊@@ 1
团体 1
狱 1
l 0.0682050681174239
由此 1
仙 1
昂@@ 1
98 1
生成 1
阻止 1
诗 1
助理 1
经历 1
九龍 1
日军 1
代理 1
壽@@ 1
類似 1
太陽 1
荒@@ 1
敬 1
丈夫 1
廣泛 1
p@@ 0.06372337556236053
宾@@ 1
標為 1
胞@@ 1
─ 1
營運 1
太空 1
um 0.08069300230218449
驗@@ 1
恶@@ 1
登上 1
健 1
出版社 1
起源 1
同盟 1
订 1
汪@@ 1
規劃 1
光緒 1
1942 0.6086222553424697
名为 1
電台 1
91 1
93 1
到达 1
96 1
啟 1
利益 1
籌@@ 1
鮮@@ 1
練@@ 1
小學 1
許多@@ 1
物理@@ 1
鄧@@ 1
译@@ 1
省委 1
國民@@ 1
服役 1
升格 1
1957 0.7115916881739008
串 1
犯@@ 1
委书记 1
浙江省 1
例@@ 1
1953 0.7552352659003196
兒童 1
偉@@ 1
現代 1
暗 1
破壞 1
剛 1
改制 1
题@@ 1
錫@@ 1
1936 0.726148469220814
參賽 1
卜@@ 1
第六 1
热带 1
斯克 1
蒸@@ 1
痛 1
理事 1
媒 1
牵@@ 1
糖@@ 1
图书馆 1
高級 1
跨 1
军事@@ 1
养@@ 1
勇 1
中期 1
扬 1
敌 1
價值 1
a@@ 0.12699256947820603
謂 1
1967 0.5744491603939686
苗@@ 1
al 0.03210799422882374
翠@@ 1
比利@@ 1
翁 1
购 1
进一步 1
域@@ 1
双 1
r@@ 0.07276290682760941
叫@@ 1
昭和 1
頻@@ 1
买 1
歇@@ 1
生物@@ 1
弟弟 1
辞@@ 1
92 1
襲@@ 1
ant 0.07083891477081053
83 1
改变 1
轨@@ 1
II 0.19760504076241694
託 1
逝 1
批评 1
艦@@ 1
邮@@ 1
派出 1
給予 1
化学 1
縮 1
德里 1
背 1
討論 1
湘@@ 1
君主 1
样@@ 1
唐朝 1
賽季 1
未知 1
室@@ 1
n@@ 0.06283737789338237
站台 1
科学院 1
上市 1
魔 1
彼得 1
譜 1
拆除 1
頁 1
主力 1
賴@@ 1
事情 1
贸易 1
唯@@ 1
繪@@ 1
星系 1
以南 1
24@@ 1
絲@@ 1
伦敦 1
湖北 1
孫 1
怪 1
編 1
醇 1
羽 1
市政府 1
王子 1
敦 1
棒球 1
天津@@ 1
实施 1
破坏 1
江苏 1
积 1
王国 1
改編 1
討@@ 1
海道 1
中共中央 1
打算 1
1962 0.6213331610677723
i@@ 0.09724440642428832
山峰 1
伊利 1
凝@@ 1
戰鬥@@ 1
1943 0.5824617416289386
濟 1
码 1
奏@@ 1
駛 1
薛@@ 1
灵 1
拉丁@@ 1
偵@@ 1
94 1
申請 1
计算 1
吨 1
擬 1
欧 1
跟@@ 1
校长 1
违@@ 1
万人 1
藤 1
患 1
灭 1
來源 1
03 1
姚@@ 1
辆 1
疆@@ 1
希臘 1
指揮 1
順 1
聞 1
争议 1
1961 0.6416540710325087
1951 0.766288748488293
斯洛@@ 1
原住民 1
狗 1
汝@@ 1
从事 1
统 1
以北 1
爾斯 1
餐 1
岳@@ 1
课@@ 1
則是 1
綱 1
待@@ 1
體系 1
熟@@ 1
1963 0.6128785042927672
煤@@ 1
化学@@ 1
车辆 1
作戰 1
靠近 1
卫星 1
謀 1
寮 1
江苏@@ 1
议院 1
姐@@ 1
有限 1
外部 1
减少 1
吐@@ 1
广东省 1
人數 1
成都 1
06 1
火山 1
公开 1
公元前 1
鄉試 1
殖 1
希腊 1
CD 0.8222353344131412
沿海 1
原有 1
疏@@ 1
f 0.22023979424654666
遇到 1
1935 0.7818349239123157
談 1
胜利 1
下来 1
貴 1
脑 1
广播@@ 1
特性 1
錦標賽 1
此时 1
設計@@ 1
暂@@ 1
午 1
联系 1
涉 1
罗马@@ 1
羅馬 1
式@@ 1
艦隊 1
開放 1
山东省 1
减@@ 1
讚 1
層@@ 1
議院 1
資源 1
正面 1
运输 1
含有 1
伏 1
实际 1
詹姆斯 1
试图 1
历任 1
飲@@ 1
园@@ 1
婚姻 1
現代@@ 1
慧 1
各自 1
粹 1
栽培 1
計算 1
概要 1
郎@@ 1
贊@@ 1
胎 1
靜@@ 1
突破 1
创建 1
徒@@ 1
市长 1
厘米 1
協議 1
组建 1
杂@@ 1
池@@ 1
統治 1
分裂 1
匯@@ 1
收到 1
源于 1
丝 1
市区 1
產業 1
司令部 1
險@@ 1
’ 0.03870196945902337
五月 1
穆斯林 1
09 1
夢@@ 1
长期 1
四川省 1
绪 1
飞 1
地名 1
南非 1
任教 1
飓风 1
辅@@ 1
學位 1
本線 1
首播 1
釋@@ 1
首席 1
隋@@ 1
态@@ 1
參考 1
硫@@ 1
雙方 1
羊@@ 1
暴力 1
淡@@ 1
爆炸 1
轴 1
乃 1
月球 1
空军 1
成绩 1
得名 1
比亚 1
主持人 1
汽@@ 1
彰@@ 1
大廈 1
滅@@ 1
嘉靖 1
波斯 1
置@@ 1
全長 1
欢@@ 1
担@@ 1
進攻 1
頓@@ 1
断@@ 1
紙 1
領導 1
璃 1
SA@@ 1
一款 1
虚@@ 1
主張 1
憑 1
測試 1
筹@@ 1
接替 1
NBA 1
・ 1
西班@@ 1
軌 1
錯@@ 1
婦 1
指挥@@ 1
解決 1
耳 1
奥地利 1
裏 1
频@@ 1
障 1
持有 1
忙 1
敘@@ 1
电子@@ 1
戶@@ 1
毫@@ 1
部門 1
模 1
卡尔 1
不断 1
滑 1
髮 1
革命@@ 1
意外 1
雷斯 1
欲 1
撞 1
萧@@ 1
屬於@@ 1
两人 1
洞@@ 1
共產@@ 1
棋@@ 1
俱樂部 1
恰@@ 1
互 1
啟用 1
風暴 1
獻@@ 1
隐@@ 1
蓮@@ 1
小组 1
反映 1
康熙 1
教育部 1
傾@@ 1
训 1
沿 1
篮@@ 1
十三 1
肖@@ 1
农村 1
傅@@ 1
兄@@ 1
牙 1
× 1
市中心 1
怕 1
又称 1
阿根廷 1
所在@@ 1
质量 1
首相 1
商人 1
銜 1
电影@@ 1
厚@@ 1
賀@@ 1
97 1
抑@@ 1
解决 1
萊 1
半岛 1
济 1
理解 1
空中 1
拘@@ 1
同名 1
AR@@ 0.8398505083663398
解释 1
况 1
投資 1
误 1
然後@@ 1
女儿 1
衝突 1
良好 1
番@@ 1
裕 1
意志 1
十六 1
斯拉夫 1
圖書館 1
控制@@ 1
河北 1
04 1
御史 1
戀@@ 1
双方 1
發動 1
承认 1
申 1
图示 1
纵@@ 1
粵@@ 1
凡@@ 1
割 1
曰 1
锦@@ 1
吧 1
恆星 1
運作 1
移動 1
沖 1
豆 1
愛爾@@ 1
杭州 1
戲 1
资格 1
所在 1
700 1
天堂 1
克兰 1
廣東 1
性能 1
榜@@ 1
圓 1
咖@@ 1
喜歡 1
构成 1
文明 1
撰@@ 1
民間 1
缺 1
讯 1
锦标赛 1
出售 1
没 1
错@@ 1
AS@@ 0.8288304892723054
实验 1
耀@@ 1
共产党 1
評論 1
气候 1
~ 1
指示 1
河道 1
衔 1
b@@ 0.06240342377070776
探 1
霸@@ 1
保障 1
團隊 1
般@@ 1
互相 1
視為 1
僧@@ 1
碳 1
输入 1
只要 1
荷蘭 1
高等 1
职务 1
本作 1
训练 1
实行 1
奥运会 1
学会 1
熙 1
日治 1
特徵 1
指控 1
k@@ 0.06794439676562541
叔@@ 1
偶像 1
繼 1
握 1
福建@@ 1
常委 1
氣象 1
袭击 1
几个 1
態@@ 1
实验@@ 1
針 1
卡拉 1
牆 1
翻 1
载@@ 1
斑@@ 1
分类 1
勢力 1
在位 1
荷 1
消失 1
永 1
完工 1
方便 1
甫 1
揮@@ 1
物质 1
社会主义 1
荣 1
利斯 1
明星 1
未有 1
泛@@ 1
為止 1
服务@@ 1
獨 1
尺@@ 1
每天 1
兩種 1
醒 1
莊 1
总部 1
纸 1
接收 1
民族@@ 1
詹@@ 1
追 1
胸@@ 1
释@@ 1
工业@@ 1
维亚 1
静@@ 1
執導 1
套@@ 1
吾@@ 1
支持@@ 1
此站 1
拼@@ 1
重庆 1
分支 1
娘 1
应该 1
娃 1
英里 1
肥@@ 1
o@@ 0.07655874894726948
警告 1
南極洲 1
旅游 1
押 1
漁@@ 1
農 1
幽@@ 1
弦 1
幸 1
考慮 1
税 1
结合 1
勵 1
檔 1
聽@@ 1
添@@ 1
法庭 1
最多 1
夷 1
条约 1
狀@@ 1
郊 1
留在 1
妇@@ 1
珍 1
球员 1
殿@@ 1
泥@@ 1
泥 1
強烈 1
恩省 1
創辦 1
燈 1
召 1
世界大战 1
楼@@ 1
蒋@@ 1
防止 1
鍵 1
紋 1
峡 1
尽@@ 1
穩定 1
儒@@ 1
续@@ 1
宽@@ 1
科学@@ 1
碟 1
访问 1
1933 0.6380983024059937
仿 1
掘 1
臨時 1
治疗 1
120 1
巧 1
专家 1
確定 1
上升 1
拿下 1
氯@@ 1
汰 1
苦@@ 1
堪@@ 1
汇 1
1928 0.7266873987994421
小学 1
天文台 1
每日 1
願@@ 1
刚 1
地點 1
怪@@ 1
筆@@ 1
港口 1
颜@@ 1
辭@@ 1
司法 1
現象 1
催@@ 1
巴赫 1
熊 1
河南省 1
1% 1
用来 1
ia 0.10532819344995244
戒 1
教会 1
开发@@ 1
el 0.011635470626953895
地利 1
毛泽东 1
轟@@ 1
所屬 1
顧 1
敢 1
細 1
ar 0.04497712707403093
獵@@ 1
腳@@ 1
寶 1
26@@ 1
共产@@ 1
事务 1
辛 1
镜 1
织@@ 1
身分 1
予@@ 1
cn 1
硕@@ 1
盡 1
悲@@ 1
驚@@ 1
艾 1
份@@ 1
蛋 1
規 1
蛋@@ 1
坛 1
摧@@ 1
玛 1
羊 1
1931 0.7777725615342065
50@@ 1
賢 1
俘 1
忽@@ 1
贾@@ 1
1932 0.7430459772166703
龄 1
codice 1
1927 0.7828556423002148
祝 1
愿 1
愿@@ 1
许 1
郡@@ 1
寿@@ 1
鼻@@ 1
嫌 1
潭 1
純@@ 1
逆@@ 1
補 1
繞 1
搬@@ 1
绍@@ 1
蛛 1
惡 1
蹈 1
返@@ 1
賴 1
儲@@ 1
研 1
壁@@ 1
澤 1
规 1
麻 1
掌 1
蔣@@ 1
邁@@ 1
Z 0.9209937208002733
偷@@ 1
顺 1
汀 1
麟 1
鬥@@ 1
振 1
柱@@ 1
硬 1
缅@@ 1
矛@@ 1
讲 1
料@@ 1
脅 1
晉 1
Ch@@ 0.09190480394276522
or 0.029018949318153943
殼 1
謝 1
畢@@ 1
针 1
跑@@ 1
既 1
解放@@ 1
腐@@ 1
完 1
10.@@ 1
隶 1
晶 1
盐@@ 1
es 0.016390073740253953
盐 1
拟 1
繪 1
层@@ 1
赖@@ 1
1934 0.6737352604997651
增 1
折 1
颗 1
键 1
40@@ 1
档 1
貝 1
杂 1
IN@@ 1
窗@@ 1
贝 1
俊 1
狂@@ 1
縮@@ 1
誕@@ 1
困 1
芒 1
蝶 1
中国人民@@ 1
祝@@ 1
祠 1
駛@@ 1
礦@@ 1
at 0.01580744861990675
储@@ 1
筆 1
纪 1
27@@ 1
濱 1
亡@@ 1
BS 1
賈@@ 1
g@@ 0.056658008804059336
23@@ 1
势@@ 1
丰 1
祥@@ 1
茵 1
慢@@ 1
冯@@ 1
謀@@ 1
亨@@ 1
邑 1
範 1
豆@@ 1
欣@@ 1
撰 1
媒@@ 1
拳@@ 1
廖@@ 1
枪@@ 1
谢 1
峰@@ 1
翔 1
堆 1
沟 1
蹟 1
Q 1
丸 1
夕 1
l@@ 0.05347574491767272
鐘 1
继 1
阪 1
仪 1
兄 1
礙 1
锡 1
妹@@ 1
al@@ 0.05162861599945154
1929 0.6582636968212583
沉 1
‘ 0.6765128498713323
雀 1
am 0.04716295131383223
炸 1
烟@@ 1
悉 1
锋 1
鍾 1
憶 1
贈 1
袋 1
兒@@ 1
痛@@ 1
灭@@ 1
店@@ 1
80@@ 1
奎@@ 1
宅 1
千米 1
雌@@ 1
束 1
缓@@ 1
衡@@ 1
姜@@ 1
ー 1
旨 1
夠 1
祿 1
麵 1
秘 1
慧@@ 1
蹤 1
零 1
覺@@ 1
祭 1
螺 1
聘 1
28@@ 1
宛 1
杜 1
刷 1
en 0.005576504443258715
斑 1
赞 1
1918 0.537342898779957
噴@@ 1
鲍@@ 1
雍@@ 1
欢 1
戒@@ 1
1912 0.7253789135219996
惟@@ 1
剑 1
緬@@ 1
彌@@ 1
贵 1
汤@@ 1
AT 1
寬@@ 1
洪 1
滩 1
委員@@ 1
屈@@ 1
for 0.011630543789950697
劍@@ 1
OS 1
逃 1
避 1
拖@@ 1
擾 1
耐@@ 1
暨 1
岸@@ 1
邵@@ 1
の 1
m@@ 0.06396989234260397
矿 1
扬@@ 1
寒@@ 1
剪@@ 1
坑@@ 1
響@@ 1
濃@@ 1
課 1
猛@@ 1
敗@@ 1
腔 1
聚 1
巫@@ 1
f@@ 0.048850911669758024
腓@@ 1
漫 1
肌@@ 1
... 0.2692926878462274
构 1
鬼@@ 1
碧@@ 1
z 0.11788172984795826
崎 1
患@@ 1
朴@@ 1
鹿 1
激 1
栖@@ 1
姊@@ 1
句@@ 1
驾@@ 1
et 0.009981068825422351
披@@ 1
盆@@ 1
災 1
辭 1
討 1
戀 1
峽 1
勤@@ 1
刚@@ 1
补 1
脫 1
v@@ 0.06389801062665595
壮@@ 1
晋 1
蟹 1
壤 1
→ 1
枢@@ 1
豐 1
监 1
珊@@ 1
薄@@ 1
郊@@ 1
泊@@ 1
粒 1
翼@@ 1
擅@@ 1
斷@@ 1
菌@@ 1
滨 1
瑪 1
覽 1
朱 1
忍@@ 1
斜@@ 1
兆@@ 1
銀 1
了@@ 1
创 1
灾 1
额@@ 1
黄 1
姬 1
AT@@ 1
in@@ 0.03651586146072824
旺 1
搖@@ 1
AC@@ 0.7723954397436417
況 1
燕 1
胺 1
1919 0.5595626764103449
獅@@ 1
鸟 1
氨@@ 1
呎 1
既@@ 1
谓 1
猪@@ 1
陀 1
怖 1
項@@ 1
1924 0.6457280990309374
as 0.009446063258644397
覽@@ 1
械@@ 1
.@@ 0.16619953351401076
谱 1
杭@@ 1
佩 1
划 1
密度 1
卷@@ 1
掩@@ 1
碩@@ 1
磯 1
17@@ 1
鐘@@ 1
钟@@ 1
覆 1
礁 1
搬 1
冬 1
賣@@ 1
悬@@ 1
撒 1
触 1
必 1
頻 1
AM@@ 1
id 0.20592835332549436
笼@@ 1
赖 1
丑 1
献@@ 1
繫 1
on@@ 0.06038206748227734
襄@@ 1
坝 1
災@@ 1
凱 1
輻@@ 1
觉@@ 1
芳@@ 1
霸 1
昇 1
菩@@ 1
晓@@ 1
v 0.2338278621677847
龐@@ 1
鹽 1
雖@@ 1
倾@@ 1
盡@@ 1
罰 1
1925 0.6540646004767641
涵@@ 1
陪@@ 1
旨@@ 1
叔 1
玩 1
秦 1
檔@@ 1
隸 1
胁 1
稀@@ 1
備@@ 1
1917 0.5952989783525546
喪@@ 1
錯 1
1926 0.6387974734112198
镜@@ 1
毕@@ 1
漸 1
癌 1
罩 1
Google 1
1914 0.5803399998472601
嘗@@ 1
鎖 1
倉 1
誤@@ 1
DVD 1
耀 1
尖 1
km 0.13450426979257604
屯 1
碳@@ 1
宪@@ 1
12.@@ 1
毗@@ 1
着@@ 1
跳 1
詳@@ 1
胡 1
負責@@ 1
轨 1
優 1
29@@ 1
冀@@ 1
鏡@@ 1
偶 1
软@@ 1
稅 1
燒 1
矩@@ 1
勋@@ 1
貓 1
運動@@ 1
ch@@ 0.04319596304205604
柏 1
耗@@ 1
励 1
斐@@ 1
噶@@ 1
租 1
抓@@ 1
茅@@ 1
an@@ 0.044772788305016485
匹 1
菊@@ 1
訴@@ 1
鄂@@ 1
绘@@ 1
览 1
喇@@ 1
際@@ 1
疆 1
农 1
樣@@ 1
褐@@ 1
蒲@@ 1
菜@@ 1
休 1
亨 1
附 1
1922 0.6267513805592123
載@@ 1
牧 1
罗斯 1
崖 1
叉 1
訂@@ 1
毅 1
裂@@ 1
者@@ 1
el@@ 0.05043141739489398
俠 1
績 1
縱@@ 1
卖 1
隨 1
織@@ 1
壽 1
拳 1
ac@@ 0.06982205034606578
審 1
狼 1
幫@@ 1
馮@@ 1
豹 1
伸@@ 1
基督@@ 1
轰@@ 1
肃@@ 1
司令@@ 1
250 1
瘤 1
柄 1
塘@@ 1
话@@ 1
谋 1
烷 1
逼@@ 1
岡 1
1.5 1
犬 1
訓@@ 1
邱@@ 1
匹@@ 1
壞 1
紹@@ 1
燒@@ 1
漸@@ 1
漠 1
窗 1
巧@@ 1
懸@@ 1
穴 1
谈 1
碰@@ 1
帅 1
娱@@ 1
巷 1
胶@@ 1
肃 1
屏 1
稍@@ 1
藉 1
迦@@ 1
貼 1
鷹 1
叛 1
笔@@ 1
館@@ 1
ar@@ 0.047344539510091356
堡@@ 1
磨@@ 1
幼 1
奠@@ 1
阻 1
塑 1
夺 1
吻 1
码@@ 1
岳 1
泡 1
饰@@ 1
妙 1
彻@@ 1
柬@@ 1
吏@@ 1
爆 1
葡@@ 1
梵@@ 1
識@@ 1
j@@ 0.05978096809360949
芭@@ 1
1921 0.6001229730749212
喷@@ 1
仿@@ 1
银 1
MV 1
脊@@ 1
$ 0.14614298255256608
Al@@ 0.07841961140171816
浙@@ 1
珊 1
幫 1
验@@ 1
险@@ 1
耕@@ 1
鼓 1
w 0.17804859628732062
棘 1
CO@@ 0.8772102706618469
映@@ 1
ic@@ 0.08903861026755097
剑@@ 1
AN@@ 1
挖@@ 1
买@@ 1
貨 1
Ar@@ 0.08884736577256966
en@@ 0.031263202610417824
悠@@ 1
震 1
砂@@ 1
吞@@ 1
韓 1
101 1
it 0.02150933450271997
圭 1
梦@@ 1
IC@@ 0.898159798382008
盜 1
杨 1
濱@@ 1
雇@@ 1
遣@@ 1
60@@ 1
稻@@ 1
揚@@ 1
亥@@ 1
11.@@ 1
ン 1
纹 1
賢@@ 1
斜 1
緊 1
Re@@ 0.08627033961107582
3000 1
奔@@ 1
韦 1
刀@@ 1
邻@@ 1
鯉 1
1913 0.6529159866812478
1911 0.6905147581866544
囊 1
蕨 1
偉 1
络@@ 1
婆 1
祈@@ 1
織 1
1923 0.595783830744432
臘@@ 1
聘@@ 1
淑@@ 1
婦@@ 1
洗 1
篇@@ 1
暴 1
AP@@ 1
崩@@ 1
彰 1
尹@@ 1
徵 1
℃ 1
碎@@ 1
ensis 0.5821079631899105
橡@@ 1
踏@@ 1
臂 1
綱@@ 1
貫 1
勞 1
腦@@ 1
損 1
碎 1
藍 1
課@@ 1
疏 1
la 0.0036781409203744684
妇 1
靜 1
澎@@ 1
ST@@ 1
泳@@ 1
嚴 1
恨 1
蔡 1
α 0.7597565469169463
贡 1
卢 1
劫 1
娶 1
鸟@@ 1
削@@ 1
税@@ 1
講 1
販@@ 1
倉@@ 1
绝 1
署@@ 1
件@@ 1
南極@@ 1
耗 1
棕@@ 1
雕 1
彥 1
劳 1
桃 1
沟@@ 1
鮑@@ 1
窄 1
1900 0.5953012440123621
韋 1
ed 0.016566260341546634
琪 1
秩@@ 1
疾@@ 1
习 1
厥 1
惜 1
拔@@ 1
35@@ 1
勃 1
薦 1
罕 1
適 1
扭@@ 1
努 1
燈@@ 1
担 1
损 1
氢@@ 1
氧 1
筒 1
腦 1
销 1
埋@@ 1
mm 0.40017872266003374
槽 1
11@@ 0.815700828839679
藻 1
診@@ 1
午@@ 1
買@@ 1
笔 1
賞@@ 1
誠@@ 1
哪@@ 1
as@@ 0.05312407337935692
遍@@ 1
卵@@ 1
赤 1
辨@@ 1
鬥 1
宏 1
纯@@ 1
冕 1
廠@@ 1
乳 1
橄@@ 1
亩 1
腿 1
賜 1
铸@@ 1
錦 1
没@@ 1
灾@@ 1
腊@@ 1
額@@ 1
減 1
曉@@ 1
le 0.00856196473186625
怎@@ 1
厝 1
ol@@ 0.06942588243714226
妮@@ 1
才@@ 1
串@@ 1
亿 1
ation 0.024377173723619323
歉 1
饮@@ 1
u@@ 0.07104886034307875
雜 1
坡@@ 1
哲 1
DNA 1
禄 1
伟@@ 1
丝@@ 1
# 0.42847123004296794
階 1
湿@@ 1
戊@@ 1
軸@@ 1
问@@ 1
婆@@ 1
仇@@ 1
细 1
箭 1
帥 1
藩@@ 1
链@@ 1
or@@ 0.04900322623730912
薇 1
UN@@ 0.8800457649215004
评 1
顿@@ 1
蓮 1
暖 1
溯 1
閱@@ 1
冲 1
灰 1
軟 1
宰@@ 1
Co@@ 0.13398849362432094
900 1
溝@@ 1
杆 1
侧@@ 1
些 1
练@@ 1
阪@@ 1
竣@@ 1
办公@@ 1
览@@ 1
诚 1
粮@@ 1
听 1
‧ 1
1909 0.724483474591426
纽 1
蓬@@ 1
ER@@ 0.856300703080448
媽@@ 1
陈 1
疗 1
110 1
190@@ 1
苯@@ 1
合物 1
欣 1
否 1
独 1
尿@@ 1
巢 1
題@@ 1
终 1
舟 1
仇 1
嗣 1
拱@@ 1
囚@@ 1
梯@@ 1
忆 1
緩@@ 1
Sh@@ 0.1111992169054572
th@@ 0.05672141640869366
吹@@ 1
町@@ 1
缩 1
愈 1
丧@@ 1
株 1
玲 1
屍@@ 1
勳@@ 1
蔣 1
腾@@ 1
脂@@ 1
錢@@ 1
姆斯 1
虹 1
奶@@ 1
寓 1
葬@@ 1
觸@@ 1
采 1
凯 1
恭@@ 1
厦 1
磷@@ 1
ate 0.03914428529377655
蛇@@ 1
私 1
庇@@ 1
In@@ 0.08011937727259497
讷@@ 1
贫@@ 1
扁 1
煙@@ 1
亲 1
廟@@ 1
w@@ 0.050637571137256705
恆@@ 1
烧@@ 1
軌@@ 1
琳@@ 1
辯@@ 1
己@@ 1
解放军 1
闻 1
狂 1
平方@@ 1
NH@@ 1
1916 0.6220050181996711
诞@@ 1
逻@@ 1
天文@@ 1
辩@@ 1
癌@@ 1
膠 1
够 1
辟 1
订@@ 1
推 1
灘 1
夷@@ 1
涌 1
繁 1
貧@@ 1
循 1
擁@@ 1
履@@ 1
她@@ 1
棟 1
屿 1
HR 1
斥 1
飯 1
吾 1
出版@@ 1
甜@@ 1
貞@@ 1
医 1
樞@@ 1
壳 1
圳@@ 1
圈@@ 1
碑@@ 1
2.5 1
岗@@ 1
芝 1
豫@@ 1
嘴 1
遮@@ 1
啡 1
消 1
中华人民@@ 1
罷@@ 1
齿 1
芒@@ 1
1910 0.5387431009380181
锁 1
靖@@ 1
鰭@@ 1
找@@ 1
畔 1
误@@ 1
棉@@ 1
0.0 1
堤 1
眠 1
滋@@ 1
1915 0.5910742225732116
ph@@ 0.0869153395615458
页 1
沼@@ 1
撫 1
般 1
脱 1
陀@@ 1
肇@@ 1
AK@@ 1
踪 1
荐 1
蘋@@ 1
赠 1
铺 1
13.@@ 1
罚 1
遣 1
吃@@ 1
鯉@@ 1
ot@@ 0.07524242885915026
倡@@ 1
紙@@ 1
祐 1
償 1
贺@@ 1
CA@@ 0.6047060613196732
90@@ 1
弱@@ 1
桌@@ 1
椅 1
頗 1
鹽@@ 1
澄@@ 1
斯科 1
挂 1
灯 1
戌 1
專 1
70@@ 1
多数 1
滕@@ 1
а 0.0711258152997215
朵 1
姑@@ 1
汗@@ 1
茂 1
寿 1
昭 1
裕@@ 1
搭 1
项@@ 1
浓@@ 1
逾 1
卸@@ 1
坂@@ 1
魁@@ 1
湾@@ 1
脚@@ 1
距@@ 1
框@@ 1
龜 1
筑 1
审 1
遲 1
悉@@ 1
楊 1
An@@ 0.05799514220482031
閉@@ 1
嫁@@ 1
肝@@ 1
紐 1
蝶@@ 1
ad@@ 0.04616357316220556
漂@@ 1
憶@@ 1
铜 1
炭 1
侦@@ 1
仑 1
墨 1
話@@ 1
轴@@ 1
烯 1
肥 1
扣@@ 1
緒 1
輔 1
ine 0.05556373514801031
z@@ 0.04287150052391422
騎 1
它@@ 1
碍 1
詢 1
僧 1
盘@@ 1
誠 1
抢@@ 1
孕 1
兽 1
吸 1
摔@@ 1
懷 1
鈴@@ 1
熔@@ 1
er@@ 0.03040806275834503
析@@ 1
你@@ 1
材@@ 1
馆@@ 1
霞 1
擬@@ 1
Th@@ 0.09651633464665776
掛 1
释 1
鐸 1
惊@@ 1
靠@@ 1
1901 0.7110458580443617
株@@ 1
5000 1
睛 1
绘 1
TV@@ 1
乾 1
幹 1
鼎@@ 1
赶@@ 1
man 0.054142615133567565
割@@ 1
os 0.03557826291922254
乙 1
拟@@ 1
PC 0.8799165624165444
冈@@ 1
醫 1
貫@@ 1
禦 1
错 1
启 1
桂 1
14.@@ 1
珀 1
UTC 1
酮 1
孝 1
紛 1
汽 1
蕃 1
AC 0.5600481725360277
徙 1
训@@ 1
哺@@ 1
1905 0.5614559303177122
慎 1
瓶 1
贤 1
璋 1
乌 1
恋 1
躍@@ 1
扰 1
鴻@@ 1
誉@@ 1
純 1
180 1
渔@@ 1
趕@@ 1
缸 1
厦@@ 1
霖 1
潔 1
RA@@ 0.7721571683617883
负 1
猜@@ 1
伙@@ 1
翁@@ 1
TE@@ 1
勳 1
斌 1
涵 1
脊 1
閃@@ 1
丞 1
坎 1
课 1
盧 1
忌 1
攜@@ 1
欺@@ 1
匈@@ 1
猫 1
嫩 1
驶 1
讨 1
弄 1
陶 1
am@@ 0.054204772835624755
栗 1
YouTube 1
庞@@ 1
蝠 1
伽 1
鬆 1
3D 1
嗣@@ 1
仕 1
130 1
仰@@ 1
太平@@ 1
揮 1
頒 1
． 1
跃 1
析 1
ie 0.045721619504053734
匯 1
吊@@ 1
紛@@ 1
箭@@ 1
酯 1
抱@@ 1
详@@ 1
33@@ 1
庵 1
敲@@ 1
屆@@ 1
伽@@ 1
裸@@ 1
弥@@ 1
凭@@ 1
霍 1
钟 1
尝@@ 1
誓 1
John 0.0854998019509868
ch 0.07676107377643637
促 1
昔@@ 1
潘 1
稅@@ 1
劫@@ 1
止@@ 1
透 1
庚@@ 1
軸 1
伟 1
竟 1
阅@@ 1
纸@@ 1
麓 1
柳 1
牲 1
抚@@ 1
吏 1
熙@@ 1
肢 1
鱸 1
捲 1
com 1
鑑 1
is@@ 0.04938207172400733
慈 1
募 1
俘@@ 1
协 1
危 1
37@@ 1
傅 1
札@@ 1
á 0.26494773428477564
雖 1
翰 1
om@@ 0.06928801451885079
圆 1
纲 1
润 1
160 1
把@@ 1
岗 1
闭@@ 1
殷@@ 1
摇@@ 1
い 1
穆 1
娅 1
氟@@ 1
磨 1
培 1
刘 1
珀@@ 1
江省 1
疗@@ 1
冈 1
雞 1
攀@@ 1
裴@@ 1
34@@ 1
嘴@@ 1
己 1
链 1
盤@@ 1
TO@@ 1
棲@@ 1
赏 1
廢 1
又@@ 1
1903 0.6470037930232715
ad 0.10457477468966966
娛@@ 1
臟 1
糕 1
叉@@ 1
纯 1
脑@@ 1
抵 1
央@@ 1
稍 1
哀@@ 1
RE@@ 0.9133856675069757
怖@@ 1
塌 1
穌 1
灯@@ 1
厂@@ 1
暫 1
忍 1
赴@@ 1
奶 1
臣@@ 1
Con@@ 0.07449232965288642
茄 1
抱 1
辐@@ 1
桓@@ 1
狹@@ 1
IM@@ 0.967537578627876
尤 1
瑜 1
1500 1
靖 1
須@@ 1
廉 1
36@@ 1
椎 1
蜂 1
狼@@ 1
睡@@ 1
薄 1
1908 0.5356922150710695
寒 1
莲@@ 1
崙 1
噸 1
PlayStation 1
os@@ 0.08263466054561555
夸@@ 1
闽@@ 1
触@@ 1
辱 1
SO@@ 1
鼠@@ 1
侍 1
储 1
秉@@ 1
浩 1
緩 1
抚 1
腺@@ 1
奔 1
舱 1
刷@@ 1
尺 1
抄@@ 1
帽 1
о 0.09170516466827888
140 1
烧 1
漳@@ 1
嫁 1
遞 1
忘@@ 1
蝙@@ 1
葵@@ 1
ES@@ 0.6018447431686621
ana 0.07819238343804176
佑 1
甘 1
style 0.20577671672222284
衝 1
脚 1
Category 1
拥@@ 1
滾 1
詢@@ 1
姿@@ 1
舌@@ 1
矩 1
Or@@ 0.13083701861114244
煌 1
蜜@@ 1
憲 1
牽@@ 1
床@@ 1
猎@@ 1
遼@@ 1
Mar@@ 0.06316253450987795
勘@@ 1
仓@@ 1
殊@@ 1
诉@@ 1
庸 1
酷 1
静 1
黛@@ 1
閩@@ 1
颶@@ 1
陝@@ 1
獵 1
俄羅@@ 1
厢 1
蕾@@ 1
鼎 1
un@@ 0.03022845994069416
邪 1
盈@@ 1
禎 1
譚@@ 1
泡@@ 1
僚 1
浸@@ 1
粹@@ 1
媽 1
运动会 1
1906 0.5510088210283368
荒 1
逆 1
NGC 0.9511559896521081
顾 1
1907 0.5468311763803126
BD 1
累 1
align 0.8356560087354138
SE@@ 0.6426157957412026
丛 1
泛 1
滕 1
沪 1
棚 1
廂 1
at@@ 0.047281766028523235
賀 1
赐 1
杉@@ 1
綠 1
弘 1
硝@@ 1
键@@ 1
妖@@ 1
款@@ 1
鉴@@ 1
lo@@ 0.06017276267856195
阶 1
软 1
扇 1
鯰@@ 1
堆@@ 1
炎@@ 1
罢@@ 1
矶 1
賊 1
CH@@ 0.8705862686545676
尽 1
劣 1
匠 1
梦 1
III 0.22078518106864523
by 0.007888384953964003
矮@@ 1
迟 1
樑 1
幢 1
貓@@ 1
1904 0.5642613858926474
垃@@ 1
坤 1
欄 1
蕾 1
鸡@@ 1
re@@ 0.015599956782486869
宴 1
翅@@ 1
16.@@ 1
colspan 1
渠 1
霧 1
厄 1
廿@@ 1
鋼 1
逸@@ 1
駁 1
冯 1
辉 1
滾@@ 1
15.@@ 1
幅@@ 1
携@@ 1
蟲@@ 1
废 1
琼@@ 1
劾 1
焚@@ 1
oc@@ 0.06835498068849158
ul@@ 0.05626160211975336
艙 1
LO@@ 1
榴@@ 1
荆@@ 1
慣 1
薪@@ 1
蛙 1
蜀 1
採 1
钦@@ 1
RO@@ 1
籤 1
錫 1
PS@@ 0.9630150779432977
毀@@ 1
臀@@ 1
括 1
歧 1
侶 1
Car@@ 0.08702955045649771
棠 1
櫻@@ 1
邪@@ 1
100@@ 1
拯@@ 1
銘 1
ers 0.025510584847505798
淺@@ 1
壬@@ 1
漏@@ 1
妻@@ 1
酷@@ 1
\ 1
翡@@ 1
融 1
FC 0.20640516627950764
尸@@ 1
涛 1
贯@@ 1
访@@ 1
IC 1
贸@@ 1
彗@@ 1
鞍@@ 1
募@@ 1
绥@@ 1
趨@@ 1
帆@@ 1
疾 1
肩@@ 1
行政区@@ 1
纤@@ 1
潭@@ 1
膨@@ 1
喬 1
牟@@ 1
卵 1
苯 1
45@@ 1
埠 1
炳@@ 1
MS 0.7518368077342026
爐 1
概 1
椒 1
擋 1
ve 0.032680962666262345
輛@@ 1
st@@ 0.03487162466837076
Le@@ 0.08098175148596135
爺 1
診 1
貢 1
one 0.02244235103626731
Tr@@ 0.06790193307627788
邸 1
it@@ 0.04621874541395703
嫌@@ 1
减 1
AL@@ 0.9226799015795499
究 1
闊 1
? 0.21096340086296228
奎 1
腹 1
吴 1
諮 1
烏 1
截 1
躍 1
Linux 1
38@@ 1
籲 1
AD@@ 0.7795359800485517
劉 1
庶 1
17.@@ 1
兆 1
坏 1
拆 1
虹@@ 1
伙 1
執 1
涂@@ 1
询 1
ap@@ 0.06020954374252784
搶 1
39@@ 1
啤@@ 1
暂 1
允 1
color 0.384861193492018
签 1
徐 1
es@@ 0.03776722388851633
ag@@ 0.043568650959985675
瓷 1
閘@@ 1
柯 1
嘛 1
吹 1
骑 1
ter 0.037918841479701766
瞄@@ 1
凸@@ 1
慘@@ 1
礦 1
360 1
鄭 1
鸿@@ 1
韩 1
誰 1
魁 1
扫@@ 1
椎@@ 1
恒 1
函 1
禪@@ 1
鹰 1
胞 1
姬@@ 1
拒 1
贴 1
淺 1
蓄@@ 1
background 0.7259365738342483
BC 0.44178919416761725
须 1
档@@ 1
SP@@ 0.7501527507820315
匣 1
De@@ 0.11422028712998067
卜 1
β 1
栋 1
鳳 1
货 1
鎖@@ 1
蜂@@ 1
軒 1
擺@@ 1
− 0.6329573474019226
愈@@ 1
禧 1
賭@@ 1
乒@@ 1
ata 0.14741060417559543
燃 1
勋 1
ic 0.0592320633823758
j 0.3012654043053578
燥 1
擁 1
汶@@ 1
ent 0.023336489234904275
105 1
徹@@ 1
唇 1
贯 1
邏@@ 1
и 0.006823411959765564
仓 1
掠 1
煤 1
彬 1
盜@@ 1
夾@@ 1
MO@@ 1
皆@@ 1
彙 1
径@@ 1
卖@@ 1
钢 1
帖 1
豬 1
id@@ 0.06248241907242011
son 0.019498510704628144
渠@@ 1
Be@@ 0.0729284296946391
堅 1
逼 1
儒 1
焦 1
勾@@ 1
昏@@ 1
枝@@ 1
350 1
欲@@ 1
淡 1
贞@@ 1
糧@@ 1
輝@@ 1
濕@@ 1
芙@@ 1
撤 1
伪@@ 1
宅@@ 1
掛@@ 1
坂 1
tr@@ 0.034582989399268786
寓@@ 1
潤 1
黏@@ 1
插 1
頃 1
束@@ 1
ina 0.07511778818644027
齒@@ 1
玫@@ 1
Ex@@ 0.10056091689463584
center 0.2672053176444691
AN 0.9580645719936897
纷 1
垣 1
戏 1
怡 1
煙 1
狭@@ 1
浮 1
适 1
粤@@ 1
掠@@ 1
趋@@ 1
梨 1
吳 1
趁@@ 1
ur@@ 0.04861409282475601
蜜 1
惑 1
顷 1
腺 1
仕@@ 1
et@@ 0.05239428796690584
1898 0.5818817485327906
徹 1
縱 1
惟 1
磅 1
纖@@ 1
恶 1
欠@@ 1
响 1
焰 1
氢 1
躲@@ 1
RNA 1
倡 1
懼 1
咒 1
帆 1
鎊 1
迄@@ 1
穗 1
匪 1
盒 1
胎@@ 1
犬@@ 1
勁 1
壯@@ 1
阔 1
粘@@ 1
ec@@ 0.060933951761626144
荃@@ 1
1902 0.5256265204722221
递@@ 1
忘 1
瓣 1
ton 0.06007532391079172
啦 1
DS 0.9448752304510114
墙@@ 1
毁@@ 1
豫 1
da 0.041932560280934006
握@@ 1
跋 1
鞋 1
築 1
NE@@ 0.9346824169744231
BO@@ 1
隙 1
欽@@ 1
挂@@ 1
寇 1
緣@@ 1
豬@@ 1
MP@@ 0.8081272888370149
诊@@ 1
债@@ 1
辅 1
浅@@ 1
卓 1
妥@@ 1
惨@@ 1
18.@@ 1
US@@ 0.37873719898353814
爪@@ 1
ay 0.09218048225868385
洁 1
em@@ 0.04800027504417906
ai 0.1088405520494683
舌 1
text 0.45640267674906665
梨@@ 1
li@@ 0.04861373650732231
標賽 1
孕@@ 1
昆 1
彎@@ 1
赵 1
丞@@ 1
200@@ 0.6828691522650846
弓@@ 1
曝@@ 1
扁@@ 1
1895 0.5862933054162354
歡 1
鶴@@ 1
75@@ 1
St@@ 0.055892166856781604
崇 1
桐@@ 1
墨西@@ 1
败@@ 1
赋@@ 1
螢@@ 1
22@@ 1
汁 1
契 1
í 0.2589540259229151
递 1
玄 1
65@@ 1
咀 1
AM 0.6927346520534341
措 1
墟 1
喻 1
爬@@ 1
sh@@ 0.05020308006325196
驶@@ 1
18@@ 0.9269117606535886
詳 1
飯@@ 1
艮@@ 1
薪 1
酋@@ 1
殉@@ 1
瀑@@ 1
鳴@@ 1
扣 1
葛 1
跌 1
纷@@ 1
隸@@ 1
腰 1
be 0.016530272538738303
偽@@ 1
瑰 1
Br@@ 0.07718537384302628
兔 1
峡@@ 1
逸 1
慰 1
賦@@ 1
鋪 1
偏 1
劝@@ 1
甚 1
仲 1
瓊@@ 1
im@@ 0.04072880726303522
ü 0.7443349624102874
臉@@ 1
怨 1
厅@@ 1
ma 0.09557984358493095
押@@ 1
坚 1
夕@@ 1
盲@@ 1
鯨 1
偿 1
马来@@ 1
鸡 1
骸 1
膠@@ 1
DC 0.5528034484753763
鱗@@ 1
帳@@ 1
癸@@ 1
One 0.1425941712621863
侠 1
禾 1
咨@@ 1
し 1
MI@@ 1
Love 0.33815250889274445
塗@@ 1
鏈 1
竟@@ 1
夥@@ 1
捉 1
SH@@ 1
盗@@ 1
凹@@ 1
拓 1
雞@@ 1
慮 1
怀 1
墅 1
曹 1
ス 1
籍@@ 1
Qu@@ 0.08645113572655343
le@@ 0.045461944105260416
イ 1
岭@@ 1
学位 1
橙@@ 1
19.@@ 1
盗 1
国务@@ 1
恭 1
桶 1
倍@@ 1
繩@@ 1
苹@@ 1
il@@ 0.04996095510271791
貞 1
債@@ 1
RI@@ 0.8597832321144231
驅 1
ā 1
墩 1
3.5 1
糾@@ 1
鴨 1
4000 1
Cor@@ 0.09181968871401294
乔 1
拋@@ 1
稣 1
吁 1
删@@ 1
输 1
娘@@ 1
Par@@ 0.08374700129883617
end 0.04760819167114703
窟 1
BBC 0.4227122592518868
呢 1
貪@@ 1
ed@@ 0.05892239053902618
勸 1
嬰@@ 1
黎 1
韻@@ 1
TH@@ 1
ON@@ 1
卯 1
彦@@ 1
der 0.0032140144506878567
冥@@ 1
郭 1
笑@@ 1
龜@@ 1
疊 1
钠 1
預 1
47@@ 1
雀@@ 1
娥 1
胶 1
漏 1
卸 1
are 0.014282969724293491
挺 1
蓝 1
ん 1
Facebook 1
砂 1
吋 1
World 0.060779193355174656
狩@@ 1
104 1
尹 1
欖@@ 1
齋 1
PS 0.5813791455920395
寵@@ 1
堪 1
ro@@ 0.04673112597904061
е 0.031503290229814185
鯰 1
48@@ 1
肅 1
un 0.006545006214348347
贤@@ 1
恆 1
-- 1
誘@@ 1
偷 1
摘@@ 1
桐 1
108 1
Sp@@ 0.10934310452933921
淨@@ 1
【 1
】 1
纵 1
Com@@ 0.09200374827935584
闪@@ 1
高速@@ 1
55@@ 1
帽@@ 1
潔@@ 1
菊 1
氮 1
慰@@ 1
穩 1
挥 1
Microsoft 0.8418993496867935
幾 1
掃@@ 1
稻 1
ó 0.032011187975103425
册@@ 1
舖 1
170 1
弓 1
券@@ 1
遍 1
凰 1
旱 1
102 1
鳴 1
獅 1
ab@@ 0.028046750955738647
塚 1
with 0.00610353449130189
棘@@ 1
蜘@@ 1
н 0.0741374676008632
※ 1
1896 0.5269369424793523
衍 1
俞@@ 1
晨@@ 1
棄@@ 1
妙@@ 1
1890 0.49546902642226126
岐@@ 1
糊 1
-@@ 0.11201013736080416
詔@@ 1
梭 1
ti@@ 0.03971047414880588
溯@@ 1
贾 1
爪 1
荔@@ 1
AG@@ 1
栏 1
喊 1
牡@@ 1
踢 1
蓬 1
诏 1
46@@ 1
蔽 1
伺@@ 1
Di@@ 0.07762767700983071
瑚 1
荊@@ 1
餅 1
氯 1
罹@@ 1
乓@@ 1
筑@@ 1
札 1
怡@@ 1
憤@@ 1
绕@@ 1
125 1
仗 1
淨 1
墳 1
韶@@ 1
Se@@ 0.08121790753762674
撥@@ 1
103 1
绩 1
膚 1
鼻 1
section 0.2294224876478698
圾 1
ica 0.09180142795751489
斬 1
晴@@ 1
宪 1
摆@@ 1
纺@@ 1
瀨@@ 1
寅 1
Col@@ 0.08613965848208678
董 1
New 0.032696899959320444
op@@ 0.058442875301867925
鄂 1
1897 0.512835507291358
钦 1
鴻 1
杏@@ 1
斋 1
贏 1
VA 1
纠@@ 1
訟 1
丈 1
埋 1
虐@@ 1
た 1
杉 1
LE@@ 1
搞 1
se 0.008063784034302333
DE@@ 0.7144560207361602
飲 1
宰 1
120@@ 1
AR 0.9267547869126267
櫃 1
橫 1
20.@@ 1
AB@@ 0.6976109553412044
萄 1
鑑@@ 1
Bo@@ 0.1042654003525445
Live 0.4533848599080201
魅@@ 1
诸 1
穀 1
桿 1
蓉 1
GB 0.8622343969598035
ah 0.1104813821474497
ae 0.14519031155019918
寡@@ 1
騷@@ 1
柔 1
斐 1
ity 0.04816268591441502
纂 1
齿@@ 1
猎 1
圭@@ 1
CC@@ 0.7251557460170024
49@@ 1
冶@@ 1
猪 1
財 1
ル 1
侨 1
溝 1
106 1
甸@@ 1
猛 1
Mo@@ 0.10733245503490077
蝦 1
di@@ 0.036571577254562435
遙@@ 1
净@@ 1
彭 1
辞 1
撫@@ 1
貿@@ 1
刪@@ 1
紫 1
翅 1
迦 1
弦@@ 1
AI@@ 0.7401632728382207
崛@@ 1
う 1
噪@@ 1
裹 1
炉 1
賠@@ 1
垒 1
畢 1
萍 1
ta 0.058338670259966204
壩 1
ang 0.11350333421608305
ni@@ 0.06636742940339188
帮 1
庶@@ 1
贈@@ 1
療@@ 1
睡 1
葵 1
蜀@@ 1
109 1
祇 1
剩 1
猴 1
Music 0.15819120617177224
滚@@ 1
繳@@ 1
ak 0.09013723484073542
蔬@@ 1
彪 1
拉夫 1
剥@@ 1
Cl@@ 0.18880462627221392
悟 1
俱@@ 1
蜥 1
懲@@ 1
BA 0.608058186358724
泄@@ 1
欽 1
矢@@ 1
綁 1
You 0.2374277528501844
辨 1
1200 1
宦@@ 1
慣@@ 1
紋@@ 1
瓶@@ 1
峻 1
棒@@ 1
喝@@ 1
础@@ 1
铺@@ 1
且@@ 1
恐 1
蜥@@ 1
荡 1
44@@ 1
湯 1
蘿@@ 1
鮮 1
閱 1
1899 0.47619347136967016
湘 1
嵌 1
凉@@ 1
谭@@ 1
夹@@ 1
淮 1
NO@@ 0.8437466308671686
age 0.026436212324419516
te 0.016952002754925668
郁@@ 1
僑 1
Cr@@ 0.1227602433724198
奸 1
鉴 1
耿@@ 1
茎 1
浏@@ 1
俯@@ 1
莲 1
q 0.32898031751278645
+@@ 1
107 1
恰 1
ty 0.06715011049041356
乞@@ 1
彝@@ 1
旭@@ 1
淆 1
磁 1
0.5 1
Android 1
亂@@ 1
参 1
棉 1
SS 0.39175861531945605
Ge@@ 0.09859220674713584
砖@@ 1
窮 1
狙@@ 1
渐@@ 1
坞 1
UA 1
2.0 1
矮 1
廈@@ 1
EN@@ 1
酬 1
ID 1
辉@@ 1
韻 1
虞@@ 1
IP 0.8813088419312018
穩@@ 1
塢 1
IP@@ 1
倪@@ 1
纬 1
VI@@ 0.8084399080141494
簡 1
筋 1
汕@@ 1
崩 1
脏 1
鬚 1
CD@@ 0.4555254069667147
1.2 1
烟 1
惯@@ 1
SM 1
ME@@ 0.8492661947420931
Ne@@ 0.08191046089098188
豚 1
禅@@ 1
鱷 1
銅 1
芽 1
络 1
р 0.08456092527111544
虏 1
晰 1
FI@@ 0.45638961941883205
狮@@ 1
眉 1
烯@@ 1
ol 0.09567890343487331
添 1
RT 0.9632279291621068
戚 1
と 1
详 1
侄@@ 1
冒 1
鹏 1
则@@ 1
招 1
築@@ 1
Ro@@ 0.08940196943245912
婉@@ 1
1889 0.5161358407664013
阜@@ 1
烹@@ 1
暖@@ 1
宴@@ 1
巢@@ 1
醉 1
些@@ 1
掃 1
榆@@ 1
祯 1
po@@ 0.04137012005174261
蝕 1
禦@@ 1
僱@@ 1
氫 1
鹤@@ 1
菱 1
驚 1
璃@@ 1
silver 0.5400271942705371
SS@@ 0.8529609054933702
悼@@ 1
to@@ 0.057309287545231624
喉@@ 1
School 0.06562371876130628
挽@@ 1
ラ 1
Bar@@ 0.0665387832099845
IG@@ 1
ö 1
怒@@ 1
疊@@ 1
骼 1
贏@@ 1
顛@@ 1
騙 1
擲 1
24.@@ 1
SA 0.4013600686349241
• 0.6770181851508462
23.@@ 1
Str@@ 0.08561325557759655
聰@@ 1
銘@@ 1
舟@@ 1
践 1
杖 1
鑽@@ 1
co@@ 0.03426635415879325
Lo@@ 0.1053204531713389
涌@@ 1
肆 1
严 1
搶@@ 1
眉@@ 1
PE@@ 0.9811950207166271
殖民@@ 1
饭@@ 1
115 1
na 0.06138723771204169
腰@@ 1
潰 1
囊@@ 1
狗@@ 1
か 1
繩 1
顆@@ 1
奮@@ 1
蔓@@ 1
擦@@ 1
頸 1
旦@@ 1
騰 1
馮 1
ley 0.06500999912044755
ong 0.10200071169158792
淳 1
碗 1
浴@@ 1
恋@@ 1
描 1
禾@@ 1
鑼@@ 1
ER 1
64@@ 1
MA 0.4968582949386012
擦 1
笛 1
od@@ 0.07327924605200772
21.@@ 1
娜@@ 1
瞬@@ 1
El@@ 0.07626858205035669
68@@ 1
孚 1
暢@@ 1
廚@@ 1
穎 1
舶 1
拨@@ 1
爛 1
450 1
戎 1
渤@@ 1
弧@@ 1
Am@@ 0.07625122821525201
Pr@@ 0.0764401975687773
猴@@ 1
CP 1
盾@@ 1
111 1
no@@ 0.07848991148920327
漆 1
莖 1
蝴@@ 1
彦 1
搞@@ 1
EP 0.3876030467483991
纹@@ 1
嵌@@ 1
爸 1
痕 1
砖 1
硫 1
箱@@ 1
卧@@ 1
嗎 1
崗@@ 1
Ac@@ 0.11823218746885425
CR@@ 1
钻@@ 1
説 1
哭 1
辣@@ 1
瓷@@ 1
氛 1
杆@@ 1
简 1
郝@@ 1
遞@@ 1
跌@@ 1
姑 1
啡@@ 1
67@@ 1
污 1
狐@@ 1
酰@@ 1
43@@ 1
丛@@ 1
庙@@ 1
墜@@ 1
咸 1
Mon@@ 0.07141518339823706
IS 0.7616578358892219
毅@@ 1
氟 1
檢 1
诱@@ 1
瑙@@ 1
淋@@ 1
辑@@ 1
楠 1
哇 1
int 0.6318736343250639
疲@@ 1
慕 1
蚀 1
輯@@ 1
抓 1
禍 1
99@@ 1
姊 1
220 1
腐 1
賈 1
喙 1
に 1
1860 0.5097544374169803
CS@@ 0.5204652572661436
22.@@ 1
cm 0.2554905280264863
赣@@ 1
孢@@ 1
叠 1
譴@@ 1
ri@@ 0.05212525210030195
1880 0.45980132130339596
ra 0.05342603673921763
IO@@ 1
Per@@ 0.07648709820215412
谁 1
涼@@ 1
鵬 1
Me@@ 0.08397496140558237
潛 1
沪@@ 1
湿 1
妾 1
愉@@ 1
陇@@ 1
祁@@ 1
​ 1
ir@@ 0.04157780917311084
GP@@ 1
汤 1
渐 1
1600 1
渦@@ 1
IT@@ 0.7329815971904503
謙 1
凶@@ 1
He@@ 0.08322164297497331
AV 1
な 1
邢@@ 1
凤 1
陰 1
誓@@ 1
骚@@ 1
凌 1
鱂 1
西洋 1
Mc@@ 0.07824191358688486
畜@@ 1
敖@@ 1
誼 1
ak@@ 0.05165523143865225
樊@@ 1
趾 1
峽@@ 1
240 1
役@@ 1
25.@@ 1
1800 0.7255950072914714
挝 1
傍@@ 1
雁@@ 1
嫡@@ 1
La 0.013069404280563725
de@@ 0.03093874105261639
135 1
1894 0.47880808211265824
繞@@ 1
赔@@ 1
聊@@ 1
112 1
og@@ 0.08358216054315849
Li@@ 0.12342374813452184
胃@@ 1
奋@@ 1
踐 1
Me 0.3275038566348443
′ 1
煽@@ 1
ト 1
谴@@ 1
谱@@ 1
1871 0.5111612413904777
58@@ 1
る 1
蟻 1
ance 0.04311356217752209
赠@@ 1
1870 0.4286888850293005
醛 1
缀 1
脈@@ 1
4.5 1
铭 1
Vi@@ 0.17423217613649616
辽 1
唇@@ 1
弼 1
叢@@ 1
悅 1
渭@@ 1
绿 1
甄@@ 1
56@@ 1
凰@@ 1
哩 1
輩 1
Xbox 1
au 0.011749159071821226
仆@@ 1
樟@@ 1
拱 1
罵 1
En@@ 0.07729328590782275
ard 0.06698221324713832
栗@@ 1
David 0.11123297900862752
re 0.0386421661174817
预 1
邯@@ 1
碱@@ 1
衙@@ 1
贊 1
Sch@@ 0.03172405857930584
瘋@@ 1
峙 1
杯@@ 1
赏@@ 1
漿 1
丟@@ 1
织 1
脹 1
抽 1
57@@ 1
紮 1
虽 1
贞 1
Mac@@ 0.14041202293650396
飼@@ 1
疼@@ 1
泌 1
茵@@ 1
削 1
憂@@ 1
AL 0.8804992902908363
诏@@ 1
勢@@ 1
讼 1
牺@@ 1
迅 1
PO@@ 1
贪@@ 1
124@@ 0.9005349089269933
胸 1
畜 1
115@@ 1
萌@@ 1
128 1
兔@@ 1
匿@@ 1
婿 1
è 1
颇@@ 1
畏 1
婷 1
剿 1
挺@@ 1
棍@@ 1
International 0.085149312978693
University 0.03746055651347499
巩@@ 1
巫 1
颇 1
In 0.0068610570697551975
袍 1
蘆@@ 1
阅 1
ell 0.07014912195541105
98@@ 1
衷 1
輿@@ 1
饶@@ 1
肿@@ 1
闆 1
壯 1
抛@@ 1
26.@@ 1
di 0.09561284820305048
扳@@ 1
您 1
薯 1
罰@@ 1
碱 1
遂@@ 1
寇@@ 1
95@@ 1
尋 1
赐@@ 1
CC 0.5917577500051715
ang@@ 0.055261884331287286
遥@@ 1
朔@@ 1
屍 1
溃 1
却@@ 1
藻@@ 1
虜 1
剝@@ 1
琦 1
撐 1
检 1
om 0.14301358656935334
si@@ 0.0476048953153187
润@@ 1
ale 0.03502203606939506
粮 1
27.@@ 1
鍵@@ 1
atus 0.2981153091443935
究@@ 1
DO@@ 0.9444210253601553
朋@@ 1
с 0.010993867259617264
ing@@ 0.06076902245855976
駿 1
狐 1
6000 1
懂 1
胤 1
人口@@ 1
ps 0.09811195685256188
ode 0.45331314300776265
ts 0.023517977912515246
1885 0.4428097424644255
拾 1
稚 1
犧@@ 1
騰@@ 1
疇 1
闖@@ 1
衞 1
矣 1
磡 1
Gr@@ 0.06058416005365884
幣@@ 1
銳 1
酉 1
笠 1
TC 0.7272261415155413
竭 1
斥@@ 1
捐 1
谊 1
鮋 1
帜 1
88@@ 1
廓 1
肖 1
卑 1
頸@@ 1
qu@@ 0.033850764286311764
貸@@ 1
簿 1
CA 0.46448464937135864
127 1
201 1
Ph@@ 0.13520309708847414
肌 1
阜 1
轟 1
暑@@ 1
乱@@ 1
栏@@ 1
ary 0.0390395289648386
28.@@ 1
隱 1
惯 1
潤@@ 1
85@@ 1
埼 1
畿 1
撲 1
粟@@ 1
芦@@ 1
讯@@ 1
聂@@ 1
宛@@ 1
Ver@@ 0.031039270239378393
IV@@ 1
缘@@ 1
喀 1
禄@@ 1
per@@ 0.033422061399218196
抄 1
Ste@@ 0.13684340457922192
奥林匹@@ 1
旱@@ 1
挖 1
翠 1
喚 1
孟 1
愤@@ 1
坪@@ 1
账@@ 1
擾@@ 1
拒@@ 1
IA 0.8956942415704542
78@@ 1
ea 0.11431895118675386
膀 1
腸 1
横 1
謠 1
大战 1
阎@@ 1
堵 1
Ma@@ 0.08803070762288875
320 1
臭@@ 1
碧 1
蕉 1
弯@@ 1
Mac 0.9384463468932954
誕 1
氫@@ 1
鯛 1
汶 1
鞭@@ 1
暹@@ 1
澄 1
韵@@ 1
Team 0.17608702973205023
阴 1
ite 0.048228837322705276
280 1
釜@@ 1
膽 1
ly 0.029717468371962683
蛤@@ 1
ya 0.039086253786530134
芙 1
郁 1
饼 1
q@@ 0.19182839146769523
垂 1
柴 1
230 1
ey 0.08844777871776409
薇@@ 1
ys 0.13748671308979624
爽 1
122 1
湛@@ 1
ne 0.026526400561938966
籌 1
勸@@ 1
颠 1
113 1
抬@@ 1
牆@@ 1
蛾 1
66@@ 1
1.6 1
簧 1
詠 1
醉@@ 1
ce 0.02812987289558455
ク 1
舆@@ 1
ref 0.5295724403934932
屈 1
ler 0.04303604047567463
ア 1
Saint 0.05560158939628042
慾 1
_@@ 1
幟 1
罚@@ 1
59@@ 1
li 0.16027912800289465
鸣 1
濤 1
AX 1
淵 1
桿@@ 1
啊 1
〜 1
梓@@ 1
190 1
Ad@@ 0.09014296089009778
塾 1
缓 1
do 0.04062757241219015
贺 1
瞭@@ 1
橘@@ 1
爬 1
ä 1
绵@@ 1
痕@@ 1
孜@@ 1
1.8 1
乏 1
煮 1
慎@@ 1
堵@@ 1
宙@@ 1
毓@@ 1
芯@@ 1
7.5 1
り 1
桓 1
述@@ 1
喝 1
宵 1
釣@@ 1
ara 0.09351703439839819
晴 1
旭 1
脉@@ 1
吞 1
贼 1
賦 1
Twitter 1
侨@@ 1
贸 1
ka 0.07685474167181756
憂 1
謙@@ 1
僵@@ 1
晓 1
т 0.039747005244863805
リ 1
沛 1
鸣@@ 1
ens 0.031227272973990524
肤 1
砌 1
娃@@ 1
匙 1
趙@@ 1
遜@@ 1
av@@ 0.04752278974340752
榄@@ 1
雯 1
123 1
1892 0.4143795018444461
臥@@ 1
廁@@ 1
77@@ 1
蓄 1
IV 0.20247923090130857
001 1
淳@@ 1
贷@@ 1
迈 1
鵝@@ 1
氰@@ 1
TP 1
閩 1
惩@@ 1
濫@@ 1
肩 1
兇@@ 1
胚@@ 1
孩@@ 1
牢@@ 1
29.@@ 1
CE@@ 0.4725473187553756
My 0.26682437794180475
1893 0.40616503566720696
AS 0.39044477888973594
沈 1
混 1
121 1
迭@@ 1
阀 1
AA 0.3967223129015403
ach@@ 0.049397032679013055
姿 1
AP 0.569055675544787
se@@ 0.032505875987652165
框 1
舒 1
斩@@ 1
諸 1
CI@@ 0.5363575870227437
懿 1
締@@ 1
臉 1
泗@@ 1
铭@@ 1
帮@@ 1
滇@@ 1
蒼@@ 1
SU@@ 1
賜@@ 1
氮@@ 1
溉 1
悟@@ 1
は 1
腾 1
210 1
Inter@@ 0.09646644829855472
殊 1
PA 0.41438546967991646
that 0.005309103701359576
扮 1
贫 1
闢 1
諭 1
114 1
淚 1
捍@@ 1
琛 1
胆@@ 1
Type 0.7859900591435685
118@@ 1
TA 0.5083352201547939
饥@@ 1
119@@ 1
届@@ 1
廈 1
煉 1
69@@ 1
遲@@ 1
擠 1
膜@@ 1
icon 0.795248512102071
岑@@ 1
匈牙@@ 1
1884 0.454035376884115
褒@@ 1
Pro 0.39283695095702403
瀏@@ 1
us@@ 0.03824189212964948
mo@@ 0.04832593113208312
悔 1
邁 1
con@@ 0.027717514539540987
犁 1
潟 1
all 0.021481345932668015
陞 1
瑙 1
1887 0.444629810974932
ella 0.10161704351307689
侣 1
1886 0.43854450451678595
Te@@ 0.11113337947303088
ay@@ 0.0642488420865574
赋 1
MC 0.6739132662956634
蕊 1
哉 1
鳞@@ 1
54@@ 1
For@@ 0.07915019715285607
啓 1
愚@@ 1
th 0.03920160091546328
爸@@ 1
113@@ 1
iOS 1
镑 1
ob@@ 0.054034453350491764
渊 1
錶 1
刃 1
崗 1
堯 1
渴@@ 1
阔@@ 1
William 0.08177819349379069
硅@@ 1
巾 1
吐 1
駕 1
118 1
稜 1
53@@ 1
祠@@ 1
堤@@ 1
廳@@ 1
毕 1
趕 1
Game 0.3355985799688686
ot 0.08069473588370335
堀@@ 1
赦 1
醒@@ 1
par@@ 0.028577260370899457
1888 0.4172486329096163
was 0.0022845280751528194
拖 1
ig@@ 0.04057620155963247
奢@@ 1
页@@ 1
橢@@ 1
碘 1
殼@@ 1
禪 1
傘 1
TS 0.8225812083303735
UB 1
淵@@ 1
聰 1
沧@@ 1
纲@@ 1
117 1
James 0.08716731944996377
ans 0.025450589660360894
吕 1
腸@@ 1
750 1
Pro@@ 0.07660503542476163
睹 1
As@@ 0.08672212637356849
伪 1
譜@@ 1
憾 1
盈 1
挪@@ 1
醜@@ 1
od 0.2063880618482254
浅 1
蛛@@ 1
Group 0.1298463591462506
苍@@ 1
涡@@ 1
冊@@ 1
Er@@ 0.04205997467905118
滴 1
1861 0.4491676785266851
谐 1
債 1
缴@@ 1
肅@@ 1
棍 1
ED@@ 1
from 0.005614640007706186
狄 1
茅 1
饭 1
5.5 1
緯@@ 1
弊 1
塵 1
倭@@ 1
枯@@ 1
GA 0.744589534948649
勉@@ 1
嘲@@ 1
eg@@ 0.04602431711886932
Un@@ 0.0742948747982281
л 0.0341496925114095
癒 1
穷 1
1876 0.45615770295110036
116 1
2500 1
墾 1
um@@ 0.035610647762323054
忧 1
淹@@ 1
韵 1
You@@ 1
肺 1
if 0.07774257865621705
朴 1
114@@ 1
Open@@ 0.9191782419864342
ter@@ 0.034714775049166674
檐 1
閣@@ 1
胆 1
129 1
哨 1
違 1
坠@@ 1
茱@@ 1
梧@@ 1
瑚@@ 1
肢@@ 1
亭@@ 1
des 0.003116430087350076
禹 1
鑽 1
锋@@ 1
閒 1
盆 1
髓 1
辆@@ 1
捨 1
詮@@ 1
擒 1
閒@@ 1
124 1
抨@@ 1
劣@@ 1
锐 1
奕 1
Fr@@ 0.10684930077485033
в 0.002778665244198582
ISO 1
116@@ 1
畏@@ 1
踢@@ 1
魂@@ 1
IE@@ 0.8988129147032757
im 0.007515544631896089
祂 1
ile 0.04736555321016919
紡@@ 1
胀 1
79@@ 1
铎 1
抒@@ 1
霹@@ 1
诚@@ 1
1.3 1
淀@@ 1
祕 1
A1 1
iPhone 1
陪 1
ber@@ 0.04291909244832883
阐@@ 1
126 1
1891 0.3853127432709517
衫 1
ver@@ 0.015194452332734882
馨 1
綽@@ 1
霞@@ 1
PC@@ 0.47187103320212886
ut@@ 0.054811145299108736
犀@@ 1
к 0.01996818497047286
让@@ 1
擢 1
301 1
庐@@ 1
憑@@ 1
ATP 0.7404650943394141
76@@ 1
漲 1
獸@@ 1
寂 1
跃@@ 1
歼@@ 1
蒿 1
博物@@ 1
勁@@ 1
ner 0.04711673356811897
儲 1
ex@@ 0.027218277781373854
坝@@ 1
瑾 1
ne@@ 0.04722718669716689
嚇 1
崑 1
鄒@@ 1
Sw@@ 0.20305835413815074
叠@@ 1
襪 1
閘 1
〔 1
钾 1
〕 1
剌 1
260 1
肪 1
丑@@ 1
諜 1
酿@@ 1
稽 1
绑@@ 1
頌 1
1850 0.44382610249398663
妓@@ 1
棱@@ 1
1.1 1
蹄@@ 1
駒 1
撕@@ 1
填 1
117@@ 1
緻 1
捉@@ 1
My@@ 0.25929331715240445
Robert 0.08836157432438309
est 0.004729445303606424
IT 0.7867831775776735
禧@@ 1
烤 1
鑄@@ 1
弄@@ 1
DE 0.7640355249931889
浙 1
浆 1
鰍 1
滤@@ 1
1883 0.44225493314453546
璧 1
醬 1
Paul 0.07949465010306038
era 0.029888321571583356
掀@@ 1
腫@@ 1
菇 1
ou@@ 0.04279993890997322
1862 0.43432732318218464
蜒 1
PG 1
卦 1
縫 1
st 0.04763768443133781
盔 1
贬@@ 1
CO 0.7159308176148801
岱 1
郑 1
IBM 0.9862425713129276
Dis@@ 0.13132558486001628
閥 1
荃 1
淪@@ 1
询@@ 1
漆@@ 1
1868 0.44662921754477375
鈞 1
Min@@ 0.09603006581165291
ッ 1
莞 1
bi@@ 0.037794125449990376
籃 1
鱸@@ 1
Java 0.8656210467742828
雾 1
慌 1
鸚@@ 1
74@@ 1
擇@@ 1
檀@@ 1
桌 1
欠 1
歇 1
艰@@ 1
净 1
菱@@ 1
ST 1
扑 1
崔 1
蜿@@ 1
DA 0.5483188414049943
膏 1
Go@@ 0.11327821104467035
窑 1
US 0.0517455548565658
孚@@ 1
狮 1
Apple 0.582662807648315
有限@@ 1
矢 1
驳 1
ま 1
μ 0.9248986248548788
絡@@ 1
pl@@ 0.03196253703944715
炼 1
羟@@ 1
貿 1
滲@@ 1
aw@@ 0.07093155229383874
SI@@ 0.8474786839814613
颜 1
饱@@ 1
舜@@ 1
弃@@ 1
闸 1
Michael 0.10441110185913759
Super 0.21320306556700871
滚 1
@ 1
1867 0.4277456427032337
凉 1
牲@@ 1
寄 1
嘎@@ 1
砍@@ 1
さ 1
喉 1
磷 1
婴@@ 1
帳 1
赦@@ 1
耕 1
闲 1
优 1
浴 1
瑛 1
ep@@ 0.06636571747543137
侏@@ 1
撑 1
委员@@ 1
悦 1
凍 1
凭 1
渝 1
ur 0.06599750940612896
茹 1
霆 1
550 1
bo@@ 0.042333267641521934
缪@@ 1
罐 1
BM@@ 0.7544772702877005
² 0.08794703646120137
惧 1
椭@@ 1
ess 0.05600197362505433
普查 1
湧@@ 1
貼@@ 1
1848 0.39127184685940736
趁 1
RS 0.5474117239280816
SM@@ 1
330 1
1873 0.43167053419613227
淹 1
猿 1
1878 0.38855721191351567
专 1
膛 1
襄 1
il 0.01029012531903933
ا 0.458739302515891
篡@@ 1
MS@@ 0.6649078214210519
溶 1
禹@@ 1
鞋@@ 1
が 1
DJ 0.5561066036727793
て 1
僑@@ 1
鞏@@ 1
145 1
朔 1
涼 1
汪 1
浸 1
擺 1
諡 1
笼 1
National 0.03699411480943313
1864 0.3986174406059178
1879 0.414330639986349
悼 1
1.4 1
四川@@ 1
EX@@ 1
牢 1
翔@@ 1
锁@@ 1
ous 0.0337973051894423
GDP 1
eb@@ 0.04651773284797349
钩 1
1877 0.42656384262686553
缝 1
莽 1
き 1
ator 0.0666581512217794
苔 1
穷@@ 1
羞@@ 1
袋@@ 1
96@@ 1
療 1
剖@@ 1
甜 1
ME 0.9239227615136641
鴉@@ 1
彎 1
窩 1
狸 1
迅@@ 1
蕩 1
CPU 1
丢@@ 1
屡@@ 1
畅@@ 1
F1 1
虞 1
岐 1
6.5 1
able 0.025358282040736358
8000 1
Ap@@ 0.1317990673946625
皖@@ 1
禽 1
芜@@ 1
颗@@ 1
择@@ 1
綴 1
泵 1
ov@@ 0.06359216205091249
土耳@@ 1
雇 1
匡@@ 1
Hz 1
MP 0.3864413349229377
Man@@ 0.061644575287636214
掉@@ 1
琅 1
芯 1
蔚@@ 1
庚 1
land 0.030737400766609562
溢@@ 1
1875 0.4174779950040545
NT@@ 1
ure 0.04007915544931099
650 1
釐 1
1865 0.3967504729392408
Hol@@ 0.09914870868889174
涨 1
籠 1
1882 0.39524036232263
杭 1
City 0.04698765549967018
Mor@@ 0.05599120507492672
io 0.07279415738692158
em 0.05444558545301414
肠 1
32@@ 1
晤@@ 1
剪 1
畴 1
酵 1
1881 0.3858301615822448
挡 1
茜 1
ung 0.018581317294559887
鹃 1
磚@@ 1
ng 0.42336361738282124
糧 1
隕@@ 1
AD 0.3973081643932139
綿@@ 1
霧@@ 1
ML 1
鬧 1
冤@@ 1
傲 1
鸿 1
滴@@ 1
胰@@ 1
鰓 1
谥@@ 1
酵@@ 1
堊@@ 1
窦@@ 1
虐 1
ell@@ 0.051655059399633683
net 0.1697668730478178
樸 1
邹@@ 1
Go 0.5014155736492562
蝠@@ 1
礁@@ 1
onlyinclude 0.41040665941324506
岁@@ 1
戚@@ 1
175 1
Su@@ 0.09112067218571052
梓 1
岑 1
墮@@ 1
麾@@ 1
2.2 1
孵@@ 1
猶 1
糟@@ 1
运会 1
迟@@ 1
喻@@ 1
GO@@ 1
邱 1
汾@@ 1
IX 0.49405760176770824
呂 1
曉 1
棵 1
濕 1
鹤 1
name 0.03657923066722907
姜 1
鍊 1
Unic@@ 1
宠@@ 1
菸 1
俾@@ 1
鰕 1
ok 0.15638065000558138
逗@@ 1
Fe@@ 0.13958845357097374
Pi@@ 0.09162781255412746
挫@@ 1
敷 1
钧 1
鹅 1
MTV 0.6298261907166094
扇@@ 1
贴@@ 1
顱 1
155 1
埗 1
辈 1
黜 1
趨 1
奸@@ 1
莓 1
87@@ 1
蚌@@ 1
鑒 1
蔭@@ 1
1874 0.4075467484898337
ue 0.054976642707224174
Entertainment 0.29804383820032554
彻 1
So@@ 0.08742414694235366
ge 0.03696093413303586
63@@ 1
LC 0.5954815080247831
ik@@ 0.04291024594904555
裙 1
豁@@ 1
焊@@ 1
頜 1
30.@@ 1
CS 0.5986534829573592
Sol@@ 0.10293695940890224
ir 0.04342428872400966
炼@@ 1
ci@@ 0.03924696530289428
119 1
企 1
1840 0.468052623261364
1863 0.3896294582054164
苻 1
詐 1
諧 1
飾@@ 1
岬 1
ら 1
虫@@ 1
We@@ 0.08559793273029606
380 1
蕨@@ 1
攔@@ 1
篤 1
叙 1
7000 1
烃 1
シ 1
脆@@ 1
蕭 1
Netflix 1
喪 1
偽 1
谦 1
阱 1
do@@ 0.06628242751134947
壟@@ 1
IN 0.9255968596392804
1872 0.4046075526423167
袁 1
ect 0.08572424633924774
斬@@ 1
AV@@ 0.7848613741238956
CT 1
System 0.2174063891586892
hi@@ 0.06591400034197308
me 0.04415645294185378
86@@ 1
箕 1
HK 1
陡@@ 1
LED 1
霜 1
270 1
end@@ 0.03823924078387775
艱@@ 1
鸭@@ 1
屢@@ 1
昏 1
腎@@ 1
厭@@ 1
HO@@ 1
澀 1
貶@@ 1
紧 1
羌 1
骗 1
19@@ 0.8752414456529858
ab 0.040894725673391065
聶@@ 1
酚 1
芹 1
EST 1
鸦@@ 1
哀 1
br@@ 0.028741256252228772
sa 0.02095477581943302
帛 1
巳 1
鹰@@ 1
祿@@ 1
CE 0.39629648824241576
哭@@ 1
ini 0.07517688890461094
厲 1
碘@@ 1
UR@@ 1
鰻 1
mar@@ 0.0300560695533591
扶 1
鶴 1
屑 1
It 0.011762593480475522
Cre@@ 0.1340091477871036
汀@@ 1
讽@@ 1
if@@ 0.06390686786864228
89@@ 1
稽@@ 1
楠@@ 1
沦@@ 1
铝 1
炒@@ 1
SD@@ 0.9909653878661325
St 0.12351882765860914
咬@@ 1
闸@@ 1
娟 1
SN@@ 0.5686056137888936
孜 1
鋒@@ 1
152 1
盪 1
遺 1
盲 1
嵩 1
椰@@ 1
Metacritic 1
篷 1
All 0.06848696276398483
姦 1
禱 1
FO@@ 0.7997600423826479
George 0.07098174295679203
梳@@ 1
闡@@ 1
饒 1
頌@@ 1
濒 1
萼 1
ker 0.06201549917821818
俠@@ 1
壹 1
begin 0.3913301002845238
く 1
Do@@ 0.12210933664199727
轩 1
禅 1
簽 1
茹@@ 1
棣 1
衔@@ 1
39.@@ 1
UT@@ 1
媛 1
槟@@ 1
琼 1
駿@@ 1
齋@@ 1
玲@@ 1
2.4 1
HT@@ 1
ent@@ 0.021408948419643112
亥 1
加拿@@ 1
稣@@ 1
EM@@ 0.9851379210936315
醚 1
鬱 1
鹹 1
137 1
AI 0.9400963347002225
NA 0.5587675345825639
idae 0.09382128502962353
夥 1
酪 1
孤 1
幌 1
绥 1
跤 1
Ber@@ 0.05165337109167095
ho@@ 0.05350030732664925
浚 1
kg 0.30244536438088465
Win@@ 0.18336544949520422
兽@@ 1
湛 1
RT@@ 0.4864785395087669
钓@@ 1
皋 1
陛@@ 1
妨@@ 1
缮 1
165 1
les 0.004514195578220328
袭@@ 1
鱷@@ 1
fo@@ 0.11641152275421725
を 1
賺 1
傀@@ 1
ino 0.05155578083523412
幡 1
84@@ 1
舅@@ 1
淫 1
az@@ 0.05405549109266414
pi@@ 0.04940101452099338
趣@@ 1
LE 1
濾@@ 1
括@@ 1
Club 0.06939780631084581
坏@@ 1
Office 0.23341484584529848
尉@@ 1
帖@@ 1
Po@@ 0.06875253086113853
曙@@ 1
Cy@@ 0.1950346840310587
忆@@ 1
ack 0.1074186341362387
厌@@ 1
跋@@ 1
鵝 1
COVID 0.3023779382603119
淑 1
滙 1
衰 1
锅@@ 1
ti 0.09101213242489778
猩@@ 1
怨@@ 1
盎@@ 1
漠@@ 1
釀@@ 1
per 0.04419240348081994
龟 1
131 1
鲜 1
侵 1
窮@@ 1
葫@@ 1
1869 0.3992900785920216
巨 1
粗 1
辯 1
徑@@ 1
97@@ 1
NT 1
妖 1
傘@@ 1
傲@@ 1
尸 1
甫@@ 1
驱 1
To@@ 0.11350503067208104
ick 0.06861511619201413
磚 1
Time 0.23114338187697447
圳 1
奕@@ 1
1866 0.3099176838739331
GO 1
Val@@ 0.09237338395795025
瑶@@ 1
Mark 0.15517978510828787
麒@@ 1
カ 1
羌@@ 1
width 0.6211035904659881
剿@@ 1
1300 1
鯨@@ 1
戟 1
侮@@ 1
こ 1
渗@@ 1
龚@@ 1
閻@@ 1
ff@@ 0.07520977342111067
塵@@ 1
丧 1
寻 1
尧 1
瘟@@ 1
蠻 1
溴@@ 1
壶 1
膽@@ 1
炬 1
ion 0.06988595531529476
辣 1
γ 1
EL@@ 0.9868752051748646
闵@@ 1
掘@@ 1
NET 1
恕 1
剌@@ 1
On 0.018711987021994593
丙 1
峨@@ 1
妈 1
紳 1
鈴 1
僕 1
贿@@ 1
頜@@ 1
ati@@ 0.04444548972818585
弧 1
737 1
崁 1
SC 0.2245304645363548
财 1
Cal@@ 0.07767464743692742
沫 1
Mel@@ 0.11759687230839383
ax 0.32895094215181614
晃 1
錐@@ 1
Center 0.10569676241502085
Co 0.27526590397932105
琵@@ 1
鎌 1
132 1
itch 0.22497031269061024
疯@@ 1
205 1
Show 0.22423464383276434
赌@@ 1
冕@@ 1
拦@@ 1
奮 1
碩 1
汞 1
烏克@@ 1
諷@@ 1
譬@@ 1
BE 0.9062187653054578
卻@@ 1
渊@@ 1
洽 1
隐 1
肾@@ 1
ON 1
逢@@ 1
沁@@ 1
み 1
峇 1
鷹@@ 1
莆@@ 1
ath@@ 0.06653103052187277
瑜@@ 1
溴 1
阮 1
38.@@ 1
Pe@@ 0.09799794693657941
den 0.0045926641337993125
Park 0.06498013924271415
濒@@ 1
酋 1
Hu@@ 0.11875027820804361
桨 1
1.7 1
Har@@ 0.06919847424896933
袖@@ 1
138 1
144 1
Bi@@ 0.07002290153284615
姚 1
懋@@ 1
萱 1
Game@@ 0.9008095134883484
1400 1
Games 0.154983813996395
Star 0.1556153358815998
ics 0.052639462259979196
勿 1
隅 1
GT@@ 0.7773907497161098
BL@@ 1
勉 1
タ 1
汐 1
33.@@ 1
歼 1
te@@ 0.032759921602144096
梭@@ 1
苷 1
敷@@ 1
耆 1
ABC 0.3980873416678361
敢@@ 1
肝 1
蟾 1
妥 1
巖 1
挥@@ 1
API 1
ano 0.03853679648701493
Bur@@ 0.07079567518406987
Charles 0.06791949777233774
ical 0.038728951405390184
〇 1
201@@ 0.6920924822268592
瀕@@ 1
贩@@ 1
栓 1
飽 1
驟 1
Thomas 0.07400996370404356
啶 1
睿 1
糙 1
颂 1
ロ 1
咬 1
嵩@@ 1
詔 1
舷 1
2.3 1
so@@ 0.03920495699638814
Ab@@ 0.028372822711532634
and@@ 0.041334666789566425
za 0.06314032646710413
哪 1
藓 1
ist 0.0062260997078554875
pm 0.546597052320346
彤 1
堰 1
沂@@ 1
驳@@ 1
No@@ 0.14499013831045973
136 1
154 1
匿 1
壮 1
滥@@ 1
聪@@ 1
be@@ 0.017224398735900585
鋸@@ 1
瓊 1
兀@@ 1
熹 1
膝@@ 1
腕 1
橘 1
Lin@@ 0.15974591492571208
跆@@ 1
餓 1
硅 1
剖 1
沸@@ 1
鯊 1
鴨@@ 1
僕@@ 1
ma@@ 0.0534886046624224
泣 1
阁@@ 1
gi@@ 0.045418340597796765
戮 1
措@@ 1
撲@@ 1
棲 1
垄@@ 1
185 1
淫@@ 1
168 1
ala 0.07666462275828115
饮 1
狸@@ 1
婭 1
惹 1
1.0 1
炭@@ 1
烷@@ 1
Sal@@ 0.06517472975582399
ani 0.0799044944088459
仰 1
141 1
砍 1
あ 1
ence 0.03277496838652107
埠@@ 1
苣 1
妍 1
加利@@ 1
蔚 1
str@@ 0.036952448405448056
梗 1
眷@@ 1
匾 1
臟@@ 1
Gen@@ 0.09445722549142259
傣@@ 1
肋@@ 1
壞@@ 1
谍 1
151 1
Gu@@ 0.05054757972341331
荀@@ 1
楷 1
麟@@ 1
黔@@ 1
墳@@ 1
ジ 1
吗 1
樱@@ 1
滇 1
烂 1
1830 0.40495992833099537
嶽 1
蛤 1
霄 1
糊@@ 1
32.@@ 1
溜@@ 1
販 1
iP@@ 1
pe@@ 0.04510324556221176
伸 1
擇 1
Ag@@ 0.09439969596060846
で 1
竺 1
156 1
co 0.04326441570871655
倚@@ 1
ons 0.02342148055507944
硒 1
舅 1
烤@@ 1
畿@@ 1
2.8 1
祸 1
Street 0.07422215266000441
罐@@ 1
讓@@ 1
琪@@ 1
竊 1
133 1
惊 1
Peter 0.08211824269699643
沛@@ 1
倆 1
潜 1
IF@@ 0.6945864729916509
DF 0.45977009327651236
唯 1
no 0.013330792690660911
埕 1
Media 0.20301310605037776
矛 1
蚤 1
謎 1
0.3 1
158 1
High 0.07509071254487354
oph@@ 0.10914879250934757
扰@@ 1
舵 1
College 0.049811803978648185
棕 1
1853 0.46678065639233496
吊 1
鶯 1
戎@@ 1
榕 1
Life 0.12864537100902007
誅 1
魨 1
吡@@ 1
颈@@ 1
Web 0.7355404485692426
Wii 1
illa 0.10439461012441759
沼 1
Red 0.11657626938151659
駁@@ 1
枕@@ 1
酰 1
瘦@@ 1
ah@@ 0.05128284788604763
虔@@ 1
颖 1
0.1 1
氛@@ 1
139 1
1700 0.8839235421314044
1858 0.424730938947855
vo@@ 0.09981522475614395
慨 1
须@@ 1
π 0.9843578538076658
osa 0.10119937834863202
af@@ 0.037032402506057986
猩 1
pr@@ 0.029802553396707118
悲 1
eh@@ 0.04416347291433578
摺 1
霉@@ 1
骆@@ 1
148 1
謹 1
擢@@ 1
竖@@ 1
ke 0.03816597940359827
ora 0.07817736003065724
峯 1
文物@@ 1
晏@@ 1
time 0.014269412274202616
vi@@ 0.03309916601264265
炳 1
翟@@ 1
FM 0.22126305492082723
au@@ 0.032592721284806975
塗 1
擴 1
36.@@ 1
巷@@ 1
焉 1
睦 1
House 0.06026757601806822
ade 0.05184225637258331
鑫 1
Her@@ 0.05508572999117838
ari@@ 0.05918996336545774
FA 0.22788840878498917
咪 1
寂@@ 1
懿@@ 1
肠@@ 1
褲 1
ap 0.11212738267877992
ha 0.037411765051320635
笛@@ 1
1100 1
窑@@ 1
1859 0.3687871616771613
雛@@ 1
2.1 1
脸 1
鑲@@ 1
罷 1
恪 1
抹 1
EC@@ 0.6610605833164667
ena 0.0710787038000069
ド 1
撥 1
Sc@@ 0.11463461349429047
币@@ 1
镶@@ 1
お 1
マ 1
134 1
Man 0.12465838380243996
49.@@ 1
煩 1
胃 1
211 1
Big 0.15086877739803212
谦@@ 1
RC 0.35710381767276883
軒@@ 1
諷 1
倖@@ 1
逻 1
厨@@ 1
齡@@ 1
Por@@ 0.10610816353360825
鈉 1
0.2 1
sp@@ 0.02871965436639851
殷 1
侖 1
203 1
钥 1
mo 0.17877682959276825
ise 0.027368533998205342
妓 1
遼 1
鯛@@ 1
陌@@ 1
1854 0.4144250313267496
誦 1
1857 0.3927728787932156
恢@@ 1
れ 1
尿 1
詠@@ 1
EN 1
Red@@ 0.14141527769220094
闲@@ 1
CL@@ 0.9724334391330781
曦 1
櫃@@ 1
瑩 1
202 1
King 0.07105969094640627
No 0.10945444764968276
娄@@ 1
ca 0.059023145479328236
拼 1
爷 1
PP@@ 0.7012229357895688
yr@@ 0.09730297850085631
AG 0.24727624731674996
棺@@ 1
毯 1
VO@@ 1
ant@@ 0.04200035972617691
腥 1
ome 0.11483230375463063
鵡 1
gr@@ 0.024738633245117617
屢 1
皓 1
羚 1
衆 1
OR@@ 0.9444843677200344
滯 1
鞘 1
虛 1
ber 0.07281094283403466
倖 1
炒 1
暨@@ 1
泾@@ 1
INE 1
虽@@ 1
莞@@ 1
諡@@ 1
Trans@@ 0.09428151266664637
吻@@ 1
梗@@ 1
煮@@ 1
Richard 0.0902065068402014
yl@@ 0.07834549712811464
Gam@@ 0.390042400878302
黔 1
Mer@@ 0.07249659827093212
□ 1
噬 1
窝 1
蛮 1
辰@@ 1
166 1
NASA 0.6041771993264989
Intel 1
SAR@@ 1
矽@@ 1
祷 1
IL@@ 1
Pol@@ 0.07292533556794342
賄@@ 1
34.@@ 1
伞@@ 1
OH 1
長@@ 1
PL@@ 0.7355637469756352
毘 1
铝@@ 1
94@@ 1
渣@@ 1
铃@@ 1
Mag@@ 0.09118214192120529
凍@@ 1
樺 1
丕 1
誼@@ 1
1856 0.38603845468958964
抹@@ 1
曜 1
tra 0.09632872532971364
债 1
涂 1
绳 1
Limited 0.48579459184648205
盒@@ 1
レ 1
out 0.018241632192031124
SD 0.7510583305556185
卤@@ 1
NBC 0.45062632220278703
ick@@ 0.06449485325728238
睿@@ 1
饶 1
腿@@ 1
谣 1
躲 1
俱 1
ks 0.025971243110326555
渲@@ 1
Fl@@ 0.05772690573788502
San 0.03414739984025033
ings 0.026358900583355563
卉 1
340 1
du 0.003908404597374905
磺@@ 1
沐@@ 1
顎 1
ev@@ 0.04199646005915758
忽 1
殘 1
笨@@ 1
ov 0.07865751355760005
央 1
嫩@@ 1
訥 1
纜 1
块@@ 1
ill 0.10682390039541165
kh@@ 0.06923953530182911
匪@@ 1
稿@@ 1
鉤 1
225 1
披 1
153 1
祺@@ 1
疹 1
钙 1
146 1
λ 0.45770760645192826
綏@@ 1
鱗 1
ated 0.012140398565857531
崖@@ 1
SK@@ 1
ki 0.07673610090539563
叱@@ 1
淚@@ 1
yn@@ 0.09962324406257485
元前 1
摸 1
諒 1
鹅@@ 1
pp@@ 0.10925545602355692
毆 1
铸 1
235 1
256 1
310 1
禺 1
饲@@ 1
証 1
aria 0.08774670050532624
鏈@@ 1
3.2 1
Bre@@ 0.07856846289781898
143 1
DR@@ 1
氦 1
鄧 1
ao 0.10080120979987388
AE@@ 0.5477140602966897
Company 0.07883704795813617
EF@@ 1
帐@@ 1
晖 1
皈@@ 1
1851 0.416411438413572
Bel@@ 0.04746198766616392
ung@@ 0.04824040578340769
焚 1
穹@@ 1
鍋 1
隼 1
Project 0.28958461983746364
攬 1
8.5 1
Ser@@ 0.06443361351847618
釘 1
del 0.004671820684785781
禽@@ 1
虚 1
鄞@@ 1
骤 1
Studio 0.3521311635221851
tri@@ 0.04135198683615473
纬@@ 1
AK 1
ru@@ 0.04151209118316418
2.6 1
3.0 1
car@@ 0.03005001412730476
way 0.033976516603509616
靼 1
Ho@@ 0.08471918933592978
ory 0.06625283874213204
BL 0.8298892512587263
○ 1
147 1
UC@@ 0.517892927032642
ta@@ 0.07512500020193491
籠@@ 1
妄@@ 1
湄@@ 1
肚 1
銳@@ 1
LA 0.266441758626669
裸 1
Hy@@ 0.14015732413520268
XX 0.21891688014408084
ari 0.09821451563681206
ww@@ 1
162 1
org 0.9954827407121521
si 0.051420354395760946
bit 0.18726068826884212
执 1
苔@@ 1
0.8 1
ち 1
嬪 1
畝 1
虾 1
皖 1
萝@@ 1
脏@@ 1
row 0.09603494313850178
214 1
儡 1
颈 1
Es@@ 0.07461231135916473
溺@@ 1
return 0.1091394303532883
CBS 0.4233703374899867
辜 1
缆 1
腊 1
坤@@ 1
祚 1
鈾 1
軼@@ 1
O2 1
000@@ 1
崙@@ 1
Mk 1
憩 1
胖 1
Tri@@ 0.07660555595080627
乍@@ 1
氨 1
35.@@ 1
China 0.06956999413092733
Op@@ 0.11851703765537273
bu@@ 0.05800348347821215
ium 0.15570379273434695
藔 1
忒 1
毙 1
穗@@ 1
臻 1
篮 1
踏 1
劝 1
濁 1
蛙@@ 1
傭@@ 1
敕@@ 1
0.4 1
稠@@ 1
key 0.11489973799377669
辩 1
ο 0.03971992626564947
American 0.020900264289042788
ok@@ 0.0581402409466101
坍@@ 1
GNU 1
ense 0.10715837331092641
its 0.007896377370223046
ç 0.5329611930544361
拷@@ 1
庾@@ 1
enti@@ 0.046761402963024404
肛@@ 1
Air 0.0798481717593906
犁@@ 1
壺 1
21@@ 1
ow@@ 0.05472403321750028
142 1
tion 0.02431787239492666
諫 1
su@@ 0.027898316689571
鸦 1
緝 1
48.@@ 1
195 1
tic 0.047088802473843554
斧 1
欄@@ 1
豎@@ 1
Mat@@ 0.08354500024296592
謹@@ 1
駱@@ 1
HC 0.5422933035491649
type 0.07993165851332813
沮@@ 1
AB 0.5100115920977092
臘 1
諧@@ 1
趟 1
暉 1
滬@@ 1
猫@@ 1
37.@@ 1
溃@@ 1
汴@@ 1
Im@@ 0.08706928602738331
揆 1
磊 1
忌@@ 1
雍 1
丸@@ 1
ore 0.04745231802975477
匀 1
洩@@ 1
als 0.005530366321195493
硼@@ 1
Day 0.13339997188811645
勘 1
苓 1
們@@ 1
啸 1
窝@@ 1
筹 1
蜴 1
± 1
窃 1
鍋@@ 1
锦 1
501 1
SE 0.5949662463229607
Sur@@ 0.10378131849335054
tu@@ 0.045693636774739546
霜@@ 1
0.6 1
208 1
夠@@ 1
淤@@ 1
1855 0.37822358901218905
Cas@@ 0.07087821050823843
ML@@ 0.3284544892728953
蒲 1
mi 0.14457318102692002
哨@@ 1
閃 1
嗜@@ 1
繹 1
舜 1
Kar@@ 0.050503887250698085
Tur@@ 0.08241126936131182
敛 1
囚 1
筒@@ 1
耦@@ 1
谕 1
濾 1
CN@@ 0.4006547430677081
斃 1
昊 1
绪@@ 1
菁@@ 1
楓 1
蔷@@ 1
龄@@ 1
姻@@ 1
溥@@ 1
珂 1
Mal@@ 0.05512756256391391
ight 0.09130277105253735
寨@@ 1
隍 1
攤@@ 1
湊 1
锌 1
ism 0.044042576042320265
204 1
MB 1
ins 0.02758290792697789
alis 0.2261247172964062
â 1
偿@@ 1
抑 1
漕@@ 1
ED 1
RA 0.33803632687307433
my@@ 0.17139959831553717
茜@@ 1
饒@@ 1
淄@@ 1
伞 1
珪 1
逊@@ 1
850 1
http 0.8332311404216011
iTunes 1
ong@@ 0.07426489647542864
缔@@ 1
鱈 1
Al 0.0658119941650504
咒@@ 1
1847 0.42136321647939007
冻@@ 1
淞@@ 1
狱@@ 1
Inc 0.9225197656150775
206 1
肆@@ 1
剂@@ 1
1841 0.46336723926682183
401 1
肽 1
ene 0.04443102779049784
ment 0.0302616341546651
毋@@ 1
207 1
懂@@ 1
榕@@ 1
汰@@ 1
RAM 1
顏 1
ist@@ 0.04288268781867169
奋 1
ba@@ 0.057165614158104776
von 0.0034682102121094322
弊@@ 1
乞 1
167 1
157 1
Boy 0.3611784467264692
DOS 1
ú 0.3218345589162951
淀 1
192 1
も 1
尧@@ 1
槳 1
Girls 0.38860591907061964
捧 1
峭 1
繡 1
銜@@ 1
149 1
420 1
Bas@@ 0.07620216912651953
Vol@@ 0.08521164801035754
ich@@ 0.06865010287285021
Road 0.08295516090279031
蔗 1
郸 1
ations 0.014017224625900106
洁@@ 1
Medi@@ 0.1830027328765566
4.2 1
ac 0.08464531962200576
1852 0.3890154274074405
龔@@ 1
tor 0.04737995224273162
冀 1
馳 1
愚 1
厘 1
鋁 1
173 1
绳@@ 1
嘎 1
沫@@ 1
铅@@ 1
鴉 1
侃 1
new 0.01821041132632773
樞 1
tube 0.563638820046877
厉 1
鳞 1
尘 1
纏 1
ai@@ 0.0897054803450848
坊@@ 1
浑@@ 1
163 1
Ltd 0.39445427554261453
NS@@ 0.3349399501540024
圃 1
肚@@ 1
Can@@ 0.08133527767244036
鹼 1
祺 1
新加@@ 1
莒@@ 1
匾@@ 1
靶@@ 1
扮@@ 1
濬 1
CP@@ 0.44200783696521895
2.7 1
class 0.07871721707127559
唤 1
壹@@ 1
搖 1
椅@@ 1
潰@@ 1
邓 1
厲@@ 1
稳 1
膝 1
臧@@ 1
370 1
low 0.05807508727310595
繆@@ 1
oo 0.23167091186343577
扯 1
琰 1
747 1
Force 0.11439862021361516
谥 1
龟@@ 1
ee 0.07754846614785182
オ 1
誇@@ 1
諱 1
ib@@ 0.06862302341074696
謠@@ 1
艷@@ 1
绵 1
1849 0.3626997093680713
匈 1
綿 1
敕 1
诞 1
3.3 1
NS 0.4822201776271949
锐@@ 1
忧@@ 1
dr@@ 0.031003913032896707
铅 1
拾@@ 1
筛@@ 1
LGBT 0.7268989195523095
廊@@ 1
腎 1
妝@@ 1
闯@@ 1
鲸 1
gen@@ 0.0285159880132295
溥 1
笙 1
SI 0.6990255938903024
柜 1
鳩 1
劑@@ 1
EC 0.5269057061240461
妈@@ 1
澳大@@ 1
脸@@ 1
à 0.0024443324764280784
琶 1
铀 1
not 0.009606680358749302
フ 1
嶺@@ 1
锂 1
161 1
183 1
郵 1
1.9 1
2023 1
Astr@@ 0.3100098545777699
sch@@ 0.016550306672002763
1815 0.39602101753984625
ire 0.04287484279936782
Gi@@ 0.07946511076527697
廂@@ 1
眷 1
蠟@@ 1
pa 0.12191561837849024
1846 0.39889306746100717
σ 1
Si@@ 0.08999104834888233
沁 1
芽@@ 1
188 1
Ti@@ 0.0947647684540197
ff 0.10258304145576821
厭 1
蕴@@ 1
瀛 1
猜 1
171 1
209 1
圻 1
颠@@ 1
檻 1
ket 0.1717418900601248
腔@@ 1
ann@@ 0.04228888466595295
赶 1
221 1
摘 1
泌@@ 1
Wor@@ 0.08548095626066671
鸭 1
184 1
TR@@ 0.9421713503311218
A2 1
у 0.017558200938522422
兜@@ 1
蚊@@ 1
谊@@ 1
鼬 1
ET 0.771293545106406
USB 1
勛 1
Hall 0.07776293897106618
戍@@ 1
泸@@ 1
汲@@ 1
匡 1
潼@@ 1
鞭 1
挑 1
ε 0.32494224865862237
叡 1
嘆 1
д 0.03842060071298713
Script 1
ten@@ 0.025982519361928
der@@ 0.030785168456881628
鹼@@ 1
iz@@ 0.035011713883394656
绒 1
儂 1
159 1
闊@@ 1
絮 1
穎@@ 1
ρ 0.49623675015450897
CT@@ 0.7425860752554245
ل 0.3397818014855682
← 1
裘@@ 1
暢 1
1820 0.32894450385855195
垦 1
庇 1
悔@@ 1
侠@@ 1
衢@@ 1
赣 1
扑@@ 1
烘@@ 1
畸@@ 1
輩@@ 1
Ri@@ 0.06554111334555111
佑@@ 1
励@@ 1
紳@@ 1
鉛 1
肋 1
萎@@ 1
222 1
ES 0.7532166754123708
帥@@ 1
悚@@ 1
蘿 1
1845 0.3957012151007943
瞿@@ 1
Server 1
164 1
沂 1
鯊@@ 1
178 1
290 1
chem 0.914624289842128
惹@@ 1
215 1
厉@@ 1
霰@@ 1
176 1
飢@@ 1
ach 0.04365932264324441
me@@ 0.03452809515653582
1844 0.4245808047518489
Net@@ 0.3126532740372254
TE 0.7065757777636074
悖@@ 1
South 0.02996550038049
昧 1
Bor@@ 0.06968974724070783
Galaxy 0.9480553798333223
MHz 0.9535501377491199
ex 0.11568661499695514
稷 1
晤 1
迹@@ 1
夹 1
靴 1
182 1
逾@@ 1
Instagram 1
Association 0.06077016710140473
Records 0.08218977538220851
ake 0.07696412667785286
ys@@ 0.07532286236875134
运动@@ 1
XP 1
for@@ 0.02454935571228179
騙@@ 1
恤 1
É 1
Des@@ 0.07851366573336506
栽@@ 1
172 1
ν 0.3669075267468172
辜@@ 1
飘@@ 1
绎 1
Dr@@ 0.07770290653449974
181 1
SQL 1
乏@@ 1
93.@@ 1
mi@@ 0.042771770278991136
鈣 1
鑿 1
齣 1
Ni@@ 0.08862599460579272
吟 1
MO 1
CEO 0.3490028209714207
劲 1
邑@@ 1
Pal@@ 0.07427132653405957
berg 0.04554319162427902
ura 0.07031325214529141
譚 1
苷@@ 1
頑@@ 1
man@@ 0.02717083359931805
靡 1
196 1
ette 0.04065131484565002
菁 1
Bu@@ 0.10571766224674443
擱@@ 1
燦@@ 1
搏@@ 1
芮@@ 1
遙 1
Store 0.8165166384637343
up@@ 0.04394437437249434
す 1
Mi@@ 0.09800104442822086
姪 1
岔 1
惱 1
簧@@ 1
馈 1
cr@@ 0.033213964624588185
茉@@ 1
480 1
bl@@ 0.030204929876463338
吟@@ 1
0.7 1
況@@ 1
遵 1
锥@@ 1
212 1
Ros@@ 0.06927626846432514
枫@@ 1
驰 1
189 1
ass@@ 0.025783821838626923
field 0.03587779880325083
‰ 1
賃 1
敘 1
Play 0.3607725391031109
煉@@ 1
磐@@ 1
AF@@ 0.3953366323749215
虧@@ 1
300@@ 1
ates 0.024400019128585238
IGN 0.6470241467107314
ike 0.14156850342922045
棺 1
馳@@ 1
濠 1
萧 1
遴@@ 1
10000 1
ei 0.0932757509489784
甦 1
碉@@ 1
you 0.09587702710547971
庸@@ 1
45.@@ 1
North 0.03598403935153386
殲@@ 1
238 1
颖@@ 1
ek 0.06839340953094787
ico 0.05425830016361429
嘻@@ 1
撃 1
骂 1
鬍 1
鲤@@ 1
Sa@@ 0.08085578249529314
聪 1
︰ 1
濮@@ 1
Best 0.09191368407635542
Le 0.008726452338320995
楷@@ 1
濁@@ 1
瑤 1
1812 0.36773072513914873
Fire@@ 0.8439997473310764
uc@@ 0.06062224579988244
暱 1
産 1
じ 1
咽@@ 1
陋 1
this 0.01010398233179898
薰 1
噸@@ 1
3.1 1
Black 0.08584310692769209
Mr 0.49876629744573686
Tor@@ 0.06676263196983301
櫻 1
朽 1
蒋 1
99.@@ 1
App 1
1843 0.423554250901051
Na@@ 0.1783477082699674
坟@@ 1
mon@@ 0.02527427816157939
Max 0.1604057557335513
line 0.029203358341087615
Sho@@ 0.16396826085607782
ville 0.027002060749962913
傾 1
毫 1
Fre@@ 0.05008824852697269
ford 0.05161141063440511
Sony 0.4095251749006457
FS 1
Sim@@ 0.08644260091192152
WWE 0.41833943986660826
ting 0.02248436379750504
几 1
Gar@@ 0.07250167289003817
lan@@ 0.05659455772078396
侬 1
礙@@ 1
纜@@ 1
臭 1
鈕 1
KO@@ 1
濃 1
绣 1
lu@@ 0.047157067205305866
糯@@ 1
1814 0.40081163794689617
Pre@@ 0.07335921525709699
he@@ 0.03327897976734777
223 1
MVP 0.9483822226634373
佣 1
ain 0.044751164639398315
僱 1
浜 1
PN 0.588580236325598
HP 0.5763285589345278
Pan@@ 0.08788038404229556
Reg@@ 0.04636201750740932
1842 0.40162570515981205
und 0.0014987561984940152
Lu@@ 0.0690737036995428
渥@@ 1
谨@@ 1
DI 0.4951909654508979
楔@@ 1
潞@@ 1
铃 1
Lee 0.11292130666652139
ada 0.01332367506138968
憤 1
脆 1
酬@@ 1
187 1
CH 0.9102897191726433
ry 0.060432918178426116
蒸 1
薹 1
eng@@ 0.04045129562123999
煥 1
鑲 1
Jo@@ 0.10964850213640027
棱 1
Del@@ 0.10407947665179258
ili@@ 0.0565043175904222
Fi 1
DD 1
凸 1
紗@@ 1
驾 1
47.@@ 1
dy 0.09164558590319667
萌 1
雁 1
Ul@@ 0.1121578164040762
177 1
芷@@ 1
Direc@@ 0.18229260102768663
DI@@ 0.9638703109414526
ROM 1
Don 0.1289069393272597
SL@@ 0.7057465944410348
枣@@ 1
ã 0.7601748730563741
绒@@ 1
CM@@ 0.6328183458245579
DP 0.2943877207624644
our 0.03894844123966696
ra@@ 0.04148004799640306
ô 0.38606414940764155
佣@@ 1
197 1
430 1
la@@ 0.05636155864541061
キ 1
羧@@ 1
410 1
Kong 0.16492094137642407
ish 0.054830650844085595
覓 1
174 1
灌 1
ran@@ 0.03790112254326153
瞻@@ 1
Envir@@ 1
UE 1
que 0.0022951661881414095
弈 1
汕 1
To 0.09334439728645341
217 1
ain@@ 0.05642670131917526
400@@ 1
Char@@ 0.06495958326723877
Henry 0.07217295418992403
Jean 0.04518346166503556
com@@ 0.02372708395112425
vs 0.8124505616062946
嬰 1
SP 0.7074770941126132
Tel@@ 0.14000195432252832
ens@@ 0.02452383236540608
佬 1
ola 0.09283249687482344
Internet 0.18794546735303946
隘 1
猷 1
228 1
DB 0.670116555851556
墊 1
斡@@ 1
羲 1
遏@@ 1
烦 1
裳 1
鳍 1
尘@@ 1
aj@@ 0.04998550401057278
搁@@ 1
皂 1
305 1
ge@@ 0.017485378636105893
ita 0.051493596576725906
っ 1
夭@@ 1
膺 1
駝 1
哆 1
朋 1
閔@@ 1
169 1
CG 0.9826127252357001
ja 0.0567370713816353
滋 1
HTML 1
凹 1
詛@@ 1
扔 1
橙 1
浑 1
跡@@ 1
胺@@ 1
ase 0.06159660885906777
岔@@ 1
爺@@ 1
BSD 1
磺 1
诊 1
well 0.017715514721640974
晟 1
檀 1
磐 1
绰@@ 1
ula 0.18328828050689425
奚@@ 1
oma 0.11311217906389082
栖 1
粵 1
苑@@ 1
逵 1
驕@@ 1
dia 0.10497816587701883
畅 1
缅 1
貸 1
滄@@ 1
苟@@ 1
つ 1
詹 1
蜡@@ 1
HBO 0.9877074316748926
United 0.01662116488518559
eri 0.14054593172875676
und@@ 0.03958525386924012
up 0.013866154021370964
倦 1
茄@@ 1
193 1
м 0.023064228154067834
ミ 1
燮 1
ace@@ 0.13934653026709354
ISBN 1
卧 1
BB 0.7039338120643187
ology 0.04255890592056428
tic@@ 0.055023075330851254
偕 1
冻 1
Up 0.25987984908597217
芸 1
911 1
Girl 0.3287198977612324
ii 0.3206332484722612
挫 1
Pl@@ 0.05387217882211264
锅 1
挤 1
兑@@ 1
We 0.14419722578154742
钊 1
樵 1
Unix 1
46.@@ 1
Bl@@ 0.06079830983612221
歲@@ 1
贿 1
Kr@@ 0.04992394026765538
寅@@ 1
Web@@ 0.1772543451177802
冶 1
滞@@ 1
煞@@ 1
Joseph 0.06655784474877872
滤 1
璽 1
瀋 1
肪@@ 1
213 1
δ 1
蹄 1
汐@@ 1
Martin 0.07111654603486618
264 1
pe 0.05652321420782106
兇 1
渣 1
耐 1
コ 1
τ 0.31242357671903503
吨@@ 1
Cam@@ 0.09209067102641558
ative 0.03198833324083028
play 0.03684853222247719
叢 1
稚@@ 1
镍 1
甥 1
萃 1
侗@@ 1
mac@@ 0.21981871086723775
濂 1
竿 1
躺 1
218 1
昨@@ 1
179 1
壕 1
ack@@ 0.06201693328849378
蒐@@ 1
凶 1
靂 1
ash@@ 0.056356150079652785
sur 0.00839776929231596
呆 1
鬱@@ 1
鰻@@ 1
gu@@ 0.032152558066964675
勐@@ 1
壢 1
PR@@ 0.4511667662060365
绑 1
谟 1
謨 1
hu@@ 0.051299992611891033
寰 1
鲨@@ 1
dis@@ 0.012451168748275194
洙 1
菅@@ 1
潑 1
瞻 1
顽@@ 1
佚 1
谐@@ 1
Wo@@ 0.15454398857179627
oth@@ 0.0783106347290487
噪 1
帐 1
Bal@@ 0.05405975181649894
潍@@ 1
ek@@ 0.03496333913250994
堇 1
槃 1
猿@@ 1
饋 1
篩@@ 1
鋁@@ 1
Grand 0.056291463845509905
IUCN 1
all@@ 0.03523163926884354
Fo@@ 0.11161322837410508
Hello 1
La@@ 0.13117678665821464
ice 0.03889652238110535
懸 1
Hong 0.15967412934444802
橇 1
1789 0.48772116434613233
1832 0.3865155391702607
At@@ 0.0726767846846253
tor@@ 0.031023716250364413
斋@@ 1
216 1
ath 0.07683699383667919
☆ 1
冗@@ 1
夔 1
窩@@ 1
UL@@ 1
撈 1
ko 0.07832195585129009
go@@ 0.0724975909930444
冉@@ 1
嫻 1
amb@@ 0.06794755307952557
303 1
186 1
^ 1
ane 0.05455062208749606
柑@@ 1
兖@@ 1
澜 1
芋 1
River 0.04079275858310531
芥@@ 1
餉 1
砸 1
澈 1
蠕@@ 1
ock 0.08657203324171642
刮@@ 1
鲨 1
睦@@ 1
Video 0.2634588763510316
Wal@@ 0.06745343924457245
孛 1
枫 1
薛 1
Hel@@ 0.09282389045518682
劲@@ 1
爐@@ 1
搏 1
臂@@ 1
敞@@ 1
琮 1
濫 1
贷 1
262 1
ama 0.05402056754981696
緬 1
LS 0.9112821226370191
my 0.11990876357642292
沽 1
cor@@ 0.03287987426552692
僖@@ 1
妃@@ 1
1835 0.3666062142771314
嘯 1
汙@@ 1
蔭 1
鞑@@ 1
ning 0.04949766732477302
op 0.11662371918194474
咤 1
羰@@ 1
蒜 1
DS@@ 0.5796365655150949
Star@@ 0.11907132743612754
ave 0.09978561349902465
ger 0.047708359289822186
泄 1
祉 1
飄@@ 1
1839 0.3734574350282578
Japan 0.06565457116654884
Mir@@ 0.11268400235332597
廖 1
魄 1
吵 1
炫@@ 1
芮 1
IR@@ 0.5586795598333739
艏 1
苞 1
凝 1
Is@@ 0.06932180966663717
ents 0.02180645309687128
埤 1
缝@@ 1
咎 1
緝@@ 1
荫 1
Chi@@ 0.0846087413017933
Rem@@ 0.14265357781045088
娛 1
朕 1
骗@@ 1
Ki@@ 0.13774251389585315
錐 1
191 1
so 0.015780823524515875
Du@@ 0.0735591669818194
斛 1
俸 1
Dr 0.5178883567244456
Radio 0.09015067551769543
嚇@@ 1
笃@@ 1
365 1
Gal@@ 0.06585342122887165
餅@@ 1
1801 0.45937041666932626
BR 0.8349090103917669
醋 1
Rad@@ 0.11310039578219021
ye 0.05272382910867517
1821 0.3850149801002539
ET@@ 0.6764353226703935
Res@@ 0.06862080142691963
ki@@ 0.07945980093251719
й 0.02142566363308612
265 1
堰@@ 1
198 1
1795 0.5126842017336413
穴@@ 1
1838 0.3622493822191355
塌@@ 1
寵 1
渝@@ 1
226 1
PM 0.5284650412451325
PT@@ 0.7389279159951072
ς 0.26831685007163025
厝@@ 1
綁@@ 1
諮@@ 1
3500 1
Hal@@ 0.07556412951499716
褚@@ 1
瞞 1
穫 1
铵 1
Sy@@ 0.0967728552805393
誘 1
Jum@@ 0.672261960670887
唑 1
孀 1
篠 1
罢 1
鳚 1
610 1
舱@@ 1
ym@@ 0.08027199530057015
GM 0.4021929339766763
テ 1
勻 1
嫉@@ 1
ida 0.03775420753543449
堕@@ 1
1806 0.39412626502066533
GT 0.46842674763837894
anti@@ 0.046538582073066416
勾 1
熵 1
鰈 1
1793 0.41962833927318643
拨 1
500@@ 1
枢 1
255 1
唔 1
ナ 1
Mak@@ 0.1425933077606821
灶 1
锥 1
驼 1
232 1
Power 0.19374650805929802
int@@ 0.053923853715679676
Smith 0.07786070810981457
纏@@ 1
腫 1
Mas@@ 0.062056217219360006
ro 0.07917940096345936
淇 1
薑 1
1836 0.35473564530295476
233 1
ft 0.044942834408994756
This 0.014070359901947164
UI 1
lar@@ 0.05550910637158582
凿 1
Fin@@ 0.06868997969899995
婴 1
捞 1
虔 1
撼 1
va 0.040510875811727694
1792 0.4720592642710374
ish@@ 0.05196409391090163
谏 1
km2 0.3136799863227343
沌 1
澱 1
酗@@ 1
闽 1
31.@@ 1
Super@@ 0.10361351690972088
乂 1
紗 1
侄 1
诬@@ 1
嫔 1
竭@@ 1
PL 0.9951286378388701
Tw@@ 0.1918324977985757
king 0.03735325410906487
ī 0.45327696879498414
叹 1
炯@@ 1
199 1
戛@@ 1
焕 1
Blue 0.13156836709826483
蘚 1
刁@@ 1
涯 1
4.0 1
AO@@ 0.6157673353786148
ess@@ 0.029040874658258123
竇@@ 1
ill@@ 0.027267705523063998
ou 0.012693781807561463
忙@@ 1
鈔 1
News 0.14303347274335929
yc@@ 0.11601596004780677
樁 1
墾@@ 1
暮@@ 1
194 1
249 1
謬@@ 1
ウ 1
鈍 1
妳 1
MD 0.5322182252799432
や 1
暑 1
薨 1
port 0.056219328057606065
癮 1
稀 1
豔 1
ブ 1
檳@@ 1
鑰@@ 1
950 1
Be 0.3361980406788039
Wil@@ 0.06743022123217486
ut 0.06259670429046967
渾@@ 1
昕 1
Ger@@ 0.04433961754661096
瑶 1
蹈@@ 1
219 1
筠 1
貶 1
ι 0.20885035317344441
帧 1
col@@ 0.022392735197076956
宸 1
酱 1
镁 1
left 0.0341849260293717
tis 0.10731419540124464
縛 1
Tom 0.12521753736685248
ali@@ 0.04679351356536091
煩@@ 1
ATA 1
巔@@ 1
妝 1
幌@@ 1
擠@@ 1
轎@@ 1
Network 0.185002544699389
VC 0.6628442208270612
傭 1
携 1
炀@@ 1
甬@@ 1
粟 1
wood 0.06523851769010677
1837 0.3402549702278046
275 1
牽 1
Young 0.11637124899732502
van 0.07697926777038952
斩 1
糞 1
躁 1
League 0.024533205462546077
Sun@@ 0.14910752639323072
樸@@ 1
汝 1
擒@@ 1
篤@@ 1
尬 1
Nor@@ 0.04420503849389336
ash 0.09309564258729462
俩 1
殭 1
Art 0.05010349823275238
face 0.054361867788084745
倭 1
荧@@ 1
9000 1
棚@@ 1
Ke@@ 0.09674506331874241
喚@@ 1
摸@@ 1
Cur@@ 0.07553034788138203
ñ 1
だ 1
愁 1
釀 1
遮 1
« 0.003142246118310012
瀉 1
炔 1
Jav@@ 0.6018255844315876
谣@@ 1
Book 0.17743946824094686
Rec@@ 0.06389846108241129
West 0.03295343873819746
朵@@ 1
饑 1
ser@@ 0.028833417467644153
ve@@ 0.058045035117217925
眶 1
粤 1
耍 1
裙@@ 1
Vir@@ 0.15896708966054748
楨 1
day 0.023157646134575747
掙@@ 1
殆@@ 1
砌@@ 1
脾@@ 1
307 1
440 1
Power@@ 0.6823031552175414
Pyth@@ 0.9783159559520633
sa@@ 0.04899208555640302
倾 1
溧@@ 1
訝 1
贖@@ 1
醣 1
231 1
悄@@ 1
螈 1
229 1
Ang@@ 0.052223146543275166
HS 0.4312605853195117
anus 0.2243896099085138
ken 0.028144196790358244
淋 1
綜 1
224 1
MI 0.6740734135272162
span 0.3470336032510646
轍 1
State 0.027605221223301772
サ 1
槟 1
1831 0.36736855697567333
Ga@@ 0.18982382419541688
泪 1
嘗 1
姻 1
牒 1
琥@@ 1
繳 1
雉 1
Island 0.06324887086814987
Now 0.28900310778891974
Plus 0.2523814686026149
勿@@ 1
圾@@ 1
Cos@@ 0.17767030554624103
誣@@ 1
308 1
fr@@ 0.02659319996811813
洼@@ 1
昱 1
書館 1
谨 1
氹 1
秃@@ 1
葆@@ 1
蟬 1
褒 1
AF 0.2428783393401184
right 0.04996418959696234
ero 0.04822825159627339
251 1
CI 0.5924765864260915
he 0.003387691702301199
渚 1
绞@@ 1
1824 0.4080580127369461
640 1
阡@@ 1
輾@@ 1
now 0.02871227361956082
Luc@@ 0.1173359460141433
Mobile 0.4688459916068462
1825 0.38783387959197585
吓 1
Sir 0.09505103000357906
go 0.051656788422433285
耆@@ 1
Online 0.420479003598443
邏 1
CF@@ 0.4834603457890128
兌@@ 1
綸 1
靳@@ 1
306 1
妊@@ 1
Top 0.11553620742153847
仆 1
扫 1
粥 1
驿@@ 1
SV@@ 0.9320827639556876
蜗@@ 1
﹐ 1
mann 0.04179208637239389
tes 0.018864795713216097
胖@@ 1
Em@@ 0.07357946775056885
arg@@ 0.09058136971263321
淇@@ 1
鉛@@ 1
II@@ 0.3944296257056581
UR 1
嶋 1
蠅 1
彼 1
恥 1
锯@@ 1
駭@@ 1
UN 0.33470805307726426
渥 1
Core 1
tu 0.1774016817074734
颂@@ 1
LD 1
nm 1
诛@@ 1
掷 1
婺@@ 1
盔@@ 1
ost@@ 0.09959729941836191
壳@@ 1
戍 1
榔 1
欖 1
鍾@@ 1
锻@@ 1
302 1
MT@@ 0.7568916961917248
挤@@ 1
瞰 1
羚@@ 1
Cl 1
ast@@ 0.04577340688926794
瑋 1
520 1
拌 1
DF@@ 0.4814759798596693
謊@@ 1
Institute 0.06420044230836683
sen 0.03974548714556856
els 0.022413922386907554
EA 0.6140659886061614
毗 1
蘆 1
蚁 1
﹑ 1
1833 0.3587129793595354
CV 0.7541641802856179
ni 0.0479749909455495
ors 0.017637520963390146
檸@@ 1
SR 0.17355961984557944
ters 0.02997514690471395
咪@@ 1
敖 1
闹@@ 1
ky 0.08555881615792431
CN 0.8474984248263276
sin@@ 0.056592711917896596
ω 0.7644460344627075
1790 0.4162216358703474
洽@@ 1
瑄 1
Home 0.1484995551139368
SF@@ 0.556202587888408
arr@@ 0.03984575035265845
ム 1
檬@@ 1
ona 0.053172767688081726
韶 1
390 1
560 1
溢 1
eon 0.3929000359616348
膳 1
242 1
脖@@ 1
245 1
Production 0.19924244265605245
FF 0.3306015751013635
聊 1
豹@@ 1
CV@@ 0.8990388936469056
set 0.02938166608930953
譽@@ 1
谭 1
楓@@ 1
鲸@@ 1
FF@@ 0.508387205653326
Mus@@ 0.05647503714153422
Ed@@ 0.09328487651414362
325 1
Ha@@ 0.0833051984651027
唸 1
燦 1
鋪@@ 1
Bro@@ 0.06949513796459289
DM 0.5055176132012161
峪@@ 1
tive 0.036849361974793736
Asia 0.11628755453295815
垮@@ 1
1804 0.4659142376118595
1810 0.3623002019137224
エ 1
泼@@ 1
Bank 0.09575856251449467
プ 1
肤@@ 1
骏 1
Society 0.0619160688876533
ith 0.07489603878961264
ube 0.32764956038131693
叻 1
est@@ 0.021260979295797778
栈 1
227 1
惜@@ 1
廬@@ 1
讳 1
110@@ 1
盼 1
荡@@ 1
驛 1
乎@@ 1
杏 1
285 1
Vista 0.8092229244028626
硼 1
雳 1
膳@@ 1
饿 1
碟@@ 1
SL 0.5941498284613393
亏@@ 1
芸@@ 1
媚 1
460 1
Jack 0.10864520858098863
ba 0.06958099907400014
cu@@ 0.026308677228305332
攸@@ 1
慷@@ 1
轿@@ 1
Tre@@ 0.06495544171413112
aur@@ 0.08316317554586432
och@@ 0.08916400232291348
畑@@ 1
du@@ 0.03276541031089095
仑@@ 1
庞 1
汾 1
庐 1
摇 1
鋰 1
龕 1
萃@@ 1
蟾@@ 1
DR 0.3866280447791032
Dream 0.4003227035036396
IEEE 1
寡 1
残 1
窯 1
隋 1
摆 1
垣@@ 1
縫@@ 1
which 0.004135358193549542
伎 1
桩 1
煥@@ 1
砷 1
诈@@ 1
ira 0.08143803886120642
239 1
悍 1
赎@@ 1
羈@@ 1
瀛@@ 1
陂 1
Ir@@ 0.07036956667407142
謎@@ 1
254 1
eo 0.059654328945368616
爽@@ 1
ə 1
蛮@@ 1
飽@@ 1
Sel@@ 0.09400857872305618
拐@@ 1
偕@@ 1
1799 0.5020351462133248
チ 1
昵@@ 1
诵 1
Hor@@ 0.06968607624550963
Ly@@ 0.10424634618125114
Research 0.09357220747561314
冢 1
ace 0.04882723171840197
tus 0.190790175261403
撾 1
璜 1
ere 0.02739338882126106
妒 1
Cer@@ 0.08280093074250379
Rock 0.09741026114943543
惕 1
鉅 1
311 1
Eng@@ 0.10481239487837399
ua 0.09144262284167769
琦@@ 1
踪@@ 1
Prot@@ 0.09493137967579325
嬌 1
醇@@ 1
1644 1
刹@@ 1
簇 1
can 0.013758649525041097
mer@@ 0.02360927393972912
་ 1
韌@@ 1
lin 0.08749411389457895
暱@@ 1
獄@@ 1
篆@@ 1
韃@@ 1
https 0.6571948116784007
殴@@ 1
318 1
Good 0.23883700484583462
Junior 0.16151151812928372
よ 1
1809 0.41344831177647107
BT 0.8388778132133342
more 0.01100331979962896
聆@@ 1
234 1
aus@@ 0.014650506645539756
グ 1
弯 1
ty@@ 0.07173459755332848
鮨 1
赂 1
垫 1
筋@@ 1
ard@@ 0.04735705096812898
ema 0.09886890677928686
厘@@ 1
柵@@ 1
Open 0.08719437825270482
ng@@ 0.07031092740787105
衷@@ 1
遥 1
1776 0.5836980142845595
Tour 0.061969904050344
佥@@ 1
呀 1
舵@@ 1
pH 0.848570526668899
ver 0.04811360815565679
栅@@ 1
fe@@ 0.023232877327843782
Sports 0.13237188576986203
ast 0.059552426361293986
over 0.011255232799685924
雌 1
Kh@@ 0.06769196843358156
Ty@@ 0.11787488118409106
1834 0.324874826331654
绅 1
530 1
osaurus 0.47223844835593987
涪@@ 1
瀾 1
mol 0.8196338990790969
ニ 1
丕@@ 1
252 1
of@@ 0.05646925520696874
ster 0.042270048796879685
1822 0.4025279115475714
540 1
Award 0.04940493844719779
Magazine 0.20316759362880635
閏 1
304 1
Billboard 0.12043995612040133
CM 0.6441691590942339
First 0.05660866825373274
Ca@@ 0.16411989721344653
oh@@ 0.06962377446754156
uk@@ 0.05772767164217794
轶@@ 1
580 1
Church 0.04583991247168463
Comic 0.7178673022473848
241 1
New@@ 0.09697778024789076
White 0.0681035234182304
蟬@@ 1
H2O 1
630 1
傻@@ 1
襪@@ 1
1.0@@ 0.9539246660235343
攤 1
1813 0.34513451577865656
470 1
嫡 1
淞 1
踩 1
C1 1
LG@@ 0.6154472970291575
SW@@ 0.47867131181278494
ns 0.035063351167536436
Ado@@ 1
GS 0.5788154245023142
chi@@ 0.06842278221978003
GE 0.6204041166553419
inter@@ 0.014410778406855436
皿 1
Night 0.15695242346586186
» 0.0028001816884009522
岱@@ 1
386 1
苛@@ 1
EM 0.48232930307111715
iki 0.10631056737123078
慘 1
歪@@ 1
け 1
苞@@ 1
Wi@@ 0.1339271727345778
廁 1
槐 1
1828 0.3528834438297273
286 1
デ 1
ャ 1
we 0.046611340573688535
訟@@ 1
辟@@ 1
Service 0.08566336229014301
lin@@ 0.039848177742845575
蕙 1
蠢 1
Kir@@ 0.0933103800115034
嵐 1
葡 1
鷲 1
aceae 0.0912617074220287
梧 1
鹦@@ 1
1826 0.3700985547227049
War@@ 0.06575602811576063
ez@@ 0.05294983408641161
蘊@@ 1
詭@@ 1
Do 0.20435282855438286
掣 1
暇 1
葱 1
鉉 1
Mary 0.0684453601759896
埤@@ 1
246 1
攏 1
Channel 0.1798708103476042
Sar@@ 0.06479109070005153
CNN 0.8768749805439316
scope 0.33257996391672023
瀚 1
褶@@ 1
Louis 0.046733123111329176
ets 0.02219385899033732
絨 1
坳 1
窃@@ 1
逝@@ 1
Green 0.09324277404297787
贛@@ 1
720 1
晃@@ 1
湳 1
璟 1
For 0.03297301082286606
PE 0.8801027333911573
ato 0.047924691260170404
翎 1
跪 1
骄@@ 1
min@@ 0.024932801938000872
ori@@ 0.04182184901766516
氓 1
酮@@ 1
ement 0.013442543422878204
俸@@ 1
剃@@ 1
荫@@ 1
肿 1
1819 0.40666236697673724
IB@@ 0.48190513739951224
Your 0.22547207859926527
芜 1
钮 1
麴 1
Av@@ 0.07880614103110722
懋 1
芦 1
ness 0.04479219679279434
we@@ 0.028371075807025633
岷@@ 1
澜@@ 1
玺 1
璞 1
邺 1
隴@@ 1
Vo@@ 0.11850593362658567
鉀 1
East 0.04113355899672708
兜 1
匝@@ 1
遗 1
263 1
iv@@ 0.05263613271012065
バ 1
奄@@ 1
榆 1
瘦 1
Data 0.4452591170097149
ache 0.08014984631592728
冤 1
擂@@ 1
晏 1
1807 0.4074971261646883
兗@@ 1
嗜 1
鄱@@ 1
鷗 1
擄 1
枕 1
滞 1
1805 0.4193661804558452
620 1
PP 0.5422766603690646
Sub@@ 0.07031269694050175
Ⅱ 1
丫@@ 1
艳 1
莹 1
诠@@ 1
243 1
323 1
All@@ 0.09927853695370258
sc@@ 0.04125788856129238
1794 0.4214812390434187
Visual 0.7836947203838643
楞 1
吼 1
宠 1
Fi@@ 0.08401811184684836
倩 1
Maria 0.0710279361341754
Ran@@ 0.11693421519832561
ian 0.032686756857647166
滩@@ 1
稟 1
Moz@@ 1
钉 1
De 0.026474609383210588
Point 0.15419043745673477
Ta@@ 0.10458920482536671
僚@@ 1
桢 1
謊 1
Act 0.06732190406494144
Arts 0.0683063297962629
Dec@@ 0.07802475005347159
Line 0.09802720872095351
UP 0.6674785587936735
貧 1
Is 0.1621506657111409
ud@@ 0.05555315013956189
Corporation 0.11746041352678681
Sun 0.13713996899010258
哇@@ 1
Lam@@ 0.1364821237196346
eli@@ 0.0741527768635537
public 0.0249206971640934
吠@@ 1
噬@@ 1
玟 1
Science 0.08973225612410743
eme 0.07371329693931743
竊@@ 1
贖 1
償@@ 1
绸@@ 1
1808 0.3734677285464722
椒@@ 1
Pas@@ 0.06196178716735115
VII 0.20290259807123578
曳 1
1791 0.4678580164374266
DA@@ 1
ts@@ 0.029161872702498263
挾@@ 1
闹 1
ze@@ 0.05372834359939302
я 0.019961921601610207
煞 1
邮 1
icus 0.2667189210793583
lis 0.10360869803224333
灼@@ 1
秒@@ 1
翊@@ 1
靶 1
tro@@ 0.04276464019508323
銓 1
1829 0.3440055213497308
star 0.09743451681953284
蛺@@ 1
蝸@@ 1
衬@@ 1
谓@@ 1
253 1
use 0.015974862976132903
媛@@ 1
忻@@ 1
撓 1
VI 0.14668861157755067
璇 1
瘋 1
EP@@ 0.47215201666865925
拇@@ 1
昔 1
312 1
680 1
the@@ 0.04051016212866297
General 0.031575641149019305
have 0.007014299328464236
ling 0.03530743336028405
š 0.31471899998778624
1796 0.46005219589358015
Az@@ 0.10157884170332115
│ 0.12612614302727693
倩@@ 1
愧 1
擅 1
椿 1
266 1
锈@@ 1
Hi@@ 0.15523272063264354
eta 0.06234763283156666
昼@@ 1
蔥 1
訶@@ 1
钞 1
孢 1
Cat@@ 0.09193733255185924
sion 0.027428382698055306
AU 0.5875044559461648
妲 1
飪 1
Edward 0.08337854111446849
Ko@@ 0.05919238064413282
oa 0.11487501019004252
斂 1
斧@@ 1
査 1
螂 1
down 0.03015020520634846
毓 1
俭 1
315 1
COM 0.9413087574923295
僻 1
喊@@ 1
悅@@ 1
楞@@ 1
洩 1
矯@@ 1
詐@@ 1
1823 0.38730176017085777
236 1
κ 0.3244169143113076
赢 1
鼩 1
El 0.0071960093516674475
une 0.0032277979294471175
ュ 1
271 1
Station 0.08892720356333149
睞 1
肇 1
150@@ 1
Sin@@ 0.09043024294957457
黛 1
叭 1
姨@@ 1
迭 1
1818 0.34488896671043356
GPS 0.9717763015261929
aya 0.07125404624954035
湧 1
芥 1
244 1
ler@@ 0.03661987415701451
self 0.08001778393118861
迺@@ 1
雏@@ 1
DT@@ 0.8675916322709881
RI 0.5216176150047857
ame 0.06980769794126995
况@@ 1
叮@@ 1
妆 1
襯@@ 1
鳅 1
281 1
282 1
敞 1
ny 0.11358109122234056
癱@@ 1
Battle 0.08964358108944027
MG 0.655813121573716
ney 0.06130553432392883
鄺@@ 1
饷 1
257 1
PI 0.682537655991299
г 0.019794219593136066
绣@@ 1
鸞 1
1775 0.5293225178060652
248 1
1803 0.3467915302710403
Mad@@ 0.06859568380513331
匆@@ 1
焘 1
res@@ 0.01762955703043435
弥 1
Chinese 0.06570226274639018
儉 1
喃 1
MW 0.5105749749450487
ィ 1
禍@@ 1
诈 1
攀 1
趋 1
237 1
CL 0.6791452879722296
彥@@ 1
洮@@ 1
1802 0.38971102844744576
338 1
Ba@@ 0.09662678484322636
form 0.025569613686302936
厢@@ 1
昶 1
纂@@ 1
鏢 1
GP 0.4236681587124646
龛 1
1816 0.34534884391566395
aph@@ 0.1671639708817906
oni 0.09947886430232696
佟@@ 1
涿@@ 1
321 1
Ben@@ 0.061826960233293995
臼@@ 1
麒 1
Pres@@ 0.05862618121701719
ez 0.05639075707087394
iss@@ 0.05788479654546863
ms 0.05175433967346919
灑 1
熄@@ 1
鵰 1
247 1
鑄 1
Party 0.0411300089766416
sub@@ 0.019049539212674375
パ 1
硕 1
272 1
Hill 0.07290316009506556
Play@@ 0.10291436236284791
Sam@@ 0.06998279658579529
mg 0.7704934926418214
ن 0.22397400347967855
碁 1
table 0.08982642612858449
ax@@ 0.07409786365889406
歙@@ 1
Cu@@ 0.08368562940515485
ally 0.012892923297177904
ê 0.3408511252341636
伶 1
煎 1
蝽 1
319 1
嘱 1
墜 1
樟 1
廚 1
颍@@ 1
彌 1
艋 1
268 1
旌@@ 1
沅@@ 1
960 1
瘓 1
UF@@ 0.8175805173492637
蕃@@ 1
1798 0.4006344420421957
oides 0.2823846487171765
虧 1
僉 1
檗 1
261 1
ius 0.1262154837656933
ر 0.21003121592521315
舺 1
黴@@ 1
284 1
崧 1
碰 1
胥 1
Note 0.2849433291630926
蓼 1
As 0.01843103314752082
Nav@@ 0.11908469344907084
elle 0.008782920084223607
ima 0.07042504073417154
ハ 1
杠 1
ass 0.06909955307325057
卿@@ 1
堯@@ 1
脅@@ 1
葺 1
ota 0.09584664309584218
え 1
寝 1
秩 1
FL@@ 0.7130121804814873
骁@@ 1
撿 1
歴 1
bar@@ 0.02345319763959742
Shi@@ 0.09967846634466997
Tom@@ 0.09711902005678158
纱@@ 1
骷@@ 1
295 1
Han@@ 0.07056338395619048
eus 0.20370351546601362
沾@@ 1
わ 1
誡 1
鎂 1
po 0.09765102591700982
締 1
鹏@@ 1
let 0.07034434265470647
ops 0.10732859161962735
咐 1
囑 1
鏽 1
Meg@@ 0.18657308949498033
Sil@@ 0.08863533252472314
ted 0.010827704733691929
賂 1
long@@ 0.0979951777672356
web 0.14714224462321746
峨 1
蝦@@ 1
Mike 0.12156157024961887
桅@@ 1
殯@@ 1
Royal 0.039446390055391314
绩@@ 1
缠@@ 1
has 0.004703351199531644
頰 1
1568 1
Free@@ 0.7303656871345973
辱@@ 1
--@@ 1
don 0.07447774721579263
light 0.051582822316627225
С 0.022257045723242375
CF 0.299773897332296
LP 0.213165687135383
WTA 0.5922913920556075
ars 0.03448666962677669
por@@ 0.03739242873678707
屎 1
黯@@ 1
Little 0.10890144655078854
扼@@ 1
潟@@ 1
蓟@@ 1
1817 0.36042573417477997
eng 0.12229444891778772
煎@@ 1
660 1
IL 0.402075176073671
var 0.253976521312038
伶@@ 1
僉@@ 1
剔@@ 1
510 1
999 1
ß 0.09074561020835555
钻 1
1780 0.46880906112825393
274 1
螨 1
258 1
Digital 0.2515035519847616
adi@@ 0.050026567571761146
were 0.0031833825569840763
赁 1
yp@@ 0.07604884261466315
Dem@@ 0.07893577588409031
倘@@ 1
oto 0.07902796805116154
以色@@ 1
膚@@ 1
艳@@ 1
288 1
Far@@ 0.0627316971027953
η 0.025562774480014493
Alexander 0.07437231803894788
first 0.004816787475017785
琉 1
薯@@ 1
Awards 0.05885566251521057
pre@@ 0.01687355547268916
● 1
檎 1
诰 1
Scott 0.09810720663488713
Tar@@ 0.07333074044129023
匠@@ 1
沥@@ 1
籽 1
践@@ 1
辗@@ 1
269 1
276 1
Ter@@ 0.07870290391866704
cast 0.0743116216143366
ly@@ 0.07142203917696861
283 1
垦@@ 1
壤@@ 1
钩@@ 1
驸@@ 1
trans@@ 0.02000757532254773
Daniel 0.08483891162926135
San@@ 0.06336381520635247
bus 0.08599998766704095
inn@@ 0.03638103612179989
捆@@ 1
滁@@ 1
沽@@ 1
笈 1
AW@@ 0.6903409730441261
Mu@@ 0.06810413544233346
逍@@ 1
醮 1
鬧@@ 1
1750 0.5812235964695597
SB 0.5537164477490212
缚 1
1650 0.797504421306865
313 1
ides 0.043002201506859836
瀝@@ 1
缴 1
Of 0.11596125153551484
凋@@ 1
world 0.028711915822920014
錘 1
髒 1
Vel@@ 0.13040554611723162
fl@@ 0.027843794436076912
墘 1
櫛@@ 1
唤@@ 1
謬 1
ha@@ 0.05665774673350139
Mot@@ 0.0720355928830661
ug@@ 0.0480011152551051
瑤@@ 1
Cap@@ 0.10229005146805124
Ever@@ 0.13877246138035504
驰@@ 1
die 0.0012103746666915684
ガ 1
垫@@ 1
Great 0.06189444007912787
urus 0.49035963886130896
莘@@ 1
Mil@@ 0.06112967793169068
199@@ 0.8813703500164368
宵@@ 1
醯 1
钴 1
潢 1
艙@@ 1
貌@@ 1
ich 0.044639753295258426
咏@@ 1
遁 1
1645 1
act 0.04274193636512954
son@@ 0.038694668748763796
Phone 1
ds 0.03956419364738297
锤 1
1622 1
cl@@ 0.025319778526814975
ey@@ 0.06493785630856833
窒@@ 1
窖 1
1788 0.5004327304216112
掖 1
CW 0.77811742830616
Sky@@ 0.3452179475267527
ales 0.012799247267519185
inc@@ 0.028550715577008026
兀 1
徘@@ 1
梵 1
榄 1
緒@@ 1
腕@@ 1
333 1
EV@@ 1
Met@@ 0.09643692109340977
Tub@@ 0.8587917777574008
刪 1
fer@@ 0.02270444464466373
con 0.003944587296558268
2030 1
375 1
WA 0.32895485690830273
Wh@@ 0.1154618802563144
war@@ 0.027732631188097014
堺 1
晦 1
槐@@ 1
皂@@ 1
ke@@ 0.038916484099064036
ひ 1
洼 1
Ban@@ 0.07252237954099207
uch@@ 0.047728967351031354
湊@@ 1
舷@@ 1
ese 0.023175986318293228
ten 0.006177297844088166
孺 1
259 1
277 1
309 1
綾@@ 1
蚕@@ 1
ce@@ 0.054549303581297885
メ 1
拂@@ 1
隧@@ 1
1640 0.8162085914658443
憎@@ 1
1787 0.5000694759191618
Technology 0.13973200080260212
焕@@ 1
苳 1
莺 1
Master 0.12765241182365433
ji 0.08059076986735969
п 0.06303816943001452
287 1
ダ 1
佗 1
Ru@@ 0.05206594030264284
SN 0.8626903452853774
opsis 0.3089626878156913
咳@@ 1
騷 1
奘 1
滯@@ 1
胥@@ 1
BAS@@ 0.8873643762749489
Ig@@ 0.14704188502771692
Jr 0.14657617193496353
攜 1
蘑@@ 1
lia 0.13368866630946677
孺@@ 1
ali 0.06707322422856095
570 1
his 0.00224923852853041
婢 1
Drive 0.31778261951451653
彬@@ 1
柩 1
賭 1
鹃@@ 1
佃@@ 1
肘 1
膀@@ 1
har@@ 0.03301427765648539
ili 0.16024436710835263
姨 1
阙 1
atum 0.21652801155910384
ix 0.1436545235778868
side 0.021885043134108207
Saf@@ 0.1712772612348499
pro@@ 0.0269838468291149
砸@@ 1
Works 0.18923967103360897
彝 1
魮 1
Frank 0.08261476300511811
RE 0.7148961582102242
Software 0.29008769608840235
侈 1
勵@@ 1
拙 1
279 1
Hot 0.12790280870999485
The@@ 0.0773029506230118
cher 0.03241184636507822
IU@@ 1
Mol@@ 0.06339345119337328
function 0.11503526744333967
歳 1
涧 1
誥 1
Brown 0.07920793825902725
off 0.020571390425251416
ole 0.050600019295087714
釉 1
鬣@@ 1
鹘 1
cal@@ 0.04472109240613373
烽@@ 1
皓@@ 1
裴 1
瘫@@ 1
296 1
Union 0.0318012773481558
los@@ 0.08031929643984138
鞍 1
餵 1
1783 0.47597494472338026
art 0.0232707617032568
坟 1
湍@@ 1
180@@ 0.8526935830241382
Taiwan 0.248248686375963
anensis 1
螯 1
″ 1
妆@@ 1
Lake 0.05473582259498714
yn 0.08776023737747901
嚮 1
曬 1
穆斯@@ 1
Sor@@ 0.10296320981811626
Global 0.19115412924952982
War 0.020997708934115147
悦@@ 1
腭 1
fac@@ 0.04144643777417426
谎@@ 1
wa 0.04340155030689491
刹 1
摄 1
蝇 1
PR 0.32130145496073453
core 0.11438622889720262
抬 1
歉@@ 1
hi 0.08590672165512753
栃 1
膛@@ 1
荼 1
A4 1
Tim@@ 0.10938605560887829
煜 1
睾@@ 1
闰 1
1827 0.33393416449216945
299 1
tur@@ 0.020627009808009213
沱@@ 1
蠻@@ 1
Eur@@ 0.1293473759255341
PD 0.3247567334305463
can@@ 0.03546098072738921
system 0.023069901279215647
栓@@ 1
徊 1
灶@@ 1
贬 1
130@@ 1
滦@@ 1
Ple@@ 0.20659791848309741
old 0.02527438359747717
ord@@ 0.03343003480083561
堃 1
弼@@ 1
簷 1
账 1
anc@@ 0.041120902461069454
mat@@ 0.035188396708051316
蔔 1
324 1
Chris 0.11395882295615412
ela 0.060279724283426074
inus 0.21403988680323818
θ 0.9060250175372628
筱@@ 1
谜 1
Pat@@ 0.07269071171270988
amp@@ 0.038951382181949115
焰@@ 1
He 0.0036000341286847974
Mic@@ 0.18537942355765138
289 1
Model 0.24763475630608142
嗓@@ 1
骚 1
298 1
Bay 0.06285002511791803
忱 1
桅 1
绸 1
謗 1
冼@@ 1
娩 1
癖 1
喇 1
鑰 1
335 1
Cup 0.027798869369303567
512 1
檯 1
蔗@@ 1
331 1
Ku@@ 0.09719943001084647
Tro@@ 0.05812752696078493
Joe 0.09871680573845246
Ur@@ 0.04159605618389704
York 0.014651634768669618
ila 0.08135373938558649
ي 0.09315473150615987
丈@@ 1
槌 1
Journal 0.11454735031395771
Series 0.07890213845037024
璐 1
繕 1
ble 0.04261028065014296
甯 1
痪 1
278 1
CR 0.3452162648426275
MR 0.6784230782007051
Sand@@ 0.06720663535810786
igh@@ 0.0528610667455832
崴 1
挠 1
疣 1
Santa 0.04990999947885011
Sn@@ 0.2743311615593288
Special 0.13603261660316063
cul@@ 0.05336033991899189
Dor@@ 0.06841688973085222
ind@@ 0.03807696216109369
odon 0.5760719676474964
瀧@@ 1
Pen@@ 0.061773229788628294
Sm@@ 0.15343801978459484
alus 0.4192155857572254
抢 1
273 1
Explorer 0.6107690242224495
凳 1
赢@@ 1
馴@@ 1
1592 1
ë 0.3698013142277444
267 1
sti@@ 0.037796795140037476
ō 0.07247304783756961
婁@@ 1
趾@@ 1
م 0.1349388244101824
膏@@ 1
鲷 1
筲@@ 1
Ol@@ 0.06402394116384255
ビ 1
钝 1
闖 1
Andrew 0.11583964225696487
tics 0.05033148162743619
め 1
琅@@ 1
顛 1
驯@@ 1
ь 0.0378475170640877
佘@@ 1
惇 1
ep 0.08780990488749436
hy@@ 0.07041030437796589
lo 0.012226653139552054
郴@@ 1
蔽@@ 1
蟹@@ 1
霉 1
1811 0.33567720954234176
Out@@ 0.12002864615310908
Square 0.16475530126455926
atr@@ 0.04290693226369103
sur@@ 0.018896004382211815
纶 1
蜱 1
Lady 0.116670143173878
廓@@ 1
轎 1
鈔@@ 1
H2@@ 1
but 0.005242461360670355
攔 1
笃 1
臼 1
韬 1
屠 1
炉@@ 1
EG 0.6564034919862257
Gre@@ 0.06643678689691943
pu@@ 0.03471680814171377
tia 0.10687825134771468
垮 1
釜 1
櫚@@ 1
糸 1
镶 1
Free 0.15784183985253414
ett 0.05150785512185136
住民 1
燭 1
衮 1
寞 1
揽 1
杞 1
inae 0.22966680650167218
inger 0.04759528304377752
Express 0.18145547557290548
Lis@@ 0.14734807434588776
MT 0.5482313734343174
SK 0.35785706796126515
胄 1
讽 1
Mess@@ 0.1567026472183033
Pri@@ 0.07290161015835564
Rap@@ 0.12736793394662702
铉 1
bre@@ 0.025491612723395386
髻 1
978 1
Air@@ 0.1556520872308495
eri@@ 0.058194833691432565
僭 1
忒@@ 1
Les 0.010004504367038758
aris 0.34613272590488
pot 0.17639041326391874
賄 1
踝 1
An 0.032606773166183455
喆 1
嬉@@ 1
磋@@ 1
ding 0.03660615283891895
φ 0.5266266586333482
薰@@ 1
鸠 1
Space 0.15727060505136842
Town 0.08173934915554507
樽 1
莪 1
Ci@@ 0.10944431904934718
tan@@ 0.03730439665151608
粲 1
艇@@ 1
Press 0.12920388794355578
ray 0.21435535109551845
鞠@@ 1
鵬@@ 1
291 1
292 1
Kin@@ 0.09044926944287392
ati 0.09025012541887106
沾 1
405 1
Christian 0.045419748633445244
羣 1
鈎 1
钛 1
293 1
Museum 0.04538511372557626
Syn@@ 0.1381686655694838
ular 0.037254612326654474
yg@@ 0.12878131026410775
198@@ 0.7924627519288425
Lov@@ 0.18845605605805246
1580 0.9575553660024976
NP 0.6981174948271609
捏@@ 1
犀 1
膦 1
杞@@ 1
柠@@ 1
綢 1
Mi 0.4369986787606701
mer 0.028439244498469796
賺@@ 1
郸@@ 1
鎚 1
饪 1
― 0.6695163851644276
ょ 1
纱 1
铬 1
che 0.02089656781037154
瘾 1
瑰@@ 1
Rob@@ 0.10481150017515146
Shar@@ 0.09969608200827638
榴 1
314 1
Bill 0.08634662352169219
win 0.02944972546994974
咏 1
NCAA 0.14140664425737995
窄@@ 1
驹 1
Code 0.20324333257722219
Obj@@ 0.23044013731985807
泵@@ 1
綺@@ 1
250@@ 1
322 1
Bul@@ 0.08199671704772969
Don@@ 0.06485730216354153
FIFA 0.17534718825724974
Micro@@ 0.28789680104631743
What 0.1597396683069486
pin@@ 0.09689492980910286
ろ 1
殲 1
泼 1
艉 1
鋅 1
钥@@ 1
1583 1
1797 0.37757291679547383
404 1
del@@ 0.03770076482839424
kin 0.08183893171823164
吒 1
嗅@@ 1
痴@@ 1
羁@@ 1
謁 1
鈦 1
1550 0.8450506645416851
1777 0.5207368034409744
Council 0.0364089052630089
Mur@@ 0.06470249097749232
aw 0.16398196009495825
cha 0.05047132407212321
m3 1
oni@@ 0.05612012281910223
tin 0.04232875411522
竄 1
Dol@@ 0.09452613519892379
祸@@ 1
345 1
DV@@ 0.3991169201869718
珉 1
耻 1
肄@@ 1
＋ 1
鎧@@ 1
tical 0.044141943126326924
缔 1
圩 1
妤 1
鱇 1
1598 1
Rel@@ 0.06375907336816802
卅@@ 1
糟 1
ison 0.057550174294646664
么@@ 1
驿 1
back 0.018032241471149506
糕@@ 1
tom@@ 0.04158498107321636
闕 1
鴿 1
Os@@ 0.06257592308466792
ats 0.022778155381536623
Dev@@ 0.0725316875748182
case 0.040097076689634276
莽@@ 1
1571 1
Perf@@ 0.5392523934456938
bo 0.11586471199416841
ku@@ 0.06466116858298072
蔑 1
釉@@ 1
禱@@ 1
跪@@ 1
闇 1
1570 0.9333947759902942
Heart 0.20356468132016603
SU 0.436403027461629
荥@@ 1
294 1
疵 1
鮭 1
her@@ 0.01633270639058806
浊 1
艷 1
316 1
490 1
icul@@ 0.20953236694931549
1648 0.6724767958579568
Gl@@ 0.06194461198923912
OT@@ 0.5834857229035698
aga 0.08039221059738462
data 0.062031725934402086
two 0.005629051015485107
弩 1
耿 1
麽 1
ik 0.043803358709301264
蟒 1
787 1
FDA 0.8499762033200015
SR@@ 0.5522299243137451
very 0.019336387115625218
翹 1
ef@@ 0.036104454451773495
稠 1
絞@@ 1
鮟 1
non 0.020058081997543782
捧@@ 1
氾 1
渦 1
翊 1
逮@@ 1
317 1
峻@@ 1
London 0.023729018699425047
ip@@ 0.09236820254176777
愷 1
1621 1
Mem@@ 0.10222138882425894
row@@ 0.24537399996080445
SF 0.5391791086884691
ans@@ 0.039591378310165355
宕 1
挡@@ 1
HIV 0.4452393125959942
Mul@@ 0.0964865338869118
ating 0.015352504427188147
pop 0.08846786572317142
奬 1
聆 1
Net 0.665856115007775
匣@@ 1
ito 0.04890050437323085
б 0.055227400869115484
馏 1
Summer 0.06769791114041691
esis 0.08457270846235548
oy@@ 0.05219305682869395
嫂 1
尝 1
柚@@ 1
邵 1
SH 0.5052740927775161
倪 1
兮 1
334 1
Ash@@ 0.08563717709847682
Flash 0.5364467926321579
羞 1
逕 1
rom@@ 0.04654648171672826
噴 1
诱 1
ello 0.05540574971988523
琨 1
蝎@@ 1
1625 0.9575054598031222
DL 0.6163702317906088
ri 0.09333565956501302
FBI 0.36826693891921103
锰 1
拢 1
1778 0.4901737019658129
760 1
app@@ 0.057580352304539985
廬 1
矚@@ 1
Run@@ 0.1871831403751949
ul 0.08010996017502241
⋯ 1
履 1
sk@@ 0.028407056377544423
佤@@ 1
呤 1
夾 1
扭 1
畠 1
裤 1
誹@@ 1
America 0.036376790324813786
Not@@ 0.07385359147026951
1770 0.464926253265967
Centre 0.06497291663106326
Plat@@ 0.06216039356265076
UM@@ 0.6823123490945828
厕@@ 1
拐 1
檬 1
Fal@@ 0.07996411499923317
Mah@@ 0.06043017355996698
剎@@ 1
＂ 1
Spe@@ 0.06219590977808508
edi@@ 0.049822006898094025
pos@@ 0.022185768003080687
唾@@ 1
诫 1
谅 1
ズ 1
碇 1
荆 1
贩 1
驟@@ 1
Black@@ 0.1182355755411517
Festival 0.04248851548587904
塚@@ 1
腈 1
GI 0.6765592785353186
Steve 0.10867519225965377
asi@@ 0.05083645913817939
摔 1
撇@@ 1
穹 1
膩 1
anth@@ 0.11082151950037972
楣 1
镀@@ 1
顱@@ 1
297 1
AE 0.3993241037551446
Chr@@ 0.2436580757642031
ы 0.01208264865009661
峪 1
缉@@ 1
蕉@@ 1
1st 0.05471128372573296
Conn@@ 0.12701412347214389
Eric 0.14832243078858637
Soc@@ 0.2879391566433391
XT 1
Two 0.05948500714757928
灘@@ 1
脇 1
鷺 1
sh 0.138336770653745
檐@@ 1
泪@@ 1
臥 1
麼@@ 1
吵@@ 1
茛@@ 1
蘊 1
璘 1
EMI 0.6566988088366847
Lev@@ 0.0923064951933174
丐 1
颅@@ 1
Aut@@ 0.08240503034425145
don@@ 0.037493402997977064
ington 0.0565259192735793
ule 0.06643649697565124
槭 1
425 1
幽 1
曜@@ 1
蕈 1
鋸 1
閑 1
Tan@@ 0.08271469667741874
恺 1
鐮@@ 1
钓 1
Nov@@ 0.07581572521701704
蔑@@ 1
Bir@@ 0.07141328815936687
媳@@ 1
FL 0.12685232521360998
緋@@ 1
婉 1
醬@@ 1
Pap@@ 0.0741727700399404
Studios 0.14265112506426164
蚜 1
髓@@ 1
Central 0.037111175386183054
汛 1
鮭@@ 1
355 1
HD@@ 0.7389284723182629
RN@@ 0.47443520383251037
less 0.02828775062219214
佬@@ 1
IF 0.37387569544332344
Management 0.1295851771770693
³ 0.261782441872087
谜@@ 1
Acc@@ 0.15144657590760535
Cin@@ 0.1305907672498637
Ram@@ 0.06337677248595971
ech 0.1378300362382988
瀕 1
競 1
厌 1
暈 1
Cel@@ 0.1047674206919484
our@@ 0.044459294596649365
ч 0.06478910742262581
DL@@ 0.8244371126636174
ø 0.6329051183398918
贻@@ 1
GC 0.3131168307631636
Place 0.18053038410423508
ser 0.019915963148139045
モ 1
揭 1
褲@@ 1
Dance 0.17772702649980582
SG 0.25041122621820366
Systems 0.20840234705573238
А 0.036272412969288535
瑕@@ 1
竺@@ 1
诽@@ 1
Bon@@ 0.09171017966140971
狡@@ 1
涨@@ 1
玖 1
褐 1
迥@@ 1
Ra@@ 0.0739415241948648
cur@@ 0.028459004492270783
巒 1
愤 1
暮 1
漱@@ 1
猝@@ 1
1628 0.9883791920720133
Key 0.3179083728670052
Pierre 0.04997160869893089
滥 1
瞳@@ 1
荊 1
镰@@ 1
Gro@@ 0.087747417170417
loc@@ 0.032907903100508944
ē 1
帅@@ 1
搜 1
赚@@ 1
USS 0.2180653942565811
晷 1
STS 0.9342921895355063
sol@@ 0.017188865529226462
宦 1
蔓 1
sy@@ 0.07600109930459938
凑 1
喘 1
櫸 1
Box 0.2693377970970193
Design 0.13058493452656594
sen@@ 0.025551145053523978
峭@@ 1
邂@@ 1
鹉 1
1785 0.44405643596722033
梢 1
藜 1
1630 0.7562369782248806
焉@@ 1
绛 1
Sky 0.22104172805846461
yan@@ 0.12300428788347038
dium 0.18044053235272975
res 0.046691159246381626
蔻 1
1784 0.40693426371433344
Arch@@ 0.054784146513628666
cin@@ 0.04675932165518446
刮 1
昊@@ 1
］ 1
HA 0.5576593833051813
ader 0.08335083542597185
扔@@ 1
祷@@ 1
酱@@ 1
ven@@ 0.024745059256399176
肾 1
逅 1
颁 1
az 0.07004427279187131
扈@@ 1
鞅 1
鹛 1
354 1
BP 0.5013242029471319
Kan@@ 0.06426043482270426
哩@@ 1
胱 1
＝ 1
懲 1
邕 1
Kal@@ 0.05121197589157341
bar 0.03347907117044055
咕@@ 1
咽 1
Poly@@ 0.1494797946304584
aster 0.1420963002416623
惰@@ 1
［ 1
Blo@@ 0.11929654527672043
Football 0.045285901634651876
Men@@ 0.06139885449701495
П 0.08045677263785897
婪 1
碲 1
鈕@@ 1
麝@@ 1
elli 0.08195015451927291
潼 1
Ben 0.10783483680413365
Dre@@ 0.06296961741279089
Yah@@ 0.4286277777362824
other 0.00678779435174627
sel@@ 0.032027276120358154
ū 0.1975417074144187
办事@@ 1
踞 1
銃 1
鳃 1
Tal@@ 0.0657788000105852
豌@@ 1
頤 1
叟 1
碾@@ 1
輿 1
1631 1
1661 0.8780848610634877
356 1
get 0.04633968637242526
ther@@ 0.04022523886619328
ture 0.030539969346932903
嘧@@ 1
Mont@@ 0.057171415403070656
Om@@ 0.1527990295747385
و 0.05641686880384231
AO 0.5295069608117852
1636 1
Bos@@ 0.07828935575128067
ici@@ 0.03913566618075447
onia 0.08431088540171383
Kit@@ 0.12247360550241058
壠 1
笋 1
羹 1
萍@@ 1
1521 1
罄 1
su 0.0038604937419171224
Δ 0.7101270348508419
1601 1
UK@@ 0.7408522127847507
stein 0.045226059761041396
unc@@ 0.03785335975267109
ze 0.034889943096544695
せ 1
曇 1
Bob 0.1004791132478709
Je@@ 0.07265369624397727
懈 1
纤 1
蓉@@ 1
Si 0.0881470470182746
Van 0.07953398489614184
ume 0.04934043677445622
NC 0.44849190351720786
蝗@@ 1
1565 1
1616 1
PO 0.6110900146213343
active 0.04202177554298447
溜 1
煦 1
贮@@ 1
夸 1
柿@@ 1
蜆 1
谤 1
貪 1
Pop 0.21014674937820887
巅@@ 1
泾 1
bian 0.13521008526780656
瘤@@ 1
韧@@ 1
Out 0.14119652409489852
gl@@ 0.03764802931632333
into 0.006661936565741456
戳 1
炫 1
炯 1
疟@@ 1
瞒 1
诅@@ 1
鼐 1
1603 0.8371002902178082
Edge 0.4476173890072611
Song 0.08734580386846695
ond@@ 0.04664408347338009
yond 0.504052250804677
錨 1
Bat@@ 0.05810710974698871
勖 1
卦@@ 1
挣@@ 1
毛泽@@ 1
1786 0.45560552087748823
395 1
Su 0.035723642558611705
gen 0.02852146731210804
tions 0.01279880387729006
斡 1
渾 1
脷 1
菸@@ 1
隍@@ 1
chin@@ 0.12729246018634646
had 0.0033657734014678675
xi@@ 0.11655572465026107
睐 1
Che@@ 0.15780628125283241
GN@@ 0.8503402187976312
瓚 1
絃 1
蚓 1
诃 1
1620 0.7155549317702323
Bit@@ 0.21561535565124912
She@@ 0.09951228409505064
kW 0.3260788341885882
嗽 1
蚌 1
Light 0.14420226343052445
Marie 0.054250388033384306
Sof@@ 0.19482214336385364
form@@ 0.031055353417583316
mor@@ 0.02919657921750158
tra@@ 0.059922603665223347
弁 1
枣 1
諦 1
遐@@ 1
District 0.024235372603390936
ele 0.05158276158906621
衢 1
鄴 1
鎬 1
BR@@ 0.46021067674244354
缉 1
襟 1
К 0.04228500705751704
噁 1
樊 1
cus 0.12816507875525474
ko@@ 0.05259659874380504
ski 0.05296619070183908
Ak@@ 0.041258013902860914
晝@@ 1
桁@@ 1
Uni@@ 0.08563558848024516
mu@@ 0.038834840568746934
sky 0.07048957776927221
悠 1
谿 1
鲤 1
1643 0.919368703856749
pol@@ 0.03137374569646445
椿@@ 1
氙 1
醋@@ 1
钞@@ 1
Sam 0.12742129549322945
拮@@ 1
耽@@ 1
蚜@@ 1
1772 0.47178628970909
CON@@ 0.8089754457471355
mail 0.21777635678702528
垒@@ 1
轩@@ 1
192@@ 1
County 0.01489084645486645
ely 0.01847774492336584
ga 0.053547909067187746
rec@@ 0.01705049101897743
嘌@@ 1
弛 1
抖@@ 1
WT@@ 0.5774165365035993
壢@@ 1
聿@@ 1
陕 1
WH@@ 0.4924211278724037
lat@@ 0.032077330813333915
will 0.015346557176294726
賑@@ 1
軀@@ 1
Ker@@ 0.06604391622345322
dit 0.04144107880474211
滘 1
code 0.08418280657843726
Loc@@ 0.06990052399623631
ins@@ 0.030035748373609058
top 0.025410978783053716
苛 1
Bus@@ 0.0787188873078152
Dar@@ 0.04399741738290583
Ham@@ 0.06438300278064622
Pa@@ 0.09109419189369478
宙 1
嵐@@ 1
掏@@ 1
矗@@ 1
蠶@@ 1
貳 1
1760 0.5084104473538493
BW@@ 0.5160660134364163
ail@@ 0.049686710814441884
nan@@ 0.4875151796101347
瞳 1
蜓 1
1577 1
cat@@ 0.030158993518516215
des@@ 0.01080606661119746
vol@@ 0.026976149173617035
寸@@ 1
蚂@@ 1
ies 0.01761326336455068
val@@ 0.03829999177786157
Prim@@ 0.08331457102117933
Rom@@ 0.039520907119248334
抉@@ 1
TT@@ 0.7446888938515669
菠@@ 1
锑 1
髏 1
Ray 0.13804820077943977
č 0.39550868169722514
Dream@@ 0.5760045618913864
Johnson 0.07013703438475574
ebook 1
螞@@ 1
1624 0.9728582214047672
Sav@@ 0.07484281818833911
ality 0.04985660732362131
cc 0.47294310344257606
1763 0.4856509455864857
恥@@ 1
祗 1
Il@@ 0.07377248818829306
LM 0.5802845912613759
Public 0.06890042182749681
Tak@@ 0.0720235013627615
enc@@ 0.026147612752514152
her 0.0041671267551217795
訥@@ 1
1781 0.46127895541745806
Law 0.07073774142094241
fer 0.03538709657984242
绅@@ 1
鍛@@ 1
鏞 1
art@@ 0.04684893945226332
Disney 0.11304874421409958
oi 0.14067139481124238
ub@@ 0.05053215457573426
杵 1
衙 1
鎳 1
鮑 1
鹵@@ 1
343 1
Bet@@ 0.11277738546605552
Class 0.14256710343509799
幂 1
桔@@ 1
蒴@@ 1
Stephen 0.10621308555708309
图书@@ 1
窘@@ 1
訣 1
閔 1
UE@@ 0.6902143737358379
ost 0.09112241676843284
谏@@ 1
opter@@ 0.3789220504739269
1610 0.7729142678660849
1619 1
195@@ 0.8459267904744666
336 1
BMW 0.35056101272184426
Block 0.30754993390288193
舆 1
1642 0.7894641204874018
Pop@@ 0.11948697776658879
ny@@ 0.10152339789573803
爛@@ 1
yl 0.08842087904535023
媳 1
谍@@ 1
霑 1
326 1
亳@@ 1
塊@@ 1
釁 1
Alpha 0.32842140793102875
British 0.01669366000643333
air 0.030341697907479974
red 0.024460113614858257
挨@@ 1
籲@@ 1
胱@@ 1
鱨 1
Coun@@ 0.13425031436254717
ゆ 1
嚼 1
岚 1
浓 1
Children 0.16161437904159434
Foundation 0.07779792179423352
yi 0.12391654399198163
巾@@ 1
泻 1
燧 1
棧 1
餚 1
Fri@@ 0.07860890837917767
len@@ 0.03866900569669793
their 0.004041749802194038
娠 1
浆@@ 1
鑫@@ 1
Fil@@ 0.06336546728243049
Pa 0.6812107894292595
number 0.013342925458172126
ICA@@ 0.7621999347859456
May@@ 0.08820765554083577
Story 0.19792725837237504
璧@@ 1
ust 0.05679347612583874
倚 1
悍@@ 1
憐 1
Cle@@ 0.13408247653666547
怜 1
悶 1
Last 0.18120559221887553
alm@@ 0.05263392950456589
reg@@ 0.019457794748823455
where 0.007705250155532061
彷 1
Arthur 0.07264561410062395
Sig@@ 0.08860084148184026
try 0.048953082253304844
1615 1
337 1
Ali@@ 0.10428566014272511
Player 0.18720871307452228
Post@@ 0.11069785470913868
sal@@ 0.028329550534082877
澡 1
鑣 1
馥 1
Rub@@ 0.14527606085346217
ika 0.07282146186132776
while 0.011675541576913938
慌@@ 1
昇@@ 1
Film 0.026763480024900903
aka 0.07590474679105824
size 0.05373883460165751
壘@@ 1
旷@@ 1
獾 1
酐 1
鱲 1
Williams 0.06688614519039181
ual 0.04477265991326528
弔 1
灸 1
眠@@ 1
1618 0.8053945370920023
ier 0.029906294907229843
薔@@ 1
Final 0.0881282367109674
cer@@ 0.02698427204422743
struc@@ 0.06475874460356663
惑@@ 1
掩 1
敲 1
洵 1
狠@@ 1
邮政@@ 1
HF 0.29156810379808923
cape 0.13552787199924676
箔 1
雾@@ 1
＆ 1
DT 0.49527431106137654
Tu@@ 0.07485664164992141
air@@ 0.02989060150167709
den@@ 0.02015390698812058
Fire 0.148883883350044
UM 0.76581295844449
aurus 0.42372802954137206
bun@@ 0.15761443105060594
枋@@ 1
碌 1
1590 0.8388419207502681
406 1
Roc@@ 0.08710334438745251
acc@@ 0.023879744241725
tro 0.08880943844299277
俞 1
疚 1
龐 1
332 1
Academy 0.04145607635241741
UC 0.3685193167370136
ova 0.08258093335999094
咀@@ 1
捆 1
幔 1
铂 1
鳄 1
1.5@@ 1
tar@@ 0.0273496842715098
帘 1
貂@@ 1
迂@@ 1
酿 1
隘@@ 1
folia 0.4094752436511108
una 0.003026961630452801
Techn@@ 0.09915213987938616
tem@@ 0.059525604373985054
з 0.03822925588885251
岚@@ 1
Jones 0.0626780852298813
Tai@@ 0.20461633162332823
ado 0.004699409683466288
兑 1
ck 0.06277481174298205
篆 1
馀 1
sim@@ 0.0650839408237728
М 0.061735839272311174
壩@@ 1
彧 1
Mini 0.5256991493058398
pan@@ 0.041668671670841435
圩@@ 1
昀 1
柑 1
瓯 1
诛 1
char@@ 0.03772991441096168
炱 1
礫@@ 1
繹@@ 1
肴 1
1730 0.5820933607280382
Cro@@ 0.056118329599978
ae@@ 0.12438400381142914
cre@@ 0.019732910704433636
纖 1
Name 0.055401914940791754
Pin@@ 0.08545830437575395
body 0.03536429706031178
В 0.003127705180995528
1627 0.9114393386691616
1774 0.42959653258869335
Band 0.04672763526710839
Show@@ 0.4211143267592353
侷 1
bal@@ 0.038010283157760005
鸽 1
1604 0.9298246289769899
Queen 0.06426807549915857
also 0.002997658373507738
酥 1
Cop@@ 0.11084714664532823
Ju@@ 0.055343886020868115
ful 0.037005840815133806
咲@@ 1
娑 1
巽@@ 1
1585 0.9630417536478785
Fam@@ 0.1939558711155139
Moon 0.18064404602833178
Up@@ 0.19581059915277396
WHO 0.920770119904068
ŋ 1
祚@@ 1
驼@@ 1
415 1
atic 0.04427710808587605
ern@@ 0.03014491299398453
俟 1
渔 1
Wat@@ 0.08524606788692105
栢 1
爷@@ 1
粱 1
菴 1
鑾 1
闍 1
Jac@@ 0.0798337406803219
犹 1
窦 1
Pur@@ 0.09986012193986298
ines 0.018849161250066627
剃 1
璉 1
筏 1
SO 0.5000524075611434
group 0.015620021418494723
1683 0.7943115605666172
ie@@ 0.03535540274129042
弋@@ 1
綾 1
虢 1
褶 1
Earth 0.0871112428198686
ID@@ 0.5633604027908983
Pix@@ 0.6072913397557942
ı 0.0613521202749946
1609 0.8530246327075875
Hotel 0.10240551988176592
PI@@ 0.44796961588411005
偃@@ 1
冥 1
淦 1
狩 1
瘧@@ 1
葱@@ 1
鴞 1
ros@@ 0.07259621588229687
惧@@ 1
袜 1
1782 0.3937976775304214
194@@ 0.17835380750849616
叩@@ 1
恨@@ 1
戦 1
Edition 0.26516219841846767
like 0.0167007038140078
tica 0.05651581661960516
｢ 1
Control 0.2109436249826393
Lab@@ 0.13517750058885888
care 0.06300493451304376
etta 0.11203329277684256
弩@@ 1
賤@@ 1
1634 0.8257955171479502
Bridge 0.09591664193418001
pel@@ 0.03431271915476495
棟@@ 1
１ 1
Let 0.2303499956494724
浇@@ 1
睢@@ 1
祐@@ 1
諺@@ 1
Lord 0.05806515571391793
Nic@@ 0.12453880166206961
main 0.020142123633124176
zi@@ 0.03595606990046598
咎@@ 1
熏@@ 1
腱 1
蕙@@ 1
VV@@ 1
box 0.09131743198968148
ど 1
寰@@ 1
汞@@ 1
PT 0.5198819589396618
pha 0.20836866571303692
粪@@ 1
1559 0.973004341062109
196@@ 0.7258441876313387
EL 0.5886454583502279
bul@@ 0.03570006052491714
out@@ 0.022797453407136847
呆@@ 1
扳 1
碍@@ 1
Mos@@ 0.06709239681883723
ham 0.0588437349757325
lock 0.0810148607768623
Jim 0.09933370736666085
On@@ 0.08770994736075612
ste@@ 0.026502156517461566
歆 1
珩 1
脩 1
铯 1
飆@@ 1
鰨 1
hr@@ 0.053242571081067336
瀨 1
踩@@ 1
Beau@@ 0.08721132705013272
Elec@@ 0.07375578322546143
ani@@ 0.05091437634248694
cap@@ 0.027737825126243097
ille 0.029711368890384553
value 0.08276338336738398
yo@@ 0.09007026672796459
闵 1
骠@@ 1
Avenue 0.0793259005342302
God 0.07961672721990097
chi 0.04736102654365347
ger@@ 0.017736426263745712
phy@@ 0.14022040489099732
歪 1
泮@@ 1
1723 0.7494755118709817
EF 0.38445672651931245
list 0.03674086393028247
紓 1
綬 1
绢 1
鶯@@ 1
AH 0.6387677495894302
App@@ 0.12858605704026677
GR@@ 0.6073404524970172
So 0.046095747529967486
嘔@@ 1
林匹@@ 1
柜@@ 1
1660 0.5043673425633406
California 0.0266530275448637
栾@@ 1
箏 1
193@@ 0.875784336404438
Oc@@ 0.07316975508069418
sson 0.12384559459548167
筍 1
醍@@ 1
釣 1
Rho@@ 0.2693565584527687
att@@ 0.023138757351598142
懶 1
Lar@@ 0.06493191938511206
睽 1
酯@@ 1
靴@@ 1
驴 1
lig@@ 0.034506371990256586
vel@@ 0.06860137259513395
厥@@ 1
lam@@ 0.03877219201751313
oth 0.07580491658334636
pal@@ 0.03676922423715646
枋 1
砾@@ 1
秧@@ 1
蚊 1
袞 1
Pic@@ 0.08361375815844393
Sen@@ 0.05241134752550004
men 0.011626597259634514
抖 1
蜈@@ 1
鵑 1
傢 1
摊@@ 1
轰 1
Dragon 0.2390182052432366
xx 0.7036543239810389
墅@@ 1
胁@@ 1
芋@@ 1
轭 1
1680 0.6196456049413305
Taylor 0.08394271103654626
amm@@ 0.039665388458934095
ams 0.0514168627988393
sw@@ 0.033052766744696704
霄@@ 1
Business 0.09695063237358213
Pu@@ 0.0819595060727539
micro@@ 0.08151492415824049
寢 1
槿@@ 1
軀 1
isa 0.0766358678693206
low@@ 0.04276084238283109
帚 1
轅 1
1595 0.939105478470679
1779 0.44324248810895917
History 0.01836214435505162
Hon@@ 0.05808330295439607
vir@@ 0.06907177788510903
棵@@ 1
蜍 1
嶄@@ 1
珈 1
纥 1
185@@ 0.5008849482741488
Fe 0.24083001734581932
dic@@ 0.032248907922286074
憬 1
蜻@@ 1
遶 1
1556 1
Walter 0.06987434480704707
ody 0.0900858945899642
Д 0.10009477074088342
喵 1
囉 1
骰@@ 1
Zo@@ 0.17049707825614813
ania 0.06323166910344817
oid 0.1247286691433315
only 0.007725922236043225
ب 0.13413864339179662
俚@@ 1
嬌@@ 1
槓@@ 1
舫 1
醐 1
隈 1
Tol@@ 0.10939437603449072
idi@@ 0.062199699388665965
under@@ 0.01978155855981604
廍 1
慄 1
旻 1
螃@@ 1
May 0.0125954165879865
Mid@@ 0.0750870185715573
匕@@ 1
荚 1
醴@@ 1
諏 1
鱈@@ 1
BT@@ 0.42507588083790593
Baby 0.23437151490463207
Simon 0.08333238506701607
iy@@ 0.06865037000423392
381 1
KO 0.3522977139561691
ault 0.07930658738126627
辍@@ 1
1662 0.8472986739111881
States 0.011145606280379812
USA 0.04440302054494125
bert 0.054654897802243446
iro 0.08056337596842977
ux 0.06380774303501942
赈@@ 1
頁@@ 1
erry 0.08443255356146957
not@@ 0.025801548795804607
剋 1
叹@@ 1
噩@@ 1
烴 1
耻@@ 1
Plan@@ 0.05919458339864603
Vita 0.729767615002977
log@@ 0.05080015569891499
狠 1
讞 1
谔 1
鄙@@ 1
1755 0.5479530861739349
cas@@ 0.02037482644546907
悌 1
蚣 1
fi@@ 0.02080529562808358
head 0.02359402749691785
zi 0.09067485489530407
恂 1
晒 1
讶 1
186@@ 0.4872032340702307
Hem@@ 0.13994943990865827
Mod@@ 0.06990724935738701
劭 1
卅 1
滔 1
腻 1
菏@@ 1
Sk@@ 0.06573588854354502
esa 0.039598720274719626
懇@@ 1
榨@@ 1
焯 1
甄 1
钚 1
NFL 0.10661017053602286
lie 0.05898776032251177
媲@@ 1
浚@@ 1
蝉@@ 1
賊@@ 1
鰂 1
Talk 0.46622352953989754
桦@@ 1
澍 1
鸥 1
1612 0.8750737744801039
CB 0.3898262861489699
ush 0.11321893468874247
via 0.029685330690476915
攸 1
钡 1
1517 1
Back 0.17688149286612373
gre@@ 0.04146822206274572
綺 1
貂 1
dings 0.11928393473098071
ev 0.07594413763440769
iko 0.12417741071090634
噶 1
爹 1
螳@@ 1
이 1
Sem@@ 0.07598792172702061
ple@@ 0.044656637148596134
ゅ 1
ェ 1
佯@@ 1
儁 1
眺@@ 1
辈@@ 1
Ath@@ 0.09939314808743742
Get@@ 0.38445072548269843
寢@@ 1
煒 1
Fer@@ 0.056600166634583025
Jackson 0.07228567733956139
PD@@ 0.5282364759883424
奠 1
芎 1
酉@@ 1
Operation 0.11424590054463893
oper@@ 0.03222408970552773
£ 0.06860154569446669
嘻 1
弋 1
彿 1
螢 1
郢 1
1547 0.9537594967622212
Anim@@ 0.24672092311906213
Est@@ 0.03534421452297874
Like 0.09949252738629452
List 0.045120242906938855
frame 0.14937648204683437
house 0.020245393495319737
晕 1
瀚@@ 1
矫@@ 1
賤 1
Can 0.19675141942097477
Li 0.1386846359746832
Ma 0.19487799240816756
Times 0.0521640151123619
ami 0.06435538092886058
ave@@ 0.1367768519795284
桔 1
漁 1
瀧 1
驊 1
Alex 0.1267302245315899
Long 0.0674276890046218
SV 0.12381335088192838
怠@@ 1
昴 1
靼@@ 1
bin@@ 0.055082710806166287
凿@@ 1
瑭 1
貯@@ 1
187@@ 0.42856457573301143
then 0.007916803139450566
1250 0.7861035304368342
Voc@@ 0.31151764292544026
嬅 1
磅@@ 1
蛹 1
Adv@@ 0.3258593524980339
ection 0.03948959609889702
襟@@ 1
镖 1
Arc@@ 0.14785648751769442
Land 0.04451443880512836
UK 0.0366598820896767
igo 0.15891931969024167
釗 1
Metro 0.14277220262267895
Stre@@ 0.07128360912400779
than 0.008874946041038669
they 0.005552637059117879
宥 1
洒 1
BB@@ 0.5217619368682358
Ev@@ 0.060909852898672914
Way 0.15647589874020712
arch@@ 0.03113881754174924
uli@@ 0.0723075973548853
ć 0.08914202377810566
仄 1
侈@@ 1
墊@@ 1
栅 1
1637 0.8605068787364543
1701 0.6737382281168717
ady 0.07675457268043859
aft 0.060410172365874315
else 0.25552163786557225
ho 0.15669265539811952
ノ 1
歹@@ 1
氐 1
熬 1
瓮@@ 1
顫@@ 1
OR 0.6562945453836632
Who 0.1555084423405562
pen@@ 0.024970880236881314
喧@@ 1
1773 0.45085189046718355
Kon@@ 0.029663323044245477
works 0.02271197376098443
Chap@@ 0.07214634363191749
Kids 0.35572388691521
Kn@@ 0.05885768309173633
Link 0.3605344777018004
itz 0.0397166057084595
point 0.019911219388774087
put 0.03404333038672213
寝@@ 1
鮃 1
English 0.020607337082587062
Happy 0.3676922598410744
mel@@ 0.03757241041436792
ョ 1
1607 0.9066349056352652
Old 0.05859996789054074
Sec@@ 0.09453385891675703
With 0.03159579964385356
ois 0.07458608842994496
嫖@@ 1
漳 1
Development 0.07203098451065726
ł 0.6192384550421224
颐 1
Alan 0.11977575680720842
Albert 0.061285146967970494
Beta 0.5397918171725877
Cour@@ 0.06496002381699476
uri 0.0934541116274104
uy@@ 0.05089969729972769
隕 1
After 0.01008655033180529
tel@@ 0.024988073625027054
溺 1
焙 1
茫 1
Cloud 0.3522656384981278
Stu@@ 0.06588010466318521
dis 0.15361405163747174
mal@@ 0.026526883491383182
そ 1
庠 1
烦@@ 1
鸾 1
Bus 0.23625094144408587
Wilson 0.07704696498477571
eter 0.033722235286006444
osh 0.2954735893622612
謚 1
Karl 0.048662888098234006
Phot@@ 0.2043870359535895
tig@@ 0.03560040132720217
絨@@ 1
覃@@ 1
詣 1
諜@@ 1
轼 1
Ari@@ 0.09554247234252065
bi 0.0699954382619252
bur@@ 0.025680280787126766
ren@@ 0.0180139723361521
ツ 1
卞@@ 1
诡@@ 1
黍 1
1569 0.9615728250342591
1765 0.4930039130373453
｣ 1
European 0.024645081805017746
Sup@@ 0.09526441194478175
aux 0.0056355742882927854
model 0.04682995318364859
沧 1
179@@ 1
451 1
And@@ 0.2736128210344341
Voice 0.2849467902995079
cho 0.01452405293887568
ide 0.03846051682990398
窟@@ 1
锤@@ 1
Liv@@ 0.10875873614684434
ster@@ 0.03586843323961403
thi@@ 0.06592146069788306
Audi@@ 0.1576983441270913
Sum@@ 0.06342132200385088
acy 0.03446982990727394
aro 0.08607617734794508
iti@@ 0.02592028356392798
姦@@ 1
葦 1
1771 0.4971358304149721
map 0.16866314502500762
堇@@ 1
痴 1
胚 1
雯@@ 1
2.0@@ 1
cli@@ 0.048960540450906156
ert 0.015395401859655095
蛟 1
Fol@@ 0.06485213248346403
Tony 0.09222928440110659
ail 0.05005579542860892
kar@@ 0.037867555578707135
ome@@ 0.1282632593185974
small 0.019477544661871127
sus 0.009397182595478382
尷@@ 1
畲@@ 1
Mari@@ 0.043817182592757076
West@@ 0.037732861463989666
action 0.021534376617550054
oz@@ 0.06782005952025598
峒 1
榷 1
涸 1
log 0.3763541368796461
巍 1
戸 1
诵@@ 1
輟@@ 1
197@@ 0.6379654520640384
Bol@@ 0.04695764124805671
Kur@@ 0.041198413697855464
ado@@ 0.14613409952295017
掸@@ 1
攘@@ 1
濑@@ 1
颅 1
鮠 1
Carl 0.06687631204320706
KS 0.5296894040545104
妄 1
欺 1
罂@@ 1
躋@@ 1
鴿@@ 1
鹭 1
WC 0.5100042256202978
誦@@ 1
谅@@ 1
1535 0.9368419870172331
1740 0.46112199415843286
Rock@@ 0.15759400454779432
Tam@@ 0.09145516385859741
act@@ 0.065779445046484
哔@@ 1
婁 1
屁@@ 1
Hay@@ 0.07058952468794408
Mes@@ 0.06821661570667845
asa 0.09120229479089419
sive 0.02587821587189508
ワ 1
亘 1
烛 1
184@@ 0.5616740778171238
Francis 0.07685497258755346
ability 0.028233505837821787
mag@@ 0.03676918235056665
夭 1
幺 1
蚀@@ 1
酪@@ 1
锺 1
Kim 0.08597405269554227
any 0.014976256251193353
tw@@ 0.03633347958172692
俑 1
塹 1
簾 1
KA 0.35843869262110295
Trav@@ 0.11593857019158325
躬 1
EE 0.35961420610185846
ci 0.03027373300346318
1762 0.48654447605711443
bs 0.04089443695844601
gar@@ 0.02839531146043489
wan@@ 0.06815338640907861
★ 1
ゃ 1
囪 1
柿 1
稼@@ 1
莪@@ 1
1649 0.752040221522221
ier@@ 0.02002695867814704
sey 0.06681813782152979
乖@@ 1
菈 1
錘@@ 1
Sunday 0.11250846450941877
olo@@ 0.113677842615632
敍 1
飄 1
1560 0.7083985674249971
Hom@@ 0.06032391089518196
Samuel 0.09275739848956266
ship 0.016066564147886247
ye@@ 0.0709607954650648
æ 0.9374747323070021
娶@@ 1
瓘 1
骏@@ 1
len 0.029684885264307292
漯@@ 1
秤 1
簇@@ 1
蠍@@ 1
Lor@@ 0.06638002283527739
eck 0.05027268980286775
Å 1
腋@@ 1
Brian 0.09975738676702604
皱@@ 1
镐 1
Laur@@ 0.0752989552920865
amework 0.2370331282756894
ear@@ 0.03178914024502096
hol@@ 0.02837595440896085
婷@@ 1
盂 1
People 0.06158523502703005
bor@@ 0.03011187091168264
min 0.10678124901576543
town 0.014169268512177051
υ 0.6039918069990763
菀 1
賬@@ 1
鲍 1
1720 0.5119203269768096
1736 0.685252702583863
1748 0.5903040645850116
Next 0.24644703283209157
Ther@@ 0.06540038889883554
蒐 1
Bab@@ 0.08243654148718219
End 0.14603127955153214
RD 0.5454669369879864
娣 1
翟 1
map@@ 0.13949932494341263
ther 0.05043503535116305
咲 1
擎@@ 1
镍@@ 1
1629 0.7443825180564133
Ep@@ 0.10193733656439609
Touch 0.6251296313817735
Т 0.11563579341678037
扈 1
沔@@ 1
竇 1
蟻@@ 1
Kevin 0.1230416653024572
蟠@@ 1
1769 0.47034492206100215
Fle@@ 0.10802692842436372
Good@@ 0.1277925192782158
Yo@@ 0.13387643698238183
奥林匹克@@ 1
悬 1
赎 1
188@@ 0.33777671194408354
ham@@ 0.06121281575446881
尻@@ 1
ever 0.03094659557736098
orum 0.1509261686902244
worth 0.05740924107941689
縻 1
赓 1
Cir@@ 0.11897743255763774
Just 0.15419657574555076
Year 0.05758856571903027
Р 0.13195664909675328
堀 1
奚 1
恪@@ 1
猖@@ 1
Patrick 0.08864272021709803
Real 0.061424080942848965
ate@@ 0.1439307823537582
巽 1
掾 1
漾 1
邕@@ 1
Will 0.14675945336194857
aki 0.07176228899914348
enn@@ 0.020532707092509987
喃@@ 1
懶@@ 1
榻 1
189@@ 0.36716895440492187
2nd 0.057498157475263
estr@@ 0.02669113603478002
啄@@ 1
壕@@ 1
歎 1
瑁 1
1757 0.5353494854239697
Gor@@ 0.0634559155451183
Land@@ 0.02129518517923018
Library 0.0859731584526965
蓓@@ 1
谬 1
dec@@ 0.014905210878983778
mas@@ 0.025985104960746932
nes 0.03525854849625662
ote 0.035398958033035874
usa 0.07775067151309503
杓 1
毎 1
泗 1
盼@@ 1
砷@@ 1
邃 1
Ki 0.514287208166298
Vic@@ 0.08150642327971737
ants 0.011370815369399717
墮 1
1651 0.7948873283808383
煌@@ 1
fil@@ 0.03870000178543585
啉 1
蛟@@ 1
鮫 1
1450 0.7581141327933711
Eu@@ 0.20376790926446628
Leg@@ 0.03938377615577516
hp 0.5315702075887596
1724 0.6681391941434616
Sab@@ 0.053601944396772086
eth 0.05666749380103692
劈 1
甾@@ 1
Cha@@ 0.20487056863606803
ɛ 1
夯@@ 1
甩@@ 1
遽 1
Clar@@ 0.08470338177172153
ective 0.0376517366594112
vi 0.11626848013566954
≤ 1
柘@@ 1
das 0.0024415634808252146
坛@@ 1
釧 1
摊 1
芭 1
NR@@ 0.1992396817705684
include 0.01723434199032868
恬 1
愉 1
懺@@ 1
湃 1
Hot@@ 0.13683980520122146
Pot@@ 0.07922471941754325
dor@@ 0.048031892711753364
呕@@ 1
帷@@ 1
躯@@ 1
侏 1
勐 1
Ha 0.15172795223883104
Lisa 0.21331862189588344
渴 1
1756 0.4924752370659506
ca@@ 0.10506345923499262
摒@@ 1
燭@@ 1
Adam 0.08517998329626325
iller 0.05826312601449791
yd@@ 0.1105615333780694
癡 1
闪 1
Bad 0.08341507688168774
That 0.056093766896317725
佚@@ 1
憧@@ 1
焊 1
籬 1
褫@@ 1
1689 0.5881265461601595
戌@@ 1
浣@@ 1
鳌 1
En 0.00279794128870924
Magic 0.2210324922323973
anthus 0.44964016476279495
ech@@ 0.032918260374936996
fol@@ 0.042370494799744945
垢 1
崭@@ 1
music 0.014285079216958846
ological 0.027700322610851206
嶠 1
Kor@@ 0.03926265861928136
mus@@ 0.03152183449797934
pedia 0.38887947947356105
ton@@ 0.04466041456716934
仗@@ 1
Fac@@ 0.06713346863776444
Rose 0.0960548977091831
Zero 0.3454744760076257
ery 0.05559006225195382
轿 1
陂@@ 1
Au@@ 0.03854937267555687
bel@@ 0.02046535995388778
紊@@ 1
鮡 1
1688 0.6007805418906222
Opera 0.13392563235356592
Valley 0.0515126846872311
ature 0.06956029779210746
栎 1
璿 1
1623 0.7541020881466203
惶@@ 1
Proc@@ 0.17916970863714277
Ruby 0.5043401864217826
pic 0.13990264739478114
呋@@ 1
牟 1
禿 1
虱 1
Over@@ 0.08099858551375932
fin@@ 0.014261938531718381
pur@@ 0.025533567787627148
ulu 0.13258228373052616
灿@@ 1
缠 1
萩@@ 1
钵 1
1727 0.6092200909820921
tional 0.028437697378490043
嫦@@ 1
寥@@ 1
琊 1
迥 1
1745 0.5245679005744188
癲@@ 1
Family 0.07033803592292838
ago 0.04398617912836941
til@@ 0.028881173891296626
ves 0.017034258661617466
岌@@ 1
拥 1
涡 1
翘 1
鍛 1
1670 0.5976901153080165
1758 0.4549298482436133
Lon@@ 0.14553146929633975
Market 0.19845855448746327
Rot@@ 0.06478446299843153
Tit@@ 0.06444259670951692
og 0.10514081149417542
缕 1
Nokia 0.5882098372153416
Pacific 0.05203262754668833
Pseud@@ 0.20571493246135916
Rev@@ 0.061181089189202016
apo@@ 0.04047889093941597
罔@@ 1
虾@@ 1
貽@@ 1
1764 0.4520379406709126
1768 0.41245472417300993
Miss 0.08495972150391141
Services 0.10136987778843945
oll@@ 0.0441394060131301
ward 0.044668650936704295
杲 1
泓 1
瀬 1
煬@@ 1
鏗 1
Education 0.04309513587629395
Jason 0.1466782982062323
讼@@ 1
闰@@ 1
1635 0.6618509283604593
Ryan 0.11889522484176034
WW@@ 0.33987995195464665
ency 0.038310673796132996
丢 1
剎 1
祀@@ 1
苟 1
铲@@ 1
鳄@@ 1
Dro@@ 0.09936583950267837
Tim 0.1327976386635792
cell 0.08293753234145948
uk 0.09524382754102079
岖 1
择 1
萝 1
鄚 1
霾 1
Comp@@ 0.12127760526972056
Div@@ 0.08001726556492464
Fu@@ 0.056364268062370174
Wol@@ 0.05490760531289748
佼@@ 1
鈺 1
Pay@@ 0.16646196715704267
Under 0.06535425853447321
ide@@ 0.04822873756928047
print@@ 0.22432310451944015
唆 1
恼 1
暹 1
蕪 1
.. 0.07479371410201735
Cros@@ 0.12538896259976196
gs 0.04101775662441084
悚 1
珥 1
ava 0.07932898415365994
rot@@ 0.041535980835500946
tho@@ 0.08936642794284715
yo 0.07741412330214144
ㄧ 1
嵊@@ 1
洄@@ 1
狹 1
鯙 1
Golden 0.0789377565929734
mil@@ 0.04363119865754732
帑 1
漪 1
稔 1
蛭 1
1667 0.6808397339994371
Cyc@@ 0.2581610485245838
囱 1
榭 1
祈 1
鳖 1
UB@@ 0.7794045238406458
瑠@@ 1
鐸@@ 1
Gil@@ 0.08367217680333262
Vis@@ 0.07504753141686028
ih@@ 0.05216424757883788
愍 1
馨@@ 1
Dan 0.1194733062602668
Harry 0.07617223795054144
pei 0.42281069211182687
兌 1
燊 1
颚 1
BM 0.43662598627808735
拂 1
痊 1
絹 1
剷 1
摹 1
秉 1
筝 1
1526 0.7946704608239197
lum 0.10884176000860778
摯@@ 1
ational 0.0360846699722345
搅@@ 1
涩 1
硤 1
礫 1
鉑 1
1626 0.7387546626204456
1735 0.5849324728552079
1759 0.48966372161548544
ilis 0.40857801287715445
nam@@ 0.03988572437956367
title 0.0213489945940205
瑗 1
禿@@ 1
谒 1
Collection 0.2036159072757305
Deb@@ 0.06728587039249223
Dom@@ 0.052533009459303885
Lim@@ 0.06034393986184752
tis@@ 0.03483430828805424
栩@@ 1
汁@@ 1
綵 1
肱@@ 1
軾 1
颌@@ 1
Are 0.2417995159357435
endron 0.7173222135484908
px 1
浊@@ 1
漲@@ 1
穢 1
芹@@ 1
1597 0.8786470579002411
Hil@@ 0.05497409085839021
Stadium 0.07154633006795219
Tower 0.14268189933315764
aun@@ 0.04873320213945238
plex 0.1340712742884183
sil@@ 0.03804545591230744
吩@@ 1
绶 1
蒜@@ 1
鉅@@ 1
Amazon 0.2766130011432742
ein 0.002671455183484391
ば 1
孽 1
嵇@@ 1
耘 1
酥@@ 1
MIT 0.3687945023066722
Na 0.25826558618508794
ご 1
乩 1
拘 1
曠@@ 1
琬 1
瑕 1
镉 1
Angel 0.18417249490691198
Soul 0.23562211875871747
hal@@ 0.023168519933707526
ʰ 1
疽 1
Camp@@ 0.061252981546577365
anna 0.08366937058311169
ws 0.034573510671323616
勅 1
瑋@@ 1
聾 1
1606 0.8007685243605339
Stage 0.23765915489955278
Victor 0.09149086760880387
Whit@@ 0.06760163107231543
tual 0.18973151431300178
砾 1
綏 1
羯 1
臚 1
Gh@@ 0.10260183515359735
砦 1
羨@@ 1
込 1
霓@@ 1
Social 0.0699623503585595
pres@@ 0.019965935083684383
print 0.12312097851449716
懦@@ 1
栈@@ 1
渎 1
蝰 1
酌 1
釘@@ 1
1767 0.4571907726273311
But@@ 0.1042836623117106
Port 0.06866052875328552
Reb@@ 0.07499750084615385
oro 0.06423029637463537
zo@@ 0.13014384952645214
蚕 1
蛾@@ 1
邈 1
镓 1
髦 1
pes 0.06932566497704924
闾 1
鸽@@ 1
Alice 0.1209670843365205
Pad@@ 0.07135265085669276
Rh@@ 0.09121823049712352
ids 0.03838744022229812
long 0.012463488211483242
under 0.007281404335508617
戡@@ 1
楹 1
瀆 1
灼 1
荨@@ 1
餡@@ 1
Prince 0.05300130325423836
wal@@ 0.032169122594267484
桦 1
1752 0.5482797836104101
Din@@ 0.08173105472469783
Ka@@ 0.08835440929107527
ols 0.038853249174803234
ow 0.03699921842972999
word 0.046030340619873704
裘 1
贛 1
韜 1
Sound 0.12671115347298964
ald 0.07316807016864889
ial 0.05088488097047995
嚨 1
擱 1
梟 1
矶@@ 1
粘 1
缪 1
钒 1
Nar@@ 0.06629134762586644
巍@@ 1
梳 1
鐮 1
钯 1
颐@@ 1
Die 0.0023739137891411236
Main 0.0688015926969045
Premi@@ 0.15608566582018077
Vil@@ 0.05297242089987794
ず 1
苇 1
Capital 0.13779901666709066
Dic@@ 0.14387067452192165
Samsung 0.42763735242296824
View 0.3362516769476099
illy 0.06876400553142152
ister 0.04482415791451335
ll 0.20323828381401776
ush@@ 0.063933099683112
傻 1
喘@@ 1
跻@@ 1
1572 0.7243810335541508
Mand@@ 0.06626509240430792
Not 0.11716793011922601
Pel@@ 0.08467231458056791
lev@@ 0.06573235110622536
nh@@ 0.030680188826684773
rey 0.03560740250550759
tex 0.31133916275155954
Ⅰ 1
涟@@ 1
畹@@ 1
BI 0.2698896236943842
def 1
繇 1
茴@@ 1
釐@@ 1
Ing@@ 0.06927819210684283
績@@ 1
钙@@ 1
Bo 0.4122505044917337
Jan@@ 0.07608548404555296
Ret@@ 0.08908185204142326
V8 0.38662572493195974
max 0.37341810484685956
钨 1
1633 0.7419671122401473
Dam@@ 0.06449082714825154
Friedrich 0.041664811400768366
H.@@ 0.18018347206095586
NH 0.4191555759604877
los 0.001601129046559805
檜 1
祁 1
Beg@@ 0.058152261566255574
Dakota 0.14689252114073517
ew@@ 0.029732809865123316
life 0.009587826580326496
lower 0.034059441169935645
ones 0.015573679663902064
د 0.1310373807368291
س 0.09320344354048518
澹 1
bas@@ 0.019794530454180843
蕴 1
顗 1
Am 0.014898562822744243
Dark 0.15297854106855616
Take 0.32609083936152383
eman 0.05755220227154493
晞 1
Bar 0.14606424646213076
pi 0.21634163886837565
喂@@ 1
齦 1
Aer@@ 0.11164914874495777
Pil@@ 0.05939837694489647
dan 0.04303720376372152
icum 0.3079129703113762
戟@@ 1
賠 1
餌 1
Level 0.3116040363160272
Van@@ 0.11038042257157832
app 0.208125939109809
oke 0.055990577338680285
ori 0.06514391359270627
pa@@ 0.07696823702488066
ζ 0.3745499972832906
尻 1
炙@@ 1
荠 1
钉@@ 1
鹊 1
1555 0.7907576437936074
1659 0.7158568071251366
掺@@ 1
隧 1
Bri@@ 0.048005314180600125
Cli@@ 0.15234066486375034
Cross 0.0744761728411426
Department 0.03303382983878233
ais 0.029520991408137954
char 0.32065870915278566
met@@ 0.025433334986235543
orus 0.28824898358760687
セ 1
儸 1
捻 1
湟@@ 1
疼 1
鍍 1
Gold@@ 0.059411432794087525
Information 0.12687374461169754
Py@@ 0.1570241128572072
ites 0.027396197392601736
蘋 1
颌 1
uv@@ 0.050921535993838765
啮@@ 1
嘯@@ 1
骥 1
Max@@ 0.15549619436068593
PN@@ 0.249586384327137
sis 0.1378249994221511
暈@@ 1
様 1
燁 1
1540 0.5810127995398321
Jane 0.10890420808745499
Ken 0.1817538411983983
uma 0.07571970535079235
µ 1
亢 1
薊@@ 1
1632 0.6392591184682322
And 0.08666507971484678
Fair@@ 0.09935539566612764
eph@@ 0.08526463279595693
kr@@ 0.031116762239162356
恃 1
捣@@ 1
滸@@ 1
璨 1
鈺@@ 1
1733 0.60319473021309
Bou@@ 0.0624870950378754
Zone 0.1300309102735802
nig@@ 0.21197148301495675
俐 1
癸 1
Hen@@ 0.07549100226796358
eti@@ 0.03939836572991824
ine@@ 0.05682012508889389
ui 0.10644191292740306
俭@@ 1
Kiss 0.36985675167924476
mod@@ 0.039092831370021605
thr@@ 0.047305948072624
using 0.018356825385112643
瘡 1
祜@@ 1
鷺@@ 1
1652 0.6995417990840194
Davis 0.06950183106613979
Mis@@ 0.06065769103488429
Sport 0.08993622460924695
ink 0.08882440917696117
壬 1
沭@@ 1
漿@@ 1
燮@@ 1
瞄 1
诲 1
鱧 1
1664 0.6894548152122889
Bud@@ 0.07920590105698282
ʁ 1
嬪@@ 1
晟@@ 1
獺 1
羲@@ 1
颊 1
France 0.00927075551924416
Map@@ 0.17545085043050274
ots 0.023353706167666532
sor@@ 0.03008980872754449
哮@@ 1
垩@@ 1
涇@@ 1
1728 0.6265807085681029
Pul@@ 0.11367563014193924
琐 1
迂 1
邢 1
锚 1
驍@@ 1
By@@ 0.14482924448009352
Ky@@ 0.07358012354520453
Oh 0.3081852963015928
PF 0.5081604454866534
Women 0.03368539149438052
ime 0.04905450701139609
view 0.03821592669540804
犍 1
肽@@ 1
1684 0.7177100796625137
Anthony 0.09089432411943771
Base 0.13435966070419536
Gir@@ 0.06816565629414682
Juan 0.030968861395106177
Unit 0.19712758186482718
ign@@ 0.02347110230752861
ties 0.014246578874148834
恳@@ 1
陇 1
opo@@ 0.09495293526492767
匐 1
妒@@ 1
痘 1
絶 1
羔@@ 1
豎 1
鄙 1
釷 1
钼 1
镛 1
Elizabeth 0.06079627026884925
Human 0.10087760520982678
been 0.0037745398049682547
isi@@ 0.022641142787898607
love 0.05002332938406757
嚕 1
缆@@ 1
Bio@@ 0.3941191731155179
Lewis 0.07316323899254049
hin@@ 0.040520432816461886
osus 0.38273009750729187
忏@@ 1
痺 1
衅 1
1654 0.6213174412647844
1725 0.5801326813994546
Committee 0.039635400819210784
Health 0.06254600490820103
ante 0.009208199045011089
eria 0.09859667069484676
偃 1
娄 1
屡 1
蒯@@ 1
蜡 1
閏@@ 1
鰲 1
Ren@@ 0.046371176084599126
aff@@ 0.023269798762642884
vers 0.012552495833994273
綦@@ 1
萸 1
饿@@ 1
Cryp@@ 0.3769138775716596
Prix 0.054435596920383314
Sym@@ 0.14461643324451032
sing 0.03353774261077657
val 0.10355209083080603
恺@@ 1
撐@@ 1
1655 0.6898614000419888
1713 0.5588323535598064
Computer 0.16558092405420272
Fran@@ 0.05516549218389252
Pon@@ 0.06484300652039342
Spir@@ 0.1696204500570094
kins 0.07327906600848362
live 0.0270884531915274
ories 0.03184285749536495
Б 0.08564112995595449
淅@@ 1
漬 1
Ay@@ 0.06322845189718192
Jay 0.1537582875218102
Tech@@ 0.26873022716477807
wh@@ 0.030283180415349484
旻@@ 1
罩@@ 1
Dun@@ 0.057209993703493014
Hyper@@ 0.3050071700404039
Mik@@ 0.10427187696915693
Nu@@ 0.09128597642413809
iri 0.10682941913179193
isti@@ 0.042000921950147804
栽 1
糙@@ 1
胭@@ 1
Theatre 0.05456850873513856
Ze@@ 0.061196493771400046
ror 0.09804009227356372
匍@@ 1
悄 1
柵 1
汙 1
淖@@ 1
辻@@ 1
1350 0.7097149329021657
Kat@@ 0.042629152179759475
Tran@@ 0.0906966861278439
augh@@ 0.0747339808453441
х 0.012518705467425706
胪 1
茗 1
space 0.038115114446491315
婕 1
恙 1
瘟 1
1721 0.5842115163074985
Anna 0.06086554386697794
Arti@@ 0.07768766726648883
Christopher 0.11258445163075013
Den@@ 0.053040154503898776
Division 0.018813177468475106
shell 0.18231305475549756
嘅 1
媚@@ 1
烂@@ 1
迄 1
钰 1
鳍@@ 1
Bom@@ 0.0807304923208278
ute 0.03778420235894466
yer 0.03288298123779509
槛 1
浒@@ 1
熾@@ 1
ARC 0.43456547976357546
Standard 0.12318268176814522
ett@@ 0.035882605322234334
rent 0.068318534405791
汛@@ 1
痰 1
竿@@ 1
茫@@ 1
鈸 1
Board 0.04690413843920772
Vit@@ 0.08973419602791996
ket@@ 0.09361145127204541
men@@ 0.015015134889122131
壺@@ 1
渭 1
珅 1
璠 1
盏 1
砵 1
铋 1
麓@@ 1
HMS 0.138354496798468
Philip 0.09576760900513266
je 0.03097416835354822
峠 1
漩 1
玫 1
Da@@ 0.09027235920949918
Jo 0.2869639422089127
NY 0.2011922790483584
score 0.04483667446183301
婕@@ 1
恤@@ 1
沅 1
荀 1
1707 0.5344288543018562
1761 0.4531480894636785
Blu@@ 0.10154471672194547
Imag@@ 0.20831621195491118
ami@@ 0.0784580507126715
侗 1
铊 1
锗 1
1638 0.6605789073888356
Mount 0.0632561231631248
Sea 0.059364793033940585
parent 0.13261345202596203
wan 0.10979137812708636
1754 0.4742655261113118
Boy@@ 0.08989095735437064
Raw 0.26505203621987833
aci@@ 0.03246030828128898
trix 0.15286222655401419
咄@@ 1
尴@@ 1
峴 1
溉@@ 1
滬 1
澗 1
Wood@@ 0.06917024892632911
istr@@ 0.07858468216718487
ox@@ 0.06213001845061545
vo 0.0442072348968939
冉 1
潇@@ 1
窪@@ 1
Kam@@ 0.047592340719117124
aa 0.14225915067072406
hat@@ 0.09222953929397795
瓣@@ 1
輻 1
铨 1
靺 1
han 0.02446268226825028
orn 0.10180075666321173
苴 1
Miller 0.08182728051206233
after 0.003984204440143013
html 1
乍 1
1766 0.42528905444787374
cop@@ 0.03603181670389917
next 0.021184449740436036
ron 0.13955133480177004
Ⅲ 1
嗪 1
嵯@@ 1
掖@@ 1
acle 0.13021639786331607
eth@@ 0.036118863399064324
kin@@ 0.06632489898686703
熹@@ 1
瑣@@ 1
Meth@@ 0.10744871298520998
Stone 0.08387051860860618
ask@@ 0.06546834598927834
tim@@ 0.023959851206843852
water 0.015547408319059758
wer@@ 0.018808186124019802
榈 1
瀾@@ 1
盞 1
鐳 1
陲 1
Roger 0.07922880465705515
by@@ 0.06327586028017532
tom 0.1033563699931754
used 0.006063788658116796
俺 1
Band@@ 0.09425080316595344
Chem@@ 0.07089008892992893
Gaga 0.647949759782886
aus 0.0033522213083400343
book 0.01684859149149012
fa@@ 0.031201395164304976
ネ 1
揣@@ 1
榈@@ 1
郢@@ 1
頗@@ 1
1751 0.5142652414467821
1753 0.39527779904472293
Dur@@ 0.05923049723570089
Wa@@ 0.08628652788929303
ogo 0.2102257204261056
uf@@ 0.04018485422166021
灑@@ 1
缸@@ 1
駒@@ 1
NY@@ 0.22361923052209134
Part 0.15922986070228776
alan 0.07983824891878225
ji@@ 0.09845737342070791
娼 1
闫@@ 1
鞨 1
鱺 1
How 0.1807070948182894
Pascal 0.3020534054118834
栋@@ 1
皺 1
祜 1
酌@@ 1
鈣@@ 1
Paris 0.012593831703112495
anum 0.2542773846568399
偈 1
眺 1
窪 1
笹@@ 1
荻@@ 1
萤@@ 1
Donald 0.08532727939493559
Hans 0.04755380389522244
Haw@@ 0.05786375698811154
Maj@@ 0.08303777840932082
Pit@@ 0.11376161751515158
err@@ 0.037571306607234865
ild 0.12896542919557694
jo 0.02777024627356211
pul@@ 0.030633094426477724
彪@@ 1
1729 0.6101917816487457
Da 0.04604803305221587
ibn 0.16147142345741347
tier 0.042607045888973315
勺 1
臧 1
荔 1
鰺 1
1690 0.5041916261972316
EB@@ 0.5376764592284502
Gun@@ 0.08422609362624991
bis 0.0038905802238455895
height 0.10244415720998959
mis@@ 0.017539776623441413
澧@@ 1
Dou@@ 0.07151803195625261
Off@@ 0.04263160578765283
Over 0.0774894984648267
alb@@ 0.0427493763725622
ond 0.04510427101742937
tel 0.031141760515743678
wo@@ 0.03354757202273766
颓@@ 1
駙@@ 1
Dynam@@ 0.2561602305094725
Lind@@ 0.07828729156677203
Tas@@ 0.0749823192500178
test 0.04218438309487322
Н 0.055472235304478604
啞@@ 1
槽@@ 1
酶@@ 1
itor 0.07413378542860594
je@@ 0.03704197444438991
ont@@ 0.06879879147259008
vin 0.0740865915931805
俏@@ 1
啼@@ 1
炽@@ 1
珞@@ 1
盱@@ 1
阇 1
馭 1
1520 0.5553990916513878
CIA 0.22028625050055042
From 0.020809845733802623
Matt 0.11827474338743489
Rab@@ 0.06753409865117127
Tech 0.16719633785712384
arch 0.08906789979106104
bri@@ 0.045668418098526495
lon 0.11108531080547188
state 0.009685446364548307
偵 1
嘲 1
墻 1
慨@@ 1
栱 1
烙@@ 1
鍍@@ 1
Garden 0.11629255761754155
炬@@ 1
蘚@@ 1
1658 0.658093871136007
Allen 0.08825785250095816
Coc@@ 0.15531492993479953
eh 0.09336289324571809
entr@@ 0.02215248005866323
幀 1
皱 1
钧@@ 1
Bug@@ 0.19102346662461933
Key@@ 0.13085988606144808
Log@@ 0.10985284145453586
SQ@@ 1
af 0.09359508984866331
ather 0.06029735840367847
enger 0.11854859870937627
qui@@ 0.04652430964528715
ulus 0.18954212072198615
ump@@ 0.03319447569039664
zo 0.05263241591101396
嵴 1
榘 1
炙 1
鑼 1
1492 0.7030293803419886
Aur@@ 0.08625666435262516
Ka 0.45530750435170486
RCA 0.35876222167186894
uck 0.07111566719332925
亟@@ 1
沐 1
瘠 1
绰 1
荖 1
菓 1
蝗 1
BK 0.36864242007721765
Enterprise 0.30192587114586716
SB@@ 0.48626175576483815
玠 1
骤@@ 1
1530 0.5576177382027484
Bad@@ 0.061432093224522
Rus@@ 0.05363022157797109
poly@@ 0.06233484025688011
亢@@ 1
昱@@ 1
灿 1
Jan 0.08210075845598361
onn@@ 0.022441084871378827
ony 0.047022396039668055
ort 0.041402724950072634
tre 0.03382722579249684
炜 1
cho@@ 0.043819183598935406
emb@@ 0.020388368635470323
hop 0.147178275551607
iga 0.09244862447317272
rit@@ 0.026323592771581906
怜@@ 1
珏 1
羥@@ 1
鸫 1
1453 0.8915073014267964
1525 0.6072167047575426
Common 0.17276465147509476
Re 0.36552853178603695
hor@@ 0.02586172428096156
onder@@ 0.13659350564769654
tory 0.10446749266024
壇@@ 1
専 1
揀 1
癇 1
瞩@@ 1
蟒@@ 1
Days 0.19481336602825058
Kab@@ 0.0881376773824321
vet 0.17844319903800002
Fox 0.068288140390424
Ry@@ 0.09235602985264736
垩 1
奭 1
焜 1
1685 0.533491732483454
Big@@ 0.18639529478826217
Hand@@ 0.0401433043577204
anda 0.05425717727923367
cos@@ 0.07158038982702124
lip 0.10580110536134112
醃 1
Antonio 0.04253638474672215
Gold 0.0612109575918774
Hit 0.34171870964883655
any@@ 0.036075848150048474
fal@@ 0.03840234493618542
嬴@@ 1
盪@@ 1
饼@@ 1
Chan 0.2979571167186857
Fantasy 0.24439414859615713
Nam@@ 0.07872779102903647
Tree 0.26097839977460324
eu@@ 0.057052493345859275
熒@@ 1
Francisco 0.02935206893220706
Kath@@ 0.06361428996006106
Rue 0.2838895120568925
Sher@@ 0.07071980185104765
pat@@ 0.024916887211467464
string 0.17596031205406779
佥 1
樱 1
魷@@ 1
service 0.012534770638103
who 0.002903755106309421
塭 1
恿 1
苻@@ 1
鲈 1
Howard 0.08034468272491097
most 0.0061983206245959455
tion@@ 0.030126699022961386
ァ 1
冪 1
瀘@@ 1
猾 1
琶@@ 1
薈@@ 1
洮 1
茸 1
饵 1
1732 0.5462589212026184
hip 0.04500710258629889
Г 0.06957214920552995
і 0.9811784444531108
ほ 1
筷@@ 1
蟑@@ 1
Med@@ 0.04666866273500767
Pier@@ 0.11443511987737977
Tem@@ 0.058096554853648494
Ω 1
襯 1
1641 0.6000379391981238
mit@@ 0.023439630175091146
ying 0.017788072166727738
囤@@ 1
怯 1
柝@@ 1
檜@@ 1
禺@@ 1
窺@@ 1
笨 1
蝨 1
Jer@@ 0.06484203499271421
Mega 0.40154434554520113
珲@@ 1
蒼 1
豈@@ 1
鸮 1
Anne 0.05859061621387882
UV 0.4384602842983086
Ven@@ 0.050601670247105685
emp@@ 0.02754332662507822
leg@@ 0.01790700188722543
吓@@ 1
滔@@ 1
澎 1
蹦@@ 1
Carlos 0.04149178875051835
ag 0.05612404613292762
ider 0.04025170260411929
ker@@ 0.03536731275949034
tz 0.09299827358684237
Σ 0.6258344803203185
Victoria 0.046488875250396626
Zi@@ 0.05880123706073408
ann 0.05821462590705253
thumb 0.6539636673469662
澂 1
邾 1
1742 0.47238029030341494
Bell 0.0898813501890313
Dal@@ 0.06923315265370406
Dy@@ 0.11224205353570929
Sing@@ 0.08476202904129573
Wel@@ 0.0704158210618002
撑@@ 1
柬 1
矾 1
诣 1
辕 1
锚@@ 1
1731 0.5919083761424287
Spec@@ 0.14709172934440068
game 0.010028890803815709
has@@ 0.0840286581818773
庵@@ 1
惨 1
棻 1
瓏 1
窯@@ 1
覲 1
逞 1
陝 1
２ 1
1605 0.6142011220982946
Court 0.026772562452054633
Dan@@ 0.05042028268687566
Dig@@ 0.13100688753897144
Get 0.2241358549341756
姥@@ 1
甬 1
矚 1
荪 1
Bot@@ 0.04279679055035643
Castle 0.06910004814542174
Fun@@ 0.1046086658308747
Style 0.25972802388928234
ays 0.029643748721819217
ects 0.02697699312888669
И 0.03127549623134353
弒 1
恬@@ 1
攪@@ 1
浬 1
Money 0.26566187329901686
base 0.018196769922278012
order 0.01650219094033997
ふ 1
娱 1
Alfred 0.06957309527161239
Fro@@ 0.10169370752094839
ml 0.9048813653800493
own 0.01201614368795038
zer 0.0566920648782667
า 0.16385362154621713
禰 1
臀 1
Arm@@ 0.055569404861407774
Call 0.2405399483258969
Multi@@ 0.1601497873453002
Radi@@ 0.0690237079563727
awa 0.05268831061167565
sum@@ 0.02740750659302416
墩@@ 1
搗@@ 1
聾@@ 1
頡@@ 1
Son@@ 0.05206442710296665
Ton@@ 0.07280798955223346
tha 0.09640788489302471
wer 0.03594945950121463
黏 1
å 0.46364989674796653
慑 1
殡@@ 1
肼 1
譏@@ 1
邛@@ 1
醌 1
鏟 1
濛 1
酚@@ 1
魟 1
Ali 0.06326153579715134
呵@@ 1
扒 1
獗 1
蠡@@ 1
軔 1
Tu 0.33675734143000075
lan 0.06569166615415843
uz@@ 0.042123643913418156
version 0.01589161052601122
ц 0.034106612452015
匀@@ 1
匮@@ 1
荻 1
1710 0.4420214514112817
Dave 0.10783298029761855
equ@@ 0.03236961524647434
杠@@ 1
赔 1
鯤 1
las 0.0021783165808928855
咆@@ 1
嶄 1
1666 0.5838102920160184
Boys 0.09999223046267171
Hum@@ 0.0592227798376948
Los 0.008301162401245331
Program 0.10677812192258179
bin 0.06852380257901022
over@@ 0.016728026743896857
tle 0.07305751576589077
吡 1
1718 0.5240196896709416
Ann@@ 0.057034436588581476
XX@@ 0.1555355192243424
adi 0.08585675539494776
ope 0.07055196172178096
泓@@ 1
裨@@ 1
驥 1
1726 0.5779701883211785
Building 0.08677099164549743
Phys@@ 0.09316074859821001
Var@@ 0.06553682587366305
aja 0.054008027067296786
alism 0.04192508982811755
ect@@ 0.03765440349335977
yst@@ 0.06278361312390132
ボ 1
俳@@ 1
娇 1
怕@@ 1
筵 1
葆 1
1737 0.5185346412593532
Action 0.12890725794815122
Future 0.17498249980286484
Mill@@ 0.08452305865435733
Plaza 0.13175809153738918
Wan@@ 0.24669512344521535
榛 1
蒨 1
邠 1
鵜@@ 1
1722 0.5038556321994397
aba 0.011422861028051842
elec@@ 0.03524985630522043
mp@@ 0.05293438122378583
湮@@ 1
甕 1
蠟 1
醛@@ 1
馱 1
1611 0.6362216184692733
Ass@@ 0.10893529588642353
Gol@@ 0.05713875976549131
Ho 0.2794807434363822
∞ 1
幂@@ 1
抛 1
盎 1
鸢@@ 1
1739 0.5094085057833045
Autom@@ 0.08668955694051428
Bern@@ 0.057578458207762785
Blu 0.32808684014830997
eum 0.09229878742270536
ی 0.3885324459718558
ケ 1
佰@@ 1
珮@@ 1
艮 1
蚵 1
訖 1
誨 1
躬@@ 1
Double 0.20373149275334798
Gary 0.11936808163913272
Thi@@ 0.069250144712702
cs 0.04248451502927463
poem 0.09665341091955332
umia 1
噻@@ 1
晰@@ 1
1747 0.4678655966971133
î 0.23745085197707055
О 0.044486503575325576
丶 1
刈 1
坵 1
庑 1
珣 1
珮 1
虏@@ 1
裤@@ 1
訶 1
BN 0.41677163715332666
ein@@ 0.006312324038494916
ust@@ 0.04913345597231426
卤 1
睇 1
莅@@ 1
鉞 1
驒 1
1653 0.6284732847582143
1697 0.5652070310891789
uni@@ 0.021232885531447136
wiki 0.7867022631033617
僖 1
癢 1
苍 1
蛸 1
袒 1
Corn@@ 0.054796893621026584
Post 0.050389985951677096
Security 0.09565111568527497
age@@ 0.10902393641827086
ages 0.011368375320567671
anga 0.09377772365017274
free 0.0272113438832457
night 0.033681884655985234
part 0.0052443398626541675
won 0.008535076728422802
敎 1
鄯@@ 1
驛@@ 1
魴 1
Concer@@ 0.11360872778787716
ards 0.028209359391984167
eno 0.06171102126273511
ston 0.061627758708996616
unds 0.0387020804223457
寛 1
憐@@ 1
鵲 1
1519 0.8237222166784097
Down 0.13161026196343034
Kol@@ 0.030482438718005194
ND 0.4184047609628434
Source 0.18941145512321134
anger 0.05744459431715701
ί 0.1472727926045866
ा 0.1785179997228522
撮@@ 1
笏 1
銨 1
Pod@@ 0.09519178273774753
Tor 0.14898109519716196
槓 1
猕@@ 1
莅 1
蛺 1
閹@@ 1
HL 0.15948152898391013
Pass 0.1817154130496467
Walker 0.09825792092664805
itude 0.1939721370470803
jpg 0.9421588269191216
sk 0.05151489496115535
拦 1
晦@@ 1
猥@@ 1
鄢@@ 1
1741 0.4584787942824309
Secret 0.19379045109791526
alia 0.08385732178030209
cal 0.06293799683276811
缽 1
蕲@@ 1
錮 1
Engineering 0.09186297135748688
Under@@ 0.09442964078473122
mart 0.1725633978674929
oli@@ 0.08912811193028775
् 0.0014175403042816115
岂@@ 1
愫 1
玳@@ 1
绛@@ 1
谕@@ 1
1536 0.5916750004312495
BO 0.3975731703120752
Jud@@ 0.060912373536702286
Pun@@ 0.11353520011966722
Ye@@ 0.14440787192119428
flora 0.20759895727174846
姥 1
懒@@ 1
1665 0.5716456180130859
If 0.04105375681235426
粿 1
Sign@@ 0.10399567102944567
Vision 0.24347224235133855
Western 0.025975344665022247
楫 1
熾 1
稼 1
郝 1
鎧 1
馥@@ 1
Doc@@ 0.1053233391361615
Prime 0.06768369332518907
een 0.06772113748748539
瀰 1
1714 0.4777523293645418
Anderson 0.07873178148165196
CAR 0.2316978781902546
Dra@@ 0.16176130173986392
place 0.007143415121025735
zen 0.02451220823233322
羡@@ 1
eld 0.05971292270099299
nd@@ 0.06441644797409525
see 0.019317927382739793
start 0.033890472746435675
儉@@ 1
卍 1
屹@@ 1
撻 1
枉@@ 1
榨 1
縊 1
Sl@@ 0.10733152607204778
come 0.029080555843146064
sin 0.020380294809569797
ă 0.27974973755705557
1744 0.47298623311987276
Bag@@ 0.07882899471845096
Fel@@ 0.05053696789606181
Nintendo 0.1353653312028009
ains 0.016975681319745545
bili@@ 0.16099140850604787
media 0.023705742923913177
verse 0.03836265657316447
yu 0.15315636892637927
憫 1
1709 0.5294475363654507
Language 0.16908841230341137
Men 0.049262875258487986
Order 0.05138215700860236
VIII 0.10811123584076283
ender 0.029616543126362343
gi 0.09672067882469082
some 0.006796483747565142
聋@@ 1
邳@@ 1
郧@@ 1
鵑@@ 1
Kelly 0.0967014717809909
Pass@@ 0.063117283403127
Pictures 0.12674944889891995
Vog@@ 0.10660417338430438
ry@@ 0.12195501987771724
star@@ 0.05552354623923046
洱@@ 1
浔@@ 1
灝 1
砚@@ 1
Clark 0.08236508515829319
chen 0.016546096676603228
date 0.02430905237766744
dem@@ 0.01653124370558625
oe 0.09586560030911138
ogr@@ 0.06362690592201516
捏 1
楯 1
銮 1
Johann 0.03739821611211057
grac@@ 0.5461566758662166
idi 0.0719408754278301
link 0.11083095723644983
yth@@ 0.1785537051126012
梶@@ 1
爍 1
贱 1
闷 1
Championship 0.02152707828637048
Nick 0.10266310681782999
Pau@@ 0.061238017680496144
Poc@@ 0.2492558712121596
amer 0.13777521951374905
蝕@@ 1
镕@@ 1
1672 0.5057429749000742
1715 0.3788456706805912
Bay@@ 0.04922491885893344
Hard@@ 0.0898829258993106
Head 0.08383673093401722
Lac@@ 0.09932836093226234
double 0.038768123044546424
ights 0.05092365821709441
壑 1
蝓 1
豈 1
驃 1
﹕ 1
Bra@@ 0.10413222013336
Jacques 0.04851130456695922
Sail@@ 0.2955851130304264
Yu@@ 0.10589857272406994
anti 0.03084660634594041
bury 0.045281531271537265
ods 0.036847203095433385
ont 0.0073485455197779374
亏 1
晁@@ 1
闐 1
鴕@@ 1
Invest@@ 0.1653837535790098
chrom@@ 0.12779309374046086
ebr@@ 0.05567873908657311
hom@@ 0.023995294020447453
sec@@ 0.01698164344382436
xy 0.22969385292125066
yan 0.06336336135770329
† 0.019300473631299546
├ 0.3092882116891982
匆 1
撮 1
櫟 1
紜 1
虢@@ 1
郃 1
Centr@@ 0.12771561951440372
Nova 0.12098403533046087
japon@@ 0.2634341818871309
otr@@ 0.11023744605320106
桧 1
檳 1
漩@@ 1
緹 1
颤@@ 1
Airport 0.058215783591904734
Cot@@ 0.07182717507598955
about 0.005816888393622441
atan 0.31943251783834437
cy@@ 0.0768914054707238
inf@@ 0.020077944160107913
onic 0.07685433865358597
oria 0.08007847791077248
ع 0.09300858762367885
怛 1
瑀 1
瓢@@ 1
絳 1
蝇@@ 1
1669 0.6262038349475141
Field 0.06295494101889443
Lit@@ 0.06415199469965183
Writ@@ 0.0823720430452241
bach 0.028030549780365472
ef 0.046879334796012646
egr@@ 0.06429678158777008
ш 0.038407351224515156
噹 1
枚@@ 1
艘@@ 1
褪@@ 1
遁@@ 1
tin@@ 0.057599970010992374
哗@@ 1
犍@@ 1
莘 1
蟎 1
錳 1
1699 0.5298221391287905
Cit@@ 0.15872255119959885
Hi 0.41012537026335016
` 1
ピ 1
悖 1
歿 1
綬@@ 1
蛞@@ 1
豚@@ 1
鯽 1
based 0.009415938536796484
lem@@ 0.039549864403522594
ple 0.08748928822678168
tan 0.02947864395884274
潁@@ 1
藐@@ 1
邇 1
锯 1
Eg@@ 0.09347474574786885
Mach@@ 0.0692716437988136
Stand 0.053850675560164214
Stor@@ 0.11752543199520157
umi 0.13425469931769024
劈@@ 1
厨 1
洱 1
豊 1
贼@@ 1
Andy 0.11074799255134994
Jeff 0.11657189685495054
aha 0.09401742071600265
vis 0.08654115278077014
哮 1
錠 1
Ken@@ 0.0752172149075751
azzo 0.23843426029296844
rel@@ 0.011503069264417347
stati@@ 0.09497350899533105
県 1
賁 1
Alex@@ 0.16233252074929852
Stars 0.10779587957960246
True 0.2756712389875373
ange 0.03819109467664122
ɔ 1
ね 1
涝 1
齧 1
1675 0.5308278911738151
Ross 0.09037752403784488
Tru@@ 0.20373922330685387
aca 0.05871382066215408
imb@@ 0.08482492564587082
ś 1
愍@@ 1
秽 1
鵙 1
黒 1
Bau@@ 0.014310664761057778
Johnny 0.09716051207415584
ò 0.15418510288419715
剽@@ 1
藓@@ 1
陋@@ 1
Scre@@ 0.14140897407975236
elia 0.11186664545920116
esta 0.013208664365970433
high 0.01060655505014663
kl@@ 0.021925086593124476
sig@@ 0.01980426854815347
ت 0.06838573293205898
啄 1
嫣 1
蹲 1
阆@@ 1
Arg@@ 0.09489214864232716
Classic 0.13065253740823196
­ 0.1515570786323731
燬 1
Sir@@ 0.09097345763581983
fu@@ 0.03140965310858536
urs 0.02533478230696778
む 1
燾 1
瑯@@ 1
篙 1
鹫 1
Advanced 0.20028467123675708
Clo@@ 0.16077338609924305
Five 0.09888340921631772
song 0.010696725425956349
傈@@ 1
孖 1
瓯@@ 1
鯖 1
Lang@@ 0.039118594376163406
Mom@@ 0.13236201986021526
Nat@@ 0.06127697276725538
Rol@@ 0.0600631451846047
Sak@@ 0.07403577367300368
XIII 0.10671951513347668
film 0.00481294666924158
mit 0.0013989450509052004
osp@@ 0.08283859110933103
true 0.06873246911176549
uta 0.07639624734239872
would 0.004593618804185351
婢@@ 1
爨 1
龈 1
1749 0.46271490164440354
High@@ 0.07260679811519187
Long@@ 0.07984644576844538
Matthew 0.11392380306976799
Three 0.05282005018748569
gh@@ 0.047587096679915966
枯 1
氚 1
AZ 0.3177856980427824
Bruce 0.09104008253023019
Utr@@ 0.26791309599195395
mes 0.019922398339355295
ð 0.9016142096811297
晒@@ 1
筠@@ 1
1734 0.4762753266713731
Bil@@ 0.043823869962374404
RN 0.3249947823065545
Sau@@ 0.05536149059379062
ega 0.06060961516615885
station 0.009236804217372118
唁 1
槎 1
瓒 1
痒 1
繆 1
諺 1
Ni 0.409487168043474
lang 0.04116519169591841
ments 0.014843034613094653
pro 0.04416033490404684
儼@@ 1
旬@@ 1
煊 1
癫@@ 1
秃 1
覓@@ 1
Cand@@ 0.15581228435828498
Gordon 0.07923249069606889
Wild 0.1254287873932274
ete 0.026288331911572017
ety 0.07252729988332014
倻 1
Kot@@ 0.12687676613001297
Ob@@ 0.047797576615245016
Review 0.10725921493038992
burg 0.021289139092434604
district 0.01302689094177983
ector 0.09640398119408158
ements 0.012682652730140357
mot@@ 0.025930128614455032
omo 0.08780335188283717
拯 1
煇 1
軫 1
麋@@ 1
Benjamin 0.0894156474198224
Maz@@ 0.06817091833212702
Nak@@ 0.09410907518421636
Pter@@ 0.3162367953378295
odi@@ 0.03611736297735859
there 0.006254700038095504
ぶ 1
彊 1
辙 1
1738 0.48567445983392205
Phil@@ 0.06334255645521912
din@@ 0.038777117186843985
oon 0.06969264120842691
stone 0.030543062658664376
凑@@ 1
睪 1
蝉 1
赚 1
魅 1
鸳@@ 1
August 0.00617141567751547
Mountain 0.06420866169630211
Wit@@ 0.056576378870501
board 0.025734376484568146
匱@@ 1
妞 1
暐 1
矽 1
Jar@@ 0.07939287969073625
Mail 0.2527926644626015
Republic 0.030379173964647527
ges 0.017908821012981187
m2 0.5913990371301729
ulata 0.3245043040229047
ร 0.11417288604974121
卞 1
坠 1
殴 1
烨 1
聶 1
Creek 0.04315505532730991
bit@@ 0.057000004253534735
ses 0.004666215193955598
trol@@ 0.0698511499241224
沸 1
瘍 1
Delta 0.1445132094560828
Eli@@ 0.07184797941287575
Hir@@ 0.04931694899640079
Hospital 0.045348571626465196
Kom@@ 0.022879818762342203
Tab@@ 0.05154950251415091
agon 0.11419390185900395
ph 0.13985246447485064
俶 1
朽@@ 1
萎 1
萼@@ 1
1746 0.4428770694526143
More 0.07526954899390616
Nik@@ 0.07441232981354731
ku 0.10950140226312426
three 0.005132947634257008
骧 1
鲀 1
龢 1
Run 0.15709643246070043
Tap@@ 0.14989825072545604
count 0.09333795852950881
oceph@@ 0.4696861401015776
syn@@ 0.04346172472003129
tree 0.06111027493035272
蝌@@ 1
Fort 0.04071185886819998
Ful@@ 0.06523441326915959
Lanc@@ 0.11421077726512878
Transport 0.08825140044532648
example 0.02327476245075168
prot@@ 0.01558114665915599
窺 1
薦@@ 1
邳 1
鴦 1
1687 0.5719896143762777
Jonathan 0.11084597108518005
Produc@@ 0.08716552004607563
gic 0.13931132333613497
han@@ 0.09812529623883894
ner@@ 0.027976424664566908
tal@@ 0.023012986455737777
愧@@ 1
緞 1
Ann 0.10144971035863208
Car 0.13333233282022988
Kel@@ 0.06930028999572467
boy 0.059225448311879855
child 0.03623069273088369
dh@@ 0.06240862452411327
news 0.04970627304404888
乖 1
咳 1
惰 1
阯 1
Has@@ 0.08398688387761848
Only 0.08678364840225299
Triple 0.1709205643987011
idea 0.03777887554916381
癬 1
睽@@ 1
箴@@ 1
Alliance 0.08942883181656403
Hap@@ 0.2892329620896862
Rod@@ 0.08046378670105364
agr@@ 0.04426486677552689
bes 0.0353654029582388
jo@@ 0.03853616766908131
拙@@ 1
覬@@ 1
諒@@ 1
锭 1
Commission 0.0353505048037865
kw@@ 0.06822540416812509
哑@@ 1
怠 1
违 1
閭 1
顒 1
驤 1
Formation 0.11110739212908731
Kw@@ 0.2938329004169726
bat@@ 0.01711250505826154
net@@ 0.039243320748816195
pp 0.2820152182613825
墀 1
揉@@ 1
蜚@@ 1
袍@@ 1
鉢 1
＞ 1
Git@@ 0.16751695648900441
Kingdom 0.0311802757098847
Temple 0.07391107152668612
aker 0.04742647161777162
ental 0.03169388257744088
ision 0.05700532764617992
י 1
ソ 1
檄@@ 1
淄 1
谎 1
韬@@ 1
1712 0.4996238512336999
Metal 0.12002595453971943
law 0.015314256350836554
urn@@ 0.0445715170722594
傣 1
蠍 1
錡 1
Chart 0.103064424279441
phyl@@ 0.2715423482529472
rain 0.06506231185698118
she 0.0038974799049913667
▲ 1
ゲ 1
疱@@ 1
蝨@@ 1
餡 1
1717 0.4510310712063655
Arena 0.0911185055514074
Cat 0.24454684182887815
Hur@@ 0.052747802854441764
Our 0.11663050471451152
Seven 0.12332471444942837
SmackDown 0.3517541273042953
dow 0.426145290005326
ough 0.047593736871700744
涕 1
潑@@ 1
輒 1
鉗 1
閨@@ 1
1656 0.5193351040359414
Ax@@ 0.12046734307445804
archi@@ 0.0765419067128608
bol@@ 0.04379345918746074
second 0.005818616694790659
嬴 1
氪 1
籽@@ 1
胤@@ 1
蹇 1
韭@@ 1
Bla@@ 0.09318879454178004
Stop 0.32557471362472545
Wright 0.09790924267159117
inal 0.0293787565714972
uth 0.05946691920826913
ゴ 1
嗆 1
磊@@ 1
箴 1
纺 1
1702 0.4805582593385268
Gas@@ 0.0518024950069315
Lib@@ 0.05952747972160795
Lou@@ 0.05899582311830019
Mission 0.08570780560176859
Solo 0.1818970108251792
Storm 0.15073198139176067
eli 0.0637825988850386
tre@@ 0.01899002063059168
your 0.09387318443060022
ポ 1
奢 1
渺@@ 1
蓁 1
蚯@@ 1
觐 1
阈@@ 1
隗@@ 1
韌 1
鳌@@ 1
Mam@@ 0.10827307353096112
Wilhelm 0.03939740317168247
eller 0.03157172910567135
娇@@ 1
弭 1
怯@@ 1
晝 1
曇@@ 1
曖@@ 1
杖@@ 1
1703 0.4983967524023982
ei@@ 0.0845660099527708
iz 0.08189998027107734
plic@@ 0.06233124069972084
uh@@ 0.04895461260775199
ザ 1
儋@@ 1
晕@@ 1
疮 1
蓓 1
蕊@@ 1
觅@@ 1
軋 1
铰@@ 1
Side 0.14497119473120915
flo@@ 0.023624109226344545
nia 0.08262630038060827
棗@@ 1
氈 1
Champion 0.10809598604768302
Les@@ 0.06335944343376959
Modern 0.08278813450175736
Pep@@ 0.10977187608816928
Second 0.03295289933069647
ais@@ 0.028190018287523436
ean 0.03783591832266144
ista 0.016244121131508405
occ@@ 0.13938981235205178
okie 0.13891290198873282
燼 1
玮 1
锷 1
Canada 0.01503881202311733
Mun@@ 0.06047772662470289
wor@@ 0.015684954429841514
挚@@ 1
挨 1
歩 1
澧 1
瞎@@ 1
靚@@ 1
Math@@ 0.0822530348220655
Som@@ 0.06173911181648126
Sul@@ 0.07392655554746085
win@@ 0.07019134197680055
唆@@ 1
濠@@ 1
粽@@ 1
藕 1
蹂@@ 1
fa 0.08879813598074537
rol@@ 0.06415810720772215
through 0.00622725892927268
thus 0.034357830728560496
掣@@ 1
琢@@ 1
锟 1
God@@ 0.07358774401854234
Top@@ 0.10767481863711648
fri@@ 0.0711138963667144
work 0.006411757435501841
斟@@ 1
橐 1
洺 1
涓 1
箍 1
羯@@ 1
醜 1
雒@@ 1
1668 0.5360363720334664
Infin@@ 0.3085759651846866
Medical 0.06567684849862702
eil@@ 0.08463666478816018
fly 0.07060016642733377
mic@@ 0.09707625046122878
僞 1
嚐 1
烁 1
餾 1
Douglas 0.06714762502292063
enberg 0.04303540259487904
ks@@ 0.03302909246351895
san@@ 0.024773793346089104
ˋ 1
妨 1
搗 1
樽@@ 1
炽 1
糠 1
蚪 1
鄔@@ 1
Hav@@ 0.04087006681794477
Jimmy 0.08818924984477704
She 0.005488034400426191
Sug@@ 0.1362535527052293
WM 0.15895981918701815
Watch 0.22526643615070266
When 0.014160435325737082
land@@ 0.015566913177093075
滎@@ 1
竖 1
郯@@ 1
Eth@@ 0.06681131663232835
Sou@@ 0.04593575282288567
nu@@ 0.034351268248885174
ologies 0.13660210917838703
絆 1
莿 1
阎 1
霏 1
鱔 1
Productions 0.13711169833647655
Sac@@ 0.09387781910342924
enz@@ 0.021812307581417993
people 0.006890182073850544
peri@@ 0.041272365396689284
曷 1
煲 1
琏 1
脲 1
鮪 1
1596 0.5913524157185378
Green@@ 0.05902503220875251
Mich@@ 0.06252855313119955
Moore 0.07597355784448907
Ober@@ 0.013789114853568879
Pav@@ 0.07278667966239818
Singapore 0.08079561579923285
ext@@ 0.035079658320858215
咁 1
徭@@ 1
蠔@@ 1
Eas@@ 0.10924647987587427
Kas@@ 0.041486686252317904
Po 0.3611971807503105
琢 1
膾 1
鑾@@ 1
Khan 0.06362477842971453
acid 0.09354746514647674
when 0.004249483848634178
∈ 1
ぐ 1
喷 1
1711 0.4610384085519892
Oper@@ 0.042686433831263006
VP 0.16587583834666572
ering 0.021083132560475507
imi 0.0819268206469445
vari@@ 0.0172778880504059
wing 0.019310938973007914
劭@@ 1
蠣 1
鞘@@ 1
颢 1
駝@@ 1
Army 0.01690556177676536
Cul@@ 0.0697407633688333
Emer@@ 0.07385155606695762
bers 0.037543624126340526
enia 0.2089897665037844
ities 0.03286533393567189
lex 0.29996549812347395
玥 1
瑩@@ 1
謫 1
赭@@ 1
Bak@@ 0.057846206377521456
Forever 0.33052294360141826
Sph@@ 0.1873225703615826
aqu@@ 0.03273844306004506
nor@@ 0.021002516050709588
秤@@ 1
郓@@ 1
1719 0.45744189403826907
Der@@ 0.043219138587495404
Ny@@ 0.10776128905576057
Zen@@ 0.20940669384482494
ands 0.02269929494559115
eni 0.07673450036315584
index 0.1960285308513606
啸@@ 1
汨@@ 1
溟 1
舶@@ 1
袜@@ 1
铍 1
雹 1
頹@@ 1
Ale@@ 0.09085594375792747
Mind 0.2626682840808361
Movie 0.2066459646452724
latitu@@ 0.21708012112147476
plus 0.0036439633525678487
top@@ 0.041370904747704614
ά 0.0520218363095798
勗 1
殆 1
谛 1
阀@@ 1
Florida 0.03101835336289488
Frederick 0.07624220639486629
Ian 0.10884098799419377
Ng@@ 0.07696818604564587
Soci@@ 0.056407338522690455
Sus@@ 0.07094528522015309
each 0.009668067344160272
former 0.008548536253245267
oli 0.08464871262413487
ret@@ 0.021316668277736876
崂@@ 1
犢 1
Dat@@ 0.14948068501653095
Indi@@ 0.03605785950208235
Kap@@ 0.04927993378697745
Que@@ 0.2885569553369882
Rap 0.44151722105331825
Steph@@ 0.11153421101215588
Work@@ 0.17655255778018397
amin@@ 0.0929162184260335
bro@@ 0.026615171727914146
onal 0.026441113250657823
暠 1
耒@@ 1
詰 1
铮 1
頤@@ 1
1676 0.49260245949766424
Associ@@ 0.07989312345416662
Beat 0.267584064156198
CO2 0.32397395544693364
Chen 0.1731061178239962
Christmas 0.07512416246305599
Energy 0.09980000290742931
Ori@@ 0.06850918752966649
Sa 0.04073273001089252
Seg@@ 0.05072939876831707
Spring 0.1098553223934166
aea 0.21477662921246385
esti@@ 0.02661799685190175
var@@ 0.03640558238243272
≥ 1
宕@@ 1
糜@@ 1
ame@@ 0.059794459598819336
iss 0.06960509376547941
qu 0.030964375308158636
rem@@ 0.01626785716357948
uti@@ 0.04559178047950877
volution 0.204825291995243
０ 1
Asian 0.04532900106407552
bot 0.05932217893318819
mont 0.042444234413724365
rop@@ 0.08923978237400117
勰 1
嘆@@ 1
爰 1
瞬 1
竞 1
褻 1
鈷 1
Beach 0.05448546113629471
Index 0.19720296087834957
Pet@@ 0.08361078778884218
asi 0.09407277443211112
otus 0.2808017534406754
碗@@ 1
稹 1
繭 1
讫 1
跖@@ 1
躁@@ 1
逗 1
Never 0.2135593437224247
Russell 0.0844957259416658
Silver 0.10220593549128841
fre@@ 0.017744359091647587
level 0.01730919046958563
radi@@ 0.03327793821070647
へ 1
燉 1
痹 1
粪 1
蒿@@ 1
诃@@ 1
Some@@ 0.12768701127715218
chu 0.263424566511139
dez 0.08449759340254571
ution 0.03014202184090271
淩 1
絢@@ 1
縉 1
録 1
陡 1
Brit@@ 0.07132296397432668
March 0.007601243674482474
Rand@@ 0.08295829596323255
ches 0.014542999926391902
etti 0.04627611359330894
mini 0.13300989248776457
疃 1
铬@@ 1
鬃@@ 1
Cav@@ 0.05852287547875115
Factory 0.22613688715664518
KG 0.3053376333827693
ces 0.01081063588988515
press 0.043706279413164524
喱 1
朐 1
洒@@ 1
灝@@ 1
蛻@@ 1
鶘 1
麝 1
UFC 0.20367870507652996
Yel@@ 0.10777508145336698
aer@@ 0.055532576509971524
duc@@ 0.04088578057705666
edia 0.1800876764479493
power 0.015431962099255694
潢@@ 1
砜 1
1204 0.815709215564756
Lost 0.15993487760293695
Set 0.23676077740906742
Terr@@ 0.06839002571065197
acker 0.10152924800010958
eau 0.015627584131830383
gro@@ 0.022574355186484294
off@@ 0.016238961301085503
囂 1
塱 1
隅@@ 1
靡@@ 1
骅 1
----@@ 0.8833808472853858
1705 0.46817076028826854
Lap@@ 0.13569538035640888
Water 0.0823654355994029
ando 0.006649843955693454
ous@@ 0.04876517914976401
孃 1
帘@@ 1
瀑 1
疹@@ 1
靛 1
鳗 1
1743 0.406567060286281
Again 0.1992998759501337
Ca 0.4370942798299608
Fir@@ 0.07152846396329277
nom@@ 0.03361228725959244
tern@@ 0.07540677005702241
χ 0.3390162601132213
獼@@ 1
鈹 1
1704 0.444364909963907
home 0.009975457534061555
厩 1
揉 1
暄 1
碓 1
芩 1
蚺 1
誇 1
赌 1
辎@@ 1
閤 1
Deep 0.1742047969534465
Ring 0.12524493383546675
Sarah 0.07823967601003785
Say 0.32013376495007834
sions 0.022126057873794826
ベ 1
娼@@ 1
枉 1
竣 1
afe 0.1072525768861948
opus 0.17503109396524533
wi@@ 0.046471831290503834
晩 1
沢 1
眩@@ 1
虜@@ 1
輋 1
Rhy@@ 0.1146640135402112
city 0.00782327588663096
kan@@ 0.028633147087217623
series 0.006818351753937639
soft 0.14434270414953929
甩 1
簪 1
谟@@ 1
Mit@@ 0.02865823184089497
Pink 0.2147528017525403
Scr@@ 0.26730654765867357
album 0.005207757048420168
ark@@ 0.02757746996732041
plat@@ 0.03215614683504571
sch 0.024479540947784668
® 1
徳 1
昉 1
樵@@ 1
氡 1
沮 1
溼@@ 1
痫 1
Eff@@ 0.07911648202219604
andra 0.1253699983793
berry 0.14864294838945202
heim 0.029157273017423446
may 0.007105281201378477
shi@@ 0.02484129857149947
such 0.004913543868981875
△ 1
愁@@ 1
捞@@ 1
橈 1
潦@@ 1
濮 1
筊 1
钠@@ 1
que@@ 0.043818357415798606
ギ 1
们@@ 1
儡@@ 1
柚 1
聳@@ 1
菖@@ 1
龚 1
Let@@ 0.07029522373907199
proc@@ 0.038623167859630825
咯 1
恍@@ 1
氘 1
猬 1
胀@@ 1
钛@@ 1
della 0.1544349577136138
him 0.004695328649888661
school 0.00715374058007548
朮 1
樺@@ 1
痊@@ 1
耸@@ 1
At 0.008776593472235765
Beautiful 0.2847299407516953
Billy 0.08618747920554685
Machine 0.162181331563052
Oliver 0.09527539821122967
ait 0.007726235320306477
chil@@ 0.09202288669812848
format 0.043548768042212846
蝮@@ 1
覦 1
鲱 1
Europe 0.01354118147892053
Vent@@ 0.12233199929730353
ecr@@ 0.17759479612442114
rap@@ 0.0197059766401568
show 0.011286787312961098
Á 0.21419006473433003
蟆 1
軛 1
骸@@ 1
Cab@@ 0.05020892797111251
Lep@@ 0.15343763210753977
Steven 0.12240746860336138
bat 0.05111516594462469
file 0.11456630255303976
凪 1
莢 1
锈 1
闢@@ 1
1515 0.6206809900407899
Bow@@ 0.05736330758676789
Brand@@ 0.0684448865358951
Giovanni 0.09164930889676529
Publ@@ 0.06802669999114738
band 0.00982946311956129
def@@ 0.015062863869016195
ester 0.03192175574369637
fo 0.07607133318121842
uss@@ 0.028567700053645784
vic@@ 0.02380741461836033
び 1
嶷 1
甌 1
砥@@ 1
篩 1
羽毛@@ 1
隣 1
1678 0.45910772933331795
There 0.008971661829153101
Universal 0.09105666326569674
aire 0.007302747254293803
aul@@ 0.04844756838955018
ily 0.07239827682337699
imal 0.06849618772711778
super@@ 0.019295176775125013
year 0.004248468183424769
½ 0.22145682433391856
妍@@ 1
鱉 1
cel@@ 0.027916854147370537
channel 0.047128940242517424
ό 0.04558029113419887
ヤ 1
恼@@ 1
憚 1
捩@@ 1
疤@@ 1
竑 1
鰓@@ 1
1716 0.44388861418491976
Commun@@ 0.07486775777021468
Cru@@ 0.07881125649327247
Sweet 0.20214746425102018
ango 0.08294401571524967
anne 0.05961774900427885
away 0.01909983986055994
ido 0.01087031822937624
mut@@ 0.025602368571969982
result 0.019670031765508397
ˊ 1
伉@@ 1
冑 1
擋@@ 1
汜 1
玷@@ 1
窜 1
腌@@ 1
鳐 1
Liber@@ 0.04221527621798246
amo@@ 0.05105615488220561
din 0.0669174508848937
major 0.011367701603244233
圜 1
撼@@ 1
滷 1
漂 1
阗 1
鴛@@ 1
Spar@@ 0.07178262866246912
Studies 0.06841401506622166
Ten@@ 0.06489443423122145
azy 0.18642357150055758
bird 0.09019032177140442
talk 0.10524923163326778
ه 0.039320117220003274
淖 1
甥@@ 1
苇@@ 1
Michel 0.05050004767974377
Mode 0.2655071755556394
Scar@@ 0.10346885869731734
Um@@ 0.020068171996664715
eps 0.06643816680337679
multi@@ 0.03794472678871383
rie 0.06235780064963504
ぎ 1
坻@@ 1
寥 1
巩 1
疤 1
萘 1
觐@@ 1
Bun@@ 0.07504497349136548
Class@@ 0.08620955218903868
Ele@@ 0.08139299067544752
Flo@@ 0.1118755084359016
Friends 0.15176850636604927
Tokyo 0.059837123894491785
other@@ 0.0443532419830671
pon 0.14280973729292012
屁 1
瞎 1
紇 1
諫@@ 1
賬 1
钕 1
钝@@ 1
Daily 0.09118470164857374
Ec@@ 0.07312539820731649
Thompson 0.08501049395054577
family 0.006142126713566347
sole 0.12061510007325317
umb@@ 0.040830160772257616
旷 1
訛 1
訢 1
譙 1
醞@@ 1
Real@@ 0.2357160899507497
cle@@ 0.02914564211236082
illi@@ 0.0581867319960486
pur 0.07325781998115133
wn 0.028577610523093298
櫥 1
燙 1
窥@@ 1
Bru@@ 0.04436414605370497
Orange 0.09180896998499127
wa@@ 0.041874759725039866
war 0.0017706237397203794
廨 1
皋@@ 1
簾@@ 1
荐@@ 1
銫 1
Aqu@@ 0.06534137723822456
Grace 0.12684072206965463
Justin 0.1466033928506301
Law@@ 0.07198551311563509
ju@@ 0.02407463801710221
pic@@ 0.03077490653694849
trop@@ 0.0788397454526794
揄 1
琇 1
筵@@ 1
飙@@ 1
鳶 1
car 0.013439483638423861
eck@@ 0.027233130896513205
get@@ 0.03787044381957578
length 0.03246082541552921
mb@@ 0.04468500026866902
olog@@ 0.030751152132154225
sea 0.023199759901049232
usion 0.06193569097786936
疲 1
谚@@ 1
谬@@ 1
赟 1
Conference 0.036666301912180004
England 0.012585767703573999
Gran@@ 0.059431656586269345
Hab@@ 0.038742948051644084
Hyp@@ 0.16952332836936435
Number 0.2211185435435648
say 0.04610251537429089
tal 0.02636041120832201
咕 1
嗚 1
挽 1
畑 1
祟 1
耙 1
蚶 1
褚 1
贅 1
Dav@@ 0.06121124169034383
Dead 0.10570222779448889
Rain 0.2954310205787757
XI 0.09420549658103626
ose 0.02945904218946155
ostr@@ 0.15032350421359383
zone 0.02917744094221471
ペ 1
俏 1
傕 1
攣 1
朦@@ 1
珲 1
瑯 1
缙@@ 1
Single 0.08664696962278441
object 0.10024992461126024
page 0.0430866570715282
set@@ 0.10931041668287102
棧@@ 1
韧 1
鰨@@ 1
Area 0.06308122277341417
Jam@@ 0.08333626203432419
Lag@@ 0.06121419285123268
Mar 0.11692749866159363
Mathemati@@ 0.10252458502811365
Plan 0.07301904324123265
igh 0.061902358277069754
ott 0.06091693667586903
pas@@ 0.014565743192990081
र 0.03296469292148362
諭@@ 1
Alabama 0.07129901983572894
Fas@@ 0.09475447462463003
bol 0.06026231139478597
oy 0.06054967515916503
棗 1
炅 1
璀@@ 1
鶇 1
＊ 1
Nature 0.12589623714243542
Roman 0.02172455022247347
ades 0.019583898470523105
auer 0.02638128139491166
aye 0.06787764258259744
da@@ 0.07155361510480433
fish 0.04303556996677616
豺@@ 1
鼱 1
Guy 0.08909849411869457
Lawrence 0.07559681217013246
abr@@ 0.04692207122619607
agn@@ 0.0426178411885731
control 0.01590025222853718
culus 0.4001622367338259
na@@ 0.056726495190889924
pos 0.061511236764201116
pus 0.12206653635570691
ull 0.1839913406363665
ž 0.6148167901259465
挟@@ 1
檄 1
笠@@ 1
覃 1
Cou@@ 0.07719314787421905
Luis 0.03700036546712237
Nag@@ 0.046532214325951296
Television 0.06207192425382737
cy 0.05217180041655418
enne 0.01454328277069441
pil@@ 0.03133310034994843
ports 0.03759469473204105
ו 1
扛 1
蜢 1
鎢 1
钋 1
鯔 1
鶲 1
｜ 1
Lat@@ 0.04189492390008042
Low 0.1679910714534747
Luci@@ 0.08094002926143624
Lun@@ 0.14279055283818018
Monster 0.26520983076033056
Riv@@ 0.09152842584522276
Stand@@ 0.04598567404520612
Vari@@ 0.05062682055493147
Vincent 0.0784495466461525
alt@@ 0.01963605001555577
iti 0.09139452521185443
thing 0.048195249532006365
仡@@ 1
玘 1
痢@@ 1
蠢@@ 1
鈞@@ 1
Anti@@ 0.046418988493855014
Brothers 0.08466251519911158
See 0.04565769786934383
Sid@@ 0.10728486865365218
mus 0.09610184818265338
round 0.015416982436817122
tors 0.018294491862394874
ş 0.15895250748068493
悯 1
鮎@@ 1
1686 0.47386801950024116
Cent@@ 0.08604672623510144
Washington 0.01592359561071335
ben@@ 0.02279532197234703
vin@@ 0.031556567492916215
俨 1
晗 1
炊@@ 1
窿 1
鄜 1
镠 1
镭 1
Joy 0.2575185950557998
gio 0.061398926894174435
勣 1
孪@@ 1
Chin@@ 0.09093709991286783
Jordan 0.0763061684313805
Lan@@ 0.05680092350087623
Lem@@ 0.07880682936295284
Num@@ 0.08341997217260287
edo 0.047165722662990656
ento 0.022868715938324492
templ@@ 0.11708783675860436
́ 0.011253302655656076
Ford 0.04704982892932702
cat 0.14106082722546612
eas@@ 0.03291732675666546
load 0.07325172820219282
lu 0.07512751829564011
sum 0.10879428214031811
睫@@ 1
锆 1
闾@@ 1
Death 0.05121228417703342
Version 0.07808588314309506
ded 0.026047063243832786
osis 0.04605329138946265
Л 0.06391829871641717
箐 1
蔴 1
3rd 0.049074635197653864
Day@@ 0.1015003701946071
Memorial 0.05790218469877448
Tin@@ 0.12050364746562751
Urban 0.11765071640525605
Work 0.11892356723212583
dre@@ 0.02311615158505218
hydro@@ 0.0429905550155154
lers 0.02122468283678347
阙@@ 1
Ah@@ 0.059550520972467255
Call@@ 0.11797647261626806
Chrom@@ 0.23861400198185673
Gra@@ 0.05374202581326521
Int@@ 0.10203773838339762
Revolution 0.05270961242915388
Songs 0.07253439554077803
break 0.039112726788668555
cle 0.03808192124009274
eless 0.055358470658119885
good 0.02360769776462582
mon 0.08740498208078717
铟 1
锣@@ 1
Face 0.1914215987089514
Ji@@ 0.07208975549645778
Se 0.012211882248227371
esp@@ 0.025517532827106598
eva 0.06357067104130261
method 0.05435613346181123
minor 0.045605099686654806
ulation 0.033489737976659835
ury 0.04592608227044625
↔ 1
镧 1
1708 0.3931791755626777
arius 0.1423538039426293
itt 0.06187966712248401
nic@@ 0.10981126893733896
rich@@ 0.024616257789463903
ヒ 1
啞 1
钵@@ 1
Hunter 0.10660396411101977
Mb@@ 0.5157019066295189
Od@@ 0.07688710622093901
Peace 0.09708376034165858
between 0.004175781080080626
hab@@ 0.01978284080354813
ogen@@ 0.059624203649364965
丟 1
锶 1
Graham 0.08738877309069157
Hat@@ 0.07512662270301473
cio 0.03903233187201876
gon 0.2803437654210176
neo 0.11100216682842987
囑@@ 1
寔 1
揖 1
芪 1
銹@@ 1
Album 0.033134822367351144
Hope 0.12213363885821682
Phil 0.11071267939940191
Ras@@ 0.07247837647390094
Robinson 0.0829621078510566
comp@@ 0.012889721627296532
fied 0.028029610696232776
illus 0.3087225840942976
mos@@ 0.04146936613792744
咱@@ 1
拚 1
泫 1
鉻@@ 1
＜ 1
Charlie 0.08227461469477441
Franz 0.044235175179643
ball 0.02415484749523469
ord 0.04140751949348531
ư 0.5222031366934676
喂 1
滄 1
発 1
舂 1
钗 1
闺@@ 1
Community 0.05374905441129634
Jacob 0.07867423099705843
Jet 0.2845865320849112
Ric@@ 0.09991619793314299
Thr@@ 0.06352501863580556
ign 0.10985842842372597
mph 0.20280313435519468
polis 0.08139229151601435
叱 1
塬 1
摻@@ 1
熏 1
聳 1
蛄 1
谘@@ 1
遏 1
騫 1
Apo@@ 0.12119940485695896
Att@@ 0.1545842954316971
Kil@@ 0.046577478277532516
Moh@@ 0.07289769545980995
Right 0.15908027070721825
eb 0.07917942742808386
site 0.010544968771898823
ˈ 1
弈@@ 1
惩 1
橡 1
淦@@ 1
灏 1
畈 1
篷@@ 1
藨 1
钺 1
雉@@ 1
Patr@@ 0.03934654152384857
Yan@@ 0.0785068495433261
agu@@ 0.03766935352754963
ump 0.10821165221423418
ures 0.023266533800112996
ː 0.9855654606310874
愔 1
漓@@ 1
釵 1
锌@@ 1
Def@@ 0.13539373495770424
Lav@@ 0.06431926716037939
Sto@@ 0.041211006636462856
four 0.006419629847929977
macro@@ 0.22977737802140863
ment@@ 0.02184313577987961
吶@@ 1
岬@@ 1
戊 1
葦@@ 1
飆 1
Extr@@ 0.10014143710020756
Ice 0.11232958074167006
Petr@@ 0.06700512919839126
cel 0.15160747676502637
plication 0.1580154950300607
儷 1
悶@@ 1
摹@@ 1
綝 1
驢 1
鷲@@ 1
Cham@@ 0.08331834628025095
Ed 0.11231227947669432
Fres@@ 0.08536295416506456
Swe@@ 0.13432948021564609
Water@@ 0.06930208281003214
call 0.04437746632041033
kings 0.09602073342041216
them 0.005729428474319083
unk@@ 0.03570882477863544
喔 1
礎 1
肱 1
脛@@ 1
芷 1
荳 1
贲 1
镌@@ 1
Age 0.08102646647752668
French 0.010714217924476405
Full 0.2032725234004829
Harris 0.07303377290459953
Mut@@ 0.07845539673075058
Norman 0.08309946152641445
Southern 0.03176721750591276
chr@@ 0.07124958218387667
dei 0.1991487364339219
zy@@ 0.048442542194941686
傍 1
棣@@ 1
殮 1
涤@@ 1
簋 1
袂 1
躯 1
铠@@ 1
３ 1
Change 0.21351171285228268
Generation 0.1190346303298143
Margaret 0.06963916712306974
Ner@@ 0.09545330752945323
lac@@ 0.08353966562991309
lip@@ 0.07968331242518506
哌@@ 1
埴 1
嬤 1
廸 1
摯 1
汎 1
煒@@ 1
铿 1
Cad@@ 0.06832906818314548
MiG 0.3997930726476906
abe 0.048569386817668876
sem@@ 0.02504144770572022
spec@@ 0.027855727910788487
慤 1
扒@@ 1
毙@@ 1
濺 1
蝟 1
銬 1
Original 0.11490852427579432
Roy 0.075110296874193
iner 0.06484778471198863
ony@@ 0.06687899404956815
峦 1
祆 1
綑 1
膊 1
菇@@ 1
菰 1
alist 0.019096179219065798
mm@@ 0.3090545197654574
冢@@ 1
剔 1
嘩@@ 1
笞 1
蔥@@ 1
阉@@ 1
By 0.014945971000907709
Four 0.05317725611826125
flu@@ 0.024580842777276422
ges@@ 0.013310955623326834
ons@@ 0.023978650112306953
ས 1
惶 1
瑣 1
蓟 1
钳@@ 1
铀@@ 1
Lak@@ 0.05463914349924428
enter 0.034453055553179894
esia 0.0742086048961483
sym@@ 0.041676639673373005
Đ 0.8777964523806715
绶@@ 1
Thor@@ 0.07491331005210901
lard 0.0646618415752379
look 0.05766058220238146
Ö 0.21359439410344142
ù 0.21390517164109307
扯@@ 1
曰@@ 1
榛@@ 1
皎 1
蜑 1
酝@@ 1
骡@@ 1
Campbell 0.07961540258434474
Equ@@ 0.12879535875851286
FK 0.1242350477155231
Here 0.09097082880392575
Partn@@ 0.1813738042800564
Phyl@@ 0.23346493821113767
Vas@@ 0.07056881551270111
aj 0.08250216961958425
astr@@ 0.042853498949303424
icle 0.11829485396931451
idge 0.052775708065032956
les@@ 0.01979188111765036
team 0.004502693888915229
榎 1
珙 1
繽@@ 1
衬 1
袱 1
Ach@@ 0.049109874453714106
IA@@ 0.2854818524526357
Room 0.16023319257768537
Vor@@ 0.007255560340408579
beta 0.20062626933582753
big 0.04810699451862649
hen@@ 0.05932948559026256
longi@@ 0.6722221025305192
sit@@ 0.021282450611806194
uld 0.08820987403821719
惋@@ 1
揶@@ 1
芾 1
钍 1
GmbH 0.06910256715312646
Joh@@ 0.06959602791907457
asp@@ 0.14214433647488206
ceph@@ 0.24068973219831694
ize 0.034953174522566965
戾 1
挟 1
礪 1
鞠 1
Exchange 0.13999481086253773
Fron@@ 0.09997150548508457
Hus@@ 0.05566168906479293
Shir@@ 0.09743437109181477
mode 0.05708262604591707
拽 1
曄 1
渍 1
薙 1
譁 1
鏢@@ 1
飭 1
How@@ 0.08328951416763669
Pir@@ 0.04890281555936536
Tik@@ 0.2860224238946881
aly@@ 0.05215800384348884
û 0.7162037857920784
ж 0.028382392108200392
刃@@ 1
嘢 1
涞@@ 1
瀟@@ 1
痙@@ 1
藁@@ 1
驭 1
Bang 0.19442070516771698
Vie@@ 0.07684657504881709
Wing 0.1289780589484255
aud 0.03641914089691139
dus 0.22990909444314134
ease 0.08011549137866511
park 0.021543048703525264
tt@@ 0.06089766880358296
吒@@ 1
毯@@ 1
獠@@ 1
粽 1
胛@@ 1
裟 1
顔 1
鲑 1
鹟 1
鹬 1
Crystal 0.17959655796086
Leon 0.14238509048656775
Mars 0.09710112472304616
Orig@@ 0.08018107564569264
Trich@@ 0.22889856204802364
Trust 0.07481467834210921
aud@@ 0.044508936845386454
esi 0.03352471766007042
river 0.024318506419969393
ult 0.11262770036002567
徠 1
腮@@ 1
袤 1
Dean 0.07871387986395689
Gate 0.15560674962764215
Government 0.025841631479015397
Hip@@ 0.12205711380597893
Mob@@ 0.12563886727190884
Morning 0.1435504389694081
Off 0.15225897354207857
Princess 0.09809694206051957
Te 0.17341113249771697
Test 0.07867790807673229
Way@@ 0.3004202391384945
Youth 0.06816814989969645
esh@@ 0.039973759270973096
gia 0.01847736412919186
gun 0.043788325391671004
phus 0.18082982803440123
臍 1
薈 1
蚩@@ 1
诋@@ 1
郤 1
霆@@ 1
Books 0.10195553676416516
Cus@@ 0.09842344187378649
Fon@@ 0.054671791480984375
Heinrich 0.03580795444490133
Hop@@ 0.10864732609650234
Major 0.03535259743439528
Sciences 0.05048193230645446
Tac@@ 0.1173377991221132
They 0.007065552981523981
Vice 0.06882906144814636
isi 0.0417936507255769
istic 0.029015890190559824
kel 0.033682731884940614
mond 0.055323637818646465
ska 0.07095992612130687
tii 0.44937478595219327
吼@@ 1
堑 1
曳@@ 1
缨 1
蟀 1
Bran@@ 0.05892959144624979
Cher@@ 0.06632473590748061
cis 0.30062142399785313
oft 0.04276169510153763
rt 0.2494869156635132
ware 0.0747193147965688
铈 1
리 1
﹔ 1
Korea 0.04669160076489351
Xi@@ 0.0760396600514903
Yam@@ 0.07412896929053395
aks 0.04039094212502539
ames 0.044046057177410156
being 0.0048240553349318165
hel@@ 0.020578313183365768
lot 0.02718186089479257
ls 0.032830037175215314
sian 0.046935603893841236
vit@@ 0.05537501546643519
ything 0.07997500996996731
岙 1
枇@@ 1
楸 1
涤 1
翘@@ 1
辄 1
錕 1
钏 1
鸯 1
Australia 0.012708227176236398
Hit@@ 0.07998089672105135
Mg@@ 0.9956589340634764
chan 0.2705248407436213
lib@@ 0.09255807339383568
ross 0.12570061781800318
tran@@ 0.03427046496784223
У 0.03318254828896153
夙@@ 1
挹@@ 1
淘 1
萘@@ 1
锺@@ 1
馗 1
KK 0.21418595964936077
Legacy 0.12454823888764067
Leo 0.09084305563418779
Morgan 0.06882918796017065
Page 0.14851951668009372
Police 0.04691047014532716
aver 0.10065870508182763
flow 0.06473877512672112
lit@@ 0.03261029333555691
ock@@ 0.0408932674644948
open 0.019569218618351786
ski@@ 0.06330613459800008
uni 0.09212711656171477
坻 1
増 1
擄@@ 1
皺@@ 1
绮 1
鳟 1
Inst@@ 0.13810299939938375
Jon 0.11295080824991423
Kenneth 0.1539418466389163
Scor@@ 0.11614630993403735
appy 0.11578842591187152
chu@@ 0.12851039191156052
plan@@ 0.015132912155029946
ric@@ 0.04367384328449381
sam@@ 0.03385583914073294
両 1
冏 1
宸@@ 1
屑@@ 1
嵙 1
謇 1
钮@@ 1
阡 1
Mart 0.13116599054100647
Planet 0.18110920682959697
Sax@@ 0.0737668674824961
Wonder 0.23793938599544678
hynch@@ 0.39483819954465377
language 0.01604669088667752
made 0.0039988142943946665
ocy@@ 0.1276964937262034
oud 0.06043184822546937
ox 0.22764177414255754
zy 0.1269256862396549
吲@@ 1
哦 1
庠@@ 1
惣 1
氰 1
牯@@ 1
蓀 1
覲@@ 1
Ast@@ 0.1013620742468175
Il 0.002521475734261289
Maur@@ 0.0473679566240631
Report 0.13548272316097432
arm@@ 0.02248555106423519
dri@@ 0.026347066429328513
lar 0.016662911550679994
mol@@ 0.03276337662718471
phone 0.04761711310229693
tiv@@ 0.026621961393178975
ˇ 1
佺 1
沱 1
篝@@ 1
蝸 1
Come 0.17831358165037256
NAS@@ 0.1369214453197287
Ster@@ 0.05983406158688825
hr 0.17314889874881287
ka@@ 0.10895131965175385
ples 0.019512985354341837
ysis 0.11935785740358794
瓮 1
蹲@@ 1
錒 1
雒 1
Amaz@@ 0.11471317591773278
Ball 0.09918626581992714
Ball@@ 0.039413663856234606
Hero 0.20821774985776714
Pent@@ 0.12044212357042099
Trade 0.091452322669648
gan@@ 0.034037533083477206
ij@@ 0.07313877125758163
kat@@ 0.03282099033611758
single 0.008242924417898055
tron 0.183639795713574
佃 1
佢 1
浒 1
燎@@ 1
緋 1
诀 1
钾@@ 1
Carolina 0.029086726736256178
Environ@@ 0.08079392057623208
Grande 0.04012400283521412
Rio 0.049278357697076586
aku 0.17299967420067863
avi@@ 0.04388217389966944
dol@@ 0.03935874023075326
ec 0.08919925569493616
make 0.013052372007730214
orient@@ 0.03798400247513345
冇 1
祯@@ 1
靳 1
骞 1
＃ 1
Enter@@ 0.16614997433727208
Fed@@ 0.23953234652242844
Federation 0.05431836048463773
Fred 0.08320594891286129
Guide 0.14565111392407895
Sad@@ 0.07526568421525077
Sali@@ 0.16395724635921552
Wang 0.10040833636781521
ï 0.08384519976954097
忿@@ 1
桶@@ 1
溼 1
紘 1
蔵 1
鹊@@ 1
Baker 0.08454922491248941
Child 0.1283873889753537
Sex@@ 0.10054523576817753
Via 0.1932220639337083
ban@@ 0.01999704610848701
ocarp@@ 0.45717529854812217
theory 0.03564078114104372
咩 1
坨 1
滌 1
舯 1
貘 1
鞮 1
鼬@@ 1
Abu 0.09945976137585964
Country 0.051457449084340544
Culture 0.06132606080702714
Larry 0.11232171512363844
North@@ 0.038084241145788046
Pyr@@ 0.10220745001181064
ads 0.031383859128799006
change 0.018995218592528566
enth@@ 0.05612158830315217
fe 0.020061784811069384
tou@@ 0.04506345482356685
ʔ 1
垠 1
惱@@ 1
暘 1
硝 1
诩 1
Lic@@ 0.09190630353039748
Tex@@ 0.055517137463705166
gal@@ 0.027966650724700642
弑 1
掷@@ 1
攪 1
杷 1
蠶 1
鄲 1
Lane 0.07938714039548478
Otto 0.045779843209156755
doc@@ 0.02883864476301556
edr@@ 0.047321045787097026
gn@@ 0.057632211986672885
known 0.0041402943079826586
¹ 1
淪 1
Command 0.07980616875670352
Empire 0.022672450690612474
Fab@@ 0.06265953151451212
Lion 0.16607653247444434
Promotion 0.13995795975748782
ingen 0.016512993788185538
nik 0.05348578891986839
odon@@ 0.19824986814117743
oll 0.07110979912333945
olo 0.06673138577121161
thor@@ 0.06193676756363198
unt 0.05438815185920232
凄@@ 1
咖 1
磯@@ 1
缎 1
陟 1
Hip 0.1928042125629824
Marc 0.06876347519703162
Ron 0.11625888845590575
Squ@@ 0.09253953940050123
bon 0.03720232048561277
inga 0.12383712640434529
urn 0.0823174939763424
挾 1
盯@@ 1
缢 1
肘@@ 1
葶 1
铲 1
颉@@ 1
Bry@@ 0.1292226187974164
Con 0.031857312106468735
Domin@@ 0.04480902535855177
Mr@@ 0.06498231484662201
Wall 0.09185847796157795
gie 0.12649971225266118
lim@@ 0.02399264413032745
喹@@ 1
拗 1
挚 1
梆@@ 1
樫 1
禛 1
筛 1
膿@@ 1
鉻 1
Dennis 0.11092740709730978
Eye 0.19557238002790225
Hed@@ 0.1121560196217859
Nas@@ 0.07497072761995237
Rainbow 0.2719221446776751
Tes@@ 0.11005180348986375
Whe@@ 0.07194579561767583
chen@@ 0.03261007244762834
ree 0.04878759323213719
ń 0.14115735155450945
哄@@ 1
哚 1
磘 1
Earl 0.05557504661293942
Got@@ 0.038103934096334224
Henri 0.04219476859900597
Nan@@ 0.09434260029061067
Pedro 0.03719420028034087
Spr@@ 0.04779159941068552
Tommy 0.11313075526449513
agon@@ 0.04550201195032548
beat 0.05737500421428579
but@@ 0.038813378588367836
dig@@ 0.026445330314178388
gener@@ 0.016007247766839837
horn 0.09899121688200462
ias 0.07650738495252227
image 0.035306251118102545
itz@@ 0.02918496529541575
trum 0.08802705480403411
侮 1
坯 1
斌@@ 1
槻@@ 1
烛@@ 1
鞏 1
骇@@ 1
鳉 1
Auto 0.12177222939268656
Four@@ 0.07013045087526733
Know 0.234710595897035
annon 0.08470589636524244
ater 0.04301041643225536
dos 0.0064228524792410814
eing 0.0425248822394964
nh 0.43768200037607025
pora 0.16551687089528214
pot@@ 0.02621406006338946
㎡ 1
冼 1
岂 1
忻 1
羿 1
鏖@@ 1
鮈 1
Di 0.12800355230424726
Diamond 0.14559325170895732
Glo@@ 0.1407699318074512
Railway 0.030145339050599164
Walk 0.2134476541152851
Wr@@ 0.16814511729388418
che@@ 0.03760052592345359
gol@@ 0.028029647810981672
inst@@ 0.018585687290919313
mun@@ 0.03084073187162006
opp@@ 0.04775030662296103
put@@ 0.0336820166050226
sed 0.018018876495932843
垭 1
嶇 1
幡@@ 1
忤@@ 1
暉@@ 1
殉 1
璐@@ 1
脩@@ 1
苕 1
蛎 1
褂 1
訇 1
谯@@ 1
贪 1
蹼 1
April 0.00473469933576693
Danny 0.11900847696392297
Jol@@ 0.1670840024355624
KV@@ 0.30922380856946846
Oxy@@ 0.4205738763611769
asse 0.032463620158526205
dale 0.05652886761711208
obi@@ 0.09138449147610779
嗨 1
玑 1
郗@@ 1
鉚@@ 1
５ 1
Northern 0.02737868607576666
Stewart 0.07205824788554638
asc@@ 0.03574032738625058
eer 0.04576224512407746
ente 0.00578822225199769
ough@@ 0.03737788788613757
rez 0.1333829876084654
stream 0.0393195353244143
岘 1
淌 1
熔 1
眙 1
蜷@@ 1
逛 1
钌 1
顫 1
Bell@@ 0.06946724802505844
Card@@ 0.051938337493600654
June 0.006337189163512621
Prize 0.054068323994243134
Rid@@ 0.06983520786729601
Sci@@ 0.1476206408180653
kal@@ 0.02807965220524345
osaur@@ 0.12268935546167718
wil@@ 0.033159272208570095
刎 1
勲 1
繙 1
茛 1
蜗 1
袈@@ 1
铼 1
閎 1
鳕 1
Geor@@ 0.044478129646751616
Haz@@ 0.09265753953002731
Jerry 0.09784173630971149
Mn@@ 0.7577684127248758
Professional 0.0652795018488609
ders 0.01937419481489278
eder@@ 0.032956400639691616
pon@@ 0.02957185344817471
process 0.019838845478718885
実 1
苋@@ 1
鉄 1
Cass@@ 0.07902677826392383
anz@@ 0.021085732507359307
imo 0.06430172455517963
ram@@ 0.04031829572574012
rid 0.0718568107061846
儼 1
垛 1
睢 1
絆@@ 1
綻 1
羨 1
郜@@ 1
鈍@@ 1
饬 1
Bobby 0.10301906036213701
Neu@@ 0.02698899458084724
Raj@@ 0.041816115140044276
Ralph 0.10212345026948823
cep@@ 0.044701626663499874
kers 0.039904237434795424
lim 0.21803463122056352
pers 0.04388308308080999
sm@@ 0.03932227445178781
嘱@@ 1
恣@@ 1
昙 1
淼 1
穰 1
贓 1
鳢 1
Ernst 0.05113038863388156
Rou@@ 0.05351112388751628
Snow 0.182639230078266
aine 0.019857741138377932
bank 0.027305271392132013
now@@ 0.04110669426159976
prin@@ 0.044524830287984554
ticus 0.27576374760924866
ý 0.05137185185800132
น 0.04468842632008648
挛 1
罌@@ 1
锰@@ 1
饅@@ 1
Forest 0.05006019006946805
Las@@ 0.08063717027756821
Lif@@ 0.13683409409818068
Ten 0.08197216228281351
ig 0.02620351987240163
ital 0.038856089193160026
lands 0.02162843938109861
por 0.0012476413288780375
vis@@ 0.02267212033850715
ホ 1
唸@@ 1
瓌 1
餾@@ 1
Wes@@ 0.041741818882588926
aten 0.016060620062855593
olor 0.2019533222035523
unction 0.09990382432413633
ì 0.14585182665088
曠 1
猗 1
釗@@ 1
鯡 1
About 0.06225276914947429
Gem@@ 0.04818130031005064
omys 0.4358807720134331
sul@@ 0.04362618870184065
亵@@ 1
凜@@ 1
勻@@ 1
曙 1
樾 1
澡@@ 1
牍 1
翹@@ 1
蒾 1
顼 1
鯓 1
Jam 0.24093272457480724
Psych@@ 0.06426259361631989
Theory 0.20336482041557216
oug@@ 0.042005886930175124
墉 1
憨@@ 1
汴 1
澆@@ 1
琚 1
璩 1
蜕@@ 1
鍬 1
铢 1
髅 1
Agency 0.08195129278415934
Christ@@ 0.04724349366545801
Hamilton 0.04872803141654384
Make 0.23203844081893227
Nin@@ 0.1032599841876328
Non 0.10037394100676475
Ward 0.08446841319895951
eto 0.028570357901866933
wen@@ 0.02683905505841439
懈@@ 1
樋@@ 1
繃 1
综 1
羈 1
躄 1
Berry 0.16019845118921874
Cho@@ 0.15590012537560127
Kle@@ 0.04059459696212492
Living 0.15905178580695437
ayan 0.06948702596292329
final 0.0064052472496516286
fs 0.042506125981952005
species 0.008358211217537914
zu 0.0014370951862283311
捻@@ 1
晔 1
烽 1
詡 1
鈽 1
Amp@@ 0.1101658169139738
Duke 0.04132689217532549
Fur@@ 0.03374660804256979
Gom@@ 0.10388625650416353
Hollywood 0.04771282036859227
Intel@@ 0.1725812130377024
ban 0.024216864470723857
lus 0.1092864868542567
oh 0.18034577372631047
rier 0.04484067558940461
ways 0.022040742608149633
げ 1
姫 1
獴 1
謐 1
鯧 1
Buc@@ 0.04360092892633771
Emp@@ 0.04964292198388524
Esp@@ 0.04352623405240694
Freedom 0.099901136863458
India 0.011867335721985412
Nicholas 0.08541735993675273
Palm 0.1870009348790213
aco 0.04696196995541111
ading 0.04438388453078949
dom@@ 0.0246661739123242
zz@@ 0.0667120913622133
ξ 0.4334589329247803
ة 0.04362441091008241
ق 0.06508177001728097
孰@@ 1
岀 1
憊 1
浔 1
詮 1
鶻 1
Camp 0.07062512132363123
Front 0.05469560731660621
Nelson 0.06599548261778074
Seb@@ 0.2256672121800435
ching 0.02754738762402501
ilia 0.09329404616305317
ind 0.07371067249008177
俳 1
恵 1
椽 1
硐 1
绯@@ 1
脛 1
鉤@@ 1
锂@@ 1
Angel@@ 0.12431095499903067
Barry 0.08467254228800952
Hudson 0.08931180278134797
Imp@@ 0.09874218102558797
Rat@@ 0.06948133669148883
Rog@@ 0.11164067210817126
Tour@@ 0.030072712687061857
hard 0.028256020132425504
ini@@ 0.06359668511516635
vil@@ 0.049522465556098814
喫 1
忤 1
CAF 0.15397543246972964
Manga 0.25210190568631274
Middle 0.039139164130506256
abl@@ 0.0349355188232192
area 0.00561652044629207
bil@@ 0.017648547035153058
iger 0.017672899289088634
mad@@ 0.03567046226429806
pper 0.09150554859315002
uo 0.06951335344053532
vor@@ 0.007069338190761278
巻 1
淤 1
Clem@@ 0.09654348533594848
Concep@@ 0.1467240626066614
Ot@@ 0.046553835715850006
Track 0.07757189254918445
Where 0.1503015693937901
aves 0.02302037150271059
eron 0.020951959617067886
ven 0.021923504653254575
ving 0.024014580514157634
嚣 1
琐@@ 1
蟋@@ 1
诟@@ 1
颍 1
Asp@@ 0.09810937513199704
Kl@@ 0.021649579367161626
Shu@@ 0.1036258175716676
etus 0.17666895612020536
mark 0.0302469718601134
卒@@ 1
歹 1
絞 1
Flu@@ 0.05919775575715034
Gabriel 0.06220804347445823
Ted 0.12565759022545428
aug@@ 0.04548215186650994
aut@@ 0.021861837650353756
ck@@ 0.031647546373135584
force 0.01641719772072446
fort 0.020219221628641437
istry 0.06885525356728461
nt 0.03650988191829395
潞 1
疯 1
痉@@ 1
鵡@@ 1
４ 1
Anti 0.10108135745422571
Hun@@ 0.05140584563753458
Keith 0.10214480392283005
Rail 0.11084301296548232
Rud@@ 0.06722921287160108
gy 0.06607107928146633
position 0.00857827352338198
ψ 1
坷 1
恽@@ 1
惺@@ 1
扉 1
揽@@ 1
瞪@@ 1
腥@@ 1
莒 1
钇 1
骯 1
Blood 0.12287123783544814
Circle 0.14187618061853854
Dir@@ 0.06975329992152943
Univers@@ 0.18831195933444136
Winter 0.0422245734857202
arc@@ 0.03651851885826596
aro@@ 0.061966398661395174
bic@@ 0.05930069924330675
ken@@ 0.019102694470229224
lep@@ 0.2505608803043209
mar 0.03410819347151454
meth@@ 0.07763813843884454
sing@@ 0.036816465654030635
攒 1
邬@@ 1
郅 1
鲫 1
Bernard 0.052289765148590114
Det@@ 0.05328855763260707
Heter@@ 0.2760067409649674
Nation 0.08328195904231352
Pseudo@@ 0.3706909832888627
Viol@@ 0.07471299188663576
asure 0.09970580087788321
ink@@ 0.11487001790067199
tionary 0.0984757743766934
ui@@ 0.11767716674401257
啾 1
懼@@ 1
擘 1
砚 1
豉 1
鼯@@ 1
Ghost 0.18732768650281528
Heaven 0.17558595066726237
NHL 0.07421970584566809
Neo 0.2304077525694103
Staff 0.092711455038969
aman 0.09191887597751483
ation@@ 0.057755810189078806
irus 0.24042004702472278
tar 0.03875516173919236
udi@@ 0.05287536097337973
xy@@ 0.2015893177801799
焗 1
遹 1
Bac@@ 0.07444151856420028
Bin@@ 0.11731628633260129
Electric 0.09179074150196677
Fantas@@ 0.17412363429418865
Integr@@ 0.10084395699656593
Knight 0.0803006895510899
Strateg@@ 0.10113359853738924
Us 0.14898059224025104
enny 0.07258711800962328
ores 0.014079390693554083
ret 0.0531512044784465
sion@@ 0.03426717852504009
僥 1
僳@@ 1
宓 1
掳@@ 1
溅@@ 1
迺 1
鷸 1
鹭@@ 1
Gaz@@ 0.09129962190222592
Magn@@ 0.12868418385521901
NATO 0.12285626901556494
Stanley 0.06585113142485394
ern 0.007538371225644639
osh@@ 0.10226889257811245
珑 1
睑 1
臆@@ 1
赉@@ 1
鮄 1
Crown 0.07857246531566378
Econom@@ 0.0570830977288619
Val 0.0840931015274061
ists 0.011453648848301495
tek 0.12098591547245877
yx 0.21027854034692917
ح 0.08070290737900196
椁 1
殯 1
籬@@ 1
Ce@@ 0.1492910015246302
Et@@ 0.03127446729997996
Foc@@ 0.2120598516782631
Rib@@ 0.12338130142876756
Sound@@ 0.2158388721853893
aeus 0.18606325848562366
ape 0.13044097814084638
bie 0.05007067695936873
糞@@ 1
脾 1
蜃@@ 1
謔 1
鎳@@ 1
閲 1
髯 1
Craig 0.10671448734170776
Dist@@ 0.055163259335173714
dom 0.04535851191285703
lab@@ 0.02635414909474345
昼 1
泮 1
莆 1
阿根@@ 1
隷 1
鬬 1
鶚 1
Cathedral 0.08278760977413467
Chi 0.11335010539223861
Lex@@ 0.10843299524845153
Rosa 0.08073389241438336
Wind 0.11503134551643643
sia 0.1075851200254171
ylo@@ 0.1744447953800528
仄@@ 1
烬 1
辊 1
飢 1
Doctor 0.054200209571368965
Premier 0.02810675731465049
Roy@@ 0.06215344278231741
Sed@@ 0.11799420717935052
dex 0.14806967553108724
fire 0.019219861759125313
ru 0.12813754515364198
solo 0.013925583207507784
儕 1
拭 1
枷@@ 1
楹@@ 1
汲 1
翩@@ 1
赃@@ 1
邽 1
Communications 0.0945351653199308
Gray 0.09110794186425689
Marcus 0.10294238627063311
Mark@@ 0.06484708394793842
Tir@@ 0.055659809518834896
Village 0.05854584592032239
arts 0.02660173038088412
chia 0.07948514469612503
shop 0.05074796956577675
wick 0.05811184731530981
yon 0.07519067576915943
侃@@ 1
嵋 1
彤@@ 1
徕 1
掀 1
摧 1
涧@@ 1
纓 1
蔘 1
轧@@ 1
郫@@ 1
Nep@@ 0.2119580805609301
Ou@@ 0.056310862764979146
Produ@@ 0.07170948124213386
Train 0.16096541920894275
WWF 0.21873212735682504
bac@@ 0.03710749579613991
hand@@ 0.013640282707673321
ift 0.09826416264600077
nus 0.14573009584367544
ords 0.035563903605344525
room 0.021057649082694398
teau 0.1617368830007446
嘶@@ 1
曦@@ 1
溱 1
漣@@ 1
眩 1
耸 1
鋤@@ 1
Food 0.10342108542165361
Lig@@ 0.04873169860616173
Set@@ 0.17064864977205776
Sle@@ 0.13097100616380858
Syl@@ 0.09916579020361581
Tiger 0.131837113707749
Wood 0.06831583749298835
eff@@ 0.022675779004711537
eling 0.04027586057682882
erg@@ 0.026879535433591915
巿 1
槿 1
疙@@ 1
穂 1
钳 1
Chir@@ 0.10213082147977225
Gallery 0.06280507050034102
Grap@@ 0.20488225297117849
Lau@@ 0.0424276209531785
Ra 0.330033335104869
Terry 0.09367049904526147
主持@@ 1
伕 1
喋@@ 1
懇 1
浣 1
舔 1
苜@@ 1
菟 1
褻@@ 1
蹊@@ 1
abase 0.13080045946363586
before 0.0046647086485834075
eira 0.08288140558298025
nch@@ 0.10933690654514726
vers@@ 0.016228989097440576
囓@@ 1
洹 1
讹@@ 1
Af@@ 0.05591858346295379
Gener@@ 0.04056599705016894
Gregory 0.10437560565903997
Hop 0.1737548091773842
atis 0.193960380746463
ische 0.004234711728414474
spir@@ 0.026863087552010938
侶@@ 1
劵 1
嘿 1
懾 1
罡 1
趴 1
Films 0.06509049480210262
Georges 0.05160326335937635
Kaz@@ 0.0625860570968978
Leon@@ 0.0706977226181951
Neil 0.09353365942635289
ric 0.08094487966557885
sy 0.08269978456363196
tam@@ 0.03912380441429374
奘@@ 1
汊 1
睫 1
竈 1
아 1
Broad@@ 0.11662170019510243
Colorado 0.044402731492885844
Natural 0.07518853251227288
Too 0.2278314554537438
aming 0.060882190186746635
amo 0.05813150549329979
ils 0.0073537332688745774
rue 0.030886478903328886
尕@@ 1
崽 1
瘩 1
荼@@ 1
螂@@ 1
訛@@ 1
讥@@ 1
閡 1
靚 1
Anime 0.25349576844695954
[...]
