ใน 1
ที่ 1
และ 1
ของ 1
เป็น 1
มี 1
การ 1
ได้ 1
" 1
) 1
( 1
โดย 1
. 0.135183486299968
ว่า 1
กับ 1
ปี 1
จะ 1
จาก 1
ซึ่ง 1
ให้ 1
ไม่ 1
ไป 1
พ.ศ. 1
การ@@ 1
มา 1
ส@@ 1
เมื่อ 1
, 0.0847584959016311
ก@@ 1
ม 1
ส 1
ม@@ 1
น 1
น@@ 1
นี้ 1
ล 1
ล@@ 1
พระ 1
อยู่ 1
หรือ 1
ค.ศ. 1
ใช้ 1
ก 1
- 1
ความ@@ 1
ด 1
คือ 1
์ 1
บ@@ 1
แต่ 1
ร@@ 1
ด@@ 1
ก็ 1
เขา 1
ต@@ 1
คน 1
ป@@ 1
ๆ 1
วันที่ 1
ด้วย 1
ง 1
ถูก 1
ทาง 1
ย@@ 1
ว@@ 1
แห่ง 1
ผู้@@ 1
เมือง 1
ประเทศ 1
ค@@ 1
อ@@ 1
ท@@ 1
อย่าง 1
ขึ้น 1
ต 1
พ@@ 1
เพื่อ 1
ได้รับ 1
ยัง 1
กัน 1
นั้น 1
ง@@ 1
2 1
จึง 1
ช@@ 1
ร 1
ไทย 1
ตัว 1
1 1
จ@@ 1
ผู้ 1
ถึง 1
ร์ 1
นา 1
ะ 1
บ 1
สามารถ 1
หนึ่ง 1
ข@@ 1
ซ@@ 1
แล้ว 1
ชื่อ 1
ห@@ 1
ดี 1
ฟ@@ 1
ย 1
3 1
25@@ 1
สร้าง 1
แบบ 1
โ@@ 1
ทำให้ 1
า 1
ว 1
เป็น@@ 1
พระ@@ 1
เธอ 1
ต่อ 1
์@@ 1
ทาง@@ 1
มาก 1
ทรง 1
ออก 1
เรื่อง 1
อ 1
ตาม 1
จังหวัด 1
ประ@@ 1
ค 1
เพลง 1
เกิด 1
เล@@ 1
ต้อง 1
วิ@@ 1
ชาว 1
() 1
ลา 1
แรก 1
อร 1
กา 1
วัด 1
ระหว่าง 1
ต่อมา 1
ทั้ง 1
เก@@ 1
นิ@@ 1
เซ@@ 1
แ@@ 1
รา 1
ลง 1
ริ 1
ส่วน 1
ความ 1
รี 1
ส์ 1
ทีม 1
ทำ 1
งาน 1
อีก 1
วัน 1
อา@@ 1
เน@@ 1
กลุ่ม 1
มา@@ 1
เบ@@ 1
เดือน 1
สุ@@ 1
ปัจจุบัน 1
ถ@@ 1
เช่น 1
ย์ 1
ฮ@@ 1
4 1
ไ@@ 1
ใหญ่ 1
ท 1
สำหรับ 1
ภาพ 1
ยา 1
: 0.4342844646861804
รา@@ 1
พระองค์ 1
หลาย 1
ใหม่ 1
หลัง 1
ด้าน 1
ช 1
โลก 1
ฟ 1
พบ 1
มี@@ 1
้ 1
ณ 1
นัก@@ 1
24@@ 1
ช่วง 1
เข้า 1
ที่สุด 1
บน 1
ลิ@@ 1
ผ@@ 1
เริ่ม 1
อำเภอ 1
ซี 1
เม@@ 1
ี@@ 1
ที่@@ 1
เอ 1
เรียก 1
ตา 1
กว่า 1
เช@@ 1
กล@@ 1
โอ 1
ครั้ง 1
ป 1
เส@@ 1
เอ@@ 1
กระ@@ 1
ภาพยนตร์ 1
นำ 1
น้ำ 1
ราช@@ 1
เล่น 1
มิ 1
ภาษา 1
้า 1
5 1
จัด 1
เว@@ 1
ร์@@ 1
พระเจ้า 1
นา@@ 1
ราช 1
ศ@@ 1
สี 1
โรงเรียน 1
ใจ 1
ต่าง 1
เจ@@ 1
จำนวน 1
อา 1
ไว้ 1
่ง 1
ตั้งแต่ 1
ชาติ 1
อน 1
หล@@ 1
เขต 1
ที่จะ 1
่ 1
จน 1
ี 1
รอบ 1
ลี 1
เด 1
รัฐ 1
ิ@@ 1
หม@@ 1
สำคัญ 1
มาจาก 1
การแข่งขัน 1
ลิ 1
– 0.6606761864211855
เร@@ 1
สอง 1
; 0.4432592562155834
เพ@@ 1
ซา 1
ตัว@@ 1
ระบบ 1
กลาง 1
พิ@@ 1
ัง 1
อั@@ 1
ริ@@ 1
ดา 1
ระดับ 1
พื้นที่ 1
ทั้งหมด 1
เ@@ 1
โก 1
จีน 1
ติ 1
สมัย 1
อื่น 1
ผ่าน 1
เท@@ 1
นาย 1
อาจ 1
มัน 1
โร 1
หน้า 1
รวม 1
ธ@@ 1
สมเด็จ 1
เด@@ 1
ะ@@ 1
สูง 1
คำ 1
ญี่ปุ่น 1
ก่อน 1
คา 1
ทำ@@ 1
้@@ 1
ในประเทศ 1
เวลา 1
"@@ 1
เร 1
ศาสตร์ 1
เคย 1
บ้าน 1
6 1
เดิม 1
ฉ@@ 1
ยา@@ 1
ประมาณ 1
เจ้า 1
กั@@ 1
เหนือ 1
หน@@ 1
กา@@ 1
ได้แก่ 1
รับ 1
อิ@@ 1
ณ@@ 1
ชาย 1
ญ@@ 1
ญ 1
ิ 1
การศึกษา 1
ชนิด 1
้ง 1
นัก 1
ุ 1
สา@@ 1
็@@ 1
มหาวิทยาลัย 1
เนื่องจาก 1
สม@@ 1
ู@@ 1
คร@@ 1
หา 1
ตำแหน่ง 1
โต 1
เพราะ 1
วง 1
วิ 1
อุ@@ 1
เพียง 1
กร 1
ลักษณะ 1
วงศ์ 1
น์ 1
แม@@ 1
เต 1
่า 1
เต@@ 1
อง 1
้น 1
่@@ 1
เซ 1
คล@@ 1
คำ@@ 1
ชุด 1
เสียง 1
รับ@@ 1
หลัก 1
บริษัท 1
ลูก@@ 1
บาง 1
ีย@@ 1
ต์ 1
เห็น 1
บริเวณ 1
7 1
เท 1
ตำบล 1
-@@ 1
อัน 1
โน 1
กร@@ 1
น้ำ@@ 1
นิ 1
เม 1
ิน 1
โร@@ 1
อันดับ 1
ซิ 1
รั@@ 1
ิน@@ 1
อร์@@ 1
ใต้ 1
.@@ 1
กรรม 1
เฟ@@ 1
(@@ 1
วา 1
เป@@ 1
แก่ 1
แสดง 1
ประวัติ 1
คน@@ 1
ติ@@ 1
10 1
ู 1
ชิ 1
พล@@ 1
ผล 1
า@@ 1
ฝ่าย 1
ชีวิต 1
หลังจาก 1
ลา@@ 1
& 1
ฟุตบอล 1
รูป 1
อังกฤษ 1
ส่วน@@ 1
ระ 1
จ 1
นิยม 1
ตั้งอยู่ 1
กลับ 1
ภาค 1
อน@@ 1
รัฐบาล 1
เกม 1
เรือ 1
ระ@@ 1
ส่ง 1
ชา 1
โค 1
ดู 1
/ 0.6196899743900156
ุ@@ 1
อดีต 1
ั@@ 1
8 1
สงคราม 1
เดียวกัน 1
รายการ 1
เปิด 1
โดย@@ 1
เค@@ 1
ซ 1
เขียน 1
่น@@ 1
ผล@@ 1
ยาว 1
กีฬา 1
ัก@@ 1
บา@@ 1
ทหาร 1
ัก 1
ชั้น 1
รุ่น 1
เดียว 1
อัลบั้ม 1
เก 1
ช่วย 1
เปลี่ยน 1
กุ@@ 1
่ง@@ 1
ซ์ 1
ฝ@@ 1
แบ@@ 1
แบ่ง 1
ตั้ง 1
อาหาร 1
พา@@ 1
ยู 1
มิ@@ 1
อง@@ 1
กำลัง 1
เข้า@@ 1
ต้น 1
ภายใน 1
โม@@ 1
ยุค 1
ตน 1
องค์ 1
เครื่อง@@ 1
่น 1
สาย 1
เจ้า@@ 1
คา@@ 1
อก 1
วี 1
อร์ 1
ประกาศ 1
ฝรั่งเศส 1
สโมสร 1
เกี่ยวกับ 1
ศึกษา 1
อด@@ 1
แล@@ 1
ทอง 1
๊@@ 1
พ 1
” 1
ดี@@ 1
ท์ 1
วา@@ 1
ียง 1
ปลา 1
เป็นการ 1
นี 1
ปล@@ 1
อนุ@@ 1
วั@@ 1
ร่วม 1
อี 1
ปรา@@ 1
จา@@ 1
ประกอบ 1
จิ 1
คณะ 1
โอลิมปิก 1
แทน 1
ผลงาน 1
บา 1
ฮา 1
จัด@@ 1
รัก 1
พรรค 1
โด 1
ดิ@@ 1
หลวง 1
ชน 1
ทร@@ 1
ฯ 1
เข@@ 1
“ 0.6092227723453936
รูปแบบ 1
อม 1
ดังกล่าว 1
ธรรม 1
บรร@@ 1
9 1
โค@@ 1
น้อย 1
วง@@ 1
ชัน 1
สาม 1
ใน@@ 1
หญิง 1
ยุ@@ 1
20 1
กิ@@ 1
เค 1
ล้าน 1
มหา@@ 1
แห่งชาติ 1
of 0.03863806088577407
เอง 1
สกุล 1
สุดท้าย 1
ลีก 1
มากกว่า 1
ด์ 1
ตา@@ 1
สี@@ 1
โรค 1
บี 1
ี่ 1
มั@@ 1
ครั้งแรก 1
จนถึง 1
ไม้ 1
ข้อ@@ 1
ที 1
นอกจากนี้ 1
รางวัล 1
ัน@@ 1
ดิ 1
อด 1
อายุ 1
บิน 1
ท่าน 1
โล 1
พวก 1
เกาะ 1
12 1
สั@@ 1
สาว 1
ปา@@ 1
ถนน 1
หน้า@@ 1
เข้าร่วม 1
ฐานะ 1
ส่วนใหญ่ 1
โม 1
ข้อมูล 1
พล 1
ตอน 1
้ม 1
ตร@@ 1
15 1
นั@@ 1
ธ 1
อย 1
เรียน 1
เกิดขึ้น 1
อาศัย 1
โด@@ 1
มือ 1
เจ 1
จำ@@ 1
เลือก 1
โท 1
รุ@@ 1
ประเภท 1
ภ@@ 1
เดินทาง 1
ียน 1
ตัน 1
ชนะ 1
พัฒนา 1
พวกเขา 1
าน 1
อบ@@ 1
บริ@@ 1
ิง 1
ตี 1
ก็ได้ 1
เย@@ 1
เมตร 1
มหา 1
30 1
โอ@@ 1
ตาม@@ 1
ฤดูกาล 1
ทุก 1
บาท 1
นคร 1
สัตว์ 1
ผลิต 1
้า@@ 1
ขนาด 1
ละ@@ 1
มีนาคม 1
ับ 1
พันธุ์ 1
สิงหาคม 1
16 1
กองทัพ 1
ลง@@ 1
ที่อยู่ 1
สมาชิก 1
บั@@ 1
่า@@ 1
แม่น้ำ 1
ฐาน 1
อาคาร 1
เงิน 1
ตุลาคม 1
ตร 1
แสดง@@ 1
ย้าย 1
แนว 1
ชน@@ 1
ปรากฏ 1
ออกมา 1
ราชวงศ์ 1
เข้ามา 1
่อ 1
กลายเป็น 1
แน@@ 1
ออกจาก 1
บท 1
ช่อง 1
สู่ 1
กันยายน 1
สนับสนุน 1
ตะวันตก 1
วน 1
งาน@@ 1
จบ 1
ทุก@@ 1
' 1
ประกอบด้วย 1
บุรี 1
ใด 1
ยังมี 1
เมษายน 1
มกราคม 1
แยก 1
ธันวาคม 1
สาขา 1
สน@@ 1
ศา@@ 1
จักรพรรดิ 1
แต่ละ 1
), 1
ประชากร 1
บุคคล 1
ออ 1
พิเศษ 1
ศาสนา 1
พฤษภาคม 1
สภา 1
ต่างๆ 1
สาร 1
น. 1
ทา 1
เล็ก 1
กำหนด 1
เฮ@@ 1
แท@@ 1
ชา@@ 1
หมายถึง 1
ประชาชน 1
กรกฎาคม 1
แผ@@ 1
หา@@ 1
เสียชีวิต 1
เรีย 1
ขาย 1
เอก 1
มนุษย์ 1
ประจำ 1
ษ@@ 1
รวมถึง 1
รี@@ 1
ดา@@ 1
ทะเล 1
11 1
นก 1
มัก 1
ตะวันออก 1
อากาศ 1
ปา 1
19 1
โซ@@ 1
สัน 1
18 1
ศรี 1
ัน 1
ชัย 1
วัน@@ 1
๋@@ 1
นัด 1
เพิ่ม 1
่าน 1
การเลือกตั้ง 1
ทิศ@@ 1
หนังสือ 1
ล์ 1
แม่ 1
ลำ@@ 1
โซ 1
กรม@@ 1
บู@@ 1
อิน@@ 1
ทั้งสอง 1
พร@@ 1
มิถุนายน 1
ตะ@@ 1
นาง 1
ซิ@@ 1
โก@@ 1
เรีย@@ 1
ปัญหา 1
ทำงาน 1
กรุง 1
วะ 1
นาม 1
14 1
พระราช@@ 1
ซั@@ 1
ตุ@@ 1
โต@@ 1
อะ 1
ยู@@ 1
คู่ 1
ปั@@ 1
จริง 1
ขอ 1
ลด 1
นาน 1
ตอน@@ 1
เนีย 1
เด็ก 1
รร@@ 1
พฤศจิกายน 1
ทั่วไป 1
หัว 1
สิ่ง 1
ประวัติศาสตร์ 1
บุ@@ 1
ทิ@@ 1
แดง 1
ใช้@@ 1
มะ 1
อีกครั้ง 1
ละ 1
ู่ 1
ไอ 1
สหรัฐอเมริกา 1
เท่านั้น 1
ชิ@@ 1
ภูมิ@@ 1
ศ 1
ห์ 1
ได้@@ 1
ม. 1
ทา@@ 1
ป่า 1
ซี@@ 1
วิทยา 1
พา 1
จิ@@ 1
สิ@@ 1
สาร@@ 1
แค@@ 1
แก@@ 1
ฉบับ 1
เตอร์ 1
ชั้น@@ 1
แลนด์ 1
กุมภาพันธ์ 1
ละคร 1
ยะ 1
ลาย 1
การปกครอง 1
ยุโรป 1
อิ 1
ื@@ 1
ธรรม@@ 1
ซา@@ 1
ภายใต้ 1
ขา@@ 1
คณะ@@ 1
คุ@@ 1
สถาน 1
ตาย 1
กฎหมาย 1
อำนาจ 1
ดังนี้ 1
ออก@@ 1
จุด@@ 1
13 1
ไฟ 1
25 1
แอ 1
สังคม 1
ซู 1
ภา@@ 1
ชื่อว่า 1
ปลาย 1
แข่งขัน 1
การเมือง 1
ค่า 1
อบ 1
ีย 1
ดนตรี 1
(; 1
เครื่อง 1
ราย 1
อล 1
ห 1
พระราชทาน 1
รักษา 1
เหตุการณ์ 1
ก่อตั้ง 1
ที@@ 1
บาง@@ 1
17 1
กิ 1
มุ@@ 1
สังกัด 1
ออกอากาศ 1
The 0.08500370243120367
รวมทั้ง 1
จา 1
จากนั้น 1
ราชการ 1
ตั้ง@@ 1
เดอะ 1
อาร์ 1
กะ 1
จำหน่าย 1
็ก 1
แต@@ 1
สูงสุด 1
เลย 1
อย@@ 1
ฤดูร้อน 1
สุ 1
เหตุ 1
แซ@@ 1
ร่วมกับ 1
") 1
ใบ 1
ลั@@ 1
อักษร 1
วิทยาศาสตร์ 1
อก@@ 1
คณะกรรมการ 1
เส้น 1
สอน 1
ถ้า 1
มาร 1
รบ 1
จำกัด 1
สู@@ 1
ลูก 1
ือ 1
รู้ 1
รู 1
แต่@@ 1
ปร@@ 1
กอง@@ 1
วาง 1
การแสดง 1
รอง 1
ไม@@ 1
สต@@ 1
ึ@@ 1
ไม่@@ 1
ขาว 1
เอส 1
ดั@@ 1
ยังคง 1
เรา 1
กรม 1
เล 1
24 1
วิธี 1
กลับมา 1
พยายาม 1
ดาว 1
นต@@ 1
ธิ@@ 1
หาก 1
การณ์ 1
อาการ 1
้อน 1
แอ@@ 1
สี่ 1
บุตร 1
กู 1
เห@@ 1
หน่วย 1
ปี@@ 1
สุด 1
วร 1
ฮิ 1
ทร 1
ประตู 1
ปฏิ@@ 1
ทุ@@ 1
ด้าน@@ 1
ี้@@ 1
โบ 1
ชี 1
​ 1
ำ@@ 1
ชิง 1
คล้าย 1
เซอร์ 1
้อง 1
น่า@@ 1
คิด 1
ติด@@ 1
21 1
ตั@@ 1
ไร 1
จุด 1
ทัพ 1
ต้น@@ 1
ตก@@ 1
นักแสดง 1
ดัง 1
อาชีพ 1
ทั@@ 1
สำ@@ 1
คอ 1
นว@@ 1
ของ@@ 1
นับ 1
เอเชีย 1
ดู@@ 1
โป@@ 1
กิน 1
หมู่ 1
สาธารณรัฐ 1
ปริ@@ 1
ครู 1
สัน@@ 1
เข้าไป 1
แชมป์ 1
รัสเซีย 1
หุ@@ 1
เหมือน 1
รอ 1
รถ 1
โล@@ 1
กระทรวง@@ 1
วัฒนธรรม 1
ดอก 1
วิน 1
เหล่านี้ 1
สัง@@ 1
ขนาดใหญ่ 1
ให้@@ 1
รถ@@ 1
สง@@ 1
ญา@@ 1
อินเดีย 1
เจ้าชาย 1
เป็นที่ 1
พั@@ 1
ดำรงตำแหน่ง 1
ร้อง 1
ปกครอง 1
หัว@@ 1
คะแนน 1
แม้ 1
ที่สอง 1
ประธาน 1
ยก@@ 1
the 0.012680163920093572
แฟ@@ 1
เป็นหนึ่ง 1
โครงการ 1
ำ 1
อี@@ 1
% 0.33069606999751655
กษัตริย์ 1
เข้าสู่ 1
ศักดิ์ 1
สว@@ 1
สหรัฐ 1
คั@@ 1
โย 1
โรง@@ 1
ทำการ 1
ก่อสร้าง 1
ึง 1
ติด 1
เลือด 1
ัง@@ 1
ตรง 1
นะ 1
แมน 1
ตนเอง 1
โจ@@ 1
เป็นต้น 1
ิด 1
รัฐมนตรี 1
เผ@@ 1
ภายหลัง 1
เสีย 1
้อ@@ 1
ลุ@@ 1
gt 1
22 1
ยอด 1
ครอบครัว 1
โย@@ 1
จนกระทั่ง 1
ชี@@ 1
รว@@ 1
พื้น@@ 1
lt 1
ึก 1
ภัย 1
ชอบ 1
้น@@ 1
ฟ้า 1
เริ่มต้น 1
ใกล้ 1
ดุ@@ 1
กี 1
นาง@@ 1
คุณ 1
หมาย 1
สิทธิ์ 1
ออกแบบ 1
สถานี 1
แรง 1
แป@@ 1
แสง 1
รายชื่อ 1
โปร@@ 1
สถาบัน 1
ท่า 1
จำนวนมาก 1
23 1
สนาม 1
สัญญา 1
หน้าที่ 1
จี 1
กำกับ 1
ีน 1
เอา 1
ดำ 1
การพัฒนา 1
มณฑล 1
ว์ 1
พัน 1
เซลล์ 1
วัง 1
พอ 1
ไฟฟ้า 1
ราว 1
ต่อไป 1
ราม 1
วิชา 1
ภาค@@ 1
ิล 1
ระบุ 1
กำเนิด 1
สัม@@ 1
สาย@@ 1
ลำดับ 1
ตระกูล 1
ดินแดน 1
่ม@@ 1
บิดา 1
เทพ 1
เศรษฐกิจ 1
อย่างไรก็ตาม 1
ธิดา 1
บท@@ 1
ยก 1
มหาวิทยาลัย@@ 1
เจ้าหญิง 1
ลู 1
สวน 1
มากขึ้น 1
ดาว@@ 1
โน@@ 1
แม้ว่า 1
เสด็จ 1
ครอง 1
อิน 1
นคร@@ 1
เชื่อ 1
ธรรมชาติ 1
วิทยาลัย 1
แห@@ 1
ฮั@@ 1
คดี 1
ร้าย 1
็ก@@ 1
งค@@ 1
วิหาร 1
ส่วนหนึ่ง 1
บิ 1
ดิน 1
ค่า@@ 1
จัดตั้ง 1
กว@@ 1
รุ 1
หลังจากนั้น 1
ชม 1
เวอร์ 1
ในขณะที่ 1
ภิ@@ 1
หิน 1
s 0.17499048403239487
แต่งตั้ง 1
มักจะ 1
นอก 1
ก่อ 1
สมาคม 1
คุณ@@ 1
แปล 1
ต้องการ 1
พี 1
ข้าม 1
เฮ 1
คลอง 1
สะ@@ 1
งา 1
ยศ 1
เอ็ม 1
ตัวเอง 1
ท้องถิ่น 1
พระยา 1
อเมริกัน 1
เก็บ 1
อุด@@ 1
ิต 1
กว้าง 1
28 1
หนัก 1
่อน 1
แผ่นดิน 1
เพื่อให้ 1
ภาพ@@ 1
่ม 1
นาย@@ 1
อีกด้วย 1
ียร์ 1
ครั้งนี้ 1
เดิน 1
เกิน 1
โดยเฉพาะ 1
ระดับ@@ 1
ณ์ 1
26 1
แก้ว 1
แต่ง 1
ปล่อย 1
เหล@@ 1
แตก 1
ือ@@ 1
แพ้ 1
ดังนั้น 1
พม่า 1
ห้อง 1
ศูนย์ 1
แส@@ 1
ทั้ง@@ 1
ภาษา@@ 1
ีย์ 1
0 1
แพ@@ 1
ธุรกิจ 1
ควบคุม 1
อาจจะ 1
จับ@@ 1
นุ@@ 1
แม่@@ 1
เฉพาะ 1
พรรค@@ 1
ราย@@ 1
วด 1
ได 1
สาน 1
โทรทัศน์ 1
ดูแล 1
ิร์@@ 1
ียว 1
ต่อ@@ 1
นต์ 1
ไล@@ 1
เหลือ 1
27 1
เยอรมนี 1
พร 1
ตรา 1
ฆ@@ 1
แร@@ 1
จักรวรรดิ 1
ศิลปะ 1
ข่าว 1
ัด 1
มารดา 1
29 1
ภูมิภาค 1
หร@@ 1
เพ 1
เยอรมัน 1
บันทึก 1
นายกรัฐมนตรี 1
แดน 1
อัล 1
พอ@@ 1
ยาน 1
กิโลเมตร 1
เก่า 1
โฮ 1
สั้น 1
เกี่ยวข้อง 1
พูด 1
หว@@ 1
อาณาจักร 1
เน 1
กัน@@ 1
แนว@@ 1
ประโยชน์ 1
มีชื่อเสียง 1
อล@@ 1
ปก@@ 1
สร@@ 1
เทคโนโลยี 1
แจ@@ 1
บี@@ 1
ยิง 1
ศรี@@ 1
สุข 1
ปกติ 1
ธาตุ 1
ก่อ@@ 1
ฉาย 1
เลอ 1
ศึก 1
เชิง 1
อื่นๆ 1
แข@@ 1
ศพ 1
พืช 1
ธิการ 1
กุล 1
๊ก 1
จร 1
สถานที่ 1
เป็นทางการ 1
ป้องกัน 1
พิมพ์ 1
ภูมิ 1
โบราณ 1
ไซ 1
พร้อมกับ 1
ถ่าย@@ 1
ฤ@@ 1
็น 1
มากมาย 1
ไท@@ 1
็ด 1
สิ่ง@@ 1
ย่อย 1
ศิลปิน 1
จักร 1
ดัน 1
เลี้ยง 1
ว่าการ 1
อย่าง@@ 1
ตัวละคร 1
กอ 1
ถึง@@ 1
กรุงเทพมหานคร 1
กุ 1
หมู่บ้าน 1
เลือกตั้ง 1
ข้าง 1
ค่าย 1
ูน 1
ตะ 1
วี@@ 1
เปิดตัว 1
ไป@@ 1
พร้อม 1
สต์ 1
กล่าว 1
ข้าง@@ 1
นี่ 1
นักเรียน 1
ใช่ 1
P@@ 0.24384815662519377
ทำหน้าที่ 1
คืน 1
เง@@ 1
ใส่ 1
ชั่น 1
สืบ@@ 1
อิทธิพล 1
ซิงเกิล 1
จับ 1
พิธี 1
หลังจากที่ 1
จันทร์ 1
ดำเนิน 1
ส่ง@@ 1
โจมตี 1
รัส 1
ฏ@@ 1
ประจำ@@ 1
ไท 1
หั@@ 1
อุ 1
าน@@ 1
ึก@@ 1
เป็นที่รู้จัก 1
พลัง 1
ดำเนินการ 1
ไซ@@ 1
อิตาลี 1
ฌ@@ 1
31 1
ช่วยเหลือ 1
ฐ 1
ลับ 1
ือน 1
ใ@@ 1
่อ@@ 1
โช@@ 1
วัย@@ 1
เทียบ 1
เสนอ 1
ตัด 1
ฟา 1
S@@ 0.19677501172504683
นักร้อง 1
สภาพ 1
กาย 1
ความสัมพันธ์ 1
บัน@@ 1
ความสามารถ 1
แข็ง 1
อู 1
A 0.29542206771409363
จุ@@ 1
ิล@@ 1
ียน@@ 1
พระนาง 1
ตลาด 1
เอ็@@ 1
23@@ 1
). 1
รูป@@ 1
ใบ@@ 1
= 1
T@@ 0.23909932925975938
นอ 1
มอง@@ 1
หย@@ 1
ครั้ง@@ 1
สเปน 1
ไอ@@ 1
่อง 1
รู้จัก 1
็อก 1
ต่อต้าน 1
กล่าวว่า 1
คว@@ 1
ขยาย 1
ถือ 1
พ่อ 1
การผลิต 1
สำเร็จ 1
ช่วง@@ 1
บริหาร 1
ตลอด 1
M@@ 0.2379046731363326
ตรง@@ 1
เถ@@ 1
สิทธิ 1
แฮ@@ 1
จิต@@ 1
ตำรวจ 1
้าย@@ 1
ิม 1
ควร 1
ทำลาย 1
วิจัย 1
ตก 1
สัญลักษณ์ 1
มะ@@ 1
ชาว@@ 1
ับ@@ 1
เทศ 1
รับรางวัล 1
ปาก 1
กซ์ 1
นี@@ 1
สเต@@ 1
อุป@@ 1
เปล@@ 1
ตำ@@ 1
ื่อ@@ 1
ส์@@ 1
จน์ 1
ขนาดเล็ก 1
อัล@@ 1
รุนแรง 1
ผสม 1
้ว@@ 1
ล่าง 1
ตั้งขึ้น 1
กอง 1
พระบรม@@ 1
จัดการ 1
ข้อ 1
หนี 1
สมาชิกสภาผู้แทนราษฎร 1
็อง 1
บอก 1
ผู้นำ 1
เพศ 1
วาง@@ 1
จู 1
้อ 1
ดิน@@ 1
สัปดาห์ 1
ตัวอย่าง 1
สหราชอาณาจักร 1
(" 1
โครงสร้าง 1
กำ@@ 1
เหล็ก 1
ต่างกัน 1
บุญ 1
ก์ 1
ข 1
ด้วยกัน 1
ปิ@@ 1
100 0.9976339063357613
ี่@@ 1
แพทย์ 1
ฝั่ง 1
รายงาน 1
พุทธ@@ 1
ข้า@@ 1
หลักสูตร 1
ประธานาธิบดี 1
ทศวรรษ 1
ทำให้เกิด 1
โคร@@ 1
G@@ 0.23754763566364542
บดี 1
่าง 1
สาม@@ 1
ธานี 1
เหรียญ@@ 1
ฟิ@@ 1
ทหาร@@ 1
กระจาย 1
กรา@@ 1
ต่างประเทศ 1
ทราบ 1
บางส่วน 1
เชียงใหม่ 1
บก 1
้อย 1
คู่@@ 1
จี@@ 1
สิบ 1
ประสาท 1
ฎ@@ 1
ยึด 1
แรง@@ 1
มวย@@ 1
พื้น 1
ตรี 1
กาล 1
ดวง@@ 1
เย 1
โรงพยาบาล 1
ท่า@@ 1
ทุน 1
บ้าน@@ 1
เคร@@ 1
พัก 1
ประสบความสำเร็จ 1
นักกีฬา 1
สัตว์@@ 1
ขณะที่ 1
จำ 1
ฝ่าย@@ 1
เบอร์ 1
วัตถุ 1
ซุ@@ 1
เท่า@@ 1
โทษ 1
ภาวะ 1
ริน 1
คุ 1
รัชกาล 1
หลักฐาน 1
เส้นทาง 1
โจ 1
เป็นเวลา 1
เวอร์@@ 1
แหล่ง 1
กรรม@@ 1
ได้รับ@@ 1
รัง 1
รถไฟ 1
นิกาย 1
วิจารณ์ 1
เป็นครั้งแรก 1
", 1
ชู 1
มอ@@ 1
ยอมรับ 1
อุตสาหกรรม 1
ประสงค์ 1
ไร@@ 1
ื่น 1
ไว 1
เนื้อ@@ 1
ซื้อ 1
ผิด 1
มป@@ 1
พิจารณา 1
พระบาทสมเด็จพระ@@ 1
C@@ 0.23921606084563696
สม 1
มพ@@ 1
อ่อน 1
ไข@@ 1
แด@@ 1
ขับ@@ 1
สากล 1
มูล@@ 1
เส้น@@ 1
บำ@@ 1
พลังงาน 1
ชุมชน 1
ฝึก@@ 1
สยาม 1
กองทัพ@@ 1
องค์กร 1
ักษ์ 1
คริ@@ 1
นานาชาติ 1
ทั่วโลก 1
บอ 1
เพิ่มขึ้น 1
ขาด 1
เวียดนาม 1
ที่ดิน 1
เช่นกัน 1
่าง@@ 1
แล้ว@@ 1
ยุ 1
ื้อ@@ 1
หมาย@@ 1
สึ 1
เชิญ 1
นิว@@ 1
จั@@ 1
เจริญ 1
ร่าง 1
เจน 1
เล่ม 1
อาจารย์ 1
ลิง 1
หลัก@@ 1
สมอง 1
โท@@ 1
คริสต์ 1
แคว้น 1
อาวุธ 1
ร่างกาย 1
โพ@@ 1
มอน 1
บริการ 1
เรือน 1
แค 1
ห้อง@@ 1
กิจกรรม 1
รม 1
เนอ 1
เมีย 1
กิจ 1
อาทิตย์ 1
ตัดสินใจ 1
งค์ 1
เอฟ 1
บรม 1
ยิ่ง@@ 1
50 1
ทัย 1
ภา 1
คริสต์ศตวรรษ 1
เสีย@@ 1
ภาษาอังกฤษ 1
ธง 1
ร็@@ 1
เฉ@@ 1
เพื่อน 1
คาร์ 1
ต่ำ 1
่วง 1
ลอ@@ 1
กลาง@@ 1
in 0.013941290781495544
ปฏิบัติการ 1
ก. 1
ขึ้น@@ 1
and 0.016190212656287957
ขน@@ 1
วิดีโอ 1
แอน@@ 1
ถือเป็น 1
อเมริกา 1
หัวหน้า 1
ห่าง 1
สำนักงาน 1
รส 1
บุ 1
กะ@@ 1
ใช้งาน 1
เต็ม@@ 1
จอห์น 1
ห้า 1
่ว 1
็อ@@ 1
แผ่น 1
พระพุทธ@@ 1
เฉพาะ@@ 1
สถาน@@ 1
้วย 1
พื้นฐาน 1
ซีรีส์ 1
ียม 1
การค้า 1
ธิ 1
ปิด 1
เรื่องราว 1
ุ่ม 1
เสมอ 1
สต 1
การ์ตูน 1
เขต@@ 1
ผู@@ 1
นท 1
อธิบาย 1
้าว 1
ในที่สุด 1
อาร์@@ 1
ร่วมกัน 1
คอน 1
แถบ 1
มอ 1
ณา@@ 1
วงการ 1
นาที 1
ทีวี 1
นู 1
เอาชนะ 1
ขอ@@ 1
อม@@ 1
ภั@@ 1
เล่า 1
เกล@@ 1
ญา 1
ศาล 1
สัย 1
รัฐธรรมนูญ 1
หมายเลข 1
อยู่@@ 1
วด@@ 1
ซึ@@ 1
บรม@@ 1
เพียง@@ 1
บัณฑิต 1
่ว@@ 1
เหน@@ 1
โทร@@ 1
ชุ@@ 1
พยา@@ 1
ยอดเยี่ยม 1
้าน@@ 1
พระมหากษัตริย์ 1
ครอง@@ 1
ลำ 1
เครื่องบิน 1
ภู@@ 1
ไห@@ 1
ทางการเมือง 1
ือก@@ 1
ื่อ 1
ยน 1
การทำงาน 1
สื่อ 1
ทฤษฎี 1
ไม้@@ 1
อะ@@ 1
โอรส 1
ท้อง@@ 1
นาการ 1
ค์ 1
ฺ@@ 1
ือก 1
ล่า 1
รัฐ@@ 1
สา 1
สุริ@@ 1
หนัง 1
ชีว@@ 1
ทวีป@@ 1
ไฟ@@ 1
ถือว่า 1
ีบ 1
ศูนย์กลาง 1
ี่ย@@ 1
ศตวรรษ 1
2016 0.5675334633673718
สมัคร 1
สมบูรณ์ 1
กษ@@ 1
D@@ 0.19338933544546638
จง 1
ครั@@ 1
จักร@@ 1
เปลี่ยน@@ 1
กรณี 1
กส์ 1
ค้นพบ 1
ฮ์ 1
เห็น@@ 1
ไร่ 1
ขณะ 1
เกล้า 1
ฟี 1
วิชาการ 1
ย่อ 1
ชาย@@ 1
แนวคิด 1
ตกลง 1
นุ 1
ให้บริการ 1
สมรส 1
ความเป็น@@ 1
นโยบาย 1
สมเด็จพระ@@ 1
ใกล้เคียง 1
ลาว 1
N@@ 0.2345408196423028
คู 1
ริก 1
เหลือง 1
ษ 1
บางครั้ง 1
กี@@ 1
โกะ 1
เวน 1
สินค้า 1
ปรับ 1
เอ็น 1
ตลอด@@ 1
เต็ม 1
ใจ@@ 1
2012 0.5275776029813138
เหล่า 1
ช้าง 1
โฟ@@ 1
ฐ@@ 1
หวัง 1
ทธ@@ 1
พร้อม@@ 1
ระยะ 1
สมบัติ 1
เยาวชน 1
จอม@@ 1
B@@ 0.18677363930271282
ยิ@@ 1
้อม 1
_ 0.5704201663834364
วิทยา@@ 1
วาน 1
มุ 1
ปราสาท 1
ไกล 1
ขา 1
จ่าย 1
2014 0.5307425663764039
สิน@@ 1
ระเบิด 1
กรรมการ 1
45 1
รณ@@ 1
ทาน 1
ธ์ 1
คัพ 1
ถูก@@ 1
ลึก 1
ติก 1
การเปลี่ยนแปลง 1
พระนาม 1
ยอด@@ 1
แถ@@ 1
แบ 1
ง่าย 1
มีความ@@ 1
คัดเลือก 1
โอกาส 1
อร์ด 1
ต่อเนื่อง 1
2010 0.41743934847369507
วัย 1
2018 0.5585120605761338
จด@@ 1
สัมพันธ์ 1
มีชื่อ 1
สุด@@ 1
หาย 1
อุปกรณ์ 1
กิจการ 1
ืน 1
โข@@ 1
สถิติ 1
F@@ 0.20015512905269942
เสร็จ 1
ขุ@@ 1
แย@@ 1
คม 1
ฆ่า 1
เนื้อ 1
2554 1
40 1
ติดต่อ 1
ที่มา 1
ชั@@ 1
อนุญาต 1
a 0.015574993670323311
ซาน 1
่อย@@ 1
ชก 1
รวม@@ 1
จน@@ 1
กรี@@ 1
เกียรติ 1
ืด 1
เกาหลี 1
แค่ 1
ความนิยม 1
ซัน 1
ปรับปรุง 1
รี่ 1
ใคร 1
รก 1
ออสเตรเลีย 1
อัน@@ 1
ศึกษา@@ 1
แผน 1
บริหาร@@ 1
ที่เกิด 1
าย 1
ชีพ 1
2020 0.6216328452643293
นำมา 1
ลู@@ 1
ยาน@@ 1
เซีย 1
พุ@@ 1
y 0.03959454867544848
ทิ้ง 1
ลม 1
2550 1
ผิว 1
้ำ 1
แข่ง 1
R@@ 0.19735416197015826
ต์@@ 1
แพร่@@ 1
มอง 1
พันธมิตร 1
ซ้อน 1
เผยแพร่ 1
ลส์ 1
ที่ตั้ง 1
็ต 1
บร@@ 1
W@@ 0.21438055720459814
เขียว 1
สัญญาณ 1
ระเบ@@ 1
สห@@ 1
ราชอาณาจักร 1
อำ@@ 1
ไฮ@@ 1
ั้น@@ 1
เรียง 1
วอ 1
ร้อยละ 1
มศึกษา 1
ต่อสู้ 1
บอล 1
กรุง@@ 1
ชิ้น 1
อัต@@ 1
เจ้าพระยา 1
กลม 1
หมด 1
ทั่ว 1
รักษ์ 1
บังคับ 1
็ง 1
ูล 1
เดี่ยว 1
ฟา@@ 1
เรือ@@ 1
ลย์ 1
เบ 1
แต่ง@@ 1
ู้ 1
ประพันธ์ 1
ฏ 1
ท่องเที่ยว 1
ทางหลวง 1
ทูต 1
พุทธ 1
สปีชีส์ 1
ล์@@ 1
ทรง@@ 1
สรร@@ 1
โตะ 1
แบบ@@ 1
L@@ 0.165904921461531
อัตรา 1
ยุทธ@@ 1
ยาก 1
้วน 1
บทบาท 1
เคมี 1
เนื้อหา 1
ปะ@@ 1
ศิ@@ 1
ึ่ง@@ 1
H@@ 0.1906823664036912
บาล 1
เป็นสมาชิก 1
การนำ 1
การรักษา 1
[[ 1
ประ 1
ประชาธิปไตย 1
ศาส@@ 1
กระบวนการ 1
ตัดสิน 1
ปืน 1
สามั@@ 1
สนาม@@ 1
พระราชวัง 1
ยาง 1
ฉา@@ 1
ึ่ง 1
ต. 1
เกาหลีใต้ 1
ดัง@@ 1
มาตรฐาน 1
เน้น 1
ตีพิมพ์ 1
หลากหลาย 1
ดะ 1
นั่น 1
ไว@@ 1
หนอง 1
เช่นเดียวกับ 1
ตอบ@@ 1
ม้า 1
A@@ 0.20097361211325848
ไหล 1
สังหาร 1
โพ 1
โรค@@ 1
นิยาย 1
C 0.5970128258920416
ชาวไทย 1
สร้าง@@ 1
มติ 1
ินี 1
กองกำลัง 1
หยุด 1
สะพาน 1
ณี 1
ศัพท์ 1
กล่าวถึง 1
ผ้า 1
เงิน@@ 1
2557 1
แว@@ 1
เจ้าของ 1
เหย@@ 1
คอมพิวเตอร์ 1
ทั้งสิ้น 1
ออฟ 1
โป 1
ไฮ 1
ด้วย@@ 1
กระทรวง 1
เลีย 1
ุก@@ 1
จริ@@ 1
ก่อนที่จะ 1
B 0.6006874024411197
ถวาย 1
ไข่ 1
)@@ 1
กลา@@ 1
คัน 1
พรร@@ 1
เบล 1
2553 1
มงคล 1
มาร@@ 1
โรมัน 1
2015 0.4735700282614163
แขวง 1
เมน 1
แอน 1
ผู้หญิง 1
ต่าง@@ 1
หลา@@ 1
สั่ง 1
น่า 1
กัมพูชา 1
ตำนาน 1
มุข 1
บัว 1
ลุ 1
ซอ 1
หัวใจ 1
กฤ@@ 1
ศาสนา@@ 1
เกือบ 1
มาน 1
ศี@@ 1
สถาปัตยกรรม 1
รับบท 1
การต่อสู้ 1
ี้ย@@ 1
ทรัพย์ 1
เซ็น@@ 1
ทอ 1
ชื่อ@@ 1
มหาสมุทร 1
พันธ@@ 1
ตู 1
สเตอร์ 1
เข้าแข่งขัน 1
ระยะเวลา 1
ลาด 1
]] 1
รัน 1
การสอน 1
เหรียญ 1
้าน 1
พี@@ 1
เชื้อ@@ 1
อร@@ 1
เจดีย์ 1
พฤ@@ 1
เด่น 1
พี่@@ 1
เลน 1
มวย 1
ภาษ@@ 1
นอกจาก 1
00 1
เชิง@@ 1
นิตยสาร 1
ลี่ 1
สังเก@@ 1
K@@ 0.18647870758501542
ช่วงเวลา 1
ฟอร์@@ 1
ราคา 1
2017 0.5002378378188761
2561 1
2551 1
หม่อม@@ 1
on 0.03917859966956399
จิต 1
ียร 1
่ำ 1
O@@ 0.24629814551480125
us 0.2411992218024589
วิธีการ 1
! 0.7386222797007527
มาถึง 1
กรณ์ 1
ิว 1
ฟ์ 1
รายได้ 1
ประชุม 1
2555 1
ถือ@@ 1
สำรวจ 1
นส์ 1
2549 1
เหตุผล 1
E@@ 0.22176885098895477
ฉาก 1
นักศึกษา 1
เวที 1
โนะ 1
แต่งงาน 1
ร่วมมือ 1
ขุน 1
เติบโต 1
บ้าง 1
เทพ@@ 1
32 1
ในขณะนั้น 1
แก 1
อธิ@@ 1
โดยทั่วไป 1
วิศว@@ 1
เดิน@@ 1
2559 1
หน่วยงาน 1
2562 1
ยอม 1
ผู้ป่วย 1
สน 1
มวล@@ 1
อ. 1
คอย 1
ย์@@ 1
ฺ 1
จอร์@@ 1
อนิ@@ 1
คำสั่ง 1
ล่า@@ 1
ออ@@ 1
ิด@@ 1
ดร. 1
วาย 1
2008 0.4463650193998038
สด 1
เพลิง 1
เพชร 1
บล@@ 1
ปฏิบัติ 1
ระยะ@@ 1
เกมส์ 1
น้ำหนัก 1
สถาปนา 1
อุท@@ 1
สำนัก@@ 1
เสียง@@ 1
ลี@@ 1
อิสระ 1
็ค 1
ส่วนตัว 1
สิน 1
/@@ 1
เบื้อง@@ 1
ค้า 1
สาเหตุ 1
ศาล@@ 1
สตรี 1
(, 1
เลข 1
2013 0.4410242294760307
บุก 1
เห 1
เท่า 1
6@@ 0.6037035205910506
E 0.9093382436188427
อะไร 1
คง@@ 1
่าย@@ 1
มัน@@ 1
มัติ 1
เมืองหลวง 1
วอลเลย์บอล 1
formula 0.5623577362864756
ทั้งนี้ 1
ขน 1
ผม 1
ลิก 1
มิน@@ 1
รอย 1
กล่าว@@ 1
เคน 1
ซ้าย 1
พิษ 1
บัตร 1
่าย 1
มอบ 1
อุโบสถ 1
อุณหภูมิ 1
เข้าใจ 1
เมะ 1
รหัส 1
ียบ 1
ร์ก 1
แนะนำ 1
ตย์ 1
2560 1
พรรษา 1
สำนัก 1
เอก@@ 1
เกษตร@@ 1
5@@ 0.5218706200948379
นอน 1
สาธารณ@@ 1
ความคิด 1
หาง 1
รัง@@ 1
ฤทธิ์ 1
ไชย 1
คิ 1
ดาร 1
ยม 1
พัฒ@@ 1
รวดเร็ว 1
ดำเนิน@@ 1
เชื่อม 1
4@@ 0.5225064107841161
กสมรส 1
แฟน 1
รู@@ 1
ไลน์ 1
ขึ้นไป 1
ฝึก 1
ุ่น 1
43 1
ตี@@ 1
หลาย@@ 1
ประสบ@@ 1
@@ 0.11479592974826898
ชัดเจน 1
ปฏิบัติ@@ 1
ดับ@@ 1
แสน 1
สงฆ์ 1
งาม 1
้าง 1
สนใจ 1
โดยที่ 1
ผ่าน@@ 1
อว@@ 1
ร้อย 1
งะ 1
เกล้าเจ้าอยู่หัว 1
กระทำ 1
ถิ่น@@ 1
กำลัง@@ 1
ยาย 1
มีส่วน 1
ดอน 1
ปริมาณ 1
มหาราช 1
2019 0.4755917997765079
ราบ 1
ไวรัส 1
แอฟริกา 1
ซูเปอร์ 1
ท่าอากาศยาน 1
60 1
สถานะ 1
2011 0.3779648684742662
เปอร์ 1
ส่งผล 1
เย็น 1
i 0.23105584744480637
บรรดา 1
ล้ม@@ 1
ตรวจ 1
ลาด@@ 1
ไต 1
เดอร์ 1
n 0.2397419873859598
าะ 1
2552 1
ประสิทธิภาพ 1
แข็ง@@ 1
เตอร์@@ 1
เว 1
้าย 1
ที่สาม 1
ชิงแชมป์ 1
เคลื่อนไหว 1
คราว 1
ไบ@@ 1
เดช 1
เหลว 1
นที่ 1
เจ้าหน้าที่ 1
ทั้งคู่ 1
บัญญัติ 1
ึง@@ 1
พันธ์ 1
ฑ@@ 1
รู้สึก 1
ทรั@@ 1
มุม 1
V@@ 0.20687490535136657
ปลูก 1
สิ้นพระชนม์ 1
แล 1
จาร@@ 1
จิตร@@ 1
รัชสมัย 1
คนใน 1
พง@@ 1
7@@ 0.5996488468462556
การเรียน 1
สุขภาพ 1
สมา@@ 1
เจอ 1
เจ้าฟ้า 1
ต่อไปนี้ 1
80 1
ลอนดอน 1
แกน 1
ครึ่ง 1
บัญ@@ 1
ทุ่ง 1
ตช์ 1
ี่ยง 1
ระหว่างประเทศ 1
พระราชินี 1
มัธยมศึกษา 1
เพิ่มเติม 1
ฝน 1
ปลาย@@ 1
ิก 1
ปฏิเสธ 1
พระพุทธรูป 1
ธา@@ 1
38 1
ลัย 1
S 0.6955611096138885
ห้าม 1
อต 1
เด็ก@@ 1
36 1
กระดูก 1
หอ 1
ถัง 1
้ง@@ 1
น้อง@@ 1
ไก 1
บู 1
เชื้อสาย 1
มือ@@ 1
รัฐสภา 1
งวง 1
ช่อง@@ 1
บิ@@ 1
2558 1
มู 1
โปรแกรม 1
ร. 1
สิ้น@@ 1
กลาย 1
ก่อน@@ 1
ขวา 1
ความเร็ว 1
ยิ่ง 1
ส่งเสริม 1
ปล้ำ 1
ฟัง 1
8@@ 0.5982572570368763
รอง@@ 1
บาร์ 1
ทุกคน 1
แรม 1
หรือไม่ 1
การบริหาร 1
ตี้ 1
่อม 1
2556 1
โปรดเกล้าฯ 1
ing 0.06290833736128996
ประชา@@ 1
บวร 1
ลดลง 1
สมุ@@ 1
9@@ 0.5989302863694453
คุ้ม@@ 1
อิสริ@@ 1
ัย 1
ชาร์ต 1
วร@@ 1
เนื่อง@@ 1
ลัทธิ 1
ราะ 1
วุ@@ 1
ชั่ว@@ 1
เวลา@@ 1
เป็นต้น@@ 1
เทียม 1
ระบบ@@ 1
แยก@@ 1
ลำตัว 1
สภา@@ 1
พี่น้อง 1
ชิน 1
คิด@@ 1
เทคนิค 1
ประทาน 1
เบีย 1
แทร@@ 1
ก็@@ 1
ทราย 1
x 0.4976939462667931
เลข@@ 1
ยูไนเต็ด 1
เฉลี่ย 1
ไน 1
พายุ@@ 1
เชอ 1
นำ@@ 1
วร์ 1
อวกาศ 1
รักษา@@ 1
สวรรคต 1
เปลี่ยนแปลง 1
ไต้@@ 1
34 1
สวรรค์ 1
เรื่อง@@ 1
น้ำตาล 1
2@@ 0.9086434502887367
เกร@@ 1
สำนักงาน@@ 1
คริสต@@ 1
ทะ 1
ทะเบียน 1
พิธี@@ 1
การประ@@ 1
เร็ว 1
ขุนนาง 1
ประสูติ 1
33 1
ชั่วโมง 1
ปาง 1
พุทธศักราช 1
ศิ 1
ูด 1
สิ้นสุด 1
แบ่ง@@ 1
เอช 1
ม์ 1
มูล 1
ฤดูหนาว 1
เป้าหมาย 1
๋ 1
นทร์ 1
หาร@@ 1
จุ 1
เหลี่ยม 1
็บ 1
ซะ 1
ตอบ 1
ลล์ 1
กล 1
พระราชโอรส 1
ผิด@@ 1
น้ำมัน 1
ื่น@@ 1
เป็นที่@@ 1
น้อยกว่า 1
ประทับ 1
ื่อน@@ 1
เวล 1
ราชา@@ 1
ผลกระทบ 1
2009 0.3833851746988914
เอเช@@ 1
ชาร์@@ 1
เหมาะสม 1
ถาม 1
ไพ@@ 1
นาม@@ 1
อร์แลนด์ 1
ท้าย 1
ฟิลิปปินส์ 1
ชัด 1
ลาน 1
ป่า@@ 1
หัน@@ 1
อ่าน 1
เน็ต 1
เวย์ 1
เขตการปกครอง 1
ร้องเพลง 1
โรงเรียน@@ 1
เซน 1
คร 1
อย่างยิ่ง 1
มุ่ง@@ 1
ร้อน 1
ยื@@ 1
พ่อ@@ 1
นอก@@ 1
หอ@@ 1
คลื่น 1
ปัจ@@ 1
แชมป์โลก 1
ถา@@ 1
จ์ 1
กัด 1
ฟรี 1
เกษตร 1
กรณ@@ 1
เท้า 1
อินโดนีเซีย 1
พระราชบัญญัติ 1
มีอายุ 1
แปล@@ 1
บิล 1
2563 1
สิต 1
รับผิดชอบ 1
เวท 1
โดยตรง 1
ฟู 1
ร์ค 1
ดั้งเดิม 1
วัคซีน 1
ให้การ 1
แน่น 1
เซนติเมตร 1
เชีย 1
องค์การ@@ 1
ฟัน 1
มีบทบาท 1
บาดเจ็บ 1
เท่ากับ 1
ภูเขา 1
มีผล 1
ดวง 1
โช 1
หญ@@ 1
ทู 1
บัญชาการ 1
หก 1
การแพทย์ 1
41 1
เอน@@ 1
พัน@@ 1
ถั@@ 1
ภรรยา 1
ส. 1
์" 1
แช 1
แก้ 1
2007 0.39671945755690735
เล็กน้อย 1
ฮี 1
คี@@ 1
ความเชื่อ 1
รูปร่าง 1
ประดับ 1
้อน@@ 1
ละคร@@ 1
ื้อ 1
นด์ 1
ความหมาย 1
ศรีอยุธยา 1
วุฒ@@ 1
เดีย 1
สิริ 1
นอกจากนั้น 1
ปีก่อน 1
วิด 1
ำเ@@ 1
ทั่ว@@ 1
ลาย@@ 1
ตามลำดับ 1
ตรวจสอบ 1
ศ. 1
ธุ@@ 1
กระแส 1
37 1
ดอก@@ 1
คง 1
ลักษณ์ 1
อพยพ 1
ความรู้ 1
กรุ@@ 1
ปรากฏตัว 1
ขั้นต@@ 1
การประชุม 1
ชาวบ้าน 1
นติ@@ 1
สิ 1
T 0.7364128157177185
ลิน 1
สล@@ 1
โว 1
จันท@@ 1
br 1
กอ@@ 1
แจ้ง 1
2006 0.400269964640166
แมน@@ 1
สัญ@@ 1
ถิ่น 1
เบิล 1
เทน@@ 1
คอนเสิร์ต 1
เกียรติ@@ 1
แทนที่ 1
นักบุญ 1
กบฏ 1
สังคม@@ 1
ยอ 1
รับรอง 1
เสริม 1
สีแดง 1
ออน 1
เสนา@@ 1
ทอด 1
สูตร 1
เดนมาร์ก 1
ใช้เวลา 1
ติน 1
รวบรวม 1
14@@ 0.6094758517283926
แอล 1
ขั้@@ 1
ตอนที่ 1
บุรุษ 1
มน@@ 1
สตาร์ 1
ถ่าย 1
สรุป 1
ทับ@@ 1
การปฏิ@@ 1
นัย 1
หู 1
เหตุ@@ 1
ขนา@@ 1
มาเลเซีย 1
หมู่เกาะ 1
ทดสอบ 1
จอม 1
เสริ@@ 1
)" 1
นซ์ 1
ยืนยัน 1
al 0.07522899767785897
แคนาดา 1
้าง@@ 1
ปู 1
มู@@ 1
จ้าง 1
องค์การ 1
อยุธยา 1
ชนะเลิศ 1
ซู@@ 1
ัย@@ 1
็อน 1
็อป 1
ออสเตรีย 1
คอน@@ 1
เนียม 1
ซาร์ 1
;@@ 1
ขนส่ง 1
แตกต่าง 1
ครองราชย์ 1
หนุ่ม 1
เหมือน@@ 1
มิส 1
โคล@@ 1
ขวัญ 1
กรีก 1
2548 1
90 1
ปริญญาตรี 1
ไข้ 1
ปริญญา@@ 1
พฤติกรรม 1
อันเป็น 1
ฮ่องกง 1
ยืน 1
นาค 1
คู@@ 1
ขับ 1
โปรตุเกส 1
เรียก@@ 1
ึ 1
เลียน 1
ทิศ 1
สำเร็จการศึกษา 1
พงษ์ 1
ร็อก 1
่อง@@ 1
ฬ@@ 1
นับถือ 1
โน้@@ 1
ภพ 1
มีโอกาส 1
ราก@@ 1
นักฟุตบอล 1
ก่อนที่ 1
ทัน@@ 1
หนา@@ 1
M 0.7529601685679647
สะ 1
นิวเคล@@ 1
การเขียน 1
ผู้คน 1
เสี่ยง 1
มิวสิก 1
ไส@@ 1
อาณาเขต 1
อิเล็ก@@ 1
จิน 1
แซ 1
แร 1
ราชา 1
ทัล 1
มอบ@@ 1
ครอบคลุม 1
วาด 1
ยกเลิก 1
ฉลอง 1
e@@ 0.13823692059378426
เป 1
เวิ@@ 1
โรง 1
สงคราม@@ 1
โบสถ์ 1
ยั@@ 1
บรรพ@@ 1
เทีย@@ 1
ร่วม@@ 1
จอ 1
ผลิตภัณฑ์ 1
เนเธอร์แลนด์ 1
แวร์ 1
ชำ@@ 1
พระองค์เจ้า 1
an 0.03410670832097589
ผู้อ@@ 1
ศัก@@ 1
สืบ 1
ประกาศ@@ 1
เช่น@@ 1
เปีย 1
แก้@@ 1
ไล่ 1
13@@ 0.682988962303763
F 0.7459204991284557
เครือข่าย 1
ฆ 1
บรรจุ 1
ที่สูง 1
ตั้งชื่อ 1
อาทิ 1
อ้างอิง 1
สติ 1
กลับ@@ 1
ประถ@@ 1
รอน 1
ดำ@@ 1
บุค@@ 1
มายัง 1
การประกวด 1
ศาสตราจารย์ 1
ญญา 1
ทายาท 1
แก้ไข 1
โตเกียว 1
ธร 1
คอมมิวนิสต์ 1
อนาคต 1
ทิน 1
ฎ 1
เคราะห์ 1
มิได้ 1
บาย 1
ภารกิจ 1
โบราณ@@ 1
ประจำปี 1
สาธารณะ 1
ทอ@@ 1
เตรียม 1
นบุรี 1
อียิปต์ 1
เซนต์ 1
เพื่อ@@ 1
ค่อย 1
ทันที 1
ทร์ 1
ได@@ 1
ลาก 1
ทักษ@@ 1
I 0.23604972137747693
ความรู้สึก 1
ประเพณี 1
รถยนต์ 1
ื่@@ 1
ลงมา 1
วิท@@ 1
ก่อนหน้า 1
ท้อง 1
ต่อกัน 1
ติดกับ 1
ผู้จัดการ 1
นำไปสู่ 1
ปาก@@ 1
มวล 1
พัก@@ 1
วก 1
200 0.9975730874808599
ลย@@ 1
นนท์ 1
รัตน@@ 1
D 0.5931881204199755
อยาก 1
จำลอง 1
สลาย 1
สนธิสัญญา 1
ศิษ@@ 1
ตามที่ 1
จำเป็น 1
ตัด@@ 1
พน@@ 1
70 1
เลิ@@ 1
้ว 1
J@@ 0.19648968639046405
นอง 1
อารมณ์ 1
P 0.7567736428291025
เว็บไซต์ 1
ทางการ 1
ไค 1
สู้ 1
เผ่า 1
ดัดแปลง 1
ขยาย@@ 1
นิก 1
วิ่ง 1
วิทยุ 1
N 0.8602365627003125
ิร์น 1
ปรับ@@ 1
ศิลป์ 1
เหมือนกับ 1
ระบ@@ 1
ค้า@@ 1
ประหาร 1
กลัว 1
ตาราง 1
ละครโทรทัศน์ 1
ชาญ 1
รัตน์ 1
เป็นไป@@ 1
ียง@@ 1
ชัน@@ 1
เธ@@ 1
วาร 1
สุน@@ 1
กษา 1
ปรัชญา 1
I@@ 0.24273672322111584
จู@@ 1
สิ่งมีชีวิต 1
่ำ@@ 1
สาขาวิชา 1
ปลา@@ 1
วิเคราะห์ 1
เลี้ยง@@ 1
ภัก@@ 1
แฮ 1
คม@@ 1
ฟอ 1
ียด 1
10@@ 0.7301627262609495
ค่อนข้าง 1
โปแลนด์ 1
ขี@@ 1
ฉัน 1
เศรษฐ@@ 1
ชิงชนะเลิศ 1
เข้ากับ 1
ความแตกต่าง 1
ที่นั่ง 1
สถานีโทรทัศน์ 1
เดน 1
ศิลป@@ 1
ภ 1
2564 1
t 0.10538877692473417
ภาษาไทย 1
คิ@@ 1
เปรียบ@@ 1
ต่ำ@@ 1
มงกุ@@ 1
มีอำนาจ 1
หลัง@@ 1
บทความ 1
65 1
ท้าว 1
รวมกัน 1
เสือ 1
แกรนด์ 1
อภิ@@ 1
โชว์ 1
ประดิษฐาน 1
ก๊@@ 1
จุลจอม@@ 1
มะเร็ง 1
ฝี@@ 1
บวก 1
ไล 1
สหภาพโซเวียต 1
c 0.23079508765773066
การควบคุม 1
บังคับ@@ 1
เปิด@@ 1
๒@@ 1
to 0.012600046379594809
ขึ้นอยู่กับ 1
พิพิธภัณฑ์ 1
นั่ง 1
นิว 1
วาล 1
ลบ 1
แผ่นดิน@@ 1
ยกเว้น 1
ฐาน@@ 1
35 1
เสด็จ@@ 1
สถานการณ์ 1
... 0.7481519386005726
ช่วย@@ 1
ลาส@@ 1
สิ้น 1
บราซิล 1
บัน 1
ศักดิ์สิทธิ์ 1
โพธิ@@ 1
ไน@@ 1
พิ 1
สื่อสาร 1
บัง@@ 1
ศัตรู 1
ต้า 1
เอ็น@@ 1
ดาบ 1
ทะ@@ 1
ข้าว@@ 1
เนื้อที่ 1
ก็ตาม 1
ความเสียหาย 1
ทัศน์ 1
ุน 1
โร่ 1
เนื้อเรื่อง 1
ี่ยว@@ 1
เจ้าอาวาส 1
หลายครั้ง 1
สวยงาม 1
เฟอร์ 1
คุณสมบัติ 1
ตะวันออกเฉียงใต้ 1
15@@ 0.5199885972551271
ี่ยว 1
่อย 1
ยุติ 1
ตะวันตกเฉียง@@ 1
บันเทิง 1
ตติ@@ 1
ประเทศ@@ 1
สตูดิโอ 1
สมัคร@@ 1
สวน@@ 1
โภค 1
ช้า 1
หนังสือพิมพ์ 1
ฮา@@ 1
ษณ@@ 1
หิ@@ 1
คาม 1
พิท@@ 1
ประการ 1
หมุน 1
ณา 1
ยศาสตร์ 1
รู้@@ 1
เคา 1
ขณะ@@ 1
คอ@@ 1
หลวงพ่อ 1
พรีเมียร์ 1
บรา 1
ยุทธการ 1
รอย@@ 1
d 0.12011738783723237
เลื่อน 1
ตุ 1
เลื@@ 1
แท้จริง 1
บอ@@ 1
ขั้น 1
ชิด 1
วัตถุ@@ 1
ทอง@@ 1
มั่นคง 1
กต์ 1
กี่ 1
แอร์ 1
เบิร์ก 1
องค์ประกอบ 1
้วง 1
ผิว@@ 1
ภู 1
เดีย@@ 1
O 0.5167986782792297
ราน 1
เอกสาร 1
ต้นไม้ 1
เที่ย@@ 1
สวีเดน 1
หลุยส์ 1
เพื่อน@@ 1
นัน 1
กด@@ 1
รณะ 1
คอม 1
คอร์ 1
นิ้ว 1
กฎ 1
ติดตาม 1
น้อง 1
เทศบาลตำบล 1
เศษ 1
ไหว 1
ผู้อำนวยการ 1
วัด@@ 1
เจ้าเมือง 1
ชาติ@@ 1
ปฏิกิริยา 1
เทอร์@@ 1
เปิดเผย 1
ลัน 1
แก๊@@ 1
ฟิล@@ 1
่าว@@ 1
ติดเชื้อ 1
มหาด@@ 1
เมิน 1
การทดลอง 1
ตถ@@ 1
แคล@@ 1
2547 1
กิ่ง 1
ซุน 1
เป็นผล 1
หง@@ 1
ที่หนึ่ง 1
คาด 1
+ 0.8502030473985618
มี่ 1
นักเขียน 1
มิตร 1
สิงห์ 1
เทียน 1
ถ 1
องค@@ 1
อ้าง 1
คาร์@@ 1
12@@ 0.694540838247772
ร้าน 1
บัติ 1
พูล 1
ทธ 1
ราง 1
เคลื่อน 1
ความสนใจ 1
เป็นตัวแทน 1
อนด์ 1
สิ่งแวดล้อม 1
เชื่อมต่อ 1
หาย@@ 1
สมุทร 1
ทำได้ 1
อริ 1
ฟื้นฟู 1
เรือง 1
นอร์@@ 1
แม้@@ 1
เกณฑ์ 1
ความสูง 1
ระยะทาง 1
งานวิจัย 1
ปิด@@ 1
ียส 1
ฒ@@ 1
รด 1
3@@ 0.4516504235426969
รังสี 1
รถไฟฟ้า 1
จุฬาลงกรณ์ 1
ความรัก 1
เปรีย@@ 1
โฆษณา 1
นิติ@@ 1
วย 1
วาด@@ 1
ร่วมใน 1
คริสต์@@ 1
เครื่องยนต์ 1
กำหนดให้ 1
ดารา@@ 1
คัมภี@@ 1
เอา@@ 1
กรอบ 1
แหล่ง@@ 1
สภาพ@@ 1
อิสลาม 1
เสา 1
ยูฟ่า 1
ราชินีนาถ 1
นับ@@ 1
เยื่อ 1
นม 1
ภายนอก 1
อาหรับ 1
เชียง@@ 1
ตัวอย่างเช่น 1
มาตรา 1
ไม 1
เสนอ@@ 1
คติ 1
พาณิช@@ 1
ยง 1
นับตั้งแต่ 1
เจริญ@@ 1
ation 0.0803115061544549
ปุ@@ 1
e 0.11269525235038842
มิติ 1
กัง@@ 1
ใส 1
ก้า@@ 1
แหลม 1
75 1
สเป@@ 1
สวิ@@ 1
เทว@@ 1
หลวง@@ 1
มัง 1
ตรวจ@@ 1
มั่น 1
เคิล 1
แปลง 1
ชายฝั่ง 1
น้อย@@ 1
2000 0.3689573548449645
ตารางกิโลเมตร 1
ตีน 1
H 1
กัส 1
ทิ 1
ราษฎร์ 1
อป 1
สิงคโปร์ 1
ให้เกิด 1
่าว 1
มัธย@@ 1
อิง 1
ประชาชาติ 1
idae 0.9904026852279834
ริม 1
เคลื่อนที่ 1
หมื่น 1
ปารีส 1
รุ่ง@@ 1
คาด@@ 1
ยกย่อง 1
สนิท 1
เขมร 1
ไทย@@ 1
็ม 1
กรุงเทพ 1
พายุ 1
ดับ 1
สระ 1
พืช@@ 1
เวิลด์ 1
เอล 1
้อง@@ 1
y@@ 0.1817590955831978
เป็นที่ตั้ง 1
ปีก 1
ข้าว 1
เจ็ด 1
ปืน@@ 1
ผู้ใช้ 1
ษา 1
เทศบาล 1
สวัส@@ 1
พูด@@ 1
อันตราย 1
เบน 1
พิพา@@ 1
วิถ@@ 1
เศร@@ 1
ภรณ์ 1
คี 1
ลักษ@@ 1
แอนด์ 1
เปอร์@@ 1
ดยุก 1
รัก@@ 1
งคา@@ 1
มีค่า 1
แก่น 1
สไต@@ 1
ความขัดแย้ง 1
ชัยชนะ 1
ฟอร์ด 1
องศา 1
0,000 1
2004 0.39806815914575205
ล้อม 1
สูญเสีย 1
เรียนรู้ 1
มห@@ 1
วางแผน 1
ตะวันออกเฉียงเหนือ 1
อิส@@ 1
สีมา 1
ให้เห็น 1
ทัน 1
ฟุ@@ 1
ชะ@@ 1
ป้อง 1
ฝัน 1
เมล@@ 1
ที่ว่า 1
พลเอก 1
R 0.5488031795140725
มนตรี 1
เป็นเรื่อง 1
าม 1
คณิตศาสตร์ 1
เฉลิม@@ 1
ได้มา 1
พันธุ@@ 1
ขบวน 1
ฮังการี 1
โดดเด่น 1
ยุค@@ 1
เป็นตัว 1
พระพุทธ 1
2021 0.4443572064582356
นิวยอร์ก 1
ปัญญา 1
พบ@@ 1
2005 0.3715621586674465
ตลอดจน 1
โฮ@@ 1
เสาร์ 1
ต้อง@@ 1
ซี่ 1
ดิ์ 1
การปฏิวัติ 1
อ่อน@@ 1
ชวน 1
G 0.6238284904014333
โซเวียต 1
บุตรชาย 1
บว@@ 1
ฤกษ์ 1
ข้อความ 1
รายละเอียด 1
แพ 1
ความร้อน 1
กรุณา 1
ผิดปกติ 1
ราชสำนัก 1
o@@ 0.16191638489927615
มง 1
แปซิฟิก 1
สรรค์ 1
นำมา@@ 1
คนอื่น 1
โห@@ 1
ผนัง 1
เอกชน 1
500 0.9330668997657726
ช์ 1
เทศบาล@@ 1
พนัก@@ 1
รงค์ 1
สมัยใหม่ 1
สงครามโลกครั้งที่สอง 1
กรัม 1
นครราชสีมา 1
รับราชการ 1
บุตร@@ 1
ตอนเหนือ 1
รุกราน 1
วงดนตรี 1
กระตุ้น 1
ทองคำ 1
ชล@@ 1
1,@@ 1
วรรณกรรม 1
ษฐา 1
เบิร์ต 1
เติ@@ 1
นิธิ 1
สว่าง 1
ฮัน 1
ประดิษฐ์ 1
สป@@ 1
กรร@@ 1
ยึดครอง 1
บูชา 1
เช่นนี้ 1
รัช@@ 1
ล้าง 1
k 0.1600559437494514
de 0.005186574138802255
กล้ามเนื้อ 1
โดน 1
ขอบ 1
ร์ด 1
เพลง@@ 1
กรด 1
จัดอันดับ 1
ฆา@@ 1
รอด 1
เอกราช 1
ว่าด้วย 1
วัฒน 1
่วน 1
วิญญาณ 1
ราชบัลลังก์ 1
ช่าง 1
สายพันธุ์ 1
เรียกร้อง 1
เวียน 1
ไร้ 1
ชิต 1
ดารา 1
มีความหมาย 1
อล์@@ 1
ฮ 1
เต้น 1
เวิร์ด 1
ปั้น 1
p 0.2967516110133454
นิยาม 1
ดอลลาร์สหรัฐ 1
ทะเลสาบ 1
เฉิน 1
ผสม@@ 1
ลงทุน 1
คนเดียว 1
อาณานิคม 1
พย@@ 1
เพช@@ 1
๋ว 1
สถานีรถไฟ 1
สัมผัส 1
คุณภาพ 1
มรดก 1
ว่า@@ 1
L 0.42391400300327636
มนุษ@@ 1
ธง@@ 1
ือน@@ 1
เหม@@ 1
แรงงาน 1
กลุ่ม@@ 1
ที่ปรึกษา 1
บัญชา 1
แพท@@ 1
มัส 1
คณะสงฆ์ 1
ชุมนุม 1
ซอฟ@@ 1
จัน 1
มเห@@ 1
เทศกาล 1
การเงิน 1
ักษณ์ 1
ในสังกัด 1
ซิง 1
กี้ 1
ประกอบ@@ 1
มุส@@ 1
อดุ@@ 1
เม็กซิ@@ 1
ผลการแข่งขัน 1
เทา 1
งบประมาณ 1
รองรับ 1
ผู้ชนะ 1
ในนาม 1
เจมส์ 1
เซียน 1
กุม 1
นำแสดง 1
เช 1
เรื่อย 1
แช@@ 1
สั่ง@@ 1
หลอด@@ 1
เด็น 1
ครบ 1
ความจริง 1
เก็บ@@ 1
X 0.6744604473863325
นัน@@ 1
กาใต้ 1
กด 1
ทวี@@ 1
เข้ม@@ 1
การทหาร 1
ลเลียม 1
หลุ@@ 1
อย่างหนึ่ง 1
ฯ@@ 1
กำแพง 1
เสื้อ 1
ซอน 1
ย่าน 1
เมนต์ 1
สวา@@ 1
ถึงแก@@ 1
สันนิษฐาน 1
ประท@@ 1
พระราชพิธี 1
ไหล@@ 1
[ 1
ตล@@ 1
ภาคใต้ 1
ติธรรม 1
เบล@@ 1
ตรอน 1
สิง@@ 1
เหล่านั้น 1
คำนวณ 1
เอ็ด 1
่วง@@ 1
กระจ@@ 1
ยิว 1
็บ@@ 1
สหภาพ 1
ผู้โดยสาร 1
บะ 1
ลอง 1
ให้ได้ 1
คว้า@@ 1
ระบาด 1
2546 1
ลอย 1
แอล@@ 1
พระที่นั่ง 1
วัสดุ 1
โจว 1
ทรัพย์@@ 1
ทู@@ 1
สนามกีฬา 1
อภิเษ@@ 1
สะดวก 1
ถัดมา 1
นายก 1
ด็@@ 1
รองชนะเลิศ 1
สงบ 1
V 0.6043595041154094
ดื่@@ 1
วล 1
บวช 1
ยาวนาน 1
คัด@@ 1
ชื่น@@ 1
ศรั@@ 1
คว้า 1
เฝ@@ 1
กระทั่ง 1
ความปลอดภัย 1
ที่วัด 1
ฝู@@ 1
พ่ายแพ้ 1
นัส 1
ปฐม 1
m 0.16590026455854234
กว้างขวาง 1
นำเสนอ 1
สุวรรณ 1
โปรด 1
รวมไปถึง 1
วินิจฉัย 1
ศุ@@ 1
พนม 1
สะสม 1
คะ 1
ศ์ 1
หาร 1
กำจัด 1
ทำประตู 1
ถ่ายทำ 1
อัส 1
วิวัฒ@@ 1
กฎ@@ 1
เก่าแก่ 1
2544 1
ธนาคาร 1
ข์ 1
ตรี@@ 1
มังกร 1
Y@@ 0.2679520564248822
การคัดเลือก 1
เครือ 1
เวีย 1
ตอบสนอง 1
ั้ง 1
h 0.22860909160389772
กลิ่น 1
ริม@@ 1
โส@@ 1
2542 1
ค้นหา 1
สกี 1
ร่วมงาน 1
โลหะ 1
โอน 1
กุน 1
็ด@@ 1
สมุทร@@ 1
] 1
s@@ 0.07319823259288345
จิตร 1
สอบ 1
์ค 1
ศิล@@ 1
ยุบ 1
แทน@@ 1
ใต้ดิน 1
เขตร@@ 1
เพ็@@ 1
เฟ 1
พรหม 1
ล้าน@@ 1
วิชา@@ 1
ความต้องการ 1
| 1
งู 1
2539 1
อ้างว่า 1
สหพันธ์ 1
er 0.03199284303629552
ขัด@@ 1
คลุม 1
ดาวเคราะห์ 1
พ้น 1
ฝา@@ 1
แชมเป@@ 1
in@@ 0.08501351339275293
เนิ@@ 1
ชื่อเล่น 1
ขอบ@@ 1
มป์ 1
ขวาง 1
ค้น 1
เกินไป 1
การป้องกัน 1
สะท@@ 1
บาน 1
t@@ 0.0892933314294722
ถ้ำ 1
เกษ@@ 1
กาย@@ 1
เบร@@ 1
สืบทอด 1
เอ็ม@@ 1
โบ@@ 1
เอาไว้ 1
หลบ@@ 1
o 0.07726599814675132
โครง@@ 1
2540 1
หม่อ@@ 1
ตาราง@@ 1
2535 1
เตร@@ 1
48 1
สิทธิ@@ 1
!@@ 1
สมัย@@ 1
ังก@@ 1
้ม@@ 1
แหล@@ 1
ตาร์ 1
สื่อ@@ 1
al@@ 0.10682809572810678
ตระ@@ 1
ครอบ@@ 1
เทศ@@ 1
es 0.032632390988616006
ทธิ 1
is 0.019338842081167117
บวนการ 1
สร 1
ปรากฏ@@ 1
การ์@@ 1
ประกวด 1
um 0.12645547306647595
ธิบดี 1
0@@ 0.6687111301800122
ืน@@ 1
ส่ว@@ 1
amp 0.2500579667791542
ยนต์ 1
นาคม 1
วรรณ@@ 1
เชื้อ 1
จัย 1
เมือง@@ 1
กาศ 1
aceae 1
1990 0.45224356337109867
ศักราช 1
แกร@@ 1
ป่วย 1
จาก@@ 1
WWE 1
ัด@@ 1
ราะ@@ 1
ณฑ@@ 1
หมา@@ 1
น้@@ 1
U@@ 0.21448854406772638
บัติ@@ 1
พลัง@@ 1
an@@ 0.1009202789143888
เลิก 1
K 0.6245079020173175
ไข 1
é 0.08928485200982347
u 0.17133892315093507
เบิร์@@ 1
ขณะนั้น 1
ate 0.10538306792756208
n@@ 0.09670621263915129
ร้อย@@ 1
or 0.053370550402818503
กิจ@@ 1
99 1
ศูนย์@@ 1
ญญา@@ 1
ราม@@ 1
ธี@@ 1
ีก 1
ยอม@@ 1
หยุ@@ 1
เวีย@@ 1
b 0.2503750355260173
ชิง@@ 1
พยาบาล 1
Z@@ 0.14594909763589287
ลล@@ 1
ือง 1
บล 1
มีชีวิต 1
ิ่น 1
มภ@@ 1
ห์@@ 1
ลด@@ 1
ความสำเร็จ 1
c@@ 0.10242650975604743
ดง 1
d@@ 0.09837817006699966
คาร 1
สำเร็จ@@ 1
ศว@@ 1
ia 0.1776420522529116
2002 0.35396958158820657
สถานี@@ 1
มัธ@@ 1
ชีวิ@@ 1
เด็@@ 1
ื้@@ 1
รัม 1
เชื่อ@@ 1
ม่า 1
ใกล้@@ 1
2003 0.356882849636407
สูญ@@ 1
ทธิ์ 1
ic 0.20731681556736287
ั่ง 1
เภ@@ 1
on@@ 0.12059515349542015
i@@ 0.14128488978559642
สถา@@ 1
ac@@ 0.1480047601816603
55 1
เศ@@ 1
นาถ 1
ณะ@@ 1
300 1
ine 0.1492938611443896
ฬ 1
กง 1
ธี 1
รุง 1
X@@ 0.43383557104769993
1980 0.5134644940457452
เพิ่ม@@ 1
ทัศ@@ 1
กระท@@ 1
เคียง 1
:@@ 1
๑@@ 1
อเมริ@@ 1
ประส@@ 1
p@@ 0.08635063923336378
เฉลิ@@ 1
95 1
าก 1
กรุงเทพ@@ 1
ดำร@@ 1
นการ 1
,@@ 1
โปรด@@ 1
ชัย@@ 1
ทดลอง 1
เษ@@ 1
ed 0.03618857960531328
for 0.02027802943948428
ื่อน 1
เร็@@ 1
r 0.2779008176940911
r@@ 0.09623751823889291
Ch@@ 0.1469302458764493
ตัวแทน 1
กิโล@@ 1
ู่@@ 1
่อน@@ 1
section 0.8856770199919153
จักรพรร@@ 1
อีก@@ 1
64 0.8959818442928725
39 1
th@@ 0.1285475989995104
๕@@ 1
เติม 1
พาน 1
หม 1
อย่างไร@@ 1
ic@@ 0.17876496749904527
เกิด@@ 1
วัติ 1
จัง@@ 1
ยึด@@ 1
42 1
2001 0.31198061597422055
นน@@ 1
ละเอียด 1
ขุน@@ 1
ถุ@@ 1
a@@ 0.161408971407754
ภาย@@ 1
คุม 1
World 0.21823651317149959
98 1
W 0.6807223314402231
ราษฎร 1
วรรณ 1
ฉ 1
ออส@@ 1
นิค 1
ยาม 1
or@@ 0.1049390801474108
องค์@@ 1
ar@@ 0.09082615321876736
05 1
ar 0.06527185191352212
44 0.9284400662108993
85 1
g@@ 0.08776727334231679
วัฒ@@ 1
สิก 1
ูก 1
เล็ก@@ 1
รม@@ 1
ผ่า@@ 1
47 1
่ว่า 1
ั้ม 1
ph@@ 0.19255466554400372
88 1
01 1
ยัน 1
เปร@@ 1
อักษ@@ 1
at 0.023704216183750584
่งข@@ 1
ประชาธิ@@ 1
“@@ 1
U 0.3897222444045203
ุม 1
57 1
ฤดู@@ 1
84 1
โลห@@ 1
๑ 1
om@@ 0.16885230727811434
ลด์ 1
ดำรง@@ 1
แพร่ 1
สมั@@ 1
49 1
08 1
f@@ 0.07708551527769807
93 1
กระด@@ 1
ร่าง@@ 1
94 1
ณะ 1
ทะเล@@ 1
72 1
แอฟริ@@ 1
2,@@ 1
91 1
บันท@@ 1
76 1
g 0.19085603335426873
ch@@ 0.07332460077494678
เคล@@ 1
1992 0.3916506638677996
โลก@@ 1
52 0.9976081270674962
จฉ@@ 1
1996 0.3768644437317307
77 1
ถัด@@ 1
ันท@@ 1
็น@@ 1
สภาผู้แทนราษฎร 1
เยี่ยม 1
เมริ@@ 1
20@@ 1
96 1
l 0.07586339374015703
02 1
46 0.9983846487566239
วุธ 1
1998 0.3429886129520411
เจ้าอยู่หัว 1
วาส 1
ot@@ 0.15678357815668165
53 1
มาก@@ 1
ูน@@ 1
รณ์ 1
ประโย@@ 1
ดง@@ 1
89 1
จุล@@ 1
03 1
3,@@ 1
ถน@@ 1
k@@ 0.08510002142856268
oc@@ 0.17302877267002204
82 1
ั้น 1
1999 0.30478829270090096
51 1
ฤษฎ@@ 1
วัล 1
ไช@@ 1
1970 0.44753133612047474
’ 0.04530912624547167
° 0.4633646105714408
วัต@@ 1
54 1
​@@ 1
81 1
ol@@ 0.1277933944885027
04 1
et 0.014685697551050713
กษ์ 1
09 1
มปิก 1
ควบ@@ 1
63 1
92 1
ะแน@@ 1
ฬา 1
แตก@@ 1
In@@ 0.15417438226165758
66 1
68 1
56 1
97 1
en@@ 0.053102985030960316
นำไป@@ 1
b@@ 0.07500728631448018
ษ์ 1
06 1
67 1
ูก@@ 1
เชื่อม@@ 1
โดยสาร 1
58 1
os@@ 0.18736762482850575
ี่ยม 1
1997 0.34955704073646454
07 1
0.@@ 0.6735856369904414
จัก 1
ร่ว@@ 1
แวดล้อม 1
1960 0.47752000207716955
อนา@@ 1
en 0.007689957166268519
as@@ 0.09337256077012321
78 1
ยัง@@ 1
l@@ 0.0712348624920742
el 0.014260684069432362
el@@ 0.07902611704927984
ิว@@ 1
J 0.8597751556149215
ษฎ@@ 1
บูรณ์ 1
h@@ 0.08397758389652979
79 1
er@@ 0.060891931937527906
ไต@@ 1
เลิศ 1
400 0.8149510874044344
คะแน@@ 1
73 1
ศา 1
สหรัฐ@@ 1
ปฐ@@ 1
— 0.03450262671935548
อย่างเช่น 1
มร@@ 1
ปไตย 1
ยี 1
Re@@ 0.13858696111311578
ี่ย 1
๊ 1
1,000 1
ตอ@@ 1
เสียหาย 1
w 0.27814061010446145
บวน 1
สูง@@ 1
re@@ 0.035119393467186066
69 1
ต้าน 1
ีต 1
62 1
71 1
บัลลังก์ 1
โภ@@ 1
ชื่อเสียง 1
็ง@@ 1
Sh@@ 0.19249205107375078
ity 0.14521776004248194
๒ 1
Th@@ 0.18473763556279477
59 1
83 1
am@@ 0.10653661215787666
ฒ 1
สมาชิก@@ 1
74 1
กำแพ@@ 1
]@@ 1
le 0.014050824267168601
ดุ 1
one 0.05142064544319871
เสา@@ 1
86 1
m@@ 0.08223947564037459
ร้อง@@ 1
เรียน@@ 1
ณิ@@ 1
1991 0.3368256017115389
นิด 1
ัส 1
1994 0.3309159414145643
An@@ 0.10480455928641179
สถาป@@ 1
เนื่อง 1
1.@@ 0.6500088622033444
x@@ 0.1927942263797554
สถ@@ 1
เคลื่อน@@ 1
61 1
เกิล 1
๐ 1
หน่วย@@ 1
นวย@@ 1
สมาชิ@@ 1
ซีน 1
ลาม 1
ปลอดภัย 1
วรร@@ 1
พระชน@@ 1
ฟิลิ@@ 1
วอล@@ 1
อากาศยาน 1
ent 0.05342019638016003
am 0.05561227555120181
2022 0.6664749521336369
v 0.3028624128762903
ad@@ 0.08015969613234838
University 0.1286924924284459
ฟื@@ 1
1993 0.3339971766658561
พระชนม์ 1
ul@@ 0.11709643364972312
ลเล@@ 1
จำนวน@@ 1
87 1
้อย@@ 1
จารย์ 1
ธาน 1
เกีย@@ 1
ๆ@@ 1
4,@@ 0.9261607410760688
เกาหลี@@ 1
บัณฑ@@ 1
ข่าย 1
เบียน 1
=@@ 1
ติศาสตร์ 1
1995 0.3099277272684939
Y 0.7954520710323121
tr@@ 0.07818948448678716
ag@@ 0.09388954876419937
มิว@@ 1
at@@ 0.09320746051102899
f 0.20404876412915104
Love 0.8180096061752486
is@@ 0.08949337295131468
it@@ 0.09647803053439155
ธาน@@ 1
Al@@ 0.10757592479827377
end 0.116724767423987
บาท@@ 1
แห่ง@@ 1
op@@ 0.15148621957092742
เสน@@ 1
j@@ 0.08040208871657689
1988 0.35913404032773916
ควา@@ 1
อำนา@@ 1
5.@@ 0.7732257952904187
International 0.2738797751119361
ญญ@@ 1
Con@@ 0.13360980272802228
บริษั@@ 1
1989 0.3316920416241524
ur@@ 0.10464156381631125
เหร@@ 1
150 0.9232829392857704
มาย 1
3.@@ 0.6930485349342435
Co@@ 0.19328624415829498
ศาสต@@ 1
ter 0.07661271327166788
ภัณฑ์ 1
po@@ 0.11372838263902091
th 0.1392723494111969
1945 0.3171559933767065
กระจา@@ 1
๓ 1
มาตร@@ 1
z 0.13077584651243374
6.@@ 0.830355052525679
'@@ 1
4.@@ 0.7327787524821376
ธรร@@ 1
2500 1
ap@@ 0.11767350961696461
%@@ 1
TV 0.32479954642563597
00@@ 0.9819259726675618
16@@ 0.3825840472994786
le@@ 0.1022870182489659
ราง@@ 1
จัก@@ 1
เป็@@ 1
โฆษ@@ 1
7.@@ 0.8487429792818064
lo@@ 0.10778086612630863
ใหญ@@ 1
8.@@ 0.9396999678470216
,000 1
it 0.027367327503200117
co@@ 0.09235629769959107
600 0.9726111332762749
ํ@@ 1
รัส@@ 1
เริ่ม@@ 1
ve 0.06163901316311329
5,000 1
คอม@@ 1
มั่น@@ 1
เที่ยว 1
จอ@@ 1
You 0.5871604482708659
ทด@@ 1
๔@@ 1
เว้น 1
New 0.07692411889188332
ริยา 1
II 0.15599568796750374
id@@ 0.12182279415647067
ปัญ@@ 1
มหานคร 1
ศัพ@@ 1
v@@ 0.06740716530236882
กล้า@@ 1
et@@ 0.10365074714227411
ให@@ 1
บาด@@ 1
5,@@ 0.8497050572941891
800 0.9754183330632411
Ar@@ 0.10735066349231512
มเป@@ 1
1984 0.3528171246846547
to@@ 0.14518383714707495
ือง@@ 1
ประก@@ 1
as 0.009932731308888854
ous 0.12550054575356845
1950 0.3749843439952354
ฝรั@@ 1
เต็@@ 1
ec@@ 0.11831421416331951
w@@ 0.06812787213442653
เกี่ยว@@ 1
แย้ง 1
Ex@@ 0.1896734103347934
เหมา@@ 1
ism 0.2324594789616834
2,000 1
u@@ 0.08974363714378676
ใต้@@ 1
ื่อย 1
á 0.40127903024450956
รัต@@ 1
z@@ 0.06076890915182514
ฮ่อง@@ 1
ราษฎ@@ 1
9.@@ 0.934981399893749
ฟ่า 1
ชุม@@ 1
ทธิ@@ 1
ary 0.11150530000466892
Best 0.5318621965758142
ังก์ 1
เครือ@@ 1
AS@@ 0.6480587655250504
เจ็บ 1
ือบ 1
๔ 1
คล 1
ch 0.1120101443057407
un@@ 0.04755009510823743
เสร็@@ 1
1986 0.32201332883073186
ใส@@ 1
๕ 1
di@@ 0.0800954357591775
ครัว 1
ana 0.11978431363532015
นายก@@ 1
เทคโนโล@@ 1
id 0.20354089744358708
li@@ 0.09076006022200006
ปรึกษา 1
em@@ 0.08902019744261348
2.@@ 0.5167831344998766
ae 0.30867152348317956
”@@ 1
Music 0.3442326393294823
ดน@@ 1
มส์ 1
1940 0.3918400936879675
? 0.34606806482015395
es@@ 0.0632390971311438
Q@@ 0.25782638185314516
ai 0.19648456850055862
Car@@ 0.13768534179471423
la 0.004110005026897505
ro@@ 0.09118305506056279
ด้ว@@ 1
ชุม 1
ปัจจุ@@ 1
ตุลา@@ 1
ers 0.040212614087092605
ขัดแย้ง 1
6,@@ 0.8333174376030487
ti@@ 0.07893700717503997
School 0.14737538272977807
นวยการ 1
ตะวันออก@@ 1
ม่ 1
หัส 1
เหมาะ@@ 1
1987 0.29999527989091784
ห้า@@ 1
begin 1
st@@ 0.054774855281792066
tic 0.21529016404689402
มัง@@ 1
เผย 1
He@@ 0.19533634446814188
กลั@@ 1
ทัพ@@ 1
1.5 1
เทค@@ 1
ขนาด@@ 1
ิ่น@@ 1
มาร์ก 1
ดอลลา@@ 1
นัง 1
120 1
1985 0.2980500153650403
ant 0.046198684482351766
ed@@ 0.10636952057436981
ั้@@ 1
de@@ 0.0715405662189993
ical 0.14550275995455805
Z 0.6826648976794716
man 0.06701177512676809
Le@@ 0.12129180657155164
ระย@@ 1
9,@@ 0.9349347127984805
os 0.04379262656323621
ตาล 1
700 1
10,000 1
Mar@@ 0.08660910121391775
ab@@ 0.05151362428250452
AR@@ 0.562848679493487
1972 0.31239767760655873
da 0.06837169711364288
si@@ 0.11401109213653354
1@@ 0.3271477890431535
ธนา@@ 1
นิคม 1
no 0.05060839165845427
age 0.0513686246819682
bi@@ 0.10868259114994507
พระมหา@@ 1
ซอ@@ 1
๐@@ 1
ure 0.121248005386701
ance 0.09428194658797134
Di@@ 0.13727351481391017
ือด 1
com 1
ฑ 1
ite 0.11524688355333586
Com@@ 0.15838023783163793
ิป@@ 1
ษฐ์ 1
Tr@@ 0.09567056039855547
สงครามโลกครั้ง@@ 1
ol 0.18627188670887154
7,@@ 0.7605265668791422
.ศ. 1
National 0.10706492447233916
ณฑ์ 1
im@@ 0.06535524500435741
1983 0.2887488418430372
000 0.3718274102502747
แพร@@ 1
ค้น@@ 1
ักษ@@ 1
๓@@ 1
ตว@@ 1
2.5 1
j 0.4284023825665517
ปรุง 1
sh@@ 0.07774688187263182
te 0.031020115475412474
กลาย@@ 1
3,000 1
.. 0.8766613360897041
Ac@@ 0.23287136740284436
[@@ 1
In 0.014700774819945188
ประวั@@ 1
1930 0.354429545396775
My 0.6262816058180488
1979 0.2823288966687128
1968 0.2924743891612173
IS@@ 0.5266347223068093
cor@@ 0.1638612374745139
by 0.009939230984043788
no@@ 0.1511171599861962
อินโด@@ 1
ong 0.19389318102999167
ata 0.20276138067943386
1920 0.3460081597295263
1982 0.2732825639518584
# 0.40067558067992765
1981 0.2758833637417688
Award 0.28971965473388617
ay 0.13366255098581684
ad 0.12055132478015104
1976 0.2848091489148384
สันนิ@@ 1
ฟิก 1
ฤ 1
* 0.1390573604547875
1964 0.3178143232935185
St@@ 0.08176509034912592
ory 0.24492858354421948
Br@@ 0.11451717846107837
Se@@ 0.1321580071173201
od@@ 0.13706518815428617
20.@@ 1
ฬา@@ 1
yl@@ 0.27914652862808514
se 0.013312230112504838
ty 0.11734779005860511
เลี้ย@@ 1
1941 0.2952348754648473
il@@ 0.07528734218902086
1975 0.2657997376332902
ni@@ 0.1114998864168274
ie 0.049810551397617184
ฟุต@@ 1
แผ่น@@ 1
John 0.09298248812132935
ir@@ 0.07925164808550081
tion 0.08964766282802479
ang 0.1878153601671979
พฤติ@@ 1
ep@@ 0.16935335698746543
๖ 1
ak@@ 0.09805192367187548
1939 0.3043554738906517
Ne@@ 0.13967899877821557
จุฬา@@ 1
1944 0.2644103770366956
og@@ 0.1581207466732273
8,@@ 0.7700670986277001
ma 0.13585266653776829
Mon@@ 0.12990260722181882
มิวนิ@@ 1
ื่อง 1
par@@ 0.063932763599751
1978 0.2683553575104138
100,000 1
Q 0.6316100702353824
รรม@@ 1
๙ 1
ō 0.48903555142873134
ยืน@@ 1
250 0.7698030149293791
per@@ 0.06762470575294821
Awards 0.3607294251021073
− 0.781876629260514
1974 0.26408810651231895
Ro@@ 0.15002747410293663
Championship 0.28851779063636684
with 0.009103186771167662
der 0.004608862984756965
สนิ@@ 1
un 0.00948985542542938
AT@@ 0.770033687467669
ne@@ 0.10917725440595923
Cr@@ 0.19662900536506991
Str@@ 0.14428359675118949
กระทบ 1
สาห@@ 1
Sp@@ 0.15745576380991994
เฉล@@ 1
Cor@@ 0.12779683206860748
ā 1
‘ 0.41961788807447103
ob@@ 0.1153108116547383
Be@@ 0.09006295349275335
?@@ 1
Bo@@ 0.15602893003384743
De@@ 0.13838325589708603
CD 0.4105013409236277
Par@@ 0.11566188451153432
ular 0.2475350724082725
แคว@@ 1
ฆ์ 1
ina 0.09280822966555227
BC 0.5210871421367287
ng 1
ยุโร@@ 1
• 1
ah 0.1620881488512242
st 0.10758422344760166
dis@@ 0.05197201040916588
ปป@@ 1
ระหว่าง@@ 1
22@@ 1
อากาศ@@ 1
บาล@@ 1
ensis 0.4419627369078467
มณฑ@@ 1
ase 0.24525438607671476
CO@@ 0.6326707815574881
เสิร์@@ 1
× 0.6675879800317006
En@@ 0.13464182656703239
๗ 1
สุข@@ 1
ated 0.03812045468774971
Me 0.5535318316567688
ศั@@ 1
0,@@ 0.370442120061889
ang@@ 0.09887252586577142
10.@@ 0.8431221875435199
เผย@@ 1
1969 0.2600736517722031
ตริ@@ 1
คับ@@ 1
ฌ 1
1948 0.29349982204331054
oph@@ 0.3138065803259656
ci@@ 0.09538070254041707
สัตว@@ 1
ดก 1
tor 0.1600177248893443
1967 0.2621722182142882
ya 0.0723540085659736
1977 0.25222115853130084
กบ@@ 1
000,000 1
Mo@@ 0.15126062328679987
1971 0.24082909185247547
IN@@ 0.6160645516700901
ess 0.12440291692715828
1956 0.2950452350624832
ใช@@ 1
ri@@ 0.08393023579497365
โดด@@ 1
พว@@ 1
อาทิ@@ 1
Pr@@ 0.11851059622529753
ื่อง@@ 1
pi@@ 0.12366290896879908
ๅ@@ 1
Man 0.3555045551864803
AC@@ 0.4648468828838162
กิริยา 1
1942 0.2652993565140494
King 0.20596677399180605
Thailand 1
เที@@ 1
mo@@ 0.09168015467384033
พิจาร@@ 1
สปี@@ 1
1973 0.2356907625774784
Or@@ 0.12618909646441634
หนาว 1
ื้อง@@ 1
ative 0.12169339134823492
101 1
๘ 1
180 1
ics 0.13539618983983076
us@@ 0.07166266092533938
ัติ 1
se@@ 0.060043428397561535
onlyinclude 0.9121538450787346
ent@@ 0.05156141462178347
ence 0.0870136744843216
AN@@ 0.6656150359619349
qu@@ 0.05760981632882006
เกา@@ 1
18.@@ 1
ist 0.016155416624258494
ü 0.8585642692776438
It 0.027576441548036477
ale 0.05837047865902819
est 0.009541322207835634
ing@@ 0.1011814017924577
ราชย์ 1
พวก@@ 1
1918 0.29724695944309204
Qu@@ 0.10322355685254708
บิด@@ 1
Un@@ 0.14035418815461131
ly 0.05092896925386955
Entertainment 0.6567563317796968
ton 0.06683697205700725
ห์น 1
ํ 1
1936 0.29960343676708984
30@@ 0.5268956089675069
กลุ@@ 1
ology 0.15070237895271335
yr@@ 0.26388707142904094
แส 1
CA@@ 0.45850031613360953
กำหนด@@ 1
end@@ 0.08429693647394826
1962 0.2588478017625193
ดีโอ 1
na 0.08583002327555579
az@@ 0.12388395309091213
AC 0.4430704680336275
$ 0.09347184269657026
Col@@ 0.10546722401809125
Lo@@ 0.14484121576443462
Team 0.2861335007844573
are 0.01657434437706275
ไซต์ 1
ษา@@ 1
ut@@ 0.10134474624281316
900 1
ตย@@ 1
ati@@ 0.10283227823021268
con@@ 0.04777659502149299
ญาต 1
1943 0.23754532087667662
1963 0.25200489114095453
ak 0.11373969566625565
ta 0.07318450983570188
ter@@ 0.062149331352616785
Ad@@ 0.14760459748987373
ษั@@ 1
ator 0.13198886376738733
20,000 1
1000 0.4843546727789856
1949 0.26920605848207435
av@@ 0.07899270886824868
SE@@ 0.5549565844494303
tive 0.1481395621802317
IC@@ 0.5497844570614533
ach@@ 0.08258517626364728
130 1
1952 0.2788018328885844
1947 0.27050306906649363
Star 0.35798384357152335
ww@@ 1
able 0.049968133256982974
ฟื้น@@ 1
Te@@ 0.1864553414845484
ea 0.17806188420358737
ver@@ 0.027248356314310954
Per@@ 0.10687964847637674
ig@@ 0.06906030534797684
III 0.19290797677581145
One 0.15314758842688472
ans 0.04349419696243447
ov@@ 0.1241922503541268
1938 0.2605077652529206
ST@@ 0.7854652963978248
ath@@ 0.15018880405641175
1946 0.2432380142514485
1965 0.22850779681917788
TH@@ 1
Ph@@ 0.20376211718120366
ö 1
1958 0.2511883526485591
As@@ 0.14569279078668937
sp@@ 0.07086552018301856
หนังสือ@@ 1
car@@ 0.07802933376678811
be 0.017253106935986754
ศัย 1
่วย@@ 1
ー@@ 1
gen@@ 0.08142908599505154
hi@@ 0.13330685383598442
cell 0.6450269097651297
1966 0.22575558414724523
Am@@ 0.09925906324423729
ó 0.03527559645514066
ประสิทธิ@@ 1
United 0.05300357221770387
17.@@ 1
ER@@ 0.543317075708231
Me@@ 0.11269013398350126
all 0.03455275230470499
สถาปั@@ 1
1954 0.2665948736410559
1961 0.24407705836065086
ica 0.10277530121220639
son 0.01828084811853355
All 0.13956813779991384
ment 0.0813821665580001
ong@@ 0.19717644666585799
ินส์ 1
Group 0.21073648602092332
pl@@ 0.05665262316291044
พิมพ@@ 1
AB@@ 0.7621797574716956
4,000 1
American 0.05286420001067519
Black 0.2524667348757243
br@@ 0.0565288624631332
El@@ 0.09560271224013556
ik@@ 0.08202250862395065
str@@ 0.08244766086164017
กระทรว@@ 1
สวรร@@ 1
19.@@ 1
ion 0.1450958798159634
ปฏ@@ 1
22.@@ 1
Inter@@ 0.1482758758218421
mon@@ 0.07413499172419108
Battle 0.3714601935534198
tri@@ 0.10129511033232384
ษฐาน 1
Ma@@ 0.12712609747865836
ard 0.08968402415239941
ป้อง@@ 1
ot 0.12620367584731326
Bar@@ 0.08026442742857617
Pro@@ 0.12091574815343493
ler 0.06308682400035295
พยพ 1
ษฐ@@ 1
neur@@ 0.6123734739656296
กว้าง@@ 1
Cy@@ 0.38968582703070986
um@@ 0.056736099234440014
eb@@ 0.08192092384289355
ella 0.1547756218212759
li 0.23194501030022655
|@@ 1
12.@@ 0.8535693841140929
13.@@ 1
อุตสาห@@ 1
Gu@@ 0.10964892290890267
Time 0.45982688780047015
สะด@@ 1
Girl 0.975751206331665
Man@@ 0.10876013920295848
สนอง 1
1959 0.23678653110685827
eg@@ 0.07147893508225373
row 0.22913106727617544
CO 1
No 0.24822818273947853
anti@@ 0.14939418234288712
ida 0.12115306315147897
ka 0.11103872489268773
AM@@ 0.5088582333374336
ผู้อำ@@ 1
บรา@@ 1
Dis@@ 0.21420193394256018
College 0.10730097623629205
pr@@ 0.06487993184504087
su@@ 0.06692413417675136
~ 1
+@@ 1
Royal 0.16043647485236145
110 0.8072181584760764
ou@@ 0.0685479024839349
มว@@ 1
1919 0.25908545679322603
City 0.08101583758091822
ES@@ 0.4352260831596688
ell@@ 0.09009749941272727
RA@@ 0.5083965593213133
1900 0.32751578405274673
1957 0.23500838260935125
เกิน@@ 1
ทฤษฎ@@ 1
の@@ 1
160 0.9394299150940831
ene 0.10777488167208273
11.@@ 0.815809062989615
1912 0.312192153028539
16.@@ 1
ay@@ 0.09231509696158659
re 0.048008876101876985
หนัง@@ 1
Live 0.4544624989137726
tic@@ 0.15565316674356466
Min@@ 0.15113778325894783
ts 0.030451559335241015
BA 0.6226890540596501
Center 0.20163856492757856
ตน@@ 1
IM@@ 0.6537825679874274
Gr@@ 0.0777907981800343
RE@@ 0.6127146668468624
so@@ 0.07698889641015273
ect 0.1491693200775423
ดอล@@ 1
จากนี้ 1
rec@@ 0.08768366424420701
em 0.09011150325386301
Wrestling 0.8390084401070359
ari@@ 0.12227292896724878
21.@@ 1
ra 0.062018624034854336
ex@@ 0.04076956242191422
อุต@@ 1
เยาว@@ 1
UN@@ 0.4748763768931743
ซิล 1
1953 0.23854376838503022
ber@@ 0.06310655645179047
140 0.9156216147746429
1933 0.23092210760880938
BS 0.7323277183458045
1955 0.22775974341796962
Tri@@ 0.16715223262467105
and@@ 0.07841668891088749
Po@@ 0.12166410851312762
Hy@@ 0.29928355395396505
หรือ@@ 1
Day 0.29448896585585455
1917 0.2648482025026936
50,000 1
ise 0.055489544752282564
era 0.0439695968905743
TE@@ 0.7348644971872329
hy@@ 0.2917632167695509
í 0.21633693957193717
สถิ@@ 1
ight 0.20236529610474419
108 1
ade 0.10195594025159924
RO@@ 0.7478155198692146
Si@@ 0.21055253694821735
q 0.3246817051420655
RI@@ 0.7228438689794434
War 0.08350921528454455
ass@@ 0.06348800360262273
กราน 1
ン@@ 1
te@@ 0.059609882196897335
พรี@@ 1
La 0.014706235255306115
ce 0.03534400522005493
ge 0.059783385739736725
ung 0.02922102788979933
System 0.3535498563804935
ah@@ 0.0988915987884228
our 0.09901553647788397
ตั้@@ 1
ยาว@@ 1
1937 0.22742071949335813
For@@ 0.1039817870826527
bo@@ 0.06312706720756567
ill@@ 0.07795083451305468
Life 0.24358175823185113
om 0.16706280344617214
ys@@ 0.17882079896986822
http 1
system 0.09031584796200418
หวัด 1
ธีการ 1
als 0.011742475379432217
MA 0.5034642518156572
ley 0.0669079477251091
ma@@ 0.09731163736504594
ne 0.032189721297864494
ho@@ 0.08895816948261129
order 0.12247208133986964
พิพิธ@@ 1
ชนะ@@ 1
fer@@ 0.08428015450437924
land 0.04632110330890219
Do@@ 0.19960977129743826
aw@@ 0.1015004052590929
คต 1
Sch@@ 0.03516828646020613
→ 1
40@@ 0.6464770504181161
SA@@ 0.4031216486438418
ting 0.0542192813175587
Association 0.14066926704025032
To@@ 0.1900770637901009
ura 0.16401685309900566
360 1
from 0.007361089183993014
6,000 1
3.5 1
AL@@ 0.6255169056703355
Mc@@ 0.08332800026199726
To 0.22769132600553832
atus 0.33590834568395006
il 0.014857862368641917
ell 0.07824617048766433
colspan 0.6607894151783744
1934 0.2383739259247965
Super 0.29847161977816894
350 0.8868256225135104
do@@ 0.10229028255523168
he@@ 0.07899187487204624
Show 0.37437578719788694
112 1
125 0.8384710921166492
gi@@ 0.07996318317188751
1932 0.25034200678244045
Ab@@ 0.04912518125299544
RI 1
ile 0.06213425595930492
und@@ 0.09688235917365962
com@@ 0.056933091758668314
Su@@ 0.13506696572455978
14.@@ 0.9835327471999923
Institute 0.18387636164822
ara 0.11100290518874001
1924 0.25219770934581504
15.@@ 1
Pre@@ 0.17091083541018093
è 1
king 0.09955893005089266
1,500 1
Bur@@ 0.11950333183127594
Bre@@ 0.15028809184833414
di 0.10368901437114929
30,000 1
OS 0.45819644724506103
Pi@@ 0.13469080911482184
1,0@@ 1
Mas@@ 0.16191824752603867
1935 0.2254939698185079
Mag@@ 0.1696747145764099
ey 0.10036031690298515
High 0.13132626536900083
les 0.007088543619372342
ons 0.040699486007633214
AP@@ 0.4655689269615089
Sc@@ 0.20483428961064576
โฆ@@ 1
1928 0.2308764962349762
26@@ 0.5773621872239657
๖@@ 1
2.0 1
วัฒน@@ 1
8,000 1
เนี@@ 1
Ap@@ 0.18136715645838875
Go@@ 0.1490875466243246
So@@ 0.12590659128445972
ขวั@@ 1
Sol@@ 0.14781903180287412
sub@@ 0.06067450942145787
1951 0.21243651525905877
Park 0.10360820654257977
Sub@@ 0.21195504904922677
ant@@ 0.07500811266679187
Academy 0.1875899060378754
Ge@@ 0.08685814274081292
ann@@ 0.08751465914349725
Great 0.20646669155558578
Fe@@ 0.19626406594364962
Grand 0.1339467332086176
Top 0.3072129876983491
Bi@@ 0.11098852085912311
On 0.02917334544728084
gr@@ 0.04387789868650148
ist@@ 0.08429851453903536
สามาร@@ 1
EP 0.3588759884362843
My@@ 0.32497080465457595
CE@@ 0.5285777195648177
ens 0.03513004007526562
me 0.06343549146092395
DC 0.4018261663392419
House 0.10286540183086493
Im@@ 0.16442249522477237
Er@@ 0.04993550324845829
ini 0.10917312650186185
อ้าง@@ 1
โมง 1
AN 0.6319976720500903
Film 0.11819359123333853
Mac@@ 0.1407037995660262
Science 0.26758429306658055
St 0.17985935874557954
pe@@ 0.07461555138480473
ue 0.07710549481195687
ตำแหน@@ 1
Li@@ 0.1201884398817365
ok 0.21627391120123438
ac 0.16524513419103887
ran@@ 0.08394707839245794
style 0.11911005640562539
王@@ 0.32134255515029836
film 0.0351418809324335
eng@@ 0.0883026040603162
Asia 0.31224589276635395
William 0.09390875499260297
ym@@ 0.19556039380825638
cr@@ 0.0698286600519522
AK@@ 1
Res@@ 0.16511931808282826
ao 0.1796429322227378
cer@@ 0.11792449518997644
ian 0.09592781953570904
ness 0.12989815276238942
inal 0.22281616626756046
yc@@ 0.28642195524980624
James 0.10055149605118284
มร 1
รรษ 1
pre@@ 0.05350885217609449
à 0.004845966705362811
Art 0.12549334611637816
des 0.0036845935485862137
ick 0.10202512512031567
ome 0.1964458366227352
ys 0.1452066319093275
0.5 1
Char@@ 0.14110886336799613
act 0.13792192884447718
105 0.9038069078738349
Ver@@ 0.03208898052695145
man@@ 0.0559309448758032
ref 0.5510457062021498
yn@@ 0.17405818167432607
大@@ 0.0725532092055024
Pol@@ 0.12511922410172407
ner 0.05660135073290485
วิทยาล@@ 1
Ste@@ 0.14070900110300158
Mal@@ 0.10163451671539518
PC 0.43225099179669296
time 0.02340343636139154
200,000 1
MO@@ 0.8530900032293436
ev@@ 0.07251820874861162
ung@@ 0.08424962710256612
ศักดิ์@@ 1
เชิ@@ 1
Fr@@ 0.12396576501064686
Hol@@ 0.12912947130063718
col@@ 0.054602687348359644
Trans@@ 0.15885243603150268
500,000 1
Series 0.26513974677637947
inter@@ 0.03977242356091973
ธรรมนูญ 1
80@@ 0.6926296030272888
Sur@@ 0.18778709829318113
cu@@ 0.06900529547425752
ng@@ 0.18978615833455645
Red 0.1858319822097893
trans@@ 0.061815709916897416
1.2 1
Year 0.2862960707746528
of@@ 0.15297685227792915
vi@@ 0.05329555012439046
ai@@ 0.1674631931296738
1911 0.2754544000704726
กุม@@ 1
Ran@@ 0.3270368908749558
osis 0.3883093157771325
sion 0.07849571034687815
was 0.0025108934223236944
เ 1
Mor@@ 0.07146500051503667
bu@@ 0.1005421718769805
450 1
af@@ 0.058614190921702225
135 1
Mer@@ 0.11942113161177911
Party 0.11984167453335964
au 0.010923309990653371
ser@@ 0.0693950973363414
บาด 1
CT 1
Cal@@ 0.11191926672775436
1910 0.24254938903047601
Song 0.3363163983000506
We@@ 0.11250759424910892
och@@ 0.22764092573447955
โอลิ@@ 1
Big 0.23965053106908837
Har@@ 0.10063878760535822
ประสู@@ 1
Cl@@ 0.14690655236253802
11,@@ 0.7324002669379223
1914 0.20457307992673465
ani 0.12079590234944232
sc@@ 0.11275746411867929
ack 0.14879974004176202
ast@@ 0.11249918238105892
แวด@@ 1
FC 0.11904049651482317
្@@ 1
1922 0.225104823324467
Japan 0.14485822114596444
AA 0.40474264955728567
BO@@ 1
Her@@ 0.08569865452978472
me@@ 0.06572260226275395
den 0.00655694438302473
ณห@@ 1
AG@@ 0.8852993450154765
1908 0.27338938147070546
111 1
23.@@ 1
Wor@@ 0.15733388904048634
aj@@ 0.10135426283245198
120@@ 0.868712508852991
ish@@ 0.11694550784410992
ge@@ 0.03538110110264831
ครั้@@ 1
RNA 0.9712630080133682
Young 0.2663523801906432
MS 0.41724464003632145
Ser@@ 0.10488440389272084
ino 0.06926019887307419
per 0.06002654479674307
ok@@ 0.09661002834543823
เทิง 1
17@@ 0.3862196023966148
10,@@ 0.687321377578097
Ag@@ 0.13932701729617655
Michael 0.12010378665876288
enc@@ 0.10012844627577848
tex 1
ala 0.11160726408865218
ir 0.054415502929497823
Mel@@ 0.16099677501290138
Records 0.15275302568907703
PC@@ 0.5042259527916162
Super@@ 0.22823755467636164
bl@@ 0.056821471234465834
ps 0.0903768959473237
115 1
Op@@ 0.1927480323269445
Night 0.3971435051722556
Rock 0.24002871723137273
atic 0.17678094981537326
be@@ 0.024503624287420134
EC@@ 0.9720190712906749
Of 0.3322257864696869
SS@@ 0.6502027410858414
ations 0.024179951953914085
ich@@ 0.11801651994280786
Ho@@ 0.13508435544259814
List 0.19296852444705076
chi@@ 0.1727127510565372
iz@@ 0.06311422959666133
อารม@@ 1
Robert 0.09677481305582318
uk@@ 0.14439643289132306
Pl@@ 0.107601216441198
do 0.03910459714878144
enti@@ 0.07602537228015419
sive 0.11522740802031985
tis 0.23759063962744245
พิพิ@@ 1
1929 0.1930536955967875
ality 0.18608535485472283
ca 0.08992221524481835
teams 0.14248560835691018
IV 0.1970395064287496
TO@@ 0.9990458653187501
US@@ 0.23104453810439052
ates 0.04545986204745806
วินิ@@ 1
7,000 1
ER 1
NE@@ 0.5508423804434922
Prot@@ 0.23109313007737098
Thai 1
bul@@ 0.14358109891048612
had 0.012180682872941722
First 0.14013646654433284
cle 0.2968766788717168
118@@ 1
ave 0.20707642575554008
nucle@@ 0.9005523223576677
pro@@ 0.07946038536635984
11@@ 0.3071288712407039
1904 0.2899224750812223
HD 0.6862752883530513
Pe@@ 0.1320878938492782
ted 0.029791325486419353
tro@@ 0.1105638261875984
ูด@@ 1
WA 0.9352482384073837
ors 0.040616196586661595
โปรดเกล้า@@ 1
CD@@ 0.3373736969974294
Project 0.4450865733136905
kh@@ 0.10622157762731146
170 0.8772192832624781
ner@@ 0.18039148995242155
กาส 1
au@@ 0.04706277304213789
ä 1
SA 0.30313468973355084
eli@@ 0.18767652090226217
ศึ@@ 1
Ang@@ 0.11424146144813105
ens@@ 0.046378498322071415
FI@@ 0.3352821724358974
ee 0.13049862169797527
oma 0.21566593842194073
ost@@ 0.22312426071010963
sa 0.025624505002682724
codice 0.661299017574731
1921 0.20792446407404697
ings 0.03967651444931987
103 1
We 0.2763961118430208
ake 0.1354160758397359
Club 0.08731778005097136
Hall 0.13302523588153206
ano 0.05137390040820839
line 0.05317170479601029
way 0.051846911662042736
form 0.0662596958063405
if@@ 0.07758345143782315
ash@@ 0.10887091961904728
esis 0.2672045776086625
ks 0.038605106964143515
tor@@ 0.06082726627815087
tu@@ 0.07212678287632766
124@@ 0.7296954386220134
inae 0.6816710054141166
ker 0.07564248327159194
oth@@ 0.15211756462222
นีเซีย 1
1925 0.20392189023143922
220 1
acid 0.616021169876845
State 0.0591330231906635
ish 0.1006119018726284
Windows 0.35211877073151054
วัส@@ 1
1926 0.19967767557169394
ที่ย@@ 1
1.6 1
Bas@@ 0.12237575611487476
116 1
Sal@@ 0.08754342315720588
Sho@@ 0.2906116125806448
ji 0.22189904851515957
David 0.09039463527273263
ข้อง 1
ei 0.16279282367003983
–@@ 1
119@@ 0.9049896797987834
US 0.05411075595791327
โปรแ@@ 1
arr@@ 0.08713722732867527
ti 0.11150138011888505
ศัตร@@ 1
SO@@ 0.4552703171963773
mat@@ 0.09935288561412318
mus@@ 0.13812670560405774
ore 0.07264021483460223
กษา@@ 1
League 0.05073111436165295
Sw@@ 0.2026238607125519
White 0.15786262819772962
der@@ 0.05119131024785749
dr@@ 0.05032670824866748
ra@@ 0.0744719882859121
yp@@ 0.19795524689497523
109 1
ama 0.10427057164179453
เกล้า@@ 1
106 1
1931 0.19486150046031644
Festival 0.13232006388240625
Miss 0.375364952494441
ap 0.15365650546874682
Is 0.3871318266948088
Ta@@ 0.24981906660514283
WWF 1
oid 0.47607518585737274
ster@@ 0.14504913531019495
-- 1
1906 0.2579366314127415
Paul 0.08027833090287209
im 0.00734166431206169
los@@ 0.21988336998964292
mar@@ 0.03482187040683908
poly@@ 0.31829693423526734
1923 0.20136335218138987
Reg@@ 0.08084807965729479
102 0.8789559636830663
anth@@ 0.3392950627808693
ั้ง@@ 1
for@@ 0.04076699725924354
ox@@ 0.30301416056144787
tra 0.13483211500697015
เลือก@@ 1
ft 0.08788848415746973
ดิโอ 1
มัก@@ 1
CH@@ 0.3983815548243716
Mah@@ 0.18268213042740766
q@@ 0.162102941781965
scope 0.7546232894343229
you 0.16139027997397776
Charles 0.08468422008355896
Cre@@ 0.15259966899695318
DE@@ 0.4441080878898802
Network 0.36733981168111474
Pan@@ 0.15073232715375173
formes 0.39427655378382614
out 0.025489946449553703
115@@ 0.903853622761061
Can@@ 0.12562335167926902
PA 0.3641286765881052
ly@@ 0.18081416720232424
mer@@ 0.05198034480966281
General 0.07458435216116582
แท้@@ 1
PS 0.34121298267183026
ab 0.04591887789593728
ement 0.03073086877451543
ena 0.09474219099922503
ha 0.0497113537727515
ire 0.06762037831425839
ten@@ 0.04156500843112168
27@@ 0.45682946833190596
Company 0.11073045512345059
Cup 0.0757274455597772
Des@@ 0.12807653525561272
States 0.041495888322231146
TNA 1
fe@@ 0.05129994368885678
syndrome 1
tical 0.12740156010275044
world 0.07298762638335518
ane 0.10018386921517583
od 0.18785942657832194
Girls 0.5804563225491627
TV@@ 0.5235434424187287
sel@@ 0.1006838492427607
อาณา@@ 1
side 0.057468594641115
127 1
George 0.08024968709677886
alism 0.21884653838482407
ind@@ 0.10347868333075712
๙@@ 1
1927 0.18828290424008173
7.5 1
Blue 0.25250813997242755
LO@@ 0.8898840879651996
Mus@@ 0.11749321729003563
Sim@@ 0.1444856065640417
Prince 0.23236245811739603
ib@@ 0.10496044694426777
su 0.012156536734833493
4.5 1
๘@@ 1
ins 0.04034669472912066
up 0.024030011688313112
Dec@@ 0.17643187676672403
LD 1
SP@@ 0.3667167920308674
ili@@ 0.0945369396946717
ock 0.15629894845288678
Final 0.2954231853797044
dy 0.15310837396404567
ole 0.13116413003608404
AD@@ 0.3689671083024773
all@@ 0.06269962778459093
not 0.014706426455444633
ov 0.1065797749302892
Bal@@ 0.0957109387990846
Hal@@ 0.13983758266989416
ON@@ 0.5929865709126656
co 0.054187266950724976
group 0.05375107515846091
lu@@ 0.07774728825702387
ou 0.024092337809931284
ur 0.06508445983455326
DS@@ 1
York 0.03880746337479876
Be 0.632421582181971
Don 0.2136961529076265
io 0.07440357133652628
ki 0.1037279406065866
1896 0.30628957005639723
NXT 1
ide 0.14486187941777498
Your 0.49241041849821043
ain 0.07331554082838396
Kar@@ 0.07181126069905988
Mr 0.7919604923426157
Tur@@ 0.11703328195109237
acc@@ 0.07934705540090237
320 1
Fl@@ 0.0766538029254465
ek@@ 0.0610064589710872
ke 0.04808427554978453
Arts 0.15071746740201422
IO@@ 0.9135878673498253
Master 0.31755014437983387
River 0.07184180859131711
model 0.17415051781923924
ture 0.09237440133033396
ผ 1
1890 0.284914605610957
Gen@@ 0.1148600883009311
ari 0.1323681811070886
40,000 1
สมเด็จ@@ 1
1.8 1
Media 0.24785745344161653
Society 0.12403282773867223
1905 0.21505017572218263
1915 0.21050065404647866
DA 0.5062984285009445
up@@ 0.06855229099672777
ū 0.5869548847232121
107 0.9729567253158128
60@@ 0.5744585868171276
ast 0.12397203028162768
ทองค@@ 1
Queen 0.2123300969126803
Vol@@ 0.12183594383018378
117 1
adi@@ 0.11741037795894634
ita 0.08434650126914697
eh@@ 0.05437650803158578
sch@@ 0.024400966014342183
AI@@ 0.4366040237202759
Ber@@ 0.055864117448078066
cal@@ 0.11111538347448349
ba@@ 0.0805800760991959
ble 0.10837959779978251
ye 0.09289228983552875
28@@ 0.43951006665055625
Dr@@ 0.11781375569743754
SS 0.24121228568966618
awa 0.252756602571754
oh@@ 0.14307729621976714
*@@ 1
Bel@@ 0.06175978958368603
ru@@ 0.05417044906302174
IS 0.4992726911519601
DNA 0.432816860152346
Research 0.18671108924754004
bas@@ 0.08222958836283502
von 0.004832678196035156
ain@@ 0.08954742896404506
ents 0.037596790006136235
onal 0.15192710054966668
recep@@ 0.47484401132218906
‍ 1
Mi@@ 0.14771092066258792
1907 0.22643538018795123
Heart 0.5384093570443003
Story 0.612133955278839
Up 0.41748016303933405
15,000 1
Concer@@ 0.5530344816228855
Ni@@ 0.13212462053322385
du@@ 0.06383762443551143
fl@@ 0.06450740149219095
sol@@ 0.048553761330939305
ชน์ 1
ยนต@@ 1
1.3 1
Little 0.2458511529981393
NO@@ 0.495207242508202
Plat@@ 0.16869355530321745
weight 0.21067936572053014
1913 0.19439469781013827
AT 0.46296470933574224
At@@ 0.12053189393711974
ali@@ 0.08373225637337646
ผลิต@@ 1
12,@@ 0.5561471991712733
750 0.7986438004350767
MP@@ 0.3889168410699993
Val@@ 0.0987144393500644
ere 0.05395059961519088
min@@ 0.05136515957915036
non@@ 0.3724475791082918
ธยา 1
Good 0.4685530518066315
South 0.04381891886580279
low 0.08086326129911715
ora 0.09280549840725061
ut 0.1108710030332675
123 1
hi 0.20739694830307387
ning 0.08305805912470744
rom@@ 0.12384449183479282
AD 0.37343604359280336
Bl@@ 0.09700061568492545
IB@@ 0.9697203547063791
Tak@@ 0.21478055758451228
ette 0.05990955985180986
1916 0.20493120135549836
Act 0.1390448230036651
CC@@ 0.40466006897372503
EST 1
No@@ 0.16145855062956935
Ru@@ 0.12181842174445581
ace@@ 0.21943941748053017
ium 0.1989219715105691
mag@@ 0.13018987540763494
104 0.8086430614968834
BT 1
Boy 0.48083576250359455
Council 0.0930100472744971
DS 0.44151492162303047
Lin@@ 0.17773096068640776
ating 0.04027116204212143
name 0.03515885384696206
une 0.006817717917156692
PE@@ 0.5920010210680393
day 0.04117335595628471
que 0.0035247984615206737
5.5 1
Cas@@ 0.09257770408999223
down 0.06312830348764038
เหล่า@@ 1
China 0.08788265622243764
ī 0.7639040588053646
ยอร์@@ 1
IP 0.5068186860223882
UTC 0.9267672645495781
114 1
ice 0.062311361044039955
res@@ 0.037047099849479265
กล้าม@@ 1
เคราะ@@ 1
Cer@@ 0.15736152078236343
Last 0.5381867466175836
Technology 0.3177947274370711
ath 0.12288228527535955
ff@@ 0.07814001078359308
พิวเตอร์ 1
… 0.11674847630432961
AP 0.4267876119671518
East 0.0821448720289292
Gi@@ 0.10886937778516217
eph@@ 0.34041968633522457
go 0.09179937259830193
sur@@ 0.04570526647893575
ters 0.054466497401522075
121 1
English 0.06902833631039289
Who 0.5172448506727272
ry 0.08968933732708272
tin 0.10581905499066008
อิตา@@ 1
CS@@ 0.3277986025744988
Fac@@ 0.24449402473591264
MS@@ 0.5750665783922865
Sa@@ 0.11709412258199589
Tre@@ 0.12027674989630338
amb@@ 0.10825286679051778
net 0.15676999124457275
British 0.04875788232140035
ars 0.07424832880084295
back 0.04520609827152334
hydro@@ 0.2591840599671425
ns 0.06784827193373055
yl 0.2571857561472686
्@@ 1
Golden 0.2931188321389947
Hello 1
IT@@ 0.4613814166690657
Model 0.5758391873234523
osa 0.11433870263385275
สถ 1
หมู่@@ 1
Av@@ 0.1547677197443912
Generation 0.7372397807739798
alis 0.2875098159773261
ud@@ 0.11073919124398196
มง@@ 1
WCW 1
ess@@ 0.04863223503709978
pp@@ 0.131038609998726
AS 0.2893702093684702
Air 0.0987718908097503
Chi@@ 0.13600189807312862
ME@@ 0.48100814860215685
cy@@ 0.36584188267104656
ta@@ 0.0910137346371872
เภท 1
Asian 0.24384039085556547
Lee 0.16413746914782237
London 0.05962485951725083
True 1
dae 1
ds 0.0869363727977704
cl@@ 0.05556504196097577
ese 0.05138994844141359
la@@ 0.08280389807318722
ection 0.1276935238700737
Shi@@ 0.20705524666064246
field 0.05030367078215473
เป้า@@ 1
AL 0.5617487599607787
ISO 0.9140168314354744
Kingdom 0.15600478071049945
ace 0.08954380495027103
ets 0.04246347634237349
use 0.03157839860808734
Hu@@ 0.12123594471523585
ky 0.14980856690416744
language 0.10188975278951344
mi@@ 0.058927001413960366
Gal@@ 0.10431177073071775
Men 0.2262504713208048
ax@@ 0.1507061445111129
por@@ 0.07806182319141987
za 0.06601906454156395
เกส 1
DO@@ 0.6133460604079954
RS 0.45727703985263224
Women 0.13071486592232173
ni 0.08357580562212162
son@@ 0.08322650405259858
tics 0.11635303628235212
ผู้แทน@@ 1
1800 0.4456368242882497
1870 0.2685270489541821
Inc 1
ax 0.3253147365926709
126 1
128 0.8318543478641657
Bangkok 1
ada 0.01889661354959803
her@@ 0.03957719287971723
រ@@ 1
Dream 0.701358837922609
Open 0.15869108850266506
that 0.003906906598780217
the@@ 0.07878655300513177
イ@@ 1
1860 0.3052821102537071
Go 0.4355837082708548
Mir@@ 0.17348596107630507
Special 0.306631732251714
lin@@ 0.07415440591202396
song 0.0503303127515929
tional 0.0994785799549124
Business 0.2925293761560262
Dr 0.7912056560705621
ales 0.02727318866052526
eme 0.14081848848723266
this 0.013971346984160967
1889 0.28718451849920373
Game 0.24664797428641966
Hor@@ 0.12406656537073144
Rec@@ 0.10481358499419179
illa 0.11155365688315859
lar@@ 0.0880147244842648
1871 0.31341912433985014
Program 0.4584204856787556
Thomas 0.07519561141645152
Ko@@ 0.11426788049009837
ler@@ 0.071317139491192
Bor@@ 0.09195849505103021
Home 0.2519746459011936
Tag 0.30190731095538614
ash 0.15049434063481812
ato 0.08883814932203218
ow@@ 0.06462796340915637
33@@ 0.6067009331810271
action 0.06880614377663771
arch@@ 0.09690693663010848
enth@@ 0.34990046052528206
ko 0.11669365508020084
๗@@ 1
CI@@ 0.37496299490153523
Mat@@ 0.09837019387329514
Sun@@ 0.23880530781706844
ick@@ 0.07232902610728877
ชัด@@ 1
ective 0.12564427654086874
uc@@ 0.08202378878271488
ach 0.056912246585539644
key 0.1330845835684102
ship 0.051800965281780735
EN@@ 0.8090177554063844
Peter 0.08521831408365892
ep 0.1951405989293505
ver 0.08526545704896187
ú 0.3881737439735283
พิว@@ 1
LE@@ 0.5310739627745359
MP 0.3203681487363311
People 0.19845596167409132
ack@@ 0.08965810477108349
their 0.01101468719263132
ดาห์ 1
1901 0.2254476537443328
AR 0.45287999004189095
West 0.05268135664243919
ational 0.12562073494871906
eng 0.24300352722869045
fr@@ 0.04302331883978102
Je@@ 0.1848000960410932
MI@@ 0.4846075143144526
1.4 1
Le 0.01163428371619992
Lu@@ 0.09354510005209174
หน่าย 1
25,000 1
{ 0.2642874579847307
£ 0.20570999484409486
1,4@@ 1
113 0.9474484395800563
ั 1
Green 0.1663233343133127
Richard 0.0969976383857142
SC 0.21051036206970375
1880 0.2637881698434789
ima 0.1352492307478504
iss@@ 0.10965428680959546
Bro@@ 0.11447251895959341
DL 1
ber 0.07771955475304891
est@@ 0.035244035372197745
yg@@ 0.2845483902505073
Chart 0.4781294636467069
Pres@@ 0.11043831392043107
Sar@@ 0.1143337491401312
Tour 0.10641867303726439
114@@ 0.8425450011619289
330 1
Dance 0.423697512395977
Ul@@ 0.1492404697255353
series 0.03427535157059327
state 0.03717144122600008
กำเ@@ 1
What 0.3536196424025887
met@@ 0.08985354555001154
กูล 1
Chem@@ 0.26575236688699017
Elec@@ 0.2058842341070206
Ros@@ 0.08861295559130504
des@@ 0.027656547012076715
du 0.004209401593532787
pol@@ 0.07936209471094702
1898 0.2354941718965949
Tom@@ 0.1840544770588804
Ty@@ 0.20028118116781637
ame 0.12827180397860574
els 0.03596087955740209
inc@@ 0.056941930437539624
สหภาพ@@ 1
240 0.8464182989967913
PO@@ 0.6007525607072932
ides 0.08388675473997131
lam@@ 0.10881412622689125
ological 0.08932422941229735
35@@ 0.44746359814467657
IC 0.36405468736608493
hom@@ 0.10199036056280898
igh@@ 0.1108754797280406
118 1
Island 0.09760490736483403
News 0.21281555906179236
Out@@ 0.25386052432327716
bit 0.20219148562668246
1,8@@ 1
122 0.9102721929850628
For 0.05722947909128784
Sil@@ 0.16688148860982466
Street 0.07299372261096305
ling 0.06330169170026348
Dragon 0.6614518205185667
Por@@ 0.10792125733471877
Sing@@ 0.330423463153422
emia 0.47195424538078
fi@@ 0.05914430593992489
und 0.0019449765469881604
ฤษ 1
13,@@ 0.5186323236158266
1909 0.19436995577414218
Jo@@ 0.14178738642230507
cin@@ 0.11068886306696077
its 0.008655450633369545
α 0.19203595043443433
AM 0.28675727541525536
FA 0.22621313656702807
Hot 0.25542594292860543
go@@ 0.10056053027305602
ide@@ 0.15639903505004077
van 0.11524077183416635
­@@ 1
ug@@ 0.09226497396963772
รู้ส@@ 1
14,@@ 0.5542904938319632
America 0.08165549335723443
Class 0.3574500697715877
Gar@@ 0.09221428302027733
Space 0.33186505402617983
ency 0.12306804672831802
ici@@ 0.09347243687576962
set 0.04640068240603293
ยส์ 1
Global 0.38161725832853616
Princess 0.5457570821665797
Union 0.06353317762550786
ding 0.0772753315825018
disease 0.2996311463045153
red 0.06194997921283306
1500 0.36496021089969455
190 0.8964581554854463
Kr@@ 0.06653062962865929
Sea 0.21192603108777333
Vi@@ 0.09951693669405678
aka 0.1941805452955832
team 0.024612252702951396
ve@@ 0.08669239328214096
สงค์ 1
if 0.05385098412372405
1903 0.20575402452378325
Cur@@ 0.11166311343426746
Kh@@ 0.11099632201164662
Season 0.45898607251800255
Tokyo 0.29644089323302664
bar@@ 0.042896047268501124
116@@ 0.8766353447666264
1902 0.2076611011169184
op 0.1606626541455218
ual 0.11376608700061386
wa 0.08622645249948979
113@@ 0.8833755450209583
117@@ 0.8158455578181473
FM 0.21401802636575606
Is@@ 0.09605369408559236
Met@@ 0.18402388939924397
tra@@ 0.14360358245359084
É 1
2.2 1
This 0.020033324646772543
acy 0.09928334101600521
cap@@ 0.07382007076734867
center 0.1037991173700409
eus 0.36770023585763073
ty@@ 0.11586696094324118
SM@@ 0.7815862370326492
ography 0.1596839090361977
SM 0.5372046830561497
Video 0.3541659009538078
ๅ 1
1,6@@ 1
210 0.9161040942144651
Fre@@ 0.06172358153295979
asi@@ 0.11146160267008952
sin@@ 0.08613777901051826
yo@@ 0.23712140060338469
ยาท 1
Episode 0.9654469788535771
Power 0.2698702663596247
aki 0.21267521223698047
art 0.04518931358809547
ja 0.07211022726320818
สาบ 1
Google 0.40736195504633366
Management 0.28694771508091266
Republic 0.1279853905280185
1895 0.23134422981699673
Anti@@ 0.23099995765457237
Digital 0.45126389251985355
HC 0.5595930456188318
IV@@ 1
ple@@ 0.12178680753200813
แหน@@ 1
2.4 1
CA 0.2695272660967445
European 0.06928592510994545
Ti@@ 0.10761200448152712
ill 0.10721759227183307
ister 0.1445404703509735
Chinese 0.11321424851188878
Es@@ 0.07645941933991975
Pal@@ 0.08762453764993205
Scre@@ 0.5747148392556836
act@@ 0.18681582502530653
tis@@ 0.10932718285040974
1.1 1
230 0.8914548185925764
Hel@@ 0.12307893133428167
Nep@@ 1
eral 0.22784292355252037
prin@@ 0.25436172418363323
เต็ด 1
Han@@ 0.12420319415845171
body 0.08847524968688734
ocy@@ 0.6879894620230377
test 0.14817637449080046
ル@@ 1
San 0.033804246497744946
atr@@ 0.08476480783044428
ek 0.08136537387486784
fication 0.15988711943121636
put 0.09330124289470748
tions 0.02945636311983692
ç 0.5370570132276549
ME 0.6555156229496074
Sam@@ 0.12034454100158827
ine@@ 0.18546702333290263
low@@ 0.11155572402087434
off 0.03883581601243183
1,9@@ 1
29@@ 0.39361879600041305
Pas@@ 0.10202096427453702
Rem@@ 0.1891591941169404
onic 0.3022633902656081
tidae 0.7658630040898343
tur@@ 0.03933220149289349
天@@ 0.14508821481608594
Duke 0.23654118455288453
PP@@ 0.6543627128675594
ola 0.1135555093607639
pu@@ 0.06820640198754892
子@@ 0.3208814106706749
18@@ 0.35448177173108836
70@@ 0.5645998276722236
DVD 0.20787825136097182
Mu@@ 0.12106963283160051
berg 0.05265318522477124
1888 0.26120234035445294
34@@ 0.5448795359218828
Star@@ 0.1555035060585713
ard@@ 0.07308394003384447
ha@@ 0.10123446221390167
ney 0.10271541612255337
they 0.014910517229544593
129 1
1899 0.2180856309861431
Bank 0.14124606229835268
CP 0.5244571869844642
edr@@ 0.2550399361330986
ス@@ 1
1868 0.30237058704529973
Central 0.07906681990026153
Corporation 0.1893482359321525
Health 0.2035121326876782
Out 0.3156989646332095
light 0.08938202980873873
member 0.0415590494609945
self 0.13275181988835352
6.5 1
Foundation 0.1829589486421506
Pat@@ 0.1366926467025941
gu@@ 0.04047318895262177
lia 0.24318121583094
1815 0.4254598913189175
Bu@@ 0.12033320124546652
Det@@ 0.3069237035283028
MHz 1
Nor@@ 0.060868437957675
ki@@ 0.10419208038142883
pH 1
pe 0.07015831418902811
ster 0.06491574355333567
ther@@ 0.0882908328983455
124 0.8744534013161053
Line 0.15632123061261663
Sy@@ 0.1272926382399609
Tor@@ 0.07743571669515263
dia 0.12733250119264633
int@@ 0.07167948272124425
loc@@ 0.07031798623121524
oni@@ 0.11129456991481393
1893 0.24171423600926692
Airport 0.22270044210193304
Sup@@ 0.25512582495168895
ogen@@ 0.2884023381532259
ตูน 1
1.7 1
1830 0.35171806781874887
1867 0.29002999862502726
Billboard 0.18291436256961688
Em@@ 0.10345000642035213
Hz 0.7757063166188418
Lady 0.22162392120515023
PD 0.5945943581323652
VI@@ 0.36550949775483377
ae@@ 0.29766157085192585
aur@@ 0.12177020958967247
iv@@ 0.08279028197905205
ς@@ 1
Book 0.24130121596875878
iti@@ 0.06937180539171627
meth@@ 0.4403039843915834
…@@ 1
ラ@@ 1
1,5@@ 1
ō@@ 0.20795694647703672
TS 0.49275602149707753
Ter@@ 0.1344651282778028
amine 0.8357364324681444
ization 0.3204326483298823
ona 0.0755758192546507
Audi@@ 0.41632500272414297
Del@@ 0.12035456694056634
Education 0.12460369420681372
Sel@@ 0.13755201146130883
Wh@@ 0.20244749603632073
aya 0.11483938912654422
cus 0.2822236227144449
ein 0.007940351658865691
vol@@ 0.060449808190748605
ค่อน@@ 1
1848 0.2654179923978272
AE@@ 0.5092751162235026
Channel 0.2736074514617645
EX@@ 1
Ke@@ 0.1298262186905533
Tro@@ 0.10698586281469068
ebr@@ 0.20824905301747762
let 0.11728359839378072
1897 0.2133104449785951
God 0.19358841906086768
SH@@ 0.7253404971682507
protein 0.31586765172544473
we@@ 0.04369225234027002
ผู้แทนราษฎร 1
001 1
AF 0.3277458390947047
Empire 0.11755363414924937
Mot@@ 0.12313657250855255
Rom@@ 0.0878465212143914
Service 0.12930732911765658
del 0.00443120871143972
ear@@ 0.08569084870816782
quot 0.5660766021309458
can@@ 0.06394247325565423
ez@@ 0.07993337535002493
over 0.016639458996423388
tex@@ 0.15897176419267423
cul@@ 0.09736639975116256
ids 0.11351654760679357
ke@@ 0.06738139343969578
ye@@ 0.18888243119184334
Dre@@ 0.13194340172558439
Henry 0.08295355155719336
Pop 0.4458564106721077
hal@@ 0.06767599277812755
pa 0.12717115282694602
ula 0.21275204403812628
Apple 0.37635846793636546
Fi@@ 0.12818756366486095
North 0.039788989335025574
Rel@@ 0.1219713982938408
ema 0.14375676623105654
ori@@ 0.06306677167781419
oy@@ 0.1021444826695582
â 1
บัญญ@@ 1
ា@@ 1
TA 0.2923605094846742
dor@@ 0.1315068131920858
่วย 1
IA 0.47159263237572085
Legend 1
Times 0.13011511168403522
เว็บ@@ 1
Law 0.15459177070603272
Order 0.1844240091771622
Way 0.39135384211189195
ail@@ 0.10756699272639507
eth@@ 0.11437387725871224
ike 0.15376467465653545
medi@@ 0.11081648914361425
ละเอ@@ 1
Dem@@ 0.12897508518781425
Ever@@ 0.23065017833583168
Fu@@ 0.15775584847150473
Marvel 0.487842775546934
Mur@@ 0.12139073000722868
ense 0.10082969411901635
oto 0.12922422870963995
วินิจฉ@@ 1
Games 0.1227606647965837
ef@@ 0.0689744281967385
อุณห@@ 1
280 0.9117731906664063
Development 0.18031292879014535
Du@@ 0.08998872776872432
Fo@@ 0.13213611026786362
Free 0.2846519631750056
PG 0.7132303966090754
Pen@@ 0.1099186145521033
duc@@ 0.16909993339851462
ony 0.1520868720954968
ren@@ 0.045493585123811374
sen@@ 0.05153230106309624
กระตุ@@ 1
Cat@@ 0.1401612294747446
GM 0.49100154263397894
ID 0.6330246937245243
MC 0.380037239982951
Produc@@ 0.33058339730871417
Road 0.08156843464560515
eo 0.0833002659708439
lig@@ 0.08139000056219706
odi@@ 0.1349606170205692
é@@ 0.016385924991768067
IG@@ 0.6927489771915304
Luc@@ 0.15358517692157136
PS@@ 0.2879178371011923
SN@@ 0.40773059983509946
align 0.24134332159382937
lan@@ 0.061793896040606706
lower 0.09904821875716825
opsis 0.5167809405852717
tes 0.02496133087872952
24.@@ 0.7099423110157986
Cel@@ 0.2062331272123192
Lov@@ 0.3416024508304719
band 0.04156446296281209
icus 0.39658024380007145
ms 0.08034714159513176
my 0.1428771296240368
oth 0.1775519087674032
unc@@ 0.07760468042708198
จักรวรร@@ 1
帝@@ 1
Arti@@ 0.23513858111866165
Kn@@ 0.1449048682462521
Light 0.2984922543054661
eri@@ 0.10463125874649085
eter 0.08377931000007538
function 0.1949981660312743
ken 0.03624717103599163
· 0.032919710165088774
BO 1
CH 0.9575174261306857
Design 0.2579842108432343
Radio 0.10848625621075103
org 0.8663894747485195
Album 0.14878948539925754
Cam@@ 0.10503230304143187
Family 0.1897886616271211
Mark 0.11638001199701924
Pap@@ 0.143868241482531
ST 0.6269497754695583
Ther@@ 0.16736412095448025
bre@@ 0.04553637341472516
istic 0.13741772069226302
my@@ 0.1616129325214337
Beau@@ 0.1994152949389519
Edition 0.5948261155574526
anc@@ 0.0704998248315106
clu@@ 0.5993311573989036
ines 0.04226520785617084
136 1
dec@@ 0.038559226687956374
mal@@ 0.06494419778999574
ประดิ@@ 1
LA 0.235602744346719
Mak@@ 0.17207147530808153
Martin 0.08003845907825852
Olympic 0.20645489975034756
https 0.8839751724169063
nor@@ 0.08219418574151385
ode 0.22750035313430433
sy@@ 0.14824216559074024
พระองค์@@ 1
皇@@ 0.7424457633093021
Band 0.10271029235868508
Fire 0.3212960659111872
NA 0.3959206906684563
Television 0.2666967344491554
aph@@ 0.25167068308522256
ass 0.10622817809390685
effect 0.17656707983523615
si 0.045789828020376115
1878 0.24447505973063766
Leg@@ 0.1012588905779976
aria 0.07684451569811925
etic 0.2524926545574943
hu@@ 0.0582114102732939
ial 0.1416464567698661
มงค@@ 1
็ 1
1885 0.2201317156058171
2.1 1
Arch@@ 0.10653534796042957
Emperor 0.2736403114269581
Like 0.23437246491723832
Mad@@ 0.10226778382949381
Medi@@ 0.17286293597040508
Tel@@ 0.1506190470041931
ger 0.055495610896170396
less 0.05392906569785813
mas@@ 0.06627182203354265
กษัตริ@@ 1
Fal@@ 0.14830127541006902
Gl@@ 0.11238728062768324
ket 0.16776435724835054
1600 0.5973493080198331
260 0.879314310461767
Force 0.1091958490260359
MTV 0.41214034077562095
Mid@@ 0.17180168789241437
Ri@@ 0.0651571270756016
amp@@ 0.06528640708964051
anthus 1
har@@ 0.05391873394999521
กษั@@ 1
Louis 0.06531717082929377
Studio 0.3024732650597045
Uni@@ 0.17216537030323834
pul@@ 0.09230166737867557
BBC 0.15089584059572922
Back 0.40695618281954227
Fin@@ 0.08146066349616721
IP@@ 0.4392822704237298
Lost 0.6254928860809592
Public 0.14092740847163887
Ret@@ 0.245712024466004
Sem@@ 0.17581796888214854
Sm@@ 0.25747060241792985
gen 0.056575470904018585
iy@@ 0.1563546779406169
lion 0.22894319828963242
oo 0.21838428607067834
our@@ 0.08383800375741006
phosph@@ 0.4271668300553521
1892 0.21764592262652138
CP@@ 0.40996222123412085
RC 0.2881802645789726
SR 0.22024343270485983
dium 0.3428730388509269
mer 0.0495193382829504
ori 0.18091753268426097
war@@ 0.04407647790137916
2,0@@ 1
Meg@@ 0.27989637885476076
Poly@@ 0.28579982712708474
Wrest@@ 1
inn@@ 0.05599750455273697
pan@@ 0.08867993788154042
sk@@ 0.05171430358393409
ท่อง@@ 1
Journal 0.1896452899464242
Pic@@ 0.18536567461424794
Saint 0.02871790811744762
ability 0.0680259431031339
edi@@ 0.09071840028523391
micro@@ 0.1815369847463643
motor 0.22996880252465748
145 0.8334441891830908
1850 0.25595973097944197
Ir@@ 0.0918730739437405
Shin@@ 0.5058272482738386
Stadium 0.18943284786229747
Vir@@ 0.19185462842104975
Yu@@ 0.3540777403162217
elec@@ 0.11274053522432921
ely 0.03672514696482102
1,7@@ 1
1894 0.21526557267970028
550 0.8116761974232886
KO@@ 1
War@@ 0.08951504619553803
oku 0.6672774802111678
ome@@ 0.3028814344831282
word 0.1235144774216683
Kim 0.20477914158845043
hibit@@ 0.6342361367353486
psych@@ 0.14300814027921602
Kam@@ 0.13682441883172528
Play@@ 0.14907700815550382
SAR@@ 1
ilia 0.4550047230915768
Ha@@ 0.104585471685303
PN 0.584552722392809
Win@@ 0.12617609978282782
tom@@ 0.07194578133733284
141 1
15,@@ 0.5166001183594867
17,@@ 0.5186178495320247
175 0.7860190712489797
Do 0.2728519243259198
Mil@@ 0.09301267248626609
Net@@ 0.2974284301791598
tery 0.20660282403977032
—@@ 1
1,3@@ 1
1840 0.2988639840261742
As 0.026792231134954377
Cap@@ 0.15434020547160432
Cro@@ 0.1162070192356966
Mem@@ 0.17784534512010647
Old 0.13378050549334464
Play 0.35028338523527286
Raw 0.7466675137281198
lock 0.17260058457893948
pin@@ 0.16417723961023245
sal 0.19893651399701637
thi@@ 0.15243533076405
til@@ 0.0726800263347634
มาณ 1
Dark 0.40691505541282474
Ger@@ 0.051494533672719806
Multi@@ 0.4881028839976707
Pro 0.2037414135865872
Syn@@ 0.23026387965943004
Wal@@ 0.07369672838335285
bur@@ 0.05896169711481065
cre@@ 0.040763379560501536
port 0.06510265900037385
pos@@ 0.039278042876786885
yo 0.19634741180383086
Bir@@ 0.12772537898399897
Death 0.2093799633131505
GT@@ 0.5415818381522632
RT 0.3748052143723365
Ur@@ 0.06677181932243006
core 0.1801019013527808
ones 0.0413327764191059
ret@@ 0.07838197795412226
sul@@ 0.2059779466664091
ē 1
Engineering 0.28993226129482536
Hay@@ 0.1635515631972022
Social 0.18093873160362642
can 0.01764210148467393
cur@@ 0.051510698958461956
hyper@@ 0.48099211327589725
kin 0.13745393386336202
ny 0.15851660901088468
onia 0.15673050457917972
Long 0.149333874222923
Summer 0.11672169378427515
alm@@ 0.10482305464890321
hab@@ 0.0811975939422985
ush@@ 0.16678952382304424
1884 0.23117607926036665
DF 0.3400913782315289
ashi 0.3520137717087414
first 0.007040356124467603
format 0.16553883607672193
ira 0.1017327406805009
left 0.039249458429694496
สัป@@ 1
い@@ 1
16,@@ 0.5207238881610445
747 1
90@@ 0.5604977274364513
ET 0.6876363822402036
Earth 0.1786960922135568
Mania 1
UK 0.08114033188913082
Wil@@ 0.07670028762698615
cat@@ 0.057793249198322516
ins@@ 0.057383373488844244
pal@@ 0.0777510167573028
tan@@ 0.06098941338109169
type 0.0673552188304829
ulation 0.1358075193893541
yan@@ 0.22127052002366684
1886 0.22261834027034266
Eng@@ 0.13155905457857886
Joseph 0.06854706246159646
Limited 0.3803970936353006
Universal 0.34592205465433035
ba 0.0855789423766453
region 0.06299203336861042
ton@@ 0.10817553733261864
² 0.05153632394754729
แนะ@@ 1
1861 0.23376921524662253
2.3 1
650 0.792209560829867
Ka@@ 0.22564683888524625
Three 0.17351003027970274
background 0.20831027272929067
ขึ@@ 1
人@@ 0.09156906354431317
Div@@ 0.19615997950250985
Let 0.46893311178180885
Round 0.373450365977068
TP 0.5802330799997449
ies 0.03342013371424697
ith 0.09063206027799353
occ@@ 0.48121659605811073
李@@ 0.15933611710726986
119 0.8733614984899859
155 0.8285434362979311
1862 0.23883566133021641
Ben@@ 0.08514510417252748
GB 0.3029971380822076
kl@@ 0.07091593334648597
1.0 0.982640396252868
1891 0.20548892955274917
36@@ 0.44683199044368094
ami 0.13865663590859845
Ram@@ 0.10989883067576567
class 0.06866141440367524
hem@@ 0.3052731448086025
ste@@ 0.054131454246216446
tric 0.2960007904459305
width 0.40722218945162414
0.1 1
1789 0.49481727378723783
Coun@@ 0.2552269947318715
Oc@@ 0.14978835321002232
UN 0.38348970572216345
Wi@@ 0.16929421579550463
lar 0.07113853949809094
ume 0.08894066081104297
1866 0.20387228402240953
De 0.034428284004432486
GP 0.5651332318610008
SU@@ 0.8015532967278078
Web@@ 0.17680453302179824
fish 0.16499312119059506
point 0.043070180576646556
รรยา 1
’@@ 1
山@@ 0.12169519938376812
Acc@@ 0.25873393492631974
Ba@@ 0.1298685086928133
Got@@ 0.16635000384656584
Maria 0.09171402060637804
SI 0.5957223785978067
San@@ 0.089419920665387
Sor@@ 0.15386427124505261
more 0.01351722773666074
pus 0.46630603021096173
therap@@ 0.3220389612717518
3.0 1
New@@ 0.1201893725092951
Tw@@ 0.2066796075867525
arch 0.24451711568153842
avy@@ 0.8859833636686268
char@@ 0.07349966577087445
ga 0.09787831289536365
sem@@ 0.10076167570623387
ven@@ 0.04319988179310396
50@@ 0.2495276932861324
Cin@@ 0.22153649971254188
Li 0.29117756556247726
Sum@@ 0.13765532549541307
Sun 0.17598092556311418
Voice 0.6123571736425257
_@@ 1
block 0.21719354020098564
elle 0.011973780149705104
ody 0.18432649056695258
165 0.8760911091485832
Dar@@ 0.08030359012374716
Ltd 0.33019211979480667
TC 0.3181284831896734
That 0.12951115727266313
ories 0.08264995619697141
・@@ 1
Can 0.40902322563373894
France 0.023646145861163224
High@@ 0.2284346609173577
ans@@ 0.06427452525702967
cas@@ 0.041936311573595904
cop@@ 0.09575004111918074
icul@@ 0.3352608316822542
ku@@ 0.10347606755330137
ณิช@@ 1
CC 0.25363677837618875
EF 0.7548716138313032
anus 0.2456946872874623
entr@@ 0.06016679884368657
ery 0.12815686062946988
music 0.032893540752932424
~@@ 1
Are 0.573993413892827
Co 0.17928737293235264
Ed@@ 0.10716408105861656
Gold 0.1681912713459419
active 0.0735707138326072
app@@ 0.09368850371465468
tion@@ 0.08337044236859463
well 0.017028337393458447
1814 0.36518352456579595
45@@ 0.438737561751315
Dol@@ 0.1478570825684135
del@@ 0.058944259637083544
ful 0.07085447976660593
ital 0.16903489930791776
prot@@ 0.04973118539197323
sti@@ 0.05670560497684083
ts@@ 0.03703064233037047
AF@@ 0.3509782732732421
All@@ 0.1236209474561592
LC 0.34456139201799585
Men@@ 0.10481704088703159
Sports 0.1579365367426697
Tan@@ 0.13611106709361706
air 0.05560563705298108
air@@ 0.05593476036058997
bin@@ 0.1135167926403326
next 0.05543004875478184
sa@@ 0.0532929231257471
sh 0.2259024034910957
ute 0.09709575189640257
） 0.011238099976627542
3.1 1
DI 0.44764508329170694
Fri@@ 0.14397415965025587
Sciences 0.20293146057573647
Secret 0.5612004893481878
Yo@@ 0.29204475506768474
ania 0.12608546323675768
ect@@ 0.1070726087117812
lidae 0.9050850445232476
oz@@ 0.14382438219009136
sw@@ 0.0654610581142659
text 0.13428967853536908
ิ่ม 1
144 0.8778077481939145
1864 0.21733370082646705
340 1
Ash@@ 0.136226693210226
Now 0.3108573740944942
didae 0.9890463630229193
jo 0.0730318626578743
mor@@ 0.05097435258134509
right 0.05447952436453984
365 1
4.0 1
Car 0.41890068801109587
Hon@@ 0.11438882873691614
Human 0.2512229430516913
Original 0.4443781529897734
Pseud@@ 0.466634862733156
SI@@ 0.43949228834868476
Stone 0.21702031614549622
pop 0.13951227188099075
tors 0.06747530366039477
verse 0.11236187749407693
າ@@ 1
133 0.887033910037726
Five 0.299981656083499
arg@@ 0.09896750244708297
chi 0.09138727734695999
dic@@ 0.06345330791292217
ey@@ 0.08935334715725075
factor 0.3001642253900145
opo@@ 0.23521489902392037
so 0.015899806806008904
super@@ 0.06787887251678837
trix 0.389046721159344
1863 0.22398373072846414
CW 1
Four 0.20516476780336193
GP@@ 0.47806974126257323
Online 0.44908238853652804
Pri@@ 0.10851998729526167
RT@@ 0.29440738547046924
ally 0.01666607156287632
ko@@ 0.09108529420156107
theory 0.14496094627404574
Cop@@ 0.20573947134335305
Open@@ 0.4360946193692729
RA 0.26329133996710763
Rap@@ 0.1884207966721588
Single 0.3105831099869487
TR@@ 0.7608222806631662
based 0.027917831870946534
gang@@ 0.31405314214785646
hin@@ 0.1000143283783652
ico 0.04799009402798948
lat@@ 0.05581000571832857
lateral 0.53382560609203
multi@@ 0.1336802893640261
1887 0.2058644612305206
380 0.892991280272914
Che@@ 0.2681103488438062
Cos@@ 0.18821227656691397
Federation 0.2185163314883053
Mit@@ 0.09778672388628784
memory 0.25673613691674685
ord@@ 0.047634496631153524
top 0.04417351702274149
try 0.08813193355102562
รวบ@@ 1
เร็ง 1
ト@@ 1
太@@ 0.1806866941292455
1879 0.22025059369050684
Internet 0.17036952229888128
Ly@@ 0.11851697352159285
Na@@ 0.15681644514899942
Prim@@ 0.14465083880066432
Pu@@ 0.15763736250254806
xi@@ 0.1973149513754067
County 0.025553100938163254
Movie 0.6707659432325388
Museum 0.0672139773081104
Ob@@ 0.1440005373892215
Os@@ 0.09482922962606204
Tal@@ 0.10852829059926702
Tar@@ 0.09622635017894683
cular 0.36974045849407394
ff 0.08441832574402999
phy@@ 0.2641560808283237
return 0.08127513847140776
Nar@@ 0.15377606539354857
OH 0.9018035684570145
Under@@ 0.26471584715949975
contributor 1
ro 0.07939934280828098
โจม@@ 1
1200 0.45353123327643774
131 0.827441571941452
1882 0.21330851127102649
3.2 1
Dor@@ 0.09710711196817655
Mol@@ 0.08714664076616789
aci@@ 0.08055756705550267
gic 0.42257986003330966
oides 0.354045190941962
uti@@ 0.14851889908699525
yst@@ 0.1711945247900226
สถ์ 1
1875 0.22319966338108396
1877 0.2235671838160688
1881 0.20838549048396646
Az@@ 0.12305825930372734
End 0.30277288610761066
Max 0.1389472615657823
SE 0.44252621955992233
log 0.7554174519679583
radi@@ 0.10861114277826635
อยุ@@ 1
185 0.9573243528711428
1865 0.21203258299977562
Baby 0.44399361974557777
Kan@@ 0.10356055976953991
Lord 0.10681846456557006
Two 0.09216808339020177
ants 0.023970156536500472
ford 0.04481973974171548
game 0.026520141952150463
len@@ 0.06749305746224186
odon 0.7948635137899988
ond@@ 0.07722090109249896
phot@@ 0.1382860326022963
ten 0.00827195129530407
timestamp 1
tus 0.2120693903323608
1801 0.43723158727039924
AX 0.7556229365649585
Al 0.05027582095529307
Football 0.07300484847970284
When 0.04439215815808915
fac@@ 0.05686033175390778
mann 0.04385838998264094
osp@@ 0.2415620486761981
thumb 1
ク@@ 1
132 0.7546172826930353
137 0.8703621887353334
201 0.8798452259686229
AI 0.5318114272150289
Edward 0.10030898612507609
GT 0.44978216283370653
Hem@@ 0.2658744465224668
atom@@ 0.24883363856933166
ii 0.286862048943082
EN 0.8395607813483732
Homo 1
La@@ 0.12129810222738029
Not@@ 0.11177896781388662
So 0.08477804049137269
Treaty 0.42029236894835614
index 0.6166590419015486
star 0.11539915676764684
tube 0.4287824231502687
ward 0.096609040412105
ysis 0.45838874541545604
Ali@@ 0.17980392739076206
Da@@ 0.21701726442960312
Jean 0.039543386665802115
Microsoft 0.24996759727955922
Sound 0.28434770661467423
Station 0.10650734066951355
^ 1
aff@@ 0.055021862351775426
agn@@ 0.14721750114414744
ature 0.14793511400469916
ray 0.30378887965342977
som@@ 0.12013930612850585
23,@@ 0.6661251765302106
Jr 0.19272894060048457
Office 0.13605367852386518
Over 0.19113143854966735
Palace 0.2853905602545047
SD 0.5072793210499376
inf@@ 0.05618758212200967
kin@@ 0.16099405072890402
tom 0.25132449893362846
คับ 1
0.2 1
Bot@@ 0.11052669266129939
California 0.04847621073370164
Gro@@ 0.13573607442665583
Ig@@ 0.19249962989910793
Sak@@ 0.21134637051642524
The@@ 0.10247045568484059
gener@@ 0.0625641770504635
pent@@ 0.4189371956548347
sal@@ 0.048560241118019015
vs 0.6826635350487952
ปลอด@@ 1
1790 0.4270879492786254
256 0.9694365052321295
270 0.7390520599883692
Children 0.27189042216091197
Double 0.536490060550489
gh@@ 0.13559532921325598
head 0.043999346557883325
pres@@ 0.044024791546866684
sum@@ 0.07084343692080947
ua 0.09922799857140446
ub@@ 0.08423229420308605
ul 0.11891887838937788
ฉบ@@ 1
เดน@@ 1
26.@@ 0.5719289338231855
737 1
Mary 0.07678279918780245
ius 0.15277155304435908
nd 0.48351952894445155
tia 0.14732043672481696
ลงกรณ์ 1
205 0.8926605997161355
Ak@@ 0.06656352421521237
BM@@ 0.3675303491285544
Blood 0.5028608779644702
IEEE 1
Roc@@ 0.14858729343059804
Sav@@ 0.12292388593074517
ith@@ 0.2910803427701408
ros@@ 0.12754667187812482
umi 0.3710869740967182
中@@ 0.04568079558867913
8.5 1
850 0.9078416674086015
Dev@@ 0.10355211169135228
Hero 0.7757481893486752
Nov@@ 0.11336042941240222
Off@@ 0.10299048923283056
Ol@@ 0.08695826343178742
Organization 0.37233726292894836
USA 0.08128647657430575
ams 0.09273147109337526
ci 0.05929122750734365
ider 0.10135413128285489
log@@ 0.09318759151395722
pression 0.09465816809401206
tree 0.17576848968645686
vo@@ 0.06421467996980504
อิทธิ@@ 1
An 0.04498148523463562
With 0.05971632504419788
don 0.0906399524799872
inum 0.44263805991825006
otic 0.2753119498078325
refle@@ 0.3783096109523571
ッ@@ 1
25.@@ 0.5419543686319934
CN@@ 0.28527748806443154
CV@@ 0.8891619751776533
FO@@ 0.43080065232255227
Land 0.0829374507912309
ail 0.09581625923840349
amin@@ 0.2833924877723286
front@@ 0.24266849310967725
play 0.032311185071960125
134 0.8307054671345104
143 0.9245400177556254
146 0.8971084132431283
148 0.9589651096495079
199 1
Johnson 0.11306865581781589
Micro@@ 0.3968557802288252
Moon 0.3071870956836376
ati 0.12375105393011339
face 0.052494594158596156
ik 0.062273940944875164
pel@@ 0.0595655200629836
po 0.11687380772195183
sen 0.04011144041501045
uli@@ 0.13429695240775597
urus 0.5980224804014332
シ@@ 1
--@@ 1
Boys 0.2531885848264299
Ci@@ 0.14889648769261185
Control 0.3617667035419646
IT 0.35850986807911245
Medical 0.19348753866407997
Nak@@ 0.2623394074374786
ero 0.04729515903695263
not@@ 0.04648179727213257
opter@@ 0.6072502770407734
username 1
ô 0.3170801612140098
1883 0.2043980521136359
2.7 1
Alexander 0.08972056562359626
Kur@@ 0.07811072421311761
NT 0.6013937693884374
Tim@@ 0.14120110881419914
Tower 0.2995019807101975
aga 0.11300133468894448
fer 0.05684175880420978
mac@@ 0.18909335611362788
new 0.013447775459910013
tar@@ 0.04566780295080557
tiv@@ 0.09695072969910663
va 0.03778044427701736
งคู่ 1
リ@@ 1
南@@ 0.0668615603634807
ABC 0.23126868484712082
Days 0.4649348973235182
Dic@@ 0.3072004065360569
Los 0.020890433483580072
Ple@@ 0.2657590115267423
Roman 0.07105031015881642
Sweet 0.6379332799447069
aster 0.21343579942326368
estr@@ 0.05222598106334541
istry 0.27201848595881534
mi 0.10200801998130538
mod@@ 0.08624987151421988
old 0.03274931907052495
plas@@ 0.1905504595262168
reg@@ 0.03184655433436852
rel@@ 0.031034575216829854
­ 0.41068331098392885
ì 0.5582865571474923
1839 0.3283965492472015
48@@ 0.5090064889455911
IL@@ 0.669411482077186
Index 0.5908045053164332
Ku@@ 0.12615817451545674
Scott 0.11734839334233907
alist 0.06602783143688365
bri@@ 0.10737993700106224
jpg 1
out@@ 0.039138510170681165
tress 0.2368534626994986
งบ@@ 1
งเกิล 1
154 0.8813235612026064
1859 0.2291629181412656
206 1
Cross 0.16081315687911404
Stu@@ 0.1210584055516913
ali 0.08362568465633917
ison 0.07901930470940549
20,@@ 0.5376640393746056
27.@@ 0.5492311489424035
75@@ 0.5488190506785265
Bad 0.16435577176491079
Bat@@ 0.088497732076172
Bul@@ 0.11088095867324622
Centre 0.09169597900717678
Cyc@@ 0.5222374219661887
Ju@@ 0.09190900051528349
Non@@ 0.4902161935058553
Paris 0.029066869280927114
ani@@ 0.08690201082904798
code 0.13079063771045868
den@@ 0.032878026598792305
ects 0.06576354636535897
get 0.06937699976692704
iber 0.46710137336208035
iki 0.11246892032388595
tel@@ 0.04572042774271605
una 0.004972680056571524
val@@ 0.059911255788944136
Committee 0.08707994357660549
Ham@@ 0.09984414448956032
Impact 0.5549173957679379
Ji@@ 0.23710309399683063
LS 0.7686930277557336
color 0.09008499855965514
ety 0.19614032110887633
px 1
uy@@ 0.09250399516147627
ze 0.05237248634859449
ธัน@@ 1
1872 0.20644042300836266
3000 0.28252391925236037
Court 0.06456211201690451
ES 0.5510103137394634
Money 0.6377110525423679
atidae 1
cha 0.067884370785676
esia 0.25266050166239934
men@@ 0.03343589543986437
wrest@@ 0.22509833423771733
} 0.18495316161112574
202 0.908190992083717
Gre@@ 0.08608735714105165
IN 0.45901451671700927
Temple 0.20412795541085735
bone 0.30427458531705415
chin@@ 0.19124024731726905
cho@@ 0.10191273604214575
esti@@ 0.0778517155458607
inger 0.0619833237798855
number 0.02115933427380412
ose 0.09292252808616917
pur@@ 0.05035872088165081
ស@@ 1
37@@ 0.3747163530536239
CM@@ 0.49313162865162563
Far@@ 0.0729155236093798
Seven 0.34035416904687643
anda 0.12632630054681723
aus@@ 0.014923828239438162
bat@@ 0.047035790633423356
ever 0.05832517302813819
flu@@ 0.08283384565696914
hr@@ 0.08909351205921488
ri 0.12832852100283082
168 0.9406301243100027
1700 0.5152864950166832
2.6 1
55@@ 0.520867971976927
Crown 0.3044111339379921
ML 0.4931955808040521
ON 1
aru 0.5849638156225107
die 0.0014301130218987
uri 0.16643320625073044
very 0.02618233678695607
1873 0.19901492112926852
And 0.1823096311195444
EM@@ 0.5004602092970707
England 0.0390799279932104
Fer@@ 0.09825458197171709
Garden 0.263216708523554
OR 1
Tit@@ 0.1257912608893259
\ 0.278682549024373
area 0.02115039346173801
att@@ 0.03869782843823075
clear 0.17962728438313302
control 0.049985736049462826
lis 0.11085038268712895
syn@@ 0.11676366712584689
်@@ 1
0.6 1
1820 0.23842024054576488
208 1
Aqu@@ 0.20080275490852703
Ban@@ 0.08611131835899195
Beautiful 0.8452328896457896
Ca@@ 0.1659063767028476
Direc@@ 0.1423385783250773
Down 0.32159501287993714
EL@@ 0.5172078434840192
Kiss 0.7700673376773397
Ky@@ 0.1558676641576131
ider@@ 0.20897681161842024
kings 0.3142278592787336
ā@@ 0.06778510571414627
公@@ 0.07738498553124754
后@@ 0.26293781607666317
152 0.7174124392690199
1806 0.33896250655299226
183 1
222 1
AB 0.3314449237180442
AO@@ 0.5334261960614619
Chap@@ 0.12616928332056496
Cru@@ 0.2370509448950181
Kong 0.1289349052468838
Nag@@ 0.14507669954327895
Plan@@ 0.10038187473493286
Wo@@ 0.12754569481962216
acet@@ 0.5350278218996161
ami@@ 0.1702078395737287
ote 0.06594366723367365
them 0.01870511102145389
ule 0.09163734450629323
ê 0.3723159206043824
142 0.8417645932495936
151 0.8579827795331038
Alliance 0.23863756031467787
India 0.04371939079466947
Lor@@ 0.12036683185436027
Match 0.5266267037090887
On@@ 0.14297746295941896
She@@ 0.14575279153766738
ights 0.12732301824984246
ika 0.1128062132407651
tw@@ 0.06531619224778677
ust 0.08757352474237037
ทั่ง 1
รูปร@@ 1
19,@@ 0.5253796831620298
225 0.7927826018320526
3,0@@ 1
Fast 0.7504091232638196
GA 0.30133940206231136
GDP 0.9107229712947437
If 0.10015575261993856
Maj@@ 0.18265467896221863
PL@@ 0.4432653364999266
Ra@@ 0.10279386847178588
Spe@@ 0.08389192831372043
Sport 0.18662555634829742
emp@@ 0.06344762171548997
gly@@ 0.5974165700868965
ment@@ 0.07029130056118517
ventr@@ 0.6294261767330446
ทั้@@ 1
ื 1
เวียด@@ 1
Studios 0.19461427200600875
cher 0.038580156612557474
eil@@ 0.23121832703827735
life 0.01941732022633479
1874 0.19538112196146495
1876 0.18548119707687993
2.8 1
310 0.9812415337846737
Amp@@ 0.3980571355688084
DE 0.3222315896815281
Kir@@ 0.09375425933199666
LE 0.7941460613265724
Next 0.4396906474767111
Rhy@@ 0.32991322612542
Universe 0.5994991199994695
astr@@ 0.13984616525014806
eri 0.11033574536767611
sor@@ 0.06213958546638442
thr@@ 0.09722227637854226
win 0.037600889479554686
Aut@@ 0.11087167182364922
BE 0.46844159606517016
EC 0.35914045358476304
Fame 0.21040520848816643
Lake 0.06498768853866561
UT@@ 0.7536521179525792
Zone 0.2644181746477338
have 0.0073372377404850985
ny@@ 0.1513755435374857
ties 0.029418499311632516
พื@@ 1
1849 0.2456489326225684
235 0.9440463375600274
65@@ 0.5026409314234309
Cl 1
Ga@@ 0.1681415635335355
Get 0.5069712804371931
Il@@ 0.10857109405701552
Lab@@ 0.21255466605069406
Magic 0.4063906880116763
PR@@ 0.3550726145264391
Som@@ 0.16539583576117023
Yam@@ 0.24481908591675508
ats 0.02924095032317035
bor@@ 0.05355641708953353
cs 0.09965923039027418
ger@@ 0.028386036736598487
mic 0.29258367593183754
yu 0.3687473957631514
ម@@ 1
宗@@ 0.3616985531455785
Ann@@ 0.1317838341337781
Blo@@ 0.16481547641792602
CR@@ 0.3989501125774406
God@@ 0.1968239353951397
Honda 0.550113690989313
Jack 0.10167366132278986
Nations 0.13420986679853136
Performance 0.4203731745611247
Ray 0.20083929003377177
Sain@@ 0.7565804657045122
tim@@ 0.05100030111210187
1858 0.23949762436747737
AV@@ 0.36853688784370914
Again 0.5564020152966587
Arena 0.2375099625873998
Bet@@ 0.16476009501607858
IF@@ 0.3824159187332053
Iron 0.2827533583179635
Pacific 0.09691912160606883
comment 0.4827935223792826
fol@@ 0.07763638707037684
ito 0.06321199945524561
ous@@ 0.13648599929226735
process 0.06873520284662402
uch@@ 0.05429759093039948
國@@ 0.09547958876176338
（@@ 1
1869 0.2017108395960872
192 0.9744938373628562
OR@@ 0.5394169739492536
Rose 0.17545784692693087
Sin@@ 0.09342103913358132
emati@@ 0.23956058526050678
ern@@ 0.04628155712662471
gro@@ 0.06279409968813986
iller 0.10575761555059225
ops 0.11523859344079858
phen@@ 0.23060919930338086
จจะ 1
147 0.822989894688068
238 1
CS 0.27713183227130345
Code 0.25057186029999756
Pin@@ 0.12943281775202706
Type 0.2928226803700746
Wars 0.33894247619371454
XX 0.1335673123796353
chol@@ 0.6149831952225479
ila 0.09608324979473974
mel@@ 0.06271529115353847
osph@@ 0.35563383851761593
peri@@ 0.10987975892911105
spec@@ 0.08710890630872595
0.3 0.8391831539339305
153 0.877224071472797
Air@@ 0.18768277536464537
Bridge 0.1474835703219257
Brown 0.09059176956902583
Champion 0.280993082464189
Fel@@ 0.11907203847957844
Junior 0.1517806698729231
Kat@@ 0.08670547634267374
Kids 0.5830871936737079
Kor@@ 0.07105741737125393
Mod@@ 0.11264428895958141
Not 0.22564107290293395
Shar@@ 0.12248511742686781
SmackDown 0.8958447166609195
con 0.00441795896643387
ham@@ 0.10698731923245348
ogr@@ 0.1506042113732652
path@@ 0.1677552009857345
ump@@ 0.0709116877393282
vir@@ 0.10942430995219586
we 0.04526016675955651
เก่า@@ 1
420 0.9345851059613901
History 0.02899874894614946
Hong 0.12480524930647419
MIT 0.686166442153471
dom@@ 0.0860357062584026
elli 0.11068427642276057
hum@@ 0.07444128622502383
文@@ 0.08904030234917173
172 0.9785237949997322
173 1
1857 0.22288171046941965
221 1
Bud@@ 0.15589366633612592
CE 0.1875557237974755
Ev@@ 0.09946258250974101
Fas@@ 0.27491390044546166
Happy 0.5970305112420871
IR@@ 0.4375992054164763
IU@@ 1
Mac 0.32190938035617256
Post@@ 0.16117202128894617
ault 0.12559075334741635
bit@@ 0.14142096892374129
ech@@ 0.05883614443767664
gre@@ 0.06659642413077177
ich 0.048942542142477036
ip@@ 0.11570277691700495
lip@@ 0.24452777069843623
mental 0.11568911266307579
otr@@ 0.26052330083665515
wiki 1
š 0.3122328165789111
ตัดสิน@@ 1
District 0.03347513839684486
Fox 0.14525419609174664
GO 0.6185263480803603
HP 0.4073087500617092
Hi@@ 0.1545808437734197
Hom@@ 0.10231597924808339
Hotel 0.15402401880933653
Reb@@ 0.14071974844676158
Wat@@ 0.12747009374380233
art@@ 0.06643418761304744
atory 0.12949610770524822
data 0.07698557853264273
ental 0.07985793936967098
men 0.018058018273952807
ulty 0.41201728148826583
version 0.035268437447630675
บุรุ@@ 1
ន@@ 1
、@@ 1
204 0.9916985305294455
38@@ 0.333811600102474
39@@ 0.37475004510857757
Bill 0.10408675358743752
Cros@@ 0.22688016504189176
DB 0.47926743028177765
Language 0.38945996668419086
Modern 0.21101837221679148
Mos@@ 0.10196920514741982
Toyota 0.5372813630387293
UR@@ 0.5290028997748409
ex 0.07903750568392974
ishi 0.35016089430689024
lem@@ 0.09352142795015016
other@@ 0.1249560949509923
space 0.0760789293627993
ville 0.019275726429354215
β 0.34746947919815996
178 1
1793 0.33323420763028294
Christian 0.054040693827829965
Division 0.03743765622341832
Pot@@ 0.1379583604679795
Saf@@ 0.18929528613008523
Smith 0.06297229491950361
atum 0.23866697489703548
ck 0.0917982436705665
electr@@ 0.12118736210081762
ves 0.030425552355882915
！@@ 1
158 0.8964866133893296
184 1
212 0.9220309274677478
44@@ 0.4725144316636653
99@@ 0.7336673816359064
Army 0.04386844458237422
Brothers 0.24321567429497962
Church 0.04263496570944028
Computer 0.32328172501604946
EA 0.5216355967840366
ED 0.7744402920028822
VA 0.2959685347970941
VO@@ 0.7047212502932859
fo@@ 0.05642851412263482
ih@@ 0.09428260809393985
nu@@ 0.0880882044221195
only 0.011950162364183258
will 0.021109275192200645
0.8 1
166 0.8603865027328258
Commission 0.08691793256599238
Comp@@ 0.21550854062753122
HTML 1
Kal@@ 0.06694928250254267
Lev@@ 0.11611940921416816
Pur@@ 0.14648983819501118
Woman 0.3283572068785602
icle 0.3588866202381628
law 0.03788341242226468
mit@@ 0.0496713779440007
mm 0.057432521087025734
ror 0.1916987813557741
‌ 1
2,9@@ 1
4.2 1
Chris 0.12726550227151676
El 0.007076748335592446
GO@@ 0.5018653029911111
Mand@@ 0.12267570114275449
Sen@@ 0.07919061972265233
aer@@ 0.14631049915010594
ays 0.0632636457158146
her 0.00575562304724034
ille 0.044435640303270914
lin 0.07904151652085543
umin@@ 0.19269124576524305
æ 1
ฅ@@ 1
18,@@ 0.43428633485733653
22,@@ 0.5647996666143886
303 1
Ass@@ 0.23659702573029784
CT@@ 0.4751927808446273
From 0.04226001457851862
Hir@@ 0.11822448407771352
Jac@@ 0.11585009485803552
Rob@@ 0.12288619479605364
SP 0.49054353968431835
Trav@@ 0.1890343541395375
channel 0.12803526627031295
ez 0.056066019983854055
would 0.010797528720370585
yn 0.09640041605716011
138 0.6930759001228739
193 1
301 0.8839893621810514
IX 0.21376940345676917
Jackson 0.11172969042217337
Korea 0.14290194767877007
Na 0.46031779325006605
Xi@@ 0.23253150676910594
alization 0.20308077396615623
bot@@ 0.08339751998320023
itch 0.11004794672763989
lab@@ 0.09111083202952741
long@@ 0.09916325649582375
pen@@ 0.03925652127889016
sey 0.10896668528526719
station 0.021706828141738518
เจ้าอยู่@@ 1
1.9 1
1792 0.36581588765765194
315 1
430 1
BB 0.49347347743888476
Box 0.33749680295272944
Cu@@ 0.08265540793474775
Ep@@ 0.16737908966931023
Gam@@ 0.21436956838503865
Knight 0.27293722117044206
Operation 0.17556584520330057
Ring 0.3272485118846077
Run@@ 0.22588198170153634
Standard 0.23730710281776252
Vo@@ 0.11016331313971893
bic@@ 0.20013461480429412
eta 0.05977120679819687
fin@@ 0.024588570780358508
he 0.0028071867325291555
icon 0.27893988502728
ites 0.05089318479802681
kr@@ 0.05812087504654499
leg 0.19829557558130553
opath@@ 0.49191511185921244
row@@ 0.29167955262720874
value 0.12157217778444442
ดอลลาร์@@ 1
แปซิ@@ 1
三@@ 0.054299066732505175
156 0.7754887069218325
163 0.8839335521633687
2,6@@ 1
46@@ 0.42839805192166824
Agency 0.2674725117810003
FF 0.2776339495940453
Once 0.22473773660306595
apo@@ 0.06979826018188183
ground 0.06617140201081109
iro 0.12119821886292172
membran@@ 0.33486224235393475
otro@@ 0.6055228742516191
rot@@ 0.07237145152460493
DV@@ 0.4565509103475179
Data 0.40470520506113283
Eur@@ 0.13997707292471023
NH@@ 0.32120830468178124
Over@@ 0.1378088041450876
Sab@@ 0.08887744720392717
Web 0.3746510187999388
album 0.013592103335977875
book 0.032949997808421186
ean 0.09209357013116552
lic 0.38949143086587673
รรม 1
武@@ 0.13474243135294653
0.4 0.9883707047263185
157 0.9037039316061893
BSD 1
Blu@@ 0.19375354517512625
Boy@@ 0.17209159601235233
Information 0.23106626978140546
Lim@@ 0.10546357394782524
Magazine 0.179381641089036
Mis@@ 0.11198773315989592
Mul@@ 0.11374396706415084
Radi@@ 0.1431327343385496
Stage 0.41654364272753225
Version 0.21728919571788435
anger 0.12326880853076153
eth 0.09344141159811728
odon@@ 0.6108804252612469
oke 0.1018102948105755
ort 0.08266650566510314
ots 0.04329683767120415
prop@@ 0.07711250817015063
wood 0.051700640559613084
yth@@ 0.39185422538724124
ア@@ 1
195 0.8267904798706427
Die 0.004231159196606251
MI 0.5258264850371724
MT 0.5991070265111939
MV 0.5488952545315914
May@@ 0.1193829514386217
Real 0.0995876165694733
SF 0.6203345662736818
Stars 0.2415381042920765
WC 0.7883802575416148
ader 0.10366467363670862
bias 0.4329361372495363
enn@@ 0.03338321389476173
แ 1
元@@ 0.2002556804331387
Blin@@ 0.48681117671495394
Imperial 0.19895559996553203
Vol 0.6895113190399373
anterior 0.20023777170054596
ello 0.06512496770535979
uni@@ 0.044903270028818366
urn 0.25229369387163036
zen 0.052866071945853826
‘@@ 1
1795 0.37668723817832955
99.@@ 0.9574592227346628
Bac@@ 0.2449270635409039
CL@@ 0.49911309887237476
Cle@@ 0.17953261365485784
Heaven 0.5746978620107727
Hill 0.06957098264312246
Islands 0.1370328066552958
KO 0.5097420180882477
PM 0.38869783092957433
PT@@ 0.5386162708220535
Part 0.30401166596669243
Spir@@ 0.31210972224055394
ago 0.07360483556831442
aker 0.11085731123148007
ham 0.08346286857805882
oa 0.10673885574120766
oni 0.09433536752618604
pyr@@ 0.3204316824180399
rop@@ 0.22114458992607064
single 0.024709602548845598
top@@ 0.10169981548590962
ush 0.16724391795981053
สัมผ@@ 1
167 0.7965755178929407
1854 0.21546741790366605
265 1
Age 0.22780962218968764
HO@@ 0.7126315586459874
Harry 0.129119854703793
How 0.3433544083231943
Mountain 0.14573641400322646
Second 0.07805157486269508
Soci@@ 0.13809270968167386
Tom 0.09658713709458484
box 0.12821876468000942
don@@ 0.04458857038706852
form@@ 0.03950551387345487
mot@@ 0.05861860548548343
ple 0.19162981646060886
°@@ 1
แชมป์@@ 1
2,4@@ 1
47@@ 0.3998412628281386
999 1
Bab@@ 0.1293390099411716
Cir@@ 0.18803223694279153
Dyn@@ 0.2926357465894722
Gor@@ 0.10100087989103386
Just 0.2433658204539048
Mari@@ 0.06711236660983394
Sle@@ 0.4355369407095877
ady 0.11452199562618377
alb@@ 0.08178502534810744
bo 0.1308794746616562
gl@@ 0.04723855341296601
hol@@ 0.04444857523874447
len 0.046325989874204845
obi@@ 0.2793576107021431
pha 0.28992479378154845
polar@@ 0.4574620027000288
umb@@ 0.1063578152512521
ตกล@@ 1
เมียร์ 1
189 1
2,8@@ 1
309 1
Astr@@ 0.18671789685634974
Government 0.07441443399421768
HA 0.661815629382789
Mom@@ 0.2917479015303374
Nam@@ 0.15349662170901343
Steve 0.12626046648769315
Theatre 0.09958528073582147
Wall 0.2759163539942171
gar@@ 0.04385353125591398
idi@@ 0.08910225757288644
mati@@ 0.1515063315475008
mg 0.7022007751620606
mut@@ 0.06567948545156505
ocar@@ 0.5396606915353247
ow 0.06379996805057907
sus 0.014314590523706181
神@@ 0.13008005949615434
0.7 1
181 0.9690129306639887
1831 0.28133764683213913
214 0.9379430147458724
216 1
Aer@@ 0.19461559784655902
Arthur 0.09555148176590972
Core 0.7792308519675941
Ele@@ 0.20895466002581206
Hab@@ 0.10082856074693679
Hydro@@ 0.35870048432389234
Indian 0.0486019136790788
Mic@@ 0.19259355689179994
NS@@ 0.195760561455686
Sir 0.07457715919235439
Studies 0.17499261506731809
Tu@@ 0.09938526782445135
Water 0.20276002228243065
Ze@@ 0.11102626646411058
alus 0.43639949885738516
amm@@ 0.05604528548312413
case 0.044887455714341634
ential 0.09947814332871552
hor@@ 0.04985070281567713
into 0.008276000704326748
love 0.08975857832372035
sin 0.042895389766699606
203 0.8235569329597721
LP 0.20186337053935582
Let@@ 0.17521825973589128
Pa@@ 0.11496800594194713
Proc@@ 0.28854161904816183
Revolution 0.14099741878273597
Sky 0.26190901342343287
bus 0.08301742053178991
eum 0.18706634301868444
ime 0.08715357125237938
list 0.05099721920372346
match 0.0317591058016555
oli 0.20243525321336467
ution 0.07319051580725469
な@@ 1
1837 0.25370062370626606
Economic 0.28546531003138603
Eth@@ 0.15598124797083138
FF@@ 0.3996145551262549
Jones 0.08301554175049182
bel@@ 0.03284158016398145
oon 0.15348474005971702
tig@@ 0.05269236530749225
water 0.028677826610145684
wo@@ 0.0627667513567529
yi 0.1594814967935413
ภาพยนต@@ 1
金@@ 0.07358815921066704
179 1
191 0.9882364152283937
196 0.9711125651377979
3.3 1
Action 0.2567082979614691
Championships 0.07379279129410152
Don@@ 0.07036438929132438
Eff@@ 0.19413430414081095
Francis 0.11524728246613204
GN@@ 1
German 0.03118984073093732
Holy 0.19827193286552153
IE@@ 0.3094301300136019
Meth@@ 0.1964005398070914
Red@@ 0.07233950313262048
Var@@ 0.13059333625019345
YouTube 0.1995094757226828
bar 0.03989892818866337
cel@@ 0.06986053627577855
dem@@ 0.03443844973355538
enz@@ 0.05080364555732098
glu@@ 0.48424172570858104
ket@@ 0.16820933173678965
like 0.02258589410391263
pedia 0.6102940982632032
take 0.04074174708994373
ダ@@ 1
1812 0.22879558351866822
182 0.8165310487390811
1845 0.2366690764021222
2,7@@ 1
ATP 0.2590859041529256
French 0.029012484380868706
Good@@ 0.19439376677051282
Head 0.17411761584690366
Japanese 0.05604909544323963
SW@@ 0.3959020458464135
TE 0.41852105512540594
cogni@@ 0.44335541092576414
enia 0.4855421252779359
kar@@ 0.05600040194507003
ku 0.2401989805323056
land@@ 0.035921540840101206
ota 0.08844994559186306
ural 0.2802818145571739
wn 0.07211966031145652
ទ@@ 1
国@@ 0.11519610777608613
139 0.7345721797049998
149 0.7965336646056707
162 0.7829745802395817
1851 0.2161240627206613
Angel 0.3014827567066341
Bay 0.06388238893528529
Christmas 0.17629773870522375
Dead 0.2672990225251247
Duch@@ 0.28862748784157594
Energy 0.23401555073009997
Justice 0.11715073464924333
Medicine 0.27076538616331003
NET 0.9168779196332578
Nature 0.32081936807273836
Nissan 0.7704165961503223
Rev@@ 0.09747422626311598
Soul 0.3849584718163725
WHO 1
Zh@@ 0.24351323195698482
fa 0.2017146260605897
isti@@ 0.07399246311442689
nom@@ 0.08068898423056574
ois 0.10757057325797302
qui@@ 0.08628924005949334
sens@@ 0.16539448440806928
sil@@ 0.062371867346917624
span 0.25799348685530665
vari@@ 0.040086622524852476
ปไต@@ 1
2023 0.6310461679888001
480 0.8224918462178309
App@@ 0.17296706254965782
CIA 0.4018054810636164
Dro@@ 0.15798277258310672
MR 0.6732667615768374
Never 0.4998279648683751
UC@@ 0.2674050222137745
ce@@ 0.052902251403780354
ching 0.08359828686180755
ert 0.022496981301593458
ities 0.0759120151362593
mal 0.04951932983276715
search 0.19223585894615772
sing 0.05850548064708562
var 0.23379840858341774
zone 0.07353259289543469
‎ 1
161 0.8064419700539357
1791 0.39643511202863774
1856 0.1943572410849598
251 1
Convention 0.21177869798387552
Cour@@ 0.09285124581445581
May 0.01728530396777806
NT@@ 0.4348137917877453
Rainbow 0.7777541098143351
VI 0.12673542442960356
complex 0.09885430221550516
din@@ 0.083044983613558
emb@@ 0.037695538427571486
eous 0.26770417801686136
itation 0.09405847328088848
ker@@ 0.0669886357416263
ost 0.1129023192283243
parentid 1
trac@@ 0.10855307355091481
−@@ 1
1824 0.30041682441257084
304 1
375 0.9365713318088166
Ben 0.12491820863040654
Express 0.18587440422609736
Grammy 0.2985421712894464
Mobile 0.3451227419813708
Phys@@ 0.1801215263554311
Rh@@ 0.1486262157158412
az 0.08064438441877576
equ@@ 0.06232037728469788
inus 0.21169926289790408
isi@@ 0.03882820953705555
national 0.022476268202205673
olo@@ 0.16653581314419988
room 0.06613001504321664
second 0.012809294935458421
tre@@ 0.04193961985173988
video 0.04025890288447616
which 0.003275719470506498
169 0.874834564605433
21,@@ 0.5203244854743284
After 0.014295326936126172
Come 0.4924593550788258
Raj@@ 0.1215938702634982
Right 0.4118626783807656
Sand@@ 0.06721119445097648
Tran@@ 0.1562278749364995
Van@@ 0.1828706790674599
Wel@@ 0.13204924714063634
Will 0.21797641456653497
Wit@@ 0.1198758677839964
agon 0.24276829246901976
agon@@ 0.129775387438391
power 0.03599403592172656
wor@@ 0.034757569570004504
}@@ 1
ñ 1
，@@ 1
1821 0.26149412769759045
1852 0.21268642465162477
215 0.7870331305585258
28.@@ 0.4483773697822958
370 0.8091326735860758
Est@@ 0.04870762176868745
Fran@@ 0.09404096480176953
Fun@@ 0.19568141450744525
JR 0.482916104988278
Lar@@ 0.08589558453334466
Nav@@ 0.10581648690617783
Om@@ 0.17543308109011452
analysis 0.1367533371958455
aw 0.17048679666655486
bal@@ 0.04850139648045224
cip@@ 0.1731825390136975
eria 0.1670868521967022
ew@@ 0.04877662274421851
gal@@ 0.0782112345681615
hion 0.6073926358266406
hydr@@ 0.17594571519151758
ichi 0.28414199267878265
media 0.047147973716423944
mu@@ 0.04613854586239079
oper@@ 0.04436193744905423
uk 0.14790655739207256
ury 0.11683796287247349
where 0.009577097430102202
ø 0.6904331088575348
カ@@ 1
177 0.8589269809162964
Area 0.1547970648675444
COVI@@ 1
Challenge 0.23644823048465752
Champions 0.1752743646878263
Joe 0.09717391998960942
Most 0.07490205430317036
Vel@@ 0.11942295709768301
aun@@ 0.07707373688039701
cape 0.16815598351605215
ectus 1
ein@@ 0.012162114561939818
eti@@ 0.06548560499880868
free 0.052560407960056475
house 0.027749567602130553
ier 0.037147978250956545
ock@@ 0.11102413613195067
public 0.020924951549114217
tem@@ 0.07471342339450895
tro 0.1107486851127373
朝@@ 0.3495962481935878
AO 0.5920659829308823
Bus@@ 0.09318262711290524
Century 0.27836997449165574
Fantasy 0.43899849933966867
Full 0.5218153923878408
Hen@@ 0.12455053172715977
MB 0.533895638891975
PP 0.4385798611477769
Press 0.1306162955418312
SD@@ 0.38765676665575977
Santa 0.04909866460925283
Side 0.31296631876630415
bot 0.13412741932848649
iri 0.18009881202294697
itz 0.05489433584490493
oi 0.16830515675095625
ser 0.022032774865678926
tain@@ 0.08421480825595863
25,@@ 0.4889917900809892
29.@@ 0.47339095269406256
Arm@@ 0.10274684527543652
DR 0.2917076332129906
Hospital 0.09433439125179365
Hum@@ 0.11089206697095935
Oh 0.5052475164755875
SO 0.6204259626661176
Square 0.16235378426229563
ban@@ 0.05467484263149691
cos@@ 0.12821270945547938
dy@@ 0.2340710168940736
has@@ 0.15398714683043524
ister@@ 0.12629443031669782
sk 0.0988644696990732
then 0.010775653264162466
urs 0.05145605071408896
vers 0.020987259434074364
wan 0.186906382453152
ze@@ 0.044736413028170066
นแรง 1
西@@ 0.0462963148715078
1828 0.27815577101260713
194 0.9710015439861411
209 0.9037695025716997
DP 0.17805256365855843
Der@@ 0.09548293692676665
Doctor 0.16316135973374493
Future 0.3258546345216998
HS 0.30250628774666516
Nan@@ 0.2606743596823065
RN@@ 0.50599555731783
Stephen 0.12597009067932902
aden@@ 0.30816459357890563
ais@@ 0.06047106034637897
anna 0.13045809165705924
come 0.05634710260044934
dol 0.6210030114269478
eck 0.07146987299540726
icial 0.27852960985035485
mes@@ 0.09456795183319044
post@@ 0.08636196622615924
tas@@ 0.09292792689697994
under@@ 0.025992325741030806
uz@@ 0.07806655795397315
ī@@ 0.19206736717498984
明@@ 0.11475622861798082
2,5@@ 1
36,@@ 0.7008685220532099
410 0.9365600584670191
Country 0.13916760347453272
Fil@@ 0.07591029722010816
Jazz 0.1634198941121827
Room 0.4125392628885331
ev 0.10077553123128369
fied 0.06980867602927454
net@@ 0.08196866275157051
rol@@ 0.1373739043424366
sky 0.08113257440448167
ther 0.07178758060133554
tho@@ 0.13535924335224153
tle 0.13505948833685147
were 0.002812483235454677
ying 0.03197670873733711
วัตถ@@ 1
Ay@@ 0.10402844112592545
Bil@@ 0.088087288270633
Cha@@ 0.2942322012977742
Elizabeth 0.09918164188747272
Face 0.46728120076346086
GE 0.4752078337662703
Pit@@ 0.1943512137598087
any 0.02085464554196342
other 0.007522090561081554
uki 0.3206887172059652
171 0.8310261070746903
174 0.861080296451296
305 0.8539146676495437
Black@@ 0.12330317498073304
Conn@@ 0.13289750455029403
Dom@@ 0.07985336344206156
Econom@@ 0.16692782160305708
Eli@@ 0.1456751796174875
Ful@@ 0.13300726412642128
GS 0.44107068629514834
March 0.01682395783024308
Ton@@ 0.131460106934075
illi@@ 0.13566999276929287
major 0.026277661683251307
omy@@ 0.6010111062050045
people 0.014764057980036457
virus 0.20288009084331063
ã 0.44143170351244515
安@@ 0.06308002585158853
1300 0.4801381974900234
26,@@ 0.4998952995190157
67@@ 0.5416139413190633
Albums 0.23786135604494044
Bay@@ 0.09406819572766999
Disney 0.13048019614275766
MO 0.6735743614639078
Marie 0.06090004493212834
Mind 0.5628996165976928
Perf@@ 0.5315451887426456
Point 0.12287552426847953
Rum@@ 0.14817319396089643
Songs 0.17515769586858915
Squ@@ 0.24764849022250793
Town 0.07964800791834682
Vari@@ 0.12028829306334012
ards 0.05227305312240121
html 1
sec@@ 0.032599377034308825
vel@@ 0.08648343448025572
พฤษภา@@ 1
一@@ 0.021047987647513033
新@@ 0.04858368968720595
78@@ 0.6271595744824313
Coll@@ 0.20808253854606726
Figh@@ 0.3808030174303432
Her 0.04979372545666558
Mes@@ 0.09280004806899393
Neur@@ 0.2756633386966714
Only 0.17554103130682655
PR 0.29329830766170567
Peace 0.2342785868258412
Prize 0.14673090068253944
Sk@@ 0.08462195467595623
augh@@ 0.1211345654223493
comp@@ 0.03132465097688202
def@@ 0.03410364176866553
ela 0.056100644431823915
esc@@ 0.05823986903372204
ett 0.049427142322366856
hynch@@ 1
oli@@ 0.16510505726025188
rate 0.06682130937051663
tal 0.061259420975801906
vin@@ 0.0748666398448642
マ@@ 1
1853 0.20357476244912653
239 1
Bos@@ 0.08492455961055041
CR 0.31884251816345544
Daniel 0.07305464227206593
His 0.018515620783744424
Intel 0.5185086818722131
Ker@@ 0.07420043863742602
Liv@@ 0.14485000236364212
Pon@@ 0.10387688823557306
acle 0.21423263529773878
cell@@ 0.12252213194201098
che 0.020386017873608227
extr@@ 0.05108254077442934
lum 0.1613416703038536
oscop@@ 0.4225616601300939
oxid@@ 0.4157371843270574
pas@@ 0.03385794666435422
rock 0.04459252901955852
វ@@ 1
ん@@ 1
176 0.7827615170125891
1832 0.23692655846370947
1841 0.23204418197928664
Camp@@ 0.09148078886745958
Dan@@ 0.08813427862181114
Frank 0.07418354958866143
Gener@@ 0.11876194497775937
Hell 0.42571214543380437
Karl 0.06417010307819221
Kas@@ 0.08689562225622544
Pictures 0.23538746570223873
Pun@@ 0.2078107548405464
Take 0.4954173790627881
Triple 0.3403351924443555
Ven@@ 0.08776038619495058
allo@@ 0.29851670337486336
boy 0.11818217027015006
factory 0.17298087550913568
kg 0.11775625308792925
lob@@ 0.134545141326155
mp@@ 0.09490945608734888
ond 0.0751905437739036
onn@@ 0.03801216003918022
orum 0.2073210575674905
ough 0.09639604531179667
over@@ 0.0298402060631354
potential 0.11757011398010406
shi@@ 0.05474264943607177
sis 0.21326764679097207
ulus 0.3171227094028843
xy@@ 0.5679262848925137
ド@@ 1
306 1
460 0.9303423819581532
@ 0.617025757745825
Clar@@ 0.11781191674327576
Fut@@ 0.24228272371854156
Les 0.009507672629134703
Place 0.18635401136017157
Pop@@ 0.13523251853706472
Ren@@ 0.07318052150871676
You@@ 0.5075206216853902
ado 0.005525693952512063
ben@@ 0.05306899006346168
dom 0.12919980354559327
gas@@ 0.1080845196869235
surface 0.06625782391592684
uth 0.12005893332509719
war 0.004015112555244748
± 0.6112008009229667
กาศ@@ 1
มาเล@@ 1
วอลเล@@ 1
か@@ 1
ジ@@ 1
平@@ 0.09452881756244366
이@@ 1
243 1
Bec@@ 0.19061782864459959
GC 0.31935911319624743
Ki@@ 0.08655596810374369
Maz@@ 0.13187462113462398
Middle 0.1074590618855809
More 0.14712820097834253
Psych@@ 0.17326714353401013
Tour@@ 0.0823831258415128
bro@@ 0.055902621695953295
iko 0.15633227924712542
wave 0.1968078869516847
レ@@ 1
城@@ 0.16503731292607152
州@@ 0.23700073792617746
159 0.7723608650642643
211 0.7386837599588673
217 0.8383179661182155
308 1
Cast@@ 0.21508821514350018
Child 0.3263579861328205
Environ@@ 0.20472696785196784
Fe 0.29338023439865
Mode 0.5842407239171998
Natural 0.21681046857957975
Pul@@ 0.17487323879226851
Py@@ 0.23745609977219354
Tree 0.4343300786894347
Wild 0.2397200799684909
Years 0.30056552713740875
ag 0.09559455624504336
aris 0.3200973622270119
ayer 0.20861735802187353
azy 0.4104770968574763
eless 0.12870365088086197
iTunes 0.5082281055535857
map 0.21890356011771536
position 0.023657505464951337
superior 0.1453155521914286
tal@@ 0.045015123078395065
zi@@ 0.04291043146011625
1803 0.2713956393661381
1847 0.20494222101438145
200@@ 0.12264087317801252
Lam@@ 0.10442113258805208
Land@@ 0.02882763000493957
Our 0.22959808052550668
Production 0.13739029782122675
Sou@@ 0.09320434488067635
Thr@@ 0.1489089815263602
Youth 0.1673852849271381
ix 0.12505156103456197
kat@@ 0.0825560919757215
1808 0.2815444900165281
1825 0.2560831039130033
Autom@@ 0.1507445051962285
Department 0.04946915256074506
Haw@@ 0.09290441119432213
LG@@ 0.4415288280159944
Liber@@ 0.0919980095499955
Vic@@ 0.10962145370907793
Visual 0.5747562298359943
Vit@@ 0.139928025547758
ades 0.04395752194934419
assi@@ 0.12360233850038588
board 0.04905963842328026
dri@@ 0.06554503451805824
illy 0.1010058171695149
method 0.12499081949906242
olog@@ 0.06814503993500273
orders 0.1361324024601752
pa@@ 0.11474633641400282
plication 0.37002962915997134
sap@@ 0.42433919142107585
stone 0.05811385439482122
usion 0.13710544682030212
‎@@ 1
′ 0.4762826966383362
1805 0.3098935407019209
1835 0.2199569128317095
246 1
Angeles 0.05244619046763463
Ball@@ 0.09781305482458356
Cathedral 0.2285323978285856
Classi@@ 0.5094360225654254
Eastern 0.08394383384759152
Fab@@ 0.15795470230761444
Rol@@ 0.11182134844273799
Short 0.33483545817906185
ages 0.01985321951847614
eling 0.11248610110267884
int 0.14796374703969525
ony@@ 0.1577655789257778
pes 0.10019494598815913
ph 0.26516893688284743
pic 0.19226219378166678
table 0.07103365951803242
zi 0.11044720587575459
ฟริ@@ 1
学@@ 0.15250989881186805
43@@ 0.4157444229416028
5000 0.24407793530955232
Bra@@ 0.18641088097955597
Fol@@ 0.08250720074164088
Know 0.5915162912660777
Obj@@ 0.2123818401168745
Pierre 0.0500935003888126
Rain 0.6428797604895216
Tes@@ 0.27712027042030124
VII 0.15216348989716263
atur@@ 0.11666212790827742
imal 0.14627053759752717
les@@ 0.04696758630510839
mart 0.3005073302274302
mon 0.19767924460749753
plex 0.18967713989464507
rit@@ 0.042645968851448834
thm 0.3448724835777854
trol@@ 0.13165561092762867
uv@@ 0.07540356550989842
yro@@ 0.4501940712956682
ក@@ 1
海@@ 0.060518644355307356
186 0.8301593828647188
187 0.8475432024189781
207 0.8121807683334974
223 0.9474127044088125
Am 0.0217319870661841
Beg@@ 0.08444769270497221
Broadcasting 0.2773710007140647
Enter@@ 0.40706906376500246
FIFA 0.16103747140333716
Friends 0.3249264371351328
Hur@@ 0.10133411964355415
Machine 0.3401515675064115
Motor 0.16446235579358243
Rot@@ 0.08867662286114109
Sph@@ 0.3731248100263404
Vis@@ 0.10444747736245837
bert 0.06548201401511132
etta 0.12850487301997443
gene 0.17228729210919963
ident 0.07371865758920212
mark 0.08023053529823479
pat@@ 0.04053077590073751
phon@@ 0.1329053267487242
print 0.17472626640838906
san@@ 0.04879680270521112
wal@@ 0.046064801253281426
work 0.012590486551735992
1799 0.3413280111551083
295 1
323 1
Acanth@@ 1
Ali 0.10547450366240524
Conference 0.07924681196724022
Fantas@@ 0.4637163930686262
Field 0.11211050425326322
Food 0.282521741196369
Phot@@ 0.2523674829119486
Sec@@ 0.11641620330306782
Stop 0.617450868296988
Works 0.15925476957816972
agin@@ 0.5719832781831993
ate@@ 0.18680628035635277
chrom@@ 0.22587781984293118
hiz@@ 0.36600719963451755
ier@@ 0.025581323193903823
ind 0.19200296580418108
ji@@ 0.1529652529081562
oshi 0.25697579496724443
sim@@ 0.07255013011640016
uma 0.11082064450392265
your 0.17984010932630087
าคม 1
1660 0.570989335728232
1826 0.26195407166636553
Animation 0.6169155084666784
Bell 0.14635476707534412
By 0.034527861524970636
Call 0.39315985009334137
Castle 0.11313734760868685
Director 0.08844387693687311
Got 0.5603451812901895
Gun@@ 0.13100947074417743
Hit@@ 0.1902852806105981
Kevin 0.15775751848026306
Kit@@ 0.12343059991264789
Lon@@ 0.1958793680766433
ML@@ 0.15241159698239756
Sony 0.21668921922857323
Southern 0.07254221893999563
Spring 0.21852408942175597
back@@ 0.0815642458764825
but 0.004637991774352901
cal 0.10765288761528406
eff@@ 0.06167393075100695
lo 0.010777032306201775
minor 0.10142267654986918
ui 0.15519027685521938
μ 0.2827141357019145
ာ@@ 1
☆ 1
し@@ 1
之@@ 0.05132682923447688
江@@ 0.1500045067158898
1844 0.21324635412230572
30.@@ 0.4440229534041207
49@@ 0.27176267140615823
ATA 0.7021647933755584
AW@@ 0.5361213854372041
Board 0.07034833398780864
Bol@@ 0.058388882676345615
Commun@@ 0.15617518340286723
Fro@@ 0.16567989302738542
Fur@@ 0.08638524888413666
Johnny 0.17310491339623785
LED 0.7507231445087994
Pter@@ 0.5707901800794091
SL@@ 0.37199310459889623
Some@@ 0.25453558800653814
Whe@@ 0.1765098174181246
ador 0.02709131557949101
asty 0.4713909570815503
ele 0.05291574727766729
family 0.012974289971598628
network 0.06986866499509256
onder@@ 0.21476960462847286
pattern 0.2270065610711036
rap@@ 0.04077389110376347
through 0.011958155650672483
uck 0.11124723783737747
zo 0.08226728578567731
เดียวกับ 1
164 0.7131185284140931
255 0.8528399905865106
Ai 0.5375248677437914
Freedom 0.2540632869913169
Gate 0.3609122097462161
Here 0.20813898590527913
Mess@@ 0.13700998509625878
Name 0.06077983753341238
Rhin@@ 0.5452053991333702
Stre@@ 0.08536841517630181
aku 0.4113107577176351
alia 0.14135734325960322
any@@ 0.05689614184437645
eon 0.254146815664406
erry 0.09841497705844422
ink 0.1281768739306513
layer 0.2671422018664475
lic@@ 0.05870975597918357
mis@@ 0.026977472306684895
nh@@ 0.04309846676197804
racy 0.2223003023743322
sam@@ 0.07992966211310977
site 0.023509163712328356
social 0.03128230379140239
wh@@ 0.044617260891346086
オ@@ 1
道@@ 0.15925310806296156
1648 0.5963462926897086
1813 0.23689722201713884
Make 0.5792306891183946
Rus@@ 0.0830439678055801
Sus@@ 0.1378832607019925
aha 0.16407631032134698
asis 0.1713127174714929
change 0.045390783154536776
enter@@ 0.08589668229908998
fly 0.13388938108009812
ilis 0.5465590356184672
load 0.15805432336447287
mail 0.22054279366592372
ometr@@ 0.4712735731860735
oy 0.12825635507214292
press 0.08651336208702635
trop@@ 0.16483443677310294
usa 0.09891718208759162
ws 0.04737998593849313
zu 0.0036226975153851753
ə 1
ロ@@ 1
1400 0.4682228179316911
501 0.7601444233942735
950 0.8882512799543977
AG 0.10306036607908338
African 0.04891011631921443
Anim@@ 0.28660089966751634
Bachelor 0.18237269423440122
CV 0.4707932934058455
Change 0.47233833037644807
Common 0.26564534974861703
Dur@@ 0.08889149642529423
Spec@@ 0.23280062445931235
Stand@@ 0.09758601099921932
conver@@ 0.10005381665008968
ign@@ 0.03372231063923554
off@@ 0.03207476399038669
organ@@ 0.052690694902175164
rd 0.23675325144448423
under 0.010000155678720467
ust@@ 0.0808478134280672
ł 0.7220118714594593
ウ@@ 1
漢@@ 0.26039892215012017
1822 0.26989156476219833
227 0.935961944901451
29,@@ 0.5278898865248536
302 0.9272983831808695
57@@ 0.4258894066378357
Apo@@ 0.2635772939914773
Chicago 0.04628888768147782
Flo@@ 0.22848375053857883
Gol@@ 0.09272605169226349
Hard@@ 0.15207710045037492
Lamb@@ 0.34447021755196844
Laur@@ 0.09272689313794281
Sky@@ 0.27042726230512865
Writ@@ 0.14059486558742965
chem@@ 0.09169263275764945
ech 0.12915918742407007
gn@@ 0.1362566693574989
hip 0.07012520610956649
ists 0.029554755283791572
leg@@ 0.028104163034254587
med@@ 0.06420950310392413
sea 0.048017502095634934
sia 0.2789235576214438
wa@@ 0.08625822123846442
α@@ 0.11849646058041935
มพู@@ 1
高@@ 0.04855656311563297
1649 0.8883153581413571
1842 0.2053242777959993
24,@@ 0.4174491910144833
252 0.9681658345351886
290 0.7256915716337536
37,@@ 0.7152803315599077
56@@ 0.43935883351787414
660 1
Bri@@ 0.06661125866140241
Chron@@ 0.17217733573763316
Classic 0.2252390689979245
Congress 0.07503804351018052
Heroes 0.5824947676548117
Nic@@ 0.13549447269998877
Washington 0.03349043523171065
asc@@ 0.08577715851111335
bs 0.0496455821429222
ector 0.16904751679515326
mil@@ 0.05728437741128767
night 0.0548521574705436
osus 0.5368623892378501
two 0.0050270499653223616
white 0.04577655996792769
xi 0.24436749110073724
การี 1
ត@@ 1
ャ@@ 1
1603 0.7895769864055047
1707 0.7572578983319997
249 1
27,@@ 0.44635870225812774
307 1
58@@ 0.45544005753510386
AV 0.42187930866135176
BL@@ 0.7034267792717731
Cot@@ 0.12069834102242917
Deep 0.3375529259466006
Equ@@ 0.2840704772161368
Eric 0.1346849375614056
Forest 0.12097664986412979
Kin@@ 0.07728099543193165
Korean 0.12267532765298975
Nat@@ 0.10570445541943616
Number 0.4489748041165702
Ry@@ 0.13986203477398404
Sex@@ 0.23236351708252045
Tem@@ 0.08932873858329869
Van 0.07682188407087348
Virgin 0.24781478492856962
angle 0.12367615951579407
aro 0.10170089897032723
ellidae 1
ie@@ 0.03791769421532501
link 0.1840903361213711
ll 0.2733295307916653
mic@@ 0.17877320542280362
mun@@ 0.07314900910284165
phase 0.07654286077703298
pon 0.2872048580875129
pot@@ 0.0620362988712333
py@@ 0.23435558278319418
ski 0.05223842701453533
wer@@ 0.027551092212996925
ǎ 1
1783 0.3744202662664999
1836 0.20294758408050864
1846 0.18590858856978057
1855 0.16550470025173095
720 0.9985973561768692
Albert 0.07111156357380745
Din@@ 0.10905747896330396
Fair@@ 0.13656719861959205
Gang@@ 0.27244612951158725
Gir@@ 0.09501009407109257
INE 0.6660197470772072
Player 0.19123377100237768
Rid@@ 0.1654225734341986
See 0.09435795547777229
She 0.010105095637754037
Silver 0.19369116023727512
Sir@@ 0.15508839230697358
Sn@@ 0.22351743878130556
Zero 0.4309269442481621
ather 0.08966890687974165
bon 0.08654824407838226
gia 0.04125669335216389
his 0.0017812991241494163
level 0.03290333598874597
oxy@@ 0.2110974443201483
ron@@ 0.1670165751855602
sion@@ 0.08603635999441975
size 0.05531806251513549
tu 0.10899329779158483
197 0.81759639738636
28,@@ 0.47533126758402217
Dou@@ 0.10458795054921033
Han 0.19813769685408336
Long@@ 0.1358967663348973
Nik@@ 0.12938577127485015
Pep@@ 0.19730883358660684
Pil@@ 0.08028140672963963
Rab@@ 0.0992237958821451
SL 0.36854052901489465
Sax@@ 0.16584369975965296
Security 0.1520720783553067
bin 0.10713225628984369
ble@@ 0.11171790405938116
dol@@ 0.08941396396472663
fu@@ 0.05327639195345122
imi 0.151035685950792
min 0.12775584802914852
ocarp@@ 1
pic@@ 0.06174486610050008
tica 0.060076676650689734
ules 0.07059049016815806
วัค@@ 1
劉@@ 0.26981403224842077
東@@ 0.07811551417514762
왕@@ 1
188 0.7020200990926444
198 0.7983161494582197
333 0.9157733966282166
440 0.7205213232846832
53@@ 0.4520691304105669
59@@ 0.4646322301101322
Andrew 0.09452393959155252
Bowl 0.14339144804264464
DD 0.5630719367693773
DI@@ 0.47080232062916144
Den@@ 0.07426980178825429
Drama 0.27364886529170057
Extr@@ 0.21157730057233098
Fem@@ 0.14899037340082205
Jud@@ 0.09737505736399203
Nine 0.3586286248052827
Rod@@ 0.14035703252888995
Run 0.2708104571078372
Sac@@ 0.17043813378083406
Sap@@ 0.26387542987366286
Scor@@ 0.25824737799583863
Sig@@ 0.08946915134404354
Sign@@ 0.1665260565203119
UI 0.7243338855891218
Wol@@ 0.0696304150988974
XIII 0.17981156260761463
aja 0.08413765558073938
asa 0.10668352913835158
aster@@ 0.11716330069674022
centr@@ 0.07488971848922307
ease 0.17512613262753188
eu@@ 0.08503965678056913
football 0.019648048317101877
stri@@ 0.09761568010707584
teri@@ 0.11011749332392429
tory 0.1542399696592543
verte@@ 0.3139456960314449
ylo@@ 0.4352688931133076
မ@@ 1
バ@@ 1
275 0.6951993541363675
285 0.9032072111116227
911 0.8757197020015305
Adam 0.10422713410670464
Bak@@ 0.10557568656837112
Bon@@ 0.08290925239833816
Cat 0.4254823219431634
Count 0.2603840608610084
Dun@@ 0.07904901212988352
Edge 0.416684363413237
Hat@@ 0.15531771474684436
IL 0.2902309589510701
Ji 0.6241294064470734
Lat@@ 0.08453179172580395
Loc@@ 0.06764881336417984
Mini 0.5284829445380742
Monster 0.5309350686905681
Rat@@ 0.16663187360251216
UL@@ 0.6432096585096544
Up@@ 0.20128256821711513
Wa@@ 0.122978323307914
Wonder 0.5242071696499102
aud@@ 0.09691327529319622
bers 0.06844221251914077
eki 0.4386942811362957
gi 0.15532387932242808
han 0.03459049321614451
je@@ 0.05361181943388816
oker 0.21435389577058628
ols 0.050803133859153325
oton@@ 1
school 0.013732094398211683
tric@@ 0.12811131058056238
vas@@ 0.11032409236311568
works 0.025669993665534758
1804 0.28186018373491856
234 0.8882753112564387
Administration 0.11883418082967978
Advanced 0.33074724431426095
But@@ 0.13426153699819598
Earl 0.1263606651786683
Ghost 0.45327995893908773
Gold@@ 0.07897747105002453
Hil@@ 0.07015883221395737
SH 0.42772506343864586
Tiger 0.32794373363200785
Wan@@ 0.3764783128306816
ado@@ 0.16723472864480768
aling 0.0898773678393956
box@@ 0.10188289311669621
by@@ 0.08933005096413409
cm 0.05482159450778068
def 1
eller 0.05535833498826268
itor 0.1063457646010668
ods 0.05946529893366777
oil 0.0899602110294355
omer@@ 0.22885115332778
ondo 0.2981279211724566
ords 0.08850613222791251
orn 0.14244535805895234
pri@@ 0.0489419909299013
primary 0.06004699251078851
rain 0.1129030064271009
spir@@ 0.06757571745405404
vesti@@ 0.32799357731355283
ò 0.2532948131226953
地@@ 0.05182706206186549
1701 0.7287339182596253
1796 0.3077556489626404
1802 0.26747510565583754
1810 0.21853756195127388
218 0.7493274640333463
AU 0.3925390119880647
Away 0.5366553921027217
EV@@ 0.7235099211725667
Fi 0.5492079299066059
HBO 0.48429087651606245
Hip@@ 0.26172287475014416
Oper@@ 0.07650471215173735
Si 0.0814342552613493
Slam 0.38537440205753204
Ten@@ 0.12470532364519717
UR 0.5726694296156458
VC 0.36945777525963297
WW@@ 0.41559121137699406
Western 0.04079700822137259
aft 0.0670038141407002
ater 0.09733500802687134
bi 0.07871103519124036
flow 0.14068688487777048
illus 0.6250307483211811
itis 0.3425535022607173
ize 0.074330039174392
ope 0.10724390039399986
orph@@ 0.1815589053997313
part 0.00812231007958403
porting 0.12619849259734256
visual 0.16795934879912408
ฝ 1
日@@ 0.05433609940814051
1794 0.27437233079723083
264 0.8226804695055773
286 0.967692934035795
30,@@ 0.5594554359559536
34,@@ 0.5919450821082796
AE 0.3403407809093961
Associ@@ 0.14382127821828264
Beh@@ 0.12400353234743923
Camb@@ 0.22602671123055673
Cli@@ 0.1984694550651117
HD@@ 0.6307198852384025
Hollywood 0.11112873845612416
Khan 0.11287267481296322
Kon@@ 0.032772049576774334
Ocean 0.15460409696017538
Pav@@ 0.12859687316468071
Shu@@ 0.244548565205109
Wang 0.21983014292239297
aba 0.017356024133023906
ava 0.09792782449197529
burg@@ 0.21740954078728314
but@@ 0.08698061919813467
fal@@ 0.0555113287166056
fus@@ 0.11921077816713525
mechan@@ 0.0701871939029884
species 0.01944451648912049
อีย@@ 1
「@@ 1
軍@@ 0.07929088821354087
245 0.8125696776617255
CEO 0.16127848176269038
CG 0.46979700262078233
Collection 0.25184120298593443
DJ 0.1588777050926837
Ear@@ 0.16296446424335295
Emer@@ 0.13046563134587238
Hand@@ 0.057495853469078484
Thi@@ 0.10469521971967898
Wu 0.3018651137984346
activ@@ 0.04260847321148491
age@@ 0.16564869187885206
bil@@ 0.0412431510353984
cycle 0.10370991887700821
ending 0.032490439988435156
iPhone 0.676982053621476
nig@@ 0.2757139322440905
pith@@ 0.31780061691027917
sac@@ 0.06789914053040173
sue 0.1329439138082476
tag@@ 0.10304017266917496
สวี@@ 1
グ@@ 1
1843 0.19857070626010512
228 0.8426068471970921
244 0.9378981740677638
253 0.9261882774784396
Ari@@ 0.10490306773312869
Cab@@ 0.09322139427097774
Drive 0.23401443549295034
Gas@@ 0.08789076758070273
Hun@@ 0.12028403830871166
Ok@@ 0.13464032067384116
Six@@ 0.24968361912173026
Sof@@ 0.17772974444684697
Software 0.2150906864800047
Theory 0.4606374359374496
Voc@@ 0.33227598562825356
ache 0.051982405226887775
aim@@ 0.09818441293234974
amo@@ 0.09575155661548385
ands 0.0400211854400318
ape@@ 0.36846130699326085
arc@@ 0.08570793070095784
bra 0.13257887108977762
dian 0.3154274527424229
ges 0.029452484649625833
ido 0.02037484814543189
iting 0.08860745035044144
las@@ 0.07854163689916915
mol 0.4967801502022562
posterior 0.23426464985355797
ses 0.0076914525490324945
ways 0.05060039937327157
wel@@ 0.06421289247747848
ˈ 1
ເ@@ 1
女@@ 0.11596877310787537
1650 0.5499568497006062
1798 0.27054598431661425
1817 0.24884455030306254
232 0.7339810385538671
247 0.9812865002687734
640 0.8571299613148075
Amar@@ 0.28775020739513696
CBS 0.1670651730847075
Dynam@@ 0.35068426535853875
Ing@@ 0.0872822684187193
Jan 0.11472225411781328
Jur@@ 0.09860579151832215
Key 0.27274021904077383
Library 0.09850656700220332
Mike 0.08436403782970207
Off 0.31631590215058725
Popular 0.1988898188058719
XX@@ 0.22855262292344528
aea 0.3759638256277892
ante 0.012094031375138637
cho 0.015934488310082727
dro@@ 0.06661880253585692
gran@@ 0.11688671669597285
ho 0.16789175310347154
hou 0.20119910659766718
ication 0.21681702509533385
immun@@ 0.29562093625286506
ka@@ 0.23141532967128584
mos@@ 0.08219482838318252
prim@@ 0.04961966210506803
stein 0.04052018805708542
sy 0.20043558355260507
tha 0.14019114332292035
trait 0.28877236325633554
who 0.0041267708321553595
ガ@@ 1
226 0.8476876375409415
241 0.860385458202525
258 1
36.@@ 0.6245788996505873
Bit@@ 0.19330546116406402
Federal 0.0749338273127251
Fire@@ 0.38017400891846403
Hunter 0.2082724312986489
II@@ 0.2221695642854531
Jer@@ 0.09206780657549313
Mars 0.20008942564490292
Orchestra 0.14942165586267173
Sha@@ 0.2230242064196024
Sher@@ 0.09930677462381461
Speed 0.43215680492012687
Swe@@ 0.26735393534248475
Tam@@ 0.10055932547696143
Tony 0.1006771959344956
Warner 0.16283256947076472
ains 0.025882743390980685
arts 0.06309062281370548
ces 0.019176336204630072
ized 0.04196086207297506
oxide 0.31204258069499696
pap@@ 0.06346333863054263
phyl@@ 0.4466175164954513
plan@@ 0.03177607238014672
show 0.02062130326386504
sing@@ 0.08507624483636392
stream 0.08626377656833009
town 0.015898751524507822
tre 0.046990936488997354
ยาย@@ 1
た@@ 1
タ@@ 1
光@@ 0.12178825236139697
68@@ 0.36727688689560606
76@@ 0.46463766298106574
88@@ 0.4877852053507402
Africa 0.045888552247419535
BN 0.6046363912206306
Box@@ 0.20689382264244396
Capital 0.16974401569784017
Civil 0.06865107594140528
Class@@ 0.15870766911229897
Cul@@ 0.1194566322784851
Culture 0.12995277232520672
Dist@@ 0.12868093433197864
EM 0.2936000748743282
Fall 0.10996804047028425
Front 0.12314472463905218
Ice 0.2215055028076446
Key@@ 0.17858231105515232
Mission 0.14187702068181623
Post 0.07439077243465544
Rights 0.16645160681376717
Shir@@ 0.19785831302879464
ait 0.013979639332230266
amen 0.09224946399146482
da@@ 0.1348202667051495
isa 0.07773918345814736
lers 0.04091676030906353
macro@@ 0.4502384867997476
mission 0.034745649692930806
upper 0.0970898202693184
wing 0.03307676464811213
≤ 1
대@@ 1
1100 0.462438188833706
1776 0.34453852306193106
1807 0.25263330456114647
1834 0.19462470243960905
32,@@ 0.6799184271563931
325 0.7532836558909717
Brit@@ 0.12401777121392872
Carl 0.07228336474698784
Choice 0.41380846426530526
Electronic 0.4276256574664743
HT@@ 0.4271655545440254
He 0.0026827878723905086
Jan@@ 0.09373083156738425
Jim 0.09800323564865931
Ken@@ 0.11592878287990908
Law@@ 0.1326270267280134
Plus 0.1385630421352103
SQL 0.8465885848980492
Viol@@ 0.17016491295827285
Wind 0.26638188035562177
ading 0.09892910165826513
ald 0.0892884296253488
ancing 0.10811075301714201
ander@@ 0.06898527172166839
grap@@ 0.12954961306250065
has 0.0032096447387660407
lie 0.060635247597582626
max 0.4545311967301505
ont@@ 0.09281620317756424
opus 0.30796460352136923
revision 0.7554961714897083
tam@@ 0.09274691202704165
ternal 0.134754539409118
unds 0.056804382436767394
ǐ 1
ฃ 1
ฦ@@ 1
ົ@@ 1
224 0.7553749265174298
520 0.8456715651848652
At 0.01562941746399945
DL@@ 0.6669734800662844
Democratic 0.07007467709098718
Dest@@ 0.2599564906022032
FDA 0.6547765671312089
Fres@@ 0.16619731236201696
Has@@ 0.1343821306056916
Lic@@ 0.19193054453553135
PE 0.525423920089338
Parad@@ 0.33864166300668314
Son@@ 0.07348774078251219
Supreme 0.09903720174332589
Under 0.07623901235264893
Where 0.3344903094714401
avi@@ 0.09093890755121269
ett@@ 0.046344924328130935
gy 0.14857488837014465
roc@@ 0.08371569784778855
trial 0.08160486635041711
戦@@ 1
237 0.9271460547650446
242 0.79613405411386
Australian 0.03385057580874103
Born 0.09586885653121739
CI 0.31705758514660387
Da 0.06082614305553525
Deb@@ 0.079208154388931
Executive 0.14967418342608108
Eyes 0.5146091989010848
Him@@ 0.16090895986051648
Hyper@@ 0.383246466044447
Ox@@ 0.19815137782651307
Prom@@ 0.17029141538947315
Shanghai 0.21876074189199202
Spar@@ 0.12856763099190502
adi 0.12159755266479745
also 0.002847198385980093
ising 0.06150556707477213
mid@@ 0.07513367447690475
neum@@ 0.27047399165706615
oral 0.1362664432924954
orr@@ 0.1683722389232218
plo@@ 0.2508265591819073
tual 0.22433099431606762
yx 0.474001800554379
宋@@ 0.28463529245712726
1809 0.23873193795573233
35,@@ 0.5886671596737734
787 1
85@@ 0.5678542739519102
Columbia 0.06560628003606483
DF@@ 0.2625516911242706
DM 0.2796339826633658
HF 0.26620156382195614
Imag@@ 0.26445226408046135
Laborat@@ 0.188334934826962
Lion 0.3419936106719911
Pel@@ 0.10137026025610243
Record 0.29163247666029063
Sat@@ 0.10423288936213136
Scar@@ 0.18398316732598088
Sym@@ 0.18062964731524675
Tru@@ 0.3060669023952792
Yel@@ 0.1833983307003562
agent 0.08684068590122519
atin 0.22904880811368072
brain 0.19581719550893778
ef 0.06988794167853912
inidae 1
jo@@ 0.06088703566832157
mo 0.06402094650272283
nia 0.1332121716410388
สิงค@@ 1
@@ 1
311 0.9356001899375692
About 0.13262066382033136
Aur@@ 0.11344682771955976
Authority 0.1875785633646274
Beach 0.091257340388917
Bub@@ 0.43548438837138426
Cryp@@ 0.46259891667285963
ET@@ 0.33112079077617473
Evil 0.5128732406119862
Forever 0.5395552311298953
ID@@ 0.5191522148445454
Lac@@ 0.14533804227785727
Memorial 0.10708437951807703
PO 0.5073841092026071
Show@@ 0.38577663437441495
Winter 0.09298000089294853
alt@@ 0.035831787065791945
chr@@ 0.13575245735248553
city 0.013436892921704737
dit 0.03621396305012628
esh@@ 0.07884306417373031
fa@@ 0.04021323136814446
graphy 0.14818066745845707
gs 0.04680861476145491
igher 0.3168400571549912
ight@@ 0.12903041059674308
kan@@ 0.0491407137869783
mph 0.37957419803846776
ographic 0.1294697104959039
ped@@ 0.09762137823757741
pi 0.2583549118961495
sexual 0.0822148101869531
view 0.04707704322196946
year 0.007444793435918576
yon@@ 0.19452003288950068
る@@ 1
小@@ 0.05332839820323074
1640 0.5421634181068349
1838 0.17908427616301167
294 1
54@@ 0.41482336555465954
Australia 0.025111795577733305
Community 0.10031173712733162
Diamond 0.29938378711027475
Dir@@ 0.15219645800576137
Down@@ 0.24739948721127247
Integr@@ 0.22148570083123773
Lep@@ 0.26413298968221777
Nucle@@ 0.3699511084866873
Ras@@ 0.13459116878799657
Simon 0.08133557604403914
Tas@@ 0.09697163626819068
Valley 0.05715240808219947
aly@@ 0.10129728156342173
ange 0.05670356476237555
atri@@ 0.10132069031630334
burg 0.03235357472082922
cli@@ 0.050551702789957326
coun@@ 0.049237630159605986
formation 0.039422710217232745
hic 0.1683358505041071
ju@@ 0.04266921864853266
nm 0.5919567370614607
oly@@ 0.3779638854533285
oride 0.2917343510699297
own 0.016391711801219615
reduc@@ 0.07537704743184478
ry@@ 0.17563896816207883
scale 0.09209825469694209
tos 0.03964702747121606
unk@@ 0.06741690947955108
zh 0.17254412255561027
π@@ 0.11085204632399909
รวด@@ 1
້@@ 1
う@@ 1
1818 0.21177611937342145
Architecture 0.21100536107461854
Fair 0.24386529973948756
Florida 0.05065738807327828
IBM 0.2429829271457472
IF 0.2948309275341096
Kom@@ 0.03484962693407495
Lanc@@ 0.17427991170271978
Link 0.35752674124362216
Mut@@ 0.14699063534121318
Neg@@ 0.16320385193127399
Power@@ 0.34759504592549123
Report 0.26679184740723283
There 0.015461000649820153
Whit@@ 0.07773633547427061
agr@@ 0.06821678540675906
ation@@ 0.1256644190221644
base 0.02457288867793766
cc 0.40353961411613953
che@@ 0.07696817762957009
cle@@ 0.051010686981495953
dynasty 0.17895097339362234
ging 0.032071162087644524
hist@@ 0.2006895542429526
hur@@ 0.07316451392379283
irus 0.5198601460985662
lem 0.11673206469855321
metabol@@ 0.35289145024082885
otype 0.1415604065243414
不@@ 0.029162416410028102
----@@ 1
1819 0.23659834797146181
213 0.7021379835994124
262 0.7804533740778083
74@@ 0.524798258599147
Assembly 0.06332290521076858
Ax@@ 0.1859123639678746
Beat 0.43114659585350745
Buc@@ 0.09178384188548087
Case 0.37550387667079366
Fle@@ 0.11308026386536046
Giovanni 0.15582696763955628
Gra@@ 0.09716646705605073
Gy@@ 0.23826522402430675
Masters 0.17729736508043095
Mill@@ 0.11525418682757041
Planet 0.3522735910934922
Say 0.5279952112872185
Ster@@ 0.11742772815674872
They 0.013640038439368457
West@@ 0.03842516606505529
Yu 0.35989607860447714
algorith@@ 0.2032598320364798
aqu@@ 0.052715446229020864
bon@@ 0.11672838461254968
cou@@ 0.056583535309291805
doc@@ 0.05759361144097252
dra@@ 0.05579951138964684
een 0.09516516261107776
fil@@ 0.04118900537338137
ges@@ 0.02506429485261166
last 0.020098838872843718
lev@@ 0.07619359179011254
lim@@ 0.04826470442412775
magne@@ 0.25258500376533355
nar 0.3588403355203172
ons@@ 0.0451339246350132
ox 0.4420528875677781
person@@ 0.05664058022087294
ree 0.09829051497104836
river 0.04670538802991537
xin 0.3861035898800046
ć 0.0882490883314636
€ 0.16398573461798407
河@@ 0.1474328318655563
白@@ 0.1017504236673268
1797 0.274461658127568
219 0.7528094645987676
272 0.9042549553885695
38.@@ 0.5467736005824617
AFC 0.2735048410634289
Alan 0.11853677254197874
Anne 0.07682736819838287
Flash 0.39957662374645236
Mich@@ 0.09878577871474185
Store 0.33425993758124184
View 0.3817054974941282
Walter 0.06617096981529397
af 0.1188440034619726
ais 0.034549509477627464
anic 0.34930617458528684
ano@@ 0.22884352096310262
arian 0.06856727494625614
central 0.02995049116307717
fre@@ 0.028840643192842404
iens 0.2684941636769137
oceph@@ 0.6939494533076118
ogen 0.09296717504698836
oria 0.1141826608865883
ostr@@ 0.260209929196376
study 0.04074654783098086
sym@@ 0.07790947831098691
urn@@ 0.0680337729919504
val 0.12428298157323674
wikitext 1
ο@@ 0.09388680840228691
ปรัช@@ 1
เวณ 1
ニ@@ 1
276 0.949929245200495
390 0.7956710404597775
4000 0.3113698636747744
540 0.7872492867238864
64@@ 0.41202528998783317
Bla@@ 0.14180229856442209
DA@@ 0.597538297579959
Eas@@ 0.17114564000281812
Era 0.22121521132964475
Ford 0.08312486218834181
Galaxy 0.3759118834305559
Heter@@ 0.5796464617623475
Kaz@@ 0.13765280153674447
ROM 0.6044173249213828
SK@@ 0.6032991883496117
Scienti@@ 0.21225795285402202
Services 0.1097955150164403
Set 0.3820949232869009
Tales 0.3780572696031576
Unit 0.23170018971607104
arium 0.21454046967915638
ca@@ 0.11117100900950719
care 0.05724033755702465
eal 0.26719613161673367
ekw@@ 0.5827538448563312
erg@@ 0.05857267604065735
fic 0.18893175967957437
find 0.060569966301823146
gio 0.1079606618748718
ington 0.043653658932013374
kins 0.08743651331964876
nam@@ 0.04429238506566032
nd@@ 0.08930693618970982
nes 0.03676226096554728
oll@@ 0.047922210782888636
omb@@ 0.12470960564578315
platform 0.09644620875458816
sed 0.035986963659612584
server 0.22593979009431941
sm@@ 0.07961790888625613
tin@@ 0.08178429378698655
uld 0.16431984734132318
zy@@ 0.08858569562726837
ฃ@@ 1
家@@ 0.10933115561621087
馬@@ 0.14543357762443174
1833 0.1860648894935822
229 0.8097671600644932
268 0.9129171713318712
278 0.9481838227170692
39,@@ 0.6808891404211345
Alice 0.1350761259112015
Bob 0.08083383675927573
Boh@@ 0.10857169500070434
Bom@@ 0.09644243546536574
Bun@@ 0.12622898243505115
Ca 0.696833369712329
Cold 0.2812982356436184
Crim@@ 0.13572820401713898
Devil 0.3727485377648001
Docum@@ 0.31755964764225275
Hot@@ 0.14281997183574213
King@@ 0.1959420040838052
Main 0.07751767235030348
Nation 0.17455922615107325
Oxford 0.08022596204863733
Philip 0.11483481917069005
Russian 0.039392139808299295
Williams 0.05789966955737753
agus 0.3650202024363143
aves 0.04774563468729592
ball 0.04316975647338304
bury 0.06323602957882907
eman 0.06568013697787797
ign 0.19614544838212594
ingen 0.032236421084515986
je 0.03723951809221745
most 0.007932395219773845
ord 0.07395681999674085
ples 0.037383342214734536
round 0.026809360515641787
sho@@ 0.0455423700404388
toon 0.29690604549726407
tuber@@ 0.30186896142375846
ures 0.04185479208375111
vers@@ 0.035258877098498634
wi@@ 0.07563154754039096
สโม@@ 1
อัลบ@@ 1
เติบ@@ 1
ប@@ 1
生@@ 0.06450784438347085
1642 0.6441090580229889
269 0.9487309581375667
Arc@@ 0.14077085141519427
Ball 0.18828015908367776
Canada 0.022811101292881573
Democ@@ 0.09549271958475455
Europe 0.02222525758200527
Facebook 0.2008997951441388
Gil@@ 0.09043842654034838
Mont@@ 0.045372955222571
Mother 0.2622609069721019
Net 0.4789040138922255
PN@@ 0.2832906319643582
Pir@@ 0.09027336252596327
Princip@@ 0.15668744962369366
Singh 0.15977238632656515
Talk 0.4304150752341814
Test 0.14606796949969686
aging 0.06197943793791333
andra 0.20287059959006487
asure 0.20706163062297556
cells 0.10180329935576198
chen 0.022779645960827623
date 0.033456886283887245
mit 0.0020010045931309383
nal 0.302943498001107
pot 0.12345757564897125
que@@ 0.07126657518414488
range 0.041051173303645265
rent 0.08106930377918294
rey 0.039936014709873895
tionary 0.20451594708677082
unt 0.10511738940718751
ware 0.13937133519113437
wil@@ 0.06552810968171668
に@@ 1
1644 0.6370802306685203
Butter@@ 0.41107881235523686
Clin@@ 0.21775296665329588
Concep@@ 0.29777100130868167
Dal@@ 0.08807829967600264
Morning 0.26356333922380437
Nu@@ 0.10635431583614127
Pad@@ 0.07846125618550914
Pseudo@@ 0.7559735033453239
Sunday 0.11114610133401548
UM@@ 0.49235139638315684
Ye@@ 0.192844621537998
aen@@ 0.5565841231050205
anger@@ 0.2573644569112916
ceph@@ 0.4354083865877558
col 0.3295303909420993
eer 0.08939106627039566
ening 0.06433735632174199
hel@@ 0.03821205487977582
ils 0.015830567240188113
istics 0.11372486346542648
jug@@ 0.06135219892625007
onidae 0.6446109648741366
temporal 0.44035159402549756
thing 0.08209036507297594
win@@ 0.10551083224854406
yan 0.08704589466302158
อังก@@ 1
1609 0.7198967747228069
386 1
401 0.798944952278955
Amaz@@ 0.2138419856343249
Auto 0.23345313399544707
Band@@ 0.11221982693761916
Dog@@ 0.21502391389941683
ICA@@ 0.6187288550382901
Johann 0.05063492092289179
Jour@@ 0.3588914786948588
Orange 0.15125943407571646
Pharm@@ 0.34375123875495484
Phil@@ 0.09006577722021336
Province 0.059665763898691375
Sl@@ 0.1437077434563357
Sug@@ 0.20439239656714644
Systems 0.15673532753781047
Texas 0.035650959214378865
XP 0.7397304332107213
achi 0.183158188384498
ators 0.0399415973392022
bat 0.0824836779982302
cros@@ 0.057051196249568344
dan 0.04800591933065996
hat@@ 0.1086942224518929
rem@@ 0.025175843423453644
sort 0.08701254593698443
tern 0.05590994641163977
trum 0.16856072619762652
unit 0.05371225837482481
vis 0.1193515282720624
་@@ 1
1772 0.37000957720735794
2030 0.7234793734209115
34.@@ 0.546745821320212
98@@ 0.5771065512751401
AH 0.55049103668549
Brian 0.0973466510402342
Flu@@ 0.11898986403584638
Greatest 0.41373815324748736
Hus@@ 0.09981817734008741
Med@@ 0.05783875618016516
Mun@@ 0.0891819310473142
NBC 0.1494006845469543
Pearl 0.25093800035272934
Police 0.08588980164769032
Suz@@ 0.248845407845764
Trich@@ 0.41066102152335987
WT@@ 0.4517191246018982
Walk 0.4052177973794567
Wilson 0.07275943445557778
cat 0.23772358107426617
dig@@ 0.050302370748421726
duction 0.20805421571058527
eck@@ 0.04476273643219703
eye 0.10574973409085138
iny 0.26219320639626603
mir@@ 0.07691454567378832
olin 0.41879753833183053
osper@@ 0.6475499693174205
sar@@ 0.08577588944391354
service 0.015460483317366668
tain 0.06288785308665848
tural 0.09336694243771626
ß 0.05512574769362407
ı 0.053012658239614964
จำนว@@ 1
フ@@ 1
北@@ 0.04276332925236206
的@@ 0.22290706864057364
1620 0.5443944384637177
1788 0.3061383525187573
257 0.859703368596679
33.@@ 0.4920779580950681
Antonio 0.05169324563801128
CL 0.38368045502046766
Centr@@ 0.17068203734265067
Electric 0.18497618699317342
Eye 0.36556439081841063
Foreign 0.12166864934295973
Ma 0.17747723510957683
Mach@@ 0.09374592898133209
Military 0.09417890896696843
NH 0.4490729872137066
NS 0.17781068776779932
Style 0.32076897758828954
Symphony 0.21702781346424913
Trade 0.1676006462962742
Zhang 0.2701677387055961
alli@@ 0.04495159032910295
chain 0.1410120589336616
culture 0.038418803914162684
ders 0.03706196734812323
eas@@ 0.055201729427509616
hex@@ 0.3132859921314454
horn 0.18612319342802233
induc@@ 0.10445917554502587
itus 0.24519528827125278
lip 0.12804922550335673
long 0.013377198290416613
mol@@ 0.059894676876838616
nch@@ 0.2265665235870758
parti@@ 0.0327055650217175
uf@@ 0.047172987306718456
uo 0.13738633044061904
venture 0.11205243655048232
ภอ 1
ນ@@ 1
1526 0.802029654359781
1688 0.5922125956102106
37.@@ 0.5534800909191865
620 0.9623097235042302
66@@ 0.4076799503686736
Ach@@ 0.08612872947344642
Aster@@ 0.22277792137462918
Bar 0.15770388631840476
Cass@@ 0.149852413168082
Cou@@ 0.12646182003440903
Dat@@ 0.2231739571531087
MT@@ 0.36361775033680954
Ngu@@ 1
Note 0.16537577274726253
PI 0.38009696989028957
Person@@ 0.08926808339735663
Phoenix 0.17735547186769252
SV 0.11221054501511822
SV@@ 0.4393130028385894
Server 0.43154817970004294
Vision 0.31350993017437984
aca 0.0793183695046346
ancer 0.12834927949620098
asy@@ 0.2676349207516633
bus@@ 0.05939178869206244
eld 0.07784479180427947
eps 0.10578606972775162
folia 0.3350611024507836
gate 0.13350706742547866
hu 0.2908610325461659
human 0.040365353014494586
ige 0.019006615666619084
ition 0.04371161005806287
oration 0.08587497306376218
ras@@ 0.05245916728585229
sle@@ 0.10762922420928407
thal@@ 0.4514922974263893
vector 0.31399152173263656
web 0.08690334017768207
yond 0.3811965929233255
ราชิ@@ 1
หรับ 1
と@@ 1
德@@ 0.04116227209338216
1453 1
1829 0.18841959448189488
261 0.8422778780251597
33,@@ 0.4719664861718923
63@@ 0.4475018739553003
Anime 0.5186843349459247
Bau@@ 0.01922404209964277
Broad@@ 0.2391264478736744
CF@@ 0.2297611459710871
Chamber 0.23035746698333293
Comics 0.15984991154985045
Hul@@ 0.2402318313684983
Other 0.03647139549588834
Resp@@ 0.23673998498693202
Review 0.1463348785509524
Tai@@ 0.1677294662772231
Techn@@ 0.08156266247176248
Together 0.2135812648116523
Wood@@ 0.0785902557299735
antum 0.2518950582457935
coron@@ 0.15122335322495903
eur@@ 0.10313415907639731
ista 0.023309411279383397
mes 0.027083990334821808
mode 0.09961729810343409
nec@@ 0.10033409220194285
than 0.008065628435848817
thor@@ 0.11342565769795904
uchi 0.28285034747324184
uli 0.23500038909558402
vacc@@ 0.20044668229084997
wan@@ 0.06433757465901303
wen@@ 0.05139646815941443
yd@@ 0.10909735490234182
ຈ@@ 1
り@@ 1
仁@@ 0.35954952567405374
233 0.7428656424268109
266 0.8335284780201149
279 0.9243380464846623
35.@@ 0.5332537835877281
BMW 0.2733357456428043
Corn@@ 0.06877648182888445
Dog 0.3150771872552988
Eu@@ 0.19569527212423748
Fat@@ 0.26309564720188505
Franz 0.07354801263516396
Infin@@ 0.4377790311608289
Jum@@ 0.29350804974814393
Kum@@ 0.13288340252307093
Lif@@ 0.25607591842198885
Ori@@ 0.10093147820144016
Phyl@@ 0.39836276414856236
Premi@@ 0.1631286780522698
SN 0.5126970004329149
Seg@@ 0.0747891335914161
Third 0.1279552777754707
Warriors 0.3225032926205809
acea 0.6330340026374052
bet@@ 0.07092348769988835
cast 0.043930616588745044
chen@@ 0.05965687157612667
cy 0.08399511073607434
din 0.10418481864916078
each 0.014221761029703128
esi@@ 0.11742567770047903
fire 0.03836861230600875
force 0.03186853452746416
heart 0.08846927368877273
iness 0.2021993207850699
ion@@ 0.0791336505549067
isch@@ 0.036171866995451864
meg@@ 0.27218557871046856
og 0.10482388231146336
oning 0.142154842732891
ophy@@ 0.40875456489496964
pil@@ 0.05048543301592824
plat@@ 0.0489420206203012
polis 0.13543107019325995
spin@@ 0.39767458824829804
versary 0.4596718393497903
vor 0.011308196354786009
wer 0.04386672350879023
ything 0.1403790226635975
デ@@ 1
世@@ 0.12578276269359387
田@@ 0.14579179302615028
長@@ 1
19@@ 0.21985715163478298
318 0.9386142635306901
Angels 0.30488172281822745
Another 0.0671184449237989
Cher@@ 0.11513528935647806
Gallery 0.12532403070988526
Hang@@ 0.30693932899870546
Miss@@ 0.17245519772617945
NBA 0.08211147895590495
NFL 0.09286605155847924
Pass@@ 0.08056312324064743
Pink 0.3215509418489684
Son 0.03141459020196847
abor@@ 0.08122769970155184
amus 0.45672998811160304
blood 0.10213926248406267
bos@@ 0.10985927134369156
cav@@ 0.16666906832078743
ild 0.14627007466251926
kal@@ 0.051637738528112063
kers 0.0738855440935179
mus 0.15367496186364898
nh 0.7854108921461355
omi 0.24659294467209808
oster@@ 0.6174100671331499
ova 0.06644981994223229
park 0.037121302766536836
software 0.08336454686654443
ticul@@ 0.18195892946683864
uh@@ 0.06861568723677498
uss@@ 0.04377594658476492
worth 0.05428153637553452
xy 0.29418827847407086
キ@@ 1
1610 0.5808613283711692
77@@ 0.46364432916128284
79@@ 0.5310491215449666
960 0.9004678311697004
Bad@@ 0.07047897452379882
CN 0.39373112261134846
Cent@@ 0.13664833398928633
FL 0.08888865696277795
IUCN 0.4368309725460586
Lag@@ 0.0958905901525223
Magn@@ 0.24793490301963025
Major 0.06072761175287033
Mam@@ 0.1497109043335064
Mik@@ 0.11289178822876583
Samuel 0.08537521469368861
Stap@@ 0.36817997400890096
Victor 0.09283364231239911
Victoria 0.05495543887504088
Work 0.1906318353155003
aire 0.011117272926565499
aze 0.2630829660682106
bac@@ 0.07303774653877478
cep@@ 0.08197995899565884
fier 0.09336790499855624
fos@@ 0.12786316462838454
ification 0.11916190034605396
kan 0.11632179084961711
local 0.013596532087719786
lot 0.04691976171916588
melan@@ 0.5393639506904486
path 0.15201882091146715
rati@@ 0.05963321457012331
ring 0.05017859356662844
squ@@ 0.0704466582088093
tan 0.03809139221356034
teen 0.050944807247957996
ตราย 1
ปุ่น 1
ງ@@ 1
ុ@@ 1
1770 0.3118487110060502
1827 0.20282592950552103
283 0.9003632961318857
298 0.9611494754652813
39.@@ 0.5349140907004064
470 0.6528049068981797
And@@ 0.24163410435382984
BW@@ 0.3817211566509635
Blues 0.14993045528852741
Chang@@ 0.21436496646971284
Charlotte 0.1200934369265517
Christ 0.09844711327789987
EG 0.4064752756207704
Hits 0.30429161423835854
Kid 0.33586036666116265
Pa 0.5149154416875512
Petr@@ 0.1093991272887312
Prix 0.058249476765481166
Race 0.18100859671397113
SF@@ 0.25979584831883346
Ten 0.1494358004999633
Tok@@ 0.26306507630708126
Too 0.4482193789985647
Yang 0.24887720023740414
address 0.13991891802367645
adu@@ 0.14713434325438454
agi@@ 0.16691351855181363
ame@@ 0.08583763378333238
between 0.0067167211406219856
car 0.02072028318223157
card 0.0936532522339249
cit@@ 0.04647144565454998
dynam@@ 0.11067523430842538
elia 0.144441984325781
enberg 0.06008915665242868
ference 0.16851218312443683
gold 0.05168337208585549
iOS 0.4278801392970441
iden 0.04670662748939588
orus 0.2969471970208828
plate 0.16927126389773173
pon@@ 0.053491033047875884
sig@@ 0.02566605413305079
sions 0.03256007769340119
uru 0.17436202690692648
versities 0.13052067130228098
vo 0.048433711394937504
vul@@ 0.16641706718990995
モ@@ 1
和@@ 0.11396551415329802
陽@@ 0.33469333849084615
1787 0.2897990859101624
248 0.7873955000844702
Aff@@ 0.10378542872616615
Anna 0.06514470940363756
Anthony 0.09537002128103848
Att@@ 0.24753106809230502
Braun 0.48262733178423783
Buddh@@ 0.13614309348377543
ED@@ 0.3198230385643957
Industrial 0.1844240466583116
Jar@@ 0.10419290022061545
Les@@ 0.08658383566318065
Level 0.316751758885816
Mathemati@@ 0.15731967660871346
Mix@@ 0.21348410901750628
Mount 0.06838871879689268
Myr@@ 0.264849327130231
Philosoph@@ 0.16940201447037187
Psy@@ 0.210655833162613
Sam 0.09408603151795161
Touch 0.5580858738843798
actor 0.04096513416515277
alized 0.059396571311103534
aries 0.037503326293099874
cryp@@ 0.2656989662738988
das 0.002288844134143666
flo@@ 0.032274978168354077
general 0.01586884946770161
hat 0.0136328524212783
hood 0.06590518340518405
ingu@@ 0.10604518912679287
ision 0.0765079353460345
istr@@ 0.08515557607005637
lit@@ 0.055469731200062926
machine 0.0908657406844037
ole@@ 0.27675796742219183
thus 0.047267531666438066
ù 0.3509067079548641
ยึ@@ 1
င@@ 1
1550 0.5257045606281053
1823 0.20281154887538289
236 0.7637858443014907
263 0.7997084911461825
321 0.7690582172221788
Austria 0.0795133957876633
Building 0.10222583085831137
Ceph@@ 0.6050971997696553
Chan 0.3329903890597759
Di 0.2241349724911336
Ec@@ 0.10943620012694118
Guy 0.1363213327432993
Hope 0.1926690083592558
Medal 0.11307846445480661
Nin@@ 0.18633015205398004
President 0.02635418062032315
Rub@@ 0.11104385618123008
arm@@ 0.03815678886223731
chlor@@ 0.2516342723961188
cio 0.061637441321507044
dea 0.1836664261003769
ete 0.0339400951041848
idal 0.3530639985033803
ingi@@ 0.4307631391267835
integr@@ 0.044019915352956254
orient@@ 0.06486902803822428
plic@@ 0.08405234981683381
sert 0.08469754179980334
start 0.04141192655934395
toc@@ 0.30147330599186056
uke 0.27371490067685333
vis@@ 0.04063197089077303
while 0.008976746686980666
zer 0.06570931003805919
1592 0.7533640833579683
1683 0.6049849315307432
254 0.6679928055221747
289 0.9443035751032685
510 0.8863319407564011
560 0.7477249024791003
BT@@ 0.34459971031226444
Body 0.37457287420043
Cham@@ 0.1323511165484971
Day@@ 0.15666013321836147
Dig@@ 0.14920238549776227
Domin@@ 0.0771991163249877
Forum 0.19096602518589936
Francisco 0.03289657477223814
Frederick 0.10564237674939098
Hav@@ 0.05554309533616147
Northern 0.04788097385015439
Pay@@ 0.15776180781142843
Plant@@ 0.26824917481931254
Private 0.23667301847111663
RAM 0.37087065127603974
Six 0.12971052731530722
Sto@@ 0.0652831262554834
adap@@ 0.09866930584391241
brach@@ 0.27552820269148054
count 0.1209277066117277
emic 0.4924722442310716
fir@@ 0.03917022168830451
green 0.07747258944823256
high 0.013358117840997349
ino@@ 0.18348371399976135
intr@@ 0.11853385693063702
ked 0.03975790510666039
main 0.016034742740303157
mb@@ 0.06684307345684083
prise 0.09774104188114778
sign@@ 0.06115693691053893
volution 0.2840021663557855
zz@@ 0.12025978794976794
張@@ 0.14828056098429104
COM 0.47127049644002855
Chor@@ 0.1212315671736239
Coast 0.06778385323182064
Comic 0.340927255663071
DOS 0.41023050107654774
Gos@@ 0.17695644023011356
KA 0.3088999056976347
LM 0.41546971564968377
Max@@ 0.15558422623754245
Milli@@ 0.12121650959622257
Plant 0.28051191735329883
Sens@@ 0.36811193499589134
Storm 0.19787882442439317
Sul@@ 0.09843049541715654
ango 0.12044160953487686
ban 0.04318719003244143
born 0.007322096788285809
common 0.029538145619576725
ends 0.03415572501718768
ester@@ 0.09038753901244517
esty 0.24434296019022242
gam@@ 0.11349528182500625
glut@@ 0.5583384351392733
iidae 0.7493000681228749
iki@@ 0.47293000681387243
iss 0.09607520742737533
lor@@ 0.1645135690788974
oko 0.19185954877284186
rier 0.07990587231128472
ฮัง@@ 1
ễ 1
年@@ 0.051347880822307596
1250 0.6317729095116573
1350 0.708932946442477
1689 0.5230651060994747
Ah@@ 0.09044757901775638
Alfred 0.07824769799289787
BL 0.24674226430861124
Clo@@ 0.1983351453908297
Dru@@ 0.12910183657123908
Friday 0.19528346546147912
Fund 0.15900187687195103
Green@@ 0.07902888224301916
Howard 0.08836647354344476
Jack@@ 0.17095364797622714
Jung@@ 0.13506662029071057
Lang@@ 0.048580975666219016
Lem@@ 0.11859343700153369
Musical 0.18811823914983442
Nas@@ 0.12678674664768275
Shadow 0.33966380975854055
Singapore 0.1080837136935328
Tab@@ 0.06535336250633031
Um@@ 0.029099544839499128
coll@@ 0.04392601105570085
depend@@ 0.05817853222394732
differ@@ 0.06278294770453408
ences 0.01685139090704899
enger 0.12741871870399152
engers 0.3246821103921606
fic@@ 0.03389417951078257
generation 0.08563388273463692
ift 0.18205280525047343
live 0.027676934999744968
neg@@ 0.04629767105133916
period 0.020717359583107293
process@@ 0.12663056168108022
pus@@ 0.40114397459361345
rand@@ 0.16339519412459633
sian 0.07637294613273427
struc@@ 0.048429365051310604
there 0.007874058650175033
ube 0.1489694755181759
ulata 0.40546434917661456
Ö 0.3368926874001451
å 0.5155486266634575
ィ@@ 1
司@@ 0.18497561277252117
32.@@ 0.4758636581918245
324 0.8946438524294704
404 0.8497686100388652
530 0.7369141715856757
Affairs 0.10876203460203952
Bag@@ 0.09272020024241899
Bru@@ 0.06414709846179693
Cuc@@ 0.6114625963743248
Gran@@ 0.0864143711818434
Hans 0.05006853930903719
Industry 0.19854978205501975
Lou@@ 0.0761933707991264
Moore 0.10063535514788463
North@@ 0.06295245067328374
Pau@@ 0.07268836844243759
Phan@@ 0.4005245561635761
Professor 0.04356967364665672
Publ@@ 0.09629555169460363
Pyth@@ 0.40561942416090785
Ryan 0.10915586012898824
Song@@ 0.2440089914144182
aine 0.03412606842986586
ament 0.1503950607810112
bol@@ 0.056387435893963174
cial 0.07061645357071776
cir@@ 0.06660752614140286
endron 0.6568038059741053
idea 0.04795468528298625
include 0.015408694589060046
lac@@ 0.12936174417493465
learning 0.10574124545225369
she@@ 0.08702915336865001
ump 0.16558607786002608
ya@@ 0.29883567797064114
ชุมนุ@@ 1
เดียว@@ 1
ေ@@ 1
ិ@@ 1
。@@ 1
く@@ 1
ム@@ 1
法@@ 0.050385878340635695
花@@ 0.11306233157190126
1598 0.6305154211743658
1816 0.17530269426507353
49,@@ 0.6058025081339239
630 0.7239679616827785
69@@ 0.40643960765182885
Adap@@ 0.2830716317227548
Bang 0.30480572108358434
Christopher 0.11329774356283441
Fine 0.1730410960238788
Four@@ 0.1168035935811469
Indi@@ 0.048170742686567146
Joint 0.2163105931260639
Movement 0.16235471211485
Ny@@ 0.14273047497152389
Od@@ 0.1151017892826614
Pent@@ 0.1946374442738375
Pet@@ 0.11234607585215975
Sex 0.2933126439427615
Shane 0.3886252095271166
Sz@@ 0.08235446702004391
Tat@@ 0.1202435592294535
Zo@@ 0.13364807828507552
architecture 0.068470392566033
away 0.026977917791770233
awn 0.19621028840103483
bal 0.07067494978712366
benz@@ 0.3524453230166273
blue 0.08965915359454703
colum@@ 0.06428368410955781
conn@@ 0.03310142411955851
current 0.03135575571953412
energy 0.05678361686614716
ept@@ 0.18292425607160387
ester 0.04479409212905703
grav@@ 0.052297844310320994
hibition 0.17625108769237402
hypoth@@ 0.13859428819194552
junction 0.12826783164211444
molec@@ 0.12018963470085219
negative 0.10358690971832876
petition 0.13536238059957223
phi@@ 0.19200902183403104
ric@@ 0.07013267603570815
sit@@ 0.03328666332700478
soci@@ 0.03345687806077934
source 0.04195304262930255
stimul@@ 0.17976651785377604
tail 0.06964950994275795
tari@@ 0.07505033423445741
trav@@ 0.030595400880573886
tun@@ 0.08565085057324341
ux 0.0505930487728308
vic 0.1284836359774598
xx 0.5342354223039008
yer 0.03325074185066017
000@@ 0.3628958253914601
1811 0.194068742733328
231 0.6072611466532459
49.@@ 0.5591516889642041
Alex 0.10125830104803847
BR 0.3219296131918838
Coc@@ 0.16143055696637978
Dam@@ 0.06126701732344972
Davis 0.0675947867117126
Doc@@ 0.12044195686934875
Dutch 0.05870765854065454
Fort 0.05035551472708174
ISBN 0.6476855423280946
Independent 0.11355094348274401
Merc@@ 0.3142236789512538
Pan 0.14873484615149216
Spirit 0.2328355674165899
abase 0.23662498430247658
aming 0.11129828031218839
aul@@ 0.06738129845876142
ches 0.019507826501303522
chl@@ 0.3373074078672764
coc@@ 0.10137146655021557
cro@@ 0.031032716328768584
ecti@@ 0.24893427648493127
heter@@ 0.21863818840687904
idel@@ 0.13154786918780595
imb@@ 0.10093553067209383
kel@@ 0.05623206691910724
lands 0.036504414154115254
otus 0.3705376503522639
science 0.04571806266646272
sun@@ 0.07454565253083749
tian 0.11135028803057095
vous 0.14534140435338455
zo@@ 0.12112576734540585
ë 0.21185464893564107
ū@@ 0.08070230562369957
คณิ@@ 1
យ@@ 1
ら@@ 1
サ@@ 1
君@@ 0.47242305333722945
1780 0.24015134149837392
610 0.7087957173050677
760 0.9734412149444371
Airlines 0.14812132049964108
Cad@@ 0.10288572789624288
Fav@@ 0.23832503299561153
Germany 0.028114038717739185
Gray 0.16165588594018848
Guide 0.2314201630977578
Hid@@ 0.1406017271749622
Marine 0.06982986498319181
Roger 0.08006472634295488
Soviet 0.04202264078575419
andi@@ 0.10609830819404163
bird 0.12494494384554958
ched 0.034788096072043966
chil@@ 0.12543716792499376
course 0.03176992354874795
det@@ 0.023563626755566933
double 0.04473857764550194
ega 0.07257461847133022
eh 0.09628721205195374
enta 0.036260358649630044
evol@@ 0.06203601830810221
heim 0.03952822135221849
illing 0.08512347732129244
lied 0.07462948374551229
mul@@ 0.073170746814132
omor@@ 0.27077077773830044
onal@@ 0.06033801543932224
optera 0.3362826866717206
stage 0.02962685024808856
vil@@ 0.08449080806640424
whe@@ 0.06744725509653797
á@@ 0.012378659811536727
ă 0.3159197331399461
β@@ 0.067955853437339
เปลี่ย@@ 1
宮@@ 0.43146667265390504
福@@ 0.09182401672517396
院@@ 0.19191703299792812
1450 0.6254282061008185
293 0.8318387836353301
84@@ 0.6316830620018177
87@@ 0.5167928008375476
BD 0.3163422102491699
BM 0.38501880114966924
Bin@@ 0.20210816811512897
Emp@@ 0.08339699337711677
Fall@@ 0.14227260632675104
Fir@@ 0.09467232789144626
Hard 0.2834440269564137
Jam 0.3979028286523803
Ki 0.4270516820865186
Log@@ 0.11220472620350579
Myster@@ 0.29798795415329854
Nur@@ 0.14094012493234817
Orig@@ 0.12266313347867888
RE 0.3799615713876106
Revol@@ 0.11056583948027573
SR@@ 0.3271891309171091
Smo@@ 0.2653222225854215
Stor@@ 0.1358400570760679
Us 0.25635663139550974
Vie@@ 0.1173114154250532
Week 0.13166280094391544
anga 0.10336088776594293
dre@@ 0.03332976877695144
engine 0.05261993750125391
enni@@ 0.0892681097033065
eper 0.08453102292019019
etus 0.2991012986687727
gas 0.04936410999482182
growth 0.06694782707350282
nuclear 0.09645293003205159
quin@@ 0.117669310580557
synth@@ 0.13307651865773287
ths 0.05857860105554614
usi@@ 0.062172597701349704
上@@ 0.04007365298182967
成@@ 0.05734346451185489
1540 0.5321441254780868
1643 0.5921115186708151
284 0.7594473826430019
297 0.9009711707853097
680 0.7662384592888732
Ant@@ 0.0664038973594156
Before 0.07463427030739773
Cand@@ 0.18261183027001376
Chel@@ 0.216495360780135
Heavy 0.3143265900245808
Kw@@ 0.3523725861791143
Low 0.23480372330229135
MD 0.20884919438064037
Madonna 0.2101279483739024
Peri@@ 0.15299815883902812
Ses@@ 0.1694819694810914
Tap@@ 0.17855065190961988
Terr@@ 0.08922679881211208
Training 0.12581248886912658
UE 0.35963694553414255
Was@@ 0.13695979055284038
XI 0.13014372272481523
abe 0.07166331459733143
ads 0.049268399212454995
ances 0.02106627358679084
apping 0.1258066801907297
asia 0.16692582754980956
ayan 0.11484760344779574
bian 0.08860474643203975
bridge 0.041936076373063416
dog 0.1438654112817488
err@@ 0.03757546000886802
func@@ 0.10724986062593345
ices 0.030946595052481624
idge 0.0789001971543633
isi 0.06364559880325624
lit 0.08790387981789793
lose 0.09071258535371222
mad@@ 0.059769362909640474
master 0.05342935703770767
olls 0.1745721832867635
plant 0.04248477832123588
pter@@ 0.5631349113257608
rid@@ 0.0597772300253836
season 0.005857270681724091
string 0.18062423498098176
three 0.00613939869232204
tile 0.07988558220237733
used 0.006018648151626821
uta 0.0890448544485903
wall 0.055074018411041314
won 0.009341264196422457
อำเ@@ 1
ង@@ 1
《@@ 1
コ@@ 1
テ@@ 1
五@@ 0.06318836661587655
정@@ 1
1521 0.6619626137462697
1661 0.5430482919875631
273 0.7725110151708
287 0.7434119073304264
288 0.7346201266398872
291 0.8606528351242045
322 0.7629787006121748
356 0.8787759765118515
570 0.8251940436923962
Ath@@ 0.07578994401989998
Bern@@ 0.061715570905323335
Bros 0.6177609855048254
Camp 0.1163433860151501
Circle 0.23722822026566395
Contin@@ 0.20531498490115138
Crystal 0.2679297297498567
Form 0.05886726774906015
Fort@@ 0.1422883516342104
Gh@@ 0.09141215323388394
Invest@@ 0.1845451206664014
Kelly 0.10712334464774692
Mass@@ 0.08737858441727464
Otto 0.07139854074947317
Rad@@ 0.04325704700901847
Roy@@ 0.10666897239582245
Sang@@ 0.19823734434924029
Taylor 0.06218620832952095
Track 0.1287149526728858
Vamp@@ 0.3542401109985097
WH@@ 0.32121686930977245
Wr@@ 0.2653923865195663
abilis 0.7970402497466468
ank 0.20824261862683904
eping 0.08552413666378166
ished 0.026070754517984768
itz@@ 0.046088482973406904
led 0.011115573463983081
nar@@ 0.059539413966242
olep@@ 0.7707882378611214
phone 0.07288604252035953
rat 0.042546784748657085
ric 0.14138838754854138
square 0.05677605849527956
test@@ 0.07958872673642896
tot@@ 0.050401184182599375
unda 0.0876228236805123
var@@ 0.046240895428635645
č 0.2617285678947476
ě 0.8007808889511846
ナ@@ 1
パ@@ 1
方@@ 0.0889034738406232
1492 0.6794356141248918
1760 0.3295016769086246
299 0.8108606483925282
338 0.854837064094822
Allen 0.08724607830995444
Brand 0.21268327611871582
Command 0.12325627495993129
Critics 0.27597018487168873
Fighter 0.24866393217370866
Flying 0.22805889110338853
Hyp@@ 0.22805109048459307
Inn@@ 0.09374391622071164
Metal 0.14238460858086455
Rep@@ 0.16747175266964479
Sail@@ 0.32398569811009104
Say@@ 0.1592476666007658
Suc@@ 0.13471065253836492
Ultimate 0.32447448322987943
agram 0.39953867753753186
aking 0.06918871862321577
etes 0.06737472457047715
hormon@@ 0.46962750450148366
ilk 0.051780644540892304
inferior 0.19070683565709115
modi@@ 0.051488931048015774
oka 0.1842916048816287
osc@@ 0.26109420744860445
prol@@ 0.10809240503891059
spot 0.10912649854178705
star@@ 0.060949827967890696
tos@@ 0.2552810062757754
vus 0.36841009428968435
wak@@ 0.1010181918669045
ราจารย์ 1
เจด@@ 1
ိ@@ 1
京@@ 0.17060867414904396
真@@ 0.1203429751619072
1781 0.29933645058019115
281 0.710496769118453
335 0.744968202310927
406 0.818318775401102
Af@@ 0.0954092577701219
Alo@@ 0.3263394616600679
Anci@@ 0.11977752975821357
Cambridge 0.07207977627872451
Chen 0.2139546453503814
Daily 0.12046673628082495
Gly@@ 0.32137769600923377
Kings 0.15109125300030884
Las@@ 0.12739080736272987
Lewis 0.06750290194128254
Local 0.11375301441927523
Pyr@@ 0.15490460053689456
Tai 0.41561878121679413
UEFA 0.08556936565404803
Urban 0.16188202832596882
VIII 0.11693377444160222
Watch 0.2710742960296558
acker 0.12806118764906027
aeus 0.30860229344677026
ason 0.13444708135240474
cole 0.6368740715555269
cut@@ 0.05943672022529285
dle 0.16077307161124543
domain 0.16109707626248826
eros 0.0411855176328336
flora 0.22065884869533514
gu 0.39399175618827736
iga 0.09120598297478087
imo 0.10090859865743723
ini@@ 0.10279367496348714
now@@ 0.06488037907008128
onian 0.09519029179866602
oro 0.05623821918507906
pressure 0.07337699731805467
proc@@ 0.049811594887722625
program 0.024330905140086078
tius 0.38479627802651817
yon 0.12653289097089346
Đ@@ 0.06574089757771712
士@@ 0.12098276498945122
水@@ 0.046138510103910374
1777 0.2869999269782363
1778 0.28038691172329977
Academ@@ 0.16147653843601206
Bruce 0.10188879614005263
Captain 0.07444597019252384
Chief 0.05046469786691579
Dra@@ 0.17150340754151008
Factory 0.2795876434621771
Fam@@ 0.13286670959181493
Jam@@ 0.11073052884415732
Jason 0.12210613661778695
Jay 0.14082456932360438
Jerry 0.151292253496959
Mario 0.10362986924653075
Seoul 0.25530826870111556
Tell 0.36089972834457873
UNESCO 0.17141326238833654
Vil@@ 0.04633197305270059
chart 0.06360237877022105
conduc@@ 0.04844206205698348
design 0.025343678284820467
dis 0.116031458416484
edia 0.22350245319994513
enny 0.11866064494751165
esa 0.029062862861377086
gun 0.0636946141914092
iger 0.028371534077051293
ince 0.15681955064153488
isions 0.06738845760565568
lag 0.05142843894300289
mass 0.07330347942465679
ocol@@ 0.16966976680169604
odes 0.12710807761129916
olar 0.09664187791535633
osh@@ 0.16742245627946864
othing 0.12419403704493548
ratio 0.16386193197938395
shar@@ 0.0641835096314956
speci@@ 0.04549780329675108
suit 0.05159136031281683
tran@@ 0.05032510707967238
troph@@ 0.13507067605138695
vi 0.09373833675393822
vil 0.09153098003055633
vin 0.07136373955651668
ดัด@@ 1
း@@ 1
寺@@ 0.6735192421011358
市@@ 0.08640719013973025
春@@ 0.191291198231707
1651 0.6116828365552958
1763 0.307254652727578
1784 0.24229487866481278
Abbey 0.16766242529945324
August 0.006939058606524244
Bang@@ 0.15648615061885426
Bod@@ 0.10350128648775321
Comput@@ 0.41896003053311576
FBI 0.2090590454446168
GI 0.38305556895458587
Glass 0.29943082426393614
Jane 0.09633386858128876
Kab@@ 0.08531656518968136
MG 0.29548020569701616
Miy@@ 0.25734707218039804
Oriental 0.21104278745034086
PL 0.3590552882265325
Page 0.21520435321001358
Upper 0.1266646308999689
Wilhelm 0.045860827215896675
Yi 0.3679763618243563
ana@@ 0.24586462614814328
arius 0.19260588787031926
award 0.04637856101802551
bacteri@@ 0.22748526328985702
black 0.032629500456857835
ebook 0.6843384265312803
eci@@ 0.12959783136034472
fur@@ 0.06859650917621433
hon@@ 0.032536091314769706
ks@@ 0.03910374899242355
ky@@ 0.19661600298914222
lan 0.06639172477387638
ledge 0.226929005895235
los 0.0013993852298019298
metal 0.05159953015669978
place 0.0075379735360681455
stars 0.058657757235101735
×@@ 1
θ@@ 0.07997532093042421
エ@@ 1
夜@@ 0.38682317800511673
@@ 1
1775 0.23749372508126593
1786 0.2766356084588993
267 0.7157597081489601
282 0.7438090738986743
296 0.8166755025748796
313 0.6718376612701853
425 0.729014517559126
Alpha 0.20964559499037588
Benz 0.28736820996315127
Bernard 0.08321864172934167
Bird 0.20975247083843626
Clu@@ 0.1088008973668609
Dark@@ 0.28921879320683136
Honor 0.18670079188510133
Institu@@ 0.11193756691076887
Jacob 0.1066591796564324
Kim@@ 0.14550517344727262
Know@@ 0.2997118687692852
Kurt 0.1383763276291236
NP 0.36871153121193506
Russia 0.043998585677474604
Sah@@ 0.14149403176267383
Steph@@ 0.13338113711832922
Yak@@ 0.19658212473551576
ark@@ 0.03420462968215027
ator@@ 0.07699779054411941
e- 0.2743565927987625
eleg@@ 0.0571724833443054
ember 0.2644860134621974
ender 0.031078585593813123
girl 0.08474637555455908
indic@@ 0.027080565438378394
ix@@ 0.11827667169775748
languages 0.06957614470284236
ls 0.04703319468123394
medicine 0.13539161632590432
news 0.055953806263635344
ogy 0.18263725531186148
pig@@ 0.16345022104458856
tage 0.1303149667359489
thy@@ 0.3770274312507972
ucle@@ 0.6329630290910857
udi@@ 0.08436297373645392
ព@@ 1
័@@ 1
林@@ 0.060522325449662004
1560 0.5210270497609414
317 0.811134482073479
Aus@@ 0.00967841952517354
Batt@@ 0.16213511788405258
Bio@@ 0.34290250335330136
DR@@ 0.26104203739316656
Dave 0.10651240113789545
Films 0.106417120201817
Flight 0.1987531981765987
Hak@@ 0.14401270723626164
Jeff 0.12359856756137641
Lan@@ 0.07442321042473105
Market 0.1587208662166514
Pac@@ 0.16863561381077224
Plas@@ 0.2398686828669261
Professional 0.09769660854650353
Superman 0.3154208979517311
Tol@@ 0.07641018644186358
Toy@@ 0.3108489044597521
Trust 0.10483000655350284
Water@@ 0.0939368633197329
Work@@ 0.20818029218639478
abl@@ 0.054178557224429554
acter@@ 0.1644418796645189
aman 0.1447732707812115
atsu 0.33756014183302024
attack 0.03469872034229648
ayo 0.09789000410127781
blo@@ 0.054035544016464924
break 0.0517212389340428
cri@@ 0.032807686215232425
dat@@ 0.05531554093565317
edge 0.09009771973245048
etti 0.055601888355759334
kor@@ 0.047570872724480164
ments 0.016165290693426537
na@@ 0.07339442790474539
normal 0.0679888750650472
oe 0.09951148738390998
ont 0.007708151855084521
organ 0.13944218971718
race 0.02461620399467908
specific 0.051279337056901034
standing 0.048904380326061495
theor@@ 0.076562821240524
thetic 0.13138730563494977
transfer@@ 0.10091146493529372
tt@@ 0.08518358637533982
ves@@ 0.09734064609950523
ynam@@ 0.24270804847106736
θ 0.44698510007849085
ออสเตร@@ 1
√ 1
」 0.013523489516061344
は@@ 1
メ@@ 1
月@@ 0.14284626238518175
美@@ 0.05955593230269541
1580 0.4886110037793164
1740 0.33513349780647794
326 0.8206027200404306
Anderson 0.08003798249248185
Anth@@ 0.1274053304722563
Charlie 0.10875216211602139
Comedy 0.2224851911150919
Exchange 0.19209954563885678
Geor@@ 0.065853190535989
Gran 0.07620237146673518
IA@@ 0.3877486333845815
Indonesia 0.0982583444407897
Islamic 0.10117165817747625
Juan 0.026936345109332217
Luci@@ 0.10385126111136778
Mega 0.3775771761855675
Opera 0.10521702147746786
Pach@@ 0.18778744941718853
Patri@@ 0.09327473167920666
Patrick 0.06743427132539595
Premier 0.04466221171868309
Prin@@ 0.08575053705147898
Productions 0.15706453110322496
Samsung 0.35216712296692015
Tsu@@ 0.308256184123801
UP 0.28116651968994066
Wing 0.17785989922540618
ats@@ 0.07375844137714954
avirus 0.2859918622786312
bun@@ 0.1013715940357192
dop@@ 0.15990962562429945
etary 0.1619140782933577
ited 0.017615672164190438
org@@ 0.05969205835339425
ply 0.06622897464223017
press@@ 0.16121464733654264
reaction 0.12504971225335212
response 0.05004177315685489
rh@@ 0.10930336125406998
small 0.014327765409344679
sts 0.058968579864105156
tera 0.08606849127514493
tier 0.0390342253484256
titude 0.11465401605450928
vit@@ 0.07745912838695612
wat@@ 0.060355088281019625
wo 0.019493580024699992
{@@ 1
1750 0.26610825704719476
259 0.7082910185416798
490 0.7947883347212422
Android 0.21249463549128936
Avenue 0.053007318514738236
BR@@ 0.27198300056325975
Bou@@ 0.053043149073958844
Chlor@@ 0.399403941402904
Deg@@ 0.23308638520724187
Dong@@ 0.37528981285835183
Emb@@ 0.21569784786515356
Innov@@ 0.21042587238699828
Jordan 0.0976035965657673
Linux 0.16529609671573633
Living 0.23686868369826147
Nick 0.10443699012015305
PT 0.3384712210916227
Plan 0.09166608861923628
Pom@@ 0.09581668839012573
Rich@@ 0.07111119178363046
USB 0.41788257162044556
Without 0.2632762897000529
XII 0.12937250182732124
aj 0.11139454580113542
ann 0.05515148276076717
ave@@ 0.09560403504841482
carri@@ 0.058620116271888435
della 0.18552840865166742
dus 0.31210452390216287
endr@@ 0.11808697379961636
ering 0.024166035335948653
esta 0.01386099638907275
friend 0.041248619667781504
gar 0.0641126444172832
icum 0.2554005965528002
irat@@ 0.1476724118582967
jus@@ 0.04689729798979062
ken@@ 0.029327919997033828
keting 0.2739180909467945
lain 0.12101342713677816
mia 0.3961164547782771
oh 0.26902530792693474
omo 0.09347010383753501
open 0.027217888620005955
osom@@ 0.2313443868350542
ough@@ 0.054449009252405235
phys@@ 0.04698619010512376
princip@@ 0.08072980431244742
ross 0.17369991648475158
script 0.12103482671520475
sense 0.08844866089822655
smo@@ 0.08284812970904991
sson 0.08295970517362244
syl@@ 0.14068279008957071
tern@@ 0.08927934530859295
กำหน@@ 1
ជ@@ 1
が@@ 1
ま@@ 1
八@@ 0.08051875703567118
四@@ 0.043282031922268004
正@@ 0.06020070450632046
華@@ 0.09396843805499265
1666 0.5474895510213963
1773 0.31113625094206154
316 0.7372576381018415
Andy 0.11339889755147219
Archit@@ 0.125264392567661
Benjamin 0.09422555672548844
Berlin 0.01683621144719174
CM 0.25448502645403226
EL 0.37800219303964144
EP@@ 0.19864696745984356
Ernst 0.07446163267616147
Fig@@ 0.11839309809418698
Gordon 0.08323640800714982
Grey 0.1792798314796397
Head@@ 0.1531340104597617
Instrum@@ 0.10720418983713699
Irish 0.04232687848734481
Java 0.151087358817788
Kol@@ 0.02988209866952145
Nob@@ 0.14540177986975197
Organ@@ 0.14506222608857156
Phase 0.15982609758344135
Potter 0.26570944841041905
Raymond 0.11736932929360774
Romeo 0.28595421555332246
SB 0.25083589426045183
Saturday 0.11400627977127538
Singles 0.08287887595549286
Small 0.1936978591640227
Vegas 0.1368431582831913
XIV 0.1277324363504287
Yos@@ 0.21666528990468226
anta 0.09169702606374552
anz@@ 0.030594555170672152
auto@@ 0.05928100066517907
chel@@ 0.2909912197804448
dist@@ 0.04045909629909914
emat@@ 0.23771081720515855
ements 0.0133842896701535
emer@@ 0.05375260543224259
forest 0.075507604271899
four 0.008385902562670945
frame 0.10300487005485504
han@@ 0.10503448764710185
high@@ 0.07466483896171303
lies 0.0225676611249357
ligh@@ 0.04958852011475066
oll 0.10030212083646783
plac@@ 0.06600636821094702
rett 0.15296278202919544
stati@@ 0.09747856393605933
stop 0.05822551977319113
systems 0.035947116381199
tak@@ 0.054642314377076
tent 0.08484430299593594
trig@@ 0.1563151273060524
ularis 0.5261710806695973
via 0.020413383446754186
ǔ 1
原@@ 0.04822613122029728
趙@@ 1
100@@ 0.16071890256390808
1520 0.48409043075585073
1530 0.49042524642126567
1774 0.26741350378361856
1785 0.2449679548496945
345 0.7269400746095623
38,@@ 0.4465527577844709
47.@@ 0.5594629258574918
48.@@ 0.519974554577872
Billy 0.10158610485052437
Cav@@ 0.06717891450955822
Def@@ 0.17385336495388018
Dream@@ 0.3377637446925245
Du 0.08596266627637551
Gabriel 0.0926335301591897
Il 0.0034505378950438845
Inf@@ 0.11930156582551862
Intelligence 0.1976721815132297
Jun@@ 0.1432943194453349
Liu 0.17871397600406516
Matthew 0.11725845601358396
Nintendo 0.13315473999926558
Observat@@ 0.15137762573408722
Ot@@ 0.06901731033190853
Pier@@ 0.10478752053232566
Political 0.09507354719811631
Tim 0.1022744231268057
VP 0.18454801255946196
Vent@@ 0.14426347637263037
Wed@@ 0.126144317745089
Xen@@ 0.4007639181395712
Yah@@ 0.24027585073727023
acial 0.13020609023100935
ager 0.04156375905967305
amide 0.2675086454540403
arin 0.22680815396982798
aus 0.002942588425826214
aut@@ 0.03260542793063128
child 0.03848804514446024
crip@@ 0.07243009214544652
death 0.01427663048462122
dh@@ 0.06622443007818937
dry 0.10310804623710003
eding 0.04606527678960937
flor@@ 0.08418095064456606
fort 0.03015750744457057
gency 0.08215114344343821
gian 0.03996017742627925
gon@@ 0.30320927751571847
hard 0.041711039937845494
hep@@ 0.2154586065140798
ior 0.3871321414228044
itar 0.17113292593871213
km 0.007379271585338318
liz@@ 0.06317317713352158
painting 0.07157597081489601
rac@@ 0.04081123329561071
sex 0.06369260207495657
tium 0.18774199092845667
window 0.13241897318312415
® 1
ו@@ 0.48610519212516756
お@@ 1
0,0@@ 0.4731742158537098
1568 0.610091368708664
1604 0.5606750615064384
1625 0.4874175670035057
1653 0.5836086400104827
1765 0.335844187567139
1782 0.24651933032882856
277 0.7052688080829269
336 0.8094524248323559
395 0.6885574389556505
BK 0.3223801761416302
Back@@ 0.16008930313187433
Nicholas 0.12367652060701445
PD@@ 0.3488974006697045
Ra 0.49944068385987656
Rand@@ 0.09380354019883887
Roman@@ 0.08540419903001842
Wales 0.03828263942682764
a- 0.45130776357750074
asi 0.1057072081986346
aut 0.03681403387956252
bau@@ 0.040020304310451185
bom@@ 0.06902970787752857
continental 0.11626386588356662
ded 0.0323427651161259
eine 0.0022055846615151547
eing 0.05931947131805151
essor 0.05208325279064262
let@@ 0.041102042632748595
made 0.0053935088122732625
nchron@@ 0.2527043279854882
ned 0.02918415794261355
onda 0.18658361911197166
ool 0.2659593169041685
ordin@@ 0.043804902509623225
orth@@ 0.14614435848525648
oud 0.08132575596377167
phus 0.23833777756459149
positive 0.04929875336007417
res 0.026003907533493815
see 0.01880306215877138
shi 0.24111313885974647
sign 0.07825021202481768
sound 0.05237173845753036
utionary 0.09430968913463005
vent@@ 0.04740461376452222
พฤษ@@ 1
← 1
み@@ 1
忠@@ 0.34823293155035107
～@@ 1
1605 0.544134622400506
1685 0.46256052215883214
40,@@ 0.6054483323662172
978 0.7184095345069954
Au@@ 0.02860684359871666
Bed@@ 0.05103346495506767
Cow@@ 0.13180479621112254
Esp@@ 0.06235526138152389
Exper@@ 0.10154606766348068
FL@@ 0.2996872651669003
Ges@@ 0.0381995464726795
Grap@@ 0.3077310847137249
Jimmy 0.09498045104980557
Jo 0.23859384247679793
Jonathan 0.11434935826349779
Kap@@ 0.05438120049707866
Lawrence 0.09099063461843891
Liter@@ 0.08487253927558641
Musa 0.5352778285192777
Poc@@ 0.24013107960388044
Rio 0.06614597224020125
Row@@ 0.1097948041496069
Rut@@ 0.1851452999150513
Text 0.17148812627500792
Total 0.20194802808829995
Vul@@ 0.14413879035141763
bia 0.15970737186153527
chron@@ 0.07450247244554149
cord 0.181352991533641
cous@@ 0.259579212278087
digital 0.05708127643922148
dison 0.2674377232491245
ebo@@ 0.11882241397614815
eland 0.06877789202517498
ento 0.02793481525797117
ibn 0.13861632914084865
ily 0.0839939088743575
lad@@ 0.03920185057169819
linear 0.14783228332972345
ophyl@@ 0.40291882122703404
pher@@ 0.19074017664884924
ping 0.055694043201881024
resp@@ 0.03043699393843073
sons 0.036989044080029856
tens@@ 0.204912357540289
ï 0.11265195326015255
Δ 0.3874030230296426
ปราก@@ 1
周@@ 0.06659584784766845
川@@ 0.2535526556143947
氏@@ 0.41871138817052383
秦@@ 0.3177075910728038
#@@ 1
1515 0.6940804065613045
1762 0.33092574765299104
415 0.7830434408436759
50,@@ 0.48830570504561416
86@@ 0.4024052497662035
April 0.006484102917524707
Basil@@ 0.21004088890522876
Block 0.17788306009071342
Discovery 0.2305459244857969
Donald 0.07247429416479045
Greater 0.1496612836327317
Guard 0.10976870394014383
HIV 0.22454119426826402
It@@ 0.14366630246578063
Jesus 0.08204942840776074
Jin@@ 0.28748220538536107
Joh@@ 0.0888801722521321
Kel@@ 0.07085777045020933
Lau@@ 0.06333499348375922
Leo 0.11857597324838583
Lotus 0.3142189385944706
Mi 0.2126018935095921
NGC 0.07368134708436214
Ner@@ 0.11936451042816859
PI@@ 0.2720370512390473
Parliament 0.04426703547382283
Prime 0.06392755219378524
Region 0.031184431788756024
SMS 0.44657451461633557
Snow 0.25199520302545214
South@@ 0.08305796548843632
Technical 0.1659198293197847
Til@@ 0.15810560918492417
Vienna 0.11480502249517975
acre 0.08806607075488854
acul@@ 0.23437647347064366
best 0.015536413832486058
contr@@ 0.014553530687133305
door 0.04418303474349429
eau 0.01738872675305536
eli 0.06654599714203079
enzyme 0.2084549621934949
flag 0.11479820279996389
gence 0.08326851515248007
hand@@ 0.020278535702941147
limited 0.040740610133806796
must 0.030976246221941537
nas@@ 0.13658571008567336
pia 0.26947030611232053
real 0.027220373004333907
sha 0.20207924837945546
suff@@ 0.028405389585733628
vival 0.10662057388773785
wang 0.17756163226824423
ประเพ@@ 1
ု@@ 1
清@@ 0.06063508150881998
1204 0.8673862533984539
1680 0.38079035354549345
1714 0.43866091756169745
1766 0.34686516406994605
319 0.6881229525909248
343 0.7651941948084061
354 0.8128321098255831
512 0.6365912009291705
Bell@@ 0.09415490191028016
Cov@@ 0.1284220400070993
Eagle 0.19422542882778082
Grav@@ 0.20313953077355526
Guar@@ 0.17039995730632304
Hap@@ 0.29039730994453433
Henri 0.05657043872116847
Hig@@ 0.3250359353671224
Map@@ 0.13871160938015445
Mr@@ 0.08662969019423336
Pag@@ 0.2088606229340421
PlayStation 0.1271909573020049
Railway 0.040628771102736015
Sarah 0.08641916052403047
Shah 0.1523080372326446
Steel 0.191580208993324
Suzuki 0.3184018111093095
Thor@@ 0.0938223899044844
Tournament 0.08590179698650365
UFC 0.2216271350258974
Village 0.0855763019596944
aa 0.1169299558959713
ancy 0.07791166617525815
bran@@ 0.10003726973478294
ception 0.11524120301039643
chor@@ 0.06655486928409586
clus@@ 0.12205781764519075
cont@@ 0.023696704154785215
cut 0.04793896635634884
cycl@@ 0.059032242076595055
drome 0.2433503906469936
eds 0.03881716827166739
else 0.16685901128066374
eni 0.08202091596250073
event@@ 0.07249315250370678
ful@@ 0.0917806147189999
ged 0.04244602088171094
gli@@ 0.13434193248052972
him@@ 0.14221583738372195
ht@@ 0.38651024240043846
ili 0.07235618281903942
inin 0.05945863696657955
iti 0.10766782885699903
kam@@ 0.1227368470084572
mid 0.030269791531372485
natural 0.029114603446634225
ono 0.11933431227189624
plus 0.003914361943879412
pper 0.12856767755934684
rie 0.07130496958652527
sl@@ 0.03972897010226149
tol@@ 0.0752264337313286
·@@ 1
Á 0.23949730037885358
γ 0.42736408506374757
ย่อง 1
โปร์ 1
さ@@ 1
会@@ 0.13182401689035342
1519 0.7251250458734414
1606 0.579735633568167
271 0.6268950088839317
292 0.6934992387567676
94@@ 0.683850991423471
API 0.34885748727783583
CON@@ 0.4349913270570536
Chu 0.22931430579933115
Communications 0.1362394807333256
Cultural 0.10204280663783903
Financial 0.17343864430247952
Hills 0.09853939327301338
Italian 0.03020700463632139
June 0.008501949313750248
Late 0.14160278297840437
Leon@@ 0.10359688616419856
Lot@@ 0.10638797536571269
Matt 0.09869078853826864
Pod@@ 0.08655201799274863
Proj@@ 0.15143559828829717
Regional 0.07320743761065095
Top@@ 0.11095497772359778
Venus 0.2561265199413871
XV 0.0934494795808597
Yas@@ 0.20315228374147035
Zen@@ 0.2197788606184453
\@@ 1
about 0.005498541440915309
afe 0.11705398041283481
cam@@ 0.04179902684654852
ej@@ 0.04581583814998024
eti 0.0918878741025954
fall@@ 0.042122807647816715
hard@@ 0.06139014313989055
hen@@ 0.07373888473041362
ieve 0.08005087227895902
iment 0.07223451913751724
joint 0.07124758687538806
kel 0.042573779566907895
line@@ 0.09114631711932684
make 0.016895555746832967
matter 0.0858292179639601
new@@ 0.09848788736138012
onds 0.07121661883508239
pard 0.15050821527275277
pm 0.1133125986269978
quar@@ 0.057974752521526646
receive 0.07178411976616479
rel 0.11842357059280607
rich@@ 0.02932558763161085
rule 0.054731916102889355
sep@@ 0.2040285248454788
spe@@ 0.029107309612937074
sph@@ 0.12156109105409373
uka 0.18825431428735515
unter 0.0070877783142898314
urg@@ 0.046011064177887126
µ 1
í@@ 0.010846841812081636
も@@ 1
ブ@@ 1
我@@ 0.45545985779602066
陳@@ 0.5413956800216849
龍@@ 0.1353716094333025
1547 0.5819723235809908
1570 0.43778618637714906
1755 0.33524025260018203
1768 0.2899504624279094
332 0.7574645886597434
337 0.7419547433394935
580 0.6555734991372568
Alex@@ 0.1525468931440612
Austin 0.09448188116888886
Baron 0.08989732534263946
Bug@@ 0.15756717844575263
Cover 0.18716535996432374
Dep@@ 0.14373915884437508
Der 0.0036189428699739197
Dim@@ 0.1371723952423478
EU 0.08202618880870689
Ed 0.13449119999653736
Enterprise 0.24861293464865253
Francesco 0.1521890997138077
Greek 0.03934860170190374
Guardian 0.1534804341453416
HR 0.28092235323481324
Ireland 0.029774151098108145
Jacques 0.044956810497978485
Jin 0.22737981071476193
Malaysia 0.0978551985454986
Metro 0.09111193587591565
Metropolitan 0.09897467430505813
Moh@@ 0.08667461343175181
Or 0.1421898744975495
Phy@@ 0.4420168422239558
Rein@@ 0.06937363325136076
Sci@@ 0.1944064111153961
Shr@@ 0.18924412875695495
Stat@@ 0.09449948137029035
Strateg@@ 0.1412701516349497
Weekly 0.17662905151952427
dou@@ 0.04935275186861354
ear 0.18496607857921477
eting 0.15733837916502416
fib@@ 0.2808233921119385
flex@@ 0.1103206995503604
image 0.04614897388855531
ime@@ 0.29671088555624664
iya 0.24819274688799922
mand@@ 0.030632644447010457
market 0.03157209568904717
motion 0.09316473624763266
operation 0.03232570868531202
ports 0.043171845320400366
production 0.013030336543272224
relation 0.0740492661697928
run@@ 0.04516951290801627
singer 0.0384768623040046
som 0.18566766343890634
term 0.021444899465654407
thal 0.16799101752559134
tif@@ 0.0677929564547074
uan 0.17480864684720035
user 0.08195451023515123
using 0.014182541804679096
π 0.20724746521536574
代@@ 0.07540204745064731
義@@ 0.10502501528549062
門@@ 0.17975555670772722
1569 0.5947916797198972
1585 0.5384466667520039
Bah@@ 0.046008127389725824
Barry 0.11419092642394725
Boston 0.03710223379964262
CF 0.12200179320425845
Campus 0.15157055848440332
Carter 0.09829249755429686
Cloud 0.22269366033382182
Commerce 0.16997981495891515
Confeder@@ 0.07889206970244145
Dallas 0.09444456559705489
Ey@@ 0.17243307152783208
Feder@@ 0.12164073752084295
Friedrich 0.03104106266636373
Gan@@ 0.12128181256922572
Hop@@ 0.13339721603367155
Human@@ 0.12119507881322128
Hydr@@ 0.24069269563458673
Jet 0.3303803583592015
Maur@@ 0.05924627763657166
Pass 0.1606513520652855
Script 0.4258366285917928
Sep@@ 0.14142978813425214
Spanish 0.028709783282195585
Today 0.07191709805061368
UM 0.4236421009311782
aro@@ 0.08491587388830428
aur 0.20252136175195795
aux 0.003639554746721422
cover 0.03312915043898099
ensi@@ 0.07207944975241286
gig@@ 0.1514080587790705
hold 0.04574446611966685
izer 0.2510378739382975
king@@ 0.08850241759526695
oid@@ 0.18658708790101963
ologue 0.13153357025818832
ority 0.07178680666031813
osh 0.18748262970662063
parent 0.10444340904353408
poem 0.08464898647844109
ref@@ 0.045836021672370726
some 0.006165314025672244
structure 0.02721466013220633
swe@@ 0.0643664288960517
tend@@ 0.03873760618790945
theast 0.12250107769414043
track 0.024658275076584624
ventures 0.1406263328960386
zy 0.15787911925145467
ó@@ 0.013354567738712516
ກ@@ 1
き@@ 1
下@@ 0.04267274311773648
少@@ 0.11703471992108641
後@@ 0.06023931527106356
無@@ 0.07038370110226697
青@@ 0.07900353514220293
1590 0.4569399145654616
1687 0.5358407141278815
1720 0.3296318930048011
355 0.6701560056415962
405 0.5869654734077934
89@@ 0.42121049936114113
DT@@ 0.32546708285965065
Dawn 0.2742123594963129
Dow@@ 0.09420910811793541
Eg@@ 0.08536673918260038
End@@ 0.07798694718066096
Gau@@ 0.06548712359040176
HMS 0.10703413252508154
Ho 0.2388827971588874
Lyn@@ 0.20600353555140957
Mai 0.018520172699182793
Manga 0.33412019571268886
Miz@@ 0.27326798812248193
Nev@@ 0.13507207464602797
Nom@@ 0.12509465664176034
Rock@@ 0.10120471239258491
Sed@@ 0.16292622364041803
Sid@@ 0.12015696438059392
Through 0.11282408476919908
Wir@@ 0.09069566126176251
aco 0.0622832129229801
alg@@ 0.03270927534305931
anj@@ 0.13950259955228597
ape 0.17863411719052702
asons 0.38601614173901255
aye 0.07551073254223248
behavi@@ 0.11765610563043014
continu@@ 0.025014613451256027
element 0.11645865857656526
eron 0.028095360173246865
footballer 0.04417004147574371
idaceae 0.536687265737464
jin 0.28848257968028057
kai 0.3360724840014942
known 0.0052157410561279325
lea 0.19823116392852277
lide 0.20393592539982613
ling@@ 0.06625546603307307
management 0.03751820781078453
movement 0.0327220750956092
mur@@ 0.033884010770942816
nik 0.06740287309808114
olia 0.19068552777701958
ored 0.027179219340714898
osia 0.46660945905105083
ours 0.03954225392040454
pack@@ 0.08566678146730604
professional 0.019473964313759525
ption 0.1506144865606142
put@@ 0.043090109909433835
ron 0.10938638901479535
rup@@ 0.044240327561838745
sequ@@ 0.04036973427825848
sequence 0.10339364042983823
tac@@ 0.07302860902301807
tific@@ 0.09985578725106171
tone 0.15760203794871086
tour@@ 0.020535092983718913
when 0.004292684306707524
ð 0.8126944204180869
י@@ 0.3931785506189356
心@@ 0.09994759768958499
星@@ 0.1145636448355658
黃@@ 0.45803735589737204
1630 0.3670908079475723
1699 0.46704372857009213
44,@@ 0.520637795573621
Aviation 0.15649900381720533
Base 0.10009947948308136
Books 0.12191712675887659
Bow@@ 0.06071253871275914
Carlos 0.034191252762585965
DT 0.26967186851915037
Ferdinand 0.08416110251418031
GNU 0.4229194127444567
Kil@@ 0.05327905194754468
Mechan@@ 0.1342351784262242
Min 0.37082212787346724
Nem@@ 0.1729052622293682
Port 0.048873402776896564
Roy 0.08733254536626255
Sean 0.1612517360988073
Shak@@ 0.17309780395739663
Still 0.21277270381503632
Swiss 0.08063374776616648
Vog@@ 0.0939125570367674
Wes@@ 0.05383123990751216
Wide 0.2576239816158376
acher 0.06463070403434808
company 0.010016426140856538
development 0.016259991096003346
dic 0.130238473257063
dur@@ 0.02706893441168036
emon 0.3996147252836128
gin 0.08045592056628612
good 0.026568851148303704
har 0.15872229710117897
ij@@ 0.08939092249605926
kon@@ 0.016945240183601124
neutr@@ 0.07381886223812031
odia 0.28838619129415377
phin 0.24002818007412255
player 0.01622621696955584
rin 0.22669102647445083
say 0.050126227265179096
sch 0.02553424408192398
sman 0.14231051940627543
ticus 0.3505919402024047
tum@@ 0.10105104744266746
tz 0.07646383947225134
undtrack 0.25533636210570315
versi@@ 0.04476298663082579
wind 0.08757427415074233
yu@@ 0.2795761449956253
ະ@@ 1
》 0.00875154660441456
れ@@ 1
チ@@ 1
ュ@@ 1
主@@ 0.032409287452294544
時@@ 0.06060310781103257
都@@ 0.165800884628415
～ 0.3781167322362041
1536 0.49616496533233306
1565 0.5503051898742395
1572 0.5004123101452896
1758 0.30181469851133874
1759 0.3325910126587245
274 0.6052349780180758
334 0.7351294299806852
Adv@@ 0.1950830223963715
Alg@@ 0.15951632573061966
Bass 0.19898292183608535
Bobby 0.12978335605465743
Cann@@ 0.2069780494075118
Clim@@ 0.15703287204784877
Douglas 0.06510810341340227
Gall@@ 0.12430062599224646
Gur@@ 0.10451743372495409
Hamilton 0.06243195429271403
Haz@@ 0.11621415657874681
Identi@@ 0.1843202195964045
Jor@@ 0.18510055431426478
Ken 0.1314342238169487
Kno@@ 0.08104227918405615
Lun@@ 0.15509928151558952
MW 0.19070197872703357
Orth@@ 0.34035828113719574
Princ@@ 0.2675479274208411
RCA 0.2789317450692538
Ross 0.08090099770397445
Sek@@ 0.054683821228659
Stic@@ 0.2752098498078345
Tax@@ 0.16795323479653326
Theater 0.05454343788868328
Yor@@ 0.10694507444926016
agar 0.17622194273528535
alis@@ 0.035992998801602914
aly 0.1927376338545276
apon 0.14817272414452165
berry 0.1524577151008199
bie 0.06695343246395963
bir@@ 0.03978356608666816
break@@ 0.08782136359322712
drug 0.07998365575882559
educ@@ 0.06255819578388735
eline 0.1141553603602663
elt 0.026821665481266674
esser 0.1329402925708255
grandi@@ 0.2724531449906528
igh 0.06676458489955706
kn@@ 0.038676313957663654
mos 0.11973878668830422
non 0.009367462834334647
oking 0.11993967019635673
ovich 0.14993223587518778
points 0.014875329696358606
prec@@ 0.03197982773687647
product 0.05944256926000709
pros@@ 0.03841443342813577
red@@ 0.0393915127314262
san 0.07354871323308773
stock 0.05977165098499032
tai 0.30426219656971965
unk 0.12586203561144818
web@@ 0.11745912395328599
สงค@@ 1
あ@@ 1
つ@@ 1
を@@ 1
唐@@ 0.13452573215826683
校@@ 0.09885472597901585
行@@ 0.04246163616985109
1607 0.5274056979234769
1615 0.5202540777113435
1678 0.4658620840503477
45.@@ 0.48242310210853545
Big@@ 0.14577142819963457
[...]
