ya 1
. 1
na 1
wa 1
, 0.8353982013848439
katika 1
kwa 1
ni 1
&quot; 0.7957403941778
) 1
( 1
la 1
za 1
ku@@ 1
cha 1
mwaka 1
kama 1
yake 1
@-@ 0.5047389789067657
kuwa 1
nchini 1
: 1
M@@ 1
m@@ 1
au 1
kutoka 1
kwenye 1
ali@@ 1
pia 1
lugha 1
u@@ 1
zaidi 1
vya 1
ak@@ 1
i 1
watu 1
U@@ 1
&#91; 1
&#93; 1
hu@@ 1
wake 1
mji 1
ki@@ 1
kati 1
alikuwa 1
; 1
Mto 1
Ki@@ 1
K@@ 1
o 1
ani 1
ia 1
am@@ 1
wali@@ 1
w@@ 1
kwanza 1
mwa 1
a 0.19206588666312507
Kwa 1
nchi 1
hii 1
Tanzania 1
ana 1
u 1
pamoja 1
hadi 1
wakazi 1
N@@ 1
miaka 1
ili@@ 1
Mwaka 1
ik@@ 1
in@@ 1
an@@ 1
ut@@ 1
jina 1
aji 1
&apos; 1
Afrika 1
wakati 1
ili 1
juu 1
Kenya 1
j@@ 1
ilikuwa 1
lakini 1
huko 1
kata 1
moja 1
tarehe 1
ini 1
a@@ 1
ika 1
un@@ 1
mto 1
mara 1
hiyo 1
ndani 1
mnamo 1
kazi 1
ambayo 1
uli@@ 1
Bahari 1
k@@ 1
isha 1
idadi 1
um@@ 1
im@@ 1
iko 1
aa 1
T@@ 1
eneo 1
y@@ 1
al@@ 1
Mkoa 1
uk@@ 1
Katika 1
h@@ 1
Kati 1
W@@ 1
sana 1
oni 1
Maji 1
sehemu 1
hatimaye 1
nyingi 1
wak@@ 1
yao 1
us@@ 1
p@@ 1
baada 1
ma@@ 1
mkoa 1
kwamba 1
as@@ 1
we 1
ar@@ 1
kubwa 1
B@@ 1
ina 1
it@@ 1
S@@ 1
chini 1
z@@ 1
ab@@ 1
kundi 1
at@@ 1
ano 1
Marekani 1
ambao 1
Wilaya 1
n@@ 1
sh@@ 1
I@@ 1
ali 1
tu 1
huo 1
unapatikana 1
om@@ 1
hasa 1
hivyo 1
o@@ 1
Kusini 1
A@@ 1
aka 1
ang@@ 1
ari 1
b@@ 1
af@@ 1
ua 1
mkuu 1
H@@ 1
v@@ 1
ishwa 1
ah@@ 1
aw@@ 1
kum@@ 1
ot@@ 1
kus@@ 1
yanaishia 1
t@@ 1
kut@@ 1
kawaida 1
sensa 1
sababu 1
Ali@@ 1
il@@ 1
mbalimbali 1
D@@ 1
Baada 1
wan@@ 1
zi 1
- 1
ad@@ 1
ara 1
ka 1
iwa 1
ag@@ 1
yenye 1
is@@ 1
Uganda 1
ama 1
wasemaji 1
i@@ 1
ek@@ 1
huu 1
mak@@ 1
namba 1
ok@@ 1
P@@ 0.9437053678564888
Mashariki 1
kaskazini 1
iki 1
ap@@ 1
aj@@ 1
asi 1
awa 1
eni 1
mw@@ 1
wengi 1
1 0.8430833348537712
wilaya 1
timu 1
G@@ 1
kila 1
J@@ 1
ch@@ 1
ur@@ 1
2 0.9231305996007706
kaunti 1
L@@ 0.9170094979016532
ai 1
on@@ 1
anga 1
vi@@ 1
KK 1
vile 1
maji 1
alizaliwa 1
wat@@ 1
ung@@ 1
os@@ 1
si 1
bahari 1
mi@@ 1
ambaye 1
Kufuatana 1
ny@@ 1
amu 1
wapatao 1
lake 1
uainishaji 1
Wakati 1
kabla 1
Mungu 1
iliyofanyika 1
2012 1
Mnamo 1
up@@ 1
siku 1
magharibi 1
yote 1
Kik@@ 1
/ 0.7455302962426316
Kanisa 1
aina 1
oa 1
itwa 1
ish@@ 1
Kristo 1
kuna 1
inayozungumzwa 1
upande 1
Ni 1
karne 1
mbili 1
ambapo 1
Uingereza 1
O@@ 1
kusini 1
hali 1
njia 1
akiwa 1
muziki 1
imehesabiwa 1
ishi 1
zake 1
ing@@ 1
ul@@ 1
f@@ 0.9719920805636872
R@@ 0.8747291639912178
dhidi 1
Naili 1
of@@ 1
tena 1
ajili 1
karibu 1
or@@ 1
ha@@ 1
wenye 1
inahusu 1
tofauti 1
taifa 1
Papa 1
muda 1
jimbo 1
Kis@@ 1
isi 1
ig@@ 1
mat@@ 1
filamu 1
3 0.890965014143812
endelea 1
e@@ 0.8546915766454831
sasa 1
mtu 1
ita 1
ach@@ 1
Makala 1
nyingine 1
kup@@ 1
oma 1
Kim@@ 1
ati 1
wa@@ 1
hata 1
an 0.20686067690093465
s@@ 0.5797023716272637
E@@ 1
az@@ 1
el@@ 1
ima 1
kim@@ 1
e 0.783073843238736
em@@ 1
aki 1
tangu 1
wote 1
wao 1
– 0.4543118452299848
uni 1
mmoja 1
idi 1
unga 1
op@@ 1
Ch@@ 1
serikali 1
et@@ 1
amb@@ 1
kadhaa 1
pili 1
mashariki 1
hili 1
kuf@@ 1
kutokana 1
iri 1
humo 1
d@@ 0.8779789588918232
hivi 1
nafasi 1
Kaskazini 1
wengine 1
ala 1
kuliko 1
ikiwa 1
azi 1
Z@@ 1
amba 1
hilo 1
tatu 1
Tangu 1
Kongo 1
maisha 1
anda 1
&amp; 0.9446477278331037
asili 1
Mw@@ 1
en@@ 0.6094564850679625
&#124; 1
uf@@ 1
Chuo 1
pa 1
id@@ 1
Ma@@ 1
eli 1
anza 1
Mak@@ 1
and@@ 1
mab@@ 1
Mji 1
eza 1
de 0.03430847704357191
ir@@ 1
kuhusu 1
ub@@ 1
F@@ 0.7013987917153273
ema 1
ol@@ 1
weza 1
ikia 1
iliyo@@ 1
chake 1
wana@@ 1
baadaye 1
duniani 1
ziwa 1
leo 1
kuj@@ 1
uma 1
ona 1
4 0.8761034868964575
fu 1
Sikukuu 1
fu@@ 1
mujibu 1
Kit@@ 1
maeneo 1
5 1
olojia 1
da 1
es@@ 1
ati@@ 1
g@@ 0.8134029615297296
mas@@ 1
ata 1
ug@@ 1
Ulaya 1
l@@ 0.7691394642605657
Ny@@ 1
io 1
uri 1
mkubwa 1
ina@@ 1
6@@ 1
5@@ 1
muhimu 1
Wa@@ 1
Kiingereza 1
Ufaransa 1
eti 1
kit@@ 1
“ 0.6110433079628206
in 0.040201503214932474
Al@@ 1
ea 1
nje 1
shule 1
Pia 1
mchezaji 1
Kib@@ 1
4@@ 1
ash@@ 1
una@@ 1
uh@@ 1
walikuwa 1
maarufu 1
bila 1
V@@ 0.8348388694245397
kuu 1
po@@ 1
Hindi 1
kufanya 1
zin@@ 1
al 0.3497122196139008
lin@@ 1
kale 1
20 1
ao 1
inga 1
Wak@@ 1
Ujerumani 1
mjini 1
Eneo 1
Sh@@ 1
li@@ 1
watoto 1
yaani 1
Magharibi 1
zote 1
of 0.0384363507258888
familia 1
mt@@ 1
pekee 1
kupitia 1
okea 1
Y@@ 1
ta 1
” 1
kur@@ 1
us 0.8435212481620421
imani 1
m 0.9914465912228136
una 0.5175399633463273
er@@ 0.6083699550403395
olewa 1
umia 1
An@@ 1
ongo 1
10 0.9992326727485203
uz@@ 1
maj@@ 1
wal@@ 1
wam@@ 1
onekana 1
wanawake 1
zamani 1
% 0.539459657860252
kabisa 1
abu 1
kin@@ 1
The 0.11770710166349362
ile 1
vita 1
ki 1
ko 1
kik@@ 1
julikana 1
Januari 1
y 0.11672198413957957
on 0.12948571919732668
zili@@ 1
bunge 1
yo 1
Mei 1
klabu 1
alit@@ 1
isho 1
7@@ 1
kutumia 1
adi 1
wimbo 1
habari 1
iti 1
ji 1
Wakristo 1
mwisho 1
oka 1
Kin@@ 1
inay@@ 1
elimu 1
ji@@ 1
usi 1
19 1
huwa 1
6 0.8916346967021553
C@@ 0.5633397942530967
di 1
bora 1
ume 1
maana 1
mtakatifu 1
s 0.2954382194543641
ba 1
Oktoba 1
was@@ 1
Japani 1
awali 1
anya 1
ha 1
zo 1
Italia 1
alik@@ 1
aja 1
aliye@@ 1
umu 1
mita 1
map@@ 1
mpya 1
kipindi 1
es 0.18535267240367465
mad@@ 1
mengine 1
Kikuu 1
albamu 1
Julai 1
hizi 1
Roma 1
BK 1
po 1
Juni 1
og@@ 1
hi 1
yan@@ 1
aliwa 1
12 1
ambazo 1
Kil@@ 1
Mas@@ 1
kupata 1
binadamu 1
7 0.9771931114638758
iti@@ 1
kuanzia 1
Mar@@ 1
mpira 1
Novemba 1
Burundi 1
au@@ 1
waishio 1
uch@@ 1
ungu 1
15 1
any@@ 1
jamii 1
mito 1
umri 1
lili@@ 1
kub@@ 1
Machi 1
hayo 1
uka 1
biashara 1
kul@@ 1
kuz@@ 1
milioni 1
Desemba 1
oto 1
hi@@ 1
Agosti 1
Wan@@ 1
Septemba 1
2000 1
mar@@ 1
Maisha 1
iriki 1
aba 1
asa 1
enga 1
fuata 1
vin@@ 1
x 1
Aprili 1
huadhimishwa 1
km 1
mfano 1
aliy@@ 1
Historia 1
ud@@ 1
New 0.822159880012849
In@@ 1
8@@ 1
ezi 1
mah@@ 1
apo@@ 1
takriban 1
dunia 1
usawa 1
iliy@@ 1
2014 1
am 0.49729389165489346
oko 1
alipo@@ 1
mit@@ 1
mp@@ 1
tu@@ 1
miguu 1
ame@@ 1
kifo 1
uru 1
eta 1
d 0.4796035810426137
nguvu 1
kimataifa 1
Nigeria 1
kiasi 1
nyimbo 1
Kuna 1
mb@@ 1
2007 1
eka 1
ep@@ 1
18 1
hut@@ 1
3@@ 1
aki@@ 1
makuu 1
if@@ 1
msingi 1
alim@@ 1
Mat@@ 1
9 1
ip@@ 1
Wat@@ 1
Februari 1
Yesu 1
imu 1
aya 1
endo 1
ng@@ 1
ay@@ 1
dini 1
matumizi 1
r@@ 0.5761214926109496
Bar@@ 1
Tuzo 1
bi@@ 1
iz@@ 1
vy@@ 1
ifu 1
ja 1
Was@@ 1
11 1
umiwa 1
kisiwa 1
mrefu 1
Dunia 1
amezaliwa 1
michezo 1
ira 1
16 1
oh@@ 1
ari@@ 1
we@@ 1
8 0.8670715831920996
ti@@ 0.8913676513708273
uzi 1
di@@ 0.8590201308403462
Hata 1
ar 0.40090382610137004
Jamhuri 1
9@@ 1
mwenye 1
ong@@ 1
hapo 1
zao 1
ilit@@ 1
umika 1
man@@ 1
h 1
onyesha 1
th@@ 0.7502730745664714
13 1
aha 1
mengi 1
historia 1
zwa 1
ulikuwa 1
yali@@ 1
hizo 1
17 1
kampuni 1
enda 1
Katoliki 1
Kir@@ 1
Idadi 1
bo@@ 1
unda 1
30 1
2008 1
askofu 1
od@@ 1
the 0.014977299642111952
2009 1
ada 0.7899811298298767
engo 1
mechi 1
uv@@ 1
fulani 1
ambalo 1
kis@@ 1
hak@@ 1
mpaka 1
uwezo 1
Ku@@ 1
14 1
ich@@ 1
alicheza 1
mtoto 1
ule 1
baadhi 1
rasmi 1
utawala 1
eo 1
wana 1
imba 1
mu@@ 1
mfumo 1
okana 1
do 1
2006 1
ewa 1
Misri 1
esha 1
umbo 1
ino 1
kwenda 1
sheria 1
inaweza 1
iki@@ 1
kuch@@ 1
ambo 1
ibu 1
mag@@ 1
angaza 1
2011 0.9634284303680419
ti 1
udi 1
mis@@ 1
kuv@@ 1
Lakini 1
Jina 1
isi@@ 1
lia 1
mwandishi 1
haki 1
ana@@ 1
kiwango 1
zi@@ 1
umba 1
inat@@ 1
’ 0.28145404418357634
nne 1
zinaz@@ 1
iga 1
bu 1
damu 1
A 0.4369376409300458
ow@@ 1
aga 1
ito 1
mwingine 1
ob@@ 1
ungwa 1
Kazi 1
tuzo 1
ath@@ 1
jumla 1
2015 1
k 0.5845359286124938
mwili 1
bu@@ 1
.@@ 1
bali 1
amini 1
shirika 1
mwan@@ 1
Marejeo 1
eh@@ 1
ho@@ 1
inayo@@ 1
rangi 1
wi 1
mg@@ 1
ugonjwa 1
and 0.027649186932911133
ziliz@@ 1
anay@@ 1
kun@@ 1
kip@@ 1
ma 1
yeye 1
chama 1
end@@ 1
Ziwa 1
21 1
25 1
Am@@ 1
ri@@ 1
Kar@@ 1
wap@@ 1
kucheza 1
aka@@ 1
ila 1
kutoa 1
ing 0.15379609728639285
ko@@ 1
Vi@@ 1
apatikana 1
ndege 1
av@@ 1
si@@ 1
fanya 1
msh@@ 1
neno 1
amia 1
ush@@ 1
asilimia 1
ayo 1
Umoja 1
be 0.2793468089240751
I 0.6707872196888058
uliwa 1
ambako 1
ndio 1
atia 1
indi 1
egemea 1
sita 1
mahali 1
ib@@ 1
kumi 1
24 1
har@@ 1
kw@@ 1
wala 1
ye 1
chuo 1
ov@@ 1
nyota 1
hapa 1
anywa 1
eb@@ 1
Tanganyika 1
mfalme 1
Mkuu 1
aweza 1
uli 1
halafu 1
uhuru 1
oro 1
Uturuki 1
ingia 1
mch@@ 1
Mwan@@ 1
apa 1
uwanja 1
wanyama 1
Amerika 1
bado 1
ezwa 1
kil@@ 1
osa 1
binafsi 1
et 0.08022682887788282
mambo 1
mwezi 1
2005 1
ae 1
ej@@ 1
II 1
ef@@ 1
ou@@ 1
mdogo 1
ale 0.7860537274729331
jeshi 1
alis@@ 1
ai@@ 1
ingawa 1
ez@@ 1
vit@@ 1
mbali 1
ote 1
ie 0.5328542779863021
ah 1
ham@@ 1
Wam@@ 1
asilia 1
katikati 1
aliz@@ 1
uchaguzi 1
walit@@ 1
hal@@ 1
apo 1
izi 1
Jimbo 1
mama 1
lik@@ 1
mazingira 1
imo 1
kikuu 1
chakula 1
joto 1
adi@@ 1
Wakatoliki 1
ndogo 1
um 0.45245732642706793
Uwanja 1
du@@ 1
hus@@ 1
Rais 1
22 1
ang 1
Atlantiki 1
2002 1
ra 1
² 1
mwenyewe 1
afu 1
2010 0.6706306704563111
yak@@ 1
walio@@ 1
hao 1
kijiji 1
kwake 1
mz@@ 1
sawa 1
zile 1
Guinea 1
Hii 1
dawa 1
huelekea 1
undi 1
Kig@@ 1
ba@@ 1
Alikuwa 1
Baadaye 1
nyumbani 1
uko 1
ele 1
pot@@ 1
ih@@ 1
alif@@ 1
anzishwa 1
kuw@@ 1
Man@@ 1
Yeye 1
irika 1
jinsi 1
makubwa 1
esh@@ 1
umbu@@ 1
Mia 1
namna 1
waf@@ 1
Tarafa 1
Kiarabu 1
ania 1
= 1
huru 1
23 1
Th@@ 0.9886702907888087
10@@ 1
Mara 1
el 0.07182921516770814
ishaji 1
er 0.09945937806592314
ime@@ 1
g 0.8686881129598243
mik@@ 1
Maj@@ 1
Waorthodoksi 1
Kifaransa 1
kuji@@ 1
wah@@ 1
enzi 1
visiwa 1
Ng@@ 1
ezaji 1
Wah@@ 1
wanaoishi 1
rais 1
Kama 1
imb@@ 1
Ukristo 1
Ghana 1
Mu@@ 1
tun@@ 1
ilia 1
ela 1
27 1
Kih@@ 1
pwani 1
lilikuwa 1
Mah@@ 1
aribu 1
aza 1
upo 1
kam@@ 1
kisiasa 1
te@@ 0.9832749743064404
hatari 1
hai 1
Vita 1
Watu 1
urefu 1
baba 1
Wal@@ 1
28 1
ura 1
yo@@ 1
2016 0.7939306208627749
undwa 1
matokeo 1
Yohane 1
alianza 1
anaheshimiwa 1
kush@@ 1
Mal@@ 1
huduma 1
kuk@@ 1
kulingana 1
tano 1
amua 1
kia 1
ate 0.3500690602424924
Mpya 1
wale 1
wenyewe 1
kidogo 1
War@@ 1
Waf@@ 1
ango 1
Kid@@ 1
eng@@ 1
Mi@@ 1
ne 0.5296937115422246
saba 1
ta@@ 1
mal@@ 1
und@@ 1
2018 0.7979123407316852
Orodha 1
kitabu 1
Tarehe 1
izo 1
wani 1
kab@@ 1
is 0.05954725312584228
kanda 1
jo 1
ungua 1
B 0.9451395090867589
eg@@ 0.9942168053883413
Paulo 1
atwa 1
isa 1
14@@ 1
ekwa 1
ato 1
nyumba 1
vyo@@ 1
at 0.09646258052072407
spishi 1
uj@@ 1
waz@@ 1
mlima 1
huku 1
watakatifu 1
has@@ 1
Jamii 1
hewa 1
or 0.17192948458643384
iy@@ 1
Urusi 1
picha 1
vitabu 1
Dar 1
ine 0.5109420483195918
26 1
maneno 1
haya 1
kuto@@ 1
li 1
Di@@ 1
uu 1
be@@ 0.4918293655006155
29 1
Ab@@ 0.8040629543678374
mwigizaji 1
miji 1
Kuu 1
Dola 1
kuh@@ 1
pande 1
utamaduni 1
wawili 1
wezi 1
ain@@ 1
Kip@@ 1
2017 0.7898252293169417
Hispania 1
amo 1
uawa 1
Mt@@ 1
12@@ 1
vijana 1
awala 1
Kilatini 1
2013 0.7236985245348808
ulu 1
mojawapo 1
aidia 1
milima 1
pewa 1
azo 1
bao 1
é 0.2732266866202076
eri 1
Ar@@ 0.6485177747614109
korongo 1
en 0.03372003324006574
zim@@ 1
inda 1
Australia 1
ane 1
2020 0.8483264245662379
elek@@ 1
makao 1
gt 1
itaji 1
yanay@@ 1
Kiswahili 1
shughuli 1
15@@ 1
kom@@ 1
anyika 1
masomo 1
haz@@ 1
hicho 1
jit@@ 1
pu@@ 1
lilil@@ 1
avu 1
ev@@ 1
Wab@@ 1
hiki 1
2019 0.7876075257053573
as 0.059410738570127526
postikodi 1
vili@@ 1
Ru@@ 1
Kif@@ 1
andikwa 1
ogo 1
sauti 1
moyo 1
majina 1
aanisha 1
ajwa 1
msimu 1
oz@@ 1
100 1
iku@@ 1
jiji 1
lt 1
ulio@@ 1
Biblia 1
se@@ 0.611334232152156
oti 1
Mab@@ 1
mbele 1
! 1
hatua 1
ike 1
atu 1
wen@@ 1
ombe 1
t 0.22335383853905807
ida 1
afya 1
Kal@@ 1
kilomita 1
Hivyo 1
amani 1
Asia 1
kar@@ 1
ond@@ 1
sa 0.49676976013007834
tisha 1
ndiyo 1
opatikana 1
ambacho 1
Ethiopia 1
Bonde 1
kujit@@ 1
imbo 1
2003 1
York 0.833232922483932
2001 1
alish@@ 1
hab@@ 1
Shule 1
alifariki 1
uta 1
John 0.7554076826639269
Kam@@ 1
kili@@ 1
kij@@ 1
linalopatikana 1
mwimbaji 1
vu 1
Mad@@ 1
vyake 1
kilich@@ 1
thi 1
ee 1
zinazo@@ 1
yaliy@@ 1
jum@@ 1
ongoza 1
pi@@ 1
bar@@ 1
uo 1
are 0.17421847307441152
mich@@ 1
mabadiliko 1
1990 1
amizi 1
Mor@@ 1
Salaam 1
13@@ 1
angwa 1
kote 1
2004 0.8985545710620687
kisha 1
kan@@ 1
uba 1
Ak@@ 1
kon@@ 1
ardhi 1
dia 1
umwa 1
Uhindi 1
ingo 1
31 1
usika 1
to 0.0253397542069662
yako 1
iliyot@@ 1
acha 1
utafiti 1
ezo 1
ij@@ 1
mwanachama 1
Mo@@ 1
mfululizo 1
0,000 1
maendeleo 1
Mag@@ 1
sa@@ 1
Kibantu 1
kituo 1
mwanamke 1
linal@@ 1
China 1
bi 1
anzisha 1
kitaifa 1
tam@@ 1
zilizo@@ 1
ge@@ 0.5981701262602761
kufikia 1
Zanzibar 1
.. 1
su@@ 0.7878649270397134
wach@@ 1
kisasa 1
ingi 1
iliwa 1
soka 1
awi 1
kud@@ 1
uy@@ 1
man 0.4284873827072406
elewa 1
omba 1
n.k. 1
walio 1
eshwa 1
du 0.10425794306364093
inayot@@ 1
majimbo 1
posta 1
naye 1
pata 1
vizuri 1
El@@ 1
alipata 1
chang@@ 1
halisi 1
esi 1
jeni 1
haraka 1
ora 1
afan@@ 1
Waislamu 1
Kigiriki 1
C 0.7525032813156463
kifupi 1
kuli@@ 1
haw@@ 1
te 0.2144982314239024
Kiy@@ 1
Ufa 1
ong 1
ed@@ 0.6558098995703254
Alit@@ 1
Wali@@ 1
umb@@ 1
andishi 1
b 0.663230262725334
kiongozi 1
walik@@ 1
kikubwa 1
Chama 1
emb@@ 1
era 0.5444413229416143
ota 1
ono 1
rekodi 1
uso 1
to@@ 0.7379576243138778
ola 1
waj@@ 1
akili 1
alifanya 1
miwili 1
matatizo 1
pen@@ 1
vik@@ 1
Kale 1
ind@@ 1
mta@@ 1
upendo 1
fur@@ 1
Kich@@ 1
Maria 1
Kirumi 1
aria 1
tabia 1
hakuna 1
sanaa 1
angazwa 1
embe 1
mwanzo 1
Makao 1
mil@@ 1
vyo 1
Nairobi 1
uchumi 1
ga 1
kamili 1
kuishi 1
Mlima 1
Lugha 1
ech@@ 1
mashindano 1
mau@@ 1
siasa 1
kali 1
ro@@ 0.49717260134249786
chu@@ 1
matibabu 1
mwen@@ 1
wenzake 1
Mataifa 1
fedha 1
gi@@ 1
kusababisha 1
umeme 1
l 0.2467248766645793
msanii 1
ajiri 1
unao@@ 1
Hu@@ 1
alia 1
kina 1
Tak@@ 1
kuingia 1
ni@@ 0.7538648166036827
ahi 1
omo 1
ndiye 1
ole 1
ababisha 1
indwa 1
nyuma 1
st@@ 0.3005411093693124
Kiaustronesia 1
azama 1
huitwa 1
tak@@ 1
unganisha 1
Wimbo 1
wiki 1
ume@@ 1
wasi@@ 1
kweli 1
oli 1
mwanasiasa 1
akuwa 1
vifaa 1
uku@@ 1
sifa 1
eno 1
osi 1
usu 1
ist@@ 1
avyo@@ 1
bara 1
vil@@ 1
orodha 1
Turkana 1
kike 1
wanafunzi 1
undo 1
As@@ 1
angalia 1
kabila 1
och@@ 1
do@@ 1
ongozwa 1
pe@@ 0.978592151785673
ye@@ 1
Kimataifa 1
kilimo 1
oj@@ 1
mani 1
hiwa 1
mshindi 1
seli 1
ishia 1
je 1
pel@@ 1
kijamii 1
kiz@@ 1
hay@@ 1
ak 0.9890319189858008
ke 0.8412501218468813
ou 0.4144195801182058
ena 1
dalili 1
Un@@ 1
1999 0.9624848409722089
akawa 1
z 0.5537930345157108
ukubwa 1
wag@@ 1
kushinda 1
kani 1
opo 1
Kikristo 1
Wag@@ 1
dh@@ 1
mkono 1
kinach@@ 1
wame@@ 1
40 1
n 0.30442841841467605
tarakimu 1
ekani 1
Kombe 1
mchezo 1
Bwana 1
le 0.049847295236304226
hifadhi 1
lenye 1
maalumu 1
Kiafrika 1
Mp@@ 1
Shirika 1
ulit@@ 1
ori 1
le@@ 0.4300201103230572
yas@@ 1
Lu@@ 1
bendi 1
husika 1
Indonesia 1
inayofuata 1
Ame@@ 1
amp 0.5384135744726802
azim@@ 1
mafuta 1
jua 1
mingi 1
alijiunga 1
awe 1
evu 1
umma 1
de@@ 0.37723706197189333
lazima 1
ulia 1
wali 1
Hapo 1
hitimu 1
elea 1
uti 1
ukua 1
iria 1
faa 1
zenye 1
Kas@@ 1
hat@@ 1
asha 1
kumbukumbu 1
etu 1
hibiti 1
Q@@ 1
ene 1
uhusiano 1
utu 1
unguka 1
kura 1
azam@@ 1
anat@@ 1
ikali 1
kuzuia 1
Mit@@ 1
walioishi 1
osh@@ 1
ajulikana 1
Ili@@ 1
igizaji 1
1991 1
auti 1
maf@@ 1
Siku 1
angi 1
ndugu 1
Kijerumani 1
mapema 1
tasa 1
vijiji 1
wafiadini 1
war@@ 1
afanya 1
ge 0.6280198317139007
kat@@ 1
mamlaka 1
yaliyo@@ 1
Albamu 1
maziwa 1
Ad@@ 1
mbinu 1
nusu 1
badala 1
aji@@ 1
kulikuwa 1
watumwa 1
hawak@@ 1
heshima 1
engwa 1
Map@@ 1
vitu 1
50 0.9343225639431844
ke@@ 1
2@@ 1
angu 1
miezi 1
tr@@ 0.28136765718349743
re@@ 0.11378398927133068
zil@@ 1
kikundi 1
r 0.6820329666113557
tar 1
yoyote 1
por@@ 1
hadithi 1
unaweza 1
tayari 1
engenezwa 1
Mer@@ 1
ikwa 1
shahada 1
fa 1
kufa 1
pokea 1
bidhaa 1
jam@@ 1
miongoni 1
Sudan 1
Har@@ 1
ad 0.6953144382624749
emba 1
uhusu 1
kitu 1
kutangulia 1
Kab@@ 1
un 0.05958690614639063
1995 1
ilo 1
-------- 1
unat@@ 1
vingine 1
adilisha 1
andika 1
inayoandikwa 1
Baba 1
Kan@@ 1
one 0.1675805331553426
ac@@ 0.33045780440042616
mafanikio 1
moto 1
Ingawa 1
hawa 1
pas@@ 1
irikiana 1
lil@@ 1
kid@@ 1
ru@@ 0.8730421887953235
1994 1
barabara 1
safari 1
par@@ 0.3853241335557069
Jum@@ 1
alama 1
zinaweza 1
yam@@ 1
huyo 1
nane 1
wanaweza 1
Sehemu 1
? 1
3,@@ 1
amp@@ 1
hau@@ 1
tisa 1
Mb@@ 1
kuanzisha 1
anacheza 1
wanaume 1
Ivoire 1
karibuni 1
yat@@ 1
aguliwa 1
Hasa 1
wahi 1
Kisiwa 1
Miaka 1
aliyekuwa 1
ake 1
Bo@@ 0.9671857301727378
ra@@ 1
mawili 1
ui 1
1993 1
mimea 1
nia 1
Al 1
wasanii 1
ingwa 1
mkataba 1
bur@@ 1
makabila 1
1997 0.9997861087244582
koloni 1
os 0.2106071176082897
c 0.33443755017235355
kichwa 1
Wayahudi 1
vip@@ 1
Waziri 1
msaada 1
kez@@ 1
unguza 1
Aliwahi 1
elekea 1
kuzaliwa 1
mach@@ 1
Baadhi 1
ako 1
ei 1
kimo 1
mashuhuri 1
1998 0.9058321223946085
liwa 1
wash@@ 1
Elimu 1
Nchi 1
ri 1
ere 0.8424516305704318
uw@@ 1
pan@@ 1
maalum 1
Bur@@ 1
uzwa 1
wazi 1
Mtakatifu 1
zilikuwa 1
Kiniger 1
onga 1
wadogo 1
Israeli 1
haku@@ 1
ic@@ 0.4115306109727724
w 0.818220782758219
enea 1
kutengeneza 1
ulimwengu 1
alishinda 1
cheo 1
London 0.9750505083890971
programu 1
Sab@@ 1
lo@@ 0.39168143030346964
usisha 1
linalo@@ 1
Kidemokrasia 1
maz@@ 1
yalikuwa 1
1996 0.9572585910351943
eleza 1
ilim@@ 1
0@@ 1
Cote 1
1980 1
kijeshi 1
1970 1
vingi 1
1@@ 1
Maz@@ 1
Pamoja 1
kutokea 1
iny@@ 1
safu 1
Papua 1
eshi 1
lina 1
chukua 1
kiwa 1
ahidi 1
ishe 1
ozi 1
p 0.47296609795875716
video 1
wako 1
san@@ 1
viongozi 1
1992 0.9763834203826885
Nak@@ 1
chache 1
chap@@ 1
Tana 1
sal@@ 1
sha 1
ambu@@ 1
kuanza 1
mpango 1
usiku 1
kuunda 1
fi@@ 1
men@@ 0.968148061235652
Nyanza 1
fun@@ 1
ton 0.44467709784118997
ng 1
nyama 1
City 0.6710576003102421
Kat@@ 1
imekuwa 1
okeza 1
200 1
dola 1
ishinda 1
jambo 1
jirani 1
uti@@ 1
zina@@ 1
igo 1
mwanamuziki 1
uki 1
asi@@ 1
enti 1
adamu 1
kuelekea 1
ago 1
imet@@ 1
United 0.3928756165469004
naf@@ 1
televisheni 1
ten@@ 0.5541225635577831
virusi 1
anzo 1
athari 1
afiki 1
miz@@ 1
Uislamu 1
Leo 1
kuchukua 1
nj@@ 1
lit@@ 1
masuala 1
waka@@ 1
fika 1
icha 1
ingine 1
kanuni 1
kujenga 1
California 1
Sal@@ 1
igiza 1
kanisa 1
makazi 1
pale 1
hara 1
sala 1
ers 0.1641161370386668
kupunguza 1
mwanzilishi 1
Kabla 1
ay 0.6692188680976124
usha 1
Korea 1
he@@ 0.7422387512483266
kujiunga 1
mfiadini 1
Re@@ 0.37986175745640116
ambavyo 1
oloni 1
ambia 1
angani 1
akatifu 1
ukiwa 1
Waarabu 1
ezea 1
hur@@ 1
Brazil 1
Nobel 1
waki@@ 1
etea 1
ispania 1
ms@@ 1
paa 1
kua 1
baridi 1
hul@@ 1
kubali 1
wakilisha 1
4,@@ 1
Muziki 1
andaa 1
aswa 1
• 1
tan@@ 1
asema 1
isionari 1
mapokeo 1
uliopo 1
umo 1
thibi@@ 1
jia 1
kwani 1
mfupi 1
amin@@ 1
bo 1
afiri 1
magonjwa 1
ubali 1
ega 1
jijini 1
Hapa 1
amuzi 1
chati 1
mataifa 1
gu@@ 0.7415899287255779
kushika 1
mtandao 1
tishwa 1
eke 1
dhuluma 1
kurudi 1
meli 1
ilianzishwa 1
lengo 1
viwango 1
ilishi 1
kadiri 1
vilevile 1
ngozi 1
oga 1
umi 1
nao 1
ondoa 1
Injili 1
mikoa 1
Ligi 1
eja 1
vyombo 1
ulioko 1
kuendelea 1
wenda 1
Si@@ 1
indo 1
kilikuwa 1
kusoma 1
mtindo 1
Taifa 1
ami@@ 1
endesha 1
far@@ 1
afuta 1
Arusha 1
Mil@@ 1
anajulikana 1
kuti@@ 1
mawasiliano 1
chi 1
mf@@ 1
ongo@@ 1
simu 1
alij@@ 1
fariki 1
wezesha 1
Bunge 1
afu@@ 1
la@@ 1
adhi 1
adiriwa 1
roho 1
athiri 1
wanat@@ 1
mbio 1
mraba 1
wanao@@ 1
airi 1
elezea 1
hutumika 1
ley 0.5745542671217186
tish@@ 1
zinazot@@ 1
Nd@@ 1
apata 1
mbaya 1
ungana 1
zina 1
Kuanzia 1
aliza 1
mon@@ 0.5260757798082942
q@@ 1
Tanga 1
Vigawo 1
hum@@ 1
maambukizi 1
makundi 1
0 0.553316831585771
Tib@@ 1
anaweza 1
1,@@ 1
1988 1
iw@@ 1
jumuisha 1
matukio 1
mvua 1
ur 0.822932632513277
abati 1
kando 1
1960 1
c@@ 0.1803724270105685
saa 1
son 0.12522761326548204
Mus@@ 1
kuongeza 1
adha 1
adilika 1
kh@@ 1
Ali 1
emia 1
umbali 1
weka 1
yon@@ 1
Mon@@ 0.6377929253271195
avy@@ 1
imi 1
kuona 1
mali 1
iriwa 1
Vijijini 1
basi 1
ngazi 1
akama 1
Vietnam 1
Kanada 1
chanzo 1
mbunge 1
muundo 1
Kum@@ 1
R 0.7447739786569016
amil@@ 1
ibada 1
kutaja 1
uku 1
ambi 1
waziri 1
x@@ 0.515139607974713
Be@@ 0.46059444234141084
Msimbo 1
Yo@@ 1
f 0.5819308706018057
indano 1
usi@@ 1
agua 1
onjwa 1
vyote 1
wadudu 1
Is@@ 1
Wad@@ 1
mwanzoni 1
ol 0.7910908569009207
uny@@ 1
Car@@ 0.5067773979778749
pende@@ 1
it 0.08608583287695597
undisha 1
mk@@ 1
mwalimu 1
wananchi 1
ndoa 1
penda 1
Af@@ 1
yanayo@@ 1
Bu@@ 1
beba 1
yale 1
uongozi 1
aye 1
taasisi 1
Kitabu 1
Kutokana 1
dogo 1
miti 1
Ut@@ 1
X@@ 0.7774524950449528
alisema 1
ant@@ 0.6777086684015194
gh@@ 1
sekondari 1
padri 1
wakiwa 1
Mjini 1
anisha 1
uza 1
kufika 1
linat@@ 1
ongezeka 1
sin@@ 1
Sheria 1
Chi@@ 1
T 0.7603216750225433
kompyuta 1
me@@ 0.6549913966620724
yetu 1
askari 1
Morogoro 1
kutumika 1
ed 0.06732884823846949
ingatia 1
kumu@@ 1
waliot@@ 1
ph@@ 0.3909394902935908
Hali 1
Tr@@ 0.39380044650514073
,000 1
Ag@@ 1
abiashara 1
sar@@ 1
70 1
ifunza 1
kuwepo 1
Gu@@ 0.7520570715466135
kufu@@ 1
zingine 1
Hal@@ 1
hambu@@ 1
lililo@@ 1
kusaidia 1
inap@@ 1
kas@@ 1
ungo 1
Serikali 1
akam@@ 1
endeleza 1
ok 1
wastani 1
atikana 1
heri 1
iza 1
dhahabu 1
singi 1
Wap@@ 1
ambuliwa 1
mmojawapo 1
U 0.7877677308221561
taarifa 1
udi@@ 1
Pr@@ 0.6320727381697309
St@@ 0.35897008180371004
Wanawake 1
samaki 1
tiki 1
En@@ 0.6839325774258497
ulizi 1
80 1
atibu 1
bea 1
500 1
Kwanza 1
Rwanda 1
gen@@ 0.5096991612987396
idae 1
imbia 1
maonyesho 1
yi 1
1989 0.9385285356986841
ache 1
olo 1
ugu 1
‘ 1
ababishwa 1
Ka@@ 1
Mik@@ 1
Sim@@ 1
lililo 1
ungaji 1
mam@@ 1
engele 1
ilik@@ 1
ipo 1
mash@@ 1
1987 1
juhudi 1
tas@@ 1
ujenzi 1
fupi 1
taka 1
umiaji 1
Waingereza 1
ekeb@@ 1
90 1
Botswana 1
Filamu 1
Uholanzi 1
gazeti 1
ufalme 1
iv@@ 1
ofanya 1
silaha 1
wingi 1
madar@@ 1
mtunzi 1
barani 1
ligi 1
ungum@@ 1
Kari@@ 1
adili 1
id 0.6792923981754698
Na 1
ahudi 1
auri 1
kasi 1
mchang@@ 1
Mash@@ 1
hutumia 1
kiuchumi 1
utaratibu 1
kuandika 1
ongeza 1
eshaji 1
hari@@ 1
ubongo 1
Sam@@ 1
sayansi 1
umaarufu 1
ayar@@ 1
ome 1
ushindi 1
atom@@ 1
biwa 1
Pol@@ 1
baina 1
III 1
Le@@ 0.44245694406285624
endel@@ 1
maadili 1
nd@@ 1
India 1
engen@@ 1
ilitolewa 1
se 0.05624227778320202
ilianza 1
kuwa@@ 1
Akiwa 1
Tar@@ 1
Dodoma 1
upe 1
6,@@ 1
Kiz@@ 1
asia 1
tarafa 1
Zimbabwe 1
engine 1
ikawa 1
kad@@ 1
yal@@ 1
zis@@ 1
wenyeji 1
7,@@ 1
mke 1
ongea 1
O 0.5830839525524792
babu 1
5,@@ 1
Ush@@ 1
Wakazi 1
ahamika 1
anz@@ 1
kupiga 1
mafundisho 1
maumivu 1
pengine 1
2021 0.5419268894967554
Kiislamu 1
Paris 0.6660515318027025
hai@@ 1
Mur@@ 1
Ta@@ 1
ambua 1
iliopo 1
ir 0.5145472165662901
mabao 1
omu 1
iliyokuwa 1
mafunzo 1
pombe 1
Fransisko 1
mwishoni 1
Angola 1
eshimiwa 1
iliano 1
nzuri 1
so@@ 0.5265057045237522
upya 1
La 0.10694782483371197
imbaji 1
isipokuwa 1
hek@@ 1
maandishi 1
vid@@ 1
Alizaliwa 1
Sahara 1
fung@@ 1
iliyo 1
mwendo 1
thel@@ 1
uchunguzi 1
akit@@ 1
kiume 1
sk@@ 0.9078080895316145
60 0.9819793419149038
aliandika 1
zinat@@ 1
ber@@ 0.4360937525696443
jukumu 1
pesa 1
Mtume 1
isti 1
kuonekana 1
kuwas@@ 1
mchanganyiko 1
ando 0.45320525531783973
iba 1
elezo 1
kig@@ 1
madhehebu 1
Kila 1
West 0.6989480370950625
alihamia 1
afsiri 1
aini 1
awishi 1
ende@@ 1
olea 1
ikira 1
kuja 1
Kor@@ 1
raia 1
umoja 1
zee 1
tamaduni 1
B.K. 1
lao 1
mkutano 1
Ang@@ 1
sim@@ 1
wataalamu 1
anzi 1
mashirika 1
ame 1
avyo 1
bakteria 1
barua 1
mno 1
wazazi 1
Bal@@ 1
ingi@@ 1
teknolojia 1
Kol@@ 1
harakati 1
weusi 1
binti 1
kudumu 1
yanaweza 1
Kamerun 1
efu 1
iliana 1
kesi 1
Michael 1
toleo 1
Hakuna 1
akana 1
faida 1
walipo@@ 1
9,@@ 1
lime@@ 1
wanachama 1
inj@@ 1
land 0.3341326211837618
ambuzi 1
umishi 1
fut@@ 1
wakilishi 1
zaa 1
alii 1
changia 1
ukoloni 1
Yerusalemu 1
kwao 1
wafuasi 1
Sanaa 1
afisa 1
gari 1
reli 1
ula 1
Asili 1
Par@@ 0.504923876278157
waliokuwa 1
Tam@@ 1
ivu 1
Mbeya 1
ichezea 1
mimba 1
ufa 1
Upande 1
Ureno 1
Il@@ 1
Vit@@ 1
ilisha 1
lina@@ 1
wakubwa 1
Uch@@ 1
ofisi 1
umbe 1
uwezekano 1
kari 1
ekea 1
huf@@ 1
mradi 1
wanda 1
kushiriki 1
upinzani 1
Mis@@ 1
Spishi 1
alir@@ 1
daraja 1
vipindi 1
Olimpiki 1
Uchina 1
kif@@ 1
kui@@ 1
unaot@@ 1
utia 1
Mach@@ 1
hali@@ 1
vol@@ 0.8966949130914851
wafany@@ 1
hutokea 1
kamp@@ 1
kufuata 1
kupig@@ 1
° 0.8895645359012815
andi 1
eng 1
kaisari 1
kir@@ 1
Ugiriki 1
awany@@ 1
imbi 1
madogo 1
Cape 1
James 0.7950241260976565
akat@@ 1
dhambi 1
hutumiwa 1
alitoa 1
br 1
Wajerumani 1
for 0.0322684098858872
kuweka 1
alianzisha 1
alil@@ 1
ambaz@@ 1
ifanya 1
ovu 1
riwaya 1
Mwen@@ 1
andi@@ 1
macho 1
wimu 1
Wasifu 1
eva 1
ju@@ 1
kumaliza 1
msim@@ 1
ony@@ 1
hud@@ 1
monasteri 1
De@@ 0.5807371528391628
Aina 1
Visiwa 1
wagonjwa 1
yenyewe 1
Tab@@ 1
ais 1
kikosi 1
Algeria 1
Maf@@ 1
Neno 1
Roho 1
amilifu 1
ey 0.7308484460913844
kihistoria 1
kutolewa 1
viwanda 1
ch 0.3216978245382456
ehe 1
hot@@ 1
jengwa 1
ambul@@ 1
ikisha 1
umbi 1
Nyumba 1
So@@ 0.9341069339984184
X 0.7808724635450316
iro 1
jer@@ 1
kem@@ 1
uki@@ 1
her@@ 0.46640257869146307
ufu@@ 1
Kampuni 1
bandari 1
studio 1
re 0.29196803758934015
sik@@ 1
Gr@@ 0.48023890215446735
kilicho@@ 1
ondoka 1
tawala 1
32 1
Aleksandria 1
Ser@@ 0.8821882914825575
fan@@ 1
kuonyesha 1
ujumla 1
umbusho 1
yana@@ 1
Agano 1
ishara 1
vim@@ 1
Kitaifa 1
choch@@ 1
duliwa 1
oy@@ 1
tim@@ 1
uru@@ 1
Ji@@ 1
Sek@@ 1
him@@ 1
pos@@ 0.6425170014387295
redio 1
anaye@@ 1
bizi 1
vilivy@@ 1
Kur@@ 1
Mchezaji 1
Nor@@ 0.8461369902500795
Waafrika 1
mauaji 1
onde 1
amekuwa 1
kah@@ 1
onyeshwa 1
soko 1
1982 0.9892876689315471
Africa 1
Kr@@ 0.8549246062093995
kutafuta 1
Kigoma 1
Muungano 1
ambaa 1
anzania 1
ika@@ 1
Mkristo 1
alipokuwa 1
jenasi 1
walimu 1
yen@@ 1
adilishwa 1
anam@@ 1
andam@@ 1
irikisha 1
unza 1
2,@@ 1
anishwa 1
ataa 1
kinga 1
vinavy@@ 1
1981 0.9924143030580006
Baraza 1
Shirikisho 1
N 0.7949432642408808
1986 0.8988262333039206
oo 1
tab@@ 1
tia 1
unganishwa 1
35 1
abaki 1
ukweli 1
African 1
Alich@@ 1
Cor@@ 0.5097753411445007
E 0.6321865073911884
kusim@@ 1
Ig@@ 1
D 0.5393532464146527
elfu 1
idh@@ 1
uzito 1
aulu 1
ot 0.6877736949797547
mapinduzi 1
8,@@ 1
Petro 1
huz@@ 1
alichaguliwa 1
ami 1
lilit@@ 1
makala 1
Mtwara 1
ado 0.1531893372844045
amet@@ 1
ka@@ 1
mif@@ 1
wav@@ 1
Far@@ 1
Somalia 1
tukio 1
Milima 1
afi 1
amri 1
no 0.16139510813802513
FC 0.9378767834830485
alipokea 1
alo 1
dio 1
Su@@ 0.9099093602202163
chan@@ 1
majaribio 1
zilizot@@ 1
Ubelgiji 1
ushwa 1
Kut@@ 1
Ni@@ 1
Ufalme 1
ende 0.5510356763080417
hop 1
mtayarishaji 1
Dar@@ 1
embo 1
iliyopita 1
Nam@@ 1
VVU 1
br@@ 0.29883161374523726
engi 1
hip 1
kiungo 1
Galana 1
L 0.4578640977315653
kug@@ 1
abii 1
Sa@@ 1
ab 0.4219120861081464
had@@ 1
1985 0.8935080261400113
Mfalme 1
polisi 1
1984 0.8909305036162956
keza 1
ombea 1
El 0.156703822336719
FIFA 1
Pius 1
V 0.6665752063996833
anikiwa 1
katiba 1
kich@@ 1
ofu 1
win@@ 1
zilit@@ 1
Nj@@ 1
kr@@ 1
kupokea 1
ukumu 1
Hat@@ 1
mitatu 1
mj@@ 1
nakala 1
Austria 1
Br@@ 0.39986323269678686
waliouawa 1
William 0.6702032704034461
mawe 1
uzazi 1
pak@@ 1
azamo 1
em 0.5222977210725569
hup@@ 1
taratibu 1
tem@@ 1
wanaheshimiwa 1
S 0.5004551207039414
imep@@ 1
wezekana 1
Habari 1
Kilimanjaro 1
mayai 1
vikundi 1
Hadi 1
Vy@@ 1
herufi 1
orodh@@ 1
wanajeshi 1
emekana 1
ilich@@ 1
min@@ 0.5120462108936281
zu 0.10479424868547972
Alis@@ 1
asim@@ 1
mbegu 1
Mama 1
hudhuria 1
ilipo@@ 1
son@@ 0.8940323268119987
unua 1
sherehe 1
George 0.7251567241057177
Mch@@ 1
oria 1
Athi 1
Her@@ 0.6514054130162444
afanana 1
ung 0.17688233067755624
kula 1
row 1
usiano 1
kinyume 1
mo@@ 0.3846272516390214
Or@@ 0.5296164474049235
300 1
Kaisari 1
Msumbiji 1
Wany@@ 1
athiriwa 1
usimamizi 1
wachache 1
Paul 0.6897933751547345
sura 1
Ko@@ 1
walim@@ 1
wazo 1
Ur@@ 1
kutana 1
ndi@@ 1
ram@@ 1
wafanyakazi 1
weze 1
Me@@ 0.5528244201322409
afiti 1
bal@@ 1
ikiwemo 1
jumu@@ 1
Co@@ 0.42701537960060754
iliyopo 1
inas@@ 1
baharini 1
kukam@@ 1
utana 1
Joseph 1
Unguja 1
domo 1
imi@@ 1
ingana 1
mawazo 1
pin@@ 1
Jua 1
juli@@ 1
mv@@ 1
yeji 1
Jeshi 1
King@@ 1
fau@@ 1
vituo 1
egem@@ 1
gesi 1
34 1
Utafiti 1
anti 1
ekel@@ 1
Alianza 1
ondo 1
ue 0.5229676333558518
Per@@ 0.4958324973401713
eji 1
kupel@@ 1
sit@@ 1
tamth@@ 1
tiba 1
Kaunti 1
chombo 1
uham@@ 1
watatu 1
wili 1
Chini 1
ard 0.4491840615492112
tari 1
TV 0.7252463516256246
Zambia 1
kiny@@ 1
lich@@ 1
tawi 1
Iko 1
ask@@ 1
ass@@ 0.3700509124847514
mirefu 1
toka 1
usa 1
é@@ 0.21902918472591668
* 0.4590317926245186
16@@ 0.8532159088384443
Malcolm 1
Waj@@ 1
alisha 1
ejulikana 1
kisayansi 1
usiana 1
400 1
Taasisi 1
Uchaguzi 1
atiwa 1
ec@@ 0.285647786432861
kijijini 1
mwanam@@ 1
anisa 1
inak@@ 1
kutosha 1
sayari 1
ze 0.958438928298079
iyo 1
wakim@@ 1
Mos@@ 1
aalamu 1
ahamu 1
elew@@ 1
gun@@ 1
huri 1
kutu@@ 1
siri 1
udia 1
Lo@@ 0.6366816263386806
nyan@@ 1
kuongezeka 1
K.K. 1
Sabaki 1
ofautiana 1
huyu 1
odi 1
vikuu 1
waji 1
mashairi 1
majira 1
neema 1
pig@@ 1
angia 1
bia 1
ilini 1
jo@@ 1
matunda 1
National 0.3224063983429283
adhimisha 1
aum@@ 1
embelea 1
fah@@ 1
kutambua 1
unge 1
Uswidi 1
anyiko 1
run@@ 1
unja 1
Bab@@ 1
M 0.5843511337065647
afuata 1
ekodi 1
ishirini 1
mifumo 1
nadharia 1
ubwa 1
CCM 1
il 0.08850482499065504
ografia 1
ombo 1
wachezaji 1
Nar@@ 1
emo 1
hesabiwa 1
misitu 1
shida 1
Wach@@ 1
afa 1
engeneza 1
ujuzi 1
Mf@@ 1
kuten@@ 1
chaguliwa 1
mwana 1
nguo 1
iliki 1
jiunga 1
mi 1
viungo 1
5,000 1
Az@@ 1
Hatimaye 1
Saint 0.39283178986660533
ilikadiriwa 1
mir@@ 1
ilis@@ 1
nzima 1
Ber@@ 0.49526533130752726
egawany@@ 1
hospitali 1
kuleta 1
mikubwa 1
mwanaharakati 1
uia 1
ekeleza 1
33 1
Maw@@ 1
Us@@ 1
kidini 1
kuenea 1
mkon@@ 1
nini 1
alfabeti 1
huj@@ 1
ukuliwa 1
fuat@@ 1
inah@@ 1
kukat@@ 1
kupatikana 1
East 0.7745635953123203
He@@ 0.5139443865465539
P 0.6027113122838427
fa@@ 1
haj@@ 1
mapigano 1
walianza 1
wanah@@ 1
1964 0.9958357810414256
Jiografia 1
mbu@@ 1
milki 1
vig@@ 1
wanam@@ 1
Bora 1
Robert 0.7034799212497272
ew@@ 1
isim@@ 1
k.@@ 1
kaka 1
majani 1
walish@@ 1
ANU 1
Awards 1
aku 1
alu 1
rahisi 1
Mand@@ 1
adala 1
akani 1
aliwahi 1
nayo 1
angazaji 1
apishwa 1
chem@@ 1
handisi 1
kusema 1
uzalishaji 1
Bas@@ 0.9418756445743057
Kh@@ 1
Na@@ 1
imek@@ 1
ishoni 1
kiroho 1
mikono 1
-@@ 0.5594460859390677
Matumizi 1
ya@@ 1
zik@@ 1
Se@@ 0.410456225244491
UKIMWI 1
amiaji 1
araj@@ 1
nyeupe 1
pat@@ 1
Charles 0.6792149442290351
endi 1
kuhamia 1
nishati 1
vifo 1
waw@@ 1
39 1
G 0.5691107249614615
Up@@ 1
andao 1
bun@@ 1
fer@@ 0.47544580302970746
les 0.042445962802234984
Kituo 1
Tu@@ 1
by 0.02999618007124913
pokuwa 1
ulimwenguni 1
ushirikiano 1
vyama 1
zime@@ 1
ajabu 1
shu@@ 1
som@@ 1
wele 1
afir@@ 1
anap@@ 1
gharama 1
kundinyota 1
kupot@@ 1
saf@@ 1
1950 0.8327197797732308
Benki 1
alme 1
ly 0.1997715567738339
peke 1
Ro@@ 0.49244344373896065
South 0.38760628436036093
Uajemi 1
Ug@@ 1
ez 1
kiko 1
Kati@@ 1
Kiny@@ 1
abara 1
alisoma 1
dar@@ 1
der 0.015177602548475123
dua 1
elekeo 1
mingine 1
pend@@ 1
San 0.37660847615417203
baya 1
dakika 1
kilometa 1
kuliwa 1
madini 1
urah@@ 1
Kon@@ 0.9033999116297463
Nile 1
adil@@ 1
bus@@ 1
chuma 1
ic 0.2435088269789975
ngoma 1
uliot@@ 1
David 0.6793633192309507
andiko 1
lu@@ 0.6328096552471597
pi 1
Uz@@ 1
falme 1
mipango 1
abila 1
jip@@ 1
mpangilio 1
ongozi 1
viwili 1
+ 0.7022199478354381
Ina@@ 1
Tabora 1
don@@ 0.89492656202692
Ge@@ 0.5217022523703894
anii 1
hukum@@ 1
omb@@ 1
umuhimu 1
utano 1
zaji 1
International 0.5267635770124446
Rom@@ 1
diwa 1
elementi 1
hariri 1
tum@@ 1
ure 0.33154847959469963
Kagera 1
milele 1
ndefu 1
ofanana 1
ohusiana 1
45 0.8687908967853252
akazi 1
ekundu 1
eto 1
ingira 1
kutoweka 1
unzi 1
Jumuiya 1
Mari@@ 1
ambukizwa 1
chenye 1
kimoja 1
mkurugenzi 1
single 0.488673979409771
usalama 1
K 0.6696919045561717
Ri@@ 0.8198418517007878
esho 1
hughu@@ 1
kop@@ 1
mia 1
sahihi 1
ungumza 1
49 1
Kisha 1
Ram@@ 1
a.@@ 1
masi 1
om 0.8901997856270193
ulinzi 1
yanaelekea 1
yangu 1
yewe 1
# 1
Li@@ 0.726211611787115
aliweza 1
anak@@ 1
ashi 1
hin@@ 1
unguko 1
emu 1
iitwayo 1
kufuatana 1
mahitaji 1
upe@@ 1
Njia 1
Viungo 1
adh@@ 1
aku@@ 1
atizo 1
isitiza 1
lote 1
maskini 1
omea 1
raf@@ 1
bul@@ 0.9908211852542549
ifuata 1
ku 1
medali 1
okia 1
Records 1
ahada 1
aribia 1
arifa 1
eso 1
ukoo 1
ukw@@ 1
10,000 1
Waz@@ 1
aliendelea 1
alipewa 1
izwa 1
Kl@@ 1
fasihi 1
hinda 1
ik 0.9837625531303898
vyuo 1
Kwenye 1
benki 1
itajika 1
jadi 1
majengo 1
mzuri 1
viumbe 1
wekwa 1
Bi@@ 0.6520888848545173
Lindi 1
Sar@@ 1
Te@@ 0.7583930920168649
len@@ 1
nyekundu 1
tatizo 1
Senegal 1
aliyet@@ 1
Mpaka 1
North 0.45753459962959186
Pas@@ 1
ushahidi 1
Guthrie 1
Sayansi 1
Ub@@ 1
ter@@ 0.24605478487037982
wanamuziki 1
inzani 1
uke 1
wepo 1
Kus@@ 1
aliteuliwa 1
hamia 1
he 0.05217813370917079
isiwa 1
mwanas@@ 1
sab@@ 1
Bus@@ 1
ire 0.5100306777521678
thamani 1
vipimo 1
1979 0.7914108823793166
Kamp@@ 1
ey@@ 1
falsafa 1
ore 0.5251781823712255
Manchester 1
Mc@@ 0.4444330144569216
aus@@ 0.24221522578016086
jar@@ 1
kile 1
mwanafunzi 1
ongezeko 1
yanayot@@ 1
36 1
isiyo 1
kuny@@ 1
Ken@@ 1
Kihindi 1
Maendeleo 1
Uli@@ 1
aribio 1
ford 0.6542542024779664
wanas@@ 1
wez@@ 1
ziko 1
Mwezi 1
Sp@@ 0.49443482013420753
akis@@ 1
huweza 1
kuimba 1
ran@@ 0.4906981222398416
1977 0.8577562127206698
42 1
itumia 1
j 1
onge@@ 1
Muh@@ 1
Peter 0.7910530556043205
age 0.13213338903174005
icho 1
Mwanza 1
Ndugu 1
Ne@@ 0.417476831938467
kitovu 1
mig@@ 1
1978 0.8093972652234653
Huko 1
Jackson 1
abab@@ 1
haf@@ 1
kijana 1
obo 1
School 0.34000751250160355
atani 1
imto 1
1983 0.7640214742178328
akif@@ 1
jana 1
kupita 1
scope 1
tor@@ 0.4210665516524284
udisha 1
yap@@ 1
Biashara 1
Kw@@ 1
Mfano 1
Um@@ 0.9880062109379029
bei 0.15171853379920908
kisheria 1
Kap@@ 1
Kimar@@ 1
Med@@ 1
Tor@@ 0.8273971856193856
ikuwa 1
pe 0.747254232775707
Er@@ 0.2850529251202881
Mif@@ 1
Mtaguso 1
kara 1
kuacha 1
onia 1
aluma 1
kitamaduni 1
zu@@ 1
1975 0.7582319431856361
Alim@@ 1
Ho@@ 0.8779780506489078
Mapinduzi 1
aliyo@@ 1
euliwa 1
imara 1
inaf@@ 1
kumw@@ 1
mashamba 1
oweka 1
paswa 1
wab@@ 1
Con@@ 0.2420005613238465
Tun@@ 1
World 0.2656661484921212
im 0.05215676320062862
omi 1
uvi 1
Jersey 1
Kom@@ 0.9747943215584605
We@@ 0.6872880743140567
adui 1
ary 0.2347866700561462
hudumu 1
kinacho@@ 1
wi@@ 1
Kiebrania 1
Pili 1
akati 1
fainali 1
go 0.768382946166277
indana 1
kadi 1
akifunga 1
avi 1
igi 1
kukaa 1
kuongoza 1
risasi 1
47 1
Hifadhi 1
Mkoani 1
Pwani 1
irik@@ 1
nasaba 1
ose@@ 1
Kutoka 1
maelezo 1
shinikizo 1
yaliyot@@ 1
Ham@@ 1
Muhammad 1
Wazungu 1
tar@@ 0.6867127760866794
ujumbe 1
undua 1
Bin@@ 1
Michezo 1
ambana 1
ekuwa 1
mapafu 1
waandishi 1
... 0.5433103282554579
nus@@ 1
Gregori 1
ho 1
mtaalamu 1
v 0.49886507591406815
ze@@ 0.899725829249398
akim@@ 1
ampuni 1
bin 1
ger@@ 0.46015016657150476
hisia 1
osha 1
udumu 1
ungumzwa 1
usafiri 1
Bak@@ 1
Kundi 1
baini 1
daktari 1
embamba 1
kufuatia 1
mchakato 1
salama 1
unifu 1
1969 0.834779887857442
IV 1
Kuf@@ 1
ajumuisha 1
fund@@ 1
jangwani 1
magari 1
mazao 1
italia 1
Min@@ 0.6746515689430508
kea 1
kulia 1
ndipo 1
nyakati 1
ozaliwa 1
ushi 1
yana 1
1976 0.7703762232288877
Ruvuma 1
inajulikana 1
mbing@@ 1
yalit@@ 1
Music 0.7322524864913316
ani@@ 1
cho@@ 1
epata 1
idizi 1
ilipata 1
oaji 1
wanak@@ 1
Basi 1
ubali@@ 1
1963 0.923549356489506
F 0.4952680631648229
Mali 1
maoni 1
mipaka 1
sera 1
wanap@@ 1
48 1
Gal@@ 0.8758774262876844
Mombasa 1
Sin@@ 1
takribani 1
ikilia 1
mazoezi 1
wenzao 1
yakula 1
Argentina 1
bifu 1
hom@@ 0.9330265827902133
kisiwani 1
kuuza 1
oidi 1
tir@@ 1
vidogo 1
vis@@ 1
Alipata 1
Kirusi 1
hesabu 1
ilish@@ 1
kuwaf@@ 1
minne 1
unguzi 1
Pi@@ 0.6919692183107535
his@@ 1
kana 1
taw@@ 1
uwe@@ 1
wowote 1
Sous 1
kujitawala 1
mapenzi 1
matam@@ 1
puko 1
refu 1
gani 1
kukuza 1
kuta 1
lab@@ 1
mfany@@ 1
mstari 1
sak@@ 1
Can@@ 0.8666762527563011
Utawala 1
aal@@ 1
amiwa 1
ation 0.060496152682746614
barafu 1
hupatikana 1
kavu 1
préfecture 1
upasuaji 1
wer@@ 0.6320285095029061
ac 0.8937152287055804
anti@@ 0.6184993157008314
eki 1
1972 0.7233624363699301
75 0.9925062179194297
bil@@ 1
ro 1
38 1
Bel@@ 0.4614674178373724
dada 1
kibiashara 1
ser@@ 0.3982340619156435
sw@@ 0.8365588255529255
ukuaji 1
37 1
hutoa 1
ikit@@ 1
ilhali 1
mwenyekiti 1
ubaguzi 1
ulianza 1
binu 1
hufanya 1
idia 1
ifuatazo 1
kukua 1
protestanti 1
suala 1
usta@@ 1
Nyam@@ 1
Tof@@ 1
Za@@ 1
awa@@ 1
lio 1
wanaot@@ 1
Askofu 1
Bah@@ 1
Ky@@ 1
Qu@@ 0.34386906301215625
Wikipedia 1
kubor@@ 1
kifu@@ 1
osababisha 1
000 0.9043479978768248
Dal@@ 1
Uf@@ 1
anaf@@ 1
ero 0.6655879670292558
inayoitwa 1
mashine 1
mwanga 1
tani 1
ungufu 1
ut 0.8364669166832165
1961 0.9259027000552492
1974 0.7360863248132659
Po@@ 0.5454411763447933
Town 1
Uchumi 1
oi 1
visi@@ 1
kalenda 1
mzima 1
ulianzishwa 1
uwa 1
Juu 1
Uswisi 1
biri 1
esabiwa 1
kuondoka 1
kushindwa 1
ost@@ 1
Kivuka 1
You 1
ambuliaji 1
jinsia 1
46 1
Iringa 1
euzi 1
fik@@ 1
gea 1
ingiza 1
injini 1
kto 1
limet@@ 1
matatu 1
muungano 1
onda 1
uma@@ 1
41 1
Kulingana 1
Singida 1
Vilevile 1
yeyote 1
zia 1
0.@@ 0.8942721219031866
Ndege 1
bah@@ 1
ent@@ 0.1654679491225269
omunisti 1
upana 1
Kiv@@ 1
Nyerere 1
alichunguza 1
alikua 1
hula 1
ne@@ 0.30474314484780307
Ime@@ 1
aia 1
asidi 1
ban 1
endera 1
huenda 1
oba 1
tis@@ 1
tovuti 1
Ath@@ 1
Malawi 1
Pakistan 1
haifu 1
hani 1
mwanaf@@ 1
taa 1
ve 0.10832641187827739
vir@@ 1
11,@@ 1
1973 0.7387877532227356
52 1
Kioseaniki 1
Ndiyo 1
anaj@@ 1
uga 1
wahili 1
600 1
alimtangaza 1
ambuli@@ 1
andisi 1
ava 1
baki 1
chumvi 1
keno 1
mav@@ 1
mti 1
sum@@ 0.9428213962049422
wasichana 1
20@@ 1
hawa@@ 1
idai 1
ilifu 1
likana 1
mkali 1
uano 1
1967 0.78504164021707
Sul@@ 1
hibi@@ 1
imarisha 1
polepole 1
Buk@@ 1
Ilikuwa 1
adri 1
afikia 1
ent 0.08018220018115396
est@@ 0.2971734527807241
hif@@ 1
iliz@@ 1
ista 0.6476241791970492
protini 1
Mau@@ 1
aminika 1
atano 1
bili@@ 1
mli@@ 1
sumu 1
44 1
Str@@ 0.39546982431391586
data 1
pl@@ 0.2102490066375136
udongo 1
urithi 1
Ha@@ 1
Urefu 1
ii 1
okovu 1
utendaji 1
adhimishwa 1
alitumia 1
oc@@ 0.21437513696582966
Id@@ 1
marufuku 1
sen@@ 0.5179780047907155
ulima 1
Com@@ 0.362422366431927
Mir@@ 1
Nik@@ 1
Washington 0.7152469187468393
anguka 1
ikuja 1
jumbe 1
walij@@ 1
Em@@ 0.9796346600530074
Gar@@ 0.7972082037420226
mali@@ 1
Kak@@ 1
Tol@@ 1
dest@@ 1
husababisha 1
oraji 1
dhana 1
ek 0.7389547777935968
unap@@ 1
yeti 1
Col@@ 0.34939194092482345
lim@@ 1
lo 0.2182531501814527
isheni 1
shi 1
yanat@@ 1
1965 0.7897915123426548
Bag@@ 1
ahili 1
div@@ 1
safi 1
uniani 1
Ol@@ 1
ard@@ 0.6667571010203983
emi 1
kand@@ 1
Anatolia 1
Sch@@ 0.1573395289804351
eko 1
gol@@ 1
sio 1
85 1
Mr@@ 1
Mt 1
lango 1
Mambo 1
fia 1
hati 1
onge 1
West@@ 0.9407895307343966
des@@ 0.22682564635577784
kutano 1
Ti@@ 0.9446988397778544
inam@@ 1
kati@@ 1
sek@@ 1
so 0.18854195406902324
ayansi 1
Sak@@ 1
ous 0.21984096939723996
55 1
Vol@@ 0.8138849178366674
anchi 1
nad@@ 1
Ina 1
ilif@@ 1
iliyop@@ 1
metali 1
Ger@@ 0.5460271415282312
Mati@@ 1
yr@@ 0.8241282770752832
1971 0.6874694629762311
jini 1
pitia 1
Billboard 1
apu 1
ubu 1
CC@@ 1
800 1
Muk@@ 1
ibu@@ 1
opa 1
pr@@ 0.24192531650194574
ugo 1
uyu 1
kk 1
nye@@ 1
sel@@ 0.6230389937490313
Wav@@ 1
ezaliwa 1
filipino 1
1962 0.801739958393067
61 1
Richard 0.754803067009031
eti@@ 1
tel@@ 0.5919810352008346
yu 1
alip@@ 1
baad@@ 1
git@@ 1
53 1
H 0.665968857953793
Kata 1
Mam@@ 1
indi@@ 1
irikisho 1
ofanyika 1
wanaj@@ 1
Vik@@ 1
angal@@ 1
angulia 1
sugu 1
River 0.4564933975862664
Wiz@@ 1
zoni 1
alich@@ 1
vich@@ 1
Ok@@ 1
University 0.17885016228494313
esa 0.8952704698550107
fin@@ 0.3643472992244338
kaz@@ 1
oke 1
pembe 1
1945 0.4837621927094859
54 1
Bre@@ 0.6633318439011319
lol@@ 1
Sir@@ 1
lika 1
ubini 1
67 1
Tunisia 1
che 0.35730530972136226
uji 1
Black 0.8611560209814486
ein@@ 0.20111565694039796
rej@@ 1
43 1
Bay 1
Denmark 1
ilip@@ 1
88 1
Es@@ 0.6330483734229515
Wash@@ 1
ames@@ 1
pap@@ 1
udu 1
Gi@@ 0.7418202059400781
Mg@@ 1
kal@@ 1
kuanz@@ 1
Anti@@ 1
Familia 1
Kish@@ 1
San@@ 0.944187422724089
anah@@ 1
arini 1
king@@ 1
79 1
At@@ 0.7840971955242184
ange@@ 1
ihi 1
ufu 1
von 0.030990705800394248
58 1
AN@@ 1
Thomas 0.5399546712089355
atak@@ 1
daima 1
der@@ 0.28911840854394355
lis@@ 1
opoli 1
1,000 1
Ash@@ 1
Hiv@@ 1
ese 0.3540020086025972
Lin@@ 1
Poland 1
odi@@ 1
oksi@@ 1
99 1
oyo 1
masha@@ 1
ogoro 1
oho 1
1966 0.7250368084156239
Massachusetts 1
Mz@@ 1
Pasif@@ 1
ikan@@ 1
msa@@ 1
mu 1
10,@@ 1
Cas@@ 0.6068456021288926
Fr@@ 0.5817157581273042
adiliko 1
aro 1
les@@ 0.8393729545516494
Dh@@ 1
Fal@@ 1
kurugenzi 1
the@@ 0.5504698761977589
Martin 0.7336643732274317
Park 0.45571555457645574
Pos@@ 1
per@@ 0.15972226557050664
1968 0.6258675552770222
64 0.8347383705026588
Bor@@ 0.6496643808536969
Bug@@ 1
bek@@ 1
09 1
Cal@@ 0.5352460503667485
Mug@@ 1
atana 1
lu 1
owe 1
66 1
Kup@@ 1
Ver@@ 0.14697518109340293
amar@@ 1
angaz@@ 1
kari@@ 1
wanja 1
Cr@@ 0.468864163904139
UEFA 1
jap@@ 1
65 0.72853753584005
Bon@@ 1
Hud@@ 1
Men@@ 1
iter@@ 1
safa 1
57 1
Lagos 1
ant 0.08574009156854993
Ba@@ 1
qu@@ 0.15735268066901487
Many@@ 1
ingereza 1
ion@@ 1
profes@@ 1
tw@@ 0.8159086488502623
95 1
98 1
La@@ 1
Maur@@ 1
ete 0.8542757484736152
gr@@ 0.1903943008792017
himu 1
meno 1
To@@ 0.7530317761060986
aik@@ 1
ail@@ 0.9237839287896995
ans 0.1311384654483652
ongoz@@ 1
07 1
Bil@@ 1
Uk@@ 1
ikukuu 1
uth@@ 1
62 1
Yak@@ 1
magaz@@ 1
rio 1
ulio 1
uto 1
Ben@@ 0.8338662006631485
Mel@@ 0.7879076735313099
ian 0.4219775885168945
kupan@@ 1
0,@@ 0.9214848432597623
73 1
Bun@@ 1
kel@@ 1
Git@@ 1
bezi 1
kio 1
51 1
Fl@@ 0.444509768322678
Hadi@@ 1
Im@@ 0.7056312913208654
Shu@@ 1
avana 1
berg 0.4150423083979908
lem@@ 1
… 0.7412034914061937
Du@@ 0.7670069619902795
Song@@ 1
Tekn@@ 1
aliye 1
ica 0.3177788526867313
ongoni 1
35@@ 1
Dis@@ 0.7115412668469683
Go@@ 0.6219240779625307
Wais@@ 1
kule 1
oth@@ 0.7862046534591464
wango 1
May@@ 1
aguzi 1
ajemi 1
enge 1
ope 1
ter 0.10608058040128127
Ir@@ 0.8330929966524793
Kem@@ 1
esia 1
fi 1
tend@@ 1
uasi 1
weng@@ 1
72 1
Hak@@ 1
anach@@ 1
malaria 1
na@@ 1
ty 0.24713150456580843
dis@@ 0.12384437588042997
ens@@ 0.2325609177230705
63 1
91 1
onyesho 1
sig@@ 0.6116272057204171
74 1
96 1
dr@@ 0.26262480567858154
enia 1
hisi 1
rasi 1
Way@@ 1
eba 1
eon@@ 1
lah@@ 1
ler 0.1981492281117616
sini 1
ell 0.3005322898316988
takatifu 1
wei 1
Uh@@ 1
ais@@ 0.9188377595560868
ombi 1
zo@@ 1
2,000 1
56 1
97 1
Love 1
Pro@@ 0.37676960587018177
kuku@@ 1
kuku 1
sam@@ 1
sinema 1
wad@@ 1
Berlin 0.4924782497103579
Sel@@ 1
me 0.26225315125608417
yek@@ 1
eri@@ 0.8719968644662723
ville 0.24342879620426025
Asi@@ 1
ras@@ 1
3.@@ 0.9183803935868641
Konstantin@@ 1
Mn@@ 1
aro@@ 1
edi 1
ord@@ 0.47974979753085506
ori@@ 0.5055934616061062
ust@@ 1
uzam@@ 1
Anah@@ 1
Ke@@ 1
ci@@ 0.22784689417361573
ith 0.8377775122869852
$ 0.2527820883324897
69 1
chi@@ 0.8079606094513695
1000 1
Jo@@ 0.9850963252672793
Ngu@@ 1
Plat@@ 0.9779100150518646
esab@@ 1
1.@@ 0.7514720897605905
abi 1
amoto 1
Namibia 1
Saf@@ 1
akia 1
84 1
93 1
King 0.5036221552346277
UN@@ 1
Una 1
astronom@@ 1
kor@@ 1
mid@@ 1
mos@@ 1
sp@@ 0.20156006055564085
trop@@ 1
uen@@ 1
oda 1
1958 0.7101304553231582
Dam@@ 1
hav@@ 1
tal@@ 0.7021770795979436
uiya 1
1959 0.7309981510229715
Hung@@ 1
Ker@@ 1
Party 0.5163789889397692
Sult@@ 1
ambu 1
ande 1
ast@@ 0.4918818312275392
mea 1
yan 1
700 1
Coast 1
Ireland 0.9181921711325253
Sum@@ 1
08 1
DJ 1
Johannesburg 1
Mul@@ 1
met@@ 0.5972621715323547
82 1
ick 0.41644691814903206
upa 1
vi 1
Eritrea 1
Mig@@ 1
Viktoria 1
anzia 1
zam@@ 1
zit@@ 1
59 1
Mac@@ 0.5585763492996877
Madrid 1
Tan@@ 1
bas@@ 0.45730678628440585
76 1
Val@@ 0.5567156197355688
ens 0.13841656783320105
molek@@ 1
ner 0.23117830144534304
1930 0.6676615202530387
71 1
Pal@@ 0.6198460320898156
iri@@ 1
mila 1
sil@@ 0.846864528856697
wand@@ 1
4.@@ 0.9507194949947136
Jean 0.39682863277982694
air@@ 0.5230092735029102
ikuu 1
68 1
Kay@@ 1
mot@@ 0.7562976795896376
Central 0.5720387395297034
ait@@ 1
ory 0.47234405637867527
Ana 1
Uj@@ 1
XX@@ 1
tah@@ 1
ver@@ 0.07296785674383496
8,000 1
Fas@@ 1
Malaysia 1
ikua 1
itu 1
liko 1
Chad 1
Mohamed 1
anea 1
ban@@ 0.7657096963492585
ite 0.20231568738197953
lima 1
ubu@@ 1
unia 1
Los 0.21740801904575946
Mart@@ 1
Sw@@ 0.9701096731388585
Uy@@ 1
vij@@ 1
yar@@ 1
Henry 0.6209695402074195
Os@@ 0.9023227885270585
kunde 1
oku@@ 1
sad@@ 1
83 1
Hot@@ 1
Wil@@ 0.6565445507692628
ondo@@ 1
77 1
ikam@@ 1
karat@@ 1
Arsenal 1
Musa 1
ambi@@ 1
IC@@ 1
Of@@ 1
adiri 1
waya 1
Benedi@@ 1
Julius 1
des 0.014348553452791285
inyota 1
30@@ 1
87 1
94 1
kol@@ 1
Nat@@ 1
kish@@ 1
tikodi 1
uno 0.5402578411478888
1957 0.7052501389797416
Louis 0.5151203630726517
No@@ 0.8786721786750173
bin@@ 1
dizi 1
doa 1
Pre@@ 0.6033539099672139
etwa 0.43608581559130283
fr@@ 0.26085783459365247
q 1
Don@@ 0.8977012425887294
endaji 1
insia 1
89 1
dem@@ 0.43798420885230865
mada 1
nur@@ 1
pol@@ 0.49458478987034105
wany@@ 1
04 1
arabu 1
oug@@ 1
undu 1
Fel@@ 1
Hil@@ 1
Nyan@@ 1
VI 1
dig@@ 0.9885966166453592
koani 1
tut@@ 1
03 1
1940 0.5649346034450314
ahi@@ 1
akini 1
ganda 1
igh@@ 0.6908012375483759
sir@@ 1
Jer@@ 1
anas@@ 1
indu@@ 1
Mich@@ 1
Ros@@ 0.5442270924796251
Sol@@ 0.534247393816297
lam@@ 0.6720801582685921
5.@@ 0.8959432116562973
Anat@@ 1
Sen@@ 0.9064618872989646
92 1
atur@@ 1
del 0.031184089871425874
Me 1
hana 1
ifu@@ 1
viz@@ 1
Syria 1
amba@@ 1
inae 1
12,@@ 1
Ju@@ 0.9101992737460805
Man 0.7756725453041252
Mol@@ 0.7868075669340577
XIII 1
ann@@ 0.3132579867176849
cho 0.26540741991361816
ella 0.4243888146654789
okeo 1
pop 1
tra 0.6214157705582412
visa 1
1948 0.6166796695113599
78 1
ardin@@ 1
dy 0.7318031316717227
ifuat@@ 1
05 1
1956 0.6298280067866749
3,000 1
Sau@@ 1
akula 1
bak@@ 1
let@@ 1
Benin 1
My@@ 1
dom@@ 0.930188298862719
taba 1
1954 0.6876614430102373
Palestina 1
arab@@ 1
edi@@ 0.6902611484933614
02 1
33@@ 1
Han@@ 0.801343503901737
Mes@@ 1
XII 1
kutambu@@ 1
ā@@ 0.6832640805490708
Tur@@ 0.5597849684997086
kataba 1
lang@@ 1
1949 0.6456450760965949
Bad@@ 1
MA 1
Pe@@ 0.5445892407012649
Rut@@ 1
Tri@@ 0.5033948671478946
UB 1
Wen@@ 1
abar@@ 1
den 0.02563474428798886
isia 1
ufi 1
Mary 0.7063506451241027
ess 0.2607180597457476
ifa 1
sich@@ 1
situ 1
va 0.3585258136526845
81 1
Cl@@ 0.5622537849061927
For@@ 0.3228812228970416
die 0.014102561261254401
ity 0.14075521919245018
ov 0.4983586822384887
pa@@ 1
ven@@ 0.35280861337624264
01 1
Nas@@ 1
akar@@ 1
ist 0.03536521354789291
tamb@@ 1
2.@@ 0.6975392459547318
Ay@@ 1
Kun@@ 1
ans@@ 0.5279113593162564
ria 1
Pan@@ 0.6741165361574702
ain 0.34352689638416
atoliki 1
for@@ 0.18080077688234408
ise 0.16629940270681917
je@@ 0.8229939707907906
wo@@ 0.7431847659582728
C. 0.5845889699034057
F.C. 1
Hassan 1
Mexico 0.9069851373118222
P. 1
Pen@@ 0.76169476330293
Video 1
kt@@ 1
23@@ 1
86 1
Lam@@ 1
inde 1
Award 0.48981319275318974
Dau@@ 1
Od@@ 1
Sher@@ 1
sem@@ 0.8078383579682212
Hus@@ 1
dan@@ 1
tin@@ 1
wir@@ 1
1920 0.5782882372550763
J. 0.6677702171920437
Jazz 1
Real 1
achia 1
kodi 1
1947 0.6327630579141869
Georgia 1
My 1
Tim@@ 1
aransa 1
ener@@ 1
jwa 1
mini 1
oe 1
oza 1
pal@@ 0.594253792894975
tarak@@ 1
6.@@ 0.9324868730329068
Kad@@ 1
ates 0.17920214318958474
tumb@@ 1
Daniel 0.9404217338690667
Iran 1
ade 0.3014264821995131
kumbu@@ 1
St. 0.3386483351554728
tof@@ 1
Afghanistan 1
Bul@@ 1
Edward 0.8606238841034759
Hospit@@ 1
Mut@@ 1
bir@@ 1
vur@@ 1
hua 1
uel@@ 1
150 0.9976410447248671
1918 0.6284551660093346
Angeles 0.6975821707216664
Brown 0.91281438404669
Char@@ 0.4883613782996804
Pulitzer 1
aur@@ 0.77095644967778
dhar@@ 1
ensi 1
sm 1
Reg@@ 0.3418965159900598
all 0.0832471469597213
den@@ 0.30122673549384227
haria 1
1955 0.6460162557048461
Waw@@ 1
aten@@ 1
iss@@ 0.6035018974102042
lad@@ 0.9597417343711903
nah@@ 1
okrasia 1
100,000 1
Jub@@ 1
Shab@@ 1
pp@@ 0.6567675226945489
20,000 1
dii 1
imp@@ 0.7832743003369379
jen@@ 1
oliki 1
viv@@ 1
B. 0.548598481693935
Bou@@ 1
DNA 1
Nad@@ 1
Wang@@ 1
ap 0.6332054087116119
iadini 1
wil@@ 1
— 0.03058769034130654
1952 0.6267255955160854
Sheikh 1
W 0.48248873517641316
amer@@ 1
go@@ 0.5667676335687345
ini@@ 1
uaji 1
Academy 0.6091134411285161
Math@@ 1
wel@@ 0.9635042990613949
06 1
Elizabeth 1
Fi@@ 0.8193269971347182
Hor@@ 0.6393323285179047
a. 1
anum 1
ca 0.33918378870948906
m. 1
Albert 0.9985388535520611
One 0.34544279974657716
Smith 0.6299526351694356
atika 1
FA 1
State 0.23308098913542444
bel@@ 0.36109471837412843
uk 1
25@@ 1
Ac@@ 0.35734360939619264
New@@ 0.9003292833475965
Victoria 0.9947627472936712
ario 0.3875015407726128
az 0.9153519706901223
leb@@ 1
no@@ 0.23634712762045354
pole 1
County 0.20347484536759278
Do@@ 0.5810473604294879
cheza 1
co@@ 0.10097270664538742
ilio 1
Ms@@ 1
amt@@ 1
co 0.23137060851775182
han@@ 1
ings 0.15203001049946058
kong@@ 1
sah@@ 1
Barcelona 1
De 0.25330640226848317
Ly@@ 0.9336408873056874
Ten@@ 1
ine@@ 1
uda 1
13,@@ 1
Lee 0.7918913344738245
Vir@@ 1
bele 1
mand@@ 0.7530421936592304
It 0.05477796651294155
J 0.7076091131052773
Zealand 0.7922661736920573
atir@@ 1
elli 1
emp@@ 0.5779840209882124
Mun@@ 1
Ngo@@ 1
Vil@@ 0.9679718789453601
fiz@@ 1
ungano 1
1900 0.8220648891220279
900 1
Bro@@ 0.5969929792256112
Samb@@ 1
Sk@@ 1
burg 0.5008415686475277
dea 1
ess@@ 0.23110892996241927
ill@@ 0.21714302360964227
inus 1
pu 1
Rus@@ 1
Ste@@ 0.45883375375037233
our 0.2728237222936286
tro@@ 0.40601720308704237
zuia 1
Nab@@ 1
field 0.24108571160585165
yekiti 1
za@@ 1
Gen@@ 0.4869816533709863
ange 0.8689652082595685
boa 1
life 0.1746976038641885
mo 0.9652001497395728
1946 0.5260608879727307
CD 0.7037892821060173
Dak@@ 1
Hot 1
wo 0.41876121223832147
Acc@@ 1
Brit@@ 1
Niger 1
Times 0.7929155209966894
ach 0.28306830250435144
nz@@ 1
1953 0.6147252626108399
Domin@@ 1
Texas 0.5788499136329002
hir@@ 1
Uta@@ 1
petrol@@ 1
Kag@@ 1
Ras@@ 1
bol@@ 1
elle 0.085517916223229
ichi 1
orthodoksi 1
tri@@ 0.23165525825203925
Sand@@ 0.7262735610705634
Wana@@ 1
gia 0.5427192998991368
Foundation 1
Sy@@ 0.7260969532230609
anus 1
ler@@ 0.3438763864115796
nim@@ 1
45@@ 1
Khan 1
Lim@@ 1
Pad@@ 1
hio 1
mm@@ 1
Ex@@ 0.20884140419502192
anana 1
ice 0.2782826611281892
7.@@ 0.8600390735744942
8.@@ 0.954971171498714
S.@@ 1
ikil@@ 1
ubi 1
Ya 1
ce 0.0927837317296491
ologi@@ 1
sisko 1
umu@@ 1
Biz@@ 1
Serbia 1
Sil@@ 0.8467577880865046
Van 0.982250146996011
itia 1
Av@@ 0.693260211017111
Fiz@@ 1
Y 0.7142073863607863
edonia 1
ell@@ 0.2131049288288772
kuy@@ 1
mer@@ 0.19910728596070054
nak@@ 1
Aj@@ 1
idi@@ 0.8830605916661325
nik@@ 1
Kah@@ 1
Ph@@ 0.4227996599911387
Ud@@ 1
tambu@@ 1
ul 0.909264066869489
1939 0.4616963048459187
Ah@@ 1
Chelsea 1
Gh@@ 1
ate@@ 1
ebe 1
irani 1
9.@@ 1
August@@ 1
Bom@@ 1
Som@@ 1
ido 0.2724144436606464
sia 1
th 0.13339058996218284
anta 1
ff@@ 0.337333884737626
izaji 1
uziki 1
14,@@ 1
Che@@ 1
per 0.19533262331398113
250 1
AC@@ 0.8116434351980552
Ed@@ 0.7337965331415442
Hay@@ 1
Libya 1
Mexiko 1
Tom@@ 0.8932798776541978
elo 1
manu@@ 1
mist@@ 1
1888 1
AS@@ 0.7005707153881279
E. 0.8748286575142137
O.@@ 1
bay@@ 1
Andrea 1
IX 1
Pat@@ 0.7308220678871453
Said 1
UNESCO 1
Union 0.31500989732261847
Cha 1
Nepal 1
_ 0.12546299345264675
ence 0.15493171890430613
ish 0.3502525144328571
izo@@ 1
sen 0.30568596269512954
1886 1
All 0.28796286453508063
Bol@@ 0.6819511811204892
alimu 1
opot@@ 1
Des@@ 0.4704271545788223
abe 1
geni 1
hoja 1
mam 1
opo@@ 1
Eli@@ 1
Florida 0.709555026766917
The@@ 0.7486148426401992
akos 1
aume 1
bl@@ 0.1828529870005483
pand@@ 1
Bi 1
Liberia 1
Sur@@ 0.5568889004321462
Togo 1
aje 0.7262753435589617
dur@@ 0.612531669914383
AR@@ 0.6828475285981985
Jam@@ 1
duk@@ 1
van 0.5536139901699743
Fre@@ 0.3059903356354018
Rh@@ 1
pun@@ 0.9101711988104827
uzo 1
15,@@ 1
Dj@@ 1
Yos@@ 1
bab@@ 1
enz@@ 0.4831504849980709
gar@@ 0.4076682833823177
ker 0.25534402220602864
oshi 1
11@@ 0.9914501839728425
Abd@@ 1
Bung@@ 1
Sun@@ 1
amo@@ 1
vo 0.7605806978912618
yn@@ 0.499426211381867
Ant@@ 1
Cel@@ 1
Dem@@ 0.7056859131865821
Don 0.7896347506266386
Dor@@ 0.6698532104985323
FM 1
Hut@@ 1
Mot@@ 0.6562323150540501
aru 1
jerumani 1
ova 1
them@@ 1
Dur@@ 1
Laz@@ 1
M. 0.649166180146761
Sala 1
Son@@ 0.9618729618718536
Zam@@ 1
afsi 1
aska 1
ekana 1
hui 0.8838010587591161
Bl@@ 0.38432529064573956
Hab@@ 0.9281519002111518
Society 0.4642694253595972
elektr@@ 1
mm 0.48984489478298776
mwanah@@ 1
op 0.7694697978254353
yn 0.830986105354779
Abu 1
Armenia 1
Band@@ 1
Fu@@ 0.8530103034858569
Ish@@ 1
Nag@@ 1
Ra@@ 0.8058040162163127
ele@@ 1
ille 0.3794775634748906
liv@@ 1
waka 1
American 0.10622849011699649
ken@@ 0.5578008277924118
1951 0.5675171798316274
Chicago 0.5285464513652309
Meks@@ 1
SA@@ 0.9904487527071232
Say@@ 1
ance 0.11569505751293079
Alexander 0.650906497106846
Kuz@@ 1
ber 0.34701540476610554
bon@@ 1
gam@@ 1
mip@@ 1
mweng@@ 1
ult@@ 1
Kro@@ 1
alam@@ 1
bio 1
eli@@ 0.5977676279045573
League 0.16875965972487056
Sam 1
Tro@@ 0.5487769508647982
but@@ 1
ts 0.06624104069406479
zaliwa 1
Aw@@ 1
Group 0.4101572139904884
antu 1
hel@@ 0.5310919088479312
hesh@@ 1
iya 1
ker@@ 0.6242861210913101
ling@@ 1
orod@@ 1
sult@@ 1
00@@ 0.8671359548843742
Dan@@ 0.8915615578559282
Hol@@ 0.3590889314923146
Jones 0.7485158235241032
pon@@ 0.8040548337479256
1941 0.3917952422435049
IS@@ 0.670191669067692
Lyon 1
Sok@@ 1
akato 1
inn@@ 0.3141950540202831
Da@@ 1
Democratic 0.8775754077029357
Rob@@ 1
Z 0.7682619750584755
arakati 1
asiasa 1
ayarishaji 1
ham 0.721664269627036
1500 1
1914 0.5844701193775645
Gabon 1
Lug@@ 1
Shak@@ 1
afunzi 1
eze 1
kutengen@@ 1
que 0.013495391543788891
1936 0.501882053177188
College 0.21870502351721058
Grammy 1
Madag@@ 1
ghuli 1
ius 1
ukur@@ 1
wau@@ 1
yol@@ 1
1917 0.5916476194416334
27@@ 1
Bis@@ 1
Kim 1
Le 0.04926013255258909
achama 1
bor@@ 0.40776143658117353
imar@@ 1
ongez@@ 1
17@@ 1
1944 0.3558294665204308
Fili@@ 1
High 0.3263434596239403
Pl@@ 0.3208114747552611
Progr@@ 1
ney 0.4908583927040593
1933 0.5043513733808492
26@@ 1
Dr@@ 0.42371414311726163
Iv@@ 1
Kamb@@ 1
Pok@@ 1
Star 0.6316980836973352
Ul@@ 0.6404896284997681
anja 1
ean 0.7630967881717046
ello 0.5485026662002187
ette 0.22336785904652254
Grand 0.34167243359027233
Leb@@ 1
Ter@@ 0.6576276636854941
Williams 0.7621161111331926
eme 0.5683713519177556
jin@@ 1
ons 0.10049536181967407
ve@@ 0.38568070179273234
24@@ 0.9160320434828246
avia 1
ibn 1
imin@@ 1
open@@ 1
Island 0.420750190710117
evi 1
pino 1
Radio 0.557897239525715
aham@@ 1
beg@@ 0.44582222609375827
ins 0.13479847445712032
thai 1
une 0.025181503459818594
.com 1
A. 0.4106452899298873
Abr@@ 1
Bay@@ 0.8880514163539658
Por@@ 0.46391079231988247
agi 1
ensis 0.6337505706328442
est 0.015086213804070808
mati@@ 1
pop@@ 1
ts@@ 0.2222662812467517
Aki@@ 1
Braz@@ 1
Vienna 1
3000 1
CO@@ 0.9037378879594219
Chan@@ 1
House 0.2579637100807921
Jack 0.7489173919343658
Juli@@ 1
Moscow 1
asisi 1
mala@@ 1
nin@@ 1
zana 1
AD@@ 1
AM@@ 0.9842300247960611
Association 0.3194001556765639
Hip 1
Rho@@ 1
eria 1
jah@@ 1
jus@@ 0.817760064326129
lat@@ 0.3402147243270999
prot@@ 0.2946680493042699
unu 1
£ 0.8367282327992203
Chile 0.8339835542845524
Go 1
biot@@ 1
ico 0.29127892360848645
oni@@ 0.5177196242495004
tian 1
Afr@@ 1
Carey 1
Hum@@ 0.9932702230086274
bes@@ 0.5418317992392212
con@@ 0.07925832630502004
rati@@ 0.8265494023988574
Jar@@ 1
abo 1
all@@ 0.20504247862297126
ambuk@@ 1
olia 1
ulo 1
Cer@@ 0.5709776016396023
Hill 0.5595926376060821
Ib@@ 1
Michigan 0.8287765231686401
dir@@ 1
département 0.673338441380928
hap@@ 1
Bos@@ 0.7841470794188444
Ndi@@ 1
Uri@@ 1
aman@@ 1
bert 0.6413805138209406
esis 0.7879207363177096
16,@@ 1
Burkina 1
Hi@@ 1
Hon@@ 0.670880790109914
Johnson 0.7315878988515424
Van@@ 1
aid@@ 1
ger 0.2799517890001045
ile@@ 1
lan@@ 0.30118654406566514
lara 1
mann 0.2692807691427595
sta@@ 1
6,000 1
Ahmed 1
Club 0.2533062356832751
Patri@@ 1
RC 1
aso 1
igu@@ 0.890035328128966
inzi 1
ju 1
ks 0.11292548877482614
uchi 1
Milano 1
Pau@@ 1
Shar@@ 0.8847344289954314
St 0.4356065332714064
Women 0.486606636132854
avi@@ 1
baji 1
fil@@ 0.49509742788668715
lar@@ 0.33377570578579707
wood 0.4018457601538071
Pon@@ 0.9422035253063882
umbani 1
ES@@ 0.8228702519603587
Hitler 1
Jay 1
Kaz@@ 1
Les@@ 1
Rub@@ 1
allah 1
ige 0.2449093940689736
isti@@ 0.6097587866065386
uni@@ 0.34968038969149456
Cher@@ 1
achi 1
ack 0.3856595399470211
hor@@ 0.3973750353714047
nam@@ 0.5342276068909896
sk 0.850675311183343
« 0.01929700160528326
4,000 1
Del@@ 0.5433544448619152
Marmara 1
On@@ 0.9654162701990788
assa 1
auti@@ 1
enti@@ 0.20685473302656687
ime 0.6955430759986844
islamu 1
unzo 1
» 0.019228949421423547
Ban@@ 0.5732589673575311
Cam@@ 0.5027596001765654
Gav@@ 1
Has@@ 1
Moy@@ 1
Star@@ 0.674891460502877
bom@@ 1
haa 1
00 0.5048564912415849
Google 1
Inter@@ 0.2583732689617114
Satur@@ 1
Sierra 1
Young 0.6972583194740039
fe 0.46657278734909036
gel@@ 0.2401405121006847
nit@@ 1
1934 0.5121483692145572
Ap@@ 0.41353986205575693
CD@@ 0.9223145673877273
Fati@@ 1
Gor@@ 0.7816854494122378
Hip@@ 1
Sav@@ 0.7500494854510813
Tal@@ 0.6263203818794406
ae@@ 1
arr@@ 0.25137163119028866
ase 0.32558490534970014
ash 0.5571285937059561
poli@@ 1
ute 0.5400819562768094
1922 0.5720853412578333
1925 0.5745063095833034
1929 0.5164355224677319
BBC 0.7375692488916555
LA 1
Queen 0.6771586009469562
Santa 0.4103102530720587
Wales 0.6439559518875513
White 0.45506486508900673
anne 1
dha 1
iso 1
tath@@ 1
1942 0.370598347139879
DC 0.9282651680537506
Leone 1
Media 0.7812552432657692
Q 0.7663938863210559
Stars 1
ata@@ 1
umi@@ 1
5000 1
Company 0.32938195983906166
Sah@@ 1
XI 1
XVI 1
alb@@ 0.624152199080017
lav@@ 1
1885 1
Dubai 1
Kou@@ 1
anj@@ 1
tro 0.9071976316832127
ussia 1
1943 0.3631438728588233
Canada 0.2684302893252746
Dom@@ 0.6754225404820071
Francis 0.896356820514717
Hir@@ 0.8464726013946174
Met@@ 0.7341628503680485
own 0.18331648389192495
sul@@ 1
Had@@ 1
Sik@@ 1
Ukraine 1
Vati@@ 1
Wor@@ 0.3965134887230664
tad@@ 1
1926 0.5502274402258249
F.@@ 1
Fo@@ 0.5941237321513058
aceae 0.5999680293716723
rap 1
Band 0.4756011803530994
Japan 0.356273396804197
Khali@@ 1
Long@@ 1
Si 0.816958568531957
onya 1
reg@@ 0.19308186720944934
wakil@@ 1
180 1
1890 0.8645659493285647
Myanmar 1
News 0.804356668381754
Oblast 1
Patrick 1
dari 1
ight 0.3912034483630676
pum@@ 1
vua 1
17,@@ 1
Miz@@ 1
Ob@@ 0.7925060029235856
Og@@ 1
fig@@ 1
Fil@@ 0.6160890734266785
Lus@@ 1
amino 1
atio 1
kl@@ 0.35579001628828477
laka 1
ren@@ 0.20067293894144625
CH@@ 1
Profes@@ 1
yab@@ 1
Fed@@ 1
Port 0.860272112591769
bos@@ 1
tic 0.19410853814953402
tis 0.5988080565116142
toba 1
tom@@ 0.3417736228309144
uria 1
י@@ 1
120 0.933060093217005
Ben 0.9576506260323856
Rose 1
Trans@@ 0.3633008470183813
del@@ 0.3053954477524824
diye 1
ropa 1
1,0@@ 1
116 1
30,000 1
AC 0.6351716755193119
hid 1
ie@@ 0.35165552684642
pita 1
39@@ 1
65@@ 1
Cham@@ 1
Faso 1
Miss 1
Nov@@ 0.6432614928939228
Scott 0.6871888665538051
aire 0.1345226857953918
gom@@ 1
ikat@@ 1
ison 0.4648691725044351
shi@@ 0.45011249300097106
AP@@ 0.9608408076845626
But@@ 1
Ing@@ 0.8637238638777919
MTV 1
Marie 0.48883586784036426
Sha@@ 1
Sir 0.5377210178577801
Taylor 0.8537293762050326
afr@@ 1
area 0.1279172335299033
ax@@ 0.49928531362904227
ego 1
huria 1
sta 1
á@@ 0.16456552469193808
124@@ 1
18,@@ 1
1910 0.5593471085365137
1937 0.4285910137878943
Bib@@ 1
Chris 0.8505149109971147
Green@@ 1
Hek@@ 1
Mohammed 1
ege 0.9890115378142018
gez@@ 1
radi@@ 0.5818101163601684
usia 1
Cap@@ 0.7166258826869764
Christian 0.35373397943198037
Dr. 0.5193120564254877
Kais@@ 1
Kul@@ 1
bad@@ 1
ento 0.4358032733269516
huy@@ 1
mith@@ 1
mun@@ 0.6649590938221118
utar@@ 1
1938 0.3824309243897468
Jose@@ 1
Kel@@ 1
Lit@@ 0.9770210653487716
Rab@@ 0.9105902354546412
Simon 0.8451736025961489
Verde 1
Zi@@ 0.8241370763579324
elektron@@ 1
hes@@ 1
inayoz@@ 1
nying@@ 1
pro@@ 0.1953811606055215
well 0.08526818262774212
102 1
1905 0.6191182026328357
Anthony 1
Rek@@ 1
armen@@ 1
han 0.32044039231559573
lava 1
mata 1
mes@@ 0.7255882023145671
yesi 1
Haw@@ 0.7655683798327543
She@@ 0.8717048709030821
YouTube 1
adr@@ 0.9053031834456843
alishaji 1
hem@@ 1
ry 0.27956010005446164
sanii 1
ui@@ 1
und 0.0069331672036255995
vent@@ 0.719525401528806
Big 0.5406719121915364
Fer@@ 0.576296712350393
Life 0.450091232992589
Mark 0.4931490865688731
Theod@@ 1
VIII 1
Wit@@ 0.8832361497875132
ambukizi 1
ern@@ 0.2864006586226828
hidro@@ 1
usu@@ 1
wan 1
67@@ 1
Best 0.41182843797609825
Ez@@ 1
Kong 0.759517203496119
Om@@ 1
abor@@ 0.9351011333081397
enn@@ 0.2246088136194462
fal@@ 0.5178787872286557
ith@@ 1
ster@@ 0.37575735515772557
200@@ 0.9884686505558126
Cu@@ 0.5413921101997607
D. 0.47888778493172285
Dun@@ 0.717361226951506
Kie@@ 1
Royal 0.2610981239886105
Shi@@ 0.6531554942194094
airo 1
fon@@ 0.6897811308226441
sav@@ 0.7235242295819075
ï@@ 0.4094274477801674
1919 0.42146342874262077
36@@ 1
AB@@ 1
Category 1
Thi@@ 0.9740787240668136
alimt@@ 1
car@@ 0.11286570323303591
ington 0.45468811189218566
1923 0.5188327595251871
7,000 1
British 0.1488274997029335
Bub@@ 1
In 0.014367678506690336
Northern 0.5691026197096484
People 0.6531795510970773
Rad@@ 0.5639143280164438
rek@@ 1
str@@ 0.1246988669060422
uro 1
val@@ 0.3346038402186526
ys 0.3042785143917887
120@@ 1
1931 0.4931367918388008
2022 0.3992837787291233
Columbia 0.6431994099697427
Congress 0.6462967929523763
Den@@ 0.6585062368493998
God@@ 1
Nis@@ 1
Ven@@ 0.6783117044851341
eth@@ 0.4579659095186574
tha 1
wemo 1
wing@@ 1
Antak@@ 1
Cy@@ 0.5925647260973858
Hen@@ 0.9053085064345996
Illinois 0.6763445691939841
Yugoslavia 1
dhah@@ 1
hun@@ 1
1912 0.5037592608423217
Boy@@ 1
Hur@@ 0.8168239905015829
I. 0.4337895367910978
Israel 0.5754529866278681
Lut@@ 1
ace 0.27589370086950155
apos@@ 1
eh 1
itu@@ 1
res@@ 0.10990692481773505
ruh@@ 1
ys@@ 0.3185383897335537
1927 0.4916275495793294
Entertainment 0.8311845906166778
Lab@@ 1
Raj@@ 0.858725952069835
Sc@@ 0.39346245705241106
UK 0.3618232198780734
aut@@ 0.4661730996625156
emek@@ 1
mus@@ 0.34190346764417795
000,000 1
50,000 1
Fin@@ 0.34078104696213285
anc@@ 0.2858109057052346
col@@ 0.11360092590626651
ion 0.21410913902376819
iva 1
nom@@ 0.5535592127009822
oph@@ 0.36308310597262833
row@@ 1
tek@@ 1
use 0.09626998875489373
with 0.009658892156905645
yl@@ 0.27541168963314094
Ever@@ 0.9016910764424266
Laur@@ 0.7719053403732454
Luc@@ 0.6086626109411442
Luther 1
Telev@@ 1
Tw@@ 0.9470562759765843
Vis@@ 0.8283329499666242
adam@@ 1
api 1
apor@@ 1
esh 1
ich 0.29303224048200904
304 1
Ari@@ 0.9420751829850571
Carl 0.6696980970981912
Hong 0.739355199247863
Jac@@ 0.7153798637133799
Je@@ 0.5889220285009967
Win@@ 0.5372972164854491
alm@@ 0.4563901035804407
illa 0.3452109671504026
ogr@@ 0.8876677471006177
ome@@ 1
sur@@ 0.1333357480523146
28@@ 1
Istanbul 1
Pierre 0.3902559325321272
fet@@ 1
iana 1
kap@@ 1
{ 0.841975382427604
Arthur 0.6231392512197702
Euro 0.9501473063398649
Know@@ 1
Luk@@ 1
hospit@@ 1
lig@@ 0.316252987857296
sabit 1
vin 0.9157249955788247
zw@@ 0.8009727645563773
Gaz@@ 1
Hel@@ 0.4292559588663479
Isa@@ 1
Jama@@ 1
Nelson 1
Ou@@ 1
Rem@@ 0.667707373550241
Sing@@ 1
Ty@@ 0.6489884073513824
ante 0.10761976713229542
atr@@ 0.29747434188700334
bot@@ 0.50919009348883
ds 0.2544899001116736
its 0.028549234418154885
span 1
umizi 1
AK@@ 1
IM@@ 1
Moh@@ 1
Rock 0.5263209924534048
Run@@ 1
UM 1
VII 1
edia 1
ep 0.603229138218499
gal@@ 0.534603378803302
lip@@ 1
Air 0.28516422612318976
Bir@@ 0.5367826752495657
Bot@@ 0.5453557387808399
Ep@@ 1
Hop 1
Kong@@ 1
Sydney 0.6776384077969609
US@@ 0.5096778815822867
endeleo 1
ism 0.16184130015625567
su 0.03045834694223791
tang@@ 1
Cre@@ 0.37174532943068805
Fe@@ 0.3700676037364974
Francisco 0.36406445961543993
May 0.11475884959866522
int@@ 0.2551504493741665
olog@@ 0.509386426571498
rom@@ 0.33909643870756545
sea 0.3843903047907037
1928 0.4201319175015602
303 1
Kilom@@ 1
Liverpool 1
Mog@@ 1
Pot@@ 0.8021097650050005
Rio 0.9169171397104163
Southern 0.557651398662483
bury 0.6119058799570728
day@@ 1
induzi 1
sent@@ 0.5564381135542644
sol@@ 0.13032978211207852
st 0.11436916871586769
1889 0.8490815642598694
Eu@@ 1
Fran@@ 0.6283552599465946
Frank 0.5306418503659528
Hom@@ 0.5854215134016787
Joe 0.6532035036303045
Lis@@ 0.9980065650371448
S. 0.5134139517494464
Single 1
Sou@@ 0.684267371847221
e.@@ 1
gan@@ 0.6285286417688812
hy@@ 0.47316686669894986
ilimia 1
inger 0.32316120072660603
ize 0.62369781481589
DM 1
Fir@@ 1
Western 0.34033227329615257
dis 1
dor@@ 0.48131155884627724
plasti@@ 1
ref 1
rut@@ 1
} 0.9541238404177278
ć 0.8229490863316479
Anna 0.6911073251702814
Eng@@ 0.5474047840614589
Gir@@ 0.7595088592349518
Yam@@ 1
ales 0.07957407909890402
els 0.11203241214919316
o.@@ 1
vul@@ 1
Beth@@ 1
Carlos 0.5068241567579308
Cross 0.8087250801915744
Fat@@ 1
Gre@@ 0.44107604860655847
Iraq 1
Omar 1
Ptolem@@ 1
Tig@@ 1
Vid@@ 1
anik@@ 1
eman 0.6210249978905655
estr@@ 0.26029676721949774
faransa 1
jan@@ 1
mer 0.1932191351615456
mir 1
í@@ 0.1525060797604363
‎ 1
119 1
Adam 0.8418224703777071
Aeg@@ 1
Pel@@ 0.8986985496038337
beri 1
bon 0.683804295964062
lilik@@ 1
low 0.21286322886173345
rey 0.37863140113413396
ski 0.4097346688359497
15,000 1
1903 0.6534515597608054
1916 0.5412447984283045
Diamond 1
Lat@@ 0.6787039804558419
Munich 1
Oc@@ 0.6265455434175117
issa 1
oud 1
A.@@ 0.7694031347439839
AL@@ 1
Fab@@ 1
Ford 0.7656081213168769
Karl 0.44317555924978935
apar@@ 0.8787889829951561
ator 0.1616521585550548
mek@@ 1
tol@@ 1
23,@@ 1
Aleks@@ 1
Teresa 1
Virginia 0.4118006456148599
ag 0.6691569650474277
bs 0.37978807395583036
ech 0.9811550005637794
ige@@ 1
sho@@ 0.42051132825699516
toria 1
via 0.2602892371574607
1.5 1
Est@@ 0.3104783046764401
RI@@ 1
Stef@@ 1
Tony 0.8374567464486722
Viv@@ 1
Wilson 0.6917164379909929
Yer@@ 1
adudu 1
bani 1
ben@@ 0.36447864516918976
dens@@ 1
gre@@ 0.3616729062320987
Bangladesh 1
Ev@@ 0.5368884494145731
Golden 0.7822832638614717
IN@@ 0.6489044324248532
It@@ 1
Limited 1
NBC 1
Osman@@ 1
Res@@ 0.299434806264516
Sever@@ 1
Tokyo 0.9188678669398113
anal@@ 1
anthro@@ 1
ics 0.14819057501456392
iku 1
kot@@ 1
shar@@ 0.7548641134034347
α 0.5834831930593603
1935 0.38206216283849254
Bes@@ 0.5540831140329381
CA@@ 0.526781738824702
Cur@@ 0.3442462029807557
Ful@@ 0.8742845015743298
Harvard 1
Mim@@ 1
SC 0.6127871367635799
Samuel 0.8473315513151206
Sem@@ 0.6553619242907708
Yemen 1
afrika 1
anna 0.8417308673264725
rock 0.29871418547297374
ther@@ 0.2919092356834578
tik@@ 1
ukio 1
19,@@ 1
1932 0.4102680361060791
Bat@@ 0.4262237249427577
Kau@@ 1
OS 0.7657468517887344
Pep@@ 1
Rip@@ 1
lie 0.5030824416098665
mem@@ 0.5584157619448339
ns 0.17859104069799991
tan 0.3756760894291425
1908 0.5301706952477834
1913 0.48505857881297637
20,@@ 1
Cairo 1
Him@@ 1
Jin@@ 1
Kri@@ 1
R. 0.5768158215780412
Zu@@ 1
ci 0.27251492993762977
tur@@ 0.12570842801590423
tus@@ 1
uvu 1
yem@@ 1
ym@@ 0.3469446137866461
1896 0.7128762238541115
1906 0.5611695464843044
Ach@@ 0.8086200207648437
Delta 1
Lak@@ 0.893503372220034
Mong@@ 1
Studio 1
Super 0.4777672932273264
W. 0.5721965161638513
ampa 1
any 0.13373540681701748
arg@@ 0.4169599417177267
bai 1
irikiano 1
neo 1
sey 0.5983543718873044
ther 0.4575119488656844
til@@ 0.2758206491690693
tou@@ 0.7768753544874133
wor@@ 0.213601966209021
市 0.3383524691261851
40@@ 1
Aur@@ 0.9543375017650458
Bulgaria 1
Der@@ 0.6010304454422142
Ek@@ 1
Lor@@ 0.5936409431710357
Queensland 0.9738863495645065
kumbu 1
oper@@ 0.27255367073264614
tin 0.2719973502432521
tus 0.9215628837385984
€ 1
AT@@ 0.7105398608224113
Bad 0.7720302791814766
SA 0.6160543588226076
Sor@@ 0.6101963557822001
Tem@@ 0.6553233304613161
Walter 0.5718670889354215
adhim@@ 1
atifu 1
chor@@ 0.8594002011602089
liz@@ 0.7763699203714857
papa 1
stone 0.39242139190736636
tor 0.16075583795430548
way 0.10677091637573811
2.5 1
29@@ 1
Black@@ 0.7808189342145867
Hy@@ 0.4368763595737614
bud@@ 1
eau 0.22025677523855156
ier@@ 0.17632426534419784
ky 0.3929931336842852
lands 0.38136700559386383
lor@@ 1
od 0.41524043913488845
oli@@ 1
plat@@ 0.4592262607361667
sat@@ 1
sur 0.03353263086791473
1870 0.7069590587013773
Andrew 0.6998256950294448
Baad@@ 1
Bill 0.5401041298003383
Gat@@ 1
Mum@@ 1
Nin@@ 1
No 0.3249688878092253
Pak@@ 1
ador 0.1881100738274229
alaya 1
andin@@ 1
ff 0.35406358890072476
gu 1
non 0.1292036135815327
obi 1
oja 1
sy@@ 0.5161956232356367
tes 0.08489539787983662
Camp@@ 0.5866424576967213
Chang@@ 1
Green 0.46060776838527207
Hall 0.26867307118405376
Sho@@ 0.5998547211727988
Vo@@ 0.5892625679964323
ark@@ 0.38891044995469815
aw 1
inc@@ 0.16087986509890412
ps 0.17312718867204377
350 1
Bern@@ 0.6597970799964069
Boston 0.4853749166538937
Carolina 0.47961120565732457
Pu@@ 0.6499035168957191
Sig@@ 0.6539539271429596
WWE 1
aden 0.7215378128261687
als 0.017603314998040163
aster@@ 0.8564007252868208
dik@@ 1
ins@@ 0.21439170816517547
jazz 0.9365343267051208
lis 0.5220858063735987
manga 1
160 1
1860 0.7944814280504688
200,000 1
AS 0.7262708396096178
Benjamin 1
Center 0.27285636858696316
Geneva 1
Gog@@ 1
IA 1
Nu@@ 0.9215659245442712
TA 0.9519405510999286
Tre@@ 0.2982922955990096
ath 0.3024701224053757
etti 0.6313394419868418
hir 1
mili@@ 1
pati@@ 1
,@@ 1
1902 0.598782594815539
Alfa 1
Fa@@ 1
Ibrahim 1
Prot@@ 0.4414881421144321
Shin@@ 1
Sud@@ 0.8872816716325445
Time 0.5791662896253826
abr@@ 0.6851401986919864
atra 1
fo 1
hr@@ 0.4103234190309427
kung 0.7848659130571176
tika 1
zen@@ 0.6938449336981531
zuri 1
Antonio 0.4539993344098648
Galil@@ 1
Kiaus@@ 1
Red 0.32200698551937995
Shir@@ 1
Siberia 1
Vincent 1
aun@@ 0.45254943807752873
insi 1
mez@@ 1
thi@@ 0.5460123319819724
1907 0.5227776952003453
59@@ 1
AI@@ 0.9835672436345823
DP 1
Gro@@ 0.5712790689825938
Oxford 0.669807518590598
Pin@@ 0.6296777265690859
RE@@ 0.8178816554028316
Show 0.5653170276895803
Tas@@ 0.7761612148166565
bra 0.9876786780560075
mark 0.524932407133377
oth 0.5824575154191811
oya 1
1924 0.3839467312501261
Astronom@@ 1
Chem@@ 0.7193231768591906
Christopher 1
Day@@ 1
EP 0.5781347210320374
Neg@@ 1
Prince 0.49287542346079505
Rail@@ 1
Wel@@ 0.7559953192994363
Yas@@ 1
ave 0.38940945556446793
gi 1
unya 1
Day 0.40597654783636594
Gas@@ 0.646053160450481
Laos 1
Liga 0.379952552949737
Nah@@ 1
Napoli 1
Old 0.4697562394721006
Otto 0.73377867476948
Peru 1
Prim@@ 0.5732820550881186
Sep@@ 1
Steve 0.6776658710638679
Tom 0.5126569005418123
ations 0.04451089083369781
ide@@ 0.43039491865474333
ies 0.12140564755403979
istan 0.9978541940641358
oon 0.8378932494779766
ster 0.19500664717879568
1800 1
18@@ 1
Bud@@ 0.7546808429691606
Disney 0.7787996280125042
Lag@@ 0.8587945729475133
Lok@@ 1
Mass@@ 0.8920356828937798
Pent@@ 1
Pom@@ 1
Umb@@ 1
Up 0.9438844153611409
adies 1
amm@@ 0.30049940188068136
bar 0.21762030933264465
delta 1
ex@@ 0.054256907234992144
izi@@ 1
yc@@ 0.46719302104221416
1625 1
Bang@@ 1
Bayer 1
Dani@@ 1
Hamburg 0.6676875590661323
M.@@ 1
Tos@@ 1
angilio 1
awaida 1
lak@@ 1
ony 0.4808454817860214
was 0.0042647216441478305
ו@@ 1
109 1
40,000 1
Bob 0.6525207009009281
K. 0.8470253141436188
Pres@@ 0.28869367738505314
Sad@@ 1
Wik@@ 1
aff@@ 0.22201516380729955
din 0.9034143478457857
fre@@ 0.22884418778712584
kok@@ 1
odia 1
www.@@ 1
yer@@ 1
1836 1
Frederick 0.9633476641269799
Kand@@ 1
Max@@ 1
Patr@@ 0.5671131318547964
Rah@@ 1
atu@@ 1
che@@ 0.5964713657342904
ekw@@ 1
ett 0.29087595515787384
hit@@ 1
oki 1
ology 0.15268007929951347
140 1
1911 0.45520777107552324
25,@@ 1
Abdul@@ 1
Kind@@ 1
Pennsylvania 0.5141057394045315
Rec@@ 0.2566186712613987
Seg@@ 0.6395809704006057
Vin@@ 1
adia 1
aunti 1
eda 0.9139840925552715
glut@@ 1
iz 0.9896690390768624
kaya 1
lin 0.38410539785164827
nor@@ 0.26255832165572174
101 1
1880 0.6712066753284178
1921 0.38325276802754066
America 0.2169715085784421
Ca@@ 0.7242105348910765
Fun@@ 1
José 0.2968620878799084
Khar@@ 1
MC 1
Pap@@ 0.4515873822943844
Tours 1
US 0.10313456362541233
alie 1
pro 0.5064253035501542
uc@@ 0.20267236263692517
ving@@ 1
Bid@@ 1
C.@@ 1
EC@@ 1
Jordan 1
Kub@@ 1
Mang@@ 1
Tel@@ 0.47931235650150744
ated 0.033726881261479845
http 1
ors 0.07293493868802906
tari@@ 0.6975245003055961
ˈ@@ 1
​ 1
110 0.9675056835607604
AA 0.6763208088580683
Kath@@ 0.6312394872172179
Mr. 0.7606940712897884
Orchestra 1
age@@ 1
da@@ 0.9599722925438757
gae 1
hu 1
ill 0.2927631349895899
jaw@@ 1
oso 0.43562293458477064
piano 0.7178915915011828
unde 0.5506159979921095
37@@ 1
Boy 1
Dav@@ 0.808934088019192
Fon@@ 0.7950069729950405
Gol@@ 0.5904081049585083
Jab@@ 1
Jen@@ 1
Mike 0.5871659048396795
Nach@@ 0.287779752688922
Norway 0.9832773886220632
Ontario 0.6119887612772318
Scotland 0.544359809628584
São 1
able 0.05178707234252377
ehebu 1
fus@@ 0.8108394430117535
gl@@ 0.236910520540025
hil@@ 1
ick@@ 0.17450431256576834
ling 0.16233236236044227
sou@@ 0.20361544279148716
war 0.023256078676168225
1,4@@ 1
1884 0.7711841179945117
1887 0.757812813296227
1904 0.5059861331250609
Lincoln 0.8122856864543301
Ma 1
Mid@@ 0.5388957145260572
Not@@ 0.42749148066845527
Nus@@ 1
Press 0.7055213206912362
RA 0.9650530366955783
Sun 0.6148143623393114
abi@@ 1
cu@@ 0.1090199374279542
eter 0.253930877201064
jal@@ 1
moy@@ 1
Beach 0.6620129971788095
DA 1
Dami@@ 1
Institute 0.2568113647587112
Nim@@ 1
Oy@@ 1
PA 0.6962594477474902
Peters 1
Sali@@ 1
Tut@@ 1
Zab@@ 1
buni 1
from 0.010021529896248209
km2 1
wich 0.9152776098357776
119@@ 1
1899 0.596364481564755
All@@ 0.4360038252840249
Blue 0.4880403394086648
Dol@@ 0.5193571054973273
G. 0.6184045358823931
Lev@@ 0.5339950734169436
Tek@@ 1
key 0.3158196444843369
otor@@ 1
sburg 0.9101258876804791
sein 0.10654113065735761
170 1
Abit@@ 1
Chap@@ 0.5263296351815452
Great 0.300280930412234
North@@ 0.5546645991747104
Petr@@ 0.9088743485995061
Sultan 1
Tav@@ 1
Wol@@ 0.4465217052647221
Yus@@ 1
ejeo 1
ets 0.09567634254481061
kaf@@ 1
lif@@ 0.816389143181367
meth@@ 1
obe 1
ode 0.6859713807110883
olo@@ 0.859223228487935
pom@@ 1
ø@@ 0.565359038914779
11.@@ 0.9513232936313529
1891 0.6811270700930498
53@@ 1
Ele@@ 1
Kang@@ 1
Mont@@ 0.3415861314328698
Peace 1
Sweden 0.8220665306586946
Territory 1
cl@@ 0.12299664187037943
ft 0.1635571486755891
ide 0.2828955207105425
imeh@@ 1
land@@ 0.17974738119490352
1898 0.5710669010928392
Arch@@ 0.3199679389126592
Gaza 1
Gold 0.5754972741033507
Haf@@ 1
Pir@@ 0.6746132392033882
Road 0.23592825317420388
Trans 1
agu@@ 0.501756947545572
att@@ 0.15758330916083246
beta 1
ks@@ 0.3776035121814667
pik 1
57@@ 1
Frankfurt 0.7792758741266845
Gam@@ 0.977307684530101
Ibn 1
Jr 0.7111893788219632
Lum@@ 1
Margaret 0.929757662258384
Neb@@ 1
Ze@@ 0.5348906548176315
`@@ 1
my@@ 0.4717640982617434
our@@ 0.253486212247041
vo@@ 0.24229360104783648
yok@@ 1
ão 0.859466527265735
Fort 0.4394882541963484
Gau@@ 0.7393691535502672
Kaw@@ 1
Romania 1
acho 1
kran@@ 1
media 0.23896509889696757
nh@@ 0.25334135467114155
out 0.0465962380384785
sions 0.26250570299386966
solo 0.21793803451224297
ten 0.029668976527222866
thiop@@ 1
ump@@ 0.3031093503774416
ô@@ 0.49558973829384634
1,6@@ 1
ARC 1
Ago@@ 1
Alek@@ 1
Anne 0.5469834635754215
BA 0.715040707788373
Beng@@ 1
CL@@ 1
Hes@@ 1
Kot@@ 1
Lang@@ 0.4081560575281598
Mob@@ 1
Op@@ 0.3104809850006709
Rug@@ 1
Sag@@ 1
bera 1
kuru 1
oué 1
sok@@ 1
ա@@ 1
1791 1
1839 1
1915 0.4039327661924417
22,@@ 1
Andes 1
Barn@@ 1
Hid@@ 1
Lah@@ 1
Roger 0.6954115615694997
SM 1
Sm@@ 0.7604135623246305
Toyota 1
aud@@ 0.5984469950695784
burn 0.8961281835142315
hug@@ 1
ly@@ 0.3259779802696944
mang 1
1897 0.5705776827714427
1901 0.5076625208958851
Alex 0.8637584453677133
Boh@@ 0.7743341072380364
Brian 0.719085562337466
Fur@@ 0.4928063855722624
Is 0.672906051773571
Russia 0.4136669007016493
Solomon 1
Ton@@ 0.6795649761972905
XIV 1
amerika 1
nav@@ 0.6023156149419985
ock 0.2877460500542936
ō@@ 0.549156650859098
Ann@@ 0.5353276778918434
CE@@ 0.7271167311855318
Film 0.1640524232187398
His@@ 1
Lom@@ 1
Orange 1
Tit@@ 0.48918522970349737
ajika 1
aman 1
ck 0.3903354510081828
dan 0.3487297529598781
ebu 1
elem@@ 1
fululizo 1
ole@@ 1
pil@@ 0.38372836603322463
sch@@ 0.04657370391801083
ste@@ 0.17086281947663454
xi 1
án 0.13986604271497252
47@@ 1
500,000 1
Baden 0.8892985583884252
CS@@ 0.669735112280667
Davis 0.5676118113943008
Kos@@ 0.940872643648659
Pic@@ 0.5407168896458415
WA 1
Wilhelm 0.4197182605248998
Ya@@ 1
aam 1
aland 1
cr@@ 0.09734294321341491
enza 1
fes@@ 0.697174648260084
mor@@ 0.16804588372141321
rak@@ 1
uala 1
ugenzi 1
ver 0.18811635196997029
10.@@ 0.6612576109333324
1866 0.6380286655202513
Cambridge 0.6401315738530856
Emmanuel 1
France 0.07551242440724973
Gabriel 0.9020862830700536
Hesse 1
Krist@@ 1
Movement 1
Obama 1
Panama 1
Reb@@ 0.5828883863625128
Street 0.16845800350336837
chen@@ 0.4463552510302721
com@@ 0.07242165729573961
elia 1
idem@@ 1
orum 1
ous@@ 0.548470927328018
ty@@ 0.2768466990198468
win 0.14818866239179057
Anton@@ 1
Ard@@ 1
Arts 0.2756261891986398
BC 0.39023236037461806
Free 0.7648154554596772
Gl@@ 0.31596348416927067
Steven 1
banda 0.4781938091829861
bie 0.7354387649898722
eck 0.35143020678679576
heim 0.33008472210037737
jan 1
kes 0.7265352259283684
pag@@ 0.6489124497572386
sand@@ 0.7827572822988434
118@@ 1
130 0.9134778166860874
27,@@ 1
Bank 0.3496849454909824
Hollywood 0.6694182505131546
Lil@@ 1
Nur@@ 1
Post 0.46577412378852984
Ruv@@ 1
Sis@@ 1
anze 1
asin 1
ement 0.05311473616424446
emokrasia 1
ful@@ 0.9241571416700772
kos@@ 1
laz@@ 1
mashu@@ 1
ment 0.07888124300386098
opera 0.8684158110361846
tata 1
ube 1
uri@@ 1
én@@ 0.18363900360587934
1892 0.6104166723469788
75@@ 1
Beijing 1
Cop@@ 0.6673531680036056
Dou@@ 0.6021126677508949
Earth 0.5295346325510112
England 0.14607340991532103
Grace 1
Guy@@ 1
Howard 0.6971032839260102
Kaf@@ 1
Liber@@ 0.4805062858362082
Lil 1
Naz@@ 1
Sat@@ 0.6684183547741769
Venezuela 0.692996014862314
alla 1
ao@@ 1
ax 0.6707005829297042
ays 0.2625925960995605
enzo 1
eth 0.40047688937572046
fel@@ 0.4881279639464657
gul@@ 1
ichana 1
isiti@@ 1
my 0.38180346441574997
nan 1
num@@ 0.5990868332557729
ont@@ 0.5810256884585883
thro@@ 0.6775574053604001
Ç@@ 0.6202659485007578
á 0.1951223875242197
201@@ 1
24,@@ 1
Be 1
Blo@@ 0.6380496928834415
Centre 0.33050171092078134
Development 0.4730369330573047
Ga@@ 0.6477113143732028
Len@@ 0.9342648962597506
PE@@ 1
Pam@@ 1
Qatar 1
Ross 0.8673555880785928
bomba 1
chin@@ 0.6987513634738759
doba 1
dol@@ 0.5105742051502111
ehem@@ 1
etta 0.6791937248055235
ga@@ 1
hala 1
ical 0.08170296795273359
imia 1
keti 1
ons@@ 0.29673103297046693
over 0.04240081496525574
ters 0.10650241801956847
„ 0.028546048711129875
103 1
105 1
1895 0.5401435846283712
Alfred 0.6072251757349447
Ci@@ 0.5201846241207208
Daw@@ 1
Dũng 1
Ellen 1
Iceland 1
Isaac 1
Juventus 1
Nap@@ 1
Num@@ 0.9740857842106766
On 0.03791151792489372
Taiwan 1
Tamb@@ 1
UK@@ 1
We 0.43177105174141306
isini 1
lah 1
otop@@ 1
sti@@ 0.17596539783081921
urg 0.9581767537669547
4000 1
Ambro@@ 1
Aqu@@ 0.735389499757115
Bosnia 1
Brothers 0.9741861914208996
Cat@@ 0.3629493906014254
Fox 0.5729959437371843
Gold@@ 0.45352218655477333
Kash@@ 1
Key@@ 1
L. 0.49414103185462227
Live 0.4752139911215707
Lạc 1
Main 0.5142515154071015
Napoleon 1
Ran@@ 0.45102255760547694
Tag@@ 0.8406240846842598
Vig@@ 1
XV 0.9222696563347993
Zin@@ 1
adan 1
ars 0.14386853229682373
dei 1
enger 0.980696069955348
eski 1
eu 0.401821928431252
fo@@ 0.22613033295791424
king 0.1217343321682261
occo 1
rav@@ 1
rei 1
él@@ 0.2821166883218204
34@@ 1
Corn@@ 0.48599045824714926
Daily 1
Die 0.01764389213839697
Din@@ 0.6030064133924686
FO@@ 1
H. 0.40330298805455894
Haiti 1
Kok@@ 1
Lem@@ 0.905146192105656
Leon@@ 1
Now 0.9593395583757053
WHO 1
akh 1
bis@@ 0.9673099338224403
ebi 1
erina 1
erry 0.5214804876093905
giji 1
ikal@@ 1
106 1
115@@ 1
360 1
Ahmad 1
Anast@@ 1
Canterbury 1
Emer@@ 0.7535492300663167
Foreign 0.8294769017787277
Global 0.8380010951840791
Haz@@ 1
Kuh@@ 1
Lombar@@ 1
Pri@@ 0.3364167615114925
Red@@ 0.31454451510292114
Rod@@ 0.7808456737697015
Sicilia 1
Sus@@ 0.7295060250603097
ally 0.05168246594960484
art@@ 0.2577531722521287
din@@ 0.36958469107151687
ebo@@ 1
ents 0.06756366471820888
fas@@ 0.42502454306410486
fur 1
inum 1
ishati 1
jili 1
klin@@ 1
pri@@ 0.27636619664989887
tete 0.39489442727774016
1200 1
1861 0.663778213611856
1871 0.62448310445247
60@@ 0.9925352051955678
Allen 0.7116371032265211
Apo@@ 1
Bav@@ 1
Da 0.3680338437697391
Gil@@ 0.590050689855605
Lake 0.23897217610732857
Lub@@ 1
Spe@@ 0.3039974961142368
Stanley 0.9001507502831495
Water@@ 0.81029530499268
ayan 0.9168699606473223
ayi 1
eland 0.6372133942673681
ja@@ 1
kin 0.3831789866015665
ny 0.4418589370516124
tion 0.05770333671288369
ward 0.3109905608578558
É@@ 0.15000774162695024
ó@@ 0.1318460984303769
š@@ 0.27913476293656814
1,8@@ 1
Bau@@ 0.1311968747532549
Bonif@@ 1
CNN 1
Div@@ 0.5544058971144146
Hav@@ 0.40509261884753756
Hem@@ 0.844424404558343
Hills 0.9400711579466999
Hun@@ 0.688220200348665
Kelly 0.8570026090917415
Lati@@ 1
Nan@@ 1
Raf@@ 1
SS 0.4216837888942801
SS@@ 0.9286944645186603
Uni@@ 0.4522271534631461
alar@@ 0.6961655609183077
ald 0.5271145285742644
atan@@ 1
dugu 1
grav@@ 0.39699777692885435
igano 1
meng@@ 1
not@@ 0.1557273959850408
sun@@ 0.5717365018067722
1,9@@ 1
1893 0.5635028768549676
26,@@ 1
Allah 1
Alliance 0.8454682597091439
Cle@@ 0.7311560837938342
Deb@@ 0.4710558634636392
Dog@@ 1
Usw@@ 1
Var@@ 0.553325310607882
Wand@@ 1
Whit@@ 0.47772123193051214
ams 0.3024988261120243
art 0.09975666818353375
ble 0.18707849727315218
eim@@ 1
enberg 0.4220514418010994
gen 0.1479176921422537
itz 0.24532125698453383
kamera 1
mojaw@@ 1
pyuta 1
ros@@ 0.4141867330646267
25,000 1
450 1
Bam@@ 1
Bundesliga 0.8373877723079087
Diego 0.5134054594631106
Harris 0.8337243819969278
Living@@ 1
Long 0.40711296747141845
Max 0.4283848162975639
Santos 1
Tim 0.9010561601832863
Tus@@ 1
Villa 0.5996485580706244
aan 1
atus 0.37823837779950575
dam@@ 0.627693587725425
lev@@ 0.46806949127448827
more 0.03844858961810875
town 0.09080218175806201
1894 0.5626458607156877
80@@ 0.8865180680440504
Alpha 1
Atlanta 0.760664180939033
Benn@@ 1
Claire 1
Eric 0.7020220980510715
Jan@@ 0.5390201284629459
Ltd 0.9408191559386123
Luis 0.39992775998872476
Ohio 0.37649426320314755
Orleans 1
Pan 1
Tok@@ 1
aq 1
band@@ 0.5733717005760393
eci@@ 1
ef 0.41172017401546396
end 0.0443671154811956
gio 0.6686373788778965
hep@@ 1
illy 0.4846356040583189
semin@@ 1
ton@@ 0.29567822607953104
ː 1
1840 0.7882061970749827
43@@ 1
Ale@@ 0.8843307004619909
Ankara 1
Bayern 0.7847125912384513
Cup 0.11844881770084004
F. 0.4495433651435168
Girls 0.9095025910263429
Gun@@ 0.6443473450500383
Kazakhstan 1
Microsoft 0.7731613011169105
Pav@@ 0.6996159671652263
RI 1
Serie 0.403177203288462
Stephen 0.554911044655271
Sto@@ 0.4597074721408001
Theatre 0.40172248188705617
aph@@ 0.6269619192139496
him 0.047954710567687596
ness 0.1601870482808626
rain 0.60507162034958
tic@@ 0.15237743229980544
yor@@ 1
107 1
21,@@ 1
Adolf 0.9475687547855393
Anderson 0.6625733626675326
Arabia 1
CB 1
ER@@ 0.46669479988532714
Faus@@ 1
Gand@@ 1
Gem@@ 0.5991294295133013
Hand@@ 0.3123960237785292
Lar@@ 0.3660451369185802
Ot@@ 0.5919925981538089
Sas@@ 1
Tob@@ 1
Tou@@ 0.8129420304075258
aca 0.5132746585726272
bee 1
esti 1
got@@ 0.6036479730684589
ias 0.9232164616387135
mazo@@ 1
ose 0.30898672670738575
pet@@ 0.7970649187729317
shire 0.3669003795241397
sius 1
Baby 1
Dennis 1
Dev@@ 0.3230930139195973
Front 0.6839100375649839
Hans 0.3567653533945664
Harry 0.5058320798700554
Lou@@ 0.542929745245014
Marcus 1
Ré@@ 0.30438442431999935
Shah 1
Silva 1
Soul 1
Trier 1
Youth 0.7765535350317468
ainishaji 1
bez@@ 0.7479886090015644
idge 0.5921432086353544
into 0.032981783880185994
may@@ 0.5916908665467651
omin@@ 1
ow 0.2527922239481143
soni 1
ting 0.058552006061155994
ָ@@ 1
Art 0.15165542327451997
Ass@@ 0.8744149895184843
Cec@@ 1
Cro@@ 0.2984866652836608
Dest@@ 1
Donald 0.6333486114325196
Fri@@ 0.40556571698156624
Good@@ 0.7850383864938719
Konstant@@ 1
Mom@@ 1
NA 0.9592881862911425
Pa@@ 0.4564606037818093
RT 0.9688193312860887
Rap 1
Seoul 1
Sit@@ 1
Sloven@@ 1
^ 1
ass 0.25770304406256395
cia 0.9899777592935189
eira 1
fe@@ 0.07810109037621958
ines 0.1015034749739561
md@@ 1
out@@ 0.12490256682407667
wara 1
50@@ 0.6770412356447858
AF 0.7358962596701497
Barbara 0.854831583797543
By@@ 1
Camer@@ 1
Denis 1
Dub@@ 1
Gur@@ 0.9919354231301244
Houston 0.6691656193194242
Lac@@ 0.8249675206921826
Lawrence 0.7781618053127555
Mali@@ 1
Milan 0.799876275999183
Queens 1
Shel@@ 0.9761737271629289
Song 0.4234813783436921
Sug@@ 1
Valley 0.3271132313982744
Victor 0.6065576985869475
Wallace 1
alum 1
cy 0.5386387547237957
edo 0.49219836862997174
kg 0.5226586877432572
mom@@ 0.8403404870900797
owa 1
poin@@ 1
yang@@ 1
ī@@ 0.8157163754995121
1,7@@ 1
2,0@@ 1
34,@@ 1
AR 0.8448588283675184
Bell@@ 0.8179809994745261
Bé@@ 0.9113546770286985
Country 0.5892627022806014
Jak@@ 1
Leg@@ 0.24198496761505336
ML@@ 0.7160948556706781
MS@@ 0.9885630972934553
Minnesota 0.5153613460607467
Mississippi 0.751408336910384
Nation 1
Nev@@ 1
Ren@@ 0.32390919075990104
Sarah 0.7507616957810129
Second@@ 1
Sev@@ 1
Timor 1
Uruguay 0.9375409066837997
aus 0.024326596276485188
ente 0.06815107012372357
esta 0.11189576311550216
ien 0.12892267605556873
illo 0.3911161346703481
ken 0.0845833884078462
lywood 1
muh@@ 1
nach@@ 0.26681637340703274
ometr@@ 1
onal@@ 0.43128849520421336
port 0.16479300393552795
ric@@ 0.4910672847308273
spek@@ 0.9593544892792383
taki 1
ABC 0.7139777437614668
Abdul 1
Afric@@ 1
Aks@@ 1
Amsterdam 0.8445535736501235
Can 1
Juan 0.21291607049133007
Lewis 0.504270831537044
Ray 0.6753996969657317
Sid@@ 1
TE@@ 0.7229522365341657
Ther@@ 0.3893226277631285
Trav@@ 0.6794847569957938
anger 0.45522728480083957
asso 1
bet@@ 0.44638731931312065
day 0.0687511685172936
eus 0.7381949769594961
ingen 0.18889913088177424
lov@@ 0.7586817605987595
men 0.06294485504150546
mtaal@@ 1
ones 0.10404112775879737
oster@@ 1
ser 0.09076347237948536
undisho 1
up 0.03629408781952262
1881 0.5915676204395878
Abdullah 1
Beau@@ 0.4610166549342042
District 0.11557778524480719
Girl 0.8450322078554482
IP@@ 1
SE@@ 0.4256209566968954
Sports 0.4268178388043236
agr@@ 0.38275189033552076
bay 0.35964674401589547
cor@@ 0.08982884585437644
ein 0.017190815452750304
elius 1
graf@@ 0.8523384722506281
nch@@ 1
off 0.08019898015754852
teri 1
tivo 0.725248090168031
12.@@ 0.7270558892880752
Banda 1
Bra@@ 0.8340522589208333
Brooklyn 0.8574836442895631
Cass@@ 0.9084969944305669
Chin@@ 0.9122781115931177
Kennedy 0.7605667267609267
Lup@@ 1
Mod@@ 0.37928067010015826
Oscar 0.7820222532696385
Rum@@ 0.621292194748962
UU 1
Ung@@ 0.9982546285850707
blog@@ 1
enne 0.14479498726691734
etab@@ 1
gon 1
hudi 1
kitab@@ 1
lar 0.1831279209336025
line 0.0716187087399853
nu@@ 0.3058950868316421
para 0.02453675836155069
rem@@ 0.14858552634683345
sh 0.6045113298088048
wang 1
290 1
38@@ 1
AF@@ 0.9297057282340402
Bernard 0.6246852784212619
Bit@@ 0.9972449756163757
Brun@@ 0.6714747863171808
COVID 0.5038791015604039
Corps 0.38802362806989155
Felix 1
Jacob 0.8006650301845953
Je 1
Meth@@ 0.745133659133818
Nature 1
Porto 1
RO@@ 0.7210954600582391
Sow@@ 1
Township 0.45940552646082855
Wo@@ 0.40290860969892833
alay@@ 1
aran@@ 1
asio 1
atie 1
audio 1
baj@@ 1
cher 0.12368578368466537
ei@@ 0.7306325805280587
eu@@ 0.4129539089214646
iller 0.34914739589337657
pul@@ 0.21534165812106407
rah@@ 1
riz@@ 1
1,3@@ 1
114@@ 1
3,0@@ 1
Amaz@@ 1
Buch@@ 0.3249620271604908
Camb@@ 1
Colorado 0.5477142281877904
Copa 0.44423328544824586
Emmy 1
Equ@@ 1
Ind@@ 0.9932014730913769
Let@@ 0.6508632767223942
Little 0.38514462970355257
NBA 0.501940642495658
Network 0.5179328074971858
Phil@@ 0.5213133543051655
Syl@@ 1
T. 0.5151494632242463
XVII 0.9356629322865767
Yo 1
Zak@@ 1
Zel@@ 1
aifa 1
bat@@ 0.144417282377093
beb@@ 1
esi@@ 0.7111538005591156
her 0.019814107583729094
hol@@ 0.1624019682513051
inz@@ 1
ix 0.5379799042929952
log@@ 0.2696126317802325
nas@@ 1
pedia 1
108 1
1830 0.7219942131352881
1850 0.5956673301778737
320 1
Adri@@ 0.9116354836923428
Alaska 0.9585404450687963
Alb@@ 0.7601773021037849
Bolivia 1
Boys 0.7379769791892232
Brooks 1
Council 0.14757915387071843
Game 0.42321441708383767
Helen 1
Maryland 0.5998388246148808
PC@@ 0.6226888801320158
Pop 0.9448601033536581
Rak@@ 1
Tang@@ 1
ahu 1
andra 1
aux 0.031017244660482165
bou@@ 0.4105473387301025
department 0.40616176786628666
eff@@ 0.2735626380720028
eter@@ 0.7018389596786937
if 0.10195741435851557
kh 1
pur@@ 0.15238640089848063
thumb 1
trans@@ 0.07121567618952095
ud 0.5101821438904313
1600 1
1700 1
1909 0.35783155608050793
28,@@ 1
Bet@@ 0.5253534278950053
Bush 0.9152390775783371
Business 0.4955381756134737
Cav@@ 0.5190864716292843
Chil@@ 0.6930713413974307
Church 0.14237937131072453
Corporation 0.3791097862866397
Dad@@ 1
Forbes 1
Haj@@ 1
Iz@@ 1
Kamer@@ 1
Leopold 1
Yu@@ 0.8154900069616503
dal@@ 1
ers@@ 0.5892947549767826
ges 0.14527865536620588
giz@@ 1
ien@@ 0.6782034493025707
inge 0.6025392652841521
oy 0.5750040491163904
teria 1
ux 0.33106362006271717
zur@@ 1
1869 0.6398422498538612
36,@@ 1
Aires 0.4597066109041163
Ann 0.82220266519741
Azerbaijan 1
Bec@@ 0.7854483750158625
Bell 0.6361970552364425
Chal@@ 1
Fol@@ 0.35148064735765217
Ian 0.9374345040009917
Lady 0.44620018658374755
Lov@@ 0.7340036491993981
Mario 0.7310587474138457
Oliver 0.8587659795823963
Pil@@ 0.37196876658676264
Seb@@ 1
Thailand 0.9416265884676259
Tottenham 1
Wes@@ 0.46188721810568834
Yan@@ 0.7712547542786659
agara 1
alg@@ 0.2768979931096707
dop@@ 1
etto 1
mes 0.15774568635921296
mond 0.5687297721081204
oun 0.9586967710428345
va@@ 1
ä@@ 0.06434997543856828
æ@@ 0.8255367964386111
1,5@@ 1
270 1
Abo@@ 1
Adi@@ 1
Albania 1
Athens 1
Buenos 0.4550494696211191
CA 0.5110651422471759
CP 1
Cabo 1
Cent@@ 0.8100974060440468
Emir@@ 1
FDA 1
Gel@@ 0.4176555174970364
Henri 0.45006256451899135
Heroes 1
Lebanon 1
Ludwig 0.4736700021996467
Nav@@ 0.39808475995122133
RD 1
Tennessee 0.5597605955557385
Tik@@ 1
Valencia 0.9605517556127204
Wall 0.973320109344432
een 0.5025165638681628
feri 1
hist@@ 1
iche 0.451434332464372
ikh 1
itt 0.5931184270421531
lan 0.46882820145761556
lob@@ 0.5418302229049601
mr@@ 1
ran 0.2347342659490544
senti@@ 0.6683603776836847
tri 1
ê@@ 0.3468492492193875
13.@@ 0.8980307122571017
550 1
Ax@@ 0.9715690311945858
Beta 1
Chim@@ 1
Gordon 0.6164359651284989
Just@@ 1
Kn@@ 0.3063798042884415
Lav@@ 0.6207908132351271
Rom 0.9666211873634529
Ruh@@ 1
USA 0.22365889882553552
Vel@@ 0.44734887063493095
Windows 0.4488812229291418
Württemberg 1
assi 1
besi 1
ensa 1
ides 0.14775825930470007
ister@@ 0.4788517768004418
leh@@ 0.6418176416117145
leri 0.3001198079543688
risto 1
vers 0.07959788305736232
â@@ 0.22407190334090685
1882 0.551270660273502
Ball@@ 0.4013422586664206
Basil@@ 1
Bruce 0.6969780456834265
Bruno 1
Cole 1
Dec@@ 0.24167410232719136
Gary 0.8461595829621942
Hawaii 1
Jol@@ 1
Joyce 1
Kob@@ 1
Liv@@ 0.5677603737753201
Lucas 1
MS 0.4835119014572639
Movie 1
Philip 0.6093560174178411
Tah@@ 1
bal 0.44396622753544746
ester@@ 0.550920083120504
lea 1
mate 1
othe@@ 1
ray 0.805128943952947
tig@@ 0.18533319003626375
var@@ 0.3060994715082102
37,@@ 1
Clinton 0.9710418582615181
Douglas 0.5434232023121376
Eg@@ 0.6935261490519526
Gab@@ 0.9267882371796864
Irak 1
Joh@@ 0.676911719861203
Jonathan 0.8601518595824367
Meg@@ 0.6082087704731687
PS@@ 0.5917777462606284
Poly@@ 0.6210201448626411
Puerto 0.4715758544855623
Rico 0.7480620588055933
Standard 0.7724789321502149
Web@@ 0.4171635129580644
Wood@@ 0.43921701409823277
auf@@ 0.060807599730114466
bro@@ 0.22111310429980974
erg@@ 0.30496036642765245
galak@@ 1
kins 0.4552237423173409
lei 1
lem 0.5925203275800852
mari 1
sky 0.3050330573080139
tera 0.6097333137497298
usim@@ 1
à 0.005098670190126926
ç@@ 0.20253443851535785
ə@@ 1
Angel@@ 1
ET 1
Facebook 1
Family 0.39144740657201205
Indi@@ 0.2962939742742226
Johannes 0.5389235026650625
Junior 0.46183187751509097
Mem@@ 0.3938188099022778
Nig@@ 0.9039769712890704
PhD 1
Tanz@@ 1
Tet@@ 1
That 0.30718537332576223
Tum@@ 1
Yor@@ 0.8832864403989278
air 0.13458207331836092
bron@@ 1
cio 0.3607137388355797
fol@@ 0.23276457538532427
house 0.10075892233395063
igh 0.55138162562752
inia 1
lat 1
name 0.05193557218828944
ret@@ 0.17493263253464292
sing@@ 0.40059182245113517
1883 0.5511330332871633
63@@ 1
Aman@@ 1
Dah@@ 1
Emb@@ 1
Hai 1
Ligue 0.5550363570256984
Magdalena 1
Medi@@ 0.3601745322100912
Nathan 1
Saudi 1
Ses@@ 1
Singles 0.5884610376724912
Super@@ 0.260424276735343
Toronto 0.37518688510475645
Viz@@ 0.9062876231332396
Wall@@ 0.6459773058635514
Wayne 0.8700284558933234
Yah@@ 1
alis 0.43343499140972996
ank@@ 1
arm@@ 0.2209276297703214
atha 1
ator@@ 0.5218374447277961
chester 0.43886379410974163
emaji 1
frey 1
ikizo 1
ning@@ 1
rec@@ 0.072692173055898
rik 1
ted 0.03483158265304468
tii 1
ves 0.09400705938879154
ū@@ 0.496170312754427
β 1
104 1
305 1
70@@ 1
Aristot@@ 1
Bac@@ 0.7976803746417032
Bologna 1
Claude 0.5761248857105649
Cot@@ 0.5121481988044906
European 0.12345212448328866
For 0.09643990634906682
Friedrich 0.24097610893942462
Jane 0.6386018054844559
Mih@@ 1
RA@@ 0.40029461598621197
Studios 0.5569501166612862
Warner 0.7502837202259377
Wi@@ 0.3853424188256076
Zo@@ 0.804532409058404
ats 0.08497260981536119
ier 0.1320106276259154
iji 1
odo@@ 1
pora 1
stein 0.1853012450627353
sti 1
sy 0.9163139717918858
tay@@ 1
ē@@ 1
ł@@ 0.27361438656616455
100@@ 1
112 1
750 1
Amar@@ 1
Angela 1
B.@@ 0.7038283248985296
Back 0.840540059589338
Clar@@ 0.4434011077777272
Franklin 0.6974385909408856
Ice 1
Jennifer 1
Kevin 0.6302954313632196
Loc@@ 0.2923784351162882
Quebec 0.701156120402181
Rouge 1
Sara 1
Top 0.29925652815014114
Zan@@ 1
ait 0.06423405736158307
arufu 1
bekistan 1
engel@@ 1
hadi@@ 1
leng@@ 1
pep@@ 1
pir@@ 0.7741621981067941
poli 1
sid@@ 0.7400635673843372
side 0.07352125412459735
union 0.27340034624028153
usan 1
vio 0.7538221909767557
116@@ 1
2,9@@ 1
Chik@@ 1
Emilia 1
Festival 0.16031843153290165
Geor@@ 0.4419505181272254
Kali@@ 1
Khal@@ 1
Lon@@ 0.7739214357716439
MO 1
Marvel 0.9363165596373623
Mr 1
ST@@ 0.5282686298317749
Southampton 1
UC@@ 0.9017376042506168
Valent@@ 1
ansi 1
gee 1
hand@@ 0.14629864368707715
ingham 0.6069772748924032
jpg 1
nun@@ 1
ë@@ 0.6684063704225359
1865 0.5123050623382788
210 1
AD 0.5175260913889662
Bri@@ 0.27150666771438503
CM@@ 1
Cuba 0.6214348615184241
God 0.35722488146566944
IP 0.7158129453198334
Kenneth 1
Martin@@ 0.9518995089454512
Nick@@ 1
Raymond 0.7974984866755991
Ruf@@ 1
Tul@@ 0.7476561827308238
amis 1
chim@@ 1
dad 0.5425485700617596
ense 0.19172924074910488
ev 0.35492585103203117
ium 0.27660886249255684
jed@@ 1
nes 0.17931787701787597
o. 1
rid@@ 0.3629376333805118
yp@@ 0.2360968985575153
ş@@ 0.343470973019409
117@@ 1
240 1
6000 1
650 1
Agu@@ 0.6714949098634889
Akh@@ 1
Angel 0.9881419750003245
Arab 0.6681761902792339
Cab@@ 0.40458359663373283
Charlotte 0.6453539630166153
Dir@@ 0.7096122151620341
E.@@ 0.7193668711249747
Gis@@ 1
Gul@@ 0.7804271890984472
Jimmy 0.6617593202318112
Joshua 1
Las 0.11341488208435507
Lib@@ 0.4381972044243881
Luxemb@@ 1
Mek@@ 1
Newton 1
Paraguay 1
Shim@@ 1
Ted@@ 1
XIX 0.37918950785166783
dhul@@ 1
fos@@ 0.6806138661683852
kan 0.6191876635577515
luk@@ 1
mej@@ 1
mit 0.009819177257619398
tag@@ 0.44377232321284255
125 0.728425584039718
1857 0.6338842582086336
Alexandria 1
Bog@@ 0.6596994618518741
Channel 0.49174474398677465
Cru@@ 0.6321844778864937
Din 1
Europa 0.23750761724391115
Fac@@ 0.34227560564230525
Gang@@ 1
Good 0.6298161187558292
Les 0.03422101341664177
Marshall 0.7159462485538985
Maurice 0.6005003745361848
Mic@@ 0.6066497189369312
Migu@@ 1
Opera 0.6825807892039807
Rap@@ 0.4322381679446295
Rhy@@ 0.8966853432033042
Salvador 0.7549761076242408
Santiago 0.4510762091349714
agan 0.6068545897247839
ail 0.2385494832628788
dos 0.061045452643726184
egr@@ 0.4343999276684905
other@@ 0.3591799628463685
ovina 1
ron@@ 0.6749295217919655
sub@@ 0.05611723450964875
worth 0.28300935829200813
ος 0.2832175124437154
ב@@ 1
1838 0.8159413458769624
1867 0.5070410208132148
Aber@@ 0.878652251084733
Alan 0.5538814546462475
Dre@@ 0.23842187490547032
Kho@@ 1
Kosovo 1
Kud@@ 1
Leon 1
Master 0.3991317259622337
Montenegro 1
Mount 0.3626249694473264
Ori@@ 0.5153275003557545
Republican 0.3711255705631918
To 0.19351838330645865
Vladimir 0.9897049487430662
ack@@ 0.13430060247917475
asu 1
augh@@ 0.4226566162421612
char@@ 0.1582855313249898
erre 1
ester 0.2520694827717012
fab@@ 1
ici@@ 0.14934693109686636
inflam@@ 1
iny 1
jug@@ 0.296771487672714
neur@@ 0.4269732169421966
optera 1
pah@@ 1
sei 0.24396980197894189
sis 0.7534523182002479
star@@ 0.36535477539779737
1.2 1
113 1
260 1
325 1
380 1
Alvar@@ 1
Apple 0.6735641963352585
Aut@@ 0.2961141760115883
Bernardo 1
Bih@@ 1
Gabri@@ 1
Grim@@ 0.8461592053566797
Hos@@ 1
I.@@ 0.9958283609577975
IA@@ 1
Jan 0.4846221344400077
Khmer 1
Law 0.27973713059331584
Missouri 0.4537755094307365
Muz@@ 1
Ne 1
Ry@@ 0.5482577538476067
Sib@@ 1
Unit 1
XVIII 0.6032668930296408
anim@@ 0.2749732487059603
atao 1
err@@ 0.2178854294825629
ex 0.22200408811299518
has 0.013884997521940468
illi@@ 0.46199345557805627
itus 1
lies 0.14644366420375468
old 0.08113007900430765
omp@@ 1
ots 0.12824223387772934
ott 0.4906444349251214
pokeo 1
teri@@ 0.4412210367750911
uan 1
yl 0.35262550366416046
1,500 1
1815 0.719146405442843
1856 0.6154321417569594
220 1
230 1
280 1
313 1
Adams 0.6375233148498219
Alice 0.6270928468138626
Alt@@ 0.3755727607690498
Andr@@ 0.788968843659628
BS 0.5602517817399297
Beg@@ 0.30728371358852474
DD 1
DF 0.6850296365812654
Eliz@@ 1
Football 0.16728853725576617
Fres@@ 0.7159349294818451
Giovanni 0.7051495439001566
Hag@@ 0.8750610022047358
Ho 1
Irene 1
Miami 0.5143318036871748
Mill@@ 0.5215921743352003
Rock@@ 0.7269402884436481
SI 1
Scre@@ 0.9353615962395699
Yi 1
adini 1
ete@@ 1
harama 1
hindi 1
ign@@ 0.12791179319268978
kar 0.8098369218611658
long@@ 0.28402166588350064
med@@ 0.24525919789819386
path@@ 0.45608350984428214
pres@@ 0.10353833682067429
sc@@ 0.11137455500388455
vel@@ 0.2929115280424428
wait 1
yoy@@ 1
1864 0.4678640108828823
Bismarck 1
Bob@@ 1
Bour@@ 0.5308485525953955
DVD 0.34218868460041274
Element@@ 1
Ernest 0.9010394509919347
Eus@@ 1
Ferdinand 0.6053855496965344
Florence 0.8180401751158829
Grant 0.6349734289845546
Gö@@ 0.5877797847960263
Jacques 0.31076846780968026
Johann 0.2384806230624701
Miller 0.45568226886601415
Moses 1
Power 0.4294602764187294
Sevilla 1
Slovakia 1
Tour@@ 0.28465933890188794
Vic@@ 0.38627126354135016
Walt 1
Will 0.6900675052952141
` 1
abo@@ 0.9489298230519627
aci@@ 0.1800917820171731
af 0.5359340365167629
amen@@ 0.898646391306376
astr@@ 0.3628850551268796
aul@@ 0.36970913826565033
austr@@ 1
dee 1
dish 0.8268783548894774
don 0.21433222134562008
ede 0.39102892571584197
form@@ 0.11680007139241884
hid@@ 0.5399400664511822
latitu@@ 1
law@@ 0.36476213258097495
net 0.20947390405386712
reh@@ 1
ru 1
stadt 0.19535256846416615
were 0.009240436802452878
ר@@ 1
1863 0.4822127961560699
310 1
330 1
Air@@ 0.49806649703802497
Arizona 0.44000661430023486
Community 0.4358398707018452
Dublin 0.5836597570088508
Heinrich 0.3051032629690391
Indiana 0.45231613507916046
Jud@@ 0.3764007037910581
Kost@@ 1
Leeds 0.9783780145215567
Lop@@ 1
MP@@ 0.4917360283186153
Oli@@ 0.7581480723091991
Rid@@ 0.6300456783437528
Ryan 0.5797131404109116
Susan 1
Thel@@ 1
Trinidad 1
Yoh@@ 1
You@@ 1
Zen@@ 1
anth@@ 0.38049716291532926
arra 1
atta 1
eb 0.6427823004330141
gy 0.624798138386731
hariki 1
hon@@ 0.19223176204085365
i.@@ 1
lam 1
mel@@ 0.16567895229670448
ple@@ 0.19277242313989587
ː@@ 1
א@@ 1
115 1
1300 1
DO@@ 0.8269042874999627
Dro@@ 0.4796154437295928
Finland 0.8663155706116921
Force 0.1996101361557731
Herzeg@@ 1
Land@@ 0.09850394300713208
Magaz@@ 1
Matt 0.6572369919425329
Nic@@ 0.5025173852890742
PN@@ 1
Pop@@ 0.4529858525409387
Roc@@ 0.3397802770336548
Sony 0.770413870470709
Taliban 1
Television 0.48037437734650984
alo@@ 1
aug@@ 0.42412192157199247
deb@@ 0.4362677081549571
fen@@ 0.2918004979051471
fran@@ 0.5049135509191873
fuatana 1
geg@@ 0.32997814963318883
gus@@ 1
nar@@ 0.33252721695696325
ores 0.13312907530062437
quel@@ 0.7372925549539148
sar 0.8501835565192888
tul@@ 1
wer 0.21096343703224704
å@@ 0.5069466548875781
ía 0.04384966414862336
ú@@ 0.189095288800055
ā 0.9265313100903196
135 1
1862 0.4671266270394986
Alberto 0.7475763697659922
Aston 1
Baltimore 0.6361338319682985
CN@@ 0.6525351342563045
Costa 0.45925318768929907
Dance 0.6074874889199067
Do 0.5120594135426885
EC 0.9018080823098263
Gom@@ 0.9380305742244786
Hali@@ 1
Hope 0.959354951989142
IL@@ 1
Julia 0.936188195537663
Kle@@ 0.3665522196363666
Law@@ 0.5398212902012735
Ler@@ 1
Nations 0.3406621201736094
Petersburg 0.8315832964511717
RNA 0.9330633390901775
Sri 0.48840484228665726
Ster@@ 0.5061065716866507
Stone 0.45212683549254185
alifor@@ 1
app@@ 0.19140573725108093
ast 0.14677992711856347
cer@@ 0.10369654792248235
ebr@@ 0.34426447344217054
ellan 1
eller 0.21190683223835535
ert 0.06748788893991378
gn@@ 0.4955593118120496
har 1
hou 0.7997255683409632
née 0.23663231938967078
osoma 1
pha 0.8300145515903647
ston 0.36787423622048615
time 0.021060955640545026
trol@@ 0.45311040869427754
unk@@ 0.2857910371154592
ī 0.9659601914673598
́ 0.08710395355885606
ְ@@ 1
211 1
340 1
Abd 1
Bremen 0.844215923262661
Caesar 1
DE@@ 0.4847034647176383
Dul@@ 1
Education 0.20284428862861917
Ere@@ 1
FI@@ 0.3397315235478575
Fem@@ 0.5547571608973922
Franco 0.7515758868928007
Hau@@ 0.8014955418772212
Home 0.3408480446995736
Hotel 0.39989877066687585
Kre@@ 0.27587064073404394
Lig@@ 0.4593483548856746
Michelle 1
Mk 1
Nath@@ 1
Out@@ 0.3659061296800286
Pay@@ 0.7833679622499812
Rif@@ 1
SP@@ 0.41290543697480075
Sz@@ 0.4256806683838451
Sé@@ 0.580607051376947
Vienne 1
Vor@@ 0.05869373686975615
Way 0.6573698529412689
What 0.5022655688574068
Wu 1
Your 0.5628149293573784
acc@@ 0.0911103656831269
aj 0.6638838791864647
dev@@ 0.13896357217470082
ellen@@ 0.4870762941602471
fl@@ 0.07815328184032387
gur@@ 1
los@@ 0.23570719521043307
ody 0.3658787810729969
ort 0.2275312815052809
rad@@ 0.5361562913812749
rap@@ 0.14243910366424395
rit@@ 0.144978089025663
tics 0.15340529728831775
won 0.050343570890341
yg@@ 0.40092938695317776
113@@ 1
1858 0.5953939648859703
1879 0.4566590966704569
2500 1
AM 0.41272197158320084
Arg@@ 0.5849597502646892
Bla@@ 0.606029821600992
Bru@@ 0.32407031119472296
Congo 0.7640132100525341
Connecticut 0.5676159054868276
Cun@@ 0.9230099754068324
Côte 1
Dag@@ 0.987371524096438
Dig@@ 0.731490364624563
Et@@ 0.2867671154615846
Eva 1
Franz 0.340583942613217
Grande 0.3327034414904687
Gw@@ 1
Helena 1
Herbert 0.6086244975890082
ISBN 1
Inter 1
Iran@@ 0.8110749057828414
Kansas 0.3916945352439627
Lord 0.22628631655135245
Men 0.2935801671140166
NASA 0.8797430077819784
Nde@@ 1
Path@@ 1
Pit@@ 0.6033918830173868
Project 0.43970876538737536
Stadium 0.34051835556512966
Stewart 0.6168268305466887
This 0.02964342290094552
Yale 0.9572054598403097
akan 1
alle 0.12746179864607737
aram@@ 1
ativ@@ 0.9849703352802807
can@@ 0.10414690215523911
cre@@ 0.075223252511001
ges@@ 0.10534667872963513
inter@@ 0.035202142234809185
izer 1
onte 0.7111414904637219
ord 0.3188495774765369
osis 0.3485315343744835
oti@@ 0.4663468106361407
she 0.02530307203065217
tit@@ 0.7165252520562662
ğ@@ 0.8724486934499633
ō 0.21713881409691166
117 1
1873 0.4653277579456346
29,@@ 1
420 1
Abraham 0.7844239295367103
As 0.04863139681169284
Birmingham 0.6471117966244451
Bond 1
Bran@@ 0.472117727077091
Cho@@ 1
D.@@ 0.8593502933740425
Dum@@ 0.7292717447173406
General 0.07985369173178435
Gon@@ 1
Kemal 1
Ket@@ 1
Magic 0.9867948554754833
Monte 0.6894787237535922
Princess 0.7811022033382486
Rud@@ 0.5969329036496133
Woman 0.8477360760337153
atil@@ 1
das 0.010867143824184975
eder@@ 0.2802758161567335
eir@@ 1
eye 0.46611874512723067
istr@@ 0.4042479537912845
iye 1
kt 0.19425631260214474
mont 0.2872514388127343
ms 0.13443268057227992
onas 1
opl@@ 1
osom@@ 1
taya 1
tico 0.2652678668757241
í 0.15528627574513085
ה@@ 1
2,6@@ 1
An 0.09741351414711316
Aziz 1
Brus@@ 0.95762003413274
Byr@@ 0.7881091511718549
Hamilton 0.4168203751502345
Jam 1
Jun@@ 0.8413406157363025
Lad@@ 0.6037899331404661
Sac@@ 0.6104636342551587
Sang@@ 1
Suz@@ 1
Terr@@ 0.4625657241874346
Vie@@ 0.6017326220917227
Vill@@ 0.41676873185974544
ades 0.14185610207450217
ado@@ 0.6079418170991496
album 0.03580536678446502
cel@@ 0.19562392533324757
gun 0.3448956347818065
ilian 1
leen 1
lock 0.30899968259131655
low@@ 0.1666768113244183
ops 0.2806797660379527
osia 1
plas@@ 0.42176539793078643
sion 0.06877416272557892
tru@@ 0.5684975449096283
tz 0.5036023600213568
yang 1
114 1
14.@@ 0.7428478548262081
1400 1
1878 0.40918221696123624
3.5 1
Ajax 1
Amer@@ 0.8496079024083
Austr@@ 0.49309506336146947
Dan 0.5398126685607724
Doh@@ 1
Dr 1
Inc. 0.4472796873522721
Karak@@ 1
Litu@@ 1
Morgan 0.5405787165491917
Morris 0.6782677874680231
Philadelphia 0.3589134739561182
SW@@ 1
Shane 1
So 0.17492830355375805
Sub@@ 0.16912060222420325
Taf@@ 1
Urban 0.855414923890408
Vivi@@ 1
Willi@@ 0.7855215946159856
amel@@ 1
ape 1
atini 1
ative 0.06023047348014116
ayn@@ 1
azini 1
ce@@ 0.14876265392647695
dipl@@ 1
enj@@ 1
eshim@@ 1
had 0.011418997149867287
ibia 1
ife 0.6003507560766906
kee 1
ning 0.09667917862971816
onn@@ 0.11717734928065283
onne 0.21361977756375014
rand 1
rell 0.7084814967640406
thia 1
viol@@ 0.1804144216791351
yaz@@ 0.8393373996749225
yd@@ 0.48127202955277343
ּ@@ 1
1.3 1
1100 1
127 1
129 1
1859 0.4983217340870591
2,4@@ 1
Aux@@ 1
Bass@@ 0.6428778411553182
Coc@@ 0.789540921165888
Diana 1
Down 0.7256742561600972
Duke 0.3460114967520517
EL@@ 1
Face 1
Fro@@ 0.5419186529208432
Gib@@ 0.9920649831585631
Hasan 1
IG@@ 1
Isid@@ 1
Java 0.8534346326277261
Just 0.6445466053242965
Martha 1
Miy@@ 1
Out 0.46738191481065994
Patricia 1
Point 0.36656144995878415
Sanc@@ 1
Sof@@ 0.6484294528048263
Stockholm 0.7931280468094963
V. 0.30120672713220586
Vich@@ 1
ann 0.3078875957822268
atem@@ 1
can 0.031119673219165797
eld 0.33576533501604283
elo@@ 1
ett@@ 0.1759182196299736
fields 0.39604796132486314
hoa 0.220001590809071
isto 1
mivu 1
oh 1
oton@@ 1
pre@@ 0.043841213252760976
proj@@ 0.28159216459453096
tors 0.13011989751599773
ways 0.18468031035831062
zan 1
zilishi 1
× 0.30448827901795716
137 1
1837 0.6779647116049166
1844 0.6879595476100019
1876 0.4232088763028558
35,@@ 1
451 1
540 1
74@@ 1
AT 0.5196114771837531
ATA 1
Abbas 1
Armstrong 1
BM@@ 0.75663659104691
Berg@@ 0.22664573274097663
CIA 1
Campbell 0.5920352709880867
Clim@@ 1
Cos@@ 0.3637519905546054
Dob@@ 1
Eb@@ 0.7125001186824703
Eth@@ 0.4169927130837266
Gra@@ 0.382140768558267
High@@ 0.4222029164828861
Ivan 0.8044601430111408
Jal@@ 1
Jap@@ 1
Kiev 1
LO@@ 0.9128766975948398
Marseille 0.8250411758527681
Norman 0.6070082868324534
Palm 1
Plan@@ 0.22473969581145323
Pur@@ 0.3588140936870722
Ray@@ 0.8951015962710138
Rhodes 1
Roberto 0.82392911199781
Rodrigu@@ 1
Rosa 0.6950206023265727
Rot@@ 0.28040080296773146
Ruth 1
Sax@@ 0.5663863561035055
Schleswig 0.9600886673948897
Tch@@ 0.9222196197315853
UN 0.6918245677039403
Venez@@ 1
allo 0.5829507470563664
ands 0.14409883534444262
bit@@ 0.3375657272172996
court 0.12381775403039386
didae 1
ely 0.061830685164886046
mouth 0.35243628644216296
tel 0.15583904762613096
thu@@ 1
ugen@@ 1
urn@@ 0.26985549524384594
uya 1
ws 0.1550800212608003
wur@@ 1
· 0.05240840981545175
ó 0.01991544000691865
1.6 1
1875 0.4343660932633446
19@@ 0.9482382608132762
212 1
520 1
Aus@@ 0.051363697264414136
Austin 0.566520344515246
Bh@@ 1
Bron@@ 0.6169738103117692
CP@@ 0.6722037371619689
Carr@@ 0.7277206126172723
Child 0.9836973623333036
Eugene 1
Fernando 0.42909666104704397
Fund@@ 0.55615320582479
Future 0.9218656535925418
Gn@@ 1
Inn@@ 0.4704032281790811
J.@@ 0.6691120946338284
Jose 0.763260475791204
Lanka 0.6887096352464441
Lili@@ 1
Louisiana 0.5785789709758873
Lucy 1
Mann@@ 0.5585949989724631
Money 1
Of 0.29497522956410405
PC 0.34922644932080726
Pra@@ 0.6808341837436362
Sean 1
Service 0.19370986397538745
Tibet 1
Tir@@ 0.47552735168189875
Voice 1
Zh@@ 0.6530496433984248
amad@@ 1
aren 0.7496825843469253
aton 0.8516188854559184
auer 0.18098254389727933
bre@@ 0.07198614022147795
cas@@ 0.07651664321637054
cher@@ 0.3123266326762013
dad@@ 1
dale 0.4458577803480215
diz@@ 0.5674185843506243
fam@@ 0.43423926117132866
film 0.027635709359654908
ique 0.11779683840520631
ister 0.20146462656022837
itz@@ 0.22879913042714664
let 0.1745749624536236
loc@@ 0.10238125255394592
obi@@ 0.7197530115068669
ovich 0.9482920074378565
tica 0.20243053448630632
tif@@ 0.40649643904791305
try 0.16807710242789864
uss@@ 0.1888795553523665
ón 0.05774855698053845
ς 0.50871460693493
田 0.6553968333535436
1.4 1
1874 0.4335589688765089
39,@@ 1
480 1
850 1
D.C. 0.5416453475681631
Dallas 0.5657788426925779
Ferr@@ 0.5041786235238656
Fred 0.6283498615725998
Get 1
Gray 0.7664716687959476
IT@@ 0.5290950973859894
Night 0.34691235891489314
Oper@@ 0.26183737327866774
Robin 0.710444123756982
Schutz@@ 0.7186762233777544
Sergio 1
She 0.03333869383828493
Space 0.4371750239258989
Story 0.6628476000327674
Toledo 1
Wer@@ 0.2093815057258511
XX 0.3054159418146667
abak@@ 1
ady 0.29115940690066044
anger@@ 1
angu@@ 0.9432073322994353
athon 1
azi@@ 1
dic@@ 0.11788406777263329
enburg 0.3970330069167597
enter@@ 0.2734089473447804
fit@@ 0.46550261848159846
islam 1
itw@@ 1
kay@@ 0.834439018431357
lon 0.5412011465893232
olim@@ 1
sels 0.43222150752323324
tai 1
u. 0.31322058100366557
viel@@ 0.5768519874097455
wick 0.4895291393067347
zek@@ 1
111 1
1841 0.6671209618409853
19.@@ 0.9582316848028338
2,5@@ 1
251 1
30,@@ 1
302 1
32,@@ 1
370 1
46@@ 1
AN 0.4781932468501221
Afro@@ 1
Anay@@ 1
Catherine 0.5344771561005127
Dream 0.8252533379810707
Esp@@ 0.3455447852867509
Ey@@ 1
Falls 0.6772102333221713
Han 0.6487807066503227
Harrison 0.6718535864605655
Heart 0.5750406395901508
Lamb@@ 1
Manuel 0.2991992585496333
Nicolas 0.5084236396532595
Pug@@ 1
Rup@@ 1
Santo 0.6276514134190063
Sec@@ 0.355348959924999
Sheffield 0.9719305244305162
Singapore 0.4850703652878724
Tat@@ 0.550648486051843
Tour 0.13335828443089118
Zah@@ 1
aine 0.15472580151586215
amine 1
atlan@@ 1
cap@@ 0.09799954085175214
diplom@@ 0.2763756479681737
dog@@ 0.73153781387933
dri@@ 0.19480457008251006
hie 1
inger@@ 0.5947962113087261
insul@@ 1
kov@@ 0.6192581155314527
leg@@ 0.08946450688337504
mong 1
opath@@ 1
ovi@@ 0.6385107967421109
ses 0.02655803914067387
uppe 1
vertebr@@ 1
wit@@ 0.3386033544786528
ï 0.6242369916570175
ʿ@@ 1
0.5 1
1.8 1
1820 0.5018074576205386
2,7@@ 1
311 1
33,@@ 1
Au@@ 0.15626614748397447
Baz@@ 0.9478230982678075
Cant@@ 0.4700973576971614
Cour@@ 0.24158292445603655
Democ@@ 0.3673251513275959
Duncan 1
EN@@ 0.9657350979715541
Fame 0.455934013828648
Got 1
IF@@ 0.8403897334852443
Jah@@ 1
Jason 0.600208719735643
Kuv@@ 1
Mary@@ 1
Mili@@ 1
Mission 0.49409097095702603
Nept@@ 1
Palmer 1
Sea 0.2730712003797707
Seattle 0.526202019373096
Stalin 1
States 0.03999258068150978
Vf@@ 1
Wh@@ 0.2877219129622251
With 0.11740300021453377
arak 0.6798628488566348
azar@@ 1
borg 0.8240520914488922
dij@@ 1
enta 0.1671179067265465
entr@@ 0.10561318688246986
formes 0.3759312898738734
ids 0.1640465385875654
lain 0.6298528045843564
odo 1
plaz@@ 1
ril 1
sos@@ 1
wh@@ 0.1370766461362718
è@@ 0.1619663763768611
ée 0.018184445399369045
ḥ@@ 1
17.@@ 0.8162731638377664
1846 0.5870706954854008
306 1
410 1
430 1
560 1
90@@ 0.9162129055427093
Adrian 1
Alabama 0.460117432213142
Anth@@ 0.6458947532160672
Bres@@ 1
Castro 0.838383178701627
DV@@ 1
Fah@@ 1
Flor@@ 0.4278927024301554
Graham 0.5829715918717383
Hermann 0.45841213174126205
Iowa 0.4151468427597508
Kent 0.5331783762376057
Nash 1
O. 0.7787296067907575
P.@@ 0.8828858338821906
Rich@@ 0.3647782386487805
Science 0.197447809549861
Sofia 1
Sup@@ 0.3515768834917271
Thr@@ 0.4269561794990222
U.S. 0.08068160254585059
Uran@@ 1
abad 0.4224811905987771
adu@@ 0.6108322162126784
aim@@ 0.329239105464178
ano@@ 0.8451205567272154
borough 0.33446418273681283
by@@ 0.29061195238294996
cin@@ 0.13861505867946491
essa 1
hayat@@ 1
inho 1
ment@@ 0.1480274748544019
nat@@ 0.3989977152269676
orn 0.4633251064843656
polis 0.5466341856012441
teki 1
that 0.0044832434620432704
urdu 1
weg@@ 0.3979250731956524
yer 0.14794396997293702
éd@@ 0.3345438482578272
122 1
1847 0.5788459253301939
1848 0.3673365187915034
1868 0.40531458902485323
1877 0.40485346528880234
203 1
309 1
Agnes 1
Banks 1
Carter 0.5556358967033992
Christi@@ 0.4587343191732306
Conn@@ 0.3566841742264786
Cruz 0.40622674514496787
Dave 0.5259275902230707
First 0.11749916986928977
Ghost 1
Hugo 0.5501869458840476
IC 0.44346571550146036
Jubil@@ 1
Kant@@ 0.6195918776499972
LE@@ 0.6181956801016872
MI@@ 0.5673392492276622
Melbourne 0.36512462127455086
Monica 1
NATO 0.9590734927420005
Nazar@@ 1
Nikol@@ 0.9821246535251636
Organization 0.7065814946471161
Pope 0.4908030234997878
Rev@@ 0.2433893006860034
Ronald 0.9856376821044533
Sey@@ 1
Wolf@@ 0.8927996334259028
aduni 1
ating 0.042398603495346895
atri@@ 0.35966294553601025
avent@@ 0.5855734008229923
bana 1
cat@@ 0.09332206422030544
e. 1
enf@@ 0.1524804976144648
fom@@ 1
gan 0.5311399014961882
insula 0.5979257043208762
kei 1
lau@@ 0.34901786732308593
lington 0.6204870275270373
music 0.05607330147409992
nam 0.32220367674748457
opar@@ 1
org@@ 0.2981926835411012
ostr@@ 0.9467240309327227
sang@@ 0.9948171700941482
sie 0.021417952422652726
sim 1
tes@@ 0.4316139810700053
מ@@ 1
190 1
215 1
314 1
680 1
7000 1
Airport 0.2979160668312446
Alf@@ 1
Apar@@ 1
Championship 0.10941135897733459
Chel@@ 0.9743502062498236
Cla@@ 0.6765977586717207
Colombia 0.3825794780380483
Cub@@ 0.5635020666656461
Edgar 0.9354665353018419
Ernst 0.3751396657747936
Fair@@ 0.41864064985251814
Globe 1
Homo 1
Internet 0.2989453911234565
Lob@@ 0.921042114369841
Orlando 1
Ow@@ 1
PL@@ 0.9044346497042313
Pant@@ 1
Prize 0.3928222648191906
SPD 0.6331546629664034
Sant@@ 0.4523306959555294
South@@ 0.4393749345396321
TO@@ 0.8177273622080925
Tito 1
Warren 0.6427540468508177
abl@@ 0.26354605867425457
ape@@ 1
aura 0.9405149710308761
azy 1
bola 1
cm 0.17312151361656483
esco 1
fer 0.10882867024222552
format 0.26218202909444394
oll@@ 0.17333087227724112
ox@@ 0.2741287904544999
qui@@ 0.21225425834981643
see 0.09704904412167759
sis@@ 1
sson 0.4130287088738522
yay@@ 1
1.7 1
124 1
157 1
204 1
209 1
Agr@@ 0.5722476504153805
Arkansas 0.5498126928420354
Brid@@ 0.6324520857175451
Disk@@ 1
Eugen@@ 1
Gloria 1
Independent 0.4878246379827869
Jed@@ 1
Karen 1
Ki 1
LC 0.5757871466853547
Leonard 0.828462364624672
Log@@ 0.49219628944295346
MO@@ 0.6217005694730723
MT@@ 1
Raw@@ 1
Rog@@ 0.824752814768736
Roy 0.49189172988979435
Samp@@ 1
Tin@@ 0.7591523056463593
Under@@ 0.46106473797271125
Wright 0.5304408188122094
anes 0.4034836073079388
anie 0.5010293154114113
beck 0.8238980204319466
dak@@ 1
ehr@@ 0.2731365417386443
este 0.054732570905430634
face 0.09809688937929849
fort 0.15144491722880873
hip@@ 0.8274298501733074
ibi 1
iss 0.3964097314444495
lois 0.5201919902554155
mail 0.6423230128245786
ologne 0.9966120311485165
otom@@ 0.7374233221884363
ough 0.25746791193913654
pol 0.9752476705072594
put@@ 0.23947273308964517
radio 0.11832001194694644
rag@@ 0.39472368605531377
rah 1
rie 0.3761939384935847
ron 0.6078763828656801
san 0.4199378453878153
urs 0.13075445281342488
ventr@@ 1
wal 0.8803604747508847
water 0.0682984934582144
wol@@ 0.9832310962512484
zuk@@ 0.9986712830642391
ı 0.1972658251522512
1852 0.5222205855062728
199@@ 1
307 1
4.5 1
640 1
66@@ 1
8000 1
Amazon 1
Amp@@ 0.7954182185839533
Bed@@ 0.2585601016009229
Bishop 0.3242370310141963
CAF 1
Did@@ 1
François 0.22487911121829518
Holstein 0.8497171267876003
Hospital 0.23598122379807812
If 0.1984823306084968
Kentucky 0.41205380040189477
Luci@@ 0.4955155552734261
Mahar@@ 0.9328965246611705
Main@@ 0.5935971071120467
Marathon 1
Mé@@ 0.2662394515309851
NE@@ 0.4392293377169489
Nom@@ 0.684456873720165
Portland 0.57743449586499
Productions 0.749346806598553
Rand@@ 0.4694261163897029
Rita 1
Sa 0.2282538424452237
Sham@@ 1
Steph@@ 0.6219082591402028
Suc@@ 0.6007791435138063
Technology 0.32465819390711814
There 0.05287596400665551
apolis 1
blu@@ 0.9639472200259197
dez 0.47717946844282566
eaux 0.2560151617575748
ect 0.08471468980797263
etr@@ 0.7040530576631776
hang@@ 0.640035149824832
hiv@@ 1
ib 1
ig 0.18707335579266668
int 0.4046071125071046
kilis@@ 1
och 0.7145654777894909
semi 0.2529280449637295
star 0.2031512750114219
sv@@ 1
tot@@ 0.22239973565662283
ulus 0.8332326716581625
yani 1
ér@@ 0.06812969290406541
נ@@ 1
123 1
1854 0.48314088984971004
1872 0.38752821485863853
201 1
206 1
214 1
365 1
470 1
48@@ 0.9366520442405243
AU 1
Ada 1
Allan 1
Andal@@ 1
CBS 0.5229068327316186
Charl@@ 0.5520933393340265
Chi 0.8409207549442062
Cros@@ 0.4719762374344899
Curtis 1
Delhi 0.6380808090855928
Dim@@ 0.7195904866333008
Eastern 0.22601424962477362
End 0.5153321410008436
Fos@@ 0.8543057037156946
Gad@@ 1
Janet 1
Johnny 0.4819836518736767
Kav@@ 0.8247999978841447
Kilim@@ 1
Lic@@ 0.6199163218939948
ME@@ 0.49310054441007184
Mac 0.662533245644353
Michel 0.2954304359550818
Midd@@ 0.6162628090148797
Palace 0.4984140735899158
Peter@@ 0.44316801266752076
Rapha@@ 1
Silv@@ 1
Simpson 0.8952935685312262
Sind@@ 1
T.@@ 0.9438231496370982
Walker 0.46338215252108805
abil@@ 0.29471968759643286
adel@@ 0.5959178515797895
afe 0.606189319134815
agen 0.17331587797876893
alt@@ 0.11864265552934293
ants 0.041028946001962475
asis 0.48367165164565784
emat@@ 1
ency 0.14401543494782307
ever 0.11059551558413433
gas@@ 0.28159423242357356
icia 0.42983055265858866
ilg@@ 1
italiano 0.8920203496044612
kini 1
las 0.010052373823578868
less 0.07615791158597822
model 0.16046793706368892
oku 0.9697703926631257
yon 0.5616031520019263
är@@ 0.08899488409914139
′ 1
1853 0.5150989023968516
312 1
440 1
BO@@ 0.8542805758416498
Barr@@ 0.39155566369662087
Bauer 1
Brand@@ 0.38900240179660034
CO 0.5911331350609337
CT@@ 0.9974418832462169
Ce@@ 1
Children 0.4714113151119905
Eas@@ 0.5812651153866732
Fid@@ 1
Gran@@ 0.3469679013808955
Gut@@ 0.47593928696120924
How 0.7572364038336729
Jim 0.3091405807841285
Konya 1
Kır@@ 1
Lau@@ 0.31473593125256105
Laura 0.679910860513588
Lloyd 0.6241033270290046
Lost 0.8789190251738732
Lot@@ 0.5422103912661614
Madonna 0.8883353856815861
Manga 1
Mbe@@ 1
Mud@@ 1
Newcastle 0.7615594661629467
PF 1
PO@@ 0.6743336469909216
Powell 1
Py@@ 0.6164590109706805
Rol@@ 0.2962594583712917
SV 0.40544278500956965
Salzburg 1
Tot@@ 0.5308718844843963
Ukraina 1
Universal 0.5180532264563384
Venice 0.9702856412404056
Versailles 1
When 0.07508890421244059
Yal@@ 1
Year 0.2025468249413917
aban 0.117964768121459
ace@@ 0.21252417355526032
ague 0.4106461402845388
alum@@ 0.5720332814301047
ander 0.49453526023402256
anto 1
auch@@ 0.5786503007817145
bel 0.47175477716466924
gado 0.9165069072085209
gar 0.2998527710515918
icky 1
igi@@ 1
koa 1
mar 0.24477530297690672
mavi 1
nas 1
ović 0.609631059628366
ovo 0.7642257221514227
rat 0.18187649852468746
red 0.07157574231551266
rett 0.7238052778244618
sian 0.30359028761372764
ska 0.4564350307278933
spur 1
tho@@ 0.33201514567518303
ture 0.08380602944703977
western 0.12462334331265947
zy@@ 0.30094578119950793
121 1
193 1
49@@ 0.7323585439990118
530 1
Agency 0.5618253986871934
Buc@@ 0.3016189860479178
Choice 1
Dipl@@ 1
Dut@@ 1
Flam@@ 0.61812063928783
G.@@ 0.9514958340490618
Garcia 1
Glasgow 0.5185689281503224
Got@@ 0.252978229435508
Griff@@ 0.5294697037775531
L.@@ 0.607907767584628
Land 0.14477557295707755
Monaco 1
Moore 0.3975329100243682
Nam 0.153969513793492
Nancy 0.637296649948469
Ner@@ 0.5835441561873128
Nevada 0.6496595024728781
Nih@@ 1
Niz@@ 1
Off 0.9580880354070008
PN 0.8319305927825374
Punj@@ 0.8198645616270044
RT@@ 0.4712715177653647
Rel@@ 0.1568432411120423
Sound 0.478748733496994
Sr. 0.9716169201651215
Tay@@ 1
abria 1
aden@@ 0.7385690955660048
ahr@@ 0.43382047958831693
aldo 0.9329428160419183
andro 1
asaki 1
asser 0.7191675811070232
asta 1
aven@@ 0.4700291293694187
cop@@ 0.14797017970956886
country 0.07538168824412876
cul@@ 0.12440206458483923
deon 1
elik 1
epe 1
fir@@ 0.15020421107665355
idan 1
lus@@ 0.24162785163932296
mat 1
matem@@ 1
modi@@ 0.21890087200665415
nan@@ 1
nis@@ 0.6005479690638226
s.@@ 1
tre 0.14358327722130054
van@@ 0.43118442623801645
vor 0.04095701202632297
waliou@@ 1
you 0.1359292798080983
ès 0.16908040962429693
č@@ 0.18024514879343936
ש@@ 1
118 1
139 1
202 1
216 1
301 1
308 1
460 1
Atlas 1
Ces@@ 0.8514498566991483
Cit@@ 0.738897154211074
Co 0.274575778846031
Cou@@ 0.44217010810060586
Death 0.29804271551762723
Derby 0.7521006434805234
Eur@@ 0.2909355024053964
Forum 0.7199713747154083
Get@@ 1
Gum@@ 1
ICC 1
Laf@@ 0.7828003525179082
McCar@@ 0.7256579232040912
Pedro 0.24289841988754465
Pictures 0.5799890042440337
Premier 0.19980031066953574
Scot@@ 0.40687456837325947
Stre@@ 0.2280239059012512
Village 0.41673463790767445
adir 1
agin@@ 1
agon@@ 0.2970489275868394
angle 0.34218066569362193
ardi 1
dal 0.7523035574542131
lib@@ 0.5795731032505826
lip 0.4436827749461455
meg@@ 0.9688886657878145
pens@@ 0.20919348173047003
plan@@ 0.09550684720668588
pos 0.3518435784438201
school 0.03913587013116631
set 0.0517350979482325
traf@@ 0.5746343401760001
world 0.06115631777939922
ö@@ 0.0659398857267457
1.1 1
155 1
1789 0.7209369714306804
1814 0.5516093150885786
2,8@@ 1
223 1
23.@@ 0.8287185357902186
AG@@ 0.6215365536925359
Are 0.8626113549595918
Area 0.3525748798933131
Ast@@ 0.6296506265511531
CT 0.9243635449692568
Cameron 0.8134750221596151
Comp@@ 0.42646233508706843
Craig 0.7396753620745645
End@@ 0.39337468737964026
Epi@@ 1
Fund 0.6013157269769746
Germain 0.9825979514217188
Guatemala 0.6383358166064805
Guy 0.5005503223787264
Head 0.3804946516485421
IT 0.6098959202451886
Ja@@ 0.6438820658789716
Jackie 1
Kop@@ 0.4659794508123052
Nest@@ 1
PR 0.7014516899531349
Pascal 1
Pass@@ 0.28479990687630424
Pun@@ 0.5035609232965982
Row@@ 0.5127468809907915
SU@@ 1
Sao 1
Stanford 0.7774912688932292
VI@@ 0.43812149805737993
Wrestling 0.4403944015422667
Yusuf 1
acks 0.2875642585452941
act@@ 0.2139616221053528
ael 0.9664244971952299
agog@@ 0.6378457885297601
ahu@@ 1
aille 0.555745993644312
aise 0.19789610466944824
dae 1
elly 0.6096586066575446
etown 0.8104334772093242
etus 1
fich@@ 0.8048785708664837
fri@@ 0.35595967563625713
hat 0.04959424939009317
ibe 1
inf@@ 0.09200228780849905
mikro@@ 1
mol@@ 0.2041158754167686
seg@@ 0.24246713387649171
ship 0.05295430675437808
top@@ 0.21248674512593385
tube 0.694733536059367
ég@@ 0.12058656777832634
− 0.2630208333437866
.S. 0.6824137398872308
16.@@ 0.6729412136264068
229 1
316 1
381 1
390 1
Act 0.1260332132997259
Atle@@ 1
Bj@@ 0.8933222964457462
CE 0.3555906508598757
Caes@@ 1
Calvin 1
Christ@@ 0.30839513874587515
Georg 0.28032364567607393
Jor@@ 0.9428497581826863
Leonardo 1
Mills 0.8200508164652862
Mitchell 0.5543203872745462
Monte@@ 0.9305620490162855
Mozart 1
Pearl 0.8326406768647996
Phoenix 0.5993387359764691
Pier@@ 0.4694707012419355
Sap@@ 0.7209055980691557
Stade 0.7591899706179703
Yen@@ 1
aco 0.30884390109314963
amii 1
ater@@ 0.39854007720738577
cal@@ 0.0962721452361768
contributor 1
cé 1
dibu@@ 0.8880686713167412
diy@@ 1
dom 0.30985573578652653
domin@@ 0.13222726556065814
ering 0.10573896723955532
hija 0.4809767817029474
inh 1
mur@@ 0.1680281784207192
ozo@@ 1
ping 0.25571012808725585
res 0.1179433720800639
rot@@ 0.14466941273732536
thm 0.8596332539802821
tie 0.30447954083845297
tions 0.03349888529740901
tras@@ 0.2925624945655273
³ 0.6424736395811111
ı@@ 0.5009647770544968
ś@@ 0.6284382759242676
ִ@@ 1
128 0.7941934308470637
182 1
1821 0.5716735859549692
225 1
22@@ 0.586436536476686
630 1
99@@ 1
Arti@@ 0.29196273347097595
Augusto 1
Betty 1
Bing@@ 1
Boul@@ 0.504978788337004
Brom@@ 0.9812536964434875
Champions 0.3856417523411299
Chief 0.2049312429296075
Cleveland 0.42818573824164335
Coll@@ 0.4809485514164036
Come 1
Digital 0.49555560357662304
Dong@@ 1
Emma 0.7048942200422668
Estonia 0.9989224424152342
Eul@@ 1
Gan@@ 0.5831894939553831
Hampshire 0.5435391658976606
Hits 1
Janeiro 0.6534349162961651
K.@@ 1
Lind@@ 0.30569765722515274
Magazine 0.35604737619876864
Moon 0.5027266648799807
Nguy@@ 1
Oliv@@ 1
Peak 0.8792022698414639
Pro 0.2745027257523291
Rainbow 1
Rav@@ 0.5122290397213263
Richards 1
SO@@ 0.3464592106774662
Sent@@ 1
Sweet 1
System 0.19046332394451013
Whitney 1
aniki 1
atic 0.1241306950878893
ats@@ 0.3134420123435257
avo 0.99559983422364
beria 1
dera 1
eg 0.45118800897930367
enny 0.4817839111941579
eum 0.3881705785089809
igan 0.6544034582736542
lard 0.3747999687197253
leta 1
mut@@ 0.13483245042609715
osaur@@ 0.7675458106247993
pH 1
robot@@ 1
rop@@ 0.44613107413962283
vis 0.3859142331107541
zy 0.7591215139255315
1517 1
175 1
18.@@ 0.7206698308500117
1810 0.5895588085804488
207 1
208 1
213 1
323 1
André 0.32420042686479034
Anj@@ 1
Army 0.08203317636002624
Auto 0.7413105439533725
Cha@@ 0.6554225087595806
EF 1
Edinburgh 0.445736024570042
Freder@@ 0.7322788201061071
Hudson 0.5689063364353396
Hul@@ 0.7908348683948234
Jos@@ 0.684909449617639
Lep@@ 0.7831481957351022
Lip@@ 1
Loy@@ 1
Lun@@ 0.7627993805783178
Lyn@@ 0.9860267207157327
Manhattan 0.5123421744917671
Maxim@@ 0.5826360989202796
Net@@ 0.3906102520985643
Next 0.7685435214414271
PR@@ 0.6270223405428383
PS 0.26582898476610334
Parad@@ 0.9716329761646835
Ra 1
Ric@@ 0.5521239223652805
SE 0.668976409700307
Shang@@ 1
Smo@@ 1
Sno@@ 1
Son 0.10542275845733921
Til@@ 0.7094908677826982
Tran@@ 0.3337097517752338
Who 0.46411394144576096
acy 0.10542489373155248
ager 0.1798157930428276
ald@@ 0.7982697155564397
aten 0.10061427133595081
atis@@ 0.3922143828462432
azar 0.5119189052897125
bot 0.2917425875677762
ding 0.08063437886130848
gion 0.6249370088864327
itis 0.9236651500060705
los 0.00564647411803552
mas 0.4561101538157179
ob 0.4069806131104046
oslov@@ 0.6885972632676989
sah 0.612753882313757
stad 1
sup@@ 0.144385053226912
thu 0.4524388801949002
timestamp 1
west 0.06943874231162239
wing 0.09351806571396094
xis 1
yasa 1
ör@@ 0.10103318742954824
ør@@ 0.831050877077885
ր@@ 1
126 0.9668805320000645
2.4 1
205 1
217 1
256 1
264 1
406 1
44@@ 0.8659863715934986
AG 0.2558706429081615
AP 0.37536737539674575
Afrique 0.36910935528244027
Age 0.44589445509653386
Ain 1
Album 0.17957007741155107
BE 0.8079929742513303
Bath@@ 1
Brah@@ 0.6804779698889506
Cir@@ 0.37016507597885207
Cook 0.5656344186406804
Dy@@ 0.44079627750967815
Flores 1
Gregory 0.6886547423370658
He 0.007509612704756328
Hin@@ 0.19266988338216862
ISO 0.8285264013210063
Joel 1
Journal 0.2394904242442619
Krak@@ 0.9867186683376906
Malta 0.7677425808414293
Mustafa 1
Oregon 0.3505393594672569
Piz@@ 1
RS 0.4188727630027483
Randy 1
Reh@@ 0.8189303390988628
Roosevelt 0.675095181024608
Seine 0.13502795200123457
Shan@@ 0.8585256106794427
Trade 0.5322377899604099
Vul@@ 0.6274274640439316
Wisconsin 0.2973736387364603
adj@@ 0.633170347146417
agi@@ 0.5603642246668502
aver 0.578867056435223
aze 0.8746091956870388
bac@@ 0.24296431875624352
bach@@ 0.4281949248067831
bes 0.1602124453523151
chil@@ 0.4606815251956186
ck@@ 0.20047414701140162
dar 0.1924341718472427
dum@@ 1
gli@@ 0.5996095040630964
icus 0.4730964267408327
ink@@ 0.7306222396762483
ino@@ 0.6340892259821562
kov 0.4754902474877913
lug@@ 0.6153510940332637
ples 0.11364949687404385
pros@@ 0.18558782042703106
ram 0.8454488057405386
unc@@ 0.09274340627840563
username 1
ven 0.13823709590408867
wald 0.2358182104884995
yet@@ 1
zon@@ 0.9825464161891909
ַ@@ 1
ם 1
15.@@ 0.6088090590072139
1835 0.5072967832975139
218 1
222 1
227 1
335 1
About 0.37624200868557245
Are@@ 1
Atlantic 0.25960998294491777
Au 0.10246224161671508
Barb@@ 0.7957547712634798
Belarus 1
Brig@@ 0.375251853721554
Christina 1
DT 1
Dais@@ 1
Danny 0.7020272248782815
Dik@@ 1
Dod@@ 0.4562526038349277
Faith 1
Fern@@ 0.3060957379731586
Garden 0.4314017486155205
Guang@@ 0.8336755492512703
Gy@@ 0.6927256427116518
Isab@@ 0.624279362214365
Kass@@ 1
Kingston 0.8874330146517333
Lec@@ 0.5523007630387528
Li 0.39479160918930206
Madagascar 0.9304876891913894
Miguel 0.2904277680270846
Mind@@ 0.6785927808484227
More 0.3306179159788996
Museum 0.09694594523487855
Nicholas 0.522136719575902
Nick 0.4253619705812244
Or 0.6392754886792344
Palermo 1
Paula 1
Penn@@ 0.7799029840678838
Perry 0.606074292301697
Pet@@ 0.3968424017226273
Pradesh 0.6335702656232357
Rach@@ 1
Schrö@@ 1
Shah@@ 1
Torres 0.8094609625306056
Tra@@ 0.9780283412122749
Utah 0.46956157210845484
Yun@@ 1
Zor@@ 1
ahan 1
amaz@@ 1
amura 1
ander@@ 0.18954183638718725
chlor@@ 0.845300982580338
con 0.007726524935559907
deg@@ 0.836384543287331
dub@@ 0.7370038536705638
eer 0.2714473883207559
engu@@ 0.9056883402986887
etti@@ 0.6234651252443696
gon@@ 1
ind 0.45192267780764556
las@@ 0.20914928574030534
min 0.32274960416349047
onom@@ 0.4014704680302412
otic 0.4231101069982949
oul@@ 1
parentid 1
sel 0.24701482559683813
spir@@ 0.17458316008623767
sus@@ 0.17939800785151291
uz 0.7458309029165586
-- 0.8232005179880026
181 1
1832 0.5156323246222725
1849 0.41076626112083225
185 1
1851 0.4266250283404035
199 1
20.@@ 0.6901368085939766
24.@@ 0.8146647934882014
354 1
38,@@ 1
AE 0.8750837637659085
August 0.026498518808807343
Bar 0.4869948633032283
Berkeley 0.6361882582030666
Big@@ 0.6879298048770134
Broadcasting 0.6361882582030666
Capital 0.4539562040734452
Convention 0.4229765628938999
Davies 0.8603357620188625
Dep@@ 0.6342633439439416
Elec@@ 0.1968746119312527
Fland@@ 0.7640001457441655
Greatest 1
Guardian 0.6772335083508119
Hub@@ 0.4645908858321282
LP 0.38944112287885635
Lan@@ 0.2906842277787563
Latin 0.2026891047532445
Lithu@@ 0.5467112667018628
Lorenzo 0.6953975917199047
Meh@@ 0.7646049139727766
Montreal 0.39228181208044444
Netflix 0.8958023966656614
Pand@@ 0.5867243767634741
Pittsburgh 0.44924094803237447
Public 0.16971610170652637
Pyth@@ 1
Ris@@ 0.48286103250740586
Rolling 0.5988204631062791
Sot@@ 1
Stan@@ 0.48135122187039464
Sunday 0.3312307724203091
Tad@@ 1
Thompson 0.41943282103243157
Vista 1
War 0.041655856022809225
Wolfgang 0.49075967480686256
Yel@@ 0.5064039700388377
alism 0.1632558580447794
amas 0.6739167336649163
ames 0.24356244263427562
amoja 1
anatom@@ 0.9324796115284797
aqu@@ 0.15052990584598053
bach 0.1155350857506269
boy 0.2573434263938255
bus 0.1602515432376874
com 0.48110207040879405
eca 0.40400847512517574
egu 1
ider 0.1523421450669773
ily 0.3523670121344896
kateg@@ 1
lier 0.23673962754373476
naz@@ 0.7003307515878088
nde@@ 1
ocho 0.5540156705890602
remix 1
tham 0.255316102502983
uman 1
under@@ 0.05419066012661369
yes 0.5552833838408167
én 0.26876662209645996
İzmir 1
--@@ 1
136 1
145 0.995069059379959
151 1
1521 1
165 1
177 1
179 1
1831 0.5293057325047186
226 1
283 1
3D 0.4271957004410802
401 1
55@@ 0.8170759615269448
7.5 1
Ado@@ 1
Am 0.048960114054264994
Ba 0.5409465724157606
Barry 0.5009067711908319
Basel 0.6256066680327139
Benz 1
Book 0.25590214671497147
Bow@@ 0.2735517692628314
Britain 0.19952482414899136
Buz@@ 1
Chu@@ 0.9563783832084092
Cin@@ 0.2893502936589481
Di 0.7250816759009177
Edwin 0.9414931890331029
Emin@@ 1
English 0.057666235974576346
Foster 0.7665011157098987
Granada 0.8026253670364902
Hob@@ 0.5963735051602015
Holland 0.6152146629694174
Honduras 0.843749355868292
Hugh 0.5657422786801594
Indian 0.09154280272095826
Jamaica 0.8065766792751259
Keith 0.6114476931432757
Line 0.16429118234667414
Mack@@ 0.6078106408808382
Medical 0.29033756443925857
Milton 0.9299539059165984
Minh 0.49761648908865996
Pow@@ 0.5287093545134699
Pru@@ 1
Rudolf 0.4439957959194856
Sankt 0.8314981738641831
Scor@@ 0.6325083669511263
Sky 0.49560097979146844
Spar@@ 0.34556779694705836
TH@@ 0.7023234379407041
Techn@@ 0.2494503104533711
Too 1
Trump 0.4102336195303171
Trust 0.40168623343807863
Yang@@ 1
Ye@@ 0.5636836904296904
assi@@ 0.2728060053294239
atan 1
band 0.046972590873815535
ebra 1
edr@@ 0.26455146446667344
ere@@ 0.6941830427605511
gor@@ 0.5387036820352582
influ@@ 0.2143537979075899
itwayo 1
kel 0.1819918830921712
neg@@ 0.1543616800129135
nik 0.29964162870784045
occ@@ 0.608522327099481
omy@@ 1
oney 0.7550654473794093
ough@@ 0.21357708507381074
oyle 1
paz@@ 1
peri@@ 0.18402143703769855
pio 1
rel@@ 0.04703260715563591
rup@@ 0.19668142895826227
uva 1
yos@@ 1
zus@@ 0.28639441552128664
zz@@ 0.3929982302755104
ه@@ 0.19244626416377345
ṣ@@ 1
131 1
144 1
167 1
56@@ 1
6.5 1
AO 1
Albi@@ 1
Apol@@ 1
Billy 0.4001774792703448
Bordeaux 0.6288290902055993
Brad@@ 0.4543435280013868
Butler 0.6445269461292601
CC 0.3287151338490413
Chen 0.7684442963180037
Chir@@ 0.6215893222875217
Chr@@ 0.5175002544428896
Constant@@ 0.923873458983194
Cul@@ 0.3074724220468878
Data 0.7140084848165189
Detroit 0.35171187661909725
Diz@@ 1
Dow@@ 0.4107287223769512
Es 0.03643491234040081
Fak@@ 0.7692923174178207
Gamb@@ 0.8818838984031978
Glad@@ 0.9884484706501385
Gren@@ 0.6457825637154472
HP 0.6817145798082791
Hard@@ 0.3525069776088217
Harold 0.5746099605674055
Haut 0.7486855138113984
Hed@@ 0.6190647143468722
Heights 0.8757093589065174
Hier@@ 0.3655750754391533
IBM 0.6615913929793258
Ich@@ 1
Lif@@ 0.7747364316505195
Lopez 1
Marc 0.3784642302813446
Marco 0.5488366713785885
Matthew 0.46189621938640607
Mountain 0.2646040587169681
N.@@ 0.6776313478424206
Nh@@ 0.6687785455272106
Nun@@ 0.9793203724272517
Our 0.4934936215017146
Over 0.27032604320931075
Palm@@ 0.7551017619027461
Plas@@ 0.9010953751847449
Poin@@ 0.8568876230471564
Province 0.17264835632846512
Ricardo 0.6908853160812787
Rovers 0.905000540425909
Russell 0.37947008306957863
Simone 1
TV@@ 0.37347270677146893
Tes@@ 0.6075052007198437
Upper 0.46528291428120033
W.@@ 1
Zeus 1
aid 0.33752740139679505
apti@@ 1
avirus 1
emin@@ 0.7183255793512553
estra 0.35450524474983314
gil 1
hard 0.1643381937367175
inas 0.15894413941586286
jer 1
kri@@ 0.3321330360696502
live 0.09050886664344013
mana 1
mus 0.4694530656793136
neutr@@ 0.3261975179395038
pok@@ 1
ris 0.6480337845625872
super@@ 0.09057769849289218
sus 0.026299173019750693
text 0.1769641140672596
vok@@ 1
yum@@ 1
ère 0.05021820570032311
ɛ@@ 1
ɪ@@ 1
大@@ 0.041320014702509365
146 1
1845 0.43813213912940274
195 1
2.2 1
224 1
233 1
257 1
258 1
331 1
49,@@ 1
490 1
510 1
610 1
AIDS 0.9789057875036126
Antoine 0.4192245098301762
Benedic@@ 0.8237216586918239
Burn@@ 0.8266373579106014
Chand@@ 0.6367810180830069
Cli@@ 0.4816860548888798
Const@@ 0.6083244183168491
Dead 0.4976394425593654
Feld@@ 0.3583129834136515
Ferguson 1
Freedom 0.5650623413184268
GO 1
Gonz@@ 0.5759232689138475
Human 0.3269929938767134
Instagram 1
Jeff 0.45535520538638063
Jerry 0.5387488379788784
Justin 0.6847133950427123
Micha@@ 0.793659953919906
Micro@@ 0.5694032230847854
Ministry 0.2387936997694664
Murphy 0.6026369316977321
Nazi 0.430917145072083
Nes@@ 0.9387648169222101
Nit@@ 1
Owen 0.7404019924441437
Prix 0.17783814124838423
Renaissance 0.4548382424613805
Roy@@ 0.36763851454172514
Sophia 1
Suzuki 1
Theodore 0.9648822228118761
Ts@@ 1
Wiki@@ 1
Without 0.9923884745191973
ages 0.04243396600039446
agonjwa 1
alls 0.25895896235844723
aup@@ 0.5959599423158719
azu 1
bio@@ 0.8814162322522856
dit 0.09516248722609143
dova 1
dre@@ 0.11247991698792273
eck@@ 0.128126203794512
elles 0.06200053132239548
esti@@ 0.11659751032220304
gang@@ 0.4136792318254438
hakim@@ 1
ink 0.28523981305689633
kinson 0.664135593085258
og 0.3110866937214023
oir 0.1611426916148891
otr@@ 0.4256209566968954
ris@@ 0.1673058588997394
ry@@ 0.46509364472377746
sag@@ 0.4908745947899024
stan 0.7950448602616419
thr@@ 0.15198660534163796
vic 0.42019106754671304
ém@@ 0.16234054417384172
ž@@ 0.3050626703365083
بن 0.2908341506047412
149 1
153 1
163 1
2.6 1
275 1
Aaron 0.694703720564672
Aff@@ 0.31345722674058013
Alexandra 1
Alo@@ 1
Anglo 0.6127033917169942
Apollo 0.8731108490021534
Bever@@ 0.8435495030004877
Bonn@@ 0.5335217151818583
Bridge 0.23387602300806906
CI@@ 0.31601718868781586
Caroline 0.522180731451855
Change 1
Clu@@ 0.38836941431311783
Comics 0.4605343217636998
Corona 1
Cum@@ 0.37469112731692317
Dakota 0.4508868549301983
Dok@@ 1
Du 0.3253613460244273
EU 0.33466640127343583
Eff@@ 0.35024748309287823
Eisen@@ 0.3902763671431085
Estr@@ 0.5581314103564826
Evans 0.45822222104674704
FF 0.4683677624074386
Gardens 0.8576878253987559
Gibraltar 0.9209755159851842
Gustav 0.5178111672616603
Guz@@ 1
Hannah 1
Islands 0.23773126985613866
Last 0.42035387427893095
Lynn 0.9772149769664706
Mao 1
Margar@@ 0.5945314433326719
Mars 0.49077673724675996
Muslim 0.3286696438396153
N. 0.42810622941673476
Never 0.9162139897503336
Ober@@ 0.05811417789523967
Ox@@ 0.5017138836544426
PP@@ 0.632196682673746
Plata 0.6755377744626786
Play 0.40385983414765486
R.@@ 0.4861717270305974
Republic 0.12067822082214763
Research 0.13886830103272696
Rouen 1
SM@@ 0.725420595009785
Schal@@ 1
Series 0.14721128847303575
Shakespeare 0.6309355297707187
Social 0.21114254885884448
Sog@@ 1
Soy@@ 1
Square 0.3108259368064325
Two 0.1226561846855078
UR@@ 0.8545016082196538
Vancouver 0.43093769483658506
Werner 0.5148492693559799
Xi@@ 0.38819397063235117
alus 0.773047292141209
aly 0.8292653305019816
anan 0.7967545085283813
back 0.03577070255289084
ball@@ 0.15949152612253667
bank 0.1488728686561434
ben 0.07299175465252584
boro 0.7907919576424102
ean@@ 0.6194956502693127
ensen 0.5988308620932132
eton 0.35670210302628685
etz@@ 0.14966688207641507
fan 0.4064911481096315
ful 0.08902178867429102
haribi 1
inan@@ 1
magazine 0.1228129608551895
mina 0.8373766977973365
nes@@ 0.40173665599198477
nio 0.9464688532107094
oine 1
one@@ 0.8645749879740942
onz@@ 1
oshima 1
phon@@ 0.2820032025392833
prop@@ 0.13163676023532755
raine 1
right 0.06928595193698697
sion@@ 0.19582871990273648
sons 0.14347755793875605
soul 0.6366062063752667
tima 0.6127528518102349
ude 0.7871835943187399
uld 0.441019475321965
umbr@@ 0.6507040978468872
urn 0.4350333955784101
vić 0.520218408375969
vu@@ 1
wn 0.13094604269165555
ów 0.24445585383611723
şehir 1
ד@@ 1
ל@@ 1
1250 1
133 1
138 1
166 1
168 1
178 1
1806 0.4983202297695147
1855 0.36888651087498886
192 1
253 1
259 1
286 1
30.@@ 0.9406609916140896
315 1
345 1
720 1
Arc@@ 0.3765772251402388
Bei 0.06871905600966165
Bird 0.7332020274986385
Camp 0.3849239478129904
Celtic 0.7320591062494199
Cran@@ 0.6839374872955705
Dic@@ 0.429106290900969
Dw@@ 0.8005205298798652
Econom@@ 0.32088069571818245
Edmund 0.7292948127709792
Ef@@ 1
Empire 0.11740130775717111
Express 0.3382354604201893
FBI 0.7225623155116148
Fall 0.26640518645996963
Fernández 0.5387001795634414
Flora 0.7394850190821562
Franc@@ 0.3246139026860254
Francesco 0.6081433190379849
From 0.06881105393153329
Hey@@ 0.5980991791734543
Hull 0.8644901986371232
Islam 0.41992987934513004
Lang 0.8874643971050415
Level 0.9363964775163113
Louise 0.4429744049730395
Nice 0.8210874957903536
Off@@ 0.14019435437842798
PD 0.5790119809905474
Peg@@ 0.7465630885419119
Pompe@@ 1
Provence 0.6923111923911774
Script 1
Still 0.884596216343108
Syn@@ 0.26120048576317373
Thur@@ 0.7798257358071813
Tommy 0.5890650686744389
Vall@@ 0.4923480419712264
Vasco 1
Vol 1
WT@@ 1
Will@@ 0.37788176149802777
Yorkshire 0.4842886779912363
Zuc@@ 1
Zw@@ 0.20892271534594256
ads 0.16130699095119946
agn@@ 0.19516708518162817
ality 0.11109243342554301
also 0.007067659897600753
ardo 0.714542588988511
astani 1
ater 0.2251727870959934
ault 0.19710714156257714
born 0.02231451267322578
china 0.9607763410126765
dov@@ 1
dre 0.33790755401163847
efs 0.5344411189792002
elec@@ 0.12475005080995172
formula 0.0278842707783943
head 0.059127753869564814
his 0.003973187997711681
jiang 0.8555054682888715
kund@@ 1
mel 0.45382481762689353
n.@@ 1
off@@ 0.06951785084307925
otte 0.2908763213669621
ret 0.2973038848175755
sin 0.07458105387513043
thy 0.2916673869097608
tier 0.139694807845599
tina 1
tion@@ 0.10219301780981063
tum 0.35225583219846707
tuz@@ 1
zen 0.08938689883206907
1492 1
169 1
1750 0.9428108152806728
221 1
241 1
285 1
321 1
332 1
404 1
76@@ 1
960 1
Ble@@ 0.4171056116068323
Boris 0.7206033869328468
CV 0.9971044263222397
Cardiff 0.8241235120364845
Crystal 0.8675259974189763
Ec@@ 0.32010096594952825
Ellis 0.7935394293660418
Floyd 0.9649056660783224
Georges 0.29234712891092074
Harmon@@ 0.919300065783459
Herald 0.8821894449813197
IB@@ 0.7069364693912125
Il 0.012529844260434634
Jung@@ 0.40688814803872775
KA 0.9207532748662657
Kids 0.8848698399001392
Königsberg 1
Lima 0.47316183010235435
Lisa 0.5775783582472397
Mens@@ 0.8085648020661503
Mess@@ 0.28658583853909564
Miss@@ 0.48544976748302543
NS@@ 0.333014225581677
NSDAP 0.9471443558751592
Nina 1
Pac@@ 0.5839010255296991
Pacific 0.14525544436363447
Publ@@ 0.29306297379669116
Pé@@ 0.5925738816080895
Radi@@ 0.23428440715014306
Raw 0.8238592951632243
Reading 0.8174920305031994
Robinson 0.38335093479965926
Run 0.5994283477322371
Saw@@ 0.8471694357916063
Semin@@ 0.41763596070811915
Springs 0.5451919319841999
Squ@@ 0.46887559435472753
Stu@@ 0.16726130020418933
Stuttgart 0.38455566621211423
Tow@@ 0.5232379821060004
Turk@@ 1
Us 0.8125955938621646
Weimar 0.8904975666271882
abri@@ 0.4929489858500335
ados 0.02153567542043606
ains 0.06093863348640128
anon 1
apr@@ 0.7069479096033591
arina 0.5237398288697994
aris 0.6296049452479638
arius 0.6518516066972555
asc@@ 0.18459263459787784
att 0.4173287522309365
aç@@ 0.30114597882320077
body 0.08125729216266282
cur@@ 0.057697799904152046
dok@@ 1
entino 1
hit 0.13324611678413792
iken 0.31008538501309596
isters 0.3212898558927834
log 0.9566857001517634
mon 0.3994946468347795
nu 0.6105625393231209
okol@@ 1
ouv@@ 0.14410356266688867
ras 0.38586340139938496
tive 0.05103654516463421
uck 0.23111995940020616
uela 0.6503280901246014
umuisha 1
unt 0.27537973175086344
ush 0.27825461076345387
yin 1
yth@@ 0.6405821327648245
zer 0.19223129783118362
än 0.6165688918595096
ה 1
ע@@ 1
Ἀ@@ 1
134 1
147 1
1597 1
1807 0.5908008688913111
1824 0.5235815341757935
1843 0.4501828719522742
235 1
248 1
249 1
252 1
269 1
333 1
334 1
395 1
40,@@ 1
405 1
660 1
AB 0.46697395210514847
AFC 0.6829433444740083
AK 0.9686377000633277
Ami@@ 0.9268114991935161
Arabic 0.5596657907035184
Arnold 0.4429583423722355
Bobby 0.5242684889678526
CI 0.7532180269324799
Charlie 0.3728973824835187
Conference 0.15896546010512747
DI 0.5311197138022545
Darwin 0.8827067754153909
Dorothy 0.9394785339660578
East@@ 0.7880502825692617
Fut@@ 0.4605554810232702
GT 0.5655960536655725
Gall@@ 0.5021276595238381
Hit@@ 0.38411690052731845
How@@ 0.393640606179525
Hydro@@ 0.596712835382059
ID 0.6264199619186464
Jack@@ 0.5039683641858046
Jay@@ 0.782239893168343
Jesus 0.30247015019486606
Joan 0.5022397284247068
Julian 0.6728513798438136
Karab@@ 1
Larry 0.5512947982824484
Laurent 0.5068960506567469
León 0.3437503463643294
Like 0.24140878261858678
Mai 0.07283895964114369
Marina 0.6191807345304305
Mason 0.6346207338478195
Metro 0.34896034279927274
Metz 0.8883371718428276
Nixon 0.9919418156693336
Not 0.33576519248610226
Nova 0.4295195853128325
Number 0.9508443730995705
Order 0.18054459422247446
Ph.@@ 0.6936351083840897
Rights 0.3863382526343898
Ron@@ 0.8539008224480296
Singh 0.4095605885471894
Six@@ 0.565932945251364
Summer 0.12838923079009804
Twitter 0.5829629418449905
Va@@ 0.8305780849854361
alan@@ 0.3293077219609142
arian 0.17136059541734416
arro 0.6620676703076123
bag@@ 0.8961010223795463
betr@@ 0.2857712667900631
bit 0.16971922864717087
bula 1
chel@@ 1
chen 0.058426463584702756
chum@@ 1
city 0.03248743080205224
dell 0.910334236395667
dida 0.6998570693510655
dos@@ 0.4903622818698423
dy@@ 0.42053376690071104
ector 0.3559116630383359
ender 0.10416829435347545
far 0.1354540612798325
ffe 0.27734425750219116
fis@@ 0.5177171166773057
gs 0.11315663322472255
hib@@ 0.7076058467933617
ican 0.20227400629589729
imbali 1
jou@@ 0.20731227068142288
kham 0.8808337058260257
len 0.07632555555102474
migu@@ 1
ods 0.13087094340328095
ories 0.09594173816829493
pei 1
pers 0.22389972758966736
pes@@ 0.28817311064916484
prim@@ 0.1134409524083314
sle@@ 0.2885036780577018
stati@@ 0.3422150833276929
tron@@ 0.27941593852223456
uge@@ 1
under 0.02077301725646698
ury 0.20626015765736547
uth 0.22835540786504135
è 0.7799425031612267
éré 0.3291530769291995
ę@@ 0.402436588927122
Ş@@ 0.3442291342741978
ν 0.37929516412472314
ן 1
山@@ 0.13904508392265008
152 0.986722900647824
1540 1
176 1
1813 0.47752251439160415
1818 0.5088097542158606
1842 0.42281569539501035
197 1
238 1
263 1
287 1
32.@@ 1
44,@@ 1
787 1
86@@ 1
9000 1
AO@@ 0.7343984870956861
Alfonso 0.5108917543338822
Amas@@ 1
Ander@@ 0.34245312260462113
Archi@@ 0.4386550433195311
Art@@ 0.4157012506515923
Bach@@ 0.41709410685640813
Bomb@@ 1
Bradley 0.8035155230253316
Chau@@ 0.822379021540712
Collins 0.47008403429644635
Edo 1
Emily 0.7292765336697402
Fle@@ 0.2740850247738289
Gri@@ 0.3650966030233464
Haute 0.43521353764695503
Hood 1
Isabel 0.5849735952722425
Jon 0.5323295453286235
Kara 1
Kingdom 0.11621713166700641
Klo@@ 1
Lane 0.38351898546255336
Lap@@ 0.5427462503316803
Leicester 0.9267115043107328
Lé@@ 0.3219257035640609
Madison 0.4897050384091114
Management 0.24823994774534314
McDonald 0.8767308159297506
Memphis 0.745751114994127
Middle 0.2012568123929297
Mix@@ 0.5918689793903975
Oklahoma 0.32096472394033343
Rangers 0.43623029625849347
Rey 0.4483652105949511
Roberts 0.4955593118120496
Sv@@ 0.6741811256537816
Thu@@ 1
Toulouse 0.5149614271448697
Tsu@@ 1
Vision 0.8214099967706325
Xbox 0.7206815830515121
Yar@@ 0.6538817033355315
akt@@ 1
alta 0.3319117971968687
asco 0.6379640193337698
asit@@ 1
aste 0.7290096042730263
asti@@ 0.38758823725893404
asuaji 1
awo 1
berto 0.7084382966727746
comment 0.6913535270923588
cus 0.26143660717538164
cy@@ 0.26803245798153535
dé@@ 0.018579214722739247
enes 0.2515664762187655
enna 0.8420986336660816
enton 0.5371836972536104
gil@@ 0.9839605964891458
hero@@ 0.7535301319754375
ider@@ 0.2868423015002511
isar 1
kle@@ 0.2636730801780293
kno@@ 0.4803247285288142
lers 0.09295536722277671
onto 0.2730686424686175
other 0.013481944875834474
put 0.08229145793971422
racy 0.44501635352981883
ski@@ 0.29832384978717164
tara 1
tran@@ 0.16133288989007155
trix 0.4572368384664897
vera 1
yk@@ 0.9019515027184053
î@@ 0.2263885871784135
ık 0.48268608167704075
132 0.9060978395995554
1825 0.47792182010851597
1828 0.4808268295846914
183 1
187 1
188 1
198@@ 1
21.@@ 0.6346382891377528
282 1
29.@@ 0.8125231158549248
317 1
337 1
3500 1
54@@ 0.9655702039977789
570 1
Action 0.41573120663521423
Adel@@ 0.5856444894937268
Arm@@ 0.17668338304622186
Augsburg 0.9723656290051103
Baker 0.39648588426654835
Blake 0.7106294698579658
Bonn 0.5212031451880551
Bryan 0.6966955586842801
Carol@@ 0.8511993920477444
Chang 0.946990367024636
Clermont 1
Cob@@ 0.4454495805503314
Cola 1
DL@@ 1
Dé@@ 0.13888012901036056
ER 0.6474074084268787
Environ@@ 0.3771751652263318
Eri@@ 0.6503725388875343
Fan@@ 0.872947682774999
Federal 0.1651265438562191
Fou@@ 0.8370185425772806
Geb@@ 0.2941046779355358
Gou@@ 0.8362312597702927
Grey 0.6018561314818903
Health 0.17923010776722734
Industry 0.5654576701047485
Jag@@ 0.45517174359565415
MIT 0.9791870418600279
MV 0.8438926579655386
Make 1
Marino 1
Marne 0.7007063478167725
Mou@@ 0.6837316680095953
Non@@ 0.6357036977962466
Orig@@ 0.3641576598577617
Pall@@ 0.8400962591221612
PlayStation 0.45410532967272854
Rein@@ 0.2541621671410118
Rogers 0.5138812574176458
Rotterdam 0.997529781704618
Ruby 1
SI@@ 0.5028430240661731
Say 1
Sud 0.1728787933460682
TP 0.6204370105941794
Tali@@ 1
Telec@@ 0.8021797102962993
Tyler 0.7504950358821487
Vegas 0.4594569883534162
Ves@@ 0.7811128596047506
Zar@@ 0.6239678682746583
aff 1
ale@@ 0.5735946645861223
arts 0.13903593802487185
atar 0.9395066848225575
benz@@ 1
bish@@ 0.5944723597692555
bridge 0.12586047753972596
cha@@ 0.7368646689307567
dag@@ 1
ders 0.094196492547346
enc@@ 0.053575748273813555
eran 0.059838125629632234
evich 0.9160632109651002
gana 1
hydro@@ 0.18391792731883724
iden 0.1254885731522735
ilde 0.5771564090704911
illi 0.4434835875199359
ities 0.12521079651563402
kers 0.19477877736920882
ket@@ 0.2725340094383346
ments 0.052424777228553064
nataka 1
otro@@ 0.9156530089182772
pan 0.5082358948939446
pus 0.5105963592479765
say 0.1911035171952072
sive 0.06296317974167007
swana 1
tal 0.10936532544893093
tap@@ 0.3327534172225959
tt@@ 0.2761892688862126
uca 0.6498867928987578
umin@@ 0.28586515025077014
zor@@ 0.8304409606742731
ép@@ 0.18403131028329558
ö 0.47061283518401315
1795 0.572736267358687
1799 0.6392101676917002
1822 0.5271334073475501
1829 0.47628828258802164
228 1
244 1
262 1
268 1
375 1
760 1
ADN 1
América 0.27204339206405914
App 1
Arab@@ 0.2965347856529574
Aud@@ 0.46536322184680795
Authority 0.4236152853806255
Beat 0.9971621203336056
Bod@@ 0.32055866975530356
CDU 0.5426204918145331
Clark 0.27105816211090783
Commer@@ 0.5836680726837322
Dortmund 0.8487238526489402
Edwards 0.5173687712144989
Elli@@ 0.5423038975439456
Fischer 0.5743659545173708
Fraser 0.8050123860999687
Fuj@@ 1
Gate 0.6899113591184556
Geoff@@ 0.7955582416714688
Gilbert 0.4385885077429439
Hannover 0.42219228598537223
Hap@@ 1
Hod@@ 0.5719658105684453
Hunter 0.4482493292631613
Ih@@ 0.8712398078452118
Justice 0.1877004989648818
Lionel 1
Living 0.7678037220019834
Maine 0.33993854782678906
Meyer 0.594070112298278
Montana 0.5357253625152975
Pete 0.6773996194147769
SMS 1
Spencer 0.5922654181128486
True 0.9225412585714574
a- 1
abol@@ 0.23866889773073557
aer@@ 0.2121753311059211
agar 0.6653225287170603
agh 0.6365226141916108
ago@@ 0.3825056939083077
anos 0.10300307959664773
bonne 0.3200247817651916
dah@@ 0.9933454689969243
dolar 1
eni@@ 0.8500054220563856
erie 0.15557756814076998
ery 0.1401312525904894
fak@@ 0.6351771998329904
gig@@ 0.5490988080988535
ial 0.1359800454038216
igen 0.054310345690124745
iger 0.08691764752786633
ights 0.1686759272963627
lett 0.657637393376958
ll 0.5415250314354211
lum 0.28314445074628064
mod@@ 0.1080537763160006
new 0.016777906444086842
not 0.009071348535999238
par 0.006127683969646065
pek@@ 1
px 1
quar@@ 0.20491719661553853
riwa 1
sap@@ 0.7732853815437989
tre@@ 0.06841575903586768
ulata 1
umani 1
usho 1
var 0.37655933732585173
vie 0.09177136395594868
ín 0.11260824163294926
öl@@ 0.1145485666691255
ü 0.2472853966310155
μ@@ 0.20812051169341253
県 1
143 1
148 1
1520 1
1572 1
161 1
184 1
194 1
2.3 1
232 1
26.@@ 0.6734484085748197
288 1
318 1
336 1
355 1
356 1
50,@@ 1
580 1
58@@ 0.8805581372759923
Amy 0.6921715615499666
Andor@@ 1
Arap 1
Arn@@ 0.3612803218747716
Atlético 0.5745328550172424
Avenue 0.1679304490151446
Broadway 0.2983240017718316
Bros@@ 1
Buffalo 0.4672609568364322
Coca 1
Como 0.21364811678993306
Coun@@ 0.26502049476824036
Département 0.4293310446826198
EA 0.7296918428355029
Feder@@ 0.43091866720964955
Five 0.3292132999928872
Forest 0.23427543268913875
Games 0.11050066066348478
Gran 0.23858663557768606
Gros@@ 0.4233619700881321
Hass@@ 0.8615140003940717
Hend@@ 0.6464921817013872
Hoff@@ 0.5255207568232267
Hopkins 0.7775211898473664
IO@@ 0.5586003276791381
IS 0.3169165765534711
Jeremy 0.8455410318580989
Knight 0.3925367913509962
Lay@@ 0.9147265248226578
Leipzig 0.24805266271346238
Lod@@ 0.520198602151492
MB 0.8691093327661369
Marx 0.6018405263298066
Morning 0.6219773102392545
NO@@ 0.31886840948700906
Neo 1
Original 0.48529709849276575
Pach@@ 0.5877237044933391
Pek@@ 0.5931802267076411
Pter@@ 1
Rice 0.7154101178341593
SH@@ 0.6295096818385915
Sark@@ 1
Sed@@ 0.5848006696206456
Set@@ 0.8504407968946815
Stor@@ 0.3849196779650217
Toch@@ 1
Top@@ 0.38299372007550986
Tuc@@ 0.43446277697858243
Turner 0.40932551718925636
Viol@@ 0.36345660804097096
Vog@@ 0.3417143048455158
Web 0.5443537370646816
Winston 0.9311782052776894
aeus 0.9123322325797885
agon 0.38871414246879926
aker 0.16486316467342896
alp@@ 0.3321997047123005
apia 1
aud 0.15783364222555063
bomb@@ 0.26197393466289454
book 0.047962325690365674
cial 0.19206214773417055
dier 0.261787713920712
ear@@ 0.07489536098170786
ecca 0.9288960143686424
ection 0.08834276380967337
ensi@@ 0.25538426850794893
eston 0.42237713039747865
ety 0.24430527313713896
evo 0.41840691846664635
habit@@ 0.13373913187912287
high 0.035270728963625514
hion 0.9765305158058978
holanzi 1
ices 0.08865977129716919
iman 0.9923682927412826
itch 0.15756544301593733
ix@@ 0.3618462612954217
lamu 1
language 0.07105000154676583
long 0.032457132701716296
mbal@@ 1
million 0.04677385152515683
otti 0.7978455292333089
pes 0.17981724252226686
prom@@ 0.06860010912650545
stil@@ 0.43668378786362444
tawa 1
ties 0.03883409905033755
tiv@@ 0.11809090823796356
toon 0.6884727857898587
v. 0.1853381944635454
wanza 1
Š@@ 0.2745833109414478
محمد 0.508536232656244
∘ 1
162 1
173 1
1809 0.5097488309718147
1812 0.34730114606816814
1834 0.40575290518123813
191 1
254 1
276 1
36.@@ 1
386 1
8.5 1
950 1
98@@ 1
Airbus 1
Airways 0.9150094327367914
Android 0.6567907492782373
Blood 0.5807866014573175
Bundest@@ 0.55669144481224
CR 0.5330877773916836
Cann@@ 0.7450014242770936
Chart 0.3501250698684505
Ciudad 0.2974794920894108
DR 0.4669564128736906
DS 0.28374244527140924
Dark@@ 0.8631945468565255
Forever 1
Gard@@ 0.44226110755419
Hall@@ 0.3531490395201732
Hard 0.7835895966652662
Hop@@ 0.46129270390042476
Hou@@ 0.6386297233982754
Jav@@ 0.6699302590292857
John@@ 0.43189565200455476
Journ@@ 0.39006635674198686
Jul@@ 1
Juni@@ 0.289744174862549
Kay 0.6887085980268897
Köln 0.3038916185247477
LM 1
Labr@@ 1
Manz@@ 1
Mar 0.4530016743690491
Mikha@@ 0.8480386508806081
Nicol@@ 0.5728678159800049
Oh@@ 0.590762442132201
Ost@@ 0.13796462524028807
Ple@@ 0.31713585478697354
Rou@@ 0.24382922148186323
Secret 0.5930516488938636
Seven 0.41933023971018485
Siy@@ 1
Spir@@ 0.4526196668997196
Stuart 0.4578180042362581
Swan@@ 0.8388173902098103
TS 0.41402278100280177
Tang 0.652494912242687
Vas@@ 0.29476661939018967
Vu@@ 1
Wang 0.43740817986779484
Wolf 0.37971236690170374
acia 0.2955278236108716
agne 0.26198842865034505
alisi@@ 0.5360874554008087
aran 0.3708224707797434
arch@@ 0.06826767425440891
aurus 0.822629527352874
bano 1
bid@@ 0.5409040474447062
blues 0.6395729198211246
chur@@ 1
coc@@ 0.2746604456645685
devi@@ 0.5522063563000376
dir 0.13565828992012463
enko 0.4965511278062946
eon 0.4634525503134237
eville 0.49725087886716623
gorod 1
ild 0.3591938550212254
ists 0.055102702703523763
kum 0.9459208393432593
kö@@ 0.2768775091881622
lai 0.8670438854801121
mano 0.3570467418826771
mg 1
nig@@ 0.5526468016506452
nova 0.9625985211705749
oker 0.4170403472895214
orn@@ 0.2935405348406822
ornis 1
ost 0.17451178432402603
owo 0.6131075496270978
prin@@ 0.20296289334587714
rod@@ 0.3839589813162778
sley 0.5440780225382184
than 0.01945467964449192
urg@@ 0.15507069377826835
very 0.032466592990638615
wall 0.15401156190488885
ël 0.7593263764445352
ū 0.3542850103624065
1519 1
159 1
1802 0.5151992934065076
1811 0.5127974650269952
1833 0.4110975674980341
292 1
69@@ 1
79@@ 1
Again 0.7078852613123743
Airlines 0.3955406331122635
Alber@@ 0.5363132266258992
Amad@@ 1
Athletic 0.3260644063863186
Back@@ 0.5005026965710487
Batman 0.6780377110387397
Bonaparte 0.9825534979620816
Borussia 1
Call 0.6893907251879698
Captain 0.21211840780370853
Chron@@ 0.31519780430835076
Deniz@@ 1
Deutsche 0.20599065760265065
Dop@@ 1
Economic 0.4177914327544664
Eduardo 0.49788868546043696
Four 0.2154283600708491
GM 0.42282317535979996
Giuseppe 0.5929828991257649
Guadal@@ 0.740422635759409
History 0.03775264424933282
Honor@@ 0.46196948035372215
Jorge 0.31587801027516743
Kid 0.8193142449950903
Koch 0.7561900868361715
Kru@@ 0.6659891054077421
Let 0.45610935445128026
Linda 0.682393440327941
Lud@@ 0.5620299286388295
Mans@@ 0.5792269744556874
Maya 0.8513978613489789
Mountains 0.3301792313581216
Nord@@ 0.09234937320539609
Olymp@@ 0.602106008443791
Phillips 0.5427488913940995
Prom@@ 0.3519890348817724
Region 0.09997806171346764
Reims 0.9726824636838346
Rig@@ 0.623921223873319
Rost@@ 0.9785965942668776
Río 0.24295450381229064
Samoa 1
Samsung 1
Sn@@ 0.41501190834835305
Sob@@ 0.933180437473638
Tac@@ 0.48584551002805926
Tap@@ 0.48688897078820337
Tau@@ 0.5491623729248786
Ted 0.5764697771790741
Theodor 0.5919160944641417
Torino 1
Trabzon 1
Tub@@ 1
View 0.8283132852709638
Wander@@ 0.37187766873436834
Wend@@ 0.5815463829658102
Wind@@ 0.3195266407352196
Writ@@ 0.2555949526288135
adv@@ 0.22830955889923615
aea 0.7462484054793603
arin 0.7003775489674329
atas@@ 1
away 0.07060542871513717
bek 0.7065400089201499
bey 0.5062754209023804
ceph@@ 0.9777987483730165
ches 0.051582974881149025
chu 0.9221171608766886
codice 0.33919825021337136
daf@@ 1
della 0.5595010054083854
dem 0.0054774949137690815
dium 0.31235637132236554
ective 0.08680337840818285
eless 0.21563452237255942
hen@@ 0.24243645012805068
isis 0.6254220941591899
itas 0.305367855782599
ić 0.5025797800555208
kn@@ 0.13588559308119474
loy@@ 0.3368258906449285
lut@@ 0.36304271899332297
mania 0.6927820558526294
mental 0.1513088000707617
mere 0.6793509932827893
micro@@ 0.1667242542888088
mix@@ 0.16926324855970246
number 0.025359475148500253
obs 0.28234879143196767
ological 0.06487253982576907
ond 0.12358754715084004
othing 0.35379779996562033
outh 0.6090399182469851
pard 0.49470868507427795
pera 0.9219799580753183
qi 0.4539208581714063
rh@@ 0.3258843487315465
s. 0.22095804049272688
sev@@ 0.9234914381725131
thal@@ 1
tical 0.0711405649888487
tific@@ 0.34140977620697543
xi@@ 0.2097749944106437
ár@@ 0.14682948927727157
ð@@ 0.49253937005706117
ü@@ 0.0445126583785145
☉ 1
0.3 1
000@@ 0.9342621330967147
141 0.9406869278357994
142 1
1816 0.44704845181847086
198 1
2.7 1
2.8 1
219 1
245 1
246 1
293 1
295 1
298 1
319 1
322 1
324 1
620 1
88@@ 0.9583442369901528
Adol@@ 0.42992789852520347
Alberta 0.4101860383165959
Animation 1
App@@ 0.2527409500725294
Baj@@ 0.8844977372118324
Blu@@ 0.2630769342053308
Boc@@ 0.7122943303168051
Cand@@ 0.4854999834478802
Carl@@ 0.4134516197793274
Challenge 0.35579061250198785
Cic@@ 0.5461381077553338
Classic 0.4019178273237078
Columbus 0.5727684673895925
Connor 0.6773810734415766
Corr@@ 0.8615213129611305
Creek 0.13660244330109786
Dick@@ 0.4315247165476534
Dream@@ 1
Federation 0.2255422176576336
Fire 0.2784771511419876
Four@@ 0.2979392174061375
German 0.04482286409366908
Gulf 0.37490687424787233
Herr@@ 0.22836550936883418
Hispan@@ 0.32402251449547725
Jesse 0.7259311257465211
Jessica 0.7967770252588753
Joy@@ 1
João 1
Kings 0.4149994363254171
Lenin 1
Loire 0.3158518630281573
Luigi 0.806635011107335
Metropolitan 0.3213625188534697
Nass@@ 1
Neu@@ 0.11683169743820715
Nil@@ 0.8701032323792643
Paolo 0.8747857223841047
Parker 0.3669113199335249
Pear@@ 0.5831623353306391
Place 0.300398362192677
Pod@@ 0.27743493187727236
Ports@@ 0.7568982453051142
Prin@@ 0.24929076930164729
Rag@@ 0.557802769275729
Rat@@ 0.30844490664935825
Ring 0.4368867902925388
SD 0.5476232100213393
Small 0.5762924399318378
Sos@@ 1
Traf@@ 0.6852173975303869
Trib@@ 0.7369855398721695
Trinity 0.4383502117921583
UT@@ 0.9200814956127857
Ward 0.3701105834489037
Water 0.2861830084407889
Wed@@ 0.37992465061158476
Zur@@ 0.4528680571204904
ader 0.14159357354850408
ajara 1
aly@@ 0.2092738548286957
amus 1
ares 0.08748596161206852
aven 0.388433282228762
aï@@ 0.2563205920164651
cape 0.2531203879907306
dam 0.3501914809169141
dec@@ 0.033245933162272805
dong 0.9590288048085224
echt 0.3947615137777158
ennes 0.1361340662699089
enni@@ 0.2349217827415526
eor@@ 0.9285900751633713
esper@@ 0.2285916038527184
fac@@ 0.06049335189744243
hik@@ 0.7388030319810971
iano 1
issen@@ 0.5757341057169806
lars 0.676571928107666
ls 0.13364463832055556
oba@@ 0.7228910312923029
oc 0.6453396016476923
oca 0.29191694729420525
ography 0.11839042005373396
ont 0.02215779112887655
ording 0.6525069439491761
oz 0.3115491849229281
pod@@ 0.6823796311161576
pour 0.00694942946861392
rania 1
spec@@ 0.10942281335963308
this 0.009243088985374891
tial 0.42475417454656006
tili@@ 0.4640869907968675
unds 0.11272026159065052
urus 0.6684129437260755
wes@@ 0.16621213513694985
ú 0.2624635858155159
ʻ@@ 0.8691435673664499
† 0.058262432638060295
1610 1
1780 0.6089847877326433
1801 0.45224522361256675
1803 0.4344872091488338
189 1
2.0 0.532198711974774
2.1 1
236 1
239 1
243 1
265 1
274 1
343 1
46,@@ 1
AE@@ 0.3990994216761528
Abel 1
Alpes 0.3777852620429325
And@@ 0.5601887346378723
Antalya 1
Australian 0.06651218618741697
Burg@@ 0.27897052096958996
Bursa 1
Burton 0.6841494541300478
Carlo 0.41425622170649945
Confeder@@ 0.252888317263456
Design 0.21423008399952598
Drake 0.7776972811105745
Ed 0.4254281963686474
Enrique 0.38981855196033205
Exchange 0.5439186232431602
Frank@@ 0.44788673098717774
Gener@@ 0.1854004583525865
Her 0.07677704968114794
Hindu 0.4844846467712524
II@@ 0.42250705439157193
Imperial 0.2660973512157327
Kai 0.9374392791070906
Ken 0.4385549464087047
Logan 0.7871255954474471
Mine 0.7246742797127116
Moreno 0.7917484805854708
NY@@ 0.5721582303691476
Nec@@ 0.5831734453713836
Negro 0.6227941126907506
Phil 0.41306925501038344
Publi@@ 1
Record 0.5769717021516899
Shanghai 0.4294578227802712
Soci@@ 0.18680957596918507
Songs 0.2682007997366419
Spider 0.5939511606450383
Stand@@ 0.1673833702297398
Sul 1
Terry 0.42486527112204503
Text 0.515588866619728
Uru@@ 1
X. 0.7045942331415147
Yuc@@ 1
ahn 0.2185028904012982
ainst 0.753073489241548
alog 0.4969943816246337
annes 0.6498362474042878
atis 0.8804881018825809
atum 0.30094578119950793
ball 0.09066962666423095
bat 0.17780859705456026
bers 0.12350090289807598
cell@@ 0.19004826399628644
digit@@ 0.47203340753648976
doc@@ 0.11790632135545201
dol 0.9253556477486403
dt 0.42710013324446894
ew 0.30003822456139123
glo@@ 0.3832662331823325
hand 0.10156342475289953
heter@@ 0.5487609297098931
ieu 0.4860179948111769
ift 0.4432885239017263
ignan 0.9913244749759423
ils 0.033836636903611154
irini 1
jur@@ 0.1752205131560511
kes@@ 0.28766584177452414
lag@@ 0.12414378407256685
lane 0.38998210978400594
meridi@@ 1
monaster@@ 0.44875739738924414
nin 0.1273174572444194
nm 1
oire 0.19639077938734936
ois 0.15231447819170396
olan 0.08598126450005075
ood 0.612586498064725
org 0.7168351136328512
osp@@ 0.2501391613297204
plant 0.11011763077727259
pm 0.35386426200174176
quot 0.44634155232924544
ross 0.497645612744355
sist@@ 0.4019562958793428
sl@@ 0.12253090069805986
ths 0.15022329283807928
tos 0.07983088939574683
ular 0.05601967311019166
umen 0.26636626006921504
ust 0.1025468378463879
ח@@ 1
כ@@ 1
0,0@@ 1
158 1
1622 1
164 1
1648 0.9864731992910094
1826 0.4251400468981255
186 1
247 1
25.@@ 0.5722772435464966
266 1
271 1
3.2 1
68@@ 0.68494550127832
Alli@@ 0.24313468513555114
And 0.20479635952766512
Andre@@ 0.47463224634863665
Andy 0.3201730595620896
Arena 0.27999534845253954
At 0.029665052755247105
Castle 0.18375765383932316
Christ 0.22236580739108586
Christmas 0.2429680639359288
DE 0.3722794244699297
Deutsch 0.49651947899575777
Ear@@ 0.2949284657194584
Ej@@ 0.6559553802106349
Ethiop@@ 1
Frances 0.7568982453051142
Fus@@ 0.8027082294349875
Hann@@ 0.7323345117905274
Hug@@ 0.5771174471166834
Jas@@ 0.5006978040865279
Kate 0.5134432468450757
Kend@@ 0.9018784399895933
Light 0.24046392158752572
Lille 0.6226878754582406
Linn@@ 1
Liu 0.5105391647048465
Lux@@ 1
ME 0.4751962619513779
Mainz 0.5858276893173067
Mercury 0.6709280243802561
NCAA 0.20799698002118752
Nashville 0.5128001412633182
Nob@@ 0.4104800452809488
Nord 0.09872037901287502
Park@@ 0.4910883872921671
Pat 0.5876997910638475
Phyl@@ 0.8736073940375747
Princeton 0.5866971812560038
Range 0.4567425283708502
Rich 0.7654053698712063
Rugby 0.22733715864275766
Ruiz 0.8194831214240854
SAR@@ 1
Serge@@ 0.40035423368664924
Sivas 1
Sl@@ 0.3015487493965871
Some@@ 0.41596628614934406
Sporting 0.6483499929054384
Syr@@ 0.5446090657304887
TC 0.2966200798137257
Talk 0.8862598874776613
Thomson 0.7732704203283529
Utr@@ 0.7837917057611771
VA 0.3651525113736653
aar 0.6140709355346613
agus 0.7453495594643079
alan 0.20022373470938035
annon 0.3411782723408284
ante@@ 0.37292129250678463
ara@@ 0.6271276974667779
arta 0.6998886516002842
ational 0.0811525660401939
atrice 0.3067889585334544
bibli@@ 0.40355827024435176
bil 0.6234215915032116
brook 0.5862371285764991
cli@@ 0.09910386518608232
dison 0.7826144931771424
eline 0.37089426219690014
els@@ 0.1949139854209283
esc@@ 0.08743292275969128
euro 1
gin@@ 0.41125561955064
hab 0.48739960421325657
irie 0.4691160522402866
isp@@ 0.5122349291561138
itude 0.5347768345102191
mang@@ 0.41315283309125733
muj@@ 1
né@@ 0.1861568411309099
oman 0.96135154092984
ords 0.1566469528410783
orio 0.2046842204877076
ospel 0.5730591993881752
ree 0.19588765606271955
server 0.4577090698690796
she@@ 0.20850265959550848
sm@@ 0.16140133790928582
spor@@ 0.26018466657348227
tez 1
tidae 0.5565244546271247
tim 0.4172431077937368
uf 0.6960357156324388
yu@@ 0.895560758149089
zeit@@ 0.12918339634160175
ça 0.28291606961082594
ɡ@@ 1
ܝ@@ 1
0.4 1
1.9 1
154 0.9285940397526916
1792 0.45069511776798465
1804 0.4849062767690528
1817 0.4447821032626411
196@@ 1
2030 1
255 1
277 1
28.@@ 0.6183305484329389
291 1
296 1
33.@@ 1
39.@@ 1
415 1
5.5 0.9617705046836391
64@@ 0.8113911013469891
Alex@@ 0.45710441830070886
Ama 1
Anton 0.32221400356725266
April 0.018710927589467654
Aub@@ 0.406444593791129
Augustus 0.7576523328604403
Ball 0.37762908121669025
Berger 0.9362065311112864
Bill@@ 0.4955416981880293
Blan@@ 0.31990972444618276
Boeing 0.4350211605664277
Bretagne 0.3312146263642513
Cast@@ 0.32417440227524474
Computer 0.3880071155227218
Czech 0.31336059437960395
Deu@@ 0.9790203531057549
Emil 0.6266448981861994
Erik 0.638823910888877
Fam@@ 0.34062848155353587
Field 0.1759630500183977
Fred@@ 0.7060018488964762
Friends 0.5059799130279066
García 0.26562218293310014
Glenn 0.6697549565341971
HA 0.8552321438581083
Hamp@@ 0.45109612991154246
Harr@@ 0.5277337375356594
Hart@@ 0.25142735136040767
Hep@@ 0.8861717108093033
Herman 0.7256453337189557
Holy 0.2627768865713427
Inc 0.6667521695416656
Iron 0.3242372273805801
Jefferson 0.4134248990368746
Josef 0.2941389923298244
Jou@@ 0.7418458625085576
Joy 0.8851168561117472
KO 0.6483299612185094
Kayseri 1
Kod@@ 0.8470270764593076
Krish@@ 0.5847773091305224
Kug@@ 0.9243613809345144
Lie@@ 0.2792205882027127
MD 0.5124660401943285
María 0.12303496294881468
Muhammed 1
Murray 0.28834218868766254
NT 0.62604695458106
Napole@@ 0.7460138146489307
Norte 0.2394618176567513
ON@@ 0.3057917607512839
Ocean 0.27018198107688973
Only 0.25624871824512546
Oslo 0.48409950272639596
Over@@ 0.17183787118407842
Roman 0.07452661060280745
Romano 1
Rome 0.12108268425481093
Sport 0.20791468427479548
Station 0.10591759691198102
Strasbourg 0.5786390030340237
Tower 0.3123222598234813
UB@@ 1
Universe 0.6728254972341448
Vicente 0.5143882802221136
Virgin 0.41106322561698855
Weekly 0.5292194415115139
Wis@@ 0.5184690822220782
Wonder 0.8940564748690346
Yosh@@ 1
Zer@@ 0.42004717083164056
acet@@ 0.589184350409362
aft 0.11626461997376127
aines 0.1318128579977644
aragua 1
arya 1
aves 0.09499989389743509
awn 0.4618170951411012
azz@@ 0.7025627822127887
ca@@ 0.21924072301796915
cas 0.08674214943395883
cast 0.09388622759448957
cester 0.47334782329110897
chez 0.11427220194266914
doksi 1
eph@@ 0.1960530231990326
eson 0.615339983604555
esp@@ 0.08976782730636751
esse 0.09165602753559852
estyle 0.46860804745393864
fly 0.21600117246966638
fum@@ 0.5772215775405559
horn 0.38676481105529087
https 0.7023858105428009
igg@@ 0.7238401286790942
igr@@ 0.5660698961013768
insk 0.6358860080281349
ionale 0.9348725309691687
ites 0.06281176462677905
iv 0.5013253071907782
ley@@ 0.3745727421438077
lic@@ 0.0940940059065737
ogen@@ 0.21032589919259095
ographic 0.24483926117475938
onica 0.840284212562429
opp@@ 0.1878879085206833
oru 1
osu 1
oto@@ 1
pert 0.5310504472130726
pierre 0.3767871273162679
pon 0.47630578395252005
pper 0.37552699798492195
ps@@ 0.4619127226456169
red@@ 0.12455640661123389
rep@@ 0.12282585960388688
sek 1
ug 0.49393241657487724
vat@@ 0.6088570633121984
web@@ 0.371305720657018
weight 0.11648115025655227
ères 0.054820776952419825
ön@@ 0.13900364584765906
ān 0.8953962437369143
ş 0.5464619419331148
1453 1
171 1
1740 0.873445739917138
1787 0.6245965475618963
1808 0.41786320946428873
1827 0.4331525162869329
196 1
279 1
299 1
512 1
Andrews 0.6009548072934034
Baja 0.8499408643556841
Balıkesir 1
Bek@@ 0.28358529035622027
Braun 1
Budapest 0.4048571501152889
CF 0.36013646016554457
CO2 0.9799821238466625
Canal 0.23075904113617784
Chlor@@ 1
Coch@@ 0.5398072941709751
Colin 0.5502526442924478
Cov@@ 0.36467823445972025
Dean 0.28501140329254
Dek@@ 0.36148104431594874
Dil@@ 0.6153807238047406
Double 0.5241772192841644
Encyclo@@ 0.8738211228669533
Enter@@ 0.6160099712784285
Fisher 0.5384135744726802
Flight 0.5123310799441518
Greater 0.4196419930240939
Hamb@@ 0.5837757345442668
Henderson 0.6307363084943639
Hind@@ 0.44833294170716786
Hong@@ 0.7178491235979921
Hughes 0.44276790907154745
ID@@ 0.9526615492331559
IN 0.4801482824851122
Jenn@@ 0.6996018620045981
Jo 0.6605109758631895
Jur@@ 0.17147827540278848
Kirch@@ 0.2194440728740518
Nem@@ 0.5241012160785843
Nos@@ 0.7611128768708486
Prague 0.41724151681733285
Pul@@ 0.2562947024597322
Reserve 0.2533052495033311
Rica 0.39596731359730525
Right 0.5490082960630125
Riv@@ 0.3062132813420227
Ron 0.438134499437223
SN@@ 0.3084020949453359
Sco@@ 0.7614691864429054
Sound@@ 0.8806336207253136
Special 0.18124097643481255
Sti@@ 0.1659617309798784
Strat@@ 0.6306018179269173
Today 0.21233127244919625
UM@@ 0.9670765059369721
Umw@@ 0.6590924790958671
Under 0.1368404326837831
Watson 0.44237654795090714
Wing 0.4638475858102177
Yaz@@ 0.916250854336398
Zürich 0.33608990829197893
acon 0.5273893810909444
acter@@ 0.42394587324185584
afro@@ 1
aft@@ 1
alem@@ 1
ansen 0.7683574619904534
ashara 1
atsu 0.8696398252569987
automati@@ 0.3593368818010627
beat 0.21834677886578838
bet 0.6629472923562554
black 0.08227591796359035
board 0.07290312055741291
but 0.007129813792417233
core 0.14955355079537802
down 0.034884853698573255
eit@@ 0.3152795187503155
eki@@ 1
ener 0.08105071251411113
entes 0.03704058517944883
fid@@ 0.40884110321997996
fot@@ 0.3230406595886341
gat 1
gir@@ 0.1744399814640589
heimer 0.4811994169545715
hn@@ 0.8618753896731701
ici 0.2364498999383195
inal 0.085951851680288
inn 0.20881492886760986
ip 0.6489813191137273
isc@@ 0.3753965148826297
ision 0.16505652957341868
ism@@ 0.268267732513205
lair 0.569927935935771
lang 0.11551184921728162
lesias 0.7298146176828673
loo 0.7328231794740901
mac@@ 0.19183110778855203
madh@@ 1
modeli 1
nov@@ 0.22220657219992765
ogy 0.46546697071417664
onna 0.6561016191681385
orith@@ 1
orus 0.6338825545724714
patri@@ 0.22264150800195603
pedi@@ 0.251128882617965
rugby 0.1665266803336207
sam 0.24849699100329078
sept@@ 1
series 0.02154431620499199
show 0.03615537608343231
stad@@ 0.5903438206949118
sz@@ 0.30231756840367086
tres 0.039456783373860264
trus@@ 0.3653991529059172
tuy@@ 0.7773539769938065
ums 0.05753080946768096
ushing 0.3771679101147081
ving 0.09634534238561197
wen 0.36231037858995874
ylo@@ 0.71674201514087
à@@ 0.6285427397881216
ə 1
ե@@ 1
ո@@ 1
َ 0.9654119530882218
ἀ@@ 1
0.2 0.9930558255971821
0.7 1
174 1
1760 0.7797768287309479
1770 0.6466150131561216
1775 0.5878351104534808
1783 0.5904159838949861
1793 0.3757447897030988
1797 0.5064506728950644
22.@@ 0.48356615769952144
231 1
242 1
267 1
27.@@ 0.5500881745196458
281 1
289 1
3.3 1
35.@@ 1
45,@@ 1
85@@ 1
Aar@@ 0.7951392798404571
Adelaide 0.4167152215040235
Aless@@ 0.6886320964454714
Astr@@ 0.22847362988171552
BAS@@ 1
BD 0.7250164159396881
Bois 0.5543726960438404
Born 0.16848836938174644
Castel@@ 0.7336339385731991
Clara 0.4807706374061207
Commission 0.09917095712064548
Cooper 0.3205007559479435
Copenh@@ 0.49695736091552467
Critics 0.6532446314980079
Culture 0.22295606449777503
EMI 0.9178094661355461
Eddie 0.4047026462532704
Ella 0.4945000631852399
Erzurum 1
FK 0.4292643955769452
Fit@@ 0.703517710106392
Flying 0.5399469576609337
Frauen 0.17083648065767376
Ga 1
Gerald 0.6179389440562196
Guar@@ 0.4699743543912901
HTML 1
Haus@@ 0.17667094640379666
Hill@@ 0.4392524225169105
Hof@@ 0.18430915035389256
Jon@@ 0.5193087642222225
Ka 1
Kiss 0.7959804427479503
Krasno@@ 0.9774826952669078
Kurt 0.34264727513015564
Luna 0.5871252306173549
Machine 0.500206013770286
Mohammad 0.7345889246392173
Nissan 0.9724594743508362
Nou@@ 1
Och@@ 0.7425983536511686
Olympi@@ 0.2512383474816483
PM 0.4672089819334584
Rang@@ 0.47985082355946324
Sach@@ 0.26589384728888976
Senior 0.24066907476242397
Services 0.20449746360357932
Sinc@@ 0.767355839496373
Stam@@ 0.7352896888708236
Stop 0.9128254054875542
Tai@@ 0.335242988330672
Them@@ 0.8049008083637901
Whe@@ 0.2651665201461606
Zaragoza 0.7157550176204731
action 0.04020254625921244
aleg@@ 0.9184763431272454
alition 0.5117818189440984
amin 0.7543687467291876
anic 0.6443210703606567
ansa 1
aray 1
ards 0.07166054916139632
atidae 1
audi@@ 0.19094181200668936
bir 0.021857427792422408
brand 0.1821515308282128
cam@@ 0.11682167546339066
duc@@ 0.12359503906284612
egen@@ 0.9875321251829358
elt 0.08010183319598384
eros 0.09866164504047407
found@@ 0.34613000446850667
fug@@ 0.7172170019059309
gy@@ 0.4512768540866386
hil 0.9569119012257117
ht@@ 1
illus 1
left 0.03204367348968749
lich 0.025041315962408033
lins 0.44684212403290485
love 0.11051162759250081
mal 0.06312222467278233
mul@@ 0.16612966507020177
nier 0.1665332493938741
oll 0.26024025839533516
ols 0.08202861354003345
onius 0.6724691564450596
park 0.07562859999803552
phone 0.17082262897626002
pic@@ 0.09823442815660281
ref@@ 0.13147401905410944
rin 0.6673568344380438
rol@@ 0.18475092684083863
ror 0.21859317657867555
say@@ 0.3407482563425717
shin@@ 1
strö@@ 0.6349611319666291
system 0.029549865994274734
techni@@ 1
tine 0.4836549669112202
tional 0.057192835313199714
use@@ 0.23155391739312656
yav@@ 1
year 0.013304520864864635
ն 1
ֹ@@ 1
1550 1
1640 0.9456327689217057
1650 0.899646403846555
1690 1
172 1
1776 0.5776482512428567
1798 0.44320643430836126
1805 0.4364707358730746
1819 0.4202524387244738
237 1
272 1
326 1
338 1
37.@@ 1
4.2 1
425 1
747 1
78@@ 0.8371327645399685
999 1
AW@@ 0.7802137840598389
Ais@@ 0.9771126913046557
Alab@@ 1
Alto 0.5050308639764292
Amat@@ 1
Angels 0.6021071903879794
Ans@@ 0.5149510525274402
Aug@@ 0.32617874529695484
Aul@@ 1
Bahn 0.25498195649575994
Bailey 0.5953984100618147
Beh@@ 0.19867310390605716
Bristol 0.3180908302938435
Bry@@ 0.45996857556152065
Cabr@@ 0.770183163659622
Chamb@@ 0.9451956640086421
Chamber@@ 0.8345362271519956
Civil 0.11435336057184779
Commonwealth 0.2313721598933713
Contemporary 0.49248638417405705
DA@@ 1
DL 0.820911692879361
Das 0.014321226664100755
Def@@ 0.4429440191307125
Drama 0.4251985041344171
EM@@ 0.5004739095198729
Erz@@ 0.29705914049571397
French 0.03548346343174766
GA 0.30752809325082914
Gang 0.5829730583636379
German@@ 0.30663958584340834
Gos@@ 0.37046372960618934
Gusta@@ 0.6808858216290279
H.@@ 0.3713293200254769
IR@@ 0.47129074848259805
Internationale 0.48996892210578824
Julio 0.49141330875794165
Jupiter 0.7394894761739825
Know 0.8374527519451878
Kütahya 1
Lion 0.5873828394405187
Malat@@ 1
Manisa 1
Memorial 0.18564780378010065
Müller 0.3496801551911219
Nair@@ 1
Nantes 0.5650175826685415
Ordu 1
Palma 0.8756828872796543
Price 0.4585588735478845
Professor 0.09311499367873725
Pseud@@ 0.4003046669112988
Ralph 0.37279156630866633
Rhein 0.4798207976964325
Sic@@ 0.3284983131211118
Sidney 0.7337753760135989
Sol 0.434110967118779
Sánchez 0.43565242298588824
Toul@@ 0.832904591667421
Wagner 0.38513509992019745
Zero 0.6593268522332807
ablan@@ 0.9563651937124111
agno@@ 1
ahl@@ 0.22627379656039576
akadem@@ 0.7274063721095749
aks 0.13907675789295762
amie 0.866700889876927
auss 0.5094937791559159
aş 0.9907472622741189
bass 0.26445496355311465
bian 0.19939506782084176
cat 0.44865202721739533
dil@@ 0.19044054422078868
dn 0.39908589318792625
dorf 0.15920391407098672
dou@@ 0.13561061491789517
eig@@ 0.14806352876907697
enh@@ 0.1026689176733359
erini 1
flam@@ 0.34851203832228667
hard@@ 0.16651580597791799
have 0.0076109965664633876
hiz@@ 0.525872143136874
imini 1
ingrad 1
inv@@ 0.07363295681953248
jav@@ 0.766258075214081
kal 0.5470109409652497
kett 0.7056837568789703
like 0.02746570384339709
lim 0.7917742970325627
lit 0.1978184664229523
lus 0.4067113675180923
melan@@ 1
mim@@ 0.7248622118101016
nitr@@ 0.49164961438672233
part 0.012923113429461938
phy@@ 0.2325545096270069
poly@@ 0.14271942159804782
pur 0.22559479044110858
ques 0.026357346140042783
raph 0.47033680640268116
sec@@ 0.043380275693990694
seh@@ 0.48427529710507994
stanz 0.6111164251109651
street 0.1617144660635756
suya 1
tain 0.11878822244026013
thon 1
ual 0.07075933554201133
vic@@ 0.07215235773672678
ware 0.25629225499042807
work 0.018001513300321233
~ 0.3814660973888399
École 0.2262704581301183
ène 0.11779282353949956
ë 0.4617481519975981
ɾ@@ 1
الله 0.7582454388594988
ْ@@ 1
ṭ@@ 1
.C. 0.3881944876272173
0.1 0.7923457149424521
1560 1
1790 0.3817472494642713
3.1 1
AZ 0.8021325093718923
Alg@@ 0.44813357411384136
Auckland 0.4274781317012528
BL 0.5057485707789452
Batt@@ 0.38215926515193266
Bella 1
Bergen 0.4940545737269487
Brandenburg 0.38017605224656187
Civ@@ 0.5168034724685462
Clif@@ 0.549830362279504
Conrad 0.5491299285043528
Croatia 0.4708566591867681
Det@@ 0.19768356250588048
Doctor 0.20522513401396386
Ein@@ 0.03230463736253458
Einstein 0.8299543334405717
Elisabeth 0.32776181261443776
Engineering 0.22078680350601843
Eskişehir 1
Fair 0.416511321208651
Flo@@ 0.33212445504957644
Freiburg 0.4759577130708385
Félix 0.5378105281265327
Gig@@ 0.7468630335352995
Heritage 0.2597013258548981
Hubert 0.6173708086329528
Hunt 0.46362716392857334
IF 0.5034287410082728
Information 0.25735981178082346
Jules 0.3683215911174788
KO@@ 0.7957800044817467
Kastamonu 1
Klin@@ 0.4910934276811651
Lanc@@ 0.29776721142400675
Lid@@ 1
Ling@@ 0.7978506249499656
Lo 0.385777681260584
Lower 0.3123058627162738
Mann 0.1602303191211934
March 0.021575527905656183
Mecklenburg 0.6408902033551631
Nebraska 0.3807259600049892
Nich@@ 0.33888675068658797
Oakland 0.5001357566421686
Ov@@ 1
Oz@@ 0.961097148269938
Pag@@ 0.5420643967105844
Part 0.3440772931007689
Pho@@ 0.8594028561215223
Porter 0.5795158882298684
Richardson 0.5748342438929644
Ridge 0.37339869998756847
Rosario 0.5618685478220826
Samsun 1
Sebasti@@ 1
Sex@@ 0.34261871706937796
Sylv@@ 0.8255543867966517
Tari@@ 0.7714252891251625
Tud@@ 0.7151152492669207
Watch 0.6105401397386848
Yuk@@ 0.8315321492775802
Zhang 0.49880215075734574
adol@@ 1
angel@@ 0.44480944931744754
ank 0.4590618056135847
asse 0.11389355249708888
asy@@ 0.4986265456414043
ather 0.1332754108863636
aut 0.09211404810095501
corona 0.91472116642606
cz@@ 0.46135465801408065
eine 0.005519495956841364
eles 0.24123112036391614
elik@@ 1
endorf 0.230113369392899
entin 0.23844436697325405
esto 0.12212958789633512
eur 0.0445014430017113
form 0.02751252314597314
gers 0.19045562117405465
idel@@ 0.2781260082429542
iel 0.8079941715114984
igny 0.40209100116950924
ingu@@ 0.2091371939382481
ische 0.016324364339016503
isten 0.05989679935137254
iten@@ 0.5029690276064896
kê 1
lag 0.11723441088310788
lav 0.3191659346229184
leaf 0.4067985153184677
litz 0.4663970621512539
lun@@ 0.2746207361319758
nau@@ 0.6282597576678164
nen 0.05898898770662808
ner@@ 0.07336234006987637
ock@@ 0.1371621955097616
opus 0.5007672943431226
orr@@ 0.2783993545949845
oux 0.24858813726522602
part@@ 0.08248629562071808
phus 0.5958505809145135
pist@@ 0.35359170497651804
priv@@ 0.09181264453443935
quer@@ 0.2508418733397128
rates 0.1813756872386043
rid 0.25408617404479594
roy 0.4965703365362166
song@@ 0.2429175966180427
tionary 0.36456993341230837
tos@@ 0.5687555874846499
uck@@ 0.6957606832325848
wig@@ 1
yir@@ 1
Île 0.4591397568309628
éc@@ 0.11446996127324
ís 0.4349865224784616
ô 0.29254810657633856
ă@@ 0.19374070770915688
ν@@ 0.17876162039324556
ός 0.15952305415666274
ск 0.12087191683501823
ֶ@@ 1
0.8 1
1. 0.0448495640163049
1535 1
1598 1
197@@ 1
234 1
261 1
273 1
284 1
47,@@ 1
77@@ 0.8675660123532183
978 1
Alc@@ 0.6501264079935715
Apostol@@ 0.549510868737963
Bang 0.61741669671456
Board 0.09641073803808128
Books 0.32736033995631675
Box 0.3580886398095456
Brad 0.7061811284318192
Catal@@ 0.44108078686988267
Chase 0.5363464205032406
Clarke 0.4257706416389616
Cristi@@ 0.6792456954803179
Córdoba 0.3673611240313523
Dat@@ 0.40288038706183094
Dus@@ 0.5782612668033051
Edmon@@ 0.4623640425282436
Esta 0.11954710713199605
Fe 0.3805785550425979
Food 0.3814804835402032
Fried@@ 0.2907498653119049
Gru@@ 0.19822372472481983
Head@@ 0.3621664727092483
Heil@@ 0.20836993080954785
Hern@@ 0.6086909268072562
Hok@@ 0.6929011735829907
IU@@ 1
Initiative 0.39081479515340495
Jus@@ 0.1782876526162814
Kent@@ 1
Latina 0.8836088933200983
MI 0.5694950568687634
MR 0.7797364869503176
Mall@@ 0.40702352562154914
Miles 0.4941790279263727
Monroe 0.5801240718828036
München 0.13871900709768856
Nokia 1
Né@@ 0.32917040695358474
Oak 0.5589772906721067
Orth@@ 0.9256192747044585
Other 0.06650479716905267
Production 0.17955197010297608
Review 0.2666938393398286
Rib@@ 0.4476803455808565
Ril@@ 0.6324042492049314
Scar@@ 0.2970750111069593
Sebastian 0.37682572716932267
September 0.015440818792827422
Shaw 0.44177735123539735
Sophie 0.39725365910598204
Spr@@ 0.16115621082634715
Symphony 0.38826592287228423
Tech 0.35461149484671634
Training 0.265918530776384
U.@@ 0.38021696975898084
Val 0.30488326158141815
Von 0.04247851631595448
Warriors 0.5926895485400614
Wet@@ 0.41652599748865343
Woods 0.5385116136933257
ahl 0.18479734737221068
anapolis 0.5065504448204192
anime 0.3070306928614442
aras@@ 0.8303153248307039
aren@@ 0.35390154884452985
asp@@ 0.4494330520858369
bius 0.9235128975088169
bri@@ 0.09741104418032512
cle 0.1150473244251351
come 0.06869934004013936
cri@@ 0.07495461248101029
dian 0.4815509718772472
dle 0.3509616731296981
duda 1
dur 0.5234363798622103
ede@@ 0.6279662279285827
eler 0.14000506502436827
ems 0.14201658247748813
engen 0.49513012341951207
engers 0.6444554328399706
eps 0.19107923658948692
fast 0.07824000304740814
first 0.00524167397558189
gie 0.4230264766237735
iens 0.4517159045303132
ires 0.08674563135540816
isl@@ 0.2811247722039835
jon 0.49233822709102404
kisi@@ 1
koh@@ 0.5457018314477962
lay 0.2672008383388982
lidae 0.7215667234868047
manuel 0.6339487008487181
nati@@ 0.23700464245870898
neb@@ 0.8611100206890138
okie 0.3614441205533893
ore@@ 0.6669969768345352
othy 0.726240766282926
plasma 0.7046096496289117
play 0.02866993734623311
plex 0.25280412018561
plus 0.00984990512054971
program 0.05314642934635867
qui 0.00619467917622037
ric 0.3020325412454542
rif@@ 0.2068753762368975
song 0.026391085491732486
stat@@ 0.10011153832244701
stead 0.2366970262730842
tius 0.8391415208747149
tney 0.5610889802402018
tra@@ 0.08413565843696917
tress 0.2147000268417863
tural 0.1656449191843257
versi@@ 0.120230509955123
vey 0.2223065950859109
vier 0.054792149409788875
word 0.08857574847225194
xe 0.097477612392335
yst@@ 0.1428473811395381
zum@@ 0.44841188356560513
émon 1
és 0.010275119241125253
év@@ 0.08863432959565862
ın@@ 0.3147067116908056
ũ@@ 1
γ 1
ת 1
وَ@@ 1
藤 1
郎 0.48665871269064614
156 0.7985146436724057
1675 1
96@@ 1
Adana 1
Aran@@ 0.5829475750431795
Arist@@ 0.6061899466736321
Associ@@ 0.2094503970332788
Atatürk 1
BT 0.7417373276152583
Base 0.2601277250316287
Belle 0.5221649661437129
Bish@@ 0.5435927042467328
Bros. 0.6253169034140744
Brunswick 0.384274786834067
By 0.04548827619925808
Call@@ 0.34365032914359456
Capitol 0.5639423876436527
Card@@ 0.17149861528030708
Caribbean 0.37033177976014886
Cath@@ 0.37569059103273206
Christian@@ 0.3778900833056473
Comedy 0.49720287003032004
Crow@@ 0.5943036159560179
Flem@@ 0.46062825401900404
Gaulle 0.9213326072043749
Gene 0.5295025038840966
Gramm@@ 0.49567383089574985
HIV 0.5394492427363206
Hart 0.40314795357604033
Hell 0.523753852571243
Helsinki 0.43898882786316545
Homer 0.6294670494613844
Hz 0.47146968123092176
Jung 0.6113466347381203
Kenn@@ 0.2650255325581478
Kno@@ 0.2135062622571068
Konrad 0.5389696025405986
Mayo 0.6387385490102029
Monter@@ 0.5498635672150106
Moz@@ 1
NET 1
Name 0.08117414735245089
Nel@@ 0.9052113802441373
Norfolk 0.35687576928149595
Open 0.0802594268030234
Osaka 0.5901278567023006
Paz 0.4325669597133258
Railway 0.09892269477234976
Rhode 0.49390908596146393
Ring@@ 0.4086904402450667
Schwar@@ 0.2522058533935149
Springfield 0.5725694323827599
Studies 0.19000982178683895
Sussex 0.49988582773776746
Teh@@ 0.7270391196787841
Toy@@ 0.6864124106304411
Tu 0.7262627326415692
Viet@@ 1
Week 0.2664615117351873
William@@ 0.5276588391908488
Wood 0.24424627165341442
XXI 0.6364786888162612
Zanz@@ 1
acle 0.26219951063067515
adio 1
aho 1
akter@@ 0.7382222640326276
alu@@ 0.8701282954827563
ampton 0.38833133287431804
anh 0.14411744429476853
anz 0.21760507064124993
atin 0.3578237498818177
cal 0.1417690612853946
cro@@ 0.0615387514362588
dat@@ 0.12228809471555306
dings 0.18748029231996294
dius 0.722461689217546
diya 1
elev@@ 0.1051318906497772
ender@@ 0.3173014185077255
ensburg 0.4244870732853356
eron 0.07205890836343631
etry 0.6468435408054284
fic@@ 0.0651956898590841
flo@@ 0.059693721863847415
fungi@@ 0.49096102398169567
gem@@ 0.10542164814893104
gin 0.20909700691417948
got 0.10326346932011157
html 1
iff 0.27401858644890337
illon 0.18638128547297209
inski 0.5047906616166188
isch 0.02592271504581394
ited 0.03940317744493897
iting 0.1310652472716353
kod@@ 1
law 0.038149152794326645
leton 0.3185447285350074
lot@@ 0.5547535285102738
milli@@ 0.23382527217187477
mons 0.4126763953446167
mund 0.5616026133822161
oidea 1
onso 1
otra 0.13820377256774308
ph 0.3395948283648813
phen@@ 0.22152591387382845
pic 0.24632407272939646
pool 0.22059881455230462
ppo 0.6454660036351946
press 0.11633414559239187
quin@@ 0.23815696007994677
reno 1
rico 0.5688085218277591
rier 0.1521436712974514
sai 0.5504823184159278
sor@@ 0.05829353881557136
standing 0.10811783934797854
teur 0.06599357050193219
tone 0.4040007440892554
ub 0.9399990344201862
wais@@ 1
xen 0.5505475311372692
yen 0.2570416142646215
ying 0.037966934116487855
yne 0.6817469342324247
zan@@ 0.6193720870066728
zer@@ 0.15867959981471386
Ö@@ 0.11439315119992619
än@@ 0.07195087875709702
ün@@ 0.06765677609614285
ʁ@@ 1
ία 0.11960508442336161
β@@ 0.13613836090381115
י 1
פ@@ 1
ز@@ 0.14229211159723423
् 0.003207511015505398
.org 1
0.000 0.1976698809918139
0.6 1
1.0 0.6959633439660657
1547 1
1555 1
1580 1
1730 0.8034175949867579
1762 0.7681578886237026
1823 0.3658142922724842
2. 0.0784340927422619
278 1
297 1
737 0.9765119846323127
87@@ 1
94@@ 1
ATP 0.2780952511380406
Atlan@@ 0.4193711347015236
Aydın 1
Benito 0.8803821508248922
Berry 0.5213869068785201
Blues 0.26534878533407225
Cad@@ 0.19920965731372664
Carol 0.53236412371239
Chan 0.6002329327678474
Chen@@ 0.7172798720510319
Circle 0.4738447800264696
Clem@@ 0.3198644853007123
Clo@@ 0.3684847616104679
Cohen 0.49461722533407454
Commons 0.3977725682044408
Commun@@ 0.2001296371694588
Covid 0.8488587362790743
Donn@@ 0.27352918809674587
Dylan 0.543418820043662
Ecuador 0.2957727750848291
Elis@@ 1
Europe 0.035936911708882316
Evangel@@ 0.19698515238537903
Eye 0.6113276855621366
FL 0.15587936798407198
Ferrari 0.4010215028164208
GO@@ 0.48978195864021745
Germany 0.05445462928123373
Giac@@ 0.7226837983754015
Grav@@ 0.477775498729208
Greg@@ 0.3548533479700596
Guadalajara 0.6663204289374268
Gug@@ 0.6845454162892556
Heli@@ 0.6540964428111754
Idaho 0.49658548842678196
Julie 0.4808352119555769
Klaus 0.40942129400033
LS 0.6587965370110161
Las@@ 0.2601826302551735
Leslie 0.4945174071551494
Liter@@ 0.194787254746392
Lorraine 0.47240808145756474
Los@@ 0.5069524226406945
MG 0.6165715925568024
MP 0.16156962363966748
Major 0.10650984823214629
Mant@@ 0.5278086571463261
Maxwell 0.6398276754606372
Morrison 0.5438354513720791
Nacional 0.06827300506780713
Nau@@ 0.5579404341000129
Neil 0.32629600416189386
No. 0.08386691986821862
Pablo 0.24451554661144378
Ped@@ 0.3858161615682716
Pig@@ 0.6306511385275432
Play@@ 0.10072103159293216
Post@@ 0.1527790800367611
Quar@@ 0.2745908367898875
Rest@@ 0.3924902485847418
Ret@@ 0.16179267894241134
Reynolds 0.52837770635131
Sant 0.5332910001544342
Sask@@ 0.4056687532817477
Schi@@ 0.30291921279127165
See 0.1270918689968585
Soccer 0.3134189938816042
Staf@@ 0.5436818813144081
Take 0.5889540566741479
Tall@@ 0.41959962502227194
Teleg@@ 0.5939635598996436
Turkey 0.2019605163286684
Voc@@ 0.47448704956706317
Yang 0.4402485922942169
Yok@@ 0.5528140509814747
alist 0.056047067886955716
anas 0.11429699491924575
anner 0.30267090720227413
arl@@ 0.7618830467736716
aspir@@ 0.4109380621683065
aver@@ 0.1491837011739238
ayet@@ 1
bau@@ 0.0907466546089503
blo@@ 0.11547658656164494
bro 0.4517439886003507
cis 0.8968444622128008
cs 0.09124460602958498
door 0.10268872338195402
dra@@ 0.08717633195602068
eich@@ 0.9197659288816531
emati@@ 0.222440399678204
equ@@ 0.06855360451232537
evi@@ 0.25404239570799814
fax 0.3412241475530512
fif@@ 0.194867522478588
fish 0.11880894378291795
flu@@ 0.07228621010009903
force 0.05486685701218816
get 0.05943158460162527
gri 1
hagen 0.6167691076540678
hane 1
hill 0.22803895290947468
imbab@@ 1
inian 0.3461450387410683
inson 0.6383125014636196
iran 1
ising 0.09221321452647799
ives 0.08911692073041991
kam 0.04474686338348275
khe@@ 0.3555414020261133
makam@@ 1
news 0.11821597245673791
nis 0.09158968226697337
ocar@@ 0.5620706545959989
ocy@@ 0.3883956817263073
odor@@ 0.7836112655330463
oides 0.2760531764878765
olph 0.47037187526054836
orie 0.47370321450574193
oul 0.2918971693772752
ovia 0.7467078594882189
owski 0.26409308099550016
pen 0.2128884666135319
ple 0.19776560069118482
pler 0.4256223008338185
point 0.031037307776760847
programming 0.22638039029634938
propaganda 0.5699744203295706
rea 0.23647550389793157
real 0.06326939490600599
revision 1
rist@@ 0.8140450686097405
sant@@ 1
sep@@ 0.4860198397368504
sola 0.4220502350516038
sum 0.30451737891235175
tela 0.9135934216311595
tere 0.2447820074266982
thouse 0.2850324141804829
tle 0.1549243060464964
top 0.033936864815892205
trav@@ 0.05805065430147897
trof@@ 1
wikitext 1
wind@@ 0.21061948390977922
yat 1
yle 0.19740496035596855
zh@@ 0.5147457330622691
zur 0.01368987922068319
élé@@ 0.5678849744402344
č 0.5227215667650337
ħ@@ 1
š 0.295711123308383
γ@@ 0.17763714453542723
ح@@ 0.1238235821862946
1450 1
1530 1
1536 1
1603 1
1620 0.8781613330601649
1670 0.9676590171619648
1774 0.5777982608803127
193@@ 1
294 1
3. 0.09309372714371938
3.0 0.770774152719415
5. 0.11784528878823343
89@@ 1
97@@ 1
Abbey 0.33798947099442916
Alba 0.8452755616152212
Andreas 0.27511643357158305
Angelo 0.6380443076949924
Anti 0.32573017180118463
Anto@@ 1
BT@@ 0.6055749550114261
Bald@@ 0.463940196566084
Baptiste 0.3749595041864201
Bart@@ 0.5685831789428263
Barth@@ 0.44306490179558805
Beatles 0.4117714232959044
Bennett 0.4108029622832909
Bureau 0.17585537911894591
CR@@ 0.35378577616936796
Champ@@ 0.35683205729249795
Citi@@ 0.4128688707316736
Clay@@ 0.5772984021332944
Clin@@ 0.3425854550866962
Cly@@ 0.49334981169569014
Court 0.05389800204318239
Crim@@ 0.20994489655354903
Cuc@@ 1
Del 0.2159641287773411
Díaz 0.45498582633865464
Educ@@ 0.4710526754614752
Era 0.3390992503592412
Essex 0.41763924041677036
Fitz@@ 0.28744093025889983
Franç@@ 0.4411049028232381
Freud 0.8530891030442537
Fritz 0.29141591009082307
Fron@@ 0.2866841734585927
Generation 0.33355364075888244
Gill 0.5520595067364781
Government 0.07503276411649684
Institut 0.12076205647387127
Islamic 0.21113373950683936
Ivan@@ 0.5801553593832017
Jeanne 0.39854197128024144
Kenny 0.5589122340557308
Koca@@ 1
Koh@@ 0.17455206520970273
Leh@@ 0.2143525756432264
Linux 0.34890989766149677
Luf@@ 0.3463836514303916
Magnus 0.6046463748564436
Maritime 0.4646442532104595
Maximilian 0.6316333584100926
Mi 0.4767216673976232
Nicole 0.6336016863437869
Pa 0.8782502367823388
Peri@@ 0.2920372241412434
Pes@@ 0.43948105755971234
Phili@@ 0.482466153768326
Philippe 0.17344229139806497
Rachel 0.4418538075818514
Rafael 0.27845744009940987
Región 0.7044878259588285
Rit@@ 0.37072391086410517
SK 0.3858098503701827
Suff@@ 0.3509708337815709
TR@@ 0.559585216878194
Team 0.057359202126784505
Vermont 0.37305146376404463
Warri@@ 1
Week@@ 0.6214376958994018
Well@@ 0.46698706740662205
adem@@ 0.3520390285899745
anch@@ 0.19160118726769526
assy 0.3350911501373966
atma 1
bé 0.34411198289793793
cir@@ 0.12076653952005126
code 0.1081377557644839
company 0.024303232345215493
eber@@ 0.4523602389378267
ect@@ 0.07747182982984913
edio 1
eds 0.08821111288083383
erek 0.2797114158676208
ern 0.02470802895121094
esin@@ 1
feld 0.07832024023019227
gens 0.2494674162607579
gri@@ 0.14708981465727924
haup@@ 0.6622522588063272
hood 0.11374794803503126
iTunes 0.5947391226164
icks 0.233650754289815
icon 0.26739948078715103
idea 0.08695497508000817
inci 0.6848373576804128
ital 0.12127979787579476
jin 0.6897927129415317
jun@@ 0.4098906850608893
kho@@ 0.3861934331503813
ladi@@ 0.49283597376429356
lee 0.5293545941455343
mari@@ 0.14077486066809314
nar 0.5404238068519851
nay 0.20135698741631305
nd 0.37967480621146454
nus 0.4833083729492469
onder@@ 0.26563634130394137
orian 0.36415673340942034
padre 0.13845321494576845
por 0.003900929151333523
power 0.03846210238244729
rez 0.40854587401605985
rhy@@ 0.2665122657890963
ré@@ 0.014009873466096109
sier 0.3899372099513207
spr@@ 0.08562804718991042
tape 0.37380160674735424
test@@ 0.1536043750609163
til 0.15070990518270974
tura 0.12494569770596589
uer@@ 0.08985884845668696
uit 0.4329233846223246
uster 0.6327390354372868
will 0.019738752039520482
Çanakkale 1
ór@@ 0.17745858829614433
ın 0.06767259771584488
ır@@ 0.30301310155750566
ıy@@ 0.8449736774860729
ʾ@@ 1
ֵ@@ 1
ת@@ 1
1605 1
1619 1
1660 0.6749789731397624
1756 0.7568297663179337
501 0.9229420845624053
Ars@@ 1
BN 0.8216251382050932
Bartolom@@ 0.8742020490241532
Bas 0.26913452825146783
Beautiful 0.6933668072425365
Benz@@ 0.8116075877667722
Bloom@@ 0.506288698784223
Body 0.6346277114438693
Boz@@ 1
Campus 0.3450769091967874
Cap 0.5046191229256086
Carp@@ 0.4582019028909324
Cassini 0.5629240757573039
Christine 0.43757354968155193
Control 0.2815346618352951
Cow@@ 0.2815725674749107
Cristina 0.8211412283664801
Dame 0.17593498563772497
Delaware 0.36477925231240266
Den 0.16265080640173415
Department 0.05670784875930159
Edge 0.533191370202825
Elle 0.02087875296914606
En 0.004422489645262224
Etim@@ 1
FL@@ 0.639723628472211
FS 0.6368178598593272
Gallery 0.20266430497974114
Gibson 0.44874683894815043
Glo@@ 0.41363613952854517
Goethe 0.6508563260889145
Greg 0.3854061003046359
Göttingen 0.46046344509892234
Harbor 0.373592732624771
Horiz@@ 0.5097026204674703
INE 0.8325554265115074
Independ@@ 0.34179176047799587
Jerusalem 0.24848967969400224
Jonas 0.6732406433452185
Josh 0.460243883238329
Kopen@@ 0.9222976193067389
Koz@@ 0.5790562362153341
Lancaster 0.5138984769082272
Marcel@@ 0.6151212858801011
Modern 0.18809703431547506
Mtw@@ 1
NFL 0.15020090986609108
Nikolai 0.7086583520553572
Noel 0.7889750446848707
Nur 0.33249931397181043
Oh 0.5318692400249315
Pens@@ 0.8021389190480204
Pf@@ 0.10203377943663014
Player 0.23968022750906226
Po 0.8269315349062991
Provincia 0.44448668475622327
Quer@@ 0.30334116862284227
Revolution 0.13859524510325374
Riz@@ 0.7660943348597706
Rosen@@ 0.4904764535303984
SR 0.13552140481013702
Sci@@ 0.43676630271391914
Scottish 0.11340647214666892
Sieg@@ 0.1476696473643612
Sky@@ 0.3315767542390451
Sta@@ 0.34957609412774054
Territ@@ 0.20417962917042037
Thor@@ 0.2055425547429163
Three 0.11367410379779935
Together 0.3388931861575159
Visual 0.6569043850309234
Works 0.18741014891818536
Years 0.33955806921315124
aber 0.02191296903399392
acruz 0.8243781033222642
act 0.041421372158333164
afric@@ 0.2313822443420281
amor@@ 0.30383328960296824
anca 0.6813748804359471
arc@@ 0.11409893393106688
atch@@ 0.35419915064269697
bad 0.16640067779290102
bom 0.96071197539761
bor 0.28141785033345706
chet 0.6363495758129768
cic@@ 0.27418024933176405
cois 0.547582767212227
cos@@ 0.1352613696679137
dağ 1
drama 0.10877838894404701
dul@@ 0.326984302353599
ebe@@ 0.9558452950423296
ec 0.255388166909239
einer 0.00861262263801813
embr@@ 0.17739877864727222
emon 0.9333774025118594
eren 0.03436150392326954
esty 0.4183595875927111
father 0.030321142663371083
friend 0.08400662199386201
gab@@ 0.3682207679862718
gai 1
giriki 1
gran@@ 0.15678552467348292
hen 0.21891655519502046
hiy@@ 1
host@@ 0.28428376838062425
hou@@ 0.6338583102984533
ication 0.2906682830426506
icum 0.5196231203688993
ih 1
ikon 0.6880440374331406
itali@@ 0.2618446841816361
its@@ 0.37904359324154735
ket 0.101813970048345
kre@@ 0.13878916607954012
lep@@ 0.7752531037452154
mine 0.13369836669083432
now 0.0220430045624827
ologies 0.3142267353826628
olu 1
ool 0.560885908887119
orch@@ 0.1540313898416236
otus 0.6601877836881164
over@@ 0.03311392370798876
ovic 0.7349318599389805
rat@@ 0.21600907411267412
rev@@ 0.10079816130994243
rig@@ 0.12783523363881336
sal 0.12647840288145976
sche 0.07502883040093866
sing 0.0592188811180742
than@@ 0.28188884519680957
thir@@ 0.13336017760302032
thor@@ 0.18006800859118569
toc@@ 0.5060028675969104
tries 0.16149318666479856
ucci 0.747252210020735
vai 0.2987727775291248
view 0.06679544920639952
w.@@ 1
wns 0.5809731970862202
yr 0.5079282347258818
zun@@ 1
án@@ 0.08708650526195082
ò 0.32683099851971564
öder@@ 0.4956297788311484
ĩ@@ 1
ığ 1
ış 0.35258680203068965
ɔ@@ 1
ի@@ 1
ל 1
ר 1
َّ@@ 0.6337142552293216
ّ@@ 0.3457377210665468
ܐ 1
1637 1
1680 0.8022523379511233
194@@ 0.22907481090195445
195@@ 0.9935962164337508
31.@@ 1
38.@@ 0.7703126092089023
64,@@ 1
911 1
Administration 0.14776331682086302
Audi@@ 0.22261138908327055
Bass 0.4540735269179776
CF@@ 0.3510290973229575
CW 0.7051926573901102
Catholic 0.07227807656056565
Compos@@ 0.4466793681583247
Conservation 0.33048763283921184
Construction 0.22747700568641221
Cri@@ 0.2470986418824303
Diam@@ 0.49917886425063385
Docum@@ 0.45566601633075676
Dragon 0.31467287137818284
Energy 0.22653662154074153
Fay@@ 0.669870472782506
Gerhard 0.4289130358003955
Gil 0.5774491559403031
Heaven 0.5276012395446181
Honda 0.4525683953725174
Johan 0.4899887910807316
Kepler 0.7968558438388791
Klein 0.36556260571651544
Kron@@ 0.32756244816880403
Labour 0.17565232719945983
Liz@@ 0.30649156828456886
Mans 0.4175593464553207
Min 0.8341242294664395
Most 0.07519922074445932
Moul@@ 0.6362050066105486
Nassau 0.45512537527028674
Nep@@ 0.6507498701018335
Olympic 0.1189547250921793
Ottoman 0.2206096891275726
Phar@@ 0.678407927014252
Phot@@ 0.28583210730246705
Produc@@ 0.18519900049124585
Race 0.28715670919949243
Rau@@ 0.3091657136875583
Revol@@ 0.19394283677301621
Richmond 0.24981906420738806
Roh@@ 0.17827237917424044
Saar@@ 0.3218990219796692
Saj@@ 0.7882525662502996
Salv@@ 0.4569066036963129
Scher@@ 0.636791756946026
Second 0.07226467624195736
Spring 0.24924448912004873
Tai 0.7599448797516254
Trail 0.3184084637877872
Tübingen 0.5766362159942181
UF@@ 0.6982042983965586
Universit@@ 0.3606902563597266
Vamp@@ 0.6339685504893016
Voy@@ 0.4828421014206131
Warsaw 0.39781795275654247
abaj@@ 1
aign 0.3526014733078729
ajo 0.3260773852561216
alog@@ 0.10456011377535636
aret 0.5245094234514408
arti@@ 0.1493836868705018
atl@@ 0.8039604503177646
ause 0.13776378237183007
banks 0.2331209212079573
bis 0.006932027520178054
camp@@ 0.09887828012676422
cell 0.12855275724439288
edan 0.7732951641899999
eleg@@ 0.10829306483402501
elop@@ 0.6151050492797212
fred 0.47093006423146166
für 0.004402601085372657
ged 0.08956565650703327
grade 0.09879541299012581
group 0.020087116295701077
haus 0.10269001740562986
ighton 0.33966642551480297
iner 0.16990007716715425
irus 0.7202839610176056
isson 0.3391515988506306
istic 0.07839744358076542
ivi@@ 0.3559093840368437
kat 1
level 0.03974639796994082
liber@@ 0.0872591503679452
loi 0.124662745359121
lé 0.36404819342746053
master 0.09474433161392917
nel 0.26534155184792574
net@@ 0.08432253117173723
nom 0.02906263227367335
oid 0.16659139254049404
omor@@ 0.46963051762800123
oran 1
orca 0.6322766849664239
pas 0.016226755391249542
pass@@ 0.0768849511038273
poem 0.1856343209975395
quez 0.38145387236755457
rel 0.25300202240521874
ror@@ 0.5876148221587727
sman 0.32043925925667877
sun 0.34126851250620205
tain@@ 0.08505677964550659
tepe 1
tero 0.25459594580806666
test 0.07525120484803151
toral 0.11698194498091154
tric@@ 0.1581105386937118
ularis 1
wers 0.11667244652415491
works 0.03169909279045402
zano 0.7502249837359272
zar 0.24563937321334087
Á@@ 0.1398882062128905
Étienne 0.3460676085993568
ē 1
ık@@ 0.2938359901768115
Π@@ 0.13413099465558273
س 0.1521526117780864
َ@@ 0.5301126894970427
木 0.369040485860694
本 0.1173625846899956
田@@ 0.22490272099264494
野 0.5015929590921705
001 0.6385483960117342
1609 1
1642 0.8948234800857596
1644 0.8928636361524306
1763 0.5526250031123241
1794 0.3327239630411381
400@@ 0.9220942909074208
45.@@ 1
95@@ 1
Aer@@ 0.17607086343421435
Alfredo 0.570675773143745
Anhalt 0.4588530268135899
Anim@@ 0.3230470753630892
Antar@@ 0.8259615444803969
Audi 0.7375817715485972
Bartol@@ 1
Bertr@@ 1
Bez@@ 0.3924600751734057
Brab@@ 0.5561432227003735
Brach@@ 0.7494767169032062
Bras@@ 0.3457647778535058
Bu 0.08707869697680705
CS 0.22289045899231674
Case 0.5048509816165947
Chic@@ 0.4390510369554465
Clau@@ 0.538898771559336
Committee 0.06459774024121041
Concer@@ 0.2113510162525195
Crown 0.22977588927761852
Dick 0.2852468160721196
Diplom@@ 0.34798095319975747
Division 0.031091187330144848
Dud@@ 0.43767825301589736
EP@@ 0.3787637309632921
Esc@@ 0.3040627069897935
Fif@@ 0.31687521145036895
Fire@@ 0.4751605449740712
GPS 0.7732189581680755
Guil@@ 0.37120636651118255
Gómez 0.4100076954311855
H2O 1
HMS 0.22868141686874588
HT@@ 0.5422312066753864
Hang@@ 0.4591431589414335
Henn@@ 0.4689561277672453
Hig@@ 0.6586014435368461
Inde@@ 0.40642919089197704
Index 0.4309411199878898
Ira@@ 0.40704859564283724
KZ 0.6606799957597739
Karnataka 0.4417470083051406
Lai 0.7071447392229764
Lao 0.9536948955824751
Lour@@ 0.7169631635565259
Luxembourg 0.332990973759236
Luz@@ 0.3705079426440941
Market 0.2922534069208141
Mont 0.2938908776321934
Much@@ 0.7876072308194763
Musical 0.30129502393406643
Myr@@ 0.4077056555228095
NH@@ 0.2778222615151664
Net 0.6659056062721596
Oly@@ 1
Osman 1
Ottawa 0.29982163209810075
Philipp@@ 0.6072434048729161
Polo 0.6936765219077857
Publishing 0.4572998274234351
Rally 0.5550671507265844
Reich@@ 0.09593094049667665
Rick 0.29698596828898804
Rob 0.373395512379152
Rocky 0.49097312649735897
Roll 0.4715924772363568
ST 0.3428618495694009
Sain@@ 0.5977305757136208
Schne@@ 0.315057842705033
Schw@@ 0.06744720488005562
Side 0.30353048306272623
SmackDown 0.7214597656131088
Source 0.3516940281041153
Spo@@ 0.3362775127477135
Statis@@ 0.27799177071908654
Stein@@ 0.09327094123142353
Tell 0.6417226216754214
Tex@@ 0.14878869030413072
Thai 0.33384253966534977
Tod 0.0899802748994823
Turn@@ 0.4274766571777292
UA 0.4853026488767362
UE@@ 0.7835174201998518
Univers@@ 0.5409940429052665
Urs@@ 0.5143155407451749
Viel@@ 0.2916079077726926
Viktor 0.6058817305712089
Villar@@ 0.7479327967962858
Vinc@@ 0.4373816728004029
Zagreb 0.45158535702089175
acker 0.22546623971111288
aen@@ 0.7803860871462589
akes 0.15549338613659758
aling 0.10747566490537687
ancer 0.18693355963852623
anco 0.49431535336255544
anges@@ 0.417199779716448
anny 0.5090425896176614
ases@@ 0.46765368159046466
aster 0.15533227355954787
asum@@ 0.7806482607964458
auto@@ 0.11310846158386961
d. 0.1979215029374383
digital 0.11294682465959115
dé 0.5249113610478676
eal 0.365593796800878
eas@@ 0.079704927816101
eim 0.35243013560534187
ellen 0.04149639201113452
ental 0.06562337050115931
entry 0.11835028257690527
erk@@ 0.07935596680133669
estan 0.5034399889692999
eux 0.041619249479449
eves 0.30460079347281294
funk 0.3652489999979095
gir 0.709563213963204
ground 0.0570124103374283
hay 0.06520279403796261
hos@@ 0.20728983684692862
ht 0.08919382823148705
iden@@ 0.17861390622904036
iler 0.09338676943396312
illas 0.16875418407845547
infr@@ 0.2697809888411625
inos 0.07804044335696703
irs 0.07037608616774792
itor 0.12715688395525365
ky@@ 0.3538254096945016
lama 0.4536837856001212
lap@@ 0.25539409270714636
lion 0.12996832075344547
luk 0.45061330174078396
matr@@ 0.22804180820698358
miner@@ 0.3488795887764549
olla 0.6852080717995697
omys 1
onidae 0.9033813906720709
orial 0.09328854058199813
osh 0.3951429468228923
people 0.014792174930193403
pin 0.28621301601077764
pith@@ 0.38823725407450055
plut@@ 0.9819462529947179
pup@@ 0.2987116098581695
py@@ 0.2699408246984469
qua 0.08652907031971419
return 0.05426402065043425
ros 0.23063339815454784
rus@@ 0.16326445014169585
same 0.01748914388462413
sau 0.05356465563306118
space 0.06284167091943577
stan@@ 0.2367403556780435
sula 0.5635890402829737
[...]
