the 153330736
, 143961830
. 127157997
of 84843626
and 73467407
in 65320069
&quot; 57075854
to 51129915
a 50353260
was 31681036
@-@ 28215936
The 25680845
is 24199135
) 21842243
( 21815566
on 21114489
for 20319936
as 20143453
by 17644150
with 17642440
&apos;s 15730555
at 14160993
that 14075220
an 12788008
from 12754559
ing 12152195
his 11207769
ed 11156752
In 10195014
he 9355291
were 8304395
it 7960086
which 7471490
or 7464583
are 7386399
He 6783224
be 6318161
also 6124390
; 6111639
had 6089932
s 6050672
y 5948928
: 5925151
– 5673399
has 5665825
first 5488686
es 5451266
its 5381243
one 5341102
ation 5249872
re@@ 5076343
It 4915315
their 4836792
who 4525757
her 4489763
not 4358187
but 4336136
two 4027352
have 4020441
ers 3930777
ate 3911443
al 3909079
this 3901416
ated 3869796
been 3777123
&apos; 3773976
er 3633678
S@@ 3530117
after 3448408
s@@ 3444469
time 3405969
A 3342466
all 3174501
they 3119463
other 3085526
into 3002726
un@@ 2968681
P@@ 2927389
she 2857414
e@@ 2812605
M@@ 2773400
B@@ 2724878
D@@ 2722262
more 2702153
in@@ 2687989
1 2669332
L@@ 2640051
up 2625425
T@@ 2625083
t 2616925
C@@ 2612031
% 2607027
over 2603364
On 2599290
G@@ 2550408
New 2547758
would 2534197
when 2528611
years 2527559
where 2516691
R@@ 2479631
out 2476853
W@@ 2455829
F@@ 2453414
/ 2452128
ted 2452073
ly 2438609
ts 2434038
de 2415319
This 2412673
age 2411085
during 2394560
year 2367947
new 2354640
season 2323139
only 2323023
N@@ 2314947
K@@ 2308373
ent 2298184
2 2296052
H@@ 2283272
f@@ 2277199
p@@ 2274382
between 2263050
used 2259709
A@@ 2257604
k 2236714
t@@ 2223601
three 2215702
en@@ 2214697
made 2197585
ations 2165780
him 2150543
later 2141876
then 2141185
w@@ 2139759
dis@@ 2130672
most 2112825
United 2108872
e 2104913
can 2102428
d@@ 2097563
d 2097049
ch@@ 2086292
&amp; 2085483
ally 2081064
known 2079693
such 2067841
part 2059211
ity 2047861
about 2047853
well 2043346
American 2037739
ar 2025136
under 2014653
became 1999807
team 1985424
University 1984465
h@@ 1979638
I 1970615
She 1965672
ic 1964572
b@@ 1942144
g@@ 1939950
born 1937829
ary 1935680
than 1926016
E@@ 1897604
ad@@ 1896455
als 1882666
th@@ 1873511
st@@ 1873023
3 1868217
including 1867589
ist 1859232
c 1848626
c@@ 1848555
being 1841382
film 1840538
there 1836659
n@@ 1830202
son 1807848
al@@ 1807552
as@@ 1805238
o@@ 1800447
able 1799744
some 1782148
man 1781488
second 1760170
through 1752221
V@@ 1748272
ous 1743596
sh@@ 1736728
against 1728918
an@@ 1725955
r@@ 1722352
el 1713038
el@@ 1709656
O@@ 1708587
ar@@ 1705631
J@@ 1705521
work 1692436
After 1690030
est 1687053
th 1666582
ting 1662765
k@@ 1661557
co@@ 1660494
while 1659310
before 1656148
de@@ 1653424
y@@ 1646629
ings 1645894
n 1639280
many 1638292
ans 1629266
family 1617081
et 1616275
ors 1615480
played 1614883
them 1610946
l@@ 1609365
until 1603361
us 1603011
end 1599141
4 1593125
no 1592835
World 1587913
both 1582117
le 1573741
i 1572625
people 1565596
on@@ 1564875
name 1551171
States 1548678
tr@@ 1543792
ine 1538747
album 1536603
or@@ 1528425
o 1521361
life 1519770
National 1511139
released 1502510
h 1497112
ter 1490704
ks 1483437
ex@@ 1477096
number 1461014
use 1460029
v@@ 1453196
series 1453075
ating 1447622
As 1442269
won 1441660
area 1434417
Ch@@ 1430423
may 1423657
am 1419713
four 1418053
called 1413130
school 1412161
ant 1399910
m 1397296
land 1395909
May 1391242
day 1389068
ton 1382462
j@@ 1382446
at@@ 1369668
se@@ 1369062
lo@@ 1367844
March 1363460
ance 1363272
am@@ 1362885
state 1362255
es@@ 1359212
September 1348712
January 1342098
5 1341215
er@@ 1323320
June 1322042
career 1318327
October 1316170
several 1313526
following 1310073
July 1308148
same 1308001
city 1307678
ates 1306015
early 1303542
I@@ 1302792
&apos;@@ 1292991
6 1291153
August 1286241
John 1286227
ical 1280770
School 1277133
April 1272613
way 1272501
South 1268247
line 1263996
game 1263916
10 1263452
en 1263134
found 1262804
ac@@ 1260709
amp 1258790
based 1258123
They 1257085
began 1243808
November 1241229
im@@ 1238931
these 1236125
tions 1231989
since 1231638
ve 1230634
will 1229242
ty 1229040
back 1227287
December 1225753
so 1222229
His 1218594
ment 1208283
led 1205951
ro@@ 1199945
place 1198230
located 1194650
p 1192904
group 1190025
County 1189154
it@@ 1179312
ch 1177420
named 1173675
held 1167553
former 1161359
ag@@ 1155006
der 1153320
very 1150821
ol@@ 1147960
is@@ 1146888
At 1146743
ons 1143206
took 1142629
ab@@ 1142580
War 1139744
con@@ 1139477
i@@ 1137911
ul@@ 1135088
York 1134886
$ 1132956
ents 1132324
town 1131646
b 1131299
a@@ 1131083
tion 1130697
government 1129584
Z@@ 1122341
u 1121636
now 1120263
Al@@ 1120137
per@@ 1119378
m@@ 1118993
7 1116075
member 1114220
ia 1113880
There 1113213
be@@ 1109337
State 1108453
inter@@ 1107222
po@@ 1106296
February 1105704
like 1104232
Sh@@ 1102007
high 1100771
- 1098594
League 1097458
British 1097267
each 1096797
ic@@ 1096758
se 1095668
City 1095266
pre@@ 1094594
population 1094437
li@@ 1090904
century 1090641
music 1090069
sp@@ 1086688
served 1082698
Y@@ 1081217
off 1078337
In@@ 1073063
built 1071143
U@@ 1069937
z@@ 1069183
company 1068510
2010 1067788
station 1066595
le@@ 1065278
any 1063894
’ 1060132
ely 1059921
em@@ 1059475
8 1054731
side 1052887
ti@@ 1051035
ap@@ 1048830
song 1048659
ence 1046010
However 1039683
l 1036058
received 1035671
Re@@ 1035575
home 1031826
did 1030562
around 1027541
te 1025763
own 1024386
ur@@ 1024249
for@@ 1020796
set 1019895
Mar@@ 1018126
ship 1011945
ph@@ 1010673
could 1008615
2011 1007241
North 1006914
men 1005486
due 998712
20 998298
12 997129
res@@ 995311
ed@@ 993897
ism 993199
field 987339
ver@@ 985398
et@@ 985373
long 981988
9 981272
ess 980063
species 979518
les 975415
di@@ 972596
single 970296
2012 968352
18 968051
system 967714
um 965607
left 964949
local 962993
om@@ 962839
bo@@ 962574
public 961860
along 959055
ets 957758
ties 956530
History 955761
band 954352
Con@@ 954279
During 953708
g 953238
died 952849
ley 952194
play 951065
ec@@ 950635
2014 950508
published 947769
members 945000
five 943530
ad 941828
par@@ 939102
ure 938280
building 937997
u@@ 936795
ot@@ 936179
2013 935764
ative 935457
2016 934368
Ar@@ 934340
club 933328
gr@@ 931976
2015 931737
said 928255
include 927973
sub@@ 925128
final 923378
within 923066
ics 922652
x 921270
oc@@ 920020
15 919608
form 917794
ass@@ 909253
2008 908749
fe@@ 907977
2009 907414
large 903515
because 902582
per 902385
down 900557
world 893738
pl@@ 892697
col@@ 891160
Th@@ 887075
2018 886135
re 885496
id@@ 885299
included 884585
2017 882032
tic 881910
old 881666
third 879604
village 879259
ters 872502
mar@@ 867222
to@@ 866447
2019 864283
small 863294
For 858803
water 858719
il@@ 855591
election 853819
An@@ 853796
qu@@ 848826
2007 847614
College 847356
Co@@ 846428
French 845542
show 843068
king 843039
national 841910
ology 841487
children 841319
2006 839949
11 837030
death 835366
last 830291
do 829947
ir@@ 828071
football 827846
Mc@@ 825541
father 825044
if 824602
Le@@ 821877
main 821649
30 819821
moved 819655
ies 818249
&#93; 817854
&#91; 817208
house 815560
English 815497
ay 813594
2020 813354
West 812900
mo@@ 811980
those 809375
br@@ 808894
under@@ 806929
history 803878
million 803351
op@@ 802052
16 801857
still 801789
te@@ 801339
District 799437
women 797679
book 796207
war 791731
German 791340
ie 790312
com@@ 789526
B 787896
our 786367
another 786140
II 784082
14 783672
ite 783436
ri@@ 783389
using 782107
Car@@ 781732
service 780171
ian 780013
sur@@ 779650
C 779588
trans@@ 777335
original 776310
— 773734
he@@ 772783
major 772635
order 772508
late 769823
ants 769526
id 768526
district 767556
International 766706
what 766565
19 766141
often 763842
ator 763552
near 758724
River 758203
U.S. 756660
w 756474
London 756057
went 755616
dr@@ 755401
man@@ 754622
north 752948
When 751919
25 749473
different 747781
13 746869
bi@@ 745171
less 744730
works 744472
established 741503
dec@@ 741186
ens 739278
pr@@ 736837
pe@@ 736064
games 735875
Tr@@ 734464
country 734055
announced 733840
again 732572
top 732364
best 732156
All 731661
ns 729024
str@@ 728699
House 728216
head 726619
we@@ 726560
ise 725967
St@@ 725873
ments 725560
ge 724932
record 724876
out@@ 724699
ard 724263
ves 722352
even 722302
Cup 722138
17 720806
south 720074
co 719824
Bar@@ 719290
od@@ 717347
started 717081
ying 716601
st 715659
US 714898
six 713708
over@@ 712559
title 710454
role 710181
ak@@ 708823
One 708103
west 707589
Br@@ 706039
joined 706022
red 706006
win 705819
cr@@ 703076
ited 701581
law 701351
period 698628
_ 696802
came 695729
Col@@ 695196
car@@ 694246
worked 693741
ak 692725
os@@ 691886
just 690817
24 686799
ne@@ 685286
much 684537
support 684134
bl@@ 683706
els 683109
os 682919
ement 682114
war@@ 681956
married 681139
av@@ 680763
ists 678178
produced 678125
mon@@ 677377
Ex@@ 675960
among 675530
position 674680
ent@@ 673200
non 672895
x@@ 672518
2005 670683
power 666052
make 665665
ins 665095
la 663495
art 662591
2021 661906
O 661355
tri@@ 660364
aw@@ 660226
England 659993
4@@ 659743
wrote 658636
De@@ 658438
development 657836
su@@ 657648
become 656416
player 655984
having 655769
described 655707
given 655628
ning 655143
si@@ 653421
ect 652951
21 652934
total 652563
5@@ 650364
general 649692
next 648495
community 647961
These 647185
continued 646735
low 646731
European 646063
production 645723
returned 644881
me@@ 644810
ni@@ 644638
ong 642625
Park 642337
various 642226
ob@@ 641115
ou@@ 640420
Par@@ 640045
written 639037
General 638358
right 638233
end@@ 637949
political 636801
Be@@ 636575
Com@@ 636444
point 636341
East 636325
ner 635334
formed 634392
elected 634319
created 633705
William 633510
2000 633063
um@@ 632862
ana 632177
ish 631449
From 630719
up@@ 630618
ended 630329
ah 628138
ing@@ 626227
tive 626224
half 625586
2004 622954
ter@@ 621980
sion 621535
so@@ 620745
il 618691
round 618389
take 616021
site 615291
Church 615275
times 610765
Party 609811
road 608833
ory 608399
India 608397
Australia 607012
ay@@ 606924
ling 605970
ness 605764
0 605578
ars 604952
days 604725
formula 604369
level 603385
however 602401
church 602393
By 602291
founded 601426
ber@@ 601196
= 600720
! 600640
ut@@ 599479
opened 599431
Council 599173
ens@@ 597726
ev@@ 597722
22 597234
ats 595263
few 594821
Army 594454
According 594348
France 594212
bre@@ 593623
High 593535
ati@@ 593315
S 593305
students 593184
Street 592819
cre@@ 591829
ey 591133
ding 590578
100 589775
ell 586786
ability 585920
version 585260
ences 584735
Cor@@ 584145
ler 584073
ce 583904
no@@ 583249
military 582788
ol 582393
match 581354
ford 580636
den 579750
James 579566
ending 579097
signed 579023
Division 578057
King 577431
party 577396
region 577074
R 576971
appeared 576063
George 576056
appointed 575811
without 575544
ick 574823
east 574817
ore 574300
ho@@ 573511
rec@@ 572871
L 572315
D 572078
ess@@ 570772
act 570531
ale 570106
San 569402
6@@ 567660
event 566660
TV 566081
tur@@ 565604
Per@@ 565303
23 565215
television 565076
making 564911
St. 564825
fin@@ 564155
run 562525
lost 561837
z 560356
considered 560012
reg@@ 559265
together 558778
present 558554
El@@ 558416
President 557882
professional 557624
recorded 557340
California 557325
short 556074
ci@@ 555487
rel@@ 555477
ath@@ 555135
her@@ 554058
ice 553747
sol@@ 553203
sive 552900
ra@@ 552855
ently 552138
Se@@ 552112
cl@@ 551364
T 551214
full 550946
America 550498
wor@@ 549951
case 549884
da 549778
Am@@ 549397
international 548657
ach@@ 548139
working 547975
Canada 547502
ological 547467
r 546768
language 546357
Mor@@ 545916
ses 545019
education 544483
debut 543939
style 543605
ge@@ 543376
Pr@@ 542708
ages 541882
research 541646
ai 541597
wing 541549
us@@ 541249
2003 541113
ps 540525
&apos;t 540155
def@@ 539406
air@@ 539302
un 538815
story 537535
program 536469
class 535910
3@@ 535610
Ro@@ 534849
ry 533628
des@@ 533240
ow@@ 532952
action 532124
tional 531801
7@@ 530789
Association 530412
ann@@ 530192
min@@ 530078
further 529545
mer@@ 529351
wife 529291
9@@ 529045
With 528475
ill@@ 528114
developed 527940
28 527344
bar@@ 526157
8@@ 525265
sc@@ 523952
body 523463
Mon@@ 522900
air 522836
important 522130
ds 521781
Early 521687
Union 521606
ten 521170
playing 521039
2002 520569
Ne@@ 520412
Man@@ 518612
27 518535
term 518469
points 517928
ang@@ 516379
areas 516162
26 514919
While 514877
uses 513578
der@@ 513200
eg@@ 513182
ements 512785
release 512674
teams 511954
Gu@@ 510825
league 510799
video 510388
ished 509952
result 509863
ish@@ 509846
2001 509826
lead 509193
away 509135
ina 508942
Q@@ 508883
Royal 508832
ig@@ 508441
tor 508027
cas@@ 507758
He@@ 506221
Indian 505977
ash@@ 505958
business 505420
office 505233
Australian 505029
addition 504664
Qu@@ 503333
Me@@ 503036
ion 502440
tical 502425
pro@@ 502311
har@@ 502204
ots 501717
ten@@ 501503
Gr@@ 501430
“ 501247
ture 501192
control 501185
ved 499783
” 499640
we 499270
af@@ 499194
Bo@@ 499024
director 497433
every 497129
ot 496274
light 495894
ire 494950
ines 494127
tor@@ 493598
lies 493567
unc@@ 492739
popular 492300
f 491858
ful 491745
although 491485
average 491389
common 491056
na 490835
ke 490809
similar 490675
Award 490078
ering 489733
Championship 489625
Club 489220
list 488872
P 488742
others 488556
mother 488355
Un@@ 487688
example 486759
prot@@ 486643
design 486576
social 485300
Germany 485164
ese 484812
F 484354
Bel@@ 483844
ade 483805
ever 483163
M 482509
gen@@ 482405
ma 482343
First 481730
put 481430
pos@@ 481149
taken 480116
across 478869
ised 478762
.@@ 478363
fr@@ 478174
himself 477619
daughter 477116
vi@@ 476890
Music 476403
race 476257
pur@@ 475840
president 475558
project 474879
live 474236
tors 473460
vers 473398
finished 473396
29 471651
events 471586
era 471581
David 471518
China 470488
services 469849
Road 469723
Str@@ 469126
Company 468933
ke@@ 468922
living 468345
du@@ 467401
Di@@ 466911
... 466049
gt 466028
ra 465696
go 464038
do@@ 463305
sold 463119
ya 462838
sed 462537
gu@@ 462323
inc@@ 461658
though 460201
ain 460101
acy 459485
the@@ 459471
Mo@@ 459317
forms 459231
ant@@ 458799
lt 458424
X@@ 458202
Central 457340
Court 455997
ects 455849
Some 454685
how 454592
Group 454264
1999 453215
og@@ 453185
U 452966
ell@@ 452824
sec@@ 452661
E 452614
Europe 452597
designed 452468
stage 452327
Sch@@ 452262
ik@@ 452129
0s 451794
months 451610
free 449634
Ad@@ 449219
followed 448989
ack@@ 448859
available 448748
gave 448554
Cr@@ 448289
des 448165
ear@@ 447764
ne 447344
Thomas 447032
ka 446631
Lo@@ 446253
ake 446063
never 445990
completed 444415
ile 443404
Japanese 443341
cap@@ 443176
tics 442606
wh@@ 442575
and@@ 442183
construction 441717
Robert 441642
active 441524
performed 440964
ected 440712
sent 440346
open 439786
Ac@@ 439562
ov@@ 439406
ized 439315
Japan 438894
official 438824
fl@@ 438742
coach 438702
once 438580
cur@@ 438472
white 438336
track 438193
und@@ 438088
remained 438084
pi@@ 437897
gi@@ 437678
ular 436961
current 436883
Air 436436
see 436243
largest 435919
cor@@ 435530
seven 435526
character 435467
ru@@ 434982
ville 434784
ang 434590
Har@@ 434222
young 433682
reported 433591
UK 433560
im 433496
modern 433256
Washington 433246
An 432248
Charles 431953
leading 431771
ach 431196
Her 430619
should 430285
Center 430044
Hall 429788
ically 429029
est@@ 428948
eh@@ 427772
originally 427596
Western 427467
ta 427443
songs 426634
wood 426345
hi@@ 426271
Bur@@ 426172
ep@@ 426125
row 425774
players 424842
For@@ 424785
Other 424558
tic@@ 424424
em 424400
eb@@ 424183
board 424031
1998 424025
acc@@ 423381
great 422556
Department 422349
seen 421963
process 421576
v 421499
ari@@ 421305
ests 420422
directed 420408
Russian 420024
return 419778
Paul 419594
Institute 419426
get 419257
performance 419187
refer 419183
ran@@ 419052
brother 419001
lower 418919
western 418731
bu@@ 418595
groups 418340
currently 418262
study 418139
owned 417780
enti@@ 417770
Although 417618
Sp@@ 417367
Since 417359
ered 417048
post 417033
alist 417004
features 416573
bur@@ 415886
ker 415762
includes 415743
ir 415131
ick@@ 413701
change 413559
Chinese 413553
eight 413468
via 413251
throughout 412781
Ab@@ 412330
50 412242
ain@@ 412058
training 411933
listed 411594
Canadian 411267
Island 410845
31 410753
front 410156
placed 409881
ight 409239
Society 408969
does 408789
ational 408326
help 408229
1996 408074
forces 407633
featured 406907
arr@@ 406685
aged 406408
gro@@ 406155
den@@ 405993
writer 405959
sw@@ 405323
awarded 405154
G 405090
African 404377
Pro@@ 404371
atic 403604
ains 403355
successful 403232
involved 403069
leg@@ 402905
usually 402770
sing 402606
1997 402333
pres@@ 402215
Or@@ 402070
come 401742
En@@ 401205
range 400536
information 399748
stated 399716
eventually 399559
episode 398851
schools 398243
ned 398147
Minister 397560
X 397217
shi@@ 396910
igh@@ 396834
court 396654
good 396551
ched 396213
ored 395865
fire 395113
Its 394285
ee 393146
1st 393137
degree 392997
human 392266
you 391444
ground 391273
Academy 391217
central 391170
added 391168
countries 390481
saw 390450
land@@ 390389
dem@@ 389873
force 388759
Act 388509
ms 387591
2@@ 387553
ws 387474
replaced 387239
close 386907
aries 386738
black 385871
families 385547
ously 385544
port 385380
Women 385310
ren@@ 384902
winning 384883
arch@@ 384354
car 384204
ency 384069
ani 383621
hand@@ 383414
ators 383369
media 383351
competition 382909
fourth 382852
related 382597
ong@@ 382129
Mac@@ 382034
wide 381902
private 381895
Africa 381616
ality 381438
special 381394
either 381250
ective 381229
So@@ 380992
ches 380878
As@@ 380815
ends 380670
1995 380622
parts 379683
ays 379576
emb@@ 379250
Spanish 378951
previous 378574
provided 378255
police 377806
ace 377709
14@@ 377561
40 376941
1992 376479
det@@ 376122
att@@ 376038
college 375458
ble 375330
center 375195
reached 374839
killed 374705
Great 374680
mis@@ 374575
1994 374549
flo@@ 374502
Ma@@ 374471
radio 374398
km 374345
Lake 373377
ories 373291
must 372461
ys 372147
ft 371790
least 371624
K 371549
ances 371496
To 371322
List 371179
Italian 370974
Michael 370876
Po@@ 369834
ok@@ 369229
states 368913
Best 368586
person 368519
above 367962
type 367656
rights 367624
plays 367373
writing 367252
Henry 367096
iz@@ 366899
attended 366556
ships 366427
division 366400
ones 366018
scored 366017
ked 365979
gener@@ 365296
aircraft 365277
section 365239
cat@@ 364965
Football 364873
introduced 364422
Republic 364301
upon 363767
older 363360
not@@ 363359
N 363235
15@@ 363209
ber 363179
fac@@ 362935
ders 362929
rock 362376
ae 362317
attack 362237
loc@@ 361569
ur 361520
ded 361437
space 361068
changed 360771
room 360623
tro@@ 360307
try 360254
railway 360001
ce@@ 359830
campaign 359659
decided 359351
St 359190
az@@ 358951
fi@@ 358830
river 358712
low@@ 358135
ah@@ 357878
contract 357785
mid 357776
pen@@ 357698
indic@@ 357186
ist@@ 356832
Awards 356371
shows 356135
White 355957
Career 355883
night 355216
hol@@ 355200
size 355022
books 354517
me 354486
ack 354112
ast@@ 353885
ath 353829
female 353315
ue 353266
census 353125
Ireland 353024
Min@@ 353013
1990 352844
mat@@ 352744
1993 352579
V 351651
films 351241
1991 350586
defeated 350279
ast 350068
ase 349895
ney 349837
Hol@@ 349538
vari@@ 349309
Museum 349293
ual 349207
Saint 349103
coun@@ 348883
trav@@ 348822
off@@ 348815
ste@@ 348557
Texas 348322
market 348193
ides 348112
success 347915
previously 347582
goal 347319
tour@@ 347061
ways 346951
Inter@@ 346943
ster 346917
La 346745
our@@ 346609
ran 346573
model 346538
represented 346347
key 346249
Ber@@ 345931
start 345857
uni@@ 345386
Nor@@ 345102
Kingdom 345061
rather 344845
Following 344592
instead 344514
tournament 344384
Education 344345
Christian 344271
met 343935
buildings 343850
Two 343765
comp@@ 343698
equ@@ 343483
studio 342988
ino 342920
ali@@ 342399
del@@ 342191
regular 342135
sk@@ 342089
organization 341524
ill 341508
ples 341261
whose 341059
provide 340498
Black 340363
ges 339879
10@@ 339580
la@@ 339509
ection 339440
move 339303
ids 339245
behind 338451
Peter 338417
lived 337987
ala 337871
Mal@@ 337867
view 337739
taking 337641
mission 337126
week 336894
brought 336716
almost 336705
ano 336601
health 336513
Roman 336470
stone 336153
sch@@ 336076
Government 336073
self 335420
Art 335175
closed 335004
Los 334971
novel 334787
A. 334305
lines 334205
ma@@ 334145
cast 334121
ained 333948
ther@@ 333837
om 333301
data 333111
ser@@ 333045
tu@@ 332613
Paris 332504
Grand 332028
enc@@ 331998
ere 331652
spe@@ 331461
Mer@@ 331409
au@@ 331193
yl@@ 331129
movement 331089
fied 330445
bel@@ 330411
possible 329876
Committee 329602
Catholic 329145
Later 328681
lin@@ 328652
units 328619
base 328049
ov 327923
soon 327907
approximately 327793
Championships 327713
significant 327446
Soviet 327321
Mary 327306
wn 327142
date 326723
oper@@ 326652
outside 326456
ils 326172
structure 325815
concer@@ 325364
Zealand 325081
Ver@@ 324940
1989 324937
Rec@@ 324744
contr@@ 324671
Reg@@ 324308
allowed 324255
Cal@@ 323658
hon@@ 323632
northern 323502
Smith 323152
ata 322833
primary 322675
Res@@ 322441
especially 322377
ands 322238
industry 322136
kh@@ 321732
runs 321600
ara 321541
activ@@ 321457
Life 321422
fo@@ 320658
elled 320524
Go@@ 320408
too 320267
interest 320175
ving 320004
Ho@@ 319450
southern 319349
Red 319259
cover 318646
disambiguation 317748
dev@@ 316965
lat@@ 316913
Sal@@ 316436
course 316366
forced 316236
summer 316182
word 316140
rest 316054
island 315667
Su@@ 315611
W 315608
ette 315226
1988 315175
ward 315154
Richard 315000
woman 314962
amp@@ 314690
expl@@ 314441
suff@@ 314328
beginning 314061
fall 314046
Kar@@ 314037
&#124; 314005
ek 313826
Olympics 313791
bed 313638
sig@@ 313612
spent 313553
sho@@ 313538
No. 312797
capital 312587
operation 312344
ha 312261
artist 312066
leader 311981
Bay 311848
systems 311716
inn@@ 311627
ard@@ 311547
ities 311479
itself 311197
Arts 310804
Virginia 310767
highest 310230
studies 310131
hit 310118
face 309807
pat@@ 309506
Summer 309442
Most 309202
Festival 309018
little 308927
Chicago 308888
whom 308696
ind@@ 308640
sea 308510
location 308053
ica 307991
towards 307318
sometimes 306865
Her@@ 306786
Bal@@ 306592
au 306588
ices 306453
sions 305957
Bre@@ 305819
Second 305505
cle@@ 305503
int@@ 305500
ew@@ 305389
traditional 305312
pe 305257
independent 305041
ards 304998
county 304815
ods 304298
mas@@ 304126
Records 304122
park 304037
plant 303663
gre@@ 303551
ols 303473
higher 303406
Cur@@ 303255
child 303193
opening 303098
magazine 302879
Wor@@ 302718
far 302675
length 302548
istic 302517
operations 302485
hand 302420
loss 302307
generally 301984
any@@ 301778
appearance 301692
bridge 301676
Ser@@ 301600
ver 301244
fre@@ 301213
running 301168
studied 301132
if@@ 301006
Force 300806
seat 300622
Film 300324
route 300315
char@@ 300108
tim@@ 300099
according 300027
noted 299472
cu@@ 299380
culture 299232
army 299105
strong 299080
launched 299060
esses 299048
ography 298900
thus 298892
network 298527
natural 298424
dy 297980
# 297967
wer 297835
Pe@@ 297789
1987 297522
sa@@ 297473
entered 297319
collection 297168
Bi@@ 297066
future 296633
Italy 296451
bor@@ 296372
go@@ 296158
real 295824
below 295624
ith 295583
J. 295574
ap 295533
cer@@ 295486
going 295312
required 295264
money 295240
ution 294805
friend 294721
genus 294703
issues 294624
You 294502
bat@@ 294412
Games 294391
ington 294356
di 294083
hel@@ 294026
alism 294020
ger 293839
uc@@ 293604
hu@@ 293426
ested 293381
Navy 293196
Mexico 293054
1986 292782
teen 292614
month 292495
Hill 292474
We@@ 292471
ams 292451
let 292329
super@@ 292194
ā@@ 292093
ins@@ 291407
mer 291339
spec@@ 290987
anc@@ 290937
cont@@ 290866
means 290712
practice 290639
all@@ 290578
tour 290389
ock 290162
hor@@ 290153
Bas@@ 289959
Battle 289942
Many 289938
matches 289873
1984 289426
ys@@ 289094
operated 288961
care 288798
hom@@ 288498
sum@@ 288383
earlier 288002
senior 287994
Northern 287928
Angeles 287833
prepar@@ 287664
Pres@@ 287629
changes 287588
Wil@@ 287476
fer@@ 287324
centre 287162
anti 287140
Cas@@ 287066
Fin@@ 287020
lands 286859
property 286696
Ste@@ 286594
passed 286480
ades 286466
invol@@ 286426
Pre@@ 286356
economic 286322
complete 286280
results 286062
wo@@ 286051
eng@@ 285976
pol@@ 285924
cases 285812
can@@ 285673
gold 285316
If 285160
1980 285058
unds 285001
Sc@@ 284788
ici@@ 284764
anti@@ 284601
companies 284297
1985 284154
increased 283774
individual 283712
singer 283276
Te@@ 283268
Russia 283172
pu@@ 283134
associated 282969
selected 282827
victory 282659
becoming 282631
numerous 282492
ash 282052
ching 281808
tw@@ 281605
speci@@ 281524
Pi@@ 281387
majority 281226
already 281170
Day 280714
Ag@@ 280494
Tri@@ 280410
limited 280251
ung@@ 280194
ison 280149
bas@@ 280017
decision 279879
Greek 279533
lers 279425
author 279347
iled 279268
conn@@ 279006
manager 278882
contains 278709
Joseph 278685
find 278493
competed 278285
spo@@ 277956
activities 277923
Bro@@ 277680
ately 277576
0.@@ 277439
bs 277296
prom@@ 277294
ump@@ 276611
initially 276543
caused 276306
2nd 276242
ff@@ 276231
ayed 275989
Pol@@ 275940
serving 275816
commercial 275801
ass 275780
shot 275751
weight 275599
award 275522
dri@@ 275522
cros@@ 275467
love 275196
Sur@@ 275163
unit 275119
don@@ 275006
income 274662
ita 274302
ans@@ 274211
bul@@ 274209
food 274200
issue 274194
dra@@ 274164
Ap@@ 274162
Cre@@ 273991
terms 273956
annual 273638
Char@@ 273454
student 273369
Board 273255
actions 273182
gs 273011
13@@ 272937
supported 272741
certain 272481
Irish 272143
1983 272022
ane 271974
aring 271909
coming 271868
personal 271594
trade 271586
nine 271365
access 271300
actor 271146
mostly 271048
retired 271047
staff 270893
cher 270786
Wales 270682
artists 270667
Florida 270600
rate 270552
eas@@ 270528
Sir 270396
-@@ 270118
eastern 270047
Route 270019
ising 269883
goals 269834
Service 269738
additional 269726
celebr@@ 269502
+ 269469
ini 269434
standard 269289
vic@@ 269211
better 269035
elling 269006
200 268972
cons@@ 268909
ene 268810
inf@@ 268755
ari 268472
characters 268386
FC 268358
Li@@ 268278
Pacific 268254
chief 268185
municipality 267972
pri@@ 267791
university 267590
Research 267491
elections 267291
1982 267271
conf@@ 267213
particularly 267184
thought 266619
onal 266611
past 266423
aj@@ 266327
yn@@ 266193
fact 266055
acts 266050
ki 265683
sen@@ 265330
H 265323
aches 265297
bro@@ 265249
ring 265158
Southern 265058
my 264974
husband 264761
Assembly 264613
edition 264419
Ger@@ 264285
Arch@@ 264234
test 264197
claimed 264189
batt@@ 263739
religious 263629
mi@@ 263347
aging 262984
officer 262654
Valley 262549
1979 262444
plan 262118
management 262095
entire 261822
parents 261774
ged 261509
character@@ 261460
famous 261286
1972 261177
govern@@ 261071
elec@@ 260990
od 260963
ean 260850
create 260463
subsequently 260322
wer@@ 260265
que 260231
Year 260051
Ri@@ 259951
Congress 259942
Dis@@ 259923
amb@@ 259834
Trans@@ 259813
Cl@@ 259770
politician 259707
une 259564
Louis 259520
give 259454
ises 259362
That 259239
Public 259135
oth@@ 259064
Ge@@ 258975
remains 258820
championship 258807
Parliament 258544
feature 258511
Al 258509
evidence 258484
gl@@ 258477
Ros@@ 258280
medical 258201
engine 258192
legal 258006
lu@@ 257956
Sim@@ 257916
Mus@@ 257764
12@@ 257470
wards 257373
ena 257327
tures 257150
battle 257067
exp@@ 257010
? 256955
cop@@ 256848
continu@@ 256738
programs 256671
status 256633
grand@@ 256587
earned 256527
relationship 256506
science 256449
Spain 256444
hours 256434
raised 256396
ok 256013
musical 255976
turn 255951
eding 255925
Province 255802
names 255668
ony 255620
clos@@ 255585
Im@@ 255532
500 255344
today 255166
ek@@ 255147
ied 254930
65 254914
ken 254769
sa 254700
Jewish 254579
ha@@ 254157
ail 254009
aff@@ 253930
report 253777
Old 253702
inv@@ 253674
Can@@ 253628
19th 253265
1976 253257
Commission 253225
score 253048
edly 253023
sons 252931
ti 252924
sports 252919
1981 252911
ery 252835
ba@@ 252833
ts@@ 252732
Law 252699
ple@@ 252547
tel@@ 252524
berg 252491
ta@@ 252477
Wal@@ 252344
ome 252336
Fr@@ 252292
At@@ 252141
door 252093
sister 252084
1974 252049
allow 251947
particular 251933
Their 251901
helped 251806
gradu@@ 251750
1945 251695
Dr@@ 251679
got 251634
Is@@ 251504
Democratic 251452
alized 251359
requ@@ 251218
standing 251136
referred 251010
star 250968
weeks 250804
Times 250783
presented 250586
Kh@@ 250518
manufactur@@ 250503
inal 250458
ingly 250429
tar@@ 250419
back@@ 250260
1970 250066
pul@@ 250061
ym@@ 250057
meeting 250038
Martin 249844
larger 249831
thre@@ 249493
ishing 249460
1968 249435
refer@@ 249326
60 249088
Science 249059
ao 249048
ball 249043
Railway 249015
nor@@ 248757
material 248750
cri@@ 248716
1975 248700
asked 248635
shown 248471
energy 248442
turned 248378
D. 248360
believed 248162
ads 248160
table 248151
1978 248150
likely 248101
response 248092
ye 247970
comm@@ 247819
complex 247669
Despite 247586
Rom@@ 247482
Queen 247461
ama 247426
minutes 247376
Empire 247206
hip 247112
head@@ 246956
failed 246456
ky 246315
seasons 246254
ea 246204
leaving 246032
Mat@@ 246014
sett@@ 245957
vie@@ 245818
bers 245817
fa@@ 245813
serve 245774
longer 245758
deal 245742
stations 245718
Green 245674
Sub@@ 245576
basketball 245485
competi@@ 245177
ole 245122
specific 244953
Pen@@ 244928
aired 244285
composed 244233
ella 244150
ening 243962
acquired 243954
ential 243647
Line 243533
yr@@ 243519
People 243327
ives 243193
Personal 243128
surface 243069
Lord 243056
increase 243019
rap@@ 242994
carried 242826
Bor@@ 242825
Er@@ 242806
takes 242557
III 242508
ven@@ 242283
tain@@ 242263
sal@@ 242034
issued 242026
Eastern 241981
policy 241926
eth@@ 241840
covered 241762
eds 241720
houses 241719
But 241625
stor@@ 241540
footballer 241432
multiple 241402
financial 241362
fight 241357
themselves 241327
thr@@ 241241
constructed 241233
ligh@@ 241059
Big 240920
eter 240837
offered 240820
1973 240806
theory 240776
cost 240762
overall 240745
1977 240686
Conference 240442
sel@@ 240436
graduated 240355
mainly 240216
Town 240207
need 240015
regional 240013
federal 239922
Chief 239829
Series 239765
lic@@ 239691
Sw@@ 239619
é 239613
q@@ 239536
latter 239529
remaining 239514
tre@@ 239496
dic@@ 239448
ign@@ 239386
cent@@ 239363
promoted 239356
mor@@ 239266
native 239233
starting 238862
BC 238696
arian 238693
estr@@ 238669
Edward 238628
Pl@@ 238583
oph@@ 238477
Sol@@ 238322
vote 238176
mot@@ 238170
chap@@ 237869
ial 237789
ze 237731
za 237609
Radio 237462
45 237370
Station 237279
New@@ 237239
acted 237193
Vol@@ 237147
Bl@@ 237097
Carolina 237084
1971 236999
source 236903
subject 236883
proposed 236626
ites 236590
male 236073
direct 236043
ab 236015
prec@@ 235896
mit 235807
á@@ 235798
troops 235749
Do@@ 235735
moun@@ 235638
down@@ 235439
1969 234994
tan@@ 234992
Star 234957
lar@@ 234940
consists 234740
effect 234720
16@@ 234611
medal 234559
Britain 234141
ca 233929
variety 233899
Poland 233845
cities 233816
marriage 233804
individuals 233774
separate 233353
ac 233193
master 233096
cultural 233088
amm@@ 232997
Fl@@ 232960
tain 232907
appears 232741
break 232643
por@@ 232617
1980s 232384
struc@@ 232356
train 232305
io 232140
Dutch 231896
appearances 231896
command 231784
with@@ 231683
moving 231500
Lu@@ 231343
recording 231249
Team 231231
ose 230711
acting 230600
Ph@@ 230593
experience 230575
und 230537
department 230428
cli@@ 230366
press 230302
1967 230207
Brown 230174
ust 230145
Lee 230089
civil 230008
speed 229976
middle 229924
lim@@ 229888
prior 229864
atr@@ 229767
tracks 229747
aves 229731
ai@@ 229683
worth 229659
influence 229635
square 229588
done 229496
society 229433
C. 229234
meaning 229230
pic@@ 228723
lot 228689
tal@@ 228683
To@@ 228514
historical 228483
Kr@@ 228454
always 228323
titled 228313
Bank 228293
producer 228259
fifth 227982
directly 227967
eme 227892
professor 227657
iti@@ 227617
divided 227464
broadcast 227165
Biography 227106
despite 226931
ured 226668
discovered 226280
20th 226250
Val@@ 226200
Man 226181
ori@@ 225927
tion@@ 225924
prison@@ 225743
foreign 225721
1@@ 225693
Fre@@ 225676
attempt 225650
shire 225618
nam@@ 225607
vo@@ 225483
sit@@ 225459
conditions 225361
direc@@ 225306
uk@@ 225161
ecting 225142
£ 225121
soci@@ 225082
1964 225057
Open 225024
sequ@@ 224845
quality 224760
responsible 224717
pas@@ 224654
provides 224553
managed 224522
bank 224501
Both 224337
cro@@ 224337
Mag@@ 224318
Prince 224244
stand 223963
arrived 223928
ty@@ 223879
Dr. 223704
records 223594
Mad@@ 223566
US@@ 223469
ition 223324
Creek 223296
administrative 223082
pped 222908
Love 222711
news 222670
Another 222643
wanted 222583
Asian 222422
Under 222296
sound 222076
spir@@ 222017
0@@ 221935
nearly 221852
1970s 221732
Pan@@ 221626
finally 221438
hold 221257
wal@@ 221135
We 221123
ham 221027
ills 220962
recent 220837
ili@@ 220825
oned 220727
2022 220205
nearby 220144
Scotland 220059
hood 220030
verse 219932
Pennsylvania 219854
border 219830
technology 219795
Senate 219742
ff 219627
don 219626
Gal@@ 219488
antly 219358
extended 219253
trial 219221
transferred 219068
Theatre 218997
cut 218890
ep 218826
movie 218815
Hon@@ 218764
plans 218675
les@@ 218649
Gar@@ 218533
organized 218419
mechan@@ 218312
essed 218298
told 218236
Des@@ 218125
Mas@@ 218111
problems 218038
esis 217787
comes 217749
depend@@ 217742
Hor@@ 217641
ales 217590
1965 217536
mental 217526
Latin 217462
ko 217452
ada 217438
Mark 217333
enough 217212
fic@@ 216912
fish 216777
wall 216759
Development 216478
Gen@@ 216414
officially 216345
participated 216314
province 216304
ve@@ 216264
Jones 216226
Mah@@ 216177
might 216144
rural 215865
35 215784
Rel@@ 215635
council 215621
ey@@ 215497
text 215404
ud@@ 215340
oke 215092
ave 214927
saying 214565
alongside 214545
primarily 214536
tered 214534
products 214514
Order 214505
ased 214504
heavy 214375
rest@@ 214349
1960 214233
Sar@@ 214006
elimin@@ 213895
op 213844
val@@ 213838
Leg@@ 213819
1966 213786
workers 213748
function 213633
Foundation 213629
Men 213559
mid@@ 213536
ett 213532
pre 213363
br 213212
edi@@ 213146
cause 212999
benef@@ 212978
eri@@ 212882
residents 212870
farm@@ 212577
alleg@@ 212549
ually 212510
Michigan 212388
phys@@ 212382
review 212346
atory 212326
lan@@ 212217
Boston 212156
run@@ 212120
80 212091
Governor 212010
broad@@ 211873
leave 211845
Pal@@ 211834
positive 211791
ights 211667
1944 211662
channel 211659
Tur@@ 211580
elements 211560
ali 211500
sl@@ 211469
Civil 211466
tra 211370
fol@@ 211249
value 211238
Republican 211192
eth 211150
God 211071
Health 211043
oil 211017
candidate 211006
Fe@@ 210904
double 210898
levels 210793
Centre 210771
appear 210684
editor 210470
Ang@@ 210395
resp@@ 210258
here 210172
ths 210172
lab@@ 210091
Es@@ 210070
produce 210007
aling 209995
Francisco 209836
firm 209806
1990s 209757
Ohio 209694
places 209692
nature 209438
scre@@ 209317
mus@@ 209269
met@@ 209226
auth@@ 209222
friends 208979
newspaper 208934
idea 208897
pair 208734
Young 208709
emp@@ 208681
whether 208237
belong@@ 208135
0,000 208116
makes 208090
lack 208073
hal@@ 208068
ord@@ 207993
aining 207931
ly@@ 207888
host 207877
union 207855
historic 207825
adi@@ 207663
wel@@ 207636
renamed 207480
grew 207465
rem@@ 207362
M. 207260
cin@@ 207101
Johnson 207093
Secretary 207086
yard 207059
ef@@ 206894
sky 206881
Asia 206784
whole 206758
No 206737
households 206621
assigned 206521
fully 206440
activity 206400
views 206239
formation 206232
90 206172
call 206122
Scottish 206103
draw 206021
j 205966
cross 205930
die 205803
pal@@ 205739
atives 205736
War@@ 205682
counter@@ 205664
Director 205611
numbers 205444
J 205432
mm 205426
ordered 205247
build 205146
ame 205111
Cro@@ 205083
Polish 205011
Ke@@ 205010
1960s 204960
projects 204958
til@@ 204940
hospital 204930
Chi@@ 204647
ut 204601
growth 204577
refl@@ 204293
lives 204258
ther 204237
preser@@ 204103
Major 204014
Tor@@ 203791
Sea 203731
Far@@ 203716
Mel@@ 203692
words 203630
ided 203538
after@@ 203507
vice 203467
bury 203329
Israel 203314
stars 203241
Alexander 203057
Tre@@ 203045
hy@@ 203018
executive 202998
rule 202905
pros@@ 202878
continue 202749
Williams 202702
Mu@@ 202548
reco@@ 202400
officers 202357
giving 202342
ret@@ 202321
prof@@ 202290
planned 202249
identi@@ 202246
32 202184
conducted 202166
ez@@ 202016
label 201947
differ@@ 201940
idae 201879
iting 201854
ster@@ 201732
stat@@ 201645
2.@@ 201583
sen 201560
whe@@ 201554
Georgia 201532
compl@@ 201433
ulation 201393
security 201359
plan@@ 201183
70 201071
letter 200850
intended 200765
notable 200731
ental 200669
prominent 200578
ours 200545
ably 200513
Three 200435
Han@@ 200280
Office 200221
Avenue 200151
CD 200034
wers 199985
stop 199956
regul@@ 199776
med@@ 199764
app@@ 199717
ja 199620
Highway 199572
forward 199515
Columbia 199475
females 199465
rid@@ 199440
ough 199438
ough@@ 199419
chart 199083
El 198903
sent@@ 198880
Hal@@ 198867
1963 198744
chi@@ 198737
stream 198671
1962 198546
film@@ 198482
ather 198411
prop@@ 198294
Play@@ 198262
scene 198138
coast 198030
minor 198007
agreed 197892
ern@@ 197886
va 197839
highly 197820
soldiers 197808
owner 197778
effects 197716
aker 197625
ung 197524
Fort 197512
squ@@ 197475
Family 197454
ket 197442
races 197339
ums 197289
Sa@@ 197282
shar@@ 197204
log@@ 197159
revealed 197153
treatment 197072
removed 197062
stories 197038
investig@@ 196930
formerly 196915
part@@ 196896
commonly 196816
form@@ 196804
Bill 196738
parish 196727
ancient 196720
basis 196439
capacity 196387
asi@@ 196259
Also 196221
pression 196182
tex@@ 196169
Middle 196057
designated 196032
1942 196026
youth 196018
integr@@ 196006
carri@@ 195970
ail@@ 195945
tis@@ 195905
eman 195894
ging 195854
1948 195793
sites 195750
marine 195656
strateg@@ 195539
Super 195510
enn@@ 195510
art@@ 195376
administration 195375
demonstr@@ 195319
Ti@@ 195255
Corps 195246
distance 195127
smaller 195098
3.@@ 194822
follows 194803
vol@@ 194651
parti@@ 194590
My 194454
Ram@@ 194422
quickly 194419
Pas@@ 194395
dedicated 194375
Sy@@ 194350
fication 194330
pan@@ 194282
sts 194093
Shi@@ 194055
wid@@ 194034
singles 193992
arly 193960
Sydney 193935
ops 193920
agreement 193894
Hospital 193879
tas@@ 193869
graduate 193673
ib@@ 193554
gar@@ 193522
eing 193426
nation 193421
ishes 193375
long@@ 193367
floor 193200
Sam@@ 193197
awards 193155
list@@ 193026
assistant 192998
expected 192991
fellow 192919
BBC 192753
64 192628
drama 192452
ike 192432
yet 192336
Tour 192241
ax@@ 192229
mixed 192192
peri@@ 191951
ping 191924
positions 191918
ago 191785
Historic 191782
bound@@ 191761
ment@@ 191678
Coast 191656
leaders 191595
color 191592
settlement 191557
1940 191387
Ash@@ 191337
News 191232
cru@@ 191204
Fo@@ 191098
paper 191069
son@@ 191057
essor 191032
cul@@ 191014
efforts 190995
1941 190929
pass 190811
purchased 190741
3rd 190429
initial 190365
ext@@ 190334
enter@@ 190314
marked 190252
extr@@ 190205
ona 190123
1961 190093
relations 190086
cars 190016
median 189999
sil@@ 189982
winner 189961
ow 189895
hard 189856
aded 189731
Ministry 189698
aks 189573
Du@@ 189551
Jack 189511
1939 189482
Of 189437
urn@@ 189416
immediately 189402
B. 189395
potential 189380
oth 189365
mag@@ 189348
tly 189254
critic@@ 189177
Little 189149
grade 189066
estimated 189058
produc@@ 188993
Ed@@ 188908
respectively 188821
repe@@ 188794
1,@@ 188769
Mil@@ 188710
1946 188578
lin 188518
defeat 188500
thing 188485
del 188483
vot@@ 188401
founder 188345
join 188315
No@@ 188277
inger 188124
facilities 188115
Blue 188048
ady 188012
kn@@ 187992
proc@@ 187928
ond 187899
mark 187847
charge 187836
ures 187806
cho@@ 187798
arts 187753
Gre@@ 187679
Federal 187605
itch 187518
fir@@ 187240
featuring 187064
mand@@ 187042
E. 187006
arms 186839
visit@@ 186830
probably 186703
poor 186626
thir@@ 186579
typically 186547
5.@@ 186534
Jersey 186504
compared 186497
ls 186472
pay@@ 186449
Est@@ 186428
bal@@ 186427
1956 186371
itation 186307
medi@@ 186203
Olympic 186183
sti@@ 186169
Dev@@ 186117
identified 186114
ola 186106
ace@@ 186054
scale 186053
focus 185996
types 185984
hi 185850
ider 185836
comment@@ 185833
clubs 185700
Illinois 185674
conference 185663
piece 185625
percent 185503
trad@@ 185490
aking 185466
needed 185332
von 185299
anian 185298
inside 185298
article 185239
declared 185176
1943 185071
gained 184998
AC@@ 184983
irs 184947
green 184923
ases 184917
Fur@@ 184892
viol@@ 184827
physical 184719
gun 184708
stri@@ 184692
upper 184657
Ir@@ 184547
pp@@ 184543
Loc@@ 184474
cs 184444
mem@@ 184406
IS@@ 184146
tery 184136
attention 184078
paid 184029
Scott 184026
AS@@ 184008
finals 183980
destroyed 183920
hosted 183907
elev@@ 183892
ute 183838
Dec@@ 183808
housing 183687
S. 183674
Post 183664
hur@@ 183646
yc@@ 183609
ide 183494
operating 183445
lock 183442
pay 183433
4.@@ 183400
mit@@ 183352
Jean 183328
format 183204
amount 183173
crew 183168
Victoria 183091
museum 183012
miles 182995
ji 182980
Hu@@ 182963
largely 182959
affili@@ 182939
evol@@ 182896
entry 182861
W. 182806
alities 182797
North@@ 182781
bit 182752
Ben@@ 182751
reach 182737
cal@@ 182666
Earth 182643
Airport 182566
Mur@@ 182472
languages 182417
Justice 182379
van 182327
represent@@ 182319
Berlin 182288
1950 182224
adopted 182213
stre@@ 182201
roles 182143
Rock 182139
oy@@ 182139
committee 182121
ply 182068
bloc@@ 182021
widely 181993
doc@@ 181966
Bol@@ 181718
1958 181702
44 181653
Fi@@ 181640
suffered 181510
online 181386
iv@@ 181373
estate 181351
street 181334
wa@@ 181265
my@@ 181209
Pat@@ 181119
aching 181032
Frank 181022
Sand@@ 180972
1947 180849
branch 180622
leaves 180532
Dar@@ 180410
accepted 180360
1959 180359
ora 180357
prov@@ 180313
ranked 180307
H. 180105
territory 180099
ez 180061
ense 179990
tically 179959
communities 179906
incorporated 179794
votes 179742
yards 179724
confirmed 179652
captured 179559
distribution 179458
spons@@ 179452
website 179340
reviews 179238
sources 179193
minister 179112
sex 179064
flight 179050
pressure 178979
Each 178831
ug@@ 178826
cell 178809
Ni@@ 178744
conduc@@ 178701
keep 178677
arm@@ 178619
direction 178595
custom@@ 178523
occurred 178495
ote 178463
rul@@ 178415
exper@@ 178404
Kong 178252
teacher 178220
taught 178146
other@@ 178135
Iran 178119
was@@ 178092
Mount 178091
scoring 178029
computer 178011
post@@ 178006
mod@@ 177993
job 177947
spring 177897
Corporation 177854
FM 177820
bishop 177748
semi 177619
academic 177472
Hong 177436
approach 177396
Gi@@ 177349
tree 177343
dance 177221
meet 177173
ues 177168
episodes 177151
resulted 177069
gas 177004
Win@@ 176978
eling 176964
product 176896
tom@@ 176891
bar 176846
ark@@ 176818
men@@ 176708
psych@@ 176662
1957 176645
Ol@@ 176525
Red@@ 176503
sey 176467
Kir@@ 176382
ners 176279
cut@@ 176276
exist@@ 176237
serves 176178
Tro@@ 176177
leadership 176149
say 176078
Ko@@ 176011
Ev@@ 175977
wat@@ 175872
combined 175840
Supreme 175806
recognized 175806
Mid@@ 175787
concept 175765
Before 175695
Islands 175623
Massachusetts 175472
practic@@ 175417
losing 175362
ze@@ 175354
plants 175352
sian 175298
ading 175150
alone 175144
orial 175050
alli@@ 174769
purpose 174762
campus 174645
yn 174637
critical 174618
pit@@ 174585
San@@ 174446
Sports 174431
metal 174421
Stadium 174362
mass 174332
compar@@ 174199
develop@@ 174199
recently 174054
ura 174046
silver 174029
ni 173980
exec@@ 173951
box 173949
Korea 173920
nominated 173911
analysis 173909
presence 173902
yp@@ 173861
titles 173796
75 173787
platform 173724
dep@@ 173699
flu@@ 173669
nar@@ 173645
viewed 173623
je@@ 173621
AR@@ 173587
Super@@ 173518
of@@ 173517
code 173515
mentioned 173507
strong@@ 173436
Kal@@ 173323
bus 173266
encies 173218
ule 173203
jo@@ 173168
camp 173165
method 173123
equipment 173087
Bishop 173045
therefore 173008
Time 173006
Star@@ 172929
eled 172904
Elizabeth 172899
felt 172898
coll@@ 172826
Professor 172716
ader 172716
sexual 172688
prison 172684
Tom 172683
ero 172659
expanded 172580
respon@@ 172567
du 172494
airs 172483
6.@@ 172470
Dun@@ 172399
imp@@ 172375
mur@@ 172318
1952 172293
fell 172118
albums 172095
ou 172055
heart 172040
Background 172019
store 171994
birth 171864
connected 171767
person@@ 171750
difficult 171559
Home 171504
Pakistan 171426
Born 171403
buried 171313
ex 171258
Santa 171199
account 171150
offers 171128
urban 171122
advis@@ 170948
parties 170932
1949 170873
image 170714
encour@@ 170699
1955 170643
secondary 170598
remain 170566
Library 170538
Duke 170536
ume 170494
kers 170351
Sel@@ 170270
reduced 170175
arg@@ 170160
Swedish 170054
growing 170038
Jo@@ 169938
mak@@ 169933
Wh@@ 169878
R. 169861
ich 169721
except 169716
fast 169650
ires 169582
legisl@@ 169531
Final 169499
Bul@@ 169484
rot@@ 169408
performances 169369
Geography 169364
voice 169325
odi@@ 169259
clear 169253
eded 169200
pop 169164
law@@ 169141
Police 169119
Shar@@ 169087
Don 168917
newly 168911
Prime 168840
ached 168801
champion 168763
Elec@@ 168717
Top 168699
solo 168631
domin@@ 168600
defined 168591
fields 168558
mut@@ 168547
digital 168449
Ham@@ 168295
gets 168293
literature 168283
Em@@ 168231
Fac@@ 168068
Chap@@ 168021
signific@@ 167994
umb@@ 167948
7.@@ 167788
content 167786
Atlantic 167784
inspired 167707
sav@@ 167576
Mol@@ 167469
Toronto 167417
versions 167403
Hy@@ 167392
1954 167372
mountain 167261
Vi@@ 167234
33 167190
incre@@ 167187
surviv@@ 167180
twice 167177
ert 167167
rules 167148
dist@@ 167073
granted 167020
painting 167018
core 167011
density 167007
thous@@ 166934
Hav@@ 166869
sym@@ 166783
models 166777
now@@ 166712
Spe@@ 166660
sou@@ 166610
defin@@ 166546
1.@@ 166377
resol@@ 166331
true 166145
che@@ 166076
ican 166061
problem 166049
organizations 166013
enter 165930
resulting 165908
Joe 165872
Indi@@ 165846
figure 165816
surname 165783
mouth 165694
ger@@ 165619
dro@@ 165618
kill 165546
minute 165501
Cam@@ 165499
accoun@@ 165462
spread 165417
strug@@ 165377
mel@@ 165359
icient 165296
attrac@@ 165236
Brazil 165194
existing 165177
00 165147
1953 165109
De 165068
disease 165024
ide@@ 165011
oma 165004
damage 164984
chairman 164941
appro@@ 164886
contemporary 164781
ems 164718
Whit@@ 164710
Cross 164675
Cy@@ 164670
desc@@ 164590
couple 164546
play@@ 164531
tig@@ 164530
plat@@ 164513
generation 164512
ner@@ 164494
tax 164384
Media 164273
Ontario 164104
depic@@ 164034
faced 164034
share 164013
top@@ 163979
suggested 163931
reser@@ 163871
Nations 163814
nation@@ 163705
crow@@ 163651
quarter 163626
Don@@ 163557
AC 163547
Jackson 163490
males 163441
background 163405
obtained 163368
Ly@@ 163353
seats 163223
wr@@ 163196
ani@@ 163190
och@@ 163164
creation 163129
olog@@ 163040
surrounding 163030
travel 163027
4th 163018
qualif@@ 162969
tribut@@ 162965
š@@ 162960
kept 162913
ordin@@ 162900
colum@@ 162868
Arthur 162865
las@@ 162739
Bridge 162733
ident 162712
offer 162695
Ul@@ 162633
roc@@ 162610
fav@@ 162563
gian 162441
sides 162370
Si@@ 162342
actually 162287
showed 162166
explo@@ 162114
continues 162009
comedy 161985
lam@@ 161951
eigh@@ 161935
patr@@ 161929
eless 161924
providing 161909
ody 161862
ologist 161859
ush@@ 161794
CA@@ 161742
cells 161714
initi@@ 161507
appar@@ 161495
high@@ 161367
twenty 161348
portr@@ 161311
1918 161279
Por@@ 161269
entr@@ 161242
lake 161235
Me 161193
but@@ 161185
P. 161175
acks 161173
officials 161108
vely 161096
Rome 160952
portation 160834
reduc@@ 160776
Military 160721
Premier 160634
Korean 160543
Social 160534
develop 160532
association 160527
Philadelphia 160492
suit 160489
successfully 160392
inst@@ 160353
36 160349
meas@@ 160340
Game 160321
ban@@ 160288
greater 160240
lied 160208
thro@@ 160110
alty 160009
publ@@ 160008
occupied 159980
pun@@ 159911
finish 159905
teaching 159863
mann 159837
politics 159804
Show 159721
legi@@ 159719
etic 159697
1951 159619
ler@@ 159587
Sho@@ 159543
Over@@ 159434
yl 159418
isi@@ 159331
rep@@ 159276
injury 159225
know 159159
ski 159071
ections 159054
orders 159010
USA 158970
forest 158966
tower 158931
split 158918
ven 158864
says 158828
ped 158819
bot@@ 158816
necessary 158815
1936 158722
claims 158655
Mir@@ 158645
oked 158583
illa 158529
Township 158516
billion 158497
‘ 158483
Long 158468
cour@@ 158397
Del@@ 158354
aya 158266
ree 158263
becomes 158251
phot@@ 158207
Y 158177
Ra@@ 158000
sets 158000
eo 157962
tiv@@ 157951
alm@@ 157912
Book 157834
boy 157820
feet 157733
corpor@@ 157721
ancing 157669
tried 157665
34 157630
work@@ 157603
attacks 157597
Because 157591
Sav@@ 157550
authorities 157545
guitar 157476
300 157473
emer@@ 157472
kin 157467
metres 157460
Regiment 157432
1920 157329
receive 157268
eli@@ 157253
tail 157197
Over 157168
Out@@ 157148
appe@@ 157135
ells 157118
resid@@ 157071
festival 156956
adv@@ 156917
restric@@ 156899
1938 156836
governor 156827
lined 156784
knowledge 156765
regions 156628
Among 156597
acking 156531
situated 156438
implement@@ 156373
succeeded 156344
fy 156328
Netherlands 156283
Sun 156200
Community 156138
Wilson 156121
interview 156010
villages 155965
constitu@@ 155964
mark@@ 155946
Haw@@ 155904
eral 155836
fle@@ 155758
Mr. 155699
impact 155668
opposed 155655
arrested 155650
ond@@ 155646
syn@@ 155596
sixth 155555
Ran@@ 155495
depar@@ 155474
effort 155465
applied 155464
traffic 155401
ben@@ 155398
block 155338
younger 155325
opposition 155263
rank 155234
bac@@ 155214
ki@@ 155174
Op@@ 155135
Bir@@ 155120
rail@@ 155076
lights 155060
kind 155048
ened 155037
library 155025
compon@@ 155010
Ban@@ 155004
member@@ 155004
employed 154985
dated 154942
zen 154876
hab@@ 154873
Billboard 154833
uss@@ 154801
Sun@@ 154721
supp@@ 154695
effective 154692
Ta@@ 154647
hum@@ 154550
tradition 154421
West@@ 154367
unique 154365
dead 154356
deli@@ 154351
scientific 154350
Captain 154339
ato 154336
ister 154298
ports 154294
Between 154248
isions 154234
blue 154224
gives 154148
Bu@@ 154114
ech@@ 154086
canc@@ 154042
SR 153964
sales 153932
headquarters 153926
stood 153751
lec@@ 153465
Daniel 153414
mov@@ 153384
Ru@@ 153253
captain 153094
borough 153093
38 153082
novel@@ 153011
propos@@ 152940
facility 152891
tells 152851
augh@@ 152843
holds 152782
hour 152774
Ha@@ 152730
Democ@@ 152725
Lady 152636
Sum@@ 152617
expres@@ 152597
goes 152591
Like 152561
tax@@ 152546
hard@@ 152502
approved 152445
aus@@ 152374
Andrew 152366
baseball 152331
figures 152330
jud@@ 152323
Technology 152321
revol@@ 152256
aliz@@ 152221
Sab@@ 152205
allowing 152173
commander 152139
cus@@ 152116
fighting 152065
eping 152008
400 151954
inform@@ 151945
pping 151934
commissioned 151897
Cour@@ 151839
pil@@ 151831
electr@@ 151827
pap@@ 151805
drawn 151782
software 151756
dark 151703
Tar@@ 151662
rit@@ 151644
Business 151611
q 151575
ston 151533
collabor@@ 151522
qualified 151514
compr@@ 151489
look 151439
apo@@ 151424
ie@@ 151381
trains 151352
Due 151300
climate 151300
squad 151284
classes 151268
settled 151258
Special 151256
theatre 151256
ham@@ 151216
big 151213
radi@@ 151170
cannot 151118
returning 151105
completely 151069
sn@@ 151059
critics 151023
tural 151015
she@@ 150833
aim@@ 150781
decor@@ 150753
situation 150650
visit 150629
Sweden 150624
1950s 150585
Dor@@ 150562
gen 150562
laws 150543
risk 150532
Os@@ 150530
claim 150525
electric 150525
nin@@ 150514
Death 150488
Taylor 150471
mitted 150362
ris@@ 150327
Register 150293
Field 150280
Q 150240
aka 150135
Port 150105
wit@@ 150056
aun@@ 150051
mu@@ 150037
recomm@@ 150028
Ker@@ 150007
allows 149977
expos@@ 149952
brothers 149933
yo@@ 149928
simply 149924
ority 149852
1919 149850
notes 149843
Oxford 149779
blood 149725
Mike 149701
porting 149687
1937 149627
tier 149604
promotion 149445
bought 149370
bes 149300
8.@@ 149233
tle 149194
sign 149119
Maria 149109
illustr@@ 149028
ye@@ 149019
boat 148997
visited 148980
deep 148960
20@@ 148954
achieved 148902
environment 148833
ati 148780
Castle 148745
fres@@ 148734
mil@@ 148645
refused 148622
materials 148613
chosen 148601
Lar@@ 148596
disco@@ 148537
advanced 148527
oldest 148453
Medical 148378
duc@@ 148373
drew 148231
hall 148144
Emperor 148131
She@@ 148124
Mountain 148109
frequently 148053
And 147837
reports 147775
Av@@ 147727
Ther@@ 147654
lie 147623
Golden 147597
relatively 147568
eper 147560
Mi@@ 147531
Americans 147479
din@@ 147379
dom 147366
swe@@ 147307
present@@ 147300
Mem@@ 147297
tries 147269
ional 147080
placing 147072
command@@ 147049
rac@@ 146773
organis@@ 146709
pel@@ 146652
lay@@ 146625
industrial 146586
hop@@ 146536
Van 146425
merged 146425
Le 146422
portion 146417
dit 146394
advoc@@ 146383
drive 146314
aci@@ 146297
Four 146265
Wood@@ 146237
exhib@@ 146235
Cer@@ 146225
compet@@ 146218
ela 146203
brand 146202
Francis 146190
ier 146172
eer 146147
promot@@ 146147
FL 146146
neigh@@ 146135
Several 146063
bin@@ 145945
Bat@@ 145891
ize 145830
modi@@ 145802
itable 145778
things 145727
credited 145672
placement 145645
household 145606
Gl@@ 145585
joining 145583
ature 145564
Press 145493
theme 145485
1930 145450
Junior 145373
publication 145329
read 145329
begins 145322
friend@@ 145263
temple 145180
rup@@ 145175
idge 145128
transport 145121
scor@@ 145060
Master 145057
actress 145050
mile 145022
ref@@ 144992
micro@@ 144965
creating 144916
li 144898
ania 144869
rise 144868
42 144839
osis 144811
proce@@ 144606
focused 144578
murder 144381
vin@@ 144293
oh@@ 144261
authority 144218
48 144199
broke 144164
starring 144090
ime 144032
wise 143999
Hel@@ 143976
something 143913
foot 143858
rooms 143813
shop 143696
Kn@@ 143679
° 143627
oration 143536
1917 143395
iss@@ 143345
transfer 143262
1914 143246
Beach 143235
fare 143224
consisted 143212
fly 143153
improv@@ 143122
founding 143120
Davis 143080
Eng@@ 143028
bring 143008
smo@@ 142966
fans 142960
lig@@ 142922
Chris 142912
stock 142841
disc@@ 142806
susp@@ 142803
eph@@ 142789
boys 142529
cit@@ 142472
Plot 142452
touch@@ 142415
Cat@@ 142340
Journal 142332
illing 142330
1935 142313
ented 142268
fought 142266
Federation 142233
conflict 142212
alists 142158
ima 142134
attempted 142122
net@@ 142093
architecture 142062
aft 142019
comple@@ 141973
1933 141956
pot@@ 141943
Region 141912
uck 141896
subsequent 141848
venue 141842
Corn@@ 141835
box@@ 141827
concert 141817
yer 141817
ball@@ 141708
NCAA 141675
rang@@ 141618
Network 141547
audience 141514
unable 141484
missions 141472
journ@@ 141450
saf@@ 141422
tropical 141404
net 141401
Tel@@ 141394
Minnesota 141330
bus@@ 141236
supply 141224
retirement 141130
ko@@ 141123
agent 141043
istics 141026
Ku@@ 141018
origin 140984
follow 140948
apped 140939
Today 140920
roads 140847
begin 140834
cycle 140834
Prize 140764
39 140749
put@@ 140661
selling 140654
partner 140620
safety 140574
hydro@@ 140557
attacked 140533
esti@@ 140498
gency 140385
principal 140350
performing 140340
dates 140264
alls 140250
missed 140232
defense 140211
districts 140127
CD@@ 140114
oon 140087
Hay@@ 140084
methods 140082
esh@@ 140056
Kur@@ 140046
perform 140044
girl 140035
path@@ 139987
18th 139937
ury 139925
prevent 139853
athle@@ 139843
dres@@ 139818
Mexican 139812
shared 139808
kl@@ 139689
itor 139677
receiving 139675
daily 139663
sus@@ 139649
ine@@ 139639
ett@@ 139588
joint 139545
ium 139530
dropped 139474
resear@@ 139423
entitled 139403
rey 139334
covers 139246
Sil@@ 139231
challeng@@ 139213
foc@@ 139199
onic 139174
progr@@ 139174
dom@@ 139157
affa@@ 139125
animals 139119
Co 139014
L. 138993
reason 138935
Inc. 138911
winter 138839
5th 138836
beat 138834
Ur@@ 138772
pers 138767
EP 138666
Gro@@ 138628
lear@@ 138532
lif@@ 138532
protection 138527
bian 138515
band@@ 138500
akes 138450
engineering 138430
economy 138426
ban 138344
1928 138260
ny 138260
burg 138216
suggest@@ 138160
tes 138155
negoti@@ 138151
subur@@ 138119
tra@@ 137982
ization 137973
Bob 137952
setting 137948
37 137874
expansion 137865
Reception 137856
reference 137851
sy@@ 137838
Hur@@ 137801
unknown 137792
1929 137774
My@@ 137765
volume 137765
representing 137721
Tom@@ 137702
induc@@ 137669
distingu@@ 137651
write 137625
ancy 137592
sense 137495
FA 137489
ador 137476
trees 137465
exten@@ 137453
mathemati@@ 137445
ety 137388
exchange 137337
Mos@@ 137327
econom@@ 137326
beau@@ 137316
determined 137259
kins 137253
ba 137233
AA 137216
wrest@@ 137206
System 137172
morning 137172
sin@@ 137074
sem@@ 137069
crime 137059
mayor 137048
voc@@ 137048
machine 137040
erry 137027
wings 136933
tis 136917
girls 136896
emerg@@ 136838
presidential 136816
č@@ 136673
fiction 136643
onto 136547
Steve 136541
towns 136535
represent 136513
Gold 136500
ost 136436
fif@@ 136420
41 136412
tin 136409
ado 136396
subj@@ 136394
Forest 136318
edge 136248
wher@@ 136184
sup@@ 136180
obj@@ 136173
attempts 136159
sport 136143
Kansas 136128
permanent 136096
ub@@ 136061
ush 136005
normal 136004
Pri@@ 135988
sels 135950
1934 135947
ira 135945
ores 135933
eller 135854
Z 135831
inten@@ 135822
ł@@ 135785
highway 135749
origin@@ 135735
Green@@ 135707
Wat@@ 135654
card 135609
scheduled 135601
analy@@ 135573
contributed 135565
Jr 135564
extensive 135560
reve@@ 135546
increasing 135463
Melbourne 135450
lands@@ 135400
ju@@ 135388
Area 135378
conv@@ 135371
cancer 135364
articles 135307
urs 135271
9.@@ 135266
converted 135249
shortly 135226
Mul@@ 135208
priv@@ 135070
Description 135059
zed 135054
bronze 135031
memory 134978
resources 134951
The@@ 134933
sue 134900
containing 134875
guest 134840
grounds 134779
influenced 134770
si 134737
Missouri 134708
Sunday 134697
ultimately 134688
Gor@@ 134659
hockey 134644
Pur@@ 134635
ht 134631
vehicles 134585
pieces 134567
derived 134532
Nov@@ 134509
gres@@ 134498
copies 134472
All@@ 134371
55 134339
ault 134319
Fox 134312
e.g. 134300
Raj@@ 134287
grav@@ 134278
Mak@@ 134269
institutions 134198
clin@@ 134083
11@@ 134062
Moscow 134053
Muslim 134025
vis@@ 134020
global 133982
Memorial 133979
constituency 133975
Rev@@ 133949
guns 133912
locations 133867
trac@@ 133777
fort 133772
dre@@ 133735
learning 133719
racing 133713
structures 133648
pa 133594
citizens 133565
Jim 133503
meant 133487
documentary 133483
Stephen 133471
usual 133415
Country 133407
educational 133402
Lewis 133296
La@@ 133285
farm 133272
Night 133241
lik@@ 133227
torney 133180
holding 133161
controlled 133067
Wisconsin 133065
emph@@ 133031
Cape 132983
autom@@ 132980
rail 132959
orch@@ 132948
properties 132935
requi@@ 132823
letters 132802
52 132784
sector 132690
Black@@ 132609
amo@@ 132599
cle 132581
simple 132516
aid 132488
Power 132482
ares 132472
maximum 132406
phase 132368
flow 132359
water@@ 132341
airport 132276
chers 132243
consider@@ 132169
1932 132159
More 132144
narr@@ 132112
coordin@@ 132024
hands 132002
NFL 131996
i.e. 131976
separ@@ 131974
Live 131970
Tal@@ 131957
30@@ 131939
peace 131913
1924 131868
Luc@@ 131785
qui@@ 131754
birds 131710
centuries 131690
headed 131685
bound 131671
Project 131637
alization 131575
stopp@@ 131558
F. 131527
Writ@@ 131509
writ@@ 131506
lets 131493
onian 131485
lyrics 131445
ais@@ 131418
ord 131396
powerful 131367
drug 131359
Ba@@ 131358
Turkish 131347
recru@@ 131323
dings 131295
domestic 131285
thy 131251
Tim@@ 131198
ema 131161
passing 131129
liamentary 131008
condition 130941
Az@@ 130892
establishment 130883
chem@@ 130867
vent@@ 130860
Turkey 130839
funding 130827
jus@@ 130713
offices 130690
launch 130656
sought 130642
plant@@ 130630
laid 130579
Point 130529
Sciences 130424
Sup@@ 130423
Queensland 130401
ternal 130395
1922 130382
bir@@ 130347
beyond 130271
Television 130234
non@@ 130220
application 130167
cover@@ 130138
succ@@ 130131
yellow 130090
Ter@@ 130068
doing 130050
Philippines 130030
Production 130013
factory 129974
Lev@@ 129965
ō 129954
Is 129942
46 129907
Norway 129896
castle 129806
Mot@@ 129796
arch 129784
gal@@ 129766
independence 129760
Rus@@ 129735
Vietnam 129733
identity 129731
design@@ 129709
Fal@@ 129660
oppon@@ 129588
bri@@ 129541
tile 129462
expressed 129449
supporting 129381
poly@@ 129372
bands 129352
recognition 129297
matter 129277
occurs 129218
contact 129162
jum@@ 129147
Upon 129120
vehicle 129021
atures 128945
walls 128940
invited 128887
ision 128838
finishing 128837
Sher@@ 128829
consecutive 128828
ous@@ 128824
curr@@ 128821
Tak@@ 128750
slightly 128733
1927 128686
Prior 128684
stay 128659
Tennessee 128598
proved 128596
producing 128569
elle 128561
looking 128537
decre@@ 128477
functions 128475
bill 128428
Land@@ 128405
reasons 128346
armed 128242
1921 128241
Jews 128226
Channel 128137
advertis@@ 128133
height 128124
candidates 128123
Song 128113
Land 128084
temperature 128080
some@@ 128022
unt 128017
developing 127917
Tw@@ 127900
eps 127881
PA 127847
anth@@ 127827
technical 127765
Manchester 127757
alternative 127699
yan 127699
venture 127677
Cambridge 127645
Khan 127511
scienti@@ 127484
ev 127482
1912 127459
ro 127456
Ak@@ 127421
category 127389
1931 127367
arrang@@ 127363
royal 127353
ight@@ 127352
oo 127336
aled 127312
Native 127263
sh 127258
fleet 127257
contained 127226
ician 127215
educated 127155
search 127132
Building 127087
ida 127052
alg@@ 127051
main@@ 127023
sle@@ 126955
lion 126907
consum@@ 126903
Bow@@ 126893
porter 126858
want 126856
liter@@ 126822
writers 126804
Norwegian 126778
judge 126647
journalist 126646
ographic 126607
mix@@ 126605
aul@@ 126603
hotel 126601
needs 126583
architect 126564
ul 126555
protein 126551
cy 126544
Maryland 126512
tress 126415
IV 126399
abandoned 126397
anger 126380
Class 126378
Indiana 126372
47 126370
existence 126357
G. 126354
urg@@ 126346
chor@@ 126322
Ever@@ 126272
violence 126244
Men@@ 126190
aked 126130
Ty@@ 126129
COVID 126103
ink 126103
wil@@ 126082
horse 126066
rugby 126051
Studies 126037
Notable 125999
fit@@ 125928
LA 125906
vers@@ 125886
Colorado 125869
loan 125839
49 125820
func@@ 125817
stating 125783
Christmas 125777
investigation 125734
Tournament 125704
termin@@ 125666
Services 125661
Labour 125599
acked 125523
by@@ 125384
1925 125350
Hot 125297
negative 125250
brown 125165
refers 125105
correspond@@ 125103
decades 125090
Kil@@ 125069
Austria 125067
Mari@@ 125036
patients 124991
voted 124987
han 124967
screen 124888
speech 124870
bodies 124840
Portuguese 124834
ille 124825
eck 124729
Affairs 124728
ER@@ 124679
achers 124678
oa 124677
combat 124660
instruc@@ 124660
enced 124646
basic 124634
SA@@ 124593
achiev@@ 124589
ask@@ 124587
bom@@ 124585
Uni@@ 124570
prac@@ 124567
tains 124548
enemy 124514
multi 124501
oted 124486
1923 124480
bow@@ 124384
icked 124320
hired 124317
IC@@ 124309
nomin@@ 124282
shaped 124219
fiel@@ 124190
inking 124173
Then 124145
iy@@ 124142
ku@@ 124100
eld 124086
95 124063
operate 124023
awa 124007
uted 124003
los@@ 123962
resigned 123943
utionary 123897
1926 123856
literary 123849
Sou@@ 123823
maintained 123823
planning 123816
honor 123810
Harry 123797
trained 123724
amed 123718
Infantry 123717
Soci@@ 123713
3,@@ 123706
Off@@ 123702
registered 123649
DC 123630
anded 123560
composer 123533
theor@@ 123532
straight 123531
figh@@ 123525
toral 123525
stein 123503
connection 123451
SA 123422
Albert 123382
cape 123370
ceremony 123344
arily 123340
Arizona 123335
cal 123222
Lak@@ 123219
herself 123198
reaching 123190
exhibition 123179
argued 123175
establish 123093
mine 123048
affected 122968
examin@@ 122943
nuclear 122921
funds 122891
1910 122868
ele 122856
ck 122823
ived 122792
sibility 122738
every@@ 122699
arri@@ 122698
Foreign 122672
sional 122665
1916 122664
regarding 122648
oll@@ 122597
installed 122556
phone 122501
representative 122501
Walter 122493
rear 122484
collected 122428
consist@@ 122409
correc@@ 122404
oto 122379
junior 122324
Revolution 122307
51 122291
Plat@@ 122261
realiz@@ 122256
Direc@@ 122255
Gra@@ 122218
ES@@ 122217
organ@@ 122196
ope 122145
Cap@@ 122127
pes 122122
Ju@@ 122119
1915 122062
Sri 122055
shape 122044
profit 122016
specifically 122003
Entertainment 121985
Wo@@ 121978
display 121965
Bah@@ 121911
nes 121902
isters 121888
abilities 121840
gender 121831
premi@@ 121823
About 121790
actors 121771
Lat@@ 121729
worldwide 121659
Not@@ 121631
wins 121616
conserv@@ 121579
extrem@@ 121566
occas@@ 121550
Il@@ 121508
Swiss 121496
shor@@ 121446
ier@@ 121423
entrance 121416
public@@ 121370
CO@@ 121355
Oregon 121352
classical 121338
kat@@ 121306
uy@@ 121277
chang@@ 121265
bing 121203
Camp@@ 121082
glass 121060
sm@@ 121040
heard 121039
ords 121036
References 121033
owners 121012
pilot 121009
zone 120928
mun@@ 120910
fil@@ 120903
Management 120897
passes 120894
Representatives 120892
igh 120882
cred@@ 120880
religion 120874
scenes 120838
finds 120833
powers 120746
Ali 120723
observed 120723
heavily 120693
occur 120668
Human 120666
bomb@@ 120645
Islamic 120631
abad 120605
2,@@ 120585
Wol@@ 120560
Miller 120527
cel@@ 120465
MP 120443
Dem@@ 120439
Census 120428
engaged 120419
Sk@@ 120408
anim@@ 120403
solution 120353
ruled 120337
forming 120327
Political 120320
secretary 120308
plane 120275
eters 120229
Ford 120211
Switzerland 120139
question 120106
tric 120100
ø@@ 120020
hips 120003
page 119923
neg@@ 119892
Winter 119879
ules 119842
Jud@@ 119826
Sin@@ 119824
diam@@ 119764
Miss 119740
programme 119686
fal@@ 119672
rare 119661
roof 119649
Head 119629
someone 119608
star@@ 119593
Egypt 119576
avoid 119570
ock@@ 119560
cycl@@ 119401
foot@@ 119380
Places 119347
Nag@@ 119344
symp@@ 119269
inher@@ 119211
Singapore 119197
classi@@ 119179
fuel 119153
poet 119151
Tu@@ 119121
Pope 119118
ei 119084
wa 119056
1900 119021
serious 119006
Lin@@ 118976
ror 118951
failure 118900
85 118855
carry 118830
Roc@@ 118823
kar@@ 118819
etc 118789
ible 118706
regarded 118698
perf@@ 118689
rich 118683
T. 118682
pion@@ 118669
cricket 118647
iron 118638
Holy 118636
Earl 118626
ich@@ 118593
ort 118588
Only 118550
Medal 118549
aces 118538
South@@ 118527
concluded 118492
Tit@@ 118437
Sen@@ 118435
exist 118435
incident 118355
event@@ 118330
ables 118320
ila 118320
* 118300
fas@@ 118290
inhabitants 118270
northeast 118232
importance 118219
choice 118193
43 118187
statement 118186
load 118144
chi 118133
song@@ 118119
compete 118116
66 118093
praised 118053
programming 118048
protect 117972
What 117928
emed 117923
get@@ 117919
Conn@@ 117917
promote 117912
foundation 117894
bi 117872
reserve 117863
Though 117839
rain 117835
refu@@ 117832
Ukraine 117800
High@@ 117768
bil@@ 117758
ik 117753
alled 117750
uth 117747
Econom@@ 117745
Clar@@ 117713
Rob@@ 117691
Pap@@ 117680
ily 117668
think 117597
municipal 117531
tified 117514
Rem@@ 117501
vision 117458
AT@@ 117393
ami 117370
consid@@ 117370
spot 117354
poetry 117303
gh@@ 117294
Tony 117276
Oc@@ 117255
Regional 117238
pris@@ 117237
Design 117200
iller 117183
Arab 117182
Security 117171
tend@@ 117116
consisting 117096
inning 117092
tia 117072
scr@@ 117003
internal 116992
graphy 116893
diplom@@ 116874
sections 116866
Member 116831
passenger 116802
historian 116771
Je@@ 116766
Bureau 116709
price 116694
far@@ 116646
tie 116637
outs 116613
Professional 116606
Coun@@ 116602
users 116534
sing@@ 116519
nom@@ 116490
Youth 116461
vey 116433
weapons 116419
ello 116379
sell 116341
toward 116339
causing 116314
multi@@ 116304
Main 116295
Prim@@ 116294
seek@@ 116292
quite 116234
aver@@ 116212
releas@@ 116094
twelve 116036
Temple 115998
cial 115990
MA 115976
ange 115964
sign@@ 115944
acqu@@ 115904
57 115876
Greece 115857
thi@@ 115758
Kentucky 115734
adult 115725
volunte@@ 115715
Howard 115687
selection 115672
entirely 115650
rant 115649
Free 115626
closely 115624
driver 115622
ces 115566
king@@ 115543
Vis@@ 115495
improve 115474
break@@ 115473
threaten@@ 115454
starred 115446
1930s 115441
divisions 115436
invasion 115426
aten 115398
bert 115334
AD 115327
ital 115250
session 115221
fund@@ 115162
peak 115111
iling 115099
fun@@ 115025
environmental 114988
lem@@ 114979
conver@@ 114952
May@@ 114946
54 114932
stadium 114927
them@@ 114912
Hockey 114899
Engineering 114861
SE@@ 114834
Brigade 114806
sam@@ 114805
ric@@ 114804
paintings 114780
sac@@ 114733
Arti@@ 114725
possibly 114714
AM@@ 114713
calls 114680
ahead 114679
Forces 114653
1913 114644
Hamilton 114631
1911 114618
trying 114612
17th 114601
CE 114532
versities 114507
substanti@@ 114475
Liberal 114463
gath@@ 114444
mos@@ 114429
enh@@ 114404
storm 114394
bal 114348
leg 114317
sale 114292
cler@@ 114289
ideas 114247
oni 114227
Square 114225
A.@@ 114196
personnel 114180
len@@ 114179
Senior 114137
Laur@@ 114130
ieve 114113
gain 114108
ova 114103
target 114096
week@@ 114067
Kam@@ 114060
employees 114057
Geor@@ 114044
Nar@@ 113904
Div@@ 113901
counter 113853
Oper@@ 113823
homes 113816
escape 113810
Card@@ 113803
steel 113795
chair 113766
ost@@ 113747
Administration 113663
Anne 113663
Tan@@ 113638
abol@@ 113608
standards 113603
commit@@ 113575
sk 113538
print 113520
stands 113504
astal 113500
starts 113442
atus 113414
Vice 113406
premiered 113369
advance 113322
demol@@ 113306
tioned 113295
tian 113284
discus@@ 113273
northwest 113268
Ben 113211
Works 113201
mb@@ 113172
process@@ 113171
genous 113162
marks 113122
6th 113118
believe 113118
otic 113059
animal 113057
accused 113052
fur@@ 113032
vel@@ 112988
ó@@ 112925
gers 112902
Ven@@ 112878
Operation 112818
Israeli 112815
draft 112753
uv@@ 112744
agency 112725
Marine 112723
Confeder@@ 112705
stand@@ 112676
broken 112618
improved 112587
dram@@ 112579
ga 112569
really 112564
influ@@ 112555
equal 112501
values 112481
speaking 112460
lar 112448
rati@@ 112399
SS 112371
trip 112322
Naval 112295
dig@@ 112285
phen@@ 112232
Jac@@ 112200
Squadron 112194
rated 112190
.com 112174
ć 112154
CA 112137
describes 112126
tory 112126
onn@@ 112121
dale 112117
seventh 112006
Third 111873
stead 111854
I. 111827
charged 111823
covering 111755
reloc@@ 111716
53 111711
corner 111688
Prix 111670
ames 111654
Kan@@ 111608
thor@@ 111599
residence 111588
regularly 111577
uring 111575
briefly 111543
hen@@ 111494
civili@@ 111431
ald 111425
Kor@@ 111415
seconds 111397
opportunity 111381
killing 111373
Houston 111289
Patrick 111260
predic@@ 111251
mal@@ 111248
Scot@@ 111234
aw 111199
ori 111152
Thus 111143
pool 111120
7th 111096
extension 111035
63 110955
injured 110952
courses 110946
1908 110941
err@@ 110916
nick@@ 110899
enni@@ 110890
quarter@@ 110860
painted 110841
illy 110840
spar@@ 110839
enjoy@@ 110838
convic@@ 110822
reduce 110814
haps 110764
uch@@ 110724
distributed 110691
ushed 110688
valu@@ 110649
your 110620
aki 110614
ons@@ 110602
Stone 110584
poses 110558
chose 110543
opera 110506
getting 110459
00@@ 110454
theastern 110445
onia 110428
Fame 110425
hill 110421
count 110389
quot@@ 110389
Light 110307
Bos@@ 110293
Rural 110227
junction 110217
appropri@@ 110168
asc@@ 110162
Simon 110108
dor@@ 110104
introduction 110102
Diego 110006
5,000 109998
statis@@ 109988
exerc@@ 109984
accur@@ 109891
Hotel 109884
wind@@ 109872
lis 109853
Liber@@ 109847
wind 109828
ito 109816
Brian 109786
FI@@ 109778
Cab@@ 109772
Rab@@ 109770
Rad@@ 109758
alis@@ 109749
filled 109745
Space 109710
hat@@ 109692
calling 109690
deleg@@ 109655
combination 109597
fine 109576
Iowa 109536
Once 109525
aga 109512
Ky@@ 109470
agricultural 109428
cir@@ 109421
Ocean 109414
tem@@ 109359
Ball@@ 109338
applications 109329
eng 109328
engineer 109314
mi 109313
oud 109299
construc@@ 109293
Buc@@ 109265
neighborhood 109243
una 109240
elli 109200
oring 109188
tees 109164
tou@@ 109134
58 109101
anced 109084
step 109049
rig@@ 109008
interests 108984
Gil@@ 108982
dry 108944
frame 108887
Cav@@ 108865
DVD 108861
Jan@@ 108848
weather 108848
Hil@@ 108826
Water 108792
neur@@ 108778
isol@@ 108776
ails 108770
Executive 108763
Out 108659
casting 108652
strik@@ 108523
Dal@@ 108500
interior 108490
ua 108436
Samuel 108428
journal 108406
sion@@ 108402
impres@@ 108401
migration 108371
AP@@ 108369
resistance 108369
chain 108299
Communist 108275
angle 108274
engines 108271
obs 108267
plus 108260
earliest 108232
replace 108225
dat@@ 108211
democ@@ 108169
99 108161
istry 108114
kr@@ 108113
rating 108106
strength 108053
scholar@@ 108023
nur@@ 107999
enses 107997
debuted 107970
nh@@ 107916
address 107851
child@@ 107817
author@@ 107796
singing 107787
reading 107772
SC 107727
Kat@@ 107704
sun@@ 107703
frequ@@ 107701
ethnic 107690
Air@@ 107654
valley 107630
UN@@ 107618
Anderson 107560
62 107555
composition 107552
Frederick 107535
Sem@@ 107528
associ@@ 107513
Danish 107477
eta 107475
bour@@ 107413
causes 107346
iced 107336
rat 107317
cy@@ 107312
Rugby 107287
formal 107262
AM 107257
adjacent 107253
rian 107253
Bud@@ 107222
rose 107194
ict 107165
eh 107153
liber@@ 107144
eff@@ 107126
sor@@ 107123
kin@@ 107108
fer 107074
treated 107021
rif@@ 107019
itz 107000
ski@@ 106992
class@@ 106977
advantage 106935
particip@@ 106911
16th 106899
Anthony 106862
ika 106856
objects 106838
coal 106805
chester 106783
cell@@ 106774
tured 106769
centr@@ 106754
Fair@@ 106699
,000 106658
che 106655
gene 106639
Bowl 106636
difficul@@ 106636
aming 106635
decade 106624
actual 106616
Prot@@ 106600
experi@@ 106559
Na@@ 106543
islands 106542
oir 106514
indi@@ 106453
fu@@ 106419
aster 106396
pack@@ 106384
techniques 106356
demand 106342
Lieutenant 106340
southeast 106337
72 106336
RA@@ 106320
Ren@@ 106318
survived 106292
beg@@ 106281
mill 106268
tun@@ 106268
organisation 106216
Sam 106206
effectiv@@ 106203
aria 106139
BA 106120
Alabama 106116
humans 106104
grad@@ 106084
nations 106084
document@@ 106038
duty 106030
Jesus 106010
So 106007
motor@@ 106000
eran 105992
employment 105991
dered 105989
deploy@@ 105981
bass 105973
consult@@ 105945
Program 105935
notably 105929
fron@@ 105914
Modern 105901
MS 105886
Pic@@ 105865
enr@@ 105842
Baseball 105841
Mayor 105775
measures 105767
Quebec 105757
experienced 105750
Tokyo 105744
67 105724
musician 105701
rough@@ 105656
stores 105633
arding 105588
Fol@@ 105562
imming 105554
concentr@@ 105511
pur 105511
Children 105505
criminal 105504
Pro 105477
reception 105461
77 105452
participate 105448
shore 105443
vocals 105414
leads 105411
Village 105376
wave 105372
tot@@ 105357
bottom 105354
Philip 105344
racial 105330
rejected 105312
K. 105311
signal 105285
Magazine 105268
churches 105265
charges 105261
piano 105216
Dol@@ 105211
Juan 105205
que@@ 105177
ported 105164
Dur@@ 105162
ief 105157
plot 105157
Commonwealth 105152
committed 105143
56 105133
Imperial 105121
med 105106
quar@@ 105104
eland 105071
bass@@ 105053
theater 105053
een 105046
Lincoln 105033
Donald 105021
contain 105004
meters 104982
anwhile 104974
philosophy 104904
ny@@ 104896
Arm@@ 104857
eye 104820
diction 104773
sively 104766
popul@@ 104764
greatest 104750
heads 104734
partnership 104722
Hollywood 104717
Allen 104715
examples 104713
mind 104712
plas@@ 104706
Mand@@ 104705
hibi@@ 104697
mol@@ 104684
gery 104681
pro 104669
categ@@ 104655
tran@@ 104623
burn 104578
crip@@ 104564
Douglas 104525
opposite 104492
Tas@@ 104381
easily 104374
Hungarian 104373
Bay@@ 104349
Argentina 104339
goods 104335
typical 104284
Christ 104262
Clark 104249
schol@@ 104191
num@@ 104154
Heritage 104143
rates 104133
circum@@ 104132
strike 104122
Czech 104115
az 104093
southwest 104089
74 103968
Independent 103957
businesses 103908
fired 103835
collap@@ 103819
althy 103811
budget 103803
hosts 103782
campa@@ 103732
bad 103699
renov@@ 103688
appointment 103656
Legislative 103591
dia 103578
comic 103564
Detroit 103563
designs 103560
nor 103529
86 103523
Law@@ 103522
gin 103514
adop@@ 103504
Cemetery 103491
vac@@ 103459
sub 103444
seems 103441
details 103440
operates 103423
oning 103418
bt 103378
Sto@@ 103349
ared 103346
sequence 103340
purchase 103334
hundred 103327
Reb@@ 103325
Adam 103321
leagues 103299
bay 103288
agre@@ 103271
Band 103269
Oklahoma 103245
AN@@ 103227
motion 103214
eties 103210
1905 103163
eas 103151
rebel@@ 103145
academ@@ 103126
Miami 103117
div@@ 103101
Cel@@ 103097
molec@@ 103075
equivalent 103051
musicians 103041
aly@@ 103037
Denmark 103014
factors 103010
lying 102994
respond@@ 102993
links 102943
sal 102905
damaged 102862
Puerto 102843
images 102753
Mississippi 102710
collaboration 102675
rent 102626
consequ@@ 102622
user 102597
Gallery 102595
mining 102577
IN@@ 102563
ae@@ 102533
didn 102526
61 102498
depos@@ 102488
ease 102488
temper@@ 102466
assist@@ 102462
proced@@ 102445
dating 102439
faces 102427
Ottoman 102408
Fire 102399
gate 102398
Fer@@ 102311
verty 102297
200@@ 102280
Gordon 102276
arriv@@ 102242
cally 102230
88 102214
cep@@ 102201
champions 102176
ped@@ 102165
Thr@@ 102157
chemical 102120
residential 102110
plic@@ 102064
honor@@ 101990
provincial 101988
vation 101981
criticized 101980
71 101974
jazz 101971
ves@@ 101971
passengers 101966
request 101964
contrast 101949
ingham 101936
Pad@@ 101931
Local 101914
medium 101910
ything 101902
var@@ 101885
winners 101865
Antonio 101858
Mun@@ 101842
Ga@@ 101811
secret 101798
protected 101795
intelligence 101756
Iraq 101754
Dom@@ 101749
acid 101703
skills 101654
apping 101636
sculp@@ 101611
Bab@@ 101582
ful@@ 101545
Hom@@ 101526
pain@@ 101523
admitted 101522
accompanied 101495
1906 101483
82 101399
proj@@ 101392
contributions 101373
é@@ 101352
reality 101342
accommod@@ 101337
rom@@ 101329
án 101307
aders 101299
gas@@ 101274
maintain 101267
defeating 101262
Reserve 101259
siz@@ 101241
flat 101215
favor@@ 101199
Lor@@ 101184
freedom 101155
habitat 101113
Marie 101105
items 101080
Doctor 101070
costs 101055
Rose 101044
arranged 101033
Singles 101020
Constitution 101013
commun@@ 101008
Belgium 100986
Domin@@ 100985
routes 100965
why 100965
distinct 100955
76 100936
96 100933
commission 100864
assumed 100846
Vic@@ 100819
esting 100806
capture 100773
retained 100772
1907 100770
onds 100753
s. 100742
flying 100732
tom 100678
73 100634
bird 100615
Up 100601
stages 100576
osa 100551
gun@@ 100543
Dublin 100535
surround@@ 100530
pin@@ 100514
hr@@ 100509
prize 100465
attached 100449
Athletics 100441
deputy 100418
insur@@ 100417
lawyer 100397
Met@@ 100386
bon 100384
ico 100373
persons 100346
Trust 100230
ionally 100229
1909 100168
Dre@@ 100138
conqu@@ 100121
rend@@ 100103
cue 100066
insula 100027
Ful@@ 100011
yst@@ 99995
Louisiana 99994
Railroad 99988
driving 99947
ius 99921
delivered 99890
releg@@ 99883
Fran@@ 99855
apart@@ 99850
norm@@ 99842
communication 99829
oid 99812
tac@@ 99797
flag 99781
educ@@ 99725
versi@@ 99722
new@@ 99706
Dan@@ 99705
mission@@ 99692
PC 99685
Emer@@ 99632
150 99624
arm 99619
documents 99601
anda 99576
mobile 99574
wan@@ 99566
Five 99558
contest 99480
equi@@ 99479
extra 99476
CC 99455
Ukrainian 99401
timate 99344
nothing 99338
banks 99278
archae@@ 99267
vival 99236
olar 99220
calcul@@ 99210
Water@@ 99202
Harvard 99191
Lou@@ 99176
trou@@ 99174
graph@@ 99154
six@@ 99142
Hungary 99131
happen@@ 99090
Buddh@@ 99071
25@@ 99070
justice 99064
dam@@ 99055
79 99049
determine 99039
wen@@ 99034
Bell 98976
colonial 98976
prefer@@ 98971
81 98952
Phil@@ 98936
electronic 98921
Palace 98907
Saf@@ 98885
Plan@@ 98880
reaction 98876
understanding 98866
Environ@@ 98802
Associ@@ 98793
78 98785
vir@@ 98769
Cop@@ 98764
nec@@ 98757
Dou@@ 98739
attend 98715
link 98691
ein 98671
Season 98655
59 98645
invest@@ 98640
Moore 98627
CS@@ 98612
Demographics 98551
usi@@ 98551
93 98543
painter 98542
petition 98527
path 98526
consci@@ 98522
heat 98483
falls 98475
jour@@ 98450
linked 98444
represents 98435
investment 98418
spr@@ 98411
streets 98390
68 98383
san@@ 98382
Brazilian 98331
princip@@ 98311
Not 98309
Stu@@ 98290
Bon@@ 98273
Additionally 98267
poem 98267
fashion 98242
crisis 98220
reign 98215
separated 98203
Kim 98199
adapted 98181
thers 98169
formally 98143
addres@@ 98141
brief 98138
showing 98134
onym@@ 98110
ownership 98067
publications 98054
Bus@@ 98042
wick 98025
anniversary 98002
Anna 98000
Nav@@ 98000
ester 97995
cot@@ 97984
shops 97973
sched@@ 97970
anna 97952
84 97940
simil@@ 97933
interested 97919
swit@@ 97915
CEO 97913
restored 97909
ML@@ 97865
degrees 97854
translated 97808
dies 97758
chant 97732
visual 97719
pot 97717
12th 97712
ott 97656
ect@@ 97638
teenth 97615
Hum@@ 97573
device 97544
shooting 97544
hun@@ 97516
08 97495
See 97489
filed 97480
mill@@ 97410
bad@@ 97402
1904 97365
Rights 97260
Deputy 97252
Saturday 97175
94 97167
ri 97164
ef 97154
Cle@@ 97143
regiment 97105
Connecticut 97100
fixed 97090
policies 97087
Fel@@ 97074
abl@@ 97069
naval 97060
conventi@@ 97043
igns 97040
ton@@ 97011
pandemic 97009
Battalion 97004
explor@@ 96996
folk 96995
ept 96963
dynasty 96940
su 96896
cent 96885
ker@@ 96879
caught 96873
Guard 96822
abled 96818
Lam@@ 96812
1,000 96792
difference 96790
popularity 96774
91 96770
escap@@ 96765
Pin@@ 96752
Fu@@ 96750
carrying 96749
Edinburgh 96734
flows 96708
mans 96684
lum 96661
8th 96622
aud 96594
á 96574
Bot@@ 96562
Fri@@ 96538
Internet 96534
slo@@ 96528
Kol@@ 96513
behavior 96484
classified 96474
ults 96465
courts 96357
publishing 96351
wich 96340
Mr@@ 96338
object 96303
ō@@ 96303
poss@@ 96297
franchise 96285
alised 96260
chron@@ 96255
ensis 96253
accident 96215
aths 96196
98 96170
alter@@ 96137
edit@@ 96122
severe 96108
Good 96106
rou@@ 96096
nu@@ 96085
surve@@ 96068
port@@ 96041
township 96015
factor 96014
map 95984
appear@@ 95945
Age 95928
believ@@ 95901
printed 95871
Liter@@ 95862
Margaret 95828
stret@@ 95786
Austrian 95784
Var@@ 95736
Ay@@ 95717
announc@@ 95684
establ@@ 95684
othing 95658
biggest 95653
Under@@ 95628
fel@@ 95602
controversi@@ 95601
adul@@ 95578
aut@@ 95555
invent@@ 95537
approv@@ 95474
Publ@@ 95440
Tam@@ 95372
learned 95371
guard 95276
vet@@ 95269
missing 95268
Montreal 95265
save 95257
brick 95228
tims 95221
Atlanta 95217
human@@ 95203
ket@@ 95197
Medi@@ 95194
DNA 95135
mont 95120
Tamil 95110
require 95110
islature 95097
innov@@ 95049
powered 95047
S.@@ 95022
rements 94986
Even 94955
NBA 94942
institution 94938
92 94930
dier 94894
Indonesia 94869
4,@@ 94860
diff@@ 94850
eu@@ 94819
Dam@@ 94818
13th 94817
1902 94797
cost@@ 94786
offensive 94779
declar@@ 94737
ABC 94724
Mountains 94701
weekly 94682
retur@@ 94658
red@@ 94635
wounded 94624
oden 94620
grap@@ 94565
lit@@ 94563
Christi@@ 94551
po 94549
Finn@@ 94522
dioc@@ 94475
600 94434
69 94427
prin@@ 94427
faculty 94425
Week 94422
lad@@ 94410
rounds 94405
gol@@ 94385
esh 94379
Hus@@ 94367
isher 94363
Beg@@ 94342
commune 94342
mal 94340
1901 94301
eri 94293
led@@ 94225
dur@@ 94207
bol@@ 94206
Portugal 94204
aqu@@ 94194
script 94166
defensive 94158
ów 94144
God@@ 94085
Ray 94076
thetic 94054
bin 94053
oks 94049
Whe@@ 94030
chance 94025
Pot@@ 93982
flowers 93970
Colonel 93951
Ci@@ 93941
daugh@@ 93937
seg@@ 93910
Max 93901
José 93888
Now 93855
stud@@ 93853
Lim@@ 93828
Broadway 93813
MP@@ 93799
Command 93786
Kath@@ 93732
Kin@@ 93698
photograph@@ 93663
Meth@@ 93631
mp@@ 93622
occupation 93604
Defense 93597
prime 93593
Alban@@ 93546
Ret@@ 93540
medicine 93527
contribut@@ 93516
Metropolitan 93464
windows 93453
inde@@ 93449
Ear@@ 93441
estim@@ 93433
esc@@ 93397
Nat@@ 93371
note 93371
collec@@ 93366
ranking 93349
Lawrence 93324
measure 93277
idents 93257
essel 93256
wi@@ 93231
oz@@ 93224
1903 93210
Vari@@ 93205
bring@@ 93205
essman 93188
reform 93185
Initi@@ 93162
Cos@@ 93159
ih@@ 93123
respect 93100
busin@@ 93085
divor@@ 93078
moth 93006
alogue 92986
ification 92972
Cleveland 92966
Ryan 92962
tennis 92962
waters 92946
Global 92932
Cu@@ 92842
destroy@@ 92838
illi@@ 92838
vered 92816
locality 92811
natur@@ 92806
hits 92804
organiz@@ 92783
maint@@ 92757
9th 92741
ula 92709
Construction 92708
sens@@ 92672
esian 92662
walk 92641
AS 92549
cus 92494
champi@@ 92492
Chairman 92462
Liverpool 92456
Maj@@ 92439
seas 92423
17@@ 92404
Boy@@ 92381
laim@@ 92381
testing 92380
Gh@@ 92345
relative 92322
Der@@ 92299
uri 92296
sim@@ 92278
Acc@@ 92229
mond 92216
oni@@ 92210
Commission@@ 92208
aur@@ 92205
Champions 92199
Walker 92160
hic 92139
guitar@@ 92133
argum@@ 92111
Malaysia 92107
draf@@ 92037
ón 91987
olled 91981
Mont@@ 91945
Welsh 91894
Egyp@@ 91879
Web@@ 91873
context 91838
Nazi 91836
inals 91808
ota 91763
oral 91755
recogni@@ 91715
Good@@ 91672
recog@@ 91668
veget@@ 91666
je 91624
iro 91584
liament 91549
Alan 91539
mean 91530
Upper 91506
Harris 91498
blo@@ 91492
pattern 91465
lap 91458
fit 91446
description 91430
gy 91424
aspects 91408
treat 91408
15th 91404
800 91393
Hun@@ 91372
Vienna 91363
bility 91354
ogen@@ 91350
behavi@@ 91309
Gold@@ 91306
Track 91305
rein@@ 91288
Round 91156
olling 91136
assembly 91120
expression 91101
Ken@@ 91082
hot 91076
val 91046
CC@@ 90965
ever@@ 90908
Seattle 90899
ming 90857
09 90842
Singh 90837
guil@@ 90825
adron 90817
Sm@@ 90731
compos@@ 90713
accept@@ 90712
bab@@ 90705
challenge 90680
idi@@ 90672
assistance 90615
Gulf 90605
bed@@ 90560
cab@@ 90548
Eric 90521
ager 90511
Eli@@ 90509
sand@@ 90437
tal 90404
lists 90340
rain@@ 90339
Blo@@ 90299
Rap@@ 90261
Phys@@ 90248
incorpor@@ 90244
aster@@ 90194
87 90173
isch@@ 90173
10th 90172
itage 90159
ater 90110
Studios 90097
storage 90015
frag@@ 89991
Culture 89973
emplo@@ 89948
Schools 89941
technique 89938
Through 89928
window 89909
recep@@ 89904
mir@@ 89902
Orchestra 89896
89 89883
eous 89871
onal@@ 89868
cards 89852
test@@ 89852
edo 89823
interpre@@ 89797
restaurant 89795
Commander 89793
oy 89791
garden 89768
Hen@@ 89743
D.C. 89718
jo 89685
Baltimore 89655
SP@@ 89653
anch@@ 89637
01 89631
talk 89470
Bad@@ 89456
lob@@ 89452
Dow@@ 89432
brain 89356
Got@@ 89355
ros@@ 89345
bit@@ 89325
racy 89307
fan 89287
therap@@ 89275
Vil@@ 89272
stable 89252
Ki@@ 89222
opping 89180
83 89157
Cathedral 89127
occup@@ 89125
Bak@@ 89108
akers 89107
migrants 89077
Transport 89060
translation 89019
excell@@ 89016
labor 89007
ither 88984
brid@@ 88970
fair@@ 88952
Crown 88951
Basketball 88943
lay 88925
Kit@@ 88907
capable 88884
Dean 88871
ă@@ 88850
Jordan 88836
Alliance 88790
chen 88790
AD@@ 88783
eness 88783
Lithu@@ 88763
tionally 88754
treat@@ 88720
cos@@ 88704
ware 88701
Crim@@ 88616
found@@ 88596
ome@@ 88577
aro@@ 88572
Disney 88568
1920@@ 88530
ecture 88512
Your 88502
Kelly 88492
lose 88488
Ross 88485
determin@@ 88484
97 88417
Officer 88380
ications 88366
Cul@@ 88352
gone 88349
Kennedy 88345
Agency 88324
Orthodo@@ 88305
ograp@@ 88275
Player 88271
Front 88270
audi@@ 88235
Vo@@ 88202
Sig@@ 88200
injur@@ 88192
Carl 88191
mates 88147
Jer@@ 88146
Morgan 88141
OS 88114
deb@@ 88111
Athletic 88102
Cot@@ 88093
gar 88082
Med@@ 88078
Mis@@ 88064
oes 88025
wear 87996
forc@@ 87952
Wild@@ 87944
ingu@@ 87879
Kevin 87874
Vir@@ 87863
Mes@@ 87846
medieval 87846
Grant 87822
Wood 87788
Camp 87781
electoral 87780
kings 87777
sul@@ 87777
asing 87773
alog@@ 87733
10.@@ 87637
send 87631
Pon@@ 87610
Garden 87604
temporary 87555
Deb@@ 87539
parallel 87444
Energy 87440
tari@@ 87439
CH@@ 87418
pon@@ 87385
reli@@ 87372
artisti@@ 87348
toms 87290
asis 87283
Ltd 87230
aph@@ 87210
ference 87203
dol@@ 87194
tank 87178
dog 87133
Li 87118
07 87114
opinion 87089
claim@@ 87060
seri@@ 87049
drop 87023
gle 87016
pm 86995
stitut@@ 86963
Mill@@ 86912
Jane 86910
AF 86905
Hills 86901
inner 86878
instance 86857
Bag@@ 86799
mass@@ 86787
aud@@ 86737
ox@@ 86735
Chil@@ 86726
controvers@@ 86726
ew 86724
agers 86693
rev@@ 86675
ū@@ 86667
losses 86664
05 86600
opp@@ 86572
thel@@ 86570
10,000 86543
Lane 86540
dish 86530
meth@@ 86528
Conservative 86513
vement 86498
Thompson 86495
evalu@@ 86491
Wel@@ 86463
theast 86456
Here 86436
Origin@@ 86422
TA 86422
slow 86363
dh@@ 86357
branches 86336
soccer 86304
1898 86298
Chart 86285
Review 86265
putation 86242
nomination 86217
manus@@ 86206
math 86196
dial@@ 86181
Convention 86177
Roger 86158
Sarah 86153
rats 86115
AB@@ 86097
terror@@ 86085
questions 86032
Rio 86027
hid@@ 85992
short@@ 85991
Hispan@@ 85979
Gun@@ 85957
vies 85895
Lower 85880
02 85841
Hir@@ 85817
sessions 85797
let@@ 85786
etta 85774
Boys 85766
vil 85730
Patri@@ 85677
Russell 85668
suspend@@ 85655
vin 85635
Bern@@ 85606
ple 85594
AI@@ 85562
element 85538
etings 85518
Rid@@ 85511
ambi@@ 85509
km2 85486
rece@@ 85483
Dan 85476
visible 85464
ip@@ 85448
Wa@@ 85388
debate 85383
Finland 85381
elig@@ 85368
abor@@ 85364
Opera 85353
ebr@@ 85353
Metro 85348
Pittsburgh 85348
Sus@@ 85347
eau 85345
suppos@@ 85321
Bangladesh 85306
shel@@ 85289
Short@@ 85280
otive 85263
Roman@@ 85258
Voivodeship 85255
idence 85241
ST@@ 85155
progres@@ 85110
span 85098
detail@@ 85044
dru@@ 85032
thouse 85014
Kent 84992
wed@@ 84987
ege 84974
acre 84964
eby 84943
Bri@@ 84934
artiller@@ 84932
record@@ 84927
near@@ 84918
frequency 84894
dam 84891
App@@ 84882
Trump 84881
wine 84846
ks@@ 84842
Trav@@ 84825
zi@@ 84800
absor@@ 84773
í 84734
concre@@ 84682
substitu@@ 84674
Taiwan 84635
adi 84624
tho@@ 84610
aja 84590
cha 84579
Eur@@ 84516
alt@@ 84505
lus@@ 84490
institu@@ 84473
Long@@ 84469
Information 84463
06 84458
Ka@@ 84441
vic 84426
recre@@ 84380
Ob@@ 84331
BS 84327
Senator 84326
Victor@@ 84323
genre 84308
ax 84298
Cub@@ 84273
wed 84262
aceae 84235
Test 84215
Peace 84205
parent 84201
ind 84179
ck@@ 84144
ges@@ 84139
Assist@@ 84121
tained 84106
carbon 84086
Dallas 84054
tons 84052
pend@@ 84035
hair 84003
til 83988
fill 83971
limit 83966
virtu@@ 83961
Austin 83913
1899 83906
Stewart 83904
Murray 83897
bann@@ 83896
End 83854
Arkansas 83758
lan 83755
ineers 83747
Real 83688
Training 83682
Birmingham 83668
illed 83662
bles 83656
accompl@@ 83628
Ing@@ 83602
v. 83587
message 83572
IM@@ 83556
considerable 83543
ership 83543
Bruce 83529
instruments 83523
Pierre 83472
bat 83451
Campbell 83429
Brothers 83419
Commun@@ 83418
Hab@@ 83416
Authority 83384
tell 83380
usion 83377
imal 83376
femin@@ 83344
constant 83329
wood@@ 83276
relation 83259
collections 83238
Daily 83232
web 83204
lip 83172
zz@@ 83106
arc@@ 83079
Ten 83077
Nelson 83065
line@@ 83046
neutr@@ 83027
icks 83022
Ann@@ 83002
fund 82980
V. 82974
Adams 82965
Chem@@ 82920
pedition 82890
maker 82875
ograph@@ 82833
Alex 82821
Cher@@ 82786
1890 82770
Express 82708
Sec@@ 82694
itt 82676
profession@@ 82659
Dance 82626
tributed 82621
skin 82620
ancer 82614
Bes@@ 82611
M.@@ 82610
aggreg@@ 82596
ander@@ 82572
fair 82572
estone 82569
iden 82568
pic 82552
unders 82546
eria 82545
has@@ 82526
hospit@@ 82447
lia 82443
Lan@@ 82437
onships 82379
serv@@ 82364
adaptation 82358
subsidi@@ 82313
stati@@ 82306
Our 82303
dou@@ 82232
eum 82208
Franklin 82191
Girls 82185
Rh@@ 82179
charts 82142
Che@@ 82071
rival 82046
urn 82046
kid@@ 82043
Christopher 82004
Heart 81977
Medicine 81876
Armen@@ 81855
m. 81820
boards 81809
rhy@@ 81750
Dave 81732
Four@@ 81719
Tour@@ 81687
uz@@ 81687
camera 81683
Mission 81656
F.C. 81651
Judge 81639
Robinson 81617
option 81599
Yan@@ 81596
yg@@ 81587
Den@@ 81557
mic 81554
polog@@ 81523
lery 81496
Sax@@ 81452
Cros@@ 81443
ushing 81434
liz@@ 81429
Way 81375
í@@ 81374
oking 81333
RC 81280
Wright 81260
graphi@@ 81258
rid 81243
sees 81225
histori@@ 81210
teri@@ 81209
Utah 81203
1896 81184
lain 81167
5,@@ 81153
Lind@@ 81124
bes@@ 81111
classification 81035
ava 81015
Moh@@ 80963
RA 80952
favor 80936
Norman 80925
Critical 80875
sever@@ 80855
amateur 80839
Nam@@ 80838
moder@@ 80820
guar@@ 80815
dynam@@ 80811
exc@@ 80783
NS@@ 80759
Pa@@ 80736
Romania 80689
cip@@ 80679
quanti@@ 80673
isa 80672
altern@@ 80649
Trade 80641
24@@ 80625
Dioc@@ 80605
Just 80605
ations@@ 80597
ector 80588
Brooklyn 80572
ample 80545
sud@@ 80528
impl@@ 80524
Baron 80523
Beau@@ 80488
CBS 80485
umed 80444
Alfred 80437
Princess 80406
Movement 80403
interpret@@ 80376
Economic 80357
Vel@@ 80341
philosoph@@ 80319
Six 80313
neighbor@@ 80266
soundtrack 80245
Produc@@ 80177
trus@@ 80172
1895 80157
eins 80148
populations 80147
Organization 80141
uli@@ 80128
lieutenant 80116
ech 80051
tribu@@ 80043
satis@@ 80021
idel@@ 80014
Pil@@ 79997
tainment 79974
Sor@@ 79916
xi@@ 79912
NBC 79908
bol 79882
Gol@@ 79860
ante 79831
fe 79807
cm 79786
Eth@@ 79777
UEFA 79777
Ann 79774
newspap@@ 79732
participation 79731
igned 79723
Pir@@ 79689
Silver 79681
doubles 79681
itual 79673
Racing 79644
Stre@@ 79637
Around 79634
cem@@ 79612
Ali@@ 79597
vention 79595
agan 79593
illegal 79585
AP 79570
synth@@ 79538
infrastructure 79525
partic@@ 79495
host@@ 79489
250 79485
Within 79449
opo@@ 79398
Son@@ 79352
hydr@@ 79315
Bachelor 79284
eers 79282
Theater 79231
tin@@ 79204
Place 79202
Iran@@ 79192
Spring 79189
designer 79189
steam 79185
Marshall 79126
cultiv@@ 79116
Ji@@ 79093
Trophy 79062
Stanley 79019
atri@@ 79015
Thailand 79010
Wi@@ 79009
letes 79008
Who 78996
1897 78981
ser 78977
Sound 78946
amber 78933
concep@@ 78893
oe 78887
step@@ 78864
Yo@@ 78854
bour 78841
combin@@ 78825
lev@@ 78818
Tower 78805
wild 78776
hund@@ 78758
borne 78722
clus@@ 78695
Jimmy 78691
bid 78673
domain 78664
osp@@ 78657
How@@ 78655
tests 78641
PS 78636
inj@@ 78611
infan@@ 78609
observ@@ 78609
Treaty 78607
hin@@ 78584
ayan 78560
CI@@ 78556
monaster@@ 78536
relief 78518
FIFA 78502
Statis@@ 78499
Portland 78466
Row@@ 78457
Bom@@ 78451
zi 78425
ishment 78397
Heb@@ 78388
But@@ 78355
Kum@@ 78334
andi@@ 78312
Brad@@ 78303
eyes 78287
thly 78287
Boy 78277
1000 78276
enth 78249
circuit 78202
endem@@ 78169
enth@@ 78169
Wrestling 78128
key@@ 78066
AL@@ 78057
Cum@@ 78040
minister@@ 78034
aps 78023
Carter 78015
atmosph@@ 78012
LP 77986
vive 77977
versity 77969
Carlos 77899
aer@@ 77889
couples 77889
Lang@@ 77772
suicide 77766
agriculture 77763
fic 77749
fruit 77713
organ 77689
Victor 77687
Ig@@ 77663
Matt 77641
otype 77625
Staff 77608
minimum 77605
Kel@@ 77595
aha 77569
Go 77553
aug@@ 77489
fix@@ 77479
ame@@ 77474
terns 77472
patient 77445
act@@ 77401
iliz@@ 77383
remain@@ 77374
Roy 77361
eti@@ 77352
fro@@ 77291
predec@@ 77266
uss 77256
rapid@@ 77230
bo 77221
map@@ 77197
aus 77182
ricane 77166
opportun@@ 77161
len 77160
annon 77138
grand 77122
Girl 77118
Iron 77117
fall@@ 77068
din 77047
Lov@@ 77023
scho@@ 77016
Cultural 77011
cylin@@ 76991
positi@@ 76963
presid@@ 76961
Billy 76953
yal@@ 76940
Tim 76927
Kon@@ 76923
pound 76923
sid@@ 76918
03 76915
Richmond 76842
int 76831
Pak@@ 76786
04 76782
effici@@ 76781
mist@@ 76772
astr@@ 76752
unk@@ 76713
prob@@ 76694
ions 76692
Ward 76666
capit@@ 76659
ump 76659
massive 76626
ray 76572
forcement 76567
underground 76559
rich@@ 76521
1893 76500
assemb@@ 76489
Champion 76486
Graham 76484
transition 76410
lington 76388
distinc@@ 76381
satellite 76329
Nick 76312
Ot@@ 76281
enny 76273
Limited 76269
Distribution 76265
heim 76255
Serbia 76252
zo 76233
gn@@ 76201
Ry@@ 76196
iefs 76182
use@@ 76167
may@@ 76110
Defence 76084
Moon 76057
2,000 76050
mode 76035
oti@@ 76033
pick 76031
complet@@ 76030
Pu@@ 76023
Eas@@ 76022
Glasgow 76012
videos 75973
report@@ 75916
Hampshire 75846
there@@ 75843
Som@@ 75840
å@@ 75826
architectural 75811
alis 75807
Cricket 75780
Windows 75760
Brit@@ 75759
Indians 75757
Dod@@ 75704
Draft 75671
leges 75671
techn@@ 75660
mul@@ 75659
cho 75637
ries 75616
Din@@ 75598
imm@@ 75586
Muhammad 75566
Fleet 75536
predomin@@ 75530
1889 75524
visi@@ 75487
maintenance 75474
cousin 75470
1894 75457
rob@@ 75457
Madrid 75427
Knight 75422
national@@ 75414
B.@@ 75411
versus 75397
rier 75396
insec@@ 75394
Mong@@ 75390
Canal 75360
1892 75349
commenc@@ 75327
ummer 75323
eton 75282
than@@ 75268
moment 75258
gros@@ 75247
Mediterran@@ 75227
atom@@ 75222
Barr@@ 75216
lane 75184
Dav@@ 75179
quarters 75172
anese 75164
grave 75123
uk 75122
Arabic 75117
Kas@@ 75032
Rot@@ 75018
tric@@ 75014
assault 75005
align 74994
Capital 74936
NHL 74924
intersection 74915
Natural 74900
ng@@ 74883
Las 74882
Orleans 74877
Protest@@ 74854
occasions 74849
immedi@@ 74843
terminal 74774
anga 74693
tha 74687
Islam 74662
Om@@ 74657
ji@@ 74657
Kno@@ 74646
supporters 74634
tak@@ 74634
watch 74629
kno@@ 74622
mom@@ 74613
Benjamin 74600
Afghanistan 74599
Alli@@ 74577
motor 74574
bos@@ 74568
cabinet 74554
PS@@ 74549
After@@ 74547
Will 74542
unction 74525
conce@@ 74506
enberg 74502
mail 74491
specif@@ 74482
ayer 74474
emper@@ 74473
fore 74471
iles 74451
Base 74450
Matthew 74422
ign 74406
dan 74395
photograp@@ 74389
Last 74350
rar@@ 74343
yan@@ 74342
kg 74315
describe 74263
RE@@ 74256
vocal 74253
lo 74155
Morris 74087
CE@@ 74066
agents 74066
onist 74062
Wit@@ 74052
etary 74040
194@@ 74031
1885 74020
icial 74019
scope 74006
disput@@ 73996
document 73931
agon@@ 73919
Municipality 73918
lave 73881
Midd@@ 73873
shell 73866
Nigeria 73815
urs@@ 73813
statue 73776
af 73757
Books 73748
Bush 73743
Historical 73731
Johnny 73706
streng@@ 73698
rd 73688
Yorkshire 73673
real@@ 73652
Bru@@ 73558
Farm 73554
colspan 73463
Note 73435
Pau@@ 73434
territ@@ 73413
iki 73367
Nik@@ 73354
pup@@ 73344
ague 73307
Seven 73306
50@@ 73294
enz@@ 73269
Bed@@ 73230
iders 73224
hang@@ 73219
Delhi 73202
ag 73197
cam@@ 73151
ive 73102
Aqu@@ 73091
1891 73086
Rico 73080
marketing 73080
Gary 73069
Chile 73024
Back 73015
avi@@ 73005
aware 73005
orn 73005
vill@@ 72999
NE@@ 72973
Lanka 72915
Jan 72900
myth@@ 72899
Zone 72878
eld@@ 72870
doctor 72835
participants 72835
assi@@ 72765
administr@@ 72764
RO@@ 72758
Fund 72757
tering 72743
Nic@@ 72739
Da@@ 72715
Fil@@ 72708
lements 72695
Mit@@ 72625
impos@@ 72625
Sing@@ 72611
tage 72576
Pav@@ 72573
inian 72536
inaugural 72533
tionary 72519
absence 72501
PC@@ 72463
tro 72422
camp@@ 72418
ratio 72408
1888 72404
orient@@ 72378
Arena 72342
Bil@@ 72340
linear 72329
Maine 72284
Shel@@ 72272
appy 72227
Labor 72204
Nicholas 72184
Jerusalem 72174
iness 72164
Liga 72144
supports 72140
phon@@ 72129
extinc@@ 72128
concerts 72083
stic@@ 72073
embr@@ 72056
rew 72050
suppl@@ 72043
attle 72039
styles 72017
asure 71987
dy@@ 71981
tiful 71950
preci@@ 71931
eline 71909
electric@@ 71903
transmission 71900
bone 71891
sson 71867
cable 71866
DS 71798
tial 71774
recipi@@ 71734
migr@@ 71732
yd@@ 71725
yers 71705
discrimin@@ 71651
Run@@ 71646
Ep@@ 71642
lier 71642
Yu@@ 71637
Greater 71609
Revol@@ 71608
clusive 71587
string 71577
Karl 71565
fail@@ 71542
duo 71503
Fellow 71499
gic 71494
Work 71473
Academ@@ 71457
exception 71405
Charlie 71390
Lis@@ 71357
trol@@ 71338
Bristol 71323
Jason 71288
pole 71257
Terr@@ 71252
rop@@ 71244
Vancouver 71233
ason 71221
gard@@ 71203
compilation 71200
Warner 71160
Alice 71110
panel 71075
unk 71024
quir@@ 71001
res 70983
EU 70976
intellectu@@ 70961
N. 70951
Maur@@ 70938
Thor@@ 70930
convention 70929
ode 70901
wan 70894
Tol@@ 70883
internation@@ 70827
monument 70819
icop@@ 70816
Category 70815
ust@@ 70799
onial 70795
Mitchell 70762
yo 70759
audio 70745
Beijing 70744
Late 70737
Milan 70730
hibition 70726
Andy 70722
agon 70715
assy 70685
contribution 70649
comput@@ 70640
Part 70629
Dist@@ 70627
segment 70624
succe@@ 70619
patri@@ 70574
navig@@ 70527
ead 70514
essing 70509
ongo@@ 70509
Gir@@ 70478
1865 70447
Xi@@ 70421
bach@@ 70408
1.5 70402
RI@@ 70380
1880 70375
leaf 70370
sole 70360
endor@@ 70358
show@@ 70358
Tran@@ 70352
Rod@@ 70340
leng@@ 70335
layer 70323
ectives 70321
gay 70307
Ath@@ 70302
Arc@@ 70283
onlyinclude 70229
Bla@@ 70222
× 70190
dic 70179
Rand@@ 70167
Od@@ 70164
Ca@@ 70146
Baker 70135
Jar@@ 70127
eries 70118
Caribbean 70111
pet@@ 70096
ī@@ 70086
Digital 70084
Bron@@ 70078
sel 70073
juris@@ 70043
Bible 70038
qi 70033
subs@@ 70031
Stud@@ 70016
princi@@ 69969
Maz@@ 69920
volumes 69907
ement@@ 69855
ud 69824
Let@@ 69805
On@@ 69798
Pit@@ 69793
iri 69790
tent@@ 69709
Gran@@ 69705
craft 69674
og 69663
Jeff 69640
Nad@@ 69624
Ah@@ 69597
Pan 69550
autonom@@ 69533
instrumental 69533
Challenge 69516
eston 69515
shu@@ 69485
amer@@ 69479
dle 69476
facilit@@ 69474
Sad@@ 69458
Yel@@ 69451
pit 69418
Orange 69406
Ari@@ 69377
ratic 69373
abo@@ 69363
Count 69344
1864 69337
excav@@ 69290
alt 69285
nat@@ 69285
iser 69277
1887 69271
municip@@ 69246
asa 69230
cup 69206
1870 69192
TC 69186
file 69164
Stars 69158
eck@@ 69098
width 69088
lip@@ 69069
Communications 69063
Manhattan 69060
Wes@@ 69046
Charlotte 69004
Warren 69001
mate 68971
plate 68959
lows 68940
Zh@@ 68925
Spec@@ 68917
four@@ 68892
Det@@ 68882
Tem@@ 68852
possession 68849
prim@@ 68839
UN 68828
fat@@ 68780
Evans 68772
1861 68747
conc@@ 68742
pron@@ 68739
6,@@ 68679
tee 68676
Friday 68660
pass@@ 68649
acres 68647
Hard@@ 68632
000 68615
ä@@ 68597
row@@ 68554
Et@@ 68553
Concer@@ 68538
lem 68523
née 68520
Nak@@ 68462
fortun@@ 68429
disc 68400
Brid@@ 68396
param@@ 68375
Hawaii 68373
Harrison 68368
LC 68351
Tow@@ 68350
Roy@@ 68343
Some@@ 68315
Market 68299
Nig@@ 68293
Meg@@ 68283
Gam@@ 68257
experimental 68257
destruction 68242
Class@@ 68237
lard 68224
zy@@ 68213
eto 68200
violent 68200
Constitu@@ 68188
simultan@@ 68176
Alberta 68170
23@@ 68154
cou@@ 68153
alion 68138
nav@@ 68131
coalition 68122
Songs 68119
Wayne 68119
iday 68119
Fine 68083
aine 68072
ener 68060
ventures 68057
icon 68046
cription 68027
constitution 68018
Wars 68002
Up@@ 67968
jury 67941
pag@@ 67940
oga 67928
Vik@@ 67899
Falls 67898
dog@@ 67890
sburg 67881
Cow@@ 67850
cript 67828
26@@ 67809
heav@@ 67778
sum 67767
agen 67764
vern@@ 67754
aj 67741
rie 67735
ows 67723
18@@ 67717
Ass@@ 67707
1886 67694
exclusiv@@ 67683
iden@@ 67680
agu@@ 67677
Person@@ 67674
Thir@@ 67666
Joh@@ 67665
Pass@@ 67660
loy@@ 67645
− 67643
phosph@@ 67632
estra 67616
alia 67608
inet 67598
quali@@ 67596
Fred 67579
VI 67574
Together 67572
Cad@@ 67553
1862 67518
inn 67516
inch 67510
bic@@ 67494
Wed@@ 67479
exclu@@ 67476
ras@@ 67470
nes@@ 67466
Fem@@ 67456
concentration 67439
Section 67396
mess@@ 67360
acle 67351
Rangers 67349
bish@@ 67347
instrument 67339
possibil@@ 67329
Jam@@ 67326
Hindu 67316
Cir@@ 67310
Story 67310
YouTube 67308
productions 67299
asser@@ 67285
Municipal 67276
Sport 67269
oughout 67235
certain@@ 67227
1863 67218
onder@@ 67176
SO@@ 67162
Guinea 67090
commerci@@ 67073
oms 67059
emot@@ 67058
sang 67039
gri@@ 67034
uma 66963
tica 66947
tend 66927
700 66919
Hart@@ 66919
Nur@@ 66916
Van@@ 66916
Philippine 66909
laborat@@ 66890
vo 66888
Freedom 66882
acter@@ 66877
imb@@ 66873
elds 66864
ogr@@ 66846
Day@@ 66841
accessible 66836
terminus 66829
120 66807
distr@@ 66780
ate@@ 66779
rell 66776
Ian 66769
tap@@ 66768
assign@@ 66758
sy 66731
Trinity 66718
provinces 66704
40@@ 66697
Cin@@ 66693
Studio 66667
conservation 66664
Nova 66658
Head@@ 66655
passage 66650
yle 66646
ride 66640
congreg@@ 66632
pointed 66632
12.@@ 66613
fantas@@ 66570
downs 66554
ication 66537
1884 66536
ation@@ 66535
bach 66534
Tul@@ 66519
raid 66514
bind@@ 66512
Pet@@ 66468
Broadcasting 66428
conclus@@ 66423
Tigers 66418
talent 66412
Vas@@ 66390
lak@@ 66382
Griff@@ 66348
Sloven@@ 66281
ž@@ 66275
ural 66257
Cooper 66243
criptions 66242
oting 66242
hot@@ 66234
Lanc@@ 66200
tification 66195
Common 66189
GA 66155
con 66153
oblig@@ 66123
balance 66118
Parker 66109
Scienti@@ 66081
orig@@ 66072
aro 66071
Aer@@ 66070
Christian@@ 66070
ulty 66045
leton 66023
hat 66013
ffs 66006
Charl@@ 65991
tives 65990
CP@@ 65985
Branch 65984
Gmina 65927
soft 65900
Patr@@ 65898
apon 65891
enders 65882
kes@@ 65872
vs. 65872
etery 65866
Bulg@@ 65854
playoffs 65851
AT 65846
ami@@ 65844
print@@ 65823
Clinton 65818
round@@ 65814
Adelaide 65807
ache 65799
Barry 65795
1881 65783
assassin@@ 65774
Video 65732
initiative 65707
cular 65696
Kap@@ 65695
Universal 65695
Hat@@ 65658
rel 65651
confer@@ 65624
Sat@@ 65620
sculpture 65610
leyball 65571
harmon@@ 65551
Legacy 65531
Liv@@ 65530
Oblast 65525
Dakota 65497
Rol@@ 65495
cath@@ 65485
Dy@@ 65466
symbol@@ 65455
11.@@ 65424
Parish 65376
Mich@@ 65349
voir 65304
aire 65302
ait 65294
Pel@@ 65271
aint 65226
dispute 65225
kw@@ 65195
edy 65189
alb@@ 65184
bor 65184
nel 65168
Bet@@ 65163
mig@@ 65160
RAF 65151
phy@@ 65107
Sky 65100
kar 65093
Syria 65079
tant 65042
traditions 65026
Bar 65012
Code 64990
uf@@ 64987
Wall 64986
Sul@@ 64964
IS 64957
Sak@@ 64957
escor@@ 64938
Action 64935
metre 64934
Jonathan 64925
Mic@@ 64911
Soccer 64891
arded 64881
bot 64879
egr@@ 64869
introduc@@ 64854
Virgin 64840
diverse 64838
venti@@ 64836
Christ@@ 64817
stimul@@ 64816
Admiral 64815
acker 64812
habit@@ 64809
Standard 64805
oxy@@ 64795
evacu@@ 64764
Pradesh 64760
Turner 64759
ees 64755
ș@@ 64753
MC 64750
flan@@ 64734
Type 64726
communications 64721
ble@@ 64699
semin@@ 64697
Blu@@ 64691
elly 64691
Au@@ 64687
configur@@ 64621
aise 64619
titu@@ 64579
PhD 64578
Buffalo 64529
Kings 64522
icle 64519
bie 64514
Barbara 64500
Stand@@ 64488
Cuba 64485
algorith@@ 64460
alliance 64457
ause 64396
tan 64387
buil@@ 64379
Saints 64338
Brig@@ 64324
iture 64323
Independ@@ 64313
Be 64303
kes 64301
occasion 64274
sman 64241
fee 64238
Bran@@ 64223
orph@@ 64218
solar 64201
hem@@ 64188
compens@@ 64182
crimes 64176
fri@@ 64176
dn 64145
conven@@ 64124
Technical 64119
Abbey 64107
Ant@@ 64105
dominant 64102
ont@@ 64093
Fro@@ 64078
Beh@@ 64064
gir@@ 64007
Hi@@ 64004
Years 63995
Bou@@ 63987
Polic@@ 63981
1882 63978
Ze@@ 63978
Squ@@ 63967
kit@@ 63953
AF@@ 63936
excep@@ 63923
Food 63920
Woman 63914
Hunter 63878
ME@@ 63867
Fif@@ 63858
han@@ 63836
istan 63835
hop 63832
Classic 63825
Post@@ 63818
27@@ 63816
Fili@@ 63790
agn@@ 63767
phil@@ 63740
supervis@@ 63728
Control 63714
Baptist 63695
lowing 63681
fam@@ 63680
onym 63648
okie 63643
monit@@ 63623
Collins 63616
ogy 63612
dow@@ 63607
Ple@@ 63599
Peru 63597
Tech 63588
qualification 63581
ui 63569
ild 63543
contest@@ 63536
Century 63525
Brisbane 63524
Hudson 63523
udi@@ 63517
aux 63500
Advis@@ 63492
org@@ 63474
Cent@@ 63469
iff 63464
som@@ 63460
intr@@ 63409
CS 63355
Saudi 63347
coff@@ 63341
9,@@ 63338
C.@@ 63323
Fitz@@ 63318
prol@@ 63277
Alaska 63274
Race 63270
Munich 63209
Cook 63196
Ice 63196
Conservation 63169
wak@@ 63163
Catherine 63156
Bengal 63144
ags 63144
enger 63131
sanc@@ 63109
cargo 63093
Punj@@ 63050
Jacob 63031
ulu 63031
gam@@ 63009
experim@@ 62995
lic 62982
hos@@ 62977
Anglo 62953
Malay@@ 62953
tif@@ 62944
Sz@@ 62943
isation 62943
absol@@ 62889
Pref@@ 62882
MS@@ 62867
lit 62843
conversion 62841
bank@@ 62835
ken@@ 62829
NY 62787
ingen 62777
Beng@@ 62773
nd@@ 62771
romanti@@ 62768
oug@@ 62732
mes 62710
emati@@ 62708
sters 62701
Scar@@ 62696
TV@@ 62693
else 62676
etti 62666
cad@@ 62665
Cincinnati 62647
amework 62646
Urban 62593
celer@@ 62581
canal 62579
istr@@ 62569
aign 62549
locomot@@ 62518
persu@@ 62506
Cru@@ 62497
rat@@ 62492
Rail@@ 62484
Language 62449
Aber@@ 62442
ought 62426
roll 62424
IP 62423
Lloyd 62417
influences 62412
depart@@ 62411
Industry 62399
mac@@ 62399
Peter@@ 62350
wick@@ 62345
NO@@ 62343
Down 62342
comedi@@ 62330
Nation 62329
Rud@@ 62327
Model 62325
Quar@@ 62313
asses 62306
Pul@@ 62301
nee 62292
7,@@ 62280
Duch@@ 62248
reven@@ 62244
gau@@ 62227
tol@@ 62227
ave@@ 62206
motiv@@ 62199
ebo@@ 62194
tunnel 62157
ambass@@ 62136
Ton@@ 62105
Doc@@ 62069
sugg@@ 62069
iment 62057
Found@@ 62053
oi 62049
intention 62046
Territory 62027
infl@@ 62007
libr@@ 61972
web@@ 61943
Trail 61940
1883 61931
DA 61917
gence 61907
trix 61896
tre 61886
Hand@@ 61867
Oliver 61841
ann 61832
nucle@@ 61795
Represent@@ 61791
Radi@@ 61788
Barcelona 61742
endant 61724
olo@@ 61711
relevant 61703
pain 61699
partner@@ 61697
Š@@ 61681
Unit 61669
attend@@ 61656
Springs 61652
Spar@@ 61637
Dark 61636
1871 61635
tab@@ 61622
iler 61607
Vit@@ 61575
John@@ 61574
Boh@@ 61572
tag@@ 61555
mix 61538
Do 61533
100,000 61523
pav@@ 61518
ci 61517
astronom@@ 61512
tone 61493
proxim@@ 61491
eur 61487
wal 61482
Jay 61473
IC 61457
King@@ 61456
Mass@@ 61442
spl@@ 61439
1876 61437
miss@@ 61429
Buch@@ 61376
trail@@ 61348
expect@@ 61328
Anti@@ 61302
Masters 61288
vacc@@ 61285
rand@@ 61282
1860 61271
2.5 61243
hav@@ 61229
Latino 61228
acquisition 61207
Apple 61188
utiliz@@ 61184
1878 61181
gues 61161
tradition@@ 61158
Iv@@ 61147
Hugh 61135
hau@@ 61125
É@@ 61119
DP 61115
Hans 61109
Sl@@ 61107
Phoenix 61095
danger@@ 61074
Nevada 61069
tres 61057
sph@@ 61045
Luis 61029
Clim@@ 61022
styl@@ 61022
titude 61004
wn@@ 60989
esi@@ 60985
Mut@@ 60984
Aur@@ 60947
Bernard 60882
Leeds 60881
anner 60881
auc@@ 60872
ais 60867
elor 60863
Roberts 60850
adr@@ 60840
trag@@ 60813
kan 60798
Les 60782
Colombia 60764
rement 60744
etown 60724
Ye@@ 60699
bow 60697
Microsoft 60696
ysis 60695
Shah 60690
mention 60683
TE@@ 60647
Dead 60643
Shir@@ 60641
commission@@ 60636
Yam@@ 60626
bili@@ 60611
tempor@@ 60567
Palest@@ 60542
magaz@@ 60540
Let 60532
kilom@@ 60487
Epis@@ 60483
tru@@ 60471
festivals 60425
mon 60422
Artic@@ 60408
Systems 60395
Wild 60390
rab@@ 60381
Industrial 60379
registr@@ 60362
umes 60361
Sau@@ 60357
cian 60289
Barn@@ 60285
Mum@@ 60278
ulum 60278
DE@@ 60267
Chamber 60266
descri@@ 60262
Kab@@ 60258
Key@@ 60246
Arg@@ 60243
ener@@ 60227
Herbert 60221
Arab@@ 60193
Byzant@@ 60185
las 60179
tel 60178
Byr@@ 60149
kil@@ 60124
Cov@@ 60120
Nepal 60113
28@@ 60102
DJ 60077
histor@@ 60074
Vincent 60072
nant 60028
Bell@@ 60017
olls 59998
bases 59990
mad@@ 59975
Symphony 59952
How 59943
provid@@ 59893
aters 59886
chrom@@ 59858
Naz@@ 59853
Borough 59820
soul 59818
cerem@@ 59813
Aut@@ 59790
trig@@ 59781
Athens 59703
Cus@@ 59692
mant@@ 59691
ual@@ 59685
eva 59670
Costa 59626
UC@@ 59621
SS@@ 59612
mines 59581
3,000 59580
tape 59570
Azerbaijan 59555
Electric 59551
IT@@ 59548
Mart@@ 59500
mo 59479
awn 59474
aren@@ 59454
Rail 59450
Astr@@ 59448
Hem@@ 59447
tum@@ 59412
Wing 59400
vertical 59382
lap@@ 59369
RS 59361
Jazz 59352
Poli@@ 59344
anthro@@ 59333
anne 59327
com 59303
Rub@@ 59294
Gur@@ 59278
haz@@ 59268
tual 59250
nik 59244
pose 59241
ref 59195
Syn@@ 59189
lov@@ 59174
dil@@ 59166
househ@@ 59159
tz 59159
Formula 59157
ix 59155
Pictures 59145
moral 59141
Cathol@@ 59134
gend 59131
Ele@@ 59110
Wang 59109
Nebraska 59097
eting 59095
Madison 59084
Les@@ 59078
Jur@@ 59041
industries 59011
tim 58983
1867 58965
iti 58964
ministr@@ 58955
Jr. 58952
Buil@@ 58931
estyle 58917
gang 58897
1872 58888
Norfolk 58854
scrip@@ 58837
pper 58799
Circuit 58798
U.@@ 58777
vor 58764
van@@ 58756
py@@ 58747
1875 58734
gran@@ 58734
Nas@@ 58727
Pop@@ 58726
bet@@ 58690
mir 58690
Ten@@ 58678
Formation 58666
Chron@@ 58648
att 58641
recur@@ 58641
barr@@ 58632
Dru@@ 58630
Princip@@ 58609
usage 58607
Kenya 58593
Hope 58589
accord@@ 58584
Blues 58539
Lit@@ 58526
1879 58522
Lions 58512
Sha@@ 58468
ée 58448
virus 58436
lav@@ 58421
bright 58420
lingu@@ 58420
Jack@@ 58408
ont 58406
Stor@@ 58405
Gray 58400
conflic@@ 58381
Cri@@ 58331
ando 58329
dub@@ 58323
fax 58303
etle 58299
Drive 58292
wealth 58286
Net@@ 58255
Nu@@ 58226
Rah@@ 58225
J.@@ 58193
Clin@@ 58173
Second@@ 58173
elt 58145
iss 58144
ento 58111
Scre@@ 58098
quit@@ 58088
nia 58086
ques 58082
iver 58067
rej@@ 58065
hou 58062
tox@@ 58061
machines 58060
model@@ 58056
thin 58053
restr@@ 58008
semif@@ 57999
Non 57995
1868 57970
RT 57937
stell@@ 57936
sevent@@ 57921
Giants 57888
ska 57838
limit@@ 57813
peti@@ 57795
Rogers 57759
Commons 57745
Croatia 57736
reun@@ 57736
ll 57733
pages 57727
gan 57710
Mik@@ 57670
USS 57627
wait 57624
Newcastle 57622
simul@@ 57587
Proc@@ 57581
AR 57566
Architecture 57560
open@@ 57479
à 57462
Side 57438
Plan 57418
ram@@ 57409
kan@@ 57402
a.@@ 57394
Phil 57378
camps 57373
Rock@@ 57360
Bra@@ 57351
crit@@ 57346
Haz@@ 57334
oba 57330
prosp@@ 57330
Range 57301
import@@ 57269
Fair 57253
gy@@ 57253
colon@@ 57249
Orig@@ 57237
Jerry 57223
deck 57222
Kom@@ 57212
cricketer 57205
Album 57203
aver 57189
syl@@ 57188
Poly@@ 57187
1874 57184
mes@@ 57176
edral 57169
Abu 57163
diagnos@@ 57158
inaugur@@ 57155
sort 57130
Vegas 57108
ado@@ 57101
golf 57097
communic@@ 57094
oker 57082
Derby 57072
politi@@ 57058
Gas@@ 57034
Had@@ 57027
san 57018
Terry 57009
Bang@@ 56991
liberal 56990
hit@@ 56985
tar 56959
inspiration 56956
riv@@ 56945
1873 56940
Gener@@ 56917
allo@@ 56915
Tai@@ 56911
Flo@@ 56901
continental 56885
caval@@ 56880
sibl@@ 56857
mili@@ 56843
alcohol 56841
Ori@@ 56819
NA 56792
1877 56791
Willi@@ 56791
inclus@@ 56789
imperial 56787
Cli@@ 56785
explic@@ 56763
Bun@@ 56751
Storm 56750
idential 56749
Denver 56732
eve 56729
13.@@ 56702
São 56671
clo@@ 56669
ucture 56638
1866 56635
€ 56624
Neil 56620
adap@@ 56615
Argentine 56599
buses 56564
utes 56539
ega 56524
Laborat@@ 56522
Sultan 56514
ović 56498
Mill 56493
Sn@@ 56476
Jefferson 56465
Species 56460
Ed 56445
ehouse 56434
mati@@ 56417
Petersburg 56401
Pedro 56390
win@@ 56368
morph@@ 56347
ashi 56340
Florence 56322
plex 56298
Jose 56296
uh@@ 56269
das 56257
nak@@ 56239
Anti 56238
MI@@ 56227
arti@@ 56220
clan 56219
iker 56210
Bav@@ 56161
acher 56137
Ridge 56136
soph@@ 56119
corruption 56108
Nature 56067
follow@@ 56067
portrait 56056
poli@@ 56050
ament 56031
Warsaw 56024
bid@@ 56017
lun@@ 56001
oll 55959
Can 55944
Kaz@@ 55926
Amsterdam 55901
Comp@@ 55881
fordshire 55880
Murphy 55876
Coll@@ 55869
environ@@ 55858
convers@@ 55839
illo 55833
Nin@@ 55776
tus 55775
Has@@ 55767
Ottawa 55758
Slav@@ 55749
ander 55721
Ras@@ 55717
Helen 55713
Kl@@ 55704
Comics 55615
isti@@ 55613
brigade 55612
yi 55608
Auckland 55588
sung 55572
restaur@@ 55570
spect@@ 55565
esia 55560
hul@@ 55554
Indon@@ 55536
Pier@@ 55532
phrase 55531
files 55520
Dick 55508
Anci@@ 55448
ampton 55439
tern@@ 55426
consolid@@ 55421
Play 55410
conclu@@ 55377
Bulgaria 55320
ighton 55297
Austr@@ 55277
aba 55277
punk 55277
Sud@@ 55272
zes 55234
Edwards 55231
onom@@ 55217
ling@@ 55213
Delaware 55206
Cham@@ 55194
vit@@ 55192
Yale 55155
ogen 55142
Keith 55104
addi@@ 55094
rett 55090
Shanghai 55074
Luke 55072
Bac@@ 55064
essenti@@ 55057
trum 55051
ception 55049
stab@@ 55040
attemp@@ 55037
intermedi@@ 55019
wir@@ 55004
Perry 54983
Eg@@ 54972
hyper@@ 54961
Venice 54959
Sierra 54958
umin@@ 54940
Rav@@ 54921
Steph@@ 54897
Philosoph@@ 54894
omen@@ 54891
pharm@@ 54881
Six@@ 54853
regard 54843
kul@@ 54816
Hut@@ 54808
Lebanon 54801
Mod@@ 54794
Harold 54785
retr@@ 54780
magne@@ 54740
ete 54720
Grace 54714
Sund@@ 54696
Serge@@ 54693
implic@@ 54684
Obama 54683
.S. 54671
argu@@ 54668
spin 54614
Zi@@ 54588
Antarc@@ 54567
Vid@@ 54563
decide 54554
Psych@@ 54524
internet 54469
Band@@ 54468
uld 54414
ete@@ 54397
sexu@@ 54373
Cau@@ 54364
ld@@ 54354
Camb@@ 54352
Brand@@ 54338
oli 54338
deriv@@ 54335
RT@@ 54317
Bau@@ 54279
Thai 54255
Manuel 54248
1869 54230
Sug@@ 54230
CO 54221
clu@@ 54204
esser 54191
Cass@@ 54164
IA 54159
Child 54131
Robin 54131
Amer@@ 54108
hypoth@@ 54078
Num@@ 54077
bai 54070
parks 54067
1848 54062
Wellington 54047
29@@ 54013
Mack@@ 54003
dollars 53990
esa 53985
Protection 53978
ologies 53966
variable 53953
ão 53947
Stage 53943
perspective 53935
Ken 53926
calend@@ 53924
hibit@@ 53919
Tir@@ 53914
Broad@@ 53902
Semin@@ 53893
sil 53886
Chand@@ 53870
entrepren@@ 53864
35@@ 53860
ido 53837
agr@@ 53816
3D 53813
Fir@@ 53804
sley 53799
Sir@@ 53793
ng 53789
tice 53772
Petr@@ 53768
æ@@ 53747
ult 53741
Gregory 53736
Bobby 53734
revis@@ 53731
sun 53722
• 53717
Future 53716
geome@@ 53716
tours 53716
Craig 53714
Sid@@ 53706
Ghana 53702
Pra@@ 53695
eni 53662
ry@@ 53657
Stuart 53644
vić 53641
Report 53638
Collection 53616
AN 53615
pedi@@ 53606
Administr@@ 53603
coup 53601
Cong@@ 53599
Mahar@@ 53599
rum@@ 53597
deser@@ 53583
kir@@ 53578
vis 53576
Will@@ 53570
Mother 53564
Daw@@ 53559
promin@@ 53554
ampa 53552
uru 53550
da@@ 53544
elder 53539
achi 53528
kov 53515
8,@@ 53512
Gul@@ 53493
Mann@@ 53489
Batt@@ 53487
Larry 53483
laun@@ 53478
Thi@@ 53472
Short 53471
berry 53466
sat 53462
Flight 53458
flag@@ 53442
… 53434
bak@@ 53431
Financial 53414
ret 53390
distinction 53386
L.@@ 53379
Guy 53372
lon 53368
mart 53366
Hughes 53363
revolution 53361
Commer@@ 53349
oxide 53318
wing@@ 53316
Car 53301
Stan@@ 53279
Contemporary 53252
condi@@ 53245
oria 53237
Aus@@ 53234
Shu@@ 53194
Pay@@ 53191
Gilbert 53190
prohib@@ 53185
Fun@@ 53168
acial 53145
ej@@ 53142
uns 53134
ult@@ 53130
element@@ 53122
otes 53068
ester@@ 53059
inum 53047
ministers 53012
Lod@@ 53011
raph 53010
independ@@ 52992
Venezuela 52972
Artiller@@ 52964
subst@@ 52964
Bad 52958
iko 52938
14.@@ 52929
enton 52925
imagin@@ 52910
Ira@@ 52902
Harbor 52881
jer@@ 52851
Sac@@ 52836
WA 52829
MO@@ 52826
Key 52817
sug@@ 52817
anz@@ 52805
clar@@ 52794
adu@@ 52779
Bog@@ 52778
Eagles 52773
Exchange 52767
atur@@ 52765
amo 52764
retir@@ 52763
doctr@@ 52745
1850 52719
p.@@ 52717
emia 52716
guide 52704
Computer 52693
Han 52680
Sullivan 52678
RNA 52651
enty 52647
Dam 52624
Ale@@ 52617
Cast@@ 52609
Hitler 52605
Stat@@ 52598
Guardian 52595
ony@@ 52591
Sah@@ 52588
Ralph 52566
Aviation 52527
Albums 52523
Chanc@@ 52514
Run 52472
Next 52451
Vermont 52447
rol@@ 52421
emis@@ 52412
By@@ 52390
Hamp@@ 52379
cap 52373
dimen@@ 52364
ph 52350
Len@@ 52331
descendants 52303
propor@@ 52287
Dennis 52286
Gard@@ 52271
potenti@@ 52264
Ny@@ 52259
Joint 52233
Wy@@ 52233
Jes@@ 52193
Montana 52192
Delta 52190
Provincial 52134
princ@@ 52131
Agriculture 52121
mari@@ 52109
Productions 52090
clim@@ 52089
inter 52088
Mr 52078
organisations 52077
press@@ 52077
Villa 52072
insp@@ 52070
tube 52063
cat 52055
vas@@ 52047
entation 52043
anus 52029
Sheffield 52025
Swe@@ 52020
Butler 52011
got@@ 51973
cyc@@ 51953
Yugoslavia 51944
pt 51912
technologies 51909
Ph.@@ 51907
altitude 51884
Mach@@ 51875
cester 51871
Steven 51815
Motor@@ 51808
alle@@ 51799
liqu@@ 51766
bey 51732
tes@@ 51726
amin@@ 51713
error 51709
Berkeley 51706
locom@@ 51706
metropolit@@ 51684
accomp@@ 51680
acous@@ 51679
dian 51672
ith@@ 51670
ustr@@ 51662
abase 51660
Audi@@ 51630
kel@@ 51620
Donn@@ 51605
Rat@@ 51597
xes 51568
Small 51554
copal 51539
atch@@ 51534
asi 51522
radical 51521
meter 51496
Leo 51493
eus 51490
Hill@@ 51477
studios 51475
Lab@@ 51456
eon 51417
relati@@ 51412
atis@@ 51388
efs 51377
Jacques 51363
antum 51363
Friends 51348
aman 51298
Citi@@ 51295
Mathemati@@ 51294
bell 51285
mers 51285
offs 51281
Google 51268
installation 51239
aton 51236
E.@@ 51234
turn@@ 51228
ean@@ 51224
acht 51217
geb@@ 51213
Hin@@ 51198
Af@@ 51195
Stanford 51195
Susan 51191
lod@@ 51186
Student 51178
elia 51158
ensi@@ 51154
Elli@@ 51153
coin@@ 51151
Roosevelt 51144
eder@@ 51144
suspension 51128
Days 51118
Fall 51089
GM 51075
Gau@@ 51066
Nashville 51065
Motor 51047
Ma 51044
IT 51025
ospel 51021
endum 51018
andal 51009
amer 51004
Equ@@ 51000
Dick@@ 50986
Shr@@ 50970
Performance 50957
Mills 50951
incar@@ 50942
defender 50932
Sask@@ 50928
igher 50921
uti@@ 50918
ku 50917
obi@@ 50893
Ok@@ 50875
Horse 50872
Fres@@ 50871
bel 50830
membran@@ 50824
conspir@@ 50774
situ@@ 50763
alum@@ 50761
ho 50733
set@@ 50720
Vietnam@@ 50711
Cruz 50708
thm 50702
Tun@@ 50695
impossible 50695
Sic@@ 50693
Tab@@ 50671
lement 50667
Lav@@ 50659
Ober@@ 50656
ein@@ 50653
Kos@@ 50646
usias@@ 50636
orn@@ 50615
elabor@@ 50594
Institu@@ 50574
Watson 50568
Brah@@ 50558
osh@@ 50552
Intelligence 50537
AL 50529
rap 50520
Tuc@@ 50506
Pow@@ 50505
exact@@ 50489
admir@@ 50470
superior 50461
certific@@ 50444
ehr@@ 50443
60@@ 50440
nutri@@ 50439
ticul@@ 50436
tt@@ 50434
Pos@@ 50432
Pun@@ 50375
Govern@@ 50373
Holland 50371
Reser@@ 50369
IP@@ 50362
Dame 50319
Ron 50281
emigr@@ 50252
Fle@@ 50221
insist@@ 50221
Dream 50220
Tat@@ 50217
Yor@@ 50211
ces@@ 50210
otyp@@ 50190
Wallace 50177
town@@ 50175
interrup@@ 50153
Sony 50135
archi@@ 50119
Pep@@ 50112
eign@@ 50108
vulner@@ 50103
PE@@ 50097
mach@@ 50097
Box 50071
ers@@ 50052
ignor@@ 50029
1857 50015
rus@@ 49996
Private 49992
resist@@ 49981
mons 49978
HMS 49975
Lem@@ 49970
Neg@@ 49950
Nich@@ 49929
alan 49926
alp@@ 49906
Commerce 49903
Carl@@ 49901
Ferr@@ 49898
Wells 49886
1859 49884
Marqu@@ 49877
abund@@ 49868
20,000 49823
Dra@@ 49817
abstr@@ 49801
Eddie 49799
Hot@@ 49766
oli@@ 49727
Emp@@ 49714
flav@@ 49702
pher@@ 49675
ric 49653
Ivan 49635
MD 49618
unanim@@ 49602
cali@@ 49592
kinson 49575
emen 49564
logo 49550
fundamental 49548
Pop 49546
Eff@@ 49511
tronics 49511
Phillips 49509
MTV 49504
perman@@ 49499
Golf 49490
Mason 49482
atra 49475
compati@@ 49466
jur@@ 49466
Raymond 49452
DO@@ 49445
best@@ 49440
compositions 49432
NY@@ 49427
Cold 49423
Clu@@ 49416
Map@@ 49416
acon 49403
HL 49401
Py@@ 49396
Open@@ 49364
Ground 49337
Kash@@ 49327
Dro@@ 49318
Sign@@ 49313
Rick 49312
aspect 49304
Dyn@@ 49287
Was@@ 49284
Palestine 49275
app 49274
ender 49260
nan 49260
diz@@ 49245
fus@@ 49206
ig 49178
zer 49174
appr@@ 49124
CN@@ 49113
engagement 49105
Price 49102
80@@ 49097
Jon 49089
ovich 49078
Rif@@ 49074
esty 49026
radar 49026
ilk 49022
BM@@ 49004
secre@@ 48996
Pod@@ 48989
manif@@ 48985
Bec@@ 48980
toler@@ 48960
tec@@ 48949
stric@@ 48945
Kun@@ 48943
Tib@@ 48939
Arnold 48936
victor@@ 48894
pa@@ 48884
pig@@ 48852
ó 48843
Down@@ 48835
Leonard 48806
tail@@ 48797
LE@@ 48763
jar@@ 48763
Angel 48754
coc@@ 48754
eks 48753
cultures 48734
Cant@@ 48725
doctor@@ 48680
Prague 48678
Magic 48677
enem@@ 48661
appoint@@ 48655
Fab@@ 48649
eter@@ 48647
orange 48595
zo@@ 48595
Hob@@ 48593
Archit@@ 48582
Leb@@ 48570
DF 48565
Columbus 48561
milit@@ 48561
plac@@ 48559
aye 48536
Vin@@ 48534
Gabriel 48510
Celtic 48500
ii 48489
ö@@ 48486
Techn@@ 48472
uts 48461
Grey 48458
Dr 48447
Congo 48432
Newton 48430
rival@@ 48411
Harvey 48409
memor@@ 48408
Grove 48407
fung@@ 48396
HS 48377
CR 48364
phi@@ 48317
tiles 48309
olen 48307
ę@@ 48296
Mars 48269
Die 48263
chanc@@ 48219
Cla@@ 48215
Lac@@ 48213
aviation 48198
Sieg@@ 48193
bra 48185
Cec@@ 48179
programmes 48173
eli 48172
icas 48165
iny 48165
diesel 48155
Rich@@ 48153
coron@@ 48152
igan 48149
NAS@@ 48132
Dani@@ 48125
enda 48111
eno 48094
Prom@@ 48080
empire 48062
Tommy 48061
power@@ 48049
bonus 48048
eler 48031
TS 48019
dir@@ 48000
cens@@ 47997
Ng@@ 47994
R.@@ 47987
gi 47974
cio 47965
Abraham 47952
Renaissance 47942
Buck@@ 47939
fier 47930
Chang@@ 47912
server 47903
Oscar 47895
McCar@@ 47887
Airlines 47879
judicial 47878
insig@@ 47861
Record 47845
Clarke 47835
virtual 47831
ledge 47810
Dum@@ 47808
Films 47803
Krish@@ 47789
kal@@ 47781
Grammy 47754
Ow@@ 47720
artificial 47715
syndrome 47707
NH@@ 47688
familiar 47688
Hamburg 47633
isha 47633
som 47624
Right 47606
Otto 47601
dis 47591
Vladimir 47570
Mam@@ 47556
ectiv@@ 47554
Marsh@@ 47536
Weekly 47533
oslav 47523
pin 47522
abr@@ 47508
itz@@ 47505
bon@@ 47480
Phot@@ 47454
Ball 47439
contribu@@ 47436
universal 47427
polis 47409
planes 47399
ante@@ 47388
iga 47388
1854 47380
sar@@ 47378
Essex 47357
nic@@ 47356
horn 47323
enzyme 47322
ín 47308
sciences 47293
Boulevard 47281
na@@ 47281
PR 47267
Brus@@ 47262
colonies 47258
liqui@@ 47243
dar@@ 47224
wald 47212
Arabia 47204
Hind@@ 47182
O. 47176
ango 47161
ups 47156
aca 47155
Element@@ 47151
trian 47137
culmin@@ 47115
mic@@ 47112
cot 47101
PN 47096
Dragon 47081
pian@@ 47078
Liu 47064
Liberty 47047
gan@@ 47035
ffe 47015
1855 47008
min 46988
ibn 46967
aving 46963
Lib@@ 46952
ideal 46945
Rac@@ 46912
Honor 46911
Hunt 46903
tine 46900
Campus 46886
geograph@@ 46877
annex@@ 46864
gio 46859
solutions 46856
ā 46850
Sof@@ 46843
Viol@@ 46838
Suff@@ 46835
Cameron 46833
Milwaukee 46833
genes 46828
centres 46814
occo 46803
manufac@@ 46794
PO@@ 46789
denomin@@ 46778
Hit@@ 46773
Montgomery 46770
Strateg@@ 46765
Serie 46761
Pearl 46760
brook 46741
har 46731
nati@@ 46730
phy 46698
Musical 46665
Jamaica 46655
oppos@@ 46646
succession 46636
omo 46634
avi 46601
acles 46600
Perth 46580
pir@@ 46574
photo 46572
Panama 46567
Gri@@ 46565
manga 46554
abi 46542
sely 46537
discre@@ 46532
esp@@ 46526
Maurice 46514
prince 46514
consec@@ 46512
Cun@@ 46510
1856 46508
tension 46505
engage 46483
Wolf 46475
veter@@ 46465
arrive 46462
ording 46448
cau@@ 46445
inge 46428
Edmon@@ 46424
Site 46415
Tex@@ 46401
IL 46395
Wall@@ 46386
VA 46380
tag 46352
Danny 46350
Data 46340
1858 46337
Hod@@ 46316
Hart 46298
Morning 46296
fur 46289
liv@@ 46288
abe 46283
adem@@ 46274
employe@@ 46269
exhaus@@ 46266
ettes 46239
Shaw 46232
Hop@@ 46223
ú@@ 46219
omb@@ 46217
berland 46189
Joan 46182
Investig@@ 46180
Original 46171
Cob@@ 46157
brevi@@ 46146
Rolling 46135
Flem@@ 46131
aven 46118
Population 46117
dal 46114
Vill@@ 46103
Marvel 46092
Beth@@ 46090
Tradi@@ 46075
Survey 46045
Main@@ 46033
Bosnia 46031
pref@@ 46021
Bennett 46014
Oakland 46009
ece 46005
AB 45998
Notes 45988
Brunswick 45986
fallen 45979
adil@@ 45968
arena 45960
ood 45951
15.@@ 45950
Nan@@ 45918
gee 45911
Kot@@ 45897
Progr@@ 45881
Gand@@ 45880
Friedrich 45874
tea 45873
ois 45863
Laura 45838
Miguel 45827
rag@@ 45825
110 45824
22@@ 45808
H.@@ 45803
ego 45791
profes@@ 45790
intens@@ 45780
Ster@@ 45778
anj@@ 45760
propri@@ 45750
ecr@@ 45744
manipul@@ 45743
chen@@ 45740
Greg 45735
AG 45732
ista 45726
tip 45718
aa 45711
Source 45707
hes@@ 45705
day@@ 45695
evi@@ 45690
aning 45668
igu@@ 45652
protagon@@ 45607
lah 45588
age@@ 45574
dium 45558
last@@ 45553
volcan@@ 45539
Spencer 45534
Name 45523
autobi@@ 45479
flex@@ 45461
Spirit 45440
animation 45424
Kim@@ 45403
Baby 45398
Ax@@ 45384
Non@@ 45368
Ox@@ 45367
ross 45367
Pear@@ 45352
insky 45337
ili 45323
Forum 45305
oney 45303
frac@@ 45297
inscription 45297
editorial 45292
Mang@@ 45268
Seg@@ 45267
Brun@@ 45236
tent 45232
Mess@@ 45224
eves 45184
Mario 45180
circulation 45165
front@@ 45159
Sut@@ 45147
constr@@ 45147
xi 45138
Stockholm 45133
Bus 45107
ield 45105
sville 45104
Lost 45088
dict@@ 45081
destin@@ 45070
iter@@ 45056
Typ@@ 45044
Johann 45040
adj@@ 45037
Wilhelm 45035
Where 45030
agh 45025
101 45021
anime 45003
kov@@ 44997
Gan@@ 44984
gli@@ 44983
glo@@ 44983
Spo@@ 44943
Flying 44934
Room 44921
Shakespeare 44894
alar@@ 44879
surprise 44874
variations 44874
anticip@@ 44863
Louise 44862
ovo 44861
Foster 44840
Tac@@ 44819
vali@@ 44813
mere 44804
ecu@@ 44786
prestigi@@ 44784
1840 44783
Ec@@ 44772
Facebook 44771
agar 44752
dez 44751
maj@@ 44750
Paulo 44749
Manila 44743
1851 44734
ini@@ 44728
alling 44699
Franc@@ 44697
pist@@ 44691
AE@@ 44687
lac@@ 44685
AV@@ 44676
intervention 44658
index 44646
Suc@@ 44645
unded 44633
pad@@ 44626
los 44625
eption 44621
vidence 44594
usa 44574
Grande 44571
ion@@ 44560
3.5 44544
Luci@@ 44543
pyr@@ 44516
D.@@ 44515
Wak@@ 44515
Shan@@ 44501
Uganda 44500
instruction 44496
Carr@@ 44483
fest@@ 44480
sedi@@ 44474
Nine 44465
iments 44456
oner 44455
pen 44450
fos@@ 44444
Dig@@ 44433
Tob@@ 44413
Mac 44387
Mechan@@ 44380
adier 44376
agog@@ 44372
16.@@ 44367
Eagle 44361
PM 44355
isional 44351
HD 44340
Manager 44337
Bour@@ 44331
EC@@ 44325
unter 44318
oles 44316
Lon@@ 44315
ife 44315
Micro@@ 44314
Bry@@ 44294
Anton@@ 44268
Low 44266
intend@@ 44265
Lau@@ 44254
andra 44254
Aud@@ 44252
Aaron 44245
François 44237
Advanced 44234
jan 44224
tam@@ 44217
Blood 44200
Cycl@@ 44193
congr@@ 44185
umi 44183
enne 44117
Gib@@ 44104
Mobile 44098
Somerset 44096
Figh@@ 44069
conductor 44066
ić 44063
Sev@@ 44046
succes@@ 44044
observation 44041
sin 44039
liner 44030
Continental 44026
triple 44023
Isaac 44022
.C. 43986
anapolis 43980
minim@@ 43980
Sean 43978
disper@@ 43976
orium 43966
Manit@@ 43964
Gaz@@ 43963
Individ@@ 43957
boro 43951
Hali@@ 43946
dens@@ 43941
dial 43925
Circle 43922
Miss@@ 43922
lide 43906
kies 43905
lateral 43902
omer@@ 43897
Secret 43877
Owen 43862
protoc@@ 43862
Call@@ 43857
olo 43856
Voice 43834
Jen@@ 43830
Top@@ 43821
anno@@ 43817
Say@@ 43810
vent 43800
wake 43783
lav 43782
Sussex 43778
aler 43750
NASA 43744
Tennis 43725
adow 43722
orian 43700
sur 43698
icket 43697
Guide 43694
Durham 43685
arry 43663
orth@@ 43654
fa 43650
ū 43639
1852 43632
Ted 43632
codice 43628
otion 43627
Multi@@ 43620
Hog@@ 43619
feder@@ 43588
Gardens 43587
bran@@ 43582
Ernest 43581
signature 43576
toon 43568
feld 43567
Bird 43565
sit 43565
destination 43562
900 43551
Gate 43533
Pass 43520
Cole 43507
Fig@@ 43507
Heights 43507
Aires 43502
favorable 43500
applic@@ 43496
oid@@ 43482
Are 43460
Nev@@ 43459
clients 43452
pec@@ 43450
west@@ 43447
jet 43432
Addi@@ 43427
isc@@ 43426
Buenos 43423
purch@@ 43412
Log@@ 43407
blu@@ 43405
Reading 43401
EC 43397
49@@ 43391
Fisher 43381
consol@@ 43378
arium 43365
sof@@ 43361
Educ@@ 43295
oslov@@ 43293
tut@@ 43285
corps 43284
BI 43269
NR@@ 43239
Progres@@ 43237
associations 43180
Reed 43169
accus@@ 43165
Triple 43164
Penn@@ 43114
volun@@ 43107
axis 43097
Wu 43077
Shak@@ 43075
optim@@ 43070
Og@@ 43031
isi 43017
prises 42977
thum@@ 42973
comprom@@ 42972
Rhode 42969
Ray@@ 42968
VII 42963
Kate 42948
Isle 42947
trio 42928
Fam@@ 42912
Westminster 42910
yon 42903
circular 42899
aller 42897
idi 42883
matern@@ 42873
Sant@@ 42867
Bill@@ 42850
Nancy 42834
Armenia 42824
cord 42821
proper@@ 42818
Lucas 42815
ibil@@ 42815
gies 42811
1853 42786
Fon@@ 42785
vector 42774
complic@@ 42768
citiz@@ 42765
exterior 42739
SM 42738
ister@@ 42727
evo 42712
Lad@@ 42686
Ach@@ 42667
Hag@@ 42655
Cran@@ 42648
Teams 42640
Exper@@ 42635
aque 42629
Rovers 42617
Son 42606
anes 42587
Copenh@@ 42584
olan 42583
Todd 42570
systemati@@ 42566
Grim@@ 42560
Justin 42557
Human@@ 42552
spre@@ 42504
SN@@ 42487
Glou@@ 42461
Newport 42455
Vent@@ 42452
Abr@@ 42444
AG@@ 42429
bis@@ 42418
Steel 42417
17.@@ 42413
Rice 42378
Cit@@ 42367
uter 42367
CP 42363
Gos@@ 42353
130 42347
Dic@@ 42340
Slo@@ 42324
Honor@@ 42323
aly 42317
Lif@@ 42307
hik@@ 42304
Salt 42303
AFC 42302
disciplin@@ 42297
gestion 42293
Block 42279
tu 42278
traf@@ 42274
Marc 42238
pale 42232
Drama 42231
sible 42219
continent 42205
edr@@ 42196
4,000 42185
Compan@@ 42175
Hindi 42173
Resp@@ 42157
apolis 42143
Autom@@ 42140
ras 42100
Sky@@ 42094
uan 42090
1849 42083
Chester 42060
Shin@@ 42057
itus 42036
DI 42031
Tag@@ 42030
oro 42024
Prus@@ 42012
Pat 42007
erg@@ 42003
nal 41999
Bh@@ 41992
immun@@ 41987
Parks 41976
anta 41971
Diamond 41955
valid@@ 41950
Franco 41940
Palmer 41927
ishi 41927
appen 41910
receiv@@ 41908
Bis@@ 41879
util@@ 41858
verl@@ 41848
owski 41841
Ahmed 41840
Rob 41836
lux@@ 41827
PR@@ 41826
50,000 41815
ocy@@ 41808
Oil 41794
Ric@@ 41786
perform@@ 41783
ank@@ 41781
Fighter 41780
crimin@@ 41764
Idaho 41758
I.@@ 41741
dispos@@ 41723
Oli@@ 41718
Davies 41717
eb 41712
Dog@@ 41640
Chen 41627
Zo@@ 41627
Ring 41618
Jay@@ 41607
180 41601
Invest@@ 41598
Plant 41596
eira 41591
Game@@ 41589
Lisa 41529
Oak 41525
prise 41514
idem@@ 41506
ör@@ 41477
mini 41468
Stevens 41459
colonel 41457
pseud@@ 41449
pino 41447
dition 41440
esque 41425
Yang 41424
wash@@ 41423
ark 41421
syndic@@ 41421
Malta 41413
East@@ 41412
asty 41403
Ferdinand 41385
Mug@@ 41384
Rhy@@ 41382
eda 41381
grou@@ 41372
Box@@ 41366
Chelsea 41365
Emb@@ 41365
SE 41362
1847 41347
unter@@ 41333
Ruth 41317
hier@@ 41312
pha 41308
ichi 41276
orb@@ 41266
Sle@@ 41262
quot 41248
Giovanni 41236
Gall@@ 41235
consul@@ 41233
Sr. 41231
Canterbury 41230
Aub@@ 41226
Drag@@ 41193
tropo@@ 41176
enburg 41166
pies 41146
danger 41130
Journ@@ 41124
aut 41120
Santiago 41119
rage 41103
ovina 41077
plication 41075
ī 41071
ensus 41070
Soul 41043
{ 41038
Still 41037
Um@@ 41025
hap@@ 41024
Living 41019
201@@ 41007
Peak 41007
aper 41000
Aff@@ 40997
Rag@@ 40986
Him@@ 40975
Guang@@ 40959
Evangel@@ 40957
tific@@ 40948
VI@@ 40940
HIV 40938
Town@@ 40935
persist@@ 40935
IX 40921
ë@@ 40919
hu 40892
osh 40876
eleg@@ 40872
Napoleon 40869
Nick@@ 40835
neo 40833
gest@@ 40828
Burn@@ 40822
GB 40789
umul@@ 40780
atha 40775
ovsky 40773
Lot@@ 40772
nitr@@ 40752
engag@@ 40751
automati@@ 40750
ider@@ 40738
rh@@ 40738
attr@@ 40727
haw@@ 40719
ano@@ 40715
Anth@@ 40712
comb@@ 40709
oci@@ 40692
Light@@ 40667
anal@@ 40651
Armstrong 40629
diver@@ 40629
š 40628
hectar@@ 40622
imen 40621
tham 40620
Barb@@ 40618
revi@@ 40597
porters 40567
Queens 40557
ilar 40551
Cardiff 40543
Machine 40535
Fernando 40520
Ses@@ 40511
ption 40503
Fas@@ 40489
Scor@@ 40487
Twitter 40484
sar 40472
aco 40458
oshi 40454
outh 40447
etes 40442
conten@@ 40441
Spr@@ 40440
Const@@ 40435
Princeton 40431
pon 40424
Franz 40410
boy@@ 40409
inus 40406
Sag@@ 40402
Cou@@ 40394
vertebr@@ 40391
doubl@@ 40387
fort@@ 40381
CF@@ 40378
trop@@ 40355
Att@@ 40350
Marcus 40340
Berg@@ 40321
definiti@@ 40314
Solomon 40304
CR@@ 40295
Far 40281
eses 40280
Benedic@@ 40274
Interior 40247
apa 40240
Coc@@ 40219
1846 40209
odes 40188
Emma 40183
urb@@ 40170
Powell 40166
IF@@ 40165
vor@@ 40153
Holmes 40145
.. 40134
alumin@@ 40133
Rut@@ 40132
Clem@@ 40117
Page 40111
Geneva 40101
ember 40100
torn@@ 40098
Rein@@ 40091
Total 40076
voyage 40074
ram 40068
aji 40065
coinc@@ 40060
Hull 40030
big@@ 40025
pan 40021
BE 40020
Tiger 40019
100@@ 39988
Republic@@ 39983
pard 39975
Chin@@ 39964
HF 39962
ator@@ 39961
territorial 39945
Dep@@ 39941
Work@@ 39929
tiz@@ 39896
Nintendo 39880
Bod@@ 39873
ried 39864
Zhang 39857
Pete 39847
1,0@@ 39831
Ellis 39814
Amateur 39812
II@@ 39812
vi 39803
Kingston 39784
CAR 39776
kel 39772
Pent@@ 39750
enko 39736
ente 39731
etz@@ 39727
Comm@@ 39724
Tin@@ 39722
FO@@ 39714
Popular 39709
Without 39709
Lt@@ 39704
ST 39703
alog 39703
William@@ 39692
bee 39687
lett 39670
Jose@@ 39651
tary 39647
cogni@@ 39641
icus 39630
noble 39629
infr@@ 39615
Double 39596
blues 39590
phones 39580
duction 39561
XI 39555
eur@@ 39551
eze 39538
18.@@ 39520
lag 39520
psychi@@ 39516
ś@@ 39515
ombi@@ 39508
kilome@@ 39507
Sudan 39490
Java 39480
Albania 39474
Lag@@ 39474
define 39448
Freder@@ 39434
Leon@@ 39412
carp@@ 39404
gie 39404
Woods 39390
super 39377
Syl@@ 39370
Simpson 39359
cer 39355
rine 39339
gor@@ 39331
Herald 39324
rog@@ 39317
Harr@@ 39313
PP@@ 39309
ME 39304
testimon@@ 39301
stant@@ 39297
trau@@ 39294
PlayStation 39280
alphab@@ 39263
nt 39263
Lic@@ 39256
33@@ 39254
NATO 39251
Ronald 39241
etto 39239
imag@@ 39233
oun 39233
oss 39224
ław 39217
testi@@ 39211
Again 39209
Film@@ 39197
Nob@@ 39174
discipline 39166
Tree 39162
ris 39158
metabol@@ 39155
oque 39145
\ 39140
Andrews 39125
nam 39116
acu@@ 39096
inser@@ 39093
ube 39082
FBI 39067
hous@@ 39063
modern@@ 39057
Comedy 39032
Us 39026
shap@@ 39022
lars 39018
reconstruction 39013
Ind@@ 39011
Julian 39009
uni 39006
20.@@ 38989
IBM 38983
1812 38949
yu 38944
erst@@ 38931
fusion 38890
attraction 38882
German@@ 38881
terrain 38879
FF 38861
Julia 38833
1830 38823
SI@@ 38823
Territ@@ 38822
approxim@@ 38814
zones 38800
Wind 38799
ism@@ 38798
immer 38795
mel 38794
Fut@@ 38787
institut@@ 38787
Cath@@ 38772
Rum@@ 38769
Max@@ 38761
AI 38755
Brooks 38749
alisation 38740
DE 38732
eville 38722
steri@@ 38720
1845 38716
Eugene 38705
Adri@@ 38694
Jag@@ 38691
ensen 38684
Hid@@ 38670
Publishing 38666
Rest@@ 38664
LGBT 38635
Lah@@ 38626
Abdul 38622
dad 38616
Tus@@ 38600
Caroline 38593
uit 38589
stal@@ 38583
Clif@@ 38580
Martin@@ 38576
Andr@@ 38575
23.@@ 38570
Plaza 38567
Connor 38560
Duncan 38553
Pomer@@ 38547
eka 38547
Boul@@ 38544
125 38542
Kenneth 38534
Memphis 38531
survi@@ 38499
Benn@@ 38495
Dw@@ 38492
bud@@ 38492
uel@@ 38484
Chase 38451
observations 38442
Contin@@ 38437
Critics 38430
ainst 38429
Dir@@ 38420
Chal@@ 38416
emble 38416
Shah@@ 38412
portraits 38406
aran 38405
arbitr@@ 38402
xy 38399
Tang 38386
mph 38385
Nation@@ 38373
erson 38370
Agu@@ 38318
pent@@ 38312
Universe 38310
Arsenal 38308
Number 38300
Allan 38286
issa 38281
ede 38275
Ast@@ 38271
iner 38265
intern@@ 38261
hid 38236
Valent@@ 38234
P.@@ 38233
acet@@ 38225
Get 38213
Emily 38210
divid@@ 38201
tium 38189
symb@@ 38181
Am 38179
Itali@@ 38176
Amazon 38171
reti@@ 38153
AIDS 38143
icul@@ 38138
circ@@ 38125
Vor@@ 38119
transfer@@ 38116
transformation 38110
Edition 38106
Henri 38093
Glen 38086
Bryan 38080
1800 38072
Gibson 38068
senti@@ 38058
Park@@ 38031
tril@@ 38027
cos 37997
hero@@ 37996
cia 37994
ycl@@ 37993
wen 37989
Rho@@ 37984
Alb@@ 37976
Sang@@ 37945
45@@ 37944
Estonia 37942
selec@@ 37942
flor@@ 37936
hib@@ 37924
ensemble 37918
Yug@@ 37912
Premi@@ 37874
atern@@ 37870
bacteri@@ 37857
magnitude 37855
Lec@@ 37854
19.@@ 37848
paras@@ 37827
tit@@ 37825
Leon 37821
Reform 37817
Flor@@ 37806
Moun@@ 37805
dee 37805
etry 37801
Michel 37800
Richardson 37791
HC 37781
figur@@ 37772
Lucy 37768
servant 37744
Blake 37740
pith@@ 37722
BL 37721
Chor@@ 37717
Rou@@ 37715
Colin 37712
sha 37694
Sik@@ 37676
escu 37658
wns 37657
Brow@@ 37656
Leslie 37647
Fern@@ 37645
lis@@ 37644
Iceland 37640
Mix@@ 37637
Bailey 37628
introdu@@ 37621
Angels 37592
auto@@ 37582
Kay 37580
tern 37567
anyon 37564
Frankfurt 37562
Off 37539
penetr@@ 37539
mises 37536
1837 37533
Sas@@ 37531
eson 37522
Capitol 37515
Dh@@ 37500
Til@@ 37497
Deep 37493
Josh 37485
thi 37465
necess@@ 37448
utions 37443
uta 37440
esta 37429
Rep@@ 37424
lyr@@ 37415
Alpha 37413
Gom@@ 37405
sch 37397
Gramm@@ 37392
ources 37386
mart@@ 37378
â@@ 37375
inners 37372
Def@@ 37356
oter 37347
Riv@@ 37332
Frank@@ 37329
Sex@@ 37327
asy@@ 37323
Rachel 37314
aven@@ 37304
chr@@ 37300
ju 37300
CT 37297
Bradley 37273
olia 37273
Henderson 37267
osph@@ 37267
aur 37265
isten 37252
Clo@@ 37247
ñ@@ 37247
ting@@ 37226
photos 37219
patron 37217
marri@@ 37197
Aircraft 37196
Ł@@ 37179
sult@@ 37175
25.@@ 37173
24.@@ 37163
34@@ 37162
Traf@@ 37159
terr@@ 37156
Bull 37146
Syr@@ 37138
nic 37132
Stein@@ 37124
Call 37123
archit@@ 37119
Cox 37112
Wind@@ 37104
vous 37104
WWE 37103
iz 37099
Plymouth 37098
Edmund 37090
spann@@ 37079
sad@@ 37074
Stock 37071
Bald@@ 37065
1500 37057
Agricul@@ 37049
Math@@ 37049
enna 37049
36@@ 37044
Gy@@ 37038
Adv@@ 37026
Robertson 37019
oka 37017
Kad@@ 37013
ater@@ 37013
cham@@ 37002
cant@@ 36993
Eurovision 36989
ank 36976
CM@@ 36968
Notre 36938
cardi@@ 36931
uri@@ 36909
dedic@@ 36894
Gill@@ 36891
fin 36867
Inter 36865
bine 36855
Smo@@ 36854
hir 36848
polic@@ 36841
ape 36822
Bloom@@ 36815
eal 36813
Gel@@ 36795
ij@@ 36786
pod@@ 36774
avia 36762
amine 36759
350 36727
ér@@ 36726
eval 36724
ix@@ 36718
ahn 36701
Cha@@ 36699
Curtis 36699
inae 36696
Eri@@ 36685
vil@@ 36677
Tyler 36667
yat@@ 36645
1841 36643
cav@@ 36625
ologi@@ 36622
Stock@@ 36617
Juli@@ 36595
heter@@ 36574
Oslo 36547
Olympi@@ 36546
sab@@ 36546
onne 36544
27.@@ 36524
Brien 36522
Nathan 36510
140 36500
tide 36496
María 36490
Staf@@ 36490
Camer@@ 36481
dimin@@ 36479
160 36478
WW@@ 36477
Cly@@ 36470
Amy 36469
Claude 36468
adver@@ 36460
SU 36458
2.0 36455
Windsor 36447
mania 36427
ario 36418
ning@@ 36411
gel@@ 36410
70@@ 36407
1.2 36401
tible 36399
one@@ 36389
Religi@@ 36385
sex@@ 36378
1844 36371
orientation 36370
Porter 36366
ims 36363
elles 36349
lag@@ 36347
6,000 36340
olf 36328
integral 36326
Bonn@@ 36322
Preston 36317
physi@@ 36302
Herzeg@@ 36286
infin@@ 36279
Naples 36269
tables 36249
ère 36244
lair 36240
itude 36236
quet 36232
Globe 36227
VIII 36220
circul@@ 36208
Orlando 36203
ecti@@ 36203
esi 36203
genres 36191
Cand@@ 36186
Eve 36181
Hall@@ 36159
1838 36153
coin 36133
Jun@@ 36130
Tall@@ 36121
Impact 36109
numer@@ 36094
inos 36080
ago@@ 36073
Reynolds 36056
Lyon 36055
log 36050
va@@ 36046
azy 36041
ugu 36040
26.@@ 36028
brig@@ 36002
gang@@ 35997
imi 35983
Las@@ 35977
glu@@ 35971
1836 35969
Burton 35966
icky 35952
ec 35937
xon 35932
Jak@@ 35913
IR@@ 35912
cryp@@ 35909
Gonz@@ 35908
tens 35908
unif@@ 35900
irt 35896
Copa 35881
Ports@@ 35869
ilia 35867
fen@@ 35866
Ahmad 35865
sm 35856
GP 35842
Milton 35822
Bond 35821
berger 35816
chin@@ 35815
elin 35807
Blan@@ 35797
Satur@@ 35795
Sap@@ 35768
Emmy 35766
Inn 35747
Jas@@ 35733
ancement 35723
finale 35709
ron 35703
Path@@ 35701
1839 35674
Thur@@ 35674
avail@@ 35671
Monte 35653
enzie 35643
Fraser 35642
Conservat@@ 35639
Discovery 35639
Leh@@ 35622
ados 35618
aze 35617
Religion 35613
uka 35605
Dog 35602
och 35573
azi 35572
par 35572
Laf@@ 35565
horizontal 35565
Boeing 35552
vig@@ 35542
Gab@@ 35540
SM@@ 35536
telev@@ 35535
Wyoming 35528
Ou@@ 35525
cen@@ 35511
asia 35501
legend@@ 35500
Archi@@ 35495
Fron@@ 35485
és 35478
organize 35470
rav@@ 35455
betr@@ 35450
Feder@@ 35447
Warriors 35446
Hed@@ 35439
bits 35428
alition 35417
Flam@@ 35410
Bever@@ 35401
Spir@@ 35395
eti 35395
Hopkins 35382
quer@@ 35381
ero@@ 35372
orum 35372
McDonald 35360
uki 35358
Peri@@ 35345
unger 35333
Gang@@ 35314
Afr@@ 35308
37@@ 35300
Miles 35296
icz 35278
hut@@ 35274
Burns 35271
Hak@@ 35241
mar 35211
Aj@@ 35207
gia 35203
sia 35203
hyp@@ 35196
F.@@ 35175
pollu@@ 35167
dimensions 35160
SW@@ 35158
uli 35136
intel@@ 35128
Trib@@ 35122
Afgh@@ 35121
dha 35080
lance 35075
proportion 35075
38@@ 35067
1842 35054
ymnas@@ 35049
Crystal 35038
Hos@@ 35037
amba 35030
iv 35029
inda 35015
fications 35006
Voc@@ 34993
olph 34988
foss@@ 34986
yon@@ 34983
Mom@@ 34953
Pac@@ 34940
rehabilit@@ 34937
veloc@@ 34933
Kosovo 34932
color@@ 34923
convo@@ 34917
Case 34916
cum@@ 34914
Wid@@ 34909
contamin@@ 34899
confin@@ 34896
ats@@ 34887
Cohen 34883
André 34853
Sans@@ 34847
TH@@ 34835
360 34813
Esp@@ 34813
21.@@ 34809
Springfield 34809
bout 34805
Uz@@ 34803
engers 34800
Lex@@ 34788
Istanbul 34773
illon 34773
Kus@@ 34765
Vie@@ 34758
är@@ 34752
oux 34749
isons 34747
1832 34746
neces@@ 34737
GO@@ 34726
GP@@ 34726
ID 34718
Bish@@ 34716
oko 34706
Č@@ 34705
hist@@ 34690
Kul@@ 34687
angers 34685
cher@@ 34684
4.5 34682
Ja@@ 34676
urt 34674
22.@@ 34667
lins 34654
ca@@ 34649
Cinema 34636
rectang@@ 34633
Lun@@ 34622
Rosa 34610
illance 34609
Andrea 34607
Glen@@ 34607
Sour@@ 34603
juven@@ 34591
gly@@ 34584
ATP 34580
Sr@@ 34579
Alexandria 34569
borg 34569
TO@@ 34568
Hul@@ 34559
Anim@@ 34552
Macedonia 34552
Train 34548
Imag@@ 34546
Ced@@ 34536
VC 34512
Snow 34508
Salvador 34506
anic 34506
Martha 34493
reper@@ 34493
1835 34488
Dut@@ 34465
Carlo 34454
Integr@@ 34446
pus 34437
Spider 34435
Movie 34417
industri@@ 34417
Garr@@ 34409
Mau@@ 34409
ussia 34402
Software 34393
ux 34391
commerce 34387
Wis@@ 34384
cha@@ 34371
adies 34368
zar@@ 34354
Ish@@ 34340
188@@ 34334
nu 34322
1843 34313
Web 34297
Docum@@ 34292
Mov@@ 34288
nit@@ 34281
Gw@@ 34279
imo 34265
apos@@ 34264
Hub@@ 34263
oval 34244
inger@@ 34228
temp@@ 34218
Enter@@ 34213
Change 34197
propaganda 34194
August@@ 34192
oscop@@ 34185
hir@@ 34182
Zimbabwe 34181
endra 34174
Lancaster 34164
Harper 34162
19@@ 34144
Gros@@ 34130
ayn@@ 34130
lug@@ 34129
bias 34123
NC 34110
hil@@ 34104
Hell 34090
Ethiopia 34082
jug@@ 34069
Linda 34025
assur@@ 34016
Hugo 34013
LO@@ 33991
uro 33987
CIA 33986
Rog@@ 33985
Silva 33983
Pand@@ 33978
elo 33959
30,000 33931
Chel@@ 33920
Theodore 33920
distribu@@ 33920
glaci@@ 33916
FK 33904
atta 33900
Big@@ 33890
exam@@ 33873
Taxonom@@ 33854
Bros. 33846
Jennifer 33834
Factory 33832
tivities 33832
stan 33821
Mercury 33813
Dag@@ 33797
sus 33796
Gru@@ 33795
8,000 33782
ía 33780
Dud@@ 33775
hai 33772
Nucle@@ 33752
Ellen 33751
PL@@ 33732
anie 33726
Faith 33724
Nacional 33723
ka@@ 33720
IO@@ 33702
ool 33693
mobil@@ 33684
Sever@@ 33681
tir@@ 33678
28.@@ 33677
Lyn@@ 33677
ornam@@ 33665
Slov@@ 33656
Testament 33653
Secre@@ 33650
TE 33632
Kid@@ 33630
Morrison 33629
Lud@@ 33615
Ecuador 33608
opath@@ 33596
rad@@ 33596
oul 33585
Single 33582
Jesse 33579
Santos 33573
Guil@@ 33569
UC 33569
Sacram@@ 33565
ilo 33560
kon@@ 33559
Gill 33554
oxid@@ 33549
mineral 33545
wav@@ 33530
Moses 33524
alli 33514
affirm@@ 33500
SD 33490
National@@ 33453
GT@@ 33441
Devil 33438
Khar@@ 33437
jiang 33419
tili@@ 33413
Koh@@ 33406
Wagner 33401
Monum@@ 33397
triang@@ 33391
HP 33389
anan 33388
religi@@ 33382
chim@@ 33358
Monroe 33356
Seoul 33356
point@@ 33352
Chuck 33344
Dj@@ 33334
Sweet 33328
vet 33328
BO@@ 33314
Greg@@ 33303
Lynn 33284
diagn@@ 33249
Store 33242
Online 33238
Churchill 33237
za@@ 33237
EM@@ 33230
Isab@@ 33211
Luxembourg 33205
kham 33201
inas 33199
Never 33195
eros 33188
Lion 33179
millions 33177
ør@@ 33170
Gerald 33169
Kyle 33163
icon@@ 33157
cla@@ 33148
Watch 33143
transl@@ 33132
ael 33098
iven 33068
chlor@@ 33066
Hawai@@ 33064
Differ@@ 33051
unge 33040
Catal@@ 33028
extraordin@@ 33015
Rai@@ 32996
Maritime 32994
Poin@@ 32989
Now@@ 32986
Dul@@ 32962
View 32954
11,@@ 32946
mud 32932
ufac@@ 32926
Swan@@ 32922
DR 32916
Euro 32916
Apollo 32905
bourne 32904
aspir@@ 32902
Glenn 32888
Level 32886
ocol@@ 32880
glob@@ 32879
Jav@@ 32864
Gav@@ 32851
ML 32850
Algeria 32843
Ve@@ 32838
Nord@@ 32825
Islam@@ 32814
Banks 32810
kab@@ 32803
enor@@ 32786
inga 32786
Edgar 32779
CF 32776
Style 32766
Pom@@ 32759
Forbes 32755
fut@@ 32716
zy 32706
Jon@@ 32704
cock 32694
Bug@@ 32686
ps@@ 32685
Julius 32683
riers 32672
Heaven 32664
www.@@ 32656
Full 32652
alo 32646
altar 32645
monuments 32639
lau@@ 32626
SH@@ 32610
105 32599
zhou 32599
anos 32589
Europ@@ 32584
alco@@ 32580
dul@@ 32554
notion 32554
Crow@@ 32551
skir@@ 32548
Yar@@ 32546
Roh@@ 32539
Te 32527
lock@@ 32523
enf@@ 32517
sax@@ 32510
Richards 32497
intensi@@ 32495
ear 32492
persec@@ 32478
eign 32477
Meh@@ 32476
Wer@@ 32476
Rocky 32456
² 32449
Industries 32445
Carol 32442
Emir@@ 32442
Money 32440
parall@@ 32436
1815 32427
did@@ 32424
brut@@ 32423
dice 32417
estan 32409
Gene 32408
lu 32400
Innov@@ 32395
0.5 32392
sul 32370
Tru@@ 32356
Myanmar 32353
enza 32348
T.@@ 32347
financi@@ 32347
RI 32346
SL@@ 32340
Slovakia 32339
inspec@@ 32330
Bronze 32326
sper@@ 32325
Veter@@ 32302
Chur@@ 32296
Del 32290
ifer@@ 32280
Marion 32272
polit@@ 32237
Mans@@ 32229
ń@@ 32224
Neill 32216
AE 32213
accident@@ 32213
Rich 32210
Annie 32207
Come 32193
SH 32167
Coch@@ 32165
blan@@ 32157
vas 32156
Hend@@ 32148
Lap@@ 32144
Inf@@ 32142
Pick@@ 32140
Superior 32138
Leicester 32130
Frances 32125
Kids 32109
Mine 32109
Inn@@ 32097
privileg@@ 32090
khe@@ 32086
quad@@ 32072
Week@@ 32059
Conserv@@ 32048
Constantinople 32028
Raz@@ 32026
Jake 32017
Venez@@ 32014
amen 32012
onau@@ 31990
otr@@ 31987
Guy@@ 31977
Nobel 31969
engu@@ 31969
Put@@ 31955
Cat 31953
Suz@@ 31943
UFC 31943
aristoc@@ 31933
had@@ 31931
SI 31930
Rang@@ 31904
Alex@@ 31898
yond 31898
Marco 31893
Hous@@ 31892
Alt@@ 31886
Ludwig 31882
tri 31872
Karen 31861
39@@ 31849
Jamie 31846
Cyc@@ 31843
olith@@ 31842
División 31823
Farm@@ 31814
G.@@ 31810
1.6 31786
EP@@ 31783
yes 31768
ainer 31763
Diana 31760
arc 31760
Sep@@ 31759
Betty 31754
Clay@@ 31754
lava 31745
Edwin 31743
bio@@ 31741
compan@@ 31727
Ris@@ 31725
Dorothy 31711
Kazakhstan 31708
adia 31695
Carroll 31692
bun@@ 31689
DS@@ 31687
Mind@@ 31683
civiliz@@ 31654
1.1 31649
1814 31646
Eye 31635
Rain@@ 31633
Pharm@@ 31624
Clay 31614
Malcolm 31610
imin@@ 31602
Jeremy 31601
ses@@ 31591
189@@ 31578
pler 31575
cles 31571
exces@@ 31570
atu 31568
1.3 31550
ingo 31542
ffer 31539
ift 31538
idan 31528
Sym@@ 31522
Brook@@ 31518
SL 31501
Cyr@@ 31500
shi 31490
artic@@ 31480
1834 31471
Yu 31468
Cairo 31467
dar 31465
cott 31457
SP 31435
Hey@@ 31433
Bob@@ 31430
pense 31430
oyle 31423
sacrif@@ 31418
Jenn@@ 31412
ț@@ 31408
meg@@ 31404
Canadi@@ 31402
iva 31372
Gren@@ 31371
fes@@ 31360
gul@@ 31357
Da 31355
Minister@@ 31354
Amaz@@ 31349
fiscal 31340
alie 31330
David@@ 31325
agi@@ 31306
Observat@@ 31305
It@@ 31303
brand@@ 31297
ique 31295
Episode 31294
Holocaus@@ 31294
Logan 31287
Mohammad 31281
29.@@ 31273
larg@@ 31266
mortal@@ 31263
premier 31258
Programme 31248
Aman@@ 31247
asp@@ 31242
aband@@ 31241
ř@@ 31231
Theory 31229
Ernst 31216
evich 31213
emin@@ 31206
ulus 31202
ár@@ 31186
Heinrich 31179
Crawford 31168
control@@ 31158
ET 31155
Link 31145
Budapest 31140
Sham@@ 31125
sour@@ 31125
onga 31120
mus 31109
uba 31106
Roth@@ 31074
akia 31059
Horn@@ 31053
reci@@ 31040
Fat@@ 31038
atten@@ 31028
~ 31021
Tap@@ 31014
Hz 31007
Saw@@ 31006
Metal 31005
Kob@@ 30991
Raw@@ 30986
Alp@@ 30972
ovi@@ 30969
Sv@@ 30944
Know@@ 30936
itu@@ 30923
nas@@ 30912
isine 30908
ð@@ 30905
eca 30899
tram@@ 30889
Choice 30875
Neur@@ 30868
Chic@@ 30863
ron@@ 30858
Tah@@ 30849
milli@@ 30844
Wr@@ 30843
oming 30831
Bass@@ 30828
Glass 30824
Planet 30820
avy@@ 30813
500,000 30809
Jos@@ 30806
Andre@@ 30795
mith@@ 30794
eder 30792
Lut@@ 30776
RN@@ 30776
Well@@ 30774
Psy@@ 30769
Raf@@ 30751
MW 30749
sep@@ 30748
1831 30737
Gem@@ 30730
1820 30728
interven@@ 30714
WH@@ 30710
atin 30699
Gat@@ 30685
ampli@@ 30664
Tel 30663
auer 30663
Kenny 30654
Loy@@ 30645
Ner@@ 30635
Ho 30631
Teleg@@ 30631
xe 30620
Shadow 30601
ilian 30600
uchi 30586
bu 30583
Enterprise 30579
igg@@ 30578
lee 30574
Wimbledon 30571
matr@@ 30560
variables 30539
GT 30538
Clara 30537
erc@@ 30533
Sci@@ 30529
N.@@ 30520
ON@@ 30512
aught 30510
Southampton 30496
True 30496
nice 30480
submar@@ 30475
saint 30457
25,000 30454
Hero 30442
Nixon 30425
Set 30425
Janeiro 30417
reconnaissance 30417
vid@@ 30409
omi 30400
Peg@@ 30390
contradic@@ 30387
omin@@ 30384
Happy 30380
obs@@ 30377
Carp@@ 30371
Wend@@ 30366
Ander@@ 30364
Bj@@ 30349
fi 30345
Palm 30338
aan 30336
andi 30336
pep@@ 30321
Mall@@ 30289
Walt 30285
Drake 30284
Shim@@ 30282
Dim@@ 30280
Wander@@ 30265
Uruguay 30264
Speed 30263
Tag 30263
alien 30263
Index 30261
Corpor@@ 30248
islat@@ 30245
abil@@ 30240
thal 30237
1833 30228
shan 30220
entum 30217
Fa@@ 30216
nd 30207
remix 30206
Yak@@ 30198
stig@@ 30180
Dubai 30179
sam 30174
NT@@ 30170
eres 30169
ynam@@ 30166
ER 30163
SF@@ 30159
Ž@@ 30153
oz 30149
Sebastian 30143
dule 30130
750 30128
Guar@@ 30116
unda 30116
dos@@ 30115
plo@@ 30108
Dylan 30105
coul@@ 30101
maritime 30100
CAF 30098
3000 30096
Tot@@ 30095
sert 30092
} 30090
Lub@@ 30084
oper 30080
Rak@@ 30076
Iz@@ 30061
Sport@@ 30036
CT@@ 30024
Glo@@ 30021
Mé@@ 30020
Jin 30018
itter 30012
odia 29990
roy 29990
zen@@ 29987
Vul@@ 29978
rug@@ 29968
IE@@ 29962
Contr@@ 29957
wo 29957
Strat@@ 29938
ą@@ 29919
Kurt 29903
Arn@@ 29899
Grand@@ 29895
Beatles 29880
Agr@@ 29877
ellen@@ 29875
Vision 29818
idal 29816
Joel 29809
190@@ 29806
yar@@ 29804
Parad@@ 29796
Joshua 29789
Myster@@ 29784
Ey@@ 29781
rod@@ 29771
Lamb@@ 29769
atum 29767
UP 29760
kit 29758
Pyr@@ 29753
bou@@ 29753
apar@@ 29750
7.5 29743
Stra@@ 29728
Civ@@ 29726
automobile 29718
Ard@@ 29715
Julie 29697
blog 29693
Georges 29678
Fire@@ 29667
Port@@ 29653
iber 29643
Inde@@ 29641
SV 29632
PN@@ 29622
Qatar 29621
Ut@@ 29611
CI 29607
Auth@@ 29603
90@@ 29598
Madonna 29597
Ghost 29589
Adrian 29560
Scho@@ 29552
oso 29552
incor@@ 29541
-- 29538
Sed@@ 29530
Take 29527
Laz@@ 29516
Berry 29515
rim 29515
Fund@@ 29511
Vog@@ 29511
Asi@@ 29500
miner@@ 29499
ń 29495
uman 29489
kor@@ 29478
SD@@ 29471
Karnataka 29417
Sanc@@ 29410
Power@@ 29398
inflam@@ 29390
ahi 29380
eccl@@ 29376
Extr@@ 29363
egan 29355
opini@@ 29350
Sherman 29344
Expedition 29342
tori@@ 29340
elius 29331
Kre@@ 29329
Telec@@ 29317
Anton 29314
pens@@ 29314
Edge 29302
Trinidad 29299
én 29299
tney 29287
Rhodes 29285
trainer 29275
hen 29269
Leipzig 29264
Terminal 29262
Rib@@ 29238
75@@ 29236
102 29234
Rica 29217
Bach 29216
Batman 29213
Bolivia 29210
tos 29202
Gay 29192
GS 29191
Legend 29191
neum@@ 29187
erie 29180
alian 29159
Claire 29147
oride 29138
Kö@@ 29129
Baz@@ 29119
Sti@@ 29107
suc@@ 29107
traces 29100
comment 29095
IB@@ 29091
endr@@ 29091
Kaw@@ 29087
kata 29086
120@@ 29082
propag@@ 29076
fruits 29075
erine 29071
dem 29070
conces@@ 29065
yth@@ 29063
Bin@@ 29054
Oak@@ 29053
Turn@@ 29048
ific@@ 29047
ben 29024
Chang 29012
Concep@@ 29010
Chan 28999
UNESCO 28989
obst@@ 28985
aru 28974
1,500 28972
oh 28972
IF 28968
ige 28963
polar@@ 28963
nchron@@ 28962
15,000 28958
hion 28958
isis 28952
beta 28939
lor@@ 28934
Cann@@ 28931
siles 28917
arin 28912
ale@@ 28896
Vati@@ 28892
1.4 28890
oku 28885
Ferguson 28879
issu@@ 28877
Fantasy 28874
cano 28872
Á@@ 28865
Greene 28863
Fiction 28853
enes 28844
him@@ 28841
aç@@ 28837
emic 28837
agi 28835
Belarus 28828
Greatest 28823
10,@@ 28816
Rig@@ 28814
Ril@@ 28814
ende@@ 28809
zh@@ 28809
1825 28797
Resol@@ 28791
dose 28786
Plus 28777
zu 28772
Lum@@ 28770
Mali@@ 28765
ept@@ 28745
confirm@@ 28740
ono 28735
Marathon 28730
Electronic 28729
47@@ 28724
Ibn 28715
bless@@ 28715
instrum@@ 28679
Augustus 28661
Rit@@ 28660
Nicol@@ 28651
wara 28642
Tig@@ 28638
ruption 28632
Generation 28610
Thomson 28610
Amar@@ 28602
terri@@ 28589
Hardy 28585
licence 28585
salv@@ 28575
etus 28573
Mohammed 28568
alit@@ 28562
Rodrigu@@ 28531
7,000 28530
tex 28528
Il 28527
O.@@ 28526
improvis@@ 28509
ga@@ 28508
fasc@@ 28506
versary 28499
aris 28497
afe 28474
ession 28473
Jo 28470
Tanzania 28468
Cho@@ 28466
Body 28461
Santo 28455
formations 28453
kho@@ 28453
Fe 28430
Fen@@ 28425
Gad@@ 28420
lut@@ 28420
García 28418
Milli@@ 28410
opti@@ 28410
Ley@@ 28409
nier 28405
Hood 28404
contributor 28388
Madagascar 28385
1821 28382
Show@@ 28382
yak@@ 28377
PG 28374
lio 28364
ç@@ 28360
trait 28358
loo 28352
ford@@ 28350
nch@@ 28350
ativ@@ 28347
terres@@ 28346
30.@@ 28343
oses 28337
GO 28333
inson 28330
uer@@ 28327
auxili@@ 28325
Roll 28322
erek 28313
icia 28313
Francesco 28304
Centr@@ 28303
Fort@@ 28303
Oh 28302
spur 28302
Bih@@ 28293
187@@ 28291
lung 28291
hus@@ 28285
Cloud 28275
Deg@@ 28272
sanctu@@ 28267
transform@@ 28266
Va@@ 28259
ikh 28253
Philharmon@@ 28243
utili@@ 28235
W.@@ 28227
Darwin 28226
Bit@@ 28220
Burg@@ 28218
Phase 28204
200,000 28202
Tes@@ 28201
ien 28199
IG@@ 28189
dison 28167
Floyd 28164
Rush 28164
spor@@ 28141
Partn@@ 28136
chu@@ 28135
Magn@@ 28129
demand@@ 28123
sie 28122
él@@ 28119
train@@ 28116
Winston 28095
Denis 28089
1828 28085
Aw@@ 28082
Jorge 28082
UTC 28077
lor 28076
Kid 28061
uo 28061
install@@ 28059
Gamb@@ 28055
Maxwell 28049
tuber@@ 28043
uls 28035
Lil@@ 28028
Bath@@ 28025
Yos@@ 27999
Amp@@ 27998
azar 27995
Bruno 27981
Basel 27976
athon 27974
α 27967
én@@ 27960
surg@@ 27957
ï@@ 27955
Toyota 27932
othy 27923
ink@@ 27917
wag@@ 27907
Histor@@ 27906
els@@ 27900
Lenn@@ 27898
Cler@@ 27894
AO@@ 27892
Ble@@ 27891
Wad@@ 27888
Garcia 27886
Brad 27883
Merr@@ 27882
Gle@@ 27881
Sara 27880
amaz@@ 27880
Castro 27873
Dub@@ 27871
archives 27865
itis 27860
Nem@@ 27855
Boris 27846
Papua 27844
alla 27835
folkl@@ 27829
Luther 27827
Congr@@ 27823
Bibli@@ 27818
forts 27817
pos 27812
tral 27812
Autonom@@ 27808
Duc@@ 27794
Part@@ 27782
captur@@ 27777
templ@@ 27774
Constant@@ 27773
Neu@@ 27769
Albi@@ 27762
Kem@@ 27751
Walk 27743
Montenegro 27740
Whitney 27739
fon@@ 27731
Dob@@ 27728
Guatemala 27728
rely 27727
corrup@@ 27721
tico 27721
Heavy 27713
edi 27706
Ō@@ 27701
Synopsis 27697
robot@@ 27693
1810 27690
PD 27686
expedi@@ 27677
TP 27674
1.8 27672
echn@@ 27664
igo 27664
var 27660
Pati@@ 27650
Prov@@ 27642
GC 27633
Night@@ 27631
Mind 27622
mini@@ 27618
arta 27610
emy 27609
Lynch 27608
occu@@ 27608
1824 27599
flam@@ 27599
Mog@@ 27594
metr@@ 27592
0,@@ 27586
uno 27584
leen 27579
angu@@ 27577
fli@@ 27575
moderni@@ 27574
icide 27571
traits 27570
Classi@@ 27565
AU 27559
IN 27554
Los@@ 27553
acces@@ 27546
anci@@ 27544
urai 27539
chol@@ 27537
1829 27533
Felix 27531
sius 27529
aden 27518
ć@@ 27510
450 27506
Match 27502
chur@@ 27500
nik@@ 27495
Lew@@ 27483
104 27477
Sit@@ 27474
utt@@ 27467
Ski@@ 27463
Or 27456
correspondent 27447
arius 27437
Alternative 27428
invasi@@ 27426
mare 27422
Pink 27412
keting 27411
Mann 27409
burgh 27407
yor 27404
fan@@ 27394
PP 27389
Zero 27388
dell 27380
lam 27364
tz@@ 27355
idar@@ 27348
cz@@ 27343
PT@@ 27339
pora 27335
Pam@@ 27323
Sex 27318
Sofia 27303
MVP 27286
emat@@ 27285
Silver@@ 27281
dos 27280
fru@@ 27272
nave 27262
Geoff@@ 27259
Gibraltar 27247
Mercedes 27243
Lus@@ 27242
uke 27237
garten 27236
Reh@@ 27232
Mary@@ 27228
Tok@@ 27228
experiment@@ 27227
Helena 27226
Khali@@ 27214
Angel@@ 27196
0.1 27188
ellip@@ 27178
Marin@@ 27177
Int@@ 27175
Brom@@ 27168
Dark@@ 27161
Tyr@@ 27138
anas 27138
fabri@@ 27132
Stan 27128
discipl@@ 27126
ky@@ 27120
Sporting 27111
canton 27108
ologne 27097
Back@@ 27092
Mail 27086
Sail@@ 27081
tras@@ 27073
cass@@ 27070
lecture 27065
Canton 27061
dimension 27032
Kah@@ 27028
Compos@@ 27021
Mikha@@ 27017
Nah@@ 27009
Wir@@ 27007
Herman 27001
Chr@@ 26999
Khal@@ 26996
Dynam@@ 26984
Kay@@ 26980
Myr@@ 26976
Hits 26975
Rafael 26969
Roberto 26963
pi 26953
umbr@@ 26951
ecca 26920
Tunnel 26919
Trou@@ 26914
CL@@ 26903
Nun@@ 26895
hal 26887
Bret@@ 26884
Tales 26875
NT 26873
fluor@@ 26865
wes@@ 26863
LG@@ 26860
Salv@@ 26860
Linux 26856
1813 26854
Potter 26853
Histori@@ 26849
46@@ 26844
itar 26839
accep@@ 26834
voy@@ 26829
ayo 26828
tonnes 26823
MI 26812
Speci@@ 26811
lum@@ 26807
Netflix 26804
Dil@@ 26799
sz@@ 26799
stadt 26793
Chan@@ 26792
Helsinki 26785
Organisation 26783
Tech@@ 26781
anatom@@ 26765
orus 26756
Chi 26748
Initiative 26743
Art@@ 26723
Jour@@ 26723
Fos@@ 26708
Form@@ 26707
ino@@ 26697
Carey 26688
sten 26660
Adolf 26655
Eu@@ 26654
Nep@@ 26651
Michelle 26647
Georg 26638
ient 26638
Roch@@ 26636
Hard 26627
Schwar@@ 26608
Nicolas 26590
kis@@ 26587
EL@@ 26582
ystal 26580
Ivan@@ 26575
escope 26572
kad@@ 26572
nership 26542
Talk 26539
bein@@ 26535
öl@@ 26527
Sonn@@ 26519
toire 26517
Baden 26509
luc@@ 26506
Ethiop@@ 26494
galax@@ 26493
ineer 26487
iya 26482
kett 26482
Hip@@ 26478
sport@@ 26477
Belle 26472
BT@@ 26467
vert 26464
attach@@ 26461
amino 26459
AK@@ 26455
Negro 26455
1826 26449
Maya 26432
Co. 26421
Sheikh 26417
Ped@@ 26415
asha 26409
Bach@@ 26406
Dawn 26402
Hell@@ 26397
modific@@ 26392
Meyer 26385
NS 26384
alternati@@ 26382
Gas 26381
MT 26378
án@@ 26374
103 26371
cc 26370
Deutsche 26364
ahl 26364
filtr@@ 26359
Honda 26351
Libya 26347
ë 26323
Glad@@ 26314
Activ@@ 26306
Us@@ 26299
sprint 26298
music@@ 26290
Asp@@ 26289
Sind@@ 26282
ull 26278
Jessica 26276
EN@@ 26266
undtrack 26261
Sinc@@ 26259
fat 26256
Wan@@ 26255
Parti@@ 26250
flora 26231
Flu@@ 26223
Chev@@ 26212
Eisen@@ 26195
beit 26188
Fall@@ 26187
izer 26184
Icel@@ 26181
xa 26179
ö 26176
timately 26165
1818 26162
beck 26158
minton 26135
vie 26134
kus 26126
Yas@@ 26119
ambigu@@ 26113
ostr@@ 26111
Ś@@ 26103
Ana 26095
Slam 26090
raf@@ 26089
ilities 26086
Philippe 26081
Johannes 26080
elt@@ 26075
osom@@ 26069
KO 26067
yel@@ 26066
Nath@@ 26061
Lug@@ 26060
etz 26058
ES 26057
tren@@ 26057
asan 26056
Mar 26054
nus 26047
48@@ 26045
anya 26038
agram 26021
asse 26018
rection 26014
Carol@@ 26012
ana@@ 26002
Jal@@ 25996
Grav@@ 25994
Hermann 25992
5.5 25991
pert 25987
hiz@@ 25986
acier 25985
Particip@@ 25979
HA 25970
collectiv@@ 25967
Paramount 25963
sta 25960
enta 25955
Living@@ 25952
anor 25946
Micha@@ 25934
integ@@ 25931
UCI 25927
dre 25926
Admir@@ 25923
Sach@@ 25920
Bundesliga 25908
108 25898
dot@@ 25886
hua 25882
170 25868
Europa 25840
elo@@ 25833
skaya 25829
Blin@@ 25828
EA 25818
pei 25811
Miy@@ 25810
Priv@@ 25799
interrog@@ 25787
ʻ@@ 25776
liers 25769
MIT 25767
por 25767
Composition 25764
osaurus 25764
1.7 25757
olar@@ 25754
Adol@@ 25753
Euc@@ 25752
Stefan 25751
Mey@@ 25731
mas 25731
osc@@ 25726
yro@@ 25724
nou@@ 25716
XX@@ 25715
epis@@ 25704
FIBA 25703
44@@ 25691
Wein@@ 25688
Pag@@ 25684
gig@@ 25683
Haj@@ 25680
Toledo 25677
Sco@@ 25672
Haiti 25655
compil@@ 25653
Cra@@ 25650
tron@@ 25650
Pall@@ 25642
tire 25642
pedia 25637
alan@@ 25624
iner@@ 25616
Jeffrey 25598
Kak@@ 25597
Sidney 25596
Hud@@ 25595
Pablo 25595
Krak@@ 25594
anny 25587
lowers 25583
inces 25573
Nab@@ 25570
Hack@@ 25569
clas@@ 25563
106 25554
ammed 25544
Visual 25540
MHz 25538
Turk@@ 25534
Bergen 25521
eurs 25518
Fred@@ 25509
Butter@@ 25507
ren 25488
amas 25487
devi@@ 25486
Offic@@ 25472
awa@@ 25470
Yah@@ 25469
Moder@@ 25463
Janet 25460
Monica 25460
ley@@ 25460
iggins 25453
Dus@@ 25450
Alberto 25443
Lima 25439
vend@@ 25437
Kut@@ 25430
oven 25427
List@@ 25426
Stir@@ 25402
1806 25399
López 25386
Wiz@@ 25371
1801 25365
55@@ 25361
ril 25339
Sent@@ 25335
ʼ@@ 25334
Prin@@ 25333
ü@@ 25328
Kav@@ 25324
Song@@ 25320
Swift 25320
1.0 25317
deten@@ 25313
65@@ 25310
metro 25307
Cali@@ 25302
Lep@@ 25295
Tang@@ 25295
gin@@ 25291
Alexandra 25286
Organ@@ 25285
ventr@@ 25284
Yok@@ 25278
Xavier 25263
bio 25259
aines 25255
primiti@@ 25255
Kane 25254
emann 25254
ogo 25254
bis 25249
Hannah 25230
Xbox 25229
Ultimate 25226
Stalin 25222
Patricia 25218
poli 25211
220 25202
sis 25199
1827 25190
Hug@@ 25188
circu@@ 25188
oca 25188
evangel@@ 25185
Oliv@@ 25182
ockey 25176
Lay@@ 25170
bei 25160
confront@@ 25160
1816 25159
Beck 25159
Spring@@ 25154
Sophie 25149
Shane 25142
109 25136
zin@@ 25136
124@@ 25134
Metacritic 25130
40,000 25123
candid@@ 25121
185@@ 25120
caus@@ 25118
Develop@@ 25111
Caesar 25106
BR 25104
vec@@ 25102
fo 25097
afor@@ 25095
conflu@@ 25072
MT@@ 25069
employ@@ 25059
Buz@@ 25058
Homer 25058
Fav@@ 25055
111 25050
Chad 25050
twel@@ 25048
ofs 25046
186@@ 25044
SB 25034
bra@@ 25032
Jackie 25030
fabric@@ 25026
emi 25024
ICC 25012
Wag@@ 25008
Zagreb 25005
2.2 24992
endi@@ 24969
auss 24962
materi@@ 24955
auto 24954
Ibrahim 24950
stad 24949
liga 24940
UR@@ 24939
facto 24932
Id@@ 24914
critici@@ 24911
Jol@@ 24898
Rally 24898
nis 24898
wi 24893
Trans 24886
ru 24877
Away 24864
mascul@@ 24861
Joyce 24860
Prof@@ 24858
othe@@ 24857
Ler@@ 24847
baptis@@ 24847
Free@@ 24844
Maxim@@ 24843
rot 24837
ution@@ 24837
depres@@ 24826
Fried@@ 24823
sher@@ 24818
Alger@@ 24807
Aviv 24799
Mih@@ 24790
Roland 24785
tish 24779
DM 24774
avirus 24773
viv@@ 24764
yr 24754
Fit@@ 24750
plasma 24745
franch@@ 24744
Torres 24737
Palm@@ 24735
hex@@ 24731
tos@@ 24731
González 24730
egu@@ 24730
gall@@ 24724
1819 24718
1803 24713
BW@@ 24712
topo@@ 24682
tales 24679
hak@@ 24676
Mab@@ 24675
ring@@ 24675
BP 24665
stra@@ 24664
guber@@ 24658
ondo 24651
este 24648
Euro@@ 24647
Rhin@@ 24642
Wonder 24633
Joy 24628
qua 24626
Luk@@ 24622
Pok@@ 24618
Hein@@ 24615
GDP 24614
fried 24604
TR@@ 24601
Mark@@ 24592
bet 24592
Percy 24590
115 24584
1822 24578
Afric@@ 24575
Apo@@ 24573
Winter@@ 24567
Mati@@ 24563
CB 24538
max 24535
sty@@ 24530
0.3 24523
hiv@@ 24517
buc@@ 24516
5000 24515
Rotten 24513
Tos@@ 24503
Ces@@ 24497
Capit@@ 24483
elop@@ 24482
pol 24467
Doug@@ 24466
Dat@@ 24459
Alexand@@ 24456
Bart@@ 24450
irat@@ 24447
nan@@ 24440
ocar@@ 24436
akh 24428
divide 24426
ador@@ 24418
Got 24415
DV@@ 24411
Randy 24404
6.5 24399
Conrad 24399
nica 24396
jan@@ 24393
dop@@ 24391
Nash 24383
Heroes 24381
Auto 24375
Grou@@ 24375
ISO 24367
fran@@ 24364
Kw@@ 24363
adapt@@ 24357
guit@@ 24333
athlon 24330
β 24328
Beautiful 24324
½ 24319
DB 24316
Matthe@@ 24313
135 24312
dair@@ 24311
Kis@@ 24297
Diam@@ 24292
tings 24288
Erik 24283
graves 24276
ular@@ 24272
chil@@ 24271
solic@@ 24271
1823 24266
escal@@ 24259
Lig@@ 24257
mise 24250
amar@@ 24246
dong 24246
Di 24243
Hung@@ 24239
Hydro@@ 24238
odo@@ 24231
lex@@ 24230
trong 24229
sein 24226
Orch@@ 24225
pendi@@ 24224
Tunisia 24212
Hoff@@ 24207
Valencia 24204
Jus@@ 24196
IL@@ 24192
MB 24188
Perf@@ 24187
Gon@@ 24186
aea 24185
fj@@ 24183
Nielsen 24182
Ug@@ 24180
ieved 24178
Chat@@ 24172
Jin@@ 24168
Instrum@@ 24166
Galaxy 24160
1809 24153
Mohamed 24145
magistr@@ 24139
aza 24133
leb@@ 24130
Dad@@ 24128
Apostol@@ 24117
ymn@@ 24114
ă 24099
Lom@@ 24091
Android 24084
Set@@ 24082
Angola 24080
ei@@ 24072
Abdullah 24071
popular@@ 24071
128 24066
einer 24066
dio 24053
Jab@@ 24052
Vall@@ 24049
lon@@ 24045
Raw 24044
stan@@ 24031
frey 24025
Lob@@ 24017
Horn 24011
mang@@ 24008
Krist@@ 24000
mou@@ 23999
Toy@@ 23982
sertation 23982
112 23972
rim@@ 23964
1,4@@ 23962
specific@@ 23957
opsis 23955
Get@@ 23952
Kle@@ 23952
Face 23949
hara 23947
Hassan 23943
Zur@@ 23930
Niz@@ 23926
Roma 23924
eras 23917
Cao 23916
Make 23913
etti@@ 23902
0.2 23893
lumin@@ 23892
latitu@@ 23881
CL 23880
Ord@@ 23875
Bomb@@ 23869
Christine 23868
yu@@ 23861
Tou@@ 23859
Neo 23853
irie 23850
Agnes 23844
Dresden 23843
Primera 23834
Rey 23832
Leone 23830
gem@@ 23828
uj@@ 23828
dex 23807
Abo@@ 23804
petr@@ 23800
Hau@@ 23799
muda 23798
Quart@@ 23794
Tax@@ 23790
Champ@@ 23788
zan 23787
Rudolf 23778
fum@@ 23777
spin@@ 23776
12,@@ 23771
PI 23771
Kho@@ 23764
elf 23755
Flora 23749
nov@@ 23740
Ostr@@ 23738
Cres@@ 23731
ān 23728
iman 23723
inclin@@ 23720
Know 23714
Crom@@ 23703
guerr@@ 23694
allo 23691
entin 23687
Sno@@ 23686
cide 23680
VP 23676
WT@@ 23675
HBO 23674
Chamber@@ 23671
Mili@@ 23667
Stal@@ 23665
Oriental 23662
ird 23660
107 23652
dipl@@ 23642
enge 23641
Kenn@@ 23629
1793 23625
1817 23624
Ferrari 23624
Yemen 23617
lyn 23617
1808 23612
Tay@@ 23607
Mt 23595
cinemat@@ 23595
Motors 23591
cel 23581
Hou@@ 23575
ias 23573
abis 23569
d. 23563
Koz@@ 23560
Akh@@ 23559
satisfac@@ 23559
visu@@ 23558
Fland@@ 23556
Zen@@ 23556
rah 23554
Cay@@ 23545
Hang@@ 23530
A1 23527
Hand 23522
Plant@@ 23518
Gang 23506
Bass 23505
contin@@ 23505
ui@@ 23492
ès 23492
aeus 23491
otro@@ 23487
revel@@ 23471
DF@@ 23469
EF 23463
Too 23459
aku 23458
Lorenzo 23450
Giuseppe 23446
vial 23446
Jum@@ 23445
Herr@@ 23442
gren@@ 23435
Superman 23433
bag@@ 23430
mation 23428
Tut@@ 23415
Zar@@ 23413
Horiz@@ 23411
Dest@@ 23397
Stur@@ 23396
Der 23389
proces@@ 23386
Monter@@ 23374
Nom@@ 23368
radic@@ 23367
otte 23365
prais@@ 23365
reform@@ 23364
dova 23357
mim@@ 23356
ahr@@ 23347
reproduc@@ 23346
Shab@@ 23339
Antoine 23335
Bras@@ 23332
firm@@ 23332
Scr@@ 23329
Osaka 23326
warf 23319
CM 23312
anza 23310
Llan@@ 23303
SF 23303
Bang 23294
Tud@@ 23293
ulin 23281
rik 23274
Vy@@ 23273
Kand@@ 23266
iger 23265
Miz@@ 23251
Zor@@ 23249
Angela 23245
oda 23243
Cerambycidae 23234
Hip 23223
Venus 23218
vs 23218
1807 23214
iTunes 23211
incur@@ 23203
Wolf@@ 23194
43@@ 23185
SK 23180
oc 23180
anted 23162
Kod@@ 23153
magn@@ 23146
1794 23127
1798 23126
1795 23125
Alg@@ 23120
Na 23117
Lang 23106
León 23101
lang 23095
Nil@@ 23087
1804 23080
CNN 23071
Buk@@ 23069
s.@@ 23060
dan@@ 23057
conform@@ 23044
Yi 23032
tat@@ 23031
Lambert 23028
Sub 23026
agara 23021
Kov@@ 23017
ě@@ 23015
1805 23014
hip@@ 23012
Chir@@ 23001
esto 22998
sberg 22997
AX 22987
FF@@ 22985
000,000 22981
Bask@@ 22975
dorf 22975
ilg@@ 22971
isch 22971
1,5@@ 22962
polo 22958
ór@@ 22953
adolesc@@ 22951
para 22950
ński 22950
Doh@@ 22949
eke 22947
1811 22944
iche 22939
Mud@@ 22936
Hok@@ 22925
della 22924
Eva 22918
Augusta 22914
Sey@@ 22913
phin 22908
Encyclo@@ 22897
alter 22896
eu 22886
ahan 22883
ambul@@ 22877
Jagu@@ 22876
sau@@ 22874
Pig@@ 22868
ern 22867
owo 22866
Porto 22863
Obj@@ 22859
Dak@@ 22854
Tibet 22851
Zam@@ 22848
biot@@ 22847
Lopez 22843
Italia 22840
bons 22833
quez 22831
homosexu@@ 22820
Sali@@ 22809
humor@@ 22806
urity 22802
av 22798
Bangkok 22760
Kok@@ 22754
portal 22752
Atlas 22748
occ@@ 22739
ño 22738
vul@@ 22733
iter 22732
zon@@ 22732
Flash 22731
eco 22730
Schmidt 22724
itan 22715
ż@@ 22705
KO@@ 22700
Eyes 22685
Promotion 22658
Era 22652
dal@@ 22649
Johan 22645
uled 22640
Marina 22634
alise 22628
heimer 22623
Sib@@ 22611
eshi 22606
Yun@@ 22603
Hop 22599
pac@@ 22596
aland 22589
2.3 22588
ystem 22586
tas 22585
chl@@ 22584
hung 22572
itas 22569
igr@@ 22565
2.1 22556
RCA 22553
Tomatoes 22553
azz@@ 22553
Elite 22539
Muk@@ 22528
apur 22515
hem 22504
halt 22489
itat 22489
JR 22461
Lein@@ 22461
dol 22461
Aston 22460
vik 22453
illar@@ 22451
Cog@@ 22438
immer@@ 22437
miz@@ 22431
2.4 22427
Challenger 22427
ebe 22425
SR@@ 22407
1790 22400
Monte@@ 22396
installations 22382
Pale@@ 22380
Bid@@ 22378
zu@@ 22377
techni@@ 22375
hao 22369
hang 22365
tari 22351
AW@@ 22347
mos 22325
acul@@ 22323
Beat 22320
mud@@ 22315
onde 22310
Alber@@ 22304
angi 22302
asso 22301
Net 22293
aman@@ 22281
amen@@ 22279
wang 22275
Cey@@ 22269
57@@ 22261
ppo 22260
final@@ 22257
uck@@ 22241
Du 22238
lot@@ 22211
gren 22206
Defin@@ 22186
Kang@@ 22182
Nap@@ 22175
Gog@@ 22171
ften 22147
GE 22145
Kru@@ 22143
pren@@ 22138
spap@@ 22128
DR@@ 22126
punc@@ 22123
1802 22121
Paraguay 22117
charg@@ 22114
Carmen 22107
LS 22106
Schw@@ 22100
amoto 22099
Paral@@ 22096
imit@@ 22094
fib@@ 22072
1792 22067
Gaza 22065
Soc@@ 22063
http 22063
Klein 22056
aller@@ 22056
cous@@ 22052
Disco@@ 22035
Vol 22028
Gabri@@ 22020
Identi@@ 22016
Poc@@ 22013
canon 22005
Distr@@ 22004
Ambro@@ 21997
ako 21989
Ö@@ 21979
Adap@@ 21975
Pion@@ 21967
vamp@@ 21966
confes@@ 21962
orr@@ 21947
kom@@ 21946
onna 21941
volution 21937
180@@ 21934
Airways 21934
dir 21931
Dmi@@ 21926
gens 21925
Tsu@@ 21922
amin 21921
psy@@ 21921
Comic 21911
Din 21908
Normal 21904
inspir@@ 21901
uch 21901
zer@@ 21897
kum@@ 21885
ED 21877
org 21872
BR@@ 21871
Andreas 21866
acia 21865
CW 21864
Hansen 21860
bec@@ 21859
Estr@@ 21858
Blu 21852
Basil@@ 21847
Rodríguez 21844
fu 21840
ox 21837
lich@@ 21822
inski 21818
Juni@@ 21817
yang 21812
simpli@@ 21811
spon@@ 21807
Jupiter 21804
BT 21792
End@@ 21791
Ron@@ 21791
uca 21789
enario 21788
insk 21785
Organiz@@ 21773
Stop 21771
maxim@@ 21766
1789 21757
urg 21752
attribu@@ 21746
Omar 21744
Vig@@ 21741
Must@@ 21734
Elisabeth 21728
Alfonso 21727
fauna 21727
Yer@@ 21725
Was 21704
Harmon@@ 21700
Å@@ 21699
Phan@@ 21687
Ide@@ 21686
Cord@@ 21678
acer@@ 21675
Samoa 21668
kee 21662
SO 21657
Spi@@ 21656
Bo 21651
ongo 21639
expon@@ 21608
aun 21607
blog@@ 21605
ppen 21604
awi 21601
Mob@@ 21594
Gustav 21592
asaki 21590
Gloria 21585
Re 21585
Beat@@ 21571
phus 21569
Fru@@ 21564
Marx 21563
ET@@ 21561
plum@@ 21549
cultur@@ 21548
irk 21548
EM 21541
KA 21540
Satell@@ 21531
plateau 21528
uster 21528
tation 21517
Leopold 21507
Weber 21507
Kiss 21500
kara 21497
enia 21496
Luz@@ 21492
Yes@@ 21490
aar 21489
Brenn@@ 21487
unga 21482
Lomb@@ 21473
1796 21449
nobl@@ 21437
Zel@@ 21431
Peters 21429
orit@@ 21429
Maf@@ 21428
Dami@@ 21424
Kend@@ 21413
OR@@ 21413
Tan 21409
tron 21409
Das 21408
ilit@@ 21401
expan@@ 21397
aber 21396
HR 21395
icts 21381
oj@@ 21381
Yang@@ 21377
exploitation 21377
Treat@@ 21364
Lip@@ 21359
itions 21351
Proj@@ 21343
uda 21343
idental 21337
auses 21335
culp@@ 21330
BN 21326
BMW 21318
meteor@@ 21313
elis 21312
suite 21308
Cic@@ 21303
Kati@@ 21303
azi@@ 21299
Sok@@ 21290
13,@@ 21286
Tell 21277
sko@@ 21275
atia 21270
113 21263
Stuttgart 21263
Moy@@ 21258
Sph@@ 21251
Jubil@@ 21244
aid@@ 21241
Von 21226
ympi@@ 21225
Elena 21224
Turin 21221
Schum@@ 21216
1799 21207
refus@@ 21206
Marcos 21201
e.@@ 21198
fortific@@ 21198
1,6@@ 21194
René 21177
Jah@@ 21162
eci@@ 21162
thia 21161
eg 21159
WC 21156
Honduras 21148
Pius 21132
procur@@ 21131
onica 21130
asons 21129
quin@@ 21126
affin@@ 21108
Poz@@ 21103
Astronom@@ 21095
Infrastr@@ 21092
yev 21080
XII 21073
rol 21072
avo 21046
adan 21043
Jor@@ 21032
spatial 21029
Monster 21023
dyn@@ 21016
33.@@ 21008
119@@ 21004
Jam 20994
PL 20980
Stand 20979
p. 20972
bro 20965
wol@@ 20959
signi@@ 20958
arren 20948
AV 20947
Ud@@ 20945
Capr@@ 20936
Sovi@@ 20928
atir@@ 20920
dits 20910
apo 20900
Nord 20892
omor@@ 20886
Ek@@ 20885
Rain 20881
ylon 20870
oides 20863
Renault 20857
ht@@ 20848
1,3@@ 20840
atin@@ 20837
reas 20834
defe@@ 20833
Roll@@ 20831
Coul@@ 20817
ao@@ 20813
MV 20802
Bub@@ 20801
Lands@@ 20799
Ez@@ 20795
oki 20792
Mayo 20773
Stil@@ 20769
macro@@ 20765
antes 20764
common@@ 20761
Emmanuel 20755
Bologna 20748
ás@@ 20743
bli@@ 20737
Evil 20735
Ted@@ 20732
Barth@@ 20731
namo 20731
0.4 20729
Voy@@ 20719
Mi 20716
Ce@@ 20706
nar 20700
U. 20697
240 20687
podium 20686
Grig@@ 20680
MG 20667
a. 20666
ouv@@ 20661
shin@@ 20660
UT@@ 20657
estu@@ 20652
Ves@@ 20645
Reich@@ 20642
kol@@ 20641
ylo@@ 20638
Ruby 20617
aser 20616
Josef 20613
Rainbow 20613
olin 20610
Expl@@ 20609
ís 20605
Natur@@ 20598
Lie@@ 20595
Isa@@ 20594
1797 20592
esch@@ 20589
Za@@ 20583
tard 20581
115@@ 20577
ya@@ 20572
otti 20569
Gin@@ 20564
letin 20554
Kamp@@ 20541
Rita 20539
Angelo 20530
Taliban 20527
Fantas@@ 20517
march@@ 20509
sist@@ 20504
ères 20500
SU@@ 20495
Pug@@ 20494
oman 20493
destruc@@ 20487
eni@@ 20486
gil@@ 20480
chard 20479
bay@@ 20474
antha 20470
1776 20468
Pérez 20451
scru@@ 20447
oty@@ 20431
č 20428
Yuk@@ 20424
Comput@@ 20423
Jung@@ 20417
Plas@@ 20416
aurus 20410
rak@@ 20406
F1 20398
Somalia 20396
Nikol@@ 20394
Nina 20390
qui 20390
Pach@@ 20383
ald@@ 20376
lywood 20375
porno@@ 20371
BB@@ 20367
pes@@ 20367
Recon@@ 20355
Bé@@ 20337
abu 20337
Rouge 20335
Jew@@ 20316
azzo 20316
Reich 20314
56@@ 20303
Dream@@ 20303
ê@@ 20297
grab@@ 20293
ney@@ 20282
Namibia 20281
MR 20280
kam@@ 20268
Vista 20267
Dipl@@ 20259
114 20251
anni@@ 20248
anterior 20247
Sek@@ 20243
chal@@ 20242
117 20236
illas 20235
ifs 20229
jana 20224
Eb@@ 20223
carbon@@ 20217
omorph@@ 20217
ms@@ 20213
And@@ 20204
robot 20203
Rin@@ 20202
sain@@ 20181
merc@@ 20178
bombard@@ 20177
184@@ 20176
dot 20170
Deleg@@ 20168
MO 20165
Gly@@ 20163
fet@@ 20162
lass@@ 20148
rio 20142
Foc@@ 20135
Mec@@ 20127
Langu@@ 20119
1.9 20113
abandon@@ 20110
yne 20098
cum 20097
IA@@ 20084
Say 20084
Infin@@ 20083
Sophia 20080
Ling@@ 20077
3.0 20071
UM@@ 20054
Viv@@ 20054
Liz@@ 20053
orthodo@@ 20047
14,@@ 20046
Forever 20045
1,8@@ 20043
Libr@@ 20043
2.7 20031
Con 20030
Ha 20028
ina@@ 20025
Fritz 20021
PT 20017
Cannes 20016
bek 20009
Phili@@ 19999
ahl@@ 19998
8.5 19996
Nassau 19988
archiv@@ 19987
imi@@ 19985
prolong@@ 19973
Gö@@ 19967
Pis@@ 19966
besieg@@ 19963
Rivera 19954
123 19953
kard 19945
Val 19941
Hyper@@ 19923
lim 19923
omy@@ 19922
Nec@@ 19913
olds 19905
titular 19905
raz@@ 19904
16,@@ 19897
99.@@ 19897
Colomb@@ 19894
andro 19885
Monaco 19884
· 19879
bia 19871
arro 19868
Olymp@@ 19861
DT 19860
jurisdic@@ 19854
nith@@ 19851
equilibri@@ 19829
precis@@ 19828
68@@ 19826
Pes@@ 19826
revision 19823
stag@@ 19819
orio 19792
CV@@ 19790
Dong@@ 19773
Fan@@ 19771
Tai 19765
FS 19762
HT@@ 19758
127 19754
Oh@@ 19750
Way@@ 19750
Isra@@ 19747
1,7@@ 19746
abri@@ 19730
rift 19728
Kro@@ 19726
ois@@ 19719
Mozart 19718
yana 19711
margin@@ 19709
Ricardo 19705
probable 19694
Ç@@ 19694
satell@@ 19692
baum 19685
superi@@ 19674
opter@@ 19662
Quin@@ 19661
posterior 19658
iger@@ 19647
plen@@ 19647
Intel 19645
dispar@@ 19644
essa 19639
Samp@@ 19634
Ré@@ 19631
BB 19626
HO@@ 19624
1200 19623
121 19622
opl@@ 19613
Solo 19612
ior 19606
qualifi@@ 19604
ú 19593
Avi@@ 19590
eim 19581
Thom@@ 19577
Purple 19572
0.6 19568
Wester@@ 19566
Baj@@ 19554
Vinc@@ 19537
Core 19530
strat@@ 19530
DL 19524
homo@@ 19522
ische 19520
jin 19517
Kes@@ 19515
opar@@ 19515
avant 19512
infer@@ 19510
Brand 19494
Format 19492
uga 19488
Ket@@ 19487
Gug@@ 19485
boul@@ 19479
ude 19476
tane 19475
xy@@ 19475
Eil@@ 19473
Jules 19469
Chrys@@ 19467
individ@@ 19467
https 19458
Fis@@ 19445
Hig@@ 19441
École 19440
agne 19439
Zak@@ 19428
Fischer 19427
hp 19418
acr@@ 19416
aden@@ 19398
Chen@@ 19389
allen 19386
deo 19385
jav@@ 19385
122 19381
Rath@@ 19381
1600 19376
Illustr@@ 19371
ardin@@ 19365
invit@@ 19358
alus 19352
Ji 19348
Riz@@ 19338
aper@@ 19334
oft 19328
eux 19315
Jung 19310
rin 19310
2.8 19297
Hes@@ 19297
arios 19297
für 19297
Azerbaij@@ 19289
Marcel 19277
Iber@@ 19265
Lagos 19260
suscep@@ 19259
Pho@@ 19255
ders@@ 19247
Beta 19237
kle@@ 19237
116 19227
tabl@@ 19226
1791 19217
inver@@ 19217
yk@@ 19215
blind@@ 19213
opus 19209
Okinawa 19205
Des 19203
nie 19203
Dau@@ 19201
chef 19193
ennes 19191
Ins@@ 19190
otus 19180
Tad@@ 19179
190 19178
Via 19177
Programm@@ 19173
cession 19169
Schul@@ 19164
Sis@@ 19164
118@@ 19163
pale@@ 19160
jar 19157
join@@ 19156
ince 19155
Hof@@ 19146
Jord@@ 19145
CH 19142
2.6 19139
0.7 19136
berg@@ 19136
tiers 19134
Hydr@@ 19129
53@@ 19114
Noel 19108
Kai 19087
Phi 19087
aq 19085
Fast 19079
Nau@@ 19062
axe 19058
ansen 19043
IV@@ 19042
ardo 19039
3.2 19035
126 19032
aret 19032
osi 19029
sv@@ 19028
Atlético 19026
Christina 19026
ID@@ 19016
cible 19013
Zu@@ 19009
emas 19009
RAM 19007
Hann@@ 19004
1775 18999
Pist@@ 18993
Mayer 18991
Ern@@ 18990
210 18975
pore 18960
Inv@@ 18951
burg@@ 18944
Isabel 18940
36.@@ 18924
visa 18924
ardt 18918
54@@ 18908
35.@@ 18900
34.@@ 18899
hart 18899
175 18882
ombie 18881
protest@@ 18872
kur@@ 18866
ä 18864
17,@@ 18856
Kag@@ 18854
Miranda 18850
Lach@@ 18832
lou@@ 18830
15,@@ 18820
tique 18810
unes 18806
Stern 18805
Sound@@ 18797
Nicaragua 18789
LD 18781
partition 18776
Rosen@@ 18775
0.8 18773
pum@@ 18763
124 18762
Ring@@ 18762
const@@ 18751
conception 18750
Fid@@ 18748
dea 18743
pas 18740
mash@@ 18737
Jama@@ 18735
Mali 18735
kshire 18726
Nicole 18717
Hern@@ 18716
Stef@@ 18715
solid@@ 18713
vag@@ 18705
contempor@@ 18704
AK 18689
vania 18688
aik@@ 18685
kowski 18679
vat@@ 18679
Romeo 18669
stern 18668
XIII 18663
villa 18662
Tik@@ 18652
Calvin 18650
K.@@ 18641
ench@@ 18635
enzy@@ 18629
Zambia 18628
Vera 18624
arina 18619
Suzuki 18617
upp@@ 18614
oppose 18612
Lincol@@ 18605
Mini 18603
32.@@ 18598
inferior 18596
Hap@@ 18593
ahu 18592
Nice 18591
ED@@ 18579
digit@@ 18578
Nos@@ 18575
Piz@@ 18561
õ@@ 18561
sto@@ 18548
Tav@@ 18546
DI@@ 18545
1,9@@ 18536
ē@@ 18531
Arro@@ 18528
mam 18525
Qualif@@ 18521
iji 18518
118 18507
You@@ 18507
Chau@@ 18502
tige 18500
Teresa 18499
ios 18496
58@@ 18494
Bam@@ 18494
ision@@ 18488
Fi 18487
eine 18486
Chevrolet 18478
Vand@@ 18474
Restaur@@ 18468
iana 18465
76@@ 18464
Aar@@ 18464
Wah@@ 18461
Hospit@@ 18460
font 18458
Su 18448
urban@@ 18446
chez 18435
ographi@@ 18433
gue 18413
ape@@ 18410
Phyl@@ 18409
Rotterdam 18397
communal 18393
Form 18387
clusi@@ 18367
Master@@ 18365
Hass@@ 18360
dav@@ 18360
Ensemble 18358
Jet 18356
Vivi@@ 18352
Chu@@ 18350
Kau@@ 18343
Aless@@ 18337
1780 18324
Lok@@ 18322
Princ@@ 18317
Lo 18313
Zap@@ 18313
38.@@ 18310
quin 18303
asco 18302
second@@ 18302
Aux@@ 18297
spired 18291
ensive 18285
Muh@@ 18284
RE 18284
amus 18282
constituent 18281
aff 18277
Said 18254
Nile 18250
Es 18246
DD 18245
radio@@ 18232
funk 18230
Leningrad 18218
ween 18217
dt 18216
Sant 18212
aldo 18212
adic@@ 18211
Animation 18206
Lorraine 18205
Ib@@ 18203
mad 18201
CN 18195
Bres@@ 18194
EMI 18194
mani 18194
cules 18168
′ 18160
Fren@@ 18154
arro@@ 18153
alu 18151
Werner 18150
Mans 18149
ande 18149
ogie 18141
otom@@ 18141
rov@@ 18140
Sánchez 18130
Ein@@ 18113
Hammer@@ 18106
Mozambi@@ 18105
Teh@@ 18104
isl@@ 18101
Kop@@ 18100
otop@@ 18100
2023 18096
@ 18095
Guadal@@ 18094
sei 18090
V8 18089
Den 18084
fred 18082
tn@@ 18078
atsu 18077
Jess@@ 18072
Bio@@ 18071
refuse 18071
Laos 18059
BD 18056
Martínez 18052
USD 18051
uku 18047
Gut@@ 18045
Fed@@ 18042
ulos 18035
Nes@@ 18031
Fernández 18030
Margar@@ 18020
Sonic 18011
NP 18010
59@@ 17996
Mex@@ 17994
Vamp@@ 17982
Adel@@ 17977
iel 17977
pour 17977
Xu@@ 17966
Aristot@@ 17961
berto 17960
benz@@ 17957
gae 17956
rum 17952
Senegal 17951
1783 17949
ód@@ 17949
ovic 17946
Alvar@@ 17939
Neb@@ 17936
Irene 17926
ø 17921
geh@@ 17919
Kri@@ 17918
230 17913
AO 17897
isco 17888
XV 17887
station@@ 17886
Magnus 17885
Ain 17883
athan 17883
Version 17876
Diplom@@ 17870
Sega 17868
Pseud@@ 17861
rech@@ 17857
aissance 17853
esse 17848
ici 17847
Hay 17834
Johannesburg 17816
Siv@@ 17813
Grec@@ 17811
Nis@@ 17810
anto 17808
kas 17804
pronunci@@ 17801
Stol@@ 17799
bare 17794
nobles 17794
hol 17789
Abd 17779
arn 17774
3.3 17773
Argent@@ 17759
67@@ 17754
FL@@ 17754
Hasan 17751
GI 17750
VO@@ 17747
» 17741
kh 17739
aide 17731
isp@@ 17731
atoes 17726
COM 17717
udo 17717
1788 17709
Ts@@ 17707
Dimi@@ 17705
Stap@@ 17701
Tum@@ 17699
beginn@@ 17690
cht 17678
fundament@@ 17677
Labr@@ 17675
Dres@@ 17672
fs 17672
Ki 17665
Dais@@ 17661
è@@ 17660
NCA@@ 17659
Ligue 17658
mg 17657
FDA 17656
Fus@@ 17654
wth 17648
OH 17645
CG 17639
Dah@@ 17639
3.1 17635
communes 17631
Aeg@@ 17621
sed@@ 17621
loss@@ 17606
Wolfgang 17602
chan@@ 17585
Rapha@@ 17583
HD@@ 17575
equival@@ 17575
Wikipedia 17568
Edit@@ 17567
hausen 17566
119 17552
EF@@ 17551
Imp@@ 17551
ctu@@ 17551
Equi@@ 17545
Io@@ 17535
2,0@@ 17532
Lotus 17532
concili@@ 17524
blin 17522
eger 17522
pour@@ 17516
Si 17515
WWF 17515
Haf@@ 17510
Lich@@ 17508
Wen@@ 17505
monum@@ 17504
Bremen 17497
ardi 17495
kay@@ 17490
Ka 17488
k.@@ 17488
laur@@ 17480
uz 17466
Galil@@ 17457
yar 17457
Pek@@ 17450
caf@@ 17446
66@@ 17445
urus 17445
Abdul@@ 17434
umba 17430
Atlan@@ 17429
ymnasium 17420
Oy@@ 17419
nio 17416
mat 17407
tang@@ 17405
Grap@@ 17402
pp 17393
23,@@ 17385
« 17380
anol 17379
kow@@ 17370
64@@ 17368
costa 17358
Henri@@ 17356
Atom@@ 17354
etr@@ 17353
Temp@@ 17351
petrol@@ 17348
hep@@ 17345
ña 17343
Wide 17339
Heli@@ 17330
dum@@ 17327
ore@@ 17326
Leonardo 17324
Granada 17319
poin@@ 17306
illi 17302
Malm@@ 17301
S.A. 17300
Stein 17299
Zürich 17291
Anat@@ 17282
Madame 17282
Tribunal 17282
vey@@ 17278
ariz@@ 17277
bek@@ 17277
quel@@ 17269
Eduardo 17264
Haus@@ 17263
asser 17261
cardinal 17261
Gior@@ 17260
Mao 17253
Just@@ 17248
LM 17247
nin 17247
Hyp@@ 17236
Ø@@ 17229
117@@ 17220
37.@@ 17220
Bahn 17220
ás 17215
39.@@ 17214
ere@@ 17213
bre 17199
Württemberg 17185
agus 17176
eron 17176
deon 17174
tad@@ 17173
Henn@@ 17171
sche 17170
Nel@@ 17165
anum 17149
99@@ 17137
PI@@ 17137
ová 17134
gil 17132
ozo@@ 17123
enas 17104
Min 17100
ə@@ 17092
strö@@ 17090
yx 17084
Inst@@ 17082
clip 17075
Warri@@ 17071
UF@@ 17063
olig@@ 17059
arra 17056
tens@@ 17056
49.@@ 17055
Pru@@ 17054
dae 17052
ARC 17051
univers@@ 17040
sev@@ 17036
Olivier 17032
Schneider 17026
Utr@@ 17018
arab@@ 17017
Domingo 17016
XIV 17015
fid@@ 17008
Pietro 16995
Que@@ 16993
oyer 16986
ologue 16978
astron@@ 16976
rom 16968
Segunda 16962
113@@ 16955
ceph@@ 16954
Clau@@ 16948
sier 16947
Status 16943
ô@@ 16943
andan 16931
bau@@ 16931
bekistan 16929
Hammer 16928
atom 16927
edia 16925
onda 16922
plu@@ 16922
Reyes 16920
18,@@ 16919
ź 16919
atan 16914
odon@@ 16904
trat@@ 16900
DOS 16899
enz 16896
Niger 16895
Verde 16895
Gregor 16887
Did@@ 16885
ön@@ 16884
Paula 16873
Kaiser 16871
Hep@@ 16870
Ex 16869
Balkan 16868
geant 16862
550 16847
stuf@@ 16842
Đ@@ 16842
Wich@@ 16841
SV@@ 16840
129 16832
Medina 16829
alle 16826
145 16818
ident@@ 16797
Unic@@ 16792
garde 16778
Eis@@ 16772
anom@@ 16768
lex 16765
arp@@ 16764
ophy@@ 16760
Metro@@ 16759
Bern 16756
paci@@ 16756
Ost@@ 16753
laine 16750
tum 16740
Dram@@ 16736
Gran 16736
lib@@ 16724
chu 16711
edra 16710
anal 16707
Termin@@ 16705
oshima 16698
Bordeaux 16696
Lil 16694
czy@@ 16692
320 16690
enst@@ 16690
typ@@ 16679
Mega 16670
ib 16662
anger@@ 16660
PE 16652
Paolo 16651
soc@@ 16644
Jov@@ 16639
20,@@ 16628
88@@ 16627
ros 16627
icio 16617
aires 16616
Brandenburg 16614
Jonas 16605
Hesse 16601
Faus@@ 16597
Lyc@@ 16593
Pyth@@ 16589
Berg 16578
Marseille 16575
ladi@@ 16573
XVI 16567
stil@@ 16566
famili@@ 16564
alier 16561
Nim@@ 16554
Koch 16547
troph@@ 16542
Kō@@ 16530
Antiqu@@ 16525
Harv@@ 16525
Baba 16523
andinav@@ 16518
enthal 16513
sag@@ 16513
Luigi 16512
privil@@ 16510
eor@@ 16501
Pf@@ 16495
Gymnasium 16489
libre@@ 16489
Cryp@@ 16488
Hubert 16485
Mont 16483
opin@@ 16480
canti@@ 16473
650 16470
jas 16464
inen 16454
Beethoven 16453
Materi@@ 16452
Sultan@@ 16451
atio 16442
Fah@@ 16430
yen 16430
Rwanda 16428
Trin@@ 16428
echt 16426
Wrest@@ 16421
4.2 16414
Napole@@ 16405
tenberg 16403
Yaz@@ 16398
correspond 16397
LE 16388
Einstein 16383
ausen 16382
BO 16375
132 16371
1787 16369
alom 16367
ieu 16365
apr@@ 16358
Mord@@ 16348
Soh@@ 16341
nis@@ 16337
vez 16336
eles 16335
bas 16330
116@@ 16327
eki 16322
Buff@@ 16319
Ruf@@ 16314
nac@@ 16313
Fest 16312
temporal 16312
obe 16309
् 16304
erra 16303
--@@ 16295
Tet@@ 16294
artis@@ 16292
itzer 16288
Quint@@ 16281
ole@@ 16280
yas@@ 16279
78@@ 16277
Gil 16268
Anast@@ 16264
onium 16257
114@@ 16254
IEEE 16253
Ere@@ 16252
sement 16252
Lionel 16248
En 16245
Sa 16245
esha 16245
Luna 16240
DT@@ 16239
Alek@@ 16237
insul@@ 16236
→ 16234
isburg 16233
ted@@ 16233
kW 16227
BM 16226
Ich@@ 16226
expul@@ 16217
nius 16216
inden 16215
Gn@@ 16214
Pant@@ 16209
kai 16209
thy@@ 16202
Müller 16201
ș 16200
gus@@ 16194
Ya@@ 16192
orie 16192
osaur@@ 16191
manifest@@ 16190
Test@@ 16188
fest 16169
Temper@@ 16166
chan 16166
Nazar@@ 16163
dov@@ 16162
Tottenham 16159
Quer@@ 16156
combus@@ 16154
hy 16147
Alternati@@ 16146
Tin 16146
adas 16142
Hr@@ 16139
Esc@@ 16137
lass 16136
Samm@@ 16132
IGN 16115
Universit@@ 16115
Mou@@ 16110
irus 16109
Pa 16104
155 16076
Porsche 16076
chall@@ 16074
mah@@ 16066
embran@@ 16065
Prof. 16046
Baptiste 16040
façade 16038
4.0 16034
Petro@@ 16029
Chu 16027
XX 16027
lips 16026
tera 16019
1777 16018
Sty@@ 16006
Austral@@ 15993
vertic@@ 15993
Biz@@ 15988
Ef@@ 15987
Gim@@ 15987
aler@@ 15978
Maw@@ 15976
Sprint 15975
lea 15971
WTA 15967
china 15966
Sand 15963
Martín 15959
Tri 15954
roman@@ 15950
IUCN 15932
Kub@@ 15917
atrice 15917
Muz@@ 15912
oya 15911
nen 15904
270 15898
Lé@@ 15889
iev@@ 15887
deg@@ 15885
Siberia 15884
000@@ 15882
fines 15874
Andal@@ 15868
apor@@ 15847
260 15841
atar 15840
Posi@@ 15835
nig@@ 15826
Gou@@ 15814
bourg 15803
OR 15802
Cola 15799
Tek@@ 15799
1778 15794
Fuj@@ 15794
orbit@@ 15786
reb@@ 15776
glut@@ 15774
rez 15773
Sainte 15765
Ans@@ 15761
Rip@@ 15742
tista 15742
bil 15732
1700 15726
tidae 15726
Luftwaffe 15715
KS 15712
prud@@ 15709
280 15708
63@@ 15705
1784 15704
Teatro 15704
Duf@@ 15698
Hal 15689
Casa 15687
Inc 15683
Braz@@ 15682
anche 15680
endorf 15679
Touch 15677
Ba 15672
Ban 15670
rea 15669
SG 15662
Eugen@@ 15652
0.0 15651
C1 15647
cite 15644
anl@@ 15643
ucci 15641
Hoh@@ 15640
noc@@ 15636
Charts 15633
xin 15630
eba 15624
Analy@@ 15622
amu 15621
alias 15617
tiger 15606
Nikolai 15602
eces 15599
verte@@ 15596
uti 15592
propul@@ 15585
Heidelberg 15582
phyl@@ 15579
Bart 15572
Laurent 15569
Pont 15558
añ@@ 15558
Chung 15544
egel 15539
dius 15538
144 15535
hardt 15524
lov 15516
Nest@@ 15510
macul@@ 15510
Toulouse 15508
SN 15504
tras 15503
rah@@ 15477
orno 15472
aras@@ 15459
Minn@@ 15456
Fati@@ 15451
amor@@ 15444
Bib@@ 15443
commod@@ 15441
165 15435
SSR 15435
Tub@@ 15435
iOS 15434
AH 15433
oti 15433
alo@@ 15428
ü 15427
Québec 15417
arring 15409
sat@@ 15407
501 15405
onius 15405
quadr@@ 15404
Samsung 15398
syst@@ 15398
mann@@ 15396
João 15390
aban 15389
simpl@@ 15389
debut@@ 15388
ellan 15385
1782 15379
azar@@ 15373
dest@@ 15367
Viktor 15363
labor@@ 15362
Abbas 15360
Olga 15358
Guerrero 15341
success@@ 15337
publican 15330
Eul@@ 15326
Mim@@ 15325
Aug@@ 15319
Profes@@ 15309
lus 15307
gaz@@ 15302
69@@ 15297
Esper@@ 15297
NH 15297
1781 15296
Emil 15292
Sur 15288
Corr@@ 15280
Tau@@ 15270
Inh@@ 15268
Mek@@ 15257
Aragon 15252
Po 15250
19,@@ 15237
stock@@ 15231
isition 15229
Brab@@ 15228
48.@@ 15218
Sylv@@ 15218
verg@@ 15218
manuel 15216
icum 15215
131 15213
alc@@ 15212
Panzer 15211
ał@@ 15210
Alexandre 15209
sule 15202
tenant 15196
tenham 15196
probl@@ 15194
GR@@ 15192
Lati@@ 15182
Un 15179
Riga 15178
mia 15175
Gis@@ 15173
opot@@ 15168
actr@@ 15166
ire@@ 15163
abo 15161
ş@@ 15157
A2 15139
Sergio 15130
hil 15127
onen 15122
oine 15120
133 15115
Shō@@ 15111
sap@@ 15104
indu@@ 15103
Polo 15097
regi@@ 15095
UK@@ 15093
incap@@ 15093
ime@@ 15092
KK 15088
ebook 15083
Hong@@ 15074
Vicente 15073
odon 15073
Lenin 15070
oly@@ 15069
Château 15054
Laguna 15041
Uy@@ 15030
Oz@@ 15029
Nati@@ 15026
pH 15021
Vega 15015
arak 15008
Sob@@ 15005
Stam@@ 15004
Aster@@ 15000
Jeanne 14997
ík 14994
toria 14992
Enrique 14975
partment 14963
uto 14956
dig 14950
hay@@ 14949
nm 14943
Strasbourg 14940
Refer@@ 14930
Liberia 14915
zia 14915
jk 14914
undo 14906
pute 14905
Seb@@ 14904
Nissan 14903
omp@@ 14900
Alc@@ 14899
μ@@ 14899
Salon 14896
Fay@@ 14892
Universidad 14889
Dé@@ 14888
Stic@@ 14888
Malawi 14887
Chim@@ 14877
isen 14876
appell@@ 14871
gorod 14862
bap@@ 14861
diers 14852
Yosh@@ 14850
éc@@ 14839
sak@@ 14836
Mant@@ 14835
77@@ 14830
impose 14830
ques@@ 14827
entes 14826
Kou@@ 14824
UI 14804
ucle@@ 14801
Sin 14796
ort@@ 14786
Famili@@ 14768
Aran@@ 14767
Gig@@ 14760
Instagram 14758
Edo 14756
exclus@@ 14755
pays 14747
bureau 14746
zar 14745
Zah@@ 14744
ls@@ 14744
Jeff@@ 14740
onder 14736
Are@@ 14730
acha 14730
hig 14724
Miner@@ 14719
Pompe@@ 14719
ungs 14713
AZ 14707
ria 14699
assi 14695
Díaz 14687
dor 14676
Andes 14670
hui 14670
ulia 14669
V.@@ 14667
Gag@@ 14659
lich 14658
136 14657
Javier 14651
adel@@ 14641
ob 14638
onas 14634
olm 14632
ende 14617
skie 14617
Alo@@ 14616
Pens@@ 14616
Rug@@ 14614
Alto 14609
1785 14607
Pter@@ 14599
Rach@@ 14596
330 14583
Ż@@ 14581
onc@@ 14580
à@@ 14571
PD@@ 14567
Mk 14564
138 14559
Hi 14559
Magdal@@ 14550
essen 14549
bius 14547
disco 14544
quel 14544
Tours 14543
jon 14538
ecker 14536
PF 14527
201 14524
impul@@ 14524
Wash@@ 14523
chia 14519
225 14508
wei 14508
iris 14505
andin@@ 14499
dei 14499
Rau@@ 14497
bahn 14496
critique 14495
oster@@ 14492
sol 14489
Nept@@ 14480
opa 14456
Kish@@ 14450
Phar@@ 14447
arre 14446
tav@@ 14444
Construc@@ 14443
zon 14437
edonia 14435
Timor 14431
petrol 14423
Gli@@ 14422
Lef@@ 14420
quent 14420
vel 14405
Palermo 14402
thal@@ 14402
actu@@ 14400
enga 14398
Tec@@ 14393
ambo 14391
ça 14390
BL@@ 14386
nau@@ 14385
augment@@ 14380
vier 14380
1779 14379
proclam@@ 14378
tur 14376
Sens@@ 14375
persp@@ 14368
mitt@@ 14366
Physi@@ 14361
Salzburg 14359
bean 14358
wski 14353
Alexis 14352
mam@@ 14350
Edi@@ 14349
etc. 14349
obi 14348
ushi 14347
chs 14345
Tenn@@ 14338
1774 14328
22,@@ 14328
Galicia 14327
141 14314
hall@@ 14301
Mend@@ 14299
Kiev 14294
agement 14294
Tra@@ 14288
Río 14281
igi 14280
umen 14280
Aleksand@@ 14279
Tō@@ 14276
Lac 14271
atal 14271
ő@@ 14267
divis@@ 14261
Benz 14259
Felipe 14259
its@@ 14245
plaza 14236
BK 14234
Cabr@@ 14229
upe 14228
Campeonato 14220
Wet@@ 14218
21,@@ 14217
ATA 14208
Flores 14207
Ó@@ 14204
aborat@@ 14203
rig 14202
asti@@ 14193
1786 14191
imperi@@ 14180
RN 14173
thu@@ 14170
hin 14166
egal 14162
CPU 14153
cend@@ 14153
anca 14148
Seine 14142
Moreno 14139
Craw@@ 14138
haus 14135
Lup@@ 14125
47.@@ 14123
bog@@ 14118
stadi@@ 14117
å 14115
atori@@ 14113
API 14111
aup@@ 14111
Humboldt 14107
Americ@@ 14102
Pog@@ 14093
Eber@@ 14088
Neum@@ 14087
Sich@@ 14068
Coh@@ 14066
anni 14064
commen@@ 14060
Explorer 14045
KV@@ 14039
sten@@ 14039
Real@@ 14028
chet 14028
Hello 14020
amia 14013
wart 14011
Wii 14009
individu@@ 14008
HK 14007
Versailles 13999
Sta@@ 13994
gru@@ 13993
134 13991
Michel@@ 13984
finaliz@@ 13983
oton 13971
UR 13966
cas 13961
divin@@ 13961
ignon 13961
effic@@ 13960
Dunk@@ 13956
état 13944
mono@@ 13941
85@@ 13940
xx 13940
Boc@@ 13936
202 13933
uria 13932
Marino 13924
1770 13922
lections 13919
Kauf@@ 13914
bibli@@ 13912
Institut 13910
illus 13904
spiritu@@ 13901
ajo 13898
owa 13898
dev 13893
Bon 13889
judici@@ 13888
Xen@@ 13884
arse 13882
Ya 13875
GPS 13874
horiz@@ 13872
152 13869
concurr@@ 13866
Holstein 13865
ulg@@ 13853
î@@ 13848
Ment@@ 13842
ede@@ 13834
offici@@ 13824
Joachim 13819
Moul@@ 13818
obo 13810
kal 13802
Hans@@ 13799
BAS@@ 13798
Urugu@@ 13794
Bank@@ 13791
hormon@@ 13791
rix 13790
yok@@ 13781
litz 13780
Sten@@ 13768
UV 13764
diffusion 13764
portant 13763
Pulitzer 13755
Rost@@ 13755
E9E9E9 13751
Rosario 13749
eiro 13747
ldwide 13743
PO 13742
olor 13730
Stade 13718
86@@ 13715
Start 13714
amura 13713
igner 13702
Gest@@ 13697
Giac@@ 13695
Param@@ 13693
folia 13693
Rous@@ 13692
vili 13691
GN@@ 13688
1660 13686
Abel 13685
cule 13685
orama 13681
Mania 13680
chus 13680
137 13679
Bourbon 13672
árez 13662
ʿ@@ 13660
vy@@ 13655
Feld@@ 13652
EST 13648
Hit 13641
Lamp@@ 13635
elen 13629
lever 13628
Sol 13627
Ili@@ 13625
Loh@@ 13623
Lid@@ 13620
1772 13619
aia 13618
O2 13612
Mustafa 13604
Guz@@ 13601
ò 13600
ensburg 13593
taine 13590
Romero 13588
ender@@ 13583
oja 13583
quick@@ 13582
Bayern 13575
Düsseldorf 13575
Geograph@@ 13571
ulas 13567
oire 13565
Holding 13559
Sé@@ 13548
Fou@@ 13545
Botswana 13542
Anj@@ 13541
assa 13541
sir@@ 13541
Theod@@ 13540
205 13535
DA@@ 13535
Berger 13532
ocer@@ 13529
Soy@@ 13527
chir@@ 13526
Kost@@ 13525
refle@@ 13522
ifer 13521
alto 13516
Eliz@@ 13513
ON 13511
Alejandro 13509
Yo 13509
ival@@ 13509
Khmer 13508
Adi@@ 13507
vide@@ 13505
nem@@ 13504
Anders 13503
Julio 13503
pom@@ 13493
dion 13486
afa 13478
agues 13476
Banglad@@ 13471
ople 13458
Zer@@ 13457
Cen@@ 13455
dit@@ 13455
alma 13448
ebu 13448
inia 13444
Joaqu@@ 13442
delta 13439
Ella 13437
ivi@@ 13427
atti 13422
Bundes@@ 13418
wall@@ 13411
aen@@ 13407
Simone 13403
Coca 13395
Alonso 13381
Spor@@ 13373
cois 13373
Apol@@ 13372
liament@@ 13372
Mig@@ 13369
46.@@ 13363
Nog@@ 13363
sans 13362
Æ@@ 13359
Pey@@ 13355
compose 13354
143 13351
Dry@@ 13349
Muse@@ 13349
LED 13346
Volkswagen 13335
yer@@ 13334
ün@@ 13333
WHO 13325
anders 13323
Glob@@ 13322
Them@@ 13322
allah 13322
Sain@@ 13321
unci@@ 13321
Tu 13320
1750 13317
dag@@ 13316
rang 13312
thumb 13310
Morales 13304
asu 13301
ación 13284
odor@@ 13284
79@@ 13280
Bund@@ 13275
Minh 13273
TT@@ 13270
Of@@ 13251
GmbH 13249
Heinz 13243
NGC 13240
ehr 13239
Becker 13236
Gusta@@ 13235
Orient 13233
assass@@ 13231
Text 13223
protec@@ 13220
onte 13211
eza 13206
146 13195
ROM 13192
relativ@@ 13190
tiz 13188
Marcel@@ 13187
oise 13187
Monten@@ 13185
atil@@ 13185
iba 13170
ilis 13168
Pix@@ 13163
Ajax 13160
altitu@@ 13160
gu 13155
ft@@ 13154
lieu 13154
Mode 13149
laz@@ 13148
tura 13147
mis 13141
sage 13140
Ş@@ 13139
Kaf@@ 13137
Esk@@ 13132
kun@@ 13132
151 13115
erk@@ 13113
éri@@ 13109
Wilhel@@ 13106
25,@@ 13099
ombe 13098
ré@@ 13098
ikawa 13084
endi 13079
45.@@ 13076
didae 13072
fices 13072
wig 13072
§ 13071
NET 13069
mez@@ 13066
aat 13064
EL 13062
Jug@@ 13062
parole 13061
74@@ 13055
ub 13054
sala 13049
emon 13046
Kras@@ 13042
† 13037
Mendoza 13033
adh@@ 13031
Marc@@ 13028
Leic@@ 13027
SmackDown 13027
26,@@ 13019
amide 13016
atis 13015
tenstein 13014
vio 13007
Paz 12997
Mai 12996
March@@ 12991
đ@@ 12978
ène 12975
142 12973
His@@ 12971
185 12966
Engl@@ 12966
Reichs@@ 12962
Maximilian 12961
1763 12957
156 12951
vivi@@ 12938
selves 12937
Cari@@ 12935
UL@@ 12930
resc@@ 12910
Kant@@ 12909
Nam 12908
147 12907
traj@@ 12902
tenance 12893
lique 12884
pu 12881
Tch@@ 12861
lik 12860
rejo@@ 12859
Rodrigo 12858
enant 12858
inho 12855
evi 12854
301 12851
CV 12851
256 12850
lightly 12849
eppe 12847
actus 12843
zan@@ 12838
Oro@@ 12833
Klaus 12829
21@@ 12824
tech@@ 12815
Karab@@ 12798
Regi@@ 12794
arte 12791
wand@@ 12784
Serv@@ 12782
ulo 12775
Bek@@ 12770
angel@@ 12769
Rober@@ 12767
Weimar 12762
Zan@@ 12761
idas 12756
osus 12746
Bois 12743
melan@@ 12742
Loire 12740
ension 12727
Baja 12712
ikos 12709
Ú@@ 12709
Kuz@@ 12706
Vu@@ 12697
Ges@@ 12695
Allah 12688
Bauer 12685
Gómez 12680
hab 12680
Ush@@ 12676
drei 12676
Saar@@ 12674
Orth@@ 12671
eil@@ 12670
dera 12667
eber@@ 12662
Occup@@ 12660
Haute 12655
4000 12654
än@@ 12653
Keller 12648
Hier@@ 12647
gend@@ 12646
Institut@@ 12645
lug 12644
straße 12641
capac@@ 12637
Germain 12636
detr@@ 12633
X. 12631
gut 12614
167 12613
Ramos 12609
nos@@ 12609
araj@@ 12607
hing 12605
topl@@ 12601
usi 12601
enbach 12598
Manz@@ 12597
propose 12596
Plata 12595
ý 12595
sali@@ 12590
ahu@@ 12584
äl@@ 12577
139 12575
precipit@@ 12574
lidae 12572
850 12570
tem 12566
.org 12564
hr 12563
SK@@ 12555
Airbus 12554
isto 12551
kug@@ 12549
EN 12546
É 12546
schild 12538
Nomin@@ 12535
isson 12534
UM 12533
Fé@@ 12531
eil 12529
enstein 12526
later@@ 12524
Artem@@ 12516
lang@@ 12508
pie 12505
acon@@ 12503
encia 12498
iso 12493
brief@@ 12492
engo 12492
rama 12487
chant@@ 12485
iku 12485
uso 12485
alen 12482
aner 12480
Somer@@ 12479
Deh@@ 12473
Ó 12459
DL@@ 12457
Córdoba 12452
dient 12449
Cap 12448
154 12446
ait@@ 12439
onge 12435
Anah@@ 12431
± 12430
Alain 12427
chel@@ 12427
dow 12412
Castillo 12411
Kuh@@ 12407
Ada 12405
ouse 12403
olet 12397
aten@@ 12395
Claudia 12393
Server 12387
Krasno@@ 12384
Valle 12378
Pascal 12372
gig 12371
Adler 12369
aina 12367
ja@@ 12367
Hik@@ 12365
ott@@ 12363
voirs 12360
utu 12358
Lao 12354
fis@@ 12350
ál@@ 12348
endo 12345
ł 12343
Juventus 12342
ém@@ 12336
sovi@@ 12332
yna 12328
Mainz 12327
provoc@@ 12323
Zw@@ 12322
uel 12317
olla 12316
trom@@ 12303
Design@@ 12297
anot@@ 12297
ül@@ 12296
Spin@@ 12295
icho 12292
endel@@ 12285
Chef 12284
e. 12278
EB@@ 12267
Bonn 12266
América 12253
persona 12252
sta@@ 12248
400@@ 12247
Hai 12247
Bez@@ 12246
89@@ 12244
USB 12244
év@@ 12243
ticus 12242
atas 12241
nova 12240
vid 12233
ė 12232
programm@@ 12227
Pueblo 12226
ange@@ 12217
24,@@ 12211
plar 12210
ufi 12209
Cous@@ 12198
ayr@@ 12195
pura 12194
alth 12190
153 12184
Centro 12182
Pokémon 12179
Vau@@ 12178
kos@@ 12178
pter@@ 12172
repeti@@ 12169
m2 12168
Euph@@ 12165
pati@@ 12165
exer@@ 12162
Cz@@ 12157
Má@@ 12157
nea 12148
divers 12141
Vend@@ 12137
Castell@@ 12136
climat@@ 12135
mara 12135
tien 12132
93.@@ 12123
TNA 12121
Merc@@ 12120
001 12118
Intel@@ 12116
EV@@ 12115
148 12113
encer 12110
Mama 12106
kus@@ 12105
jun@@ 12100
Schu@@ 12096
utz 12090
Hernández 12086
tir 12082
Sahara 12079
pal 12079
travers@@ 12079
1760 12078
Liège 12078
Rue 12077
aren 12071
Viz@@ 12067
relev@@ 12060
bonne 12057
Flag@@ 12056
Auguste 12051
yat 12049
87@@ 12043
malaria 12040
27,@@ 12038
Frag@@ 12035
Punk 12035
Bail@@ 12034
Blanc 12026
Script 12024
ité 12023
gel 12022
vesti@@ 12017
roqu@@ 12013
agin@@ 12005
Para 12003
CO2 12002
enfeld 12001
182 11997
36,@@ 11997
Provence 11996
SPD 11996
Benin 11994
sac 11994
bourge@@ 11992
1300 11991
Ech@@ 11989
Graf@@ 11989
Sen 11985
cyclo@@ 11984
transports 11984
Croix 11982
plann@@ 11982
bru@@ 11976
liaison 11975
Ami@@ 11973
aku@@ 11972
igny 11969
500@@ 11965
bron@@ 11964
Syst@@ 11962
kilometre 11953
ulata 11950
annis 11945
380 11942
Assemb@@ 11939
quis@@ 11934
iken 11933
hn@@ 11928
tius 11926
lie@@ 11914
ICA@@ 11912
optera 11909
30,@@ 11906
eren 11905
arom@@ 11904
aifa 11902
Mund@@ 11898
oman@@ 11893
euros 11886
hay 11884
sio 11884
RD 11881
Erich 11880
Zep@@ 11871
Sper@@ 11868
ppen@@ 11865
Freud 11864
disci@@ 11860
195 11853
Ankara 11852
Ado@@ 11849
abi@@ 11845
Trig@@ 11840
ías 11840
lep@@ 11835
lent 11832
Dies@@ 11825
Andrés 11823
Bonif@@ 11818
168 11817
afi 11814
oter@@ 11809
upa 11805
dé@@ 11804
ND 11803
yin 11803
sdorf 11796
Deportivo 11794
Gum@@ 11791
Petit 11788
Kara 11787
Wang@@ 11787
Bev@@ 11786
Gün@@ 11786
Ruh@@ 11786
incen@@ 11785
embar@@ 11783
erne 11783
Kron@@ 11777
ellus 11776
telenov@@ 11770
Schleswig 11765
mina 11765
orca 11760
üt@@ 11753
Norte 11746
angs 11746
Cerro 11742
Société 11741
Entr@@ 11740
impro@@ 11740
215 11739
Lara 11735
César 11731
SB@@ 11730
Bing@@ 11729
witz 11728
ég@@ 11728
seau 11722
khan 11721
kaya 11719
Tamb@@ 11713
quasi 11698
149 11695
Zimmer@@ 11691
imar@@ 11682
Domen@@ 11677
Mez@@ 11676
hou@@ 11673
superfici@@ 11667
repres@@ 11666
Chry@@ 11665
ilus 11663
Ā@@ 11661
1768 11660
alay@@ 11654
Bella 11647
jaw@@ 11639
Heil@@ 11638
emo 11630
Nit@@ 11629
340 11626
lead@@ 11619
Ra 11616
flot@@ 11615
omas 11613
tai 11605
cker 11600
ekw@@ 11600
pio 11598
osia 11597
gon 11592
28,@@ 11588
paral@@ 11588
Festiv@@ 11584
OT@@ 11579
Vide@@ 11577
Samb@@ 11574
Brest 11564
jam@@ 11561
quay 11560
basket 11557
Franken@@ 11554
bul 11553
Lam 11550
mán 11550
dhar@@ 11548
oder@@ 11548
coloni@@ 11541
Jaime 11538
eig@@ 11538
è 11538
fem@@ 11534
158 11533
quil@@ 11533
Hain@@ 11532
Linn@@ 11531
agua 11530
Moz@@ 11525
eberg 11524
teau 11523
yap@@ 11521
Nairobi 11511
Fak@@ 11510
kö@@ 11502
yalist 11501
98@@ 11491
Ruiz 11488
muz@@ 11488
Mash@@ 11486
onz@@ 11486
Franç@@ 11485
bern@@ 11480
gau 11479
Tod@@ 11471
1773 11469
Aziz 11464
Epi@@ 11462
Joy@@ 11456
thu 11454
phe 11453
ved@@ 11453
Music@@ 11448
enti 11448
WI 11445
alk@@ 11442
rico 11442
Aph@@ 11435
México 11427
atu@@ 11424
166 11422
2,5@@ 11418
Bey 11412
wam@@ 11404
Unter@@ 11403
,@@ 11399
maf@@ 11388
EX@@ 11387
tina 11387
duk@@ 11385
gon@@ 11382
suspen@@ 11381
riff 11376
dim 11375
Ung@@ 11373
oran 11368
ej 11364
162 11362
repos@@ 11361
275 11357
apons 11357
Faz@@ 11354
maz@@ 11351
SAR@@ 11347
organise 11345
Ort@@ 11344
Ehr@@ 11339
Café 11335
Vargas 11327
Abd@@ 11326
Renn@@ 11319
atz 11314
Barbar@@ 11313
Och@@ 11310
Roche 11310
Musa 11309
Wehrmacht 11303
mund 11297
ose@@ 11297
Kib@@ 11296
tribunal 11291
ñez 11288
grac@@ 11284
eber 11278
iwa 11274
akan 11269
212 11267
EG 11259
andt 11258
Fiat 11247
rano 11246
Monuments 11244
esen 11243
ṣ@@ 11241
161 11239
1400 11230
Alfredo 11229
orer 11227
Rup@@ 11225
doch 11220
Trag@@ 11217
bera 11217
Dom 11214
alar 11206
saga 11201
pilot@@ 11200
otis 11198
206 11187
ós 11187
omba 11180
1769 11179
argent 11176
wad@@ 11170
cola 11168
Rand 11166
onis 11156
abb@@ 11155
nad 11152
ambia 11151
demos 11145
ablan@@ 11144
Mecklenburg 11143
235 11142
bill@@ 11140
ác@@ 11140
mont@@ 11127
km@@ 11123
Cuc@@ 11121
scar 11121
preten@@ 11116
Calli@@ 11113
Cover 11109
iku@@ 11106
Symb@@ 11105
Trich@@ 11104
program@@ 11104
trin@@ 11104
lein 11101
cé 11100
Person 11099
Rap 11091
iPhone 11090
igne 11090
send@@ 11088
icos 11085
bana 11084
onship 11084
222 11080
Lot 11079
1758 11073
bara 11073
Klu@@ 11069
Vladi@@ 11067
publics 11043
postul@@ 11039
Ai 11030
Kud@@ 11029
Chall@@ 11028
Lausanne 11024
Theodor 11023
Sot@@ 11019
Tari@@ 11017
assen 11016
ḥ@@ 11016
estro 11013
Sark@@ 11010
sci@@ 11004
163 10996
Schl@@ 10994
Eduard 10993
Yuc@@ 10991
Faso 10987
Dar 10985
Kiel 10985
Wur@@ 10985
Lop@@ 10984
sula 10984
igi@@ 10980
Emin@@ 10978
Polit@@ 10974
adam@@ 10973
leist@@ 10970
atos 10961
Arth@@ 10958
ebel 10957
Académie 10954
Brasil 10949
teur 10948
Peti@@ 10946
Singapo@@ 10939
Burkina 10936
Marguerite 10931
ilde 10930
sohn 10924
Blanche 10920
prair@@ 10908
Dop@@ 10907
Côte 10906
drome 10905
arrondissement 10901
café 10900
ebra 10899
enzo 10898
Anh@@ 10896
hala 10896
sey@@ 10895
Guthrie 10892
Gör@@ 10887
illac 10886
UB 10879
ffen 10875
Interpre@@ 10871
lage 10868
dich@@ 10859
Metall@@ 10853
azo 10850
208 10843
Nokia 10840
Stro@@ 10836
verb@@ 10833
anthus 10831
pers@@ 10827
tah@@ 10826
370 10825
chn@@ 10822
Direction 10820
2,7@@ 10811
Yusuf 10810
Félix 10805
indi 10802
Kirch@@ 10796
Tito 10795
″ 10787
1765 10777
say@@ 10776
Emilio 10773
iste 10769
211 10767
umbo 10762
ôme 10755
Dollar 10746
157 10745
Ptol@@ 10735
Audi 10734
Fic@@ 10730
Inform@@ 10724
vá@@ 10724
ubil@@ 10723
antique 10718
usia 10717
Anime 10715
Stephan 10714
Federico 10713
schule 10711
375 10709
Cardi@@ 10708
Ciudad 10703
Skul@@ 10702
Zab@@ 10692
Beno@@ 10681
lil@@ 10672
Git@@ 10665
2,4@@ 10659
ios@@ 10656
2,8@@ 10655
isse 10654
mu 10651
Guadalajara 10646
iki@@ 10643
Crist@@ 10639
phila 10639
Loan 10638
Guillaume 10635
zel 10635
phi 10631
164 10620
ilio 10620
1762 10619
365 10619
annes 10618
Siemens 10616
iP@@ 10616
kim@@ 10615
172 10602
Brut@@ 10600
Anatolia 10598
Bonaparte 10594
bey@@ 10592
Crambidae 10591
eget@@ 10589
Augus@@ 10588
Univers@@ 10588
elos 10586
obile 10586
gir 10582
171 10580
Buffy 10574
Ulrich 10574
nies 10574
ularly 10570
ė@@ 10567
Eus@@ 10557
ṭ@@ 10555
auri 10553
tet 10550
420 10548
192 10547
Zeus 10547
2,6@@ 10543
UA 10534
Wies@@ 10534
ara@@ 10524
Parall@@ 10522
fond 10521
bez@@ 10519
Kazak@@ 10516
ophi@@ 10511
183 10504
boa 10501
fern 10493
Christi 10489
eus@@ 10488
know@@ 10485
kap@@ 10484
Frances@@ 10482
owe 10480
י@@ 10480
203 10478
sim 10478
abria 10470
itte 10466
UE@@ 10464
Myth@@ 10454
eim@@ 10454
Toul@@ 10451
ignant 10450
Jakob 10449
Nach@@ 10449
188 10448
CON@@ 10446
Phy@@ 10443
bir 10441
inci 10437
kas@@ 10437
bres 10433
159 10426
zam@@ 10425
chwitz 10422
mich@@ 10419
utilis@@ 10413
chev@@ 10400
1100 10394
Kind@@ 10394
wala 10391
34,@@ 10389
eaux 10389
Danz@@ 10388
Montréal 10381
169 10376
Ayr@@ 10376
Wald@@ 10376
fak@@ 10376
ischer 10371
177 10370
col 10370
303 10368
mot 10367
inde 10358
176 10356
Schi@@ 10353
aliers 10349
32@@ 10343
Pont@@ 10342
`@@ 10342
Bernhard 10340
1771 10339
dil 10336
Camille 10334
ld 10334
cord@@ 10333
29,@@ 10331
Gust@@ 10328
imba 10328
Bismarck 10315
ecia 10309
Estadio 10305
Vos@@ 10305
Halle 10304
entino 10298
310 10296
Caracas 10294
37,@@ 10293
Eich@@ 10293
aron 10293
toc@@ 10291
1761 10288
Castel@@ 10287
ayi 10287
apes 10285
Rez@@ 10278
Gott@@ 10275
ikan@@ 10274
portun@@ 10272
Alba 10271
cu 10266
gely 10266
yph@@ 10266
Nih@@ 10253
egen 10250
Fey@@ 10249
Lille 10249
3,0@@ 10239
1755 10238
Chik@@ 10237
ylus 10236
zel@@ 10235
enci@@ 10232
Bernardo 10231
hof 10231
Philipp 10226
Freiburg 10224
kari 10222
MiG 10219
Papa 10217
Mia 10216
Hex@@ 10215
obr@@ 10212
zw@@ 10209
Caes@@ 10208
Aleksandr 10204
Lombar@@ 10197
scher 10186
Calais 10182
yam@@ 10182
arya 10173
1640 10171
Ork@@ 10170
noir 10169
290 10162
alu@@ 10162
uela 10162
influenc@@ 10161
franc@@ 10154
Ángel 10154
fen 10149
Glas@@ 10148
Matthias 10148
estruc@@ 10144
1764 10142
Sog@@ 10142
érie 10140
cil 10137
omen 10137
hes 10134
Ged@@ 10128
STS 10125
oton@@ 10124
arl@@ 10122
Hoch@@ 10111
ophyl@@ 10111
verw@@ 10109
brun@@ 10102
pia 10102
abel 10096
BAFTA 10094
nas 10088
Amad@@ 10086
1740 10085
Museo 10085
Vad@@ 10084
gec@@ 10081
Kinder@@ 10078
Ecu@@ 10075
1759 10074
Lour@@ 10073
pand@@ 10071
mens@@ 10070
Madeleine 10069
melod@@ 10067
Ta 10065
cic@@ 10064
Manga 10058
1745 10056
yaz@@ 10052
nun 10051
who@@ 10048
Musée 10046
Blanco 10044
ţ@@ 10042
recht 10041
cup@@ 10040
Braun 10038
burger 10038
Julien 10032
ilan 10030
Phoen@@ 10027
Montevideo 10020
Ville 10019
itr@@ 10019
architec@@ 10014
Antigu@@ 10011
1766 10008
det 10005
sheim 10004
eko 10002
Ramón 10000
inz@@ 9998
repar@@ 9998
anor@@ 9995
Apos@@ 9992
Wab@@ 9991
Situ@@ 9988
96@@ 9979
baz@@ 9978
clave 9977
adis 9976
kim 9974
isses 9971
[...]
