de 1
, 1
. 1
la 1
et 1
le 1
à 1
en 1
&quot; 0.9497921451729736
l&apos; 1
des 1
est 1
@-@ 1
du 1
les 1
d&apos; 1
un 1
( 1
) 1
une 1
dans 1
par 1
au 1
’ 1
il 1
pour 1
que 1
a 0.5158547157880722
é 1
qui 1
Le 1
sur 1
se 1
son 1
Il 1
ée 1
avec 1
La 1
: 1
aux 1
plus 1
er 1
l 1
ant 1
ent 1
sont 1
En 1
és 1
ou 1
elle 1
Les 1
sa 1
dé@@ 1
été 1
é@@ 1
« 1
» 1
d 1
ées 1
es 0.9788765951064531
ce 1
s&apos; 1
qu&apos; 1
ne 1
ré@@ 1
ses 1
ation 1
ie 1
comme 1
deux 1
on 0.48368402173144326
L&apos; 1
ont 1
s 1
y 0.3985003044680207
pas 1
ement 1
fait 1
re@@ 1
; 0.7260256450042548
entre 1
mais 1
in@@ 1
aire 1
ait 1
Elle 1
te 1
ale 1
cette 1
sous 1
age 1
même 1
ité 1
être 1
c@@ 1
était 1
lui 1
leur 1
n&apos; 1
ch@@ 1
p@@ 1
dont 1
ques 1
après 1
% 1
où 1
&apos; 0.7641522143812861
S@@ 0.9977125902483867
v@@ 1
ans 1
également 1
commune 1
France 1
ations 1
in 0.07222080778794969
e 1
ville 1
ère 1
ine 1
is 0.2340519064782575
alors 1
aussi 1
autres 1
P@@ 1
el 0.25503644628290695
nom 1
ainsi 1
Saint 1
s@@ 0.8630381704752935
par@@ 1
C@@ 1
L@@ 1
partie 1
an 0.275509269024233
ons 1
tes 1
u 1
né 1
premier 1
M@@ 1
fut 1
us 1
n@@ 1
première 1
ou@@ 1
ces 1
r@@ 1
aires 1
ens 1
D@@ 0.9860793901185366
T@@ 0.9405681955870644
lors 1
À 1
ar@@ 1
G@@ 1
puis 1
en@@ 0.8436995010469724
at 0.3136048109354471
re 1
i 1
années 1
contre 1
t@@ 0.8986432494828107
peut 1
it 0.5444544749710223
B@@ 0.880818987109864
is@@ 1
pré@@ 1
con@@ 1
ér@@ 1
trois 1
A@@ 1
elles 1
ils 1
F@@ 0.933909372123748
g@@ 1
depuis 1
al 0.48029578846067145
d@@ 1
N@@ 1
V@@ 1
b@@ 1
R@@ 0.9120795112409648
ants 1
l@@ 1
avant 1
vers 1
ag@@ 1
po@@ 1
groupe 1
2 0.7563802632088479
plusieurs 1
an@@ 0.9908920527211583
ite 1
ers 0.8649242399737257
di@@ 1
Cette 1
t 0.7033077315653848
eur 1
im@@ 1
or@@ 1
f@@ 0.9462959570242174
très 1
qu@@ 1
Dans 1
enne 1
fois 1
ise 1
É@@ 1
on@@ 1
ue 1
ères 1
tr@@ 1
li@@ 1
ante 1
jusqu&apos; 1
ac@@ 1
iste 1
1 0.6017761330053061
c 1
ad@@ 1
ts 1
al@@ 0.8679471355137985
m@@ 1
année 1
/ 0.6004593655015645
fin 1
o@@ 1
ab@@ 1
sans 1
avoir 1
O@@ 1
eux 1
eau 1
Paris 1
- 0.690028665672323
ique 1
pl@@ 1
H@@ 0.7339671361526982
mort 1
Jean 1
avait 1
tout 1
ales 1
j@@ 1
place 1
français 1
o 0.5606025594979874
aient 1
De 1
ins 1
co@@ 1
ance 1
temps 1
notamment 1
famille 1
suite 1
Ce 1
ent@@ 1
Au 1
cours 1
monde 1
ul@@ 1
it@@ 1
y@@ 1
a@@ 1
saison 1
sou@@ 1
ur@@ 1
Ch@@ 1
équipe 1
che 1
ure 1
Après 1
i@@ 1
ages 1
at@@ 1
am@@ 1
3 0.7013366240518282
able 1
sud 1
leurs 1
ence 1
me 1
inter@@ 1
lieu 1
tant 1
us@@ 1
pays 1
nord 1
ét@@ 1
om@@ 1
ap@@ 1
pendant 1
ex@@ 1
E@@ 0.7868978890947662
forme 1
ir 1
per@@ 1
br@@ 1
ill@@ 1
ti@@ 1
Biographie 1
autre 1
mar@@ 1
faire 1
partir 1
États 1
grand 1
Une 1
région 1
titre 1
non 1
isme 1
déc@@ 1
bien 1
devient 1
ci 1
bi@@ 1
peu 1
mo@@ 1
ette 1
ateur 1
K@@ 0.6080078053258485
pr@@ 1
&amp; 0.7551259485485997
ter 0.9245267181871127
Un 1
tion 1
eurs 1
film 1
ég@@ 1
ille 1
els 1
h@@ 0.7885044247215479
ph@@ 1
n 0.8650563551862402
vie 1
moins 1
com@@ 1
guerre 1
quatre 1
soit 1
J@@ 0.8805828096216675
té 1
ents 1
si@@ 1
C&apos; 1
encore 1
4 0.7020099234064189
av@@ 1
e@@ 0.5639986238254379
ire 1
el@@ 0.7063881450538416
ir@@ 1
teur 1
gr@@ 1
nouveau 1
ï@@ 1
as@@ 0.8357849552628368
ro@@ 1
Son 1
én@@ 1
général 1
ligne 1
tous 1
I@@ 1
éri@@ 1
politique 1
es@@ 0.831002735767637
au@@ 1
ais 1
its 0.46615191848866966
série 1
mé@@ 1
Con@@ 1
u@@ 1
onn@@ 1
L 1
mon@@ 1
or 0.29506742499108257
si 1
men@@ 1
ements 1
dis@@ 0.9653264911001939
tions 1
début 1
z@@ 0.6999666374471866
Ar@@ 1
è@@ 1
située 1
em@@ 1
celle 1
th@@ 0.8593402807016872
Unis 1
ines 1
ente 1
vi@@ 1
État 1
lo@@ 1
ot@@ 1
nombre 1
W@@ 0.5233342067793603
tard 1
celui 1
fils 1
ass@@ 1
Mar@@ 1
française 1
mes 1
sur@@ 1
grande 1
er@@ 0.45963423670711867
ci@@ 1
Z@@ 0.8055331086827086
qu 1
ol@@ 0.9758948770066711
ach@@ 1
club 1
donc 1
selon 1
village 1
ver@@ 0.5314923392089717
ités 1
aine 1
as 0.09503668838481939
Pour 1
6 0.737601741500884
ouest 1
On 0.8475348434477028
album 1
histoire 1
ni@@ 1
trouve 1
nouvelle 1
dit 1
os 0.5151830506782341
ain 1
ig@@ 1
ic@@ 1
Histoire 1
ensuite 1
quelques 1
département 1
centre 1
il@@ 1
f 1
compte 1
père 1
and 0.02860609507327597
rem@@ 1
tique 1
ard 1
car@@ 1
c&apos; 1
président 1
ge 1
époque 1
ologie 1
deuxième 1
cu@@ 1
étaient 1
oc@@ 1
part 1
ren@@ 1
ayant 1
év@@ 1
so@@ 1
ateurs 1
istes 1
5 0.6306410976572919
porte 1
dernier 1
appar@@ 1
population 1
trans@@ 1
situé 1
Al@@ 0.8914273198291458
gu@@ 1
Ré@@ 1
min@@ 1
étant 1
période 1
acc@@ 1
2010 0.8688810091263134
ign@@ 1
ile 1
ème 1
op@@ 1
face 1
cr@@ 1
cour@@ 1
èrent 1
environ 1
sion 1
pi@@ 1
sé@@ 1
roi 1
ès 1
id@@ 1
près 1
église 1
teurs 1
nombreux 1
ellement 1
ains 1
ve 0.5063792953981425
nommé 1
col@@ 1
mois 1
tour 1
ar 0.3335256784198049
origine 1
esse 1
Ils 1
gouvernement 1
Ces 1
to@@ 1
ues 1
spéci@@ 1
Europe 1
jour 1
ences 1
Pierre 1
ies 1
chez 1
él@@ 1
of 0.021415961292959626
alité 1
rel@@ 1
nationale 1
k@@ 0.4750923992954156
Y@@ 1
espèce 1
ats 1
ables 1
service 1
ec@@ 1
comp@@ 1
prend 1
ensemble 1
car 1
ouv@@ 1
for@@ 1
x 1
ton 1
cinq 1
tre 1
cl@@ 1
homme 1
fin@@ 1
The 0.06672044669349607
chef 1
se@@ 0.8593974351477153
permet 1
communes 1
ser@@ 1
â@@ 1
ailleurs 1
afin 1
ancien 1
Louis 1
2018 1
site 1
ances 1
urs 1
7 0.6568214728541927
onne 1
mer 1
hui 1
souvent 1
ites 1
Dé@@ 1
reste 1
carrière 1
ma@@ 1
née 1
durant 1
cas 1
mis 1
contr@@ 1
action 1
os@@ 1
jeu 1
effet 1
Car@@ 1
armée 1
res 1
études 1
sol@@ 1
cor@@ 1
Nord 1
membre 1
k 0.4980786067970986
Tr@@ 0.9656551972931857
niveau 1
tres 1
nes 1
pour@@ 1
doit 1
société 1
An@@ 0.6227524326838827
U@@ 0.8162838976567921
le@@ 0.7236074432035526
ém@@ 1
rue 1
et@@ 0.7706177901017057
ène 1
no@@ 1
fi@@ 1
ches 1
ob@@ 1
ia 0.6945848234911935
rôle 1
fer@@ 1
8 0.6363774219117557
national 1
membres 1
ai 1
gé@@ 1
A 0.34699320455661115
ade 1
ri@@ 1
10 0.5377553836183963
tu@@ 1
jours 1
man@@ 1
cou@@ 1
ant@@ 1
peuvent 1
sera 1
Qu@@ 1
américain 1
habitants 1
m 0.5185431537428383
rap@@ 1
projet 1
mise 1
chaque 1
ennes 1
der 0.0453437035038103
end@@ 1
use 1
um 0.4184530123729776
Cor@@ 1
ur 1
œuvre 1
cré@@ 1
Sa 1
all@@ 1
Selon 1
mondiale 1
point 1
présente 1
territoire 1
ane 1
ter@@ 0.8389208799480606
era 0.7467428185719293
troisième 1
aines 1
isation 1
un@@ 0.3367163910048209
2011 0.741378783662774
cher 1
ore 1
système 1
ba@@ 1
alement 1
premiers 1
the 0.009850980908930976
Par 1
dès 1
ets 1
finale 1
antes 1
eu 1
exemple 1
sein 1
toujours 1
bo@@ 1
travail 1
Sud 1
Mais 1
base 1
2000 1
att@@ 1
rec@@ 1
ra 1
r 1
poste 1
droit 1
de@@ 0.5689930099684891
2014 0.7869837445418548
st@@ 0.41081256113398107
eaux 1
_ 0.8486398354459364
match 1
quement 1
ess@@ 1
toute 1
pro@@ 1
Charles 1
ate 0.33851479927136874
personnes 1
In@@ 0.7291742456605291
ê@@ 1
pos@@ 1
enfants 1
Guerre 1
production 1
bat@@ 1
C 0.9899605556833836
ve@@ 1
ux 1
connu 1
but 0.3301482074896763
met 1
cet 1
atique 1
thé@@ 1
Mon@@ 1
nombreuses 1
vo@@ 1
mor@@ 1
x@@ 1
gi@@ 1
2015 0.7686663082847034
toutes 1
2009 0.7691701924776922
enti@@ 1
Lors 1
élec@@ 1
long 1
raison 1
certains 1
Des 1
cro@@ 1
one 0.2460678458867203
entes 1
gar@@ 1
château 1
ven@@ 1
inc@@ 1
│ 1
z 0.7789911720742794
ordre 1
six 1
succès 1
New 0.4571197651918127
prix 1
ier 1
Di@@ 1
2008 0.7445989143889209
jou@@ 1
ing 0.10703813028802477
tête 1
art 1
va 1
enc@@ 1
rapport 1
ice 1
université 1
maison 1
du@@ 1
école 1
ang@@ 1
construction 1
ov@@ 1
représent@@ 1
ures 1
siège 1
championnat 1
por@@ 1
aise 1
ili@@ 1
2012 0.7024103003662877
fille 1
vol@@ 1
musique 1
type 1
agit 1
jeune 1
ô@@ 1
af@@ 1
Grand 1
h 0.6126886081297795
grâce 1
province 1
écrit 1
points 1
voir 1
2013 0.7161614577912659
lu@@ 1
île 1
9 0.5850868001978521
bou@@ 1
sa@@ 1
na 0.9923435766072414
ner 1
ment 1
Par@@ 1
mi@@ 1
hommes 1
laquelle 1
développement 1
loi 1
remporte 1
Marie 1
su@@ 0.8987609322684553
II 0.9308938856185541
2020 0.8551778231237572
conserv@@ 1
état 1
ministre 1
Gu@@ 1
passe 1
la@@ 1
principale 1
ép@@ 1
Th@@ 0.8589689688019772
femme 1
formation 1
– 0.1416619761112265
présent@@ 1
éc@@ 1
bar@@ 1
élections 1
participe 1
qué 1
éch@@ 1
Gr@@ 1
pouvoir 1
be 0.1859718051774644
âge 1
isi@@ 1
ète 1
fr@@ 1
joue 1
compl@@ 1
aujourd&apos; 1
corps 1
da 0.46525559608677736
entr@@ 1
ges 1
rencontre 1
version 1
public 1
Depuis 1
moyenne 1
pe 1
ta@@ 1
ot 1
création 1
enn@@ 1
tionn@@ 1
position 1
res@@ 0.894695435256801
Paul 1
tur@@ 1
ises 1
2016 0.6747511524083365
préc@@ 1
Am@@ 1
Br@@ 0.9245485680290564
2007 0.7046890229566352
Allemagne 1
2017 0.7191006904067426
man 0.43736811521415386
ides 1
route 1
demi 1
commence 1
Bar@@ 0.9747800627391033
euse 1
formula 0.8573697115110187
Col@@ 1
joueur 1
côté 1
ten@@ 0.8501891608566651
2006 0.713967578271334
Com@@ 1
Coupe 1
dernière 1
mis@@ 1
François 1
20 0.5279012417830417
né@@ 1
femmes 1
suivante 1
iques 1
ais@@ 1
football 1
seul 1
ancienne 1
grands 1
zone 1
lé@@ 1
ceux 1
sor@@ 1
plan 1
furent 1
1990 1
devant 1
En@@ 1
form@@ 1
erie 1
lég@@ 1
petit 1
déjà 1
15 0.5627491980507414
ori@@ 1
endre 1
produit 1
ay 1
ann@@ 1
travaux 1
retour 1
bre 1
ain@@ 1
ati@@ 1
oir 1
til@@ 1
obtient 1
vient 1
indi@@ 1
son@@ 1
ne@@ 0.8851829926501948
militaire 1
prendre 1
direction 1
og@@ 1
République 1
différentes 1
sub@@ 0.8928254692379795
éd@@ 1
Italie 1
hi@@ 1
terme 1
bl@@ 0.9736321920418284
fort 1
I 0.40945266216263515
date 1
di 1
Ro@@ 1
tor@@ 1
John 0.6812653826626723
ture 1
chanson 1
ac 1
anglais 1
mère 1
pass@@ 1
um@@ 0.6096778471319874
can@@ 1
parmi 1
Avec 1
vis@@ 1
D&apos; 1
rest@@ 1
ologique 1
édition 1
genre 1
ta 0.6984598065196022
réseau 1
ni 1
ru@@ 1
sept 1
milieu 1
gt 0.8636446818125791
tandis 1
cal@@ 1
parti 1
p 0.6225166533576136
abord 1
espèces 1
15@@ 1
voie 1
ole 1
quant 1
12 0.46794738304778805
dix 1
division 1
and@@ 0.9619920696771932
oire 1
do@@ 1
2005 0.7602856797745019
élu 1
frère 1
parfois 1
Mor@@ 1
5@@ 0.7049967017390546
seur 1
ond@@ 1
tri@@ 1
2019 0.6524625949880544
communauté 1
liste 1
ge@@ 0.5344322217298093
Cependant 1
sols 1
ois 1
donne 1
atif 1
B 0.7242907395921699
cer@@ 1
seulement 1
tourn@@ 1
déf@@ 1
utilisé 1
Sur 1
particulier 1
ler 0.6436181748574092
eil 1
mal@@ 1
Po@@ 1
ion 1
Description 1
rég@@ 1
cadre 1
ini 1
atiques 1
Ber@@ 1
proche 1
mag@@ 1
are 0.1387657034988595
beaucoup 1
sup@@ 1
britannique 1
Ma@@ 1
Mo@@ 1
am 0.2077704854131114
huit 1
directeur 1
ban@@ 1
14@@ 0.984466064253115
commun@@ 1
iss@@ 1
zones 1
marque 1
York 0.6931406941302777
Re@@ 0.48846902654868524
américaine 1
tis@@ 1
Pr@@ 0.9872957609437804
coll@@ 1
aurait 1
Ses 1
différents 1
ément 1
Union 1
Jacques 1
Ver@@ 0.42565929507528166
rou@@ 1
rée 1
recherche 1
Or@@ 1
ête 1
second 0.5890056599299136
créé 1
international 1
identi@@ 1
Mont@@ 1
scène 1
réalisé 1
font 1
sorti 1
livre 1
ace 1
aff@@ 1
Per@@ 1
Mal@@ 1
bois 1
Lo@@ 1
bataille 1
fonction 1
épouse 1
fa@@ 1
bas@@ 1
fon@@ 1
gare 1
anti@@ 1
ves 1
occupation 1
conn@@ 1
sens 1
fac@@ 1
ç@@ 1
aide 1
principalement 1
auteur 1
autour 1
2004 0.7432370049471206
ires 1
victoire 1
ra@@ 1
Bo@@ 1
dép@@ 1
existe 1
... 1
cependant 1
objet 1
end 0.4498820118149103
ina 0.6553367151179065
aur@@ 1
xe 1
surtout 1
premières 1
Mé@@ 1
Canada 1
rivière 1
sions 1
fréqu@@ 1
petite 1
équipes 1
enregistr@@ 1
publié 1
tour@@ 1
13@@ 1
plupart 1
pay@@ 1
mouvement 1
millions 1
mission 1
vue 1
lt 0.7791773120069736
St@@ 0.49315880901099085
seconde 1
Jeux 1
œuvres 1
est@@ 0.731092444760913
Sh@@ 0.6568196742987816
1999 0.965488220943184
ché 1
Se@@ 0.8292809531693932
tels 1
rejoint 1
style 1
administr@@ 1
Le@@ 0.6417376234017121
ut 1
Université 1
Conseil 1
allemand 1
ran@@ 1
ju@@ 1
mé 1
ules 1
cause 1
lig@@ 1
fer 1
tom@@ 1
activité 1
ient 1
î@@ 1
ma 0.8884071831394705
te@@ 0.6329044325243361
conf@@ 1
Espagne 1
mettre 1
dr@@ 0.7727164563298803
quartier 1
Co@@ 0.7727972021927952
30 0.5157410588755923
mesure 1
rom@@ 1
domaine 1
entreprise 1
langue 1
comté 1
4@@ 0.6155092990142282
Au@@ 1
demande 1
ch 0.5012991386268796
lequel 1
termin@@ 1
bourg 1
là 0.2884924688390022
venir 1
reçoit 1
juin 1
isé 1
char@@ 1
avaient 1
haut 1
intégr@@ 1
suivant 1
cur@@ 1
Be@@ 0.5844912269756212
dou@@ 1
hum@@ 1
pression 1
Afrique 1
val@@ 1
serv@@ 1
od@@ 0.8270162849220398
Char@@ 1
port 1
som@@ 1
16 0.5304676216434956
tive 1
ades 1
dire 1
amp 0.50016261125756
construit 1
trouv@@ 1
irs 1
tient 1
Ser@@ 1
ême 1
dispar@@ 1
Val@@ 1
occup@@ 1
int@@ 1
Parti 1
Angleterre 1
autor@@ 1
emb@@ 1
die 0.04319596803221865
11 0.4717195364440677
ana 0.529179415866371
données 1
appelé 1
seule 1
g 0.515669996930873
classe 1
gén@@ 1
inst@@ 1
roman 1
manière 1
14 0.5404274044674237
parti@@ 1
istique 1
aï@@ 1
finalement 1
réc@@ 1
ano 0.7205855688805777
w@@ 0.27163918800763
not@@ 1
0 0.6758975220588905
our 1
montr@@ 1
S 0.8480534253201333
ev@@ 0.9036915252849108
issant 1
pris 1
ari@@ 1
pu@@ 1
ber@@ 0.605925297007899
station 0.8068434055808529
aut 1
réalis@@ 1
dic@@ 1
ay@@ 0.8822724065176073
18 0.46857635617483856
tures 1
gauche 1
jamais 1
conseil 1
R 0.9478104640489377
onyme 1
pens@@ 1
ti 1
onné 1
D 0.8699511579077286
propre 1
2002 0.7717669055062927
mai 1
inf@@ 1
européenne 1
historique 1
étude 1
lorsque 1
6@@ 0.6551548085471971
important 1
nouvelles 1
mars 1
possède 1
tier 1
vers@@ 1
sépar@@ 1
anc@@ 1
1998 0.9710663016873163
septembre 1
moment 1
article 1
ley 0.6810012552590179
Bel@@ 1
organis@@ 1
élev@@ 1
ut@@ 0.7732810383704832
éli@@ 1
ka 1
donné 1
mat@@ 1
présence 1
cul@@ 1
génér@@ 1
quer 1
tir@@ 1
For@@ 1
terre 1
certaines 1
tin 1
organisation 1
uc@@ 1
tel 1
matchs 1
porter 1
2003 0.763700909715976
éré 1
Robert 1
9@@ 0.6968815865751883
principal 1
Ligue 1
occasion 1
1980 1
lan@@ 1
Tour 1
ettes 1
prim@@ 1
cela 1
groupes 1
Henri 1
13 0.5353781683213369
des@@ 0.4980884898265786
observ@@ 1
parc 1
référence 1
E 0.9900900773716117
prom@@ 1
quand 1
ège 1
2001 0.7373668110890593
&#91; 0.4384649768273763
entrée 1
axe 1
sal@@ 1
constitu@@ 1
8@@ 0.681837245086001
œ@@ 1
annonce 1
rant 1
voit 1
&#93; 0.4342789453592041
jeunes 1
juillet 1
uses 1
habit@@ 1
Historique 1
généralement 1
part@@ 1
! 0.7426898493738145
octobre 1
termine 1
° 1
Ab@@ 0.4865262604144158
Sal@@ 1
canton 1
celles 1
7@@ 0.6598491600293693
az@@ 0.9117309430179562
17 0.5443036198507787
fl@@ 1
per 0.7348728306884353
19 0.5331279723768151
Carrière 1
èse 1
publique 1
ing@@ 0.6875548443178181
travers 1
théâtre 1
off@@ 1
permettant 1
classement 1
pas@@ 1
Géographie 1
défin@@ 1
extr@@ 1
atta@@ 1
grandes 1
eff@@ 1
issent 1
vari@@ 1
= 0.6730700510125701
Joseph 1
aband@@ 1
ord@@ 1
rép@@ 1
court 1
sort 1
M 0.9918694566103702
professeur 1
capitale 1
course 1
prés@@ 1
Michel 1
Ainsi 1
lar@@ 1
Londres 1
taux 1
25 0.5142363019848707
Est 1
tenu 1
ty@@ 1
Québec 1
plan@@ 1
don@@ 1
1970 1
Japon 1
arr@@ 1
ève 1
culture 1
villes 1
effectu@@ 1
politiques 1
Nouvelle 1
compétition 1
bâtiment 1
ative 0.7827908097935404
ak@@ 0.5130071212007131
ol 0.9094293812039657
sc@@ 1
cer 1
compagnie 1
administration 1
rapidement 1
hé@@ 1
12@@ 1
2021 0.6643694629267541
composé 1
janvier 1
meurt 1
district 1
tif 1
résultats 1
portant 1
to 0.015362209407132862
F 0.9627616533661078
ame 1
mètres 1
décide 1
rac@@ 1
éro@@ 1
internationale 1
Bou@@ 1
compos@@ 1
b 0.4539584018287263
retrouve 1
ell@@ 0.7320038367875534
musée 1
meilleur 1
formes 1
importante 1
étudi@@ 1
Ex@@ 0.7029838756670832
semble 1
propos@@ 1
troupes 1
fond@@ 1
avril 1
services 1
uni@@ 1
activités 1
Me@@ 0.8319505690049073
esc@@ 1
1950 1
Liste 1
lier 1
acteur 1
ins@@ 1
adop@@ 1
Ang@@ 1
auprès 1
serait 1
San 0.6079899713616277
isant 1
do 0.4354398934656914
ff@@ 1
fier 1
eng@@ 0.9216270889326271
sen@@ 1
campagne 1
Empire 1
décembre 1
tir 1
films 1
alli@@ 1
climat 1
Pays 1
août 1
dev@@ 1
comprend 1
édi@@ 1
3@@ 0.6146597086822514
lande 1
fs 1
Grande 1
ceinture 1
lanc@@ 1
sortie 1
limit@@ 1
équip@@ 1
carte 1
tre@@ 1
remplac@@ 1
iser 1
rés 1
Si 1
Fin@@ 1
créée 1
marqu@@ 1
dem@@ 1
tés 1
sec@@ 1
programme 1
èmes 1
X@@ 0.8491391120779231
nom@@ 1
ino 0.7674208856056391
app@@ 1
ler@@ 1
sh@@ 0.3426665331570266
prépar@@ 1
Pendant 1
alisation 1
Église 1
novembre 1
comte 1
tra@@ 1
abilité 1
actuelle 1
24 0.5399778878408645
viol@@ 1
unique 1
cap@@ 1
oug@@ 1
aud 1
droite 1
bres 1
Li@@ 1
viennent 1
populaire 1
V 0.9350486412033912
be@@ 0.25419664016373444
ouvre 1
onc@@ 1
supérieur 1
télé@@ 1
lie 1
bal@@ 1
imp@@ 1
Rome 1
situ@@ 1
atteint 1
Man@@ 0.8130632372463923
isse 1
connue 1
générale 1
T 0.813369353889175
ographie 1
faisant 1
argent 1
texte 1
Cr@@ 1
droits 1
lac 1
install@@ 1
ad 0.5543959923534866
économique 1
terrain 1
voy@@ 1
voix 1
direc@@ 1
forces 1
dur@@ 1
Pologne 1
Seconde 1
total 0.7880014337942111
départ 1
ah@@ 0.8323547425546364
équ@@ 1
Comme 1
gen@@ 0.5317863427874395
El@@ 0.662855905220187
conten@@ 1
Chine 1
class@@ 1
G 0.8767948030112693
terres 1
possible 1
Sainte 1
bes 1
he 0.07682055581032328
destin@@ 1
cinéma 1
nor@@ 1
particulièrement 1
association 1
amp@@ 1
rédu@@ 1
signe 1
Sch@@ 0.28151701178381605
ition 1
contrôle 1
modèle 1
page 1
découvert 1
cle 1
russe 1
iles 1
1960 1
honneur 1
mont 1
mer@@ 0.6142284965728674
donn@@ 1
prise 1
élection 1
bless@@ 1
inv@@ 1
atoire 1
reven@@ 1
nous 1
parties 1
aus@@ 0.36819784994599275
ôt 1
produits 1
aqu@@ 1
compr@@ 1
eb@@ 0.5621844905606391
intérieur 1
ov 1
Ac@@ 1
hér@@ 1
cas@@ 0.9319858279237989
èle 1
espace 1
Gal@@ 1
bonne 1
amb@@ 1
différ@@ 1
mari@@ 1
P 0.8922668206135259
Q@@ 0.9572019717609895
champion 1
ien 1
Ouest 1
nouveaux 1
Belgique 1
vé@@ 1
ed@@ 0.39486252986915615
bre@@ 0.8627938189451444
traditionn@@ 1
désormais 1
eté 1
façon 1
10@@ 0.8718300841084028
chang@@ 1
large 0.7870161199880074
our@@ 1
uel 1
eg@@ 0.4873007692770775
pén@@ 1
caractér@@ 1
positions 1
? 1
lat@@ 1
opération 1
etc. 1
tiques 1
maire 1
municipalité 1
pan@@ 1
Prix 1
iter 1
isée 1
technique 1
jug@@ 1
… 1
idée 1
pose 1
territoires 1
reconn@@ 1
critique 1
oppos@@ 1
Cet 1
Russie 1
— 0.07645472232826415
arrivée 1
v 0.8198408687965655
Ne@@ 0.646784765321047
loc@@ 1
mét@@ 1
sionn@@ 1
1991 0.8730840064319058
Philippe 1
Deux 1
Cal@@ 1
ident 1
domin@@ 1
éléments 1
yr@@ 1
sign@@ 1
personnage 1
Royaume 1
cher@@ 1
pe@@ 0.6650257700121628
Plusieurs 1
ager 1
ail@@ 1
utilis@@ 1
aller 1
combat 1
Pi@@ 1
N 0.9961942561947299
iv@@ 1
joueurs 1
sert 1
Ri@@ 1
cat@@ 1
aucun 1
sol 1
Cl@@ 1
main@@ 1
ez 1
Sé@@ 1
ates 0.44718349684040914
titres 1
ange 1
attribu@@ 1
exist@@ 1
alités 1
centrale 1
prof@@ 1
février 1
Lé@@ 1
û@@ 1
fié 1
acqu@@ 1
Cas@@ 1
Amérique 1
contrat 1
altitude 1
out 0.2694173466029258
David 1
ect@@ 1
importance 1
Fl@@ 0.9317827814112672
personn@@ 1
cs 1
consac@@ 1
vingt 1
bon 1
accès 1
fication 1
rit@@ 1
dessus 1
olympiques 1
montre 1
assez 1
Centre 1
décor@@ 1
chemin 1
source 1
met@@ 1
pal@@ 1
Min@@ 1
As@@ 0.9114397724879487
gues 1
airement 1
actions 1
ath@@ 0.9257113766229285
1997 0.7784599328369696
march@@ 1
U 0.768654112948802
buts 1
allemande 1
devenu 1
publie 1
ey 0.8366174638570308
100 0.5297223918030556
21 0.4816209940229952
double 1
FC 1
force 1
historiques 1
III 1
duc 1
illes 1
attaque 1
tiers 1
continu@@ 1
température 1
astéroïdes 1
1995 0.8070121111784535
tien 1
Pl@@ 1
Bi@@ 0.970796260437819
outre 1
Durant 1
Her@@ 0.8114673688777576
ède 1
ï 1
évolution 1
nommée 1
École 1
émission 1
1996 0.7635708651002314
travaille 1
liv@@ 1
évêque 1
trop 1
surface 1
pon@@ 1
tot@@ 1
issement 1
quitte 1
jeux 1
organ@@ 1
situation 1
if@@ 0.7999649880752404
trou@@ 1
charge 1
quatrième 1
vic@@ 1
taille 1
bas 1
aci@@ 1
devenir 1
ami 1
associ@@ 1
interpr@@ 1
So@@ 1
érieure 1
journal 1
libre 1
tim@@ 1
ah 0.7692583836144256
50 0.6532747160623509
X 0.8830721887811798
marché 1
Pro@@ 0.7630545126501551
passage 1
ps 0.8778938941827749
situe 1
artistes 1
hom@@ 1
rouge 1
missions 1
seurs 1
aliste 1
nier 1
dre 1
kilomètres 1
emment 1
améli@@ 1
ènes 1
cad@@ 1
pont 1
affaires 1
Martin 1
passé 1
22 0.5066528781828581
tic@@ 1
impos@@ 1
me@@ 0.5883126363374963
tent 1
chap@@ 1
tenir 1
bord 1
main 0.7787046838296998
anciens 1
engag@@ 1
O 0.5604047113829086
ard@@ 1
atives 1
personne 1
produ@@ 1
apparaît 1
ble 1
ang 0.7956738089826071
command@@ 1
Es@@ 1
ide 1
inscrit 1
uv@@ 1
Bien 1
ger 0.9793400890215945
majorité 1
Vi@@ 1
air 1
aj@@ 0.9532922121152112
financi@@ 1
assur@@ 1
ples 1
oph@@ 1
bles 1
0,@@ 1
italien 1
ports 1
salle 1
lignes 1
ajou@@ 1
principaux 1
ologiques 1
porté 1
rend 1
sau@@ 1
santé 1
pu 1
.@@ 0.49246995114993025
journ@@ 1
ection 1
agn@@ 1
chaîne 1
1992 0.7536401064042957
semb@@ 1
ist@@ 0.673613126490499
ices 1
rés@@ 1
compris 1
rent 1
fo@@ 1
pièces 1
ong@@ 1
représente 1
De@@ 0.6029805828336671
intérêt 1
évolu@@ 1
ous 0.3453878895221631
éti@@ 1
He@@ 0.6436707164060758
astéroïde 1
utilisation 1
aiss@@ 1
plutôt 1
ouvrage 1
+ 0.9540602005129545
fit 1
Nor@@ 0.9365434181692078
arts 1
1994 0.7564152268269873
viv@@ 1
entraî@@ 1
ens@@ 0.42400427044670536
ich@@ 1
lin@@ 0.9583780912949685
rier 1
Georges 1
heures 1
modi@@ 1
co 0.5641498551375823
saint 1
Première 1
ski 1
étique 1
ik@@ 0.4674674313896872
Société 1
lois 1
grav@@ 1
suit 1
divers 1
alis@@ 1
toutefois 1
23 0.5109142852336336
berg 0.771532255631694
élimin@@ 1
derniers 1
condu@@ 1
vidéo 1
recensement 1
atrice 1
succes@@ 1
fu@@ 1
dom@@ 1
êtes 1
faible 1
agricoles 1
oles 1
ali@@ 0.9721764569741455
arrière 1
agne 1
télévision 1
unité 1
ai@@ 1
reçu 1
valeur 1
vallée 1
orient@@ 1
Mc@@ 0.5895438848697956
Du@@ 1
tar@@ 0.9973252330997364
Du 1
bil@@ 1
simple 1
ond 1
coup 1
ome 1
entaire 1
sécurité 1
Is@@ 1
telle 1
précéd@@ 1
oise 1
multi@@ 1
nu@@ 1
chant 1
puiss@@ 1
cité 1
Beau@@ 1
ment@@ 1
côtés 1
malgré 1
go@@ 1
cour 1
H 1
Bas@@ 1
gl@@ 1
1981 1
Go@@ 1
Str@@ 0.5940294155326464
plac@@ 1
km 0.391096405354509
Bretagne 1
appr@@ 1
sciences 1
chré@@ 1
Parmi 1
pein@@ 1
pres@@ 0.900902370018023
ly@@ 1
ulaire 1
és@@ 1
suff@@ 1
Thomas 0.9388198786702633
chapelle 1
illon 1
peintre 1
travers@@ 1
aucune 1
fique 1
longueur 1
dée 1
considéré 1
ret@@ 1
Sp@@ 0.6464386419526931
armes 1
alisme 1
étr@@ 1
André 1
forte 1
idae 1
pratique 1
oy@@ 1
fé@@ 1
tournoi 1
mariage 1
issue 1
clubs 1
secteur 1
péri@@ 1
1993 0.7604859227115817
savoir 1
saire 1
alistes 1
vice 1
quit@@ 1
condam@@ 1
Vo@@ 1
Suisse 1
moitié 1
érique 1
chan@@ 1
Bal@@ 0.9965917872134507
pel@@ 1
-@@ 0.6679522187766174
conditions 1
bande 1
livres 1
rich@@ 1
William 0.715972272509798
conse@@ 1
Av@@ 1
ètes 1
petits 1
opér@@ 1
bri@@ 1
provo@@ 1
Rou@@ 1
Lu@@ 1
ération 1
40 0.6497956662577267
sac@@ 1
16@@ 0.9902443437663615
Club 0.7912029807914553
propose 1
ya 0.3005563203722541
Elles 1
dessin@@ 1
reprises 1
fonctionn@@ 1
utilisée 1
section 1
endant 1
1@@ 1
milli@@ 1
remarqu@@ 1
Plus 1
explo@@ 1
tra 1
ici@@ 1
ys@@ 1
anim@@ 1
yl@@ 1
onnement 1
épo@@ 1
presse 1
maître 1
abbaye 1
pron@@ 1
ré 1
célèbre 1
police 1
Ros@@ 1
mot@@ 1
influence 1
ici 1
défense 1
témo@@ 1
représentant 1
batt@@ 1
gestion 1
Cer@@ 1
régions 1
ande 1
comm@@ 1
fonctions 1
proximité 1
Su@@ 0.9584051569446174
time 0.16630423075107809
1975 1
lorsqu&apos; 1
longue 1
gique 1
catholique 1
ki 1
libér@@ 1
1988 0.8431560623555441
hauteur 1
no 0.15185751250519844
nuit 1
Fr@@ 0.9834962689222359
ailles 1
comptait 1
Sol@@ 1
deur 1
presque 1
faut 1
neuf 1
natur@@ 1
qualité 1
empereur 1
patr@@ 1
tent@@ 1
secrétaire 1
moteur 1
passer 1
recu@@ 1
sujet 1
1971 1
port@@ 1
mus@@ 1
pierre 1
député 1
médaille 1
commerce 1
rencontr@@ 1
Institut 1
Dès 1
sélection 1
évolue 1
correspond@@ 1
ût 1
accord 1
jus@@ 1
soci@@ 1
four@@ 1
union 1
enseignement 1
vitesse 1
tableau 1
entreprises 1
personnages 1
types 1
jusqu 1
Claude 1
appelle 1
protection 1
réalise 1
Har@@ 0.7892979055599888
tran@@ 1
Bas 1
mot 1
écr@@ 1
soutien 1
io 0.7124802844551634
alisé 1
employ@@ 1
Rom@@ 1
appel 1
royaume 1
isent 1
certain 1
trav@@ 1
lance 1
profon@@ 1
lieux 1
doivent 1
Tro@@ 1
bor@@ 1
détermin@@ 1
favor@@ 1
arrondissement 1
construite 1
Académie 1
Ou@@ 1
relations 1
vit 1
ablement 1
artiste 1
Del@@ 1
prince 1
mêmes 1
siècle 1
bert 1
land 0.27924329757975036
hiver 1
prati@@ 1
fondé 1
ak 0.5263506934205564
aliment@@ 1
tait 1
sig@@ 1
major 0.6854803726742704
médic@@ 1
ards 1
actuel 1
James 0.7257824009330305
enfant 1
nature 1
26 0.5043124784868069
déclar@@ 1
Tou@@ 1
hor@@ 1
von 0.04360845375912862
uti@@ 1
permis 1
sélec@@ 1
hu@@ 0.8607937358247791
iti@@ 0.9476514771751721
Entre 1
log@@ 1
principales 1
em 0.5077202645315089
chev@@ 1
voïvodie 1
George 0.7341526773023628
Uni 1
Mer@@ 0.921644148438983
suivi 1
appelée 1
Des@@ 1
orbite 1
ira 1
épisode 1
hors 1
adi@@ 1
bat 1
publi@@ 1
phot@@ 1
probablement 1
her@@ 0.4124271297711401
cultur@@ 1
ache 1
moyen 1
Ad@@ 0.6883882292800448
Championnat 1
directement 1
ographique 1
quée 1
continue 1
structure 1
vu 1
débuts 1
mécan@@ 1
pap@@ 1
via 1
fen@@ 1
commerci@@ 1
ume 1
terr@@ 1
militaires 1
tron@@ 1
1989 0.736200315838974
monuments 1
bur@@ 0.9115654219683091
Vil@@ 1
Loire 1
zi@@ 1
28 0.47928652907042374
oni@@ 1
ica 0.4957633237886403
tou@@ 1
fondée 1
professionnel 1
27 0.48894065185276864
contempor@@ 1
appu@@ 1
mode 1
oth@@ 1
rend@@ 1
Australie 1
Nicolas 1
cla@@ 1
igu@@ 1
oblig@@ 1
çon 1
éra 1
parents 1
vend@@ 1
localité 1
composée 1
arrive 1
ball 1
industri@@ 1
ani 0.9161565269228131
pol@@ 0.9248133924411498
joué 1
eur@@ 1
décrit 1
naissance 1
offre 1
2@@ 0.6449029250541968
suiv@@ 1
haute 1
ouver@@ 1
pièce 1
sociale 1
Lyon 1
Sar@@ 1
blanc 1
arrê@@ 1
sin@@ 1
bâtiments 1
Can@@ 1
rendre 1
str@@ 0.39399667692089374
arm@@ 1
matéri@@ 1
éta@@ 1
ed 0.04576880524618828
régime 1
Premier 1
lam@@ 1
circonscription 1
acte 1
sch@@ 0.21129492350170193
ôme 1
pied 1
ouverture 1
amment 1
pil@@ 1
Ag@@ 1
former 0.4467976565144844
patrimoine 1
dispose 1
présent 1
traité 1
ata 0.6532050240202576
étés 1
gé 1
navire 1
ara 0.6948666326469994
Prés@@ 1
laiss@@ 1
jouer 1
énergie 1
noms 1
ote 1
Bor@@ 1
obtenir 1
ule 1
dite 1
enfin 1
souha@@ 1
minutes 1
chansons 1
développ@@ 1
bul@@ 1
aître 1
gence 1
éducation 1
phase 1
Pal@@ 1
diverses 1
chargé 1
mi 1
initi@@ 1
disput@@ 1
tournée 1
concernant 1
derrière 1
ie@@ 1
question 1
del 0.051607245128838984
figure 1
locale 1
moderne 1
000 1
forêts 1
îles 1
portent 1
catégorie 1
Mat@@ 1
ésie 1
collec@@ 1
Mag@@ 1
solution 1
compar@@ 1
q 1
syn@@ 1
élève 1
classique 1
augment@@ 1
id 0.499238370297523
usse 1
couver@@ 1
feu 1
garde 1
exécu@@ 1
transport 1
travaill@@ 1
découverte 1
classé 1
considér@@ 1
chois@@ 1
êtres 1
lettres 1
rien 1
techniques 1
cartes 1
der@@ 0.39685026177952715
arriv@@ 1
cent@@ 1
Er@@ 0.30843245926016905
ani@@ 1
Berlin 0.7798768546903087
cont@@ 1
indépend@@ 1
capitaine 1
bâ@@ 1
ministère 1
écrivain 1
individ@@ 1
Pol@@ 0.8547180614663011
ho@@ 0.5048517212443605
déroul@@ 1
ex 1
pat@@ 1
Cour@@ 1
rive 1
fir@@ 1
choix 1
belge 1
Por@@ 1
lis 1
camp 1
mée 1
ser 0.49649444136728094
fourn@@ 1
créer 1
courant 1
cel@@ 1
autant 1
je 1
cant@@ 1
bel@@ 0.716825539119795
yn@@ 1
kh@@ 0.8122951484535084
dure 1
eut 1
Richard 1
caractéristiques 1
aque 1
lée 1
usage 1
iment 1
sculp@@ 1
constitue 1
spor@@ 1
pourrait 1
couleur 1
ep@@ 0.542463786822889
sy@@ 1
aî@@ 1
cô@@ 1
taine 1
statut 1
noir 1
cycl@@ 1
ouvert 1
ones 0.5691040242889484
éditions 1
donner 1
ographi@@ 1
spect@@ 1
reprend 1
1986 0.7842612368587151
reg@@ 0.5324895067513356
vin@@ 1
lot 1
évo@@ 1
esti@@ 1
itaire 1
Mus@@ 1
mal 1
manifest@@ 1
particip@@ 1
este 0.4771967531694492
élo@@ 1
Terre 1
appel@@ 1
utilise 1
cit@@ 1
ud@@ 1
bassin 1
bour@@ 1
économie 1
regroup@@ 1
vol 1
lo 0.2593045142591071
euses 1
érieures 1
Association 0.8148226893371454
ong 0.5807606169358431
coul@@ 1
divis@@ 1
strat@@ 1
Alors 1
á@@ 0.46410504383213635
revient 1
navires 1
crée 1
désigner 1
puissance 1
ly 0.18817504898183887
portée 1
techn@@ 1
pri@@ 1
dispos@@ 1
tro@@ 0.8172579353537622
endra 1
actuellement 1
Bour@@ 1
Mari@@ 1
frères 1
tours 1
obten@@ 1
ea 0.7679221331396655
conseiller 1
inform@@ 1
fil@@ 1
pé@@ 1
hy@@ 1
Sou@@ 1
dernières 1
Révolution 1
occupe 1
social 0.8117395772894688
aissent 1
commenc@@ 1
hôtel 1
théorie 1
clo@@ 1
Caractéristiques 1
égi@@ 1
entation 1
lique 1
fou@@ 1
exploitation 1
voyage 1
quent 1
Synopsis 1
fér@@ 1
collection 1
stade 1
vert 1
suivantes 1
gion 1
peuple 1
constru@@ 1
problèmes 1
dirige@@ 1
accus@@ 1
emploi 1
prot@@ 0.7268022391384239
industrie 1
architecte 1
latin 1
Né@@ 1
ature 1
Gar@@ 1
ple@@ 1
scientifique 1
participation 1
Kar@@ 0.582257670046413
numéro 1
essentiellement 1
afric@@ 1
enseign@@ 1
introdu@@ 1
seront 1
ze 0.9028712560185868
rie 1
sœur 1
aît 1
reli@@ 1
cœur 1
soldats 1
einte 1
vois@@ 1
Dan@@ 1
lev@@ 1
1984 0.7715574334655018
frontière 1
mondial 1
ords 1
lent 1
détru@@ 1
fiée 1
consid@@ 1
dot@@ 1
entraîneur 1
objectif 1
za 0.6099956453176356
alisée 1
exposition 1
mont@@ 1
image 1
anie 1
atifs 1
record 0.6511900801264412
défaite 1
ib@@ 0.8473398112489088
auteurs 1
Guillaume 1
assemb@@ 1
Tar@@ 1
décision 1
sources 1
ars 0.6667802101698553
K 0.6683717668018956
ours 1
resp@@ 1
ense 1
officiellement 1
Sa@@ 1
coupe 1
ver 0.8414302595777993
figur@@ 1
estim@@ 1
br 0.9776617103218491
quar@@ 1
lir 1
Mac@@ 0.8668055947013286
1987 0.7356262698987699
sage 1
supérieure 1
saisons 1
devait 1
langues 1
équi@@ 1
aye 1
palais 1
tionné 1
ulté 1
empê@@ 1
gouverneur 1
act@@ 1
landais 1
1985 0.7533934927505881
central 0.9235677609613085
arrêté 1
Malgré 1
Ger@@ 0.6687606643037881
commencé 1
auto@@ 1
conduit 1
sites 1
illustr@@ 1
obtenu 1
soviétique 1
auté 1
29 0.4721312982888097
littérature 1
1930 1
mâ@@ 1
tend@@ 1
actrice 1
1968 0.8469252521260607
déclare 1
fond 1
chi@@ 1
arché@@ 1
naturel 1
remporté 1
existence 1
revue 1
vel@@ 1
Antoine 1
ça 1
formé 1
Haute 1
ym@@ 1
Seine 1
60 0.6970414198002155
gag@@ 1
dig@@ 1
ida 0.5374615588575389
Bat@@ 1
Montréal 1
médi@@ 1
80 0.795744926640983
ca 0.5988252015371546
loin 1
tenue 1
ison 1
van 1
réd@@ 1
retraite 1
Pe@@ 0.923629170980873
èn@@ 1
concours 1
single 0.45814191933589105
graphique 1
importants 1
aises 1
fix@@ 1
boul@@ 1
dét@@ 1
1945 0.5967890530205463
propriété 1
Alexandre 1
oue 1
pape 1
épreuve 1
igne 1
cre@@ 0.5061912235275375
physique 1
opposition 1
européen 1
étape 1
construire 1
Hol@@ 0.794045695314902
environnement 1
Dr@@ 0.9884240479069881
mieux 1
taire 1
quanti@@ 1
changement 1
Moyen 1
neurs 1
telles 1
partis 1
asse 1
indépendance 1
bie 1
entaires 1
otte 1
ell 0.39911736919128243
gal@@ 1
largement 1
Ni@@ 1
1940 0.9066700785366293
ger@@ 0.46464457203533766
expos@@ 1
ray@@ 1
densité 1
disposition 1
1982 0.7753151439214737
critiques 1
om 0.8726449280146645
meilleure 1
alg@@ 1
objets 1
indé@@ 1
Dame 1
établissement 1
graphie 1
Inter@@ 0.6270923966646063
No@@ 1
ots 0.8127881867047679
cherch@@ 1
ke 0.3558585037085705
studio 1
Lib@@ 1
ors 0.2563704938998495
National 0.2657783452435213
semaine 1
françaises 1
phon@@ 1
Cela 1
remplacé 1
Ph@@ 0.8299867595057723
ologue 1
architecture 1
ces@@ 1
quotidi@@ 1
conqu@@ 1
béné@@ 1
proven@@ 1
rep@@ 1
illé 1
êt 1
Assemblée 1
lib@@ 1
côte 1
recherches 1
famili@@ 1
ko 1
arc@@ 1
semaines 1
Californie 1
permettent 1
ug@@ 0.9219533357403169
dimin@@ 1
pou@@ 1
magazine 1
suivants 1
Ren@@ 1
iller 1
passant 1
flu@@ 1
ha@@ 1
contrô@@ 1
ime 1
tab@@ 1
ouvent 1
Royal 0.7154142395541591
inté@@ 1
ix 1
sus 0.2534263077366728
relation 1
dés@@ 1
Autriche 1
familles 1
montagne 1
particu@@ 1
commandant 1
inaugur@@ 1
Gi@@ 0.9360451503729539
hau@@ 1
entour@@ 1
gouvern@@ 1
lutte 1
Français 1
Anne 1
rejoindre 1
regroupe 1
départem@@ 1
textes 1
préf@@ 1
capacité 1
olog@@ 1
religieux 1
japonais 1
suivre 1
mau@@ 1
1983 0.7517110293250973
peinture 1
hydro@@ 1
communication 1
─ 1
bus 1
référ@@ 1
personnel 1
maisons 1
rois 1
processus 1
saires 1
matière 1
championnats 1
anci@@ 1
mol@@ 1
forêt 1
vie@@ 1
ō 1
anti 1
inscr@@ 1
den 0.0368392785342785
document@@ 1
desc@@ 1
extérieur 1
limite 1
prison 1
isés 1
ize 1
Mas@@ 0.8785642646304072
iz@@ 0.38494312977344236
journaliste 1
rement 1
arg@@ 1
superficie 1
1972 0.7548144733119437
pér@@ 1
dat@@ 1
onde 1
ama 0.7202367687931243
commun 1
ouvrages 1
ala 0.6963776682127442
longtemps 1
couleurs 1
distance 1
régulièrement 1
org@@ 1
utiliser 1
projets 1
atures 1
Mexique 1
constitué 1
Notre 1
Ap@@ 1
accep@@ 1
utilisés 1
vid@@ 1
Dieu 1
gmina 1
na@@ 1
décl@@ 1
liers 1
Cro@@ 1
tradition 1
voul@@ 1
aw@@ 0.4910283945342972
mobil@@ 1
retrouv@@ 1
fus@@ 1
Cré@@ 1
eint 1
El 0.11211073311083702
animaux 1
ref@@ 1
onnes 1
scol@@ 1
royale 1
règne 1
écar@@ 1
marquée 1
dirig@@ 1
ae 0.6502925287899586
Bernard 1
rev@@ 1
radio 0.9533849084758542
parten@@ 1
Maurice 1
arch@@ 0.8610727193182757
Bl@@ 0.7733874503733195
forc@@ 1
ett@@ 1
diamètre 1
M. 1
durée 1
Albert 1
lem@@ 1
ton@@ 1
sommet 1
locaux 1
fabri@@ 1
1973 0.7902921963951042
ł@@ 1
label 1
out@@ 0.5668483592578575
devint 1
Bre@@ 0.7822168112822591
agent 1
cinquième 1
Toutefois 1
intitulé 1
éo 1
Op@@ 1
négoci@@ 1
quelque 1
Tour@@ 1
IV 1
espagnol 1
sp@@ 0.25427674464777844
esp@@ 1
antage 1
ami@@ 1
ari 1
by 0.023724878037513848
construc@@ 1
Si@@ 1
atteindre 1
aéri@@ 1
odi@@ 1
dollars 1
signifie 1
veut 1
couple 1
quali@@ 1
faveur 1
cop@@ 1
information 1
aison 1
marine 1
sait 1
seau 1
autorités 1
bu@@ 0.5701950882909069
vot@@ 1
souff@@ 1
régiment 1
écoles 1
1976 0.7610617120705929
concer@@ 1
fondateur 1
seigneur 1
désign@@ 1
31 0.47455541322033756
ro 1
Sous 1
mas@@ 0.7431405529388212
chiff@@ 1
cam@@ 1
crise 1
réalisée 1
bronze 1
lettre 1
musici@@ 1
réserve 1
perd 1
prit 1
1979 0.7298831404123284
urban@@ 1
édifice 1
lour@@ 1
comporte 1
caractère 1
1920 0.927070453717029
paroisse 1
1977 0.804159306354082
ois@@ 1
har@@ 0.5944499217430171
fic@@ 1
ault 1
écriv@@ 1
Enfin 1
1974 0.7538700152017215
ita 0.6133122271784935
importantes 1
trouver 1
originaire 1
séries 1
plantes 1
isées 1
tement 1
Thi@@ 1
deven@@ 1
éni@@ 1
Certains 1
Vienne 1
enter 1
sexu@@ 1
Hom@@ 1
Sén@@ 1
américains 1
ordin@@ 1
pen@@ 0.6551604645367584
lit 1
paix 1
sén@@ 1
cell@@ 1
fau@@ 1
inclu@@ 1
contient 1
expérience 1
Tur@@ 0.8521972911466001
débute 1
dor@@ 1
chr@@ 1
Gé@@ 1
don 1
sav@@ 1
su 0.07749753075008073
connaît 1
étation 1
responsable 1
side 0.37914717146387567
chacun 1
comité 1
méd@@ 1
rati@@ 1
fédér@@ 1
néces@@ 1
entièrement 1
trouvent 1
répartition 1
train 1
monte 1
chambre 1
catég@@ 1
oux 1
affaire 1
cimetière 1
mann 0.5740170437589207
Cam@@ 1
événements 1
décr@@ 1
rattach@@ 1
up@@ 0.478994900954137
1978 0.7446352448470219
vent 1
agé 1
mascul@@ 1
Inde 1
faisait 1
conflit 1
Pé@@ 1
hab@@ 0.9782328774547928
nouvel 1
effic@@ 1
ic 0.1949063275304254
rurale 1
protest@@ 1
onnée 1
ètre 1
mil@@ 1
participé 1
Jo@@ 1
ectifs 1
ther@@ 0.8823304955576168
dan@@ 1
retr@@ 1
diocèse 1
Michael 0.7075273859875455
étudiants 1
charg@@ 1
articles 1
Festival 0.8814642584546557
front@@ 1
yp@@ 1
Vol@@ 0.895252475659248
vég@@ 1
trice 1
tements 1
Los 0.2773372261471373
ds 0.683753615247963
Avant 1
civile 1
Bos@@ 1
ouvrir 1
To@@ 0.92459709053747
Parlement 1
im 0.043765641253998525
nour@@ 1
Bruxelles 1
Tri@@ 0.7411546407108558
communale 1
ast@@ 0.6307546112819176
appartient 1
étend@@ 1
Cat@@ 1
irement 1
jo@@ 1
champ 1
Trois 1
déroule 1
privée 1
contin@@ 1
desserv@@ 1
apparition 1
juste 1
Henry 0.8496339994038689
Leur 1
néanmoins 1
Fédération 1
attraction 1
demand@@ 1
ind@@ 0.6947750995109871
Asie 1
filles 1
dessous 1
powiat 1
Ko@@ 0.9604983650974052
réus@@ 1
adap@@ 1
ressort 1
colon@@ 1
Fon@@ 1
Ban@@ 1
ks 0.2247107403097457
Kr@@ 0.5817104557563704
esses 1
C. 0.8824048883443623
éran@@ 1
uss@@ 1
traitement 1
commandement 1
hô@@ 1
Trans@@ 0.8722963661698916
parvient 1
lycée 1
pê@@ 1
simil@@ 1
poly@@ 1
ber 0.6528082672725188
nav@@ 1
Brésil 1
dédi@@ 1
petites 1
justice 1
installe 1
Bé@@ 1
urbaine 1
usine 1
romaine 1
200 0.62444091826444
Ann@@ 1
Lorsque 1
maladie 1
tifs 1
transform@@ 1
épisodes 1
hockey 1
réalité 1
syndic@@ 1
actu@@ 1
lumière 1
blan@@ 1
ativement 1
ick 0.5192487579234895
vin 1
isti@@ 1
atr@@ 0.7898482343038881
composition 1
artistique 1
difficile 1
lement 1
mains 1
renom@@ 1
Chambre 1
ître 1
vision 1
ja 0.6409106448543588
tel@@ 0.6240521017961977
lieutenant 1
variables 1
informations 1
clim@@ 1
beau 1
hôpital 1
unités 1
Hu@@ 0.9692598384388084
ax@@ 1
cin@@ 0.9832889806109102
totale 1
1967 0.7788485445052512
heur@@ 1
élevé 1
principe 1
féminin 1
faits 1
Dou@@ 1
explique 1
Aff@@ 1
apo@@ 1
érie 1
duc@@ 1
amis 1
Ven@@ 1
itali@@ 1
appell@@ 1
mule 1
trac@@ 1
contribu@@ 1
Je@@ 1
alier 1
analyse 1
maintenant 1
étudie 1
ste 0.9397421503024734
ands 0.936917351705385
italienne 1
pot@@ 1
çant 1
indique 1
nég@@ 1
ura 0.7452721047814598
autom@@ 1
oires 1
origin@@ 1
w 0.35800146972793556
prennent 1
ek 0.7354300704272472
anciennes 1
commission 1
ési@@ 1
sement 1
diffusée 1
jeunesse 1
positi@@ 1
comport@@ 1
local 0.3598661802755439
organisé 1
diffusion 1
érés 1
nuclé@@ 1
lit@@ 1
professionnelle 1
problème 1
infanterie 1
ros@@ 1
baptis@@ 1
Âge 1
vis 1
70 0.7050921712469012
tan@@ 0.6678791000803981
mandat 1
approche 1
Cour 1
vous 1
vont 1
gré 1
couronne 1
mu@@ 0.8182486898237163
itement 1
poids 1
fonds 1
ret 1
armées 1
doute 1
mun@@ 1
45 0.704267716032816
marche 1
amour 1
compositeur 1
vente 1
ram@@ 1
décret 1
art@@ 1
tisme 1
cathédrale 1
opérations 1
publiée 1
permettre 1
rugby 1
villages 1
fortement 1
Bur@@ 0.5403855095322264
q@@ 1
futur 1
lendemain 1
propriétaire 1
Tch@@ 1
envoy@@ 1
municipal 1
ye 0.6221656859803893
citoy@@ 1
ase 0.6769381696524662
finit 1
0@@ 0.5473935681962149
code 1
œurs 1
victoires 1
métr@@ 1
Bri@@ 1
Cin@@ 1
j 1
manque 1
Gen@@ 0.7627350175611091
sit@@ 1
ories 0.9693984624864427
score 1
tienne 1
milit@@ 1
conc@@ 1
Jus@@ 1
diffic@@ 1
développé 1
commer@@ 1
absence 1
élèves 1
nos 1
devenue 1
traduc@@ 1
Gau@@ 1
érieurs 1
chinois 1
priv@@ 1
termes 1
35 0.6993159863358694
ignent 1
sil@@ 1
ella 0.5547855535291115
1969 0.7307813252925679
uniquement 1
collaboration 1
publication 1
Al 0.6034403631029418
étend 1
Tor@@ 0.6972375945360413
avent@@ 1
républic@@ 1
oli@@ 1
Puis 1
meilleurs 1
acteurs 1
mique 1
š@@ 1
pouvant 1
Dev@@ 1
Do@@ 0.8855386951743273
recev@@ 1
voiture 1
connaissance 1
Alpes 1
systèmes 1
mix@@ 1
mémoire 1
ement@@ 1
tiv@@ 1
exerc@@ 1
exer@@ 1
basé 1
tis 1
Laurent 1
réun@@ 1
Esp@@ 1
psych@@ 1
neur 1
tombe 1
tig@@ 0.8703916655970051
onner 1
fid@@ 1
écriture 1
dirige 1
rées 1
èvement 1
tiennent 1
agriculture 1
fleuve 1
soient 1
num@@ 1
appartenant 1
invent@@ 1
morts 1
tée 1
mesures 1
sorte 1
régionales 1
vra@@ 1
sauv@@ 1
Ba@@ 1
modèles 1
ao 0.8855386709118853
expression 1
grec 1
cons@@ 1
resse 1
sent 0.8360628933998157
outil 1
offici@@ 1
établir 1
risque 1
urba@@ 1
institu@@ 1
ford 0.5195296192004824
réalisateur 1
conséqu@@ 1
ous@@ 1
candidat 1
fron@@ 1
fonde 1
NGC 1
attach@@ 1
Pas@@ 0.8998183781586415
super@@ 0.7822849533346095
liberté 1
archi@@ 1
sti@@ 0.6273401758503157
dispute 1
ifs 1
prolong@@ 1
éré@@ 1
otes 1
proch@@ 1
toire 1
iche 1
nov@@ 1
voc@@ 1
Maison 1
rang 1
électrique 1
ambi@@ 1
publics 1
Moscou 1
festival 1
idi 1
dia 1
aut@@ 1
bureau 1
quoi 1
journée 1
alb@@ 1
commande 1
régional 1
90 0.6738922988865584
Gir@@ 1
douze 1
Mol@@ 1
plein 1
rock 0.7971971992164228
entales 1
lesquels 1
ouverte 1
jur@@ 1
combin@@ 1
déplac@@ 1
pouss@@ 1
faite 1
mari 1
socialiste 1
propres 1
parcours 1
accompagn@@ 1
souver@@ 1
1964 0.732175625306346
mp@@ 1
Commission 1
activ@@ 0.9228137587346239
titu@@ 1
poin@@ 1
résultat 1
restaur@@ 1
tente 1
Algérie 1
agricole 1
poursuit 1
1962 0.7943281901747165
éph@@ 1
Daniel 1
esprit 1
actifs 1
fondation 1
blo@@ 1
édie 1
protég@@ 1
éviter 1
ok@@ 0.48774463301471305
tives 1
dépend@@ 1
Marseille 1
étiques 1
Ter@@ 1
aille 1
quel@@ 1
chute 1
valeurs 1
nomination 1
littér@@ 1
note 1
bi 1
implant@@ 1
mut@@ 1
portes 1
radi@@ 1
philosophie 1
1944 0.627109574616027
ri 1
vote 1
At@@ 0.8023241662757952
accor@@ 1
fiant 1
li 0.8214688036784898
participer 1
célébr@@ 1
nécessaire 1
naturelle 1
enquête 1
vil@@ 1
parce 1
tal@@ 0.8152186158009426
sport 1
visite 1
quet 1
aill@@ 1
he@@ 0.3193421088521837
effectue 1
application 1
ha 0.27832001688582714
peine 1
proches 1
suffis@@ 1
avion 1
véritable 1
once 0.7441102903196181
médecine 1
cho@@ 1
public@@ 1
actif 1
ena 0.5488612731188739
Irlande 1
Art 0.5804704604602222
eli@@ 1
iers 1
basse 1
lé 1
conver@@ 1
suisse 1
compose 1
reprise 1
océ@@ 1
désigne 1
Championnats 1
isol@@ 1
ach 0.4005325624696497
présenté 1
Lou@@ 1
Vie 1
histori@@ 1
produire 1
1965 0.7283237065194639
mises 1
ols 1
dû 1
capit@@ 1
if 0.40937219243985024
mati@@ 1
ris@@ 1
scientifiques 1
méthode 1
Fil@@ 1
rej@@ 1
maîtr@@ 1
City 0.2758062051589183
travailler 1
équival@@ 1
relativement 1
profes@@ 1
fusion 1
camp@@ 1
32 0.7078656725657869
Ti@@ 0.8952920920255506
1966 0.7327593291372666
agr@@ 1
reine 1
pur@@ 0.6254869028944717
senti@@ 1
procé@@ 1
collabor@@ 1
pes 1
annuelle 1
Marc 1
isses 1
isson 1
gaz 1
collège 1
verse 1
quel 1
séqu@@ 1
Ed@@ 1
cheval 1
plat@@ 1
Sau@@ 1
grec@@ 1
toral 1
bass@@ 1
mour@@ 1
fran@@ 1
places 1
enant 1
fili@@ 1
Arm@@ 1
Thé@@ 1
officier 1
conception 1
nés 1
confi@@ 1
Peter 0.6076437369286586
uch@@ 0.7212236454375565
officiel 1
ferme 1
visi@@ 1
pilote 1
congr@@ 1
neau 1
Im@@ 0.7408004177169902
législatives 1
entrer 1
iterran@@ 1
Fer@@ 1
supplém@@ 1
mène 1
ein@@ 0.18113499445034043
alog@@ 1
René 1
phe 1
rach@@ 1
nat@@ 1
moyens 1
La@@ 1
chanteur 1
Mi@@ 0.9620122885271868
caractérisée 1
photos 1
puisque 1
rate 1
World 0.19501763778451178
promotion 1
thème 1
Pré@@ 1
centr@@ 1
assurer 1
ola 0.9533808141589064
mir@@ 1
essenti@@ 1
communiste 1
lin 1
euros 1
Distribution 1
nie 1
troph@@ 1
domicile 1
Toulouse 1
mur 1
monument 1
Ha@@ 1
Sor@@ 1
voire 1
qués 1
domaines 1
Quelques 1
juge 1
bé@@ 1
angle 1
Mel@@ 0.8168426650220852
lic@@ 1
meur@@ 1
isine 1
ciel 1
voies 1
ienne 1
onie 1
irent 1
reti@@ 1
Et 1
masse 1
nies 1
dés 1
Chaque 1
Pan@@ 0.8662070578194259
parlem@@ 1
1939 0.6882645885228477
ige 0.4344846694908943
age@@ 1
trente 1
laisse 1
complexe 1
assassin@@ 1
accept@@ 1
assi@@ 1
canal 1
vér@@ 1
Tout 1
rév@@ 1
crois@@ 1
raisons 1
Cou@@ 1
universit@@ 1
pouvait 1
rapide 1
ier@@ 0.43565925724186183
mand@@ 1
disque 1
coup@@ 1
tél@@ 1
Maria 0.9539312287781706
biens 1
Hor@@ 0.8692694471153214
engage 1
footballeur 1
eh@@ 0.31006727552331625
arabe 1
polonais 1
intègre 1
procès 1
ferroviaire 1
fun@@ 1
idé@@ 1
put@@ 1
yc@@ 1
écrite 1
autorité 1
Sc@@ 0.8751100740079418
calcul@@ 1
que@@ 1
économiques 1
Aux 1
dériv@@ 1
uer 1
my@@ 1
ez@@ 0.6676048934065998
avions 1
gros 1
arrêt 1
1958 0.772753626678293
Musée 1
ignement 1
science 1
Don@@ 1
sauf 1
étranger 1
Angeles 0.9241736264898821
tem@@ 1
phone 1
tric@@ 1
élus 1
Sur@@ 0.8720163090848101
bin@@ 1
eter 0.7322536897283066
Chi@@ 0.9093469167769023
ulation 1
atis@@ 1
Comité 1
météor@@ 1
résistance 1
sif 1
pul@@ 0.8491229692752692
aériennes 1
chi 0.9880527828945848
ames 1
Fo@@ 1
renouv@@ 1
Land 0.9781117056407289
manche 1
&#124; 0.4700702707654191
dirigé 1
ty 0.23533600667123533
canadi@@ 1
adver@@ 1
distribution 1
auparavant 1
illy 1
députés 1
concurr@@ 1
Ju@@ 1
prenant 1
naît 1
hommage 1
ambass@@ 1
1866 1
chin@@ 1
réaliser 1
Celui 1
emp@@ 0.7864088452370884
contexte 1
lec@@ 1
Démographie 1
vir@@ 1
tiens 1
fro@@ 1
heure 1
ham@@ 1
nant 1
ba 0.8306456713262066
lon@@ 1
voirs 1
ada 0.11582470401738669
diction 1
populations 1
aud@@ 1
fem@@ 1
concept 1
tera 1
andes 1
endémique 1
yer 0.8751675189502507
mesur@@ 1
ul 1
Wil@@ 0.7291674042462263
tch@@ 1
perdu 1
yst@@ 1
officielle 1
Étienne 1
Franc@@ 1
ationn@@ 1
princ@@ 1
utilisant 1
matériel 1
semi 1
amén@@ 1
universitaire 1
Lim@@ 1
rassemb@@ 1
Suède 1
progr@@ 1
Aut@@ 1
1963 0.7159917144449958
prises 1
uy@@ 1
elli 1
Kh@@ 0.8286781234593905
effets 1
ow@@ 0.4165304803998383
littéraire 1
illi@@ 1
Pon@@ 1
riers 1
albums 1
Bro@@ 0.8072763783885032
hol@@ 0.6131561022071214
découvre 1
décédé 1
pand@@ 1
décou@@ 1
doc@@ 1
urg@@ 1
naturels 1
parle 1
volon@@ 1
Frédéric 1
montag@@ 1
due 0.32690953590888416
ora 0.5466153560318152
Ho@@ 0.6436459647372957
ceau 1
parisi@@ 1
entreti@@ 1
doubl@@ 1
Lav@@ 1
démoc@@ 1
neu@@ 1
organise 1
ker 0.36561014599768826
ek@@ 0.32740699285617675
ów 1
appliqu@@ 1
ts@@ 0.3498795952831415
meub@@ 1
mouvements 1
èlement 1
aura 1
tribue 1
culturel 1
Ir@@ 0.8300428039537558
mod@@ 1
grade 1
pa@@ 1
issons 1
hypoth@@ 1
exploit@@ 1
entier 1
producteur 1
montée 1
mél@@ 1
climats 1
Ru@@ 0.7347893566754172
faites 1
ordres 1
èche 1
èque 1
édé 1
Ca@@ 1
idents 1
initialement 1
ives 1
Arts 0.8630831952088454
besoin 1
glace 1
cep@@ 1
échelle 1
gens 1
Bu@@ 0.9601866803530982
ave@@ 1
Nouveau 1
potenti@@ 1
ario 0.48095986108456545
inspir@@ 1
zaine 1
développe 1
façade 1
Mil@@ 0.8498577890968614
Sim@@ 0.7871810703964272
aéroport 1
roy@@ 1
respectivement 1
eu@@ 1
grille 1
500 0.5530897062600157
Victor 1
ó@@ 0.4132727381809193
Patr@@ 1
tôt 1
consci@@ 1
criptions 1
adr@@ 1
eth@@ 0.957476504551355
Sam@@ 0.9263236799326626
pa 1
ètement 1
chasse 1
rus@@ 1
correspond 1
pauv@@ 1
1956 0.7191153889401126
ètres 1
oniques 1
uelle 1
êts 1
eusement 1
4,@@ 1
érer 1
marins 1
circuit 1
concerne 1
Bordeaux 1
1914 0.9373361203940533
affirme 1
Jér@@ 1
expér@@ 1
préfecture 1
érée 1
diplom@@ 1
colonel 1
table 1
Armée 1
entale 1
plans 1
symb@@ 1
lancé 1
Anci@@ 1
circul@@ 1
post@@ 1
ico 0.4628982110912706
Division 0.4539518896915442
ys 0.598851881928318
historien 1
idées 1
tu 1
refus@@ 1
sult@@ 1
gagne 1
traverse 1
més 1
Orig@@ 1
J 0.9297937181183282
Tun@@ 1
titulaire 1
médecin 1
thi@@ 1
ignon 1
Bon@@ 1
ôle 1
fre@@ 0.5773045966954745
Mir@@ 1
Croix 1
feu@@ 1
tionnelle 1
accueille 1
1948 0.6888308709489309
pris@@ 1
Sy@@ 0.9990750667601026
atoires 1
Mah@@ 0.9756884269171506
ert 0.29855865107579355
ji 1
vais 1
rait 1
affron@@ 1
tourner 1
croix 1
International 0.3331944500869002
St 0.7308770319316543
éen 1
ern@@ 0.5414694940566421
retourne 1
entre@@ 1
début@@ 1
titude 1
vais@@ 1
Compagnie 1
div@@ 1
monastère 1
accompag@@ 1
compens@@ 1
frag@@ 1
mots 1
ennent 1
caus@@ 1
rencontres 1
1946 0.6751998935072877
Est@@ 0.6929041596781289
génération 1
vit@@ 1
romain 1
bras 1
agglomération 1
raient 1
succ@@ 1
réalisation 1
tionne 1
établissements 1
anglaise 1
nécessit@@ 1
individu@@ 1
lou@@ 1
Ben@@ 0.7783250616772339
fédération 1
britanniques 1
croissance 1
tionnel 1
Washington 0.5558786973905703
ry 0.5193858077437383
vainqueur 1
Te@@ 0.49756951831098795
diff@@ 1
33 0.7572983710436059
1961 0.7016444608008529
ode 1
Ol@@ 0.9367356692961313
inclinaison 1
Écosse 1
rav@@ 1
sen 0.4085227048029079
prê@@ 1
č@@ 1
lien 1
oni 1
propos 1
way 0.2320387710669021
Reg@@ 0.38932067823310346
ori 1
achev@@ 1
ans@@ 0.5898837088798875
ey@@ 0.8780020144357651
ométrie 1
stat@@ 1
Grèce 1
sociétés 1
disponible 1
connus 1
Han@@ 0.9147356236675575
jour@@ 1
annoncé 1
publiés 1
Val 1
alogue 1
fusi@@ 1
Records 0.681059923911401
périhélie 1
2,@@ 1
ague 1
Ra@@ 1
Juifs 1
piste 1
considérée 1
lie@@ 1
versions 1
Culture 1
sive 0.5090874679134919
1820 1
alt@@ 0.6854838261344578
5,@@ 1
issu 1
pologie 1
Os@@ 0.9538731154913626
long@@ 1
bro@@ 0.866596898398457
icien 1
ë@@ 1
aug@@ 1
locales 1
considère 1
lard 1
dram@@ 1
èg@@ 1
atri@@ 1
compéti@@ 1
décès 1
télévisée 1
guerres 1
abou@@ 1
poète 1
idé 1
exprim@@ 1
ze@@ 0.6293153267490519
franch@@ 1
polici@@ 1
1959 0.7159888016198324
automobile 1
choisi 1
olympique 1
Jules 1
all 0.0895513442557474
nois 1
Groupe 1
ignant 1
ectif 1
médias 1
by@@ 1
tières 1
bénéfici@@ 1
victimes 1
représentation 1
orchestre 1
ult@@ 1
échange 1
Ta@@ 1
Égypte 1
éto@@ 1
représentants 1
princip@@ 1
Ville 1
chevaux 1
US 0.24469792104463164
envoyé 1
oul 1
rer 1
combats 1
plaç@@ 1
sain@@ 1
révél@@ 1
Gas@@ 1
sk@@ 0.41032783696731095
thèse 1
publiques 1
proj@@ 1
vivant 1
présidence 1
ox@@ 1
contact 1
résid@@ 1
accessibles 1
ière 1
marqué 1
final 0.24457692939359216
élector@@ 1
nomme 1
ball@@ 1
compag@@ 1
majeure 1
cli@@ 0.9986447465780126
Van 1
delà 1
Wal@@ 0.6184187295649017
riche 1
Île 1
icule 1
bot@@ 1
signific@@ 1
ny 1
itions 1
concert 1
Dom@@ 1
sum@@ 0.7108149678948645
avanc@@ 1
hal@@ 0.4952135006745082
abbé 1
érant 1
1936 0.7451438760282112
investis@@ 1
avance 1
intéress@@ 1
réseaux 1
officiers 1
75 0.7170270292410578
Fran@@ 1
1947 0.7133245199783597
accueil@@ 1
ato 0.5310169295562366
régionale 1
changements 1
soir 1
den@@ 0.3294453415370184
facil@@ 1
lant 1
uf@@ 1
diplô@@ 1
environn@@ 1
lesquelles 1
ordonn@@ 1
emplo@@ 1
déclaré 1
oun 1
ingénieur 1
japonaise 1
usion 1
3,@@ 1
diplôme 1
religion 1
impose 1
murs 1
musicale 1
exception 1
fil 1
trains 1
sièges 1
Mont 1
José 0.7380935402166333
ématique 1
organisée 1
bon@@ 1
ich 0.555279806825787
We@@ 0.44903509403407876
Oc@@ 1
exp@@ 0.9798019121702861
Chicago 0.7480767298099138
Ur@@ 0.5488729187715059
Hal@@ 0.710302740103003
flor@@ 1
och@@ 0.9700173180632353
vieux 1
dépos@@ 1
jardin 1
transports 1
explor@@ 1
lang@@ 1
Roger 1
départemental 1
reç@@ 1
réussit 1
Pic@@ 1
latér@@ 1
aces 1
judici@@ 1
erg@@ 1
fe 0.7622070619699741
excentricité 1
anes 1
anger 1
émie 1
agu@@ 1
culte 1
quitter 1
Château 1
Air 0.5545189995954419
IS@@ 0.996385813797522
élé@@ 1
bibliothèque 1
signé 1
dav@@ 1
milieux 1
Bau@@ 0.37988920555195776
estimé 1
enci@@ 1
feuilles 1
révolution 1
Tous 1
const@@ 1
mén@@ 1
reconnaissance 1
développer 1
physiques 1
Dur@@ 1
itation 1
los 0.03216346039612694
morte 1
questions 1
honor@@ 1
A. 0.6051548347063191
restauration 1
Maz@@ 1
augmentation 1
gros@@ 1
estime 1
xi@@ 1
Insee 1
ave 0.9318767112371915
distingu@@ 1
front 0.6628750358960245
ryth@@ 1
appréci@@ 1
galax@@ 1
refuse 1
Denis 1
itre 1
révoluti@@ 1
devi@@ 1
Rhône 1
registre 1
Quand 1
héri@@ 1
trique 1
human@@ 1
mass@@ 1
demeure 1
ressources 1
espagnole 1
orité 1
véhicules 1
Christian 0.6165786625994031
régu@@ 1
Pu@@ 1
temple 1
té@@ 1
originale 1
sociales 1
taines 1
top@@ 1
printemps 1
anne 1
certaine 1
précipitations 1
héros 1
chir@@ 1
dien 1
différence 1
tué 1
écliptique 1
avocat 1
bout 1
triques 1
Situation 1
tail 1
th 0.15777106654755807
surve@@ 1
air@@ 0.4825887236880554
1949 0.6760661568738622
Jé@@ 1
endroit 1
rares 1
beaux 1
ust@@ 1
fis@@ 1
documents 1
Dor@@ 0.9256944641548251
partage 1
pp@@ 0.7362392310770347
active 0.6410743758737674
essais 1
San@@ 0.7739795390346482
1942 0.5858382851023949
Orléans 1
conserve 1
Portugal 1
vivre 1
adul@@ 1
oiseaux 1
empr@@ 1
mani@@ 1
manus@@ 1
AR@@ 0.9268255859265013
1918 0.6916028575659915
vite 1
conférence 1
secondes 1
règ@@ 1
expliqu@@ 1
Ham@@ 1
compéten@@ 1
chimi@@ 1
mettant 1
nations 1
athl@@ 1
franc@@ 1
majorit@@ 1
fémin@@ 1
gué 1
land@@ 0.43986083810830606
Ay@@ 1
flotte 1
partic@@ 1
Fond@@ 1
ception 1
int 1
Em@@ 0.7210228576841178
devrait 1
tempor@@ 1
ive 1
pin@@ 1
coû@@ 1
igny 1
illi 1
incar@@ 1
branche 1
ular@@ 1
Orient 1
neaux 1
eci 1
embl@@ 1
retir@@ 1
territori@@ 1
annex@@ 1
Hongrie 1
ext@@ 1
als 0.03526706104251747
Liv@@ 1
ments 0.3885753711221727
cé@@ 1
rière 1
sie 0.10008977930896824
èdent 1
proc@@ 1
affec@@ 1
mit 0.0345793246773992
scén@@ 1
associé 1
époques 1
métropole 1
umes 1
réserv@@ 1
serbe 1
tie 1
1957 0.6849720969741394
1954 0.7034186803559626
chanteuse 1
profit 1
ont@@ 1
xième 1
cir@@ 1
inage 1
1943 0.5720785910169084
Luc@@ 1
line 0.21808744585768094
Alain 1
sociaux 1
Cy@@ 1
Ram@@ 0.9438228669489674
1938 0.6547420415807336
fête 1
distinc@@ 1
1955 0.7058479936957023
Ste@@ 0.5194299826282167
sus@@ 1
aun@@ 1
expédition 1
enfance 1
réforme 1
Mad@@ 0.7802717481293576
respons@@ 1
excep@@ 1
vaste 1
kin 1
6,@@ 1
chœur 1
consiste 1
ieu 1
Vier@@ 1
aliers 1
exemplaires 1
yeux 1
Ath@@ 1
consommation 1
san@@ 0.7110521277698942
for 0.013839676767512188
étage 1
Rev@@ 1
36 0.7181164734854942
ca@@ 1
élément 1
édit@@ 1
permet@@ 1
Santa 0.634306071720862
adaptation 1
tol@@ 1
traduit 1
envis@@ 1
chanti@@ 1
criv@@ 1
juridi@@ 1
nation 1
sixième 1
établi 1
âg@@ 1
forment 1
thique 1
Léon 1
étrangères 1
mou@@ 1
volonté 1
je@@ 0.8689473690064704
Simon 1
présents 1
candidats 1
onnaire 1
piano 1
accident 1
basée 1
noire 1
revanche 1
allemands 1
agers 1
1941 0.5205461986841261
égation 1
inférieur 1
ores 0.5356167585181796
AS@@ 0.8955467683970824
exter@@ 1
améric@@ 1
manie 1
cot@@ 1
otype 1
seuls 1
tire 1
atelier 1
humaine 1
ner@@ 0.768602919567545
commercial 1
progressivement 1
Bru@@ 1
règles 1
gam@@ 1
change 0.6731208099355048
bé 1
consom@@ 1
aves 0.8982454839689079
Auguste 1
Corée 1
ima 0.8100344253368117
possibilité 1
onte 1
spécialiste 1
privil@@ 1
cycle 1
hong@@ 1
ona 0.5009980458393617
massif 1
adjoint 1
Stade 1
scènes 1
Israël 1
ruisseau 1
Petit 1
appelés 1
sang 1
Hab@@ 1
prévoit 1
révol@@ 1
auss@@ 1
assure 1
aider 1
sme 1
tribunal 1
versité 1
signi@@ 1
Laur@@ 1
issait 1
cathol@@ 1
logici@@ 1
Commun@@ 1
voyageurs 1
estre 1
Genève 1
asc@@ 1
images 1
espo@@ 1
Climat 1
libération 1
rig@@ 1
reconnu 1
placé 1
ail 0.9264797170404008
appro@@ 1
événement 1
tue 1
1952 0.6708098157564357
XV 1
Rég@@ 1
résidence 1
bibli@@ 1
tière 1
posséd@@ 1
doctor@@ 1
identité 1
numér@@ 1
fos@@ 1
ony@@ 1
illers 1
Boul@@ 1
Nov@@ 1
IN@@ 1
suédo@@ 1
Chev@@ 1
emplacement 1
Baptiste 1
Congrès 1
présentant 1
34 0.7022751323587336
travaillé 1
original 0.305695654139215
aint 1
rot@@ 0.8285589502763888
législ@@ 1
complète 1
connaître 1
romans 1
sist@@ 1
chant@@ 1
dro@@ 1
Madrid 0.922338172862652
plateau 1
navig@@ 1
Comté 1
discours 1
ub@@ 0.7754775917618191
notre 1
illa 0.6102463884965427
utilisées 1
ciné@@ 1
uz@@ 1
chemins 1
consult@@ 1
communal 1
tenant 1
trait@@ 1
amour@@ 1
Radio 0.778950222061545
extrémit@@ 1
ix@@ 1
38 0.7196124304970158
Un@@ 0.29558088611458067
roul@@ 1
Dis@@ 0.5749801394891239
ution 0.886496138715608
fabrication 1
ali 0.8087224463720619
erlandais 1
so 0.12479681936723516
1953 0.6956674147153387
Améric@@ 1
sel@@ 0.44201347005805935
gènes 1
Men@@ 0.8961723953929818
Jac@@ 1
Fam@@ 1
simplement 1
suites 1
servir 1
irie 1
constituée 1
Œ@@ 1
médiév@@ 1
2022 0.6853024906140509
ondre 1
alm@@ 0.823613207486209
omb@@ 1
puisqu&apos; 1
College 0.2757777592877911
imprim@@ 1
élabor@@ 1
enf@@ 0.7388062591537882
Provence 1
erry 1
Britanni@@ 1
cinqu@@ 1
League 0.20548811897332248
champions 1
Sant@@ 1
espaces 1
asi@@ 0.6856876925401776
May@@ 1
lon 1
êque 1
volume 1
archev@@ 1
écos@@ 1
drap@@ 1
Far@@ 0.7054068196154736
siècles 1
rê@@ 1
Comp@@ 1
privé 1
Peu 1
amm@@ 0.6464206366117862
Nations 1
repris 1
prévu 1
cule 1
programmes 1
Équi@@ 1
Répartition 1
Park 0.3361325951763858
Ge@@ 0.28046958907261005
mention 1
sim@@ 1
détaillée 1
Occupation 1
Édouard 1
crit 1
démén@@ 1
obj@@ 1
Étymologie 1
hétéro@@ 1
réper@@ 1
régulière 1
Maroc 1
apprend 1
proté@@ 1
qualifi@@ 1
prair@@ 1
émer@@ 1
religieuse 1
Fi@@ 0.8817454299872473
féré 1
indic@@ 0.6224906962643875
chefs 1
plant@@ 1
royal 1
envers 1
concerts 1
Rec@@ 0.556752450333079
métro 1
professionnels 1
Strasbourg 1
tenait 1
Sil@@ 1
Toponymie 1
second@@ 1
accomp@@ 1
èles 1
définitivement 1
Catherine 1
eil@@ 1
sbourg 1
yg@@ 1
avi@@ 1
ider 0.9406507671512024
internationales 1
denses 1
1937 0.6848563290097408
orer 1
Côte 1
artillerie 1
eries 1
direct 1
convain@@ 1
Fre@@ 0.3574784048823675
personnalités 1
produc@@ 0.8108454662747034
gh@@ 1
AC 1
ras@@ 1
déta@@ 1
ît 1
ith 0.6988752319956636
Jeanne 1
chaî@@ 1
tempér@@ 1
spectacle 1
occidentale 1
consacré 1
ini@@ 1
dehors 1
Neu@@ 0.9815092691991073
précédente 1
niveaux 1
majeur 1
1,@@ 0.6803482600538968
issus 1
Milan 1
difficultés 1
sier 1
cent 1
rendu 1
ello 0.7250494308959003
ision 1
abrite 1
vr@@ 1
pâ@@ 1
routes 1
connues 1
Or 1
Savoie 1
Hy@@ 0.8909384201439166
jaune 1
st 0.19184571863417785
emi 1
huiti@@ 1
nationales 1
Économie 1
sujets 1
Pom@@ 1
immédiatement 1
habitu@@ 1
battre 1
concentr@@ 1
scénar@@ 1
Der@@ 1
intitul@@ 1
riv@@ 1
logements 1
écrits 1
conçu 1
baie 1
tionnaire 1
quartiers 1
diffus@@ 1
commen@@ 1
ose 0.892275724665661
éditeur 1
démocratique 1
dist@@ 1
transfer@@ 1
symbol@@ 1
39 0.7450508792447286
var@@ 1
rôles 1
á 0.48135945075940256
échec 1
1933 0.6546690613274395
danse 1
parler 1
liaison 1
J. 0.6504123446216213
constitution 1
mines 1
national@@ 1
Marine 1
comparer 1
seigneur@@ 1
gende 1
véh@@ 1
distingue 1
classi@@ 1
çons 1
légèrement 1
42 0.7280327381398571
parallèle 1
Allemands 1
datant 1
taires 1
acles 1
CA@@ 1
fiction 1
initiative 1
voitures 1
audi@@ 1
encour@@ 1
municip@@ 1
Marcel 1
échap@@ 1
Communauté 1
univers 1
flam@@ 1
fédéral 1
Bibli@@ 1
dynam@@ 1
1919 0.6860216906315513
lut@@ 1
courses 1
lis@@ 1
succède 1
atre 1
erre@@ 1
Théâtre 1
européens 1
intermédiaire 1
décidé 1
aménagement 1
Arthur 1
scrutin 1
bourge@@ 1
prop@@ 0.8430235050223666
rup@@ 1
onymie 1
administrative 1
autrich@@ 1
relati@@ 1
tit 1
désig@@ 1
64 0.6147870454136838
prisonniers 1
allant 1
univers@@ 1
Urbanisme 1
dy 0.6688507480706604
iger 0.6129575796738803
Gor@@ 1
entraîn@@ 1
1951 0.6921294269145424
ort 0.906301246418657
automne 1
blanche 1
maje@@ 1
écla@@ 1
visit@@ 0.8873618564161706
performance 0.6109686522864459
portug@@ 1
marin 1
atte@@ 1
dynastie 1
fais@@ 1
ings 0.14521088349092906
sû@@ 1
absolue 1
franco@@ 1
ary 0.12694969509893575
peupl@@ 1
Mur@@ 0.8026697432270734
Politique 1
Franç@@ 1
onds 1
tourne 1
animation 1
vig@@ 1
suivent 1
dique 1
7,@@ 1
cultiv@@ 1
étée 1
Atlantique 1
ench@@ 1
érieur 1
normale 1
évalu@@ 1
Sav@@ 1
Aus@@ 0.20317465609870744
requ@@ 0.7976426852558254
Barcel@@ 1
Mét@@ 1
ajout@@ 1
mettent 1
archie 1
qualifié 1
établit 1
Ordre 1
Zé@@ 1
1935 0.7085608727577828
lac@@ 1
établie 1
dessinée 1
donnant 1
reur 1
arbres 1
Lang@@ 0.9788020636650959
écrire 1
associations 1
enseigne 1
Vincent 1
récit 1
Christ 1
Lam@@ 1
estr@@ 0.44565615186018304
Nav@@ 1
chevalier 1
sour@@ 1
cérémonie 1
interprète 1
tax@@ 1
épreuves 1
accue@@ 1
présidentielle 1
pourtant 1
combatt@@ 1
Nantes 1
statue 1
ariat 1
artis@@ 1
belle 1
Administration 1
mobili@@ 1
internation@@ 1
étro@@ 1
propri@@ 1
vê@@ 1
chim@@ 1
Napoléon 1
del@@ 0.4405170583112384
peur 1
échal 1
Cap@@ 1
exécut@@ 1
énie 1
protéger 1
écologique 1
cab@@ 1
chron@@ 1
prêtre 1
communautés 1
fortes 1
Pyrénées 1
ff 0.6759377812294621
forts 1
ilien 1
Luci@@ 1
ister 0.8586560902043661
Ly@@ 0.9823456549533832
onze 1
aéro@@ 1
autonom@@ 1
réfugi@@ 1
départementale 1
field 0.2342419198599505
nef 1
rir 1
acité 1
intervention 1
échelles 1
Génér@@ 1
rues 1
mathématiques 1
Argentine 1
défense@@ 1
Monde 1
Lar@@ 1
européennes 1
SN@@ 1
lait 1
agnes 1
océanique 1
Francisco 0.6114378523678257
Vers 1
tennis 1
ara@@ 1
pav@@ 1
consécu@@ 1
48 0.6934563236843225
Haut 1
cach@@ 1
stations 1
dessin 1
CD 0.7316671682658156
basket 1
oses 1
barr@@ 1
oute 1
secondaires 1
alisés 1
chacune 1
ceaux 1
gien 1
Cassini 1
débar@@ 1
sivement 1
soul@@ 1
enses 1
progres@@ 1
aspect 1
entu@@ 1
conséquence 1
fleurs 1
ium 0.9549111377974908
spati@@ 1
aliser 1
ash@@ 0.4060918136945279
Pont 1
dos 0.19472098145498326
fonctionnement 1
cabinet 1
sibles 1
canadien 1
chose 1
ev 1
param@@ 1
gol@@ 0.9384319240416874
bleu 1
duction 1
étoiles 1
étrangers 1
terie 1
humains 1
IGN 1
cos@@ 1
join@@ 1
baron 1
ennement 1
Typologie 1
phénomène 1
1929 0.7113009638076587
eils 1
thodes 1
constat@@ 1
van@@ 1
venant 1
37 0.7076695281933174
mos@@ 1
impliqu@@ 1
ko@@ 0.7072806172975766
ā@@ 0.6032048632561708
Organisation 1
gagn@@ 1
trafic 1
ame@@ 1
ble@@ 1
inspiré 1
vet@@ 1
mes@@ 1
popul@@ 1
statisti@@ 1
féminine 1
Arch@@ 0.7034916660308566
52 0.7526865660787024
voû@@ 1
écou@@ 1
ulin 1
patri@@ 1
avenue 1
1934 0.696266078184117
vécu 1
graphi@@ 1
arri@@ 1
archives 1
isa 1
éné@@ 1
mine 1
oiseau 1
Roi 1
franco 1
lab@@ 0.9381069141511977
distribu@@ 1
quinze 1
liés 1
Ker@@ 0.9110767276301732
auquel 1
trône 1
appareil 1
promu 1
vention 1
menée 1
surviv@@ 1
exig@@ 1
moteurs 1
évê@@ 1
perte 1
onique 1
ophysique 1
firme 1
québé@@ 1
guit@@ 1
of@@ 0.495424538931069
opp@@ 1
réponse 1
érées 1
í@@ 0.24418930378127918
Celle 1
stes 1
humain 1
crit@@ 1
égal 1
classes 1
Localisation 1
ics 0.24540712030186712
proportion 1
rais 1
Tom@@ 1
1932 0.733958048379655
igueur 1
courte 1
laborat@@ 1
300 0.6094871797858656
classification 1
limitée 1
autonome 1
ki@@ 0.6013010344734102
délé@@ 1
dier 1
détruit 1
├ 1
rut@@ 1
retrouver 1
impériale 1
confér@@ 1
anmoins 1
exper@@ 1
tenus 1
religie@@ 1
1900 0.8270374888016345
Maur@@ 1
actes 1
awa 1
ogie 1
diffusé 1
but@@ 1
vas@@ 1
gran@@ 1
Service 0.7850561046551529
ancement 1
Méd@@ 1
odes 1
Aur@@ 1
mans 1
phil@@ 1
lais 1
ensis 0.7883259124445409
iens 1
assist@@ 1
nationaux 1
Disney 1
44 0.6250064506983064
polonaise 1
chau@@ 1
châ@@ 1
temp@@ 1
tentative 1
matin 1
Mes@@ 1
Il@@ 1
septi@@ 1
AS 1
isie 1
circulation 1
âte@@ 1
sements 1
sugg@@ 1
fut@@ 1
Class@@ 1
con 0.0374900083330584
Normandie 1
Bol@@ 0.74411397135069
vern@@ 1
venue 1
J.-@@ 1
évol@@ 1
musical 0.6400643900086305
explic@@ 1
sk 1
lière 1
Patrick 1
bit 1
captur@@ 1
grap@@ 1
ES@@ 1
ish@@ 0.3844856738177131
extension 1
hydr@@ 1
Coll@@ 1
Bourgogne 1
quart 1
jum@@ 1
ō@@ 1
astronom@@ 1
8,@@ 1
oppose 1
55 0.7093357428453336
cav@@ 1
1928 0.6806218374568386
salles 1
Marne 1
46 0.7356480574988876
pense 1
struc@@ 0.9059394465115895
inn@@ 0.34754051641046807
licence 1
Cre@@ 0.5913166541594452
ick@@ 0.3371479427114495
igner 1
sab@@ 1
dres@@ 1
ON@@ 1
Smith 0.5832140206466714
ombie 1
Lille 1
modernes 1
oration 1
Fin 1
èvre 1
Contr@@ 1
School 0.16834087969714312
sule 1
ator@@ 1
ties 0.24541182812846898
400 0.6494883345658592
isions 1
quin@@ 1
Cur@@ 0.5825102979684961
onci@@ 1
format 1
Lor@@ 1
rang@@ 1
fle@@ 1
20@@ 0.7431489114715013
race 0.4965844126701442
Cover 1
uk@@ 0.4889456576893873
1924 0.7208166363916556
résist@@ 1
constituent 1
Hér@@ 1
41 0.7140872456198896
attention 1
Hô@@ 1
cardinal 1
ela 0.6331276966835083
intellectu@@ 1
ova 1
hist@@ 1
alie 1
Dar@@ 0.5567717141262994
1910 0.8009190199305356
oh@@ 0.5956002548923945
tro 1
empire 1
ban 0.773863037799451
cha 0.5551683494686248
Guy 1
prime 1
TV 0.3099865748257145
ack 0.47523175795346395
institutions 1
Mich@@ 1
découver@@ 1
dits 1
itch 1
chauff@@ 1
oti@@ 1
Rus@@ 1
embar@@ 1
aques 1
Occ@@ 1
Bay@@ 1
Juan 0.5473351094102917
musul@@ 1
ification 1
Mot@@ 0.7126460138519808
Je 1
fam@@ 1
cut@@ 1
ab 0.16519594414013958
lingu@@ 1
cru@@ 0.7355880551150107
incen@@ 1
inal 0.6789946516095482
aisse 1
Pau@@ 1
ges@@ 0.3571865952206455
islam@@ 1
architec@@ 1
pique 1
provis@@ 1
oto 0.7698596267454021
Vall@@ 1
chal@@ 1
indre 1
naz@@ 1
alise 1
san 1
Port 1
adapt@@ 1
Math@@ 1
Af@@ 1
Lev@@ 1
SC 1
dos@@ 1
Jeunesse 1
grad@@ 1
intér@@ 1
qua 0.985999142167897
net 0.6921760635568438
acu@@ 1
cy 1
usa 1
modern@@ 1
ron 1
ancer 1
phones 1
CLC 1
analy@@ 1
col 1
ati 1
eine 0.04312837259261541
Let@@ 1
Antonio 0.8301069318923656
ogne 1
My@@ 0.9896933206922348
az 0.8526267846600343
Pap@@ 0.8821692215093909
venti@@ 1
ingéni@@ 1
ling 0.2998465329412589
1870 1
atie 1
Super 0.8218219667422183
Music 0.3768013720308182
structures 1
Turqu@@ 1
Ferr@@ 1
lion 1
CE@@ 1
installation 1
prol@@ 1
ap 0.552038090323372
uri@@ 1
Tokyo 1
liqu@@ 1
orn@@ 1
aceae 0.7895191046286401
Lorraine 1
ef@@ 0.38562423271724805
65 0.47032199944665537
Ari@@ 1
performances 1
uli@@ 1
51 0.7557652279138111
occu@@ 1
eta 0.544063784270656
9,@@ 1
loy@@ 1
ster 0.33776074177425275
cens@@ 1
Vic@@ 1
toile 1
sel 1
contrain@@ 1
centres 1
organisations 1
ky 0.6682456599218666
ël 1
itz 0.5653451768126836
exempl@@ 1
1925 0.7216574119567821
Na@@ 1
rester 1
las 0.03925811617526578
stein 0.530138821128846
entin 1
harmon@@ 1
fiques 1
nou@@ 1
istiques 1
accu@@ 1
bli@@ 1
arde 1
crimin@@ 1
trait 1
mondi@@ 1
W 0.4073154615626109
phy@@ 1
cultures 1
Rem@@ 1
spé@@ 1
1912 0.7260070481544355
Pou@@ 1
étab@@ 1
eds 0.8576341464315567
transition 1
maximum 1
civil 0.7389780709156125
Raymond 1
plu@@ 1
1931 0.6981807088941104
preuve 1
provinces 1
aro 1
Sec@@ 1
dir@@ 1
tun@@ 1
47 0.7236628821834789
amiral 1
arab@@ 1
visible 1
comple@@ 1
jard@@ 1
inscription 1
sibil@@ 1
Enf@@ 1
icul@@ 1
mur@@ 0.774068262908964
43 0.7378464351098354
confir@@ 1
influenc@@ 1
pluvi@@ 1
intr@@ 1
tion@@ 0.5515983251412095
Châ@@ 1
57 0.7484721884908433
ament@@ 1
Év@@ 1
sem@@ 0.6620050954142251
cy@@ 1
oz@@ 1
SA 1
suc@@ 1
comment@@ 1
instruments 1
Mos@@ 0.9108546432931003
interne 1
tâ@@ 1
ess 0.1958752361753734
conclu@@ 1
ester 0.7782044734335657
Sab@@ 0.8222619966379799
avis 1
idente 1
propriéta@@ 1
pier@@ 1
nir 1
aile 1
ere 0.2045161957850552
Kir@@ 0.7763330133911509
cip@@ 1
mond 1
ck 0.8104590001645614
tradu@@ 1
apes 1
affluent 1
Constitution 1
sing@@ 1
dan 0.7137480679454896
abil@@ 1
Bil@@ 0.9457391942500447
antique 1
ical 0.16271195370641606
Ke@@ 0.7011474851813708
aux@@ 1
troit 1
Az@@ 0.8894945125784299
barrage 1
Paci@@ 1
xes 1
solo 0.4143001027957229
lus 1
beso@@ 1
Cu@@ 0.7424557952174887
tus 1
oi 1
und@@ 0.23895383769358605
capable 1
Texas 0.513562367835466
Population 1
Lee 0.6972475487958325
Luxembourg 1
Max 1
tec@@ 1
andi@@ 1
Camp@@ 1
Palais 1
galerie 1
invasion 1
emark 1
ouch@@ 1
95 0.7312520086851523
1921 0.6943192020739608
aillon 1
63 0.7784227892867221
origines 1
spir@@ 0.8542396034633414
1926 0.6796534202279148
Trav@@ 1
85 0.7273221084658925
Bir@@ 0.7942640316776983
United 0.09784857602351844
geant 1
ions 1
Ukraine 1
lecture 1
arc 1
élite 1
Alfred 1
Vie@@ 1
vac@@ 1
tin@@ 1
1922 0.683714315666925
pouv@@ 1
atmosph@@ 1
destruction 1
Tre@@ 0.48408274688206043
Ul@@ 0.6875488800172364
West 0.22185453295089708
yn 0.8573130033476949
AC@@ 0.7860192722797505
condition 1
ian 0.2549825611789923
Fort 0.8732444919785011
ney 0.511293818637421
notion 1
arme 1
tari@@ 1
teau 1
American 0.09936655931011096
can 0.09912132558451808
War@@ 0.5169267362960577
alco@@ 1
ost@@ 0.7352577562690434
collections 1
PC@@ 1
Liège 1
icité 1
maritime 1
mit@@ 0.40970699435491154
atur@@ 1
genres 1
prob@@ 1
aga 0.8522204022810929
observations 1
Vill@@ 1
ental 0.6660515786434406
Football 0.493207736410495
let@@ 0.8318616234353812
illet 1
49 0.7184687698329771
aim@@ 1
ok 0.5892280586053421
qualif@@ 1
rage 1
rejo@@ 1
calend@@ 1
Saison 0.44940034436289045
gren@@ 1
Ben 1
Jack 0.8323565748969649
plante 1
Rhin 1
Bes@@ 0.8757589080488788
ele 0.5840685046672726
aven@@ 1
Fab@@ 1
Mary 0.5350849563000527
mul@@ 1
noble 1
matern@@ 1
programm@@ 1
Force 0.6162655681946569
Gro@@ 0.9926928131956543
Lac@@ 1
PS 1
concep@@ 1
excell@@ 1
Blo@@ 1
mic@@ 1
champs 1
entis@@ 1
impéri@@ 1
Hel@@ 0.5961045382347515
vain@@ 1
astr@@ 1
exc@@ 1
onale 1
Dem@@ 0.6931769384869776
dez 1
zi 1
seig@@ 1
budget 1
cylin@@ 1
dispositi@@ 1
Ali@@ 1
Hil@@ 0.8622387276494932
1917 0.6098930067156216
abor@@ 1
fie 1
bloc@@ 1
Tom 0.884397771123588
Louise 1
âce 1
Mul@@ 1
micro@@ 1
zo@@ 1
tile 1
Nice 1
illée 1
* 0.17324219243028605
1927 0.6622349233083843
unes 1
ado 0.052418115673083444
adolesc@@ 1
amo@@ 1
endr@@ 1
gul@@ 1
Hav@@ 0.8938053649468762
Eugène 1
Ét@@ 1
CN@@ 1
sam@@ 0.9121875992510041
B. 0.4313019001248856
convo@@ 1
Internet 1
CF 1
sis 1
times 0.34154496068233825
insec@@ 1
uil 1
installations 1
Pat@@ 0.681496952537999
matr@@ 1
tac@@ 1
inten@@ 1
table@@ 1
Peti@@ 1
Roy@@ 1
Uni@@ 1
ciales 1
sportif 1
Mou@@ 1
démocrati@@ 1
Garonne 1
ef 0.9315764517531373
test@@ 1
divisions 1
Caroline 1
onal 0.5623484101525817
fonc@@ 1
ila 0.7734344375584706
illance 1
caval@@ 1
mage 1
66 0.7373227941984484
anni@@ 1
pseud@@ 1
SS 0.9238367152496216
office 0.4107743630348427
voi 1
procur@@ 1
Rio 1
lia 1
ten 0.05076768328826109
58 0.743683642531656
Gabriel 1
mon 1
ving@@ 1
Dro@@ 1
asse@@ 1
ective 0.521869895485917
da@@ 1
ieux 1
èv@@ 1
parts 0.5438444787618342
sir 1
fices 1
succession 1
alliance 1
74 0.7866570879712513
sons 0.7211442033621064
sac 1
Syst@@ 1
Fe@@ 0.5026312119062413
animal 1
ctu@@ 1
duo 1
quasi 1
ares 0.5379575601668518
rar@@ 1
glob@@ 1
Francis 1
concentration 1
Bern@@ 1
pre 0.868049806391157
ric 1
parole 1
off 0.17399779451512792
pom@@ 1
Bul@@ 0.8117443668767078
popular@@ 1
esta 0.24006043125661572
imagin@@ 1
monstr@@ 1
Sand@@ 0.6191899322793303
heim 0.6390449117611341
sar@@ 1
siles 1
1923 0.6659075007535765
Black 0.4757010918744767
pic@@ 0.7044344088766651
jon 1
suppos@@ 1
Noël 1
Olivier 1
got@@ 1
annonc@@ 1
62 0.7407381088556083
ologne 1
Gl@@ 0.6063922353751151
ense@@ 1
versi@@ 0.9760188681590336
brigade 1
Tak@@ 0.8258830759093607
í 0.47521248831223667
Parc 1
und 0.007890833196531777
peu@@ 1
million 0.25439413754341766
53 0.7293866302379417
fol@@ 0.5918448143921642
étrang@@ 1
accord@@ 1
disponibles 1
finales 1
spatial 1
Var@@ 1
Int@@ 1
hi 0.7859552270502201
Kal@@ 0.5309975311711265
iert 0.3236851494729255
dieu 1
FI@@ 1
ga 0.582969455371967
Gérard 1
grave 1
Renaissance 1
Bass@@ 1
54 0.7058846661213325
infr@@ 1
din@@ 0.7607750619485535
Mass@@ 1
Lie@@ 1
FF 1
Frank 0.7380749013008012
Nar@@ 1
tori@@ 1
Mark 0.6073006945882988
sais 1
VI 1
trol@@ 1
Bois 1
ref 1
Christophe 1
Mau@@ 1
ih@@ 0.7621355604598742
orthodo@@ 1
variations 1
primer 0.37055853823247625
cial 1
dér@@ 1
veau 1
philosoph@@ 1
nobl@@ 1
onnais 1
61 0.7774611259915688
Alsace 1
RE@@ 1
jazz 1
ander 1
sir@@ 1
77 0.781415894545103
flan@@ 1
magnitude 1
fe@@ 0.1591831389130409
adies 1
SA@@ 0.9751609062898668
URSS 1
Kat@@ 0.6670553825721619
criti@@ 1
Camer@@ 1
allem@@ 1
télévis@@ 1
RA@@ 1
impact 1
étu@@ 1
Land@@ 0.27335649280545254
Pin@@ 1
formations 1
âtre 1
symp@@ 1
comman@@ 1
isra@@ 1
aly@@ 1
gratu@@ 1
engagement 1
célè@@ 1
remon@@ 1
chem@@ 1
embre 1
Beno@@ 1
coloni@@ 1
qualification 1
go 0.33174864216992156
tex@@ 0.7954913396279953
berg@@ 1
omorph@@ 1
Journal 1
Jou@@ 1
Emmanuel 1
1913 0.7087031063869286
artifici@@ 1
uni 1
ito 0.4619194658212998
73 0.781192804341641
bombard@@ 1
correc@@ 1
án 0.2424593653680873
ung@@ 0.20928170375859736
aches 0.6866062272544762
82 0.7581794682740719
aujour@@ 1
exclusiv@@ 1
men 0.12929159461419967
nev@@ 1
ogr@@ 1
Edward 0.6409356424683548
Gre@@ 0.5977604318250511
1905 0.7503817809997575
conservation 1
Hall 0.38790348887451304
tér@@ 1
Tal@@ 0.6781481575351905
ik 0.4037234170020853
ero 0.30384239697895776
pages 1
fications 1
lections 1
let 0.5575842835656486
Rab@@ 1
limi@@ 1
iner 1
agon@@ 1
Émile 1
usalem 1
orientation 1
Marguerite 1
flex@@ 1
ón 0.17450822893545595
Yves 1
istère 1
1911 0.7416662352359719
67 0.7455717098463175
industrielle 1
asser 1
supr@@ 1
nation@@ 1
tram@@ 1
propag@@ 1
standard 0.7129261333181753
dé 1
cession 1
inger 0.41547166705671196
Star 0.6062415000349318
uls 1
Chap@@ 0.9246516517615726
acre 1
tho@@ 1
seaux 1
enta 0.5508190137363798
dh@@ 1
bac@@ 1
céré@@ 1
lever 1
Red 0.47641388799828605
traces 1
Prince 0.7674545628811007
Cap 1
envir@@ 1
CO@@ 0.9273443456958725
lave 1
nomin@@ 1
88 0.7507989488748703
Cav@@ 1
portrait 1
Et@@ 0.867459829507106
ung 0.05847560603463435
Ty@@ 0.8534416119970675
empar@@ 1
meille@@ 1
Lord 0.6661468982390332
erland@@ 1
68 0.7799058865909657
Munich 1
maç@@ 1
placement 1
Florence 1
Fri@@ 0.8748619943069413
Ing@@ 1
ei 0.4832788264027617
bases 1
Lis@@ 1
Germain 1
faces 1
leader 0.6110573769623984
tic 0.2050469271395186
Gol@@ 1
alphab@@ 1
impres@@ 1
Vau@@ 1
aka 0.8465289225222342
yd@@ 1
lov@@ 1
favorable 1
pole 1
81 0.7706436314126061
ash 0.579164665164461
cien 1
72 0.7259747057180066
Long@@ 1
prosp@@ 1
Luc 1
list@@ 0.7231580081355076
93 0.764842933229865
lim@@ 0.5825807840789118
mathém@@ 1
far@@ 0.7013212091682216
Eur@@ 1
zo 0.8415944539847435
neur@@ 1
56 0.7231235524689413
chor@@ 1
accessible 1
annul@@ 1
discipline 1
bos@@ 1
vec@@ 1
AN@@ 1
Company 0.3334943371288664
Prague 1
mér@@ 1
relief 1
bandes 1
atom@@ 1
danger@@ 1
min 1
amen@@ 1
serie 0.4241162225108972
description 1
itié 1
Congo 1
Dominique 1
vall@@ 1
estig@@ 1
embr@@ 1
che@@ 0.9558164642121109
Super@@ 0.6231405706768262
amie 1
oli 1
1908 0.7388267524177785
Julien 1
violence 1
myth@@ 1
cois 1
sul@@ 1
les@@ 0.43826576199160744
71 0.7326394987822475
othèque 1
mac@@ 1
Plan@@ 0.6894790277727063
Ak@@ 0.4052249661582937
unit 0.6814249876857482
Scott 0.7772859348413893
hél@@ 1
qui@@ 0.7217425298558917
volumes 1
insp@@ 1
chen@@ 0.8029220183816754
Eng@@ 0.712792981844975
consist@@ 1
descend@@ 1
possession 1
enni@@ 1
ophi@@ 1
habitat 1
Mand@@ 0.9545932769302368
cite 1
bru@@ 1
Doc@@ 1
lers 0.44557188478944554
Hir@@ 0.9197647965867022
Syn@@ 1
Dj@@ 1
agog@@ 1
util@@ 1
Sic@@ 1
Sig@@ 0.9716347453374632
79 0.7606485270437814
Hon@@ 0.6594548972019858
Mit@@ 0.5660417388803292
cri@@ 0.5254437497280671
hos@@ 1
Bran@@ 1
polé@@ 1
King 0.2825287507263025
etti 0.937551133671981
96 0.7318124041987402
aki 0.9312391709788037
Den@@ 0.7843499482600846
Rad@@ 0.6570999630306448
ograp@@ 1
Fal@@ 0.742086832484194
Dam@@ 0.9217661324940303
putation 1
machine 1
Jan@@ 1
Iran 0.8876071769044925
document 1
bach 0.46703134647331385
sang@@ 1
# 0.4507200918603006
glaci@@ 1
Cos@@ 1
Olympi@@ 1
responsables 1
eo 0.3802398851713623
relev@@ 1
Lan@@ 1
acher 1
user 1
Champ@@ 1
dict@@ 1
vul@@ 1
Person@@ 1
confirm@@ 1
municipales 1
fruits 1
rare 1
traite 1
Vend@@ 1
ministr@@ 1
we@@ 0.18589384336134746
jan 1
Open 0.5780879572797372
Pa@@ 0.9488434048614521
Ci@@ 0.9773664768818845
76 0.7067067214324185
ory 0.27100196273899596
correspondent 1
absor@@ 1
machines 1
fas@@ 0.7998398380813018
four 0.129948953072919
Plat@@ 0.5575555431400184
anges 1
Nu@@ 1
Ori@@ 1
contest@@ 1
radic@@ 1
Direction 1
anthro@@ 1
Anna 0.9018096465171488
Nom@@ 1
una 0.029314413926331034
glo@@ 1
Lab@@ 1
utes 1
test 0.6257921155050847
.. 1
bol@@ 0.8074036059413062
86 0.7236291343086698
Cab@@ 1
Vit@@ 1
Walter 0.7925472311735979
DVD 0.9239175855963194
evard 1
ham 0.6381549347479306
Arab@@ 1
Sel@@ 0.6091377317478645
isser 1
Comm@@ 1
orth@@ 1
alp@@ 1
heb@@ 1
ute 0.5305733902928668
Direc@@ 0.976688414593053
Karl 0.5619079933865492
ington 0.5059146627197095
Fa@@ 1
Dol@@ 0.836622174977868
Roch@@ 1
Rap@@ 1
sible 1
Situ@@ 1
pyr@@ 1
EP 0.8505698460985927
enqu@@ 1
150 0.693109371158877
cho 0.1593691513345989
Kor@@ 0.48341886749932084
Bâ@@ 1
Mer 1
transformation 1
ourg 1
pis@@ 1
Boston 0.6732661516262759
innov@@ 1
91 0.7456169778856662
RC 1
ord 0.9050636216501255
\ 1
eri 0.7485828275542202
affirm@@ 1
consol@@ 1
lies 0.3546480023449186
Lig@@ 1
Kam@@ 0.6852520090278637
ine@@ 0.7942709964095279
efforts 0.9505050461795005
agents 1
Loc@@ 0.6898098389925862
Fland@@ 1
Nic@@ 1
tropolit@@ 1
Street 0.27124721592063605
Pre@@ 0.3565815918108628
fera 1
Pen@@ 0.4940812570985605
ron@@ 1
sym@@ 0.936782516696296
94 0.7351724031908824
baseball 1
alien 1
abol@@ 1
usi@@ 0.9266813064837642
transmission 1
oll@@ 0.5520905639873936
erre 1
aph@@ 1
ist 0.02124515962514762
secret 1
Nancy 1
ć 1
rose 1
recher@@ 1
champi@@ 1
78 0.732010884184953
Bab@@ 1
Chili 1
ius 0.9456785475496982
ament 1
1906 0.7478312460475384
austr@@ 1
1880 1
comment 1
aul@@ 0.9847580039823056
sent@@ 0.675294795419154
dri@@ 0.5841462337421982
propul@@ 1
Vel@@ 1
Tra@@ 1
Guy@@ 1
acle 1
han 0.3324573369983285
Ford 1
continent 1
spec@@ 0.5866743916714817
Hau@@ 1
aç@@ 1
Pres@@ 0.40237087803998856
Jones 0.6383897461946406
pel 1
Roc@@ 0.9116765027589584
asti@@ 1
iro 0.9065213304825132
séri@@ 1
well 0.08450755267313324
ock 0.4559955837818705
oyer 1
hectar@@ 1
uve 1
Front 1
introduction 1
cup@@ 1
recens@@ 1
cht@@ 0.821786710768045
ech@@ 0.3894727477429429
Rob@@ 0.9017806302606691
touch@@ 1
sports 0.6852351343207305
wa 0.32602624847077716
caract@@ 1
terror@@ 1
99 0.6824806357291666
US@@ 0.59876376991681
publications 1
fal@@ 0.5573785914617447
edi 1
ui 1
pollu@@ 1
syst@@ 1
1907 0.731430209145913
coalition 1
vière 1
pre@@ 0.11495006198749953
Grenoble 1
tonnes 1
Red@@ 0.5483587869175898
intention 1
sanctu@@ 1
aste 1
ke@@ 0.2795178781530776
changes 0.6135506704781502
Guin@@ 1
Wor@@ 0.3783301536284871
agres@@ 1
économ@@ 1
enterr@@ 1
dition 1
ral@@ 1
02 0.7690593828912221
Rouen 1
définiti@@ 1
collectiv@@ 1
vier 0.3523899936477214
uf 1
allo 1
Lec@@ 1
cm 0.5350207060553862
84 0.7200084459930578
german@@ 1
89 0.7806915370548915
traj@@ 1
bone 1
mm 0.3848795191672957
Q 0.7497790158980339
atus 0.6894927937325595
instrument 1
nées 1
destination 1
franchise 1
fant@@ 1
méda@@ 1
ua 0.5663073551219961
Dau@@ 1
hie 1
expres@@ 0.6823544513292548
facilit@@ 1
92 0.7403048517165202
appe 1
institution 1
rection 1
productions 1
Rel@@ 0.5191413074919389
cler@@ 1
Naples 1
59 0.7125660464606407
rey 0.4445749332810075
Z 0.6451826721438825
alim@@ 1
adj@@ 1
Anti@@ 0.9491671445167088
ika 0.7187406324088558
onom@@ 1
mente 1
canon 1
anda 0.7923340372541268
istre 1
Mis@@ 0.8150441618627292
ficie 1
Not@@ 0.6264665330604782
Cham@@ 1
vé 1
influ@@ 0.8661463085964172
domesti@@ 1
wood 0.3536532151384482
Y 0.5190082628482867
Victoria 0.6814180570442229
Ali 0.9794366809853142
Varso@@ 1
eccl@@ 1
cost@@ 0.8541358778650118
Tu@@ 0.7427381214417488
ill 0.4098469557980252
dimension 1
porta 1
crist@@ 1
itage 1
Cot@@ 1
quer@@ 1
approxim@@ 1
PC 1
Awards 0.40613181246176944
1904 0.7497958068814948
offensive 1
Dal@@ 1
Ig@@ 1
régi@@ 1
Isab@@ 1
ä@@ 0.1228142542078652
ases 0.8660379016996064
1901 0.8156732651813997
Rich@@ 1
Slov@@ 1
osa 0.36108537080457276
87 0.7582596862473207
1915 0.628047592979812
kar@@ 0.40730273153250235
stock@@ 1
Manuel 0.8934989652213097
sculpture 1
ury 0.9424124246728594
rab@@ 1
Sin@@ 0.6021199856477419
hon@@ 0.46273659316725496
Pier@@ 1
Montpellier 1
cu 1
clin@@ 1
Blan@@ 1
Lin@@ 0.5569481694261479
red@@ 0.7038866497091751
ath 0.38273906971336064
restr@@ 1
Pel@@ 1
IE@@ 1
lan 1
Lors@@ 1
amateur 1
mê@@ 1
figures 1
orph@@ 1
clip 1
trom@@ 1
Adam 1
Williams 0.6433824624941064
Don 0.6175714292099688
assistant 0.8838478036693468
guitar@@ 1
lav@@ 1
aver@@ 1
1860 1
ny@@ 0.999230654818006
serve 0.6885733951066826
vidence 1
maximale 1
Parall@@ 1
Pri@@ 0.5657108074870232
stell@@ 1
Salon 1
val 1
Rouge 1
op 0.6032634675815014
poss@@ 1
los@@ 0.5935045751764886
1890 0.8593554381674007
andi 1
civ@@ 1
vide 1
ago@@ 1
pers@@ 1
ald 0.9431067516950956
norm@@ 1
otr@@ 1
acces@@ 1
Activ@@ 1
expansion 1
Ferdinand 1
Tours 1
Composition 1
dres 1
ener 0.449408235634687
èrement 1
elier 1
Man 0.4486760302013411
AR 1
apos@@ 1
oué 1
dil@@ 1
Carlos 0.5838907041407737
attr@@ 1
Corn@@ 0.8306617899692261
Les@@ 1
P. 0.7376993687063709
Auvergne 1
etta 1
simples 1
ulu 1
1909 0.7142707201659283
ax 1
acquisition 1
parall@@ 1
César 1
fich@@ 1
Pas 1
98 0.681827528488537
Metz 1
perman@@ 1
charges 1
idi@@ 0.6325657409636691
fur@@ 1
Ka@@ 1
reb@@ 1
Ł@@ 1
Rh@@ 1
oride 1
Sen@@ 0.5176422667462934
faç@@ 1
relative 1
ende 0.15281546632712684
dies 0.5949929751789621
Mu@@ 0.4615763371180093
the@@ 0.2480050182905244
Joe 0.7483917139817139
proclam@@ 1
roch@@ 1
haus@@ 1
Sir 0.5227498735938726
orbitales 1
participants 1
compren@@ 1
pros@@ 0.6650675100429156
éry 1
Ga@@ 1
Buc@@ 1
ivent 1
Nat@@ 1
Alexander 0.5014272836700412
fort@@ 1
Tourn@@ 1
Giovanni 1
emis 1
épis@@ 1
Ot@@ 1
escope 1
Fac@@ 0.7846515673380758
uns 1
Gilles 1
rique 1
Ach@@ 1
pharm@@ 1
verg@@ 1
quin 1
reconstruction 1
Society 0.3429344323269323
pit@@ 0.8717378965460308
1916 0.6234696235374875
gares 1
gn@@ 1
RT@@ 1
Mak@@ 0.7551018879839632
ado@@ 1
traits 1
ffe 1
ibl@@ 1
cio 0.7590699604656783
dis 1
minim@@ 1
ett 0.37710721898018595
incorpor@@ 0.8658935941573543
XIII 1
propor@@ 1
gor@@ 1
nau@@ 1
acts 0.6169834540342967
Chem@@ 0.9719014442323494
cum@@ 1
observation 1
S. 0.5675472581850697
uri 1
Maj@@ 1
communications 1
IC@@ 0.7980928300134389
claves 1
divor@@ 1
Pot@@ 0.9214736642111477
08 0.6646425539846227
ever 0.3263132597008805
applications 1
01 0.6969222246422111
ann 0.8259723819080389
Versailles 1
sph@@ 1
zy@@ 0.982194522362965
Lem@@ 1
villa 1
Hans 0.6258641885436536
Love 0.5116644329055855
err@@ 0.48536242054434303
Cel@@ 0.8943211851684847
cules 1
Pav@@ 1
Tit@@ 0.7470979896228281
Sac@@ 1
bord@@ 1
fum@@ 1
conces@@ 1
Capit@@ 1
Acc@@ 1
espagn@@ 1
Vir@@ 0.8782142756621766
astron@@ 1
aper@@ 1
ids 0.44623803274003493
Samuel 1
cham@@ 1
ech 1
ingen 0.3284728477728585
pop 0.7042247210417262
oxy@@ 1
virus 1
çu 1
pes@@ 1
expéri@@ 1
dimensions 1
import@@ 1
ota 0.6275392691214919
Win@@ 0.5598928141712505
Chapelle 1
écol@@ 1
1848 1
oul@@ 1
NBA 0.9852856119263852
len@@ 0.3369304788480008
crime 1
danger 1
laur@@ 1
œur 1
Pér@@ 1
convention 1
po 0.6419896874113703
urgie 1
magné@@ 1
confl@@ 1
Son@@ 0.72735444857373
On@@ 0.8645276433024157
Carl 0.7068701647883034
acier 1
abe 0.9714000135394835
raf@@ 1
tige 0.6281051943562331
bis@@ 1
trophe 1
oque 1
lés 1
mam@@ 1
spiritu@@ 1
ce@@ 0.3631829352993437
Rennes 1
signature 1
mail@@ 1
Adri@@ 1
oy 1
Tol@@ 1
SP@@ 1
ava 0.9356846309476891
Tam@@ 0.9982026238742636
anth@@ 0.909218093259073
Antiqu@@ 1
yle 1
bons 1
hand@@ 0.2931059981728022
inqui@@ 1
Johnson 0.6114614067830398
occ@@ 1
rog@@ 1
Kon@@ 0.2864861853084705
Jos@@ 1
Ky@@ 0.931682738523609
adis 1
Lac 1
tend 1
abl@@ 0.7652256633668976
TE@@ 1
terrestre 1
stru@@ 1
erne 1
ander@@ 0.6624631380655046
enz@@ 0.3381862548938732
mo 0.6262740585302681
1902 0.7451067636210733
post 0.358031642758549
ouvr@@ 1
ew@@ 0.3374342439198919
rain 1
Toronto 0.7694096494387016
dent 1
za@@ 1
ço@@ 1
Jam@@ 1
Virgin@@ 1
çoit 1
candid@@ 1
Fou@@ 1
FA 0.7981209827478452
junior 1
All@@ 0.5918521237533272
RS 1
06 0.7264373837735628
Hay@@ 0.7377967784109348
istan 1
cousin 1
Palmar@@ 1
Oise 1
69 0.6934255186806232
migration 1
Hug@@ 1
sid@@ 1
Mic@@ 1
immédi@@ 1
ukrain@@ 1
Dun@@ 0.7060217611296652
quier 1
1830 1
ters 0.15213827048195702
Jan 1
indig@@ 1
lun@@ 1
éroï@@ 1
uter 1
Dre@@ 0.5062316058820903
bau@@ 0.5766678894157091
Ontario 0.8321889371875537
Amsterdam 1
R. 0.6631092755134433
camps 1
Aix 1
Wol@@ 0.6063225320634557
bo 0.8986229739707386
annes 1
Tim@@ 0.7722640701098327
itr@@ 1
L. 0.7766992390602706
VII 1
inj@@ 1
Racing 1
abr@@ 0.8514540442490834
ū@@ 1
cible 1
orial 0.6954584248021012
champ@@ 1
Brown 0.5339778688162241
1903 0.7211712003940561
carr@@ 1
satis@@ 1
tern@@ 1
Gil@@ 0.9704181266122327
libres 1
gaz@@ 1
non@@ 1
tific@@ 1
consul@@ 1
ections 0.9712329675444623
Barr@@ 1
od 0.4725966811784721
ee 0.2939773334824211
examen 1
env@@ 1
Cant@@ 1
Da@@ 1
Alliance 1
niers 1
All 0.188150112391796
Ernest 1
Ami@@ 1
capac@@ 1
clients 1
Hill 0.4395299358019696
manif@@ 1
Arn@@ 1
SE@@ 0.752962504853321
Boh@@ 1
Kong 0.7318512215456356
UA 1
anime 1
DC 0.8090621837908745
hen@@ 1
capital 0.32413398980359465
tru@@ 1
salon 1
refl@@ 0.7423620434844819
Deu@@ 1
D. 0.44532740704407286
protec@@ 1
Dum@@ 1
bus@@ 0.6297830261207398
mess@@ 1
cancer 1
Félix 1
respect 1
gue 1
Temple 1
Ku@@ 0.6748221314903001
music@@ 1
Sem@@ 0.7356508320651888
Fol@@ 0.6461697646315959
urn@@ 0.6752190888295886
paro@@ 1
Cup 0.18059100821934815
aya 0.41739855730510206
ese 0.14310257167768262
gies 1
Cass@@ 1
ducation 1
Ob@@ 0.7038977999798035
jury 1
Bot@@ 0.5526994625473242
group@@ 1
AM@@ 0.7872490066609381
mobile 1
trag@@ 0.5568970354966807
Mart@@ 1
Bill 0.6218618787275398
Cad@@ 1
burg 0.29638689957559533
ress@@ 1
gri@@ 0.9954835277824925
servant 1
Gren@@ 1
Jackson 0.694060589202034
Kan@@ 0.49921222133892085
minimum 1
Harry 0.853140296150169
White 0.36833406044779554
Ard@@ 1
Mars 1
Bavi@@ 1
Chris 0.7899909389940658
ouvern@@ 1
colonies 1
Som@@ 0.9822714799964044
Aub@@ 1
cass@@ 1
web 0.9484939346088939
pertur@@ 1
tap@@ 1
atten@@ 1
ene 0.1571523650818227
gard@@ 1
opo@@ 1
Herz@@ 1
molé@@ 1
Four@@ 1
pos 1
bin 0.9341522099001162
Tem@@ 0.7492817891598151
admir@@ 1
Convention 1
E. 0.5816763838191389
adémie 1
afflu@@ 1
doctr@@ 1
Blanc 1
Navy 0.46622019719597624
dial@@ 1
Bag@@ 1
07 0.6809199076781395
sag@@ 1
omb 1
83 0.6856577330102526
discus@@ 1
Chan@@ 1
Bruno 1
préci@@ 1
repos@@ 1
établ@@ 1
PS@@ 1
attend@@ 1
cus 1
oa 0.6755004608675185
Flor@@ 1
Tan@@ 0.6214474751886574
obst@@ 1
perspective 1
ę@@ 1
Reims 1
Rose 1
Tony 0.9294412037588604
provin@@ 1
itude 1
Nationale 1
psychi@@ 1
ums 0.2778096697111493
arron@@ 1
stati@@ 1
House 0.1851475399654112
Van@@ 1
narr@@ 0.8474943782942089
ë 1
mom@@ 1
homosexu@@ 1
Martin@@ 1
cide 1
color@@ 1
gris 1
1793 1
bal 0.8382161305045694
Hum@@ 0.7796512514806159
pren@@ 1
Constantinople 1
oud 1
ignan 1
modific@@ 1
confront@@ 1
Field 0.8900879951167773
podium 1
sections 1
chanc@@ 1
branches 1
sey 0.6553402417837486
Pir@@ 0.9181037878343683
hou@@ 1
1898 0.7607649595017351
dol@@ 0.7451697284543816
ingue 1
gio 1
hosp@@ 1
Museum 0.30095771673330046
Saône 1
aspects 1
Clermont 1
tribu 1
ec 1
Concer@@ 1
cardi@@ 1
Hou@@ 1
inspec@@ 1
optim@@ 1
message 1
Cau@@ 1
Rock 0.508382959934182
ved@@ 1
West@@ 0.34843836647310533
Wat@@ 0.742955829797237
gel@@ 0.18197077491876432
conflu@@ 1
conduc@@ 0.6002682894042398
1871 0.9736765865359229
AN 1
low 0.20643287411518732
Nag@@ 0.7929119429417726
tam@@ 0.846718612646366
Team 0.3438762233781039
prestigi@@ 1
Big 0.4783207684672663
Lau@@ 0.9181584464960326
Mike 0.7411832364853375
mexic@@ 1
Sw@@ 0.46258603718083247
Liber@@ 0.6851113020228596
Fu@@ 0.5829703153824878
Ash@@ 0.613224044980079
tons 1
enberg 0.6380914372334955
ago 0.44164526233225343
Lit@@ 0.8951183947056459
Maine 1
You 0.3645832039085736
médec@@ 1
ergie 1
abeth 1
iy@@ 0.6146524335090229
rh@@ 1
has@@ 1
regard 1
ake 0.2894999334251061
Ball@@ 0.7339431263722276
maî@@ 1
Sport 1
Europ@@ 0.806704991441605
Young 0.5498609730189794
ip@@ 0.6570204755610785
itat 1
Envir@@ 1
Roland 1
ension 1
Aquitaine 1
Steve 0.8036988369712782
plas@@ 1
nien 1
Rue 1
Canal 1
tiles 1
lines 0.4341008040415123
professionn@@ 1
cription 1
Production 1
One 0.1855322019443309
arre 1
nobles 1
Wi@@ 0.7305383345137678
tension 1
05 0.6420111105916375
Bell@@ 1
Vis@@ 0.7950742059518445
Orch@@ 1
Sports 0.705876957712332
1896 0.7751532644968182
agan 1
IX 1
Cul@@ 1
Ret@@ 1
sanc@@ 1
Hen@@ 0.8552700586693501
tut@@ 1
proces@@ 1
14,@@ 1
curr@@ 1
wan 1
Shi@@ 0.5825244525454337
amor@@ 1
Log@@ 1
synth@@ 1
Pass@@ 0.8509711412091405
Fle@@ 1
Kur@@ 0.37507763855781334
Mans 1
syl@@ 1
esté 1
eti@@ 0.420951512468218
Off@@ 0.4907195200904714
naval 1
endro@@ 1
Diff@@ 1
Hong 0.7007063482845779
pion@@ 0.9565701346264438
Calais 1
Kin@@ 0.6070678355660706
lès 1
Chau@@ 1
11@@ 0.660720434771007
Top 0.5558388023861981
cen@@ 1
ity 0.06821219403512836
mensu@@ 1
jo 0.3095610836018047
OS 0.8205158235337632
ube 1
Conn@@ 0.944653569902431
guer@@ 1
Jar@@ 1
Bob 0.7747731056738938
Code 1
impul@@ 1
gau@@ 1
vus 1
Bureau 1
eth 0.5467600025086155
magistr@@ 1
diz@@ 1
fres@@ 0.7437241764483005
Sk@@ 0.5781920396076647
path@@ 0.9603006381606468
conventi@@ 1
Conservat@@ 1
australi@@ 1
Sz@@ 0.9506449160614773
opinion 1
Arg@@ 1
1889 0.848705523280832
olo 1
house 0.17032136067066495
Bulgar@@ 1
sovi@@ 1
moy@@ 1
CI@@ 1
asin 1
Chal@@ 1
satellite 1
CS@@ 0.9236558529245972
Pro 0.8338870775435447
portraits 1
lante 1
Lincoln 1
ř@@ 1
aviation 1
Gou@@ 1
physi@@ 1
97 0.6621387312284991
esque 1
Cher@@ 1
sprint 1
neutr@@ 1
Madeleine 1
Charlotte 1
Six 1
vet 1
super 1
impossible 1
ž@@ 1
vill@@ 1
ibles 1
notes 0.9393207626437642
Soc@@ 1
inspiration 1
iment@@ 1
rez 1
anique 1
UN@@ 0.7211235951373166
affili@@ 0.7768995364561434
internet 1
ieur@@ 1
garanti@@ 1
chien 1
Johann 0.4693661667099419
liber@@ 0.5544759297190195
1895 0.7569264301080705
flot@@ 1
Pad@@ 0.7468098764262187
Eric 1
Award 0.24197463418589155
Bonn@@ 1
grandi@@ 1
Nam@@ 0.9592409957606579
Bus@@ 0.5999368478549473
argum@@ 0.8976748186324695
AD@@ 0.9110176762264738
CA 0.8978223782306635
Leg@@ 0.36289768241659026
fantas@@ 1
04 0.6735017966352859
bs 0.36476753573829
clan 1
gen 0.20171800203263426
North 0.13027071680173283
Bak@@ 0.8573749636410366
wall@@ 1
hr@@ 0.43358333261532156
suscep@@ 1
alla 1
erte 0.211154655921233
king 0.15782888528180625
probable 1
circons@@ 1
Pascal 1
restaurant 1
{ 0.7859781922287118
ensi@@ 1
han@@ 1
└ 1
1850 1
prest@@ 1
× 0.6838974319904755
Deb@@ 0.680227984817116
$ 0.10263158453005819
ras 1
Ble@@ 1
tribus 1
eville 1
ologi@@ 1
top 0.18127905271771844
Clar@@ 0.8220332412431296
Cir@@ 1
bar 0.2290623222989132
instruction 1
ø@@ 0.688600962631304
anz@@ 0.370944507096581
occidental 1
ther 0.45610596366444717
prison@@ 0.6195671448408895
bury 0.5695377311152422
Diego 0.7511262040000509
Miss 0.8521391329331149
cous@@ 1
tor 0.15526053387294209
Post@@ 0.8923318503538892
Star@@ 0.49759672750143946
kr@@ 0.3123659648206108
H. 0.5482939683418617
Route 0.4521641399640555
1885 0.8264042685906834
1899 0.719410624684735
Mario 1
conform@@ 1
support 0.20314201391966155
Toul@@ 1
600 0.575348629782982
03 0.680302618860108
Res@@ 0.2824150233964827
Sing@@ 1
tox@@ 1
traditions 1
urt 1
photograp@@ 1
tois 1
Kol@@ 0.35807891446864554
variable 1
Garde 1
Sophie 1
chrom@@ 1
Prot@@ 0.4583891612975142
solutions 1
urg 1
technologies 1
Group 0.256308848028958
Island 0.27572608235849005
evi@@ 1
Sul@@ 1
aria 0.2648740471451072
sax@@ 1
din 1
Bla@@ 1
circu@@ 1
elin 1
Benjamin 1
sold@@ 1
09 0.6047616624087535
Eff@@ 1
lu 1
portation 0.803218662259885
ader 0.5831840956103974
enter@@ 0.6213470577948744
Donald 0.9804661900867131
studios 1
over@@ 0.18611393504177423
Blanche 1
asa 0.8315173311087408
foss@@ 1
dra@@ 0.47434382564220534
Alexand@@ 1
800 0.5945727153022063
primiti@@ 1
gâ@@ 1
fra@@ 1
distinction 1
future 0.46002734011418894
1893 0.8057583452119669
café 1
sky 0.5076193854905925
“ 0.02393343039733602
matches 0.47074977891920844
AP@@ 0.7913564456864947
sessions 1
1897 0.7178945690651939
morph@@ 1
tibles 1
Elizabeth 0.6326039647181207
Center 0.2702129966566321
continental 1
MA 0.7958936289728298
incap@@ 1
kilom@@ 1
G. 0.7307620014355967
ska 1
chance 1
auto 1
phénom@@ 1
arti@@ 0.9561107749258482
diver@@ 1
aristoc@@ 1
Friedrich 0.4053415589835838
osp@@ 1
vo 0.46074033324365543
metal 0.589032230000394
graph@@ 1
Cri@@ 1
13,@@ 1
aum@@ 1
net@@ 0.5074667855800873
minute 0.7890731390227773
cus@@ 0.6976100091142958
Brest 1
investi@@ 1
Hamilton 0.9018934929595245
Princip@@ 1
Carlo 1
extra@@ 1
migr@@ 1
ons@@ 0.37270458666730605
stric@@ 1
fasc@@ 1
ish 0.19760742191180178
Indi@@ 0.4898911713523493
chers 0.9554432541241471
Alice 1
isième 1
descendants 1
DA 1
pli@@ 1
approv@@ 1
Kn@@ 0.489962407262931
plic@@ 0.8504574190550694
incendi@@ 1
dém@@ 1
emble 1
diagnos@@ 1
rates 0.9298439538140663
Centr@@ 1
Luis 0.5516023691131973
set 0.12683304602917522
nit@@ 1
eng 0.6711557472896357
indis@@ 1
A.@@ 0.7298970358713099
DE@@ 1
gi 1
Hitler 1
CH@@ 0.8932402025823152
ple 1
Dec@@ 0.38254308674169357
tia 0.6521146192613436
thiop@@ 1
Architecture 1
virtu@@ 1
oma 0.42260643958417315
Office 0.5883895847119497
Wo@@ 0.6113910244512303
Tab@@ 0.6589597438202887
paci@@ 1
Gran@@ 0.9078713148506232
act 0.2274298310167433
courts 1
ause 0.8533308189652222
leg@@ 0.18831123836864763
Point 0.7909490527359273
ism@@ 1
Alli@@ 1
1867 0.9616868534227232
simultan@@ 1
Hugo 1
répon@@ 1
divin@@ 1
1790 1
Adol@@ 1
Gusta@@ 1
Lag@@ 0.9394906739816425
Sciences 0.838259902147933
ondes 1
fabric@@ 1
noi 1
Alphon@@ 1
surprise 1
pic 1
bran@@ 1
ruption 1
enl@@ 1
thr@@ 0.46207344604370676
Place 1
umin@@ 1
Publ@@ 1
seu@@ 1
mad@@ 0.6327834953077192
omp@@ 1
ud 0.8011256341756638
imb@@ 1
imoine 1
écu@@ 1
banc@@ 1
Chin@@ 1
Survey 1
pro 0.5415477162008633
Justice 0.6799762751270529
Sho@@ 0.5918181546155216
Moselle 1
Riv@@ 1
mini 1
arrang@@ 1
Phil@@ 0.8069014118682073
MS 0.7937705645243701
Formation 1
alis 0.7279346789066642
Bah@@ 0.595928541715929
tum@@ 1
serves 0.7455985599598487
liqui@@ 1
Bertrand 1
Kou@@ 1
Fern@@ 0.9043374707087416
Fig@@ 1
incer@@ 1
ER@@ 0.6483606637252974
suppl@@ 1
12,@@ 1
Covid 1
Nik@@ 0.9726677848089494
plate 1
Irak 1
larg@@ 1
pilot@@ 1
vertic@@ 1
Mod@@ 0.5541192650851097
amide 1
Ry@@ 1
” 0.07396525207408891
patients 1
pian@@ 1
eva 0.9961597894517251
Corps 0.5726736317752876
deste 1
rass@@ 1
compati@@ 1
opol@@ 1
aran@@ 1
MP 0.8795081696520012
Pos@@ 1
substitu@@ 1
entreten@@ 1
shire 0.4954803156855733
grand@@ 0.49927033103007623
lumin@@ 1
Haw@@ 0.5987314449080648
tests 1
AT@@ 0.6854663791836608
ū 1
tunnel 1
oc 1
ando 0.08401699669545588
mill@@ 0.9593254311558407
Illinois 0.5438282134174626
Roy 1
server 1
1892 0.767907638304752
Sub@@ 0.32907753907300485
tan 0.33652629594071826
Lewis 0.7316005827009909
eto 0.47877265224349264
miss@@ 1
Wilson 0.6317673630529411
00@@ 0.5266494134478021
Sydney 0.5756719386070569
British 0.1111258240878258
constante 1
oslav@@ 1
photo 1
ú@@ 0.33990384739740925
entrepren@@ 1
ident@@ 1
Natur@@ 0.5838819003094924
ji@@ 1
till@@ 1
licenci@@ 1
artisti@@ 1
Bay 0.3458983548383165
initial 0.6732174957972622
XIV 1
Chamb@@ 1
onge 1
concili@@ 1
bien@@ 1
romanti@@ 1
rur@@ 1
bis 0.0370039145303608
Augus@@ 1
1789 1
drome 1
eures 1
RI@@ 1
Gh@@ 0.992896984524661
dus 1
configur@@ 1
ula 0.6749494328352136
ister@@ 0.7527235969485544
Ric@@ 1
kl@@ 0.2472390294261465
iteur 1
nombres 1
win 0.16561885223074987
èves 1
1840 1
ken 0.11041589537387014
sul 1
Pil@@ 0.5577594891288292
Om@@ 1
Monaco 1
God@@ 0.9779062804552703
frac@@ 1
Ass@@ 1
hyper@@ 1
oine 1
endum 1
tribut@@ 0.6853964850337042
Xavier 1
1881 0.8679846380957914
Hauts 1
Dist@@ 1
tification 1
sl@@ 0.47095358502612666
municipal@@ 1
gan@@ 0.5308460569577743
issues 0.43047089736274385
Lausanne 1
ST@@ 0.9055083161882498
opus 1
option 1
subst@@ 1
auth@@ 0.5669201216856888
affa@@ 0.9045916816213627
laine 1
Shar@@ 0.5859090669143299
occas@@ 1
onal@@ 0.5962684377735676
SO@@ 0.9399596086623245
æ@@ 1
enten@@ 1
signal 1
Anton@@ 1
Had@@ 1
Brun@@ 1
arbi@@ 1
élém@@ 1
1876 0.8866377210482341
notables 1
1878 0.8280390115504445
izi@@ 1
anus 0.963587845299023
IC 1
Canton 1
Oxford 0.6572829041588018
Rous@@ 1
philos@@ 1
Esc@@ 1
euve 1
Times 0.39455852032551275
eck 0.4019001036151747
culmin@@ 1
Zur@@ 1
Cla@@ 1
Alb@@ 1
1894 0.7437780848570476
compilation 1
Dav@@ 0.8774688502811293
Gilbert 1
émique 1
South 0.09280333894340423
terri@@ 1
iture 1
dans@@ 1
Davis 0.659079374221922
Rol@@ 0.7087752404630284
core 0.6268982365509765
possé@@ 1
stabil@@ 1
rag@@ 0.9251293948914776
orch@@ 0.8619253512040818
F1 1
Din@@ 0.7541868306243488
F. 0.5843052865287583
simul@@ 1
susp@@ 0.8488023467634418
onge@@ 1
1886 0.8053101350344534
trib@@ 1
onau@@ 1
mang@@ 1
CD@@ 0.6228559433051044
permanente 1
refu@@ 0.7777482145112055
olet 1
Rav@@ 1
Windows 0.6785827773294406
ight 0.26194649832340816
Ant@@ 0.6624503763622578
ye@@ 0.5711031561563901
vera 1
oton 1
ín 0.3679385806448374
compositions 1
cap 1
Jersey 0.538905768407346
joint 0.8795941871518022
ator 0.13070677287747154
Ober@@ 0.16178427796003186
Renault 1
eton 1
W. 0.5076264633051231
patron 1
Champagne 1
iefs 1
Alex 1
Research 0.39814936335279455
interrog@@ 1
Hamb@@ 1
onia 0.5334229725782379
ó 0.036401392999642984
live 0.24374802419663694
iff@@ 1
Mik@@ 1
Ki@@ 0.5127969489870083
uma 0.7046267021239103
Fem@@ 1
etto 1
London 0.13139304697041979
ayer 1
In 0.010062906308752983
Voy@@ 1
Championship 0.22607278009667064
quelle 1
Live 0.5650683485153177
Philadel@@ 1
algorith@@ 1
istr@@ 0.7689352728921148
infrastr@@ 1
Rot@@ 0.5461745138008179
brill@@ 1
Sher@@ 0.7232181438035072
ast 0.25042167045211255
chet 1
bombar@@ 1
São 1
Vladimir 1
Mid@@ 0.549987687232217
District 0.1477945107853395
graves 1
Explorer 1
cyc@@ 1
ectives 1
Taylor 0.6126241799552486
we 0.1979672815747779
120 0.6634856336752422
Porto 1
Jacob 1
enger 1
airs 0.6939387371838565
roy 1
UCI 1
iki 0.46461608618483635
las@@ 0.5476897140432054
zan@@ 1
Boy@@ 0.8847676656251275
CC@@ 0.9385052778607398
arbus@@ 1
Blue 0.49947096332304275
Lat@@ 0.5680719800577797
Canadi@@ 1
Juli@@ 1
adi 0.9315414851130205
rebel@@ 0.7370993738665073
Kim 0.6819503635179278
Venezuela 0.8228647933561634
1888 0.7518977283090729
VIII 1
Hydro@@ 1
ption 1
But@@ 0.9526793387813602
éten@@ 1
250 0.6229077504490059
amas 1
ft 0.16170804645550393
cau@@ 1
kg 0.6936899407762904
kov 1
districts 0.8624915346280805
Tran@@ 0.8738549938281946
1882 0.8377094089051862
idar@@ 1
Max@@ 1
kov@@ 1
imag@@ 1
Met@@ 0.48382767195324317
sex@@ 0.742803016762388
Rub@@ 1
Real 0.48520875057813817
Stan@@ 1
filtr@@ 1
Turin 1
gs 0.3348031687389335
ack@@ 0.20883414459334865
agi@@ 1
ido 0.13294561623443255
pir@@ 1
state 0.08773818080161475
sson 0.9189038112176923
nam@@ 0.329819750849069
1891 0.7219638540070038
créd@@ 1
lob@@ 0.7991689560349281
talent 1
Me 0.4764618510793567
Bres@@ 1
Nan@@ 1
ude 1
report@@ 1
merc@@ 1
satell@@ 1
das 0.01827253253066436
Mess@@ 0.8874097708993806
design 0.24116786026562576
timents 1
1884 0.7974499157207344
eri@@ 0.3073354763331011
ignor@@ 1
Moul@@ 1
fa 1
Lanc@@ 1
preuves 1
agement 1
eure 1
Long 0.4924333141398818
dir 0.45388901137076815
tal 0.3355177551854317
dévelop@@ 1
ticul@@ 1
Gon@@ 1
ista 0.18068352889863049
1000 0.48490433376746195
anna 0.7273022468513605
Aires 0.6516933484285119
ilde 1
ologies 1
Ast@@ 1
Bourbon 1
mono@@ 1
Cuba 1
éal 1
kan@@ 0.34734931625110077
Pod@@ 1
ope 0.7312245840548287
Castil@@ 1
contribution 1
avant@@ 1
isons 1
centrales 1
Green 0.39870311606087655
Arc@@ 1
aid@@ 1
Mill@@ 0.8945187701866198
ng@@ 0.2870609333017528
University 0.053251181025459865
Š@@ 0.9477746493691196
undi 1
manipul@@ 1
invit@@ 1
yes 1
Sun@@ 0.5667921070807186
Film 0.1673186889618333
Pennsyl@@ 1
wald 0.5929235286250829
alle 0.2146690842382645
azi 1
Madame 1
Cannes 1
argent@@ 1
mir 0.918724578565855
orie 1
Kas@@ 0.4850946729125017
radio@@ 1
bit@@ 0.6408848269765806
Stephen 0.6909051386493202
oke 0.4811959172045875
ect 0.17213123355259458
atori@@ 1
yan@@ 0.7480686299918319
musulman@@ 1
Oscar 1
Franz 0.6009173523808681
Laf@@ 1
lige 1
Fiat 1
DF 1
Institute 0.24370403725753403
ă@@ 0.8607416852978813
Vé@@ 1
esclav@@ 1
causes 1
Che@@ 1
mel@@ 0.2649773099524182
motiv@@ 1
Sum@@ 0.46612958752757105
implic@@ 1
nik 0.8121083959809936
Mohamed 1
BBC 0.46105504257006336
Nam 0.33351288512495
Emp@@ 0.7894701786984833
indu@@ 1
yo 0.6379266331522935
titr@@ 1
ö@@ 0.14118074486366905
oslov@@ 1
maj@@ 1
Suz@@ 1
Francesco 1
kin@@ 0.6108369444347125
rural 0.481968875748934
sap@@ 1
1887 0.7592740542199433
blin 1
monum@@ 1
ken@@ 0.28922570452883656
Div@@ 0.6557796624603527
Ev@@ 0.43344776396448464
Mér@@ 1
River 0.13443021820683143
hir 1
II@@ 1
icon@@ 1
partement 1
rand@@ 1
Brian 0.7746029548909068
key 0.30083926259972416
Gaulle 1
† 0.19198624980814571
Tibet 1
Î@@ 1
tables 1
Face 1
tri 1
Profes@@ 1
Jim 0.6822384981625749
Indon@@ 1
Sm@@ 0.8134398524752239
ept 0.9849977504756184
Orange 1
ombe 1
brut@@ 1
curité 1
anal@@ 1
brig@@ 1
Wilhelm 0.43653497853228823
1875 0.8400518347966244
Concep@@ 1
essor 0.5452773818214474
tropic@@ 1
suspen@@ 1
insur@@ 1
Eli@@ 0.8075748675506136
tz 0.9313326713701614
coc@@ 0.9423549372153833
ashi 1
Sup@@ 0.7048869024581641
Pedro 0.5397813820814564
Syl@@ 1
Ind@@ 1
cryp@@ 1
gend@@ 1
Andr@@ 1
Wall@@ 0.979311876354019
ône 1
Hus@@ 0.7858892770399675
cé 1
Seg@@ 0.5951350031288153
Villa 0.7160769596670433
My 0.4241658991609532
Wide 1
Kl@@ 0.3213123015748036
psy@@ 1
Brunswick 1
volution 1
FM 0.5369592633800087
ept@@ 1
protoc@@ 1
Chir@@ 1
icop@@ 1
effort 0.7354048240380473
variante 1
more 0.04176576872054645
Territ@@ 1
prud@@ 1
Kaz@@ 1
Gros@@ 1
fans 0.771377810497747
Chron@@ 1
Sain@@ 1
Andrew 0.593324315470645
She@@ 0.5980271625443617
Ran@@ 0.4934779058710576
cend@@ 1
conv@@ 0.6454857883710876
musicales 1
1863 0.8028253779541654
Jane 0.9673629903562536
East 0.16496511709138267
Ivan 1
absol@@ 0.6461632544977742
00 0.29643080319822634
apie 1
Premi@@ 1
Buenos 0.6176841256146982
parent 1
oo 0.663262074876169
berger 0.6127489960383191
nh@@ 0.24228984084672786
carre@@ 1
iments 1
1883 0.8052185098313543
Philippines 0.7804279202246558
Mach@@ 0.7276046092588846
10,@@ 1
Lady 0.594860730505188
coordin@@ 0.6843688284909432
Infr@@ 1
Mam@@ 1
dal@@ 1
1868 0.8218906286488348
Ohio 0.429776265006481
inclin@@ 1
Sarah 0.9707072529584155
Central 0.1978369944932815
Alan 0.8802344578984922
nombr@@ 1
vacc@@ 1
Forces 0.9171600855725615
tribun@@ 1
gre@@ 0.2743056093323935
fruit 1
Card@@ 0.7688630443372025
Douglas 0.7690625921682637
ATP 1
rit 1
eller 0.33614257089513955
ben 0.1850255051685103
singles 0.559679288001891
eman 0.46831398994410167
17@@ 0.615431794339285
Whit@@ 0.5407067599613873
cord@@ 1
ications 1
amin@@ 1
tube 1
NE@@ 0.9397870579484944
yen 1
bic@@ 0.9374626874692301
1872 0.8292539351184279
Anthony 0.7882082896269996
alter@@ 0.6584486145147188
ili 0.7870594218281511
ô 1
suicide 1
Chel@@ 1
Kab@@ 0.8274683022761503
Tel@@ 0.4311700863203549
conversion 1
isc@@ 1
Sib@@ 1
mif@@ 1
agon 1
1815 1
Manchester 0.6697622330550335
ike 0.41638039659473197
mar 0.5082977039922931
Const@@ 1
comprom@@ 1
teuse 1
Prin@@ 0.8614243455060147
Johnny 1
å@@ 0.8405323910370731
Nou@@ 1
ace@@ 0.436471000315612
puis@@ 1
Cast@@ 1
habilit@@ 1
berge 1
asses 1
idence 1
umi@@ 1
Ji@@ 0.9567959597158862
interview 0.7080012459125559
tante 1
Reb@@ 0.6010452861238667
did@@ 1
ker@@ 0.3157883632052426
instruc@@ 0.7277687623888878
Cambridge 0.6649383203773731
New@@ 0.3790914655657899
ś@@ 1
Reich 0.9772243235987819
Trin@@ 1
ster@@ 0.2417184711358864
ão 0.8665121103008367
up 0.04110668648731795
Hur@@ 0.5661980042141679
réuss@@ 1
Kit@@ 0.7116527613726846
issance 1
Petr@@ 0.8983521162858068
1877 0.8027904483711061
Costa 0.7577328894500672
Gra@@ 0.6843214164682618
abri@@ 1
Monte 1
Alban@@ 0.9129916431353033
issements 1
Euro 0.6887186329669024
Xi@@ 1
App@@ 0.8655637623732909
Rech@@ 1
corpor@@ 0.5756833853765948
Bible 1
mig@@ 0.960349151672503
1865 0.7572079745601008
pend@@ 1
ku@@ 0.32533787289078436
Lap@@ 1
Département 1
ocy@@ 1
appropri@@ 0.9977235231862894
politi@@ 0.929079767923397
Nouv@@ 1
orit@@ 1
1861 0.7435418282145387
ric@@ 0.5894600772500385
Yam@@ 1
immun@@ 1
Camille 1
Cru@@ 0.9797604039480521
enfer@@ 1
worth 0.40695572308301714
inae 1
IM@@ 0.7541546164812942
Manche 1
ski@@ 0.8819426826506576
rum@@ 0.8249430058460916
ador 0.14438422401378137
ott 0.7548398371343942
rad@@ 0.904625080768635
Fro@@ 0.985674688001724
libr@@ 1
Cath@@ 1
avoc@@ 1
session 0.9248291206600369
Bog@@ 1
1873 0.7921440408739387
1864 0.7328638633114112
Sam 0.7564546087160804
eni 0.8823686825653648
attein@@ 1
suspension 1
Actu@@ 1
Dic@@ 1
AL@@ 0.8082032540288062
Sak@@ 0.7675045365685409
Vos@@ 1
1874 0.7988039630334627
jud@@ 0.537775571857459
ag 0.5038241496872565
Entertainment 0.56974235577636
Rod@@ 0.8728991250980154
Cé@@ 1
mini@@ 1
DJ 1
ebr@@ 0.5428574407505548
name 0.06528060129628821
Lon@@ 1
Series 0.3702613424532754
lus@@ 0.4962961286072282
Tos@@ 1
ting 0.0627564050302458
èce 1
Cô@@ 1
Kom@@ 0.22404958370384226
Burkina 1
lad@@ 0.3813401999889606
Agriculture 1
campus 0.5680905054293003
assistance 1
incident 0.9126233834845081
Bad@@ 0.5341266408238942
dates 0.7523014505035186
ń 1
1879 0.7545204483391276
condi@@ 1
feld 0.34119094972906594
Massachusetts 0.48331636959879215
ho 1
pist@@ 1
rectang@@ 1
cali@@ 1
subs@@ 1
1792 1
dur 1
astre 1
variantes 1
HMS 1
tain 0.4433626063429068
fall@@ 0.425357467215672
agricul@@ 1
ared 1
instrum@@ 1
valor@@ 1
Mun@@ 0.6447976321679886
pair 0.5120026315628312
ays 0.25563561831613185
ush@@ 0.4931086715926607
confes@@ 1
Aud@@ 1
Sour@@ 1
pid@@ 1
humor@@ 1
Lake 0.24351776710246542
phys@@ 0.43372915579255183
illo 0.4480067528193841
Faso 1
stantin 1
pun@@ 0.4292412630880151
aba 0.09827286996287402
Roche 1
clar@@ 1
èze 1
Arizona 0.6750932209875603
Ful@@ 0.6697407412568996
1862 0.7406620257881275
Corporation 0.4633158447875104
corruption 1
Laz@@ 1
dige 1
toman 1
Jer@@ 0.5714066671516933
vainqu@@ 1
wi@@ 0.5135677249379691
coff@@ 1
issa 1
FF@@ 1
ust 0.32278958103955
sens@@ 0.7830652599154185
RA 0.8941527410399674
comb@@ 1
Anj@@ 1
put 0.21499814845652201
Od@@ 0.9789801030857099
chlor@@ 1
adh@@ 1
Alexis 1
lor@@ 1
intern@@ 1
any 0.09578623012417273
visu@@ 1
uts 1
Soci@@ 0.6075878081596839
participa 1
raine 1
America 0.17674484968212326
irland@@ 1
Abraham 1
Belle 1
influences 1
GT 1
tible 1
crimes 1
old 0.11002347209836812
permanent 0.7518861685162141
esser 1
‘ 0.29143393156790715
islature 1
phosph@@ 1
intens@@ 1
gram@@ 1
nez 1
1869 0.8164161415933596
1,5 1
adu@@ 1
uh@@ 0.497382953851334
PA 0.6196111283101092
hip@@ 1
artic@@ 1
Action 1
1800 0.9532178311348283
clandest@@ 1
Kevin 0.8781496447613295
bill@@ 1
ost 0.5142756644090766
AM 0.6496414006359139
aveur 1
lements 1
rival@@ 1
simpli@@ 1
VI@@ 0.9453828710674452
Hi@@ 0.6200322320120112
AP 0.8589221733526998
apparti@@ 1
anien 1
Somme 1
dest@@ 1
Villen@@ 1
war@@ 0.1144336669191027
ein 0.018366059538980028
acul@@ 1
Bra@@ 1
AI@@ 0.812392609132702
marqués 1
edi@@ 0.24095843885139767
Pop@@ 0.6859937897456647
Khan 0.670984207036155
bir@@ 0.4132468065756227
aus 0.025471512041130868
Barth@@ 1
Dani@@ 1
not 0.023608739492874696
efs 1
Là 1
onna 1
Mong@@ 1
manga 1
Cop@@ 0.6598140699718772
destroy@@ 1
phrase 1
Hollywood 0.6556738048531671
Jud@@ 0.5499424967388117
pard 1
Fé@@ 1
Earth 0.5128068829665954
Paulo 1
ns 0.1237472739531413
S.@@ 0.6749498508410438
Vid@@ 1
Bac@@ 1
gis@@ 1
ADN 1
amer@@ 0.825737017118888
Leb@@ 0.9342211994585031
I. 0.26798740387879366
TA 0.7579361395766313
iss 0.7467942398219056
ustr@@ 0.9050940844350515
• 0.7941411633886922
Gold@@ 0.4442476151897712
Nad@@ 0.9913211027811001
ning 0.14542828693653398
Wa@@ 0.7103511663805827
² 0.14045963157432798
Plan 0.8567668222768209
Express 0.8748866884238803
ape@@ 1
gea 1
Vich@@ 1
anga 0.8635328449767213
ston 0.5461149466010436
Japon@@ 1
Wood@@ 0.5491401220461309
ino@@ 1
1851 1
Vig@@ 1
.com 0.6111911138917832
tit@@ 1
audience 0.7210059192343917
rel 1
plication 1
extraordin@@ 1
fri@@ 0.731897942067639
any@@ 0.28968987803971796
iti 1
Brig@@ 0.856521994763501
ry@@ 1
islam 1
styl@@ 1
Fur@@ 0.44580721505240334
addi@@ 1
No 0.23451012124979692
trio 1
Maxim@@ 1
mortal@@ 1
va@@ 1
anticip@@ 1
Duch@@ 1
hier 0.31777923455385193
igh@@ 0.22774618001193622
Hip@@ 1
Claire 1
Ever@@ 0.5818617525115833
roc@@ 0.5016299787283801
Las 0.14335455106646572
inus 0.9998403075195874
bom@@ 0.642158297810513
current 0.23093357094298617
Cit@@ 1
Flam@@ 1
ód@@ 1
Anderson 0.7162519463806222
terres@@ 1
guide 1
AF 0.8286564742547656
Pyr@@ 1
Suc@@ 1
aro@@ 0.8766055091083934
sch 0.24910556384661392
Emper@@ 1
bag@@ 1
15,@@ 1
sister 0.39963029542626316
star 0.36233886857317293
High 0.15070309643942595
Macédoine 1
Wur@@ 1
Donn@@ 1
Med@@ 0.37825418646451325
MC 1
ott@@ 1
1801 1
Azerba@@ 1
Spe@@ 0.29236906650468725
Life 0.26115577046635285
Franco 1
nouv@@ 1
Entr@@ 1
nu 1
oriental 1
Otto 0.5748115834702708
isis 1
pain 1
Lot@@ 1
Pakistan 0.5097344532604438
accident@@ 1
Coc@@ 1
Eurovision 1
bes@@ 0.2644699477915396
Billboard 0.42515890916844795
Budapest 1
1855 0.9381992726015023
Castel@@ 1
tice 1
Occitanie 1
Cher 1
Gun@@ 0.6785391046621628
124@@ 1
NH 1
zant@@ 1
Stanley 0.9369831842975799
Itali@@ 0.9457162641498981
borough 0.5715030971576717
yl 0.47586888848532044
Grec@@ 1
Aragon 1
ü@@ 0.12149897967578027
è 1
Stockholm 1
kins 0.5546846728319376
Camb@@ 1
arbitr@@ 1
Ferrari 1
Tin@@ 1
ulus 1
Initi@@ 0.8134614232967308
Howard 0.6639711905642849
hibi@@ 0.8578079397189886
Academy 0.22103555626337365
Extr@@ 1
omo 0.8452065633877766
ication 1
passes 0.8125117162497655
restric@@ 0.5682304274225579
ebo@@ 1
registr@@ 0.6387607242205661
Ray 0.7539724291831627
Maritime 1
hard 0.36190353875978826
T. 0.5841307716521231
1859 0.8010827280431416
11,@@ 1
Giuseppe 1
Province 0.3805251137024436
Missouri 0.619368041699487
Bom@@ 0.6181775390398975
sibl@@ 1
1814 1
Ivoire 1
ě@@ 1
pig@@ 1
Pet@@ 0.8792122208658861
Statisti@@ 1
Mem@@ 0.47532267260097927
iko 0.7667853629378326
Bonaparte 1
Bud@@ 0.5864402693805881
hou 1
Christine 1
dule 1
abb@@ 1
agues 1
Tib@@ 1
ilit@@ 1
Heinrich 0.4168501201691709
MP@@ 0.696510911072591
Franche 1
autobi@@ 1
Fox 0.5428507644364698
athlon 1
Carr@@ 1
State 0.08280377879813053
assass@@ 1
records 0.43407769809474117
stable 1
Madagascar 1
horiz@@ 1
otyp@@ 1
ka@@ 1
triple 1
125 1
Hubert 1
intelligence 0.954105747577277
SI@@ 1
Aqu@@ 0.7087914040916572
Coul@@ 1
Stal@@ 1
jet@@ 1
ril 1
Nak@@ 0.8965546410708002
dec@@ 0.09067624024958955
exact@@ 1
ź 1
Cord@@ 1
ion@@ 0.530136461351022
Miami 0.7066944563701578
itan 1
bir 0.06802679070003637
Jard@@ 1
irat@@ 1
radical 1
DS 0.8087631263006726
examin@@ 0.7172116695130598
Big@@ 1
festivals 1
enti 1
Yu@@ 0.9705554696411419
olo@@ 0.728990531592547
} 0.6271691688203783
acha 1
Baz@@ 1
ason 1
expul@@ 1
Rugby 0.7055048821060551
mant@@ 0.8595400416425979
fru@@ 1
Aux@@ 1
pus 1
onales 1
fortific@@ 1
lich@@ 0.3759535016717115
lap@@ 1
Pay@@ 1
Proj@@ 1
row 0.20425665479802918
phin 1
Ais@@ 1
volcan@@ 1
quad@@ 1
Bon 1
Ton@@ 0.5937712773209569
Sun 0.4915186382965073
eines 0.0991688201944612
Bow@@ 0.5917168855239269
bec 1
mb@@ 0.46463011109294194
oz 0.9389870743413302
acous@@ 1
Michigan 0.398939209761416
résult@@ 1
pent@@ 1
Berg@@ 0.33631437576515727
cord 1
Sto@@ 0.45099500433442224
asp@@ 1
Got@@ 0.45592015239831263
Science 0.3128960216165971
chine 1
box@@ 0.5411495102024462
fug@@ 1
aa 1
cérémon@@ 1
bel 0.8824344485449929
instance 1
jal@@ 1
Tir@@ 0.7530436340105758
2,5 1
Arti@@ 0.5699025479111312
1856 0.8439768963159692
Palestine 1
discrimin@@ 1
massi@@ 1
AA 0.5295190341184833
oro 0.4318539801190286
issi@@ 1
Thor@@ 0.8793720667841186
migrants 1
Champion 1
XX@@ 1
hip 0.34303035960176115
Poin@@ 1
Rapha@@ 1
len 0.17433590846147468
inet 1
Astr@@ 0.7630242526298258
ymnas@@ 1
1857 0.8340021090314783
umul@@ 1
Road 0.18479669921450464
pur 0.7768963805934784
Fid@@ 1
Second 0.2961683908362306
unif@@ 1
mart@@ 1
case 0.17004370141071354
dominant 1
Vinc@@ 1
aspir@@ 1
zer@@ 0.5844388383821049
orro 1
uer@@ 0.3432215516051238
ör@@ 0.18871683898683483
Gér@@ 1
lio 1
Lub@@ 1
ania 0.3481604625056183
play 0.09542819693276085
paras@@ 1
Lind@@ 0.5916722490983783
Jur@@ 0.5364831226628832
UEFA 0.6718340531605497
fan@@ 1
Nintendo 1
industries 1
igr@@ 1
suspend@@ 1
Colorado 0.590973336677421
cles 1
auxili@@ 1
ingu@@ 0.7321729243991674
V. 0.43849277763663713
nd@@ 0.5337922073984224
North@@ 0.43908088289915953
adron 1
1852 0.937425709571483
itte 1
m. 0.524683382662746
illac 1
alternative 0.6880818947620508
Notes 1
Columbia 0.3636281206883393
Aster@@ 1
Dan 0.8115279121476254
ater@@ 0.7702469578772041
umi 1
ass 0.2470580149331461
occident@@ 1
notable 0.40827227453179166
diam@@ 0.7165098619078571
Miguel 0.588236845942564
logo 0.9717543519945158
ouver 1
ectiv@@ 1
CF@@ 1
vent@@ 0.3944127773928097
fice 1
Time 0.4028300692588265
eck@@ 0.2678284384414156
Duc@@ 1
Yo@@ 0.8507933810935682
amér@@ 1
nar@@ 0.4388267957638002
institut@@ 1
clusi@@ 1
dale 0.6822395778307626
ben@@ 0.2275187635535387
Observat@@ 1
aix 1
atu@@ 1
Litu@@ 1
présidenti@@ 1
1846 0.9880128685595596
lage 0.5389448779899071
aissance 1
ku 1
motor@@ 0.6759939186479419
Dublin 0.7941158894762533
effectiv@@ 0.8751471444078815
triang@@ 1
Ny@@ 1
Ris@@ 1
Lot 1
ms 0.1791631922423487
capture 0.917501771387997
General 0.10525002086058423
sept@@ 1
tw@@ 0.20722771992933625
Vas@@ 0.8010968147984208
C.@@ 0.8066379219944461
kat@@ 0.36618646746986283
Hun@@ 0.6470716353246093
mel 1
1854 0.859265625976341
Naz@@ 0.9331987966558625
folkl@@ 1
Allem@@ 1
IS 0.8438784721325027
yon 1
deb@@ 0.5814216609556041
pon 1
Vati@@ 1
Fel@@ 0.40618858683532166
controvers@@ 0.9292594859634972
location 0.2993010798999132
Vin@@ 1
Viv@@ 1
Us@@ 1
Bruce 0.8044306474254685
Guil@@ 1
cine 0.8651475746478648
Crim@@ 0.8333722121777851
hin@@ 0.27209152554345367
Bis@@ 1
AB@@ 0.6523816391073246
Marco 1
composit@@ 1
ycl@@ 1
ango 0.8504563011266794
sci@@ 1
terminus 1
24@@ 0.4050094997292134
deu@@ 1
ider@@ 0.6941360921529478
Beach 0.509481230561004
RO@@ 0.7690687631437736
week 0.27004912694296634
Gam@@ 0.8106571455548555
Ne 1
ital 0.4564265752144337
Domin@@ 0.5150819030778377
discipl@@ 1
Mali 1
Ah@@ 0.62408146370378
oria 0.6717555578751567
Jimmy 0.8310628933890991
aume 1
1858 0.8444479210287099
Black@@ 0.524054340579028
poli@@ 0.7859410275455706
etz@@ 0.3150262005449554
Little 0.3933198587993161
ento 0.22513741210029972
eron 0.24513249264800235
1849 0.8575744418389925
ij@@ 0.8567863797966974
lav 1
yo@@ 0.47703110710279684
pin 1
alit@@ 0.8443924888278901
Ave@@ 1
ema 0.31102748688168097
ial 0.3251760803128404
rat 0.3006142330433191
Atlanta 0.7292331596861481
dium 0.8606817466936497
nay 0.7850449331549286
Ma 1
nati@@ 0.8400471245237447
Arist@@ 1
nig@@ 1
XVI 0.7963346015519946
oth 0.39922714331120385
Barbara 0.8709561836433927
OT@@ 1
tif@@ 0.600056749454465
altern@@ 0.9939634692580496
try 0.2359945860968619
It@@ 1
trich@@ 1
K. 0.6168355446371208
secre@@ 0.7899947076287177
Spir@@ 1
Sanc@@ 1
Golden 0.49536077861357
Grim@@ 1
intel@@ 1
expuls@@ 1
s. 0.5839569437576243
protagon@@ 1
vi 0.717741121962255
oshi 1
Gab@@ 1
Ostr@@ 1
valid@@ 1
Lambert 1
lar 0.17547069211347668
atte 1
mémo@@ 1
riz 1
lem 0.6623982912014875
Game 0.43159744268303296
déput@@ 1
styles 1
700 0.522982495389602
Kiev 1
Mili@@ 1
ucture 1
Radi@@ 0.517540808612807
eus 0.7443884445097694
eda 0.671878093131557
Restaur@@ 0.9715967343161512
Prim@@ 0.39243141483277244
inter 1
CE 0.6470123012373714
dau@@ 0.8097514543744613
bras@@ 1
xi 1
iri 0.7458377941438763
Gordon 0.6708569171909855
Ng@@ 0.7103375105866427
Pey@@ 1
Bank 0.2819748998697275
Township 0.45667675567081195
ñ@@ 0.32216642623070263
udi 1
obs@@ 1
zon 1
noc@@ 1
Ges@@ 0.3029725931898981
Gaz@@ 1
contradic@@ 1
zy 1
Charlie 0.8749557181272378
ck@@ 0.3680438945590015
stimul@@ 1
Miller 0.5687016733987267
š 1
ichi 1
AT 0.7551643102868305
CO 1
low@@ 0.21638118345209642
ados 0.04412384781823842
Fres@@ 0.922888023692634
iz 0.7252089354218818
And@@ 1
osaur@@ 1
alan 0.5584522288814624
Mac 1
Roh@@ 0.7229697822054042
Ale@@ 0.8447581880624766
Wit@@ 0.46574355233078935
orum 0.9196701587761832
aco 0.5478183186268248
Tw@@ 0.530802927502416
Classi@@ 1
sin 0.15139347793833433
NA 0.952981524302196
cars 0.4548207388317608
della 1
Dr 1
plasti@@ 1
rival 0.8438741470241892
Kansas 0.513452051879221
width 1
Li 0.7729023480179436
confin@@ 1
certain@@ 1
udi@@ 0.6375509103394618
certific@@ 1
Poly@@ 0.681345839032946
igo 0.904263118876304
lors@@ 1
juni@@ 1
Fernando 0.6154548727466252
Kath@@ 0.4522751626013617
Sat@@ 0.556563698367104
Se 0.11518309143337786
Fili@@ 0.6778280948838803
Ler@@ 1
opportun@@ 1
Jonathan 0.978068599312742
ow 0.224726019093029
possibil@@ 1
iler 0.37256205393413955
Ō@@ 1
Show 0.3730843185506632
UE 1
Mexico 0.27680137094663665
10.@@ 0.5340689458239248
atern@@ 1
races 0.444623788779382
Č@@ 1
tz@@ 0.804247723979861
Tas@@ 0.5217471906651178
impl@@ 0.7442026145119063
Boris 1
Christopher 0.7780244852311665
Iv@@ 0.9113951250398402
victor@@ 1
ops 0.36666077651556594
vies 0.9654005113855784
Ja@@ 1
seg@@ 0.41039269620904023
etti@@ 1
orange 1
alumin@@ 1
tes@@ 0.6647243473441303
Robin 1
Bell 0.6625520255851058
Minnesota 0.48509164685674266
dote 1
Ensemble 1
topo@@ 1
alo 0.971124286499638
Pac@@ 1
lag@@ 0.32153297043891227
lai 1
UNESCO 1
Andrea 1
Brab@@ 1
ire@@ 1
Meg@@ 0.6564725852930563
civiles 1
ams 0.2554901287781618
1791 1
1831 1
igh 0.5962241675124865
Clo@@ 1
ș@@ 0.880003459563165
egr@@ 0.5006062998276565
onien 1
sho@@ 0.24375465442598068
The@@ 0.2777139634951746
Afghanistan 0.924597533617591
motion 0.8095047153751017
Day 0.26434660383854786
moto 1
Carp@@ 1
Sir@@ 0.7450465549183263
aute 1
réqu@@ 1
eler 0.44875435302518824
ater 0.46716351586301735
Ahmed 1
Jum@@ 1
ven 0.2426008932386283
ME@@ 0.8149756910389503
Jura 1
icus 0.9057532923200187
Journ@@ 1
Kos@@ 0.765368661095241
Imp@@ 1
Las@@ 0.9495887404063466
Isaac 1
Lyc@@ 1
Leipzig 0.596915995217407
Apol@@ 1
ep 0.3300906316480608
Andre@@ 1
ą@@ 1
auc@@ 1
Ras@@ 0.7316379940381947
Services 0.6073395629632806
adres@@ 1
back 0.06845323811768249
zz@@ 0.7799477734375571
Dim@@ 1
är@@ 0.1336266196286832
3D 0.8541075116375647
magaz@@ 1
punk 1
abs@@ 1
neum@@ 1
Égl@@ 1
uit 1
char 1
day 0.06037410770127815
1795 1
Act 0.20644742520112977
Ernst 0.5668604969699051
Microsoft 0.7003023823723434
normal@@ 1
Hot 0.4632467123108
adel@@ 0.995971815329239
polis 0.8283809638538862
NO@@ 0.7768692955613752
Prom@@ 0.9166683292782992
Han 0.971849984444255
Ken@@ 0.5884406891942764
30@@ 0.3521178396652191
Nikol@@ 1
persu@@ 1
oko 1
Sylv@@ 1
Ridge 1
tenance 1
María 0.32814411347165007
ôles 1
Ves@@ 1
1794 1
gon@@ 1
ses@@ 0.6762617380245002
Bet@@ 0.5159589592015563
PE@@ 0.967771812287338
TV@@ 0.7407562180903012
isi 0.42089118654673474
1853 0.8522164642461494
119@@ 1
Allen 0.6035940514095485
export@@ 1
Garr@@ 1
Johannes 0.5660430684097403
Clark 0.6275785857324775
1845 0.9037344607403563
Kennedy 0.7378396820897286
dre@@ 0.21159009001455398
cia 0.939918434461528
Santiago 0.5073714921178721
Geoff@@ 1
amo 0.7051362005760038
Morgan 0.7252966223784747
Fré@@ 1
exclu@@ 1
ran 0.22526292975652648
tine 1
Magazine 0.6194236175511693
compil@@ 1
Hat@@ 0.7420865288625201
own 0.07991464588669131
Die 0.01350751788536105
Green@@ 0.4930879161363793
€ 0.9068193709825739
ask@@ 0.42564987826701506
lara 0.6784894749690168
Anat@@ 1
Joh@@ 0.7131903708534232
zu@@ 0.23515954042334938
Sap@@ 1
py@@ 1
provincial 0.6390311346527419
Type 0.974202214465389
PL@@ 1
uck 0.4760394035319445
gir@@ 0.4827469630748812
Fos@@ 1
Mut@@ 0.7916098222172289
assa 1
180 0.7336885707926528
Herbert 0.785415543982179
inien 1
contamin@@ 1
tica 0.2637387094132044
Lak@@ 0.5400019285877311
By@@ 0.9587588208306638
stone 0.2301868068743496
endi@@ 0.5617740783500953
spons@@ 0.44421184424806476
XI 0.9046601456905857
pi 1
bud@@ 1
amer 1
Kil@@ 0.44277885121187366
asso 1
Non 1
Honor@@ 1
1837 0.9502024726234712
cle@@ 0.2544622912139069
œuv@@ 1
Phili@@ 1
alia 0.6162812142117069
ović 1
ket 0.35671680924039795
rech@@ 0.46924572528426056
gest@@ 0.19615753051875484
polit@@ 1
entra 1
Gis@@ 1
territorial 1
Nick 0.7861564533087717
rin 1
Louisi@@ 1
1812 0.8524229537665476
Tul@@ 0.844102590393682
box 0.4347509101533052
massive 0.976995911355553
sine 1
MI@@ 0.8508186002763305
Wh@@ 0.3944682384402228
Alberto 0.9499416723632679
patient 1
owski 0.9220309509803223
auch@@ 0.9473501569022692
bu 0.20878354437747063
jan@@ 1
110 0.6714204792130115
Studio 0.6698227616896766
Gri@@ 0.8085987559076375
1.@@ 0.1830512443117779
osph@@ 1
án@@ 0.300274419847047
vor@@ 0.07294380297153519
itz@@ 0.2953434128043946
ks@@ 0.2606058135223895
1847 0.8655548651389554
Billy 0.7772031474175707
religi@@ 0.8670829347512783
AF@@ 0.9081993205676218
Russell 0.7318882233983437
aler 0.6536900471608598
esi 0.32298906590987875
wick 0.6726137321118528
March@@ 1
imi 0.6904083749080664
lera 1
vesti@@ 1
Nelson 0.7365276736870935
noctur@@ 1
Helsinki 1
Margaret 0.6807007314070057
1832 0.9853548881643776
Grand@@ 1
Philip 0.6125663415458222
Ain 1
pag@@ 0.4919987309066305
cz@@ 1
kil@@ 0.637983337694147
wich 0.6395934568784222
Pit@@ 0.7572081067838607
lux@@ 1
An 0.1150330368407437
Sag@@ 1
Nigeria 0.8042912389770122
dens@@ 0.6728394208072193
pt 1
chester 0.44272491852396695
Fred 0.8788485198406957
jam@@ 1
autés 1
Hermann 0.6497374342376462
Station 0.26948546021537534
Liverpool 0.6696092168685627
esa 0.18744352574999446
Eg@@ 0.7078986809990139
Internationale 1
Janeiro 1
trail@@ 1
Lad@@ 0.7771415663086195
USA 0.20906678936528367
prin@@ 0.4648259109457164
Ep@@ 0.544115137994144
AG@@ 1
spon@@ 1
Vor@@ 0.0659542640897557
Ther@@ 0.3382684290069549
oid 0.612358135741261
Match 1
Mission 0.6911757039279559
lock 0.3763796548682855
Houston 0.5897151497663147
tril@@ 1
Web@@ 0.4078506969743808
Google 0.7615814052580075
anatom@@ 1
Clu@@ 0.7719374293978299
Magdalena 1
apti@@ 1
RD 1
cha@@ 1
chard 1
Uruguay 0.8619042197802116
exclus@@ 1
NASA 1
atlan@@ 1
last 0.09608510086518364
Gom@@ 1
outh 1
Rud@@ 0.7503849443518258
syndrome 1
Beg@@ 0.335102314285182
obus 1
Stadium 0.4033224494859154
Sym@@ 0.9313187852500554
ris 1
Sl@@ 0.7919430447207846
Ten@@ 0.5668152715840374
libre@@ 1
mers 1
1836 0.9305807130731203
vić 1
votes 0.4496318081972214
Geor@@ 0.4553728219858686
alternati@@ 0.9441855813302852
yth@@ 1
Julie 1
japon@@ 1
1833 1
Ross 0.6772914864985338
Dy@@ 0.7728052405654988
solid@@ 1
Web 1
yal@@ 0.7564115606039797
Fut@@ 0.9901226373394542
Chr@@ 1
ć@@ 1
1841 0.9337275039936709
Shanghai 1
tuber@@ 1
evo 0.9813230316049739
1835 0.9178421251053838
bra 0.6136496767007564
Georg 0.44339078600344356
iga 0.6020635073139536
avier 1
Sad@@ 0.7652714864483732
Gabri@@ 1
wer@@ 0.11120619142305917
Protection 1
Gall@@ 1
Masters 0.9304340226991893
Temp@@ 1
positive 0.34768005370858146
quadr@@ 1
tron 1
Ryan 0.6646487021758001
atin 1
Conse@@ 1
adier 1
ovo 1
carri@@ 0.40101012555515403
interven@@ 1
Bob@@ 1
Bowl 0.6315620886397318
Rein@@ 0.5326434038635817
nec@@ 0.5449740910087395
ocol@@ 1
Len@@ 0.7234521572452527
Studios 0.5598707822322526
edo 0.41314406286241234
Dod@@ 0.8066911874097626
extinc@@ 1
ig 0.2592447289538599
ends 0.19038044668782256
bomb@@ 0.5768769144215763
aret 1
Num@@ 0.7616614545994159
wo@@ 0.2019733123795856
Bré@@ 1
locomot@@ 1
Bach@@ 0.8917763309947437
Vancouver 0.8406405243375997
Christi@@ 0.6369028882942142
ár@@ 0.3276193142134307
unk@@ 0.3183025744127448
Has@@ 0.6406640385810756
chen 0.10987151675613265
Bar 0.8806512138385998
Kel@@ 0.5192692737917803
gas@@ 0.4022485205381911
Analyse 1
conclus@@ 0.973561266611478
osc@@ 1
Andy 0.8229658720835437
Zone 0.7850031376746092
estu@@ 0.9794916570400533
nan 1
Roman 0.18036604784335455
pera 1
architectural 1
Lov@@ 0.6913685752995197
wan@@ 0.33666628504889584
aja 0.3536078212386807
Stu@@ 0.3156467048398813
dam@@ 0.5005210255303835
radar 1
Apple 0.7434893828253917
eno 0.4136750368509793
ects 0.16874559290144567
Salvador 0.8220596058829489
Fron@@ 0.9912262226578742
eh 0.5908216257395472
Iz@@ 1
manager 0.2720057360166349
Wes@@ 0.4186066229059316
tabl@@ 1
Song 0.34819806243528856
Abr@@ 0.8264214565307595
Ces@@ 1
dose 1
eli 0.48169158923205324
Ple@@ 0.7208045156312484
unt 0.5324503173197327
Lus@@ 1
Zo@@ 0.8251008778634109
ej@@ 0.33310497169904973
exhaus@@ 1
tation 1
ecti@@ 1
1806 1
WWE 0.9283162152095645
ambul@@ 1
Verd@@ 1
nia 0.6382924383776902
1842 0.8924958640635327
hell@@ 1
ahi 1
Chef 1
unanim@@ 1
1839 0.912172923674244
Lach@@ 1
uta 0.5501738162345586
Lucas 1
Yan@@ 0.7212839835148489
Main 0.37917944602188586
achi 0.9960613291553051
foc@@ 0.47384596158990255
Lun@@ 1
tropicales 1
Ze@@ 0.3541520861765407
Bad 0.4319741279264127
Matt 0.7533228232677438
CC 0.5855490214999007
Jun@@ 1
LO@@ 1
ls 0.29941952214672835
Ludwig 0.42970012513485106
master 0.3191347819617491
bits 1
say 0.3834160553703036
zur 0.039720784556086436
letin 1
Tah@@ 1
1843 0.9265481593300405
tics 0.16610623527943333
Bret@@ 1
1834 0.9376345475963348
new 0.032745429156874895
26@@ 0.5384494365020547
RN 1
toires 1
AO@@ 1
CS 0.8310082879945921
moral 0.9500721497520145
BC 0.2696903896493576
Moore 0.5876717515013413
Dunk@@ 1
dy@@ 0.8527728182740613
Aug@@ 0.9311761826985061
Jason 0.8062899157795668
arn 1
etz 0.8575744982961213
anos 0.20488598837114275
ky@@ 1
accompl@@ 0.921219566976899
ław 1
Harvard 0.5777575308045126
det@@ 0.13319367761003723
cog@@ 1
als@@ 1
R.@@ 0.9324385359418069
Mikha@@ 1
lyc@@ 1
Agr@@ 0.8141615564635808
Sus@@ 0.5523373441811235
Terr@@ 0.5432728591101429
dial 1
Shin@@ 1
Inst@@ 1
Mec@@ 1
BA 0.4826667490385958
Sark@@ 1
Tim 0.7207396209174971
Stone 0.5007482904835839
Dak@@ 1
Dir@@ 0.7367965126910198
Blu@@ 0.6061283443861356
Poz@@ 1
ppe 1
recru@@ 0.5801221258880642
Comics 0.8734460531120798
23@@ 0.49843177838895786
disper@@ 1
bet@@ 0.365470303563985
Galerie 1
Dres@@ 1
SM 0.9584220699374799
States 0.04812680516054264
Tech@@ 1
1838 0.8800450216861797
ange@@ 0.692861023078255
Mohammed 1
sten@@ 0.8785751927116056
öl@@ 0.22655903695722776
Ibn 1
lins 1
Eu@@ 1
Indien 1
1844 0.8716661276736825
lot@@ 1
Associ@@ 0.6256345416485202
com 0.8354465453342204
conven@@ 0.5588199340176286
Cha@@ 1
bonus 1
ock@@ 0.37072249057815143
Zh@@ 0.8331627018725362
coin 1
zen@@ 0.39277431313782574
Jol@@ 1
orn 0.6069632452068442
EC 1
Ron@@ 1
ery 0.2775671621999064
Obj@@ 0.8373814761265564
ega 0.42073620347220586
rid@@ 0.3504201512410892
dop@@ 1
persist@@ 1
tos 0.17611442771508912
Walt 1
Artic@@ 1
ampli@@ 0.7252612841306095
Autom@@ 0.564950943443564
ady 0.35176899749228485
ongo 1
ń@@ 1
ide@@ 0.24388816485700582
auss 1
Vari@@ 0.4192772971223844
Dave 0.7046725938318925
Nobel 1
Europa 0.2299527706534086
fur 1
Jupiter 1
uth 0.42964373716786314
ivi@@ 1
esh@@ 0.35487814909359117
orien 1
udo 1
fine 0.6623875511038988
fib@@ 1
omon 1
118@@ 1
Copenh@@ 1
copies 0.5611456965128211
AD 0.5068185994883123
intermédi@@ 1
exéc@@ 1
Rig@@ 1
uves 1
Berry 1
occidentales 1
Tat@@ 0.7025929951031678
Go 0.6517267036706791
Emma 1
eder@@ 0.3079175181961007
scor@@ 0.504715674697887
amine 1
kel 0.29533893622149754
amba 0.9583260983980029
contributions 0.7404259940389172
anche 1
Audi@@ 0.7683436401647299
latitu@@ 1
membran@@ 1
ouse 1
Moh@@ 0.6361196641634899
Ottawa 1
alom 1
imi@@ 1
Oli@@ 0.8348861387806864
Mr 1
GT@@ 1
uro 0.6766985978549338
ark@@ 0.20676364379634987
Ec@@ 0.5954016855404597
secré@@ 1
ste@@ 0.10918860250534236
Water@@ 0.6053650908629677
GC 1
brun@@ 1
my 0.2589087024536076
supervis@@ 0.9341996557267905
XII 0.882842243436569
1810 0.9620275917374081
combus@@ 1
én 0.43233207396619705
ries 0.8150702692359397
destruc@@ 1
with 0.004214355398548769
120@@ 0.9465474288956991
corte 1
over 0.02795690392771363
Gos@@ 1
Abo@@ 1
Bec@@ 0.6981573211985217
agi 1
manuel 1
Nob@@ 1
eb 0.6881639936193967
Rangers 0.8715345875962927
Sed@@ 1
tage 0.8510883514714558
ingham 0.5837972586552931
dot 1
News 0.3246248965898106
Viol@@ 0.7670473265356205
arios 0.18502200246737435
fi 1
stadt 0.19313461969200924
wal@@ 0.1630781991125659
2.@@ 0.17613046637535593
exam@@ 1
Lour@@ 1
Nicol@@ 1
Christ@@ 0.45131823016876105
yi 0.4983359169774133
aca 0.38861158541724183
cerc@@ 1
Saf@@ 0.5389344864075063
Scar@@ 0.85621634339011
card 0.48644528275453724
PlayStation 0.9299456024475782
global 0.4491884669328327
Ander@@ 0.6624311813746626
Vik@@ 0.6698872440509788
manu@@ 1
oba 0.9041449312871629
show 0.08306205392934207
Techn@@ 0.4030717843908745
Kelly 0.64026951902948
PI@@ 1
Asp@@ 1
vement 0.8511767119329412
roqu@@ 1
paqu@@ 1
bay@@ 0.673410712862024
rop@@ 0.6810204007600749
ort@@ 1
Nev@@ 1
alar@@ 0.5099833799794613
Co 0.3823370965374155
Gén@@ 1
sug@@ 1
Brand@@ 0.5347005410849368
eld 0.3786200536977142
Hall@@ 0.7555512562399062
Tig@@ 1
cut 0.32207354075169675
Amaz@@ 1
olle 1
Mercedes 1
ui@@ 1
Night 0.4084809145826779
Franklin 0.662422434009808
improvis@@ 1
cami@@ 1
vic 0.7329385573357616
yan 0.40885307322814873
Dipl@@ 1
sy 0.8845337333328768
16,@@ 1
Ele@@ 0.6520542085507519
Clau@@ 1
eter@@ 0.5940884068435373
oga 0.6636206667868333
borg 1
af 0.5485481173644787
crip@@ 0.47045752517012973
Panama 1
Avenue 0.3297881711966416
vive 0.6340485977371457
Tribunal 1
Grant 0.6586174905583642
longu@@ 1
Melbourne 0.45650706319901724
Nur@@ 0.8369290206809205
bine 1
130 0.630344260038373
Mississippi 0.5984707437045449
Stuart 1
gres@@ 0.40592498585160364
poli 1
Challenge 0.7975026475914938
dera 1
Lom@@ 1
nin 0.2730650916516819
NFL 0.46509543716548596
Nath@@ 1
Bit@@ 0.8500630869199618
IT@@ 0.6366705043098899
Sovi@@ 1
nich@@ 1
mano 0.7554141316776244
zer 0.33548533668394537
140 0.7151258434105187
atch@@ 1
hospit@@ 0.7124755036990913
affin@@ 1
imo 0.6035347095752122
umb@@ 0.3106274640403232
arin 1
cross 0.34396546470107975
PD@@ 1
Proc@@ 0.9277171898323802
oku 1
couples 0.9304670986704044
ibn 0.9749030432140129
miner@@ 1
ding 0.11413482959893925
originales 1
Village 0.5868768437298388
convers@@ 0.9200804517725841
LA 0.43187128266108016
gain 0.6308544185934145
Rac@@ 1
stig@@ 1
inn 0.4974962339193898
Rand@@ 0.6215572158753305
fo 0.5881567330008931
ray 0.71940182925053
27@@ 0.5326962775194964
Saints 1
series 0.048196830361818536
Indiana 0.45680866692590155
wa@@ 0.3188102888848291
Mob@@ 1
gia 0.15226963968140028
Cleveland 0.6368445513393266
Boliv@@ 1
Pietro 1
Pes@@ 1
Parti@@ 0.5487557340760819
aha 0.6213048176476874
normal 0.41166734627571083
3,5 1
audio 0.8581416658054402
icz 1
Monte@@ 1
orbit@@ 1
horizont@@ 1
zar@@ 0.7121392140019898
AE@@ 0.9206164312695075
TS 0.8803722446990883
Rid@@ 0.6499728760203914
Sid@@ 0.8971768171857294
Commonwealth 0.5885169776787925
colonial 0.5965658339515524
Out@@ 0.37757530963325514
Line 0.2532243638005732
tain@@ 0.26237524178634575
film@@ 0.2249932855548095
Jazz 0.5375534079429096
hur@@ 0.3153835628355103
usias@@ 1
valle 1
perfec@@ 1
Roberto 0.994710180368422
apo 1
Aer@@ 0.5893800600338933
hop 0.8869866254003995
zen 0.14666383410132952
Jeff 0.7799026543982684
Jr 0.4375614558805762
nis@@ 0.8502976883819845
IP 0.6792941320980356
acht 0.15278755074363265
ii 0.6614970831997017
lat 1
Games 0.2085180871993416
Satur@@ 1
inos 0.24880280080105363
partition 1
XV@@ 1
margin@@ 1
GM 0.91911469111752
Transport 0.6007913121835895
Quin@@ 1
outs 0.5605343531239405
probl@@ 1
immer@@ 1
Dig@@ 0.8016827692919448
acres 0.9332872947310913
attrac@@ 0.43088638122076606
Edgar 1
Marvel 0.8991634928755876
lex@@ 1
Pur@@ 0.39774552125119117
25@@ 0.26912925783639075
wo 0.11308221183993866
Hesse 1
115@@ 1
Langu@@ 1
opini@@ 1
Dragon 1
arium 1
tas 0.302214128988791
rat@@ 0.6689083445675554
Alber@@ 1
CP@@ 0.7922787394583896
Boc@@ 1
employe@@ 1
Anton 0.7561385648064218
Medi@@ 0.3081231558071056
Raf@@ 1
wen@@ 0.23817199077007326
Alg@@ 1
Gold 0.3429077414527875
Adolf 0.7160421942490163
cic@@ 0.8694094311468656
ley@@ 0.8932496846914882
ete 0.16453208141154183
ore@@ 1
ape 1
Jordan 0.608295016642236
Cle@@ 0.5188491240692539
Rog@@ 1
101 0.7039844012906152
uki 1
Kent 0.6507063621479684
Henri@@ 1
Lut@@ 1
cél@@ 1
EN@@ 1
Cec@@ 0.881526959059354
160 0.6715588960697971
press@@ 1
Atlan@@ 1
f. 1
hall 0.4505105830821307
zon@@ 1
cipe 1
Hain@@ 1
MO@@ 0.8058600107773117
Stat@@ 0.649784415450852
Til@@ 1
ros 0.774202031759729
attend 0.7105656529291848
atin@@ 1
magn@@ 1
Boy 0.6188687222029522
Master 0.36848556691317147
ieur 1
ż@@ 1
Rosa 0.7999911106645243
AL 0.7771818474874224
Arnold 0.8100727449175193
Air@@ 0.4897903060671875
Iowa 0.4922620262517804
ano@@ 1
ling@@ 0.45402680521664396
Duf@@ 1
dération 1
Ian 0.7925365178683816
islas 1
Murray 0.6591091179389175
itt 0.48640727546993323
Kob@@ 0.9062074934252221
tha 0.5656356857473996
Aj@@ 1
gig@@ 1
insist@@ 1
Sach@@ 0.6409425146643335
ía 0.04085674392429711
Drag@@ 1
AG 0.3669647525508679
Tennessee 0.4558640541497099
Commerce 1
Media 0.2844238870240785
kab@@ 0.6732792373819466
Princ@@ 1
TC 0.6566628421034352
draft 0.5847070878940683
114@@ 1
Lic@@ 0.822606612370738
intensi@@ 0.7979359054611053
Yos@@ 1
oscop@@ 1
Peter@@ 0.5682249370263401
alias 1
E.@@ 0.6685930275247602
tropole 1
incur@@ 1
Ambro@@ 1
Power 0.40844667368124404
ionale 1
ga@@ 1
escal@@ 0.9307969777651158
caf@@ 1
demanda 1
esqu@@ 1
composer 0.5588927354053371
17,@@ 1
enny 0.6914693204634017
inge 0.47914413834089153
uli 1
LE@@ 0.7613763204065159
Main@@ 0.765381439296415
Inter 1
Nas@@ 0.6615733946644482
oker 0.8480993888715297
Estr@@ 0.9630569365353631
ness 0.10787324867537655
Á@@ 0.4239449273215461
diesel 1
Wer@@ 0.22608555628883514
gro@@ 0.15271913010416918
plo@@ 1
lands 0.18385050831507901
point@@ 1
uk 0.4482916401521445
sw@@ 0.12787634536061393
SK 1
habil@@ 1
get 0.15538934658508072
Luigi 1
Pul@@ 0.5882683182361453
det 0.3634140062245522
eme 0.18139790672052208
Bach 0.7638402024450485
PR 1
acy 0.14221346675511723
Robinson 0.6607742351703793
Forum 1
auer 0.19111770051057086
Lionel 1
inces 1
soc@@ 1
Sierra 0.5932978822280683
Hard@@ 0.5511990129157611
blues 1
sion@@ 0.3083348732072119
portion 0.4669052632374646
disciplin@@ 1
Lion 1
Argent@@ 0.7922155378243492
Carter 0.6706142576897292
Fir@@ 0.5055751834382617
Gan@@ 0.846376221319287
~ 0.9714786443626214
Major 0.28189606554930874
Source 1
Pra@@ 0.7743946079133872
Kad@@ 0.8078727265872679
Reich@@ 0.2948092443767704
à@@ 1
kur@@ 0.2263992230101502
Press 0.39474600944757327
Great 0.16642740881241022
marketing 0.8351707239388618
Valenci@@ 1
Buch@@ 0.24247445461186215
1824 0.9503980715616767
itable 0.4502904190935177
1825 0.9008580236572953
Bug@@ 1
Oliver 0.700539659185266
Cho@@ 1
Gard@@ 0.8925408370299659
cal 0.36475530294053043
paral@@ 1
rot 1
Sep@@ 0.9999073777803837
SE 1
ór@@ 0.49779976282558797
· 0.05301881571322389
rio 0.8675374695888597
bad@@ 0.5499960012398991
DE 0.8239802004035653
ī@@ 0.6005015856581578
1802 1
portu@@ 1
Best 0.16050544443225143
PR@@ 0.9278800867878367
uld 0.7270260293279959
IR@@ 1
ough 0.30222624894000716
nus 1
ult 0.9663341844269969
HC 0.8878020874557412
Dami@@ 1
Jon@@ 1
Sign@@ 0.6248474540471449
Lombar@@ 1
Ner@@ 0.7767370144453815
Marcus 1
Gary 0.7089853740616922
gly@@ 1
Isle 1
inclus@@ 0.8896156624841606
Kenya 0.8792418594456662
Lug@@ 0.9377032208304087
borne 0.7775962755982919
thon 1
pot 0.5405213331292722
itures 1
1803 0.9464481841248928
clav@@ 1
thor@@ 0.5224407717114314
Steven 0.9211195560137497
Glasgow 0.6789980671726654
oll 0.605512566281141
Cruz 0.4709495191500574
CP 0.8527190721600101
WTA 1
roman@@ 1
Brit@@ 0.49114573228978387
YouTube 0.5784943245065459
revi@@ 0.920235248485172
Car 0.8933705705652045
CR@@ 1
sun@@ 0.3770029266085721
Fay@@ 1
Square 0.4925777560070504
Trump 0.6232767962238823
Warner 0.6456323504996404
hiz@@ 1
Vent@@ 0.9130558435055027
aer@@ 0.37694687544185146
ES 1
SS@@ 0.6320384821412603
violent 0.9829852758935166
iron 0.5511770950149311
bot 0.3983684177039769
opath@@ 1
Police 0.37461120337767007
1808 0.9847975866143451
festiv@@ 1
ody 0.3514616670340508
tium 1
Bed@@ 0.3043939677264162
Laura 0.8927275613826238
Prov@@ 1
Adams 0.5938730042819017
automati@@ 0.8283592581780829
dog@@ 0.8446065071480547
Nicole 1
infin@@ 1
Seattle 0.5964501308021967
28@@ 0.5102456507703116
kon@@ 0.1074478642035063
ally 0.03169334945455598
EP@@ 1
Pablo 0.6646249107368549
ibil@@ 1
Marshall 0.6461019968661171
It 0.013420513322007202
Marc@@ 1
mpi@@ 1
117@@ 1
anta 0.5413337047764731
trop@@ 0.5736646411688441
Jour@@ 1
Simone 1
abi 1
Kot@@ 0.8143911938122965
1813 0.8536809419198446
1828 0.8823441865737401
Art@@ 0.7312680946116277
Marqu@@ 0.8107423013567293
SD@@ 1
Cooper 0.7474603233786165
doubles 0.8319269262954023
Dallas 0.621231759565171
angu@@ 1
assign@@ 0.9907063597048967
Austr@@ 0.5039787421125528
Barry 0.7639441716374348
aller@@ 0.907278311357349
evin 1
Ax@@ 0.7965414868239472
bio 0.6499169739983098
Blues 0.7202976878246641
Parker 0.7425999715874284
Gav@@ 1
Alex@@ 1
imal 0.47933367249060427
vez 0.12683044144565037
DP 0.5370481146983553
TP 1
édo@@ 1
Amér@@ 1
gab@@ 1
Home 0.3207085043969159
Bod@@ 0.5732348447844091
Inn@@ 0.4970086332426987
cath@@ 0.9804210283731359
fav@@ 0.3963593456779853
tiges 1
ablan@@ 1
sacrif@@ 1
sale 0.4723117813485362
dent@@ 1
Unter@@ 0.09629317480986348
candidate 0.31122479158051075
Nord@@ 0.16710092120271205
Cyr@@ 1
ono 0.7584567339886842
Ok@@ 0.5026972785016504
titul@@ 1
Stein@@ 0.2739288866166371
Java 0.9214852484096637
stage 0.14261157485152381
Kosovo 1
León 0.5707825676790587
Queen 0.22956758300728566
Vog@@ 0.6257052888604611
Lawrence 0.5480141570023005
Rib@@ 1
promot@@ 0.4110101851790507
Chang@@ 1
tt@@ 0.4724718534576548
1821 0.786075050581332
fat@@ 0.7540046433437771
gy 0.5809223761936325
nica 1
Baltimore 0.6081715815847663
Rum@@ 0.44715376522077804
DI 0.9192711268073354
Austin 0.6010878926530205
Peugeot 1
Corr@@ 1
alo@@ 1
Histori@@ 1
Thur@@ 1
1,2 1
Ey@@ 1
Kun@@ 0.37473900938822485
Style 1
Afric@@ 1
Lamb@@ 1
Gru@@ 0.4789980037447414
hex@@ 1
Copa 0.31905292261383905
lip 0.5596096330145947
enton 0.9499561214181831
p. 1
angs 1
dyn@@ 1
Fun@@ 0.5685170483693514
otti 1
owo 1
Ann 0.6336866675104849
country 0.08756470867537773
oka 1
nis 0.22809962028174902
relevant 0.9682391492382628
trau@@ 0.9825196494712747
Stewart 0.6000145220114634
Valent@@ 0.9845282454425365
Broadway 0.5341941075913892
Mey@@ 1
mographie 1
1809 0.9914057388039188
1826 0.906000779043953
ogo 1
Alaska 0.7305952626995051
cim@@ 1
Fair@@ 0.4719573738066174
Gonz@@ 0.9066943723706034
Nation 0.7432494062395839
Laborat@@ 0.7573332022857958
PP@@ 1
1827 0.9829184751530163
lum 0.49066562992248597
Lep@@ 1
Leon@@ 0.6475410227093007
Charl@@ 0.667749546004048
Justin 1
ako 1
squ@@ 0.309291075347498
Grav@@ 1
1500 0.5074782274970431
ME 1
ellip@@ 1
porno@@ 1
ego 0.5199250647022445
Theatre 0.25815141880216447
asy@@ 1
v. 0.32037736254802085
nith@@ 1
tamb@@ 1
angers 1
1829 0.8631640563415195
Construction 0.6646890009139331
Hid@@ 0.7180041630344335
tet 0.1607477945456203
ways 0.17744369126519913
awa@@ 1
soph@@ 1
ws 0.15039588305374987
Quer@@ 0.8761780258702322
Good@@ 0.5370499530123365
bap@@ 1
ely 0.05911656481974339
rob@@ 0.6097863182476725
Sah@@ 0.7940702491438705
FIFA 0.5180659265667584
GA 0.7102285085688951
Harris 0.544813996559884
Cent@@ 0.622088222511175
ishi 0.9016766313482519
Jay 0.7693773224268925
Kurt 0.7732480790133364
Play@@ 0.24847670213331666
350 0.6672005161039328
M.@@ 0.5180827411608164
aris 1
Fitz@@ 0.7884923373099577
Julia 0.9123608482051391
Arena 0.5640512461274089
Valley 0.21528914990732329
900 0.5656890567849396
rain@@ 0.6884020681041355
continua 1
Garcia 1
supporters 0.8575828632685766
voyag@@ 1
Post 0.2687368991750276
zin@@ 0.819606509104732
ABC 0.49679394990200865
ingi@@ 1
ecture 0.7051130660930676
manufac@@ 1
Cli@@ 0.732804808013434
hyp@@ 1
Hit@@ 0.6258071925348953
her 0.013387419590013131
gers 0.4348174414367574
pec@@ 0.7604507828165528
elo 0.35316325010712385
sailles 1
ency 0.1607043768121025
ole@@ 1
Creek 0.24921614576730303
gie 1
1816 0.8861448935501592
invest@@ 0.6313577303364768
1807 1
Compos@@ 1
Brooklyn 0.6147512428995174
Ž@@ 1
augh@@ 0.3539522523242783
Camp 0.5966623042888662
maintenance 0.8418888758495123
ativ@@ 0.9872378562388922
aup@@ 0.924921897309596
J.@@ 0.7003342918476033
Civ@@ 1
raid 0.9288732378229952
Jerry 0.8242490324220473
water 0.07265095396301524
5.@@ 0.1853970863743577
azar 0.6864041229533151
Nog@@ 1
tail@@ 1
Sporting 1
disci@@ 1
Freder@@ 1
CI 1
Py@@ 0.7514448548935397
Rach@@ 1
sh 0.42021086678214137
Griff@@ 0.6466411519468409
cogni@@ 1
Ley@@ 1
Agu@@ 0.5613398650752132
pital 1
erc@@ 1
Monuments 1
supports 0.876144074345186
under@@ 0.07030941121289368
Guill@@ 1
flo@@ 0.138006200748664
Alberta 0.7966394666165331
Kap@@ 0.3054848635676041
Mang@@ 0.6831425815836474
Clem@@ 0.8396895142963883
Junior 0.35053307204803774
Rafael 0.7479865585516787
apar@@ 0.37385650213777427
Beng@@ 0.7577217092796589
Raj@@ 0.32961254994107714
jet 1
Dest@@ 1
nel 0.7676864846893345
0,0@@ 1
Grou@@ 1
Ray@@ 0.9421140391857407
carbon@@ 1
Rep@@ 0.889716094358791
pendi@@ 0.5056774074292308
Hong@@ 1
monast@@ 1
eppe 1
ić 0.966764101292483
Joan 0.8249872166385687
Lisa 0.9420092014990841
Lah@@ 1
Patri@@ 0.5030378284191597
alan@@ 0.5190271009348283
Manhattan 0.6771161919539955
Lef@@ 1
Wrestling 0.5424391599990903
Space 0.44108080138761935
Hand@@ 0.19466389283901453
ä 1
avi 0.882619698241073
xon 1
Graham 0.6282958432105851
1823 0.965163346020786
Elisabeth 0.7637326349632461
Tes@@ 0.9036044970304359
frage 1
Bron@@ 0.6262714606390847
Top@@ 0.6700149031937156
Cros@@ 0.5410436682267122
Atlas 1
ultés 1
Roth@@ 0.9184462924178101
Nem@@ 1
Zi@@ 0.29316509874457797
natal 1
Cog@@ 1
Gö@@ 0.5078571685870377
dad 0.43280332257845305
Pittsburgh 0.6166725544738468
usses 0.8479268657077499
Evans 0.68644956219686
Mant@@ 1
ascend@@ 1
sal 0.3275525939667827
insul@@ 1
Anth@@ 0.6967019882840696
1822 0.9261197609996845
1798 1
Wright 0.5899772992290659
angla@@ 1
Productions 0.8784990644135379
Frederick 0.47235150650880986
Campbell 0.585330368610755
Mozart 1
Sky@@ 0.9253647851470882
Cyc@@ 1
elia 0.6395873995993084
pol 1
Testament 1
fes@@ 0.3843972344547695
Town 0.2198466735208062
ferrovi@@ 1
ilia 0.7806315039545711
rap 0.9743721373569166
Montre@@ 1
System 0.22881526969199315
diers 1
Ve@@ 1
archiv@@ 1
Anto@@ 1
vamp@@ 1
Pep@@ 0.669000782037439
tant@@ 1
Dub@@ 1
Merc@@ 1
Cic@@ 1
stock 0.36539455759090794
â 1
Fen@@ 0.7559393131302842
ê 0.8442273059782496
IP@@ 0.7266963042899319
Hart@@ 0.4937636826089839
Paolo 1
opot@@ 1
ellan 1
oms 0.6841620376156061
Rah@@ 0.5934303883650847
Sony 0.6886813691510814
29@@ 0.5508158051939954
mouv@@ 1
Istanbul 0.9923510186035385
1818 0.8334703195787975
Moy@@ 1
GP@@ 0.9350236973769186
tuy@@ 1
D.@@ 0.8190692460723437
ink 0.39603293826666186
aton 0.8737784228725384
Shel@@ 0.648190465851065
ers@@ 0.4095235193108184
Is 0.3599078262899263
Tax@@ 1
ahn 0.3988571763801591
Wagner 0.8596640670158217
icon 0.6880252264787323
dal 0.9313480047659921
Hot@@ 0.558622020254914
para 0.015500703659034137
sto@@ 0.8145072202736656
intersection 0.8122637618671098
Afr@@ 0.9908675778946564
exces@@ 1
urus 1
Dick@@ 0.8073112816247018
cis 1
FK 0.9360107378524464
Alt@@ 0.30487192270545976
mas 0.5760394408012369
landes 1
B.@@ 0.5440452795674133
enko 0.8912943951294551
acr@@ 1
Walker 0.5149128901449128
Publi@@ 1
sah@@ 1
ated 0.015517186281890067
township 0.6211570515968311
Nature 0.8752958656835278
Wel@@ 0.34431538974526904
18,@@ 1
IA 0.7164624265675942
King@@ 0.7830223008094533
kir@@ 0.5071550342527686
Cun@@ 0.8642914535492339
convic@@ 0.5175906625030833
1804 1
lain 0.6483797755107681
Alabama 0.469345955747051
atum 0.5556137328288924
culp@@ 1
imm@@ 0.5022805120074635
1811 0.9454888882342012
yne 1
wh@@ 0.13142971579825485
amar@@ 0.7536869616121514
canc@@ 0.3598683705664122
ombi@@ 1
Thompson 0.5541308603404829
jav@@ 1
Schum@@ 1
Hak@@ 0.7627853938279322
Champions 0.4675961238701783
kom@@ 0.14202840085696058
Ib@@ 1
1817 0.9035065116279721
Band@@ 0.4379810057334954
forcement 0.7760702195618143
infrastructure 0.7553949987949206
Gy@@ 0.9418905566332637
saga 1
Will 0.5824956480714709
Monum@@ 0.7650919113106527
Gior@@ 1
Origin@@ 0.5155932431223863
chol@@ 1
lay 0.604902267592057
Jord@@ 1
Map@@ 0.8105649460457036
pers 0.32892162086769994
indo 1
Conrad 1
1,3 1
Fav@@ 1
50@@ 0.4283502881332699
pha 0.7382703402631228
cue 0.5715839525573122
BD 1
ilo 0.5727038343763412
into 0.019338156446690964
escor@@ 0.8609554350472681
ernes 1
Barn@@ 0.7195240541203468
aw 0.447059689301064
ð@@ 0.8919157983561332
enth@@ 0.40808419235629606
40@@ 0.4303931487805943
García 0.5082969519918151
mouth 0.324179182350488
rol 0.625431626632514
Andal@@ 1
FL@@ 1
Rotterdam 1
évision 1
Bourg@@ 1
Will@@ 0.5426697705989443
IF@@ 0.8763387023123823
Capr@@ 1
Old 0.20745326295811464
zu 0.010398743339547623
Phil 0.7711825458404089
segment 0.8075282325757294
Aless@@ 1
Sci@@ 1
1780 1
1799 1
ML@@ 0.4542876491501044
Hem@@ 0.4967189865503363
TO@@ 0.8898906561969828
eira 0.6954379429100961
athon 1
Landes 0.5293154393863815
abstr@@ 0.7893415594822026
asi 0.569049818088554
0,5 1
lum@@ 1
atra 0.6705354233818469
tat@@ 1
Simpson 1
Just@@ 1
Cler@@ 1
116@@ 1
Boeing 0.86193249882289
rell 0.6558690088994009
andro 1
Micha@@ 1
3.@@ 0.1566410818904561
Di 1
7,5 1
ampa 0.6631417100921061
Chen@@ 1
apa 0.5219130482451467
Jorge 0.5389576996752541
Shakespeare 0.9233897233735356
kel@@ 0.24366368841588112
Joachim 1
DO@@ 0.7118923908203026
eland 0.36253634704554777
Pis@@ 1
etc 0.4557138437192166
SV 0.43962685745742264
Stars 0.5789419186569761
Chil@@ 0.4673097956613572
town 0.0507279044439074
1819 0.9099671495336934
Was@@ 0.6447536508228674
Stuttgart 0.5584322730866703
Kō@@ 1
grou@@ 1
Cum@@ 0.5187186455663951
Rat@@ 0.5379116109462262
fax 0.8312394901839198
ingt 0.71194974000462
Apo@@ 0.847170306787104
Call@@ 0.8064811642531968
Scor@@ 0.8621330737861922
Harrison 0.662507748162755
Nig@@ 0.6633210566578306
Pent@@ 0.9061205879204413
Wang 0.7436304680531488
gir 1
Jor@@ 1
Network 0.33486048914986616
AB 0.7025531452226768
Forest 0.36934640995150464
aman@@ 0.9767366224583847
PO@@ 0.757281554627333
Spor@@ 0.7530469132203119
other@@ 0.2692483367286158
robot@@ 1
î 1
onga 1
Rudolf 0.5803994499903428
bet 1
È@@ 1
Rodol@@ 1
terminal 0.605166923325151
orium 0.5108602431405388
Eus@@ 1
els@@ 0.34654590594675205
Bond 1
Bun@@ 0.4659657805649149
Trou@@ 1
ump@@ 0.14675524311804242
nic@@ 0.7416766835197028
Matthew 0.6165856601662969
colombi@@ 1
Ghana 0.8023339570305692
corr@@ 1
Army 0.09274218106864035
ng 0.4088871306137487
multi 0.4531061656478705
incul@@ 1
Magn@@ 1
Boys 0.4867254165895132
eim 1
BM@@ 0.7107591747580184
Bangladesh 0.6454436418605315
Aman@@ 1
édrale 1
got 0.22099946259756928
Gamb@@ 1
Neil 0.7781346905371591
Vice 0.47433274097022615
Mann@@ 0.5181487766241036
Hos@@ 0.9859537982148923
RT 0.5997539502764097
Marx 1
Atel@@ 1
Cook 0.7033366122144894
allo@@ 0.8545323963327228
cid@@ 1
invasi@@ 1
zan 1
Silva 0.8675822553774261
wilaya 1
Hell@@ 1
hem 0.6103720139569383
insk 1
EC@@ 0.8286398991001207
rid 0.5302421073538091
Linux 0.8692784664848525
Imag@@ 0.9727523010595989
Note 0.6532711705532783
than@@ 0.7135400337282229
BS 0.43931757602396554
Angel 0.7724553330958316
dorf 0.3123822884310777
sar 0.7164958342870941
Hag@@ 0.7097021526442346
Mog@@ 1
Stefan 0.8646054437793302
You@@ 1
1805 0.9256244926325288
August 0.031032392580275823
Cous@@ 1
First 0.11006930717869891
Pag@@ 1
azi@@ 1
Bobby 0.7822845766427378
Harold 0.7723042816684108
codice 0.5659081557464362
Cao 0.8441372108043714
Mai 0.09911354342802546
Impact 1
tort 1
Jose@@ 0.5861371085497626
Annie 1
ats@@ 0.356337582109132
Universit@@ 0.9745916538387926
sheim 0.790006555039186
1,6 1
GP 0.9829668430373819
GE 1
Tru@@ 1
ö 0.7256307599772776
War 0.048644232636956185
Jack@@ 0.7449331347484929
dem 0.008420817407501002
olig@@ 1
Dark 0.6441421028692496
Mans@@ 1
Cay@@ 1
aries 0.14480747474157477
Og@@ 0.9118992512748669
1796 1
Vietnam 0.33965755829608996
Liga 0.15979863090458793
jar@@ 0.6689619471766021
105 0.6743658787827771
Shir@@ 0.6701126062723332
lair 1
Wayne 0.6237939422699305
Lorenzo 0.9072903069686445
tral 1
Maryland 0.38328651329605856
NS@@ 0.4623240364467488
ás 0.5471469137761512
Pun@@ 0.5642367186092578
Hydr@@ 1
Yor@@ 0.6257155655888074
kal@@ 0.19448471677026427
ikh 1
att 0.5884419820450891
file 0.7036093169658998
Hudson 0.6810599255692003
hat@@ 0.3981718466148745
ector 0.506875385772613
Ost@@ 0.21176148636220612
Bush 0.6071159769402223
Industrie 1
occasions 0.7579951437779544
dar@@ 0.13986765559019038
Party 0.08591407191767779
Willi@@ 0.7027706084048213
Morris 0.5985636733316869
Net@@ 0.4529133388878384
azzo 1
Baker 0.5963430729413831
robus@@ 1
Aul@@ 1
Giac@@ 1
nch@@ 0.8995068752917084
Up 0.41107516846294406
maf@@ 1
IF 1
ellen@@ 0.3958531121943277
Eddie 0.8068731846319241
Identi@@ 1
inflam@@ 1
iges 0.47300622107372436
tos@@ 1
ae@@ 0.3875022080876566
sis@@ 1
Hend@@ 1
Oslo 0.923689818603071
1797 1
biot@@ 1
Band 0.1412401528176162
Bras@@ 0.9519173170370813
aj 0.5487494977159443
ardo 1
50,@@ 1
elt 0.14564259184571135
encer 1
Sofia 1
phyl@@ 1
Faus@@ 1
aman 0.7099894899380232
High@@ 0.3677992083775297
serg@@ 1
Collection 0.8320462658432616
Hub@@ 0.5724133447881273
Oregon 0.407109384372649
Sang@@ 0.9347043755307135
cape 0.415062339311759
Kim@@ 0.7032764166375284
polar@@ 1
Gel@@ 0.2666206682974968
Lil@@ 1
aki@@ 1
Castell@@ 1
empl@@ 1
gang@@ 0.5368101711384602
Tel 1
Carl@@ 0.7026053261541743
isch 0.05243335116054234
pan 0.7724257246275904
Syr@@ 1
Coch@@ 1
otro@@ 1
obi@@ 0.6572415672498365
exten@@ 0.2733768486311097
Programme 1
luc@@ 1
enus 1
Finale 0.42215730353899794
inser@@ 1
bril@@ 1
see 0.08937736399391775
IG@@ 1
Sey@@ 1
catal@@ 1
Birmingham 0.5426455354030614
24,@@ 1
Inf@@ 0.5990377360263349
Nati@@ 0.9690552482105536
enburg 0.3515365942359199
gel 0.3522491891252667
stri@@ 0.28664311738786014
Western 0.11969695632395415
113@@ 1
LP 0.4687378446080322
Liu 0.9353535969174416
Colin 1
Beatles 1
pres 1
bra@@ 1
Airlines 0.6451218745720348
burn 0.4371914161289266
Brid@@ 0.6334919124263152
aze 1
unc@@ 0.10215505848106683
Vegas 0.6843669863987974
dit@@ 1
nutri@@ 0.9475823613223243
alternatif 1
iva 0.49156428067565444
Connecticut 0.46289467679065877
Domen@@ 1
ambre 1
nad 1
wer 0.1588087561553281
Tommy 0.8167759153529297
alc@@ 0.8961942270188382
fines 0.6707402026663496
Luke 0.7715176911315704
Norman 0.5328085542091157
quot@@ 0.4154329759273505
Att@@ 1
band@@ 0.3153539395955758
4,5 1
ender 0.1373509082078463
elius 0.9797148689028005
verb@@ 0.34207636923358203
Marina 0.9038008832593103
dei 1
e.@@ 0.8239039799234288
Exempl@@ 0.9630808976559562
Raw 1
Sev@@ 0.894190842844018
Sky 0.6156585792024698
USS 0.6029999522079865
Bam@@ 1
Railway 0.20137123092647474
Fame 0.4153130269178035
iner@@ 0.7806404744465266
Nab@@ 1
Omar 1
Haz@@ 0.6615177347962988
copal 0.8473805730017427
coron@@ 0.5693964105561737
Johan 1
Mitchell 0.6156112681979886
Jas@@ 0.9047309849305157
Standard 0.5166070000391115
charts 0.5442256066840023
18@@ 0.4416560731318687
Hoh@@ 0.4673437038834061
lip@@ 0.5068067701620114
Turner 0.6279221004036072
CAF 1
Key@@ 0.5765219178415438
sic@@ 1
20,@@ 1
Pérez 0.7107496130561912
Ralph 0.7372289321260108
ios@@ 1
ectu@@ 1
ough@@ 0.2505735365883324
Portu@@ 1
icide 1
4.@@ 0.15753721741963267
360 0.6874915762186545
Sha@@ 0.7250820324054991
adia 1
eti 0.4743837294146116
golf 0.8563019281316531
Rico 0.4956701641870089
Films 0.49339092012630226
Arsenal 0.9427081106718508
Nassau 1
Kentucky 0.39942911997363373
35@@ 0.5119823877660915
Â@@ 1
Tag@@ 0.43641077276444473
Human@@ 0.655473046067662
Byr@@ 0.665364974825312
andin@@ 1
yu 0.7541620048700676
Project 0.3462669004265915
Angel@@ 0.936853002795448
dimen@@ 0.49221067550547254
colspan 0.404751551825772
ventr@@ 1
Gat@@ 0.8387006839425589
ffer 0.6079242654706839
Wolfgang 0.586359748389107
substanti@@ 0.4667067293269419
Spar@@ 0.41106660754957475
clus@@ 0.6308286258448487
star@@ 0.2572998003365394
MI 1
Sax@@ 0.48445999093141884
Jon 0.7663288641529357
standards 0.4544953857052808
euro 1
Kazakhstan 1
Phase 0.7919054233035917
stars 0.2555177616552403
CB 1
Facebook 0.7194434856934476
management 0.19204028937055914
ymologie 1
Cincinnati 0.7242396188365398
inaug@@ 1
dio 0.18901716632966378
Warren 0.6165192392425132
MS@@ 0.5819186996056235
Daw@@ 0.7418003239722815
19,@@ 1
blind@@ 1
Va@@ 1
Fat@@ 1
Gram@@ 1
tarde 0.2362107161392319
170 0.7104312303432712
sat@@ 0.47638212882572745
Rin@@ 1
Jug@@ 0.6253716240905529
Stre@@ 0.22770425853965165
uj@@ 0.8135704787363335
Ś@@ 1
dha 1
nas@@ 0.697551697947144
Site 1
chair 0.4687299671638674
Disco@@ 1
oe 0.452115985288943
Pokémon 1
Cov@@ 0.6602846406793274
N. 0.5452736603215003
boy 0.2928681607142305
enda 0.35584615459924956
Qatar 1
Dog@@ 0.7845239109426314
Mountain 0.3135449782791174
bec@@ 0.48093874255636704
1,4 1
Universal 0.5190054283030001
Ivan@@ 1
fiscal 1
fan 0.5148570799537507
Batt@@ 0.7657711434580091
transport@@ 1
lama 1
Tap@@ 0.7811572609497768
agnol 1
CM 1
osaurus 0.9346730548621138
stal@@ 1
acer@@ 0.7064519698503929
esco 1
og 0.3779290106394416
P.@@ 0.8371529973306532
dioc@@ 0.5289636668798638
emple 1
emann 0.6733863721829745
Sebastian 0.7776024339139869
Clara 0.9209684023397157
lez 1
Elec@@ 0.2204823928704
entrev@@ 1
Double 0.9821885000944794
O. 0.7266934383618162
How@@ 0.5290798000124908
RI 1
down 0.05777019511608953
Roosevelt 0.784071749615887
Rhodes 1
Gul@@ 0.5490441883512879
Channel 0.33998588514937844
sand@@ 0.3784321760604581
Dick 0.7219862081993085
Mom@@ 0.6584696153416039
tial 0.6856189926204206
Ken 0.7306992781676708
oso 0.18153170398830043
Sri 0.36800773469452513
Gest@@ 0.3408134345702452
applic@@ 1
Collins 0.6538246578669641
lah 0.8347935248728627
Bris@@ 1
Danny 0.8322069553916492
Gand@@ 0.8140939010774035
Sas@@ 0.8257486124761892
tag@@ 0.3007734283587005
Stor@@ 0.566496017729504
ward 0.155342370857368
Dru@@ 0.507277972146683
Mode 1
Tac@@ 0.7707593356443545
now@@ 0.2713868370480965
Baron 0.45538140841489183
Gustav 0.6603909231990932
Pacific 0.18106621092256256
Shim@@ 1
red 0.0665484465456598
him@@ 0.7271445945091292
dice 0.32442816947593034
Lloyd 0.6256252045343218
siv@@ 1
Guatemala 0.676577390699565
mation 1
Um@@ 0.10802134717705976
amental 1
vier@@ 0.29056054552298977
ondo 0.9185954753300956
emy 1
infl@@ 0.7058819523362881
Dimi@@ 1
I.@@ 0.7374045406422938
aku 1
fel@@ 0.23347853354574452
nova 1
May 0.03730118242017585
Lud@@ 0.9021782113224046
McCar@@ 0.7626497480344038
Marion 1
Antarc@@ 0.7462332971082577
Der 0.01717813624598803
Produ@@ 0.5206371141493201
chs 0.5894916744892534
Josef 0.4975122883240354
Pont@@ 1
anor@@ 1
transpor@@ 1
extra 0.4550884613509961
CIA 0.9725121414247853
Rica 0.7074379664129796
yor@@ 1
Wik@@ 1
Presse 1
Just 0.531379901843762
vor 0.038266878769005586
icient 0.31627433009473926
FO@@ 0.7740854027766879
Islam 0.5333607585808746
Oklahoma 0.42882382200597524
Rho@@ 0.8607445345495555
mites 1
ror@@ 1
agh 0.9521464944915694
Gem@@ 0.3194030306039959
SF@@ 1
Bill@@ 0.876483586322637
Lima 0.619724951168583
Sot@@ 1
pati@@ 0.9306736240860252
Cra@@ 1
pak@@ 1
Salz@@ 0.7049302359478273
umière 1
č 1
Vivi@@ 1
Cycl@@ 0.931354782824504
tar 0.2640458627540882
33,@@ 1
map@@ 0.4707792015940823
Angola 1
Italien 0.4671700555990002
sz@@ 0.5233178125584462
insky 0.8456253917638039
22,@@ 1
Hul@@ 0.8968494455805814
Chat@@ 1
Wisconsin 0.3179568169477212
Cand@@ 0.7780615485273537
Who 0.49936125287580646
dex 1
conspir@@ 0.7759491962519858
uke 1
Particip@@ 1
Phoenix 0.6321710581930244
arius 0.875620690869433
aker 0.22735861190602452
embran@@ 1
Utr@@ 1
ensus 0.897405118867592
kol@@ 0.32026770331538307
tide 1
Colomb@@ 1
Fritz 0.6352259538410655
erra 0.7095846954904829
To 0.1281729610031899
www.@@ 0.7900174713408237
ymn@@ 1
Bang@@ 0.6921558097738225
gives 0.33629761766986277
Benn@@ 0.8439402970550249
ps@@ 0.7986378573343385
ester@@ 0.33582658366537466
sche 0.15875246204005236
Serie 0.20694296178846208
iji 1
Osaka 1
Rick 0.7329982762589088
utions 1
Fan@@ 1
L.@@ 0.6038260441180259
perform@@ 1
Paler@@ 1
Cloud 1
sia 0.785201100307653
leton 0.6462065697634682
AO 1
Julius 0.6290967851224762
isch@@ 0.12163135244842768
omi 0.9312090564928157
Newton 0.7596334152186262
uno 0.08717544398215715
bridge 0.1628646942894161
Alonso 1
echt 0.6123159242842772
dor 1
Eth@@ 0.3324184564379985
leaders 0.2685805880934834
Pie@@ 1
Steph@@ 0.583990976706073
2,4 1
NS 0.6198643871305943
polo 1
Unic@@ 1
Niger 1
PN@@ 0.9993888379179371
anom@@ 1
European 0.07514623301449437
Wolf 0.5535880286573563
Jen@@ 0.7275787290779269
Queensland 0.3537457613884151
Adap@@ 1
azz@@ 1
eption 0.8933956926931435
Wood 0.4811231168776287
Holstein 0.8196162444450014
xy@@ 1
Bristol 0.5765651643274419
fail@@ 0.7127358310429495
kan 0.411410499158928
Out 0.3670881292915249
ograph@@ 0.44027109126303554
bab@@ 0.42615107919391504
ât 1
1788 1
Tō@@ 1
û 1
Bull 0.9389485016404014
36@@ 0.6608671650104891
dispon@@ 1
Foundation 0.20861741740442674
Vul@@ 0.6909775174715211
Cob@@ 0.6064773585391225
Santos 0.6531675192097698
Tuc@@ 0.6207800815482355
idge 0.3097062100529254
incor@@ 1
senior 0.17338790352397826
Gray 0.6497340460262951
Harvey 0.8183662794946066
atu 1
Sask@@ 0.8659262769661151
yin 1
Biz@@ 1
effective 0.33003928873684263
Hassan 1
López 0.5426463813338701
tico 0.19474096546810055
nchron@@ 1
arina 0.6713911186596372
lass@@ 0.846554035370023
may@@ 0.3086245374735578
ael 1
200@@ 0.2962189022844819
endor@@ 0.5157156256296702
een 0.2933363084427313
Milit@@ 0.94709253434629
lop@@ 1
agin@@ 1
Strat@@ 1
ingo 0.6695753397570596
Utah 0.511801730366125
forma 0.10171001201540733
from 0.003984245909024146
onial 0.5830720768262688
Bj@@ 0.959754397385471
Hey@@ 0.7568012536434257
Gur@@ 0.5418591362631333
Girl 0.4700078962078306
Port@@ 0.8935356660249955
Rock@@ 0.5079828364559426
25,@@ 1
sberg 0.528278785272357
til 0.3075794345074238
Schw@@ 0.150839099295384
1775 1
aks 0.23841376178470947
mark 0.19537762016648383
Chrys@@ 1
Micro@@ 0.6835375549732928
Of 0.2314032966965876
arom@@ 1
eria 0.36891402366051607
CM@@ 0.9150468519466719
bey 0.767684779024721
33@@ 0.6179853671742084
Cross 0.2680852130840411
EL@@ 0.9805558954409694
kam@@ 0.5895454466600942
tex 1
Mati@@ 1
Sud@@ 0.33125383091343596
eston 0.5953654166136876
pora 1
1784 1
ren 0.577834679471355
octo@@ 1
UC@@ 0.5913138052414246
John@@ 0.6246657867933013
inski 1
Freud 1
1,8 1
elly 0.6111247740931279
Keith 0.7035188087788922
Terry 0.6656813002238184
mons 0.8373254293533329
1770 1
lets 0.36358009325514734
Ce@@ 1
eon 0.6731768484973241
otive 0.4339503060953832
Erik 1
ISO 0.925501835002746
Tang 0.9848852136705996
uan 0.8897329301480129
Churchill 1
Ster@@ 0.36067606542439024
Castro 0.7386035880891331
LC 0.5152146259630568
liner 0.9527547873668482
Wis@@ 0.8779577693829996
Business 0.27894192147395125
tul@@ 1
paravant 1
Sali@@ 1
Sti@@ 0.2662488912078001
Kle@@ 0.25662583475938
casting 0.44246519468195744
Shō@@ 1
ring 0.16784884794404809
Beth@@ 0.7295051153502292
Rey 0.5826270800249121
Squ@@ 0.5833992918921265
Nova 0.5430792377326638
dar 0.1940589806876386
kes 0.328180467850569
onius 1
Dag@@ 0.7554669013995313
German@@ 0.5394297895798803
escu 0.9012785509724973
2,3 1
Gallery 0.4292156425164487
Base 0.5002800344334177
ayn@@ 0.9310725942225453
Amp@@ 0.7394124826657903
alet 1
vial 1
Tob@@ 0.7196543115665228
1,1 1
Kum@@ 0.451001438907038
otop@@ 1
Pand@@ 0.6490379650966497
NT 1
Tad@@ 1
ostr@@ 0.8489087024340661
Eva 0.8648050150962838
DS@@ 0.8892512500104729
ju 0.8574148303594423
Row@@ 0.49843683796006666
ylo@@ 1
mach@@ 0.3452329263723576
0,1 1
uchi 1
esia 0.42741482029006445
fluor@@ 1
Portland 0.5185330249849632
Libre 1
emper@@ 0.48061786065831663
Brad@@ 0.511282655343294
Dra@@ 0.7204498032060892
Gag@@ 1
Your 0.40283547369732015
Box 0.6772560622310111
Over@@ 0.2646923753178406
Wehrmacht 1
Holmes 0.9052727999879148
Via 1
α 0.19395551454806345
Berkeley 0.7051421800752828
ony 0.17900449926384263
Tot@@ 0.48872113114206217
ate@@ 0.46307402677626974
ible 0.2804860181991438
igan 0.6707325195253384
itu@@ 0.6463326892212831
Westminster 0.9048131789856726
27,@@ 1
gin@@ 0.646668693355654
Andreas 0.5654755285272359
maxim@@ 1
Deutsche 0.28533059781506326
imit@@ 0.7523253413507128
male 0.19469146335455229
Wak@@ 0.7651195166809717
juris@@ 0.6670312400489327
Citroën 1
kor@@ 0.19161238024596522
amoto 1
Meyer 0.8207358008490809
Lob@@ 0.8295600029919221
odor@@ 1
Emer@@ 0.35627453332217246
Be 0.5186887174112104
Leo 0.5433680553662616
igt 0.4473714683912256
1783 1
aven 0.5708791922804061
Twitter 0.7423538605575766
rail 0.36079599195239115
1600 0.7920949029332606
bio@@ 1
termina 1
Global 0.3967264683283333
elis 1
rak@@ 0.833988181001776
Men 0.20478323019433017
Sof@@ 0.4958489328120311
suj@@ 1
34,@@ 1
Bin@@ 0.8021181111440197
Public 0.1731343858143236
yro@@ 1
kay@@ 0.6798701374961272
aft 0.17456059399718418
sels 0.33633438439792396
cros@@ 0.17490902180773935
rol@@ 0.2986151196452806
Que@@ 1
1750 1
Mack@@ 0.6750415503055865
Grandes 1
anch@@ 0.37987484374097463
Hugh 0.6235833615188394
hel@@ 0.11498408216546797
Him@@ 0.4663789023707078
Church 0.075629653060585
sets 0.29465293565502126
Say@@ 0.6354538610834909
pert 0.8704247268828966
tas@@ 0.19714507062803047
ò 0.6986564426213092
Heid@@ 1
macul@@ 1
oki 1
Clinton 0.5800033919015087
Do 0.3523653649070858
Larry 0.6901977296639049
Armstrong 0.8614068558756944
Brothers 0.45261784233408936
Paraguay 0.7666924626276691
Lions 0.7019462573168533
Sergio 1
SG 0.6063534284784922
berto 0.9338780173508612
rements 0.5086309504371087
Wimbledon 1
iden 0.15245155460772367
Sph@@ 0.9597553840359928
NR@@ 0.6542444279262194
atrième 1
tak@@ 0.2251425250706374
Alexandra 1
ynam@@ 1
arp@@ 1
Julian 0.8574796990685271
Werner 0.5954162190063765
Olymp@@ 0.8855244365950509
mail 0.5568960007455086
AV@@ 0.671362259043227
Pictures 0.5436797317152081
nik@@ 0.9493536680839431
Ron 0.720556387162809
Ts@@ 1
Lenn@@ 1
37@@ 0.6402184632055372
Book 0.2660318771882057
rik 0.7809905713126982
thel@@ 0.48071460649117254
Lyn@@ 1
HS 0.6783264649479075
102 0.6841671592561428
39@@ 0.7082524367944889
anny 1
tista 0.8444529232729108
SI 0.8653424277073235
Zhang 0.9166340154047816
Ish@@ 0.990992154733837
Flo@@ 0.5844632185274117
Gin@@ 1
Sieg@@ 0.2959779530383795
Kre@@ 0.18606420207058103
aper 1
0.@@ 0.09793780324432784
wn 0.1414005067921523
34@@ 0.6096242252402798
Miy@@ 1
Müller 0.5958778553984364
Río 0.32946526029280715
Niv@@ 1
Sonn@@ 0.3698570944494823
Susan 0.714139519768272
locom@@ 0.906005655128568
ā 0.6452663031910705
kar 0.5359532561358468
Æ@@ 1
6.@@ 0.15568539340780208
mos 0.5888032881262405
80@@ 0.4297991030097383
uru 0.5963899721805419
Hass@@ 1
ovi@@ 0.5046963257724437
Lieutenant 0.407056705825201
Allan 0.9311978458965279
Elli@@ 0.7175574868998942
ulg@@ 1
1787 1
Angelo 1
ao@@ 1
26,@@ 1
Wild 0.5587591500419088
Tex@@ 0.3209469559069058
Dead 0.5535695383310384
FL 0.2884425520787563
wen 0.5775075719898626
animales 0.805038803072204
aza 0.4008048616281388
ú 0.36484740733106097
Roman@@ 0.36177392183791085
Neg@@ 0.4796883248083074
Wells 0.7564241586521944
Fabr@@ 1
Kate 0.7956171890436117
450 0.6529590599508945
eline 0.5568012921546961
´ 1
Santo 0.49350593946507065
Under@@ 0.3846690288444447
Leh@@ 0.4170321721878398
uka 0.8966947094531151
F.@@ 0.760764229009992
combustible 1
Tall@@ 0.8314138481072318
Wy@@ 0.6266455301577539
bia 0.7151415238306713
enr@@ 0.36131990460459806
VA 0.5462178151986097
orig@@ 0.6287831138514471
æ 1
orb@@ 0.6122573087213625
sm@@ 0.23122425048345063
quez 0.8433848998793819
ympi@@ 1
Day@@ 0.5439488463994867
Rachel 0.9150078716713217
einture 1
constant 0.5668426207991946
Light 0.34967020468250215
alto 0.3188004151378242
Information 0.4377234924695834
Cohen 0.997329830887642
sburg 0.3569536128057829
Free 0.3273864624957808
oon 0.2996397401577798
Sea 0.20831935446736172
contra 0.11105745197960691
ński 0.9901150432608192
Kaw@@ 0.9919975952097059
SM@@ 0.8467417660272174
Porsche 1
einer 0.01631255880261484
Schneider 0.9802605292760533
21,@@ 1
Richmond 0.5267691103589124
etière 1
Vand@@ 1
odon@@ 1
Nathan 0.9512783183641679
eros 0.15088585856496886
lane 0.5643805887445464
Glo@@ 0.8767815860133964
Promotion 0.8568603288844379
Sv@@ 0.8543657173412398
Gabon 1
Dom 1
folk 0.45033184385871083
Race 0.6089700931393072
Hin@@ 0.1822342760054422
Sok@@ 1
Story 0.5072684104927436
Perry 0.6188952590831837
loo 1
Io@@ 1
Nich@@ 0.5805840366036749
Spr@@ 0.2733674844300851
1785 1
UC 1
lice 1
inci 1
Hog@@ 0.7160240155751028
Sn@@ 0.565882702814687
inga 0.7439409855902166
Down 0.5318656770401722
Elena 1
Oliv@@ 1
nio 1
1778 1
Nes@@ 1
inales 1
Bid@@ 1
Rwanda 1
traf@@ 0.5173596649199693
Triple 0.7809041966991298
aru 1
ders 0.10938109632918169
ovice 1
dura 1
glu@@ 1
Madonna 0.8021029121163668
Nau@@ 1
Ed 0.6113801316830071
shi@@ 0.1148439642475605
annon 0.4958483459602899
CR 0.7197966767865096
Coast 0.2228719726321074
Dow@@ 0.4289589813701741
Dioc@@ 0.526601876858645
écolo@@ 1
informe 1
neg@@ 0.15207439190428992
kers 0.229195538611427
osh@@ 0.6534422205934053
BMW 0.9190666328679615
osom@@ 0.9984498718252084
38@@ 0.5988602518732954
Congr@@ 1
andra 0.6158086979660026
his@@ 1
Beethoven 1
aver 0.5694349760537268
dom 0.2779381356700596
Grace 0.6481915459859433
104 0.6955037359789709
7.@@ 0.15754272152326465
book 0.05758522154744695
hen 0.4304936313173972
vio 0.4401452969011843
1,7 1
Law@@ 0.3542980542558902
Inc 1
gan 0.41971146399010373
ingrad 1
éclip@@ 1
jer@@ 0.3549856708592133
Suff@@ 0.6873020433843599
Fus@@ 1
Aber@@ 0.5493915959540607
Ç@@ 0.260784471799289
Four 0.2792671747998645
Jo 1
czy@@ 1
HD 0.4557532838049403
Albums 0.5120152133428469
Roll@@ 0.8577867918123308
T.@@ 0.83460169289373
facto 1
hav@@ 0.3981161704030568
cev@@ 1
Dean 0.4301738726451133
Japan 0.08626887031601294
ț@@ 0.907767272999877
Sis@@ 1
iris 1
Hut@@ 0.5726080841100549
Magnus 1
Ox@@ 0.5486873798816845
Chelsea 0.7548648764150688
Orlando 0.8545861467230096
unter 0.029072416183377203
Leonard 0.6958219262431939
23,@@ 1
Gibraltar 1
Sept@@ 1
rine 1
Ronald 0.8148474223656251
Tang@@ 0.984774423467323
Aaron 0.7812073759333398
Hardy 1
Hob@@ 0.6185507079805154
Yas@@ 0.9380464496385228
chwitz 1
tidae 0.8340670104223165
Vu@@ 1
jiang 1
enh@@ 0.15748810365855492
nitr@@ 0.8244416023282973
rod@@ 0.4964617699816503
inves@@ 1
model@@ 0.43664160870008245
bay 0.17354297642475353
Hein@@ 0.6023113748877816
Tanz@@ 0.9722145242671056
Brigade 0.331921600227756
yat@@ 0.6578634875413
Sean 0.7653352877298674
ù 1
head 0.06134878491115348
1760 1
ru 0.8349663034553315
Section 0.647352310344601
expl@@ 0.12724618291333525
Secret 0.7946311084363171
Klein 0.7700276289442336
ayo 0.37475226241733534
superfici@@ 1
Ö@@ 0.19319209471401103
Hyp@@ 0.88109765252748
Dance 0.39507272752602707
Now@@ 0.7007272168967514
Jak@@ 0.5874614775700628
ld 1
nac@@ 0.6403312843916309
Jin 1
mite 1
alle@@ 0.3126717773796124
orian 0.7045288249157539
3000 0.4399177864406418
Electric 0.5679141339863921
ał@@ 1
tors 0.08753199705337693
wag@@ 0.8323718642500664
Alpha 0.8400459417393924
orio 0.2828138025237205
gar 0.24592780082975566
Rolling 0.6025685928948227
Way 0.4338592365191444
Ye@@ 0.5761210017981909
Dus@@ 1
Hills 0.42124194244814683
perf@@ 0.24886185042812414
bei 0.014072000320859328
Greg 0.7761852999273393
UR@@ 0.9715542626064875
mental 0.18998713923053112
Palm@@ 0.8069853704602489
Jal@@ 1
Quar@@ 0.49550098468208764
gradu@@ 0.15253275059121382
Institu@@ 0.42241971435559916
chel@@ 1
sian 0.24768548619935393
1776 0.974183605792931
ias 0.4309849798462813
Bask@@ 1
enga 1
22@@ 0.5406431282901115
Garden 0.4126562098370991
fj@@ 1
Ż@@ 1
tribu@@ 0.4371600603426569
icks 0.4314237507964417
ome@@ 0.35821765049087306
48,@@ 1
Diam@@ 1
135 0.6951886230694677
wor@@ 0.06514640913451403
Abel 1
emin@@ 0.758865988751591
Kings 0.5584526229361758
square 0.19552967747472408
ør@@ 0.803741017743909
1763 1
Anim@@ 0.6892717156392906
Girls 0.41751917903879643
Hosp@@ 1
Design 0.2846804445866579
IV@@ 1
Doh@@ 1
auses 0.6841942497347194
stra@@ 0.5917389644133865
Galil@@ 1
tari 1
Cameron 0.738797477661704
Pig@@ 1
Crist@@ 1
MTV 0.48062930095922307
Stef@@ 1
Chré@@ 1
Tu 1
enza 0.7092054636577867
effici@@ 0.5823385364337179
Classic 0.5365377692639078
comparti@@ 1
Grammy 0.5927775947470068
Miles 0.8654474177589183
ocar@@ 1
Batman 0.9262150942773051
Athletic 0.4167462803466267
Put@@ 0.7479946026629454
phi@@ 0.6625763209384655
Abd 1
hausen 0.31887003711424566
zin 1
Pok@@ 0.5011564820530078
Machine 0.7885260597452967
PT@@ 1
ict 0.40778574909396337
Schwar@@ 0.4296450986572924
Memorial 0.28173432215771516
hin 0.25943932796971847
lington 0.47584341920641376
Bridge 0.23744643925008152
Miss@@ 0.5349119003571543
Rodrigu@@ 1
isition 1
1700 0.8364928042936327
Spencer 0.7313494314164416
game 0.03481615211698939
Delta 0.6113353746419284
Hart 0.7117606966980324
e. 0.9479603654234889
ás@@ 0.3498953605996346
LM 1
fried 0.7028229845320885
xu@@ 1
Ball 0.5426895813069089
leuc@@ 1
delta 1
essa 1
29,@@ 1
cole 1
ño 0.2508424574864
Watson 0.6624184557860333
vog@@ 1
Nicholas 0.4954654603642399
Recon@@ 1
aldo 0.8169846927506154
pler 0.7799603086881274
→ 0.6860866778094934
Avi@@ 0.988226184910675
Mr@@ 0.3529979261341703
jk 1
edr@@ 0.25177327402855854
Hunter 0.5358355044255866
Dmi@@ 1
Lanka 0.4882028434413713
Pam@@ 0.7318792263750203
ily 0.332294562563477
Meh@@ 0.7630360195533603
Dah@@ 1
EF 1
eum 0.34047105670994293
Quel@@ 1
avirus 1
fast 0.12243802059775165
Harr@@ 0.7759906733636396
Felix 0.7234368831058916
González 0.4937637476131811
Khal@@ 1
eer 0.24777039875315238
Wu 0.7806480823638067
former@@ 1
ppo 1
109 0.7122111962393761
1786 1
Mali@@ 1
LG@@ 1
iel 1
uba 0.6448908747082788
ER 0.7762297808194759
Chim@@ 1
nombre@@ 1
PG 0.808933344698611
uo 0.39771035388701265
Ruth 0.7300718413093773
SD 0.7356891595840059
Technology 0.2490433542880708
Khar@@ 1
orama 1
quième 1
Xbox 0.8506505410958122
Del 0.3854405544926699
LE 1
ather 0.20281569538540345
Hed@@ 0.624574992482959
Sound 0.39128728103562715
UK 0.09354372032212735
V8 1
Dakota 0.46279689221189163
Rob 0.783570310641348
Archi@@ 0.4920441977889855
Religion 0.5939956382397084
Circuit 0.6453202047919525
cester 0.68020581122421
Hop@@ 0.5738627901457037
Wallace 0.6578824964993281
olan 0.10827207279823937
Cub@@ 0.42665651929173565
auff@@ 0.33511794896764074
iler@@ 0.7421767015751335
BO@@ 0.7148313829614595
subj@@ 0.29434261691644875
28,@@ 1
2,2 1
We 0.17192279495518595
Gib@@ 0.6925020398858589
eka 0.7281364716657126
commander 0.2869415100150201
born 0.021919509830392685
vat@@ 0.896724357732774
postul@@ 1
103 0.6814118497679165
Abd@@ 1
Encyclo@@ 1
Magic 0.6574933381439285
esh 0.40136520985135965
Hockey 0.25930233861615753
yse 1
Arkansas 0.42046766770752964
Ltd 0.413289145861466
teri@@ 0.25213671136258925
tropical 0.24388340357318058
Rag@@ 0.7411152592122886
teil@@ 0.17745256460177197
Weimar 1
Fra@@ 1
ife 0.3957226704969015
vag@@ 1
Mab@@ 1
Blake 0.8470156040531357
Final 0.20310433439880524
thy@@ 1
Butler 0.6451881242177213
ney@@ 1
Abu 0.5340920870692056
iba 0.6619935794485561
Amar@@ 0.7378577904225744
Barb@@ 0.7633889405519848
Organ@@ 0.558296700775146
upe 1
gang 0.15040598957021534
Jennifer 0.8794536073136792
Apollo 0.9439509686974719
Edo 1
chu 1
estes 1
oper@@ 0.08038824965025049
Schmidt 0.6048285983071385
Sug@@ 0.5856061038132726
var 0.4336579670294452
Soy@@ 1
Yah@@ 0.9858947197690763
lars 0.9133021092385127
Eas@@ 0.4652447571790924
Jab@@ 1
iter@@ 0.4372272607842264
stand 0.058358901153481614
Eug@@ 1
Adel@@ 0.678600626405539
Fischer 0.6812540849598492
jeun@@ 1
Good 0.3531239860919179
tney 0.9554727565126986
Capital 0.42165896911980666
meeting 0.1719393914724834
Pall@@ 1
rett 0.5873425800936203
1782 1
Helen 0.5914205363526062
align 0.2508702478758998
1200 0.6146885199725929
pant@@ 1
Council 0.06837104067914364
Virginia 0.1161328529233523
Are@@ 1
Nevada 0.5307278959781233
PD 0.607202744611118
arro 0.7368263276809703
inda 0.6661345870046913
Constant@@ 0.9530001267439424
Muhammad 0.4494455840705447
poem 0.3471420486513943
1,9 1
ross 0.663998321940806
Kis@@ 0.9739226491910901
cret 1
Labr@@ 1
Sara 0.9269611790068789
Slo@@ 0.38489117252076455
Lomb@@ 1
SR 0.24009402997812393
FBI 0.7726804150661609
Pow@@ 0.5038633251674737
oj@@ 0.500503583512154
Mail@@ 0.863629162966845
Zel@@ 0.9547052980642248
scope 0.5144306654060518
County 0.03165224437053752
sormais 1
iya 1
robot 1
Michelle 1
Tradi@@ 0.48209434180873023
Zar@@ 0.721142013188322
ambigu@@ 0.7982796287916101
Haus@@ 0.24801139309686243
Mall@@ 0.6625282857157053
Wellington 0.6549828668842722
Management 0.26380970976962914
HF 0.7028054477003116
rail@@ 0.2654604317637406
eke 0.7988404136578529
sep@@ 0.867635719179755
Manit@@ 0.8356875396150741
PP 0.8811975776110424
bers 0.1528344108269478
Yok@@ 1
3,2 1
Dennis 0.5995223413533922
Bus 0.6355203989208444
Must@@ 1
Court 0.08956229147148853
alls 0.24619065405392412
chia 0.46104142531171977
Sahara 1
persp@@ 1
Scot@@ 0.32568666030737076
macro@@ 1
Carol@@ 1
kow@@ 1
Carmen 0.6818259557624885
Quint@@ 1
Murphy 0.5998180835428328
satisfac@@ 1
bron@@ 0.9100265567755338
onym@@ 0.3711543383198577
Craig 0.6251964219589508
Motor@@ 0.33646974243739375
Lotus 1
Shu@@ 0.5890190305193158
Rain@@ 0.9536092441414921
Tau@@ 0.6903269411444835
Moon 0.4281703428200526
Death 0.23473780009530007
Gw@@ 0.8901267604627373
Sty@@ 1
vali@@ 0.5219109261667796
Lane 0.4122307788897409
Olga 1
1777 1
220 0.657591960006639
1774 1
eren 0.05856001224254325
ship 0.04118950161161357
zel@@ 0.9319592051237947
Atlantic 0.22637466734893003
Weber 0.8034914174894554
thy 0.28853503949743853
deg@@ 0.7851031261337609
yon@@ 0.4989178691998573
108 0.6565757670919786
Inv@@ 0.7600766552977752
Open@@ 0.5654416824113422
Rodríguez 0.5136131257859606
asco 0.7116033279578994
Tag 0.24361484989732535
oral 0.3362889665499458
Sit@@ 0.7133346652534001
isha 0.5714552026897406
kW 0.7323524398514728
phé@@ 1
Nin@@ 0.5707018530362697
Chanc@@ 0.6276340134791042
Memphis 0.8452420585472249
ausen 0.42118609291030684
pper 0.5089934682910128
kw@@ 0.2653323912530374
Emily 0.8234652805408105
NCAA 0.2653186535906902
ear@@ 0.08204060796282493
Madison 0.532330892182519
gli@@ 0.5332982291225307
Hali@@ 0.6755515109004809
alty 0.25476249991556876
bak@@ 0.37998179397557985
Tai@@ 0.4787192306874313
XVIII 0.33796699780532796
45@@ 0.550078498533553
Tech 0.561449951521677
hil@@ 0.4490895120576351
eca 0.3642578460453803
omen@@ 0.6808865822871296
Raz@@ 0.9494148411986179
def@@ 0.063408716828132
ology 0.04813511914689783
asis 0.3666490519470543
Alc@@ 1
EA 0.8878889304541807
Kus@@ 0.6085909590138233
diger 1
Ses@@ 0.5660839086870598
oca 0.35657738753367235
sta 0.322134910885972
Law 0.15233241950642257
Loy@@ 0.9539741614021652
Buffalo 0.5428342164131756
Ana 0.500150743256956
Aviation 0.6721865733750376
CBS 0.39668467832411386
Kru@@ 0.8436416614259925
trum 0.4604796571719907
Fas@@ 0.43079555866840946
Fried@@ 0.45083657913704783
zes 0.3951419559866968
Prof@@ 0.27834596335682416
TR@@ 1
Grig@@ 1
Buck@@ 0.6533541332767256
Netflix 0.8552042444977208
icia 0.3218298836039207
Baby 0.5882684793528863
podi@@ 1
xa 0.45255806264757087
ern 0.03997199290369934
provoc@@ 0.6567268132880465
soul 0.6383608941729157
Hampshire 0.4572746766528949
Nacional 0.10763084458454002
Commer@@ 0.6693672136260738
106 0.6750439592526996
Indian 0.08012843276712447
Railroad 0.36176332850501725
mid@@ 0.17924013021141472
Arte 0.6976603028654058
Whe@@ 0.36929918389449873
carp@@ 0.7748390627631689
Bail@@ 1
Phot@@ 0.5317297483180002
Eul@@ 0.9482695162091417
Peg@@ 0.7761648029538881
Psych@@ 0.33961509673650137
yards 0.23175507422580371
maximal 1
Brah@@ 0.6030498650651266
Da 0.1440710511169885
elec@@ 0.11864009711418623
mak@@ 0.16555385331122044
G.@@ 0.7765893133315377
Luther 0.8434530423815789
veaux 1
alus 0.7856061653968502
ubil@@ 0.9814659157777781
Obama 0.6136191983957637
ths 0.18160534331213932
ț 1
actylus 1
mat 1
.S. 0.5690998208146203
Mobile 0.6381895799486851
ön@@ 0.17715045021984338
6,5 1
Pach@@ 0.686931066382606
Tok@@ 0.7991826317373213
Dream 0.5695159324197907
Buz@@ 1
Ellen 0.8587553899457147
Mi 0.8533529150701081
Roberts 0.5285720927508488
win@@ 0.27518986176714066
Sánchez 0.6432805397348246
19@@ 0.6408595154858313
Album 0.14871484500654755
Mim@@ 1
Play 0.3876778522874712
uy 1
hâ@@ 1
Chand@@ 0.6173955190740067
prov@@ 0.1747977547693154
ís 0.6630908135679251
Grey 0.6673921236568889
phus 0.9407359356482088
Bonif@@ 1
elen 0.34070866456679905
vertical 0.5679740302166117
Lang 0.9321592335066622
appe@@ 0.2591833651945274
uto 0.47797357841503846
engu@@ 0.8340999044989119
Hod@@ 0.6456446623222817
Pist@@ 0.9792948219280385
tang@@ 1
Administr@@ 0.49612018882986153
partici@@ 1
36,@@ 1
PN 0.6622384011243734
ST 0.6666800809056519
Pop 0.44095051521097967
Bundesliga 0.34150531315461685
Fred@@ 0.9928457934760201
bid@@ 0.6382558136857349
Orchestra 0.34806696058241793
CT@@ 0.7931050158520689
Gouverneur 0.9771743954530422
lau@@ 0.23857633907632494
Bryan 0.7790345659926661
acks 0.22266860316052212
August@@ 0.6864379299761321
kinson 0.6418473537116377
Nick@@ 0.596049926744392
wat@@ 0.20475911080344752
Ricardo 0.6545739853258984
O.@@ 0.8542317189235785
112 0.7087755468247031
hang@@ 0.4713046980268959
Berger 1
Jefferson 0.5458491934274448
NBC 0.3982295876436023
disco@@ 0.21451776391409114
Audi 1
allah 1
icules 1
2,6 1
Jag@@ 0.4871746126516263
UE@@ 1
cos 0.2590045615605121
aster 0.2846486338487322
LGBT 0.7463070765407677
dam 0.41859394517642534
wil@@ 0.16446782600509388
asaki 1
gon 1
Schleswig 0.6287567069977608
hit 0.12668576287243186
uss 0.1939971146708945
ós 0.9680561930780162
End 0.3781377718045141
Fire 0.3278539534541429
arien 1
ensen 0.5801450399875173
Airbus 1
Guar@@ 0.6634006484804172
Television 0.26994213434980807
obe 1
hard@@ 0.22835567701682166
hispan@@ 1
illar@@ 1
Sex@@ 0.5027597260079001
ègre 1
Amy 0.804561580661495
Honda 0.8555790944565669
Liz@@ 0.5569019244965606
borde 1
5,5 1
lava 0.6869656888738929
cht 0.12268274797995796
Six@@ 0.5823230919358352
ith@@ 0.378017988690585
alli 0.5936049379052237
uple 1
hat 0.03686175447723872
Heart 0.37749268435952166
Ted 0.6902243091462078
stand@@ 0.22136753201574585
glom@@ 1
sius 0.7625038354055582
8.@@ 0.1522425971803959
uries 1
Anast@@ 1
DR 0.5338317626224183
Potter 1
teil 0.11165630371034792
Montana 0.5876016594124227
Buff@@ 1
ül@@ 0.16461882963964636
atti 1
agen 0.12166650668890087
wel@@ 0.1403716717817402
Patricia 1
Spo@@ 0.637406818941883
Serv@@ 0.9344295897597171
Wend@@ 0.6934828094449824
CG 1
dru@@ 0.31364668716066935
itas 0.34762242859121795
sidi@@ 1
clusive 0.5467458377661875
Pan 0.4535190656874612
olin 1
Burg@@ 0.3329936182728292
gin 0.31540789351427084
agglom@@ 1
aurus 0.991254049796624
Opera 0.3564944101188258
omar 1
Diana 0.768140285064343
Page 0.7405919355179797
Yu 0.9502159613150303
Edwards 0.5615273318363804
Globe 0.8274999580579925
Thom@@ 0.9251152079793434
ince 0.517920137214781
Midd@@ 0.44936136095441087
nan@@ 1
tras 0.11360839709019376
Lati@@ 1
Nah@@ 0.43127837016312853
km@@ 0.6258381146673833
litz 0.6898055032775058
Halle 0.4703775116713723
offic@@ 1
Kak@@ 0.8984254152943455
western 0.08763476381548677
SH@@ 0.7106876453515171
Viktor 1
1772 1
liga 0.20287776017303255
Düsseldorf 0.5204269863859042
Bien@@ 1
Daily 0.38505448911411405
zel 0.48469228846621615
cot 0.7364513211091831
Cus@@ 0.46746861531722605
acon@@ 1
esch@@ 0.15726132545158442
1740 1
Zor@@ 0.9729252659457469
Kay@@ 0.6989994298467961
Lip@@ 0.9375750695130762
icher 0.995253300520561
128 0.6536971647543312
N.@@ 0.620756018500064
Norfolk 0.550627232112363
auf@@ 0.02757428166384251
offices 0.30479574804064025
Plant@@ 0.805497792803599
arro@@ 0.5215596627632064
For 0.04523917142786551
Penn@@ 0.6791610875892358
enzo 1
Lucy 0.7768526918981186
esis 0.15259702080673215
édr@@ 1
As 0.027168732807041435
aan 0.902845692815082
Nos@@ 1
cac@@ 1
oides 0.4325937045250289
Kö@@ 0.322451175936994
Monter@@ 0.8832856440557011
eg 0.3558621133930537
Kri@@ 0.5469505380004389
Jav@@ 0.7760258988374099
ques@@ 1
fici@@ 1
ainer 0.5799269991468655
Yang 0.7144282949871652
Mih@@ 0.89909017275595
Marin@@ 0.6622681703909511
Guang@@ 0.7262016476326486
timent 1
berland 0.6977888125465312
CL@@ 0.841537702031414
Herman 0.9775242795970054
ific@@ 0.35151683453373844
AI 0.677671206376457
Gog@@ 1
Path@@ 0.7042560168455553
break 0.1658844648555986
Clin@@ 0.5618398357936001
Did@@ 1
107 0.6662865909156399
BB 0.7986895227498327
für 0.007200194707575734
Koh@@ 0.27501732052370026
TE 0.7249772110459205
1779 1
iller@@ 0.7948899725848633
Rogers 0.5326177646913322
pith@@ 0.726353502995014
tenberg 0.5284193300782323
bach@@ 0.34593062738830593
Dul@@ 0.7382389885205709
Nina 1
Ich@@ 1
Cole 0.6796119016150843
tane 1
Yorkshire 0.4537631782005592
oty@@ 0.8744419842866381
Henn@@ 0.8935085426308379
Yel@@ 0.4279908536198621
RN@@ 0.9511504641000312
44@@ 0.7333469680078987
KO 0.8519114741137435
omy@@ 1
Ibrahim 1
Autor@@ 0.5909152754821768
Vy@@ 1
person@@ 0.13082676358440426
Ent@@ 0.20885404465113255
Guide 0.716130880430313
IBM 0.591740444082833
Joy@@ 1
HP 0.6111860575152358
Tower 0.3849898035739643
Café 1
Eisen@@ 0.3517571734324748
Lum@@ 0.9635411982714557
anza 0.22139256851823536
views 0.1764761462823953
stre@@ 0.12250790101859219
Kov@@ 1
Pru@@ 1
1781 1
Silver 0.39899168516121186
lati@@ 1
Kingston 0.7647028240879411
cat 0.6209287695376288
ý@@ 0.9745170871935593
This 0.015974427118700996
otom@@ 0.5101435027302482
China 0.05888785775594585
ahl 0.2589211702524068
ucci 1
£ 0.15492657222016948
3,3 1
Heb@@ 0.3618418819048449
Digital 0.3833760621158857
nivel@@ 1
Constitu@@ 0.39189016326844417
Lod@@ 0.5589007291937744
2,7 1
Stur@@ 0.39059056906043155
1768 1
IT 0.4601310795541837
ican 0.18858770747024303
orqu@@ 1
Leon 0.6698408540362483
dérou@@ 1
Zen@@ 0.8437566583006474
fortun@@ 0.5381711228790174
lov 1
Michel@@ 1
Braz@@ 1
Montr@@ 1
Ward 0.41930130448610897
endorf 0.3132067753244591
Chen 0.6895585236418729
X. 0.8684566322326664
tav@@ 0.5548310529542354
Form@@ 0.39097978061148436
very 0.03313989282725434
Hotel 0.21725628325430513
Krist@@ 0.5681167453376783
Pete 0.7234305363136633
Rak@@ 0.5089619809586755
NT@@ 0.7542493466531149
relativ@@ 1
Iron 0.3957662456991731
Pant@@ 1
Duke 0.1999208560077553
onen 0.10158569880112975
0,2 1
Sant 0.8574758118284652
blog 1
Cis@@ 1
enz 0.11251336383284352
halle 1
hap@@ 0.6084091748913671
tom 0.30152909581561943
Denver 0.5534661967855711
isl@@ 0.397373294098314
121 0.8068629138283286
2,8 1
Jessica 0.9621536619550454
0,6 1
Edmund 0.690437496137741
assi 1
115 0.610868130210102
khe@@ 0.5466870956426357
Run@@ 0.33510000166490306
Myr@@ 0.7459035759976638
Palace 0.34290139400540626
ful@@ 0.3218352106636675
Kenneth 0.733892114533593
Tigers 0.5158103365090626
Cann@@ 0.8395042513673058
inas 0.1309975416026543
Hist@@ 0.6877531702040874
gom@@ 1
aur 0.7825586865682216
Dob@@ 0.6815432581643658
ping 0.18626343439389342
Zu@@ 0.37372634056944004
respectiv@@ 1
GB 0.31811346965018
Rut@@ 0.6586790398545757
nam 0.20330782153315044
soccer 0.4366061013574375
BR@@ 0.9568791559055329
oci@@ 0.4190315137088743
Catal@@ 0.637282842690022
Darwin 0.8873264061889696
eval 0.7928562327906925
Adrian 0.8680292194998409
Toyota 0.8108567353607151
Women 0.0906862632320424
script 0.395627411594329
Mary@@ 1
amaz@@ 0.8977216411201104
odon 1
Cran@@ 0.6373300395269753
Clarke 0.6122516412475968
rico 0.8739402888469371
1720 1
111 0.6441273295364515
Spi@@ 0.23528218762152905
Newcastle 0.5417705015218703
Chic@@ 0.8012119635069689
&apos;@@ 0.029414917411233758
Country 0.23268609046569402
PM 0.610973542651219
Romeo 1
miles 0.17934235697174025
under 0.018517136644579105
35,@@ 1
Chor@@ 0.32934448394061194
dius 1
Lich@@ 0.5714700587412661
Montgomery 0.637817355906531
Za@@ 1
anni 1
sini 1
acent 1
Atlético 0.6059586817735977
acker 0.38807858213528373
South@@ 0.2821685869226115
Jung 0.941455157310828
Luk@@ 0.6832887350368999
Communications 0.48753228993566217
Two 0.10342191549899081
Kid 0.9461124520071731
Sever@@ 0.6722687654326834
Tyr@@ 0.9461426938546897
9.@@ 0.15433807496439977
VO@@ 1
EM@@ 0.6763650332925119
Special 0.21713609673052886
Version 0.321752923099318
750 0.5376142171781354
Africa 0.09548507443610899
Spider 0.6985121371229903
Boulevard 0.6502997751433568
.C. 0.5300385066226451
Non@@ 0.6403867770325498
Stevens 0.6929472449746701
final@@ 0.7402112575838258
Total 0.7143905349481782
Edmon@@ 0.6623960327567073
Andor@@ 1
Derby 0.5477550206223436
hit@@ 0.5927737386950108
Honduras 0.725476035727954
atsu 1
Carol 0.8319561392626103
yr 0.8545894243606719
SPD 0.4108587648778547
Glou@@ 0.7326642376842218
RAF 0.45840967302408303
Inform@@ 0.4839920398649663
Heidelberg 0.5574878394477818
ET 0.7374676263605843
nen 0.07529199257198958
Bundes@@ 0.08876843397523113
Cathol@@ 0.6166671671631941
Luz@@ 0.6540124619729867
Hamp@@ 0.5447842584357432
KA 0.8903082763205095
Mozambi@@ 1
Gil 1
Greg@@ 0.530019267307787
Pog@@ 1
ī 0.5221152636702665
Riga 1
him 0.017279810766416683
Zak@@ 1
CV 0.9714857879831694
scr@@ 0.31063075679098984
band 0.03651547908327307
ails 0.2774342889103504
EN 1
Juni@@ 0.29578707129536264
Moder@@ 0.3339950206700768
Cow@@ 0.44505286162560476
ardi 1
Gregory 0.5407057444946579
bor 0.44452768842928214
8,5 1
avo 0.7776946303462082
Eduardo 0.5371763356529686
west 0.05004229927288237
Kok@@ 0.736885954982914
Klaus 0.6152167766275567
Feder@@ 0.43646120353656
SF 0.9899293845821802
9,5 1
sper@@ 0.4961979793671168
Bry@@ 0.605935725222192
bourne 0.8657816604656502
Hughes 0.5454613165906649
essin 1
sdorf 0.2941061978712877
Aran@@ 0.8734917329164062
Rhy@@ 0.4372963488892495
Sut@@ 0.6222756277398496
Isid@@ 1
ML 0.6492696621488795
lidae 1
Berg 0.3453907591907707
Uz@@ 0.6392655480476008
elt@@ 0.30505458182558454
Mez@@ 0.8808959301180729
arte 0.22785203963345313
Pat 0.697158208609349
karat@@ 1
Alfa 1
Nim@@ 1
oney 0.6307343288748225
Southern 0.12925698907135766
ophy@@ 1
set@@ 0.43642606078485624
Owen 0.6438622763716035
dov@@ 1
templ@@ 0.47969836585577197
anner 0.44179297827808034
kug@@ 1
60@@ 0.3539707499347767
1758 1
French 0.042963269966775255
chu@@ 0.5780948826991735
João 1
Tsu@@ 1
Tyler 0.7488955317362765
IL 0.5920750508531963
icht 0.1277793232411786
1660 1
1773 1
3,6 1
ads 0.1357790638766512
Dat@@ 0.5559126284842834
Infrastr@@ 1
TH@@ 0.5789889457586308
Aviv 0.9332522467247298
Mount 0.17101140438231574
inde 0.1888385635319157
Spec@@ 0.44195784758103335
fordshire 0.5519748504040995
imen 0.38435905834546646
playoffs 0.5049355568938292
Bart 1
ation@@ 0.2759714669590249
Augusta 0.9360508529862306
Juventus 1
fli@@ 0.6181779761661751
Adi@@ 0.9415222272832243
open 0.08211988290207552
ová 1
Oakland 0.6772002879511346
ild 0.3640277395973612
lett 0.6610303339456052
3,4 1
Edwin 0.7960180710522194
gate 0.32122072156222825
schild 1
123 0.7521489131354658
Pearl 0.6160058921552649
haf@@ 0.24305397070273646
stopp@@ 0.26278273113501593
Martín 0.4170482939705513
0,3 1
gem@@ 0.14129368769930836
1769 1
127 0.7171642498004315
Barbar@@ 1
Mar 0.4638950897655987
Board 0.12456542174872759
Auto 0.5624613583236658
Bennett 0.6291296092629571
nick@@ 0.3091716268776223
law 0.05036444718379911
inen 0.21811398467036333
Physi@@ 0.5998826446987807
1755 1
alif@@ 1
rats 0.3153879399204867
Sik@@ 0.6995068854332086
30,@@ 1
ID 0.5786000992899759
amen 0.18766285307914543
ights 0.1574102331157087
Duncan 0.7360310558923284
onium 1
Trust 0.31639571610558564
Id@@ 0.5686562523559222
ampton 0.5466466164531857
124 0.7642501346924171
egel 0.30955643902561397
piè@@ 1
β 0.47938747617629307
Family 0.16680806809143045
aser 1
Mayer 0.9015320414550138
actr@@ 1
Å@@ 0.9348211833314464
andal@@ 1
dance 0.19390488612699674
Drive 0.48148625230711545
anum 0.7408304261062015
http 0.7204338378763983
Leeds 0.4987095916713693
sten 0.04903535287487976
anj@@ 0.49849743627217635
Bros 1
gau 0.7023325006765916
History 0.03701100085607567
Milwaukee 0.6320011125109675
1765 1
ige@@ 1
Linda 0.7340953736434114
mus 0.3777763878333491
dic 0.46865366468129044
ib 0.6948472101555143
2,1 1
Zagreb 0.7818435056866653
nius 1
ET@@ 0.7479787329672717
IN 0.5775485099803522
ush 0.23807764139819507
Kag@@ 1
atha 0.6089765997282598
1756 1
Giants 0.5564826137570413
Ein@@ 0.03940350518482967
Wild@@ 0.24724257217086523
Tav@@ 1
Fort@@ 0.4018498091101146
icky 0.7046932574270555
aden 0.18501486629149116
1762 1
Last 0.3486710989701537
Wein@@ 0.2598017188994281
alition 0.6356092922177049
chus 1
mare 0.9987160073121342
Fall@@ 0.3920644353427375
leb@@ 0.18796548679050615
ante@@ 0.41278197242898923
H.@@ 0.4637557380072548
kus 0.3313928072776498
än@@ 0.09395536147339952
37,@@ 1
Econom@@ 0.26784801155413124
inver@@ 0.8848248201896864
nem@@ 1
Sullivan 0.5359722826953426
õ@@ 0.7584124693182864
SU@@ 0.8579331592621254
Shaw 0.5961342305473802
ld@@ 0.5059594646496602
122 0.7031923218319699
Beh@@ 0.23980180699540957
1771 1
vik 0.9693223928958906
Randy 1
Malcolm 0.8240378569407044
Windsor 0.7722804522406711
Gill 0.8502283081480382
illus 1
gets 0.2041867831258252
Dylan 0.8026831169171479
Fantas@@ 0.8719883820101773
addition 0.07064365199376815
yk@@ 0.8649561528881926
Zimbabwe 0.9395013163548146
PO 1
afr@@ 0.4114870250874923
49@@ 0.49279734963730787
PE 1
Togo 1
OR@@ 0.7299311773861837
Scho@@ 0.7359467170940766
didae 1
ocul@@ 1
cargo 0.15194973270159673
Chuck 0.7985741188981248
engo 1
Fe 0.5038676821717317
Hok@@ 0.974681250840359
ische 0.01958344730400882
pide 1
Sidney 0.9680050008985921
AE 0.6936926245869864
Nicaragua 0.8447356915444102
SL 0.7262653858212166
ân@@ 1
Malm@@ 1
DV@@ 0.6595715263407075
Back 0.37092716920589713
Hoch@@ 0.12634645313331616
Mercury 0.7672197366865665
Fernández 0.4555915980022362
Hof@@ 0.21294324131661896
Price 0.5729521207200209
erine 0.7606409952849392
comic 0.33531757186134176
Brow@@ 0.6485652367870717
Casa 0.37665861212892066
this 0.009038298032149908
Rost@@ 1
light 0.06883946218453693
sino 0.27110577162727245
Andes 1
Dies@@ 0.5357563699698769
benz@@ 1
Castle 0.1941216652691457
akh 1
asha 0.8629929307221955
117 0.7169459005999186
Anc@@ 1
princi@@ 0.4871595182414414
Doctor 0.2522567376646155
Ez@@ 1
DR@@ 0.8143245445694435
Termin@@ 0.7332898169502291
enland 0.8585948833757642
center 0.07549647513133789
nice 0.8040805872729336
enzyme 0.6959840644714692
sha 0.672527718412207
otus 1
Thomson 0.8928731252937107
enj@@ 1
Metropolitan 0.326566701431001
aten 0.06868965221712137
Po 1
ovic 1
Soccer 0.4344007384312015
ă 0.8999404384394254
oter 0.6717883501139409
Ili@@ 1
aska 1
Vol 1
U.S. 0.045129779270432456
Dud@@ 0.7305983747178497
SR@@ 0.9457684098398101
oshima 1
Ins@@ 0.3825423355722351
Fru@@ 0.4495336257215113
Josh 0.7090688634343366
anapolis 0.6763803968451855
jas 0.2663002806459369
namo 0.9228579895017174
Wolf@@ 0.5409333043447506
Auckland 0.5425677305670562
straße 0.09533133490659321
cock 0.7940938949823669
enthal 0.7042627474306622
1730 1
kowski 1
Akh@@ 1
endi 0.6733488893407672
Shah 0.49712551527961774
mide 1
Parad@@ 0.7178687883661657
plum@@ 0.8550370233835053
Frances@@ 0.9278242004796476
EM 0.603274195235507
Nept@@ 1
imin@@ 0.4876340065310986
program@@ 0.44559300559475007
Angela 0.9212138069933938
enbach 0.536854389247136
río 0.1360394081184136
Conference 0.13198036028133422
Khali@@ 1
1759 1
NP 1
Android 0.6555317495614331
Up@@ 0.3765275987303122
Rit@@ 0.5328167758139792
Summer 0.10595237256737833
you 0.08433143810392589
lik@@ 0.1576482962006974
SMS 1
eson 0.7023834939568218
Bros@@ 1
dae 0.908288392466462
designer 0.4138635428991941
Yuk@@ 1
ph 0.4495944174706514
Yak@@ 0.5781415735914479
Emil 0.715496070761277
Bh@@ 0.6888804497971707
Mend@@ 1
ja@@ 1
Gug@@ 1
Bonn 0.47108224602322557
Brom@@ 0.7058890278871914
Carre@@ 1
Lex@@ 0.5103296083114103
eni@@ 0.822868603641494
Alek@@ 1
Laos 1
Federico 0.6920514630996114
podr@@ 1
itis 0.6724743381643018
sio 1
tier@@ 0.3567476814742113
Von 0.05135143426098194
1757 1
aland 1
Leslie 0.6970978708202417
igi 1
Eugene 0.66104064174093
participantes 0.975291886907329
web@@ 0.40539282460222953
auf 0.006085045566000385
ò@@ 1
1766 1
AV 0.8036791316516124
Cly@@ 0.721571944254858
onic 0.22821417483823317
Chevrolet 1
Ó@@ 0.5169654148175238
46@@ 0.5924292844851897
Delhi 0.39662112700620955
wak@@ 0.27080274128793363
Alo@@ 0.9679629984104408
apolis 0.6445220169294533
Autr@@ 1
Lamp@@ 0.9779554529090635
Tud@@ 0.9374361188736883
Progr@@ 0.43255525148706364
Wall 0.387440751591133
aber 0.030146248495542764
auti@@ 1
ede 0.17849104067864693
gun 0.17178018673447804
aler@@ 0.9562029748836436
kh 1
Hill@@ 0.5120891486323826
Train 0.7824229274810888
beck 0.5015053944650125
consolid@@ 0.4138899107568092
gris@@ 1
pit 0.4415063435687252
Yun@@ 0.8711831491817882
Poc@@ 0.7792465782868436
Stanford 0.5226781233867224
stages 0.31805923837033157
Rober@@ 1
Felipe 0.451654277458614
ink@@ 0.5270086217929716
obs 0.27058077672294456
sala 0.5188941748060812
113 0.6727997926054421
Resp@@ 0.5537195367021729
Mb@@ 1
iman 0.9943534580301285
Samoa 1
Yosh@@ 1
heimer 0.545964424769828
Nec@@ 0.6146853466141904
SmackDown 1
yak@@ 0.46478651942009336
Jamie 0.8069327800140903
avia 0.49655600629635815
Phillips 0.5377611829644836
causa 0.39465137137592604
kaz@@ 0.8876645484670261
Pens@@ 1
gil@@ 0.9086323658965327
Byzant@@ 0.4950815103412987
DT 0.978556599819406
Martha 0.6500374205355496
`@@ 1
Torres 0.5976896582856557
− 0.16774344423921753
Glob@@ 1
Schl@@ 0.1858690084135944
Ptol@@ 1
Dil@@ 0.7112956824475766
Kno@@ 0.2715368679496086
Écos@@ 1
Yale 0.48131046651921117
yang 1
Isa@@ 0.9799289253132294
Lay@@ 0.9021460952288741
Ail@@ 1
abi@@ 1
Todd 0.6254956850107442
Sent@@ 0.8948789179016764
Nap@@ 0.9895007472591542
cari@@ 1
Head 0.24459706018652866
1640 1
Edi@@ 0.5563650337477911
Miz@@ 0.97378939994914
49,@@ 1
bek@@ 0.14876020510078786
curs@@ 1
pie 0.6380636482703078
invol@@ 0.11486223607198275
Gaza 1
Italia 0.21706763791574127
Kid@@ 0.7103236615468489
Kro@@ 0.4723197247497311
kho@@ 0.5439479567133264
bank 0.11290096789797913
excentr@@ 1
enas 0.30028219354479635
Kul@@ 0.35493449871906274
devr@@ 1
ansen 0.9058310254980497
brid@@ 0.3316695404027026
California 0.04971726694230652
Qué@@ 1
osh 0.6293945222279108
firma 0.4113800335689611
sak@@ 0.5648220280899252
Kop@@ 0.30074468338991805
Bey 0.9811247982980144
lam 0.7576448226333187
CL 0.9119909970802803
Salv@@ 0.7054381019805616
UL@@ 1
yenne 1
1764 1
niti@@ 1
Curtis 0.6953080306093117
Stan 0.8759899472805376
ying 0.04643023589879038
Kenny 0.8114420852791466
offs 0.39138978014123155
Rita 0.9720349399122313
music 0.030596481784267722
Foster 0.5807051490486274
Gerald 0.7301472639940015
hir@@ 0.5248445465580612
Theater 0.1786339700542678
Docum@@ 0.7004675082320602
Priv@@ 0.4565660832782163
ilis 1
Mao 1
Suzuki 1
Baden 0.2635786988002588
Euph@@ 1
quem@@ 1
Kem@@ 0.6333161667566085
Villar@@ 1
Ago@@ 1
Dw@@ 0.6612756475151214
quis@@ 0.6414825688532185
Ern@@ 0.33406186784499947
1650 1
Tut@@ 0.7963025657200641
fred 0.7235549931175151
Haf@@ 0.32291725813622557
arry 0.6595160022999461
plex 0.3081108081125947
vos 0.38014028361745683
fes 0.7568388770847563
ý 0.21286392808055465
240 0.6007304354728508
Jonas 1
Mig@@ 0.9118648153749542
126 0.6987537812547555
apor@@ 1
aming 0.2762437771557604
manufactur@@ 0.13188010240775297
Grap@@ 1
haus 0.14567311641982703
1648 1
alcal@@ 1
Einstein 1
Jov@@ 1
Mug@@ 0.6007032478422513
boys 0.22191968014279864
Powell 0.6433248447234878
Tach@@ 1
Tay@@ 0.7327862489651095
uca 0.5755669948519696
Traf@@ 0.6953664756677308
ador@@ 0.6555448658662767
atis 0.9462947115161932
Kay 0.6613067950860648
Metal 0.37601591195489725
Pseud@@ 0.46543835055936306
kies 0.6185700299835843
Herschel 1
Knight 0.35303592920738386
shi 0.7494455709010112
48@@ 0.5780461744311892
PF 1
unga 0.8574876268336988
azy 0.6760872167249505
argu@@ 0.598747444047241
isp@@ 0.5347444585328397
Model 0.34996908171430713
Auch 0.08221411608097064
Sek@@ 0.17660781086844599
kham 0.7610085611962888
zia 1
idan 0.75192261877491
Falls 0.3646076205809542
kas 0.8307467063573528
spin 0.5395421276787095
Reynolds 0.7195899073263045
Social 0.1577952898139887
Bath@@ 0.8567161741658528
Kho@@ 0.9159446459441847
ancia 0.16027894808659543
Theodor 0.5724917055783905
kad@@ 0.3621448319397626
WA 0.4472556353594406
Glenn 0.7347198946599419
NH@@ 0.4211743403850262
isseau 1
2023 0.958005096164675
38,@@ 1
Davies 0.6322702356153637
war 0.005942120305696193
abo 1
juli@@ 1
Reyn@@ 1
Fisher 0.596165296033725
Oh@@ 0.5553578757602268
Oz@@ 1
Deg@@ 0.6890064277016851
Sco@@ 0.8737038944626011
bera 0.8957250898488457
usu@@ 0.749241222846117
Karen 0.747026835454602
azar@@ 0.6039843505002318
disc@@ 0.19658658125121678
Mek@@ 0.8141832049701119
bun@@ 0.2801938713371765
201@@ 0.4397824592785726
Schu@@ 0.7805811089670318
Jul@@ 1
Limited 0.34323785758277037
190 0.6486171386398035
Trinity 0.4244924525552888
emie 1
icum 0.7595736023139368
Canadian 0.0770013797848957
torio 0.6563599323598964
Bergen 0.596234092600275
1767 1
Palmer 0.5864829810440197
toria 1
atic 0.07820405196316549
yx 0.9903602812107947
Wars 0.40906213741142883
photograph@@ 0.34773702768522713
Rau@@ 0.4477182274688755
Margar@@ 0.45718798222790097
osi 1
tries 0.21812492555011778
sue 0.2377530302873176
Holland 0.44445937427070753
MR 1
Ulrich 0.599672433219345
Gibson 0.6407621407824398
Marcel@@ 0.9087254112004816
Kiel 0.5868540505542955
gorod 1
230 0.6676224769309396
bol 0.20777875955761932
pei 1
Hunt 0.550782344687135
320 0.6816958068606819
Kane 0.894408129981214
A1 0.7143405403217102
big@@ 0.6340576577077331
Jin@@ 0.9163170114200836
eps 0.2239100066830555
Gad@@ 0.7174163850474907
Pf@@ 0.13539894124737673
ogen@@ 0.21154747554016406
ted 0.013183497242496072
ving 0.0980039980031879
‰ 1
tenstein 0.8484919733392314
47@@ 0.5402569361476385
c. 1
skie 1
Campo 0.7292850391178249
Ril@@ 0.7966645382468397
Hann@@ 0.7698671334555655
elas 0.47032000260864526
ana@@ 0.6803200297502587
Guadal@@ 0.7145287796063627
ő@@ 1
peri@@ 0.12618686579035884
Trib@@ 0.7304988471727168
1300 0.7480857196948903
Gay 0.8260647420495163
Eis@@ 0.2309652184034723
Horn@@ 0.540539988206059
had@@ 0.7363601415100764
scrip@@ 0.4858747000907428
Gó@@ 1
DM 0.5484436024640202
Lup@@ 1
SL@@ 0.6246359168913246
chil@@ 0.3052676729253303
Euro@@ 0.667343922943026
stor@@ 0.11703360292647949
Toy@@ 0.9016932716757198
Fantasy 0.6485650938435391
Hospital 0.13096633734560406
Erich 0.6071589439111557
Schön@@ 0.4111278446428103
Winston 0.8683013908577887
AH 1
polog@@ 0.2903780807055359
1630 1
Gim@@ 0.7781732229802748
Age 0.29380564374373724
opsis 0.4110261484446273
1761 1
hibition 0.4250252487619509
mah@@ 0.6250206930009058
sacer@@ 0.7155113719235543
Benz 0.8108805464784368
Springs 0.4276239004589609
ener@@ 0.1661416542912984
BM 1
remix 0.8930052421833623
ief 0.21827984406967674
1715 1
CT 0.5894608044381796
strö@@ 0.7144912221340441
UR 1
less 0.04221636888913777
Lopez 0.988225691435115
anon 1
cricket 0.2670831599222412
GR@@ 1
Bayern 0.2514695494962051
aron 0.02823160606086522
DB 0.5935908044572731
har 0.5108520106712618
dt 0.41209522497245665
surg@@ 0.6621139582506841
Alle@@ 0.6047622856280079
islat@@ 0.4437814367344191
mol 0.9624687419098054
äl@@ 0.08628343179473037
SP 0.6255399444344988
Neill 0.758140911482711
ilio 0.41065099457281223
board 0.07275960189726254
gae 1
Bilbao 1
Teresa 0.6754739941324657
ladi@@ 0.6659212141059573
possibl@@ 1
vili 1
Bever@@ 0.6493790454665859
Hind@@ 0.47214107986024983
ehr@@ 0.14816409842905914
value 0.14689212899479603
yph@@ 1
actus 1
Gill@@ 0.6298930242813928
Burton 0.681518891843963
Javier 0.6070662643176057
Trail 0.4495945402346025
ecca 0.8556697850980428
Cen@@ 0.9276209896396276
eco 0.3501746125154978
enia 0.6785152268260306
Égyp@@ 1
Miner@@ 0.4835783261647833
Soul 0.5308837689742665
Jeremy 0.7691677732703137
than 0.016378963441409888
Koz@@ 0.8254095166065014
fig@@ 0.698625807591649
IB@@ 0.5588839409596357
Vermont 0.4906289048094081
seconds 0.2860994857846931
umba 0.6263427109179466
multiple 0.13171777325024372
anger@@ 0.5352297121334674
ighton 0.4797740701949833
Eber@@ 0.4768420779662878
Puerto 0.17465023404336602
olph 0.605076267233406
Data 0.5155106544834576
stad 0.8031324615572737
Reed 0.5671688535321738
1670 1
América 0.22378136464663542
Gig@@ 0.9031110808220258
anas 0.13776422944294414
AFC 0.5485079726257978
Flash 0.8305187496061076
1680 1
Gle@@ 0.31295581114701826
buc@@ 0.8053267265133313
zano 1
ratio 0.4233531553171711
Jesse 0.7003167150246861
shu@@ 0.3490322733850766
Fati@@ 1
tural 0.18758020403598616
Sund@@ 0.4461712032358136
Symb@@ 0.8804090580480529
Vera 0.8145121365771879
Nest@@ 0.9987175950486561
eins 0.23689290454359316
flag@@ 0.47659491424305955
rug@@ 0.6085357091055964
Winter@@ 0.21660433756841974
iat 1
Jagu@@ 0.8789341899153055
Thr@@ 0.22079618847266383
Herr@@ 0.20547226506517138
Dyn@@ 0.3758730141758315
Silver@@ 0.8288401166505988
index 0.6278418256205957
obi 1
thus 0.10072638380013818
trig@@ 0.43139327879928974
Contin@@ 0.5174538078443375
Ear@@ 0.2825047779248645
Amad@@ 1
Leone 0.9692246087666739
sai 0.6862172411021754
Hope 0.4333574271823273
Ek@@ 0.6048977390070382
Run 0.46247467958155386
Nashville 0.5052897838291311
gay 0.3838390012673707
1748 1
unda 0.21127055993001218
Ú@@ 0.5594127794453232
Shak@@ 0.5487466234057419
Energy 0.30864036972537584
inde@@ 0.19928559254547834
DI@@ 0.8408334105605645
arum 0.997450110074694
0,4 1
Philipp@@ 0.9330847191493625
Kyle 0.7402304592932225
cast 0.08951245537299973
ht 0.12303828262892674
Coh@@ 1
Side 0.43695552481489064
RE 0.9889893328437229
onis 1
tem 0.25433313739449476
Gener@@ 0.16899331585541114
Dynam@@ 0.6423244442868554
Percy 0.8932572704168754
Harbor 0.5011474397783031
Milton 0.6612142315886227
Northern 0.10322395410554651
Luna 0.6364864228942507
ulos 0.7454719042638562
Princeton 0.5798404212835944
pod@@ 0.6453053141804515
ods 0.09738708115427468
sea 0.07449847575219795
gun@@ 0.26871024735736954
Regiment 0.14932038570234035
adan 0.4701056327945063
lil@@ 1
Lok@@ 0.3968390375023525
PI 0.8349111240629725
Vicente 0.517410049298794
Pear@@ 0.5431692632536784
Programm@@ 0.5826530205148636
oslav 0.5219472615617287
Carey 0.8515888135071086
Leonardo 0.8105566727356426
pus@@ 0.9869049872882836
thode 0.6701724044967198
Phyl@@ 0.8968001815918071
Det@@ 0.21437940918048
Vision 0.6730137856399933
Fey@@ 1
Frances 0.7630158396783936
Monica 0.9156324126709887
ald@@ 0.5144511961502388
Bismarck 1
bro 0.5657439610242775
Leicester 0.7670089202445413
sley 0.47583058226539376
Pyth@@ 1
Jr. 0.44096294043150713
zig 0.34926729745527657
Morrison 0.6902621144092044
has 0.00547795856251136
Aph@@ 1
fia 1
Nis@@ 1
Hern@@ 0.7251694432015692
oss 0.31892171403900105
Hes@@ 0.9864722662882226
Martínez 0.44510141489470456
afa 0.8984071086066981
1754 1
Schul@@ 0.09719428834241746
Rest@@ 0.4837207431365802
ña 0.1979354753936224
GS 0.6432357371205494
Sul 1
Banks 0.6988669234689612
Clif@@ 0.6247888023909866
Gün@@ 0.38411538331500156
Spring 0.33532103542964103
Colonel 0.3016355835357363
1685 1
h. 0.4579588503520664
Bald@@ 0.598883715325879
clave 0.6470763815943934
jin 0.9283652557078014
Bez@@ 0.5640756147509954
Bib@@ 0.5412842825518661
anor 0.8382846194612426
onder@@ 0.32980412200733916
Gut@@ 0.26434764919017834
Seb@@ 0.9600998033276268
fu 0.843249348965051
Infanterie 0.7109008332721625
hardt 0.6872479697668177
jun@@ 0.5218702409311832
Jackie 0.8990206628095341
hut@@ 0.5999594012658682
1753 0.9985090914484867
Human 0.2237256502658175
funk 0.5204070416330248
essel 0.24819962586317953
hu 0.6098071609525331
tech@@ 0.4988274853510302
transporte 0.5443413926400597
Ted@@ 0.9065870127226887
horizontal 0.6227375387805247
onnat 1
Bella 1
mili@@ 0.48145084137932087
ural 0.3606351619040028
hara 0.8344328925021174
rano 0.8732625416981181
dry 0.2730562982083017
1690 1
imar@@ 0.6391582985595572
2.0 0.4942241095918026
EL 1
Mason 0.48615349616523096
Morning 0.5245417017624032
polon@@ 1
Alejandro 0.4923082543122177
Flu@@ 0.23179741835269335
Reichs@@ 0.18453662518777977
WWF 0.9685357362385216
hai 0.08527884161588324
ei@@ 0.24162618763462773
More 0.20756119285049796
digit@@ 0.4343680693316531
Calvin 1
32,@@ 1
Mann 0.1686677067132038
best 0.04120399089540018
Zeus 1
Murat 1
Mex@@ 0.5042984953942743
Library 0.16454746020261007
inho 1
onica 0.8607233510116175
obile 1
puls@@ 1
Am 0.03103676884057062
Bradley 0.639254413656224
Set@@ 0.733715460928834
bow@@ 0.2328595621055808
üt@@ 0.12483572319902381
Robertson 0.6339803786891187
118 0.684765096847969
Three 0.14085495181283084
Moreno 0.7565803089860244
heavy 0.13666758308770743
Teatro 0.35213122616727116
haz@@ 0.364286753638669
Milli@@ 0.2613703806528395
Asi@@ 0.30600103252435495
Victor@@ 0.3308830320930024
Betty 0.6807187699021912
Industries 0.7080691483220568
Stol@@ 0.40804575145545835
acia 0.244162119738357
CDU 0.4386725127422641
ems 0.15317845942114525
Anglo 0.43428756480166264
Yi 0.9879163760080969
hao 0.9267907628136551
ril@@ 1
Essex 0.5242096121796915
bad 0.20744396526650846
Pug@@ 1
SB 0.6863809324893686
Systems 0.3027506883334567
Isra@@ 0.7654028878928557
Motors 0.6614150026267985
Pink 0.6899433275849176
Wid@@ 0.4636761761518821
Modern 0.2347868600325737
sei 0.09372887486368789
ina@@ 0.7138760458149178
Hig@@ 0.9786363625822332
Bird 0.535627809297672
abo@@ 0.3931960920158474
atio 0.8526018679849333
monta@@ 1
Sang 1
mani 1
aat 0.7186425711402354
rov@@ 1
omor@@ 0.6419487747935043
Scre@@ 0.3819401191589244
astie 0.9369130339319798
Zw@@ 0.14451441203004362
Minas 1
ional 0.15905993671241658
Marse@@ 1
Buffy 1
Valle 0.4441491175059942
Pak@@ 0.24505229687634725
plane 0.24210900294984578
SN 1
Alp@@ 0.5997591559950759
Piz@@ 0.7678284830167281
Ring 0.3833670572811751
Sega 0.9464083464282395
pore 0.6957285857789691
Haj@@ 0.827234567148548
Plata 0.4773903471333947
tle 0.17763544949231552
ufac@@ 0.7258059248966547
Blood 0.4912522009687863
Motor 0.23857506153467736
enzie 0.670873136798642
ș 1
API 1
Ni 1
1620 1
andinav@@ 0.8223108775460543
ł 1
abel 0.576726471956469
nar 0.6857189137683307
Multi@@ 0.39348888277638705
DF@@ 0.4719315759209945
David@@ 0.7034255963402442
114 0.5933362515782709
oly@@ 0.7120119365552595
Sta@@ 0.4450967866121656
English 0.03601348183233062
Harmon@@ 0.6941009279871945
tens 0.3618693818531723
Cardiff 0.6156423236455753
aly 0.5922217084231528
And 0.18328906343124457
Gn@@ 0.7000126694042506
Ski@@ 0.43103228401075616
erk@@ 0.10388676058945447
330 0.7504408038665783
ien@@ 0.22553274890944575
intend@@ 0.4046905425447823
Psy@@ 0.44458098991681033
andt 0.4420152919734659
org 0.6653503679579262
aban 0.061825317320722356
bek 0.6190905162212651
Record 0.5255546567385242
ál@@ 0.282634063480907
210 0.610247277995635
Illustr@@ 0.687192048334197
baz@@ 1
Te 0.6261533425504284
[...]
