de 55208402
, 39494483
. 29856181
la 25999697
en 22118871
el 19163049
y 18542747
a 12834494
&quot; 12766760
que 11517526
del 9651761
los 8957412
se 7697830
un 6615593
por 6599485
con 6092096
una 6056234
) 5707209
( 5697634
las 5666553
su 5154643
es 4824588
al 4440838
o 3964285
como 3908915
para 3890829
ado 3857615
El 3560055
ó 3292766
En 3068680
as 3061696
fue 3002609
@-@ 2987256
os 2984708
ar 2944460
La 2851089
ación 2615188
ada 2507422
más 2159799
: 2103453
no 2035290
ados 1965619
lo 1756724
sus 1677347
ía 1641639
ando 1464846
re@@ 1448785
era 1418122
; 1414736
an 1331596
entre 1271984
dos 1241884
adas 1230679
in@@ 1199707
ales 1190558
aron 1125018
años 1115461
también 1054160
Los 1048792
aba 992381
ón 992027
des@@ 989080
le 986031
son 968489
aciones 960572
año 956018
este 916681
hasta 909792
parte 903625
al@@ 898716
c@@ 891819
pero 882449
sobre 878146
ente 874787
donde 856284
í@@ 848666
« 848264
» 847520
an@@ 843584
ac@@ 836369
P@@ 833348
ha 830818
ido 821945
ante 816085
to 808472
esta 799759
ser 797352
desde 793310
con@@ 792723
ción 792111
e 781914
ana 765996
ano 757452
antes 757395
p@@ 753989
A 753537
Se 752386
C@@ 744989
ar@@ 742954
es@@ 737481
A@@ 734963
durante 715148
% 703290
T@@ 687032
ina 682666
ta 677528
S@@ 670795
ciudad 664329
t@@ 663059
á@@ 662791
ia 659757
ida 647925
u@@ 643664
ya 639985
entes 638964
encia 636278
r@@ 634878
&apos; 632809
or@@ 631130
L@@ 628609
da 627848
en@@ 627029
ad@@ 618771
M@@ 616275
j@@ 614332
ario 612739
Las 611469
s@@ 608559
ador 608340
primera 606170
idad 605912
después 600830
ica 600384
había 597590
as@@ 596628
está 590002
ista 587877
or 586364
ó@@ 586032
qu@@ 580617
v@@ 580009
l@@ 578536
d@@ 578329
do 578118
su@@ 576550
fueron 570584
1 570373
o@@ 566821
on@@ 563751
amente 561704
eran 560342
tiene 557472
di@@ 557407
án 557259
per@@ 556209
San 552068
ab@@ 551367
uno 548769
/ 547250
cuando 546439
n@@ 546112
D@@ 544911
primer 542698
Su 541293
tr@@ 540010
ec@@ 538904
ico 535100
2 533795
f@@ 531746
otros 530954
nombre 527259
est@@ 524759
E@@ 521926
g@@ 519217
F@@ 513555
b@@ 513471
tres 513410
par@@ 512377
arse 509801
ti@@ 508922
sin 507827
ci@@ 507247
er@@ 506239
mismo 504087
población 502448
ic@@ 501991
vez 501205
cu@@ 499483
oc@@ 494768
O@@ 487604
V@@ 486846
i@@ 486666
B@@ 484311
car@@ 484094
ex@@ 483258
el@@ 481457
ino 481247
ch@@ 481174
gran 479695
forma 478657
R@@ 476543
cual 475046
ones 474598
H@@ 471333
co@@ 470001
puede 469502
&#93; 469092
&#91; 467656
Fue 467173
G@@ 465389
e@@ 462440
aban 457567
N@@ 454031
Con@@ 453036
er 453008
ciones 450100
ese 449138
is@@ 446764
familia 445769
at@@ 445602
encuentra 444433
im@@ 439786
3 439128
ían 434760
ag@@ 434625
muy 433295
así 433017
idos 432597
lugar 430737
de@@ 430133
adores 428856
vi@@ 427200
ero 425834
io 424561
contra 423734
it@@ 423517
m@@ 422353
sido 417987
km 414857
Es 413496
endo 402116
am@@ 400611
equipo 395888
Estados 394881
amiento 391834
siglo 391356
Al@@ 386700
junto 386563
tiempo 380509
- 380405
com@@ 378475
Unidos 378465
arios 378095
ent@@ 377812
embargo 377752
tos 376095
il@@ 374518
z@@ 374080
The 372883
grupo 371511
estado 371178
va 370612
han 370559
almente 370478
s 370178
Ar@@ 369413
4 368864
mayor 368584
on 368239
mar@@ 365409
ro@@ 364764
bajo 364672
em@@ 364653
J@@ 364191
istas 362460
cada 361423
ores 361068
ir 360899
icos 359860
cor@@ 359562
y@@ 359057
esa 358284
ión 358193
todo 358188
serie 356918
ol@@ 356801
br@@ 351441
solo 350391
i 350255
icas 348455
jo 348017
eron 347678
inter@@ 347597
po@@ 347364
España 345355
aria 345236
pl@@ 345139
ismo 344454
Universidad 344414
estaba 343724
za 342266
quien 341115
ap@@ 340566
De 340069
a@@ 339795
otras 339342
ato 337554
un@@ 335930
Nacional 334742
tras 331646
pre@@ 330330
siendo 328829
También 328402
anos 328033
ur@@ 327665
encias 327567
ento 326639
personas 326010
rec@@ 325935
ir@@ 325470
municipio 324785
aje 323959
aunque 322096
mientras 321999
op@@ 321064
ora 320293
I@@ 318939
todos 317170
5 316552
tanto 316380
Por 315432
ot@@ 315210
vida 314095
nuevo 312585
is 312484
Mar@@ 311711
h@@ 311396
ita 311082
Al 310723
dis@@ 310707
ul@@ 310385
temporada 309448
ven@@ 309417
país 308991
enta 308421
tor@@ 308152
om@@ 307681
á 306685
les 306269
6 306161
ella 306123
et@@ 305066
hacia 304812
os@@ 304335
mon@@ 303987
gu@@ 303928
In@@ 303632
ú@@ 303074
día 302399
final 301897
An@@ 301854
ca 301215
uso 301043
tuvo 299924
si 299002
é@@ 297646
Ch@@ 297642
co 297412
K@@ 296699
in 296418
gobierno 295733
osa 295561
le@@ 295163
álbum 291588
general 290575
mayo 290297
col@@ 289978
us@@ 288898
10 288870
Juan 287958
tenía 287293
2010 287173
af@@ 287112
enero 286581
cre@@ 286253
marzo 286041
Z@@ 285831
sub@@ 285219
octubre 284740
septiembre 283882
Sin 282088
bi@@ 281909
historia 281335
Car@@ 280887
² 280859
película 280517
— 280512
julio 280373
total 280087
varios 279642
us 278821
” 278023
cuatro 277816
“ 277700
ito 277141
junio 276091
ena 274014
sur 273991
Historia 273965
ías 273716
él 273620
re 273563
región 273338
&amp; 272450
diciembre 272001
partido 272001
idas 271321
habitantes 270993
abril 270191
ra 269681
Este 269419
agosto 269195
fr@@ 268825
és 268058
José 267759
te@@ 266630
eros 265390
obra 264885
ver@@ 264570
especie 264550
U@@ 264126
número 264043
entonces 263777
ara 263605
id@@ 263490
z 263485
debido 263045
ed@@ 262318
noviembre 261163
av@@ 259937
pi@@ 259845
te 259453
Durante 259168
algunos 258315
mundo 256952
pueden 256915
ri@@ 256506
eta 256023
río 255639
7 254614
res@@ 254329
eo 253941
ura 253628
luego 253288
oso 252658
dio 251478
ja 251111
idades 251072
ter@@ 249685
través 249635
m 249546
das 249411
estos 249141
ología 247339
ig@@ 247180
ín 246699
principal 246287
además 245080
pas@@ 244931
Según 244874
az@@ 244788
sistema 244594
í 244546
norte 243494
cuenta 243074
aría 242156
20 242067
febrero 241866
aj@@ 241628
banda 240879
presidente 240010
Esta 239989
entos 239499
8 239212
agua 239085
eg@@ 238517
guerra 238151
man@@ 238083
I 237968
Cor@@ 237841
of 237830
li@@ 237475
estas 237289
México 236102
ona 235784
otro 235360
u 235297
segundo 234285
W@@ 234158
illa 234083
cas@@ 233939
inas 233883
sal@@ 232641
hizo 231969
na 231927
edad 231777
partir 231305
cer@@ 231012
provincia 230672
siguiente 230503
x@@ 230375
inos 229754
trabajo 229593
puesto 228582
Re@@ 228205
tarde 228123
ant@@ 228007
ma 227775
unos 227179
tico 227112
zona 226793
ata 226768
án@@ 226520
ñ@@ 224865
ellos 224341
Com@@ 224190
contr@@ 224080
conocido 224019
ares 223886
canción 223742
están 223657
iz@@ 222601
ob@@ 222535
15 222238
tu@@ 222191
Para 222102
estr@@ 222081
dec@@ 220837
able 220411
segunda 220018
rey 219739
her@@ 219516
tica 219352
estadounidense 218215
poco 218085
largo 217735
12 217646
nacional 217106
Con 216564
tienen 216347
dentro 215263
d 214796
Santa 214289
2011 214067
imiento 213374
hu@@ 213344
Tr@@ 213131
to@@ 213119
Nueva 213079
pos@@ 211923
reg@@ 211705
tur@@ 211200
carrera 211022
ni@@ 210860
esto 210501
Después 209900
muerte 209619
María 209424
Un 208840
si@@ 208577
Además 208539
pres@@ 207637
versión 207214
Y@@ 207096
centro 206049
tar@@ 205717
sol@@ 205643
vol@@ 205635
varias 205588
menos 205414
cha 205364
Una 205290
momento 204740
des 204727
obras 203914
– 203913
can@@ 203655
9 203366
and@@ 202928
én@@ 202856
Guerra 202849
género 202605
ea 202301
tipo 201991
pr@@ 201709
Per@@ 201585
30 201353
Est@@ 200773
Mundial 200212
0 200117
medio 200083
Desde 200005
tas 199974
esp@@ 199471
posición 199417
casa 199016
Tras 198865
vo 198810
español 198429
época 198128
muchos 197911
gr@@ 197678
ten@@ 197606
trans@@ 197533
grandes 197042
nueva 196504
ancia 196125
hay 195895
producción 195455
hijo 195341
r 195253
bien 195115
pe@@ 194970
comenzó 194340
anas 193830
lado 193786
2012 193282
último 193174
título 193040
pu@@ 192701
ro 192584
No 192544
ello 192495
mayoría 192119
misma 191742
otra 191114
metros 190971
hace 190864
bar@@ 190757
Bar@@ 190299
según 189935
ama 189679
16 189329
En@@ 188979
18 188766
2014 188102
días 188100
importante 188095
Mon@@ 187874
cerca 187746
2015 187693
alidad 187628
ár@@ 187602
música 186993
padre 186984
ru@@ 186874
11 186291
Entre 186226
Or@@ 185912
2008 185878
et 185522
poder 185320
é 185245
ley 185222
diferentes 185055
manera 184661
2016 184373
tom@@ 183968
localidad 183797
Madrid 183572
frente 183556
2013 183538
Col@@ 183455
ándose 183217
cat@@ 183104
lo@@ 182607
caso 182393
línea 181869
Estado 181549
Carlos 181274
mejor 181175
ov@@ 180964
hecho 180944
nivel 180915
represent@@ 180595
Qu@@ 180487
Es@@ 180474
Francia 180380
2009 180363
st@@ 180321
primeros 180191
14 179977
cr@@ 179873
tura 179872
adora 179765
the 179641
millones 179479
política 179477
min@@ 179327
25 179116
ev@@ 178353
2007 177960
gen@@ 177672
programa 177589
arr@@ 177569
13 177466
cl@@ 177461
II 177423
construcción 177348
República 176764
Argentina 176761
pueblo 176755
convirtió 175480
2000 175393
end@@ 174843
nos 174756
cal@@ 174751
llamado 174717
juego 174543
ay@@ 174483
tes 174308
ieron 174090
17 174033
Par@@ 173643
esc@@ 173594
ejemplo 173466
bu@@ 173122
atr@@ 172594
enc@@ 172472
k 172392
Am@@ 171950
fi@@ 171618
haber 171505
eto 171432
cargo 170993
algunas 170442
tan 170065
du@@ 169891
cinco 169424
arias 169289
distrito 169223
t 169182
k@@ 169022
veces 168981
Como 168945
ío 168940
hab@@ 168240
ran@@ 168013
atos 167864
ala 167862
sa 167846
mer@@ 167682
2006 167652
ce 167623
super@@ 167454
der@@ 167338
tor 167186
bre 167069
eb@@ 166968
todas 166859
19 166737
2018 166545
Gu@@ 166279
capital 166231
club 165975
so@@ 165950
ber@@ 165830
miembros 165701
ín@@ 165616
um@@ 165473
conocida 165426
mo 165355
cuales 165339
década 165320
finales 165082
l 164991
desarrollo 164687
ición 164390
der 164171
habían 164034
punto 163915
ela 163825
mujeres 163611
4@@ 163342
consider@@ 162951
ma@@ 162139
Sal@@ 161902
illo 161786
inc@@ 161571
partidos 161506
hacer 161130
ativa 160762
Biografía 160477
Luis 160466
9@@ 160457
leg@@ 160456
C 160396
constitu@@ 160307
cur@@ 159967
orden 159957
2017 159609
ga 159544
pesar 159390
base 159213
rom@@ 159112
º 159037
director 158914
por@@ 158868
sión 158755
actual 158726
Di@@ 158336
oro 157684
24 157512
B 157483
Ex@@ 157310
ubicado 157119
Cal@@ 157080
rel@@ 156669
estudio 156563
5@@ 156354
ve 156077
se@@ 156007
ticas 155981
siguientes 155918
ería 155916
toda 155906
tores 155784
ativo 155589
ep@@ 155563
Francisco 155553
especies 155414
ati@@ 155406
principales 155334
gan@@ 155284
ens@@ 155239
od@@ 155225
mu@@ 154800
estudios 154752
casi 154506
n 154131
Cu@@ 154059
Europa 153785
miembro 153415
ne@@ 153237
ari@@ 152779
Chile 152686
aci@@ 152528
Co@@ 152453
det@@ 152324
Copa 152016
acción 151938
osos 151736
.@@ 151664
inglés 151589
condado 151431
2019 151146
llegó 151049
éxito 151009
fútbol 150976
Ro@@ 150928
proyecto 150819
hombres 150586
compr@@ 150468
ver 150455
área 150363
acuerdo 150269
Cuando 150093
Campeonato 150044
21 149926
um 149851
realiz@@ 149757
man 148744
prim@@ 148714
inf@@ 148693
all@@ 148677
puntos 148570
no@@ 148565
Mor@@ 148532
present@@ 148449
mediante 148440
22 148265
tener 148047
og@@ 147870
cab@@ 147862
ño 147791
países 147460
cualquier 147383
As@@ 147363
so 147166
dia 147122
c 146958
ér@@ 146893
televisión 146890
estilo 146676
C. 146675
Club 146385
cambio 146114
2005 146044
prom@@ 145729
Le@@ 145688
ad 145682
_ 145634
mor@@ 145453
mo@@ 145294
ist@@ 145197
fuera 145137
estación 145096
ez 144084
6@@ 144016
Partido 143881
tierra 143735
hi@@ 143418
mi@@ 143239
ut@@ 143192
cio 142894
and 142788
mar 142739
isla 142659
int@@ 142579
ell@@ 142432
au@@ 142402
ali@@ 142016
trat@@ 141866
origen 141778
bas@@ 141777
lu@@ 141660
libro 141592
8@@ 141063
fic@@ 140999
York 140528
23 140383
formación 140258
equipos 140119
ing 140119
cin@@ 140009
produc@@ 139802
x 139791
esper@@ 139680
anza 139493
ular 139464
il 139418
adi@@ 139371
militar 139199
papel 138981
llev@@ 138774
Man@@ 138469
ense 138458
porque 138388
tras@@ 138269
neg@@ 138139
$ 138107
recibió 138071
Pr@@ 138000
ye 137662
eras 137530
one 137525
Val@@ 137219
medi@@ 137090
ej@@ 137003
h 136892
jos 136618
edificio 136465
dr@@ 136419
7@@ 136194
isión 136156
15@@ 136062
del@@ 136050
ni 135918
Antonio 135833
tal 135548
integr@@ 135523
Alemania 135413
fil@@ 135339
color 135199
Pedro 134901
grupos 134825
oeste 134804
relación 134247
Sus 133916
ña 133768
patr@@ 133669
Real 133543
pro@@ 133533
fin 133499
anti@@ 133072
alrededor 133047
cion@@ 133046
2020 133043
última 133028
estuvo 132762
El@@ 132696
ing@@ 132664
enci@@ 132507
Gran 132498
edición 132377
encuentran 132370
2004 132318
celebr@@ 132177
sem@@ 132135
oficial 132039
do@@ 131983
alto 131879
ambos 131856
mat@@ 131663
ajes 131608
Pro@@ 131539
proceso 131492
arte 131403
plan@@ 131325
for@@ 131238
ser@@ 131112
elo 131036
ellas 130884
principalmente 130846
itos 130788
elecciones 130701
orio 130599
28 130449
público 130379
superficie 130301
ba@@ 130193
Cas@@ 130091
iglesia 130078
canciones 130014
División 129619
lista 129443
ol 129399
General 129290
ganó 129080
principios 128985
mucho 128901
cel@@ 128886
empresa 128869
Br@@ 128865
servicio 128641
ima 128620
oper@@ 128586
incluso 128582
estaban 128476
estar 128367
Sh@@ 128174
territorio 128165
Ver@@ 128023
alista 127877
ect@@ 127578
uc@@ 127439
dic@@ 127422
27 127328
dieron 127173
ang@@ 127095
disco 127069
ase 127048
meses 127002
Gr@@ 126917
dice 126890
sería 126826
De@@ 126772
importantes 126761
sino 126669
llamada 126488
ici@@ 126336
not@@ 126262
Reino 126120
dido 125826
apar@@ 125518
3@@ 125484
entr@@ 125315
tivo 125265
tel@@ 125222
pel@@ 124951
cá@@ 124864
cabo 124611
neces@@ 124441
propio 124085
pasó 123904
político 123886
América 123785
seis 123709
osas 123650
at 123426
edi@@ 123349
isi@@ 123219
cru@@ 123140
amp 123001
26 123000
ática 122969
Unión 122853
internacional 122840
O 122695
campo 122673
sec@@ 122581
ejército 122539
Her@@ 122524
ota 122237
form@@ 122225
finalmente 122217
ónica 122021
ge@@ 121983
llam@@ 121981
término 121800
muchas 121716
aus@@ 121578
E 121512
apo@@ 121453
prot@@ 121370
original 121257
ton 121255
ate 121214
cas 121134
má@@ 120915
Primera 120881
Liga 120756
medios 120751
eno 120743
densidad 120616
Norte 120610
fer@@ 120458
eño 120368
cam@@ 120216
lan@@ 120163
musical 120161
Segunda 119993
pol@@ 119986
of@@ 119841
gi@@ 119819
comp@@ 119725
eso 119681
oto 119596
Buenos 119507
icio 119403
conjunto 119328
100 119220
cho 119220
etas 119185
parti@@ 119127
eti@@ 119097
ución 119067
Ac@@ 119049
agu@@ 118948
cuerpo 118895
iones 118804
tir@@ 118788
loc@@ 118680
Can@@ 118650
unas 118639
separ@@ 118616
debe 118581
lar@@ 118455
Aires 118435
ua 118383
John 118190
sede 118164
ticos 118044
grab@@ 117891
siempre 117700
én 117331
departamento 117174
port@@ 116692
am 116499
Internacional 116445
francés 116344
mes 116281
destac@@ 116278
sin@@ 116166
madre 116073
camp@@ 115976
movimiento 115924
2003 115899
p 115844
obtuvo 115834
derrot@@ 115815
Aunque 115780
sólo 115773
ios 115767
aut@@ 115731
alización 115553
° 115553
ático 115367
soci@@ 115192
Manuel 115165
ie 115146
observ@@ 115145
resto 115123
compañía 115104
qued@@ 114988
aliz@@ 114902
posteriormente 114850
mujer 114803
agr@@ 114576
Sur 114400
cont@@ 114369
media 114269
ables 114214
val@@ 114017
hijos 113768
azo 113710
iv@@ 113574
Iglesia 113456
29 113405
organiz@@ 113381
ará 113379
realizó 113282
sen@@ 113281
cional 113159
ió 113156
Italia 113127
gener@@ 113106
primero 113106
categoría 112981
den@@ 112859
cultura 112736
ques 112476
nombrado 112471
igual 112231
signific@@ 112175
Esto 112093
central 111977
zo 111890
aún 111862
son@@ 111849
añ@@ 111844
Ma@@ 111721
bo@@ 111665
tí@@ 111604
especialmente 111335
chas 111183
Te@@ 111115
liber@@ 111099
nu@@ 110988
ins@@ 110928
ori@@ 110915
ete 110890
ef@@ 110852
2001 110717
cant@@ 110617
don@@ 110614
anterior 110509
cos 110303
tri@@ 110284
fuerzas 110273
social 110242
publicado 110111
sí 110085
ib@@ 110061
hija 110022
alta 109914
ra@@ 109886
local 109876
Ciudad 109851
hoy 109645
met@@ 109613
Ju@@ 109553
che 109501
Cr@@ 109396
po 109332
española 109330
único 109329
organización 109311
sur@@ 109272
elimin@@ 109257
illas 109113
eng@@ 109060
public@@ 108962
señ@@ 108742
enti@@ 108740
cit@@ 108683
mas@@ 108677
miento 108654
tiva 108631
ubicada 108487
declar@@ 108417
2002 108371
batalla 108328
Barcelona 107942
amos 107921
resultado 107888
censo 107838
aqu@@ 107833
ud@@ 107803
sim@@ 107784
Instituto 107693
período 107632
hermano 107624
dirección 107576
control 107539
mis@@ 107477
Reg@@ 107429
-@@ 107417
Santiago 106994
Su@@ 106993
determin@@ 106988
inici@@ 106925
París 106845
jugador 106676
incluyendo 106508
dió 106495
X@@ 106400
ocup@@ 106285
esti@@ 106200
tamente 106196
anc@@ 106195
profesional 106183
dado 106120
mal@@ 106069
logr@@ 106054
jas 105981
estructura 105855
eza 105700
ion@@ 105593
caus@@ 105546
mur@@ 105539
ác@@ 105516
escuela 105327
especi@@ 105311
sencillo 105309
Á@@ 105296
Geografía 105249
tema 105240
conserv@@ 105225
cul@@ 105194
tan@@ 105192
imientos 105087
S 105015
oni@@ 104920
Cam@@ 104849
administr@@ 104788
ae 104752
aco 104744
lanz@@ 104729
investigación 104706
qui@@ 104692
aca 104674
establec@@ 104621
Po@@ 104513
pul@@ 104503
cost@@ 104486
revista 104348
entemente 104342
oblig@@ 104242
ago 104108
hombre 103809
Lu@@ 103734
utiliz@@ 103694
iles 103674
ega 103478
bor@@ 103470
50 103458
visit@@ 103318
modo 103272
V 103238
1990 103140
Mal@@ 103064
fecha 102985
pal@@ 102941
torneo 102896
llegar 102786
defin@@ 102728
paso 102727
jug@@ 102568
2021 102535
segu@@ 102467
fin@@ 102230
ton@@ 102213
N 102154
ún@@ 102143
0.@@ 102117
sea 102066
tir 102062
tal@@ 102034
dem@@ 101889
habit@@ 101640
Des@@ 101618
! 101599
antiguo 101525
cri@@ 101518
Pas@@ 101483
actividad 101400
apoyo 101391
Juegos 101374
14@@ 101266
X 101260
1999 101149
usa 101074
bal@@ 101064
extr@@ 101052
formula 101051
datos 101031
incorpor@@ 101013
centr@@ 101002
men@@ 100910
francesa 100717
g 100627
1.@@ 100514
actualmente 100486
ed 100445
llevó 100413
nació 100406
decir 100276
Pol@@ 100156
amientos 100155
... 99929
Hu@@ 99920
encontr@@ 99786
Perú 99735
popular 99685
pes@@ 99623
mostr@@ 99497
ahora 99426
ah@@ 99412
modelo 99376
espacio 99337
comunidad 99331
superior 99256
D 99170
algo 99158
ografía 99126
ira 99089
ema 99028
pues 98985
enfrent@@ 98984
aya 98898
Luego 98801
servicios 98752
abilidad 98726
derecho 98721
pat@@ 98666
Miguel 98453
bl@@ 98439
ativas 98423
aparece 98318
dar 98261
atura 98236
dur@@ 98142
reci@@ 98121
personal 98041
ciudades 97991
elegido 97950
joven 97938
pens@@ 97911
problemas 97887
fun@@ 97762
participó 97394
presión 97322
real 97221
Tor@@ 97153
Gal@@ 97142
Ber@@ 97102
iendo 97060
Bel@@ 97045
san@@ 97042
situada 97024
interior 96977
autor 96853
ór@@ 96787
posible 96686
Rec@@ 96579
creación 96524
ces 96523
cine 96388
be 96365
fund@@ 96309
clasific@@ 96212
31 96153
dad 96072
pen@@ 96019
personaje 96010
encarg@@ 95996
direc@@ 95936
información 95930
aga 95827
vieron 95767
Si 95740
Se@@ 95605
Centro 95587
Gobierno 95548
Fu@@ 95541
lam@@ 95476
primeras 95438
ocur@@ 95310
0,@@ 95296
ta@@ 95268
propia 95028
tem@@ 94988
única 94985
dirig@@ 94972
isiones 94935
Museo 94888
Unido 94885
tic@@ 94875
Pi@@ 94863
capacidad 94804
campeón 94790
diseño 94755
menor 94696
cantante 94630
puestos 94489
Be@@ 94443
ón@@ 94422
registr@@ 94417
anunció 94412
ola 94412
termin@@ 94386
logró 94377
Río 94340
expres@@ 94272
resp@@ 94263
aproximadamente 94207
iciones 94155
tivos 93938
000 93924
ret@@ 93819
ere 93735
For@@ 93707
pa 93684
Bal@@ 93683
conc@@ 93622
dijo 93612
Consejo 93319
culo 93218
victoria 93130
recuper@@ 93075
mil@@ 93073
igu@@ 93038
ás@@ 93011
actor 92985
Premio 92961
Escuela 92931
prec@@ 92854
w@@ 92839
emb@@ 92792
ers 92690
situación 92616
casos 92610
úa 92569
arm@@ 92534
irse 92486
nunca 92471
ay 92465
1998 92426
Inglaterra 92424
ach@@ 92352
Demografía 92328
objetivo 92315
calle 92214
icia 92166
publicó 92149
Más 92146
nuevos 92139
III 92116
vari@@ 92113
natural 92102
alismo 91902
40 91815
Japón 91791
pot@@ 91782
sigue 91743
encial 91730
L 91576
temas 91573
diseñ@@ 91536
Brasil 91488
Mat@@ 91401
común 91390
alemán 91385
enda 91347
Pero 91267
acia 91265
allí 91182
ju@@ 91095
suces@@ 91006
Lo@@ 90986
volvió 90861
idae 90860
red@@ 90831
ece 90757
cantidad 90739
Ab@@ 90606
Colombia 90598
mad@@ 90554
partes 90549
tenían 90512
principio 90455
b 90448
China 90444
vas 90285
especial 90185
conoce 90103
tercer 90081
ila 90002
hor@@ 89903
ord@@ 89887
división 89879
pequeño 89835
var@@ 89778
ier@@ 89689
Ri@@ 89666
acciones 89631
trata 89579
limit@@ 89562
elementos 89538
enas 89476
Ejército 89382
uni@@ 89363
diversos 89350
últimos 89294
1980 89285
decidió 89280
có 89116
prop@@ 89083
Londres 89079
comun@@ 89070
mano 88984
Está 88917
lin@@ 88839
Mu@@ 88722
escribió 88712
espec@@ 88684
costa 88656
periodo 88610
lat@@ 88440
go 88400
Ser@@ 88386
fuerza 88366
tar 88346
mando 88310
selección 88288
campaña 88278
asi@@ 88260
R 88251
asoci@@ 88241
altura 88229
sum@@ 88203
icios 88186
Sol@@ 88185
curso 88147
Distribución 88114
muestra 88114
tam@@ 87998
sus@@ 87995
Mo@@ 87941
Pal@@ 87897
erse 87885
if@@ 87864
oma 87722
derechos 87715
disput@@ 87707
grande 87691
Fernando 87679
situado 87653
juegos 87639
esposa 87638
Vi@@ 87615
tropas 87504
sta 87483
antigua 87475
be@@ 87437
actividades 87434
planta 87353
1996 87309
M 87294
rea 87274
Nor@@ 87265
ind@@ 87210
ativos 87203
acompañ@@ 87180
ill@@ 87034
Th@@ 86982
participación 86909
ocho 86895
Y 86870
mand@@ 86868
rit@@ 86862
influ@@ 86835
13@@ 86791
dir 86745
prepar@@ 86673
act@@ 86585
domin@@ 86568
St@@ 86526
hom@@ 86480
onal 86442
ili@@ 86430
presencia 86422
cap@@ 86388
Así 86294
zonas 86294
áreas 86275
estudi@@ 86274
incluye 86223
v 86202
ite 86127
nuevas 86080
ental 86026
pos 85995
ivo 85772
def@@ 85739
bol@@ 85628
endi@@ 85506
aja 85482
libre 85361
idi@@ 85346
ast@@ 85224
tuvieron 85139
gol@@ 85137
Censo 85115
ende 85011
longitud 84990
1997 84977
les@@ 84895
und@@ 84886
formas 84794
clase 84789
sitio 84784
nor@@ 84758
grado 84755
vía 84735
ne 84730
ética 84567
él@@ 84449
dicho 84442
profesor 84371
1995 84345
Carrera 84315
actu@@ 84312
edit@@ 84303
parec@@ 84302
acept@@ 84290
fo 84248
películas 84214
atac@@ 84087
mente 84082
vent@@ 84043
arlo 83964
vos 83955
compuesto 83932
viv@@ 83807
den 83796
tig@@ 83796
contin@@ 83759
comuna 83673
icamente 83616
vio 83588
siete 83579
bat@@ 83573
1992 83544
eses 83534
Bor@@ 83517
Cer@@ 83506
ine 83503
ál@@ 83474
amb@@ 83444
T 83423
pública 83417
ü@@ 83402
compar@@ 83280
novela 83263
causa 83132
retir@@ 83130
hac@@ 83129
ayo 83058
tercera 83034
Esp@@ 82952
yó 82877
err@@ 82822
jefe 82789
tora 82769
tro@@ 82693
teatro 82650
ge 82628
fal@@ 82626
ific@@ 82490
persona 82409
imagen 82378
escu@@ 82340
fac@@ 82336
inst@@ 82320
referencia 82280
sociedad 82269
ayuda 82248
2@@ 82178
Inter@@ 82103
cuyo 82089
person@@ 81994
financi@@ 81974
XIX 81964
fall@@ 81959
1994 81834
fabric@@ 81762
California 81748
sab@@ 81728
tamaño 81656
quienes 81519
isa 81469
mitad 81377
eleg@@ 81316
personajes 81313
fuerte 81275
noche 81269
lucha 81218
menudo 81200
ue 81163
seg@@ 81132
continu@@ 81102
rev@@ 81098
= 81093
ección 81073
colabor@@ 81068
Un@@ 81050
fot@@ 80957
idente 80873
similar 80845
pun@@ 80811
trabaj@@ 80791
10@@ 80749
oca 80694
perteneciente 80537
edo 80510
inaugur@@ 80504
éndose 80496
Estos 80491
me@@ 80482
matrimonio 80464
León 80432
ª 80408
podría 80400
ter 80383
ren@@ 80379
niños 80319
gracias 80231
til@@ 80231
pudo 80195
luz 80153
Mientras 80152
tim@@ 80123
me 80094
XX 80085
ini 80054
prueba 80035
amp@@ 80029
mercado 80010
Central 79980
dar@@ 79912
di 79900
realizar 79883
tales 79819
ines 79765
pequeña 79730
ocasiones 79699
divi@@ 79698
ba 79631
12@@ 79630
go@@ 79630
ai 79627
car 79598
quedó 79454
ez@@ 79408
1970 79394
mediados 79267
Imperio 79260
Posteriormente 79223
voc@@ 79221
aza 79145
Em@@ 79101
gas 79083
diversas 79068
restaur@@ 79042
eles 79001
presenta 78974
ler@@ 78913
complet@@ 78897
Ti@@ 78854
ización 78852
interpret@@ 78804
dej@@ 78729
tero 78701
García 78653
libros 78602
medida 78595
bot@@ 78523
acto 78510
sobre@@ 78504
actualidad 78467
ú 78451
ao 78442
funcion@@ 78361
edió 78345
aprob@@ 78331
apareció 78233
aire 78228
1991 78180
ud 78165
viol@@ 78123
premio 78096
Ros@@ 78089
cuadr@@ 78014
exist@@ 77949
ka 77930
interés 77926
función 77907
th@@ 77884
educación 77841
elev@@ 77822
ológico 77801
aña 77732
idea 77686
Actualmente 77651
Mi@@ 77604
lleva 77572
Tiene 77561
sir@@ 77516
emp@@ 77475
mencion@@ 77448
alizado 77395
yo 77356
inform@@ 77342
adquir@@ 77339
razas 77285
plantas 77281
artistas 77275
uta 77260
diferencia 77220
aplic@@ 77214
Fútbol 77199
Sud@@ 77156
ministro 77108
emos 77102
identific@@ 77102
flu@@ 77063
alt@@ 76953
acu@@ 76874
gar@@ 76814
trabajos 76741
Venezuela 76675
gt 76592
episodio 76514
manos 76499
ónico 76436
Ha 76405
mundial 76384
David 76367
ania 76323
secu@@ 76267
P 76233
par 76195
Congreso 76189
elec@@ 76111
emente 76101
cm 76095
adop@@ 76091
San@@ 76085
etapa 76068
aer@@ 76056
liga 76038
eri@@ 76018
Bo@@ 76017
murió 76007
diendo 75891
horas 75889
tro 75869
mec@@ 75811
Cruz 75798
unió 75755
lanzado 75752
Roma 75730
eció 75701
particip@@ 75684
ecu@@ 75664
viaj@@ 75648
Ger@@ 75634
zar 75613
1993 75612
medalla 75461
vir@@ 75361
américa 75357
obispo 75347
Ne@@ 75306
sex@@ 75290
jugó 75285
profes@@ 75278
gobernador 75256
emiti@@ 75242
Festival 75217
dom@@ 75151
fe@@ 75089
Dis@@ 75087
bur@@ 74980
f 74836
itas 74798
mejores 74795
canal 74750
investig@@ 74704
red 74630
sel@@ 74564
invit@@ 74563
energía 74559
honor 74472
revel@@ 74417
ataque 74366
geográfica 74306
ger@@ 74250
Er@@ 74218
vid@@ 74195
radi@@ 74132
cuya 74082
sit@@ 74050
into 74017
ánica 73992
Oficina 73989
he@@ 73900
Rusia 73871
fol@@ 73859
Du@@ 73839
gira 73836
vig@@ 73817
valor 73754
relacion@@ 73739
nombr@@ 73657
Mc@@ 73638
electr@@ 73561
Pres@@ 73535
60 73513
defensa 73504
permite 73470
sac@@ 73376
ánico 73343
presentó 73299
emple@@ 73262
ística 73218
’ 73168
cabeza 73167
características 73144
aument@@ 73077
lugares 73073
ció 73054
Q@@ 73052
ust@@ 73049
fu@@ 73011
liter@@ 73001
contribu@@ 72969
Del 72959
mit@@ 72942
plaza 72923
dirigida 72912
óm@@ 72898
relaciones 72896
influencia 72890
kilómetros 72890
actriz 72871
baja 72866
lt 72866
ayud@@ 72865
amento 72825
ás 72745
per 72725
barrio 72710
sh@@ 72708
formar 72685
culos 72661
Tur@@ 72644
ampli@@ 72634
fase 72623
hum@@ 72611
Fr@@ 72548
significa 72519
Academia 72490
80 72255
conven@@ 72231
fir@@ 72194
armas 72177
eda 72173
indic@@ 72155
propiedad 72104
frontera 72082
manten@@ 72063
Cl@@ 72008
dor@@ 71980
asc@@ 71962
lig@@ 71883
coloc@@ 71873
Bu@@ 71872
ey 71871
presid@@ 71837
dol@@ 71816
Ad@@ 71753
alm@@ 71749
distancia 71724
sig@@ 71678
importancia 71642
incluyen 71620
bres 71593
dejó 71546
pró@@ 71541
ónimo 71495
ecto 71429
Med@@ 71417
formó 71334
eca 71318
gal@@ 71251
1989 71233
Pe@@ 71232
ch 71214
ras@@ 71204
Casa 71184
etc. 71119
activ@@ 71113
verano 71037
Tierra 71002
tierras 70994
vers@@ 70965
jugadores 70960
material 70869
torno 70865
med@@ 70802
2.@@ 70753
Jorge 70744
diez 70736
vista 70643
inició 70601
trabajó 70551
futbolista 70544
camino 70424
respecto 70407
terminó 70314
Mag@@ 70293
pag@@ 70281
auto@@ 70219
ender 70217
distribu@@ 70202
sociales 70179
frecu@@ 70107
dicha 70059
reduc@@ 69999
suc@@ 69980
sector 69972
New 69959
ficas 69952
Mer@@ 69951
sil@@ 69950
+ 69858
uras 69813
aparec@@ 69796
condiciones 69790
embar@@ 69759
generalmente 69737
comercial 69736
iva 69735
aparición 69733
mil 69710
ede 69683
ve@@ 69673
conoc@@ 69650
&#124; 69535
debut 69533
tera 69473
pan@@ 69450
siones 69442
esas 69414
asist@@ 69413
To@@ 69391
Saint 69384
minutos 69374
ho@@ 69311
ale 69298
ard@@ 69295
carácter 69285
1960 69270
entrada 69232
calidad 69222
lar 69191
aguas 69129
campeonato 69125
combin@@ 69123
dan 69098
Chi@@ 69093
aves 69013
que@@ 69012
refer@@ 69009
blanco 68920
sistemas 68915
portes 68912
illos 68908
ext@@ 68902
van 68891
F 68837
escritor 68819
onia 68696
considerado 68637
Ni@@ 68625
acus@@ 68619
crit@@ 68582
locales 68487
requ@@ 68429
demostr@@ 68407
pon@@ 68379
conduc@@ 68378
mm 68358
autor@@ 68352
mes@@ 68289
organ@@ 68278
goles 68202
acceso 68111
au 68109
pasado 68101
combate 68096
tesis 68095
ak@@ 68073
bio 68019
priv@@ 67825
enso 67782
unidades 67727
acc@@ 67710
ace 67707
ble 67702
gobern@@ 67640
ide@@ 67628
parque 67599
lanzó 67568
dist@@ 67559
ech@@ 67540
rock 67531
trabajar 67515
Fil@@ 67514
artista 67473
ensa 67427
eña 67384
productos 67352
marca 67344
todavía 67320
frag@@ 67293
U 67289
ell 67273
semana 67262
Mil@@ 67191
seguridad 67021
Algunos 67010
uy@@ 67001
ciona 66990
porte 66965
sentido 66857
ment@@ 66853
realidad 66848
escrit@@ 66775
anim@@ 66762
militares 66762
So@@ 66701
rem@@ 66663
consiguió 66662
instal@@ 66606
otorg@@ 66591
municipal 66575
Australia 66566
oy@@ 66539
ístico 66447
nuevamente 66440
desarroll@@ 66415
imo 66403
fines 66400
crear 66398
ficos 66398
Ur@@ 66282
70 66271
aro 66221
gir@@ 66138
mul@@ 66129
abr@@ 66128
200 66116
90 66103
cic@@ 66096
negoci@@ 66090
sup@@ 66083
nacionales 66049
descrita 66030
anta 65913
radio 65848
1988 65831
Ley 65812
Mad@@ 65808
ult@@ 65803
Enrique 65796
coordenadas 65757
tra@@ 65744
rá@@ 65742
humanos 65713
taron 65713
alcanz@@ 65690
tó 65657
civil 65645
Martín 65635
ses@@ 65614
creó 65605
ard 65496
voz 65467
India 65440
pin@@ 65439
inspir@@ 65431
mas 65411
din@@ 65402
lad@@ 65391
líder 65366
esos 65359
refle@@ 65355
cent@@ 65313
americano 65295
ram@@ 65293
etes 65279
Grupo 65211
secre@@ 65200
impres@@ 65189
contrato 65176
orden@@ 65170
lleg@@ 65161
comenz@@ 65143
G 65140
cambi@@ 65137
ates 65123
? 65100
restos 65070
entales 65069
versiones 65049
lanzamiento 64958
regul@@ 64949
produjo 64904
coc@@ 64892
empezó 64800
cad@@ 64746
cambios 64732
Seg@@ 64728
ambas 64657
ificación 64598
empresas 64528
ís@@ 64474
ik@@ 64472
Pablo 64461
atori@@ 64439
ti 64379
vac@@ 64365
ph@@ 64319
educ@@ 64233
iro 64132
Asociación 64116
realizado 64115
cantón 64111
escrito 64108
italiano 64096
Jesús 64080
Puerto 64074
Pre@@ 64029
programas 64005
teoría 63990
traduc@@ 63980
jóvenes 63973
1985 63940
islas 63932
Ci@@ 63927
Costa 63892
encontrar 63879
ciencia 63826
Sin@@ 63802
1987 63622
uer@@ 63617
cuarto 63615
utiliza 63615
ca@@ 63609
velocidad 63609
div@@ 63584
1986 63567
Az@@ 63553
IV 63542
mayores 63540
Ministerio 63492
til 63488
guar@@ 63486
numerosos 63473
fon@@ 63467
tec@@ 63453
jer@@ 63378
exten@@ 63377
modific@@ 63345
ego 63313
nav@@ 63307
cultural 63235
ban@@ 63226
lider@@ 63221
reo 63214
ulares 63073
vuelta 63046
eco 63032
ance 63013
Liber@@ 63012
ler 62944
lido 62906
Debido 62846
obtener 62791
formado 62693
Pacífico 62683
creado 62622
comienza 62619
Ir@@ 62601
Por@@ 62588
áticas 62567
Descripción 62552
iso 62547
envi@@ 62528
lengua 62514
Ob@@ 62480
cripción 62480
mol@@ 62472
vas@@ 62458
Ben@@ 62402
Finalmente 62337
ov 62334
entreg@@ 62327
cán@@ 62314
cero 62247
dific@@ 62226
cristi@@ 62217
bil@@ 62203
uro 62132
Castilla 62096
especí@@ 62088
ug@@ 62083
amor 62082
uales 62076
plata 62070
luch@@ 62010
blo@@ 61922
figura 61911
origin@@ 61871
denomin@@ 61869
it 61862
Mur@@ 61839
hermanos 61809
favor 61806
uto 61799
existe 61782
industria 61776
ám@@ 61767
fica 61749
bul@@ 61734
comunicación 61712
padres 61641
mó@@ 61640
particular 61522
tend@@ 61505
bra 61492
líneas 61491
posee 61442
1@@ 61441
concentr@@ 61439
Ter@@ 61437
resultados 61405
ah 61382
Go@@ 61374
ecimiento 61369
ningún 61328
Estas 61311
cola 61280
anía 61234
utilizado 61229
Pan@@ 61226
marc@@ 61182
Agu@@ 61181
anot@@ 61153
Presidente 61099
intent@@ 61087
pueblos 61085
soldados 61082
cli@@ 61046
via 61038
tra 61032
administración 61023
ilio 61007
Gar@@ 60970
bo 60846
perman@@ 60830
1984 60818
endió 60801
entas 60797
cons@@ 60786
Teatro 60784
1982 60767
gente 60753
blancos 60748
pis@@ 60730
bel@@ 60725
anteriores 60714
He@@ 60705
Bi@@ 60680
elabor@@ 60562
Dec@@ 60535
África 60499
López 60473
dólares 60468
texto 60468
ias 60460
Patr@@ 60457
Mac@@ 60451
cerr@@ 60435
construido 60399
estim@@ 60380
misión 60373
ingresos 60366
1983 60362
internacionales 60357
americana 60344
histórico 60304
Sch@@ 60303
Mel@@ 60283
500 60251
Cat@@ 60153
unidad 60141
pequeños 60132
considera 60073
mi 60038
oficiales 60014
edades 60005
falta 59916
cuesti@@ 59909
inicio 59901
estat@@ 59879
jugar 59869
parece 59867
Hay 59777
acab@@ 59775
posterior 59744
ológica 59703
az 59635
evento 59633
resid@@ 59633
alizada 59626
sección 59611
vin@@ 59598
Av@@ 59589
contiene 59578
eder@@ 59573
Vill@@ 59572
oras 59535
evitar 59522
Hab@@ 59503
0@@ 59458
imp@@ 59456
animales 59425
elos 59359
motor 59282
podía 59279
decor@@ 59273
bar 59228
oria 59227
ur 59223
situ@@ 59202
Le 59151
vivi@@ 59149
viaje 59128
estu@@ 59061
raza 59058
entren@@ 59046
retr@@ 59031
gas@@ 59011
Vol@@ 58980
eas 58971
reconoc@@ 58971
adamente 58957
avanz@@ 58956
Pu@@ 58937
bronce 58934
Bur@@ 58919
doc@@ 58915
mag@@ 58908
traslad@@ 58886
elección 58876
gri@@ 58828
Dios 58796
argentino 58777
británico 58771
palabra 58759
enes 58685
poblacional 58679
Sociedad 58638
burgo 58630
operación 58627
favor@@ 58614
ave 58606
proporcion@@ 58606
gio 58605
onales 58587
res 58561
iti@@ 58508
rebel@@ 58507
destin@@ 58468
religi@@ 58465
suelo 58442
dibu@@ 58430
ejempl@@ 58414
azado 58403
ros 58389
candid@@ 58349
aran 58302
tipos 58288
ual 58220
Pl@@ 58199
madera 58199
ecer 58154
demás 58147
óp@@ 58141
arc@@ 58135
Medi@@ 58127
James 58126
conten@@ 58032
bás@@ 58025
presente 58013
existen 58005
proces@@ 58002
ros@@ 57984
serv@@ 57973
Cre@@ 57946
individu@@ 57885
estro 57877
lic@@ 57868
sustitu@@ 57868
bió 57860
buena 57846
efecto 57830
conform@@ 57805
gol 57792
orient@@ 57787
baj@@ 57772
puso 57748
ólogo 57734
crítica 57719
ner 57693
estados 57680
salud 57649
Sp@@ 57641
Men@@ 57561
endas 57525
cómo 57496
economía 57476
Valencia 57454
vec@@ 57445
pocos 57439
piedra 57434
tradicional 57434
coment@@ 57423
funciones 57414
uel@@ 57400
esqu@@ 57358
tin@@ 57351
eci@@ 57349
Mol@@ 57319
ost@@ 57318
cuanto 57289
encontraba 57287
menes 57226
16@@ 57214
políticas 57194
existencia 57178
izquierda 57165
edificios 57157
estra 57124
Me@@ 57099
olí@@ 57076
políticos 57057
Otros 57053
Trans@@ 57038
arro@@ 57029
arca 57016
fís@@ 57007
som@@ 56985
Trayectoria 56981
escri@@ 56971
palabras 56920
cara 56890
Hor@@ 56873
avi@@ 56866
ani 56864
puerto 56818
apa 56806
fusión 56791
sent@@ 56785
nacido 56768
35 56726
llegada 56701
uz@@ 56696
familias 56684
representa 56634
nov@@ 56630
emas 56625
1979 56616
temporadas 56591
alcanzó 56587
ninguna 56580
Nav@@ 56577
castillo 56561
templo 56556
resol@@ 56555
occidental 56545
FC 56473
Li@@ 56463
cer 56462
mantuvo 56462
visto 56459
tran@@ 56454
numerosas 56406
Canadá 56398
completo 56374
tadas 56331
regiones 56309
tomó 56296
inclu@@ 56295
González 56251
haciendo 56237
Prim@@ 56235
ng@@ 56209
Comisión 56187
económ@@ 56187
1976 56177
atención 56121
tradición 56103
obten@@ 56048
tima 56046
Tem@@ 56016
será 55991
oficialmente 55966
aquel 55959
colección 55952
Aut@@ 55942
Felipe 55938
actos 55903
estrat@@ 55902
vuel@@ 55889
Jer@@ 55867
Sar@@ 55850
ip@@ 55834
ganar 55804
comerci@@ 55803
crecimiento 55802
hall@@ 55799
Santo 55792
anz@@ 55792
Selección 55756
Córdoba 55734
uma 55727
Olímpicos 55723
colum@@ 55722
policía 55717
ice 55665
asa 55639
españoles 55558
Artes 55557
Har@@ 55483
referirse 55384
Bas@@ 55372
Sim@@ 55371
ofrec@@ 55355
pruebas 55309
independiente 55259
convoc@@ 55258
áticos 55243
adoras 55221
1950 55127
ang 55115
ub@@ 55102
alcanzar 55043
William 55014
deriv@@ 54996
sobr@@ 54987
ético 54930
Is@@ 54926
casas 54926
cionales 54923
hicieron 54920
ronda 54911
cuar@@ 54891
asent@@ 54881
económica 54871
clasificación 54856
elas 54849
Ren@@ 54818
explic@@ 54797
gió 54784
pieza 54743
destru@@ 54730
H 54717
directamente 54712
1978 54708
desc@@ 54692
có@@ 54691
ex 54659
probablemente 54623
vot@@ 54591
distintos 54589
verdad@@ 54582
egr@@ 54535
definiti@@ 54530
1973 54457
arían 54453
votos 54398
artículo 54396
abajo 54388
ticamente 54381
académ@@ 54376
emperador 54365
Paul 54364
ilo 54364
Departamento 54330
Robert 54330
continuó 54315
1981 54314
práctica 54307
ajo 54305
entrenador 54250
pasar 54242
har@@ 54241
cercan@@ 54234
ani@@ 54224
toma 54186
proyectos 54176
pe 54159
levant@@ 54157
oa 54156
derecha 54141
negro 54120
transporte 54120
ancias 54117
estudiantes 54107
Oc@@ 54106
ak 54066
allo 54066
captur@@ 54046
abandon@@ 54044
obstante 54042
casó 54026
K 53984
fuente 53973
ejer@@ 53945
Vida 53936
alg@@ 53891
uvo 53882
previ@@ 53871
eva 53845
1,@@ 53826
Don 53816
atorio 53815
neos 53754
Provincia 53740
dida 53720
igo 53688
tiempos 53682
positi@@ 53676
gl@@ 53662
oz 53657
inv@@ 53637
dinero 53610
fam@@ 53604
reser@@ 53583
argum@@ 53573
carretera 53566
1975 53525
aliment@@ 53519
dir@@ 53479
adr@@ 53476
asign@@ 53458
fuentes 53444
arque@@ 53436
carga 53427
arg@@ 53423
Cap@@ 53405
ped@@ 53391
amigo 53375
Camp@@ 53362
tido 53357
Ciencias 53318
bles 53302
hubo 53302
A. 53249
tió 53233
qué 53218
pur@@ 53204
Tri@@ 53201
fondo 53191
Virgen 53181
algún 53176
web 53173
alar@@ 53145
deb@@ 53133
Rey 53124
inal 53119
eli@@ 53106
lev@@ 53088
declaró 53047
ible 53031
dades 53023
consecu@@ 52993
quin@@ 52990
introduc@@ 52965
pedi@@ 52956
Diego 52954
hú@@ 52895
escena 52862
realiza 52851
estableció 52830
finaliz@@ 52789
ong 52787
gran@@ 52761
imonio 52755
autoridades 52750
É@@ 52712
ficación 52687
une 52638
doble 52620
Comun@@ 52613
stas 52547
cir 52518
pequeñas 52517
plan 52512
Vil@@ 52491
regresó 52482
fundó 52470
45 52456
Fernández 52449
confirm@@ 52435
Si@@ 52420
uo 52415
autores 52412
Rodríguez 52410
alguna 52394
títulos 52394
cial 52363
produce 52353
teri@@ 52313
proy@@ 52292
tenido 52226
comunic@@ 52218
Cur@@ 52202
Mas@@ 52200
asegur@@ 52164
desarrol@@ 52151
atoria 52132
ich 52127
lago 52116
distribución 52087
1977 52079
TV 52053
ismos 52029
Str@@ 51985
Orden 51982
Hol@@ 51957
ces@@ 51950
mantener 51918
análisis 51908
Elec@@ 51895
decisión 51894
nea 51871
deci@@ 51853
Distrito 51817
ote 51816
conf@@ 51790
escrita 51789
cop@@ 51781
hermana 51767
Bol@@ 51765
objeto 51735
ambi@@ 51728
atribu@@ 51726
icion@@ 51724
lí@@ 51693
Fl@@ 51690
aliza 51679
George 51678
chil@@ 51663
portugu@@ 51657
efectos 51656
valle 51654
forme 51652
distintas 51597
publicación 51568
dispar@@ 51554
interpre@@ 51554
Secre@@ 51553
dirigido 51542
cañ@@ 51537
nada 51527
naturaleza 51489
reun@@ 51456
ava 51445
sovi@@ 51424
comprom@@ 51369
futuro 51341
up@@ 51314
cadena 51266
originalmente 51265
may@@ 51240
anunci@@ 51237
provoc@@ 51231
verso 51204
llega 51194
Leg@@ 51179
Min@@ 51178
dot@@ 51173
1974 51143
berg 51141
siglos 51135
32 51105
consecuencia 51088
absol@@ 51087
hab 51078
conden@@ 51071
Mont@@ 51067
larga 51060
3.@@ 51021
Os@@ 51019
aster@@ 50976
ile 50959
cos@@ 50953
construir 50918
fundada 50913
cal 50895
ax@@ 50890
nac@@ 50865
ou@@ 50864
jur@@ 50835
ebr@@ 50830
enfermedad 50819
problema 50813
Ru@@ 50788
literatura 50783
aces 50768
descubri@@ 50755
Res@@ 50736
ubic@@ 50733
benef@@ 50724
correspon@@ 50721
astr@@ 50699
Hi@@ 50689
Nuevo 50675
cali@@ 50667
desp@@ 50639
ot 50604
Era 50595
Alfonso 50575
conde 50572
libertad 50565
prov@@ 50561
capit@@ 50553
ruso 50545
Sab@@ 50539
pobl@@ 50523
siguió 50522
ría 50493
imágenes 50477
aé@@ 50450
larg@@ 50449
Federación 50447
recursos 50441
Gi@@ 50429
cula 50404
artículos 50394
pintura 50358
nomin@@ 50341
iga 50327
1972 50311
éc@@ 50289
ais@@ 50282
tomar 50263
experiencia 50262
sola 50259
clima 50255
Villa 50253
ce@@ 50253
encar@@ 50250
enf@@ 50250
aur@@ 50230
técnica 50212
lec@@ 50208
variedad 50167
fl@@ 50160
bastante 50113
verde 50111
cum@@ 50090
exterior 50088
pic@@ 50055
concepto 50004
rápidamente 50001
anismo 49975
mot@@ 49908
iliz@@ 49907
nombres 49900
Cant@@ 49883
edas 49860
perdió 49852
teras 49852
arquitectura 49848
psic@@ 49841
escal@@ 49833
permitió 49827
1968 49821
deber@@ 49810
mascul@@ 49804
mal 49784
Del@@ 49782
sonido 49768
erte 49756
Educación 49740
fundado 49730
interes@@ 49723
dea 49708
Jean 49707
frac@@ 49677
merc@@ 49668
visión 49662
isti@@ 49659
mir@@ 49618
reempl@@ 49538
capitán 49537
by 49489
Ten@@ 49484
peso 49465
vel@@ 49456
actuación 49449
Portugal 49391
la@@ 49385
frut@@ 49368
corte 49364
Alberto 49335
activo 49316
encuentro 49310
conoció 49286
ográ@@ 49280
conclu@@ 49249
design@@ 49231
salida 49224
alla 49195
rot@@ 49186
corresponden 49178
reino 49148
inferior 49140
nati@@ 49104
eventos 49064
timo 49057
generación 49056
ens 49042
ases@@ 48986
fundación 48976
gencia 48973
ejas 48970
operaciones 48968
crisis 48966
universidad 48944
renov@@ 48942
titular 48917
XVIII 48915
Ese 48906
Lo 48882
pendi@@ 48868
uela 48844
paci@@ 48841
Pérez 48827
independencia 48813
semanas 48801
Ángeles 48754
ecta 48734
tab@@ 48733
World 48712
ision@@ 48685
Direc@@ 48653
Popular 48642
ari 48637
escap@@ 48619
conocidos 48611
productor 48611
clases 48599
abor@@ 48578
ine@@ 48577
contaba 48576
griego 48569
eos 48556
permi@@ 48527
acer@@ 48512
debajo 48509
seleccion@@ 48448
estadio 48412
Lí@@ 48391
razón 48379
derrota 48346
onal@@ 48344
mod@@ 48328
anes 48321
Salvador 48314
venta 48313
máxima 48276
Son 48236
rod@@ 48220
ore 48215
fuego 48188
indi@@ 48179
gado 48170
respuesta 48169
confi@@ 48151
Dos 48143
Sa@@ 48135
ade 48113
Uruguay 48101
reconocimiento 48074
gestión 48070
efectiv@@ 48065
ámica 48062
plic@@ 48053
representación 48047
puesta 48030
iste 48006
firme 47947
Lima 47946
Valle 47930
itario 47923
salv@@ 47898
Ag@@ 47890
altitud 47883
istán 47842
deten@@ 47835
deben 47831
Ven@@ 47792
Fi@@ 47780
cosas 47778
bre@@ 47772
Radio 47740
máximo 47712
azar 47705
vivo 47688
bus@@ 47683
ofic@@ 47681
comercio 47653
pá@@ 47653
1969 47627
participar 47613
llevar 47611
1930 47481
volun@@ 47478
land 47450
antiguos 47442
ki 47412
tería 47391
Deb@@ 47345
forz@@ 47344
ualmente 47331
Sevilla 47324
idores 47276
dirigió 47241
piezas 47232
afect@@ 47231
Palacio 47202
agreg@@ 47197
ric@@ 47183
adelante 47153
histori@@ 47146
ven 47115
nueve 47113
Rom@@ 47112
anda 47112
completamente 47104
pareja 47074
ensis 47062
Ol@@ 47055
acerca 47044
sor@@ 47040
rio 47035
Rafael 47010
cias 47008
hid@@ 46996
trasladó 46996
sp@@ 46924
producto 46912
omo 46910
arla 46904
hel@@ 46884
ños 46864
Pin@@ 46855
puente 46852
Civil 46826
oci@@ 46809
urban@@ 46806
colaboración 46769
flor@@ 46760
Super@@ 46758
fundador 46754
aquellos 46745
promedio 46743
atus 46740
Michael 46719
Din@@ 46699
repar@@ 46689
regreso 46686
Asia 46673
permit@@ 46669
comenzaron 46664
turas 46652
composición 46645
anteriormente 46637
caballer@@ 46637
empez@@ 46633
apoy@@ 46607
términos 46577
udi@@ 46571
tivas 46558
concre@@ 46552
1940 46531
ejecut@@ 46517
rode@@ 46500
municipios 46494
Luc@@ 46491
vic@@ 46474
materiales 46458
izo 46456
museo 46431
alum@@ 46428
Parque 46414
firma 46413
añas 46412
metro 46380
omas 46372
empres@@ 46371
endido 46369
gos 46367
ilidad 46361
diario 46347
flores 46318
XVI 46307
plac@@ 46304
templ@@ 46304
ly 46301
respectivamente 46285
liger@@ 46253
ke 46243
1971 46214
llegaron 46197
Mir@@ 46152
amigos 46150
candidato 46117
alcalde 46115
ciendo 46114
video 46108
oriental 46105
temperatura 46104
proteg@@ 46095
conocer 46092
Ó@@ 46081
prensa 46077
orial 46055
pasa 46045
confer@@ 46043
pico 46037
ich@@ 46030
je 46024
villa 46022
Comité 46021
entró 46020
clar@@ 45983
Ge@@ 45969
bal 45962
oj@@ 45962
Records 45947
ches 45918
conflicto 45871
tado 45858
Tar@@ 45818
periodista 45813
bras 45810
musicales 45810
2,@@ 45808
objetos 45808
constru@@ 45801
introdu@@ 45791
D. 45790
juntos 45789
inde@@ 45744
nam@@ 45739
titulado 45718
orr@@ 45711
juega 45691
iba 45684
ológicos 45682
1945 45680
Plaza 45675
conocimiento 45662
Federal 45661
Martínez 45657
video@@ 45656
ónoma 45646
istió 45645
torre 45636
gar 45629
mens@@ 45627
Características 45621
extremo 45621
ond@@ 45609
hora 45602
ai@@ 45577
mismos 45542
expl@@ 45536
motivo 45532
listas 45490
zación 45469
generales 45466
pronto 45456
hacen 45445
propor@@ 45441
1967 45438
dismin@@ 45438
creada 45431
alternati@@ 45420
lag@@ 45399
mos 45375
von 45371
Eduardo 45367
Constitución 45363
uncia 45346
Estadio 45344
City 45343
modelos 45331
continuación 45300
posteriores 45287
rojo 45284
Rel@@ 45280
Kar@@ 45257
unión 45228
4.@@ 45203
Municipio 45163
volver 45148
redu@@ 45145
Hum@@ 45126
extensión 45126
menores 45122
conquist@@ 45118
Sol 45113
enos 45106
rest@@ 45102
ocu@@ 45082
coron@@ 45078
vino 45077
óg@@ 45061
rango 45051
paz 45042
niveles 45025
noroeste 45004
vivir 44982
forman 44964
ont@@ 44941
Washington 44936
construyó 44935
exit@@ 44929
adul@@ 44925
Do@@ 44917
1936 44915
ac 44891
calles 44870
condu@@ 44860
Colegio 44855
atas 44853
régimen 44850
alo 44844
oposición 44840
Vel@@ 44826
Asamblea 44822
aprove@@ 44791
pertenec@@ 44754
Española 44727
tis 44727
dientes 44724
incluido 44696
universit@@ 44690
33 44679
Austria 44675
cuer@@ 44656
75 44648
ville 44630
crip@@ 44626
Tour 44610
pone 44609
decide 44608
protección 44599
League 44589
ono 44585
hojas 44563
cay@@ 44561
circun@@ 44559
w 44528
art@@ 44509
Plata 44496
sala 44478
premios 44476
llama 44457
institución 44432
enz@@ 44391
sa@@ 44383
Mar 44369
inicialmente 44367
estrella 44346
onen 44322
frecuencia 44294
aturas 44291
basada 44288
cierto 44288
igos 44259
Arte 44255
asesin@@ 44253
tempr@@ 44227
senti@@ 44214
ruta 44212
sacer@@ 44210
llegando 44181
hal@@ 44175
pregun@@ 44174
amar@@ 44157
dici@@ 44141
capac@@ 44138
ganado 44122
alemana 44120
democ@@ 44097
ern@@ 44095
rum@@ 44079
Ecuador 44078
acion 44075
control@@ 44057
dimen@@ 44057
Alejandro 44049
ítica 44049
Charles 44038
compositor 44036
AR@@ 44017
contenido 44005
ace@@ 43998
jud@@ 43996
veget@@ 43981
hogar 43965
producido 43957
osis 43945
regular 43942
firmó 43927
sín@@ 43915
clubes 43911
mont@@ 43907
1964 43904
moder@@ 43870
aviones 43855
em 43841
contempor@@ 43790
desaparec@@ 43789
Cab@@ 43779
die 43768
adecu@@ 43747
fortal@@ 43727
perf@@ 43725
estadounidenses 43716
estrenó 43697
figuras 43685
Derecho 43672
allas 43651
acional 43644
económico 43621
feder@@ 43596
proced@@ 43587
Ganó 43585
Polonia 43553
latinos 43551
ríos 43546
Sil@@ 43545
vil 43544
idioma 43521
No@@ 43518
ans@@ 43500
íes 43499
disputó 43482
secretario 43477
amist@@ 43475
encontró 43469
transmi@@ 43466
terreno 43445
impuls@@ 43442
desarrolló 43439
formato 43439
Pen@@ 43438
paral@@ 43394
untos 43372
médico 43366
usar 43360
onía 43340
mut@@ 43333
fich@@ 43319
vis@@ 43319
Sierra 43287
agrup@@ 43286
emia 43270
explot@@ 43261
maestro 43250
ascenso 43238
autom@@ 43236
aud@@ 43229
1966 43226
mej@@ 43213
insec@@ 43204
ún 43199
Ant@@ 43188
comandante 43153
eños 43145
Antes 43131
Sig@@ 43126
Cultura 43121
diócesis 43108
necesidad 43072
ocupación 43071
Junta 43066
abil@@ 43064
ger 43059
Categoría 43035
buen 43013
competición 42997
rep@@ 42964
tratamiento 42947
británica 42944
erra 42919
Ella 42894
CD 42882
00 42872
habría 42867
resistencia 42867
logo 42848
mun@@ 42839
Fundación 42832
ades 42825
Lor@@ 42824
Sur@@ 42824
yac@@ 42816
ancho 42799
Jug@@ 42798
och@@ 42797
firm@@ 42786
Tom@@ 42774
seguir 42771
recuer@@ 42751
ty 42749
siguiendo 42734
bol 42724
ick 42704
alter@@ 42701
quer@@ 42687
instalaciones 42671
suele 42665
basado 42662
Torneo 42661
provincias 42652
Bot@@ 42641
posibilidad 42622
vivió 42604
gráfica 42602
ectos 42588
etos 42577
institu@@ 42562
iría 42558
titud 42555
lados 42548
similares 42523
reina 42496
Daniel 42489
estros 42464
Cataluña 42445
don 42431
queda 42388
hechos 42384
Dem@@ 42377
Bat@@ 42370
Media 42366
34 42358
mezcla 42357
Ana 42356
aplicación 42350
Thomas 42342
narr@@ 42333
descubr@@ 42302
relev@@ 42293
críticas 42287
intento 42275
Isabel 42269
detrás 42269
amo 42267
adura 42252
mexicano 42238
alistas 42226
alizó 42193
convertirse 42180
Sec@@ 42179
utilizar 42171
1965 42164
mento 42158
300 42145
dé@@ 42129
Kr@@ 42126
vuelve 42126
id 42102
ográfico 42101
dram@@ 42097
multi@@ 42096
enciales 42093
Ho@@ 42084
ernos 42078
recibe 42052
contacto 42038
tre 42016
tecnología 42013
explor@@ 42011
ecido 42003
compuesta 41989
interpretó 41970
tida 41941
Mundo 41940
recur@@ 41923
3,@@ 41920
1920 41888
je@@ 41883
Uno 41814
refu@@ 41811
marcha 41804
eh@@ 41798
ula 41797
distin@@ 41791
dev@@ 41785
age 41784
iden 41780
Deportivo 41775
instituciones 41772
colores 41724
Ram@@ 41718
brasil@@ 41712
prob@@ 41703
tot@@ 41697
tiv@@ 41695
carta 41675
método 41672
enterr@@ 41657
Ej@@ 41642
territorios 41634
grafía 41615
idor 41611
diente 41610
undo 41586
F. 41583
gen 41546
Investig@@ 41521
barr@@ 41504
Israel 41486
Mayor 41468
cree 41464
Hasta 41439
aw@@ 41438
yen 41431
jeros 41426
llen@@ 41426
duc@@ 41407
resul@@ 41396
rió 41376
cé@@ 41372
Cuba 41349
humano 41336
diplom@@ 41322
sexual 41319
metal 41298
estaciones 41274
aumento 41273
bic@@ 41261
arán 41251
diferente 41239
ejerc@@ 41221
mus@@ 41196
riqu@@ 41188
pista 41182
Pon@@ 41178
estren@@ 41169
desarrollado 41155
necesario 41154
escuelas 41151
Fer@@ 41145
Guillermo 41132
pintor 41129
poeta 41128
solamente 41107
Cámara 41101
vuelo 41100
ent 41099
usu@@ 41098
1962 41090
avent@@ 41079
matem@@ 41077
debía 41069
deleg@@ 41060
arquit@@ 41041
disco@@ 41028
edido 41002
Paz 41000
posiciones 41000
publicada 40991
arquitecto 40989
propios 40977
dando 40975
memoria 40955
olas 40915
far@@ 40906
añadi@@ 40904
36 40873
mac@@ 40857
pidió 40849
document@@ 40809
capaz 40794
carreras 40786
Peter 40784
ucion@@ 40782
naturales 40767
propiet@@ 40746
Andrés 40725
periódico 40714
tific@@ 40712
décadas 40706
amor@@ 40692
ólico 40672
niño 40662
Estr@@ 40657
capítul@@ 40656
denominado 40648
lit@@ 40636
ans 40631
1963 40614
parroquia 40601
teatr@@ 40594
Guatemala 40593
Pad@@ 40573
legisl@@ 40547
Berlín 40522
ben 40522
1939 40505
Edad 40490
Europeo 40477
5.@@ 40470
órdenes 40466
ou 40452
Facultad 40451
cir@@ 40423
comienzo 40413
mán 40411
Revolución 40407
convierte 40407
ideas 40396
nacional@@ 40350
ital 40334
mín@@ 40325
uch@@ 40318
ográfica 40314
japonés 40313
hispanos 40311
avión 40292
bieron 40285
colombi@@ 40239
pais@@ 40207
plat@@ 40194
Cada 40186
fan@@ 40166
ejecu@@ 40165
culas 40158
Cel@@ 40151
debutó 40149
Ang@@ 40143
concep@@ 40126
Ángel 40122
W 40112
técnicas 40083
38 40063
príncipe 40056
escol@@ 40053
alidades 40049
hol@@ 40027
difícil 40023
dedic@@ 40018
pendiente 40014
ango 40008
esclav@@ 39996
tari@@ 39991
fo@@ 39985
ten 39980
complejo 39974
tratado 39972
ener@@ 39969
Julio 39960
Arm@@ 39958
competi@@ 39956
construida 39913
centros 39909
Desarrollo 39900
realizada 39873
# 39866
ster 39848
alb@@ 39836
ko 39836
fera 39832
icana 39827
eve 39824
conv@@ 39823
diputado 39817
nave 39814
¿ 39814
comerciales 39806
residiendo 39779
jun@@ 39770
Music 39764
palacio 39755
pertenece 39737
comple@@ 39736
estudió 39736
puerta 39722
const@@ 39718
Nu@@ 39708
gráfico 39708
Vicente 39704
cuid@@ 39690
inicial 39672
let@@ 39658
vincul@@ 39656
Pat@@ 39621
aso 39621
Sánchez 39614
ambiente 39613
Castillo 39579
aquí 39570
poder@@ 39568
edentes 39566
eñ@@ 39538
mov@@ 39536
Especi@@ 39518
tad 39514
azul 39509
prote@@ 39478
exposición 39469
Asimismo 39459
ócr@@ 39452
designado 39445
Domingo 39425
can 39381
simplemente 39375
zas 39363
vie@@ 39353
fus@@ 39345
alemanes 39338
ilustr@@ 39287
ford 39240
dig@@ 39232
puestas 39228
Ramón 39223
caracteriz@@ 39204
ísim@@ 39201
conciertos 39200
im 39194
At@@ 39193
cambió 39171
senc@@ 39170
conseguir 39157
católica 39150
directo 39140
once 39121
pros@@ 39109
populares 39084
ofrece 39073
habla 39071
Corea 39065
pie 39040
unda 39031
Prot@@ 38998
Bolivia 38997
dominio 38996
espectá@@ 38994
42 38989
secund@@ 38989
medallas 38949
1958 38936
sello 38898
destaca 38891
ul 38890
bandas 38863
acep@@ 38861
Cristo 38840
ras 38831
cionalmente 38821
Allí 38812
ater@@ 38808
estatal 38795
pil@@ 38793
Fre@@ 38762
64 38737
trabajadores 38737
formes 38712
Mus@@ 38706
Otras 38705
deportiva 38697
científicamente 38686
ónicas 38685
olo 38664
Sir@@ 38662
proclam@@ 38656
chos 38643
J. 38642
destacan 38631
inmedi@@ 38612
teniendo 38597
oni 38586
depor@@ 38582
Grande 38570
ogía 38565
pérdida 38562
altos 38556
presidencia 38553
pasando 38540
bos 38537
Sub@@ 38528
ple@@ 38521
considerada 38520
alej@@ 38516
Naciones 38504
Mes@@ 38503
poli@@ 38495
máqu@@ 38489
pop 38470
capilla 38468
cil@@ 38454
oides 38444
busc@@ 38440
cámara 38425
deportista 38425
duque 38416
conver@@ 38413
células 38413
om 38411
Aragón 38405
Form@@ 38388
Ya 38383
organizaciones 38378
Vic@@ 38371
comunidades 38363
ieren 38351
sufr@@ 38350
señal@@ 38332
llu@@ 38328
poca 38318
1944 38314
lem@@ 38304
hubi@@ 38302
árabe 38298
producir 38294
Tel@@ 38289
Sem@@ 38269
Im@@ 38267
leyes 38257
bosques 38250
apertura 38235
manifest@@ 38233
campos 38212
ablemente 38205
actores 38186
ette 38160
rechaz@@ 38143
caída 38131
completa 38105
colectiv@@ 38089
micro@@ 38083
eléctr@@ 38066
ons 38042
experiment@@ 38018
65 38015
vió 38011
Brit@@ 38010
Mari@@ 38000
ejo 37996
Soviética 37995
ánea 37987
39 37982
cuenca 37982
península 37970
amplia 37966
nacimiento 37966
defens@@ 37950
enseñ@@ 37945
salió 37945
Loc@@ 37929
falleció 37927
italiana 37924
hon@@ 37923
oportunidad 37911
Martin 37899
famoso 37899
transform@@ 37893
estructuras 37872
valores 37868
Lin@@ 37855
1941 37849
estrellas 37847
responsable 37844
múltiples 37835
vo@@ 37819
papa 37811
series 37808
biendo 37787
ecciones 37780
movimientos 37776
mentos 37765
XVII 37761
física 37755
Ay@@ 37743
americanos 37742
golpe 37732
hacía 37719
edr@@ 37703
1956 37686
vil@@ 37676
hábitat 37664
q@@ 37637
Banco 37619
Pel@@ 37587
Richard 37579
ski 37571
milit@@ 37567
lá@@ 37547
áneo 37542
Campe@@ 37538
1948 37515
ant 37514
naveg@@ 37510
números 37506
clave 37499
Hom@@ 37494
1961 37491
histórica 37462
indica 37451
competencia 37435
oh@@ 37419
ñas 37409
Bl@@ 37399
vecinos 37395
Nov@@ 37372
edor 37368
fe 37368
bir 37354
recep@@ 37351
Poco 37347
48 37328
libr@@ 37327
Profes@@ 37325
cau@@ 37323
consist@@ 37298
tradi@@ 37294
Flor@@ 37293
Algunas 37285
sti@@ 37272
Todos 37271
hem@@ 37271
telev@@ 37269
mel@@ 37266
carr@@ 37265
jus@@ 37249
usi@@ 37247
azgo 37241
titu@@ 37225
dez 37209
montaña 37203
ocupó 37199
refiere 37166
iente 37157
elli 37156
Sant@@ 37147
Mis@@ 37128
comend@@ 37123
racia 37115
conex@@ 37083
m. 37062
Der@@ 37057
grabación 37057
quiere 37042
taría 37038
Tro@@ 37036
indígenas 37026
br 37022
concierto 37017
ferrovi@@ 37000
usado 36993
dico 36990
orado 36974
Produc@@ 36973
sabe 36972
cursos 36969
técnico 36968
lenguas 36954
vías 36937
tismo 36919
nd@@ 36892
abierto 36878
peces 36875
dejar 36871
progres@@ 36867
humana 36866
odi@@ 36863
poner 36855
estre 36847
record@@ 36836
dica 36833
escala 36825
guerr@@ 36824
formada 36813
Maria 36799
escenario 36779
señor 36778
anzas 36773
lab@@ 36765
embaj@@ 36756
concurso 36753
pudi@@ 36748
suj@@ 36745
cinemat@@ 36740
ecos 36739
core@@ 36732
ional 36731
castell@@ 36720
intelig@@ 36720
Roc@@ 36717
escribir 36705
tropical 36699
delan@@ 36697
contrario 36695
sufrió 36678
mem@@ 36674
52 36670
pier@@ 36668
rios 36663
compitió 36659
result@@ 36645
cargos 36626
sangre 36620
guitarra 36611
umbr@@ 36608
Justicia 36607
ber 36597
republic@@ 36585
enem@@ 36584
aspecto 36577
for 36572
ámbito 36556
oz@@ 36550
calific@@ 36539
apel@@ 36531
pendientes 36531
vive 36531
aparecen 36510
franceses 36506
cuarta 36486
Isla 36478
Victoria 36473
Batalla 36456
totalmente 36455
prisión 36447
poses@@ 36445
fron@@ 36438
Irlanda 36411
permaneció 36405
var 36404
recibido 36403
interpretación 36401
400 36396
consiste 36394
busca 36389
tes@@ 36383
Far@@ 36374
transfer@@ 36361
44 36358
tiles 36342
ectura 36340
comput@@ 36338
agrí@@ 36326
expresión 36322
medidas 36305
Red 36298
código 36298
utilizando 36298
recién 36296
alizar 36292
Nuestra 36279
Rica 36278
anual 36268
didas 36259
judíos 36257
núcleo 36244
Me 36232
ariamente 36232
intención 36229
puertas 36217
agon@@ 36199
migr@@ 36179
torio 36177
órmula 36169
cier@@ 36163
convirti@@ 36157
alc@@ 36156
apr@@ 36138
noreste 36125
human@@ 36117
Él 36114
dispositi@@ 36106
manif@@ 36105
pir@@ 36104
ígenes 36100
ífer@@ 36097
lesias 36086
plano 36083
umin@@ 36079
mos@@ 36071
uli@@ 36070
fá@@ 36062
ordin@@ 36062
integran@@ 36050
37 36030
industri@@ 36029
descendi@@ 36027
fut@@ 36027
denominada 36007
límite 35982
industrial 35979
4,@@ 35977
Gómez 35972
gradu@@ 35962
presa 35961
cens@@ 35955
episodios 35952
resultó 35952
Gener@@ 35940
gel@@ 35939
descubierto 35938
ñez 35938
aceae 35927
ong@@ 35927
sat@@ 35903
adapt@@ 35896
1959 35895
llamó 35894
chi@@ 35892
Char@@ 35888
Premios 35885
desempeñó 35836
electoral 35831
ocasión 35830
solicit@@ 35821
ataques 35818
Tan@@ 35813
nas 35802
You 35799
sen 35793
quit@@ 35786
colon@@ 35783
condición 35783
Dr. 35776
fuer@@ 35763
Avenida 35759
destruc@@ 35751
ofreci@@ 35743
1957 35736
extran@@ 35730
mez@@ 35730
enden 35723
tej@@ 35708
podían 35700
acial 35687
Islas 35683
altas 35680
expedición 35677
amarca 35676
j 35672
fiesta 35668
ológicas 35639
Nació 35623
rendi@@ 35619
asociación 35618
all 35616
eciendo 35615
rech@@ 35615
Aqu@@ 35608
abri@@ 35608
vención 35603
1955 35600
Hist@@ 35595
Bre@@ 35587
Dr@@ 35576
propuesta 35568
romano 35564
plant@@ 35552
fa 35532
Cro@@ 35510
rus@@ 35499
fas@@ 35488
Granada 35479
asiáticos 35476
letras 35476
culturales 35464
pies 35455
órico 35451
55 35442
Park 35439
cruz@@ 35439
ónicos 35437
encima 35436
1943 35433
identidad 35417
participantes 35406
piloto 35406
Oro 35383
seguido 35377
Lim@@ 35365
dejando 35365
Países 35354
ísticas 35354
Dor@@ 35351
construc@@ 35351
period@@ 35347
estudiar 35336
Ul@@ 35329
str@@ 35320
ben@@ 35304
Ricardo 35301
comienzos 35300
masa 35296
bri@@ 35285
ezas 35278
Municipal 35277
Egipto 35276
Pir@@ 35270
‘ 35266
Suecia 35240
afir@@ 35240
ét@@ 35236
asesinato 35222
atur@@ 35206
Wil@@ 35205
arqu@@ 35194
mam@@ 35174
corto 35165
ices 35165
marco 35161
hidro@@ 35160
dicos 35156
textos 35155
únicamente 35126
1942 35120
cus@@ 35118
atri@@ 35097
Región 35085
reco@@ 35085
abund@@ 35053
ox@@ 35053
dios 35034
accidente 35025
discos 35015
encu@@ 35012
Estación 35009
dedi@@ 34999
didos 34999
urbano 34979
émica 34979
invierno 34968
Estudios 34946
proven@@ 34942
ok@@ 34937
abogado 34931
J 34927
ks 34926
Jac@@ 34911
Alto 34903
erras 34901
ordenó 34898
6.@@ 34897
licenci@@ 34892
obr@@ 34887
prof@@ 34860
VI 34859
escudo 34854
recibir 34851
enfer@@ 34847
poblaciones 34845
caracter@@ 34823
regional 34809
demasiado 34798
utilizan 34792
reconocido 34790
apenas 34787
asco 34782
Esc@@ 34780
encontrado 34766
amenaz@@ 34761
Grecia 34733
disol@@ 34719
ic 34708
Fon@@ 34701
ís 34700
denominación 34691
últimas 34658
41 34653
ey@@ 34649
IN@@ 34645
5,@@ 34624
íos 34621
Oper@@ 34617
ganador 34609
ferrocarril 34600
cot@@ 34596
visita 34579
ró@@ 34573
Díaz 34571
tecn@@ 34567
renunci@@ 34556
públicas 34530
ash@@ 34527
Man 34512
nación 34502
árboles 34483
descri@@ 34416
abl@@ 34414
Atlético 34408
ker 34402
ciales 34396
46 34394
Rev@@ 34386
argentina 34364
quis@@ 34360
mant@@ 34358
Edi@@ 34345
salir 34340
íl@@ 34337
ciudadanos 34329
Antigu@@ 34327
onda 34317
Mario 34302
pec@@ 34299
vamente 34284
vali@@ 34279
afroamericanos 34278
alber@@ 34264
Texas 34254
alia 34249
encabez@@ 34247
Lar@@ 34234
otom@@ 34234
nia 34226
especiales 34219
Canal 34195
etr@@ 34183
vídeo 34181
anci@@ 34175
1946 34170
autoridad 34163
hospital 34157
plataforma 34157
Nicolás 34156
Aten@@ 34154
profun@@ 34148
UN@@ 34144
labor 34142
elle 34126
comunes 34122
ali 34097
entrar 34090
oría 34085
CO@@ 34083
natal 34082
egos 34081
Economía 34060
Ali@@ 34056
Social 34056
propi@@ 34050
ican 34044
arle 34023
bandera 34023
fér@@ 34010
femenino 33994
ō 33987
Supre@@ 33985
cierta 33980
permiti@@ 33962
vice@@ 33961
exp@@ 33960
enl@@ 33959
gus@@ 33958
field 33947
ayudar 33944
1952 33941
Señora 33938
Dur@@ 33936
fuertes 33936
respon@@ 33929
istir 33928
1949 33922
claro 33908
estimada 33906
Hospital 33904
quinto 33888
7,@@ 33886
involucr@@ 33883
mann 33854
ahí 33847
mix@@ 33841
doce 33840
coronel 33834
acont@@ 33816
Sistema 33811
lenguaje 33810
arco 33803
Diput@@ 33800
sureste 33787
describe 33780
ene 33780
procesos 33779
convertido 33778
uelta 33777
coleóptero 33774
reemplaz@@ 33773
Parlamento 33759
AC@@ 33754
propias 33751
só@@ 33749
propiedades 33748
destino 33744
acion@@ 33740
religión 33723
ientes 33711
diput@@ 33706
Señ@@ 33700
estándar 33694
récord 33691
Fall@@ 33670
lograr 33669
gin@@ 33646
desplaz@@ 33643
85 33633
lav@@ 33631
ides 33630
ire 33626
memor@@ 33616
juven@@ 33603
letra 33601
vehículos 33590
óric@@ 33582
franqu@@ 33567
usando 33532
directa 33526
juicio 33525
activa 33511
uelo 33507
lara 33496
land@@ 33488
pasajeros 33483
tador 33483
tia 33472
Federico 33469
1954 33442
reclam@@ 33441
bajas 33435
moderna 33432
públicos 33432
romana 33429
Soci@@ 33403
Ari@@ 33380
reinado 33377
pint@@ 33376
tiende 33373
Europea 33351
ts 33323
semif@@ 33318
tav@@ 33307
entan 33293
búsqueda 33288
fenó@@ 33280
1938 33270
conquista 33263
Ing@@ 33257
reunión 33235
Dar@@ 33213
teniente 33209
quím@@ 33207
imos 33200
regres@@ 33200
du 33164
char@@ 33157
Suiza 33137
erlo 33137
1937 33135
violencia 33134
ann@@ 33125
protagonista 33125
Superior 33124
retiró 33115
1947 33114
Taxonomía 33103
géneros 33102
1953 33100
catedral 33086
filosofía 33080
ós@@ 33065
tradicionales 33049
echos 33047
aspectos 33045
57 33042
grav@@ 33035
dedor 33032
equip@@ 33029
Vir@@ 33023
Bajo 33011
corri@@ 32980
copias 32979
udo 32973
corazón 32960
profesionales 32948
Gol@@ 32939
tario 32932
ingo 32927
afric@@ 32923
suficiente 32922
trabajando 32919
viene 32918
put@@ 32913
Hal@@ 32907
raíz 32878
potencia 32874
ges@@ 32870
tista 32866
eria 32865
Serie 32858
convirtiéndose 32856
org@@ 32840
march@@ 32833
suelen 32823
entado 32820
ventas 32818
ojos 32814
produ@@ 32809
mina 32808
baloncesto 32800
Inici@@ 32795
entorno 32795
Nar@@ 32792
amen@@ 32786
éticos 32780
contó 32778
inicios 32769
Ministro 32763
Love 32761
mantiene 32761
categorías 32736
Ferro@@ 32732
Roberto 32716
Javier 32709
compañeros 32707
reforma 32691
Rock 32683
B. 32679
inales 32676
clásico 32675
Chicago 32669
Tre@@ 32665
ular@@ 32661
li 32651
presentan 32651
43 32644
terr@@ 32643
Compañía 32632
oscur@@ 32631
47 32611
teriores 32608
Otro 32605
relacionados 32602
Cine 32596
abrió 32588
ide 32580
Fuerza 32565
Organización 32563
álbumes 32556
American 32552
Cá@@ 32543
amerindios 32535
poesía 32524
planeta 32517
ús@@ 32511
prohib@@ 32507
ísticos 32490
Florida 32488
bios 32488
egio 32486
Gen@@ 32482
Zaragoza 32477
ól@@ 32473
corriente 32471
95 32467
fundament@@ 32452
documentos 32445
fachada 32445
cuerpos 32439
dul@@ 32439
adel@@ 32433
bin@@ 32432
iy@@ 32425
Paraguay 32420
univers@@ 32401
materia 32390
abe 32388
segundos 32378
distingu@@ 32376
automó@@ 32375
arlos 32372
sosten@@ 32372
establecer 32366
Bretaña 32353
construy@@ 32353
artes 32351
tiz@@ 32344
invasión 32331
correc@@ 32318
equ@@ 32316
Occidental 32314
igió 32314
ingenier@@ 32312
ultades 32312
est 32307
circul@@ 32292
elemento 32288
7.@@ 32276
Lee 32274
Capit@@ 32263
aven@@ 32260
Pun@@ 32255
Existen 32250
parlament@@ 32250
aquella 32230
simple 32226
envió 32214
Sebastián 32209
Henry 32195
Ed@@ 32190
bano 32181
nas@@ 32176
volumen 32159
xim@@ 32151
allá 32148
impacto 32142
civiles 32136
écn@@ 32133
agricultura 32132
músico 32130
propu@@ 32104
Lic@@ 32103
bosque 32103
barco 32099
51 32096
6,@@ 32096
Aé@@ 32089
empl@@ 32078
cina 32075
secundaria 32071
Música 32069
montañas 32066
cuadro 32057
coordin@@ 32051
combati@@ 32050
vesti@@ 32042
yes 32038
CA@@ 32035
suroeste 32033
protagoniz@@ 32029
Hid@@ 32013
Rosario 32011
familiar 32009
promoción 32004
itar 32002
sal 32002
quiera 32000
recorrido 31996
catal@@ 31984
conect@@ 31982
patri@@ 31979
escenas 31975
cubier@@ 31957
Corte 31940
latín 31933
toc@@ 31908
2022 31907
descrito 31902
Frente 31895
ablo 31891
grabado 31888
cambiar 31885
llevado 31885
ial 31884
Comunidad 31847
Sam@@ 31846
inn@@ 31838
localidades 31837
cia 31820
uf@@ 31803
página 31795
neas 31768
sirvió 31766
prision@@ 31764
héro@@ 31748
ficción 31734
corta 31731
ence 31720
culturas 31714
liz@@ 31710
quería 31700
iza 31684
instrum@@ 31678
duración 31676
1931 31670
Son@@ 31664
disponible 31652
imen 31647
evolución 31646
Joseph 31645
tripul@@ 31643
historiador 31631
Santos 31629
fru@@ 31628
cumpli@@ 31627
Smith 31614
armente 31612
Trabaj@@ 31603
europeos 31600
eter@@ 31597
monasterio 31591
expansión 31590
Uni@@ 31588
desempeñ@@ 31573
riesgo 31562
muerto 31559
Tal@@ 31558
rí@@ 31551
isl@@ 31548
mientos 31542
suministr@@ 31532
urgo 31532
College 31528
over 31527
ane 31515
itud 31515
preci@@ 31514
dedicó 31504
dedicado 31503
M. 31491
Ayuntamiento 31485
ster@@ 31482
Unidas 31459
formando 31450
EE 31449
fran@@ 31443
fondos 31442
prove@@ 31410
Dol@@ 31403
incluida 31391
Fin@@ 31381
aeropuerto 31378
1933 31370
Moscú 31370
ES@@ 31364
Tres 31359
consum@@ 31358
residencia 31354
49 31346
ónom@@ 31336
Clas@@ 31331
Nat@@ 31327
igen 31322
aflu@@ 31305
requi@@ 31302
Bajos 31301
privada 31300
chino 31298
editorial 31294
Jo@@ 31292
Ste@@ 31286
audi@@ 31273
diseñado 31268
úr@@ 31263
ff@@ 31254
mexicana 31244
conocidas 31241
Vie@@ 31230
ciudad@@ 31229
cep@@ 31228
reales 31209
Fe 31207
Bau@@ 31203
egas 31197
uj@@ 31197
are 31196
bombar@@ 31184
adero 31180
prefer@@ 31180
Plan@@ 31178
acán 31176
escul@@ 31162
federal 31158
ég@@ 31151
sub 31145
Participó 31143
oles 31139
descu@@ 31126
edes 31117
Muchos 31111
corpor@@ 31109
ementerio 31097
Sand@@ 31092
contexto 31076
ecas 31073
decreto 31069
aleg@@ 31067
redes 31065
Escu@@ 31056
piano 31056
árbol 31050
Tab@@ 31025
58 31024
habl@@ 31024
Carmen 30987
implic@@ 30984
63 30983
ump@@ 30982
XIII 30981
Torre 30978
sufici@@ 30976
ejec@@ 30973
ner@@ 30973
ys 30950
depen@@ 30946
S. 30939
normalmente 30933
tempor@@ 30902
usuarios 30900
th 30895
celebró 30882
peri@@ 30876
exclusiv@@ 30865
terminar 30862
Bah@@ 30821
ender@@ 30821
Domin@@ 30820
llevaron 30819
Cuenta 30804
crítico 30795
herrami@@ 30795
haya 30792
cóm@@ 30790
cubierta 30788
cultiv@@ 30782
entrevista 30779
ling@@ 30765
efici@@ 30763
ráp@@ 30754
zos 30747
66 30743
ilar 30733
ulación 30726
ele 30723
incluyó 30723
n.@@ 30700
Mot@@ 30697
respons@@ 30697
presentación 30689
Panamá 30687
revolucion@@ 30682
Bon@@ 30667
We@@ 30666
54 30662
nombró 30660
Nac@@ 30654
Rosa 30654
aprendi@@ 30640
desarrollar 30628
junta 30623
Mé@@ 30621
arra 30615
utilizó 30595
pion@@ 30594
Junto 30593
siguieron 30591
Don@@ 30584
diferencias 30580
Có@@ 30573
circu@@ 30561
53 30554
intelectu@@ 30550
particularmente 30545
deja 30540
Inf@@ 30538
uros 30533
blan@@ 30529
británicos 30525
eléctrica 30525
comarca 30519
ífico 30518
és@@ 30512
mandato 30510
presentado 30507
planes 30494
AS@@ 30490
fili@@ 30485
arro 30479
Maur@@ 30478
itación 30473
marcó 30473
antiguas 30465
prác@@ 30463
viera 30451
62 30449
bir@@ 30448
Otra 30445
peti@@ 30444
adolesc@@ 30424
Wal@@ 30410
virtu@@ 30399
ien 30391
compon@@ 30387
uano 30380
déc@@ 30374
ubicación 30373
Mah@@ 30369
1934 30366
dedicada 30366
ándole 30366
pertenecían 30364
logra 30360
ish@@ 30359
dura 30358
pocas 30354
enses 30352
1951 30350
reacción 30339
evol@@ 30337
Ha@@ 30333
llamados 30332
Universit@@ 30324
erías 30322
ficamente 30315
incluía 30312
74 30308
Castro 30293
objetivos 30293
grá@@ 30286
orit@@ 30283
artístico 30274
trono 30268
practic@@ 30267
Bern@@ 30250
Democrá@@ 30246
Monte 30243
publicaciones 30240
actuales 30239
Cuer@@ 30231
equival@@ 30231
¡ 30218
festival 30216
relativamente 30214
ume 30210
historias 30208
neo 30207
anco 30206
representante 30203
producida 30197
tramo 30197
na@@ 30191
crec@@ 30189
ocasi@@ 30182
Tol@@ 30181
Arch@@ 30167
carse 30165
tabla 30163
pobreza 30158
entidad 30154
ocupa 30127
corresponde 30125
sol 30121
Tam@@ 30114
Gobern@@ 30112
consumo 30086
mpico 30084
Il@@ 30072
flota 30057
activos 30037
cú@@ 30031
breve 30027
religiosa 30026
cercano 30024
alog@@ 30023
preten@@ 30016
blanca 30008
mud@@ 30001
rut@@ 29995
originales 29980
transmisión 29979
ém@@ 29977
Oriental 29975
revolución 29975
homenaje 29969
allos 29966
externos 29956
músicos 29955
érico 29952
alfab@@ 29940
Bro@@ 29935
rol 29929
Administración 29923
popularidad 29923
espacios 29899
destacar 29897
ova 29897
comparti@@ 29894
Ba@@ 29878
8.@@ 29877
Mejor 29876
ā@@ 29875
Gir@@ 29872
provincial 29869
compl@@ 29865
crito 29858
propósito 29858
razones 29858
sul@@ 29857
impl@@ 29856
poderes 29848
difun@@ 29832
investigaciones 29830
ectu@@ 29821
jorn@@ 29819
alición 29814
adía 29813
dó@@ 29811
icidad 29810
Gor@@ 29807
cord@@ 29802
figur@@ 29799
científico 29789
constante 29784
protagonizada 29775
dil@@ 29772
comedia 29760
illera 29734
uri 29727
ándolo 29724
ciclo 29720
históricos 29720
mañana 29714
aproxim@@ 29707
límites 29706
precio 29702
1935 29696
bienes 29695
film@@ 29695
motivos 29695
trac@@ 29692
teros 29684
Ú@@ 29683
estad@@ 29676
característica 29662
St 29645
cabecera 29627
desemb@@ 29623
sali@@ 29623
pose@@ 29620
Pil@@ 29592
expuls@@ 29586
muestran 29586
espos@@ 29575
rup@@ 29566
depend@@ 29562
arreg@@ 29559
ath@@ 29554
Ap@@ 29544
compañero 29540
líderes 29539
Bos@@ 29531
School 29508
registro 29505
sindic@@ 29496
pati@@ 29479
hí@@ 29463
marido 29463
EP 29462
88 29453
1929 29449
conservación 29447
carbon@@ 29446
All 29443
críticos 29442
adaptación 29433
muertos 29429
enviado 29419
ediciones 29411
implement@@ 29411
opinión 29408
cientos 29387
afirmó 29383
Bus@@ 29382
podrían 29380
formaron 29374
revistas 29371
abandonó 29365
1932 29360
nes 29360
diámetro 29354
experim@@ 29345
Centr@@ 29336
mejorar 29318
asum@@ 29313
ek 29310
chileno 29303
arquía 29302
jar 29290
comand@@ 29282
motores 29277
82 29252
sexu@@ 29252
entrega 29250
usión 29237
tren 29232
moderno 29229
íritu 29225
verse 29217
aí@@ 29213
haci@@ 29212
fábrica 29208
viles 29207
sober@@ 29203
tron@@ 29197
Fem@@ 29196
misiones 29193
Met@@ 29192
zar@@ 29191
identes 29190
quedando 29180
már@@ 29179
femenina 29164
Pap@@ 29158
Libr@@ 29152
1918 29148
quién 29134
árez 29126
nacion@@ 29113
dola 29111
Ban@@ 29107
ferencia 29106
Comer@@ 29105
cuyos 29105
europeo 29105
guard@@ 29100
Mos@@ 29085
machos 29085
VII 29082
regresar 29075
utilizada 29072
bases 29054
Tribunal 29046
ofer@@ 29028
barcos 29020
espir@@ 29016
Defensa 29001
dinastía 28993
instrumentos 28989
éste 28984
Agr@@ 28972
pri@@ 28972
Mex@@ 28969
acio 28966
tag@@ 28966
67 28949
Toledo 28941
56 28933
Billboard 28931
dote 28927
consul@@ 28926
naval 28926
ri 28926
Ca@@ 28922
obteniendo 28920
notable 28915
digital 28907
consegu@@ 28906
iller@@ 28904
tros 28897
ajas 28889
ocin@@ 28888
víctimas 28874
sectores 28872
conse@@ 28858
venc@@ 28856
bon@@ 28839
76 28836
Armada 28832
elenco 28826
93 28818
Dom@@ 28815
ass@@ 28813
simb@@ 28812
consagr@@ 28808
dismo 28805
Marina 28790
inmediatamente 28790
fres@@ 28786
comportamiento 28784
ingeniero 28781
métodos 28778
à 28774
conserva 28766
ingres@@ 28757
tienda 28748
ical 28742
log@@ 28738
áng@@ 28737
tex@@ 28729
ach 28727
Estudió 28725
.. 28700
rápido 28697
99 28679
llan@@ 28670
02 28652
mita 28651
corona 28648
72 28637
establecido 28626
excel@@ 28624
istr@@ 28624
César 28621
audiencia 28610
68 28607
venezol@@ 28606
20@@ 28605
š@@ 28603
asim@@ 28596
afirma 28595
jeron 28591
Biblioteca 28582
Oriente 28582
Rob@@ 28582
chó 28566
Catedral 28563
prácticamente 28563
oral 28557
óst@@ 28551
98 28549
aport@@ 28547
Argent@@ 28533
contrat@@ 28531
opsis 28531
los@@ 28520
victorias 28518
perió@@ 28511
dro@@ 28510
Navarra 28508
tendr@@ 28506
ígen@@ 28504
artística 28502
mismas 28502
típ@@ 28500
recib@@ 28491
provocó 28490
apreci@@ 28476
inferiores 28469
Constitu@@ 28468
hip@@ 28461
lut@@ 28450
toral 28448
Bélgica 28430
1928 28424
Aeropuerto 28419
documental 28419
8,@@ 28405
atrás 28404
mp@@ 28397
neur@@ 28392
ái 28391
realizaron 28389
siguen 28378
veinte 28369
pinturas 28365
ofensi@@ 28364
lea 28352
hierro 28337
arch@@ 28333
radic@@ 28329
sugi@@ 28329
superiores 28318
profundidad 28307
ingreso 28305
Royal 28304
Rum@@ 28302
Louis 28296
chi 28291
informe 28279
U. 28269
gig@@ 28257
uda 28250
ximo 28233
msnm 28211
ologías 28211
Tu@@ 28210
explo@@ 28198
genes 28195
increm@@ 28188
Primer 28180
extrem@@ 28179
Campo 28177
86 28167
ectiva 28158
bail@@ 28156
señal 28153
May@@ 28152
alles 28150
aldo 28144
ung@@ 28135
Apo@@ 28128
polis 28123
Eur@@ 28108
dan@@ 28101
pantalla 28098
ets 28076
científicos 28067
tasa 28061
espectadores 28059
Franco 28053
Lug@@ 28053
Gabriel 28049
National 28048
onado 28047
usos 28030
edia 28026
61 28025
australi@@ 28021
Lorenzo 28013
acta 28002
igi@@ 28001
excepción 27998
pap@@ 27995
crist@@ 27989
Nú@@ 27988
evalu@@ 27967
intentó 27961
cron@@ 27959
dy 27952
habitual 27952
bah@@ 27946
destacado 27932
reto 27913
77 27912
química 27912
Barr@@ 27909
08 27907
alimentos 27904
84 27898
cultivo 27896
diferenci@@ 27894
mill@@ 27894
izquier@@ 27889
descar@@ 27887
caron 27885
96 27882
someti@@ 27882
73 27879
encuentr@@ 27878
Cru@@ 27870
proc@@ 27863
Tratado 27861
compañías 27860
78 27855
ion 27855
apun@@ 27847
dat@@ 27847
enseñanza 27828
monte 27814
ail@@ 27812
demanda 27812
excepto 27810
mejor@@ 27797
doctor@@ 27795
tráfico 27773
empate 27759
On@@ 27749
instruc@@ 27743
ciertos 27742
costum@@ 27742
Anti@@ 27741
Movimiento 27741
elo@@ 27733
noticias 27726
monumento 27720
lus@@ 27718
Internet 27711
94 27701
ógrafo 27698
procedi@@ 27695
escritos 27685
abier@@ 27671
rosa 27667
áce@@ 27667
1000 27661
viviendas 27658
ingresó 27657
actuaciones 27653
grados 27651
onas 27648
91 27637
coloni@@ 27633
matr@@ 27628
* 27626
embr@@ 27623
presentes 27622
sép@@ 27608
norte@@ 27601
invent@@ 27585
Hel@@ 27577
distritos 27576
justo 27570
úan 27567
Cultural 27546
amplio 27529
79 27525
Ingenier@@ 27516
ensi@@ 27516
Joaquín 27511
serían 27506
uk@@ 27503
software 27500
Jose@@ 27485
program@@ 27484
azos 27483
esia 27481
trayectoria 27472
st 27469
galard@@ 27463
XV 27458
ír@@ 27448
orqu@@ 27447
King 27442
transport@@ 27441
Carolina 27439
model@@ 27438
visi@@ 27427
legal 27426
caza 27421
Sc@@ 27420
factores 27414
miles 27412
entó 27402
quez 27402
consolid@@ 27379
negocios 27379
botes 27377
labor@@ 27375
Doctor 27374
Alcal@@ 27370
permanente 27365
empleo 27357
1914 27356
Pic@@ 27351
ha@@ 27348
eado 27346
océ@@ 27346
endr@@ 27343
IS@@ 27340
deportivo 27333
kh@@ 27333
graduó 27332
jardín 27316
Condado 27307
proviene 27306
almacen@@ 27303
Argum@@ 27300
ement@@ 27294
piel 27288
cita 27286
símbolo 27286
teor@@ 27282
finalizó 27281
itali@@ 27281
acces@@ 27270
titulada 27268
emer@@ 27259
ólicos 27258
treinta 27251
enen 27247
termina 27241
Black 27240
een 27230
West 27214
ceremonia 27214
Juli@@ 27209
eler@@ 27203
festiv@@ 27187
justicia 27182
sens@@ 27180
batería 27174
impos@@ 27164
creci@@ 27154
ejos 27154
bón 27150
71 27134
NBA 27132
Sen@@ 27128
éxitos 27125
otipo 27115
guion 27105
desaf@@ 27104
inclin@@ 27099
estreno 27086
ulg@@ 27082
posiblemente 27079
Bellas 27073
81 27072
bautiz@@ 27068
XII 27053
altar 27051
1919 27049
ópera 27044
Militar 27039
interna 27031
itaria 27031
consta 27028
92 27027
describió 27022
encontraban 27020
familiares 27017
solar 27008
lia 27001
Dest@@ 26997
íp@@ 26992
cumplir 26990
consid@@ 26989
global 26989
culto 26987
Hungría 26984
realmente 26981
asumió 26974
Viena 26967
Fuer@@ 26963
Cir@@ 26954
later@@ 26949
accion@@ 26939
irá 26930
intervención 26924
lov@@ 26921
canadi@@ 26920
Ignacio 26916
óleo 26916
sitios 26897
sufri@@ 26896
ubica 26892
Street 26883
ilit@@ 26880
Salud 26870
did@@ 26868
enemigo 26864
informó 26864
funcionamiento 26860
Ah@@ 26854
yn@@ 26851
escritura 26849
viven 26843
ampliamente 26834
eje 26834
tilla 26831
ambigu@@ 26828
exper@@ 26826
desempe@@ 26824
orquesta 26817
Estudi@@ 26816
59 26812
apos@@ 26812
1910 26811
onte 26796
disputa 26787
rein@@ 26771
tax@@ 26768
asia 26765
ure 26757
comb@@ 26756
alim@@ 26751
abandonar 26747
pronunci@@ 26736
olar 26731
eri 26730
versi@@ 26726
ectiv@@ 26719
geno 26711
ocol@@ 26705
discipl@@ 26704
ína 26693
Televisión 26691
municipales 26691
sion@@ 26687
pant@@ 26675
Pob@@ 26674
Luna 26672
intereses 26669
Concepción 26663
existi@@ 26660
peligro 26659
1924 26648
recientemente 26648
fiestas 26638
E. 26635
ardo 26630
denunci@@ 26621
colonia 26614
efic@@ 26613
participaron 26613
llegado 26606
1917 26604
consejo 26602
bes@@ 26598
extranjero 26593
Sel@@ 26587
primavera 26576
representantes 26571
japonesa 26562
documento 26561
Haw@@ 26559
entar 26556
modern@@ 26541
isp@@ 26538
ester@@ 26528
ain 26516
Dentro 26505
Not@@ 26499
umb@@ 26485
cár@@ 26482
iller 26479
riz@@ 26475
ek@@ 26469
Cos@@ 26462
Dan@@ 26460
Habita 26446
01 26425
sean 26416
arriba 26414
deste 26408
deriva 26407
ácido 26400
ack 26392
buscar 26388
basa 26386
continuar 26379
oridad 26376
poblado 26373
partí@@ 26371
sá@@ 26365
Tercera 26361
ólogos 26359
09 26356
leta 26349
élite 26341
evidencia 26336
versario 26335
ron@@ 26328
otr@@ 26326
posibles 26320
Fal@@ 26309
Noruega 26308
Rico 26304
ganando 26301
ins 26287
Católica 26286
biblioteca 26286
Rem@@ 26282
ivos 26273
acias 26272
estig@@ 26263
Sobre 26258
Guay@@ 26257
agente 26256
bita 26256
Hy@@ 26253
Tomás 26251
hembr@@ 26248
Comenzó 26247
ON@@ 26240
excav@@ 26239
export@@ 26237
ino@@ 26237
tu 26231
Atlántico 26227
gresa 26219
retirada 26219
amin@@ 26216
ow@@ 26214
fama 26213
International 26209
médic@@ 26203
Reyes 26201
Lis@@ 26200
cristianos 26199
9,@@ 26193
oll@@ 26193
eonatos 26188
pueda 26187
guber@@ 26181
lismo 26176
írculo 26160
Senado 26159
Lev@@ 26152
Agustín 26150
lan 26147
banc@@ 26143
migran@@ 26138
bó@@ 26124
Aer@@ 26123
E.@@ 26116
viendo 26112
órica 26111
debió 26110
mig@@ 26106
idencia 26104
canales 26096
etapas 26094
vein@@ 26088
solic@@ 26085
facilit@@ 26072
organizado 26067
Indi@@ 26063
Jack 26055
japon@@ 26048
urb@@ 26042
actuó 26040
dulce 26038
dictadura 26034
iniciativa 26034
permanec@@ 26033
incluidos 26014
acos 26011
Ori@@ 26010
vehículo 26010
momentos 26005
medicina 26001
revi@@ 25994
exig@@ 25977
ain@@ 25960
lante 25955
R. 25953
clásica 25951
orios 25949
componentes 25948
Caballer@@ 25937
clás@@ 25937
lun@@ 25932
petr@@ 25932
150 25915
terrenos 25913
empleados 25912
Company 25896
bas 25893
angu@@ 25887
cápita 25875
erre 25874
esfuerzos 25872
individual 25870
ástico 25869
1925 25860
programación 25860
ángulo 25849
absor@@ 25848
ativamente 25848
CE@@ 25837
solución 25825
triunfo 25822
departam@@ 25819
mic@@ 25818
enfrentó 25816
papeles 25813
deo 25801
tit@@ 25796
reciente 25795
acabó 25786
off 25779
87 25777
ise 25769
vit@@ 25765
sc@@ 25761
cercana 25757
igual@@ 25756
Ruta 25755
asesinado 25753
sorpr@@ 25749
600 25738
Neg@@ 25737
Má@@ 25731
fác@@ 25726
establece 25723
Torres 25711
enfermedades 25705
jugando 25703
eja 25699
1927 25690
sospe@@ 25676
intens@@ 25674
ear@@ 25673
Ale@@ 25668
Montevideo 25668
quil@@ 25661
parroqui@@ 25654
negra 25653
incen@@ 25652
temper@@ 25633
struc@@ 25631
ation 25624
Seguridad 25615
Cy@@ 25614
83 25597
ji 25597
terror@@ 25592
Bogotá 25583
convento 25583
Ucrania 25581
alianza 25575
ógica 25570
emis@@ 25568
dedores 25566
cel 25561
abierta 25554
Ko@@ 25548
muer@@ 25534
DVD 25529
Enl@@ 25520
trabaja 25518
científica 25517
jurí@@ 25517
umba 25512
ale@@ 25510
pide 25509
normal 25508
izado 25506
evos 25503
cosa 25501
06 25497
rig@@ 25497
Rus@@ 25494
austr@@ 25494
Escocia 25491
ép@@ 25489
lob@@ 25483
deporte 25479
campe@@ 25478
Cop@@ 25476
cancel@@ 25454
len@@ 25452
acteri@@ 25447
margen 25441
ástica 25439
recopil@@ 25436
saber 25429
plante@@ 25424
atraves@@ 25421
órgano 25417
europea 25414
ultad 25414
coin@@ 25412
ilia 25409
iano 25404
guitarrista 25401
fel@@ 25391
Álvarez 25384
Mendoza 25381
ige 25381
AC 25371
tendencia 25369
05 25366
1912 25359
Super 25355
iterráneo 25352
suspen@@ 25344
Plat@@ 25336
Sub 25333
novelas 25332
roc@@ 25331
isleños 25329
1922 25301
garanti@@ 25287
rural 25281
jurisdic@@ 25280
celebra 25279
afirm@@ 25276
import@@ 25247
juez 25246
Gonz@@ 25241
quel@@ 25239
art 25238
demos 25237
fundamental 25234
infantil 25224
carne 25204
lor@@ 25204
ys@@ 25199
san 25197
inglesa 25173
ics 25171
evo 25161
Medio 25158
amarillo 25152
bro 25144
disc@@ 25144
berto 25129
pasaron 25128
Reci@@ 25125
69 25121
sch@@ 25118
religioso 25117
Andalucía 25116
89 25115
Kir@@ 25100
archiv@@ 25098
estructur@@ 25096
monum@@ 25096
cual@@ 25084
aller 25080
P. 25077
pref@@ 25059
rama 25052
ut 25052
crea 25042
divide 25037
incre@@ 25028
Independencia 25018
jero 25018
ogr@@ 25014
editor 25009
alcal@@ 25007
ok 24993
eral 24992
artes@@ 24979
rico 24977
Cristi@@ 24971
ick@@ 24970
dep@@ 24965
9.@@ 24964
efe 24964
repeti@@ 24952
Ra@@ 24951
1926 24939
eder 24929
Ph@@ 24921
artiller@@ 24906
Mary 24901
alar 24896
imit@@ 24874
leyen@@ 24870
Lam@@ 24864
Servicio 24851
Tecn@@ 24843
critic@@ 24841
Star 24836
convertir@@ 24835
umul@@ 24818
AN@@ 24797
03 24793
pelig@@ 24779
Rub@@ 24778
alas 24778
vern@@ 24777
1923 24771
Galicia 24769
innov@@ 24761
SO@@ 24756
País 24738
Lista 24723
oide 24719
Alb@@ 24715
ui 24712
popul@@ 24707
Zelanda 24702
yr@@ 24702
ons@@ 24695
Alonso 24673
Cul@@ 24672
enorme 24668
arz@@ 24664
habil@@ 24663
Han@@ 24657
créd@@ 24653
frica 24649
eger 24639
07 24633
Director 24632
atro 24631
char 24628
porta 24626
ung 24625
icaciones 24623
Turqu@@ 24622
áb@@ 24616
herman@@ 24589
Jaime 24585
omina 24581
ear 24579
Vit@@ 24571
tap@@ 24552
ener 24548
ab 24547
ince 24543
zant@@ 24538
800 24535
Brown 24489
Fun@@ 24476
plaz@@ 24475
Latino@@ 24464
meno 24461
probable 24457
ándol@@ 24450
Ig@@ 24441
show 24439
expan@@ 24436
Polic@@ 24426
cil 24405
va@@ 24403
telenov@@ 24401
caz@@ 24399
configur@@ 24394
Ke@@ 24386
ví@@ 24381
Ta@@ 24373
Alianza 24371
Van 24361
menta 24360
Oeste 24359
grave 24357
Publ@@ 24338
97 24331
Alre@@ 24322
Bul@@ 24322
irland@@ 24304
encio 24298
• 24298
arri@@ 24296
Jur@@ 24295
animal 24289
venir 24282
israel@@ 24278
certific@@ 24274
acho 24271
Negro 24258
Í@@ 24256
esfuer@@ 24251
regionales 24246
bier@@ 24245
sar@@ 24235
1900 24232
04 24223
Todo 24219
predomin@@ 24215
ts@@ 24211
ney 24210
arma 24206
fen@@ 24206
natur@@ 24200
Pot@@ 24190
otas 24186
agü@@ 24184
ō@@ 24182
Arquit@@ 24176
ame 24176
Hoy 24162
itu@@ 24157
osaur@@ 24155
Regional 24153
pez 24141
graf@@ 24134
Fe@@ 24125
well 24122
fici@@ 24118
ús 24114
Ferr@@ 24101
ith 24100
conces@@ 24096
atado 24094
Miss 24081
IC@@ 24075
foc@@ 24065
dispon@@ 24064
oscuro 24063
úbl@@ 24063
úl@@ 24059
Pierre 24055
real@@ 24035
edras 24033
ie@@ 24033
Fab@@ 24032
encer 24032
ki@@ 24021
aun 24006
incur@@ 24000
ander@@ 23998
Reina 23995
culp@@ 23995
rar 23984
dada 23983
complic@@ 23981
deu@@ 23974
otes 23973
conflic@@ 23963
Hugo 23954
pilot@@ 23939
azón 23937
ampa 23904
cen@@ 23883
Honduras 23874
fusion@@ 23867
pers@@ 23861
ors 23840
Caracas 23838
ble@@ 23836
atal 23820
uvent@@ 23816
Radi@@ 23811
reper@@ 23809
1921 23800
borde 23794
ador@@ 23791
yn 23790
entrev@@ 23788
ayos 23784
bado 23777
onio 23772
olos 23769
My 23764
aband@@ 23756
renom@@ 23756
acha 23744
und 23731
históric@@ 23723
Clar@@ 23691
Socialista 23690
trav@@ 23690
ão 23687
XIV 23683
Monum@@ 23677
erland@@ 23663
ori 23655
Asturias 23651
Red@@ 23637
persp@@ 23634
top@@ 23633
rac@@ 23627
bec@@ 23626
judicial 23618
Jard@@ 23615
DC 23603
SS 23596
respectiv@@ 23594
debut@@ 23592
Jun@@ 23588
ascend@@ 23559
0.000 23544
icias 23541
SE@@ 23540
lin 23515
Riv@@ 23479
tel 23461
continental 23456
Gran@@ 23453
Oli@@ 23449
ei 23436
atl@@ 23428
RA@@ 23421
perteneci@@ 23418
Guardia 23413
Málaga 23401
S.@@ 23396
Pri@@ 23385
ray@@ 23379
avance 23377
Caribe 23372
onde 23372
United 23367
perio 23366
remon@@ 23366
Hur@@ 23354
odos 23348
Latina 23324
empr@@ 23319
tuy@@ 23310
Aur@@ 23305
Ham@@ 23304
trop@@ 23299
oga 23277
map@@ 23274
Frank 23273
quem@@ 23264
AM 23259
gó@@ 23251
territorial 23240
icha 23237
aki 23234
seres 23231
agn@@ 23228
gia 23220
Víctor 23203
Mark 23194
Tom 23189
Nic@@ 23187
Jones 23184
São 23184
data 23161
Blanca 23151
ites 23136
islat@@ 23131
ati 23118
ps 23118
usan 23115
Var@@ 23108
nó 23105
exhib@@ 23098
q 23096
intern@@ 23080
fom@@ 23077
eira 23063
Ná@@ 23049
jard@@ 23046
ui@@ 23042
Sor@@ 23024
puer@@ 23017
sk@@ 23003
Marcos 23002
Iz@@ 22999
a.@@ 22999
metropolit@@ 22995
ings 22988
icul@@ 22982
ame@@ 22981
acor@@ 22976
rez 22965
princ@@ 22963
gru@@ 22962
Cic@@ 22958
Fund@@ 22955
exces@@ 22943
consci@@ 22942
Marco 22936
Pueblo 22931
One 22885
long@@ 22874
caud@@ 22871
superfici@@ 22866
ky 22862
Hen@@ 22860
disponibles 22859
Fran@@ 22857
ibilidad 22842
Españ@@ 22839
conoci@@ 22827
AM@@ 22824
Adri@@ 22815
ós 22812
SA 22807
aver@@ 22806
wood 22802
Gl@@ 22799
ington 22790
precipit@@ 22774
uca 22764
partic@@ 22739
Provincial 22735
fur@@ 22714
vania 22707
culmin@@ 22706
ami 22705
ary 22696
pas 22691
RE@@ 22682
als 22681
00@@ 22672
ocul@@ 22640
destr@@ 22638
Georgia 22633
convers@@ 22612
musulman@@ 22600
ats 22596
peru@@ 22593
lim@@ 22585
moda 22577
1913 22574
etti 22573
Alta 22567
Serv@@ 22565
Ruiz 22563
Valladolid 22547
participa 22545
diá@@ 22536
raí@@ 22534
tropicales 22526
ingles@@ 22524
formar@@ 22515
Grand 22510
ole 22510
copa 22508
exclus@@ 22484
Hernández 22476
US 22470
A.@@ 22435
Scott 22425
alis@@ 22423
Jackson 22417
Chil@@ 22409
publica 22396
magnit@@ 22381
pré@@ 22374
awa 22345
mati@@ 22341
oto@@ 22340
jam@@ 22336
Castell@@ 22331
Frances@@ 22330
Bir@@ 22325
Paulo 22322
Princip@@ 22322
ública 22319
uco 22314
č@@ 22313
imagin@@ 22311
Tak@@ 22305
fre@@ 22303
Teresa 22300
capa 22297
L. 22293
Metropolit@@ 22291
laborat@@ 22290
anch@@ 22287
Confeder@@ 22274
precis@@ 22273
mide 22268
enario 22267
expos@@ 22267
La@@ 22265
corr@@ 22257
color@@ 22248
prolong@@ 22242
belle@@ 22235
Ev@@ 22232
Sau@@ 22225
fotograf@@ 22225
Hil@@ 22217
rival 22214
ider@@ 22209
Disney 22207
ondo 22207
ustr@@ 22206
Filipin@@ 22199
medieval 22199
motiv@@ 22170
Virginia 22163
xi@@ 22162
Williams 22123
els 22122
fantas@@ 22117
carril 22089
Solo 22084
odo 22084
elt@@ 22083
dest@@ 22063
ry 22058
españ@@ 22055
Franc@@ 22051
excep@@ 22037
post@@ 22023
XI 22020
sos@@ 22020
quilla 22013
pan 22011
ff 22002
IX 22001
Baja 21997
Big 21997
ecia 21987
ante@@ 21985
gres@@ 21979
Flores 21974
Mun@@ 21972
Laur@@ 21970
Times 21966
stein 21963
aíso 21957
Cin@@ 21951
bis@@ 21946
Gre@@ 21940
inco 21931
bil 21924
irat@@ 21924
Sum@@ 21920
echo 21918
edra 21918
Tuc@@ 21914
compet@@ 21904
yl@@ 21893
Entertainment 21891
isc@@ 21884
Cerro 21875
Americ@@ 21872
triun@@ 21853
Liter@@ 21851
acon@@ 21831
gan 21829
rob@@ 21829
Op@@ 21819
Plan 21806
Tokio 21806
Blanco 21805
Jus@@ 21801
Corona 21800
olog@@ 21800
bit@@ 21796
doctor 21784
adap@@ 21783
zi 21782
report@@ 21762
ille 21758
perten@@ 21750
incap@@ 21748
bia 21737
Guadalajara 21726
anal@@ 21724
fico 21718
egu@@ 21716
Leon@@ 21714
diver@@ 21710
Buc@@ 21704
omb@@ 21698
uv@@ 21698
debil@@ 21676
Brig@@ 21672
1911 21659
reas 21659
otor@@ 21657
Moreno 21653
Greg@@ 21645
pre 21643
imperial 21640
onóm@@ 21637
china 21629
curs@@ 21626
lis 21620
alda 21618
euros 21618
ER@@ 21617
ign@@ 21615
combustible 21611
Pach@@ 21610
bibli@@ 21584
urugu@@ 21584
1916 21559
rap@@ 21557
cuy@@ 21523
relati@@ 21512
Z 21502
Actu@@ 21501
esis 21500
preser@@ 21492
Bolívar 21489
rar@@ 21486
vá@@ 21484
Refer@@ 21474
ector 21468
lida 21463
primiti@@ 21462
Vega 21461
testimon@@ 21456
zo@@ 21447
hur@@ 21441
protagon@@ 21431
libres 21428
250 21422
oya 21393
Final 21392
ques@@ 21392
VIII 21371
Equi@@ 21368
Igu@@ 21366
femin@@ 21363
entra 21360
1915 21359
alis 21352
manus@@ 21339
exter@@ 21334
Fo@@ 21316
Vis@@ 21309
Guar@@ 21292
ling 21284
unción 21270
colonial 21262
protest@@ 21259
intr@@ 21256
bert 21247
Star@@ 21241
quier@@ 21240
Guadal@@ 21225
beb@@ 21224
hi 21224
zada 21218
Puente 21210
sale 21208
Burgos 21192
evit@@ 21168
nom@@ 21157
I. 21153
Hall 21149
Bad@@ 21137
hisp@@ 21137
imas 21136
esía 21134
duda 21117
House 21101
bera 21095
Inde@@ 21094
ars 21084
ity 21081
legi@@ 21073
sk 21073
egia 21072
cip@@ 21060
Iv@@ 21058
avia 21052
Max 21037
podr@@ 21019
Mich@@ 21004
Mariano 20992
taria 20989
enter@@ 20982
Eli@@ 20980
AN 20979
artís@@ 20973
debate 20966
Mod@@ 20964
Murcia 20946
etta 20935
line@@ 20934
jar@@ 20930
him@@ 20912
ais 20901
resc@@ 20882
Gas@@ 20875
Pos@@ 20867
ambia 20866
ee 20858
ebra 20846
Natur@@ 20843
Hollywood 20838
edan 20829
define 20828
Reb@@ 20827
ash 20824
see 20821
Bru@@ 20813
conce@@ 20807
proxim@@ 20794
rati@@ 20790
esco 20787
our 20785
Mér@@ 20779
ess 20777
Cádiz 20776
Alem@@ 20774
submar@@ 20771
Young 20739
Et@@ 20736
compens@@ 20732
pand@@ 20726
portun@@ 20725
ill 20711
sing@@ 20703
abog@@ 20702
Center 20685
kin 20684
dial@@ 20682
vul@@ 20682
condi@@ 20679
tin 20678
Wor@@ 20675
enca 20665
emo@@ 20660
cular 20658
Vasco 20657
oj 20637
adu@@ 20635
Príncipe 20615
prol@@ 20615
aten@@ 20609
ball@@ 20608
doctr@@ 20600
dirige 20597
factor 20597
Sac@@ 20581
ett 20568
Salamanca 20561
ze@@ 20554
emigr@@ 20549
agres@@ 20542
lateral 20540
ariz@@ 20536
Sí@@ 20520
Catal@@ 20486
ahu@@ 20483
Alexander 20478
My@@ 20468
autonom@@ 20455
monta@@ 20446
FI@@ 20438
ple 20433
ADN 20420
ort@@ 20419
rat@@ 20418
recog@@ 20417
ight 20413
1908 20399
Ly@@ 20382
Joe 20375
AS 20373
SA@@ 20366
virus 20350
itz 20349
titul@@ 20332
In 20319
Dic@@ 20317
ih@@ 20315
anto 20302
archi@@ 20299
front@@ 20292
Suc@@ 20280
fos@@ 20270
Ran@@ 20257
oqu@@ 20251
gica 20249
bril@@ 20236
1905 20234
mari@@ 20230
nar@@ 20228
extra@@ 20227
hin@@ 20221
artic@@ 20217
N.@@ 20216
grad@@ 20208
Chris 20199
Guinea 20186
Live 20186
Hon@@ 20181
divor@@ 20171
Carr@@ 20165
astronom@@ 20165
Walter 20163
It 20162
ister@@ 20155
ovia 20152
untamiento 20149
pes 20148
Audi@@ 20146
s. 20143
pera 20136
H. 20109
White 20101
Ford 20089
muestr@@ 20084
neutr@@ 20083
ist 20067
Boston 20065
surg@@ 20048
Vo@@ 20044
equilibri@@ 20044
inger 20042
ieve 20039
elia 20028
triz 20013
Top 20008
umen 20000
ábitat 19996
usal@@ 19995
ess@@ 19983
étr@@ 19973
Puebla 19971
ometr@@ 19970
huy@@ 19954
Augusto 19948
europ@@ 19928
Cristó@@ 19923
ogen@@ 19915
asi 19909
UU 19901
echa 19894
Contr@@ 19890
moral 19890
digit@@ 19883
yar 19880
Hot 19879
eves 19875
fortific@@ 19867
tion@@ 19860
temporal 19848
Tim@@ 19846
ning@@ 19840
indios 19839
Alfredo 19837
onom@@ 19829
gn@@ 19825
iner@@ 19825
Colonia 19816
Cortes 19815
scar 19811
calend@@ 19804
ini@@ 19802
polí@@ 19799
Maz@@ 19796
sever@@ 19794
composit@@ 19790
notables 19790
ances 19787
abes 19784
promo@@ 19784
compos@@ 19782
hotel 19774
asta 19771
Cad@@ 19770
Ku@@ 19751
iss@@ 19741
Johnson 19735
US@@ 19723
Tes@@ 19718
air@@ 19716
Esteban 19711
ropa 19710
Na@@ 19707
Sav@@ 19693
Jar@@ 19666
Jose 19659
tadores 19656
Naci@@ 19632
Pa@@ 19627
ré@@ 19625
Football 19619
War@@ 19617
rano 19614
occ@@ 19604
Fig@@ 19603
AP@@ 19599
opa 19594
Hay@@ 19590
canti@@ 19589
erio 19587
jazz 19575
Extr@@ 19566
ast 19565
perí@@ 19564
ika 19550
Edward 19548
Peri@@ 19540
Team 19527
alre@@ 19522
Clu@@ 19506
numer@@ 19496
Tit@@ 19494
Div@@ 19488
OS 19482
Pau@@ 19476
Paral@@ 19470
AD@@ 19468
xa 19466
Ríos 19462
Ball@@ 19454
Card@@ 19443
tant@@ 19440
libre@@ 19437
tela 19435
abria 19434
gares 19434
Som@@ 19433
Lucas 19423
he 19423
C.@@ 19412
Ep@@ 19412
fiscal 19408
corrup@@ 19405
error 19402
Vietnam 19394
bes 19394
mite 19386
Arturo 19379
Bri@@ 19376
boa 19367
gratu@@ 19367
TV@@ 19365
aka 19345
Lig@@ 19329
amba 19311
PC 19309
calcul@@ 19308
contamin@@ 19297
Familia 19293
Dev@@ 19290
Les 19289
carre@@ 19283
manga 19281
mer 19280
list@@ 19273
Show 19269
Pod@@ 19264
ofici@@ 19259
.com 19256
graves 19249
anal 19247
Marie 19245
orn@@ 19242
eces 19237
ier 19234
tol@@ 19212
Fox 19211
Blo@@ 19202
berg@@ 19201
tori@@ 19183
uerta 19169
admir@@ 19158
hos@@ 19145
Bay@@ 19142
1906 19141
Columbia 19140
oy 19133
1909 19131
Gab@@ 19130
lio 19123
Gustavo 19122
.C. 19117
Kat@@ 19110
… 19108
Astr@@ 19102
nuclear 19099
drama 19098
Progr@@ 19087
alle 19077
Emilio 19069
Kal@@ 19064
arena 19052
Gro@@ 19040
compe@@ 19035
acuer@@ 19032
expedi@@ 19008
way 18998
Pep@@ 18992
hun@@ 18991
Much@@ 18983
meridi@@ 18983
Juvent@@ 18981
Universal 18979
acas 18971
Hill 18970
inclus@@ 18970
plas@@ 18955
kar@@ 18950
Fron@@ 18947
CI@@ 18944
1907 18940
Raúl 18935
ev 18926
TA 18920
ley@@ 18920
DE@@ 18898
Lav@@ 18898
mb@@ 18898
zu@@ 18895
liberal 18882
Gutiérrez 18871
descubier@@ 18870
honor@@ 18868
polic@@ 18864
minister@@ 18860
Gim@@ 18854
materi@@ 18848
set@@ 18845
glob@@ 18840
eren 18838
azi 18823
Interior 18822
Nom@@ 18818
Sof@@ 18815
ous 18809
Finlan@@ 18807
digo 18802
fis@@ 18797
sky 18795
sito 18787
Sergio 18773
º@@ 18766
cav@@ 18765
amas 18756
ko@@ 18754
obo 18748
Pro 18747
ibles 18745
cho@@ 18731
gios 18728
Ciud@@ 18719
pula 18714
itan 18712
Ben 18709
limpi@@ 18704
pet@@ 18693
prest@@ 18690
oses 18687
ake 18676
café 18664
nat@@ 18653
Muñ@@ 18645
Windows 18643
Tran@@ 18639
oti@@ 18634
Mul@@ 18612
Silva 18611
xima 18610
uña 18607
tif@@ 18602
extraordin@@ 18599
Vé@@ 18593
Metro 18588
pad@@ 18587
Anna 18585
impul@@ 18583
ock 18582
lada 18568
hospit@@ 18563
Mic@@ 18561
Township 18561
greso 18561
Grandes 18551
Merc@@ 18534
Bernardo 18531
ome 18529
Prom@@ 18528
Emp@@ 18522
Den@@ 18508
ves 18502
apia 18499
todo@@ 18498
Human@@ 18488
1904 18485
gana 18481
ólica 18472
compati@@ 18466
cog@@ 18444
ath 18435
Illinois 18432
Rol@@ 18426
reproduc@@ 18422
aste 18408
cac@@ 18408
continua 18395
intér@@ 18395
Peña 18394
University 18392
terrestre 18380
ázquez 18380
low 18378
trá@@ 18364
Sus@@ 18362
Mike 18352
Saj@@ 18343
polog@@ 18334
trof@@ 18333
ory 18332
burg 18330
Bob 18320
Albert 18318
stru@@ 18314
1890 18308
River 18301
inda 18296
Janeiro 18294
revis@@ 18294
Mall@@ 18280
rab@@ 18275
Sala 18270
Rodrigo 18265
Adol@@ 18264
umbo 18257
Wilson 18249
abol@@ 18230
gab@@ 18230
infan@@ 18224
Band@@ 18220
avo 18219
Bilbao 18212
ij@@ 18200
Pam@@ 18199
urg@@ 18198
compil@@ 18193
Jiménez 18192
dole 18191
vor@@ 18191
ofía 18185
ministr@@ 18181
Boh@@ 18176
Cabo 18172
Ja@@ 18172
Time 18157
las@@ 18149
Ramírez 18142
Mit@@ 18139
ish 18124
Rivera 18120
Margar@@ 18114
Kor@@ 18113
rur@@ 18111
ivi@@ 18109
Ash@@ 18106
Santander 18100
arina 18099
terminal 18094
Pensil@@ 18086
anti 18073
jo@@ 18067
demand@@ 18056
Design@@ 18051
cro@@ 18051
Origin@@ 18040
paron 18022
700 18018
Oscar 18010
auxili@@ 18010
sic@@ 18008
alma 18006
rol@@ 18005
vila 18001
esen 17995
Represent@@ 17991
satisfac@@ 17980
120 17979
tili@@ 17977
Guz@@ 17966
uga 17963
Christian 17962
comité 17962
gem@@ 17951
tribu 17951
mani@@ 17945
oth@@ 17942
igan 17940
Miami 17931
Marcel@@ 17929
servir 17926
event@@ 17920
inver@@ 17918
gris 17888
Wrestling 17887
Kim 17883
Verde 17875
1903 17872
Contin@@ 17854
G. 17853
ush@@ 17853
Observat@@ 17847
Kur@@ 17846
norm@@ 17846
Art 17845
Edit@@ 17845
centrales 17841
Joan 17839
PS@@ 17838
Amaz@@ 17832
Ak@@ 17822
cami@@ 17819
occidentales 17816
Tony 17814
brig@@ 17814
aum@@ 17808
ke@@ 17800
rostr@@ 17788
adir 17782
Gil@@ 17780
eter 17777
gul@@ 17757
Arthur 17756
Cent@@ 17755
Catalina 17753
orca 17745
tribut@@ 17745
Tai@@ 17744
Arg@@ 17735
Dam@@ 17732
FA 17722
Recon@@ 17720
argent@@ 17718
30@@ 17705
técn@@ 17705
Life 17701
Herrera 17694
Hir@@ 17684
tradu@@ 17668
Nicaragua 17665
BBC 17651
teo 17642
Chap@@ 17640
ian 17632
alan@@ 17631
Corn@@ 17628
PC@@ 17622
Parti@@ 17606
Rein@@ 17606
franc@@ 17602
pp@@ 17601
variante 17594
ator 17591
Person@@ 17590
Hern@@ 17583
aspir@@ 17583
AT@@ 17582
box@@ 17582
nde 17579
individ@@ 17572
Brian 17569
UEFA 17567
Mill@@ 17564
tric@@ 17561
bien@@ 17555
ho 17554
defender 17548
predic@@ 17543
Quer@@ 17541
XXI 17540
Tir@@ 17533
itor 17533
sia 17530
agón 17525
noctur@@ 17513
Revol@@ 17512
Zamora 17511
Ken@@ 17508
Eugen@@ 17489
Hitler 17489
Steve 17486
recorr@@ 17485
imb@@ 17484
Q 17477
Valenci@@ 17475
tram@@ 17472
siles 17464
orb@@ 17463
cher 17462
Vall@@ 17461
descend@@ 17459
tidae 17440
anga 17434
iana 17432
esca 17423
Fac@@ 17407
paqu@@ 17407
aparte 17399
ax 17383
ife 17383
comi@@ 17366
1902 17356
clas@@ 17351
Bill 17331
trib@@ 17330
Jor@@ 17329
jeres 17315
ope 17312
cle@@ 17311
molé@@ 17310
IM@@ 17308
noble 17307
Harry 17298
ulos 17297
restric@@ 17293
veda 17288
Sw@@ 17286
víc@@ 17272
postul@@ 17256
duras 17255
tribus 17253
Ohio 17249
Territ@@ 17241
mpicos 17235
1880 17231
correspond@@ 17230
indígen@@ 17229
ym@@ 17228
Álvar@@ 17224
Dich@@ 17216
Kaz@@ 17213
polici@@ 17204
Mi 17201
Guerrero 17198
Aper@@ 17190
bos@@ 17187
Meg@@ 17179
Us@@ 17167
Kong 17145
tus 17127
universal 17120
oja 17111
Libre 17110
Imperial 17108
Peter@@ 17100
iz 17100
fauna 17090
Sá@@ 17087
Carl 17081
ik 17080
Ga@@ 17065
Cum@@ 17063
High 17062
Win@@ 17050
Vas@@ 17033
Mak@@ 17032
BA 17003
formal 17002
dens@@ 17001
perfec@@ 17001
variable 16997
Dir@@ 16994
kr@@ 16988
laz@@ 16988
Vid@@ 16987
Mercedes 16979
ste@@ 16978
considerable 16971
selec@@ 16959
tas@@ 16952
filme 16936
flora 16936
hier@@ 16931
Isid@@ 16914
nucle@@ 16912
auto 16908
Au@@ 16904
Félix 16895
Cabr@@ 16891
filtr@@ 16889
ules 16886
asis 16885
nú@@ 16866
Mach@@ 16860
sson 16858
Morales 16848
recre@@ 16841
Top@@ 16840
ibil@@ 16836
Mem@@ 16832
ím@@ 16831
Quin@@ 16820
lis@@ 16802
― 16798
lez 16797
Papa 16773
veter@@ 16772
Activ@@ 16768
oner 16764
saga 16735
lej@@ 16729
telef@@ 16726
asen 16724
Sun@@ 16721
Taylor 16718
flam@@ 16718
pist@@ 16698
tribu@@ 16696
empe@@ 16682
Green 16677
Racing 16668
Air 16659
plum@@ 16656
1898 16651
Hotel 16649
Karl 16638
Af@@ 16633
melod@@ 16633
lares 16631
compañ@@ 16624
Situ@@ 16606
Andes 16605
vial 16592
Palma 16591
emin@@ 16560
Cav@@ 16553
North 16546
Je@@ 16544
Dal@@ 16541
Romero 16541
acios 16541
incendi@@ 16541
arbus@@ 16537
Lib@@ 16525
marqués 16521
pér@@ 16509
valor@@ 16502
Adi@@ 16501
médi@@ 16500
Society 16489
femen@@ 16483
ref@@ 16479
Llan@@ 16475
1870 16470
divers@@ 16463
ny@@ 16462
sey 16460
Ernesto 16456
adver@@ 16456
Ib@@ 16452
Ty@@ 16447
Viz@@ 16445
Mart@@ 16444
miner@@ 16443
quir@@ 16429
heb@@ 16421
tér@@ 16417
unc@@ 16415
Pur@@ 16411
Alc@@ 16399
confes@@ 16394
conspir@@ 16391
riv@@ 16391
ami@@ 16384
crí@@ 16384
Fel@@ 16380
alu@@ 16373
Pak@@ 16365
persec@@ 16363
ck 16356
qui 16353
aden@@ 16344
ril@@ 16343
Gin@@ 16340
gest@@ 16337
Medina 16330
tis@@ 16322
ignor@@ 16316
oder 16301
prestigi@@ 16295
Jud@@ 16287
ji@@ 16281
ham@@ 16263
exc@@ 16253
ham 16251
Kan@@ 16250
atar 16238
kl@@ 16229
Conserv@@ 16221
demol@@ 16221
side 16220
predec@@ 16216
ométr@@ 16214
Aran@@ 16207
AL@@ 16204
Trinidad 16202
bacteri@@ 16196
oph@@ 16196
Shi@@ 16190
tut@@ 16190
Avi@@ 16180
Blue 16175
Bé@@ 16174
tad@@ 16174
Island 16173
sang@@ 16158
COVID 16151
imia 16148
ze 16145
intend@@ 16137
mol 16133
Magdalena 16130
zi@@ 16110
America 16106
1901 16105
Rab@@ 16100
Sinf@@ 16073
ei@@ 16072
fasc@@ 16071
supervis@@ 16068
Roger 16064
Davis 16049
ornam@@ 16049
Occ@@ 16047
Petr@@ 16032
Rot@@ 16031
civiliz@@ 16029
circular 16019
T. 16004
visible 16002
Cristina 15997
ernes 15997
promin@@ 15997
CA 15994
PR@@ 15994
DA 15988
South 15988
Amar@@ 15985
experi@@ 15985
ken 15974
americ@@ 15970
Cand@@ 15966
V. 15964
Doc@@ 15957
premi@@ 15953
energ@@ 15942
1895 15932
Ál@@ 15931
Sk@@ 15929
DE 15921
MA 15921
Carre@@ 15911
anime 15909
unci@@ 15903
inae 15902
VI@@ 15897
Kh@@ 15875
itual 15855
Mand@@ 15843
Pes@@ 15843
kg 15841
Tig@@ 15839
West@@ 15829
Lan@@ 15819
ange 15810
evi@@ 15805
Indonesia 15798
lemente 15796
play@@ 15787
entro 15783
sam@@ 15767
filos@@ 15766
fort 15766
win 15765
vocal 15752
Hong 15724
Serbia 15724
éd@@ 15721
set 15720
naz@@ 15718
ters 15718
caí@@ 15714
Fol@@ 15700
cán 15691
erc@@ 15689
Night 15687
W. 15687
ves@@ 15674
sant@@ 15667
almac@@ 15665
mexic@@ 15664
hiper@@ 15663
Series 15661
rir 15656
Jersey 15650
naci@@ 15649
ū@@ 15646
musul@@ 15642
Entr@@ 15632
flan@@ 15632
vide@@ 15629
Shar@@ 15628
tiz 15627
LA 15620
Apar@@ 15619
Már@@ 15613
Mec@@ 15599
Depor@@ 15585
osaurus 15582
Hub@@ 15577
Sho@@ 15577
yp@@ 15573
aux 15569
Institu@@ 15567
1899 15566
eth 15565
Reser@@ 15562
Stone 15554
Ret@@ 15537
Miranda 15535
Cec@@ 15524
comienz@@ 15521
pio 15509
tern@@ 15509
eres 15501
ábit@@ 15496
Ce@@ 15487
mir 15487
nica 15481
11@@ 15475
Elena 15465
lip 15463
cano 15452
Rod@@ 15450
onga 15432
Samuel 15426
ä@@ 15424
out 15423
Arizona 15420
exclu@@ 15418
Gan@@ 15405
variantes 15404
pac@@ 15397
nobles 15392
Emper@@ 15388
Irak 15386
Napole@@ 15377
band@@ 15373
ean 15363
ap 15360
Rio 15359
Rugby 15358
Maj@@ 15357
Ker@@ 15353
econom@@ 15335
Marvel 15331
tara 15330
Fern@@ 15323
much@@ 15322
farm@@ 15312
jan 15312
Cot@@ 15311
fle@@ 15307
zan 15307
All@@ 15303
Nag@@ 15301
Group 15299
Moder@@ 15296
membran@@ 15294
Dre@@ 15292
tribunal 15291
Wol@@ 15279
Capital 15276
ku@@ 15274
eus 15264
acruz 15240
Laguna 15237
Claudio 15217
hoja 15213
ć 15213
WWE 15212
Wat@@ 15212
Arti@@ 15211
test@@ 15208
pron@@ 15203
1897 15197
Bou@@ 15196
Anton@@ 15195
Jacques 15195
Chrysomelidae 15194
LP 15175
Obr@@ 15164
ø@@ 15163
cien 15155
sas 15154
Monter@@ 15151
restr@@ 15149
pus@@ 15147
Lake 15145
Bet@@ 15137
24@@ 15132
bana 15121
confir@@ 15112
inten@@ 15112
Pop@@ 15108
drome 15100
manipul@@ 15098
zap@@ 15097
inser@@ 15096
She@@ 15089
upe 15088
Pav@@ 15087
congreg@@ 15081
homosexu@@ 15080
1896 15077
buses 15076
cari@@ 15064
oli 15053
Ever@@ 15045
nez 15045
rug@@ 15045
Ces@@ 15042
NA 15036
Benito 15031
obst@@ 15027
enn@@ 15024
Land@@ 15020
sof@@ 15017
elles 15004
king 14984
recu@@ 14968
Palm@@ 14959
ideal 14959
1860 14953
oli@@ 14951
visual 14932
esi@@ 14927
idamente 14927
Rad@@ 14925
enza 14921
ny 14920
Lab@@ 14915
magn@@ 14909
Republic@@ 14904
ison 14898
Bavi@@ 14890
andal@@ 14887
bus 14880
Boy@@ 14874
radical 14872
Simon 14870
ingu@@ 14866
Bom@@ 14864
erg@@ 14863
IC 14858
Premier 14858
Ambi@@ 14854
Hier@@ 14848
omer@@ 14840
Alpes 14833
kins 14831
FIFA 14820
depos@@ 14820
1889 14811
Mayo 14804
iko 14801
atis@@ 14800
penetr@@ 14796
Lewis 14795
uz 14782
Ped@@ 14778
osp@@ 14775
Gil 14771
Cup 14764
eman 14761
sm@@ 14760
bord@@ 14759
Massachusetts 14757
Kam@@ 14756
Ot@@ 14743
illy 14741
afr@@ 14731
eer 14728
tre@@ 14723
the@@ 14721
mono@@ 14719
ambre 14708
Vargas 14706
discre@@ 14698
repres@@ 14698
ache 14696
gam@@ 14693
flot@@ 14686
opl@@ 14686
Bell@@ 14685
bomba 14685
Alej@@ 14680
parlamento 14675
enor@@ 14668
ongo 14667
Colorado 14654
pura 14652
anna 14648
Lord 14646
Claus@@ 14642
ł@@ 14630
enco 14624
dial 14619
Lag@@ 14615
ci 14613
conclus@@ 14613
1891 14600
alem@@ 14594
sul 14592
Cau@@ 14582
Kon@@ 14577
Giovanni 14575
SC 14574
Bes@@ 14571
Microsoft 14555
épo@@ 14555
TE@@ 14554
ald@@ 14550
acre 14541
trag@@ 14541
Alex 14540
Day 14526
wa 14522
ges 14521
andro 14514
ting 14514
hay@@ 14508
od 14508
deg@@ 14502
platafor@@ 14502
New@@ 14501
vér@@ 14501
ester 14500
Let@@ 14492
UCI 14486
use 14483
RO@@ 14480
Yam@@ 14479
frances@@ 14469
andra 14461
dal@@ 14461
Sy@@ 14458
rectang@@ 14452
17@@ 14451
intensi@@ 14447
Comp@@ 14441
Integr@@ 14441
AA 14439
fort@@ 14438
olla 14438
Esper@@ 14437
AB@@ 14435
Bulgaria 14432
diz@@ 14429
lie 14426
10.@@ 14418
top 14414
Honor 14411
ántico 14409
Whit@@ 14408
´ 14395
Elizabeth 14394
AP 14389
Hip@@ 14389
Terr@@ 14389
incluy@@ 14388
Bran@@ 14383
mental 14383
bula 14382
armen@@ 14377
icon@@ 14373
ein@@ 14368
Championship 14365
ograf@@ 14364
imi@@ 14354
privileg@@ 14354
astre 14339
rop@@ 14332
1888 14330
ilus 14329
edio 14322
molec@@ 14319
RI@@ 14317
bet@@ 14317
play 14317
evacu@@ 14310
Lac@@ 14305
Hans 14304
imperi@@ 14301
expul@@ 14298
Result@@ 14291
aer 14285
raz@@ 14280
simples 14280
inspec@@ 14276
isional 14275
ios@@ 14274
ix 14274
enne 14272
gre@@ 14272
Yuc@@ 14266
ly@@ 14266
ime 14258
antil 14251
entreten@@ 14242
Laura 14239
Valent@@ 14235
men 14233
bara 14232
Coc@@ 14228
tual 14225
Bibli@@ 14220
× 14215
atra 14208
presti@@ 14206
25@@ 14205
Bak@@ 14202
Yo 14197
Kn@@ 14187
glaci@@ 14187
dos@@ 14179
Union 14175
sí@@ 14174
Van@@ 14173
yar@@ 14173
sé@@ 14168
pale@@ 14158
Bartolom@@ 14157
Association 14151
orro 14151
gram@@ 14134
blind@@ 14133
Carl@@ 14127
leer 14119
aler@@ 14112
agan 14105
sistem@@ 14101
iki 14094
ód@@ 14091
Adam 14087
Mid@@ 14083
oxid@@ 14079
CN@@ 14071
Dist@@ 14070
Pek@@ 14068
Little 14066
punk 14064
Congo 14061
heter@@ 14049
clan 14048
ther 14043
azar@@ 14037
MS 14035
discrimin@@ 14030
Blan@@ 14028
aun@@ 14024
ren 14023
responsables 14023
tea 14019
part@@ 14018
à@@ 14018
AT 14015
inga 14009
François 13995
Log@@ 13991
valid@@ 13990
Villar@@ 13984
Administr@@ 13978
Liberal 13964
ted@@ 13963
lieg@@ 13959
mana 13955
Sir 13944
ius 13940
Boys 13919
Jan@@ 13917
tent@@ 13917
1893 13912
Sam 13912
cus 13902
Cord@@ 13901
Fri@@ 13899
1500 13894
aug@@ 13894
mé@@ 13888
Vivi@@ 13887
pian@@ 13873
Got@@ 13860
Ki@@ 13856
Vent@@ 13855
nos@@ 13853
onial 13851
enfr@@ 13846
fiere 13843
academ@@ 13839
Marqu@@ 13834
Legisl@@ 13825
igh@@ 13825
Lem@@ 13824
East 13823
omor@@ 13820
anus 13818
oter@@ 13818
lave 13815
novi@@ 13815
ague 13813
Da@@ 13803
teriormente 13799
hes@@ 13794
Sex@@ 13788
tillo 13786
bury 13782
Eric 13781
Ful@@ 13780
Ort@@ 13773
artificial 13773
Romano 13771
asio 13765
futbol@@ 13765
ulo 13765
ado@@ 13758
habilit@@ 13755
Awards 13752
mis 13750
iento 13749
propul@@ 13741
lava 13740
heim 13732
coinc@@ 13731
olor 13727
UC@@ 13715
Duc@@ 13706
Nintendo 13702
Luci@@ 13697
identi@@ 13683
iores 13673
op 13672
astron@@ 13668
att@@ 13665
Infan@@ 13663
c. 13662
ingen@@ 13662
with 13648
diagn@@ 13647
Olí@@ 13636
difí@@ 13636
Natural 13634
nio 13629
vé@@ 13624
nar 13622
nic@@ 13620
aff@@ 13609
reform@@ 13602
sis 13601
1892 13599
Paraná 13599
Eng@@ 13598
hero@@ 13596
1800 13593
electric@@ 13592
Call@@ 13588
S.A. 13587
dam@@ 13587
1868 13585
isco 13585
1885 13577
pa@@ 13572
oi 13561
isten 13560
Spe@@ 13557
isto 13555
CD@@ 13545
Etim@@ 13545
rugby 13545
LE@@ 13541
iger@@ 13540
MTV 13539
iten 13538
bi 13534
semin@@ 13531
mic 13519
lumin@@ 13515
ano@@ 13511
uti@@ 13508
magné@@ 13500
Bab@@ 13498
meteor@@ 13492
Alan 13491
nec@@ 13488
orías 13485
yan 13484
símb@@ 13476
Ray 13466
magistr@@ 13466
provin@@ 13464
Bag@@ 13445
Banda 13442
26@@ 13438
Mam@@ 13436
clav@@ 13435
stant@@ 13431
Friedrich 13429
vag@@ 13429
1894 13423
1886 13422
lima 13421
Lit@@ 13417
Lov@@ 13417
ticul@@ 13410
It@@ 13409
Kit@@ 13409
Sony 13403
ds 13402
we@@ 13400
ike 13380
RA 13375
flex@@ 13375
pi 13375
Sport 13373
But@@ 13367
rehabilit@@ 13355
Game 13354
Quir@@ 13352
onel 13350
che@@ 13348
over@@ 13348
gor@@ 13345
latitu@@ 13342
ril 13336
Beau@@ 13333
tru@@ 13326
bau@@ 13321
Brus@@ 13318
lé@@ 13315
Atlanta 13313
Dun@@ 13312
Han 13295
Play@@ 13280
conductor 13276
Toronto 13275
row 13275
cerem@@ 13272
orum 13270
esté 13259
moderni@@ 13257
Hispan@@ 13245
bomb@@ 13243
nit@@ 13241
kil@@ 13237
acr@@ 13219
Wood@@ 13216
Corporation 13212
aud 13211
compi@@ 13210
hot@@ 13210
Jim 13209
Bras@@ 13208
erie 13205
Kansas 13204
Arn@@ 13195
Bec@@ 13195
Sep@@ 13193
YouTube 13182
iliano 13181
jin@@ 13181
Ka@@ 13179
Ky@@ 13173
mont 13167
clu@@ 13163
CS@@ 13162
egan 13160
Lara 13159
ósito 13144
anja 13143
And@@ 13140
hici@@ 13139
ítul@@ 13136
Douglas 13123
infr@@ 13116
1884 13103
van@@ 13102
film 13100
Jan 13099
veloc@@ 13089
Anderson 13084
Yugoslavia 13083
g. 13079
progr@@ 13078
alit@@ 13077
af 13076
any@@ 13072
Tex@@ 13068
tural 13059
ert 13055
plen@@ 13054
divid@@ 13051
CF 13048
{ 13045
Afgan@@ 13044
vertical 13041
campus 13036
ABC 13034
ingen 13032
1879 13025
Fili@@ 13023
lac@@ 13022
hard@@ 13020
expon@@ 13007
Gri@@ 13005
Sr. 12995
Oxford 12994
Stephen 12992
Spider 12984
circ@@ 12974
eau 12973
Studios 12963
Beach 12961
mang@@ 12958
propag@@ 12958
Constantin@@ 12954
urs@@ 12954
algorit@@ 12938
yc@@ 12931
discus@@ 12929
ald 12927
kov 12918
Agricul@@ 12916
Ric@@ 12916
Jr 12915
Ry@@ 12912
carp@@ 12909
lip@@ 12908
vulner@@ 12898
Pit@@ 12891
resist@@ 12883
env@@ 12882
900 12879
Sant 12876
terci@@ 12871
sio 12869
Ner@@ 12866
Broadway 12865
Clara 12859
Jes@@ 12859
concili@@ 12851
onn@@ 12844
Minnesota 12843
1887 12842
infin@@ 12840
opera 12838
URSS 12823
nova 12819
Armenia 12817
zana 12807
uel 12805
ū 12801
ii 12800
Lincoln 12799
Sun 12793
Crim@@ 12792
Mik@@ 12792
AL 12790
ero@@ 12790
Salv@@ 12787
Andrea 12779
12,@@ 12773
Francis 12773
God@@ 12772
Ast@@ 12771
jer 12769
enberg 12763
zano 12761
dor 12757
Biblia 12754
Pet@@ 12754
canc@@ 12754
fra@@ 12748
live 12747
controvers@@ 12744
Him@@ 12743
ium 12739
Asi@@ 12730
end 12724
divis@@ 12716
sud@@ 12713
Johann 12706
ager 12701
FM 12700
erry 12695
mús@@ 12695
entí@@ 12694
Andrew 12693
aren@@ 12693
olo@@ 12686
Particip@@ 12681
anj@@ 12675
britán@@ 12666
etz@@ 12657
variables 12654
On 12652
1850 12645
abar@@ 12638
interven@@ 12631
ole@@ 12631
hir@@ 12625
Bil@@ 12624
Flora 12622
Plant@@ 12619
1881 12616
favorable 12608
NE@@ 12606
Arro@@ 12605
roqu@@ 12605
Quint@@ 12603
1876 12595
ning 12594
arti@@ 12592
ism@@ 12592
12.@@ 12587
alp@@ 12585
Feder@@ 12573
Indiana 12571
MP@@ 12570
procur@@ 12569
bill@@ 12561
curr@@ 12547
Patri@@ 12543
eng 12542
ix@@ 12540
ubil@@ 12537
Wo@@ 12528
Eus@@ 12526
Viol@@ 12520
Alg@@ 12516
Fort 12511
dem 12510
Garr@@ 12507
vertebr@@ 12506
iny@@ 12500
Itali@@ 12499
integ@@ 12499
espe@@ 12491
Leonardo 12488
1871 12486
cable 12486
Palestina 12485
MI@@ 12480
Ramos 12474
úl 12465
Road 12463
lot 12461
Alfred 12451
Azerba@@ 12433
rad@@ 12433
Gold@@ 12432
gi 12430
Alber@@ 12429
alli@@ 12427
Nelson 12426
Kevin 12420
Miller 12420
Zo@@ 12420
its 12417
Monte@@ 12400
Sher@@ 12399
ð@@ 12391
10,@@ 12388
Johnny 12388
Sicilia 12388
Eva 12386
alcohol 12385
Hamb@@ 12374
ate@@ 12370
Tal 12369
Ges@@ 12367
Num@@ 12360
Michel 12358
PA 12355
eli 12354
Fut@@ 12349
11.@@ 12347
tum@@ 12342
Bruce 12340
Naval 12339
www.@@ 12334
Nick 12331
fia 12324
implant@@ 12322
videos 12321
Video 12316
Manz@@ 12315
Rose 12314
Gam@@ 12307
Ele@@ 12305
icus 12305
gü@@ 12295
sacrif@@ 12291
1878 12288
Lat@@ 12287
ban 12284
Junior 12281
ome@@ 12277
Rally 12271
Victor 12271
Warner 12265
Rap@@ 12264
Howard 12256
neum@@ 12250
Jimmy 12243
1882 12236
Evangel@@ 12236
fer 12225
olina 12219
osc@@ 12216
ifer@@ 12207
torn@@ 12203
seri@@ 12202
lana 12197
Alvar@@ 12196
State 12193
Ecu@@ 12190
Ef@@ 12186
repos@@ 12184
23@@ 12183
Long 12181
comedi@@ 12166
cito 12164
dav@@ 12162
audio 12161
Nik@@ 12159
examin@@ 12158
epis@@ 12157
fes@@ 12157
Termin@@ 12156
Rodol@@ 12155
Cub@@ 12152
worth 12151
tés 12149
1864 12142
Allen 12140
Semin@@ 12138
quel 12137
Bow@@ 12128
ashi 12128
egal 12123
mater@@ 12123
ont 12123
Litu@@ 12120
Tradi@@ 12119
roy@@ 12119
Gun@@ 12118
Hem@@ 12116
sedi@@ 12116
27@@ 12115
integral 12112
1883 12107
Estonia 12106
Black@@ 12096
Prus@@ 12092
Conservat@@ 12090
km. 12086
sel 12086
alle@@ 12083
aman@@ 12081
hib@@ 12079
álisis 12079
vin 12073
laya 12065
sist@@ 12064
Boy 12062
Juni@@ 12061
Andr@@ 12060
let 12058
Chu@@ 12048
Madonna 12029
onto 12020
K. 12018
Arts 12016
Anthony 12013
Base 12010
Ali 12007
28@@ 12003
Herr@@ 12003
amm@@ 12003
ME@@ 12000
1865 11994
Lau@@ 11983
nitr@@ 11977
enzo 11975
Ras@@ 11967
sept@@ 11965
apart@@ 11960
AI@@ 11959
Cle@@ 11952
bé@@ 11940
200@@ 11933
ack@@ 11933
mata 11933
ies 11930
3000 11925
experimental 11923
urn@@ 11923
usual 11905
alias 11903
1830 11896
Def@@ 11896
iter@@ 11892
1848 11891
Long@@ 11890
internet 11889
.000 11888
simul@@ 11886
post 11882
pino 11879
Bell 11869
emper@@ 11867
establ@@ 11863
INE 11860
Vera 11860
nad@@ 11860
André 11858
Kepler 11858
Les@@ 11857
rival@@ 11856
ston 11854
Paris 11852
ises 11852
uri@@ 11852
CV 11851
ew@@ 11851
war@@ 11844
Sat@@ 11838
bits 11838
bio@@ 11837
abstr@@ 11836
ases 11836
públ@@ 11834
pent@@ 11829
Fis@@ 11820
Arena 11815
Donald 11815
1840 11814
Kin@@ 11806
key 11802
luc@@ 11802
petrol@@ 11799
compren@@ 11798
Lady 11796
Arc@@ 11793
Lang@@ 11793
mobili@@ 11789
isis 11785
1867 11780
Tap@@ 11771
Comics 11769
regi@@ 11769
Iber@@ 11764
extra 11764
ispo 11760
Aud@@ 11755
dum 11753
tible 11749
hil@@ 11748
legend@@ 11747
London 11743
Mass@@ 11741
ally 11738
amblea 11735
Ind@@ 11732
Len@@ 11728
copal 11723
Bay 11718
bom@@ 11717
mond 11717
1873 11715
Cambridge 11715
Leopol@@ 11712
enia 11710
XX@@ 11709
AR 11705
dri@@ 11693
clandest@@ 11679
Cus@@ 11674
cup@@ 11672
ficio 11667
ATP 11663
eller 11655
ns 11649
Epis@@ 11640
fri@@ 11636
Ton@@ 11635
oe 11630
invas@@ 11628
1861 11626
Arist@@ 11622
hr@@ 11619
Cong@@ 11617
terres@@ 11615
oo 11609
tuber@@ 11607
suy@@ 11602
Morgan 11593
empar@@ 11591
adi 11583
Go 11580
Democ@@ 11577
bac@@ 11576
promovi@@ 11575
amer@@ 11570
cientí@@ 11569
promot@@ 11564
yer@@ 11560
bab@@ 11558
Zar@@ 11552
Film 11551
toler@@ 11551
CC@@ 11550
apas 11550
1,5 11549
Gom@@ 11549
Queen 11549
1875 11542
idar@@ 11542
Moore 11535
cc 11534
tamb@@ 11534
afa 11528
Cis@@ 11526
Mej@@ 11526
eu 11524
Pier@@ 11523
Is 11513
Pale@@ 11509
1872 11507
ye@@ 11507
Google 11505
yer 11504
sult@@ 11500
Tos@@ 11499
more 11495
polit@@ 11493
1869 11488
Uri@@ 11486
vertic@@ 11484
cend@@ 11479
house 11479
Gru@@ 11476
polo 11469
ée 11469
card@@ 11463
40@@ 11461
Orleans 11460
Austr@@ 11456
Aus@@ 11445
PlayStation 11445
Bac@@ 11434
50@@ 11428
110 11427
tox@@ 11423
Eurov@@ 11421
dera 11420
eur@@ 11420
ps@@ 11419
Julia 11416
Constant@@ 11412
Jane 11410
crimin@@ 11409
Bank 11406
Hus@@ 11406
Eg@@ 11405
Up 11405
dney 11403
Kom@@ 11402
Vari@@ 11399
Industrial 11394
net 11391
seud@@ 11380
Sag@@ 11379
Houston 11377
conflu@@ 11370
Conn@@ 11367
ae@@ 11367
ass 11366
eni 11366
induc@@ 11365
Pul@@ 11363
Pop 11362
logos 11359
Telec@@ 11353
a. 11353
mér@@ 11349
180 11348
bach 11337
1863 11335
Digital 11333
1874 11331
Ryan 11330
Your 11325
tribun@@ 11323
Henri 11321
Fus@@ 11316
3D 11311
iler 11306
IT@@ 11305
consult@@ 11304
itz@@ 11298
Vig@@ 11297
Yo@@ 11283
Men 11280
ekw@@ 11280
chin@@ 11277
News 11275
PS 11264
ator@@ 11253
Clark 11250
sible 11250
any 11234
Green@@ 11233
difer@@ 11228
vera 11227
cler@@ 11225
Rib@@ 11215
Kas@@ 11203
prin@@ 11203
Corpor@@ 11200
uh@@ 11196
ère 11190
aus 11189
Wi@@ 11184
thr@@ 11184
pro 11182
SP@@ 11181
Fro@@ 11170
oslov@@ 11168
oncesto 11167
abad 11166
11,@@ 11164
Matt 11156
Vin@@ 11154
Conse@@ 11153
umi 11151
ube 11147
ativ@@ 11144
Sak@@ 11142
ept@@ 11142
own 11140
Energ@@ 11134
grup@@ 11133
Kol@@ 11130
eden 11126
fest@@ 11126
13,@@ 11121
alba 11117
Harvard 11113
Lind@@ 11113
O. 11113
ž@@ 11110
afu@@ 11109
Varso@@ 11107
té 11102
ST@@ 11101
Ministr@@ 11088
mensu@@ 11083
utili@@ 11083
achi 11082
Cham@@ 11081
Ji@@ 11069
Pac@@ 11069
1857 11068
Billy 11061
eu@@ 11061
1866 11060
estruc@@ 11060
ister 11058
cuad@@ 11050
inus 11050
Tul@@ 11045
mineral 11045
Journal 11044
PE@@ 11044
Maxim@@ 11043
fiel 11042
ör@@ 11040
Open 11039
Cob@@ 11038
ots 11036
130 11029
ware 11026
core 11015
Cri@@ 11010
facto 11009
franco 11009
hipot@@ 11007
Charlie 11002
guitarr@@ 10997
vs 10994
arbitr@@ 10991
Dob@@ 10989
Construc@@ 10986
disper@@ 10982
meg@@ 10982
ique 10976
trin@@ 10974
BC 10972
Bach@@ 10967
anne 10966
5.000 10959
Detroit 10959
Bien@@ 10951
Franklin 10950
git@@ 10950
sterdam 10949
1877 10941
\ 10933
Rolling 10930
eck 10926
yan@@ 10924
mara 10923
opo@@ 10913
Ann@@ 10909
back 10903
Alt@@ 10901
caf@@ 10901
1862 10899
Anne 10898
ológ@@ 10889
Dan 10882
ranking 10877
undos 10873
apo 10872
combus@@ 10860
mania 10855
rer 10851
ech 10850
Amp@@ 10837
Iowa 10836
munici@@ 10836
ig 10827
hip 10824
Tac@@ 10820
Girl 10817
alco@@ 10817
Mov@@ 10816
Sm@@ 10805
Kennedy 10802
Gordon 10801
Fir@@ 10796
Apple 10795
Oliver 10792
Pom@@ 10788
ran 10786
mito 10785
port 10784
I.@@ 10783
IA 10781
agus 10774
gh@@ 10773
nh@@ 10772
opini@@ 10772
sibil@@ 10769
Compos@@ 10762
faz 10762
Dakota 10760
we 10755
Corr@@ 10754
Dep@@ 10752
Grab@@ 10746
Od@@ 10744
å@@ 10744
Patrick 10743
amo@@ 10742
Nigeria 10741
Piz@@ 10741
accident@@ 10741
quet 10715
Yu@@ 10712
derr@@ 10702
asso 10699
Cast@@ 10696
Creek 10694
bro@@ 10694
p. 10682
ther@@ 10681
nik 10678
ibn 10669
Zap@@ 10668
Wh@@ 10660
ichi 10653
locomot@@ 10653
} 10649
pav@@ 10646
fil 10645
ops 10643
ocia 10642
Autom@@ 10641
Lou@@ 10640
AE@@ 10623
trol@@ 10620
N. 10619
ann 10619
domic@@ 10617
Nak@@ 10604
tumb@@ 10600
alan 10599
Laborat@@ 10597
hispan@@ 10590
bé 10589
Hun@@ 10583
Om@@ 10582
Cher@@ 10578
1810 10572
up 10571
Industr@@ 10566
lera 10559
tic 10556
http 10555
tina 10554
1820 10547
macul@@ 10547
brill@@ 10541
tul@@ 10541
DJ 10534
lap@@ 10530
Sie@@ 10527
protec@@ 10526
Yan@@ 10524
Mut@@ 10523
subur@@ 10522
Home 10518
Sang@@ 10518
marqu@@ 10513
bru@@ 10512
Nad@@ 10511
Sarah 10511
nen 10506
Hav@@ 10502
Montreal 10501
verg@@ 10501
están@@ 10498
entino 10495
Arz@@ 10494
idel@@ 10493
Otto 10492
ft 10492
pus 10489
Manhattan 10487
Kelly 10483
Sporting 10480
Autor@@ 10473
Vegas 10473
macho 10462
novel@@ 10458
Russell 10455
Las@@ 10453
TC 10450
Abu 10438
Intel@@ 10437
Jord@@ 10433
wich 10428
ms 10416
Chin@@ 10415
orbitales 10407
anca 10406
odio 10397
160 10394
beta 10393
Ví@@ 10392
autobi@@ 10392
ep 10385
Wisconsin 10384
omun@@ 10375
Minas 10374
indis@@ 10372
evangel@@ 10371
ormente 10355
ec 10353
PP 10340
29@@ 10338
UE 10334
Network 10332
improvis@@ 10330
Sou@@ 10328
Pis@@ 10327
Ross 10327
Christopher 10324
gén@@ 10324
mini@@ 10321
old 10321
· 10311
oke 10300
GT 10296
1833 10293
Arabia 10293
1812 10292
ken@@ 10288
Old 10283
etto 10283
maya 10283
portal 10276
Coch@@ 10274
Pictures 10274
sula 10273
Singapur 10272
DS 10263
iri 10258
NO@@ 10250
fit@@ 10248
OT@@ 10244
USA 10244
Tin@@ 10242
examen 10238
1821 10234
vis 10234
Poc@@ 10228
ux 10226
14,@@ 10220
Die 10216
Dani@@ 10211
D.@@ 10210
tano 10210
R.@@ 10208
nig@@ 10206
France 10203
yo@@ 10202
avera 10201
zor@@ 10198
brut@@ 10193
Fur@@ 10189
Gloria 10188
net@@ 10185
min 10179
Mr 10176
Alba 10170
ă@@ 10170
expect@@ 10167
125 10164
vir 10163
iment@@ 10160
vamp@@ 10160
arta 10154
RC 10152
ask@@ 10151
eal 10151
Hamilton 10150
Tw@@ 10150
maf@@ 10147
Glob@@ 10144
tibles 10143
ferro@@ 10140
ML@@ 10138
fa@@ 10137
Wilhelm 10136
margin@@ 10136
ö@@ 10134
We 10132
ort 10131
Camb@@ 10129
Kil@@ 10127
virtual 10118
ody 10116
engo 10115
Bosnia 10113
igh 10107
AD 10105
send@@ 10096
Institute 10095
vu@@ 10092
sequ@@ 10086
1859 10085
agricul@@ 10084
vierten 10081
Fa@@ 10080
Oro@@ 10080
Grammy 10079
Angel 10073
alumin@@ 10072
afro@@ 10071
Nevada 10069
René 10063
Ple@@ 10060
concer@@ 10059
Franz 10058
Jam@@ 10053
Will 10048
tion 10045
80@@ 10042
reduce 10041
vers 10040
eas@@ 10039
taña 10033
Crist@@ 10026
Power 10026
Adel@@ 10022
Song 10020
involuc@@ 10018
Can 10012
Carter 10005
engu@@ 9999
chu@@ 9992
galax@@ 9991
ses 9991
Cass@@ 9986
ombi@@ 9983
Lagos 9979
Abr@@ 9973
Lon@@ 9972
16,@@ 9969
tena 9965
2,5 9961
rich 9961
Jason 9958
bs 9945
Neu@@ 9943
ria 9939
Sul@@ 9938
140 9937
Emer@@ 9933
iter 9933
Cour@@ 9932
Simpson 9932
anth@@ 9931
Gau@@ 9930
anger 9930
Thi@@ 9929
judici@@ 9925
Gén@@ 9924
quot 9924
Andy 9923
taba 9921
tril@@ 9918
crita 9909
propaganda 9908
Xi@@ 9904
Austin 9902
enga 9898
Diana 9892
Liv@@ 9889
ska 9883
Det@@ 9882
rog@@ 9880
ógraf@@ 9880
Control 9877
Magn@@ 9870
ès 9868
alus 9866
erle 9862
350 9860
ócesis 9859
ç@@ 9858
olia 9856
Dav@@ 9855
Valley 9855
criminal 9855
Bla@@ 9854
³ 9853
arist@@ 9852
Athletic 9851
Macedonia 9849
13.@@ 9840
lina 9837
tw@@ 9834
Who 9831
ámb@@ 9830
amateur 9827
áz@@ 9824
uk 9815
simpli@@ 9810
Web@@ 9809
tral 9809
Lyon 9808
oth 9805
pios 9804
uss@@ 9801
Do 9798
altern@@ 9798
ow 9798
triang@@ 9798
ays 9792
noc@@ 9785
time 9785
tha 9784
Tito 9783
bola 9783
optera 9783
ural 9783
a- 9781
Biel@@ 9776
emat@@ 9772
1858 9770
rif@@ 9770
humor@@ 9769
low@@ 9769
xi 9765
Adams 9761
da@@ 9760
equi@@ 9760
oshi 9756
Twitter 9754
Nob@@ 9752
brica 9749
repe@@ 9748
Gur@@ 9746
roquia 9746
1856 9743
Geor@@ 9736
Imp@@ 9719
vet@@ 9716
antigu@@ 9714
lando 9710
Kath@@ 9709
Martin@@ 9704
Sto@@ 9704
Abraham 9701
infl@@ 9696
iev@@ 9693
Bruno 9691
British 9686
ents 9686
Paula 9682
anticip@@ 9681
suya 9678
Out 9675
nan 9675
Mati@@ 9674
Lak@@ 9669
Aman@@ 9663
sar 9655
Trav@@ 9653
Test@@ 9652
Sz@@ 9650
yi 9649
baron 9647
pau@@ 9647
Pseud@@ 9639
fat@@ 9637
soc@@ 9634
territori@@ 9632
kan@@ 9631
Gabri@@ 9630
ett@@ 9626
aul@@ 9625
orama 9625
ker@@ 9620
Isaac 9617
Nec@@ 9617
Theatre 9610
Olimp@@ 9609
Batman 9604
gro@@ 9603
hy@@ 9602
Draft 9599
disciplin@@ 9598
Fru@@ 9597
Viv@@ 9596
rat 9592
court 9586
éro@@ 9583
M.@@ 9582
Rick 9580
Raw 9572
SI@@ 9572
atil@@ 9572
1854 9569
Tec@@ 9566
music@@ 9565
Atle@@ 9564
ault 9562
North@@ 9555
Cov@@ 9554
Š@@ 9547
HD 9545
Flam@@ 9542
eus@@ 9542
1814 9534
Bad 9529
aj 9529
Camer@@ 9526
also 9526
Walker 9525
Tob@@ 9522
Alice 9514
prud@@ 9512
Pay@@ 9510
1855 9508
Dig@@ 9508
Post 9507
inflam@@ 9502
Ober@@ 9493
Biz@@ 9492
Alaska 9488
aa 9479
Ray@@ 9477
AF 9469
ag 9467
atem@@ 9467
thi@@ 9467
Brooklyn 9466
Il 9464
usti@@ 9461
Band 9455
dij@@ 9455
CH@@ 9454
Airlines 9449
Fres@@ 9448
Bernard 9446
ngu@@ 9439
Kiev 9438
from 9436
IS 9427
Fle@@ 9423
Channel 9419
hard 9418
lers 9416
Lisa 9414
Roy@@ 9411
lock 9408
VA 9404
Dro@@ 9401
raf@@ 9399
aber@@ 9398
Raf@@ 9390
uza 9386
Sara 9384
ng 9384
timas 9381
aristoc@@ 9374
Jonathan 9372
protoc@@ 9370
excentr@@ 9362
Marc 9357
corresp@@ 9357
Benjamin 9356
poli 9356
Francesco 9350
Micro@@ 9349
Phil@@ 9349
Nam@@ 9346
Che@@ 9344
Sports 9344
gesti@@ 9342
Dance 9337
Cli@@ 9331
arum 9331
shire 9331
Roy 9325
Liverpool 9324
Restaur@@ 9323
orte 9323
tech@@ 9323
Ñ@@ 9320
ctu@@ 9315
Harris 9314
Tim 9310
wal@@ 9310
Dave 9309
15,@@ 9302
toman 9302
Quebec 9299
Polit@@ 9298
Raj@@ 9296
o.@@ 9283
IP 9280
but@@ 9279
ty@@ 9276
Imag@@ 9269
ries@@ 9265
Hog@@ 9262
ectar@@ 9259
ord 9256
tz 9252
consol@@ 9247
fug@@ 9241
stone 9240
opo 9236
tez 9234
14.@@ 9231
Carlo 9229
CBS 9228
Palmar@@ 9227
ticia 9223
chester 9207
Fair@@ 9205
Gé@@ 9204
Municipal@@ 9204
5000 9199
Amér@@ 9195
1851 9189
boy 9175
Jon 9174
ror 9169
ocar@@ 9166
Dou@@ 9162
Naz@@ 9162
artifici@@ 9159
Asoci@@ 9156
Luxemb@@ 9152
Parker 9152
CC 9150
subsidi@@ 9147
Press 9146
â@@ 9145
stan@@ 9136
eti 9135
1842 9133
Faus@@ 9132
Ler@@ 9132
Sali@@ 9130
ady 9129
1835 9127
õ@@ 9126
atu@@ 9124
PI@@ 9123
folia 9121
Berg@@ 9119
onne 9119
UTC 9118
Of 9115
len 9111
Wa@@ 9107
bili@@ 9104
imprim@@ 9097
Brand@@ 9096
bie 9095
Nan@@ 9090
Dead 9089
proce@@ 9089
Claude 9082
enaje 9082
Wayne 9080
Co 9079
depre@@ 9074
Marshall 9068
EN@@ 9066
Né@@ 9066
Good@@ 9063
uba 9062
Rich@@ 9061
Lec@@ 9060
Award 9058
bin 9058
Jacob 9055
insur@@ 9054
lug@@ 9054
Robin 9052
risto 9049
day 9047
sun@@ 9047
Hard@@ 9046
Dallas 9040
deli@@ 9034
rell 9033
Jeff 9030
fant@@ 9029
Gav@@ 9022
Angeles 9021
ective 9018
Gall@@ 9016
To 9016
1825 9014
uki 9012
Cré@@ 9008
Exper@@ 9006
geb@@ 9006
chen@@ 9003
Li 8994
Dy@@ 8993
omar 8984
60@@ 8982
Angel@@ 8981
bis 8978
Ax@@ 8977
Jos@@ 8976
Sad@@ 8970
Organiz@@ 8968
Rog@@ 8967
AF@@ 8963
imal 8959
Di 8950
Georges 8950
Um@@ 8943
101 8937
FO@@ 8936
NASA 8935
Polo 8935
agi@@ 8935
124@@ 8931
Wright 8931
ark@@ 8931
iss 8931
1853 8928
PN@@ 8928
horizontal 8923
Zagreb 8922
terri@@ 8922
Bis@@ 8920
cim@@ 8919
ogo 8918
Brun@@ 8916
lem 8911
param@@ 8910
Be 8908
enz 8904
ords 8904
ror@@ 8900
Proc@@ 8899
augh@@ 8898
CE 8896
Gibraltar 8894
Linux 8892
Women 8890
sep@@ 8890
Golden 8889
ili 8889
PO@@ 8887
usias@@ 8886
yg@@ 8884
Omar 8878
hop 8877
ostr@@ 8873
è@@ 8872
ë@@ 8870
stre@@ 8869
Bog@@ 8868
bina 8866
Nobel 8865
Pru@@ 8865
tín 8864
za@@ 8864
Orlando 8861
geometr@@ 8855
Magazine 8852
eba 8851
nes@@ 8850
iterr@@ 8849
Bien 8848
Nas@@ 8847
18@@ 8846
ted 8843
dés 8842
Global 8841
aut 8841
Leo 8835
Nova 8835
atum 8835
Shin@@ 8834
35@@ 8833
espect@@ 8832
Barry 8824
Lie@@ 8821
deser@@ 8821
eiro 8809
Mac 8807
Interpre@@ 8806
contradic@@ 8805
dis 8805
gs 8804
etc 8801
instrumental 8801
Khan 8794
Mozart 8794
ams 8792
air 8788
plut@@ 8781
Shel@@ 8773
fab@@ 8766
aper@@ 8760
bias 8759
Gand@@ 8757
oba 8752
viz@@ 8748
Inc 8745
cide 8739
IE@@ 8738
Post@@ 8738
Rud@@ 8738
interrup@@ 8733
Metal 8732
1845 8728
kiló@@ 8724
Square 8722
Xavier 8720
RS 8716
ambul@@ 8716
Best 8712
roman@@ 8709
1847 8707
1834 8704
món 8704
alif@@ 8701
metr@@ 8701
UK 8697
triple 8696
ventr@@ 8692
är@@ 8689
1852 8688
Baden 8688
Lep@@ 8688
adic@@ 8688
haber@@ 8688
partici@@ 8688
https 8684
Nog@@ 8683
iler@@ 8681
agin@@ 8679
gir 8678
dif@@ 8672
tz@@ 8670
persist@@ 8669
empre 8665
Good 8664
Vati@@ 8653
egro 8653
Heinrich 8651
aris 8648
Soc@@ 8644
Bud@@ 8639
Voc@@ 8639
ely 8637
distingue 8635
17,@@ 8631
Grant 8630
Lob@@ 8626
monit@@ 8626
Dark 8623
omin@@ 8618
Mom@@ 8617
Beatles 8611
Air@@ 8608
last@@ 8605
vierte 8605
Circu@@ 8600
Emma 8600
Lom@@ 8599
Museum 8599
arru@@ 8597
idi 8590
Satur@@ 8589
1849 8587
Acc@@ 8587
Games 8586
diam@@ 8584
itt 8582
Jordan 8581
BS 8580
Tas@@ 8578
Venus 8577
Lawrence 8574
ref 8571
Mong@@ 8570
Alf@@ 8566
ein 8565
feld 8559
porno@@ 8556
line 8555
Docum@@ 8541
diagnos@@ 8540
rique 8539
MO@@ 8538
This 8538
sh 8538
kin@@ 8532
vi 8528
extranj@@ 8527
wan@@ 8527
plasma 8524
ī@@ 8510
Hul@@ 8505
Shir@@ 8501
Ze@@ 8498
hong@@ 8495
Te 8494
unca 8492
Girls 8491
Kl@@ 8491
amaz@@ 8491
iggins 8490
ness 8488
Port 8487
mortal@@ 8487
esi 8482
2.000 8481
Say@@ 8478
Pand@@ 8476
males 8474
tier 8474
NBC 8473
201@@ 8469
robus@@ 8466
MC 8465
Jazz 8463
oven 8461
Boeing 8458
æ@@ 8458
umi@@ 8457
Academy 8456
Bra@@ 8456
Charlotte 8454
Joh@@ 8452
dale 8449
intermedi@@ 8449
1824 8448
ilde 8445
reh@@ 8444
1836 8443
Gh@@ 8443
dad@@ 8436
McCar@@ 8434
bit 8434
Zh@@ 8433
Gra@@ 8431
din 8431
Cé@@ 8430
Eul@@ 8428
Robinson 8423
Port@@ 8420
Oliv@@ 8419
Cooper 8417
Manchester 8415
Renault 8414
Pér@@ 8407
ovich 8407
town 8400
tun@@ 8398
non 8396
Inform@@ 8395
Mau@@ 8390
Hér@@ 8389
Dul@@ 8387
IP@@ 8385
vierno 8383
even 8381
Rég@@ 8380
Zel@@ 8378
actr@@ 8378
óptero 8378
pertur@@ 8376
atin@@ 8375
360 8372
Sid@@ 8372
Tot@@ 8371
Dod@@ 8368
Wit@@ 8367
Prin@@ 8366
ois 8365
interrog@@ 8364
trau@@ 8363
riz 8362
Albania 8361
Thor@@ 8361
Sea 8357
maz@@ 8356
mezc@@ 8352
Chic@@ 8346
Mez@@ 8344
tier@@ 8344
Jamaica 8343
venti@@ 8339
1823 8338
haz@@ 8338
ingi@@ 8335
lés 8335
ues 8331
indu@@ 8330
Point 8327
pit@@ 8327
criti@@ 8311
ust 8311
vill@@ 8310
Telev@@ 8306
chor@@ 8306
Inst@@ 8304
L.@@ 8303
Harrison 8300
Chal@@ 8293
gon@@ 8293
16.@@ 8291
1846 8291
Anim@@ 8285
1837 8280
1839 8278
esh@@ 8277
HMS 8275
distr@@ 8273
tren@@ 8265
ding 8263
princip@@ 8263
CO 8262
minim@@ 8262
Scar@@ 8261
Hat@@ 8256
Lun@@ 8256
kat@@ 8256
cy 8251
rid 8250
Max@@ 8249
J.@@ 8248
Stu@@ 8248
Educ@@ 8247
Kel@@ 8247
Java 8241
ï@@ 8241
hex@@ 8236
Alabama 8235
Cali@@ 8230
Maurice 8228
Way 8228
Ec@@ 8225
Basil@@ 8221
Philip 8220
UFC 8220
ères 8220
aurus 8219
Gary 8215
ury 8215
Ach@@ 8210
ident@@ 8206
cach@@ 8204
pedia 8202
Steven 8201
aha 8201
landes 8199
Play 8196
obi@@ 8191
Provin@@ 8188
insig@@ 8185
cher@@ 8180
inqui@@ 8180
Malta 8175
System 8175
file 8172
mom@@ 8170
problem@@ 8170
aller@@ 8166
aye 8166
Fot@@ 8164
Wes@@ 8162
ment 8159
Honor@@ 8154
Homer 8153
Montenegro 8153
aine 8152
della 8149
blues 8148
Down 8145
Hit@@ 8144
Beg@@ 8139
Stanley 8131
visu@@ 8130
wald 8129
ated 8126
1844 8122
spec@@ 8122
urus 8121
eme 8114
Gig@@ 8113
gall@@ 8113
1815 8110
Mix@@ 8110
Princ@@ 8110
teria 8104
independ@@ 8103
her 8100
Ed 8097
15.@@ 8092
bran@@ 8090
wick 8089
kur@@ 8088
Benedic@@ 8083
Superman 8083
liqu@@ 8083
Hin@@ 8079
rie 8075
Gü@@ 8074
bul 8074
Cha@@ 8071
Patricia 8069
Nev@@ 8068
yu 8066
Giuseppe 8064
Sup@@ 8063
Garden 8062
Rep@@ 8060
Mant@@ 8055
vor 8052
750 8049
Iron 8047
numér@@ 8045
Murray 8043
Perry 8043
Krasno@@ 8042
Memorial 8040
Baz@@ 8039
105 8033
cardi@@ 8032
Triple 8030
Tag@@ 8028
acy 8026
Lad@@ 8025
té@@ 8025
uria 8020
Tier@@ 8015
ovina 8015
yl 8012
DO@@ 8009
roles 8006
Kab@@ 8005
emo 8005
vend@@ 8004
lum 8003
chen 8002
onder@@ 8002
Seattle 7998
odon@@ 7995
lav 7990
aque 7987
War 7984
EA 7981
Moon 7978
ament@@ 7978
Silv@@ 7977
Great 7974
1811 7971
1838 7967
Madison 7967
Rh@@ 7966
Fantas@@ 7965
Jay 7965
Graham 7963
lard 7960
EC@@ 7952
Town 7944
emerg@@ 7941
laur@@ 7941
cump@@ 7940
fum@@ 7939
hockey 7939
Saf@@ 7938
ect 7935
ris 7935
aseg@@ 7930
ř@@ 7928
Trump 7927
itis 7923
ga@@ 7920
What 7916
satis@@ 7916
SN@@ 7911
kov@@ 7901
Kent 7897
umo 7896
120@@ 7891
trom@@ 7891
1200 7890
deter@@ 7890
Munici@@ 7889
Thompson 7887
com 7885
ws 7884
The@@ 7876
Tennessee 7875
Pens@@ 7874
borough 7872
embre 7872
Heart 7867
allar 7866
EF 7865
Nicolas 7865
1841 7862
atern@@ 7860
sed@@ 7860
Ibn 7856
CIA 7855
analiz@@ 7852
Moh@@ 7848
ku 7847
our@@ 7846
nutri@@ 7845
Atlas 7843
incor@@ 7842
Fiat 7841
tos@@ 7840
pig@@ 7838
Under@@ 7836
AG@@ 7835
Clinton 7830
dispos@@ 7830
Facebook 7827
isi 7827
prac@@ 7822
Campbell 7821
1822 7819
hosp@@ 7819
ider 7819
atmos@@ 7818
€ 7818
aden 7817
tang@@ 7817
dose 7814
urs 7814
Science 7813
municipal@@ 7811
F.@@ 7807
Television 7803
omp@@ 7798
Studio 7794
Orange 7793
aina 7791
Division 7789
Cun@@ 7778
dra@@ 7771
Margaret 7770
Castel@@ 7769
Ian 7765
Oklahoma 7764
Edgar 7760
Bun@@ 7758
Spin@@ 7756
Yel@@ 7756
gil 7756
írit@@ 7756
ów 7749
imi 7748
ples 7748
Fen@@ 7747
ott 7746
Copenh@@ 7743
Hudson 7742
Sacram@@ 7742
ols 7742
CON@@ 7741
shows 7740
Turner 7737
1843 7734
thoph@@ 7732
under@@ 7731
Och@@ 7730
Japon@@ 7727
Sever@@ 7722
hep@@ 7719
Ambro@@ 7718
Jerry 7716
zu 7707
Stalin 7706
apor@@ 7706
Ech@@ 7700
Stewart 7696
comport@@ 7696
cut@@ 7696
Rand@@ 7694
onc@@ 7692
Chir@@ 7691
ough 7680
Aless@@ 7679
Sot@@ 7678
Civ@@ 7677
As 7676
Vincent 7676
equili@@ 7671
ulas 7667
Madagascar 7663
soy 7657
Vor@@ 7655
LO@@ 7654
Terry 7653
ks@@ 7652
tour 7652
cules 7651
Gros@@ 7650
Porto 7650
Bour@@ 7649
sid@@ 7649
Opera 7645
Univers@@ 7644
hou 7642
RT@@ 7641
ail 7641
nch@@ 7640
escape 7637
1808 7635
has@@ 7635
amia 7624
1813 7623
Space 7619
ations 7618
Ludwig 7616
Melbourne 7615
sil 7614
Maryland 7609
Stadium 7608
Shakespeare 7605
H.@@ 7593
aph@@ 7590
sten@@ 7590
ls 7588
Const@@ 7587
Arkansas 7586
éri@@ 7585
Champ@@ 7583
maj@@ 7583
solid@@ 7583
itch 7582
Jefferson 7581
SM 7578
Eddie 7573
17.@@ 7572
Deleg@@ 7569
Phoenix 7569
spir@@ 7569
aç@@ 7568
orn 7568
estes 7565
Continental 7563
Vista 7562
Brothers 7559
gay 7559
Anth@@ 7554
Cleveland 7553
Sas@@ 7553
Lot@@ 7552
Baby 7551
Grim@@ 7548
ape@@ 7547
divin@@ 7547
Ses@@ 7544
Nikol@@ 7543
Dami@@ 7542
ović 7540
ulia 7539
Dylan 7535
oko 7532
Death 7529
Mog@@ 7517
GB 7514
Honda 7514
AG 7512
radar 7511
Pent@@ 7508
topo@@ 7508
reti@@ 7498
B.@@ 7496
Guy 7496
Sky 7490
450 7489
Eu@@ 7489
Fid@@ 7488
ien@@ 7488
unya 7486
uth 7482
Tib@@ 7480
Beng@@ 7479
Boc@@ 7478
Euphor@@ 7478
ader 7476
ry@@ 7474
Challenger 7473
panel 7472
Local 7470
Milit@@ 7470
Hot@@ 7468
tics 7467
orno 7466
1600 7462
Rat@@ 7456
ingham 7454
LC 7453
Dim@@ 7452
iti 7450
tri 7450
TO@@ 7447
andi@@ 7447
tof@@ 7444
concurr@@ 7442
uni 7440
semi 7439
lex@@ 7435
Bob@@ 7434
1826 7432
Utah 7432
Bush 7428
Donn@@ 7427
Sn@@ 7426
wi@@ 7425
Cook 7424
Ferrari 7424
oid@@ 7423
enny 7421
files 7421
zz@@ 7419
Bed@@ 7415
claves 7415
170 7414
ça 7414
Rid@@ 7411
anor@@ 7410
sax@@ 7409
BM@@ 7407
Kap@@ 7406
opin@@ 7406
Clem@@ 7405
polar@@ 7404
métr@@ 7397
Cou@@ 7396
Sl@@ 7392
Byr@@ 7390
Art@@ 7386
sional 7386
Ann 7377
Jen@@ 7377
homo@@ 7376
Claudia 7374
Bach 7373
Lap@@ 7373
Sap@@ 7372
Cros@@ 7370
Pan 7370
Amad@@ 7369
oux 7369
Budapest 7368
reli@@ 7368
otti 7366
USS 7362
Baj@@ 7359
igr@@ 7358
Apr@@ 7356
BO@@ 7356
Norman 7355
Kim@@ 7351
Defin@@ 7350
yd@@ 7349
Willi@@ 7347
Nancy 7346
oda 7346
Sah@@ 7344
chan 7343
tac@@ 7340
val 7338
Rock@@ 7337
cogni@@ 7336
lon 7324
Evans 7322
acomp@@ 7322
vik@@ 7321
Ontario 7319
Cen@@ 7318
Gaz@@ 7318
adia 7318
Gilbert 7314
Sound 7313
Angola 7310
Urban@@ 7306
P.@@ 7299
Cór@@ 7297
inge 7293
Disco@@ 7291
Songs 7291
Delta 7288
skaya 7286
Kate 7283
Barb@@ 7281
eck@@ 7277
atis 7274
Express 7273
Dum@@ 7272
wan 7272
kel 7271
lex 7270
lee 7269
Last 7267
judi@@ 7267
sw@@ 7263
1829 7262
TS 7259
uck 7258
Resol@@ 7254
macro@@ 7254
atom@@ 7250
siti@@ 7249
bern@@ 7248
dre@@ 7246
Chart 7244
Pag@@ 7243
Map@@ 7240
CP 7238
Fred 7237
DI 7235
Pra@@ 7230
trig@@ 7225
Cairo 7220
RT 7217
Has@@ 7215
EM@@ 7214
Ok@@ 7214
Shang@@ 7214
Vul@@ 7208
1831 7207
Andre@@ 7205
Dub@@ 7205
18,@@ 7204
Blu@@ 7203
codice 7200
Tun@@ 7196
ron 7196
GP@@ 7194
inaugural 7192
County 7189
bon 7187
Sha@@ 7186
Laz@@ 7182
Marx 7179
USD 7176
Mord@@ 7175
Ernst 7169
n. 7168
sy@@ 7164
1828 7163
Adolf 7163
Net@@ 7163
Reich 7163
Just@@ 7162
Ron@@ 7161
Venez@@ 7161
Ster@@ 7160
Kos@@ 7156
ket 7155
Pant@@ 7154
Latin 7151
Rav@@ 7149
Out@@ 7146
Bask@@ 7145
Tales 7144
ward 7144
Danny 7143
3.000 7141
ocer@@ 7139
zur@@ 7139
LGBT 7138
Wur@@ 7136
miz@@ 7136
Ley@@ 7132
issa 7132
Morris 7130
inia 7129
Gel@@ 7125
20.@@ 7124
wo@@ 7119
Sing@@ 7117
1832 7116
Bond 7115
Georg 7114
Herbert 7110
Musical 7107
oug@@ 7107
Da 7105
ishi 7101
PP@@ 7099
dal 7097
3,5 7092
ndi@@ 7089
alen 7085
He 7084
Bobby 7082
ave@@ 7082
ants 7081
rap 7080
Water@@ 7078
ures 7075
Bundesliga 7072
jed@@ 7072
Research 7071
enko 7071
osh@@ 7068
aft 7065
cela 7065
ulan 7065
Baker 7064
Kentucky 7064
grec@@ 7060
tiller@@ 7056
Wagner 7054
elem@@ 7054
tney 7053
islam 7052
GM 7049
Japan 7045
Ye@@ 7039
infer@@ 7039
chim@@ 7036
ck@@ 7036
iria 7036
ê@@ 7036
sch 7033
Xbox 7032
daf@@ 7030
releg@@ 7028
metabol@@ 7027
For 7024
X. 7023
That 7017
Yar@@ 7017
Light 7016
Nebraska 7015
ina@@ 7015
persu@@ 7014
Day@@ 7013
lep@@ 7012
18.@@ 7008
Ma 7008
Michelle 7005
Zen@@ 7004
Netflix 7002
Palermo 6999
Warren 6999
Steph@@ 6997
pé@@ 6996
Muhammad 6994
zam@@ 6993
Drag@@ 6990
Get@@ 6990
Gold 6990
ense@@ 6990
confront@@ 6989
ecti@@ 6989
oker 6989
An 6988
CP@@ 6988
s.@@ 6988
Clo@@ 6982
dium 6982
Vancouver 6981
incer@@ 6979
enten 6978
Nem@@ 6975
Py@@ 6975
aniz@@ 6972
Rou@@ 6971
36@@ 6967
Masters 6966
First 6962
EL@@ 6961
ennes 6958
Helena 6957
Kurt 6950
off@@ 6950
app@@ 6949
Back 6948
Neil 6948
46@@ 6944
Force 6943
fé@@ 6943
oku 6934
Cla@@ 6932
olan 6931
SE 6929
avi 6929
abi 6928
119@@ 6924
Tommy 6920
Resp@@ 6916
34@@ 6915
Nick@@ 6914
Pref@@ 6913
Wel@@ 6913
ínsula 6912
Connecticut 6911
Grace 6911
opti@@ 6910
Phil 6909
F.C. 6907
cabec@@ 6903
wen@@ 6903
GP 6898
ovi@@ 6890
33@@ 6888
37@@ 6888
Arnold 6886
ka@@ 6886
Afr@@ 6880
AV@@ 6879
Dé@@ 6876
Roland 6872
Aj@@ 6871
Boul@@ 6870
Ox@@ 6870
Dres@@ 6869
ret 6869
bot 6867
Dean 6866
May 6864
icho 6857
19,@@ 6853
SS@@ 6853
Tu 6853
Zu@@ 6851
istan 6850
Arsenal 6848
tens@@ 6848
Tat@@ 6847
mach@@ 6842
IF@@ 6841
Gamb@@ 6840
bek@@ 6839
Web 6838
bay@@ 6836
Dragon 6832
idge 6830
Hills 6829
Master 6828
SmackDown 6827
Griff@@ 6825
oscop@@ 6825
ever@@ 6823
IBM 6822
Tud@@ 6821
alli 6821
Atl@@ 6819
Gul@@ 6816
Like 6815
hat@@ 6815
Sist@@ 6814
20,@@ 6813
Sob@@ 6813
bad 6811
Line 6810
Hart@@ 6809
burn 6809
Story 6806
Avenue 6805
superi@@ 6802
acres 6800
agog@@ 6795
eh 6794
kan 6794
Larry 6791
diese 6790
Bug@@ 6789
odon 6788
− 6786
Bella 6785
ités 6784
pora 6784
temp@@ 6781
p.@@ 6780
lende 6775
Liz@@ 6774
att 6774
odo@@ 6772
Dra@@ 6771
Sky@@ 6771
Yor@@ 6769
Kun@@ 6765
afor@@ 6765
Gard@@ 6758
ime@@ 6756
facil@@ 6755
Maine 6754
Ny@@ 6754
sales 6749
múlti@@ 6748
ARC 6747
Shu@@ 6747
ement 6747
down 6746
ires 6744
illi@@ 6742
ionales 6742
tt@@ 6742
aw 6741
Ath@@ 6738
spe@@ 6736
ME 6735
Newton 6735
Farm@@ 6734
orig@@ 6730
Matthew 6725
UNESCO 6725
portu@@ 6724
Sri 6722
finanz@@ 6721
dh@@ 6720
Harold 6719
Bron@@ 6718
racial 6718
SU@@ 6717
nier 6716
Leon 6713
bud@@ 6713
rej@@ 6710
DT 6709
owski 6708
ES 6705
Financi@@ 6705
Normal 6705
Tah@@ 6704
bay 6704
zy@@ 6703
Had@@ 6700
imbo 6700
š 6697
Stars 6696
rist@@ 6696
Walt 6693
Capr@@ 6691
gy 6690
uva 6690
Dream 6688
év@@ 6686
adém@@ 6685
og 6680
unk@@ 6679
Gem@@ 6676
bach@@ 6675
Sug@@ 6674
Pompe@@ 6672
Sonic 6670
my 6663
Cay@@ 6662
Laf@@ 6662
rett 6655
Building 6653
Program@@ 6653
didae 6652
Siberia 6651
Ide@@ 6650
berger 6650
mites 6646
O.@@ 6645
Antoine 6643
mia 6643
agar 6642
ilan 6642
GT@@ 6641
hél@@ 6641
Desarr@@ 6640
zen 6639
Inv@@ 6632
Ball 6631
ive 6629
avirus 6628
Guy@@ 6627
Zi@@ 6625
1816 6624
partam@@ 6623
Santi@@ 6622
leo 6622
Sebastian 6621
indo 6620
erer 6617
Gon@@ 6614
45@@ 6607
Films 6607
Wood 6604
borg 6601
1817 6598
clim@@ 6598
pers 6594
Fas@@ 6593
lands 6592
sand@@ 6592
Equ@@ 6586
Jon@@ 6586
oc 6583
Baltimore 6580
Miles 6575
wer@@ 6574
Pass@@ 6573
Raymond 6572
Tod@@ 6568
MP 6566
sho@@ 6566
Kot@@ 6565
Sean 6564
playoffs 6560
Run@@ 6558
Eth@@ 6557
star@@ 6557
Hermann 6556
util@@ 6554
Land 6552
Tan 6552
Bail@@ 6551
anaj@@ 6545
ana@@ 6538
bet 6538
omi 6534
Histori@@ 6533
unter@@ 6531
Rita 6526
Conference 6525
Rig@@ 6525
Peg@@ 6524
1819 6516
Bres@@ 6516
han@@ 6514
tades 6513
oka 6510
Nazar@@ 6508
delta 6508
dent@@ 6508
Bit@@ 6507
arom@@ 6505
Bj@@ 6500
xe 6499
T.@@ 6497
Mitchell 6496
How@@ 6495
Jal@@ 6490
Lane 6490
Roman@@ 6489
idal 6489
ose 6489
Christ@@ 6488
actus 6486
Chan@@ 6485
ric 6484
115@@ 6483
Pietro 6481
lati@@ 6481
osoma 6480
Stan@@ 6479
elly 6478
Expl@@ 6477
Guil@@ 6476
cem@@ 6476
Soccer 6473
Herzeg@@ 6472
ici 6469
Martha 6467
Nos@@ 6467
uld 6464
ago@@ 6460
Fire 6459
come 6459
Family 6457
Mack@@ 6453
Susan 6452
Luigi 6451
iche 6451
Nicol@@ 6450
hus@@ 6450
alo@@ 6449
Amy 6448
Café 6448
Aux@@ 6445
MS@@ 6444
Multi@@ 6444
Leipzig 6443
kel@@ 6443
asp@@ 6442
Hesse 6439
118@@ 6438
dum@@ 6437
idem@@ 6434
Bart 6433
Lenn@@ 6433
Sainte 6431
iral 6431
UE@@ 6429
hibi@@ 6428
Row@@ 6427
dop@@ 6427
ains 6425
ô@@ 6424
pol 6423
verb@@ 6410
gie 6409
Europ@@ 6408
Ken 6408
João 6407
sech@@ 6407
19.@@ 6405
Ez@@ 6405
Lloyd 6405
Lus@@ 6405
Teh@@ 6404
End 6403
Haz@@ 6400
éli@@ 6398
adier 6397
privil@@ 6392
buc@@ 6384
insul@@ 6384
21.@@ 6380
uchi 6380
Barbara 6378
Blues 6378
pseud@@ 6378
decre@@ 6377
Law@@ 6373
Roosevelt 6370
kal@@ 6370
1809 6367
horizont@@ 6362
ris@@ 6361
Int@@ 6359
hist@@ 6358
azzo 6355
ful@@ 6354
38@@ 6353
album 6353
xico 6352
hormon@@ 6351
Ceb@@ 6347
Joaqu@@ 6347
Two 6345
Nin@@ 6343
nev@@ 6336
Islam 6331
verd@@ 6331
ery 6329
ior 6329
ò@@ 6329
country 6328
1827 6327
Fred@@ 6327
Edwards 6325
II@@ 6324
Campus 6322
WA 6322
zh@@ 6319
Spor@@ 6318
Cross 6316
gris@@ 6316
Mang@@ 6315
Marino 6313
lau@@ 6312
asha 6311
DI@@ 6309
1.5 6308
Lamb@@ 6307
Summer 6306
oval 6306
Frederick 6305
ost 6304
you 6302
UC 6301
apata 6301
afe 6299
annon 6295
Helsinki 6294
ony@@ 6293
Zor@@ 6290
horiz@@ 6290
monstr@@ 6289
Uz@@ 6288
2.0 6285
icky 6285
Daily 6284
DP 6281
star 6279
Euc@@ 6278
Ey@@ 6278
e.@@ 6278
Europe 6276
Progres@@ 6273
Samp@@ 6272
pris@@ 6271
Tay@@ 6269
confin@@ 6269
eton 6269
Rodrigu@@ 6265
aret 6260
idan 6259
Linda 6258
Prince 6255
Plas@@ 6252
ring 6252
Dick 6248
uer 6248
102 6247
final@@ 6247
ball 6246
135 6244
Brid@@ 6241
ael 6238
paro@@ 6238
Bros 6237
Vide@@ 6237
Olga 6232
icks 6231
ats@@ 6230
eb 6230
Daw@@ 6229
Rachel 6228
ond 6228
Rogers 6226
4000 6224
ibe 6223
eum 6218
α 6218
andi 6217
inde 6217
Fam@@ 6216
uru 6216
azz@@ 6215
endi 6212
Jas@@ 6211
Č@@ 6210
Denis 6207
Collins 6206
kon@@ 6206
Portugu@@ 6204
web@@ 6204
Will@@ 6203
Project 6201
Woman 6201
toria 6201
Yah@@ 6200
ahn 6197
fach@@ 6197
Jov@@ 6195
vector 6195
zer 6192
residi@@ 6191
Val 6190
128 6189
inski 6189
DF 6187
Chelsea 6186
Cit@@ 6183
100.000 6182
terior 6182
ames 6174
puls@@ 6173
1.000 6170
Ron 6167
mini 6165
Dj@@ 6160
Jennifer 6160
tum 6160
entu@@ 6158
Bass@@ 6157
aro@@ 6156
Motor@@ 6154
Ralph 6154
jal@@ 6153
olig@@ 6152
1818 6150
Romeo 6150
uses 6143
gros@@ 6141
EC 6139
22.@@ 6137
Ord@@ 6135
orada 6134
inn 6133
Centre 6131
Wang 6129
auss 6126
People 6122
UR@@ 6118
Whe@@ 6117
Nah@@ 6116
bron@@ 6115
Rangers 6114
Pueb@@ 6113
muda 6111
Bryan 6109
ju 6109
IB@@ 6108
SI 6107
Afric@@ 6106
Emilia 6106
uke 6106
Anton 6105
Rah@@ 6103
Slam 6100
Sv@@ 6099
Gad@@ 6094
Garcia 6093
face 6093
EL 6090
clo@@ 6090
Luke 6088
vić 6087
nis 6086
Oreg@@ 6084
aven 6082
20.000 6080
Emir@@ 6080
ordenadas 6080
egem@@ 6079
iris 6079
iTunes 6078
AB 6076
Oh 6076
ture 6076
Dow@@ 6074
Personal 6073
Spar@@ 6073
ste 6070
Ich@@ 6067
opter@@ 6066
out@@ 6062
Singles 6059
Yos@@ 6055
NFL 6051
Foundation 6049
GA 6049
ulu 6049
aid@@ 6048
pren@@ 6048
Kus@@ 6044
Portland 6043
Wild 6043
ege 6042
Yak@@ 6040
70@@ 6039
Bonn@@ 6039
47@@ 6038
Party 6037
öl@@ 6035
say@@ 6033
Ronald 6032
Tang@@ 6032
onz@@ 6028
guil@@ 6020
say 6016
yen@@ 6016
Aquit@@ 6014
Que@@ 6014
reality 6014
Philippe 6011
eld 6011
CM@@ 6009
opot@@ 6003
Archi@@ 5999
100@@ 5998
ISO 5998
Manila 5998
1806 5997
Prix 5995
TE 5995
cili@@ 5993
Benn@@ 5992
ders 5991
humo 5991
ollo 5990
ather 5986
Hunter 5985
Lomb@@ 5985
ever 5983
Roberts 5982
advoc@@ 5981
wer 5981
10.000 5980
elig@@ 5980
PM 5976
Johannes 5975
ako 5975
Ghana 5974
Mann@@ 5973
heavy 5973
UA 5969
Ivan 5968
Darwin 5966
wh@@ 5966
Software 5965
ayan 5965
oidea 5963
Jr. 5962
clusi@@ 5962
Birmingham 5960
FBI 5960
Associ@@ 5959
Montana 5959
arab@@ 5959
ld@@ 5959
déj@@ 5958
igny 5958
nik@@ 5955
Tanzania 5954
Wolf 5954
ablan@@ 5953
didad 5953
acet@@ 5951
Ernest 5950
cle 5950
kes 5945
1700 5944
Keith 5943
104 5941
Hag@@ 5939
Key@@ 5936
Shak@@ 5934
Motor 5932
Ther@@ 5932
greg@@ 5932
22@@ 5931
Gos@@ 5931
Vog@@ 5929
scrip@@ 5929
Cres@@ 5928
valu@@ 5928
Dennis 5926
Pist@@ 5926
Up@@ 5926
ET 5924
PL@@ 5924
Silver 5923
tice 5922
fluor@@ 5921
Stre@@ 5919
sion 5919
anatom@@ 5917
Stein@@ 5916
Gray 5914
int 5914
rid@@ 5914
aia 5913
got@@ 5913
D.C. 5912
Diam@@ 5912
recipi@@ 5910
Ultimate 5908
zin@@ 5907
ells 5906
Marcel 5905
astía 5904
kir@@ 5904
By@@ 5903
Lour@@ 5903
eland 5900
isha 5898
convic@@ 5896
offs 5895
Flash 5893
Concer@@ 5892
gers 5892
ovo 5891
Andor@@ 5890
Tet@@ 5890
abra 5890
adounid@@ 5887
folk 5886
less 5884
aku 5883
Fitz@@ 5882
Atlantic 5876
Rut@@ 5875
Wikipedia 5874
Mans 5873
Place 5873
atan 5873
115 5872
Ré@@ 5872
108 5871
Dick@@ 5870
head 5867
Hall@@ 5862
Syl@@ 5862
103 5859
Stor@@ 5858
NCAA 5857
NT@@ 5853
CR@@ 5850
Paolo 5847
Dram@@ 5844
ezo 5844
tak@@ 5844
lier 5843
tari 5843
Fat@@ 5841
yev 5841
AI 5840
uti 5835
ander 5833
1,2 5830
Tou@@ 5827
.S. 5826
Pati@@ 5826
acul@@ 5826
escu 5821
39@@ 5818
lidae 5818
Abel 5816
Vier@@ 5816
Spencer 5815
TP 5810
£ 5806
Country 5805
by@@ 5805
Kirch@@ 5804
109 5802
Justin 5801
1789 5800
CAF 5800
Vladimir 5799
nau@@ 5799
21,@@ 5798
Ves@@ 5796
aru 5796
lang@@ 5795
GI 5793
Magic 5789
Jung 5783
Four 5781
Murphy 5779
abo 5778
49@@ 5777
Von 5777
Forest 5773
Fort@@ 5773
stadt 5773
melan@@ 5767
ils 5766
atamente 5765
Helen 5764
Brad@@ 5763
Come 5763
Leb@@ 5763
Bowl 5762
Bar 5761
Utr@@ 5760
Vinc@@ 5760
Urugu@@ 5759
ursos 5756
lengu@@ 5754
Jesus 5753
Over@@ 5752
istes 5749
ë 5749
ode 5748
Oslo 5747
Rin@@ 5746
aura 5743
sets 5740
Earth 5739
cera 5737
Rural 5732
Sent@@ 5732
Fuj@@ 5731
Berkeley 5727
220 5725
Benjam@@ 5724
opar@@ 5723
So 5722
istem@@ 5721
Camp 5719
leuc@@ 5719
sign@@ 5719
zen@@ 5719
Nepal 5718
Ou@@ 5718
ingia 5714
ö 5714
has 5712
Gior@@ 5708
Zam@@ 5707
CI 5705
Christi@@ 5704
Lanka 5701
Armstrong 5697
sigui@@ 5697
Tari@@ 5695
one@@ 5693
asse 5692
Kub@@ 5691
ology 5688
Cari@@ 5686
Glasgow 5686
Industri@@ 5686
Sed@@ 5686
Irene 5685
Wer@@ 5684
uten 5684
Garc@@ 5679
Knight 5679
Ted 5678
Book 5676
1.0@@ 5675
lit 5669
Cho@@ 5667
Once 5667
Six@@ 5666
dance 5666
Productions 5663
Sib@@ 5660
Syn@@ 5654
Tour@@ 5654
Lenin 5652
Jessica 5651
chap@@ 5651
August 5649
opus 5649
1790 5645
IG@@ 5645
Miy@@ 5645
hen@@ 5645
Alex@@ 5644
uli 5643
HP 5642
amen 5641
1793 5640
Catherine 5640
but 5640
fes 5640
Og@@ 5638
Gib@@ 5634
aram@@ 5634
SD 5632
Gram@@ 5631
Dame 5626
22,@@ 5623
Coll@@ 5622
Lost 5621
Til@@ 5619
Pomer@@ 5618
Cannes 5617
jan@@ 5616
Android 5614
Leonard 5614
Luz@@ 5613
lor 5611
neu@@ 5611
240 5610
quen 5610
Nur@@ 5609
usta 5609
alls 5608
Ni 5607
acter@@ 5607
aup@@ 5607
IO@@ 5604
Elli@@ 5603
U.@@ 5601
~ 5601
ous@@ 5597
Galil@@ 5595
Anast@@ 5593
anum 5591
arme 5591
ić 5591
bun@@ 5587
eville 5586
hilo 5586
Rit@@ 5585
Finanz@@ 5584
23.@@ 5582
enburg 5582
manch@@ 5582
Tad@@ 5579
ights 5579
Stuart 5578
aver 5578
edonia 5578
Concep@@ 5573
Just 5572
Tru@@ 5572
Bin@@ 5571
Cole 5571
Pete 5569
Isab@@ 5568
Terminal 5565
Champions 5563
1753 5562
investi@@ 5561
Poli@@ 5560
seudo@@ 5559
Rob 5557
ough@@ 5557
Sic@@ 5556
balance 5556
ebe 5553
ef 5553
odor@@ 5552
2.5 5550
Buch@@ 5548
Wall 5544
MI 5542
Car 5541
Asp@@ 5539
Figh@@ 5539
Mountain 5539
ore@@ 5538
26,@@ 5537
Myr@@ 5537
Brah@@ 5536
singles 5536
G.@@ 5535
Gy@@ 5535
unt 5535
24,@@ 5533
evich 5532
Sanc@@ 5531
tom 5531
Louise 5530
amoto 5530
Gó@@ 5526
Western 5526
Village 5525
Watson 5525
auer 5525
Electric 5524
Bonaparte 5522
Sé@@ 5522
Tower 5520
ER 5518
dog@@ 5516
Horiz@@ 5515
aming 5515
Let 5514
insk 5514
Hz 5513
mel 5512
PN 5511
25,@@ 5510
Parad@@ 5508
Hart 5506
Hend@@ 5505
bel 5504
Der 5503
sag@@ 5503
zy 5502
Charl@@ 5500
marketing 5499
rapid@@ 5499
Mind@@ 5498
stor@@ 5497
agi 5496
eon@@ 5493
ā 5493
GC 5489
acks 5486
Free 5485
far 5479
ambo 5478
imin@@ 5478
Jab@@ 5477
Put@@ 5477
mate 5475
isés 5473
zan@@ 5472
ě@@ 5471
Priv@@ 5468
4.000 5465
icum 5465
aman 5464
bat 5464
Toulouse 5463
Vu@@ 5463
Cameron 5461
Latino 5461
Beethoven 5460
Distr@@ 5460
Zero 5460
Scor@@ 5459
Pacific 5458
107 5455
Aber@@ 5450
ensen 5446
use@@ 5446
emann 5444
illon 5442
chal@@ 5441
Off@@ 5440
Rotten 5439
Betty 5437
Freder@@ 5431
0,5 5430
Craig 5428
Mega 5428
Hig@@ 5426
suscep@@ 5424
Tyler 5422
onces@@ 5420
Kum@@ 5419
icial 5418
Áng@@ 5418
altitu@@ 5417
anthus 5415
zon@@ 5415
odes 5413
Nord@@ 5412
robot 5412
Suz@@ 5409
Artiller@@ 5408
icz 5408
born 5405
106 5404
fi 5404
ś@@ 5404
NS@@ 5403
kW 5403
High@@ 5400
Niv@@ 5400
mon 5394
ardi 5391
Erik 5390
111 5389
trio 5388
arius 5386
Fra@@ 5384
Wallace 5384
Ago@@ 5383
abras 5383
pm 5383
Alo@@ 5382
Big@@ 5382
19@@ 5381
Josh 5380
Model 5375
FF 5373
IT 5372
Ble@@ 5369
Jules 5368
antha 5368
Individ@@ 5367
Wrest@@ 5367
Holstein 5366
1792 5364
Are 5364
Uganda 5364
Mozambi@@ 5363
yon@@ 5363
Math@@ 5361
Morrison 5361
lech@@ 5360
quier 5360
iya 5359
† 5358
AE 5355
John@@ 5355
4,5 5354
Barn@@ 5353
inho 5352
adio 5351
Blake 5350
thy 5347
revol@@ 5346
Kö@@ 5344
Total 5344
cast 5344
obj@@ 5344
óvenes 5343
Eas@@ 5342
Hugh 5340
Obama 5340
Alternati@@ 5336
ily 5335
tropo@@ 5332
anie 5330
gel 5330
Cyr@@ 5329
iel 5328
esh 5327
Jin 5326
ozo@@ 5326
Reich@@ 5325
atha 5325
ombo 5323
112 5321
114@@ 5321
Marc@@ 5321
rag@@ 5320
Aaron 5318
Jin@@ 5317
Nicholas 5315
Dog@@ 5312
Augusta 5311
Sullivan 5311
plo@@ 5311
rim@@ 5311
Now 5310
draft 5310
Get 5309
Jag@@ 5308
music 5308
né@@ 5308
90@@ 5307
vé 5306
Ander@@ 5305
Senegal 5305
andin@@ 5305
Bod@@ 5303
Kosovo 5302
Yas@@ 5302
eor@@ 5302
icon 5300
pard 5300
pha 5300
Aster@@ 5293
depres@@ 5292
aux@@ 5291
ute 5290
aker 5289
uerto 5289
CS 5288
anat@@ 5288
Hell@@ 5284
futbol 5283
enton 5282
117@@ 5278
Harvey 5278
ayn@@ 5276
CN 5274
aton 5271
Wolfgang 5270
Match 5269
Stan 5268
anol 5268
institut@@ 5268
enni@@ 5266
opp@@ 5263
Lucy 5262
HS 5261
Sti@@ 5261
1807 5259
1801 5258
Shaw 5252
Flu@@ 5251
Blood 5250
Business 5249
Heli@@ 5249
Mug@@ 5246
23,@@ 5244
Artem@@ 5243
glu@@ 5243
Kre@@ 5239
Palmer 5238
ony 5237
éni@@ 5234
énez 5232
vic 5230
ouv@@ 5229
Joel 5228
Open@@ 5224
name 5223
test 5220
single 5218
Claire 5216
pter@@ 5215
Greg 5210
Lynch 5210
controversi@@ 5210
Spir@@ 5208
Reed 5207
ages 5207
ush 5207
yst@@ 5206
48@@ 5201
wa@@ 5201
Schw@@ 5198
27,@@ 5196
tle 5196
vat@@ 5196
édi@@ 5191
urt 5190
motor@@ 5189
Aleksandr 5186
Nich@@ 5186
Bristol 5185
Field 5185
dioc@@ 5184
Emily 5183
Mans@@ 5183
Owen 5183
Rac@@ 5182
oslav@@ 5182
Carp@@ 5181
dov@@ 5180
azi@@ 5179
RCA 5178
Fav@@ 5176
eux 5176
Box@@ 5174
Johan 5174
Chem@@ 5172
Aub@@ 5171
Four@@ 5163
herr@@ 5163
hir 5161
King@@ 5159
Ruth 5159
insist@@ 5159
aks 5156
ucci 5156
Hut@@ 5155
till@@ 5154
320 5153
Guill@@ 5153
Carol 5152
iff 5152
Dil@@ 5151
Hop@@ 5151
Madame 5150
sons 5150
bu 5147
dru@@ 5147
PE 5146
ives 5145
yin 5143
EP@@ 5141
mouth 5140
lington 5139
BMW 5137
Major 5137
famili@@ 5133
Chevrolet 5132
eka 5132
Hispania 5131
Chad 5129
dict@@ 5129
Monroe 5128
NXT 5128
Not 5128
conqu@@ 5128
dell 5119
gli@@ 5114
ox 5114
obje@@ 5113
ater 5112
ray 5112
ș@@ 5111
lins 5109
ards 5106
Milan 5105
Boliv@@ 5104
atu 5103
Feli@@ 5101
Neb@@ 5099
Sis@@ 5098
Hob@@ 5097
now@@ 5094
Identi@@ 5093
RAM 5093
rang@@ 5093
1794 5091
fem@@ 5089
History 5088
Zur@@ 5088
ladi@@ 5088
Mess@@ 5085
Tel 5084
ī 5084
esin@@ 5078
rier 5078
Mount 5077
ET@@ 5074
Queensland 5074
folkl@@ 5072
2500 5069
Music@@ 5069
Stuttgart 5066
Ve@@ 5066
eston 5064
sha 5064
FL 5063
Nab@@ 5063
Ward 5063
try 5062
Scre@@ 5061
0s 5058
25.@@ 5058
1803 5057
Gibson 5056
Perf@@ 5052
ata@@ 5048
atio 5048
ilis 5047
lot@@ 5047
TR@@ 5046
1300 5045
Bull 5045
Springs 5045
Hey@@ 5043
Guardian 5042
cis 5042
Mercur@@ 5041
lama 5041
1805 5032
aster 5032
bers 5032
pay@@ 5032
Edge 5031
Law 5030
Gustav 5029
European 5028
chan@@ 5023
eir@@ 5023
dae 5022
Bry@@ 5020
dé 5020
Jol@@ 5019
Mohamed 5019
Squ@@ 5018
Chen 5016
bor 5013
App@@ 5009
réc@@ 5007
Giac@@ 5005
Guerr@@ 5005
Soul 5004
Marin@@ 5003
Zhang 5000
jana 5000
tex 4999
Balt@@ 4998
Probl@@ 4998
elen 4997
ST 4995
gina 4995
Ō@@ 4994
gau@@ 4993
fan 4991
Mason 4988
exhaus@@ 4988
Ž@@ 4985
IR@@ 4983
igen@@ 4982
sei 4982
Ins@@ 4977
Olimpi@@ 4977
ficios 4977
Tall@@ 4976
pp 4976
PG 4975
oud 4974
Thr@@ 4972
190 4969
Tomatoes 4968
essa 4968
Ced@@ 4967
Emmy 4965
Ard@@ 4963
fusi@@ 4963
Autonom@@ 4961
uan 4961
Maya 4959
Clarke 4958
Kids 4958
Econom@@ 4956
idir 4956
Holmes 4955
Karen 4955
Race 4955
pia 4952
PR 4951
iner 4951
Hope 4949
Zeus 4949
Salz@@ 4948
Glo@@ 4947
kinson 4946
Sud 4945
Relig@@ 4944
anom@@ 4944
ieu 4944
Pittsburgh 4943
Plus 4943
Alexandre 4942
Price 4942
Atlan@@ 4941
AFC 4940
Hak@@ 4940
Kaw@@ 4940
More 4940
Seb@@ 4940
disi@@ 4938
1795 4935
Was@@ 4935
tho@@ 4934
Inter 4930
Mih@@ 4930
Denver 4929
Hughes 4928
Shim@@ 4927
Ris@@ 4924
28,@@ 4923
Kane 4923
sibles 4923
Neur@@ 4922
Telef@@ 4922
dier 4919
Sci@@ 4918
Infin@@ 4917
Desp@@ 4916
Gaza 4916
Toyota 4916
neb@@ 4916
́ 4916
Beh@@ 4914
automati@@ 4914
Isa@@ 4912
Dí@@ 4910
lov 4910
ulus 4909
Wu 4907
Battle 4905
Machine 4903
44@@ 4902
24.@@ 4899
hara 4898
Mexico 4897
kor@@ 4896
Rudolf 4893
fugi@@ 4893
Jum@@ 4892
Wells 4889
auc@@ 4888
Kō@@ 4883
Alfa 4882
Dioc@@ 4882
Gog@@ 4882
Stef@@ 4882
yat@@ 4882
Rhy@@ 4880
Innov@@ 4879
ulio 4879
Hand@@ 4878
116@@ 4877
Panzer 4875
1804 4874
Hardy 4874
Roman 4874
ID 4873
Schleswig 4873
Julian 4872
Lanc@@ 4872
26.@@ 4871
Gis@@ 4871
Lil@@ 4871
unga 4870
Nach@@ 4869
0,000 4868
nu 4868
230 4867
Leh@@ 4865
Wak@@ 4864
aume 4863
golf 4863
anor 4862
nal 4861
oir 4861
dei 4860
6.000 4859
Osaka 4858
ande 4857
glo@@ 4857
Drive 4855
Sev@@ 4855
MHz 4852
Gast@@ 4851
Organ@@ 4851
osus 4850
emi 4849
kw@@ 4849
Head 4842
Phillips 4838
yu@@ 4836
Pokémon 4835
,@@ 4833
Zul@@ 4830
Pall@@ 4829
tat@@ 4827
otte 4826
Fan@@ 4825
South@@ 4825
Adap@@ 4823
Pink 4823
uka 4823
water 4823
Ferdinand 4821
categ@@ 4821
very 4821
alaya 4820
MB 4819
Drake 4814
utar@@ 4814
Jesse 4813
Am 4812
alam@@ 4812
sah@@ 4812
subs@@ 4812
Butler 4811
Grey 4810
AV 4807
Ost@@ 4807
Potter 4807
113@@ 4802
Wars 4801
undan 4799
Yale 4796
Kiss 4793
ink 4792
tie 4790
Poly@@ 4787
Wall@@ 4786
eber 4784
pod@@ 4784
Impact 4783
Hockey 4779
Wander@@ 4776
Futbol 4775
Mania 4774
ers@@ 4771
islam@@ 4771
under 4771
win@@ 4771
yro@@ 4771
Tang 4770
Ling@@ 4764
Metacritic 4763
114 4760
Kob@@ 4760
Randy 4758
Lopez 4757
ved@@ 4757
Seven 4754
123 4753
1802 4752
Foster 4751
qua 4751
Abd 4750
imar@@ 4750
lair 4750
lett 4749
Ltd 4748
sy 4748
not 4747
Hed@@ 4745
Kid 4745
CL@@ 4744
175 4743
Holocaus@@ 4740
127 4738
invasi@@ 4737
From 4735
Diplom@@ 4734
1780 4732
Chuck 4732
29,@@ 4731
Brunswick 4730
Raz@@ 4729
Germain 4728
blog 4727
Office 4726
ovic 4726
oki 4725
Century 4721
Grove 4721
Canada 4719
1799 4717
Ring 4717
robot@@ 4717
ross 4716
Elem@@ 4713
roy 4713
Felix 4712
Milton 4711
93.@@ 4710
Nati@@ 4710
Side 4710
dipl@@ 4710
Eugene 4709
Gest@@ 4708
turn@@ 4707
1791 4705
Volkswagen 4705
Todd 4703
Hell 4697
entin 4697
Nig@@ 4694
Secret 4694
Boris 4693
è 4693
Sweet 4691
vall@@ 4691
acon 4690
bridge 4689
Ear@@ 4687
With 4686
eber@@ 4685
Þ@@ 4685
Chand@@ 4684
chur@@ 4684
FK 4682
Yer@@ 4681
box 4681
etz 4681
6000 4680
Angelo 4680
Swift 4680
ellen@@ 4680
Jagu@@ 4678
inti@@ 4678
210 4677
Jo 4676
anche 4676
insky 4676
Marcus 4675
ahl 4674
arium 4673
Church 4672
Cohen 4672
MW 4672
wen 4671
Kyle 4670
eon 4670
65@@ 4669
Richards 4669
Banglad@@ 4668
Chev@@ 4668
Gregory 4665
Sph@@ 4665
vier@@ 4665
EMI 4663
EN 4663
Slo@@ 4661
ean@@ 4659
radio@@ 4657
β 4657
tabl@@ 4653
ML 4652
eps 4651
55@@ 4650
Zimbab@@ 4648
Alman@@ 4646
Moy@@ 4644
1798 4642
Chim@@ 4641
Review 4641
ē@@ 4641
IV@@ 4640
haw@@ 4640
Mars 4639
Southern 4639
roll 4638
113 4636
away 4636
Challenge 4635
Edwin 4635
Neill 4633
WWF 4631
ceden 4630
yon 4630
Stanford 4628
Bang 4625
Duke 4624
num@@ 4624
Banks 4623
HBO 4623
ule 4622
124 4621
NH@@ 4618
ayet@@ 4618
inaug@@ 4618
March@@ 4617
Roh@@ 4617
Annie 4616
Dak@@ 4616
Alexis 4614
You@@ 4614
God 4613
Penn@@ 4613
Vik@@ 4613
ids 4613
Kno@@ 4612
Ish@@ 4610
tail@@ 4609
Castil@@ 4608
Los@@ 4605
eur 4605
Pearl 4604
mg 4604
Chr@@ 4603
ý@@ 4603
Cran@@ 4601
Luk@@ 4600
kar 4600
nan@@ 4600
ør@@ 4600
Tsu@@ 4599
Hard 4598
LG@@ 4598
sburg 4598
Morning 4595
Zab@@ 4595
match 4595
1776 4594
ISBN 4594
oh 4594
ru 4594
י@@ 4594
Sail@@ 4591
Gali@@ 4590
Bang@@ 4588
cham@@ 4587
endra 4587
oney 4587
Temple 4582
alie 4582
Buck@@ 4581
Glenn 4580
Tok@@ 4580
Never 4579
122 4578
Chase 4578
Fisher 4577
elius 4577
GE 4576
Tut@@ 4576
kers 4575
new 4575
Andal@@ 4574
Yun@@ 4574
Ł@@ 4573
Lé@@ 4572
contest@@ 4572
Wy@@ 4571
jin 4571
Dark@@ 4570
deon 4569
F1 4568
Spr@@ 4567
Shō@@ 4561
Batt@@ 4559
dre 4558
Are@@ 4557
Sit@@ 4557
org 4552
ói 4552
1797 4547
Unic@@ 4547
121 4546
Stur@@ 4545
Deutsche 4544
Gat@@ 4544
Ptol@@ 4544
eson 4543
jet@@ 4543
Berlin 4540
demasi@@ 4538
Gang@@ 4537
Liberty 4537
isch 4537
kom@@ 4535
Nau@@ 4533
Gle@@ 4530
osper@@ 4530
ornis 4529
Kings 4527
lies 4524
Set@@ 4523
leton 4521
Shah 4520
Calais 4519
ads 4519
Andreas 4517
Ere@@ 4517
CT@@ 4516
dison 4514
CEO 4511
asti@@ 4511
260 4509
optim@@ 4509
Anj@@ 4508
alt 4508
ories 4508
atti 4507
Jake 4506
idental 4506
Ass@@ 4505
aches 4502
Pont 4498
Roth@@ 4498
obe 4497
prime 4497
Kenneth 4494
relativ@@ 4493
Hampshire 4490
Nucle@@ 4488
Tax@@ 4485
1787 4484
Gw@@ 4484
Game@@ 4482
eler 4481
Mim@@ 4479
NAS@@ 4474
Ng@@ 4473
abaj@@ 4473
ful 4472
Thom@@ 4471
Heb@@ 4470
Ahmed 4469
ands 4468
1,3 4466
116 4466
Three 4465
Over 4463
pata 4463
Philadelphia 4462
Cath@@ 4461
Montgomery 4461
Colin 4460
Richmond 4460
Oh@@ 4459
unge 4459
Hospit@@ 4457
leva 4457
Weekly 4456
elop@@ 4455
Oz@@ 4454
aea 4451
Za@@ 4449
English 4447
Mobile 4444
Chor@@ 4442
Navy 4440
Rous@@ 4438
ę@@ 4438
azy 4437
Hill@@ 4436
edil@@ 4436
gens 4436
uega 4436
Bret@@ 4435
Mont 4435
And 4433
Rag@@ 4433
rach@@ 4433
Mab@@ 4432
lu 4432
Somalia 4431
phy@@ 4431
Einstein 4430
Hos@@ 4430
IN 4430
atic 4429
cultur@@ 4429
rain 4429
CO2 4427
oll 4427
43@@ 4426
ky@@ 4426
Wend@@ 4425
roqui@@ 4424
She 4423
Alpha 4421
Service 4421
Liu 4418
grandi@@ 4418
deres 4416
650 4415
dorf 4414
atsu 4411
constat@@ 4411
coll@@ 4410
ull 4410
Eisen@@ 4408
aber 4408
155 4407
acle 4407
Kay@@ 4406
Mercury 4406
gil@@ 4405
CM 4404
asaki 4404
chel@@ 4403
126 4402
ety 4401
Gallery 4400
anic 4400
Hoh@@ 4399
Jim@@ 4398
unanim@@ 4398
Basketball 4397
ative 4397
Cog@@ 4396
Money 4395
ape 4394
ision 4392
traf@@ 4391
aise 4389
amer 4389
Ligue 4388
Crom@@ 4387
boro 4387
Brow@@ 4385
Galaxy 4385
mph 4385
A1 4384
ò 4383
eten 4382
rik 4382
éx@@ 4382
Miner@@ 4381
Page 4381
Sut@@ 4379
Bio@@ 4378
Human 4378
fax 4378
iji 4378
Paramount 4377
Raw@@ 4377
Yu 4377
traj@@ 4377
Instrum@@ 4375
aran@@ 4375
eil@@ 4374
urn 4373
fice 4372
Kenny 4371
Grec@@ 4369
Intel 4369
Weber 4369
ede@@ 4369
Weimar 4367
für 4366
550 4365
Dus@@ 4365
Castle 4364
Beth@@ 4363
einer 4362
Famili@@ 4361
Loy@@ 4361
50.000 4360
ree 4360
quer 4358
Vol 4357
iger 4357
27.@@ 4356
Kle@@ 4356
Pear@@ 4356
0,0@@ 4354
Josef 4354
Werner 4353
light 4353
Domen@@ 4352
acea 4352
Chan 4351
flav@@ 4351
Cuc@@ 4350
Kul@@ 4350
SV 4350
Guang@@ 4349
if 4349
280 4348
Days 4348
Hod@@ 4348
Off 4348
oon 4348
AX 4347
gae 4345
ock@@ 4345
Sten@@ 4344
ID@@ 4343
untam@@ 4343
Labr@@ 4342
Schum@@ 4336
isia 4336
ving 4336
Flo@@ 4335
gun@@ 4335
Wellington 4333
Carol@@ 4332
Chry@@ 4330
Stefan 4330
Midd@@ 4329
NT 4327
Blin@@ 4326
Hamp@@ 4326
ová 4324
lao 4323
1400 4320
Ivan@@ 4316
Sega 4316
estan 4316
sche 4315
vente 4315
Jack@@ 4314
Motors 4314
Lud@@ 4313
Springfield 4313
± 4311
Meyer 4310
Dag@@ 4309
Namibia 4307
bed@@ 4305
Bill@@ 4304
Prof@@ 4304
117 4302
get@@ 4301
works 4301
Premi@@ 4299
fast 4297
Tub@@ 4296
Churchill 4294
volcan@@ 4293
Nassau 4292
UL@@ 4292
aires 4292
AO@@ 4291
Yemen 4291
vid 4291
bli@@ 4290
itia 4289
Chron@@ 4287
Cola 4285
Malcolm 4285
get 4285
Soy@@ 4284
Baptiste 4283
osh 4283
khe@@ 4281
Marne 4280
eni@@ 4280
CH 4276
330 4275
Bonif@@ 4274
ä 4273
Powell 4271
Kad@@ 4270
mus 4270
Allan 4269
Classic 4265
SO 4265
Julie 4264
Chrys@@ 4263
UT@@ 4263
Cincinnati 4262
Bridge 4261
salles 4261
Storm 4258
Tokyo 4257
o. 4257
Deep 4256
Roll 4256
dom 4256
escor@@ 4256
itable 4255
Logan 4253
Aviv 4252
Autob@@ 4251
bei 4251
Cox 4250
Ellen 4250
Mann 4250
Angela 4248
Bennett 4248
ead 4247
mark 4247
1783 4246
Scot@@ 4246
Olympi@@ 4244
Fantasy 4241
plex 4241
pic 4240
Notre 4239
Poz@@ 4237
Aug@@ 4236
stock 4236
Sul 4235
Connor 4234
Dmi@@ 4234
1.500 4232
Works 4232
elin 4232
tions 4232
Run 4231
usiana 4231
Fritz 4230
Evil 4229
anny 4229
chez 4229
xon 4227
KO 4225
Via 4224
1775 4223
kadi 4222
modi@@ 4222
132 4220
Nathan 4220
sera 4220
Festiv@@ 4218
Schwar@@ 4217
oza 4216
1796 4215
Müller 4213
Mayer 4210
SM@@ 4210
Nina 4209
my@@ 4209
GNU 4208
manufac@@ 4204
war 4198
Suzuki 4197
Curtis 4196
ind 4196
RI 4193
Box 4192
SR 4192
éctr@@ 4191
500@@ 4190
AO 4190
Laurent 4190
Adrian 4189
Religi@@ 4189
Leslie 4183
270 4182
his@@ 4181
refl@@ 4181
DM 4180
Sao 4180
lote 4177
TNA 4176
mex@@ 4176
inger@@ 4175
view 4174
Nicole 4173
Hunt 4172
Parlament@@ 4170
anni 4170
RAF 4169
oul 4169
Orchestra 4167
1770 4166
Laos 4166
HC 4162
Jamie 4162
Sco@@ 4161
uss 4161
Hou@@ 4160
supr@@ 4160
arts 4159
onica 4159
68@@ 4157
arda 4157
Lex@@ 4153
Yang 4153
ayer 4153
Freud 4150
1,6 4149
Hein@@ 4148
Children 4147
Delhi 4147
Mali@@ 4147
Trin@@ 4147
Gill@@ 4146
SG 4145
bank 4145
enh@@ 4143
funk 4143
30,@@ 4142
Fos@@ 4142
Gö@@ 4142
acher 4142
nus 4140
Tra@@ 4139
Wii 4137
Fried@@ 4135
ו@@ 4135
lon@@ 4133
uya 4133
Petit 4132
Homo 4129
75@@ 4128
orbit@@ 4127
28.@@ 4126
Gay 4123
Kingston 4123
TH@@ 4123
Wonder 4122
SL@@ 4121
Sach@@ 4121
had@@ 4121
shu@@ 4115
juli@@ 4114
Salt 4113
Burns 4112
Porter 4112
IL@@ 4111
pH 4110
ude 4110
Bever@@ 4109
Theater 4109
ə@@ 4109
CR 4108
Westminster 4108
produz@@ 4106
Discovery 4105
Fou@@ 4105
Samoa 4105
Ji 4104
chir@@ 4104
eit@@ 4104
Grav@@ 4103
Albums 4102
Reyn@@ 4101
clus@@ 4101
adil@@ 4100
cible 4100
1750 4099
Myster@@ 4098
Krist@@ 4094
fet@@ 4093
mak@@ 4092
uman 4092
145 4090
beria 4090
When 4088
quar@@ 4088
sibl@@ 4088
DB 4087
respond@@ 4087
1788 4085
Collection 4084
Special 4084
Action 4083
octo@@ 4083
eget@@ 4080
oun 4080
Nim@@ 4079
dit 4079
ois@@ 4079
Albi@@ 4078
reb@@ 4078
CF@@ 4077
Silver@@ 4077
Tep@@ 4076
Va@@ 4075
ppo 4073
Sund@@ 4071
How 4070
Standard 4070
Fin 4069
ral@@ 4069
IF 4067
intel@@ 4067
SH@@ 4066
ôme 4066
fib@@ 4065
Sax@@ 4062
Cow@@ 4061
inen 4061
Spring 4060
edi 4059
Emmanuel 4058
aim@@ 4057
Coca 4056
LE 4056
Floyd 4055
Kay 4055
Marion 4053
Magnus 4052
Sle@@ 4050
Nashville 4048
nam 4048
Shan@@ 4047
assa 4044
Id@@ 4043
Hoff@@ 4042
Koh@@ 4041
igg@@ 4041
AH 4040
CAR 4040
Porsche 4040
enna 4040
EM 4039
1100 4038
Gaga 4038
wn 4037
Frag@@ 4034
acker 4034
vie 4034
Rai@@ 4033
umes 4033
Eri@@ 4030
mit 4030
118 4029
Lut@@ 4027
Anatolia 4025
Benz 4025
Juventus 4025
Christmas 4024
Yok@@ 4023
Jav@@ 4021
Memphis 4017
watch 4017
Barbar@@ 4016
Ellis 4016
Bremen 4014
ern 4014
Data 4013
SL 4013
1785 4012
shi 4009
7,5 4006
Zan@@ 4004
Modern 4003
Autor 4002
1782 4001
Chang@@ 4001
Next 4001
CB 4000
Chi 4000
venture 3997
Coast 3995
Public 3995
Wan@@ 3995
canon 3995
Caroline 3994
Klein 3993
erine 3992
max 3990
Sey@@ 3988
irus 3987
enter 3986
ib 3985
matern@@ 3985
hit 3983
inher@@ 3981
57@@ 3979
Herman 3978
Dw@@ 3976
Year 3975
Sophie 3972
won 3970
Jeremy 3969
right 3969
École 3969
dol 3968
Lub@@ 3967
spi@@ 3966
380 3965
Schmidt 3965
hat 3965
1,4 3964
Burton 3964
dova 3964
Gug@@ 3961
Tamb@@ 3959
pesa 3958
SF@@ 3955
Harper 3951
MT 3950
Sr@@ 3950
Empire 3948
Limited 3948
Tif@@ 3948
Saw@@ 3947
iliana 3947
tamin@@ 3947
Yol@@ 3946
General@@ 3945
cover 3944
ellidae 3943
Comenz@@ 3941
Swe@@ 3941
pin 3940
trad@@ 3940
Liberia 3939
Warriors 3939
vet 3939
@ 3938
Auguste 3938
Some@@ 3938
gano 3938
Brach@@ 3937
dy@@ 3936
susp@@ 3936
ucle@@ 3936
UR 3935
Lyn@@ 3934
ith@@ 3932
jpg 3932
thor@@ 3929
Paragu@@ 3928
Ex 3926
jiang 3926
Voiv@@ 3925
rich@@ 3925
berry 3924
Send@@ 3922
world 3922
Heidelberg 3920
Vy@@ 3919
hiz@@ 3919
strat@@ 3918
trit@@ 3918
sir 3917
Tav@@ 3916
hap@@ 3916
Brom@@ 3914
Colomb@@ 3913
Planet 3912
brid@@ 3912
pole 3912
Falls 3911
Nun@@ 3911
atia 3911
Spo@@ 3910
toon 3910
Bald@@ 3909
iyi 3906
205 3903
1778 3902
lich@@ 3902
night 3902
Mend@@ 3901
U.S. 3901
ulata 3901
Kut@@ 3900
Trust 3900
Yorkshire 3900
RN 3899
cock 3899
enger 3899
Punk 3898
table 3897
Bradley 3896
Or 3896
yx 3896
Dau@@ 3895
Orch@@ 3895
kus 3895
Kid@@ 3894
1,8 3892
76@@ 3891
Dru@@ 3890
eph@@ 3890
elis 3889
manufactur@@ 3889
arre 3887
cy@@ 3886
Beck 3885
Davies 3885
inidae 3885
Bayern 3884
Shane 3884
kol@@ 3884
vain@@ 3884
Wild@@ 3883
Five 3881
tors 3881
Ami@@ 3878
hang@@ 3877
Auto 3876
MVP 3876
NGC 3874
bid@@ 3873
kab@@ 3873
cht 3872
kam@@ 3870
wil@@ 3868
Foc@@ 3866
BB 3864
Horn@@ 3864
Duncan 3862
30.@@ 3860
54@@ 3858
Roch@@ 3858
agen 3858
129 3856
asser 3856
Chel@@ 3855
Main@@ 3855
Non@@ 3853
Station 3851
Bier@@ 3850
Julius 3850
30.000 3848
Sok@@ 3848
convo@@ 3848
Holland 3847
Michel@@ 3847
emati@@ 3846
remix 3846
Neum@@ 3845
Ghost 3844
PF 3844
pert 3844
soul 3844
mada 3843
Queens 3841
3.5 3840
Bird 3839
ait@@ 3839
Lod@@ 3838
pen 3838
maxim@@ 3835
Dud@@ 3834
chac@@ 3832
agre@@ 3831
itr@@ 3830
leb@@ 3830
Inc. 3829
Micha@@ 3828
OR@@ 3828
Golf 3824
Sign@@ 3824
sl@@ 3824
BL 3822
Comput@@ 3822
Lup@@ 3822
Pat 3821
SP 3820
pon 3820
1777 3815
eth@@ 3815
→ 3815
Pow@@ 3813
Wein@@ 3813
Edmund 3812
Take 3812
Maf@@ 3810
acht 3810
kham 3809
met 3809
DR@@ 3808
Nord 3806
Lancaster 3805
pur 3804
Grig@@ 3802
Sain@@ 3802
Kag@@ 3800
arde 3794
Diamond 3793
Princeton 3792
emon 3792
filipino 3792
odios 3792
Vamp@@ 3791
Kak@@ 3788
enea 3787
End@@ 3786
Lah@@ 3785
ouvre 3785
mith@@ 3783
Again 3782
Simone 3781
Fischer 3780
els@@ 3780
PI 3779
Rau@@ 3779
Wimbledon 3775
gate 3775
Fall 3774
RE 3774
Forbes 3773
Happy 3773
onna 3772
Percy 3771
Reynolds 3770
Phyl@@ 3769
Sonn@@ 3768
western 3768
Peugeot 3767
Cann@@ 3766
Aleks@@ 3765
ustos 3765
Age 3764
Ril@@ 3764
inson 3764
Pyr@@ 3763
ardin@@ 3762
Hannah 3761
UP 3760
ecca 3760
Systems 3759
ité 3758
Regi@@ 3757
ław 3756
sz@@ 3753
west 3751
yak@@ 3749
Management 3748
BT@@ 3746
Reh@@ 3746
Dorothy 3744
29.@@ 3743
Milwaukee 3743
Call 3742
Hau@@ 3742
area 3742
Alexand@@ 3740
mid@@ 3737
340 3735
Canadian 3735
Veter@@ 3735
ː 3735
1786 3734
echt 3734
1784 3733
Humboldt 3733
Obj@@ 3733
normal@@ 3733
big@@ 3732
Enter@@ 3731
eg 3731
SD@@ 3730
deh@@ 3730
oteca 3730
Carey 3729
119 3728
German@@ 3728
Kai 3728
Prime 3728
fonso 3728
leen 3727
FIBA 3726
Whitney 3726
Hannover 3725
Petro@@ 3725
ffe 3725
pot 3723
eki 3722
lain 3722
adem@@ 3720
Future 3719
Nash 3719
0.1 3716
Tours 3715
olph 3715
enti 3711
Ö@@ 3711
Brooks 3709
bag@@ 3709
Aar@@ 3708
fix@@ 3707
Epi@@ 3706
Tag 3706
lès 3705
Friends 3704
Virgin 3702
anner 3702
5,5 3700
Jam 3700
ecr@@ 3700
cester 3699
Berry 3698
lín 3698
Gerald 3697
Kis@@ 3697
ighton 3697
än@@ 3697
ods 3696
Manga 3694
Nept@@ 3694
Boulevard 3693
DOS 3692
yor@@ 3692
Hopkins 3691
Ostr@@ 3687
35,@@ 3686
36,@@ 3686
Noel 3685
iser 3685
Verd@@ 3684
minton 3684
1640 3682
Jay@@ 3680
Hap@@ 3679
Ts@@ 3679
Chang 3678
casting 3678
sley 3678
850 3677
iman 3677
nis@@ 3677
56@@ 3675
IL 3675
Rang@@ 3674
obs 3674
Wehrmacht 3673
flag@@ 3673
If 3671
Buz@@ 3670
ween 3670
Gene 3667
sten 3667
agh 3665
Luftwaffe 3664
Mey@@ 3664
​ 3663
Dad@@ 3662
1774 3661
Sex 3661
Michigan 3659
Pradesh 3659
atz@@ 3659
Olivier 3658
Techn@@ 3658
Crystal 3657
Sinc@@ 3657
HF 3656
elt 3656
mani 3656
ED@@ 3655
stream 3655
8.000 3654
tical 3654
gues 3653
Here 3652
hiv@@ 3652
Andrews 3650
Abdul 3644
Harr@@ 3644
Tiger 3643
spin 3643
Christina 3641
GO@@ 3641
aze 3640
1781 3639
Cassini 3639
NS 3639
gorod 3639
Airways 3638
Aul@@ 3638
Idaho 3636
165 3634
Council 3634
Jenn@@ 3634
ason 3634
sap@@ 3633
MIT 3632
Pter@@ 3632
KA 3630
Lok@@ 3629
Aff@@ 3628
Jonas 3626
igne 3626
taine 3625
Lop@@ 3624
transpor@@ 3624
Na 3623
Kri@@ 3622
1520 3620
sberg 3619
ship 3619
53@@ 3618
Stevens 3618
Fed@@ 3617
Us 3615
Winter 3615
ality 3615
uren 3614
wait 3614
Lum@@ 3613
Airbus 3612
Lip@@ 3612
Mús@@ 3611
States 3611
Away 3610
EV@@ 3608
`@@ 3607
Forever 3606
sko@@ 3606
Sahara 3605
oder@@ 3604
58@@ 3603
tive 3603
1.2 3602
Bid@@ 3602
133 3600
Hac@@ 3599
Étienne 3599
ische 3598
sini 3598
Species 3597
mons 3597
Sieg@@ 3596
CPU 3595
tem 3594
Leeds 3593
yna 3593
Ein@@ 3592
illi 3592
Development 3591
Ho 3591
Mao 3591
PD 3590
Under 3590
tenberg 3589
tez@@ 3587
Christine 3585
Mek@@ 3584
0,1 3580
Edition 3580
Ten 3579
lus 3579
otis 3577
outs 3577
DR 3576
esse 3576
hausen 3576
Steel 3575
phus 3573
juris@@ 3572
isch@@ 3571
Rhodes 3570
Spec@@ 3567
Janet 3566
ild 3566
emot@@ 3565
was 3565
yth@@ 3565
Dimi@@ 3564
Cat 3563
Ted@@ 3561
aen@@ 3561
FS 3559
rix 3558
Got 3556
Rug@@ 3554
Toy@@ 3553
than 3553
MiG 3547
Ek@@ 3546
Power@@ 3546
ã@@ 3546
ult 3545
WTA 3544
tenstein 3543
Act 3541
gun 3541
Amazon 3540
0.5 3539
IGN 3539
Dream@@ 3538
Brad 3537
Frank@@ 3535
oyo 3534
Cryp@@ 3533
invol@@ 3533
ll 3532
nin@@ 3532
MG 3531
000.000 3530
Born 3530
Portu@@ 3530
got 3530
Vend@@ 3529
rin 3527
Alain 3525
oshima 3525
33,@@ 3524
Hof@@ 3524
awn 3524
Clif@@ 3521
Essex 3521
Yosh@@ 3520
hp 3520
Dog 3519
Robertson 3519
kal 3519
DS@@ 3518
Lynn 3518
Nixon 3518
Coh@@ 3515
DV@@ 3515
publican 3515
zon 3515
cat 3514
egel 3514
life 3513
Heaven 3512
Zambia 3512
Technology 3511
Bois 3509
2,4 3508
CT 3507
bea 3507
-- 3506
BM 3506
eting 3506
igi 3506
ping 3506
Mou@@ 3505
Miz@@ 3504
bourne 3502
detr@@ 3501
trix 3501
7000 3500
Euro@@ 3499
cape 3499
sport 3499
Jackie 3495
Pascal 3495
onidae 3494
oss 3492
Newcastle 3491
Our 3489
ism 3489
Blu 3488
Chester 3488
dimin@@ 3488
heimer 3487
jon 3487
Canadi@@ 3486
Stade 3485
1767 3484
^ 3484
2,3 3480
ph 3480
yne 3480
Du 3479
Ibrahim 3477
Movie 3476
Kok@@ 3475
ansen 3475
East@@ 3474
Erich 3473
Today 3473
wing 3472
Glad@@ 3471
lé 3471
eke 3470
Alliance 3469
Barcel@@ 3469
Richardson 3468
oyle 3467
Elis@@ 3466
Kru@@ 3466
Xen@@ 3466
lah@@ 3465
Did@@ 3464
Communauté 3463
Nielsen 3463
anan 3463
eine 3463
mine 3463
Maxwell 3462
Victor@@ 3462
Pug@@ 3461
Sidney 3460
bad@@ 3460
cid@@ 3460
host@@ 3460
inum 3459
Chau@@ 3456
Peak 3456
oport@@ 3456
chev@@ 3455
phyl@@ 3455
Belle 3454
Canterbury 3454
Night@@ 3454
sein 3454
Watch 3452
ipo 3452
mart 3452
rov@@ 3450
usiano 3450
Fire@@ 3449
kaz@@ 3447
Eduard 3446
Instagram 3444
Joyce 3443
ampi@@ 3442
f. 3441
onis 3441
enj@@ 3440
PT 3439
ibar 3439
kett 3439
Palace 3438
č 3437
Mills 3436
152 3435
Roll@@ 3434
ROM 3433
aji 3433
Miss@@ 3432
64@@ 3430
etus 3429
Nes@@ 3426
Sydney 3426
Ahmad 3425
Greene 3425
inci 3425
lich 3425
ya@@ 3425
Alberta 3424
Lang 3424
Dawn 3423
Rush 3423
assi 3423
wak@@ 3423
Fit@@ 3422
Justice 3421
pom@@ 3421
1779 3419
Sherman 3418
Woods 3418
ICA@@ 3417
col 3417
8000 3416
59@@ 3414
Nath@@ 3414
Tus@@ 3414
eim 3414
131 3413
144 3411
case 3411
agon 3409
unds 3409
UM@@ 3408
auri 3407
Châ@@ 3406
Beautiful 3405
Chur@@ 3404
Rak@@ 3404
lib@@ 3404
hua 3402
Six 3401
anzo 3401
Zer@@ 3399
sions 3399
beck 3398
sville 3398
Computer 3397
6,5 3396
Bailey 3395
Drama 3395
Norfolk 3394
hai 3394
obi 3394
Devil 3393
Mr@@ 3393
225 3392
meng@@ 3390
Deg@@ 3389
Gusta@@ 3388
biot@@ 3388
kug@@ 3385
tur 3385
Anat@@ 3384
ausen 3384
Astronom@@ 3383
enton@@ 3383
Nazi 3382
Sty@@ 3382
lum@@ 3381
CNN 3378
Joshua 3378
Tum@@ 3378
Ice 3377
Nap@@ 3376
bak@@ 3376
yr 3376
ène 3376
egen 3375
eyes 3374
ć@@ 3374
ket@@ 3373
Elisabeth 3372
RN@@ 3372
amus 3372
arp@@ 3372
EX@@ 3371
iri@@ 3371
ED 3368
cz@@ 3366
GS 3364
Clay 3363
iers 3363
67@@ 3362
Court 3362
gaz@@ 3362
Clin@@ 3360
haus 3360
Gut@@ 3359
ries 3359
chia 3358
Apol@@ 3356
Cloud 3356
pein@@ 3356
Lambert 3355
eval 3355
136 3353
Château 3353
Henderson 3353
pend@@ 3353
Lombar@@ 3352
Phili@@ 3352
Amer@@ 3349
Buffy 3349
card 3349
omen@@ 3349
zia 3348
Clay@@ 3347
manuel 3346
mbal@@ 3346
wat@@ 3346
Reichs@@ 3345
FL@@ 3344
Bomb@@ 3343
Ruf@@ 3343
pper 3343
000@@ 3342
Gas 3342
Hang@@ 3341
Pion@@ 3341
Pix@@ 3341
Mind 3340
32.@@ 3339
Wolf@@ 3339
1.1 3338
osi 3337
Bub@@ 3336
azu 3335
15.000 3334
Sens@@ 3334
ffer 3334
1763 3333
Amateur 3331
erek 3331
ì 3330
BR@@ 3328
ize 3328
1580 3327
McDonald 3327
Spring@@ 3327
Samsung 3323
histor@@ 3322
Must@@ 3321
Ya@@ 3321
lah 3320
dique 3319
AU 3318
Sik@@ 3318
ceph@@ 3318
146 3316
sau@@ 3315
ilim@@ 3314
Film@@ 3312
Hug@@ 3312
flo@@ 3310
Hansen 3309
Alban@@ 3308
Delaware 3308
List@@ 3308
pasaj@@ 3308
Columbus 3306
Deh@@ 3306
Frances 3306
Jung@@ 3306
sed 3303
ties 3302
Ain 3301
diesen 3301
Windsor 3299
Beat 3298
Florence 3298
board 3298
Chamber@@ 3297
Oakland 3297
Water 3297
March 3296
66@@ 3294
ön@@ 3294
Temp@@ 3293
1550 3292
Kod@@ 3292
Store 3292
1773 3291
tell 3291
Rho@@ 3289
Tek@@ 3288
Revolution 3284
law 3284
nin 3284
tain 3284
1768 3283
Mig@@ 3283
Kah@@ 3282
ayar@@ 3282
lay 3281
1772 3280
Tell 3280
33.@@ 3279
erina 3279
134 3278
Doh@@ 3278
sters 3277
Ent@@ 3276
tain@@ 3276
137 3274
Mohammed 3274
Ili@@ 3273
iki@@ 3273
Lotus 3272
1760 3271
CW 3271
Edo 3271
aly 3271
girl 3271
oslav 3271
urg 3271
Riz@@ 3270
lop@@ 3269
nem@@ 3269
Sheffield 3268
Lamp@@ 3266
W.@@ 3265
Pig@@ 3264
Sham@@ 3264
Wis@@ 3264
Riga 3263
terdam 3262
Kingdom 3261
MT@@ 3257
chn@@ 3257
zer@@ 3256
34,@@ 3255
Buffalo 3255
Books 3254
Audi 3253
Bart@@ 3252
Eagle 3252
Theodore 3252
ebo@@ 3252
sier 3252
37,@@ 3251
Anc@@ 3251
V8 3251
Wed@@ 3251
lion 3251
band 3249
lif@@ 3249
Carroll 3248
isar 3247
Chat@@ 3246
Harbor 3245
dn 3245
138 3244
Show@@ 3244
Rup@@ 3243
axis 3243
fire 3242
Brien 3241
Freedom 3241
Trade 3241
UV 3241
Conrad 3240
Gardens 3240
ampton 3239
Pé@@ 3238
erson 3238
Lif@@ 3237
ground 3236
Voy@@ 3234
Bo 3231
Shadow 3231
VO@@ 3231
german@@ 3230
gur@@ 3230
gang@@ 3229
seau 3229
sing 3227
200.000 3226
Citroën 3226
Rocky 3226
38.@@ 3225
AK@@ 3225
Ocean 3223
anya 3223
Lionel 3222
Singh 3222
bog@@ 3221
enzie 3221
Heights 3219
Voice 3219
nah@@ 3217
Fay@@ 3215
abi@@ 3215
fid@@ 3215
ski@@ 3215
32,@@ 3214
Eyes 3214
Rain@@ 3214
prosp@@ 3214
Emil 3213
185 3212
ating 3212
Hr@@ 3211
Joy 3211
Sos@@ 3211
True 3210
gren 3210
Sciences 3209
38,@@ 3208
FF@@ 3208
Independent 3208
Only 3208
Original 3208
Child 3207
Sunday 3206
167 3205
har 3205
Anime 3204
Franç@@ 3203
HO@@ 3203
¨ 3203
1740 3202
Alexandra 3202
olls 3202
Spi@@ 3201
other@@ 3201
BAS@@ 3200
alet 3200
ă 3200
ński 3200
Nis@@ 3199
Design 3198
Laus@@ 3198
chard 3198
gon 3198
1,1 3194
1,7 3194
namo 3194
Christi 3192
Crawford 3192
Anhalt 3191
ancing 3191
bora 3191
Tau@@ 3190
256 3189
thing 3189
bius 3188
Das 3187
Re 3187
stig@@ 3187
ý 3186
ATA 3184
dil 3184
stad 3183
1650 3182
kul@@ 3182
Vau@@ 3181
tern 3180
pool 3179
sana 3179
fred 3178
Spirit 3177
1540 3176
40.000 3175
Lille 3171
Thomson 3171
kies 3170
Nil@@ 3169
Ut@@ 3168
Hero 3167
asu 3167
ehr@@ 3167
uil 3167
Chen@@ 3166
Eliz@@ 3166
Hits 3166
Jeanne 3165
Trig@@ 3165
afi 3164
BB@@ 3161
99@@ 3160
Ridge 3160
Sek@@ 3160
angel@@ 3159
2023 3158
Glen 3158
31.@@ 3157
Schul@@ 3157
Auckland 3156
Indian 3156
Wind@@ 3156
body 3156
Gmina 3155
BP 3154
Nissan 3154
Tik@@ 3154
Beno@@ 3153
ahi 3153
Pseudo@@ 3152
Ra 3152
Rhode 3152
Cinema 3148
wor@@ 3148
Yuk@@ 3145
py@@ 3143
Dipl@@ 3142
Egi@@ 3142
act 3142
Montpellier 3141
Derby 3140
Hind@@ 3140
Traf@@ 3140
isse 3140
154 3139
Fair 3139
Å@@ 3139
Gou@@ 3138
EF@@ 3137
O2 3137
actylus 3137
Yi 3135
other 3134
Ern@@ 3133
Earl 3132
lane 3132
Pey@@ 3131
ench@@ 3131
Als@@ 3130
Klaus 3129
Wyoming 3129
vel 3129
boy@@ 3128
laf 3127
master 3127
hu 3125
nad 3125
182 3124
INSEE 3123
England 3122
1660 3121
Animation 3121
Know 3121
Broadcasting 3120
junior 3120
A2 3119
book 3119
ophora 3119
utt@@ 3119
BI 3118
bey 3117
Commonwealth 3116
Online 3116
Trich@@ 3116
Vermont 3116
Hali@@ 3115
Hok@@ 3115
141 3114
Metropolitan 3113
Monster 3112
icle 3112
1630 3110
Africa 3109
ete@@ 3109
imba 3107
0,2 3106
ovsky 3105
bou@@ 3104
Publi@@ 3103
plante 3103
156 3101
agne 3101
tron 3101
Beijing 3100
chr@@ 3100
Barth@@ 3099
Schneider 3098
mim@@ 3097
Guillaume 3096
wel@@ 3096
Burn@@ 3095
Duf@@ 3094
Jeffrey 3093
737 3092
ń@@ 3092
1492 3091
78@@ 3090
communes 3088
HT@@ 3087
nm 3087
Compañ@@ 3086
zt 3084
Geoff@@ 3083
reno 3083
Bloom@@ 3082
Main 3080
insp@@ 3080
Gli@@ 3079
dus 3078
OH 3077
Grand@@ 3076
amura 3076
143 3075
Album 3075
Fighter 3075
Quar@@ 3075
aan 3075
pak@@ 3075
incul@@ 3074
testi@@ 3073
Stein 3072
Trinity 3072
Winston 3072
ectives 3072
After 3070
Arab@@ 3069
cum 3069
151 3068
Oy@@ 3067
tory 3067
Kem@@ 3066
Rich 3065
Richter 3065
Nature 3064
cerc@@ 3064
strö@@ 3064
148 3063
Fic@@ 3062
him 3062
inat@@ 3062
Wr@@ 3061
cord 3061
Kand@@ 3060
480 3059
ché 3059
API 3058
Heavy 3058
tadura 3058
Flem@@ 3056
propos@@ 3054
baz@@ 3053
sonr@@ 3052
unes 3051
99.@@ 3050
Galax@@ 3049
sle@@ 3049
assi@@ 3048
147 3046
eling 3046
unde 3046
Bris@@ 3044
hall 3043
Bartol@@ 3042
ways 3042
Bam@@ 3041
illac 3041
né 3041
Din 3040
Fame 3040
34.@@ 3038
Bergen 3038
berland 3038
Julien 3037
that 3036
sor 3035
About 3034
Alli@@ 3034
Scho@@ 3033
Beta 3031
1.5@@ 3029
37.@@ 3029
Trag@@ 3029
Burg@@ 3028
moto 3028
wol@@ 3028
BE 3024
Eugène 3022
beat 3021
Bon 3019
Uru@@ 3019
blog@@ 3019
cipe 3018
ising 3018
itus 3018
195 3017
Niz@@ 3016
Ville 3016
abel 3016
ppen 3014
provis@@ 3014
bian 3013
hav@@ 3013
pueb@@ 3013
Dynam@@ 3010
Smo@@ 3010
inden 3010
Dat@@ 3008
Mal 3007
dot 3006
endem@@ 3006
Lach@@ 3004
Kov@@ 3003
eil 3002
199@@ 3001
Malm@@ 3001
Mum@@ 3001
sie 2999
470 2998
chef 2998
Board 2997
Brab@@ 2997
Produ@@ 2997
escens 2996
izi@@ 2996
166 2995
David@@ 2995
Sound@@ 2995
2,2 2994
MD 2994
Rain 2993
Ichneum@@ 2992
mez 2992
otus 2992
signi@@ 2992
CL 2991
mail 2991
Factory 2990
gue 2990
quin 2990
wang 2990
NY@@ 2989
Gate 2988
Rice 2988
USB 2988
small 2988
Palm 2987
Town@@ 2987
fordshire 2987
ém 2987
aras@@ 2986
tube 2986
Meh@@ 2985
Tech 2985
There 2985
anchi 2985
nuc@@ 2985
osia 2985
PO 2984
Stal@@ 2984
mula 2984
Param@@ 2983
Pog@@ 2983
acles 2983
incel@@ 2983
1769 2982
Burkina 2982
Light@@ 2982
UF@@ 2982
power 2982
Capitol 2981
Kati@@ 2980
ennis 2980
mén@@ 2980
sv@@ 2979
Serge@@ 2978
1570 2976
fu 2976
thia 2976
Faso 2975
okie 2975
ventures 2975
142 2974
ends 2974
Frankfurt 2973
kai 2973
Ś@@ 2972
Koz@@ 2971
Preston 2971
sell 2971
Min 2970
Yes@@ 2970
mah@@ 2970
eff@@ 2969
trum 2968
wara 2968
Mili@@ 2967
most@@ 2966
Att@@ 2963
led@@ 2962
ül@@ 2962
1620 2959
Hood 2959
Say 2959
abo@@ 2959
Turk@@ 2958
oper 2957
1755 2954
Crow@@ 2954
Muh@@ 2954
Bonn 2953
ˈ@@ 2952
1.6 2951
endel@@ 2951
Paci@@ 2950
Mens@@ 2949
3500 2948
Too 2948
grand@@ 2948
ood 2948
і@@ 2947
dev 2946
glut@@ 2946
Jak@@ 2945
V.@@ 2945
Lay@@ 2943
Energy 2942
uy 2942
39,@@ 2941
Eye 2941
onius 2941
sita 2941
wn@@ 2941
0.2 2940
Mini 2939
Psy@@ 2939
William@@ 2939
Pick@@ 2938
abis 2938
stal@@ 2938
lars 2937
leist@@ 2937
Augus@@ 2936
Stir@@ 2936
Goethe 2934
Hal 2934
Jour@@ 2934
run@@ 2934
Rech@@ 2932
euro 2932
ende@@ 2929
ylo@@ 2929
Week@@ 2928
hits 2928
kay@@ 2928
001 2927
Nantes 2925
hen 2925
Greatest 2924
black 2924
sak@@ 2924
500.000 2923
asit@@ 2923
rou@@ 2923
zhou 2923
Institut 2919
Wid@@ 2919
water@@ 2919
Zep@@ 2918
gin 2918
139 2917
fj@@ 2916
0.3 2915
kara 2915
212 2914
Minister@@ 2914
consec@@ 2914
Kro@@ 2913
206 2912
375 2911
self 2911
Dais@@ 2910
SW@@ 2910
Temper@@ 2910
Moz@@ 2909
Mud@@ 2909
Saturday 2909
Federation 2907
elds 2907
ums 2907
Coul@@ 2906
Scr@@ 2906
abilis 2906
style 2906
Bertrand 2905
His@@ 2905
ew 2904
202 2901
kit@@ 2900
Wir@@ 2899
1530 2897
AZ 2897
Emb@@ 2897
Zone 2896
hid 2896
Émile 2896
BW@@ 2894
Hyper@@ 2894
nich@@ 2894
sav@@ 2893
Jet 2892
Suff@@ 2892
Record 2891
½ 2891
faces 2890
215 2889
dle 2889
î@@ 2889
super 2888
Army 2887
Stil@@ 2887
ering 2887
orus 2887
som 2886
36.@@ 2885
Société 2885
Metro@@ 2884
mama 2884
Down@@ 2883
25.000 2882
Cher 2882
Ans@@ 2880
û@@ 2880
arren 2879
Strat@@ 2878
Syst@@ 2878
Gord@@ 2877
1765 2876
Fabr@@ 2876
Fraser 2874
lips 2873
wall 2873
0,3 2872
SK 2872
ń 2872
SB 2869
Haj@@ 2868
153 2867
35.@@ 2867
baum 2867
Railway 2866
Blanc 2863
Stern 2863
Év@@ 2863
1730 2861
MV 2861
active 2861
rak@@ 2860
Cler@@ 2857
omy@@ 2856
kas 2855
usi 2855
Bib@@ 2854
Winter@@ 2854
ollis 2854
vier 2854
1762 2853
engers 2853
olf 2853
vik 2853
1560 2852
Langu@@ 2852
aq 2852
Swan@@ 2850
avoc@@ 2850
lir 2850
shi@@ 2849
201 2848
4.5 2848
Po 2848
hin 2848
sius 2848
tique 2848
Timor 2847
pli@@ 2847
awi 2846
Tō@@ 2842
endor@@ 2842
Macar@@ 2841
Pok@@ 2841
wi 2841
Bismarck 2840
Léon 2840
Sebasti@@ 2840
370 2839
orian 2839
39.@@ 2838
Braun 2838
borne 2838
enr@@ 2837
nel 2835
ą@@ 2835
Uc@@ 2834
odia 2834
1609 2833
Stop 2833
Trou@@ 2833
Vos@@ 2832
squ@@ 2832
Bh@@ 2831
fiel@@ 2831
235 2830
Wiz@@ 2830
ature 2830
rés 2829
html 2827
bai 2826
bra@@ 2826
Academ@@ 2824
ticus 2823
Fi 2821
Comic 2820
rel 2820
250@@ 2818
203 2817
Set 2816
aeus 2816
fans 2816
Right 2815
21@@ 2814
his 2814
iOS 2814
At 2813
Oak 2813
Stol@@ 2813
aly@@ 2813
endorf 2813
hol 2812
thumb 2811
xy 2811
Youth 2810
strateg@@ 2810
161 2808
192 2805
69@@ 2805
Haus@@ 2805
LS 2805
arry 2804
kn@@ 2804
omys 2804
Angels 2803
Jul@@ 2803
Dah@@ 2802
mund 2802
thus 2802
2.0@@ 2801
ahl@@ 2801
tables 2801
dex 2800
lik@@ 2798
thal 2798
shan 2797
1521 2795
Glass 2795
Shab@@ 2794
apolis 2793
natural@@ 2793
Franken@@ 2792
Aeg@@ 2791
kle@@ 2791
Berg 2790
Elite 2790
andt 2789
cott 2789
ellus 2789
love 2788
tien 2788
Cly@@ 2787
Schu@@ 2787
ularis 2787
SU 2786
ident 2786
e.org 2785
168 2783
Ski@@ 2783
mare 2783
ram 2783
obs@@ 2782
BR 2781
ank 2781
ele@@ 2781
Ki 2780
Theodor 2780
Tree 2778
Hassan 2777
kard 2777
Late 2776
stat@@ 2776
MO 2775
Australian 2773
Vich@@ 2773
Survey 2772
unif@@ 2772
Herald 2770
Yang@@ 2768
Brisbane 2767
ja@@ 2767
senior 2767
ã 2767
K.@@ 2765
lower 2764
1648 2763
310 2762
ος 2762
Link 2761
Vision 2761
Plymouth 2760
jav@@ 2760
88@@ 2759
cell@@ 2758
ignon 2757
1610 2756
ects 2756
Cao 2755
Rip@@ 2755
Joachim 2752
Trib@@ 2752
fortun@@ 2752
oceph@@ 2752
Pa 2751
hynch@@ 2751
jet 2751
erk@@ 2749
Vand@@ 2748
kit 2748
Anti 2747
Library 2747
Scarabaeidae 2745
performance 2744
eaux 2743
Shah@@ 2742
Koch 2739
febr@@ 2739
208 2738
dee 2738
litz 2738
Giov@@ 2737
oton@@ 2737
1771 2736
420 2734
Bus 2734
dt 2734
ems 2734
Mill 2732
See 2732
Chanc@@ 2730
izo@@ 2730
alier 2729
Jess@@ 2727
Stand@@ 2727
Face 2726
Tow@@ 2726
Corps 2725
wave 2725
Brook@@ 2724
etti@@ 2724
adan 2723
erre@@ 2721
Canton 2719
Universe 2719
Ka 2718
phila 2718
2,6 2717
Hip 2717
163 2715
Perth 2715
Nation 2714
Bez@@ 2713
Hep@@ 2713
149 2712
aten 2710
Roche 2709
SPD 2709
oster@@ 2708
ț@@ 2708
Full 2707
Living 2707
unders 2707
Beat@@ 2705
aray 2705
3,3 2703
Camille 2702
Heter@@ 2700
Pf@@ 2700
Seine 2700
204 2698
365 2697
cé 2697
kum@@ 2697
Fest@@ 2696
Ottawa 2696
onic 2696
Choice 2695
Eis@@ 2695
Heroes 2695
fly 2695
164 2694
stil@@ 2694
track 2694
188 2693
big 2693
3.0 2692
Snow 2692
View 2692
app 2691
Master@@ 2690
Kav@@ 2689
pid@@ 2688
Khali@@ 2687
chú 2687
ows 2687
Kw@@ 2686
fried 2685
Mk 2684
ophy@@ 2684
poly@@ 2684
Oil 2682
ills 2682
tham 2682
Becker 2680
PL 2680
Pie@@ 2679
Saar@@ 2679
Gag@@ 2678
Aircraft 2677
Ajax 2677
Electronic 2677
kus@@ 2677
2,7 2675
Amat@@ 2674
Forum 2674
Merr@@ 2674
sher@@ 2674
uts 2673
1758 2672
Hann@@ 2672
1720 2671
Hubert 2671
162 2670
Bath@@ 2670
Newport 2670
ç 2670
Ortodo@@ 2669
eless 2669
ological 2669
1680 2667
Reims 2666
Sa 2666
ifolia 2666
Bishop 2665
Community 2665
DL 2663
Key 2662
Stand 2662
Aston 2661
Institut@@ 2661
cu 2661
this 2661
undi 2661
alu 2660
Back@@ 2658
Jura 2658
Phys@@ 2658
beg@@ 2657
othy 2657
dizi 2656
aland 2655
yang 2655
Said 2654
eberg 2653
Sport@@ 2652
wo 2652
Taf@@ 2651
KK 2650
Sich@@ 2650
gal 2650
Cardiff 2648
PT@@ 2648
tag 2648
Haf@@ 2647
jen@@ 2647
Adv@@ 2646
Heinz 2645
Kiel 2643
bee 2642
OR 2640
WCW 2639
Rost@@ 2638
BD 2637
Gill 2637
Tamil 2637
ait 2637
sous 2637
Anci@@ 2636
WC 2636
kaya 2636
ms@@ 2636
98@@ 2635
Yaz@@ 2635
Düsseldorf 2634
Gün@@ 2634
Harmon@@ 2634
atta 2634
e. 2634
ying 2634
978 2633
Class@@ 2633
KV@@ 2633
AK 2632
lie@@ 2632
7.000 2631
Brest 2631
ù 2631
Gregor 2630
Jah@@ 2629
stell@@ 2629
Ais@@ 2628
NC 2628
otro@@ 2628
Materi@@ 2627
Ada 2625
artí@@ 2625
onds 2625
181 2624
illing 2624
Rosen@@ 2623
anah@@ 2623
Butter@@ 2622
Flying 2622
Vita 2622
Tyr@@ 2620
Eb@@ 2619
Faith 2619
qi 2618
Cyc@@ 2617
63@@ 2616
chwitz 2616
Pont@@ 2615
pour 2615
stop 2615
ything 2615
Nest@@ 2614
migu@@ 2614
px 2614
158 2613
1535 2612
annes 2612
2,8 2610
aliforni@@ 2610
μ@@ 2610
edy 2609
auch@@ 2608
bird 2607
ink@@ 2607
Xu@@ 2606
Republic 2605
1766 2604
2.2 2604
Trans 2604
stil 2604
Gn@@ 2603
Hyp@@ 2603
Make 2603
dub@@ 2603
Eber@@ 2602
275 2600
Bass 2600
avana 2600
orta 2600
yle 2600
8,5 2599
NP 2599
Braz@@ 2597
Sept@@ 2597
Legend 2594
Second 2593
upp@@ 2593
3,4 2592
Hymenoptera 2592
Musa 2592
SV@@ 2592
159 2591
Thur@@ 2591
1754 2590
85@@ 2590
Peti@@ 2588
Pho@@ 2588
French 2587
bonus 2587
pler 2586
Mia 2585
3,2 2584
Kash@@ 2584
hion 2584
Kou@@ 2583
voy@@ 2583
Schi@@ 2582
allen 2582
d. 2582
77@@ 2581
Hack@@ 2581
Room 2581
Vice 2581
Sylv@@ 2579
177 2578
Cap 2578
Phan@@ 2578
Ruby 2578
1- 2577
1603 2577
Okinawa 2575
kings 2575
Sym@@ 2574
Viktor 2574
gu 2573
Abd@@ 2572
Ries@@ 2572
Well@@ 2572
hem 2572
sac 2572
Nine 2571
Generation 2567
Citi@@ 2566
232 2565
eds 2564
entis@@ 2564
chus 2562
entry 2562
ths 2562
underground 2562
1.0 2561
utz 2561
isim@@ 2560
1690 2559
Bangkok 2559
liv@@ 2559
Torino 2557
211 2556
olep@@ 2555
aur 2554
eks 2554
Prad@@ 2553
74@@ 2552
Schön@@ 2552
Dong@@ 2551
.org 2550
icola 2549
Napoli 2548
Somerset 2548
,000 2547
1.3 2547
Mark@@ 2547
Ow@@ 2547
had 2545
suite 2545
äl@@ 2544
ées 2544
KO@@ 2543
Northern 2542
hao 2542
BT 2541
Kron@@ 2541
1764 2540
GR@@ 2540
Leopold 2540
uko 2540
197 2539
District 2538
imm@@ 2538
loo 2537
1759 2536
Cycl@@ 2536
440 2535
Glou@@ 2535
Speed 2535
Spiel@@ 2534
sona 2534
Edmon@@ 2533
1536 2532
Guide 2532
Cra@@ 2531
Talk 2531
COM 2530
Dom 2530
inj@@ 2530
isson 2530
Kop@@ 2529
otz@@ 2528
sive 2527
290 2526
Staf@@ 2526
UM 2526
amis 2526
911 2525
Pré@@ 2525
ober@@ 2525
Double 2524
vad@@ 2524
1714 2523
Cold 2523
GO 2523
clip 2523
kun@@ 2523
row@@ 2523
uridad 2523
ylon 2523
Calvin 2522
Clau@@ 2519
Hass@@ 2519
ø 2519
ilian 2518
305 2517
VC 2517
outh 2517
russ@@ 2517
where 2517
sport@@ 2515
214 2514
enthal 2514
ushi 2514
ík 2514
oman 2511
Lich@@ 2510
Futbol@@ 2509
anger@@ 2509
Leicester 2508
Buk@@ 2505
iven 2505
sohn 2505
versus 2505
Git@@ 2504
Kaiser 2504
Medical 2504
itte 2504
Io@@ 2503
Víc@@ 2503
oque 2503
Circle 2502
Sog@@ 2502
hak@@ 2501
Where 2500
titr@@ 2500
1761 2497
aide 2497
0,6 2496
Kara 2496
othing 2496
Living@@ 2495
--@@ 2494
Hop 2494
Tech@@ 2494
157 2493
176 2493
Phy@@ 2493
Industry 2491
Name 2491
olin 2491
184 2490
Neo 2490
Phot@@ 2490
Yves 2489
Baron 2488
multi 2488
xx 2488
1.8 2487
Mob@@ 2487
Schl@@ 2487
pep@@ 2486
rend@@ 2486
unk 2486
Ado@@ 2485
Dut@@ 2485
Enterprise 2485
Zah@@ 2485
Tenn@@ 2484
ocarp@@ 2484
Visual 2483
Archit@@ 2482
Hello 2482
Lew@@ 2482
Eritrea 2481
Heid@@ 2481
Gren@@ 2480
Gum@@ 2480
Henri@@ 2480
PD@@ 2480
Peace 2480
andes 2480
ographic 2480
Mer 2479
DA@@ 2478
1,9 2477
430 2477
Alp@@ 2477
178 2476
bek 2476
Years 2473
Zuc@@ 2473
erst@@ 2473
tival 2473
Publishing 2472
Vladi@@ 2471
Wind 2471
bras@@ 2471
Comedy 2469
dam 2469
olus 2469
çon 2469
Beb@@ 2468
NR@@ 2468
Princess 2468
Pyth@@ 2468
benz@@ 2468
Eve 2467
GPS 2467
Olymp@@ 2467
imus 2467
endron 2466
3,6 2465
diz 2465
width 2465
Ud@@ 2464
Lions 2463
laine 2463
Anders 2460
SF 2460
atin 2458
Inn@@ 2457
ectus 2457
ening 2457
enst@@ 2457
ikawa 2457
Emin@@ 2456
Horse 2456
kee 2456
193 2455
950 2455
Mama 2454
Sofia 2454
ardt 2454
32@@ 2453
BL@@ 2453
Mother 2453
lim 2453
oise 2452
ר@@ 2452
222 2451
Health 2451
1670 2450
LM 2450
raph 2450
Coun@@ 2449
173 2448
hardt 2448
death 2447
elling 2447
1752 2446
témo@@ 2446
Ferguson 2445
enge 2445
400@@ 2444
uck@@ 2444
Teleg@@ 2443
Test 2443
eper 2443
park 2441
pluvi@@ 2441
andinav@@ 2440
169 2438
172 2438
Yus@@ 2438
ün@@ 2438
5,000 2434
iPhone 2434
üt@@ 2434
Lil 2433
lag 2433
upa 2433
Himm@@ 2432
Mohammad 2432
baya 2432
phyllum 2431
Ø@@ 2431
Matthe@@ 2430
kowski 2430
325 2429
open@@ 2429
zin 2429
Lati@@ 2428
ose@@ 2428
Meth@@ 2427
Metz 2427
217 2426
Exist@@ 2426
ails 2426
substitu@@ 2426
iny 2425
Sult@@ 2424
Sussex 2423
aar 2423
ile@@ 2423
rant 2423
lyn 2422
ahr@@ 2420
ogne 2419
dong 2418
ft@@ 2418
lose 2418
ming 2418
Kaf@@ 2417
Nel@@ 2416
magne@@ 2416
Rhin@@ 2415
198@@ 2414
Kenn@@ 2414
cros@@ 2414
cs 2414
sman 2412
Wik@@ 2411
vert 2411
183 2410
aines 2410
ayar 2410
irie 2410
oran 2410
Zin@@ 2409
arian 2409
malaria 2409
tante 2408
urai 2408
Darmstadt 2406
Trail 2406
Jakob 2405
Duch@@ 2404
Low 2404
ival@@ 2404
nay 2404
Rights 2401
dings 2401
1526 2400
1756 2400
209 2400
jum@@ 2400
vili 2400
cole@@ 2399
sad@@ 2399
40,@@ 2397
Thé@@ 2397
bán 2397
196 2396
207 2396
ş@@ 2396
exam@@ 2395
Ung@@ 2394
situ 2394
zel@@ 2394
CV@@ 2393
Philipp 2393
fav@@ 2392
keting 2392
1590 2391
Hes@@ 2391
Ket@@ 2391
Lyc@@ 2391
Dominique 2390
Tennis 2389
10000 2387
Frédéric 2387
ld 2387
1713 2386
Rober@@ 2386
174 2385
Agus@@ 2385
Jubil@@ 2385
jk 2385
kad@@ 2385
sdorf 2385
1.4 2384
ection 2384
letin 2384
Market 2383
apti@@ 2382
9,5 2381
cartes 2381
syl@@ 2381
Zak@@ 2380
254 2379
Luc 2378
esti 2378
lanc@@ 2378
Eff@@ 2377
Sno@@ 2377
Eil@@ 2376
boys 2376
horn 2376
lets 2376
ahu 2374
áu 2374
ż@@ 2374
א@@ 2374
plu@@ 2373
marine 2371
0,4 2370
Free@@ 2370
glau@@ 2370
atch@@ 2369
2.1 2368
bey@@ 2368
1598 2367
Euph@@ 2366
lik 2366
ân@@ 2366
Fest 2365
lois 2364
tere 2363
kho@@ 2362
recht 2362
Senior 2361
ān 2361
1715 2359
rh@@ 2359
Area 2358
Part 2358
179 2357
Mission 2357
taire 2357
èn@@ 2357
Type 2356
April 2355
C1 2355
RD 2355
Rainbow 2355
long 2355
ʻ@@ 2355
leg 2354
Joy@@ 2353
ugo 2350
AW@@ 2349
Bot 2349
Sold@@ 2349
1748 2348
brit@@ 2348
euve 2348
e- 2347
ged 2347
sou@@ 2347
410 2346
Orig@@ 2345
Rapha@@ 2345
Metall@@ 2344
alog 2344
illus 2343
ockey 2343
171 2342
bí 2342
ettes 2342
Stock@@ 2341
yana 2341
Peru 2340
SMS 2339
pén@@ 2339
Front 2338
Bayer 2337
Eich@@ 2337
clubs 2337
oru 2337
eko 2336
Lot 2335
UN 2335
arch 2335
pop@@ 2334
sper@@ 2334
300@@ 2333
Palest@@ 2333
Ov@@ 2331
SQL 2330
Way@@ 2330
thm 2330
Ç@@ 2330
191 2329
Anah@@ 2329
Rouge 2329
docum@@ 2329
tus@@ 2329
kín 2328
ź 2328
oft 2327
sci@@ 2327
alme 2326
uku 2326
2,1 2325
Agnes 2325
Services 2325
Stra@@ 2325
chet 2325
216 2324
back@@ 2324
arin 2323
iscus 2323
paras@@ 2323
vival 2323
Fine 2322
Missouri 2322
ilg@@ 2322
schild 2322
Johannes@@ 2321
enbach 2321
By 2320
hindi 2318
Broad@@ 2315
Herb@@ 2315
abu 2315
ombe 2315
1572 2314
Material 2314
Ave@@ 2313
eten@@ 2312
45,@@ 2311
annis 2310
forte 2310
1525 2307
lows 2306
1604 2305
Gilles 2305
ayr@@ 2305
folium 2305
1605 2304
ency 2304
ob 2304
1751 2303
Southampton 2303
hart 2302
ionale 2301
49,@@ 2300
Stro@@ 2300
rate 2300
brook 2298
Danz@@ 2297
Lid@@ 2297
218 2296
als@@ 2296
führer 2296
inter 2296
Core 2295
esch@@ 2295
1707 2294
Calli@@ 2294
irs 2294
ording 2294
HTML 2293
sis@@ 2293
Wag@@ 2292
iken 2292
Psych@@ 2290
190@@ 2289
ambu@@ 2288
VP 2287
Loh@@ 2286
Togo 2286
action 2286
Hammer 2284
teri 2284
1571 2283
Leib@@ 2281
333 2280
illet 2280
1595 2279
Wald@@ 2279
eser@@ 2279
isol@@ 2279
221 2278
255 2278
bús@@ 2278
Hit 2277
uch 2276
ա@@ 2276
Kost@@ 2274
0,8 2272
DF@@ 2272
Sophia 2272
chant@@ 2271
hut@@ 2270
éry 2270
Kant@@ 2269
Aw@@ 2268
CG 2268
cla@@ 2268
1642 2267
ê 2267
194 2265
SR@@ 2265
ight@@ 2265
ü 2265
Ment@@ 2264
Brenn@@ 2263
SH 2263
iday 2263
phe 2263
point 2263
yla 2262
Education 2260
kia 2260
ologi@@ 2258
lake 2257
′ 2256
1625 2255
Lein@@ 2255
Unix 2255
EG 2254
culus 2254
rah 2254
Isra@@ 2253
yond 2253
Dortmund 2251
nivel@@ 2251
och 2251
1585 2250
trong 2250
SAR@@ 2249
ned 2249
186 2246
Ub@@ 2246
1565 2244
Croix 2244
fique 2244
Ring@@ 2243
189 2241
bem@@ 2241
funden 2241
1621 2240
illar@@ 2240
Kamp@@ 2239
Song@@ 2239
Writ@@ 2239
79@@ 2238
LED 2238
Still 2238
Wad@@ 2237
room 2237
sex 2237
prior 2236
Solomon 2234
301 2233
Categ@@ 2233
Durham 2233
mans 2232
sts 2232
DD 2230
lay@@ 2230
46.@@ 2229
inning 2229
Mode 2228
Studies 2228
later 2228
opil@@ 2228
pole@@ 2228
1618 2227
1641 2227
2,6@@ 2227
Hammer@@ 2227
Munich 2227
44,@@ 2226
immer 2226
vita 2225
mail@@ 2224
liers 2223
thi 2223
vice 2222
245 2221
46,@@ 2221
Another 2221
Gerhard 2221
sheim 2221
oti 2220
48,@@ 2218
SN 2218
adis 2218
ded@@ 2218
exact@@ 2218
Tourn@@ 2217
saf@@ 2217
0.4 2216
Clermont 2215
Nokia 2215
ahan 2215
blin 2215
fig@@ 2215
20th 2213
Fah@@ 2213
Jou@@ 2213
four 2213
Glen@@ 2212
His 2212
Kuz@@ 2212
spin@@ 2212
fic 2211
stand 2211
2- 2209
Muk@@ 2209
ities 2208
ël 2208
1757 2207
Khal@@ 2207
630 2206
STS 2205
Sovi@@ 2205
phone 2205
Anglo 2204
Path@@ 2204
oid 2204
osum 2204
touch@@ 2204
Aph@@ 2203
Celtic 2203
Euro 2203
chu 2203
390 2202
Marine 2202
Wester@@ 2202
nir 2202
unter 2202
Doug@@ 2201
Scienti@@ 2201
Mai 2200
bourg 2200
242 2199
Pou@@ 2199
iku 2199
Lef@@ 2198
Net 2197
elde 2197
rav@@ 2197
cél@@ 2196
sii 2196
1745 2195
usse 2195
Body 2194
Eagles 2194
Eastern 2194
Short 2194
Route 2193
303 2192
Reading 2192
kö@@ 2192
pollu@@ 2192
Pope 2190
kow@@ 2190
led 2190
265 2189
Irish 2189
Thir@@ 2189
Walk 2189
1710 2187
187 2187
Christoph 2187
Communications 2187
arn 2187
igns 2186
plus 2186
vide 2184
460 2182
Madeleine 2182
eonato 2182
mart@@ 2182
199 2181
Lt@@ 2181
comer@@ 2181
lice 2181
747 2180
Halle 2180
nor 2180
tius 2180
1635 2179
denes 2179
ischer 2179
sum 2179
1656 2178
brun@@ 2178
Bauer 2177
Bundes@@ 2177
GN@@ 2177
ainst 2176
Muz@@ 2174
1568 2173
264 2173
84@@ 2173
Henn@@ 2173
Hull 2173
Mara 2173
Monica 2173
Purple 2172
Alter@@ 2171
asure 2171
constr@@ 2171
ufa 2171
Hex@@ 2170
mers 2169
ehouse 2168
iP@@ 2168
pher@@ 2168
Hik@@ 2167
Mahar@@ 2167
Rus 2167
Train 2166
aps 2166
atre 2166
new@@ 2166
XP 2165
ikos 2165
rot 2165
Explorer 2164
Renn@@ 2164
afé 2164
Case 2163
Oise 2163
Other 2163
ente@@ 2162
ő@@ 2162
1,000 2161
198 2160
Fif@@ 2160
Holoc@@ 2160
Symphony 2160
isti 2159
rd 2159
1735 2158
atz 2158
Lion 2156
frey 2156
non@@ 2154
Lieb@@ 2153
Luther 2153
Innsbruck 2152
Independ@@ 2151
Siemens 2151
Pennsylvania 2150
ñana 2150
Fren@@ 2149
nith@@ 2149
rent 2149
zones 2149
Rif@@ 2148
Work@@ 2148
alleg@@ 2148
ml 2148
Mein@@ 2147
nun@@ 2147
stead 2147
ogie 2145
sam 2145
soni 2145
Crown 2144
ancer 2144
vey 2144
1622 2143
enfeld 2142
234 2141
640 2141
מ@@ 2141
86@@ 2140
tii 2140
1632 2139
1644 2138
mete 2137
sta@@ 2137
rest 2136
226 2135
rim 2135
Rez@@ 2133
imag@@ 2133
Apollo 2131
Encyclo@@ 2131
text 2131
Kang@@ 2130
Touch 2129
UI 2129
climat@@ 2129
ilk 2129
1749 2128
HA 2128
aill@@ 2128
ician 2127
punc@@ 2127
NCA@@ 2124
cot 2124
onium 2124
König@@ 2123
Abdullah 2121
Flag@@ 2121
vehic@@ 2121
wei 2121
Des 2120
Middle 2120
aifa 2120
domo 2120
ht@@ 2120
its@@ 2120
ṣ@@ 2120
Frei@@ 2118
spr@@ 2118
wie 2118
ney@@ 2116
253 2115
Chamb@@ 2115
194@@ 2114
orie 2114
Mary@@ 2113
Feld@@ 2110
porter 2109
Rach@@ 2108
major 2108
tens 2108
Karak@@ 2107
Krish@@ 2106
Moul@@ 2106
Den 2105
CDU 2104
HD@@ 2104
1,9@@ 2103
1689 2103
Paran@@ 2101
Villen@@ 2101
formis 2101
đ@@ 2101
Burundi 2100
Siv@@ 2099
mila 2099
ა@@ 2099
ecker 2098
eze 2098
1612 2097
WW@@ 2097
obus 2097
phon@@ 2097
séqu@@ 2097
1701 2095
pande 2095
Code 2094
arak 2094
ffen 2094
Ai 2093
leri 2093
Lili@@ 2092
2,7@@ 2091
Gör@@ 2091
Small 2091
Brau@@ 2090
Inh@@ 2090
sidi@@ 2090
540 2089
center 2089
1739 2088
orf 2088
1717 2087
Karab@@ 2087
Script 2087
Édouard 2087
7.5 2086
87@@ 2086
aku@@ 2086
IU@@ 2085
Oak@@ 2085
ational 2085
BN 2084
Horn 2084
yk@@ 2084
Berger 2083
zor 2083
1606 2082
47,@@ 2082
Milli@@ 2082
Park@@ 2082
Wales 2082
dou@@ 2082
indig@@ 2082
Marguerite 2081
Note 2079
teau 2079
Order 2078
Gott@@ 2077
aint 2077
Afro@@ 2076
NET 2076
Poin@@ 2076
nic 2076
stic@@ 2076
ebel 2075
Urban 2074
sim 2074
MR 2073
Player 2073
ombi 2073
1724 2072
Hous@@ 2072
Samb@@ 2071
Server 2071
orph@@ 2071
Grenoble 2070
lux@@ 2069
mich@@ 2069
1725 2068
vidence 2068
228 2067
gets 2067
213 2065
lam 2065
visa 2065
238 2063
Brand 2063
Palais 2063
align 2063
ht 2063
issi@@ 2061
seas 2061
was@@ 2060
ylus 2060
197@@ 2059
Cape 2059
1559 2057
ool 2057
ump 2056
SK@@ 2055
ografia 2055
trein@@ 2055
Shr@@ 2054
1592 2053
Labor 2053
Nih@@ 2053
ţ@@ 2052
231 2051
Now@@ 2051
put 2050
Côte 2049
Kau@@ 2049
1629 2048
Tach@@ 2048
1569 2047
akes 2047
ré 2047
tape 2047
1723 2046
2,5@@ 2046
izi 2046
Dial@@ 2044
Stap@@ 2044
api 2043
49.@@ 2041
Her 2041
Week 2041
ª@@ 2041
610 2040
Ceph@@ 2040
Engineering 2040
airo 2040
1736 2039
Lepto@@ 2039
1615 2038
1619 2038
Arsen@@ 2038
Migu@@ 2038
kim@@ 2038
Ports@@ 2037
hui 2036
262 2035
Globe 2034
aille 2034
rom 2034
1611 2033
esha 2033
Gérard 2032
Loire 2032
Single 2032
Chapelle 2031
anea 2031
ulin 2031
­ 2031
1738 2030
Gly@@ 2030
Anh@@ 2029
Head@@ 2029
Hoffmann 2029
aries 2029
bium 2029
mu 2029
241 2027
Sta@@ 2027
scope 2026
233 2025
Know@@ 2024
Peters 2024
KS 2023
Pass 2023
Bernhard 2021
odi 2021
227 2020
Volks@@ 2020
Tetr@@ 2019
bois 2019
covers 2019
kilom@@ 2019
Minn@@ 2018
det 2018
ospel 2018
1616 2017
1688 2016
50,@@ 2016
FDA 2016
1649 2015
285 2014
iques 2014
Heil@@ 2013
Oregon 2013
Ira@@ 2012
Mail 2012
jit@@ 2012
Flight 2011
osto 2011
champ@@ 2008
ting@@ 2007
ー@@ 2007
enstein 2006
tán 2006
Buff@@ 2005
onau@@ 2005
Cous@@ 2004
Dietrich 2004
NHL 2004
tree 2004
grac@@ 2003
phil@@ 2003
rose 2003
224 2002
uit 2002
Ehr@@ 2001
Highway 2001
contrain@@ 2001
Gaulle 2000
Hong@@ 2000
aser 2000
gau 2000
Kassel 1999
Lö@@ 1999
terren@@ 1999
520 1998
isters 1998
volution 1998
Sans@@ 1997
amu 1997
gé@@ 1997
1638 1996
ause 1996
ehr 1996
1746 1995
Inn 1995
Fey@@ 1994
mud 1994
ufac@@ 1994
1665 1993
1737 1993
boz@@ 1993
1742 1992
313 1992
Alle@@ 1992
like 1992
log 1992
Đ@@ 1992
Syr@@ 1991
ì@@ 1991
Unter@@ 1990
ppe 1990
Captain 1989
ombie 1989
yes@@ 1989
ogen 1988
1645 1987
89@@ 1987
95@@ 1987
Edel@@ 1987
Paz@@ 1987
Samm@@ 1985
Bros. 1984
otur@@ 1984
zel 1984
Round 1983
1250 1982
adam@@ 1982
1733 1981
Philosoph@@ 1981
essen 1981
pra@@ 1981
1626 1980
1667 1980
word 1980
Report 1979
1555 1978
Christophe 1978
Ingen@@ 1978
ocy@@ 1978
1624 1977
45.@@ 1977
craft 1977
Prov@@ 1976
1704 1975
Caracter@@ 1975
iders 1975
lime@@ 1975
mat 1975
1,0@@ 1974
Champion 1974
GmbH 1974
Rand 1974
ire@@ 1974
1672 1972
219 1972
Giants 1972
hand@@ 1972
ird 1971
1734 1969
Front@@ 1969
Upper 1969
306 1967
Industries 1966
éph@@ 1966
ück 1965
Slav@@ 1964
Yug@@ 1964
Scher@@ 1963
atrice 1963
eline 1963
1634 1962
HR 1962
oms 1962
Acanth@@ 1960
1741 1959
304 1959
hop@@ 1959
sti 1958
yas@@ 1958
1718 1957
1711 1956
1729 1956
Far 1955
essel 1955
1596 1954
amay@@ 1954
lei 1954
Alphon@@ 1953
Stage 1953
amental 1952
1519 1951
248 1950
dog 1949
cois 1948
subst@@ 1948
2.4 1947
Plant 1947
ej 1946
type 1946
Sper@@ 1945
nak@@ 1945
1728 1944
1747 1944
tata 1944
usta@@ 1944
1627 1943
Anf@@ 1943
Graz 1943
nitz 1943
Farm 1942
Ruh@@ 1942
jen 1941
1668 1940
Gottfried 1940
Rue 1940
anges 1940
Aki@@ 1938
Alek@@ 1938
fasci@@ 1938
251 1936
295 1936
BK 1936
estone 1933
chem 1931
Borussia 1930
Compan@@ 1930
Kend@@ 1930
wski 1930
1607 1929
doba 1929
Fiction 1927
av 1927
your 1926
1675 1925
530 1925
Aviation 1925
Zw@@ 1925
anz 1925
π 1925
1683 1924
anensis 1924
anyon 1923
1716 1922
1744 1922
Abbey 1922
dii 1922
stri@@ 1922
308 1921
mad 1921
560 1920
Graf 1920
aking 1919
emy 1919
olm 1919
uls 1919
aik@@ 1918
Graf@@ 1917
9000 1916
Partn@@ 1916
Was 1916
dow@@ 1916
onso 1916
Advanced 1915
African 1915
Theory 1914
252 1913
Sultan 1913
1,8@@ 1912
Police 1912
elli@@ 1910
Region 1909
Witt@@ 1909
ON 1908
angle 1908
olle 1908
Ital@@ 1906
ao@@ 1906
rue 1906
1705 1905
IEEE 1905
Cem@@ 1904
gom@@ 1904
dim 1903
ège 1903
195@@ 1902
Block 1902
Hand 1902
ports 1902
teles@@ 1902
Kauf@@ 1901
adies 1901
cles 1901
disc 1901
tois 1901
1643 1900
Austral@@ 1900
5.5 1899
BSD 1899
édr@@ 1899
Dar 1898
Kras@@ 1895
uster 1894
1350 1893
abase 1893
mili@@ 1893
river 1893
Fast 1891
193@@ 1890
223 1890
kill 1890
ß 1890
door 1889
ift 1889
roch@@ 1889
1547 1888
Boz@@ 1888
Dendro@@ 1888
Dh@@ 1887
olar@@ 1887
ה@@ 1887
0.6 1886
6.5 1886
onym@@ 1885
1708 1884
icro@@ 1884
orch@@ 1884
princi@@ 1884
utz@@ 1884
Dry@@ 1883
LD 1883
1658 1882
48.@@ 1881
rah@@ 1881
1450 1880
mates 1879
round 1879
1623 1878
hl 1878
inz@@ 1878
1601 1877
1743 1877
Abbas 1877
ב@@ 1877
Rennes 1876
1628 1875
0.7 1874
Somme 1874
ags 1872
atidae 1872
Trab@@ 1871
link 1871
1556 1870
kap@@ 1870
ls@@ 1870
weight 1870
249 1868
3,0@@ 1868
Culture 1868
Linn@@ 1868
Aleksand@@ 1867
Hasan 1867
iç@@ 1867
192@@ 1866
Without 1866
adj@@ 1866
Guin@@ 1865
Moun@@ 1865
break 1865
prueb@@ 1865
Ulrich 1864
adol@@ 1864
Heim@@ 1863
Histoire 1863
Thel@@ 1863
Wing 1863
elier 1863
Spanish 1862
oks 1862
kei 1861
Heritage 1860
Warri@@ 1860
720 1859
Nikolai 1859
eden@@ 1859
nie 1859
place 1859
form 1858
kos@@ 1858
vision 1858
zum@@ 1858
302 1857
Mund@@ 1857
shot 1857
vus 1857
321 1856
sén@@ 1856
burg@@ 1855
yal@@ 1855
196@@ 1854
Information 1854
Aix 1853
anl@@ 1853
czy@@ 1852
1685 1851
229 1850
Gramm@@ 1849
Index 1849
Sask@@ 1849
fung@@ 1848
iku@@ 1848
Schwarz@@ 1847
þ@@ 1847
1515 1846
BO 1846
brach@@ 1846
Helmut 1845
Jena 1845
hood 1845
Prof. 1844
Tigers 1844
équ@@ 1844
Tic@@ 1843
Wilhel@@ 1843
Ca 1842
Fé@@ 1842
Hohen@@ 1842
eig@@ 1842
ences 1842
rei 1842
Bahn 1841
tienne 1841
Most 1839
1659 1838
Adler 1838
rum 1838
Ta 1836
Sultan@@ 1834
1726 1833
1732 1833
hot 1833
iran 1833
kh 1833
alter 1831
devenir 1831
tah@@ 1831
tek 1831
tracks 1831
1637 1830
Fund 1830
lieu 1830
utu 1830
IUCN 1829
furt 1829
307 1828
Prize 1828
47.@@ 1827
Exchange 1827
Vienne 1827
aff 1827
online 1827
10,000 1826
286 1826
alip@@ 1826
iidae 1826
315 1825
Académie 1825
tig 1825
Bré@@ 1823
Tottenham 1823
ל@@ 1823
1583 1822
1661 1822
1699 1822
512 1822
Private 1821
dans 1821
hii 1821
2.3 1820
itat 1819
part 1819
poste 1819
teen 1819
1636 1818
Feb@@ 1818
Hans@@ 1818
June 1818
Rhein@@ 1818
minut@@ 1818
244 1817
nés 1817
Manit@@ 1816
eben 1816
emen 1816
wes@@ 1816
261 1815
ual@@ 1815
ívar 1815
1731 1814
dete 1814
1664 1812
1702 1812
Chu 1812
itre 1812
saba 1812
ς 1811
dite 1809
street 1809
then 1809
ehem@@ 1808
2,8@@ 1807
neno 1807
2,0@@ 1806
236 1806
hug@@ 1806
tium 1806
fish 1805
Nam 1804
omon 1803
Mississippi 1802
sung 1802
1577 1801
ô 1801
335 1800
1633 1799
Finn@@ 1799
UB 1799
243 1798
gué 1798
iens 1798
left 1798
teur 1798
1662 1797
ellan 1797
nim@@ 1797
utes 1797
Of@@ 1796
stein@@ 1796
Guiller@@ 1795
Financial 1794
Rovers 1794
inté@@ 1794
occident@@ 1794
Chamber 1793
Hi 1793
Hoch@@ 1793
list 1793
1.7 1792
Moses 1792
best 1792
late 1792
German 1791
Konstant@@ 1791
Toul@@ 1791
1727 1790
247 1790
Together 1790
atas@@ 1790
boles 1790
bright 1790
kas@@ 1790
288 1789
Bureau 1789
Louisiana 1789
liche 1788
mam 1788
323 1787
iff@@ 1787
longi@@ 1787
1666 1786
272 1786
sun 1786
ł 1786
Bertr@@ 1785
NY 1785
tures 1785
Wies@@ 1784
405 1783
Wide 1783
ologies 1783
Elek@@ 1782
ign 1782
lywood 1782
tronics 1782
1631 1781
BAFTA 1781
cker 1781
olim@@ 1781
rek 1780
Keller 1779
dian 1779
staff 1779
Lower 1778
Abo@@ 1777
Chung 1777
Uh@@ 1777
cleo 1777
ember 1777
ophyl@@ 1777
1697 1776
App 1776
ching 1776
hof 1776
young 1776
TT@@ 1775
Yusuf 1775
chini 1775
eim@@ 1775
Cz@@ 1774
meister 1774
Protest@@ 1773
1655 1772
termine 1771
çal@@ 1770
1722 1769
Airport 1769
Style 1769
vais 1767
1721 1766
Ame@@ 1766
Ug@@ 1766
conn@@ 1766
press 1766
ḥ@@ 1766
680 1764
Nomin@@ 1764
rul@@ 1764
1651 1763
Holy 1762
irk 1762
ub 1761
witz 1761
0.8 1760
vim@@ 1760
Bey 1759
Nations 1759
Potsdam 1759
tionary 1759
Dunk@@ 1758
They 1758
Wiener 1758
1703 1757
tivi@@ 1757
Moritz 1756
1654 1755
Rest@@ 1755
ovice 1755
Wen@@ 1754
upo 1754
237 1753
Wet@@ 1753
issus 1753
246 1752
Third 1752
encab@@ 1752
æ 1752
Ankara 1751
Théâtre 1751
kes@@ 1751
å 1751
268 1750
3- 1749
Mikha@@ 1749
main@@ 1749
DT@@ 1748
Food 1748
Lux@@ 1747
Mustafa 1747
dur 1747
lub 1747
pu 1747
thy@@ 1747
Hain@@ 1745
Saints 1744
0.0 1743
Class 1743
Schrö@@ 1743
tet 1743
Æ@@ 1743
257 1742
List 1742
Maw@@ 1742
Uch@@ 1742
ists 1742
ṇ@@ 1742
Ph.@@ 1741
Armen@@ 1740
311 1739
IA@@ 1739
Sonder@@ 1739
fest 1739
Kra@@ 1738
icht 1737
Chik@@ 1735
Anto@@ 1734
home 1734
tay@@ 1734
Language 1733
tou@@ 1733
1517 1732
312 1732
96@@ 1732
lein 1732
lern 1732
263 1731
Blas@@ 1731
pup@@ 1731
illes 1730
ð 1729
ש@@ 1729
ledge 1728
arbi@@ 1727
1676 1726
izer 1726
tian 1726
1709 1725
Zimmer@@ 1725
ugu@@ 1725
1653 1724
Rap 1724
amil@@ 1724
ancy 1724
Stat@@ 1723
Before 1722
Nou@@ 1722
Tournament 1722
ation@@ 1722
osom@@ 1721
µ@@ 1721
pose 1720
Konrad 1719
sian 1719
vière 1719
À@@ 1718
Hydro@@ 1717
1652 1716
Ush@@ 1716
1712 1715
Bem@@ 1715
gend@@ 1715
layer 1715
oire 1715
Real@@ 1714
Vers@@ 1714
Common 1713
Kiy@@ 1713
isher 1713
opol@@ 1713
97@@ 1712
lide 1712
wana 1712
Bih@@ 1711
Milano 1711
esk@@ 1711
shop 1711
iker 1709
uter 1709
266 1708
syn@@ 1708
Around 1706
Klu@@ 1706
scher 1706
Foreign 1705
dres@@ 1704
stedt 1703
Lept@@ 1702
gy@@ 1702
Sen 1701
biy@@ 1701
960 1700
idaceae 1700
Jürgen 1699
309 1698
Stic@@ 1698
chart 1698
iwa 1698
2030 1697
Through 1697
eshi 1697
Mathemati@@ 1696
Provence 1696
Tai 1696
Trophy 1696
DNA 1695
pei 1695
Ab 1694
Distribu@@ 1694
Minh 1694
ifu@@ 1694
ignan 1694
Ş@@ 1694
ership 1693
hul@@ 1693
tn@@ 1693
1597 1692
2,000 1692
Atlé@@ 1692
arada 1692
284 1691
406 1691
Mahmud 1691
foot 1691
gr 1691
1719 1690
Tch@@ 1690
cou@@ 1690
thouse 1690
Medicine 1689
ging 1689
iting 1689
281 1688
Change 1688
Sankt 1688
bone 1688
sn@@ 1687
269 1686
angi 1686
Abdul@@ 1685
Elle 1685
3.2 1684
4.0 1684
ulum 1684
Mehmed 1683
Nationale 1683
brand@@ 1683
sigu@@ 1683
1687 1682
239 1682
öh@@ 1682
1678 1681
tei 1681
510 1679
Dop@@ 1679
gé 1678
Marsh@@ 1677
501 1676
660 1676
fall 1676
נ@@ 1676
Andaluc@@ 1675
Ba 1675
Cinc@@ 1675
Work 1675
273 1674
ppen@@ 1674
Non 1673
embl@@ 1673
riff 1672
âte@@ 1672
Karlsruhe 1671
Vf@@ 1671
mid 1671
amino 1670
267 1668
Spain 1668
Gust@@ 1667
coin 1667
Tali@@ 1665
ought 1665
Gang 1664
322 1663
292 1662
Caes@@ 1662
alay@@ 1662
cred@@ 1662
idia 1661
ière 1661
Ż@@ 1660
338 1659
Chrom@@ 1659
ansa 1659
hill 1659
NH 1658
DL@@ 1657
Aven@@ 1656
class 1656
Zanz@@ 1655
ppi 1655
Illustr@@ 1653
Occit@@ 1653
Rund@@ 1652
Akh@@ 1651
Stock 1651
287 1650
Trom@@ 1650
philus 1650
dés@@ 1649
259 1648
inet 1648
258 1647
uu 1647
Blum@@ 1646
ara@@ 1646
chem@@ 1646
hio 1646
space 1646
Geb@@ 1645
vy@@ 1644
Baba 1643
aders 1643
kii 1643
Edu@@ 1642
Klo@@ 1642
ainer 1641
ending 1641
thel@@ 1641
395 1640
burgh 1640
cian 1640
hiy@@ 1640
seen 1640
fen 1639
Christ 1638
Some 1638
force 1638
iat 1636
they 1636
últim@@ 1636
assen 1635
phr@@ 1634
Isle 1633
ators 1632
eres@@ 1632
[...]
