, 4589530
. 4103509
του 2828185
και 2709934
της 2020067
το 1938249
&quot; 1466922
την 1365039
από 1249766
ο 1156729
με 1128727
η 1030410
) 949684
( 945028
να 933150
τον 860183
που 794280
των 772482
σε 739414
στην 719828
για 695359
στο 687117
τη 641721
τα 599178
είναι 594120
οι 540070
Η 515717
τους 494249
Το 464429
ή 454617
Ο 450815
@-@ 442241
ήταν 397239
στη 381556
ως 360084
τις 333910
: 296761
ών 289546
ος 274883
στις 269833
ένα 266057
Σ@@ 259232
ου 251302
ική 240663
ότι 240574
ικό 239433
μια 238691
στον 233818
ία 230485
ες 224052
ων 221789
στα 220965
ό 220055
« 218447
» 217092
ίας 212639
αν@@ 209518
σ@@ 206633
ά 203715
ής 200889
ους 199479
δεν 198521
β@@ 194433
α 194316
φ@@ 194196
ές 191324
εν@@ 187532
Οι 186392
Κ@@ 183795
ικά 183487
τ@@ 181049
ός 180973
χ@@ 180299
ο@@ 178204
ι@@ 176958
Π@@ 176563
΄ 173941
ικής 171299
είχε 168175
μ@@ 168163
προ@@ 165023
Τ@@ 164614
Α@@ 162089
ν@@ 161732
Ν@@ 161065
Μ@@ 160330
Β@@ 160047
ού 159759
α@@ 158387
ι 157720
θ@@ 156862
έχει 156625
δ@@ 155643
κατά 154614
κ@@ 153757
ης 153525
π@@ 153124
αλλά 145965
ικού 145634
γ@@ 145511
Λ@@ 145235
στ@@ 144276
ικές 143396
ας 143224
απο@@ 142385
ί@@ 141611
εκ@@ 141475
αν 139477
ου@@ 138315
λ@@ 137168
ενώ 136856
ά@@ 136314
έ@@ 134968
ικών 133988
ό@@ 133666
οποία 132932
ω@@ 132842
θα 132462
δι@@ 129923
όπως 128375
δύο 127389
ρι@@ 127200
&apos; 126918
- 126915
άν@@ 122930
εξ@@ 122010
η@@ 121318
ς 121108
Ρ@@ 120579
ζ@@ 120455
ε@@ 119944
συν@@ 118873
ύ@@ 118741
Χ@@ 118214
ε 117625
μετά 114944
Ε@@ 114689
τ 114605
επι@@ 114469
υπο@@ 114189
μα 114111
μπ@@ 114017
ρ@@ 113758
Φ@@ 113289
όταν 113206
ιν@@ 112695
ευ@@ 111233
ού@@ 110259
παρ@@ 109946
όπου 109727
έν@@ 108795
επίσης 108578
ει 108511
υ@@ 108117
ερ@@ 106944
ακ@@ 106931
τι@@ 105932
Δ@@ 105806
ον@@ 105717
γκ@@ 105611
ίου 105450
απ@@ 105236
ρο@@ 105224
μία 103971
ούς 103634
Ο@@ 103615
ια 103566
/ 103096
αρ@@ 103050
κα@@ 102757
Ι@@ 102121
ν 101334
λι@@ 99916
Τα 98834
ικ@@ 97389
ατ@@ 96315
κατα@@ 96123
επ@@ 94647
ουν 94195
ικός 93622
ση 93088
καθώς 92708
ισ@@ 92550
λ 92276
οποίο 91206
Μπ@@ 91120
Α 90812
τική 90739
ορ@@ 89440
Γ@@ 88669
τσ@@ 88266
αντι@@ 87852
ή@@ 87720
το@@ 87612
θε@@ 86685
άρ@@ 86626
στους 86135
ίες 85179
ασ@@ 84700
μέχρι 84367
ανα@@ 84249
μεταξύ 83846
εία 83819
αλ@@ 82697
ί 82652
κ 82062
αγ@@ 82043
ρα@@ 82029
ξ@@ 81391
2 81241
ώ@@ 81134
έχουν 81123
αυτό 80479
σης 80189
σκ@@ 79705
έγινε 79536
χρόνια 78797
τος 78312
μετα@@ 77658
τικό 77534
ρί@@ 77406
τα@@ 77017
ησε 76820
προσ@@ 76791
ρ 76783
πρώτη 76314
1 75969
προς 75881
σι@@ 75371
ελ@@ 75231
να@@ 74758
πιο 74705
ομ@@ 74582
πλ@@ 74299
Β 74006
οί 73328
ίων 72873
Στις 72715
ει@@ 72311
Ζ@@ 72284
; 71912
τρ@@ 71673
αι@@ 71046
περιοχή 70631
ήθηκε 70556
πόλη 70479
μπορεί 69834
θέση 69378
τες 69056
αυτή 68949
άλ@@ 68797
περι@@ 68294
Γκ@@ 67989
ήσει 67845
κο@@ 67678
βι@@ 67590
ομάδα 67183
λε@@ 67051
τικά 66536
σαν 66369
ιο 66288
ένας 66252
διάρκεια 65588
Αν@@ 65554
ίν@@ 65091
αφ@@ 64991
3 64545
υπ@@ 64476
κλ@@ 64470
αμ@@ 64388
αιώνα 64316
τά@@ 63081
μ 62908
ηση 62587
ολ@@ 62322
δια@@ 61868
Έ@@ 61688
έρ@@ 61602
ρά@@ 61460
οποίος 61287
όρ@@ 61015
εται 60879
οδ@@ 60838
Από 60696
είχαν 59867
εί 59855
όν@@ 59441
θεί 59415
&amp; 59007
ώντας 58513
ρος 57907
Στην 57737
ψ@@ 57655
λα@@ 57550
% 57174
έναν 56850
– 56709
έκ@@ 56597
ενός 56408
μα@@ 56320
περίοδο 56113
μέρος 55643
οπ@@ 55463
μόνο 55402
ρα 55036
ότητα 55018
πολύ 54792
πο@@ 54328
Ά@@ 54286
οσ@@ 54217
μαζί 53989
Μετά 53880
4 53879
Τζ@@ 53869
μον@@ 53632
Δι@@ 53541
έως 53514
ικούς 53424
ήσεις 53394
είται 53348
ον 53279
ωση 53221
Με 52943
εί@@ 52419
άσ@@ 52282
τικές 52183
μά@@ 51988
έλ@@ 51889
ων@@ 51344
τερ@@ 51268
Θ@@ 51124
περίπου 50924
βρίσκεται 50765
είο 50754
μι@@ 50652
ερ 50616
όμως 50434
υλ@@ 50251
ίσ@@ 50029
άς 50027
εγ@@ 49933
ονται 49914
γι@@ 49814
τη@@ 49746
είας 49663
άκ@@ 49371
εύ@@ 48887
μένη 48744
ρε@@ 48461
κά@@ 48445
φορά 47915
τικής 47458
εν 47433
όνομα 47310
αργότερα 47169
είου 47025
Στο 47014
τότε 46858
εφ@@ 46795
εισ@@ 46719
μάτων 46710
τι 46505
κάθε 46398
Τσ@@ 46271
Κατά 46261
τζ@@ 46146
είς 46101
Προ@@ 46051
αυ@@ 45606
πι@@ 45596
ούν 45537
όν 45311
μέσα 45206
οντας 45195
5 45141
ίδια 44724
Παρ@@ 44512
τικών 44475
ματα 44456
θηκαν 44224
&#93; 44168
λλ@@ 44052
ισμό 43902
τρι@@ 43897
καλ@@ 43738
έ 43585
&#91; 43581
αρχ@@ 43572
ήματα 43446
πως 43366
Γι@@ 43297
.@@ 43253
οκ@@ 43052
Τον 42999
Είναι 42991
Σε 42720
πρώτο 42545
αστ@@ 42436
λόγω 41870
γεν@@ 41770
ρου 41745
άγ@@ 41589
όσ@@ 41588
μαν@@ 41528
ογ@@ 41459
μέ@@ 41350
ιστ@@ 41254
Συν@@ 41190
πριν 41130
ούσε 41115
τε@@ 41102
ισμού 41032
υπό 40854
ταινία 40792
κυρίως 40709
σειρά 40700
ηγ@@ 40608
Την 40328
Η@@ 40205
μη 40160
αντ@@ 40067
ιλ@@ 39979
συνέχεια 39890
ώθηκε 39864
ρού@@ 39787
όπ@@ 39767
ιά 39750
τού 39364
με@@ 39199
αί@@ 39182
10 39082
π 39064
ματ@@ 38663
ετών 38648
μένο 38602
Για 38565
οχ@@ 38488
ποι@@ 38397
πάνω 38375
φορ@@ 38367
6 38282
ικοί 38121
οφ@@ 37975
ημ@@ 37909
πέ@@ 37900
πρ@@ 37900
Μαρ@@ 37879
έργο 37768
ησης 37567
παν@@ 37487
φορές 37477
μιας 37462
ξη 37459
άν 37448
τέ@@ 37404
τελ@@ 37356
βασ@@ 37342
βλ@@ 37335
διά@@ 37323
όλ@@ 37293
καθ@@ 37268
αβ@@ 37245
μερ@@ 37087
οποι@@ 37045
τικού 37011
φ 36970
ειας 36896
τυ@@ 36830
Ελλάδα 36776
υρ@@ 36764
ίδα 36751
θηκε 36482
δε@@ 36466
τών 36408
Στη 36319
2011 36074
ζ 35878
ίστηκε 35803
ντ 35782
χωριό 35736
Ήταν 35703
καν@@ 35664
τί@@ 35517
ρέ@@ 35458
Αλ@@ 35418
νε@@ 35348
ίζει 35194
σήμερα 35175
τά 35038
ίκ@@ 34943
ηθεί 34926
σία 34841
χωρίς 34800
έφ@@ 34730
Καρ@@ 34728
έχ@@ 34702
ώσει 34592
οβ@@ 34578
ρο 34494
ησαν 34454
αθ@@ 34425
ότητας 34375
ιών 34356
όλα 34314
συ@@ 34206
ημα 34120
σπ@@ 34113
ίλ@@ 34047
ουν@@ 33941
θη@@ 33929
Γου@@ 33900
ρω@@ 33848
ετ@@ 33771
ιμ@@ 33688
αλλ@@ 33650
αυτά 33584
ειδ@@ 33542
Ου@@ 33308
Αρ@@ 33122
14@@ 33118
Γ 33098
ίδιο 32993
ϊ@@ 32969
τας 32871
Κα@@ 32829
μεν@@ 32818
ματος 32779
τεχν@@ 32710
σσ@@ 32702
περ@@ 32660
σύμφωνα 32641
8 32602
7 32528
Επίσης 32512
ώς 32473
μέσω 32471
σίας 32424
θέ@@ 32347
πρό@@ 32330
Σύμφωνα 32317
μεγάλη 32315
Αγ@@ 32293
ισμός 32242
αποτέλεσμα 32203
τές 32141
καρ@@ 32017
τή 32008
13@@ 31963
μέλος 31827
πόλης 31744
εποχή 31665
κτ@@ 31622
_ 31621
έλαβε 31584
εδ@@ 31565
χω@@ 31522
ομάδες 31513
ιστορία 31470
ήσουν 31465
όσο 31429
Ό@@ 31428
έτσι 31413
20 31367
τού@@ 31343
δυ@@ 31270
τικός 31257
πολλές 31248
12 31216
τμήμα 31186
ω 31133
κιν@@ 30981
μπο@@ 30916
εκλογές 30803
στοιχεία 30743
γραφ@@ 30690
ήθηκαν 30481
αδ@@ 30404
κυ@@ 30379
λά@@ 30270
έκανε 30252
τρεις 30134
όγ@@ 30097
άλλα 30079
σχ@@ 30071
δο@@ 30042
νομ@@ 30019
αρχές 29943
εργ@@ 29943
υπερ@@ 29873
π.Χ. 29869
ορι@@ 29824
αναφέρεται 29811
άμ@@ 29771
Καλ@@ 29701
οι@@ 29701
5@@ 29669
ουλ@@ 29651
τον@@ 29556
μένων 29554
τέλος 29545
του@@ 29528
ην@@ 29381
οργαν@@ 29359
υγ@@ 29344
ούνται 29329
χώρα 29296
Ωστόσο 29082
επί 29071
χαρ@@ 29058
ονταν 29035
= 28946
κοντά 28920
4@@ 28861
μο 28861
ούν@@ 28807
αποτελεί 28757
τίτλο 28685
πολλά 28615
φιλ@@ 28501
ών@@ 28494
κι 28455
τόσο 28442
15 28426
έσ@@ 28368
ωσε 28355
ωσης 28301
Υ@@ 28229
άλλες 28223
ταν@@ 28198
όκ@@ 28188
μο@@ 28187
υν@@ 28164
άστηκε 28102
όμ@@ 28096
ηλικία 28083
έδρα 28077
γκ 28066
σα 28028
ψη 27991
ξεκίνησε 27962
ρά 27960
γιος 27946
χ 27941
μένα 27886
μένος 27674
σύν@@ 27625
The 27563
αχ@@ 27537
ζωή 27384
υπάρχει 27375
λογ@@ 27353
νη 27233
6@@ 27133
ρίας 27112
εκ 27031
λί@@ 26971
πε@@ 26944
πρωτάθλημα 26901
9 26840
εμ@@ 26800
κόρη 26796
ιν 26788
ολογία 26785
15@@ 26759
μεγάλο 26755
2010 26711
πα@@ 26695
κατοίκους 26668
συμβ@@ 26641
ώστε 26532
έργα 26522
ύ 26503
σμ@@ 26502
χρ@@ 26473
κρατ@@ 26453
χρήση 26425
τής 26346
εια 26295
Ανα@@ 26261
υ 26192
μέλη 26188
αζ@@ 26160
Ιουλίου 26156
Αυγούστου 26075
τησε 25864
ριν@@ 25751
3@@ 25726
of 25712
κας 25674
όχ@@ 25666
8@@ 25629
Μαρτίου 25622
νο@@ 25611
Εθνική 25603
χρόνο 25603
όλη 25551
β 25463
αυτές 25426
παρα@@ 25335
αφού 25329
ότητες 25301
υπάρχουν 25278
ήμ@@ 25237
30 25234
16 25232
Σεπτεμβρίου 25203
ώσεις 25158
Οκτωβρίου 25147
βάση 25141
11 25130
λέ@@ 25115
14 25113
εκτός 25058
όβ@@ 25052
σει 25042
ακόμη 25028
λη@@ 25020
νης 24983
τελικά 24965
formula 24962
υσ@@ 24946
’ 24904
12@@ 24878
σεις 24870
Ιουνίου 24864
7@@ 24842
Στα 24825
οποίες 24812
Ε 24803
είτε 24790
Μαΐου 24788
γύρω 24753
έα 24687
9@@ 24685
περιοχές 24658
Όταν 24636
ολογ@@ 24611
Ιανουαρίου 24608
Με@@ 24592
τοπ@@ 24589
ιερ@@ 24577
μου 24538
σύστημα 24488
έπ@@ 24460
Θε@@ 24451
άζει 24441
ξης 24423
πά@@ 24395
δεύτερη 24375
επαν@@ 24322
πρέπει 24305
στο@@ 24280
οξ@@ 24197
μηχαν@@ 24195
18 24182
βά@@ 24177
τε 24149
συχνά 24140
Απριλίου 24132
εβ@@ 24118
ακόμα 24117
σεζόν 24108
Εν@@ 24099
μβ@@ 23989
ομάδας 23971
ιζ@@ 23920
Άν@@ 23902
τερ 23875
ώνει 23860
ιδ@@ 23844
ουσ@@ 23825
όφ@@ 23805
κυβέρνηση 23773
ελ 23704
μορφή 23687
αρχικά 23646
Αυτό 23641
Αγίου 23628
Λου@@ 23581
ίζεται 23575
νέα 23557
όρος 23553
ηλ@@ 23540
ότερα 23514
Νοεμβρίου 23505
τελευταία 23460
ούσαν 23440
δημιουργ@@ 23432
κατ@@ 23428
εκεί 23361
τικ@@ 23356
13 23354
Δ 23342
Ιστορία 23314
ριο 23311
άσει 23289
10@@ 23241
ντε 23227
θέσεις 23222
αρκ@@ 23164
Κορ@@ 23141
συνεχ@@ 23139
ητή 23135
λεγ@@ 23118
δρ@@ 23060
ρυ@@ 23060
Αθήνα 23016
εναντίον 23008
άβ@@ 23000
ονομασία 22981
άλλων 22971
μυ@@ 22971
πρώην 22900
ίσει 22888
2012 22855
αντί@@ 22842
Μα@@ 22821
κοινότητα 22748
17 22650
αγώνες 22593
όλο 22571
όχι 22565
ύρ@@ 22511
σχετικά 22506
κι@@ 22498
εμπ@@ 22483
ρίου 22470
βί@@ 22440
Μπο@@ 22437
γλώσσα 22365
ματική 22345
μένες 22323
Έχει 22317
Εκ@@ 22299
δηλαδή 22298
25 22277
ότ@@ 22273
συνήθως 22238
κέντρο 22222
αξι@@ 22208
Δεκεμβρίου 22191
Ντ@@ 22188
πήρε 22153
πολ@@ 22130
ώ 22084
σω@@ 22073
τρία 22059
2009 22051
βασιλιά 22044
ύν@@ 22037
στα@@ 22028
ανακ@@ 21993
ωρ@@ 21983
ότερο 21965
gt 21947
Βι@@ 21908
de 21907
κατά@@ 21907
Κά@@ 21902
2008 21901
θρ@@ 21859
εσ@@ 21856
ρόλο 21851
νω@@ 21839
ξει 21818
ασκ@@ 21802
κρι@@ 21709
2014 21707
πρώτος 21642
μπορούν 21638
χή 21607
ίδες 21595
ώνεται 21537
μέτρα 21533
έβ@@ 21515
αϊ@@ 21498
πλέον 21480
s 21461
έζ@@ 21414
ειες 21349
lt 21336
Φεβρουαρίου 21335
νι@@ 21335
κατηγορία 21334
άλλη 21276
2015 21272
ονομ@@ 21236
φω@@ 21223
κα 21218
διακ@@ 21217
ήματος 21207
ίνα 21194
2013 21145
μένοι 21126
ίνη 21120
σχηματ@@ 21118
χρον@@ 21083
μεγαλύτερο 21066
τικούς 21054
Απο@@ 21036
γεννήθηκε 21019
θούν 20979
σή 20977
χν@@ 20976
Ευ@@ 20970
τέλη 20922
Βιογραφία 20915
ιος 20905
εις 20888
άλμπουμ 20885
έγ@@ 20865
κατάσταση 20863
τρα 20846
δικα@@ 20794
αγώνα 20779
S@@ 20757
Μά@@ 20731
φυ@@ 20722
μεσ@@ 20699
γίνει 20692
υφ@@ 20685
τό 20666
τς 20647
ξι@@ 20626
άρχισε 20565
βαρ@@ 20561
M@@ 20528
ανάμεσα 20517
κυκλοφόρησε 20504
ητ@@ 20476
γεγονός 20472
κου@@ 20441
0 20423
κάτω 20419
παιδιά 20404
Ως 20403
19 20400
έτος 20394
μόν@@ 20389
Πανεπιστήμιο 20385
Γεν@@ 20372
τιμ@@ 20350
μας 20342
2007 20336
ευση 20332
στική 20299
πρόεδρος 20263
κέρδισε 20259
μεγαλύτερη 20254
αμπ@@ 20238
Περ@@ 20191
ίδ@@ 20177
πρώτα 20163
Αν 20156
στι@@ 20120
διατ@@ 20103
P@@ 20080
2016 20079
Μον@@ 20078
δεύτερο 20046
πολιτική 20028
Κατ@@ 20027
ΗΠΑ 20022
χώρας 20008
γνωστή 19988
χρονιά 19968
αγων@@ 19942
ροφ@@ 19910
απλ@@ 19906
Αντι@@ 19872
σχεδόν 19868
σε@@ 19860
τούν 19846
δεκαετία 19842
μένου 19780
ρό@@ 19730
κύ@@ 19728
αία 19719
διασ@@ 19706
ιγ@@ 19705
τύ@@ 19683
υπήρξε 19672
είων 19665
μουσ@@ 19657
Ελλάδας 19649
λιο 19633
οτ@@ 19629
όλες 19591
γνωστό 19585
ρου@@ 19582
21 19572
πολυ@@ 19569
ιτ@@ 19562
Συ@@ 19553
σχέση 19523
ιδιαίτερα 19508
Κου@@ 19476
άδα 19472
παλαι@@ 19458
χώρες 19428
-@@ 19407
περιοχής 19404
Έτσι 19401
2006 19390
όμενη 19344
έας 19335
πέντε 19311
επειδή 19305
ίζουν 19297
ουμε 19266
χος 19115
T@@ 19112
C@@ 19110
κατασκευ@@ 19103
πορ@@ 19076
οποίοι 19050
the 19038
ουρ@@ 18997
πολη 18979
ίο 18906
εγκ@@ 18872
πους 18865
πτ@@ 18859
περισσότερο 18845
λο 18841
τρο@@ 18797
επί@@ 18780
υπολογ@@ 18752
θάνατο 18719
Επ@@ 18662
συμμετείχε 18642
μαχ@@ 18619
κόσμο 18613
τρο 18608
οικ@@ 18596
ώθηκαν 18563
ίδιος 18560
22 18558
γράφ@@ 18557
τρόπο 18557
ωθεί 18553
24 18552
2019 18538
Ευρώπη 18509
άρα 18505
ΐ@@ 18489
μάχη 18488
παραγωγή 18488
γίνεται 18471
θ 18454
ητές 18453
όνα 18453
τολ@@ 18426
κάνει 18416
περί@@ 18408
δί@@ 18395
πληθυσμό 18367
τηκε 18345
σφ@@ 18335
ναν 18329
εμπο@@ 18280
ότερη 18250
Κλ@@ 18249
εκείνη 18237
ημάτων 18213
Επι@@ 18211
ωστόσο 18205
ιάς 18202
Λε@@ 18195
ρία 18185
έμ@@ 18177
άρι 18174
έδωσε 18171
μη@@ 18155
ψε 18150
αγι@@ 18140
κολ@@ 18124
απογραφή 18103
αυξ@@ 18093
πολι@@ 18081
άφ@@ 18058
ούλ@@ 18047
ψει 18043
οδηγ@@ 18020
αση 18001
Μπρ@@ 17999
πατέρα 17962
ραγ@@ 17930
δος 17928
ελλ@@ 17908
2017 17903
καταστ@@ 17894
χρησιμοποιείται 17885
ρού 17861
νη@@ 17848
ενεργ@@ 17813
F@@ 17807
νέο 17760
Απ@@ 17750
όλων 17749
συμ@@ 17735
2018 17733
σον 17733
άλλους 17730
ντ@@ 17717
μή@@ 17713
μετρ@@ 17685
παράδειγμα 17684
D@@ 17674
ίδας 17674
αρκετά 17653
τορ@@ 17653
όρι@@ 17638
2@@ 17617
άτομα 17600
ανά 17600
πέθανε 17594
οικογένεια 17575
ιού 17568
Αθηνών 17550
χιλιόμετρα 17534
ψηφ@@ 17529
Γαλλία 17527
Μια 17510
Εξ@@ 17460
2004 17451
θεωρείται 17434
L@@ 17416
Ένα 17361
βόρεια 17360
ζε 17360
άδες 17317
Αρχ@@ 17311
ιδρύθηκε 17304
2000 17276
23 17271
αριθμός 17244
στά@@ 17240
H@@ 17236
βασιλ@@ 17224
άλλο 17214
ίστηκαν 17211
Παν@@ 17207
τεί 17205
Πρωτάθλημα 17203
Πλ@@ 17190
Βρεταν@@ 17178
αυτο@@ 17172
ιρ@@ 17162
νότια 17156
δυνάμεις 17151
χημ@@ 17143
ναυ@@ 17142
κορ@@ 17112
χρησιμοποι@@ 17110
ζωής 17083
ήγ@@ 17078
αρι@@ 17072
πατέρας 17065
νό@@ 17046
θη 17028
επιτυχία 17017
μαρ@@ 17013
μφ@@ 17001
έων 16980
αρχαι@@ 16975
ιστεί 16970
οικισμός 16957
B@@ 16941
υψηλ@@ 16940
δυο 16937
28 16921
βρίσκονται 16911
άδ@@ 16891
έγραψε 16847
μακ@@ 16844
περιλαμβάνει 16829
ογραφία 16820
R@@ 16817
διαφ@@ 16806
αναπ@@ 16775
ειρ@@ 16773
G@@ 16768
τραγούδι 16748
κο 16725
δύ@@ 16716
ις 16715
παρά 16697
ίνο 16679
αερ@@ 16679
πρόσ@@ 16678
σημ@@ 16668
αυτός 16649
ργ@@ 16600
ήδη 16578
στερ@@ 16563
2005 16551
πόλεις 16528
Ξ@@ 16521
σχολ@@ 16515
υμ@@ 16510
κομ@@ 16508
χώρο 16508
οπο@@ 16476
σεων 16452
ιστές 16441
ελληνική 16433
ώσ@@ 16424
διάστημα 16417
C 16414
λει@@ 16366
ταρ@@ 16358
ητής 16355
ύλ@@ 16351
Σου@@ 16346
Πι@@ 16342
ειο 16330
όμενο 16310
ώρα 16306
διοικ@@ 16303
ίνης 16300
έγιναν 16292
εθν@@ 16287
Σι@@ 16255
πον@@ 16249
βαθμ@@ 16242
μουσική 16241
ακή 16221
Γεννήθηκε 16219
άνο 16219
μήκος 16205
ξ 16201
βα 16198
κατέ@@ 16197
άντα 16195
μελ@@ 16167
δε 16153
τελικό 16133
αργ@@ 16119
έρα 16117
ωνα 16111
εστ@@ 16102
ταλ@@ 16095
27 16090
χαμηλ@@ 16059
ιστική 16055
σημείο 16043
αυτού 16034
μει@@ 16033
πρω@@ 16027
φαν@@ 16014
αυτών 16012
Παπ@@ 16003
ιδι@@ 16003
δρα@@ 15996
γνωστός 15992
amp 15991
Βαλ@@ 15991
θαν@@ 15986
βασιλιάς 15982
ψυχ@@ 15979
εμφαν@@ 15971
σκι 15971
ήλ@@ 15956
όμενος 15948
λευ@@ 15933
&#124; 15932
ανάπτυξη 15932
Παλαι@@ 15927
πολεμ@@ 15924
άσεις 15917
ανέλαβε 15909
παρά@@ 15904
δημ@@ 15902
όρο 15883
υχ@@ 15841
πίσω 15836
ωμα 15823
επισκ@@ 15821
πιστ@@ 15821
ανά@@ 15801
τάν@@ 15788
ήν@@ 15762
βολ@@ 15754
θεωρ@@ 15734
26 15731
συνα@@ 15727
2001 15726
Στον 15687
Σ 15679
ορο@@ 15668
γιο 15654
Γερμαν@@ 15636
παί@@ 15627
συμπ@@ 15610
ότερες 15609
Αντ@@ 15606
ρύ@@ 15565
οποίων 15559
αυτόν 15557
περιόδου 15556
κάποια 15554
είες 15539
ηθ@@ 15539
ηματ@@ 15531
Αυτή 15516
εκατομμύρια 15509
ται 15504
εποχής 15469
έκδοση 15433
κοιν@@ 15423
A@@ 15420
ουσι@@ 15405
κατοικ@@ 15399
Ερ@@ 15378
Γερμανία 15365
εντός 15357
16@@ 15342
αυτής 15342
Μερ@@ 15341
ήσεων 15341
σιο 15339
ήρ@@ 15332
Ί@@ 15322
δη 15320
μένης 15310
μετ@@ 15308
πυ@@ 15303
είδος 15294
ίζονται 15275
όλου 15262
επίπεδο 15259
μπορούσε 15249
όπουλος 15244
Ελλην@@ 15234
συγκ@@ 15226
αποφ@@ 15222
συγ@@ 15213
φθ@@ 15209
διάφορες 15205
ούνταν 15199
Χά@@ 15188
κάτι 15186
ικα 15179
όνομά 15177
στεί 15176
μικρ@@ 15155
τιο 15136
δηλ@@ 15134
άπ@@ 15129
ολόγ@@ 15126
πλευρά 15096
χθηκε 15083
ιση 15070
μέν@@ 15067
άλλ@@ 15051
μένους 15039
ώματα 15039
επέστρεψε 15029
ολογίας 15027
πόλεμο 15024
φυσ@@ 15019
άζ@@ 15014
τηση 15007
Δεν 15002
Νέα 14999
είδη 14981
ίγ@@ 14973
Στα@@ 14971
N@@ 14964
ούρ@@ 14957
νησί 14950
100 14947
αριθμό 14947
Μέ@@ 14942
δεκαετίας 14923
Έλληνας 14914
ταν 14914
τυπ@@ 14913
λύ@@ 14896
έχοντας 14891
εξής 14863
εταιρεία 14857
· 14856
μητέρα 14853
έξ@@ 14845
Κυ@@ 14821
πλο@@ 14820
οντα 14819
ασε 14810
αναφέρει 14801
πολιτι@@ 14794
ξε 14784
ακολουθ@@ 14775
Γαλλίας 14772
πολέμου 14768
συμμετοχή 14763
Παγκόσμιο 14759
29 14740
βρισκόταν 14740
δική 14739
μν@@ 14738
περισσότερα 14729
Κοιν@@ 14723
Σαρ@@ 14722
μόλις 14717
Νε@@ 14697
Μουσ@@ 14690
μος 14689
ρον@@ 14687
αριθμ@@ 14685
Μαρία 14665
Φιλ@@ 14663
Μικ@@ 14651
έτη 14630
αγωγ@@ 14626
στικό 14626
τυχ@@ 14614
Πέ@@ 14609
Δημ@@ 14608
βο@@ 14583
Άλ@@ 14578
χορ@@ 14575
ρη@@ 14570
χαρακτηριστικά 14554
κάτοικοι 14550
γραφή 14548
Ένωση 14544
τρί@@ 14542
γέν@@ 14535
άστηκαν 14528
πος 14521
θμ@@ 14518
ονομάζεται 14518
ταγ@@ 14499
όδ@@ 14494
τροφ@@ 14490
νόμ@@ 14465
τικοί 14458
ρακ@@ 14455
λίγο 14452
λη 14440
ροι 14437
κοινων@@ 14426
ραν@@ 14415
μαν 14395
in 14379
σχε@@ 14361
παρουσι@@ 14358
ωνίας 14342
κατασκευή 14338
χλμ. 14336
στρατιω@@ 14329
δημιουργία 14324
θεση 14324
μή 14324
1990 14322
καριέρα 14321
ποτέ 14320
αγγ@@ 14312
50 14298
Κύπελλο 14292
Σύ@@ 14288
μήνες 14276
φέρει 14271
νέ@@ 14270
δικ@@ 14259
o 14250
έξι 14243
ηδ@@ 14238
y 14235
έι@@ 14211
τεύ@@ 14203
ίζοντας 14197
! 14191
βιβλίο 14191
θυ@@ 14185
E@@ 14173
Περι@@ 14171
άι@@ 14171
επόμενη 14170
γυ@@ 14158
ανήκει 14139
συνεργ@@ 14139
σκοπ@@ 14121
Κο@@ 14113
ρι 14099
παρέμεινε 14098
έν 14083
Ιταλία 14079
2002 14057
a 14052
γνω@@ 14044
σημαίνει 14040
χωριού 14037
νά@@ 14022
έφερε 13999
παραδ@@ 13996
εμβ@@ 13992
Πολ@@ 13984
ίζ@@ 13958
επιτυχ@@ 13952
ευρωπαϊκ@@ 13941
προβλ@@ 13932
άζεται 13914
σύγχρον@@ 13910
ζει 13892
ισε 13889
έλ 13868
από@@ 13862
πρωτεύουσα 13838
Κον@@ 13825
2020 13821
σημαντικό 13817
ξαν 13815
περίπτωση 13814
βαθμό 13786
Άρ@@ 13782
ανδρών 13780
ικαν@@ 13763
2003 13749
ανό 13747
δομ@@ 13730
Αμερικαν@@ 13724
ρας 13717
περισσότερες 13715
καν 13707
ιστικό 13694
άρ 13690
ρό 13670
αντ 13669
Ιωάννης 13653
Νομ@@ 13637
Παλ@@ 13624
1@@ 13598
σταθερ@@ 13597
γον@@ 13586
σύ@@ 13585
αξ@@ 13581
οποίηση 13581
νικ@@ 13571
... 13566
ισχυ@@ 13565
ώνοντας 13560
ίν 13555
Ιωάννη 13552
Ω@@ 13550
προσωπ@@ 13543
Ισ@@ 13542
γαλλικά 13536
στη@@ 13527
αρχή 13513
νίκη 13511
λειτουργ@@ 13509
πάλι 13503
άκη 13502
Ορ@@ 13496
άρια 13493
ημένη 13491
Πά@@ 13479
τέρ@@ 13477
αποτελούν 13476
οί@@ 13436
ητική 13426
τακ@@ 13417
τοκ@@ 13416
άχ@@ 13415
σκοπό 13414
κορυφ@@ 13406
κυρι@@ 13391
1999 13389
σκοτ@@ 13387
τευ@@ 13366
επαρχία 13354
οποίου 13346
σμό 13345
ιου 13341
λυ@@ 13336
θύ@@ 13325
τέσσερις 13312
σώμα 13307
άνα 13287
ιστο@@ 13287
τάφ@@ 13287
χει@@ 13270
Μακ@@ 13267
άρχ@@ 13264
ρούς 13263
K@@ 13258
ανι@@ 13244
γκα 13243
άνει 13228
Κολ@@ 13190
ώσεων 13187
εζ@@ 13171
εκδ@@ 13167
φαίνεται 13164
αστεί 13144
άζουν 13140
ταινίες 13110
δο 13088
ημερ@@ 13085
έκταση 13082
όνο 13082
στρ@@ 13081
σημαντική 13053
Κύ@@ 13051
ακό 13034
επο@@ 13027
Α.@@ 13019
κερ@@ 13019
ρεύ@@ 13019
ράς 13018
ιστορ@@ 13003
ριακ@@ 12986
μικρό 12940
ανθ@@ 12936
πληθυσμού 12934
Ιταλ@@ 12932
χώ@@ 12931
επικεφαλής 12928
Πολι@@ 12905
ψης 12901
ανατολ@@ 12899
ταμ@@ 12894
δύναμη 12891
κατέκτησε 12865
κυβερν@@ 12865
V@@ 12851
πολης 12847
επίσημα 12819
έστ@@ 12808
αυτήν 12808
Σκ@@ 12805
έρν@@ 12795
πρόγραμμα 12794
άκι 12792
κω@@ 12784
Λι@@ 12782
στασ@@ 12778
όνων 12766
δημοσι@@ 12763
κατάφερε 12760
μό@@ 12760
A 12759
Εθνικής 12755
1η 12737
τό@@ 12726
σημει@@ 12724
ύλου 12715
εχ@@ 12713
Θεσσαλονίκης 12705
1997 12701
ραβ@@ 12697
άρι@@ 12683
θρησκευ@@ 12682
παλ@@ 12678
ίμ@@ 12674
τή@@ 12673
Έλληνες 12659
ρη 12651
ξανά 12643
εκκλησία 12627
λή@@ 12624
ρική 12609
Παρίσι 12594
σύνολο 12581
εξουσία 12578
πρώτες 12575
κη 12567
άσκ@@ 12559
δέ@@ 12551
ισαν 12551
δρομ@@ 12547
μ. 12543
όρους 12537
W@@ 12529
αποτελείται 12527
επικ@@ 12520
γερμαν@@ 12518
31 12510
αίνει 12486
νεκ@@ 12476
γυναίκες 12474
ασσ@@ 12461
συνολικά 12437
διάφορα 12422
διπλ@@ 12414
άλλοι 12411
οπότε 12393
Πολέμου 12391
μικρή 12390
χριστιαν@@ 12390
ειν@@ 12368
μεγάλες 12361
τησαν 12353
ρίες 12349
έλα 12348
έπειτα 12347
κοπ@@ 12339
τελε@@ 12338
στρατηγ@@ 12327
θαλ@@ 12326
Ομ@@ 12316
O@@ 12314
δημο@@ 12314
Σχολή 12312
Πρω@@ 12306
1.@@ 12305
κρα@@ 12303
ητικό 12298
στής 12298
λεκ@@ 12292
ωσαν 12292
απέκτησε 12287
γάμο 12284
μην 12283
εύει 12282
άκης 12279
ϊκ@@ 12279
ειών 12270
τομ@@ 12269
σχέδιο 12253
ατρ@@ 12244
παι@@ 12238
Ή@@ 12237
βοηθ@@ 12228
έρ 12197
απόσταση 12189
ώνα 12183
υδ@@ 12156
ικότητα 12153
πο 12152
αντα@@ 12151
συγκρότημα 12150
κε@@ 12142
40 12140
σπίτι 12131
ρατ@@ 12127
φων@@ 12099
i 12074
Ιερ@@ 12068
επέ@@ 12064
ανατολικά 12060
δίας 12037
ίδης 12034
φυλ@@ 12032
Βυζαντιν@@ 12031
παραγωγής 12026
Ναυ@@ 12024
αυτούς 12012
and 12006
γλ@@ 12003
χι@@ 11974
τοι 11972
μέτρων 11968
διαλ@@ 11956
οικονομ@@ 11934
μό 11932
όρια 11928
αγωνίστηκε 11924
ερν@@ 11906
εθνική 11898
κανον@@ 11897
Δημοκρατίας 11896
αναγ@@ 11885
θέματα 11856
οδήγησε 11855
πληθυσμός 11844
Ιν@@ 11838
σωματ@@ 11823
νο 11813
Μάρ@@ 11812
1998 11809
πατ@@ 11804
έφτασε 11801
δυτικά 11792
ζεται 11792
ησι@@ 11792
λερ 11791
προέρχεται 11791
Νέ@@ 11781
δου@@ 11777
ισης 11774
ωνία 11774
οχή 11765
στρατό 11754
εξελέγη 11741
μαζ@@ 11741
1991 11725
Ακ@@ 11721
στικά 11715
γεω@@ 11710
προκειμένου 11706
παράγ@@ 11696
κοινό 11695
κε 11693
1980 11687
τηκαν 11681
γαλλ@@ 11657
παρατηρ@@ 11644
όζ@@ 11641
Α. 11620
είδ@@ 11619
κακ@@ 11619
κρί@@ 11612
νυ@@ 11609
γαλ@@ 11608
ιαν@@ 11599
Δημοκρατία 11590
υπήρχε 11584
φίλ@@ 11578
Πόλεμο 11573
Σαλ@@ 11568
ίους 11561
μονα@@ 11560
Δήμου 11554
ωγ@@ 11549
όμενα 11549
ακολούθησε 11544
Βασιλ@@ 11538
υψόμετρο 11532
διδ@@ 11531
στιγμή 11516
ασία 11511
Βασίλειο 11506
ματο@@ 11501
ηφ@@ 11492
τσι@@ 11489
άμπ@@ 11485
μερικές 11483
ημέρα 11474
1996 11473
άξ@@ 11470
I@@ 11454
σμού 11450
ώρ@@ 11447
Χριστιαν@@ 11444
φύ@@ 11439
χο 11436
αποκ@@ 11431
μέσο 11427
στατ@@ 11417
θεωρού@@ 11416
δικό 11406
αρκετές 11402
δου 11394
θος 11385
τσα 11375
επίθεση 11369
σημαντικά 11366
χθεί 11360
λος 11353
ινή 11337
.. 11334
ορθ@@ 11324
παγ@@ 11321
άνεται 11317
όνου 11308
άτες 11297
us 11292
ωμένη 11291
πραγματοποι@@ 11275
απεβίωσε 11262
ηθούν 11257
ημι@@ 11252
ήσ@@ 11250
ρίζεται 11250
σειράς 11237
τούσε 11234
άλα 11222
ποδοσφαίρου 11217
Αργότερα 11207
όδου 11192
Καν@@ 11189
σιος 11186
συγκεντρ@@ 11174
br 11172
πηγές 11171
Τρι@@ 11170
πρωταθλήματος 11157
φάση 11156
ρών 11152
σας 11145
λάβ@@ 11138
σημαντικ@@ 11133
δρο@@ 11129
βοήθεια 11117
δημοκρατ@@ 11110
αφορά 11109
κόμμα 11105
ώσουν 11104
γου@@ 11092
όρων 11084
μαγ@@ 11082
παρουσία 11081
λέξη 11074
που@@ 11070
άνης 11069
Ελ@@ 11066
οτήτων 11063
υψ@@ 11053
βαν@@ 11047
ίνι 11025
Νικ@@ 11018
Μου@@ 11009
πολλούς 11009
έρας 11006
όνι 11003
νερό 10992
θέμα 10990
Ένωσης 10982
+ 10981
τοποθε@@ 10981
υπουργ@@ 10979
ποδ@@ 10974
ουσα 10962
αρχαία 10961
ώματος 10956
αναγνω@@ 10955
Νέας 10952
Χρυσ@@ 10949
1970 10947
ανέ@@ 10935
ητών 10932
π.χ. 10930
ισχυρ@@ 10927
ημέρες 10926
ρίν@@ 10917
ότερος 10907
ομιλ@@ 10906
σίες 10883
ελι@@ 10879
τια 10879
μέγεθος 10878
σχέσεις 10877
αγγλικά 10872
ορισ@@ 10871
οστ@@ 10869
στες 10837
ασαν 10836
ριζ@@ 10824
ρίων 10820
καθαρ@@ 10818
κράτος 10814
πρωταγων@@ 10812
on 10807
ύτερ@@ 10803
τήρ@@ 10802
καλοκαίρι 10799
βραβείο 10796
κυκλ@@ 10795
μύ@@ 10794
δίδ@@ 10791
ζω@@ 10791
περί 10789
ώνουν 10781
1992 10772
ταινίας 10769
πλοκ@@ 10761
άδας 10759
έλεγχο 10752
ίστ@@ 10749
ζουν 10734
Κατα@@ 10733
διεξ@@ 10730
αίο 10728
νευ@@ 10726
οπλ@@ 10723
πολιτικός 10723
Εργ@@ 10717
διαδικασία 10715
συλλ@@ 10713
οικογένειας 10701
σμός 10699
Μεσ@@ 10697
εντ 10694
στρατ@@ 10694
2021 10690
τοί 10685
τουν 10684
Κύπρου 10677
Σήμερα 10671
λόγο 10668
αποτελ@@ 10665
1960 10664
Π.@@ 10660
περιλαμβάνουν 10654
ωμ@@ 10646
Πολιτείες 10644
άσεων 10635
ήχ@@ 10631
άνη 10625
χαρακτη@@ 10624
Νό@@ 10623
άει 10617
ούδ@@ 10609
ασι@@ 10606
τμήματα 10604
τύπου 10601
έλλ@@ 10599
άλ 10592
παράδοση 10582
ίτ@@ 10581
Γερμανίας 10579
δημιουργήθηκε 10578
γυναίκα 10563
κατε@@ 10561
καμπ@@ 10559
υπουργός 10552
απέ@@ 10549
Εβρα@@ 10538
Κι@@ 10536
δούκα 10533
αριστερ@@ 10531
Κόμμα 10530
αιν@@ 10528
τρίτη 10527
κλί@@ 10515
Ρωμα@@ 10507
καιν@@ 10505
Ντι@@ 10496
ίδων 10493
δήμο 10492
ωνική 10484
1994 10483
Αυτοκρατορίας 10482
στή 10481
ταξη 10462
έγκ@@ 10459
ηλεκτρ@@ 10457
κλασ@@ 10456
πλη@@ 10455
χρυσ@@ 10452
1993 10451
αλ 10449
ρίζει 10447
μάν@@ 10444
60 10425
άζονται 10423
ιπ@@ 10423
λαμ@@ 10421
μορφ@@ 10420
αποφασ@@ 10415
Επιπλέον 10413
Μέχρι 10409
τρέ@@ 10407
υκ@@ 10389
S 10388
πτυχ@@ 10382
80 10376
Ηνωμένες 10374
γιατί 10373
υπόλοι@@ 10368
ματά 10365
ελλην@@ 10354
όλους 10352
λα 10340
δόθηκε 10337
Γαλ@@ 10331
ητικά 10329
τέσσερα 10326
Βρίσκεται 10324
o@@ 10319
νέου 10319
έπρεπε 10316
βιομηχαν@@ 10307
Κρι@@ 10306
χα@@ 10301
ελεύθερ@@ 10293
αναπαρ@@ 10291
Σύν@@ 10284
ακολουθεί 10277
τρα@@ 10274
ρυθμ@@ 10268
αθλη@@ 10262
μέρα 10256
λου 10250
αγωγή 10239
ίσουν 10237
καταλ@@ 10236
ήλθε 10231
πολλοί 10227
δράση 10203
ριστ@@ 10202
βουλευτής 10201
γμα 10190
τουρκ@@ 10190
εξωτερ@@ 10179
πί@@ 10178
σί@@ 10176
πό@@ 10173
λειτουργία 10171
άγνω@@ 10169
εκτελ@@ 10168
πρωτο@@ 10155
βιτς 10151
1995 10149
επηρε@@ 10137
κατοίκων 10136
Αλεξ@@ 10132
Υπο@@ 10124
τηλεοπ@@ 10116
μεταλλ@@ 10111
1989 10083
βαλ@@ 10077
Αστ@@ 10073
γυναικών 10073
βολή 10072
όνια 10072
έμεινε 10071
ίνου 10068
νομού 10059
ανδ@@ 10045
κον@@ 10038
άρχης 10037
δαν@@ 10037
παιχνίδι 10026
άνι 10019
ίρ@@ 10018
μπουργκ 10016
ισμα 10003
υδρο@@ 10003
γύ@@ 9995
ψουν 9994
ασχολ@@ 9989
ισμούς 9981
Υπ@@ 9979
γι 9977
τιν@@ 9976
ώρες 9971
Ιανουάριο 9967
Σα@@ 9967
τροπ@@ 9965
Πανεπιστημίου 9963
διάσ@@ 9958
t 9955
Βασίλ@@ 9949
παντρεύτηκε 9949
διαθέ@@ 9945
ιβ@@ 9934
πάντα 9933
κεντρ@@ 9932
φόρ@@ 9932
Κάρ@@ 9925
πέρασε 9921
συνέχισε 9920
δεύ@@ 9919
1974 9914
Οικογένεια 9901
° 9898
ιακή 9898
ορίζεται 9892
Ρώμη 9890
εύτηκε 9888
μαλ@@ 9887
ρισε 9886
αμερικαν@@ 9885
οφόρ@@ 9885
σουν 9885
ραφ@@ 9878
Μουσείο 9877
τραγούδια 9877
απέναντι 9870
έτ@@ 9865
d 9860
Μετα@@ 9860
ανίας 9859
ομάδων 9857
κάποιο 9851
ράφ@@ 9848
προστ@@ 9845
σκλη@@ 9845
περιπτώσεις 9837
φι@@ 9829
άρκ@@ 9825
ιστών 9823
ψεις 9821
ερω@@ 9813
Υπάρχουν 9812
ζη@@ 9806
απ 9801
πορεία 9796
φή 9787
Αγώνες 9785
άμε@@ 9785
Και 9783
Τρ@@ 9783
συγγραφέας 9781
όγκ@@ 9781
και@@ 9780
διώ@@ 9773
ματικά 9771
αύ@@ 9767
εργασία 9767
γκολ 9766
αιο 9762
άνια 9756
ώνης 9745
κλη@@ 9744
κυβέρνησης 9744
x 9737
αμέσως 9737
σπουδ@@ 9734
διατηρ@@ 9729
ησ@@ 9726
αδελφ@@ 9724
άνδρες 9722
Ατ@@ 9719
ποταμού 9717
ξέν@@ 9711
αισ@@ 9705
νεαρ@@ 9700
I 9697
Ευρώπης 9678
Αφ@@ 9673
70 9670
λιος 9666
Ρωσία 9664
ϊ 9662
ιστής 9659
μετέ@@ 9649
ίοι 9648
ριακή 9628
ινγκ 9623
Ένας 9621
πνευ@@ 9620
άσης 9607
ειακ@@ 9605
Γεώργιος 9603
γραμμή 9603
περιέχει 9597
ρκ@@ 9596
οδο 9595
Φλ@@ 9591
αποφάσισε 9588
πιθαν@@ 9588
εμφάνιση 9586
εων 9584
Οκτώβριο 9576
προηγούμεν@@ 9570
άθ@@ 9564
δήμου 9563
αγρο@@ 9562
κύκλ@@ 9559
σαρ@@ 9552
ταξι@@ 9543
Οικονομ@@ 9540
ίος 9540
Ανατολ@@ 9533
πληρ@@ 9531
άου@@ 9519
επισ@@ 9513
τουλάχιστον 9508
Ελλάδος 9507
Σεπτέμβριο 9507
ικο 9497
μνημ@@ 9496
ψαν 9496
Κ 9493
ημένο 9492
κάστρο 9490
ανατ@@ 9488
Λού@@ 9486
μάλιστα 9477
θέν@@ 9475
διοργαν@@ 9474
ογράφ@@ 9470
ριος 9470
ώνονται 9457
θερ@@ 9454
ούτε 9454
Αγίας 9453
μεθ@@ 9451
αλλαγή 9446
μέρη 9443
Βαρ@@ 9442
καλλιτεχν@@ 9442
ποσοστό 9440
τω@@ 9433
πει@@ 9432
Ιούνιο 9431
θεατρ@@ 9426
όρου 9426
ιλι@@ 9424
Πρώ@@ 9420
φρά@@ 9420
προβλήματα 9418
ατών 9411
Εθνικό 9409
άνω 9405
καλύτερ@@ 9403
λόγ@@ 9402
Πρόεδρος 9396
Άγιος 9392
ασης 9386
παραλ@@ 9384
ηθοποιός 9381
όλοι 9376
Αυ@@ 9374
δίν@@ 9371
στεν@@ 9371
αποκαλ@@ 9368
ύψος 9367
τιμή 9365
20@@ 9363
τάσεις 9361
ίδη 9360
συλλογή 9354
n 9351
ευσε 9351
Εκεί 9346
εμφανίζεται 9346
ακόλου@@ 9338
έτους 9336
Γαλλ@@ 9318
μικ@@ 9311
τρου 9310
μαθηματ@@ 9308
Βεν@@ 9307
ηλι@@ 9307
U@@ 9302
αμβ@@ 9301
βρεταν@@ 9300
οδος 9300
Σχ@@ 9294
κόμη 9293
τεν@@ 9293
μ.Χ. 9291
ιστή 9285
συνθήκες 9283
Λέ@@ 9281
στές 9280
φυλακ@@ 9268
Ρου@@ 9267
Ε.@@ 9266
εκείν@@ 9265
ωμένο 9261
Φραν@@ 9260
μης 9260
θησαν 9234
τοπική 9225
οιν@@ 9223
μην@@ 9218
συνεργασία 9217
ταχ@@ 9211
τραυματ@@ 9209
ρίστηκε 9207
Μπαρ@@ 9206
Μάιο 9205
θερμ@@ 9204
Μελ@@ 9203
ηκε 9202
κάποι@@ 9200
άδων 9199
αρ 9195
χρησιμοποιούνται 9191
Κάτω 9185
ιον@@ 9185
έδ@@ 9184
εντ@@ 9183
συγκεκριμένα 9179
ντε@@ 9177
τρια 9171
1940 9169
γ 9169
εφ 9164
ξεις 9162
εξ 9157
τελευταίο 9155
αλληλ@@ 9153
επιστήμ@@ 9152
σιμο 9148
ματικό 9144
Όλ@@ 9140
συνδέ@@ 9139
ικ 9138
συμπερι@@ 9137
κίνηση 9132
μέσ@@ 9129
ελληνικό 9128
θεωρία 9126
Μάρτιο 9124
τουργ@@ 9121
απαι@@ 9119
κος 9119
λλα 9114
αποικ@@ 9108
Πατρι@@ 9105
κύρια 9105
γαλλική 9104
οφ 9104
στήριο 9102
επεξ@@ 9096
ισμένη 9096
λεύ@@ 9084
δυναμ@@ 9082
Ιούλιο 9080
στ 9077
ιδιω@@ 9076
90 9069
τούς 9068
προκαλ@@ 9067
πηγ@@ 9063
συχν@@ 9059
υπήρχαν 9057
διαι@@ 9049
νομό 9036
κοσμ@@ 9029
αντά@@ 9019
μέση 9010
έρχεται 9003
ποι 8998
λατιν@@ 8997
ταξ@@ 8991
ισσ@@ 8989
συγκροτήματος 8988
έπαιξε 8986
Στρατ@@ 8984
ρασε 8984
ογραφ@@ 8972
χαρακτήρα 8968
Αύγουστο 8967
Γεωργ@@ 8956
άσσ@@ 8956
πραγματοποιήθηκε 8953
ιδρύ@@ 8948
βυζαντιν@@ 8945
νες 8945
Γερ@@ 8941
Κομ@@ 8941
επίσημη 8941
προσπάθεια 8939
κύριο 8921
Οίκο 8916
βρέθηκε 8911
οποίας 8908
Αγγλίας 8905
βρα@@ 8904
Ασ@@ 8901
ναός 8896
πλού@@ 8893
ιμα 8886
Δήμος 8884
ατική 8884
δραστηρι@@ 8883
τημα 8883
Παγκοσμίου 8882
κορυφή 8881
διοίκηση 8877
ανού 8876
Αμερική 8871
ιμο 8871
παράλληλα 8870
ρες 8868
Αμ@@ 8858
ύγ@@ 8854
Κωνσταντινούπολη 8853
p 8839
επιστημον@@ 8837
s@@ 8831
κατηγορίας 8827
επτά 8823
Συμ@@ 8820
σελ@@ 8820
γενικά 8818
διαφορε@@ 8813
κλει@@ 8812
ικότερα 8804
σταθμ@@ 8804
er 8803
αντίθεση 8799
ιώ@@ 8798
γειτον@@ 8795
έργ@@ 8791
Παναγ@@ 8790
εως 8784
ρίζ@@ 8776
κυκλοφορ@@ 8771
ότη@@ 8771
δευ@@ 8764
επεκ@@ 8764
Μαλ@@ 8762
Τρί@@ 8757
αρχία 8751
ριση 8747
χαλ@@ 8747
αλλαγές 8744
κράτους 8744
ολογική 8739
σταση 8736
έδαφος 8735
νου 8731
εργάστηκε 8730
άντ@@ 8728
αρχαί@@ 8726
διά 8723
Ρωσ@@ 8721
Βόρεια 8720
επόμενο 8719
υπέγραψε 8714
Δεκέμβριο 8711
φερ@@ 8710
άρχη 8709
Μπι@@ 8707
200 8706
έβαλε 8706
ίσως 8704
δω@@ 8704
επαγγελματ@@ 8702
δα 8698
ισμένο 8694
Τζον 8693
θεσης 8692
λιγ@@ 8684
αγορ@@ 8680
μικρο@@ 8673
πολέμ@@ 8669
e 8668
ρωμαϊκ@@ 8668
διορ@@ 8660
Πρ@@ 8646
ασίας 8645
επικρά@@ 8645
Αυτοκρατορία 8639
αποτελέσματα 8639
ερμην@@ 8635
χρή@@ 8633
ειδικά 8632
υποστήριξη 8631
Εκκλησία 8626
διοργάνωση 8621
ίσεις 8619
φλ@@ 8614
1981 8610
άνου 8610
άνιο 8605
ισπαν@@ 8600
Αγία 8598
έρευνα 8591
πετ@@ 8591
έργου 8588
αντίστοιχα 8588
μελέτη 8586
Πρά@@ 8580
ψηλ@@ 8578
άνθρωποι 8575
όμενες 8574
άλη 8572
κό@@ 8569
σπουδές 8569
λαϊκ@@ 8566
Νοέμβριο 8564
μοι@@ 8563
αίου 8561
m 8560
στρατού 8560
μισ@@ 8548
αναφερ@@ 8545
ζονται 8533
Πολωνίας 8532
φέρ@@ 8530
εδάφη 8529
καθολ@@ 8526
Ψ@@ 8523
ιμη 8517
φαιν@@ 8517
Καστ@@ 8509
ωπ@@ 8508
μιλ@@ 8502
1950 8498
πού@@ 8498
Σερ@@ 8493
λλο 8489
ένωση 8484
ορισμένες 8483
συμμετείχαν 8483
περιστ@@ 8482
σο@@ 8481
17@@ 8473
Π 8473
παρακάτω 8469
σχέ@@ 8469
συστήματος 8468
μές 8462
ίκο 8461
Όπως 8453
υπηρε@@ 8452
Κερ@@ 8446
θρόνο 8444
Μαν@@ 8443
βα@@ 8442
συμβολ@@ 8440
Αγγλία 8437
δημοφιλ@@ 8437
τώρα 8436
ιδρυ@@ 8435
σ 8435
ίνος 8434
Πα@@ 8431
εύεται 8430
αρντ 8428
Μιλ@@ 8427
στών 8421
φρ@@ 8419
Απρίλιο 8413
Ρε@@ 8408
ορού@@ 8402
Εκτός 8396
κόρης 8394
τέχνης 8393
δεκ@@ 8392
οποίους 8392
500 8388
σύνθεση 8388
ίνας 8387
ώνες 8386
γλώσσες 8385
όντων 8385
Καζ@@ 8384
ωματ@@ 8384
αδελφός 8380
φασ@@ 8379
δεί@@ 8377
αξιωματ@@ 8364
ιω@@ 8364
Μιχαήλ 8363
αισθη@@ 8361
βάλλ@@ 8361
τελική 8361
2.@@ 8360
εκλογ@@ 8357
αφιερ@@ 8354
ξε@@ 8352
αζε 8348
περν@@ 8347
Αμπ@@ 8345
ώδη 8343
βη@@ 8342
παραγωγ@@ 8342
απεικον@@ 8341
εμφανίστηκε 8341
τικότητα 8338
βιβ@@ 8333
δυν@@ 8330
et 8329
διαθέτει 8329
Παρά 8326
αποτελεσ@@ 8326
πληροφορίες 8326
δήλωσε 8322
ομοσπον@@ 8318
αγγελ@@ 8309
βιβλία 8309
O 8296
έμπ@@ 8295
πλευ@@ 8291
Δικα@@ 8290
διαπ@@ 8289
τηλε@@ 8284
Πολων@@ 8283
πόν@@ 8282
ισσα 8279
ονες 8279
ανθρώπους 8273
ηθοποι@@ 8269
ανατολική 8263
αρμ@@ 8263
κέρ@@ 8263
κλι@@ 8249
Λιγκ 8246
αντίστοιχ@@ 8244
ώνων 8240
Ελλήνων 8239
τραγουδι@@ 8235
λόγους 8234
ανός 8229
εντά@@ 8223
λιγότερο 8221
λαμβάνει 8214
δρά@@ 8211
ονα 8204
Κιν@@ 8201
εξαιτίας 8201
επαρχίας 8197
περίοδος 8189
όριο 8180
αίας 8176
μέρες 8175
Τη 8166
σχολείο 8163
διαστ@@ 8161
Σ. 8156
κόσμου 8154
ορισμό 8151
ίδιου 8149
R 8147
δοκ@@ 8146
ίκης 8143
χών 8143
Φω@@ 8138
Σά@@ 8137
δήμος 8137
ποί@@ 8134
Σημ@@ 8130
έξω 8123
τισμού 8123
πεδ@@ 8120
Σταυ@@ 8115
χά@@ 8115
Οθωμαν@@ 8112
εργασίας 8111
οικονομική 8109
έρι 8108
ασφαλ@@ 8107
μουσικής 8103
Δήμο 8102
συμφωνία 8101
ηλεκτρον@@ 8099
1945 8098
τσι 8095
επιφάνεια 8088
ρεκόρ 8081
αντιπροσωπ@@ 8077
1985 8076
ήθ@@ 8066
αστική 8065
σημερινή 8064
1944 8061
ομοι@@ 8053
Είχε 8044
ζητ@@ 8031
ing 8026
εσωτερ@@ 8018
ζωνταν@@ 8015
Βερ@@ 8008
συμφ@@ 8005
άρχισαν 8004
ίνες 8004
ιατρ@@ 8004
περιφέρεια 8004
σμα 8001
e@@ 7999
Μπου@@ 7998
γνώ@@ 7997
εκπαιδευ@@ 7993
ακ 7991
Να@@ 7985
πολύ@@ 7982
νησιού 7981
διν@@ 7979
Φι@@ 7977
Κέν@@ 7974
χρησιμοποιήθηκε 7973
γραφές 7972
όνη 7970
ιες 7968
απόφαση 7966
ανία 7964
απε@@ 7962
τρίτο 7962
δίνει 7961
συνδυ@@ 7959
γράφει 7958
διοικητική 7957
ήττα 7951
εντάχθηκε 7951
αντί 7950
ιοι 7950
δημιούργησε 7949
δελφ@@ 7948
ύχ@@ 7944
κρυ@@ 7942
σβ@@ 7942
μίας 7937
θο 7934
Αργ@@ 7926
ήτη 7920
αποτέλεσε 7919
κάποιες 7919
πυρ@@ 7916
αρχηγός 7913
Διοικ@@ 7910
ρισ@@ 7910
ρή 7905
σου@@ 7899
ατο@@ 7898
1988 7894
υπέρ 7890
Βορ@@ 7883
L 7879
γλωσσ@@ 7878
εκπαίδευση 7878
περιοδικό 7877
Σί@@ 7875
τελευτα@@ 7872
αναφέρονται 7871
δικαι@@ 7869
1986 7863
Πολωνία 7862
ικώς 7855
τροχ@@ 7853
χές 7851
γελ@@ 7849
πηγή 7849
μετάλλ@@ 7838
τίτλος 7837
Χρ@@ 7835
θέατρο 7835
μεγάλα 7833
Δημο@@ 7827
σεν@@ 7826
έργων 7822
αρχική 7819
ούμεν@@ 7815
μμ@@ 7814
σημεριν@@ 7811
Τελικά 7808
ντεμπούτο 7807
ιακό 7803
ζαν 7802
πρωτ@@ 7801
ιχ@@ 7799
κατηγορίες 7798
καθηγητής 7797
ολογικό 7795
λαβ@@ 7794
ινο 7786
γραμ@@ 7784
περιφερ@@ 7783
κεν@@ 7778
αγορά 7774
ίδρυση 7768
υλικό 7768
19ου 7761
Κό@@ 7761
Αρμεν@@ 7760
δό@@ 7755
πολλών 7755
Όμως 7754
κατέλαβε 7754
κόμματος 7753
τέθηκε 7753
ιου@@ 7749
αγκ@@ 7746
ξεκιν@@ 7744
ελληνικής 7737
ολο@@ 7732
11@@ 7728
J@@ 7724
ευρ@@ 7724
an 7720
ουά 7718
Ρωσίας 7717
διαβ@@ 7715
κωμ@@ 7713
Μακεδονίας 7712
ξεχωριστ@@ 7712
Πο@@ 7709
γράψει 7708
Πε@@ 7702
ειξη 7702
1987 7701
Ιταλίας 7700
Στ@@ 7700
παραπάνω 7698
ακριβ@@ 7692
εδρ@@ 7692
χωριά 7685
δευτερ@@ 7684
ίτες 7682
σύνορα 7676
μετέπειτα 7674
πλαίσιο 7670
ιας 7666
εύουν 7664
λογία 7664
ίχ@@ 7663
ότητά 7663
ορίστηκε 7661
Βου@@ 7655
προσκ@@ 7654
θεώρ@@ 7647
Χαρ@@ 7645
θάνατό 7645
αναφορά 7641
λλαγ@@ 7633
κομμάτι 7625
διο 7624
ενδιαφέρον 7623
τήσει 7622
Ισπαν@@ 7617
λογοτεχν@@ 7617
νεο@@ 7616
στό 7616
ιστικής 7614
ωνικά 7614
θεραπεία 7608
κόλ@@ 7604
στρατιώτες 7603
αυτοκράτορα 7602
ηκαν 7602
Τέ@@ 7600
ανακοίνωσε 7592
σχέδια 7591
κατάλληλ@@ 7588
ίτσ@@ 7587
πρώ@@ 7587
Χ 7582
συλλόγου 7582
ρίζουν 7579
δύνα@@ 7576
λάβει 7575
F 7572
ϋ@@ 7572
B 7571
σημαντικές 7571
προεδρ@@ 7570
τηθεί 7569
έχασε 7568
πόντους 7567
άσουν 7565
γερ@@ 7564
άρων 7557
Δημοκρατ@@ 7555
στικής 7553
el 7552
ζήτησε 7551
δεικνύ@@ 7539
1920 7537
ειλ@@ 7537
Λονδίνο 7536
υθ@@ 7534
ήρθε 7532
λευκ@@ 7532
φιλοξεν@@ 7532
Γεωργίου 7528
ίδρυσε 7522
Θεσσαλονίκη 7521
δεκα@@ 7517
πν@@ 7514
χώρησε 7514
πλοία 7507
οργάνωση 7506
1975 7504
Δια@@ 7502
επίδραση 7497
οκτώ 7497
κοινότητας 7496
Ειρ@@ 7495
περισσότεροι 7495
1984 7494
μεγαλύτερ@@ 7483
σοβαρ@@ 7482
δης 7479
δυνατότητα 7478
επιστ@@ 7477
ιστούν 7476
1982 7474
έστειλε 7474
0.000 7470
32 7469
Κωνσταντίνος 7463
λόφ@@ 7462
Ολυμπιακ@@ 7459
ναό 7459
ρευ@@ 7454
εικον@@ 7453
Καλλικράτης 7450
ιστάν 7448
τοτε 7444
Ενώ 7443
Παράλληλα 7443
κλάδ@@ 7441
σι 7440
Λα@@ 7436
Στρ@@ 7436
οκρατ@@ 7436
Αιγ@@ 7430
Ντά@@ 7430
παιδί 7429
ίσματα 7426
εκστρατεία 7426
θάλασσα 7421
um 7418
δρόμ@@ 7418
Φεβρουάριο 7417
ατζ@@ 7417
όμα 7416
Ηνωμένων 7409
τομέα 7406
ανθρώπιν@@ 7403
Σαν 7400
νερού 7400
συρ@@ 7400
στρα@@ 7399
περιφέρ@@ 7398
Ευρω@@ 7395
Ελληνική 7382
μού 7381
τοιχ@@ 7381
εξέλιξη 7379
σχήμα 7375
εντοπ@@ 7374
τησης 7369
Αρχικά 7367
ήνης 7367
έτα 7366
δυνατ@@ 7365
όσεις 7361
Αγγλ@@ 7358
Αντί@@ 7357
Ντα@@ 7356
θεν@@ 7354
οντ@@ 7353
τερο 7349
Μέγ@@ 7348
δέν@@ 7346
35 7341
δών 7340
ώνη 7340
πληθυσμ@@ 7338
1979 7334
δού@@ 7334
ιταλ@@ 7331
πραγματικότητα 7329
δώσει 7326
βέρ@@ 7324
συμπεριλαμβανομένων 7323
άποψη 7321
πήγε 7317
σμούς 7314
άζοντας 7313
προγραμματ@@ 7311
διέ@@ 7310
Βασιλείου 7308
Γκα@@ 7305
ξουν 7305
αρχίας 7301
1967 7299
άδια 7295
τορας 7294
βαθ@@ 7293
διεξήχθη 7285
Χάρ@@ 7279
Κύπρο 7277
δομή 7273
Μάν@@ 7272
κατάρ@@ 7271
κόμ@@ 7270
διορίστηκε 7268
θυμ@@ 7267
χιλι@@ 7266
άι 7265
συμβόλαιο 7265
ψήφ@@ 7265
Δού@@ 7264
θηση 7264
γυναικ@@ 7263
ελληνικά 7260
ενα@@ 7260
αύξηση 7259
εαυτό 7257
παραμ@@ 7257
Αρχι@@ 7256
μπου@@ 7248
στόχο 7246
τεν 7245
Πατ@@ 7244
μπορούσαν 7242
παρουσιάζει 7242
ανήκε 7233
τρας 7233
συνταγ@@ 7232
1941 7230
σου 7229
κληρονομ@@ 7227
1912 7224
ίτη 7222
νέων 7220
κρέ@@ 7218
σύντομα 7217
Κυπ@@ 7212
Σω@@ 7211
έμβ@@ 7204
στά 7204
D 7203
κης 7200
όσον 7197
ριών 7196
ΠΑ@@ 7192
Κρά@@ 7191
χής 7190
χαρακτηριστ@@ 7190
κυκλοφορία 7189
μπι 7189
έννοια 7188
θω@@ 7187
ητο 7186
αραβ@@ 7184
ίρ 7183
Συμβούλιο 7177
κίν@@ 7176
τριών 7176
ώνας 7174
τοξ@@ 7172
πρόσωπο 7168
εφημερίδα 7163
” 7162
Αθήνας 7160
Ισπανία 7158
Ρώσ@@ 7158
ουλίου 7158
ουργ@@ 7156
προϋ@@ 7152
Δυ@@ 7150
ρωσ@@ 7147
δέκα 7146
ιστικές 7146
συγχ@@ 7143
κου 7135
ήτ@@ 7134
γεγονότα 7131
σο 7131
δικαιώματα 7129
όνους 7129
απειλ@@ 7126
ασθεν@@ 7121
νησιά 7121
στρατιωτική 7121
διαδέχθηκε 7116
έι 7115
Σού@@ 7113
αποστολή 7110
δεύτερος 7110
αυτοκιν@@ 7108
κων 7108
ίβ@@ 7107
εκκλησι@@ 7106
ητικές 7103
δικαίωμα 7100
Ασία 7098
Στέ@@ 7096
τισε 7096
Εθν@@ 7095
Μεταξύ 7090
ιές 7089
Ολλανδ@@ 7088
ζωγράφ@@ 7078
λεπτά 7078
Κόμματος 7077
ίπ@@ 7076
ταυ@@ 7075
στικές 7069
es 7068
αϊκ@@ 7068
ουδ@@ 7066
k 7065
τιος 7065
έναντι 7064
λαχ@@ 7063
ιδέα 7059
ηχογραφ@@ 7056
“ 7055
Ι 7054
βου 7054
συγκεκρι@@ 7051
μοντέλο 7050
ναλ@@ 7049
1978 7048
μορφές 7048
εάν 7046
μαθη@@ 7043
Τ 7042
ιντ 7040
εργασίες 7039
ήχθη 7036
στηρι@@ 7035
1983 7034
λειτουργεί 7031
λιν 7029
Σαμ@@ 7028
σταυ@@ 7028
πραγματ@@ 7026
ενέργεια 7025
γρ@@ 7024
κτη@@ 7024
τισ@@ 7023
λιά 7022
πεζ@@ 7020
is 7018
συστήματα 7018
περιβάλλ@@ 7016
Πρωταθλ@@ 7010
ολογικά 7010
πυρο@@ 7009
παπ@@ 7008
μάρ@@ 7007
στερ 7001
τεχνική 6999
Εφ@@ 6998
συνέ@@ 6996
πα 6991
1973 6989
Νά@@ 6987
ώνυμο 6987
Μητρο@@ 6986
ανεξάρτη@@ 6983
εικόνα 6981
Αχ@@ 6980
γρήγορα 6980
κρ@@ 6980
ην 6979
ia 6978
Ύ@@ 6976
χα 6968
κεφαλ@@ 6962
πέμπ@@ 6961
έζησε 6959
ταση 6959
γνωστοί 6956
πολιτικής 6956
Οικ@@ 6953
ερχ@@ 6953
Ε. 6950
νας 6949
πολογ@@ 6947
διευθυντής 6943
1976 6937
προσωριν@@ 6935
Z@@ 6933
Ρά@@ 6932
Επιτροπής 6930
συζύγου 6927
to 6922
βεν@@ 6921
όμορφ@@ 6921
συλλογ@@ 6917
1930 6916
λέγεται 6916
επιρροή 6915
Κού@@ 6912
ταυτόχρονα 6910
ηψη 6908
ραν 6904
Κατηγορία 6902
είπε 6901
στε 6893
παρο@@ 6890
Παναθηναϊκ@@ 6889
ρίζονται 6889
ότες 6888
αρν@@ 6886
είν@@ 6884
al 6874
1977 6871
εφαλ@@ 6870
τως 6869
νών 6867
άγεται 6865
γραφική 6865
εκδοχή 6864
χώρ@@ 6864
σημασία 6863
απαραίτη@@ 6862
σύλλογος 6861
αμά@@ 6853
1971 6852
γύρο 6850
ούσ@@ 6850
Μό@@ 6848
είδους 6848
κριτική 6843
μερικά 6843
σκορ 6842
αδελφό 6835
υπό@@ 6835
γράφεται 6834
αρνη@@ 6832
πύργ@@ 6832
Επιτροπή 6830
Πριν 6827
μπα@@ 6826
οδυ@@ 6826
θανά@@ 6820
δίκτυο 6815
είσ@@ 6815
n@@ 6813
ωνικό 6811
γη 6801
δημοσιεύ@@ 6801
H 6799
στρια 6797
εσωτερικό 6796
χη 6792
συναντ@@ 6791
ύς 6790
οικογεν@@ 6789
Νι@@ 6787
έδρας 6785
κη@@ 6782
θεια 6778
περιβάλλον 6775
προσπαθ@@ 6775
χρόν@@ 6773
1972 6771
δολοφον@@ 6771
άνοντας 6770
διού 6770
Ρό@@ 6769
1968 6767
πάρει 6767
οθ@@ 6762
δρόμο 6759
ΕΠ@@ 6758
γκο 6753
αρτ@@ 6752
ατα 6745
επιπλέον 6745
θερμοκρασία 6741
χρησιμοποιεί 6739
δοχ@@ 6738
ειά 6738
δεδο@@ 6736
τηγ@@ 6736
χρόνου 6736
ξεν@@ 6735
ταγμα 6735
ξη@@ 6734
κτίριο 6732
σύζυγος 6732
1964 6731
εφαρμογή 6729
μετανά@@ 6727
πρώτου 6726
όρ 6726
εταιρείας 6713
γγ@@ 6711
καταγωγή 6707
Λί@@ 6700
τείας 6698
βραβ@@ 6697
V 6696
Νο@@ 6696
ανώ@@ 6695
λω@@ 6695
Μεγάλη 6694
Λαϊκ@@ 6691
d@@ 6690
ακριβώς 6685
θετα 6684
Άννα 6683
δες 6683
ζόταν 6682
αποτελούσε 6674
ίτης 6672
ανάλογα 6672
κατ 6671
Τότε 6669
σώ@@ 6667
ήτρια 6666
ανταγων@@ 6661
δίου 6661
κεντρική 6657
Κ. 6656
μάχ@@ 6656
ίκη 6655
1961 6654
ζή@@ 6651
συστη@@ 6650
Έχ@@ 6648
θεραπ@@ 6645
a@@ 6643
Άγγλ@@ 6642
εξωτερικό 6641
Εκκλησίας 6640
ουσία 6640
πλά@@ 6640
Αφρική 6637
αγωγής 6637
ότερους 6637
Τσι@@ 6636
ραμ@@ 6636
τερματ@@ 6636
υποψήφ@@ 6633
ποταμό 6629
χρονικό 6626
δημόσια 6625
συγκέντρ@@ 6622
45 6621
Βιογραφικά 6617
ευγεν@@ 6612
1939 6610
προστασία 6607
πλειοψηφία 6605
υποστήρι@@ 6604
δ 6603
φρου@@ 6597
άλια 6596
ρή@@ 6596
φοιτη@@ 6589
Μπλ@@ 6588
πη 6585
τοπο@@ 6585
Ιστο@@ 6584
εμφ@@ 6584
δεσμ@@ 6580
ωδία 6580
λεπ@@ 6577
εξέ@@ 6573
ποδοσφαι@@ 6573
ροί 6572
ερι@@ 6571
οντες 6571
αι. 6570
ατικό 6569
P 6567
θήκης 6567
δολάρια 6565
χώρος 6565
Ιπ@@ 6562
Κοινότητα 6562
αγωνίζεται 6562
κάνουν 6561
σημεία 6556
Φρ@@ 6555
διαγ@@ 6553
άλης 6552
σφαίρισης 6552
c 6551
αυτοί 6549
X 6547
καθημερ@@ 6544
καταγωγής 6543
μπεργκ 6543
καλύπ@@ 6538
1821 6537
γαρ@@ 6536
Πασ@@ 6535
κράτη 6535
ρν@@ 6533
Ολυμπιακούς 6531
έτο 6531
επίσκοπος 6531
εγγ@@ 6529
Λόγω 6528
CH@@ 6526
πρώτης 6526
έφεραν 6524
τύπος 6519
κομμουν@@ 6517
1963 6515
φαρ@@ 6514
Θεοδ@@ 6513
τεκ@@ 6511
βη 6510
λεια 6510
πολλαπλ@@ 6507
διαφορετικές 6504
καθεστώς 6502
ινγκ@@ 6500
γνωστά 6499
θαρ@@ 6498
μιο 6498
ποδοσφαιριστής 6496
οσία 6493
άνοδο 6490
ετο@@ 6490
γραμμ@@ 6489
δυνάμεων 6489
παραμένει 6486
δίπλα 6484
υπηρεσίες 6484
h 6482
βολές 6481
εργαστ@@ 6481
εφημερ@@ 6481
αναδείχθηκε 6480
παρακ@@ 6478
απογ@@ 6476
0@@ 6472
Κάρολος 6472
έκαναν 6470
μεγαλ@@ 6468
γονείς 6465
Νότια 6461
ίδρυ@@ 6457
πίνακα 6456
αστυνομ@@ 6452
μεγαλύτερος 6452
Αξι@@ 6448
Καθώς 6446
παιδ@@ 6446
ασπ@@ 6445
Μαυ@@ 6444
επιλογή 6443
δια 6438
υπηρέτησε 6437
εγκαταλεί@@ 6434
ανασ@@ 6433
βάρος 6433
ποσ@@ 6431
θεσε 6429
ορ 6429
μονή 6428
επιστροφή 6427
διεθν@@ 6426
λέγ@@ 6426
κρά@@ 6423
Ειδ@@ 6421
ύπαρξη 6421
αποσπ@@ 6419
ισμών 6417
# 6415
ανοιχ@@ 6415
μετάλλιο 6413
τήρια 6413
τούσαν 6413
y@@ 6411
πολιτικό 6411
μπροστά 6409
Δ. 6407
ητα 6405
ησή 6404
ιστορικό 6403
μοναχ@@ 6403
προπονητής 6402
παράγεται 6401
φοράς 6400
Αφού 6396
ήριο 6393
άτ@@ 6391
νησι@@ 6391
ολοκληρω@@ 6390
οση 6390
θέσεων 6388
χωρη@@ 6388
k@@ 6384
εικ@@ 6381
ιστικά 6381
ονό@@ 6381
προσπάθησε 6381
εμφανίσεις 6377
διετέλεσε 6376
αρχος 6375
ονομάστηκε 6375
άρη 6374
πρόβλημα 6372
υπόθεση 6367
μήνα 6364
T 6359
είτο 6356
κόσ@@ 6355
γράφηκε 6353
βερ@@ 6350
βουλευ@@ 6348
σύγχρονη 6348
ιδε@@ 6347
Γκου@@ 6344
δέχτηκε 6344
εκδόσεις 6344
φαντα@@ 6344
αποκλ@@ 6343
ετερ@@ 6343
1943 6341
γλώσσας 6341
ηχ@@ 6341
θλ@@ 6341
έλεγ@@ 6339
Χριστ@@ 6337
βρ@@ 6335
1969 6334
βου@@ 6334
έφυγε 6331
75 6328
Χαλ@@ 6324
ουσες 6324
ύπ@@ 6324
ανθρώπων 6323
μικρά 6323
αίν@@ 6319
Ερρίκος 6317
συσκευ@@ 6316
δία 6315
νίκες 6312
1946 6311
ηγεσία 6309
βελτι@@ 6308
αποστολ@@ 6305
χρησιμοποιώντας 6305
κατόπιν 6304
λιμάνι 6304
άνθρακα 6303
πρακ@@ 6301
χωρ@@ 6301
Περί@@ 6298
καλά 6298
Ρομ@@ 6296
νέες 6296
ωρι@@ 6295
κερδίσει 6291
ήρια 6285
ανθρωπ@@ 6285
πύ@@ 6282
πυκν@@ 6279
Μο@@ 6275
πεί@@ 6275
Αλβαν@@ 6272
αναγνώ@@ 6272
επαναλ@@ 6272
σταδιοδρομία 6270
t@@ 6268
χρει@@ 6267
ιστορίας 6266
εγκλ@@ 6264
ονόματα 6260
στρατεύματα 6258
Όσκαρ 6253
Κυπέλλου 6249
τάν 6247
ανή 6241
3.@@ 6240
To 6239
ημο 6239
ιακ@@ 6239
χρώμα 6238
επιχειρήσεις 6236
ροπ@@ 6234
Πέθανε 6224
άνουν 6224
ναού 6224
Άγιο 6223
φέρουν 6218
εξοπλ@@ 6217
αίνουν 6214
άτι 6212
αναπτύ@@ 6208
στοιχείο 6207
αντιμετωπ@@ 6204
μένως 6203
γνωστ@@ 6200
Σε@@ 6197
οδό 6192
la 6189
Μεξ@@ 6189
ανδρ@@ 6189
στεγ@@ 6186
χειρο@@ 6186
ψευδ@@ 6182
Εύ@@ 6180
ουντ 6179
τζ 6179
οπαδ@@ 6176
χειρ@@ 6175
πρωθυπουργ@@ 6173
στάδιο 6171
ιτς 6170
έλη 6168
μυθ@@ 6168
τέχνη 6168
Στά@@ 6166
εξαιρετικά 6166
Αλέξανδρος 6164
στροφ@@ 6162
καλύτερη 6159
τύπο 6159
Επισ@@ 6158
θου 6155
έπαι@@ 6154
στρατός 6154
τήριο 6154
έκθεση 6148
επισκέπ@@ 6146
σκα 6146
αρχηγ@@ 6145
συνθέ@@ 6145
Υπήρξε 6144
ιους 6144
μάχης 6144
δεδομένων 6143
ενάντια 6136
φωτο@@ 6136
Συμβουλίου 6135
αντζ@@ 6134
γενε@@ 6134
μεί@@ 6134
αζόταν 6133
δεξι@@ 6133
Αι@@ 6132
ραδι@@ 6129
Ευρωπαϊκό 6127
Βελ@@ 6126
αιρε@@ 6125
μεγάλου 6124
Ιρλανδ@@ 6123
έδειξε 6119
σημείωσε 6117
υπηρεσία 6116
Αθηνα@@ 6114
1965 6112
συμφων@@ 6112
απο 6111
Υπουργ@@ 6110
j@@ 6106
ενσωματ@@ 6105
χθηκαν 6105
αεροπο@@ 6103
δήμ@@ 6098
πρωταθλήματα 6098
σκηνή 6098
καφ@@ 6093
προκάλεσε 6093
πεδίο 6092
πλήρ@@ 6092
συντά@@ 6092
χυ@@ 6089
αξία 6085
πρωθυπουργός 6085
χωρι@@ 6081
αι 6079
τιν 6079
M 6076
ίδι@@ 6076
αδερφ@@ 6076
όνας 6075
όροι 6075
Μι@@ 6073
υπέ@@ 6073
άσματα 6071
ειακή 6070
σχεδιασ@@ 6070
Χαλκ@@ 6066
σει@@ 6066
κατο@@ 6065
φάν@@ 6064
έδρες 6062
αγγλ@@ 6062
ρεμ@@ 6062
σκηνοθεσία 6062
στικών 6060
οντάς 6059
Ανδρ@@ 6056
ωνε 6056
Βραβείο 6055
Χαν@@ 6053
πάν@@ 6052
συνέχ@@ 6049
αυτ@@ 6048
ίωση 6044
εκατο@@ 6042
άτομο 6038
ήρω@@ 6036
αρχι@@ 6034
δεδομένα 6034
παιχνίδια 6032
γνώρισε 6031
ειακό 6031
δακ@@ 6022
Καμ@@ 6021
1918 6018
σελίδα 6017
χρω@@ 6017
ονίας 6014
χρησιμοποιηθεί 6014
ιακά 6013
ικότητας 6013
τειν@@ 6013
πιθανώς 6008
όρθ@@ 6008
μήκους 6006
τοποθεσία 6005
χέρια 6005
Ιωάν@@ 6003
προηγ@@ 6003
ολόγος 6001
300 5999
σώματος 5999
καθηγ@@ 5998
μπερ@@ 5997
Μάχη 5996
φύγ@@ 5993
όλε@@ 5992
p@@ 5989
Ρα@@ 5987
τερμάτισε 5987
προσπάθειες 5986
επίσημ@@ 5985
έσει 5981
ς@@ 5981
οργ@@ 5980
Εμ@@ 5978
καιρό 5978
μαρτυ@@ 5978
ήγαγε 5974
1966 5971
Άνω 5968
ποίηση 5966
αποστ@@ 5965
έναρξη 5964
Ηνωμένο 5962
Πρέ@@ 5962
ξυλ@@ 5962
Οδ@@ 5960
καλλιτέχ@@ 5960
Μπερ@@ 5958
σιμη 5958
κατηγ@@ 5957
ύστερα 5956
Πορ@@ 5954
τετρ@@ 5953
Σπούδασε 5952
ειρα 5952
ογεν@@ 5952
μελών 5947
χαρακτηριστικό 5947
χρυσό 5947
λις 5944
Έπειτα 5942
c@@ 5941
συνο@@ 5940
Ορθόδο@@ 5937
σχεδ@@ 5935
μάν 5932
οικογένειες 5932
ύθηκε 5932
αια 5931
γεωγραφ@@ 5926
τρό@@ 5922
καθιερ@@ 5921
απαιτ@@ 5918
γραφο 5916
Αυστ@@ 5915
Μ 5915
u 5910
Μία 5910
στασης 5910
Δρά@@ 5909
θήκη 5909
εω@@ 5908
προκρι@@ 5908
χάρη 5908
τέκνα 5907
ήνη 5906
πραγματοποίησε 5906
Διακ@@ 5905
ολοκληρώθηκε 5905
χρονιάς 5904
έλευσης 5900
ήρυ@@ 5899
Ισπανίας 5898
ινό 5898
γραμμές 5897
εση 5897
άλυ@@ 5895
συνήθ@@ 5895
φά@@ 5888
Του@@ 5887
μεγάλης 5886
αντικείμενο 5885
εχθρ@@ 5884
αρνήθηκε 5882
Βραζ@@ 5881
δεχ@@ 5881
καμία 5880
οντος 5880
αμυν@@ 5879
σοβιε@@ 5875
Κασ@@ 5874
Βασ@@ 5873
μετατρ@@ 5872
Κρήτης 5870
ασίες 5870
μετά@@ 5870
Ν 5868
έτ 5868
ωλ@@ 5867
εθνικής 5864
σχολή 5863
Αδ@@ 5860
ωνο 5860
θητεία 5859
0,@@ 5858
Ζω@@ 5858
ενέργειας 5855
άνθ@@ 5853
έλαβαν 5853
εκφρά@@ 5853
μι 5851
φον 5851
οποί@@ 5850
κοινή 5846
ξεων 5844
εργασ@@ 5843
ζωγραφ@@ 5842
κού@@ 5842
ουλευ@@ 5842
1928 5841
Σύστημα 5841
βολής 5840
en 5839
ίλ 5839
ανακαλύ@@ 5838
ατομ@@ 5838
33 5835
Γεωγραφία 5835
αναλ@@ 5835
κυβ@@ 5833
νταν 5832
οίκ@@ 5831
ερευν@@ 5830
Κίνα 5820
δίσ@@ 5817
δων 5817
λίμνη 5817
ρικών 5817
τορα 5815
βαθμούς 5814
υβ@@ 5814
φυσική 5812
τελευταίος 5811
πασ@@ 5810
υποστη@@ 5808
πρόταση 5805
δραστηριότητες 5803
ήθελε 5802
σκ 5801
ολόκληρη 5794
κίνημα 5792
ίμων 5791
ικη 5791
όμενοι 5789
δρόμου 5788
φαν 5787
τέτο@@ 5786
Γυνα@@ 5781
ίκου 5781
ίως 5781
σπούδασε 5781
Μαγ@@ 5780
μάχες 5780
ΣΤ 5778
γα 5777
υνση 5777
αποδ@@ 5773
κυριαρχία 5773
ιστικού 5770
λι 5769
m@@ 5768
βασίλειο 5766
π. 5765
1947 5764
τάται 5764
l 5761
πριγκ@@ 5760
Ντε@@ 5759
δραστηριότητα 5758
φημ@@ 5756
εύγ@@ 5754
Βο@@ 5753
παρελθόν 5753
χρησιμοποιούν 5753
άλλαξε 5752
λεί@@ 5752
βο 5751
σταθμός 5743
λίγ@@ 5740
μετακιν@@ 5740
Νικολ@@ 5738
Καναδά 5737
εισβολή 5736
περ 5735
σημερινό 5735
ίκα 5734
μακα 5733
πρωταθλ@@ 5732
μαγνη@@ 5731
γν@@ 5730
γραφία 5730
βίντεο 5728
διάσημ@@ 5728
ίνων 5727
συμμετοχές 5727
Στί@@ 5725
Ιαπωνία 5724
τύπ@@ 5723
Τουρκία 5721
ελε@@ 5721
g 5718
ρασι@@ 5717
αδελφή 5715
πεν@@ 5713
ευσης 5712
άλι 5711
G 5708
τός 5707
δήλ@@ 5706
x@@ 5705
ίσματος 5703
νέος 5702
πολίτες 5702
ατόμων 5700
βελ@@ 5696
περαιτέρω 5696
ρικό 5696
08 5694
επιτρέ@@ 5694
καλλιτέχνες 5694
διαφορά 5691
σιακ@@ 5689
χιλιάδες 5688
αποτυχ@@ 5684
ισμοί 5683
διευ@@ 5679
Αρχαι@@ 5676
ιάν@@ 5674
χλ@@ 5670
σιν@@ 5669
ελληνικού 5668
Τε@@ 5667
μορ@@ 5667
συγγεν@@ 5664
οξύ 5661
Σοβιετική 5659
αντικείμενα 5659
Πηγ@@ 5657
άτης 5657
σαφ@@ 5655
πολιτικές 5653
αγαπ@@ 5650
μευ@@ 5648
έσπασε 5643
σκηνοθέ@@ 5643
παίκτης 5642
1948 5641
Αμερικής 5641
σύζυγό 5641
ήλ 5640
1958 5639
δείχνει 5639
Κάθε 5637
Τέλος 5637
κάτο@@ 5637
όνιο 5637
νομοθε@@ 5636
h@@ 5635
φάρ@@ 5635
αφορού@@ 5632
διεθνή 5632
πτώση 5631
ελευθερ@@ 5630
αρτη@@ 5629
Έκ@@ 5628
ζήτηση 5628
καταστροφ@@ 5627
γιορ@@ 5623
πρίγκιπα 5622
δικά 5619
επαφή 5618
αγωνιστική 5617
κανείς 5613
μεταφορά 5613
i@@ 5611
Καριέρα 5610
1962 5609
χρώματα 5609
τάξη 5607
Μονή 5606
ίστ 5605
επανάσταση 5604
συγκεκριμένη 5602
Κρί@@ 5601
ξεκίνησαν 5601
Που@@ 5599
σκόπ@@ 5599
1956 5598
Ζαν 5597
ρός 5595
Μυ@@ 5594
Γιώργος 5593
ακού 5593
Σουλ@@ 5592
άτα 5592
διακρίν@@ 5592
Μορ@@ 5591
μοναστήρι 5590
πλοίο 5588
κτι@@ 5586
Πρόκειται 5584
στόχ@@ 5581
χερσ@@ 5581
Βικ@@ 5580
άτο 5580
αντιστοιχ@@ 5580
34 5578
b 5578
φρα@@ 5578
μοναδικό 5577
λεξ@@ 5576
39 5574
Μπέ@@ 5572
Ελισάβετ 5570
ήγηση 5569
Αραβ@@ 5567
διών 5566
Δύο 5564
Λονδίνου 5563
οθε@@ 5563
συνηθ@@ 5562
διότι 5561
E 5560
ΦΚ 5560
προϊόντα 5559
σσεται 5558
Σικελ@@ 5557
ar 5556
Πειραιά 5556
διαγων@@ 5554
υποψηφι@@ 5553
Ουρ@@ 5551
Ακαδημία 5550
X@@ 5547
Καθολ@@ 5547
διαφορετικά 5547
ορειν@@ 5546
πλήρω@@ 5546
στήρι@@ 5544
άλληλ@@ 5541
ματικές 5536
ερμηνεία 5534
πίεση 5532
Τουρκ@@ 5531
εκπομπ@@ 5531
μάτια 5531
τοντας 5530
ημένα 5528
θει 5526
κεντρικό 5525
λέει 5525
ουσας 5524
ούζ@@ 5524
42 5521
κυρί@@ 5520
βάλ@@ 5517
Γη 5515
βρο@@ 5515
κομμάτια 5514
Φαρ@@ 5512
Ανατολικής 5511
έρες 5510
όπουλου 5502
σες 5496
εθνικ@@ 5495
επίπεδα 5495
τήθηκε 5492
χώρηση 5491
μενη 5487
Οργαν@@ 5486
βιομηχανία 5486
εδώ 5483
Τελ@@ 5482
ήμα 5482
καταστροφή 5481
κατηγορ@@ 5481
μεγαλύτερες 5474
δεκαετίες 5472
πουλ@@ 5470
όρισε 5469
διαρκ@@ 5467
ειακής 5462
55 5458
Ηλ@@ 5458
36 5455
Δεύ@@ 5455
δίσκο 5455
κατάκτηση 5454
ισσας 5448
οσφαι@@ 5448
μικρές 5446
οικονομικά 5446
εκτιμ@@ 5443
ίλι@@ 5442
διαδικα@@ 5442
μυθιστόρημα 5442
παθ@@ 5442
ονία 5440
ηλικ@@ 5439
Τι@@ 5438
Αυτός 5437
αποκλειστικά 5436
δυτική 5436
χου 5433
Σελ@@ 5432
όντα 5432
Y@@ 5431
ίλλ@@ 5429
μεταφέρθηκε 5429
μπα 5429
σκευ@@ 5425
μετονομάστηκε 5423
ρίσει 5422
μεθυλ@@ 5420
αρχικό 5419
1919 5415
Ομοσπονδία 5415
Στους 5410
θρω@@ 5410
μασε 5407
επόμενα 5406
γή@@ 5405
τιά 5405
Υόρκης 5404
έστερ@@ 5404
δουλειά 5403
πράξη 5403
Τούρκ@@ 5402
μόνη 5402
ροφορ@@ 5401
τερη 5398
64 5397
ρίς 5397
ποικ@@ 5396
Σοσιαλ@@ 5395
αντίδραση 5394
μεταφέρ@@ 5394
Γρηγ@@ 5390
κέν@@ 5390
σιμ@@ 5386
μισό 5385
πόλεως 5385
απλά 5384
ογράφος 5384
ετή 5383
μάλλον 5382
ρούν 5380
ορισμένα 5379
άλυψε 5377
φρον@@ 5377
βρά@@ 5376
Τιμ@@ 5373
κείμενο 5369
ζοντας 5368
δισκ@@ 5367
κάποιος 5362
δοκιμ@@ 5361
1955 5359
απορ@@ 5359
ακού@@ 5358
διαγωνισμό 5357
δυσκολ@@ 5356
Χατζ@@ 5353
ρασης 5351
θες 5349
πόλεμος 5349
Πολιτειών 5348
ηβ@@ 5348
φυσικό 5348
Βλ@@ 5346
Σάν@@ 5346
απομακρ@@ 5345
απόκ@@ 5344
μακριά 5344
ανεξαρτησία 5343
βγ@@ 5343
ελάχι@@ 5343
συγκεκριμένο 5343
gr 5341
Τά@@ 5341
Κρ@@ 5339
άλου 5339
ενότητα 5339
βρεθεί 5337
εξέγερση 5337
ετ 5337
οποίησης 5337
ολοκληρ@@ 5336
τιδα 5334
πρεσβ@@ 5330
σενάριο 5330
άντ 5329
37 5328
κατοχή 5328
φύση 5328
1959 5327
καταργ@@ 5326
νά 5325
επιτε@@ 5324
όδρο@@ 5324
ίλια 5322
φωτογραφ@@ 5322
γερμανική 5321
ακής 5317
άδης 5313
γρα@@ 5313
διαπραγματ@@ 5312
διοικητής 5312
μεσαι@@ 5312
πέτυχε 5309
μός 5307
σκην@@ 5306
ταυτ@@ 5304
επιστρέψει 5303
b@@ 5300
ιππ@@ 5300
σιμα 5300
συνδυασμό 5300
επιχειρηματ@@ 5296
καλαθοσφαίρισης 5295
38 5294
αρχιτέκ@@ 5294
ταχύτητα 5294
έπει 5291
ανο@@ 5291
εύσεις 5291
θεω@@ 5291
18@@ 5289
μιν@@ 5289
ούμενη 5289
οτεχν@@ 5288
Ευρωπαϊκ@@ 5286
δούκας 5286
θέτει 5283
Τύ@@ 5281
Βρετανία 5280
σημαν@@ 5280
ενς 5279
ητό 5279
σεως 5279
συνέπεια 5277
υποστηρικ@@ 5277
Άμ@@ 5276
1942 5275
άτων 5273
αναφορές 5271
πλήρως 5270
έθηκε 5268
γιου 5268
οθωμαν@@ 5268
παλιά 5268
λιθ@@ 5267
χρονολογ@@ 5267
τικότητας 5266
— 5265
Χέν@@ 5262
σταθμό 5261
Κέντρο 5258
διασκ@@ 5257
ρίσ@@ 5256
Άλλ@@ 5254
αξίωμα 5253
επίδ@@ 5253
φυσικά 5253
βαση 5252
l@@ 5251
δημόσι@@ 5251
Λευκ@@ 5250
αναλογ@@ 5250
μβούργου 5248
Λει@@ 5247
εται@@ 5247
Βά@@ 5245
άνος 5244
ζώνη 5244
μέρ@@ 5242
ρικής 5242
Μαδ@@ 5241
διεθνής 5240
4.@@ 5239
σειρές 5239
τεται 5239
Δήμ@@ 5235
όλης 5234
ιδιοκτη@@ 5233
Ελληνικής 5231
λέχθηκε 5227
Σλοβ@@ 5226
Σπ@@ 5226
αίων 5226
τσο 5225
ρέφ@@ 5224
τία 5224
65 5222
Βαλκαν@@ 5222
αστικό 5222
αίος 5220
μονάδες 5220
σκοπο@@ 5218
Λογ@@ 5217
ήρου 5216
λο@@ 5212
αθλ@@ 5211
ζώα 5211
αποκτήσει 5210
85 5209
Μακεδονία 5208
κόμης 5206
εθνικό 5205
κατασκευάστηκε 5205
ref 5203
ηγε@@ 5202
Μαζί 5201
ήση 5201
ίς 5201
σύμβ@@ 5201
ποδόσφαιρο 5200
1951 5199
τοποι@@ 5199
Ενότητα 5198
ακολούθησαν 5197
Κέρκυ@@ 5196
βάν 5196
Χρον@@ 5194
υπόλοιπο 5194
διεκδικ@@ 5193
Στρατού 5191
σχεδί@@ 5191
ενι@@ 5188
ματι 5188
ρικές 5188
g@@ 5186
εξασφαλ@@ 5186
ερς 5186
κί@@ 5186
πλήρη 5186
τωση 5186
Κρατ@@ 5183
κατατά@@ 5183
Έν@@ 5181
νησ@@ 5181
γραφής 5177
επιδ@@ 5177
1922 5176
52 5176
ματικής 5176
ληση 5175
απαγορ@@ 5174
Ντέ@@ 5172
τισμό 5171
σταδιακά 5170
επιθε@@ 5169
μπά@@ 5169
ΦΕΚ 5168
μεγάλος 5168
Υπουργείο 5166
οικονομία 5166
προσωπικό 5166
δυσ@@ 5165
κλίμα 5165
ράν 5161
Επανάσταση 5160
πλαίσια 5160
ισχύ@@ 5159
z@@ 5157
αλία 5157
ΑΣ 5156
1936 5155
όπουλο 5155
κή@@ 5154
αέρα 5153
ρικά 5153
βία 5152
μελε@@ 5152
Ακαδημίας 5150
48 5149
πωλ@@ 5147
βάρ@@ 5146
Γιου@@ 5145
λαν@@ 5143
μολ@@ 5143
υπάγεται 5143
εστι@@ 5142
οικισμό 5141
τηρ@@ 5141
λίγα 5140
Ολυμπ@@ 5139
ουσιαστικά 5139
Εθνικού 5138
έρων 5134
φυσι@@ 5134
νει 5132
κυβερνη@@ 5131
μείωση 5131
Πέρ@@ 5130
Ρο@@ 5130
γυμ@@ 5130
φοβ@@ 5129
αίτηση 5128
ατιν@@ 5127
κατασκευής 5127
επιβ@@ 5126
πέδου 5126
άγγελ@@ 5122
ίζονταν 5120
Καπ@@ 5119
1949 5117
or 5117
Αυστρίας 5116
βασίζεται 5116
λαμβ@@ 5113
σύγκρουση 5113
ψυ@@ 5113
ειδών 5112
αστερ@@ 5111
βρίσκονταν 5111
χρησιμοποίησε 5110
Βόρειας 5109
Σ.@@ 5109
ετία 5109
εκλεγ@@ 5108
πουν 5108
απαρ@@ 5106
έμειναν 5105
γερμανικά 5105
άνων 5104
βραβεία 5104
ντα 5103
όμηση 5103
N 5100
δά@@ 5100
Al@@ 5099
κατάλ@@ 5099
μέρους 5099
μαθ@@ 5099
Κωνσταντίνου 5098
ανήκουν 5097
αυλ@@ 5096
σεξουαλ@@ 5091
θερμοκρα@@ 5089
επιθέσεις 5087
σφαί@@ 5086
95 5085
Πί@@ 5085
at 5084
απελευθερ@@ 5084
πανεπιστήμιο 5084
ρισης 5084
σύζυγο 5084
έσκ@@ 5082
αστικά 5082
σερ@@ 5082
Αίγυπτο 5081
εϊ 5080
προ 5080
χτίστηκε 5077
αλφ@@ 5076
ανέφερε 5074
φέρεται 5073
Μόν@@ 5072
Χι@@ 5072
εγκαταστάθηκε 5072
ολογικές 5072
μετακόμισε 5071
ούμενος 5071
όσα 5069
γματα 5067
καλλιεργ@@ 5067
μπού@@ 5067
φαλ@@ 5067
Αλλά 5066
λανδ@@ 5066
άρθρο 5065
γκα@@ 5065
επισκοπ@@ 5065
Καλύτερ@@ 5064
ωδ@@ 5063
1957 5061
Έγινε 5061
δεται 5059
κρύ@@ 5058
al@@ 5055
χώρου 5054
μετο@@ 5050
λου@@ 5047
διαν@@ 5046
μαθητές 5046
Ασίας 5045
χων 5041
Νικόλαος 5039
παρόμοια 5039
Αριστο@@ 5035
1938 5033
Μπα@@ 5032
Λουδοβίκος 5030
φυγ@@ 5028
44 5027
Κόλ@@ 5025
f 5024
κάτοικοί 5021
ονομαζόταν 5021
ουστ@@ 5021
διάδ@@ 5019
πίνακας 5017
υπεύθυν@@ 5017
παγκόσμια 5015
λεπτο@@ 5014
πια 5011
γράμματα 5010
θους 5009
διακοσμ@@ 5007
Κοινοβ@@ 5006
τοποί@@ 5006
καλύ@@ 5005
μέτρ@@ 5005
βόρ@@ 5004
41 5003
ανακοινώθηκε 5003
οφείλεται 5003
λόγος 5000
νίκησε 4998
ίσθηκε 4997
πιθανότατα 4997
ώμα 4997
Σικ@@ 4996
Μονα@@ 4994
διάδοχ@@ 4993
ανάπτυξης 4992
αναπτύχθηκε 4992
1952 4991
πες 4990
ιστορική 4989
δοκι@@ 4988
κατακτ@@ 4988
v@@ 4987
επιθυμ@@ 4984
βρέθηκαν 4983
κ.ά. 4983
Ισραήλ 4981
γήπεδο 4981
άζονταν 4980
Πολυ@@ 4979
ημένες 4979
όρα 4979
ολα 4978
παραδοσι@@ 4978
τετραγ@@ 4978
βασίλισσα 4977
ινά 4974
Αττικής 4973
Σερβίας 4973
Φεστιβάλ 4972
πληροφορ@@ 4971
ούρα 4969
τί 4969
βορ@@ 4968
ωμένα 4968
κοινού 4963
1924 4962
λατρ@@ 4962
πτη@@ 4960
Αποτελ@@ 4957
Νήσ@@ 4957
άνθρωπος 4957
αμφι@@ 4955
Αυτές 4949
αιγ@@ 4947
αρσεν@@ 4946
πεθ@@ 4946
46 4945
Κώ@@ 4945
Λύ@@ 4943
Δου@@ 4941
Αυτά 4938
άδι 4936
πυροβολ@@ 4935
ακά 4934
ανάκ@@ 4933
Ζ 4932
άκ 4932
σιδηροδρομ@@ 4932
ωφ@@ 4932
ελπ@@ 4931
φως 4930
επεν@@ 4929
Μπέρ@@ 4928
άσι@@ 4926
μακρο@@ 4926
προσαρ@@ 4926
ψι@@ 4925
Ινδ@@ 4924
Ινστιτούτο 4924
διεξήχθησαν 4924
εκστρατ@@ 4923
αποκλει@@ 4922
ευκαιρία 4921
πρώτοι 4920
ολυμπ@@ 4919
οποιήθηκε 4919
φτάσει 4917
1927 4915
κοντιν@@ 4914
όνος 4914
Απεβίωσε 4913
θή@@ 4913
κοινωνική 4913
ταξης 4913
Λιθου@@ 4912
βρίσκ@@ 4912
συνδέεται 4911
Εμφ@@ 4910
αλι@@ 4909
κατακτήσει 4908
άλλου 4905
ξή 4902
άκα 4900
έντον@@ 4900
δουλ@@ 4899
Ποδοσφαι@@ 4898
εμπόριο 4898
Φρειδερ@@ 4897
ανεπ@@ 4896
ευρύτερ@@ 4896
τελει@@ 4896
λεϊ 4895
πρόκειται 4895
Επο@@ 4894
άτη 4894
αλο 4894
γίνονται 4891
Ινδία 4889
U 4888
μουσείο 4888
r 4887
Σφ@@ 4885
ισθ@@ 4885
δεξιά 4884
χαρακτηρίζεται 4883
Μπεν@@ 4882
Ρώμης 4882
υδρογ@@ 4880
έρι@@ 4877
οργάν@@ 4877
σπίτια 4877
Λιβ@@ 4876
σημαία 4874
400 4873
Σαν@@ 4873
πιλ@@ 4873
πρι@@ 4872
ντα@@ 4868
47 4865
αιρέ@@ 4863
μενε 4863
μνημείο 4862
ομένου 4862
έλφ@@ 4860
Νορμαν@@ 4859
βασιλείας 4858
Νορβηγ@@ 4857
όμενης 4856
ετα@@ 4855
κατάστασης 4855
οικογένειά 4855
απελευθέρωση 4854
παγκοσμίως 4854
περιλαμβάνονται 4848
ύλακ@@ 4848
δύσκολ@@ 4846
66 4845
µ@@ 4845
επαναστατ@@ 4845
οδηγεί 4845
Τραγ@@ 4843
διατήρ@@ 4843
τιμές 4843
υποστήριξε 4843
πλατ@@ 4842
άκια 4841
τάθηκε 4841
συγγραφείς 4840
άνοι@@ 4838
βρήκε 4838
υρό 4837
φορο@@ 4837
εξαιρε@@ 4836
ιθ@@ 4835
λίγες 4835
περισσότερους 4835
σκέ@@ 4835
λαντ 4834
ωνύ@@ 4834
επιτρ@@ 4833
στέ@@ 4833
παλι@@ 4830
ώνται 4830
πέρα 4829
ιστορικός 4828
ουγ@@ 4828
τίτλους 4828
1953 4827
εκδόθηκε 4827
παρουσί@@ 4827
82 4826
Ανατολική 4826
Σχολής 4826
άλων 4825
κοινωνία 4824
επιβεβαι@@ 4822
μελέτες 4822
παραδοσιακ@@ 4822
ροφή 4821
συμπεριφορά 4821
κριτικές 4820
ειδικ@@ 4819
φιλοσοφ@@ 4819
χωρήσει 4819
σύμβολο 4818
υκλ@@ 4818
όξ@@ 4818
φαινόμενο 4815
71 4814
Άρη 4813
Φερ@@ 4813
μόνος 4811
εντολή 4809
παρέχει 4809
απόλυ@@ 4807
υιοθε@@ 4804
ώδης 4803
ανοικ@@ 4802
Υόρκη 4800
δέχεται 4800
Δημήτριος 4799
επιχείρ@@ 4797
ίλα 4795
αναγκάστηκε 4795
1929 4794
ιστορικά 4793
ικος 4791
θηλυκ@@ 4790
1954 4789
όπερ@@ 4789
Μάλ@@ 4788
γάμος 4788
ευρέως 4788
πόλ@@ 4788
χωρών 4784
βόρειο 4781
όμενους 4779
Εδουάρ@@ 4778
Βί@@ 4776
έπεσε 4776
ήσεως 4773
Αυτοκράτορα 4772
παλαιότερα 4772
έρον@@ 4771
Μπολ@@ 4769
κείμενα 4768
περιλαμβ@@ 4767
61 4764
Δυτικής 4763
αρχίζει 4762
54 4761
γενική 4761
τμήματος 4759
όλ 4759
διακή 4758
πλατεία 4758
προστατ@@ 4758
όμενων 4758
Κυκλ@@ 4757
οποιείται 4757
Γκά@@ 4756
εμφανίζονται 4754
τίου 4754
τείν@@ 4754
1935 4753
Διεθν@@ 4753
άτου 4753
ανατολικό 4753
χάρ@@ 4752
μπαν@@ 4751
πρόσβαση 4749
ώνιο 4749
κύριος 4748
αρτ 4747
ευρώ 4747
συστατ@@ 4746
διακρι@@ 4740
θανάτου 4740
καλύπτει 4739
Ροδ@@ 4735
άμ 4735
ημερολόγιο 4735
Βίκ@@ 4734
εκτετα@@ 4734
μένουν 4734
5.@@ 4733
άνδ@@ 4733
Φραγκίσ@@ 4730
Δυτική 4729
Τσεχ@@ 4729
καλύτερα 4728
παρατ@@ 4728
προσώπων 4728
τοπικό 4728
κους 4727
σταθεί 4725
συλλόγ@@ 4725
ήφ@@ 4724
επε 4724
αλγ@@ 4723
διαλύ@@ 4723
μεγάλ@@ 4723
χιλιομέτρων 4723
απέκτησαν 4722
υποβιβ@@ 4722
ευε 4721
συγγραφέα 4718
φερε 4717
χορηγ@@ 4717
τισμός 4715
μματα 4714
Νίκος 4711
συνολ@@ 4709
συμμαχ@@ 4708
en@@ 4707
Λυ@@ 4707
υδρ@@ 4707
ίδι 4706
δεσ@@ 4706
ενισχύ@@ 4706
τομα 4706
Θέ@@ 4705
νόμο 4705
Θεόδω@@ 4704
57 4703
μενος 4702
παγκόσ@@ 4702
Λάν@@ 4700
εκλογή 4697
λημα 4697
άμεσα 4696
Άλλες 4695
κτισ@@ 4695
λίστα 4695
62 4694
αγώνων 4694
Μιν@@ 4693
Νί@@ 4692
ματικός 4691
επιστρέφ@@ 4690
Κροατ@@ 4688
αρχαίας 4688
γης 4687
εκατ@@ 4687
επιχείρηση 4687
θέα 4687
αντιπ@@ 4686
μυθολογία 4686
μοναδική 4685
στούντιο 4685
Γεω@@ 4684
καταγ@@ 4684
αρχείο 4683
δολοφ@@ 4681
θετο 4681
τίθεται 4681
αξε 4678
in@@ 4677
Βουλή 4676
άριος 4676
αγώνας 4676
μεγάλων 4676
Χα@@ 4675
04 4669
Χου@@ 4668
λοβ@@ 4668
Ρού@@ 4667
Γραφ@@ 4666
μονάδα 4666
ιζε 4665
Ch@@ 4662
συμμετάσχει 4662
07 4661
63 4661
Αϊ@@ 4661
παραμον@@ 4661
Σοβιε@@ 4660
ασμ@@ 4660
χολ@@ 4660
έρια 4659
ελέγχ@@ 4659
δοθεί 4658
Πόλεμος 4657
δολοφονία 4657
Σοφ@@ 4653
ιδιότητες 4653
παίκτες 4652
ίσταται 4651
δημιουργήσει 4650
58 4646
έντονα 4646
περιγράφει 4645
παραγ@@ 4644
Re@@ 4642
Τμήμα 4642
αίνοντας 4642
έδωσαν 4639
τάξης 4639
εξηγ@@ 4638
Ε.Π.Σ. 4637
Ξεκίνησε 4636
ότερ@@ 4635
αναγκα@@ 4634
μπ 4634
διαίρεση 4633
σπι@@ 4633
διοργανώσεις 4632
Τεχν@@ 4631
πόδια 4631
τηρίου 4631
διαταρα@@ 4630
μνήμη 4630
πρώτους 4630
βορει@@ 4629
τέτοια 4629
δημοσίευσε 4628
Υπηρε@@ 4626
Φινλανδ@@ 4624
πράσ@@ 4623
εξυπηρε@@ 4622
οθέ@@ 4622
αυτοκρατορ@@ 4620
διεθνείς 4618
παίζει 4617
Κινηματογράφου 4616
ατμ@@ 4614
ed 4613
δημοτική 4613
ερευνη@@ 4613
ειος 4612
Μεγάλ@@ 4611
εδαφ@@ 4611
ιζόταν 4610
Ν. 4609
ηλικίας 4609
στάν 4609
1926 4607
88 4607
ΑΕΚ 4607
όντος 4607
Ιησ@@ 4606
ασμό 4605
ακολουθούν 4604
Ar@@ 4602
ραντ 4601
επαρχίες 4599
όνες 4598
Ού@@ 4597
ορκ@@ 4597
74 4595
ρασ@@ 4595
άνα@@ 4593
πλήθος 4592
οϊ@@ 4591
ωσ@@ 4591
αιτ@@ 4590
στοιχ@@ 4589
πρόσωπα 4588
Φυσ@@ 4587
αντικει@@ 4587
είσοδο 4586
χρόνων 4585
κινηματογραφ@@ 4584
κύκλο 4584
σού@@ 4583
όγειο 4583
Αριστ@@ 4582
ηχογράφ@@ 4582
τονομ@@ 4582
on@@ 4580
Χέρ@@ 4580
Αγων@@ 4579
κυν@@ 4579
Γιάννης 4576
εορ@@ 4576
ρικαν@@ 4576
κατάληψη 4575
πραγματικό 4575
Χρησιμ@@ 4572
ούμενο 4572
Καλλι@@ 4571
επέκταση 4571
Κάστρο 4567
43 4566
μής 4565
προσώπ@@ 4565
93 4562
ποντας 4562
χλμ 4562
γινόταν 4561
μάζ@@ 4561
Μέσα 4560
δεύτερ@@ 4560
διδασκαλ@@ 4560
νοτι@@ 4560
Σύνταγμα 4559
άνοιξε 4557
ανάλυση 4557
r@@ 4556
Λα 4556
Κυβερν@@ 4554
γενν@@ 4554
Αιγύπτου 4552
εξελί@@ 4552
βασικό 4551
K 4550
86 4549
Δύ@@ 4549
καλή 4549
θεωρούνται 4548
ώπου 4548
συνθήκη 4546
81 4545
www.@@ 4544
διαφόρων 4540
χρήματα 4539
αμφ@@ 4538
εβραϊκ@@ 4538
μέγι@@ 4537
ικανότητα 4536
μικρότερο 4536
νεφ@@ 4535
παντρε@@ 4533
Πρε@@ 4532
Τοπ@@ 4531
άσμα 4531
Ιστορικό 4530
εβδομάδες 4529
Παγκόσμι@@ 4527
ντι 4525
οποιαδήποτε 4525
ορία 4524
Στάδιο 4523
Τί@@ 4523
2η 4522
περιόδους 4522
Σιδη@@ 4521
άδεια 4521
γεωργ@@ 4519
1933 4518
σεν 4518
Τζέιμς 4517
άριο 4516
αίες 4516
δεξ@@ 4515
Γενικά 4514
πρόεδρο 4513
ασχολήθηκε 4512
μά 4511
ογραφική 4511
Επιστ@@ 4510
καρδι@@ 4510
ογραφίες 4510
ίνια 4509
επικοιν@@ 4509
Ουγγαρίας 4506
Αβ@@ 4505
Ιδρύθηκε 4505
μελλον@@ 4504
76 4502
Θέατρο 4502
Κωνσταντινούπολης 4502
ίχν@@ 4502
ιαπ@@ 4501
αρχιτεκτονική 4500
θει@@ 4500
Εγ@@ 4499
Υπάρχει 4499
79 4498
Ντου@@ 4497
αμ 4497
μεγαλύτερα 4496
γρά@@ 4495
οικισμού 4495
ηπ@@ 4494
f@@ 4493
έδριο 4493
ήμης 4493
τόμ@@ 4493
δείξει 4492
φθεί 4491
ch@@ 4490
67 4489
αυστη@@ 4489
ισμένα 4489
στάση 4488
Ρόμπερτ 4487
ποταμός 4487
όδους 4487
νται 4484
Μάρκ@@ 4483
γλυκ@@ 4483
στρά@@ 4483
ομίλ@@ 4482
άφησε 4481
αυτοκράτορας 4480
εταιρείες 4480
Αθλη@@ 4479
1934 4478
Ρέ@@ 4478
εργαλ@@ 4478
μυθιστορ@@ 4478
μητέρας 4477
ταξί@@ 4477
οειδή 4475
πλέ@@ 4475
υποψήφιος 4475
84 4473
-- 4472
λης 4472
διαδοχ@@ 4471
υπήρξαν 4471
όπο@@ 4471
Αφρικής 4469
περιορι@@ 4468
χρονολογείται 4468
ar@@ 4466
Καρόλου 4465
τηλεοπτική 4465
ποτά@@ 4464
λειτουργίας 4462
αντίπαλ@@ 4461
ότεροι 4461
Ευρωπαϊκή 4459
Παρισιού 4459
λεξε 4456
1937 4455
π.@@ 4455
Μω@@ 4452
er@@ 4451
Στε@@ 4451
εννέα 4450
φτι@@ 4450
χέρι 4449
πακ@@ 4447
Περσ@@ 4446
φος 4446
πολιτικών 4445
γράφτηκε 4443
Αιτωλ@@ 4442
z 4441
γλυπ@@ 4441
στηκαν 4439
Ονομ@@ 4438
στήρια 4438
κ.α. 4437
94 4435
Γουλιέλ@@ 4435
γέννηση 4433
εύσει 4433
ζωγράφος 4433
51 4432
Βούλ@@ 4432
μαθήματα 4431
πώς 4431
επιτρέπει 4428
ιακές 4427
δήποτε 4426
Πύργ@@ 4425
Συνολικά 4424
αναλάβει 4424
δίσκος 4424
τρόφ@@ 4423
όργανα 4422
Αυστραλία 4420
στολ@@ 4420
1923 4419
συνεπ@@ 4419
ιδών 4417
κεφάλι 4416
96 4414
ηλεκτρο@@ 4413
Αχαΐας 4412
ντο 4412
βιβλιο@@ 4411
ασθέν@@ 4410
Ελευθερ@@ 4409
έντονη 4409
Καλλ@@ 4408
πρότεινε 4408
βιβλιοθήκη 4405
κίνδυνο 4405
παραστάσεις 4405
μπορ@@ 4404
πολίτης 4404
δας 4403
πληρω@@ 4403
02 4402
Αικατερ@@ 4402
Σέρβ@@ 4402
78 4401
ακτές 4401
ανασκαφ@@ 4399
εκτέλεση 4398
Τράπεζ@@ 4397
72 4396
αξιωματού@@ 4396
εύκολα 4395
Δελ@@ 4394
Θεσσαλ@@ 4393
μεύ@@ 4392
ερα 4391
1932 4389
αιώνες 4389
ότου 4388
Σχολ@@ 4387
ίκων 4387
ενέργειες 4387
ιδιαίτερη 4386
Πολλοί 4385
αρίου 4385
πολιορκία 4385
Κί@@ 4384
προπονητή 4384
ριβ@@ 4383
ωμένος 4379
73 4378
Ολυμπιακό 4378
κατεύθυνση 4378
ομώνυμο 4377
Ούγ@@ 4376
56 4375
https 4375
χαρακτήρες 4375
δέχ@@ 4372
φωτός 4372
λια 4371
ριά 4371
υπόλοιπα 4371
αθλητές 4368
Βέλ@@ 4367
μπάσκετ 4366
πρωτεύ@@ 4366
εγγον@@ 4365
εκκλησίας 4365
έθ@@ 4364
προγράμματος 4364
Κρήτη 4363
ημένος 4363
έλι@@ 4362
εγέρ@@ 4359
μπαρ@@ 4359
στιγ@@ 4358
όφιλ@@ 4358
Χίτλερ 4357
ηπειρω@@ 4357
καρκ@@ 4357
όπλων 4356
Κοζ@@ 4355
Όσ@@ 4354
Αμερικανός 4354
πυρην@@ 4353
σή@@ 4352
Τεχνών 4351
Τορ@@ 4351
κοινοβ@@ 4351
κάλ@@ 4348
Γερμανοί 4347
Ερρίκου 4347
εκτελε@@ 4347
τραγουδ@@ 4347
ταξίδι 4346
τουριστ@@ 4346
ανών 4344
εγκαταστάσεις 4344
κτίρια 4344
παραιτήθηκε 4343
πολιτικά 4342
χαρακ@@ 4342
βασιλική 4341
δυνα@@ 4341
συμπεριλαμβ@@ 4341
δίσκου 4338
ρονομ@@ 4338
χώρους 4338
ότυπο 4338
κέντρα 4337
σοσιαλ@@ 4337
φήμη 4335
δίκη 4334
άλογ@@ 4333
αναγνώριση 4333
αντιμετώπι@@ 4333
κάν@@ 4333
Καμπ@@ 4332
68 4331
Μιχ@@ 4331
αρχο 4331
λαμβάνοντας 4331
‘ 4331
συνεισ@@ 4330
Παρασκευ@@ 4328
στάθηκε 4328
τέτοιο 4327
ημερομηνία 4325
δηλώνει 4324
οικοδομ@@ 4324
δρομές 4323
ομορφ@@ 4323
ητήριο 4321
θυν@@ 4321
ουσίας 4320
έκλει@@ 4319
τείνει 4319
49 4317
εγκαταστάθηκαν 4317
Φίλιππος 4316
στυλ 4316
Εν 4314
δάσκαλ@@ 4314
θαυ@@ 4314
ενθ@@ 4313
έμβαση 4311
επικεντρ@@ 4311
53 4310
Ίν@@ 4310
κανένα 4308
τεράστι@@ 4308
Γιώργ@@ 4307
Βουλγαρία 4306
Ναπολέ@@ 4306
ισμένος 4306
μεν 4305
1917 4304
καταρ@@ 4304
Κέ@@ 4302
βοηθήσει 4302
υπτι@@ 4300
θάλασσας 4296
Κίν@@ 4295
σερβ@@ 4295
ένιο 4294
κατέλαβαν 4294
Κουρ@@ 4293
δράσεις 4292
πνεύ@@ 4290
σύγ@@ 4290
μοιρά@@ 4288
Υ 4287
ιδιαίτερ@@ 4285
πού 4285
1925 4283
Πολεμ@@ 4280
γερμ. 4280
ριακό 4280
κυπ@@ 4279
υγείας 4278
δείχ@@ 4277
προκρί@@ 4277
Τερ@@ 4276
ρασαν 4276
ρεί 4276
Αυλ@@ 4275
Γκι@@ 4275
στοιχείων 4275
ΕΛ@@ 4274
πατρι@@ 4274
el@@ 4273
Συνθήκη 4272
προσφέρει 4272
Ορισ@@ 4271
ιστικών 4270
Πτολεμα@@ 4269
στηκε 4269
εύθηκε 4268
άμεση 4267
Λουδοβίκου 4266
ακτή 4266
όμενου 4266
κήρυ@@ 4264
σα@@ 4264
Σερβ@@ 4263
κοινότητες 4263
Κόν@@ 4261
Όθ@@ 4259
αρχαιότητα 4259
πλούσια 4259
ρίζοντας 4259
Διαδ@@ 4257
προέρχονται 4257
γων@@ 4255
επανα@@ 4255
περιοδεία 4255
Μεν@@ 4254
Ο.@@ 4254
ητικής 4252
φυλάκ@@ 4252
Βαυαρ@@ 4251
βοήθησε 4251
γραμματ@@ 4249
μικρότερη 4249
99 4248
ονομάζονται 4248
ραδιοφ@@ 4247
τριες 4247
Ελληνικό 4244
μεταφρά@@ 4244
εντελώς 4243
συμμετέχει 4243
09 4242
συμφών@@ 4241
πίνακες 4240
τραγ@@ 4240
νύ@@ 4239
ανάγκη 4238
μπερτ 4238
τοποθετ@@ 4238
Κοσ@@ 4237
ωνικής 4235
νοι@@ 4234
συμπεριλαμβανομένου 4234
απόψεις 4231
Γ. 4230
συνάν@@ 4230
ιατρική 4229
μειον@@ 4229
ίλιαμ 4226
οβιτς 4225
πετρ@@ 4225
επιτροπή 4224
πόλεων 4223
νι 4222
00 4221
διαδ@@ 4221
θαλάσ@@ 4221
σμοί 4220
Αθη@@ 4219
εμπλ@@ 4219
στερε@@ 4219
or@@ 4218
εκείνος 4218
οδήγησαν 4218
γιους 4217
μεταβλ@@ 4217
ουσίες 4216
ϋ 4216
στρω@@ 4215
Αλ 4213
Βόρ@@ 4212
ναύ@@ 4212
οσύνης 4212
ιων 4211
νάσιο 4211
κάτο 4210
όλος 4209
Παρα@@ 4208
επεισόδιο 4208
παράσταση 4208
Λίγο 4207
σύλλογο 4206
άκρο 4205
Κεντρική 4203
Όμιλ@@ 4201
δωρε@@ 4201
κύπελλο 4201
Πολιτική 4200
θν@@ 4200
Επειδή 4199
περιορισ@@ 4199
υπέστη 4199
άνδρα 4198
ιδιοκτή@@ 4198
τηλεόραση 4197
ίτσα 4196
υποχρε@@ 4196
91 4194
επίσημο 4194
an@@ 4193
κρε@@ 4192
κυνηγ@@ 4191
σχεδι@@ 4191
θέλ@@ 4190
Σμύρ@@ 4189
αυλή 4188
ικάν@@ 4188
νου@@ 4188
ακαδημαϊκ@@ 4187
06 4186
Γης 4186
Σαιν 4184
άγο 4184
εκπρόσω@@ 4182
τελευταίες 4182
98 4181
ac@@ 4181
τάς 4181
υλικά 4181
έγιο 4179
αμερ@@ 4178
περιέχουν 4178
Κομμουν@@ 4177
σταϊν 4176
Πρωθ@@ 4174
εναλλακ@@ 4174
ποικιλία 4172
πρακτική 4171
Ίδρυ@@ 4168
Βραβεία 4168
όντ@@ 4168
92 4167
τετρα@@ 4167
ήτης 4166
γραπ@@ 4166
ΟΥ@@ 4165
παρουσίασε 4165
w@@ 4164
59 4163
πατρίδα 4163
1914 4162
καθιστώντας 4162
λιου 4162
05 4161
77 4159
Αερ@@ 4158
έσεις 4157
Βολ@@ 4152
έφθηκε 4152
διακοπ@@ 4152
κόν@@ 4152
Πεν@@ 4149
έλλειψη 4149
θεί@@ 4149
πίστευ@@ 4147
Μάλιστα 4145
φη 4145
Γουλιέλμος 4144
στρατόπεδο 4144
τω 4144
κάρ@@ 4143
παρασκευ@@ 4143
όφων@@ 4143
Παγκόσ@@ 4141
Χαρακτηριστ@@ 4141
θια 4141
ουραν@@ 4141
ούμενα 4140
συμβούλιο 4139
υρία 4139
όλια 4139
άδη 4138
ρές 4137
Συγκεκριμένα 4135
θενται 4135
πειρα@@ 4135
ητικού 4134
ύρη 4134
ιδίως 4133
κύτταρα 4133
ογραφικό 4132
ρια 4132
διαμέρισμα 4130
ταρα@@ 4130
ἐ@@ 4128
εξίσ@@ 4127
ημά@@ 4126
ώνιος 4125
αίθ@@ 4124
μαχία 4123
οικο@@ 4122
μετανα@@ 4121
νότιο 4121
προέδρου 4119
1,@@ 4118
εκπαίδευσης 4118
Αργεντιν@@ 4116
ωνας 4116
μπήκε 4115
Δανίας 4114
σπάνια 4114
εσης 4112
Αεροπο@@ 4111
εξέδωσε 4111
ς.@@ 4111
σκηνές 4109
κρίση 4108
Έδρα 4107
γραφεί 4107
διάφορους 4105
δαλ@@ 4104
εμφάν@@ 4103
εργάζεται 4100
ΕΡ@@ 4099
εξουσίας 4099
ενημέρω@@ 4098
πράξεις 4098
Συμφ@@ 4097
Eurovision 4096
di 4095
Περιφέρεια 4095
μικρός 4095
αιώνας 4094
επιφαν@@ 4094
σεβ@@ 4093
τίτ@@ 4093
Εταιρείας 4092
προγράμματα 4091
στρατηγός 4091
άσθηκε 4090
Τζό@@ 4089
καταφύγ@@ 4089
ύρω@@ 4089
Γάλλος 4088
et@@ 4087
Ασφ@@ 4087
ποδοσφαιρική 4087
χλω@@ 4086
όκου 4086
εξά@@ 4085
Μπό@@ 4084
εχθ@@ 4084
am 4083
Φιλίπ@@ 4083
άλους 4083
σχετίζεται 4083
έδρ@@ 4081
υψηλή 4081
βουλευτικές 4080
τοποθέ@@ 4080
φυλακή 4078
Σερβία 4077
ακών 4077
αλλαγ@@ 4074
θεωρήθηκε 4073
ροσ@@ 4073
ταινιών 4073
υποστηρίζει 4073
La 4072
άρκο 4072
αστές 4071
εμπορική 4070
μβαναν 4070
υνας 4070
Παύ@@ 4069
είγματα 4069
Ιερουσαλήμ 4068
εκπομπή 4068
σχολεία 4068
Γλ@@ 4067
βρει 4067
οσι@@ 4067
μουσικό 4066
τίνα 4066
χρήσης 4066
διοργάνωσης 4065
Εδ@@ 4064
Βελι@@ 4063
κληρονόμ@@ 4063
87 4060
In@@ 4059
βας 4059
Th@@ 4058
ευθύν@@ 4058
τούτου 4055
άλας 4054
έθν@@ 4053
στικός 4051
απόσ@@ 4050
διάδοχος 4050
φτάνει 4048
Δε@@ 4047
κτήριο 4047
πληθ@@ 4047
τρόπος 4047
καριέρας 4045
ρέφεται 4045
συμβαίνει 4045
ανθρω@@ 4044
κίτρι@@ 4044
Μαρίας 4043
τρε@@ 4043
83 4042
Φρανσ@@ 4042
Μασ@@ 4041
τείνεται 4041
as 4040
Επαρχία 4038
μετε@@ 4035
απάν@@ 4034
καταλήγ@@ 4032
λελεύθερ@@ 4032
νήσ@@ 4031
εισαγωγή 4030
απόδοση 4029
μου@@ 4029
νέας 4028
τέλε@@ 4028
Δυν@@ 4027
Κυβέρνηση 4027
τροπής 4025
ώδες 4025
Κεντρικής 4024
Παι@@ 4024
δέκα@@ 4023
τεια 4023
Ιωαννίνων 4022
μητρο@@ 4022
στος 4020
ερείπια 4019
Τούρκους 4018
ασμός 4018
Ρουμαν@@ 4017
Σιν@@ 4017
απεικόν@@ 4017
μερ 4017
προετοιμ@@ 4017
Μπάρ@@ 4015
ine 4013
Σπάρ@@ 4013
Αυγ@@ 4012
έπεται 4012
απόλυτο 4011
μπλ@@ 4011
εκπροσωπ@@ 4010
97 4009
τιμήν 4009
πρόσφ@@ 4007
ad@@ 4006
άνονται 4006
τραγουδιού 4006
New 4005
κινητήρ@@ 4004
ers 4003
εργαζ@@ 4003
λογική 4003
03 4002
προϊ@@ 4002
is@@ 4000
ιώτης 4000
Βασιλιά 3999
Μπαλ@@ 3999
τέταρτη 3999
τέκ@@ 3998
ευτεί 3997
οκομ@@ 3997
πολί@@ 3997
συμμετ@@ 3996
Πέτρος 3994
Τζι@@ 3994
le 3992
άλλος 3992
έρτο 3992
Νικολάου 3991
προσδι@@ 3991
Κοινοβούλιο 3990
καταδικ@@ 3990
19ο 3987
δι 3987
Λάρι@@ 3986
πάρ@@ 3986
Δομ@@ 3985
άσα 3983
αξιοσημείω@@ 3983
δείχνουν 3983
κουλ@@ 3982
ορφ@@ 3981
ήν 3980
αιο@@ 3979
1913 3978
1931 3978
βασιλείου 3978
χε 3978
ίδιας 3977
ρισμός 3977
όμου 3977
έδει@@ 3976
Σοβιετικής 3975
πολιορκ@@ 3974
τουρνουά 3973
συνολικό 3972
Mar@@ 3971
Θ 3971
Ματ@@ 3970
ενίσχυ@@ 3970
λους 3970
Νότιας 3969
Σοφία 3969
Φραγκ@@ 3969
θηκ@@ 3969
αγόρ@@ 3968
κραν@@ 3968
τουρκική 3968
ήσιο 3967
ούντα 3967
καλοκα@@ 3965
νηση 3965
ρίδα 3965
όφ 3965
ανικά 3964
εδάφους 3964
παράγει 3964
χειμώνα 3964
6.@@ 3962
αναφορ@@ 3962
κόμματα 3962
ριες 3962
παράγοντες 3961
άντρες 3960
αλυσ@@ 3960
βουν@@ 3960
Τρο@@ 3959
εκτιμάται 3959
σκοτώθηκε 3959
ιερό 3958
μόρφωση 3957
κανάλι 3956
συνέλευση 3956
όπλα 3956
όργανο 3956
Βιβλιοθήκη 3955
γραμμής 3955
μένει 3955
έος 3954
αγγέλ@@ 3954
δράσης 3954
νησης 3954
Sh@@ 3953
πτει 3953
89 3950
ακές 3948
πρίγκιπας 3948
παράνομ@@ 3946
περιοχών 3945
Αποτελεί 3944
ριακής 3942
Κόμ@@ 3937
μων 3937
δολ@@ 3936
θέσης 3936
ιδέες 3936
ύρου 3936
Αυστρία 3935
λιν@@ 3935
ωνίου 3935
φεστιβάλ 3932
Γ.@@ 3931
λαμβάνουν 3931
εκείνο 3930
ξεκινήσει 3930
Αζ@@ 3929
ενδιαφ@@ 3929
χάρι@@ 3929
βραχ@@ 3928
κυριαρχ@@ 3928
κ. 3927
μενο 3927
τορ 3927
Επίσ@@ 3926
ευτική 3926
Χό@@ 3925
εκδηλώσεις 3923
ορισμός 3922
μπαλ@@ 3921
Διεθνές 3919
Μίλ@@ 3918
άγει 3918
βό@@ 3917
Λατιν@@ 3916
ίζα 3916
φαγ@@ 3916
όχου 3916
Ομοσπονδίας 3915
ie 3914
έσπ@@ 3914
γει@@ 3914
πιθανόν 3913
άνοιξη 3912
νήσου 3912
ήκ@@ 3911
αποχώρησε 3910
επίσ@@ 3910
συμμετέχουν 3910
Γκλ@@ 3909
Ηνω@@ 3909
νύχτα 3909
οξυγ@@ 3909
φτω@@ 3909
Φορ@@ 3908
συμμάχ@@ 3908
διαμαρτυ@@ 3907
επιστολή 3907
τέρου 3907
γέφυρα 3906
69 3905
Λευκω@@ 3905
όρε@@ 3904
Μετ@@ 3903
Αί@@ 3902
Αυτοκρά@@ 3902
ίστα 3902
έχουμε 3901
αστεροειδής 3901
ισχύ 3901
άζ 3900
An@@ 3899
ατη 3899
Φερδινάν@@ 3898
θρησκεία 3897
διακυβ@@ 3896
όνησ@@ 3896
Κώστας 3895
αστής 3895
κυκλοφόρησαν 3894
άγκ@@ 3893
απαγόρ@@ 3893
βλέ@@ 3893
τίμ@@ 3893
χους 3893
ποιητής 3892
Δω@@ 3891
θησης 3890
πελ@@ 3889
ικες 3888
σκεύ@@ 3887
ύσ@@ 3887
Τόμας 3885
δίκα@@ 3885
μόνιμ@@ 3885
περιελάμβανε 3884
ωθούν 3884
γά@@ 3883
διω@@ 3883
μέθοδος 3883
προσω@@ 3883
λογαριασμό 3882
ξύ@@ 3882
περισσότερ@@ 3882
γκεν 3881
ζευγάρι 3881
Γραμματ@@ 3880
Στρατιω@@ 3880
έλθει 3879
ακολού@@ 3879
Τουρκίας 3878
καλαθ@@ 3878
διαδρομή 3877
ζυγ@@ 3876
οικισμούς 3876
τεράστια 3876
χεί@@ 3876
γνωστές 3875
βάσει 3874
Εκλογ@@ 3873
Παγ@@ 3873
προκαλεί 3871
επικοινων@@ 3870
μπόρε@@ 3870
ρισμό 3870
ελί@@ 3869
Πελοπον@@ 3868
γεννη@@ 3868
βασιλεία 3866
γραψε 3865
έφτασαν 3864
στευ@@ 3864
υψηλής 3864
ανώτα@@ 3861
σταματ@@ 3861
τισαν 3861
Ροβ@@ 3860
Ευρωπαϊκής 3859
θήκες 3859
ανάγκες 3858
επάνω 3858
κλιν@@ 3857
ορά 3857
γκλ@@ 3856
ελέγχου 3856
σκόρερ 3856
χειρουργ@@ 3855
Πρωταθλήματος 3854
επιστημι@@ 3854
άντο 3852
πρωτοβουλ@@ 3852
συμμαχία 3852
συνεδ@@ 3852
ίκ 3848
αίρε@@ 3848
πλευρές 3848
όντο 3848
άρτη@@ 3847
ντόπ@@ 3846
τυπο@@ 3845
πτέρυγ@@ 3843
σχετίζονται 3843
φρούριο 3843
έρρι@@ 3842
ήτων 3842
πραξικ@@ 3842
ρισαν 3842
σύμβουλος 3841
σύζυγός 3838
τέρ 3838
Κιλ@@ 3837
δελ@@ 3837
προτιμ@@ 3837
Βουλής 3836
Χόλ@@ 3835
δικός 3834
Μόσχα 3833
αντιδράσεις 3833
Αδρι@@ 3832
βίας 3832
μεγέθους 3832
προώθηση 3832
διέταξε 3831
ενεργό 3831
ομένων 3831
προστά@@ 3830
χτισ@@ 3830
ΟΚ 3829
γά 3828
πράγμα 3828
βελτί@@ 3826
τούνται 3826
II 3825
ισχυρή 3824
σις 3824
νόμου 3823
ρίτης 3823
άλω@@ 3822
προσέγγιση 3822
Βάλ@@ 3821
φόρο 3820
Αρκα@@ 3819
Ευρ@@ 3819
ποιν@@ 3819
1900 3818
Μ. 3818
Γερμανούς 3817
επιχειρ@@ 3817
Στι@@ 3816
σώματα 3816
τεχνικές 3816
τολές 3816
ατσ@@ 3815
Επιστημών 3812
έλος 3812
όνης 3809
Λακ@@ 3808
καρν@@ 3808
μοντέλα 3808
ρεια 3808
man 3807
μέλλ@@ 3807
περιοδ@@ 3805
Ανατολή 3804
επαρχ@@ 3804
Λος 3802
Φυσικά 3801
άνθρωπο 3801
ὶ 3801
ήρα 3800
επιτυχίες 3800
Υπουργός 3799
φιλοσοφία 3799
έλι 3797
παιχνιδιού 3797
Λίγ@@ 3792
σύνθε@@ 3792
ανε@@ 3791
απώλεια 3791
εκκλησίες 3791
παραδοσιακά 3791
ταφ@@ 3791
ανν@@ 3790
δρόμους 3789
συνεχώς 3789
χοι 3789
Λαμ@@ 3788
προσοχή 3788
01 3787
Παντρεύτηκε 3787
μπρ@@ 3787
αποκτ@@ 3786
νωρίτερα 3786
ΐας 3785
νερ 3785
τομο 3785
εκλογών 3782
μητ@@ 3782
πρά@@ 3782
πρόσφατα 3781
Ανδρέα 3780
εξαφαν@@ 3780
Ερυ@@ 3779
Ρω@@ 3779
άται 3778
θι@@ 3777
ορχή@@ 3777
απορρί@@ 3776
ασμένο 3776
τροποποι@@ 3775
Αμβ@@ 3774
έροντας 3774
αντίσταση 3773
ασμένη 3772
προηγούμενη 3772
οειδ@@ 3771
επιφάν@@ 3769
οκα@@ 3769
Ρωμαϊκή 3768
ήσι@@ 3768
νοτιοδυτικά 3768
ρικ@@ 3768
Ιατρ@@ 3767
δείξεις 3766
.000 3765
δείκ@@ 3765
ότερων 3765
ογγ@@ 3764
οικοδ@@ 3763
όδευ@@ 3761
Χο@@ 3760
οδα 3760
θρησκ@@ 3759
κατοικία 3759
είνει 3758
Ελληνικού 3757
Κόσ@@ 3757
ροταφ@@ 3757
Διετέλεσε 3755
Επικ@@ 3755
έλλα 3755
ωνι@@ 3755
Δημήτρης 3754
ελά@@ 3754
τροπή 3754
λαίου 3753
4,@@ 3752
Εταιρεία 3752
Ιστορικά 3751
Σκω@@ 3751
κάποιον 3751
Con@@ 3750
ελαφ@@ 3749
παίρνει 3749
περάσει 3748
διαταγ@@ 3747
μισθ@@ 3747
ξενοδοχ@@ 3747
ποταμ@@ 3747
φορντ 3747
ενώσεις 3746
ρόλους 3746
στικού 3746
τευξη 3746
Έργ@@ 3745
βορειοδυτικά 3745
Ρωμαϊκής 3744
Μεγάλου 3743
άση 3743
εξαίρεση 3743
εριν@@ 3743
θημα 3743
πρωτό@@ 3742
άνδρας 3740
τσας 3740
κοιλάδα 3739
Δημοτικό 3737
ολογικής 3737
αντά 3736
συνελήφθη 3736
Δί@@ 3735
Χω@@ 3735
εικόνες 3735
3η 3734
ΙΙ 3734
Μόσχας 3734
άου 3733
κανόνες 3733
μπλε 3733
προϊόντων 3733
τροφία 3733
Ανακαλύφθηκε 3731
επιγραφή 3731
επιστημονική 3731
δεικ@@ 3730
ακου@@ 3728
πιθανό 3728
da 3727
Ζώνης 3726
Το@@ 3726
νεύ@@ 3725
αρχών 3724
στρα 3722
Ακόμη 3721
ετές 3721
συνοικία 3721
τζι 3721
γραφα 3720
150 3718
1921 3718
άγου 3717
βορειο@@ 3717
Tr@@ 3715
λογισμ@@ 3715
σύλλ@@ 3715
υρο 3715
ίκας 3713
χείρ@@ 3713
Βουργουν@@ 3712
προσθήκη 3712
στρεψε 3712
κόκκινο 3709
der 3708
καύ@@ 3708
αντικ@@ 3707
ριζε 3707
Κλε@@ 3706
απου@@ 3706
χαν 3706
Κ.@@ 3705
πλάτος 3705
άλυψη 3704
κυβερνήτης 3704
σκηνοθέτης 3704
τομη 3704
Θεοτ@@ 3701
Πορτογαλ@@ 3701
άρης 3701
κερδίζοντας 3701
ρεψαν 3700
Γκρ@@ 3699
Εκείνη 3699
Εξωτερικών 3699
αναγκ@@ 3699
βασική 3698
βουλγαρ@@ 3697
σκότ@@ 3697
Η.@@ 3696
ηττήθηκε 3696
κινδύ@@ 3696
δάσ@@ 3694
δασ@@ 3694
παγκόσμιο 3694
ρύθμιση 3693
βε@@ 3692
Πομ@@ 3691
απόφ@@ 3691
League 3690
μητρ@@ 3690
κει@@ 3689
μεγάλωσε 3687
εξαρ@@ 3686
τ.χλμ. 3686
Νυμφεύτηκε 3685
κοιλ@@ 3685
λογοτεχνία 3685
αρίων 3684
αυτοκρατορίας 3684
μεταρρυθμ@@ 3682
ταξε 3682
Θεωρείται 3681
δορυφ@@ 3681
γενιά 3679
ευρήματα 3679
Μεγάλο 3677
Τουρκο@@ 3676
αντικαταστάθηκε 3676
εθνικές 3676
Φράν@@ 3675
έρευνες 3675
μελετη@@ 3675
Πάρ@@ 3674
ευνο@@ 3674
ματικών 3674
θαν 3673
Επανάστασης 3672
Ουγγαρία 3672
λύση 3672
μέτα@@ 3672
24@@ 3671
γένος 3671
τραπεζ@@ 3671
εγκατέλειψε 3669
Μπρά@@ 3668
Παπαδ@@ 3668
Πρωτο@@ 3668
for 3667
άσια 3667
δυτικό 3667
ιλία 3667
ένοπλ@@ 3666
πωλήσεις 3666
Οίκου 3665
έληξε 3665
μπο 3665
ατικής 3664
θεσμ@@ 3664
νους 3664
25@@ 3663
έμφ@@ 3662
ρόλος 3662
Πλά@@ 3660
αινε 3660
τεσσάρων 3660
τιση 3660
Φίλιπ@@ 3659
Αντίθετα 3658
εβιτς 3657
τόν@@ 3657
καταναλ@@ 3655
Ηπείρου 3654
Ταρ@@ 3654
δέρ@@ 3654
μορφω@@ 3654
Κόρ@@ 3653
καθορ@@ 3653
ροφής 3653
συνολική 3653
Άγ@@ 3652
καθυ@@ 3652
Αλέ@@ 3651
Π. 3651
ατμόσφαι@@ 3651
ειπ@@ 3650
άντως 3649
ζήτημα 3649
ύφος 3649
ανέβηκε 3648
φα 3648
Πειραιώς 3647
Σουηδία 3647
κάνοντας 3646
πισ@@ 3646
Μπρο@@ 3645
Προσ@@ 3645
ποδοσφαιριστ@@ 3645
τοπικές 3645
ακτ@@ 3644
ογραφίας 3644
οια 3644
Διοίκ@@ 3643
σύμ@@ 3643
επιρρο@@ 3642
αλή@@ 3641
διαφέρ@@ 3641
γματος 3640
Άλλα 3638
τερα 3638
as@@ 3637
Φρειδερίκος 3637
ηματική 3637
αιχ@@ 3636
Ηλιακό 3635
τομείς 3635
ωτικό 3634
ουμεν@@ 3633
χρονη 3633
ανταλλαγ@@ 3631
μέτρηση 3631
μείνει 3630
ίπισσα 3629
ότζ@@ 3628
Σύλλογ@@ 3627
επεισόδια 3627
είχ@@ 3626
20ού 3625
Μεσογ@@ 3625
υπερβολ@@ 3625
θέρ@@ 3624
κυπέλλου 3624
Εθνών 3623
επέτρεψε 3623
κύρι@@ 3623
αίσ@@ 3622
δίω@@ 3622
διαχει@@ 3622
ναζ@@ 3622
συνέβη 3619
Καθ@@ 3618
τέθηκαν 3617
ώπ@@ 3617
Αραγ@@ 3616
δεψε 3616
αποτελούσαν 3615
δικές 3615
ωμένες 3615
600 3614
Τζέ@@ 3613
γαμ@@ 3613
καταστράφηκε 3613
τρομ@@ 3613
έθεσε 3612
ίλι 3612
ειδική 3612
ειρήνη 3612
κατάφεραν 3612
λήφθηκε 3611
ναϊκ@@ 3611
Έλ@@ 3610
Ανδρέας 3610
Ζα@@ 3610
Μηχαν@@ 3610
μετάφραση 3609
έρχ@@ 3608
διατηρεί 3608
υποστηρί@@ 3608
βιβλίων 3607
έβαλαν 3606
χρη@@ 3606
Παρόλο 3605
υιοθέ@@ 3605
λέξεις 3604
πήραν 3604
άμου 3603
λεηλ@@ 3603
σύγκριση 3603
ΑΤ@@ 3602
πρότυπο 3602
συζητ@@ 3601
Γιουγκοσλαβ@@ 3599
ώνυμη 3599
Καταλ@@ 3598
βορειοανατολικά 3598
εκκλ@@ 3598
σύμπ@@ 3598
απόπ@@ 3597
κινηματογράφου 3597
Αλέξ@@ 3596
δικτύου 3596
ληψη 3596
Ματθ@@ 3595
αίθουσα 3595
πεπ@@ 3595
ατικά 3594
οσκ@@ 3594
Βερολίνο 3592
παρόλο 3592
Θάλασσα 3591
ολοκλήρωσε 3591
έντο 3590
υπηρέ@@ 3590
δίνοντας 3589
ευθυν@@ 3589
κυτ@@ 3589
νοσ@@ 3589
ώδ@@ 3589
ισοδ@@ 3588
κόμβ@@ 3588
Σαβ@@ 3587
παρουσιάστηκε 3585
αναλαμβ@@ 3584
ομαδ@@ 3584
συνεργάστηκε 3584
απλώς 3583
Υγ@@ 3582
Βαρσοβ@@ 3580
ήσι 3580
ψήφων 3580
όδων 3580
Εσωτερ@@ 3579
Παιδ@@ 3579
Σαξονίας 3579
ευθύ@@ 3579
στόχος 3579
ήλθαν 3578
παρατήρ@@ 3578
συμπεριλαμβανομένης 3577
αυτόνομ@@ 3576
πεντα@@ 3575
γεννημένος 3574
παραγωγός 3574
Αλφόν@@ 3572
Σκο@@ 3572
ολόκληρο 3572
οφυλ@@ 3571
κουζ@@ 3570
αναφέρουν 3569
μπελ 3569
Αμφ@@ 3568
Καρλ@@ 3568
εβδομάδα 3567
1910 3565
ol@@ 3565
λευκό 3565
παίρν@@ 3565
Κίνας 3564
αγγλική 3564
νοτιοανατολικά 3564
τει 3564
Βενετία 3563
ευρύτερη 3563
νοσοκομείο 3562
7.@@ 3561
Διεθνούς 3561
ανε 3560
τάγματος 3560
έκρινε 3559
συνάρτηση 3559
πέρασμα 3558
παιδιών 3558
εκμεταλλ@@ 3557
εποχών 3557
καταλάβει 3557
ελαφρ@@ 3556
απόγον@@ 3554
μονής 3554
πλανήτη 3554
αφορ@@ 3552
Records 3551
αιτία 3551
δημοσί@@ 3550
σαλ@@ 3550
συγγραφ@@ 3550
Αντρ@@ 3549
Καρλ 3549
εξω@@ 3549
ριμπάουντ 3549
ραι@@ 3548
ύρων 3548
εντα@@ 3547
επέστ@@ 3547
ολόγηση 3547
ροκ 3547
Αλεξάν@@ 3546
μορι@@ 3546
αμερικανική 3544
Σουηδίας 3542
Car@@ 3541
ΕΕ 3541
συμμετοχής 3541
φωνή 3540
Σέρ@@ 3539
διοικητικά 3539
πρώτων 3539
στάλ@@ 3539
Ελβ@@ 3538
ποια 3538
Α.Ο. 3537
ανα 3537
αυτοκίνητο 3537
κάστρου 3537
φτ@@ 3537
διαμορφ@@ 3535
ιέρ@@ 3535
συνέν@@ 3535
ΕΛ 3534
δισεκατο@@ 3534
δότη@@ 3534
εγκατα@@ 3533
ζώων 3533
βαρι@@ 3532
Περιγραφή 3531
οπά@@ 3531
ic@@ 3530
Μάικλ 3529
γκου@@ 3529
αληθ@@ 3528
αντέ@@ 3527
ασφάλεια 3527
πόρ@@ 3527
χόλ@@ 3527
ph@@ 3526
συνδεδε@@ 3526
πρεμιέρα 3525
Οθωμανική 3524
επιλογ@@ 3523
θου@@ 3523
χτ@@ 3523
αξίας 3521
ται@@ 3521
ούλα 3520
συνασπ@@ 3519
είδιο 3518
γη@@ 3516
επικρατ@@ 3516
πραγματοποιήθηκαν 3516
ρικ 3516
χειρό@@ 3516
τάση 3514
τιδας 3514
ικου 3512
ρώ@@ 3511
άγονται 3510
ούχος 3508
οργάνωσε 3507
τάρ 3507
αποδίδ@@ 3506
ψία 3506
Γεώργιο 3504
Καλιφόρνια 3504
ανώτερ@@ 3504
Βιέννη 3503
εταιρία 3503
ξεκινά 3503
σταλ@@ 3503
Συγκ@@ 3501
λιών 3501
κιθ@@ 3500
προφ@@ 3500
ότα 3500
es@@ 3499
έψει 3498
αριστοκρατ@@ 3498
ύμν@@ 3498
αζαν 3497
αμφισβ@@ 3497
ισή 3496
πολιτισμού 3496
στολή 3496
αποφοίτησε 3495
δυναστ@@ 3495
μού@@ 3494
Παναγίας 3493
καθεδρ@@ 3493
ξανα@@ 3493
δημό@@ 3492
μοί@@ 3492
πιθανότητα 3492
χρηματο@@ 3491
Δούκα 3490
παρέ@@ 3489
Μαυροβ@@ 3488
ζεύγ@@ 3488
World 3487
Άντζελες 3487
ινε 3487
κατάλογο 3487
Προσωπική 3486
επιθυ@@ 3486
καθήκοντα 3486
ωσή 3486
Γυμνα@@ 3484
Πλατ@@ 3484
αεροσκάφη 3484
προέκυ@@ 3484
ηγέτης 3483
5.000 3482
κατείχε 3482
μακρ@@ 3482
έλευση 3479
εκδό@@ 3479
ag@@ 3478
Κέρ@@ 3478
μί@@ 3478
Μί@@ 3477
Πρίγκιπ@@ 3477
δεύτηκε 3477
Ανδ@@ 3475
Θερ@@ 3475
απονε@@ 3475
λοιπόν 3474
λέγοντας 3473
στίχους 3473
σφαι@@ 3473
5,@@ 3468
αυτοκ@@ 3468
διεύθυνση 3468
εθελον@@ 3468
ενημερ@@ 3468
νό 3468
πολιτεία 3468
ρίστηκαν 3468
ότα@@ 3468
γεγονό@@ 3467
os 3466
ot@@ 3466
Πέτρου 3466
στρο@@ 3466
Βενετίας 3465
ακτινοβολ@@ 3465
διοίκησης 3465
τέταρτο 3465
ώνυμ@@ 3465
Χιλ@@ 3464
άτ 3464
αρμογ@@ 3464
ρί 3464
αρα 3463
υπέρ@@ 3463
ιστορίες 3462
στρατιωτικό 3462
όμιλο 3462
σιμες 3461
τόξ@@ 3461
εξετά@@ 3459
θεμελι@@ 3459
προσαρτήθηκε 3459
St@@ 3458
Κατάλογος 3458
φο 3458
συμπτώματα 3457
όλυ@@ 3457
ιακής 3456
ιτ 3456
συντηρη@@ 3456
υλικού 3456
στρατιωτικές 3454
ψήφους 3454
Κάν@@ 3453
δημιούργ@@ 3453
νομίσματα 3453
Εσ@@ 3452
πράγματα 3452
Κλη@@ 3451
τρίτος 3451
Περιφερ@@ 3450
διέθετε 3449
Βουλγαρίας 3448
είδε 3448
οπτική 3447
Θα 3444
άστ@@ 3442
εξελ@@ 3441
σχετική 3441
800 3440
Όλα 3440
Βασιλιάς 3440
Πάπας 3440
ύγει 3440
αρχίσει 3438
γραμματέας 3438
προηγουμένως 3438
δει 3437
καλύτερο 3437
ύνει 3437
ab@@ 3436
Αζερμπαϊτζάν 3436
Αψ@@ 3436
Μεγάλης 3436
τίν 3436
βάλει 3435
Πάπα 3434
ανησυχ@@ 3434
απευθείας 3434
απέχει 3433
πολλ@@ 3433
ρυθμό 3432
φύλλα 3432
περιοδικά 3431
πων 3431
Διεθνής 3430
ασμα 3430
προστατευ@@ 3429
ous 3428
ανεβ@@ 3428
διευθύν@@ 3428
ράβ@@ 3427
καιρ@@ 3426
αφήν@@ 3425
Ιωσήφ 3424
καταστήσει 3424
λων 3424
παράδ@@ 3424
αεροδρόμιο 3423
διακρίσεις 3423
BBC 3422
δοσης 3422
ραμα 3420
τικο 3419
ώνου 3419
single 3418
2ο 3417
οργάνωσης 3417
ΦΑ 3416
ετη@@ 3416
ζούσε 3416
ιταλική 3416
συνε@@ 3415
αντίπαλο 3414
πειρο 3414
γραφείο 3413
ανή@@ 3412
Τού@@ 3411
προσωπική 3411
1915 3410
ευμάτων 3410
Καποδίστριας 3409
ετε 3409
Περιφερειακή 3408
Πριγκ@@ 3408
βάθος 3408
κινήματος 3407
Ακολούθησε 3406
Ντέιβιντ 3406
διαφορετική 3406
αδελφού 3405
τελετή 3405
ανοίγ@@ 3404
Τζάκσον 3403
οργανώσεις 3403
κόστος 3402
δημιουργώντας 3401
εκατομμυρίων 3401
οξειδ@@ 3401
Σεβ@@ 3400
αυξαν@@ 3400
Αρι@@ 3399
Ποδοσφαίρου 3399
μάζα 3399
μικρού 3399
τόπο 3399
αίματος 3398
ουμ 3398
Πετρού@@ 3396
όου 3396
περικ@@ 3395
σταμάτησε 3395
άσματος 3394
οριστεί 3394
τιμήθηκε 3394
τιου 3394
γκερ 3393
ολι@@ 3393
αντιπολίτευ@@ 3392
στοχ@@ 3392
Κύριας 3391
περιοδικού 3391
νερά 3389
αντίτυπα 3388
μεταγενέστερ@@ 3388
ολοκλήρωση 3388
1908 3386
όπλ@@ 3386
ανθρώπου 3385
νος 3385
άγνωση 3384
δικαιωμάτων 3384
οσης 3384
Ρουμανία 3383
διαφορές 3382
Ιάκωβ@@ 3381
Συμμετείχε 3380
Έρ@@ 3378
υποχρεω@@ 3378
διεξαγωγή 3377
καμ@@ 3377
κτηνο@@ 3377
σύνδεση 3377
πληροφοριών 3375
Σπουδ@@ 3374
κράτησε 3374
οτε 3374
αντάται 3372
Λίν@@ 3371
έκρη@@ 3371
διδακτορ@@ 3371
ειές 3370
Σημαν@@ 3369
αδέλφια 3369
λεν 3369
ούλιο 3369
Γερμανός 3368
ελληνικών 3368
Γιού@@ 3367
Ιερά 3367
πολιτ@@ 3367
one 3366
Θεού 3366
ανάγ@@ 3366
Γαλλική 3365
Λέν@@ 3364
ασχολείται 3364
στησαν 3362
αναγνωρίστηκε 3361
όφσκι 3361
Ελένη 3360
ρικός 3360
τηρού@@ 3360
it@@ 3359
Πρώτα 3359
Εισ@@ 3358
γυμνα@@ 3358
κόπ@@ 3357
υσή 3357
προσπαθεί 3356
χαρακτήρας 3355
at@@ 3354
ροβ@@ 3354
ειακές 3353
επρόκειτο 3353
ερευνητές 3353
κιλ@@ 3353
οδηγήσει 3353
φυλή 3353
Τέχνης 3352
αυτό@@ 3352
ρίζες 3352
συγκέντρωσε 3352
επόμενες 3351
νόσ@@ 3351
τηλ@@ 3351
βέβ@@ 3350
Πάν@@ 3348
βάλλει 3348
μεί 3348
μες 3347
έρονται 3346
κίνησης 3345
κλπ. 3345
βυθ@@ 3344
ίστας 3343
οριστικά 3343
Α1 3342
ΠΟ@@ 3342
Χρήσ@@ 3341
ίτα 3341
κατώ@@ 3341
Όρ@@ 3340
αγάπη 3340
απώλειες 3340
είστηκε 3340
Τούρκοι 3339
βούργ@@ 3339
μέρει 3339
ολό@@ 3339
ύλιο 3339
ώτες 3338
Κρο@@ 3337
ανδρο 3337
οσύνη 3337
Συγ@@ 3336
αστυνομία 3335
δεύτερης 3335
κερδ@@ 3335
στούν 3335
Πανελλήνιο 3334
γίου 3334
τονία 3334
διαφορ@@ 3333
προσφορά 3333
λόγια 3332
οδευ@@ 3332
στρατο@@ 3330
Μακεδον@@ 3329
Σχε@@ 3329
ερασι@@ 3329
πλεον@@ 3329
ητικών 3328
διεθνές 3327
ισορροπ@@ 3327
στέγ@@ 3327
Εσθ@@ 3326
Λά@@ 3326
Λευκορ@@ 3326
ίσκο 3326
ουλμαν@@ 3326
Μπορεί 3325
ακρο@@ 3325
φθηκε 3325
όδια 3325
εξασφάλι@@ 3324
ομηχαν@@ 3324
des 3323
von 3323
όλογ@@ 3322
όντας 3322
εθ 3321
ημέρ@@ 3319
τιζ@@ 3318
φυλλ@@ 3318
παραχωρ@@ 3317
βομβαρδι@@ 3315
κόρ@@ 3315
ροή 3315
συνεργασίας 3315
δικτα@@ 3313
επιστήμη 3312
ετίας 3312
ελευθερία 3311
Πρόεδρο 3310
φιλόσοφ@@ 3310
χρησιμοποιήθηκαν 3310
Μπά@@ 3309
απόδ@@ 3308
ώδεις 3308
* 3307
θάνατος 3307
μάς 3307
έδιο 3305
διπλωματ@@ 3305
σί 3305
Ερζ@@ 3304
αγγλ. 3304
γε@@ 3304
ασμού 3303
Βυζ@@ 3302
Ντί@@ 3302
γενικές 3301
γνωστο@@ 3300
κατευθύν@@ 3300
ιακών 3299
λεσε 3299
τανίας 3299
αμμ@@ 3298
ανάγκα@@ 3298
αποδεκ@@ 3298
Βόλ@@ 3297
ριας 3297
Ουκρανία 3296
Κατο@@ 3295
ωνικών 3295
Ντο@@ 3293
αεροπλ@@ 3293
ειρην@@ 3293
πάει 3292
δρα 3291
ύλη 3291
Πόρ@@ 3290
ορεύει 3290
αρμον@@ 3289
ενήλ@@ 3289
στρο 3289
ακός 3288
ξύλ@@ 3286
John 3285
ύψους 3285
πιν@@ 3284
τμ@@ 3284
Φόρ@@ 3282
αίρεση 3282
περιγραφή 3282
Μεσσηνίας 3281
διαχείριση 3281
πώ@@ 3281
τοπικής 3281
ωτές 3281
όδοξ@@ 3281
ίτ 3280
εφαρμό@@ 3280
στίβου 3280
διάκριση 3279
Ρίτσ@@ 3277
αγωνιστεί 3277
περιλάμβανε 3276
πρωταθλητής 3276
τούργησε 3276
λαδ@@ 3275
συγκρούσεις 3274
δήμαρχος 3273
νέους 3272
πρωτεΐ@@ 3272
Ωκε@@ 3271
βιν@@ 3271
κλεί@@ 3271
κόρες 3271
οχώ@@ 3271
προωθ@@ 3271
Κομνην@@ 3270
εύονται 3270
τευσε 3270
αλκο@@ 3269
αντίθε@@ 3269
ώρας 3269
Πολιτ@@ 3267
στηρίου 3267
αυτοκρατορία 3266
ολόκλη@@ 3266
ιδρυτής 3265
κάλεσε 3265
th@@ 3264
Ακολού@@ 3264
εθ@@ 3264
μ.@@ 3264
απάντηση 3263
ητες 3263
παρακολουθ@@ 3263
διαδηλ@@ 3262
αφήνοντας 3261
Ολυμπιακός 3260
εκδηλ@@ 3260
οθέατα 3260
σύνδεσμοι 3258
βιβασ@@ 3257
πίστη 3257
Πρόγραμμα 3256
λαό 3256
Βερολίνου 3255
ήντα 3255
βράδυ 3255
καπν@@ 3255
νόμος 3255
1916 3254
αρκετούς 3254
$ 3253
πυρήνα 3253
έτες 3252
βενζ@@ 3252
ελληνικές 3252
ανακάλυψη 3251
υνα@@ 3251
γεγραμ@@ 3250
ώτης 3250
αλογ@@ 3249
ενδιαφέρον@@ 3249
μέθοδο 3249
8.@@ 3248
Γκέ@@ 3248
δισε 3247
ζούσαν 3247
σίου 3247
βαθμολογία 3246
Ολλανδία 3245
άσο 3245
περιουσία 3245
εμπειρία 3244
θυγ@@ 3244
αιθ@@ 3243
συνοικ@@ 3243
γραψαν 3242
διασχ@@ 3242
ουζ@@ 3241
1ο 3240
? 3240
σκηνοθε@@ 3240
θεάτρου 3239
Καρα@@ 3238
κλήθηκε 3238
διπλό 3237
μελέ@@ 3236
περιστατ@@ 3236
ονόματος 3235
Γιάννη 3234
όγου 3234
κινηματογράφο 3233
χάλκιν@@ 3233
χώρησαν 3233
διατηρού@@ 3232
τύπων 3230
αιχμαλω@@ 3229
ζητήματα 3229
ποσότητα 3229
σιών 3229
ουήλ 3228
Λέσ@@ 3227
εσωτερική 3227
νούμερ@@ 3227
2,@@ 3226
τοκος 3226
λό@@ 3225
οβα 3225
6,@@ 3224
Εξωτερικοί 3224
ασθενείς 3224
αστρονομ@@ 3224
ιάν 3222
παρόμοι@@ 3222
δημιουργήθηκαν 3220
om@@ 3219
Κω@@ 3219
ιδίου 3219
ικανοποι@@ 3219
τουρ@@ 3219
έρευνας 3218
Καίσ@@ 3217
αστρονόμο 3217
Μολδαβ@@ 3216
μουσουλμάν@@ 3216
σηματο@@ 3216
τινγκ 3216
γας 3215
διαδρα@@ 3215
βάθ@@ 3213
ανής 3212
ελα@@ 3212
έφθασε 3211
αγοράς 3211
επικίν@@ 3211
κινη@@ 3211
γραμμα 3210
επίσκοπο 3210
Ψυχ@@ 3209
διάλυση 3209
λεω@@ 3209
πρωταθλήτρια 3209
Β. 3208
αγωνιζόταν 3208
ενότητας 3208
οιο 3208
ρεαλ@@ 3208
φοίτησε 3208
ήσου 3207
μοντέ@@ 3207
Τις 3206
άνες 3206
ήτου 3205
ύπαρ@@ 3205
ημιτελ@@ 3203
συνδε@@ 3203
ἀ@@ 3203
1905 3202
s.@@ 3202
ενδεχ@@ 3202
Πολλά 3201
βλε@@ 3201
έλο 3200
συναυλίες 3200
3,@@ 3199
κατέφυγ@@ 3199
κομητεία 3199
πραγματική 3199
9.@@ 3198
έγερση 3198
παντρ@@ 3198
Μεσσ@@ 3197
έριο 3197
εκτ@@ 3197
σημασίας 3197
άρθρα 3196
αφηγ@@ 3196
βιο@@ 3196
δημοτικό 3196
ωκε@@ 3196
ισμένες 3195
υπηρεσιών 3195
κ.λ@@ 3194
ριστής 3194
όλι@@ 3194
Επί 3193
δομές 3193
σχηματισμό 3193
Θράκης 3192
Ον@@ 3192
επιβλ@@ 3191
χτυπ@@ 3191
ξεως 3190
τίζεται 3190
ae 3189
φίλος 3189
Βοημ@@ 3188
ιέ 3188
νοτιο@@ 3188
έρνησης 3187
δρομή 3187
πετο@@ 3187
18ου 3186
λεί 3186
ούχο 3186
You 3185
συνεχίζει 3185
Απόλλωνα 3184
έρχονται 3184
ινη 3183
ομίλου 3183
Απέχει 3182
Γέν@@ 3182
αναλυ@@ 3182
μόνον 3182
προέλευση 3182
ριστεί 3182
ράκ@@ 3180
φρού@@ 3180
όκ 3180
ΕΣΣΔ 3179
Ουκρανίας 3179
πήγ@@ 3179
Διοικητικά 3178
γνώση 3178
εκτίμηση 3178
αίμα 3177
δέχθηκε 3177
ανακηρύχθηκε 3176
κινητήρα 3176
πραγματικά 3176
δισαν 3175
Βασιλική 3174
βιβλίου 3174
επαγγελματική 3174
ούργ@@ 3173
Αυστραλ@@ 3172
Δημητρίου 3172
Πλη@@ 3172
λίμ@@ 3172
πολεμική 3172
καταν@@ 3171
άπηκε 3170
ιακού 3170
Ιουδ@@ 3168
Μαργαρίτα 3168
αθλητής 3168
ητη 3168
Music 3166
Φράγκ@@ 3166
πας 3166
απού@@ 3165
τονται 3165
Γρηγορι@@ 3164
κατοχής 3164
σχεδιασμό 3164
αξιόλογ@@ 3163
ύβ@@ 3163
νευρ@@ 3162
στέρ@@ 3162
αντα 3161
προσχ@@ 3161
ύλες 3161
0.@@ 3160
J 3160
ασθένεια 3160
σημαντικός 3160
τοποθετήθηκε 3160
Αφγαν@@ 3158
ακαδημ@@ 3158
συστ@@ 3158
υγεία 3158
χρειάζεται 3158
Πορτογαλίας 3157
εργοστάσιο 3157
ολογικού 3157
παραθ@@ 3156
οίν@@ 3155
τόπος 3155
Σάβ@@ 3154
Α2 3153
έγερ@@ 3153
εορτα@@ 3153
ηρέ@@ 3153
θεατ@@ 3153
Κάρολο 3152
ηκ@@ 3152
ιταλικά 3152
προϊόν 3151
ορεινό 3150
Μολ@@ 3149
Πατρών 3149
ηλε@@ 3149
υσμ@@ 3149
Ναβ@@ 3148
Πλα@@ 3148
γίν@@ 3147
δερ@@ 3147
τύχ@@ 3146
Ρι@@ 3145
μηδ@@ 3145
ανάλογ@@ 3144
αρχηγό 3143
ετό 3143
σχεδια@@ 3143
ευγενείς 3142
Μισ@@ 3141
Ντάν@@ 3141
Γιουγκοσλαβίας 3140
Ταϊ@@ 3140
αναπτύσσ@@ 3140
βις 3140
ποτα 3139
προκαλέσει 3139
αστή 3138
πή@@ 3138
30@@ 3137
ειάς 3137
ομώνυμης 3137
ανεξαρτη@@ 3136
πολυάρι@@ 3136
Ράι@@ 3135
Σολ@@ 3134
ΚΚΕ 3133
ίκι 3133
αρχιτεκτον@@ 3133
γεωργία 3133
ζημι@@ 3133
αντιμετώπισε 3131
κες 3131
ύλης 3131
ιπά@@ 3130
ρείται 3130
σήμα 3130
ισμ@@ 3129
Μνημ@@ 3128
Οθωμανικής 3128
σλαβ@@ 3128
θελ@@ 3127
7,@@ 3126
u@@ 3125
Κόκκιν@@ 3125
Παρ 3125
βασί@@ 3124
είλει 3123
σπουδών 3122
Co@@ 3121
ανική 3121
διαμερίσματα 3120
πολιτισμό 3120
Έκανε 3119
βάσεις 3119
γεμά@@ 3119
εφαρμογές 3119
τοπικά 3119
Τα@@ 3118
γάμου 3116
δευτερόλεπ@@ 3116
οδρο@@ 3116
περιορ@@ 3116
Πανι@@ 3115
Πρώτη 3115
ηγέτες 3114
Πετ@@ 3113
συμβολή 3113
διευθυν@@ 3112
προτού 3112
τούρα 3112
Br@@ 3111
Ανώτα@@ 3111
οικισμοί 3111
Αστεροειδών 3110
Πον@@ 3110
Σκωτίας 3110
αιότητα 3110
έντα 3109
χρέ@@ 3109
Be@@ 3108
Πολλές 3107
κυττ@@ 3107
Αλβανία 3106
Ηρακλ@@ 3106
αστικές 3106
Δευ@@ 3105
ελεύθερη 3105
ερχόταν 3105
Υπερ@@ 3104
βιλ 3104
κά 3104
στενά 3104
Καρο@@ 3103
αστικής 3103
οικονομικών 3102
ύρωση 3102
ίτσι 3101
δυναστείας 3101
συνδέονται 3100
έρα@@ 3099
αρχαίο 3099
ατς 3099
τραγουδίστρια 3099
Ολ@@ 3098
ανάδ@@ 3098
κλε@@ 3098
χρωμ@@ 3098
Γιαν@@ 3096
άρκα 3096
ανακαλύφθηκε 3096
πρόσφυγες 3096
τούτοις 3096
ατόμ@@ 3095
τορες 3095
βαλλον@@ 3094
κώδικα 3094
εκείνης 3093
εμπορικό 3092
συνειδ@@ 3092
ad 3091
κατέληξε 3091
υση 3090
τάξεις 3088
ξεπ@@ 3087
ξεπερν@@ 3087
ταχύτη@@ 3087
τρέχουσα 3087
Σταθμ@@ 3086
ονας 3086
Έσ@@ 3085
φαρμακ@@ 3085
αρχεία 3084
παλιό 3084
δημοφιλής 3083
ινγκτον 3083
μόρ@@ 3083
γραμμάτων 3082
ρωσική 3081
ποσό 3079
ρίθηκε 3079
στήρ@@ 3079
Στρατηγ@@ 3078
διήρ@@ 3077
επιν@@ 3077
ηγεμόν@@ 3077
τρων 3077
Εθνο@@ 3076
Ευαγγελ@@ 3076
Σουηδ@@ 3076
λήξη 3076
οσοφ@@ 3076
Κυβ@@ 3075
Τρα@@ 3075
ονγκ 3075
τριβ@@ 3075
Ντέι@@ 3073
λόγου 3073
παλάτι 3073
συνεχίσει 3073
πιστεύεται 3072
• 3072
συνθε@@ 3071
De@@ 3070
μετάδ@@ 3070
τράπεζ@@ 3070
έστηκε 3069
λέχ@@ 3069
όσημο 3068
ton 3067
Λόρ@@ 3066
Τοπο@@ 3066
άξεις 3066
αλλάξει 3064
επαγγελματίας 3063
Βιβλ@@ 3062
αύξ@@ 3062
κοινωνικής 3062
οικονομικής 3062
Βε@@ 3061
W 3060
Πρόσ@@ 3060
περσ@@ 3060
ΚΑ@@ 3059
ωνικού 3059
Διονύ@@ 3057
ελέγη 3057
1906 3055
Δυνα@@ 3055
βουλ@@ 3055
περιεχόμενο 3055
Ανάμεσα 3054
δώδεκα 3054
πυρκαγι@@ 3054
Ποσ@@ 3053
Ριχάρ@@ 3053
Συνέλευση 3053
τυλ@@ 3053
Μεσαίωνα 3052
κανονική 3052
σουλτάν@@ 3052
διαχωρι@@ 3051
ταμ 3051
χ. 3051
ανακοίν@@ 3050
διαφορο@@ 3050
θέσει 3050
οστά 3050
πάπα 3050
διαμάχη 3049
εμπει@@ 3049
ημέν@@ 3049
καθ 3049
νικητής 3049
οριών 3049
πρότυπα 3049
son 3048
αμοιβ@@ 3048
κατανομή 3048
πει 3048
φυτά 3048
ητη@@ 3047
συνθέτης 3046
ΚΑ 3045
έλου 3045
δύσκολο 3045
θρα@@ 3045
Πυ@@ 3044
διατήρηση 3044
άρας 3043
έδρου 3043
Συνα@@ 3042
μαύρο 3042
οχυρ@@ 3042
Ινδίας 3041
Ναός 3041
σος 3041
αγιά 3040
απέτυχε 3040
εύοντας 3040
σφαγ@@ 3040
ation 3039
Βενιζ@@ 3038
Βουλγαρ@@ 3038
αγό@@ 3038
αρο 3038
επιχειρήσεων 3038
εντυπωσι@@ 3037
παίδευ@@ 3037
Εί@@ 3036
Ελβετία 3036
Πάτρα 3036
ακτι@@ 3036
ανέπτυξε 3036
θεται 3036
κηρύ@@ 3036
μέτωπο 3036
χαλκ@@ 3036
− 3036
Ισαβ@@ 3035
μαξ@@ 3035
Βισ@@ 3034
βιντε@@ 3034
αποσύρθηκε 3033
κοινοβουλευ@@ 3033
δυνατό 3032
επαναστά@@ 3032
Ντό@@ 3030
θέλει 3030
κυμαίν@@ 3030
ρωσικά 3030
τίστηκε 3030
προφαν@@ 3029
align 3028
ana 3028
γενιάς 3028
Βοσνίας 3026
άλωση 3025
υψηλότερη 3025
ισχύει 3024
τούμεν@@ 3024
ζημ@@ 3023
οπαι@@ 3023
im@@ 3022
άσου 3022
Δημιουργ@@ 3021
Μακεδ@@ 3021
Μεγαλ@@ 3021
λειτουργούν 3021
ταξινομ@@ 3021
Δικαι@@ 3020
Λατ@@ 3020
παντρευτεί 3020
άφι@@ 3019
καρ 3019
κινεζ@@ 3019
πάρκο 3019
Ηρακλείου 3018
έλυ@@ 3018
αριθμού 3018
ντου@@ 3018
τοίχ@@ 3018
Γκρέ@@ 3017
αιτίας 3017
Ακολου@@ 3016
ισοπ@@ 3016
αγαθ@@ 3015
ακρίβ@@ 3015
ουλα 3015
τυγχ@@ 3015
δυνατή 3014
ιμος 3014
ψηφοφορία 3014
Κάποι@@ 3013
χρωματ@@ 3013
Κλί@@ 3012
περιγράφ@@ 3012
ταρχ@@ 3012
καθιστ@@ 3010
μιά 3010
κεφάλ@@ 3009
Τζορτζ 3008
συνάντηση 3007
τακτική 3007
Εμπο@@ 3006
άχ 3006
ik@@ 3005
Τρικ@@ 3005
Αρκ@@ 3003
εγκατάσταση 3003
Ιμπ@@ 3002
διανο@@ 3002
οδοι 3002
διανομ@@ 3001
ρων 3001
Di@@ 3000
Le@@ 3000
ολιθ@@ 2999
άξει 2998
Φιλιπ@@ 2997
αχθεί 2997
θεωρεί 2997
μαχος 2997
πλησι@@ 2997
χρηματοδότη@@ 2997
γίνουν 2996
δημοσιογράφος 2996
σταφ@@ 2996
Φλωρεντ@@ 2995
τελείωσε 2995
ul@@ 2994
ουχ@@ 2994
ανακοιν@@ 2993
ανεξάρτητα 2992
φτερ@@ 2992
βουνά 2991
δικηγόρος 2991
ισο@@ 2991
ΐα 2989
Ηρακλή 2989
αλε@@ 2989
οφεί@@ 2989
προκύπτει 2989
υπεύθυνος 2989
φθινόπωρο 2989
έγγραφα 2988
θηκών 2988
Σαβο@@ 2987
9,@@ 2986
κρίν@@ 2986
λς 2986
στελ@@ 2986
Χάν@@ 2985
καθιέρ@@ 2985
TV 2984
ιώτη 2984
Μανου@@ 2983
γνώμη 2983
επανάστασης 2983
v 2982
διαστημ@@ 2982
Μπέν@@ 2981
ασφάλ@@ 2981
θησε 2981
4η 2980
βασικά 2980
ρίσματα 2980
αναφ@@ 2979
ηλανδ@@ 2979
Άρης 2978
Μαχ@@ 2978
ασμένα 2978
αστρονόμ@@ 2978
λαού 2978
μπορού@@ 2978
πολιτών 2978
Νόμ@@ 2977
άγαλμα 2977
πλατφόρ@@ 2977
αρχιτεκτονικής 2976
έτο@@ 2975
λεπτό 2975
σοβαρά 2975
τείχη 2975
έκτασης 2974
ετήσια 2974
καλλιέργεια 2974
ράφηκε 2974
ρίδας 2972
αναφέρθηκε 2971
δημοψήφισμα 2970
εκατοντ@@ 2970
ζωγραφική 2968
Κωνσταντίνο 2967
κοινωνίας 2967
ποσο@@ 2967
ρισμού 2967
τηρη@@ 2967
Στέφανος 2966
στροφή 2966
ότερης 2966
Μητρό@@ 2965
Νορβηγία 2965
στόλου 2965
πρωταγωνίστησε 2964
Disney 2963
Ιδρ@@ 2963
ασβ@@ 2963
ωτών 2963
Χριστού 2962
αποφάσ@@ 2962
επηρέ@@ 2962
μπουρ@@ 2962
νων 2962
Αλεξάνδρου 2961
Κατηγορίας 2960
δάση 2960
διάρκ@@ 2960
δει@@ 2959
όσι@@ 2959
1904 2958
Σπαρ@@ 2958
λευθέρ@@ 2958
στερα 2958
συλλογές 2958
Αναφέρεται 2957
μεταφρα@@ 2957
καθεστώ@@ 2956
διαστάσεις 2955
τιμωρ@@ 2955
ΠΑΟΚ 2954
είκοσι 2954
οδήποτε 2954
βουνό 2953
εβο 2952
συντον@@ 2952
χρονικά 2952
Windows 2951
άκος 2951
ιον 2951
μαθε 2950
πιστο@@ 2950
παίκ@@ 2949
λιβ@@ 2948
Ρωμ@@ 2946
Χορ@@ 2946
καφέ 2946
πετρε@@ 2946
ώτη 2946
εκδήλ@@ 2944
Τάγ@@ 2943
ηρε@@ 2943
CO@@ 2942
οχής 2942
Εάν 2940
ανθρώπινη 2940
τεστ@@ 2940
λογίας 2936
παρατηρούσε 2936
ποικίλ@@ 2936
ανέβ@@ 2933
αναρ@@ 2933
σινγκλ 2933
Ιαπωνίας 2932
αίσθηση 2932
αεροσκάφος 2932
Έντου@@ 2931
κύριες 2931
προσπάθ@@ 2931
Ηλείας 2930
ηφαιστ@@ 2930
λαβε 2930
διακόπ@@ 2929
φόβ@@ 2929
οζ@@ 2928
προήλθε 2928
ταχυ@@ 2928
ραση 2926
CD 2925
ανεξάρτητη 2925
1911 2924
Τάγματος 2924
εγκαιν@@ 2924
λίου 2924
χρόνους 2923
αποσαφήνιση 2922
οχές 2921
κόκκιν@@ 2920
ζευγ@@ 2919
γωνία 2918
αντικατέστησε 2917
λλανδ@@ 2916
αναγνωρισ@@ 2915
θρο@@ 2915
ταχθεί 2915
Συνήθως 2914
Ερρί@@ 2913
Υπήρ@@ 2913
​ 2913
8,@@ 2911
Πελοπόννησ@@ 2910
DNA 2909
φύλα@@ 2909
όφωνο 2909
Κρη@@ 2907
Αθλ@@ 2903
αντιμετωπίσει 2902
Νορ@@ 2899
οχαγ@@ 2898
τωρ 2895
στικ@@ 2894
it 2892
αλβαν@@ 2892
αρισ@@ 2892
γράμμα 2891
ανδρέου 2889
re@@ 2888
Βουλ@@ 2887
ίμ 2887
ica 2886
ΡΙ@@ 2885
Χει@@ 2885
Επαρχ@@ 2884
1896 2882
Αιγαίου 2882
λει 2881
Πρό@@ 2878
κειμένου 2868
te 2867
1907 2864
αναπληρω@@ 2863
νώ@@ 2863
όγον@@ 2863
ρισμα 2861
Cr@@ 2859
Γιάν@@ 2858
μετονομ@@ 2858
Cor@@ 2856
name 2854
Ουκραν@@ 2854
πτώσεις 2853
na 2851
2022 2850
ent 2850
γρήγ@@ 2849
ερσ@@ 2848
Μάγ@@ 2847
διεκδ@@ 2847
επαφ@@ 2837
εύματα 2835
ομώνυμ@@ 2834
δεια 2832
´ 2830
ΕΣ@@ 2830
Πελ@@ 2829
θάν@@ 2827
κώ@@ 2827
εινε 2824
ρον 2824
Sp@@ 2821
στή@@ 2818
προκύ@@ 2817
παρόμ@@ 2816
τείχ@@ 2815
κατοίκ@@ 2813
Επαν@@ 2811
Πύ@@ 2808
επιβεβ@@ 2808
tr@@ 2806
Gr@@ 2803
συγκροτ@@ 2801
1000 2798
οδήγ@@ 2798
Γυμ@@ 2797
όπιν 2797
Στέφαν@@ 2796
κ.@@ 2796
λεύθερ@@ 2796
ter 2794
καλλιέργ@@ 2794
1909 2793
τίας 2793
ρασμα 2792
Σο@@ 2791
ta 2789
τρεψε 2785
πέν@@ 2782
st@@ 2781
υπάρχ@@ 2779
Συμβ@@ 2777
αρκε@@ 2774
φραση 2774
διακρί@@ 2763
όλλ@@ 2763
ρεση 2761
id 2759
ch 2757
περιεχ@@ 2756
στας 2756
χρησιμοποί@@ 2755
li@@ 2750
Pr@@ 2749
Com@@ 2748
Qu@@ 2738
Απόλλ@@ 2734
άλογος 2733
Billboard 2732
εξε@@ 2723
μφεύτηκε 2722
μμύρια 2720
μεγ@@ 2718
10.000 2713
μουν@@ 2710
26@@ 2708
ina 2708
αποτέλε@@ 2706
ευρέ@@ 2706
βασίλ@@ 2704
δικηγ@@ 2702
style 2700
Ομοσπον@@ 2699
ate 2697
1.000 2693
μενα 2693
παραστ@@ 2692
συγκρού@@ 2685
στίχ@@ 2684
em@@ 2680
συναυλ@@ 2675
ξεχω@@ 2669
τασης 2669
ταγων@@ 2668
ταξιν@@ 2667
Φ 2664
ύτη@@ 2664
καταστάσεις 2663
1897 2661
SS 2661
τρες 2661
Τουρ@@ 2658
όσια 2650
ογέν@@ 2649
κάπο@@ 2645
Q@@ 2642
am@@ 2637
Θρά@@ 2637
τέταρ@@ 2636
ξεκ@@ 2633
120 2632
μαϊκ@@ 2631
700 2630
ήφθηκε 2630
ίκος 2629
ῶ@@ 2628
Τμή@@ 2619
ολο 2618
ειο@@ 2616
ale 2611
ka 2611
προέ@@ 2611
Ώ@@ 2608
ελάχ@@ 2608
2.000 2606
le@@ 2604
He@@ 2599
Μητ@@ 2599
ve 2592
θήκ@@ 2590
κομητ@@ 2590
ουλμάν@@ 2590
σιδηρο@@ 2589
00@@ 2588
1903 2588
λάμβανε 2588
αζί 2587
καθή@@ 2586
Βιέν@@ 2583
Ιω@@ 2581
ύψ@@ 2580
oc@@ 2577
άστι@@ 2575
τεκτον@@ 2575
ττα@@ 2572
w 2569
αποτελέσ@@ 2566
ρίγκ@@ 2564
συνέπ@@ 2563
120@@ 2561
ur@@ 2559
Βρα@@ 2555
Δημήτρ@@ 2555
αυτοκίν@@ 2555
μαύ@@ 2553
ec@@ 2549
Κεντρ@@ 2548
συγκρο@@ 2548
ήρε 2547
Πανα@@ 2546
ard 2542
ley 2542
Τσε@@ 2539
lo@@ 2536
εύκολ@@ 2535
ελλήν@@ 2534
qu@@ 2533
είπ@@ 2532
ζώ@@ 2531
ομβαρ@@ 2528
Ιαπ@@ 2526
Str@@ 2523
ρισκ@@ 2523
Mon@@ 2517
1878 2516
τέχ@@ 2514
εσε 2512
sh@@ 2510
ελέγ@@ 2510
Συμμετ@@ 2501
1890 2497
άρτηση 2496
έκα 2494
δείχθηκε 2493
φάλ@@ 2493
Αστερ@@ 2492
000 2491
Live 2491
age 2490
se 2490
μεταρ@@ 2486
άφος 2485
τολή 2483
συγκρότη@@ 2481
tic@@ 2480
άφη 2479
εβί@@ 2477
υνομ@@ 2477
τέλεσε 2475
Ex@@ 2472
ωβ@@ 2472
ti@@ 2467
καθε@@ 2467
εκεί@@ 2462
κινηματο@@ 2459
ens 2457
συμμε@@ 2457
Λ 2454
τηρούσε 2454
βαλλ@@ 2453
άλογο 2451
τιας 2451
ότε 2445
οσφ@@ 2444
λεον@@ 2443
αθμ@@ 2434
ρρο@@ 2433
εταιρ@@ 2431
επιστημ@@ 2429
πρα@@ 2427
Black 2426
τομέ@@ 2425
1899 2423
Νικόλα@@ 2423
Λουδοβ@@ 2421
αίνεται 2418
κατευ@@ 2416
αίτη@@ 2415
θλημα 2414
International 2412
έκα@@ 2412
ανεξ@@ 2412
Ηλι@@ 2409
Man 2401
21@@ 2400
Αυτοκ@@ 2399
έλλει@@ 2399
ρονα 2397
Αλεξάνδ@@ 2394
σουλ@@ 2394
Μεγ@@ 2393
119@@ 2392
Χριστο@@ 2392
δίκ@@ 2392
ακτη@@ 2391
εκρι@@ 2391
επεισ@@ 2391
Bo@@ 2389
εφαρμογ@@ 2388
μβούργ@@ 2387
πληροφ@@ 2385
αποδί@@ 2383
δημοσ@@ 2380
28@@ 2379
ογραφικά 2377
γυνα@@ 2376
23@@ 2372
βρε@@ 2371
εντρ@@ 2371
1870 2370
ic 2366
os@@ 2366
θήματα 2366
ed@@ 2365
un@@ 2365
il@@ 2361
πίσ@@ 2361
pop 2360
ιώς 2357
250 2354
Αύγ@@ 2354
διοδρομία 2354
ευθ@@ 2354
Ρ 2350
υρα 2350
́ 2349
Mo@@ 2346
1881 2345
ώβ@@ 2342
ni@@ 2340
γκο@@ 2338
Κωνσταντιν@@ 2336
Αυτοκρα@@ 2335
ότυπ@@ 2331
λαβαν 2328
3.000 2325
av@@ 2319
ρέψει 2318
γέφ@@ 2316
προσπά@@ 2314
1902 2311
ειλε 2310
ηματο@@ 2305
σύλλογ@@ 2304
1880 2303
background 2302
τυγ@@ 2301
έφυγ@@ 2298
AR@@ 2290
Ro@@ 2285
id@@ 2282
Sch@@ 2280
διαχεί@@ 2277
Θεωρ@@ 2276
νερ@@ 2276
ap@@ 2275
En@@ 2273
color 2272
σύνη 2272
1895 2270
Περιφέρ@@ 2270
όχρονα 2270
1835 2265
Θάλασ@@ 2257
ῆ@@ 2254
αιχμαλ@@ 2252
λλου 2248
… 2236
οειδών 2235
ουνίου 2235
Δεκ@@ 2233
αυτοκρά@@ 2233
κλήρω@@ 2231
καρι@@ 2230
όδω@@ 2228
Γραμ@@ 2226
Love 2224
Le 2221
γάμ@@ 2221
καλεί 2213
στρατόπεδ@@ 2213
ητήρ@@ 2212
ώπι@@ 2205
ήθελ@@ 2204
124@@ 2203
un 2203
Χ. 2201
Rock 2200
Τόμ@@ 2199
No 2198
τ.@@ 2194
ρίσκ@@ 2188
27@@ 2185
ναι 2185
τίες 2185
1901 2184
om 2184
Se@@ 2181
{ 2179
ino 2178
οφορ@@ 2177
Ma@@ 2176
ro@@ 2176
έρνηση 2175
Am@@ 2172
επιστημίου 2172
ωγράφ@@ 2170
Top 2168
όμιλ@@ 2166
ant 2164
1,5 2163
us@@ 2161
Ινστιτού@@ 2157
πραγματοποί@@ 2156
ano 2152
άπο@@ 2151
Βοσν@@ 2150
μέσως 2150
πρόσω@@ 2149
γιατ@@ 2148
Me 2145
Αλλ@@ 2144
Ρωμαϊκ@@ 2144
μπροστ@@ 2144
οδρόμιο 2140
IS@@ 2134
τρέχ@@ 2134
Αλέξανδ@@ 2127
Βραβ@@ 2127
οσφαίρισης 2127
Φρά@@ 2126
Cl@@ 2125
El@@ 2125
άλλον 2124
Bar@@ 2122
Πανελλήν@@ 2122
cm 2120
1898 2118
στησε 2114
άτρου 2113
ειδή 2113
mm 2111
προπον@@ 2111
ικοι 2109
άφους 2108
λοι@@ 2108
000.000 2107
NBA 2107
ήσια 2107
εκτέλε@@ 2098
Ελλ@@ 2097
ανη@@ 2096
Ac@@ 2095
πρωτε@@ 2095
τογαλ@@ 2092
υποψηφ@@ 2089
All 2088
Λευ@@ 2088
διάκ@@ 2088
ler 2081
del 2079
Nissan 2073
12,@@ 2072
ωθ@@ 2072
118@@ 2064
AN@@ 2062
πρότ@@ 2062
συνέβ@@ 2059
NGC 2056
μέθ@@ 2056
ig@@ 2055
Times 2053
Καναδ@@ 2051
απεζ@@ 2046
νοσοκομ@@ 2046
πραγ@@ 2046
ah 2043
si@@ 2043
πρε@@ 2043
απελευθέρ@@ 2042
νίκ@@ 2038
11,@@ 2036
όμετρο 2036
One 2035
ζόν 2026
1889 2025
καταστάθηκε 2025
di@@ 2023
Κωνσταντ@@ 2023
παρουσ@@ 2022
se@@ 2021
ma 2020
δη@@ 2020
κίνδυν@@ 2020
100.000 2019
πλανή@@ 2018
εκπαι@@ 2016
πεδο 2016
βρή@@ 2014
ra 2012
III 2005
ci@@ 2005
E9E9E9 2004
Νυ@@ 2004
οφιλ@@ 2004
πολε@@ 2003
Lo@@ 2002
od@@ 2002
ισχ@@ 2002
σιδη@@ 2000
ata 1998
2,5 1995
τηλεό@@ 1993
My 1992
πολίτευ@@ 1992
νύχ@@ 1991
Col@@ 1990
Y 1990
metal 1987
όμε@@ 1987
δίκτυ@@ 1985
ὸ@@ 1984
κν@@ 1983
ne 1982
Ορθ@@ 1982
ραγκ@@ 1982
ty 1980
Στρα@@ 1978
χαρακτήρ@@ 1978
1830 1970
WWE 1967
αριστ@@ 1967
ons 1964
ήχθησαν 1963
ύρια 1963
1885 1961
Per@@ 1957
καλλ@@ 1957
πλα 1957
αδέλφ@@ 1955
χή@@ 1955
ak@@ 1954
19@@ 1952
Par@@ 1949
φεραν 1947
αδερ@@ 1946
to@@ 1943
κατέστησε 1941
Saint 1940
ανακηρύ@@ 1940
1860 1937
ri@@ 1936
άμεων 1935
Ο. 1934
du 1932
Πειρα@@ 1931
10,@@ 1929
τωπο 1929
φαι@@ 1929
DVD 1925
όδο@@ 1923
1848 1921
10.@@ 1919
Star 1919
Ουγ@@ 1919
RNA 1915
άνδρ@@ 1915
ποτε 1914
Or@@ 1913
ῦ 1913
est 1912
OS 1906
York 1906
ts 1899
In 1898
180 1896
Mor@@ 1896
εξέλι@@ 1894
λλογ@@ 1894
20.000 1892
ΕΚ 1890
ir@@ 1889
ver@@ 1889
διαίτερ@@ 1888
Ne@@ 1887
AC 1886
² 1884
American 1883
τέ 1877
Time 1876
× 1875
by 1870
Li@@ 1868
Βιβλιο@@ 1868
εντυπω@@ 1868
κάστ@@ 1868
σύρ@@ 1866
λιο@@ 1865
40@@ 1863
ελήφ@@ 1860
έπει@@ 1858
po@@ 1857
προώ@@ 1857
1866 1856
Me@@ 1855
é 1855
Play 1853
αμφισ@@ 1852
εργο@@ 1851
Gu@@ 1849
Σμ@@ 1848
φοι@@ 1847
It 1845
τώ 1844
re 1843
ite 1841
1894 1840
op@@ 1840
mo@@ 1838
CE 1836
1879 1835
εξαφ@@ 1833
Cup 1828
Q 1825
vi@@ 1825
άμεις 1825
em 1824
ύν 1822
ay 1819
De 1818
εγκατέλει@@ 1818
νού@@ 1817
ὐ@@ 1815
μεσα 1810
ner 1809
ou@@ 1807
Hot 1805
ini 1805
λευτα@@ 1801
statis@@ 1800
eg@@ 1799
οδρόμ@@ 1796
ke 1795
les 1794
ure 1793
} 1793
ῖ@@ 1793
ai 1790
καλα@@ 1790
de@@ 1789
τιμάται 1787
AS@@ 1784
census 1784
1892 1783
School 1782
εύθυν@@ 1782
­ 1781
τορίας 1781
National 1780
io 1780
van 1780
υποχρ@@ 1780
ans 1778
Un@@ 1775
Μιχα@@ 1774
πράγ@@ 1774
τεία 1772
εφαλής 1770
τελεί 1767
έντρ@@ 1764
στάσιο 1762
ηνίας 1757
Pi@@ 1756
ity 1756
νουν 1754
Bur@@ 1752
γύρ@@ 1752
co@@ 1751
j 1751
καλύφθηκε 1751
Λόγ@@ 1750
σύγκ@@ 1749
έμου 1748
πομπ@@ 1748
Αμερ@@ 1746
Δημητ@@ 1745
1871 1744
Hall 1744
Microsoft 1742
ell 1742
ov@@ 1742
σύνης 1742
4.000 1740
UN@@ 1740
Po@@ 1735
Ισρα@@ 1733
μάτισε 1732
ηνία 1731
ce 1729
βρέ@@ 1729
ti 1728
ak 1727
UNESCO 1723
900 1722
οικογέν@@ 1720
ίσχυ@@ 1719
ut@@ 1717
ρόμ@@ 1716
1893 1713
Mc@@ 1713
1822 1712
um@@ 1712
1888 1710
εναλλ@@ 1708
a.@@ 1706
λάχ@@ 1706
29@@ 1700
For@@ 1700
Jean 1700
Super 1700
1884 1696
ουλος 1696
διαί@@ 1695
προετο@@ 1695
110 1693
Do@@ 1693
ούνιο 1692
Αλφ@@ 1690
επίπεδ@@ 1690
Ad@@ 1688
ya 1686
ματοποι@@ 1685
115@@ 1684
Ver@@ 1684
υι@@ 1683
den 1682
eb@@ 1682
ol 1682
δικτύ@@ 1682
ὰ 1680
era 1677
ότυπα 1677
ψευ@@ 1674
University 1673
αγάπ@@ 1673
Bre@@ 1672
ήθος 1671
King 1668
land 1665
Πρι@@ 1664
11.@@ 1663
1867 1662
Citroën 1662
Man@@ 1658
RA@@ 1658
.com 1656
FIFA 1656
As@@ 1655
off 1655
80@@ 1653
Ιωανν@@ 1653
right 1652
1886 1651
Κάρο@@ 1651
af@@ 1650
ent@@ 1650
per@@ 1648
1891 1646
do 1645
γιν@@ 1645
ˈ@@ 1644
Ag@@ 1643
παραπ@@ 1642
Club 1640
ot 1640
Er@@ 1639
1500 1638
ca 1637
1864 1634
διδακ@@ 1633
τυχε 1632
μβαν@@ 1630
€ 1629
6.000 1628
απώ@@ 1628
αντιμετ@@ 1626
1840 1625
αντι 1622
1850 1621
Metal 1621
ber@@ 1621
ly 1619
νοια 1618
Paul 1617
Pol@@ 1617
θηναϊκ@@ 1616
22@@ 1615
0,0@@ 1614
θηγ@@ 1613
ανάγκ@@ 1612
ice 1611
ja 1609
1887 1605
λλην@@ 1605
χαμ@@ 1605
no 1602
ess 1600
il 1600
Fe@@ 1598
James 1594
Z 1594
1882 1593
ατό 1593
Studios 1591
1833 1589
διαμερ@@ 1587
David 1585
1883 1584
Life 1584
ανθρώ@@ 1582
.-@@ 1579
William 1579
So@@ 1578
co 1578
ette 1578
bo@@ 1577
IV 1576
SA 1575
13,@@ 1572
1,2 1570
FIBA 1569
1828 1568
ore 1567
ance 1566
σύνδε@@ 1566
Pro@@ 1565
Ge@@ 1564
au 1564
az@@ 1564
Hol@@ 1563
Pe@@ 1562
za 1562
διάφορ@@ 1562
παιχνιδι@@ 1558
διοδρο@@ 1555
1834 1554
1877 1551
ολοκλήρω@@ 1551
ey 1550
Κωνστ@@ 1550
ιτέχ@@ 1550
gr@@ 1548
ea 1547
τίμηση 1547
no@@ 1546
χειμ@@ 1546
εκκλη@@ 1543
bi@@ 1542
1815 1541
ζύγ@@ 1541
Deep 1540
αναδ@@ 1537
CA@@ 1535
3,5 1533
50@@ 1532
play 1530
τροπο@@ 1530
OH 1529
met@@ 1525
κινηματογράφ@@ 1523
Channel 1522
so@@ 1521
Ber@@ 1520
καταστάθηκαν 1520
ing@@ 1518
ā@@ 1517
200@@ 1516
Awards 1516
μεγέ@@ 1516
στρατιώ@@ 1516
Mer@@ 1515
Te@@ 1514
έλευ@@ 1513
οσμ@@ 1513
160 1512
Φιλι@@ 1512
ήγαγ@@ 1511
ευγ@@ 1511
1861 1509
1876 1508
ter@@ 1504
όδιο 1503
φιλοξ@@ 1501
ψηφοφορ@@ 1501
ade 1500
ἰ@@ 1497
Dis@@ 1495
αντιν@@ 1495
ne@@ 1493
ver 1492
Μαργαρ@@ 1490
Μη@@ 1490
άλυση 1490
Γρ@@ 1489
1875 1488
ήνων 1488
140 1487
1863 1484
χάλ@@ 1484
130 1483
Company 1483
pi@@ 1483
όσφαι@@ 1483
υργ@@ 1482
College 1481
συνελήφ@@ 1480
House 1479
Ab@@ 1476
συχ@@ 1473
1868 1472
οσημείω@@ 1472
ώνυ@@ 1472
1825 1470
θε 1470
μβανε 1469
ματοποί@@ 1468
Vol@@ 1467
ani 1466
q@@ 1466
Αιγύπ@@ 1465
Robert 1464
Her@@ 1463
ist 1462
Black@@ 1461
IC@@ 1461
top 1461
Ρόμ@@ 1460
φτά@@ 1457
`@@ 1454
Radio 1453
έναρ@@ 1453
παρχ@@ 1452
Παρισ@@ 1449
ήμη 1449
σταθ@@ 1447
To@@ 1446
γενέστερ@@ 1446
εφαρ@@ 1444
og@@ 1443
άρθ@@ 1441
Inter@@ 1440
Association 1439
ίωμα 1439
στημα 1438
Grand 1437
Αυστρα@@ 1437
th 1436
αποσύρ@@ 1436
τηρεί 1436
are 1435
τορία 1432
Michael 1431
http 1431
Go@@ 1429
εξου@@ 1427
bit 1426
ge 1426
1862 1425
1873 1425
θάνα@@ 1425
114@@ 1424
City 1422
Cre@@ 1422
κατέκ@@ 1422
άβει 1421
μιση 1420
Air 1419
ick 1419
ΚΕ 1419
οβολ@@ 1414
km 1412
Group 1410
1800 1409
Πόλε@@ 1408
ara 1406
Bal@@ 1403
pr@@ 1403
1836 1402
Gi@@ 1399
Σαξ@@ 1399
βίν@@ 1399
ings 1396
me 1396
ερευ@@ 1395
br@@ 1394
sp@@ 1394
1826 1393
AC@@ 1393
á@@ 1393
1869 1392
ence 1392
117@@ 1390
διακά 1390
πλειοψηφ@@ 1389
ise 1388
ειναν 1388
UEFA 1387
έγι@@ 1385
στήρι 1385
12.@@ 1384
Τρά@@ 1384
DC 1380
with 1380
ker 1377
φωση 1376
1872 1374
Ελέν@@ 1374
δορ@@ 1372
ki 1370
θμιση 1370
BMW 1369
ash 1368
š@@ 1367
ραϊκ@@ 1367
1865 1366
Purple 1366
1874 1365
ορα 1364
ρίσκεται 1364
FI@@ 1363
q 1363
ա@@ 1362
βοή@@ 1361
116@@ 1360
γλω@@ 1360
Entertainment 1359
όπεδ@@ 1359
ir 1355
more 1354
ολόγιο 1354
1.0@@ 1353
AL@@ 1352
El 1352
όμετρα 1352
30.000 1351
Google 1351
pl@@ 1351
χρησιμ@@ 1350
350 1349
Ph@@ 1348
Cas@@ 1347
Hal@@ 1346
60@@ 1343
Charles 1343
Mag@@ 1343
έρευ@@ 1343
que 1341
Bl@@ 1340
Min@@ 1339
ok@@ 1337
Sal@@ 1335
ϊν 1335
San 1333
Διον@@ 1331
Young 1329
ΣΔ 1329
yl@@ 1328
Καποδί@@ 1328
ary 1327
ob@@ 1327
end 1326
Royal 1325
ίρι 1325
ile 1324
Red 1323
par@@ 1323
1824 1322
Cer@@ 1322
IN@@ 1321
πρόσωπ@@ 1321
± 1320
Na@@ 1319
Εκλ@@ 1319
Κινηματο@@ 1319
LA 1318
tra 1318
ella 1317
παραδο@@ 1317
SA@@ 1316
τοις 1312
codice 1311
ημερομ@@ 1310
Hel@@ 1308
st 1308
Ros@@ 1307
und 1307
Σιδ@@ 1306
Bel@@ 1305
1829 1303
ωρο 1303
ερμαν@@ 1302
101 1301
κοπο@@ 1300
ρισκόταν 1300
πούδ@@ 1298
Av@@ 1296
do@@ 1296
NH@@ 1295
Sol@@ 1295
ξεκίν@@ 1295
113@@ 1294
λιμάν@@ 1294
als 1293
be@@ 1293
βηγ@@ 1292
aw@@ 1291
office 1290
SO@@ 1289
all 1287
1856 1286
θετε 1286
Ἀ@@ 1281
Maria 1280
Marvel 1280
Τέχ@@ 1280
1854 1278
Λον@@ 1278
FC 1277
Ποδ@@ 1277
ev@@ 1276
ES@@ 1275
Pan@@ 1274
κεφ@@ 1271
1859 1270
ati@@ 1269
λυκ@@ 1269
ur 1268
Ξεκ@@ 1268
ho@@ 1267
ane 1266
1844 1264
450 1263
Night 1263
AT@@ 1261
ell@@ 1261
εβδ@@ 1261
35@@ 1258
ue 1257
ire 1255
Apple 1254
sa 1251
όργαν@@ 1251
ins 1249
τούργ@@ 1249
mann 1248
κατέλη@@ 1248
Game 1246
περιελά@@ 1246
ks 1245
όμη 1245
Ri@@ 1244
1814 1243
ήποτε 1243
πόλε@@ 1240
ko@@ 1239
συμμετάσχ@@ 1239
Su@@ 1238
AB@@ 1237
νομή 1236
George 1234
é@@ 1233
διαμέ@@ 1232
District 1231
τημ@@ 1231
1820 1229
NO@@ 1229
Pa@@ 1227
Award 1226
Tur@@ 1225
τυπα 1225
Kr@@ 1224
dr@@ 1224
Cal@@ 1222
ER@@ 1222
ator 1219
SE@@ 1218
ζων@@ 1217
gi@@ 1216
ανου@@ 1216
Si@@ 1213
1832 1212
DS 1212
ὲ 1210
→ 1208
έφθ@@ 1207
ens@@ 1205
8.000 1204
Reg@@ 1204
con@@ 1203
μπή@@ 1203
out 1202
1851 1201
au@@ 1201
Βιβ@@ 1200
σύγκρου@@ 1200
Best 1199
Eur@@ 1198
RI@@ 1197
ὴ@@ 1197
ρακα 1196
Is 1195
Kar@@ 1195
ma@@ 1195
50.000 1194
αναφέρ@@ 1190
1843 1189
ake 1189
Iron 1188
δικα 1188
1,3 1187
end@@ 1187
facto 1187
ford 1187
sch@@ 1187
ena 1186
νια 1186
Big 1185
ning 1185
ειγμα 1185
ac 1184
and@@ 1184
box 1184
met 1184
va 1184
ight 1182
όνομ@@ 1182
ὸ 1182
125 1181
1858 1180
On 1179
ησιμ@@ 1178
li 1177
RE@@ 1176
ann@@ 1176
Σεπτέμβ@@ 1176
be 1174
ερις 1174
à 1173
ακτιν@@ 1173
Mel@@ 1172
ones 1172
πτώ@@ 1172
1841 1170
1845 1170
1827 1168
ita 1168
4,5 1166
Ford 1163
1823 1162
Es@@ 1162
ΠΑ 1160
Mot@@ 1159
els 1159
Προσωπ@@ 1158
Fre@@ 1157
ΰ@@ 1157
τραγούδ@@ 1157
1812 1156
όλου@@ 1156
καταστά@@ 1155
Film 1154
Mus@@ 1154
Mac@@ 1153
tri@@ 1153
Op@@ 1152
ff@@ 1152
Ανώ@@ 1152
RO@@ 1151
ίδραση 1150
ηρύ@@ 1150
ory 1149
AM@@ 1147
Can@@ 1147
σοβ@@ 1146
ay@@ 1145
Al 1144
σιαλ@@ 1144
Har@@ 1142
Euro 1141
Tri@@ 1141
Your 1141
Tour 1140
1853 1139
Εταιρ@@ 1139
Φίλι@@ 1139
³ 1138
Fl@@ 1137
1793 1136
Ser@@ 1133
Blue 1132
δοβ@@ 1132
Os@@ 1131
ach@@ 1131
Οκτώβ@@ 1130
πουργ@@ 1129
τρά@@ 1128
1849 1127
tu@@ 1127
ταιν@@ 1127
1837 1126
ical 1126
σταμά@@ 1126
τωπ@@ 1126
NASA 1125
Park 1125
ister 1123
ps 1123
Day 1122
Ste@@ 1122
Thomas 1122
mar@@ 1122
γράμματος 1122
Sc@@ 1120
MP@@ 1119
κύττα@@ 1117
Sonic 1116
μετακόμ@@ 1116
IM@@ 1115
ari 1114
105 1113
COVID 1113
Ho@@ 1113
ιωμάτων 1112
1806 1110
κατερ@@ 1109
33@@ 1108
Football 1108
ερνη@@ 1105
λογαρι@@ 1105
Fr@@ 1104
Warner 1104
1.500 1103
1831 1102
ill@@ 1102
όμεν@@ 1102
per 1101
pp@@ 1101
Bor@@ 1100
1857 1099
7.000 1099
Martin 1099
Bi@@ 1098
Scre@@ 1098
1792 1097
14,@@ 1095
ensis 1095
Les 1094
Ναπο@@ 1094
ηλεκτ@@ 1094
λαδή 1093
οίτησε 1093
ys@@ 1092
άστια 1091
είωσε 1091
oles 1090
αεροσκ@@ 1087
σειρ@@ 1087
1789 1086
170 1085
com@@ 1085
No@@ 1084
Louis 1082
ek 1082
ain 1080
οκρα@@ 1080
AS 1078
ῦ@@ 1078
Richard 1076
Val@@ 1076
ada 1076
ion 1076
ist@@ 1074
tes 1073
προσέγ@@ 1073
1847 1072
παρελθ@@ 1072
Mat@@ 1071
My@@ 1071
London 1069
ριστο@@ 1069
our 1067
aj@@ 1064
elle 1061
αιτέρ@@ 1061
une 1060
US@@ 1059
υζ@@ 1059
Peter 1058
St 1058
We@@ 1057
im 1056
~ 1055
1855 1054
ab 1054
ou 1054
ters 1054
tor 1054
General 1053
MA 1053
ari@@ 1052
Super@@ 1050
Show 1049
elli 1049
1600 1048
Φιν@@ 1048
ack 1047
Im@@ 1046
Lord 1046
Sab@@ 1046
15.000 1045
ra@@ 1045
from 1042
13.@@ 1041
ach 1041
κοπος 1041
ep@@ 1040
ics 1040
1852 1039
Mega 1039
kg 1039
Gal@@ 1038
dy 1036
Ger@@ 1035
βιβλ@@ 1035
ψήφισμα 1035
EP 1033
στίβ@@ 1033
Sil@@ 1032
220 1030
Καλιφόρ@@ 1030
ant@@ 1028
μελι@@ 1028
A.@@ 1027
PlayStation 1027
Ti@@ 1027
σύνδεσμ@@ 1027
ME@@ 1026
mg 1026
Dr@@ 1025
te@@ 1024
ola 1023
su@@ 1023
200.000 1022
1204 1021
detail@@ 1021
Εξωτερ@@ 1021
ημέ@@ 1021
FA 1020
ἔ@@ 1019
ello 1018
500.000 1017
Of 1017
Ακαδημ@@ 1017
όλα@@ 1017
ow@@ 1015
Ω 1014
201@@ 1013
Sony 1013
rock 1013
βασιλι@@ 1011
Art 1010
νήθηκε 1010
τυπω@@ 1009
Rom@@ 1007
ala 1006
ek@@ 1006
Don 1004
tic 1004
pe@@ 1003
360 1002
YouTube 1002
ro 1002
ότατα 1002
34@@ 999
ath@@ 999
lu@@ 999
γράφου 999
Mal@@ 998
ais 998
ier 998
1797 997
127 996
1700 996
Sur@@ 996
ep 996
ye 996
ανέπτυ@@ 995
1842 994
center 994
ib@@ 994
Pictures 993
eh@@ 993
tion 993
ken 990
40.000 989
Cam@@ 989
Des@@ 989
36@@ 988
US 988
ł@@ 988
mi 987
λευθερ@@ 987
Lu@@ 985
λληλ@@ 985
ef@@ 984
up 984
LE@@ 983
άντια 983
Wor@@ 982
Hor@@ 981
ov 981
διεύθυν@@ 981
EB@@ 980
car@@ 980
ανάπτυ@@ 980
ta@@ 979
Center 977
Fame 977
High 977
περτ 977
εκτε@@ 976
ave 973
1813 972
berg 972
1846 971
Die 971
Street 971
Αίγ@@ 971
δρυ@@ 971
102 970
Sim@@ 970
Nor@@ 969
Tor@@ 969
ting 969
τοκρατ@@ 969
ato 968
mi@@ 968
Mir@@ 967
ets 966
ors 966
γαν@@ 966
Rolling 965
gen@@ 965
ger 963
ko 963
str@@ 962
38@@ 961
Lee 960
bu@@ 959
ran@@ 959
1839 958
45@@ 958
Gar@@ 958
Joseph 958
MS 958
Απρί@@ 958
1809 957
enti@@ 957
στιτού@@ 957
μμυ@@ 956
hi@@ 955
art 954
hp 954
ere 952
A. 951
μάται 951
BA 950
70@@ 949
ations 949
υλ 949
ora 948
έρον 948
1810 947
Fo@@ 947
Mercedes 944
ST@@ 944
Society 944
Corporation 943
Stone 943
able 943
Du@@ 942
France 942
width 942
Mas@@ 941
Wal@@ 940
109 939
Final 939
sen 938
εγκατέ@@ 938
Ben@@ 935
la@@ 933
22.@@ 931
Fox 930
FM 929
Europe 928
Αίγυπ@@ 928
S.@@ 926
Alpha 925
Cl 925
σχετί@@ 925
ήνα 923
CE@@ 922
Festival 922
der@@ 922
126 921
MTV 921
CIA 920
Media 920
1790 919
1818 919
Ιανου@@ 919
DE@@ 918
ah@@ 918
bl@@ 918
AD@@ 917
ass@@ 917
News 915
Res@@ 915
ster 915
CD@@ 914
field 914
ασκαλ@@ 914
Out 913
1838 912
ten@@ 912
tor@@ 912
Ul@@ 911
15,@@ 910
CF 910
ated 908
cor@@ 906
ft 906
MI@@ 905
1200 904
ene 904
ni 904
Ε.Π.@@ 903
τέσσ@@ 903
Arts 902
Queen 902
στιαν@@ 902
Box 900
kin 900
est@@ 898
Paris 897
είμενο 897
1807 896
21.@@ 895
Pal@@ 895
album 895
CH 892
Gen@@ 892
White 892
AP@@ 891
Who 891
We 890
PS@@ 889
μαίν@@ 889
1803 888
IP 888
Renault 888
συζύγ@@ 888
Wil@@ 887
ain@@ 887
ληρω@@ 887
System 886
back 886
1808 885
United 885
1804 884
θάλασ@@ 883
alis 882
me@@ 881
orum 881
si 881
IP@@ 880
iz@@ 880
ura 880
14.@@ 879
2,3 879
Sk@@ 879
ουμένως 878
107 877
39@@ 877
Journal 877
ha 877
υμπ@@ 877
ser@@ 876
πρίγκιπ@@ 876
All@@ 875
Be 875
Nintendo 875
oni 875
ates 874
Ru@@ 873
for@@ 873
mer@@ 873
É@@ 873
νημ@@ 873
1798 872
Ετα@@ 872
bat@@ 871
106 870
240 870
CN@@ 870
mon@@ 870
1795 869
Ni@@ 869
1770 868
100@@ 867
Fiat 866
colspan 866
κοντα 866
37@@ 864
Bank 864
Little 864
βάλ 864
εμπειρ@@ 862
Vi@@ 861
ski 861
col@@ 860
low 860
ast 859
Mario 857
che 857
kh@@ 857
25.000 855
HMS 855
Bas@@ 854
European 854
TA 854
1819 853
3000 853
Sw@@ 853
ois 853
tro 853
\ 852
live 852
ona 852
Καλλικρά@@ 851
Death 850
ISO 850
Luc@@ 850
PC 850
Por@@ 850
ds 850
επιστη@@ 850
ille 849
Gill@@ 848
ang@@ 848
ba@@ 848
γκοσ@@ 848
Free 847
ανάπ@@ 847
δεκαε@@ 847
1794 846
ρότη@@ 846
εγκαταλ@@ 845
AA 844
Dar@@ 844
LC 844
λοιπ@@ 844
Glo@@ 843
time 843
Εκκλη@@ 843
ριστιαν@@ 843
Pre@@ 842
ex@@ 842
go 841
ama 840
Del@@ 839
Hill 839
ge@@ 839
104 838
1805 838
Open 838
Cy@@ 837
he@@ 837
ii 837
las 837
ai@@ 835
κτί@@ 835
ole 834
č@@ 834
αστεροειδ@@ 834
κοσμίου 834
115 833
16,@@ 833
750 833
CA 833
ry 832
πίνα@@ 832
Trans@@ 831
ico 831
Kil@@ 830
Rec@@ 829
West 829
of@@ 829
Αθή@@ 829
Πει@@ 829
108 827
ó@@ 827
Fi@@ 825
Green 825
bar@@ 824
yn 824
Pierre 823
Pl@@ 823
charts 823
ë@@ 823
135 822
Home 821
eo 821
Mi@@ 819
Up 819
απώλει@@ 818
103 817
ati 816
ess@@ 815
PS 814
πτωση 814
Ko@@ 813
War@@ 813
1817 812
sk@@ 812
Bu@@ 811
Cur@@ 811
atus 811
Friedrich 810
ky 810
tur@@ 810
16.@@ 809
υφή 809
ατρών 808
Jo@@ 807
SM 807
ill 807
άτω 807
ante 806
ru@@ 806
μελλ@@ 806
ρωπα@@ 806
Boeing 805
Marie 805
und@@ 805
1453 804
America 804
Mark 804
γράμ@@ 804
Jones 802
O2 802
Airlines 801
ble 801
Wrestling 800
line 800
soundtrack 800
Char@@ 798
1816 797
ord@@ 797
SP@@ 796
pel@@ 796
tica 796
Ένω@@ 796
Je@@ 795
At@@ 794
όπος 794
1801 793
ber 793
fer@@ 792
20.@@ 791
Mad@@ 791
ash@@ 790
ō 790
Αχα@@ 790
left 789
ten 789
Ap@@ 788
Gl@@ 788
IC 788
απέκ@@ 788
1791 787
Š@@ 786
AF 785
Men 785
du@@ 785
συμμετο@@ 785
if@@ 784
ok 784
uc@@ 784
ung 784
65@@ 783
ish@@ 783
ἄ@@ 783
συμβόλ@@ 782
1,4 781
Euro@@ 781
ima 781
ενέργ@@ 780
1799 779
AT 779
Far@@ 779
Press 778
ars 778
ero 778
17,@@ 777
ard@@ 777
Φεβρου@@ 776
ang 774
ines 774
yr@@ 772
90@@ 771
od 771
Σεπ@@ 769
bert 768
cu@@ 768
0,5 767
text 767
і@@ 767
Dark 766
Medi@@ 766
Nov@@ 766
Sa@@ 766
ler@@ 766
Pri@@ 765
ian 764
ith 764
Κρή@@ 764
Sho@@ 762
ick@@ 762
ong 762
πειτα 762
1630 761
ερμπ@@ 761
Video 760
lin@@ 760
Benz 759
Bro@@ 759
Hu@@ 759
Ju@@ 759
190 758
Hy@@ 758
Linux 758
480 757
Sun 757
ish 757
καγι@@ 757
ὁ 757
Tre@@ 756
ABC 754
Co 754
PC@@ 754
British 753
Region 753
1715 752
ez@@ 752
CN 750
ace 750
inger 750
vo 750
TE@@ 749
IS 748
ect 748
Netflix 746
ez 746
Santa 745
ling 745
Γε@@ 745
ρεψε 745
όπουλ@@ 745
Can 744
Mary 744
128 743
1583 743
man@@ 743
AN 742
ούσια 742
iss@@ 741
1,1 740
pH 740
7,5 739
46@@ 737
48@@ 737
CI@@ 737
Institute 736
ales 736
15.@@ 735
CO 735
Karl 735
king 735
17.@@ 734
ys 734
Columbia 733
ik 733
je 731
pe 731
ska 731
Dr 730
Em@@ 730
ville 730
Arena 729
Ig@@ 729
Los 728
Sun@@ 728
διοίκ@@ 728
AD 727
Story 727
die 727
ji 727
mer 727
ut 727
περισσ@@ 727
Boy 726
tification 726
βιε@@ 726
550 725
Max 725
Rem@@ 724
Studio 724
chi 724
so 724
way 724
Pro 723
illa 723
ori@@ 723
po 723
For 722
Master 722
ve@@ 722
Κατηγορ@@ 722
ικρά@@ 722
GB 721
dia 721
ier@@ 721
Ban@@ 720
RS 719
ug@@ 718
ίστοιχ@@ 718
SU@@ 717
ie@@ 717
Ang@@ 716
DJ 716
πρου 716
320 715
Il 715
Toyota 715
cl@@ 715
ey@@ 715
τώματα 715
υπόλ@@ 715
23.@@ 714
ιστον 714
μμυρίων 714
οιβ@@ 714
Hz 713
RT@@ 713
Space 713
This 713
Ur@@ 713
vo@@ 713
Champions 712
VI@@ 712
over 712
Henry 711
Is@@ 711
anus 711
tis 711
Εκτ@@ 711
PE@@ 710
κοπο 710
3D 708
BS 708
πείρου 708
bourne 707
chi@@ 707
Cat@@ 706
wa 706
zi@@ 706
Dem@@ 705
Γεώργ@@ 704
εδρο 704
EC@@ 703
H2@@ 703
19.@@ 702
43@@ 702
Sir 702
ents 702
AG 701
Project 701
tin 701
set 700
ξικ@@ 700
18.@@ 699
Ke@@ 699
Universal 699
ρίβ@@ 699
Bir@@ 698
HIV 698
άνθρω@@ 698
burg 697
α. 697
War 696
nik 696
ze@@ 696
Mur@@ 695
έου 695
εντιν@@ 695
AI@@ 693
iv@@ 693
sur 693
What 692
stein 692
Play@@ 691
Star@@ 691
Bad 690
Ir@@ 690
itz 690
row 690
γκοσλαβ@@ 690
οιχ@@ 690
πρόκει@@ 690
5,5 689
Ed@@ 689
SS@@ 689
TS 689
up@@ 689
Facebook 688
Last 688
ment 688
Ly@@ 687
87@@ 686
Down 686
Jan 686
ff 686
gu@@ 686
ō@@ 686
πτέρ@@ 686
AIDS 685
Sar@@ 685
ee 685
lin 685
ée 685
ψ 685
Band 684
IF@@ 684
MVP 683
Lar@@ 682
amb@@ 682
έφερ@@ 682
CC@@ 681
Go 681
das 681
singles 681
Android 680
LP 680
ado 680
eng@@ 680
video 680
112 679
ius 679
ome 679
Ali@@ 678
Hell 678
330 677
280 675
Natur@@ 675
ange 675
eme 675
εγον@@ 675
ich 674
ock 674
we 674
1802 673
650 673
Dir@@ 673
Kon@@ 673
well 673
Dead 672
UTC 672
ὑ@@ 672
47@@ 671
Edward 671
ame 671
iller 671
Dance 670
Smith 670
aceae 670
its 670
ιούργ@@ 670
φθιν@@ 670
1811 669
DP 669
Island 669
Leg@@ 669
ML@@ 669
PO@@ 669
Tom@@ 669
ology 669
wood 669
BAFTA 668
Άντζελ@@ 668
ative 667
yn@@ 667
£ 667
Road 666
cr@@ 666
ito 666
ny 666
Χαρακτη@@ 666
117 665
Na 665
eth 665
75@@ 664
C.@@ 664
Dec@@ 664
Οκτωβ@@ 664
Hil@@ 663
Vo@@ 663
all@@ 663
ίσι 663
Cel@@ 662
Sam@@ 662
2,4 661
Ak@@ 661
ei 661
ele 661
αιν 661
260 660
ali@@ 660
iOS 660
Ιρ@@ 660
Mil@@ 659
NE@@ 659
είω@@ 659
τραγουδί@@ 659
Cap@@ 658
ese 658
ili@@ 658
ney 658
1780 657
44@@ 657
Great 657
Wat@@ 657
ex 657
AR 656
Grammy 656
1788 655
5000 655
GT 655
ies 654
2,2 653
San@@ 653
έφτα@@ 653
│ 653
Mac 652
PA 652
ast@@ 652
DE 651
σσαλ@@ 651
1796 650
HD 649
Tel@@ 649
Fal@@ 648
side 648
ym@@ 648
Wh@@ 647
1,6 646
19,@@ 646
AM 646
Heart 646
Μόσ@@ 646
230 645
SI 645
Wilhelm 645
su 645
val@@ 645
194@@ 644
Chevrolet 644
πειρω@@ 644
1783 643
123 642
IT@@ 642
Way 642
RC 641
ba 641
uk@@ 641
eta 640
ium 640
yp@@ 640
αιτέρω 640
Office 639
ven@@ 639
1100 638
210 637
MO@@ 637
Pas@@ 637
Union 637
ny@@ 637
sc@@ 637
show 637
VI 636
ats@@ 636
Arch@@ 635
Van 635
aff@@ 635
Chi@@ 634
Dream 634
Ferrari 634
ηξε 634
τραυ@@ 634
Bros 633
CO2 633
RA 633
Volkswagen 633
Οκτ@@ 633
Internet 632
Power 632
etta 632
Haw@@ 631
Kn@@ 631
Science 631
Song 631
Pic@@ 630
fr@@ 630
1300 629
NA 629
Off@@ 629
ts@@ 629
στριας 628
1787 627
Fire 627
La@@ 627
ap 627
ela 627
pa 627
ῷ 627
122 626
CS@@ 626
Johann 626
Post 626
reg@@ 626
ze 626
Τζάκ@@ 626
1400 625
Bol@@ 625
Bri@@ 625
Fac@@ 625
Off 625
Sav@@ 625
1772 624
Meg@@ 624
RAF 624
ke@@ 624
Walt 623
house 623
Blues 622
fl@@ 622
zi 622
CP 621
Four 621
Audi 620
Girl 620
δοση 620
ὺ@@ 619
Alexander 618
aux 618
sti@@ 618
ua 618
ung@@ 618
Research 617
mod@@ 617
we@@ 617
Οικογέν@@ 617
State 616
ali 616
ath 616
ici@@ 616
6,5 615
Ter@@ 615
18,@@ 614
Championship 614
Giovanni 614
Woman 614
her@@ 614
ly@@ 614
min@@ 614
σκολ@@ 614
111 613
121 613
2.0@@ 613
306 613
Cro@@ 613
Ven@@ 613
ὰ@@ 613
Win@@ 612
παραιτ@@ 612
1774 611
Cos@@ 611
Ga@@ 611
Theatre 611
ans@@ 611
iPhone 611
less 611
201 610
Brown 610
Class 610
Sports 610
1648 609
Dre@@ 609
Sand@@ 609
Si 609
TV@@ 609
peri@@ 609
1,8 608
1.5@@ 608
1785 608
Christian 608
Foundation 608
fo@@ 608
osa 608
ida 607
270 606
Lady 606
Albert 605
Pres@@ 605
ains 605
ail@@ 604
ng@@ 604
000@@ 603
Ba@@ 603
Century 603
Sky@@ 603
bo 603
e.@@ 603
Aer@@ 602
Inc 602
Network 602
Blood 601
nes 601
ori 601
oth@@ 601
3,4 600
BC 600
aria 600
ich@@ 600
res@@ 600
tro@@ 600
32@@ 599
E.@@ 599
Tar@@ 599
διαπραγ@@ 599
ὴ 599
76@@ 598
GM 598
Wi@@ 598
oh@@ 598
Basketball 597
Daily 597
art@@ 597
des@@ 597
ə@@ 597
Greece 596
net 596
North 595
850 594
Gre@@ 594
Mak@@ 594
anti@@ 594
ul 594
′ 594
heavy 593
ula 593
Greek 592
Mu@@ 592
lo 592
ture 592
114 591
Cad@@ 591
Model 591
αίωνα 591
P. 590
action 590
ass 590
aus@@ 590
head 590
ī@@ 590
1660 589
anger 589
ci 589
thr@@ 589
J.@@ 588
Lin@@ 588
Thr@@ 588
can@@ 588
inc@@ 588
ism 588
τζελ@@ 588
ὲ@@ 588
116 587
Division 587
Han@@ 587
aro 587
ira 587
mor@@ 587
Nar@@ 586
Dor@@ 585
kat@@ 585
ū@@ 585
ὅ@@ 585
Ca@@ 584
Taylor 584
1577 583
Scott 583
ax 583
della 583
καλλι@@ 582
Dom@@ 581
ide 581
int@@ 581
ör@@ 580
βομβαρ@@ 580
Pir@@ 579
ats 579
lan@@ 579
Dig@@ 578
Motors 578
Ram@@ 578
20,@@ 577
55@@ 577
CBS 577
μυθιστόρ@@ 577
р@@ 577
Jac@@ 576
atr@@ 576
type 576
1650 575
Bon@@ 575
FBI 575
Mol@@ 575
Tro@@ 575
49@@ 574
Fran@@ 574
ind@@ 573
ευθείας 573
224 572
Est@@ 572
ISBN 572
aur@@ 572
op 572
pro@@ 572
129 571
enn@@ 571
idae 571
κατεύθυν@@ 571
Peugeot 570
Roc@@ 570
ider 570
kW 570
tu 570
use 570
Hollywood 569
Pin@@ 569
South 569
VII 569
iki 569
Cu@@ 568
Ha@@ 568
ento 568
lie 568
Museum 567
ern@@ 567
ki@@ 567
Gold@@ 566
port 566
1750 565
370 565
Johnson 565
μέγε@@ 565
Land@@ 564
Like 564
adi@@ 564
ila 564
sa@@ 564
1640 563
Pat@@ 563
είμενα 563
ј@@ 563
GC 562
ement 562
key 562
1689 561
Loc@@ 561
eri 561
isi@@ 561
‎ 561
MS@@ 560
Mont@@ 560
Sel@@ 560
chart 560
hu@@ 560
προσέγγι@@ 560
ћ 560
Fol@@ 559
Gro@@ 559
Όμ@@ 559
124 558
Ever@@ 558
SD 558
Good 556
Vir@@ 556
hip 556
sel@@ 556
ρονόμ@@ 556
Shi@@ 555
air 555
model 555
ո@@ 555
Gra@@ 554
Hard 554
Sport 554
Year 554
inus 554
ova 554
Blo@@ 553
Book 553
Team 553
Wit@@ 553
eli@@ 553
lis 553
όκειται 553
IX 552
Wall 552
ž@@ 552
Fer@@ 551
East 550
inn@@ 550
mag@@ 550
École 550
145 549
3,3 549
DA 549
Pap@@ 549
Sub@@ 549
Wol@@ 549
igh@@ 549
195@@ 548
25.@@ 548
Academy 548
Back 548
GA 548
New@@ 548
Intel 547
ray 547
Fin@@ 546
HS 546
Mr 546
ack@@ 546
fer 546
hi 546
á 546
1784 545
Out@@ 545
Williams 545
ր@@ 545
Earth 544
Men@@ 544
ax@@ 544
lia 544
Ἐ@@ 544
Bell 543
Hotel 543
ington 543
307 542
ign@@ 542
sion 542
son@@ 542
ud@@ 542
σεκατο@@ 542
223 541
Az@@ 541
ong@@ 541
web 541
Air@@ 540
I.@@ 540
Stadium 540
cus 540
As 539
Jack 539
Light 539
Βοσ@@ 539
Ann@@ 538
ase 538
ck 538
music 538
1688 537
An 537
Roll 537
az 537
^ 536
0,1 535
TP 535
Washington 535
ness 535
oph@@ 535
let 534
MC 533
Series 532
Tes@@ 532
Twitter 532
ga 532
sil@@ 532
uck 531
175 530
340 530
Do 530
Nick@@ 530
STS 530
my 530
ä@@ 530
Pon@@ 529
Sega 529
iti@@ 529
ody 529
oy@@ 529
è@@ 529
παγκοσμ@@ 529
118 528
1570 528
1776 528
God 528
Lor@@ 528
Mari@@ 528
8,5 527
Mid@@ 527
he 527
AP 526
Cin@@ 526
IA 526
NS@@ 526
eus 526
Don@@ 525
dem@@ 525
ms 525
zo 525
Ϊ 525
Chicago 524
Spe@@ 524
the@@ 524
Frank 523
Ra@@ 523
core 523
mol 523
tive 523
1450 522
Orchestra 522
UK 522
con 522
pol@@ 522
sen@@ 522
you 522
Χίτ@@ 522
113 521
Ty@@ 521
VA 521
air@@ 521
tus 521
168 520
Daniel 520
Ran@@ 520
Raw 520
ika 520
oni@@ 520
oo 520
pre@@ 520
ser 520
Ol@@ 519
Long 518
Prix 518
ike 518
sub@@ 518
68@@ 517
Golden 517
Met@@ 517
oth 517
ted 517
í@@ 517
2.0 516
CC 516
Sum@@ 516
lar@@ 516
Get 515
Saf@@ 515
cal@@ 515
ωνστ@@ 515
1550 514
380 514
Angel 514
ao 514
cher 514
1775 513
AU 513
cas@@ 513
sal@@ 513
ᾶ@@ 513
Are 512
First 512
Hans 512
eman 512
tors 512
zo@@ 512
24.@@ 511
960 511
Games 511
tar@@ 511
Πολλ@@ 511
1620 509
Force 509
§ 509
58@@ 508
Business 508
Deutsche 508
rey 508
ολικά 508
Bat@@ 507
ET 507
iden 507
Tw@@ 506
tics 506
ote 505
на 505
155 504
25,@@ 504
67@@ 504
Digital 504
Line 504
Mes@@ 504
Sky 504
That 504
ami 504
χιλιο@@ 504
Lev@@ 503
Ob@@ 503
SC 502
ebo@@ 502
sol@@ 502
Oc@@ 501
Vil@@ 501
har@@ 501
≡ 501
Rev@@ 500
eck 500
1530 499
Laur@@ 499
arg@@ 499
sive 499
σινγκ@@ 499
ταθλ@@ 499
217 498
M.@@ 498
frame 498
ox@@ 498
Anth@@ 497
Da@@ 497
deon 497
int 497
Arthur 496
People 496
Two 496
λυμπ@@ 496
Carl 495
Rotten 495
The@@ 495
ø@@ 495
θελον@@ 495
Bill 494
Nav@@ 494
Ci@@ 493
Der 493
Pep@@ 493
mas@@ 493
ost@@ 493
pu@@ 493
άσκετ 493
ett 492
1758 491
22,@@ 491
Kal@@ 491
Ltd 491
Magazine 491
Metall@@ 491
ίστα@@ 491
Four@@ 490
Heaven 490
Il@@ 490
Whit@@ 490
â@@ 490
ρίτερα 490
BO@@ 489
Let 489
Petr@@ 489
Walter 489
ball 489
domain 489
fi@@ 489
Ρώ@@ 489
Bos@@ 488
EL@@ 488
Reb@@ 488
Vic@@ 488
eto 488
ew@@ 488
24,@@ 487
Dol@@ 487
Fro@@ 487
Li 487
ania 487
Mah@@ 486
SN@@ 486
arr@@ 486
τιμή@@ 486
1520 485
2- 485
Dev@@ 485
Liber@@ 485
eri@@ 485
lu 485
οδοχ@@ 485
420 484
Page 484
1683 483
Jacques 483
Kor@@ 483
MP 483
More 483
Plat@@ 483
Tom 483
ham 483
tel@@ 483
tis@@ 483
fe@@ 482
ign 482
1786 481
D. 481
Gun@@ 481
by@@ 481
dis@@ 481
una 481
1,7 480
Lif@@ 480
Mem@@ 480
Mis@@ 480
Old 480
PR@@ 480
Plan@@ 480
Uni@@ 479
י@@ 479
ა@@ 479
Dun@@ 478
Victoria 478
26.@@ 477
Stu@@ 477
day 477
ani@@ 476
hard 476
map@@ 476
ίστησε 476
Anna 475
Comics 475
History 475
PP@@ 475
Rob@@ 475
Tomatoes 475
isa 475
itch 475
Land 474
Paramount 474
enc@@ 474
icus 474
Boys 473
MT 473
sy@@ 473
tan@@ 473
ατρο 473
Evil 472
FO@@ 472
Prot@@ 472
Ta@@ 472
Xbox 472
aya 472
inter@@ 472
21,@@ 471
Television 471
ng 471
ther 471
1521 470
Hay@@ 470
Party 470
eller 470
uma 470
199@@ 469
AL 469
C. 469
Cir@@ 469
Singles 469
cur@@ 469
325 468
IE@@ 468
Kh@@ 468
ants 468
ische 468
ns 468
Gam@@ 467
Tem@@ 467
West@@ 467
bul@@ 467
132 466
1610 466
Gor@@ 466
SH 466
Sy@@ 466
cap@@ 466
ense 466
sey 466
57@@ 465
media 465
mo 465
βλημα 465
Corn@@ 464
ri 464
Lewis 463
ret@@ 463
uv@@ 463
ér@@ 463
430 462
Red@@ 462
franchise 462
ó 462
ήμερα 462
1768 461
Real 461
ωτερ@@ 461
1571 460
54@@ 460
AE@@ 460
del@@ 460
ha@@ 460
sky 460
star 460
165 459
1777 459
27,@@ 459
LO@@ 459
Machine 459
Prince 459
ask@@ 459
hat@@ 459
ush@@ 459
146 458
2,6 458
28.@@ 458
B.@@ 458
Drive 458
Fair@@ 458
Trav@@ 458
Unix 458
anc@@ 458
len@@ 458
Guardian 457
augh@@ 457
online 457
ώδεκα 457
ἡ 457
Critics 456
Just 456
Moon 456
Ren@@ 456
Shar@@ 456
460 455
DF 455
Express 455
Heinrich 455
Ludwig 455
PI 455
act 455
ely 455
etti 455
ῳ 455
1670 454
1782 454
Bob 454
FF 454
Homo 454
R.@@ 454
Tal@@ 454
go@@ 454
kr@@ 454
light 454
æ@@ 454
196@@ 453
225 453
oma 453
tw@@ 453
ă@@ 453
Electric 452
IU@@ 452
Lov@@ 452
Sound 452
Sz@@ 452
ean 452
σπί@@ 452
28,@@ 451
78@@ 451
Bay 451
Fri@@ 451
Georg 451
data 451
lat@@ 451
level 451
ust 451
¨ 451
1690 450
Bab@@ 450
Bul@@ 450
Sl@@ 450
Sof@@ 450
long@@ 450
vol@@ 450
Beau@@ 449
Blu 449
Productions 449
River 449
1540 448
29,@@ 448
Battle 448
FDA 448
RT 448
ert 448
Div@@ 447
Family 447
GP@@ 447
Hen@@ 447
Tu@@ 447
estr@@ 447
1778 446
Jackson 446
Sm@@ 446
Steve 446
face 446
rec@@ 446
Global 445
Kir@@ 445
Maz@@ 445
NBC 445
don 445
leg@@ 445
oto 445
400@@ 444
9,5 444
Ev@@ 444
Fried@@ 444
RI 444
SE 444
UC@@ 444
Vel@@ 444
aci@@ 444
ful 444
gio 444
qui@@ 444
å@@ 444
ετέλεσε 444
1580 443
56@@ 443
66@@ 443
Antonio 443
Bom@@ 443
ond@@ 443
ç@@ 443
Fil@@ 442
Pink 442
USA 442
VIII 442
Web 442
ista 442
ket 442
pos@@ 442
TE 441
Ηρα@@ 441
310 440
Cru@@ 440
PG 440
Patr@@ 440
Theater 440
XX@@ 440
jo 440
vil 440
E. 439
Fel@@ 439
With 439
ins@@ 439
θύν@@ 439
ו@@ 439
Baby 438
Chart 438
DO@@ 438
Now 438
Nu@@ 438
down 438
manga 438
mel@@ 438
war@@ 438
1769 437
AF@@ 437
Campbell 437
TO@@ 437
ams 437
mat@@ 437
men 437
1618 436
And 436
Ath@@ 436
Ep@@ 436
IBM 436
illac 436
onn@@ 436
ots 436
vin 436
ö@@ 436
έπτυ@@ 436
С@@ 436
᾽ 436
1763 435
1781 435
Acc@@ 435
Van@@ 435
bus 435
ison 435
ode 435
69@@ 434
Junior 434
Mit@@ 434
She@@ 434
UR@@ 434
Vit@@ 434
Wo@@ 434
her 434
ώργ@@ 434
1760 433
205 433
GNU 433
Gir@@ 433
Mos@@ 433
TH@@ 433
esis 433
iP@@ 433
mit@@ 433
ː@@ 433
4000 432
Liv@@ 432
cin@@ 432
1603 431
167 431
29.@@ 431
Angeles 431
aus 431
ð@@ 431
1492 430
1669 430
II@@ 430
Service 430
ding 430
height 430
oll@@ 430
thumb 430
½ 430
131 429
1560 429
53@@ 429
Dur@@ 429
Head 429
ech 429
m3 429
sin@@ 429
ub@@ 429
uy@@ 429
vir@@ 429
Astr@@ 428
HF 428
Henri 428
enberg 428
ΐ 428
Elec@@ 427
aka 427
dan 427
οδυτικά 427
ἶ@@ 427
185 426
440 426
Athens 426
Beatles 426
Doctor 426
147 425
Come 425
Let@@ 425
ON@@ 425
Sac@@ 425
Voice 425
our@@ 425
ιστόρ@@ 425
166 424
Aur@@ 424
Dan@@ 424
Women 424
odi@@ 424
vers 424
υζαντιν@@ 424
26,@@ 423
64@@ 423
IUCN 423
Jr 423
Pen@@ 423
bor@@ 423
ks@@ 423
François 422
Oli@@ 422
Open@@ 422
ail 422
amp@@ 422
non 422
por@@ 422
εναντί@@ 422
EN@@ 421
Lost 421
M. 421
Pau@@ 421
Under 421
agon 421
amm@@ 421
dic@@ 421
urs 421
ère 421
ΐου 421
Πάπ@@ 421
27.@@ 420
Dragon 420
Hom@@ 420
May@@ 420
Premier 420
V8 420
alia 420
itude 420
133 419
1740 419
Fu@@ 419
Grande 419
Kan@@ 419
Liga 419
cul@@ 419
ety 419
station 419
win 419
Bil@@ 418
CR@@ 418
Fire@@ 418
Joe 418
MR 418
Sor@@ 418
ῇ 418
1764 417
198@@ 417
59@@ 417
bal@@ 417
ega 417
og 417
τζάν 417
1250 416
99@@ 416
Arti@@ 416
Brothers 416
Cour@@ 416
Ham@@ 416
ā 416
23,@@ 415
F.@@ 415
Gol@@ 415
ML 415
Never 415
Not@@ 415
USB 415
Wrest@@ 415
ally 415
Ker@@ 414
Lam@@ 414
Wild 414
ace@@ 414
cio 414
ods 414
Tim@@ 413
cho 413
ema 413
ă 413
παρελ@@ 413
138 412
950 412
Central 412
Econom@@ 412
Ernst 412
Gaz@@ 412
Porsche 412
den@@ 412
tig@@ 412
wi@@ 412
year 412
God@@ 411
Over 411
eum 411
tions 411
119 410
2,8 410
Rainbow 410
Rap@@ 410
Town 410
560 409
Ay@@ 409
Cop@@ 409
Cou@@ 409
Hum@@ 409
Magic 409
bel@@ 409
dei 409
onia 409
ow 409
yc@@ 409
137 408
1720 408
323 408
Hur@@ 408
Public 408
ava 408
dom@@ 408
Child 407
Kur@@ 407
Med@@ 407
Pop@@ 407
Sin@@ 407
elo@@ 407
enne 407
ե@@ 407
Kat@@ 406
Mul@@ 406
anime 406
gar@@ 406
lem@@ 406
nh@@ 406
ωμα@@ 406
134 405
Hon@@ 405
Mé@@ 405
Summer 405
Zep@@ 405
Τζέιμ@@ 405
235 404
Dam@@ 404
Rh@@ 404
bur@@ 404
ucci 404
í 404
αποσ@@ 404
1526 403
AG@@ 403
GT@@ 403
Rel@@ 403
Sea 403
1590 402
37.@@ 402
Brit@@ 402
ME 402
Vari@@ 402
ć 402
2,1 401
Ball@@ 401
Bay@@ 401
Rose 401
gre@@ 401
Μέχ@@ 401
όσφαιρο 401
148 400
1714 400
1730 400
Atlantic 400
aga 400
eter 400
ingen 400
Αιτ@@ 400
144 399
365 399
540 399
Francesco 399
Hav@@ 399
Kit@@ 399
P.@@ 399
Scar@@ 399
cer@@ 399
ime 399
sur@@ 399
1667 398
1779 398
3,2 398
att@@ 398
jpg 398
offs 398
old 398
pers 398
ror 398
ë 398
ón 398
1762 397
Tam@@ 397
ισορ@@ 397
1598 396
1699 396
1771 396
Cab@@ 396
Europa 396
Simon 396
dier 396
ede@@ 396
hop 396
án 396
1685 395
30.@@ 395
Am 395
Blu@@ 395
Game@@ 395
Harris 395
Will 395
lam@@ 395
web@@ 395
1536 394
215 394
BM@@ 394
DL 394
NCAA 394
Plant 394
Ray 394
eth@@ 394
ides 394
layer 394
yl 394
193 393
Fantasy 393
Good@@ 393
ader 393
ads 393
boy 393
ware 393
192 392
2,7 392
Bern@@ 392
Bou@@ 392
Review 392
Son@@ 392
Wa@@ 392
aki 392
iro 392
Δημήτρι@@ 392
1- 391
1680 391
Ari@@ 391
Eth@@ 391
Gil@@ 391
He 391
Mania 391
NT 391
Not 391
uz@@ 391
όπο 391
1627 390
1632 390
Dow@@ 390
End 390
Under@@ 390
acc@@ 390
ades 390
anda 390
ights 390
αυτοκρα@@ 390
Alfred 389
Associ@@ 389
Douglas 389
When 389
cat@@ 389
olog@@ 389
DI 388
ROM 388
Sn@@ 388
log@@ 388
1,9 387
1625 387
Design 387
Nic@@ 387
Pur@@ 387
hr@@ 387
zz@@ 387
SH@@ 386
Soci@@ 386
Tit@@ 386
VC 386
cast 386
remix 386
Θεσσαλον@@ 386
† 386
1718 385
1773 385
Au@@ 385
mus 385
oria 385
ury 385
Again 384
Cul@@ 384
Mic@@ 384
Pop 384
Radi@@ 384
Victor 384
esta 384
Καρι@@ 384
1572 383
1642 383
Aut@@ 383
Butler 383
Heavy 383
Lim@@ 383
Od@@ 383
Soul 383
ku@@ 383
omo 383
til@@ 383
ux 383
ɪ@@ 383
ἡ@@ 383
1350 382
1559 382
Bau@@ 382
HC 382
José 382
L.@@ 382
Sex 382
aire 382
ce@@ 382
eca 382
ron 382
ship 382
222 381
AZ 381
HO@@ 381
Lib@@ 381
Satur@@ 381
Wolf 381
stream 381
ś@@ 381
θανε 381
1765 380
Eng@@ 380
Forbes 380
Girls 380
Net@@ 380
Prim@@ 380
Romeo 380
Roy@@ 380
Standard 380
asi@@ 380
ger@@ 380
kar@@ 380
193@@ 379
39.@@ 379
Mand@@ 379
ag 379
gl@@ 379
los 379
mix@@ 379
zy@@ 379
ն@@ 379
212 378
256 378
Children 378
Francisco 378
Peter@@ 378
Tan@@ 378
Web@@ 378
How 377
Ing@@ 377
Place 377
Point 377
Tran@@ 377
Wel@@ 377
ays 377
ellen@@ 377
sus 377
ασφάλι@@ 377
Dic@@ 376
Stars 376
Three 376
bre@@ 376
via 376
τουρν@@ 376
1604 375
AB 375
AX 375
Alice 375
Bot@@ 375
Development 375
Human 375
Movie 375
ald 375
bit@@ 375
latitu@@ 375
mu@@ 375
not 375
under@@ 375
ἑ@@ 375
395 374
lock 374
ão 374
84@@ 373
Autom@@ 373
BL 373
CP@@ 373
D.@@ 373
Hand@@ 373
Run@@ 373
Songs 373
avi@@ 373
px 373
auss 372
emann 372
ws 372
ὀ@@ 372
1661 371
63@@ 371
Ash@@ 371
Billy 371
MHz 371
if 371
1766 370
197@@ 370
ards 370
out@@ 370
164 369
3,6 369
Elizabeth 369
Library 369
So 369
arc@@ 369
enz@@ 369
lers 369
Ç@@ 369
εντελ@@ 369
и 369
् 369
156 368
Chris 368
Days 368
V. 368
hard@@ 368
ker@@ 368
ols 368
server 368
151 367
Alfa 367
Bow@@ 367
Chem@@ 367
Opera 367
Type 367
dis 367
gh@@ 367
tim@@ 367
εδρος 367
1605 366
305 366
74@@ 366
G.@@ 366
Guy 366
ais@@ 366
ders 366
ente 366
uli@@ 366
AV@@ 365
Anne 365
Chrys@@ 365
Juan 365
Lake 365
Tul@@ 365
Water 365
act@@ 365
edi@@ 365
oli 365
0,2 364
640 364
Act 364
Lil 364
USS 364
red 364
Bru@@ 363
Mich@@ 363
On@@ 363
SM@@ 363
Sig@@ 363
Some@@ 363
low@@ 363
worth 363
ʲ@@ 363
≤ 363
1655 362
Bull 362
DS@@ 362
IO@@ 362
Ian 362
Lem@@ 362
guest 362
ste@@ 362
141 361
1638 361
1767 361
321 361
530 361
79@@ 361
CV 361
Empire 361
H2O 361
Java 361
anna 361
da@@ 361
gi 361
ild 361
ual 361
1515 360
36.@@ 360
410 360
Eg@@ 360
Fun@@ 360
Mass@@ 360
Ori@@ 360
ality 360
bas@@ 360
cy@@ 360
ons@@ 360
pan@@ 360
136 359
152 359
154 359
158 359
163 359
1707 359
999 359
Ret@@ 359
Weekly 359
je@@ 359
ther@@ 359
water 359
н@@ 359
Bet@@ 358
Federation 358
bi 358
rem@@ 358
202 357
3- 357
88@@ 357
Centre 357
Mik@@ 357
SI@@ 357
Sau@@ 357
Special 357
body 357
kl@@ 357
own 357
1635 356
1675 356
169 356
1701 356
Airways 356
Concer@@ 356
Nik@@ 356
cop@@ 356
Τζορ@@ 356
οπον@@ 356
747 355
77@@ 355
Airbus 355
Animation 355
Challenge 355
Pu@@ 355
Sanc@@ 355
Soccer 355
Wood@@ 355
bro@@ 355
fur@@ 355
sson 355
ston 355
vor 355
χας 355
1651 354
1757 354
38.@@ 354
85@@ 354
Jer@@ 354
ST 354
Serie 354
Symphony 354
TNA 354
alt@@ 354
ches 354
ი@@ 354
142 353
Hed@@ 353
Law@@ 353
WA 353
ev 353
section 353
taine 353
μπουμ 353
211 352
ATP 352
Emmy 352
Hab@@ 352
heim 352
nm 352
ories 352
ī 352
C1 351
F1 351
Mike 351
Otto 351
RAM 351
Via 351
Wilson 351
ix 351
mus@@ 351
sw@@ 351
ume 351
1672 350
1745 350
EF 350
From 350
T.@@ 350
aun@@ 350
eau 350
ishi 350
mes 350
uri 350
τμή@@ 350
,@@ 349
1665 349
978 349
Dro@@ 349
Plus 349
Sweet 349
Town@@ 349
eson 349
für 349
pal@@ 349
ward 349
0,3 348
1547 348
1568 348
1621 348
Choice 348
Stephen 348
Tak@@ 348
Technology 348
ating 348
mail 348
off@@ 348
ren@@ 348
1525 347
Ant@@ 347
Away 347
Om@@ 347
vin@@ 347
ἱ@@ 347
1596 346
1609 346
1649 346
1659 346
1697 346
290 346
Gall@@ 346
ICA@@ 346
Mountain 346
Ther@@ 346
Us 346
anz@@ 346
mal@@ 346
1569 345
1612 345
720 345
Cav@@ 345
Johnny 345
Kin@@ 345
arium 345
e.org 345
ech@@ 345
fa@@ 345
k.@@ 345
а 345
161 344
197 344
Andrew 344
Ball 344
Bla@@ 344
California 344
HP 344
Money 344
Sou@@ 344
Tony 344
azzo 344
illy 344
mart 344
1713 343
Friends 343
Ward 343
ony 343
pard 343
that 343
Ö@@ 343
ú@@ 343
1684 342
38,@@ 342
Captain 342
Chron@@ 342
Kam@@ 342
icon 342
ip@@ 342
men@@ 342
night 342
was 342
Ξ 342
ἱ 342
1616 341
162 341
206 341
But@@ 341
Jacob 341
Nat@@ 341
SB 341
Spider 341
arum 341
ough 341
pp 341
1644 340
1645 340
610 340
Lab@@ 340
Luftwaffe 340
Rad@@ 340
W.@@ 340
agn@@ 340
los@@ 340
és 340
0,6 339
1711 339
Management 339
Miller 339
PN@@ 339
Seven 339
iti 339
ves 339
208 338
CT 338
EMI 338
GR@@ 338
Hell@@ 338
Magn@@ 338
af 338
ham@@ 338
org@@ 338
After 337
Hat@@ 337
Sec@@ 337
Secret 337
ario 337
awa 337
ques 337
uto 337
1654 336
1735 336
186 336
490 336
Aqu@@ 336
Computer 336
Vog@@ 336
Walk 336
Years 336
ection 336
tom 336
tz 336
Č@@ 336
ακολου@@ 336
″ 336
1585 335
1595 335
1666 335
390 335
451 335
Camp@@ 335
EF@@ 335
Hard@@ 335
Limited 335
OR 335
Over@@ 335
Say 335
Sem@@ 335
Sen@@ 335
Stor@@ 335
Sup@@ 335
iga 335
vel@@ 335
world 335
143 334
1519 334
CL@@ 334
Jan@@ 334
Lis@@ 334
ache 334
ty@@ 334
wo@@ 334
él@@ 334
Καλι@@ 334
εκόρ 334
τρεύτηκε 334
1623 333
195 333
36,@@ 333
Board 333
DF@@ 333
Ober@@ 333
Rum@@ 333
Thi@@ 333
ules 333
ն 333
1611 332
1626 332
1628 332
1755 332
238 332
375 332
Adam 332
Diamond 332
Miss 332
PL@@ 332
ami@@ 332
bar 332
char@@ 332
gen 332
land@@ 332
yer 332
Φλωρ@@ 332
1606 331
1687 331
324 331
520 331
CAF 331
Rod@@ 331
SL@@ 331
ages 331
aud 331
ost 331
tia 331
Ό 331
August 330
Bus@@ 330
Gas@@ 330
Hend@@ 330
Mod@@ 330
SAR@@ 330
Sher@@ 330
Ton@@ 330
ein 330
ota 330
res 330
σύζυγ@@ 330
1.5 329
1710 329
Arc@@ 329
Country 329
Cros@@ 329
LG@@ 329
Pul@@ 329
Sle@@ 329
aming 329
don@@ 329
ego 329
ives 329
stre@@ 329
176 328
275 328
Hi@@ 328
Pix@@ 328
Sto@@ 328
Stre@@ 328
ady 328
alm@@ 328
ando 328
fin@@ 328
mac@@ 328
1555 327
1759 327
218 327
35,@@ 327
CS 327
Chap@@ 327
Deb@@ 327
Fle@@ 327
IG@@ 327
hy@@ 327
icum 327
ores 327
Cambridge 326
DV@@ 326
Direc@@ 326
Got 326
H. 326
Luci@@ 326
NP 326
Var@@ 326
erry 326
nia 326
sz@@ 326
1622 325
1716 325
630 325
Et@@ 325
Take 325
Tour@@ 325
anti 325
404 324
Jon 324
ault 324
mont 324
ę@@ 324
Anton@@ 323
Bell@@ 323
Collection 323
EN 323
Five 323
Francis 323
Franz 323
Kom@@ 323
LM 323
Memorial 323
Modern 323
Siemens 323
Square 323
bank 323
ebr@@ 323
san@@ 323
ses 323
153 322
1624 322
1754 322
179 322
Arm@@ 322
Fe 322
Gri@@ 322
Law 322
Michel 322
ae@@ 322
ago 322
ann 322
bus@@ 322
com 322
ih@@ 322
m2 322
zy 322
š 322
1601 321
1643 321
2023 321
Cloud 321
MIT 321
Racing 321
lum 321
pus 321
uch@@ 321
yo 321
139 320
1615 320
BSD 320
Bud@@ 320
Edition 320
Maj@@ 320
Motor 320
lois 320
oz@@ 320
159 319
1634 319
1742 319
183 319
470 319
680 319
Age 319
Anthony 319
Boy@@ 319
Lou@@ 319
There 319
aha 319
class 319
inf@@ 319
olo 319
super@@ 319
Ή 319
ομάδ@@ 319
1517 318
1565 318
204 318
ER 318
Fab@@ 318
IA@@ 318
Ice 318
Nature 318
Pot@@ 318
TC 318
bach 318
ids 318
nu@@ 318
tel 318
ular 318
yd@@ 318
А@@ 318
171 317
Church 317
Pil@@ 317
Reichs@@ 317
Ric@@ 317
aise 317
arts 317
black 317
ւ@@ 317
1633 316
1721 316
1723 316
20th 316
216 316
232 316
312 316
Action 316
Album 316
ID 316
IL 316
bury 316
din 316
master 316
spin 316
ηχαν@@ 316
1592 315
1709 315
Hermann 315
Vol 315
azi@@ 315
book 315
lio 315
zen 315
ē@@ 315
1629 314
1717 314
1761 314
189 314
App@@ 314
Fas@@ 314
GmbH 314
Greatest 314
SV@@ 314
T. 314
iTunes 314
ido 314
kins 314
loc@@ 314
och@@ 314
trans@@ 314
ασκευ@@ 314
αφος 314
Ἑ@@ 314
172 313
1741 313
Clar@@ 313
EC 313
NS 313
Pay@@ 313
Poly@@ 313
Storm 313
can 313
eur 313
wer@@ 313
zu 313
196 312
Lang@@ 312
NT@@ 312
Rot@@ 312
arch@@ 312
aris 312
cha 312
gs 312
imo 312
iy@@ 312
vs 312
157 311
33.@@ 311
Den@@ 311
Dream@@ 311
Harry 311
Kol@@ 311
Lac@@ 311
Moore 311
Smo@@ 311
eu 311
occ@@ 311
pin@@ 311
tem@@ 311
е 311
221 310
301 310
ATA 310
Ful@@ 310
Ky@@ 310
Lit@@ 310
North@@ 310
Side 310
acy 310
iss 310
row@@ 310
ï@@ 310
Έγ@@ 310
0,4 309
188 309
335 309
Chan@@ 309
Metro 309
PL 309
ju@@ 309
ès 309
Ξεκίν@@ 309
πρόσφυγ@@ 309
1656 308
1658 308
Cast@@ 308
Gold 308
MW 308
Nacional 308
OR@@ 308
Pit@@ 308
Pos@@ 308
ango 308
arius 308
bs 308
elec@@ 308
hom@@ 308
tre 308
1703 307
1704 307
203 307
Alliance 307
Circle 307
Hoffmann 307
IL@@ 307
Japan 307
Next 307
Oxford 307
PT@@ 307
Pra@@ 307
Sax@@ 307
etto 307
pm 307
sions 307
tal 307
209 306
CF@@ 306
DR 306
Edge 306
SN 306
Sus@@ 306
Syn@@ 306
Ultimate 306
Valley 306
eder@@ 306
studio 306
Πέτ@@ 306
1708 305
1748 305
2.5 305
355 305
580 305
EP@@ 305
Films 305
Italia 305
Run 305
not@@ 305
1619 304
178 304
303 304
510 304
BD 304
Council 304
NCA@@ 304
Rus@@ 304
Terr@@ 304
aster 304
ident 304
sum@@ 304
ка 304
199 303
@ 303
Carlo 303
Forum 303
Ku@@ 303
Long@@ 303
anger@@ 303
bits 303
ef 303
ever 303
oro 303
pa@@ 303
1597 302
1751 302
33,@@ 302
35.@@ 302
Alan 302
Anim@@ 302
Cle@@ 302
Here 302
eld 302
trix 302
Μάικ@@ 302
αδελ@@ 302
.org 301
1653 301
48,@@ 301
95@@ 301
ES 301
Mill@@ 301
N.@@ 301
Steel 301
cel@@ 301
fac@@ 301
tice 301
unk@@ 301
ῃ 301
1631 300
1652 300
1753 300
337 300
570 300
Car 300
MG 300
Nova 300
cy 300
duc@@ 300
html 300
position 300
εξουαλ@@ 300
ская 300
149 299
177 299
39,@@ 299
AE 299
Control 299
Dog@@ 299
Jud@@ 299
Kiss 299
PD 299
Part 299
Software 299
archiv@@ 299
ml 299
new 299
1736 298
Dou@@ 298
H.@@ 298
HT@@ 298
Sing@@ 298
animation 298
ather 298
dec@@ 298
eer 298
ink 298
τεσσ@@ 298
ի@@ 298
Carlos 297
Hul@@ 297
Ple@@ 297
dell 297
eu@@ 297
gia 297
quot 297
вич 297
0,8 296
1641 296
Anti@@ 296
Ass@@ 296
Canada 296
Cher@@ 296
Cross 296
DB 296
Din@@ 296
Eli@@ 296
Foc@@ 296
Green@@ 296
HA 296
Howard 296
Unic@@ 296
anum 296
ind 296
oy 296
ros@@ 296
tan 296
1607 295
198 295
2500 295
300@@ 295
Bour@@ 295
Dog 295
Virgin 295
bra 295
ube 295
1664 294
1737 294
1746 294
338 294
Auto 294
GS 294
istr@@ 294
list 294
project 294
ą@@ 294
1743 293
181 293
184 293
Beh@@ 293
Formula 293
Pun@@ 293
SR 293
ands 293
atic 293
führer 293
ges 293
iko 293
kers 293
nam@@ 293
ose 293
1637 292
192@@ 292
241 292
500@@ 292
English 292
Kre@@ 292
Mars 292
NR@@ 292
Whe@@ 292
Works 292
Yam@@ 292
azy 292
ett@@ 292
idi 292
itas 292
phone 292
ween 292
1662 291
187 291
AO 291
Ben 291
Civ@@ 291
IN 291
Samuel 291
Store 291
anga 291
eti 291
inum 291
Buc@@ 290
EM@@ 290
Maur@@ 290
Pier@@ 290
Spirit 290
agr@@ 290
ancia 290
cia 290
works 290
εκπαίδευ@@ 290
1725 289
89@@ 289
Eric 289
Ruby 289
Sophie 289
active 289
alb@@ 289
cape 289
very 289
.S. 288
911 288
CR 288
FL 288
Flash 288
Ki@@ 288
Lat@@ 288
Pel@@ 288
Wik@@ 288
Zero 288
Zi@@ 288
dale 288
esa 288
hal@@ 288
imi 288
ité 288
ond 288
1702 287
1752 287
244 287
Floyd 287
Rol@@ 287
Rush 287
sk 287
à@@ 287
ὁ@@ 287
1668 286
285 286
30,@@ 286
Christopher 286
Davis 286
Ele@@ 286
Fur@@ 286
Honda 286
Perf@@ 286
Scor@@ 286
kel 286
oke 286
1739 285
190@@ 285
242 285
245 285
HTML 285
IB@@ 285
Jim 285
anta 285
osh 285
sch 285
table 285
za@@ 285
1686 284
Fall 284
Got@@ 284
Kas@@ 284
Roger 284
Vis@@ 284
app@@ 284
lig@@ 284
mit 284
én@@ 284
207 283
219 283
251 283
322 283
AI 283
EA 283
Eas@@ 283
Haz@@ 283
PR 283
cre@@ 283
esti@@ 283
kom@@ 283
О@@ 283
Ἰ@@ 283
Christmas 282
Extr@@ 282
Kap@@ 282
Sat@@ 282
Tu 282
Vie@@ 282
ery 282
hol@@ 282
orth@@ 282
ries 282
self 282
ster@@ 282
uss@@ 282
yan@@ 282
έντο@@ 282
ακολ@@ 282
א@@ 282
1556 281
174 281
Power@@ 281
fol@@ 281
four 281
orio 281
poem 281
tical 281
ump@@ 281
urn 281
εκα 281
1676 280
1744 280
31.@@ 280
425 280
Beach 280
Conference 280
Der@@ 280
Garden 280
Lic@@ 280
Mind 280
SPD 280
Sierra 280
Wind 280
ames 280
eli 280
has@@ 280
oa 280
rom@@ 280
uth 280
vic@@ 280
й 280
ὡ@@ 280
1636 279
1749 279
184@@ 279
331 279
737 279
98@@ 279
Atlas 279
Brian 279
CT@@ 279
Grace 279
Kos@@ 279
Viol@@ 279
Vista 279
dom 279
fal@@ 279
ites 279
khe@@ 279
ά. 279
1535 278
1733 278
191 278
246 278
Flo@@ 278
Forever 278
Lincoln 278
Metacritic 278
States 278
Tas@@ 278
atum 278
opus 278
post 278
rell 278
tal@@ 278
ust@@ 278
315 277
Bang 277
Def@@ 277
Hir@@ 277
Imag@@ 277
Kids 277
Palace 277
SL 277
Sak@@ 277
Sant 277
Social 277
pres@@ 277
two 277
32.@@ 276
Af@@ 276
LED 276
Lon@@ 276
Mart@@ 276
UF@@ 276
ancing 276
idi@@ 276
ique 276
kol@@ 276
ome@@ 276
onic 276
test 276
ush 276
─ 276
.C. 275
1727 275
3.0 275
336 275
660 275
Cit@@ 275
Eul@@ 275
Kl@@ 275
Systems 275
Un 275
VO@@ 275
aves 275
dio 275
pen@@ 275
sons 275
279 274
313 274
333 274
Core 274
IV@@ 274
Jane 274
Order 274
Pav@@ 274
Slam 274
clip 274
1678 273
1719 273
1724 273
1726 273
1734 273
228 273
4- 273
49,@@ 273
Libr@@ 273
ature 273
bie 273
dor@@ 273
ein@@ 273
wen@@ 273
αποφάσι@@ 273
Bask@@ 272
Bra@@ 272
Comp@@ 272
Dest@@ 272
Rub@@ 272
wal@@ 272
wiki 272
yg@@ 272
ü@@ 272
281 271
334 271
34,@@ 271
37,@@ 271
415 271
Frederick 271
Ka@@ 271
Living 271
True 271
Yor@@ 271
aph@@ 271
bun@@ 271
dance 271
edia 271
fa 271
lip 271
1756 270
284 270
Data 270
How@@ 270
UL@@ 270
Wii 270
Ze@@ 270
rit@@ 270
ū 270
Angels 269
Ble@@ 269
Chev@@ 269
Coll@@ 269
County 269
Kaz@@ 269
Kingdom 269
LS 269
Planet 269
adi 269
begin 269
design 269
na@@ 269
rix 269
vi 269
τεο 269
0,000 268
311 268
Eyes 268
Historia 268
K.@@ 268
PP 268
Tab@@ 268
aries 268
bers 268
bis 268
group 268
ili 268
ort 268
pic 268
евич 268
რ@@ 268
1728 267
BR@@ 267
Capital 267
Clarke 267
Devil 267
HBO 267
Madonna 267
Nas@@ 267
O.@@ 267
Sciences 267
cal 267
mart@@ 267
poli 267
thi@@ 267
ἴ@@ 267
Berlin 266
Che@@ 266
Highway 266
Hot@@ 266
Johannes 266
KO 266
Key@@ 266
Name 266
Nick 266
Ring 266
Sir@@ 266
Techn@@ 266
Urban 266
cli@@ 266
dium 266
ici 266
lot 266
org 266
sh 266
1732 265
231 265
268 265
47,@@ 265
Das 265
Georges 265
Night@@ 265
Studies 265
car 265
kon@@ 265
lev@@ 265
wn 265
αυαρ@@ 265
253 264
265 264
405 264
A1 264
Alex 264
Bed@@ 264
CI 264
Mobile 264
Port 264
Ry@@ 264
Silver 264
Single 264
anne 264
fire 264
itz@@ 264
lands 264
law 264
ple@@ 264
polis 264
pul@@ 264
ying 264
κατεύ@@ 264
293 263
308 263
354 263
Bac@@ 263
Books 263
Boston 263
CW 263
Franc@@ 263
Health 263
Mess@@ 263
Valent@@ 263
Wright 263
ark@@ 263
power 263
υργκ 263
50,@@ 262
Dod@@ 262
Ferr@@ 262
Freedom 262
Ghost 262
Lind@@ 262
Nak@@ 262
aker 262
ères 262
έπρ@@ 262
ιδρ@@ 262
κτρ@@ 262
1.6 261
214 261
Aeg@@ 261
MO 261
Mam@@ 261
ational 261
ear@@ 261
eno 261
ide@@ 261
iens 261
urn@@ 261
vil@@ 261
239 260
255 260
About 260
Andrea 260
Blin@@ 260
Class@@ 260
Face 260
Max@@ 260
Mercury 260
Villa 260
come 260
esi 260
mond 260
nic@@ 260
Dame 259
Emer@@ 259
You@@ 259
fre@@ 259
nor@@ 259
solo 259
span 259
tier 259
Συνήθ@@ 259
ר@@ 259
ー@@ 259
1729 258
302 258
At 258
Bruce 258
Jay 258
Pet@@ 258
Voy@@ 258
atio 258
cep@@ 258
cis 258
itor 258
lad@@ 258
к 258
1738 257
32,@@ 257
Cha@@ 257
Giuseppe 257
Les@@ 257
aking 257
aut 257
ayer 257
eti@@ 257
inda 257
ous@@ 257
pes 257
progres@@ 257
stone 257
ties 257
under 257
ე@@ 257
261 256
Bad@@ 256
Domin@@ 256
Fair 256
Hun@@ 256
Lap@@ 256
Ross 256
isti@@ 256
ji@@ 256
life 256
1712 255
173 255
286 255
760 255
Classic 255
GP 255
Hus@@ 255
Independent 255
María 255
TR@@ 255
Ten 255
ashi 255
att 255
dig@@ 255
uld 255
venture 255
1747 254
182 254
272 254
283 254
Conn@@ 254
ET@@ 254
Log@@ 254
SmackDown 254
amar@@ 254
chen 254
cros@@ 254
dit 254
emp@@ 254
gers 254
ising 254
mb@@ 254
other 254
system 254
unc@@ 254
xi@@ 254
Ş@@ 254
յ@@ 254
1722 253
86@@ 253
Europ@@ 253
Hits 253
IT 253
Mayer 253
Micro@@ 253
Morris 253
Tat@@ 253
ects 253
iri 253
ku 253
try 253
Ελισ@@ 253
295 252
Crim@@ 252
Fon@@ 252
Fort@@ 252
Too 252
ho 252
onna 252
Ελλάδ@@ 252
262 251
304 251
Beat 251
Coc@@ 251
Ec@@ 251
Fem@@ 251
Monte 251
Pass@@ 251
Pom@@ 251
Roy 251
Sev@@ 251
any 251
asa 251
club 251
cs 251
ec 251
ece 251
log 251
orn 251
rd 251
yi 251
001 250
332 250
34.@@ 250
BW@@ 250
Born 250
CDU 250
CM@@ 250
Cant@@ 250
DOS 250
Encyclo@@ 250
Future 250
Hello 250
Mach@@ 250
RN 250
Tek@@ 250
Total 250
Um@@ 250
Wars 250
acle 250
ager 250
arti@@ 250
dex 250
igo 250
pat@@ 250
ures 250
ż@@ 250
πρεσ@@ 250
ви@@ 250
AK 249
AK@@ 249
Benjamin 249
Claude 249
Happy 249
Number 249
Peace 249
RN@@ 249
Stur@@ 249
Yah@@ 249
han 249
iva 249
jo@@ 249
min 249
yond 249
ò@@ 249
Legend 248
PN 248
See 248
Uri@@ 248
Wid@@ 248
aca 248
eni 248
les@@ 248
ographic 248
olls 248
var 248
ár@@ 248
1731 247
EST 247
Information 247
Kath@@ 247
Pyth@@ 247
Vul@@ 247
acks 247
eck@@ 247
nier 247
πρεμι@@ 247
1.2 246
213 246
226 246
326 246
Cass@@ 246
Crown 246
Education 246
Fut@@ 246
Gran@@ 246
Liberty 246
MiG 246
Rab@@ 246
illo 246
lan 246
lem 246
tion@@ 246
tory 246
в 246
ὕ@@ 246
243 245
356 245
Call 245
Dark@@ 245
Electronic 245
Gener@@ 245
Instagram 245
MB 245
Masters 245
Patrick 245
Publ@@ 245
Soc@@ 245
Village 245
Was@@ 245
alls 245
ective 245
ester 245
gal@@ 245
sem@@ 245
sig@@ 245
343 244
Naz@@ 244
Philip 244
Teleg@@ 244
Wan@@ 244
cell@@ 244
emb@@ 244
itar 244
ological 244
pri@@ 244
tera 244
tle 244
uk 244
в@@ 244
Antoine 243
Bridge 243
Fili@@ 243
Hughes 243
Iz@@ 243
Jagu@@ 243
Las@@ 243
Philosoph@@ 243
Pokémon 243
RCA 243
Trust 243
ground 243
oi 243
punk 243
sim@@ 243
tura 243
uta 243
var@@ 243
yan 243
AFC 242
Itali@@ 242
Jimmy 242
Mom@@ 242
Pad@@ 242
Som@@ 242
Stop 242
Turner 242
oyo 242
shire 242
ui 242
ი 242
1.1 241
386 241
620 241
DD 241
Delta 241
Motor@@ 241
Roman 241
SMS 241
Spr@@ 241
aeus 241
amo@@ 241
illing 241
isi 241
oir 241
watch 241
264 240
BB 240
Bran@@ 240
Chr@@ 240
Dy@@ 240
Eagle 240
French 240
GO 240
Julius 240
L. 240
Nicolas 240
Russell 240
Samsung 240
bin 240
ont 240
return 240
xe 240
är@@ 240
δεκαετ@@ 240
ва 240
с@@ 240
ὄ@@ 240
ὶ@@ 240
Bernard 239
Emin@@ 239
Kid 239
Lav@@ 239
Lex@@ 239
Louise 239
Port@@ 239
Sound@@ 239
UP 239
Vincent 239
apo@@ 239
dri@@ 239
enta 239
fo 239
kan@@ 239
pper 239
sm@@ 239
ton@@ 239
229 238
249 238
406 238
Allen 238
May 238
Pacific 238
Rein@@ 238
Sport@@ 238
XI 238
ces 238
deg@@ 238
get 238
iles 238
ott 238
tom@@ 238
া@@ 238
288 237
314 237
46,@@ 237
96@@ 237
97@@ 237
CNN 237
Grim@@ 237
High@@ 237
alen 237
into 237
mis@@ 237
scale 237
ues 237
Πελοπ@@ 237
1.0 236
309 236
Albums 236
B. 236
GO@@ 236
If 236
Kings 236
Our 236
Proc@@ 236
She 236
Texas 236
UT@@ 236
ails 236
anim@@ 236
bal 236
board 236
imb@@ 236
onder@@ 236
qua 236
rel@@ 236
tres 236
wer 236
ò 236
ɛ@@ 236
Ϊ@@ 236
3.5 235
Committee 235
Gordon 235
Guide 235
Pac@@ 235
Republic 235
Water@@ 235
Zo@@ 235
eine 235
ij@@ 235
inal 235
lon 235
mot@@ 235
ont@@ 235
ords 235
point 235
uck@@ 235
ń@@ 235
ργαν@@ 235
787 234
Adri@@ 234
Boh@@ 234
Explorer 234
Kevin 234
Lan@@ 234
Parad@@ 234
Psych@@ 234
Script 234
prim@@ 234
ré@@ 234
sec@@ 234
ulus 234
ye@@ 234
273 233
Gh@@ 233
IR@@ 233
Jav@@ 233
Ka 233
Pedro 233
Prom@@ 233
Tiger 233
XP 233
asse 233
etus 233
max 233
Ντέιβ@@ 233
316 232
Cent@@ 232
Gau@@ 232
Harvard 232
Las 232
Margaret 232
Olympic 232
aa 232
aks 232
bot 232
ency 232
eva 232
iki@@ 232
lar 232
sin 232
sit@@ 232
sor@@ 232
tari 232
value 232
к@@ 232
45,@@ 231
Adolf 231
Africa 231
Cinema 231
Flor@@ 231
Gul@@ 231
Know 231
Ner@@ 231
Online 231
SD@@ 231
Tokyo 231
Triple 231
osis 231
uf@@ 231
uli 231
194 230
252 230
345 230
André 230
Audi@@ 230
Aus@@ 230
Barr@@ 230
Bio@@ 230
Fir@@ 230
Geor@@ 230
Leb@@ 230
Oil 230
Today 230
ave@@ 230
ban@@ 230
ete 230
geh@@ 230
raph 230
room 230
vit@@ 230
õ@@ 230
267 229
Ach@@ 229
Alb@@ 229
Batman 229
Bug@@ 229
Cand@@ 229
Dal@@ 229
GE 229
KV@@ 229
LE 229
Make 229
Mother 229
Reich@@ 229
Ses@@ 229
Stand@@ 229
band 229
hit 229
illi@@ 229
inae 229
ling@@ 229
nom@@ 229
ord 229
site 229
som@@ 229
ów 229
248 228
282 228
299 228
CL 228
DM 228
Hann@@ 228
Hit@@ 228
Kauf@@ 228
Leon@@ 228
Ryan 228
Tommy 228
achi 228
ame@@ 228
code 228
ken@@ 228
pour 228
επαγγελ@@ 228
р 228
254 227
298 227
401 227
BE 227
BT@@ 227
Barbara 227
Bros. 227
Gaga 227
Mg@@ 227
Mi 227
Ni 227
Phys@@ 227
Spir@@ 227
ben@@ 227
bin@@ 227
blog@@ 227
ends 227
kin@@ 227
rier 227
án@@ 227
1705 226
Arg@@ 226
Broadway 226
By 226
Dawn 226
Enter@@ 226
Lot@@ 226
Manuel 226
Ot@@ 226
PF 226
SF 226
Ten@@ 226
dre@@ 226
ll 226
pas@@ 226
town 226
И@@ 226
6000 225
Bush 225
Kle@@ 225
President 225
Satell@@ 225
Universit@@ 225
Wiz@@ 225
acia 225
acker 225
aco 225
ague 225
asi 225
ason 225
bol@@ 225
ender 225
endi 225
ering 225
evi@@ 225
ities 225
kur@@ 225
ouv@@ 225
sters 225
έδια 225
247 224
Cli@@ 224
Infin@@ 224
Jazz 224
Kaw@@ 224
Papa 224
Quer@@ 224
SW@@ 224
Sunday 224
esh 224
ine@@ 224
like 224
mil@@ 224
put 224
sequ@@ 224
status 224
ulu 224
uni@@ 224
usa 224
ɾ@@ 224
л@@ 224
н 224
44,@@ 223
Community 223
DI@@ 223
Dave 223
Eye 223
Fi 223
Generation 223
Knight 223
Son 223
Sv@@ 223
bot@@ 223
esc@@ 223
ingo 223
my@@ 223
this 223
tum 223
257 222
258 222
287 222
317 222
Christ@@ 222
Christi@@ 222
Jar@@ 222
Justice 222
Mut@@ 222
Rand@@ 222
Rep@@ 222
SQL 222
Vas@@ 222
aqu@@ 222
comp@@ 222
fil@@ 222
nd@@ 222
nis 222
tering 222
wa@@ 222
ía 222
ław 222
δαβ@@ 222
--@@ 221
94@@ 221
Bar 221
CM 221
Court 221
Donald 221
FF@@ 221
Gustav 221
Hey@@ 221
Institut 221
Shin@@ 221
View 221
Youth 221
cat 221
emy 221
pedia 221
que@@ 221
è 221
289 220
Cat 220
Fort 220
Hof@@ 220
Link 220
S. 220
Vision 220
aine 220
cho@@ 220
sap@@ 220
ven 220
Ali 219
Another 219
Dé@@ 219
England 219
Flying 219
Hein@@ 219
ID@@ 219
Mathemati@@ 219
Nord@@ 219
Oper@@ 219
PE 219
Pan 219
Speed 219
Sultan 219
Train 219
UI 219
ben 219
enni@@ 219
ental 219
esh@@ 219
ision 219
lif@@ 219
mos 219
oug@@ 219
tre@@ 219
unds 219
ín 219
В@@ 219
294 218
Boul@@ 218
Gallery 218
Inc. 218
Jour@@ 218
Kel@@ 218
Ny@@ 218
Pietro 218
ca@@ 218
cent@@ 218
dh@@ 218
gel@@ 218
tra@@ 218
zer 218
ù 218
ş@@ 218
ωματού@@ 218
о 218
API 217
Beautiful 217
Flam@@ 217
GPS 217
Neu@@ 217
SK 217
Seg@@ 217
Through 217
Trou@@ 217
aye 217
beat 217
feld 217
fu@@ 217
gro@@ 217
ned 217
tha 217
vis 217
1.3 216
Army 216
Baker 216
Bundes@@ 216
Meth@@ 216
Mode 216
Nord 216
Tin@@ 216
U.@@ 216
Vamp@@ 216
Western 216
bat 216
err@@ 216
ion@@ 216
oud 216
vie 216
ü 216
я 216
ლ@@ 216
A2 215
Anderson 215
Castle 215
Factory 215
Gabriel 215
Lau@@ 215
Lloyd 215
Sant@@ 215
Spec@@ 215
Stand 215
Ster@@ 215
egr@@ 215
eria 215
league 215
pic@@ 215
rie 215
ry@@ 215
sort 215
tam@@ 215
ule 215
öl@@ 215
όρερ 215
1. 214
237 214
Cec@@ 214
Kelly 214
Rain 214
Scienti@@ 214
Southern 214
Sr@@ 214
Up@@ 214
agon@@ 214
alism 214
aro@@ 214
chia 214
elia 214
tin@@ 214
top@@ 214
ə 214
и@@ 214
ב@@ 214
By@@ 213
Charlotte 213
Cooper 213
Di 213
Free@@ 213
Lane 213
Luigi 213
Medical 213
Murray 213
Only 213
Performance 213
Phil@@ 213
Second 213
Tol@@ 213
Vor@@ 213
any@@ 213
asc@@ 213
best 213
elo 213
fort 213
hall 213
kill 213
rot@@ 213
ουστο 213
П@@ 213
ἦ@@ 213
Bit@@ 212
Evans 212
IF 212
Nations 212
Wr@@ 212
XX 212
aer@@ 212
ate@@ 212
auer 212
icle 212
imal 212
oker 212
ps@@ 212
ric@@ 212
word 212
όπωρο 212
מ@@ 212
259 211
Austin 211
Byr@@ 211
Cham@@ 211
Charlie 211
Hamilton 211
Luis 211
Marc 211
Operation 211
SP 211
Sarah 211
Steven 211
Te 211
Touch 211
elis 211
form@@ 211
marine 211
mun@@ 211
par 211
tube 211
uh@@ 211
uz 211
version 211
∈ 211
233 210
236 210
49.@@ 210
Dav@@ 210
Nag@@ 210
O. 210
Phoenix 210
Pod@@ 210
Prize 210
Still 210
Tales 210
ahn 210
aurus 210
aux@@ 210
down@@ 210
ilk 210
iny 210
ox 210
ski@@ 210
uls 210
м@@ 210
512 209
Belle 209
Fischer 209
Graham 209
Kun@@ 209
Morning 209
Vill@@ 209
adem@@ 209
aft 209
ater 209
p.@@ 209
sy 209
tionary 209
view 209
war 209
where 209
227 208
276 208
297 208
Ax@@ 208
Bak@@ 208
Cryp@@ 208
Eff@@ 208
Hospital 208
Hunter 208
Maxim@@ 208
Player 208
Rich@@ 208
atti 208
home 208
ionale 208
rati@@ 208
umb@@ 208
urus 208
yo@@ 208
ě@@ 208
Bag@@ 207
Chili 207
Galaxy 207
Jur@@ 207
Mail 207
Net 207
Right 207
Stan@@ 207
Sug@@ 207
Xi@@ 207
aul@@ 207
ectus 207
ney@@ 207
ogr@@ 207
opo@@ 207
pole 207
Ριχ@@ 207
Ф@@ 207
т@@ 207
Bachelor 206
I. 206
Kennedy 206
Ras@@ 206
Writ@@ 206
abe 206
alis@@ 206
gan@@ 206
isches 206
lard 206
mtDNA 206
omi 206
pi 206
pon@@ 206
pot 206
éri@@ 206
ко 206
Asia 205
Christ 205
Full 205
G. 205
Laura 205
NAT@@ 205
Spar@@ 205
Trib@@ 205
U.S. 205
but@@ 205
kw@@ 205
mol@@ 205
ras@@ 205
tz@@ 205
î@@ 205
278 204
Discovery 204
Equ@@ 204
Kim 204
Marcus 204
Philippe 204
Re 204
Testament 204
Wer@@ 204
bri@@ 204
control 204
ices 204
ichi 204
jet 204
ls 204
mark 204
oon 204
ops 204
Ά 204
επανά@@ 204
BR 203
Bibli@@ 203
Casa 203
Clu@@ 203
Coun@@ 203
FL@@ 203
Fron@@ 203
Gard@@ 203
Saturday 203
Swe@@ 203
V.@@ 203
asso 203
berry 203
ner@@ 203
oper@@ 203
pra@@ 203
public 203
περιοχ@@ 203
Г@@ 203
Double 202
Fantas@@ 202
Hills 202
Holy 202
LD 202
Manager 202
Maurice 202
NY@@ 202
Stage 202
Wayne 202
ank 202
away 202
enger 202
esse 202
ischer 202
xon 202
ț@@ 202
ιδέ@@ 202
ш@@ 202
∞ 202
318 201
Apo@@ 201
Beg@@ 201
DR@@ 201
Mission 201
Original 201
Parti@@ 201
Riv@@ 201
Sym@@ 201
bil@@ 201
dat@@ 201
elius 201
fast 201
fi 201
fic 201
ige 201
lies 201
rain 201
wald 201
К@@ 201
ה@@ 201
185@@ 200
2030 200
48.@@ 200
Batt@@ 200
Bird 200
Drag@@ 200
Engineering 200
Faith 200
Nation 200
Rudolf 200
aton 200
estruc@@ 200
film 200
izer 200
lier 200
ment@@ 200
tho@@ 200
у 200
AV 199
Advanced 199
Centr@@ 199
Da 199
Gli@@ 199
Hop 199
Marco 199
Psy@@ 199
Roma 199
Walker 199
Watch 199
ainst 199
dol@@ 199
eling 199
eps 199
eron 199
ial 199
main 199
ments 199
unt 199
your 199
ān 199
γλώσ@@ 199
大@@ 199
Att@@ 198
Aviation 198
Fred@@ 198
GI 198
His 198
Jum@@ 198
Math@@ 198
Princess 198
Rio 198
Robin 198
Ré@@ 198
Sep@@ 198
Sul@@ 198
Waffen 198
aj 198
aç@@ 198
dou@@ 198
ells 198
gam@@ 198
ists 198
len 198
mak@@ 198
mare 198
neg@@ 198
olo@@ 198
say 198
ths 198
wat@@ 198
ηγέ@@ 198
110@@ 197
Aff@@ 197
Ann 197
Ca 197
Ces@@ 197
Has@@ 197
Iv@@ 197
Laborat@@ 197
Mini 197
Syl@@ 197
sam@@ 197
wor@@ 197
234 196
Ast@@ 196
BAS@@ 196
Cot@@ 196
FK 196
German@@ 196
Herbert 196
Hugo 196
Mun@@ 196
Where 196
arm@@ 196
aru 196
ead 196
ig 196
kal@@ 196
mph 196
now@@ 196
number 196
space 196
uke 196
yst@@ 196
381 195
Far 195
Financial 195
Hod@@ 195
Mau@@ 195
NXT 195
Phot@@ 195
Sas@@ 195
Sieg@@ 195
blog 195
death 195
dings 195
dol 195
edo 195
eon 195
eper 195
street 195
παθεί 195
263 194
269 194
China 194
Ear@@ 194
Juli@@ 194
Pf@@ 194
Rid@@ 194
Sam 194
Stanley 194
Style 194
Volks@@ 194
alus 194
anos 194
dem 194
ect@@ 194
kan 194
las@@ 194
lip@@ 194
okie 194
onal 194
sburg 194
vet 194
М@@ 194
Agency 193
CG 193
Ferdinand 193
Franç@@ 193
Julia 193
Oh 193
Plan 193
SB@@ 193
Sign@@ 193
Société 193
Squ@@ 193
UR 193
dans 193
load 193
owski 193
schne@@ 193
sing 193
sts 193
trum 193
ê@@ 193
παιχν@@ 193
χρι 193
ἁ@@ 193
40,@@ 192
AO@@ 192
Angel@@ 192
Dan 192
Ga 192
Invest@@ 192
Morgan 192
Virginia 192
WCW 192
Yel@@ 192
atis 192
enburg 192
flu@@ 192
hor@@ 192
idge 192
igh 192
ires 192
nu 192
onne 192
qui 192
sche 192
tional 192
ça 192
Βασιλι@@ 192
ы@@ 192
Andr@@ 191
Bj@@ 191
Cri@@ 191
Doc@@ 191
Energy 191
Hammer 191
IGN 191
Myster@@ 191
Neg@@ 191
Room 191
Rou@@ 191
SR@@ 191
Sti@@ 191
Telec@@ 191
Vent@@ 191
adr@@ 191
amo 191
ators 191
dea 191
enia 191
esti 191
hab@@ 191
hel@@ 191
imler 191
lav 191
mp@@ 191
opp@@ 191
struc@@ 191
ventures 191
ö 191
Elisabeth 190
Felix 190
Gray 190
Guillaume 190
Leon 190
Ou@@ 190
Raymond 190
Revol@@ 190
Rhy@@ 190
SF@@ 190
burn 190
dam@@ 190
host@@ 190
iger 190
leri 190
ru 190
rup@@ 190
sta 190
tex 190
val 190
ways 190
≥ 190
45.@@ 189
Adv@@ 189
Gö@@ 189
Other 189
Scr@@ 189
Wikipedia 189
asaki 189
coin 189
din@@ 189
este 189
his 189
plan 189
tern@@ 189
tiv@@ 189
uno 189
ything 189
У@@ 189
2. 188
296 188
Commun@@ 188
Con 188
HD@@ 188
Indi@@ 188
Jessica 188
Kad@@ 188
Lep@@ 188
Marcel 188
Mount 188
Pa 188
Services 188
Talk 188
ils 188
kel@@ 188
legi@@ 188
tois 188
Ὀ@@ 188
ῖ 188
Amazon 187
Bun@@ 187
CON@@ 187
DA@@ 187
Exper@@ 187
Get@@ 187
Gior@@ 187
Golf 187
Hero 187
Imperial 187
Internationale 187
Joan 187
King@@ 187
Ma 187
Nam@@ 187
Num@@ 187
Record 187
Thor@@ 187
Universe 187
aut@@ 187
bian 187
onal@@ 187
tab@@ 187
vul@@ 187
αδήποτε 187
τολε@@ 187
տ@@ 187
274 186
46.@@ 186
Cay@@ 186
Cola 186
Globe 186
Index 186
Kurt 186
Lag@@ 186
Main@@ 186
March 186
Mn@@ 186
Musical 186
Phili@@ 186
Princip@@ 186
Sci@@ 186
ado@@ 186
aug@@ 186
eland 186
fic@@ 186
isch 186
ix@@ 186
ute 186
ţ@@ 186
ș@@ 186
όκκιν@@ 186
ל@@ 186
319 185
4.0 185
Aircraft 185
Catherine 185
Clo@@ 185
Collins 185
Einsatz@@ 185
Ey@@ 185
Gem@@ 185
Heroes 185
Latin 185
Lawrence 185
Lorenzo 185
MI 185
Nicol@@ 185
Orange 185
Station 185
Viv@@ 185
ener 185
esp@@ 185
ilia 185
iner 185
kes 185
othing 185
pedi@@ 185
ticus 185
van@@ 185
wick 185
д@@ 185
е@@ 185
ῶ 185
2.2 184
Bah@@ 184
Dais@@ 184
EX@@ 184
Grec@@ 184
Moh@@ 184
Nucle@@ 184
Post@@ 184
Shadow 184
VP 184
Winter 184
aba 184
auch@@ 184
aw 184
cos@@ 184
icz 184
ises 184
lit@@ 184
nam 184
rat 184
real 184
ric 184
tran@@ 184
― 184
BP 183
Before 183
Joh@@ 183
Josef 183
Language 183
Liter@@ 183
Marine 183
Multi@@ 183
Roll@@ 183
Spor@@ 183
Wes@@ 183
Willi@@ 183
ables 183
avo 183
bon@@ 183
equ@@ 183
form 183
haus 183
stadt 183
tique 183
Á@@ 183
ש@@ 183
1.4 182
African 182
Alle@@ 182
Augusta 182
Auguste 182
Enterprise 182
Fav@@ 182
Laz@@ 182
Leo 182
Norman 182
Revolution 182
Rho@@ 182
Theory 182
Yo@@ 182
festiv@@ 182
fly 182
gate 182
gy 182
mini 182
nos 182
ombe 182
ope 182
ἕ@@ 182
ᾳ 182
A4 181
Ah@@ 181
Alberto 181
Canadian 181
Democ@@ 181
Freder@@ 181
Hin@@ 181
Light@@ 181
NSDAP 181
UM 181
acid 181
agu@@ 181
alg@@ 181
dy@@ 181
fran@@ 181
gener@@ 181
ini@@ 181
micro@@ 181
ock@@ 181
porter 181
sel 181
stop 181
vers@@ 181
ř@@ 181
κατάκ@@ 181
„ 181
Back@@ 180
Brand@@ 180
COM 180
Cold 180
En 180
Nokia 180
Pist@@ 180
arte 180
bird 180
elles 180
game 180
ky@@ 180
ows 180
rik 180
ult 180
ú 180
Brid@@ 179
Capit@@ 179
Det@@ 179
Fernando 179
Gran 179
Maine 179
Mr@@ 179
Py@@ 179
Rit@@ 179
Soy@@ 179
Syst@@ 179
Tell 179
WWF 179
ander@@ 179
arch 179
aud@@ 179
bon 179
cle 179
dos 179
dus 179
ledge 179
medi@@ 179
mut@@ 179
rou@@ 179
tt@@ 179
188@@ 178
266 178
Amaz@@ 178
Archit@@ 178
Avenue 178
Baz@@ 178
Bog@@ 178
Dat@@ 178
Gel@@ 178
Gru@@ 178
Horiz@@ 178
It@@ 178
J. 178
Jet 178
Lo 178
Lé@@ 178
MT@@ 178
Major 178
Moder@@ 178
Obj@@ 178
Ocean 178
PO 178
Raf@@ 178
Sail@@ 178
eb 178
erie 178
eux 178
iz 178
net@@ 178
trol@@ 178
ş 178
Д@@ 178
ль@@ 178
Bec@@ 177
Capr@@ 177
Cath@@ 177
Duke 177
Esp@@ 177
Gab@@ 177
Hid@@ 177
Lanc@@ 177
PM 177
Phan@@ 177
Poc@@ 177
Race 177
Whitney 177
alt 177
bridge 177
entr@@ 177
ka@@ 177
wil@@ 177
ylon 177
ć@@ 177
а@@ 177
п@@ 177
ნ@@ 177
Bruno 176
Fig@@ 176
Fra@@ 176
Jeff 176
Ki 176
Master@@ 176
Neill 176
Orig@@ 176
Six 176
X. 176
ht@@ 176
igu@@ 176
isco 176
ith@@ 176
ley@@ 176
spir@@ 176
unge 176
wh@@ 176
ì 176
Ž@@ 176
1.8 175
Ale@@ 175
Architecture 175
Astronom@@ 175
Aud@@ 175
Band@@ 175
Dum@@ 175
Emp@@ 175
Notre 175
Ok@@ 175
Su 175
Vinc@@ 175
Yan@@ 175
Zone 175
abri@@ 175
ancer 175
angers 175
concept 175
eil 175
ems 175
i.@@ 175
isher 175
let@@ 175
oft 175
oshi 175
pil@@ 175
rap@@ 175
xa 175
άνομ@@ 175
ს@@ 175
ン@@ 175
Canal 174
Commons 174
Elek@@ 174
Gloria 174
Hope 174
Ji@@ 174
Jordan 174
Late 174
Lotus 174
Nec@@ 174
René 174
XIII 174
elly 174
etz@@ 174
fen@@ 174
lus@@ 174
mar 174
oli@@ 174
ד@@ 174
271 173
Alber@@ 173
Aless@@ 173
Alter 173
Bonn@@ 173
Commission 173
Dim@@ 173
Fat@@ 173
Jam 173
Jonathan 173
Lad@@ 173
Liz@@ 173
Mann@@ 173
Monster 173
NET 173
R. 173
Sex@@ 173
Stra@@ 173
Tree 173
ares 173
arin 173
cc 173
ej@@ 173
enny 173
esi@@ 173
love 173
multi@@ 173
ondo 173
thing 173
ums 173
ution 173
wich 173
й@@ 173
187@@ 172
Agr@@ 172
Call@@ 172
Denis 172
Gate 172
Gle@@ 172
Lion 172
Miguel 172
NAS@@ 172
SO 172
Short 172
Strat@@ 172
acht 172
agan 172
ait 172
blues 172
but 172
cum 172
eds 172
iste 172
mel 172
nig@@ 172
osh@@ 172
player 172
ret 172
sis 172
vic 172
ô@@ 172
͵ 172
◊ 172
277 171
Avi@@ 171
Château 171
Fen@@ 171
Franklin 171
Illus@@ 171
Milli@@ 171
NATO 171
Ris@@ 171
Rud@@ 171
Sin 171
Vin@@ 171
amba 171
ation@@ 171
dé@@ 171
erg@@ 171
icia 171
lave 171
meg@@ 171
o.@@ 171
oe 171
onym@@ 171
osp@@ 171
poly@@ 171
ports 171
ring 171
see 171
state 171
stock 171
ør@@ 171
ı 171
Р@@ 171
291 170
Australian 170
Butter@@ 170
Coast 170
Flight 170
Gamb@@ 170
Industries 170
Moz@@ 170
Phil 170
Professional 170
Stadion 170
Tou@@ 170
aku 170
asis 170
iday 170
illon 170
ɣ@@ 170
Т@@ 170
у@@ 170
נ@@ 170
♦ 170
Bayer 169
F. 169
Fam@@ 169
Fritz 169
Lucas 169
Music@@ 169
ON 169
Sainte 169
aja 169
atri@@ 169
dev@@ 169
einer 169
fish 169
hood 169
ien 169
phy@@ 169
sac@@ 169
stand 169
sth@@ 169
uj@@ 169
Б@@ 169
ма@@ 169
і 169
189@@ 168
3. 168
Apollo 168
Australia 168
Bus 168
Dist@@ 168
FS 168
Fall@@ 168
KK 168
Kul@@ 168
amu 168
bac@@ 168
bloc@@ 168
itt 168
ket@@ 168
ologie 168
tron@@ 168
ud 168
47.@@ 167
ARC 167
Bé@@ 167
Carre@@ 167
Cla@@ 167
Grey 167
Hammer@@ 167
Leonard 167
List 167
Mar 167
Martin@@ 167
Oliver 167
Pis@@ 167
Progr@@ 167
Spi@@ 167
Teatro 167
Vik@@ 167
Vita 167
Zen@@ 167
abr@@ 167
anth@@ 167
atar 167
berger 167
crip@@ 167
icial 167
inson 167
mes@@ 167
oid 167
parti@@ 167
ple 167
quer@@ 167
syn@@ 167
vić 167
ński 167
καιρία 167
150@@ 166
Arnold 166
Field 166
Gon@@ 166
Main 166
Mine 166
Mov@@ 166
Publishing 166
Snow 166
Vera 166
Wood 166
een 166
fe 166
gn@@ 166
mode 166
ording 166
port@@ 166
sed 166
skie 166
vis@@ 166
ημέρω@@ 166
10000 165
3.1 165
Annie 165
Brig@@ 165
Coca 165
Duc@@ 165
Matthew 165
Price 165
Set 165
Steph@@ 165
andro 165
ball@@ 165
ching 165
cit@@ 165
def@@ 165
endi@@ 165
ening 165
eze 165
girl 165
jan 165
lov@@ 165
mani 165
ole@@ 165
pur@@ 165
ricane 165
sho@@ 165
ulo 165
upp@@ 165
ő@@ 165
Dru@@ 164
End@@ 164
Esc@@ 164
Food 164
Gut@@ 164
Hub@@ 164
Jason 164
Kind 164
Nev@@ 164
Nicholas 164
Non 164
Oscar 164
Ost@@ 164
PD@@ 164
Peg@@ 164
ación 164
alla 164
esia 164
link 164
nov@@ 164
κανε 164
7000 163
Brun@@ 163
Chor@@ 163
Citi@@ 163
Diana 163
Gos@@ 163
Gy@@ 163
India 163
Nelson 163
Stewart 163
cam@@ 163
elin 163
evo 163
flo@@ 163
ging 163
icul@@ 163
lion 163
toon 163
wan@@ 163
ñ@@ 163
130@@ 162
Alli@@ 162
Continental 162
EG 162
Estadio 162
Feder@@ 162
Nationale 162
Natural 162
Nig@@ 162
Note 162
TT@@ 162
Wed@@ 162
assi@@ 162
ban 162
bet@@ 162
dal@@ 162
ider@@ 162
main@@ 162
ostr@@ 162
rio 162
vat@@ 162
ɑ@@ 162
Ἄ@@ 162
0s 161
Adams 161
Big@@ 161
Bon 161
Comic 161
EM 161
Jerry 161
KS 161
Lun@@ 161
Sad@@ 161
Thompson 161
Was 161
Without 161
aliy@@ 161
dow@@ 161
final 161
ismo 161
mm@@ 161
mon 161
mouth 161
ois@@ 161
onis 161
tax@@ 161
verse 161
ène 161
Anton 160
Bristol 160
Building 160
Docum@@ 160
Es 160
Ken@@ 160
Sha@@ 160
Sid@@ 160
blue 160
break 160
chin@@ 160
chr@@ 160
cri@@ 160
doc@@ 160
free 160
ize 160
nus 160
polit@@ 160
spec@@ 160
sul@@ 160
tec@@ 160
uo 160
vor@@ 160
xi 160
éro@@ 160
τραγου@@ 160
ска 160
250@@ 159
292 159
4.5 159
Anci@@ 159
Hap@@ 159
Hau@@ 159
Herman 159
Jesus 159
Lak@@ 159
Lamb@@ 159
Luke 159
Map@@ 159
Meyer 159
Mk 159
Once 159
Railway 159
S.A. 159
Tow@@ 159
andra 159
block 159
eas@@ 159
first 159
kind 159
nat@@ 159
nik@@ 159
ool 159
scope 159
unk 159
usi@@ 159
west 159
yr 159
ʃ@@ 159
καθεστ@@ 159
Ain 158
Clem@@ 158
Day@@ 158
Ed 158
Eugene 158
Forest 158
Gib@@ 158
Gig@@ 158
Gur@@ 158
Hip 158
IEEE 158
Margar@@ 158
Metro@@ 158
Neil 158
Northern 158
Paolo 158
Sach@@ 158
Ski@@ 158
Tower 158
UV 158
Ville 158
XVI 158
ator@@ 158
orn@@ 158
osaurus 158
oso 158
ovo 158
pon 158
wei 158
xx 158
ː 158
ский 158
1st 157
501 157
8000 157
AW@@ 157
Alexand@@ 157
App 157
Fine 157
Fres@@ 157
Hr@@ 157
Jose@@ 157
` 157
alie 157
ck@@ 157
eler 157
fest 157
fir@@ 157
othe@@ 157
ović 157
pha 157
prin@@ 157
print 157
о@@ 157
т 157
0.1 156
2.1 156
Burn@@ 156
Clark 156
Hak@@ 156
Jung@@ 156
Kim@@ 156
Len@@ 156
Madame 156
Miles 156
Mud@@ 156
Nich@@ 156
Rock@@ 156
Rue 156
Shir@@ 156
Spo@@ 156
Tim 156
alle 156
arding 156
box@@ 156
cro@@ 156
gic 156
ishing 156
kai 156
mand@@ 156
ough@@ 156
ples 156
plic@@ 156
torio 156
work 156
ór@@ 156
Ψ 156
άλληλα 156
εκριμένα 156
Ա@@ 156
ὼ@@ 156
Abr@@ 155
Airport 155
Avant 155
División 155
Gary 155
Holland 155
Honor 155
KO@@ 155
Nin@@ 155
Palais 155
Telev@@ 155
Thomson 155
Trade 155
aler 155
asure 155
cel 155
cole 155
fel@@ 155
iter 155
jazz 155
lec@@ 155
long 155
mad@@ 155
sl@@ 155
tific@@ 155
tista 155
wing 155
ás@@ 155
ла 155
ḥ@@ 155
ὔ@@ 155
3500 154
Arn@@ 154
Catal@@ 154
Cum@@ 154
Dick 154
Drama 154
Fred 154
Harold 154
Jules 154
Know@@ 154
Marqu@@ 154
Matt 154
Monde 154
Museo 154
Pear@@ 154
Sap@@ 154
Wolf@@ 154
antes 154
break@@ 154
cant@@ 154
cross 154
disco 154
els@@ 154
ember 154
isson 154
lex 154
mir@@ 154
nes@@ 154
over@@ 154
phon@@ 154
size 154
talk 154
tress 154
xy 154
ɔ@@ 154
Andreas 153
Cow@@ 153
Culture 153
Human@@ 153
Jun@@ 153
Kab@@ 153
Nob@@ 153
Put@@ 153
Ralph 153
They 153
Top@@ 153
Zh@@ 153
cell 153
have 153
kor@@ 153
plex 153
tour 153
tron 153
vent@@ 153
Adi@@ 152
Agu@@ 152
Berg@@ 152
Camp 152
Daw@@ 152
Ernest 152
Hang@@ 152
Imp@@ 152
Lucy 152
Petit 152
Produc@@ 152
Row@@ 152
atra 152
bir@@ 152
ecker 152
eng 152
hand@@ 152
iser 152
iting 152
ić 152
mul@@ 152
ography 152
other@@ 152
pin 152
prom@@ 152
ris 152
sold 152
too 152
ɐ@@ 152
άγαλ@@ 152
όσοφ@@ 152
з@@ 152
ვ@@ 152
ἢ 152
Ἱ@@ 152
Amar@@ 151
BM 151
Blan@@ 151
Champ@@ 151
Chir@@ 151
Gn@@ 151
Joy 151
Klein 151
Larry 151
Ley@@ 151
Maf@@ 151
Miss@@ 151
Raz@@ 151
Rosa 151
Week@@ 151
acher 151
ador 151
anza 151
avi 151
ern 151
eur@@ 151
fall 151
hic 151
onds 151
quet 151
til 151
ées 151
ούστου 151
ի 151
√ 151
Around 150
Box@@ 150
Dag@@ 150
Fos@@ 150
Herald 150
Hung@@ 150
Inn@@ 150
Kong 150
Low 150
Luf@@ 150
Provincia 150
Report 150
Schl@@ 150
Server 150
Shu@@ 150
Territ@@ 150
Tir@@ 150
UC 150
Visual 150
Will@@ 150
XII 150
Yale 150
Ye@@ 150
ading 150
allo 150
alog@@ 150
anas 150
ces@@ 150
cher@@ 150
cible 150
erra 150
europ@@ 150
hin@@ 150
lake 150
sar@@ 150
tav@@ 150
them 150
ult@@ 150
˙ 150
όρεια 150
Ми@@ 150
Aman@@ 149
Area 149
Broadcasting 149
Cov@@ 149
Figh@@ 149
Kib@@ 149
Kö@@ 149
Mont 149
Oh@@ 149
Pont 149
Rights 149
Roman@@ 149
Stat@@ 149
Trophy 149
UM@@ 149
Zel@@ 149
aded 149
afe 149
astr@@ 149
av 149
edr@@ 149
ird 149
milit@@ 149
order 149
pad@@ 149
pping 149
put@@ 149
rett 149
uss 149
wall 149
zen@@ 149
մ@@ 149
ო@@ 149
Archi@@ 148
Baptiste 148
Bod@@ 148
Carl@@ 148
Dynam@@ 148
Friday 148
Gesellschaft 148
Guil@@ 148
Hag@@ 148
Harmon@@ 148
Inh@@ 148
Kenneth 148
Olymp@@ 148
Range 148
Sachsen 148
Stef@@ 148
ability 148
agi 148
allen 148
amin@@ 148
atur@@ 148
cz@@ 148
enders 148
got@@ 148
major 148
onau@@ 148
support 148
ysis 148
ρεταν@@ 148
կ@@ 148
Académie 147
BB@@ 147
Barry 147
CV@@ 147
Cic@@ 147
Del 147
Donn@@ 147
F.C. 147
Gros@@ 147
Hem@@ 147
Key 147
Medicine 147
Premi@@ 147
Rac@@ 147
SV 147
Small 147
Stade 147
Temple 147
Tot@@ 147
agen 147
amer 147
aq 147
dez 147
enf@@ 147
fin 147
high 147
ife 147
rif@@ 147
sea 147
sing@@ 147
tit@@ 147
tual 147
uni 147
Ł@@ 147
ע@@ 147
0.5 146
Albrecht 146
Angelo 146
Chief 146
Dani@@ 146
Gom@@ 146
Gou@@ 146
Had@@ 146
Hip@@ 146
Jab@@ 146
Market 146
Panzer 146
Show@@ 146
Stein@@ 146
Theodor 146
agus 146
alo 146
eka 146
ences 146
enza 146
funk 146
icio 146
ink@@ 146
itation 146
liz@@ 146
meth@@ 146
nar@@ 146
ning@@ 146
otr@@ 146
ought 146
tak@@ 146
tico 146
tium 146
vu@@ 146
zur 146
্ 146
179@@ 145
4. 145
Augus@@ 145
Bob@@ 145
Body 145
Chil@@ 145
Crow@@ 145
Executive 145
Hand 145
Hop@@ 145
Leh@@ 145
Lus@@ 145
MD 145
Middle 145
Trinity 145
Wonder 145
Wy@@ 145
XIV 145
alist 145
atom@@ 145
eda 145
eg 145
lag 145
new@@ 145
rich@@ 145
tius 145
yu 145
æ 145
ém@@ 145
λεται 145
᾿ 145
180@@ 144
Abraham 144
Academ@@ 144
BT 144
Bath@@ 144
Bowl 144
Capitol 144
Ce@@ 144
Dj@@ 144
Du 144
Industry 144
Lug@@ 144
Malm@@ 144
Musée 144
Nos@@ 144
Or 144
Orient 144
Private 144
Quar@@ 144
Russia 144
Se 144
Shel@@ 144
Stuart 144
Third 144
Thom@@ 144
Vall@@ 144
WW@@ 144
court 144
dar@@ 144
ector 144
enz 144
eton 144
ges@@ 144
hion 144
inj@@ 144
liber@@ 144
obs 144
orium 144
pub@@ 144
stan@@ 144
Administration 143
Bes@@ 143
Communications 143
Copa 143
Department 143
ED@@ 143
Environ@@ 143
Manchester 143
Marshall 143
Mediterran@@ 143
Temp@@ 143
Tournament 143
borough 143
eville 143
ext@@ 143
gol@@ 143
ieve 143
ony@@ 143
oper 143
oque 143
sian 143
tos 143
urg 143
uri@@ 143
Ј@@ 143
Алек@@ 143
д 143
Alg@@ 142
Bach@@ 142
Castel@@ 142
Common 142
Earl 142
Harper 142
Hyper@@ 142
Jug@@ 142
Nem@@ 142
Philipp 142
Roland 142
South@@ 142
Werner 142
Yo 142
bund 142
cial 142
ju 142
lab@@ 142
onium 142
pick 142
sberg 142
sex 142
stor@@ 142
tain@@ 142
tar 142
volution 142
ιουργ@@ 142
მ@@ 142
CEO 141
Const@@ 141
Deutschland 141
Dick@@ 141
Edgar 141
Grand@@ 141
Ken 141
Milit@@ 141
Newton 141
PT 141
Program 141
Sonn@@ 141
Tex@@ 141
Wide 141
enter 141
hon@@ 141
idel@@ 141
kov@@ 141
ogen@@ 141
omb@@ 141
ott@@ 141
oux 141
play@@ 141
thm 141
tri 141
umi 141
undtrack 141
years 141
Ü@@ 141
ս@@ 141
ῥ@@ 141
64,@@ 140
Case 140
Crystal 140
Dean 140
Gill 140
Hit 140
Hugh 140
Intelligence 140
Lisa 140
Lud@@ 140
Nau@@ 140
Og@@ 140
Primera 140
Prin@@ 140
Ray@@ 140
Sean 140
Some 140
Tig@@ 140
Wolfgang 140
abl@@ 140
adies 140
albums 140
ansa 140
eph@@ 140
eros 140
etz 140
grand 140
hem 140
male 140
onius 140
situ 140
uer@@ 140
ė 140
Ś@@ 140
Н@@ 140
да 140
Andy 139
Arab@@ 139
BL@@ 139
Cran@@ 139
DT 139
Flu@@ 139
Kis@@ 139
Pall@@ 139
RE 139
Sud@@ 139
UE 139
XV 139
ances 139
arian 139
aze 139
chain 139
digital 139
ffer 139
gin 139
has 139
ilo 139
mos@@ 139
pas 139
plat@@ 139
por 139
prot@@ 139
tag@@ 139
vivo 139
wind 139
zh@@ 139
πουδ@@ 139
ἵ@@ 139
Ado@@ 138
Ambro@@ 138
Bass@@ 138
Card@@ 138
Celtic 138
Charts 138
Chef 138
Cob@@ 138
Danny 138
Hart@@ 138
Hug@@ 138
Isab@@ 138
Pascal 138
Rat@@ 138
Rural 138
ados 138
ael 138
eless 138
issa 138
oll 138
onde 138
opsis 138
oz 138
plu@@ 138
radi@@ 138
rus@@ 138
tas 138
uga 138
ь@@ 138
Beta 137
Comedy 137
Front 137
Ground 137
Nj@@ 137
Nom@@ 137
Sol 137
Venus 137
Winter@@ 137
alier 137
ande 137
andi 137
ano@@ 137
aper 137
avia 137
beta 137
cht 137
dule 137
eh 137
eira 137
elt 137
ensen 137
event@@ 137
igny 137
ischen 137
liner 137
market 137
ppo 137
quar@@ 137
reality 137
rent 137
shop 137
ân 137
Ουγγαρ@@ 137
ριμπά@@ 137
ἠ@@ 137
ὺ 137
9000 136
Amy 136
Coch@@ 136
Cus@@ 136
Emil 136
Hoh@@ 136
Leib@@ 136
Maison 136
Mason 136
Organization 136
Parker 136
Phone 136
Plaza 136
Pok@@ 136
Police 136
Rap 136
Rob 136
Schw@@ 136
Venez@@ 136
Wiener 136
adia 136
ease 136
eping 136
far@@ 136
han@@ 136
kov 136
mem@@ 136
prises 136
ulia 136
yle 136
Ко@@ 136
г@@ 136
са 136
4.2 135
Barth@@ 135
Broad@@ 135
Café 135
Constant@@ 135
Domen@@ 135
Fid@@ 135
Fédération 135
Hall@@ 135
Histoire 135
Illustr@@ 135
Ja@@ 135
Kak@@ 135
Local 135
McDonald 135
NFL 135
Robinson 135
Security 135
Tennis 135
aar 135
acre 135
alar@@ 135
apo 135
atsu 135
bia 135
ende 135
festival 135
lett 135
lim@@ 135
lus 135
maj@@ 135
pag@@ 135
pot@@ 135
then 135
İs@@ 135
Πτολε@@ 135
ни@@ 135
ָ@@ 135
ὖ@@ 135
1,0@@ 134
99.@@ 134
Arte 134
Base 134
Chamber 134
Eastern 134
Edwards 134
Hog@@ 134
Horse 134
Hyp@@ 134
Indian 134
Justin 134
Most 134
Pyr@@ 134
Rain@@ 134
Rog@@ 134
Rut@@ 134
Song@@ 134
Tor 134
Vig@@ 134
Vladimir 134
Von 134
Work@@ 134
asons 134
bis@@ 134
fri@@ 134
hum@@ 134
illus 134
ited 134
odo@@ 134
sius 134
sum 134
sun@@ 134
tronics 134
underground 134
ön@@ 134
ρινε 134
2.3 133
Armstrong 133
Buch@@ 133
Champion 133
Code 133
Cook 133
Diego 133
Gim@@ 133
Hudson 133
Jakob 133
Non@@ 133
Pag@@ 133
Roberto 133
Sib@@ 133
Wilaya 133
bic@@ 133
enda 133
fon@@ 133
gor@@ 133
hosts 133
hydro@@ 133
ingu@@ 133
kar 133
kir@@ 133
oko 133
onica 133
park 133
tain 133
tiva 133
ving 133
wel@@ 133
б@@ 133
на@@ 133
3.2 132
East@@ 132
Elli@@ 132
Giac@@ 132
Impact 132
Jon@@ 132
Legacy 132
Miami 132
Neur@@ 132
Tax@@ 132
Til@@ 132
Vid@@ 132
Zeitung 132
arina 132
awn 132
brand 132
cru@@ 132
ean@@ 132
folia 132
get@@ 132
icide 132
ift 132
ills 132
isha 132
ition 132
lang 132
lit 132
natur@@ 132
oga 132
open 132
pos 132
rag@@ 132
round 132
tern 132
tree 132
yon@@ 132
ð 132
ı@@ 132
άβετ 132
Au 131
Bis@@ 131
Clin@@ 131
Cun@@ 131
Dies@@ 131
Foreign 131
Gilbert 131
Inf@@ 131
Sag@@ 131
aber 131
alli 131
bab@@ 131
bau@@ 131
boys 131
gar 131
inga 131
insky 131
istry 131
kul@@ 131
onda 131
orian 131
ovich 131
ross 131
stars 131
teri@@ 131
theory 131
ungs@@ 131
uru 131
én 131
ǎ@@ 131
нович 131
ск 131
љ@@ 131
ὐ 131
Arusha 130
Biz@@ 130
Carter 130
Ced@@ 130
Clif@@ 130
EL 130
Hunt 130
Inst@@ 130
Ron@@ 130
Schmidt 130
Schneider 130
aan 130
anie 130
bes@@ 130
chem@@ 130
coup@@ 130
craft 130
cules 130
dre 130
enh@@ 130
ennes 130
fan 130
onom@@ 130
oting 130
ris@@ 130
sport 130
times 130
но@@ 130
ски 130
ц@@ 130
Benn@@ 129
Change 129
Differ@@ 129
Ein@@ 129
Eu@@ 129
Glass 129
Grant 129
Her 129
Hier@@ 129
Laurent 129
Linn@@ 129
Member 129
Micha@@ 129
Pharm@@ 129
Rovers 129
Season 129
Suc@@ 129
Sud 129
Tag@@ 129
aces 129
aver 129
dison 129
dur@@ 129
gruppe 129
kab@@ 129
minor 129
nica 129
ogo 129
ologies 129
oss 129
trac@@ 129
tural 129
ás 129
ра@@ 129
сь@@ 129
ә@@ 129
Carr@@ 128
Expedition 128
Gabri@@ 128
Kod@@ 128
Lec@@ 128
Lil@@ 128
NC 128
Ox@@ 128
Portugal 128
Reich 128
Roth@@ 128
Wag@@ 128
cover 128
enti 128
function 128
ital 128
iv 128
kus 128
nin 128
part 128
plan@@ 128
pod@@ 128
scr@@ 128
sten 128
sul 128
tol@@ 128
vier 128
wan 128
Ż@@ 128
8. 127
Chase 127
Commer@@ 127
Devlet@@ 127
Erich 127
Industrial 127
Kno@@ 127
Plas@@ 127
Schutz@@ 127
Sed@@ 127
Wall@@ 127
Yu@@ 127
ander 127
antum 127
apa 127
based 127
bu 127
eral 127
eter@@ 127
gin@@ 127
ism@@ 127
jk 127
kil@@ 127
lav@@ 127
mic 127
onas 127
orient@@ 127
rod@@ 127
wave 127
ä 127
њ@@ 127
་ 127
Alex@@ 126
Betty 126
Championships 126
Costa 126
Fast 126
Goethe 126
Grav@@ 126
Institu@@ 126
Jenn@@ 126
Keith 126
Mama 126
Roberts 126
annon 126
back@@ 126
bor 126
ede 126
elling 126
fication 126
ino@@ 126
lower 126
nen 126
obi 126
oti@@ 126
otti 126
pro 126
sol 126
tur 126
ная 126
Alexandre 125
Alt@@ 125
Amp@@ 125
Caesar 125
Chuck 125
Drake 125
Economic 125
Emma 125
Greg@@ 125
Harvey 125
Head@@ 125
Holmes 125
Ins@@ 125
Io@@ 125
Isle 125
Jeanne 125
Lyn@@ 125
Tos@@ 125
Vice 125
Voc@@ 125
WTA 125
alli@@ 125
ardo 125
ativa 125
aven 125
eci@@ 125
lib@@ 125
rid 125
roc@@ 125
shi 125
tag 125
ña 125
м 125
ה 125
ა 125
186@@ 124
2.4 124
Barcelona 124
Fed@@ 124
Fern@@ 124
Fif@@ 124
Geoff@@ 124
Kid@@ 124
Lip@@ 124
Po 124
Quart@@ 124
Scho@@ 124
Sonder@@ 124
Superman 124
Ve@@ 124
aat 124
atura 124
double 124
egel 124
fes@@ 124
icky 124
igher 124
isch@@ 124
lor@@ 124
mine 124
oul@@ 124
rap 124
tut@@ 124
wo 124
zer@@ 124
στούν@@ 124
Ма@@ 124
Adol@@ 123
BI 123
Barn@@ 123
Cyc@@ 123
Dad@@ 123
Down@@ 123
Instrum@@ 123
Joel 123
Mack@@ 123
Mp@@ 123
Müller 123
Prime 123
Rogers 123
Russian 123
Sco@@ 123
Scot@@ 123
Thé@@ 123
Tut@@ 123
Ulrich 123
Unit 123
Upon 123
Zar@@ 123
amer@@ 123
berto 123
dra@@ 123
ements 123
imani 123
olf 123
part@@ 123
sar 123
thre@@ 123
thy 123
tour@@ 123
vet@@ 123
ç 123
έβαλ@@ 123
ь 123
Bloom@@ 122
Bobby 122
Brow@@ 122
Bub@@ 122
Concep@@ 122
Corps 122
ED 122
Erik 122
Guy@@ 122
Him@@ 122
Houston 122
Jam@@ 122
Joachim 122
Jorge 122
Jov@@ 122
Kot@@ 122
Mark@@ 122
Movement 122
Neb@@ 122
Nielsen 122
Ronald 122
Shaw 122
Silva 122
Test 122
Trans 122
chester 122
essed 122
istic 122
itia 122
leb@@ 122
pit@@ 122
plus 122
portation 122
social 122
soft 122
speed 122
team 122
ui@@ 122
äl@@ 122
ΰ 122
ן 122
ṭ@@ 122
ἤ@@ 122
∆ 122
Bach 121
Centro 121
Chin@@ 121
Christine 121
Chry@@ 121
EV@@ 121
Fraser 121
Ges@@ 121
Isaac 121
Jor@@ 121
Mitchell 121
Penn@@ 121
Rome 121
SU 121
Stal@@ 121
Tob@@ 121
Wak@@ 121
Wind@@ 121
aea 121
anto 121
aza 121
borg 121
chen@@ 121
ers@@ 121
ication 121
inst@@ 121
kowski 121
lag@@ 121
mari@@ 121
ologue 121
py@@ 121
river 121
synth@@ 121
through 121
uti@@ 121
vas@@ 121
viv@@ 121
wen 121
евна 121
ро@@ 121
1.7 120
6.5 120
Abbey 120
Aub@@ 120
Bang@@ 120
Dres@@ 120
Federal 120
Fund 120
Gang@@ 120
Griff@@ 120
Jack@@ 120
Jersey 120
Julian 120
Mall@@ 120
Marina 120
Polic@@ 120
Reserve 120
Sebastian 120
Tech 120
Wet@@ 120
angu@@ 120
anni 120
bil 120
engers 120
esto 120
fili@@ 120
football 120
ilis 120
ld@@ 120
nit@@ 120
obi@@ 120
patr@@ 120
pped 120
quin@@ 120
sat 120
standing 120
utz 120
vie@@ 120
Ц@@ 120
с 120
் 120
უ@@ 120
∙ 120
7.5 119
Brah@@ 119
Dennis 119
EU 119
Gonz@@ 119
Gregory 119
Magnus 119
Maxwell 119
NH 119
Nap@@ 119
Ne 119
Phillips 119
anner 119
aver@@ 119
deutsche 119
edge 119
erine 119
him@@ 119
isp@@ 119
nav@@ 119
onnais 119
phus 119
polo 119
print@@ 119
prop@@ 119
rose 119
serv@@ 119
sion@@ 119
tage 119
umin@@ 119
vies 119
zar@@ 119
ég@@ 119
ün@@ 119
ł 119
Εκεί@@ 119
είπια 119
По@@ 119
ч 119
・ 119
Byzant@@ 118
Cau@@ 118
Erd@@ 118
Exchange 118
Helen 118
Islands 118
Jas@@ 118
K. 118
Luk@@ 118
Marsh@@ 118
N. 118
Nine 118
Observat@@ 118
Tang@@ 118
Tech@@ 118
abor@@ 118
bes 118
d. 118
force 118
igi 118
imm@@ 118
internet 118
irs 118
itter 118
match 118
meister 118
oney 118
onlyinclude 118
oul 118
ph 118
ping 118
red@@ 118
ron@@ 118
rop@@ 118
sav@@ 118
sou@@ 118
sv@@ 118
tot@@ 118
tras@@ 118
ufac@@ 118
unda 118
vio 118
ɡ@@ 118
Е@@ 118
After@@ 117
Assembly 117
Berry 117
Carol@@ 117
Caroline 117
Claire 117
Colin 117
Dul@@ 117
Fiction 117
Hart 117
MV 117
Metropolitan 117
PI@@ 117
Philadelphia 117
Rick 117
Sent@@ 117
Slo@@ 117
Susan 117
UK@@ 117
bone 117
door 117
entum 117
essa 117
format 117
good 117
igne 117
lair 117
mando 117
nois 117
oil 117
shi@@ 117
tie 117
tures 117
ál@@ 117
än@@ 117
ַ@@ 117
Apol@@ 116
Block 116
Corona 116
Did@@ 116
Eugène 116
Integr@@ 116
Jus@@ 116
Madison 116
Mati@@ 116
McCar@@ 116
Mih@@ 116
Salon 116
Shak@@ 116
Sic@@ 116
Warren 116
bass 116
ehr@@ 116
ej 116
emi 116
entes 116
essel 116
estyle 116
eurs 116
fle@@ 116
illi 116
isters 116
kinson 116
kit 116
kn@@ 116
lau@@ 116
oh 116
oner 116
ono 116
tas@@ 116
ül@@ 116
Л@@ 116
سلطان 116
Agnes 115
Brad@@ 115
Florida 115
Jennifer 115
Lambert 115
Must@@ 115
Ng@@ 115
Terry 115
Université 115
Vers@@ 115
Wis@@ 115
abase 115
ater@@ 115
atis@@ 115
ble@@ 115
city 115
cott 115
dov@@ 115
enes 115
esch@@ 115
ffe 115
ged 115
heart 115
inci 115
itus 115
kun@@ 115
m. 115
ran 115
school 115
set@@ 115
systems 115
ternal 115
tir@@ 115
ulum 115
unter 115
Étienne 115
û@@ 115
ἂ@@ 115
2.8 114
93.@@ 114
Adrian 114
Analy@@ 114
Anti 114
Balkan 114
Bras@@ 114
Falls 114
Hill@@ 114
Irish 114
John@@ 114
KA 114
Lig@@ 114
Lut@@ 114
Mia 114
Salv@@ 114
Sit@@ 114
Sullivan 114
Survey 114
WH@@ 114
Wir@@ 114
age@@ 114
alization 114
andi@@ 114
date 114
entin 114
eting 114
keting 114
nationale 114
onie 114
ref@@ 114
roll 114
roy 114
san 114
tape 114
thin 114
tori@@ 114
≈ 114
5. 113
Augustus 113
Bond 113
Bryan 113
Deutsch@@ 113
Deutscher 113
Fan@@ 113
Gay 113
HR 113
Holding 113
Lod@@ 113
Match 113
Medal 113
Regional 113
Rich 113
Seine 113
Suzuki 113
Tah@@ 113
Thir@@ 113
UN 113
Wild@@ 113
Wing 113
Woods 113
adis 113
count 113
det 113
dorf 113
ei@@ 113
endr@@ 113
fas@@ 113
had 113
lam 113
lik@@ 113
nova 113
pert 113
pet@@ 113
rig@@ 113
short 113
tail 113
tech@@ 113
than 113
tru@@ 113
udi@@ 113
vari@@ 113
which 113
͡ 113
ל 113
თ@@ 113
├ 113
AH 112
Anast@@ 112
Berkeley 112
Bever@@ 112
Bin@@ 112
Cann@@ 112
Expl@@ 112
Jose 112
Kate 112
Leonardo 112
Mang@@ 112
Partn@@ 112
SG 112
aman 112
anny 112
ardi 112
article 112
atu 112
deo 112
eing 112
elt@@ 112
etic 112
gren 112
imus 112
inos 112
mal 112
process 112
sha 112
star@@ 112
tric@@ 112
ulation 112
undo 112
utes 112
vival 112
ôme 112
ý 112
İ@@ 112
л 112
ла@@ 112
не 112
Ἡ@@ 112
イ@@ 112
,000 111
And@@ 111
Chinese 111
Congress 111
Covid 111
Esper@@ 111
Harrison 111
Hob@@ 111
Ivan 111
Johan 111
Khan 111
Leopold 111
Mountains 111
Neue 111
Olympi@@ 111
Punk 111
Rig@@ 111
Scotland 111
Six@@ 111
Stap@@ 111
Unter@@ 111
Vend@@ 111
Week 111
Work 111
ahi 111
ahl 111
ape 111
bonus 111
eff@@ 111
enzo 111
estro 111
hyper@@ 111
iler 111
inas 111
kings 111
lain 111
lich 111
lock@@ 111
management 111
mission 111
most 111
osus 111
ump 111
vector 111
wn@@ 111
ège 111
ба@@ 111
ва@@ 111
ли@@ 111
ш 111
վ@@ 111
2.7 110
Are@@ 110
But 110
Chang@@ 110
Cher 110
Eduard 110
Einstein 110
Fa@@ 110
Fitz@@ 110
Gest@@ 110
Oro 110
Rally 110
Religion 110
Senior 110
Sinc@@ 110
Student 110
Tap@@ 110
aser 110
born 110
diesel 110
duction 110
ender@@ 110
fun@@ 110
ias 110
inning 110
jas 110
km2 110
lik 110
mite 110
nati@@ 110
ocy@@ 110
skaya 110
tras 110
vid@@ 110
vus 110
win@@ 110
Са@@ 110
Ὁ 110
5,000 109
5.5 109
Craig 109
DL@@ 109
Ex 109
Faus@@ 109
Guar@@ 109
Hamp@@ 109
Juni@@ 109
KP 109
Rav@@ 109
Together 109
Track 109
Ts@@ 109
Wales 109
Watson 109
Yar@@ 109
about 109
aires 109
ald@@ 109
big 109
cad@@ 109
comes 109
enge 109
esn@@ 109
française 109
full 109
hold 109
inet 109
mental 109
oti 109
rano 109
ree 109
scrip@@ 109
service 109
teen 109
tered 109
true 109
umbo 109
urt 109
will 109
yth@@ 109
ра 109
ї@@ 109
լ@@ 109
် 109
Alo@@ 108
Blanc 108
Bo 108
Cohen 108
Dra@@ 108
Edmund 108
Eis@@ 108
Franco 108
Gusta@@ 108
Hood 108
Hydro@@ 108
Kri@@ 108
Myr@@ 108
Nes@@ 108
Pou@@ 108
Scottish 108
Secre@@ 108
Stadi@@ 108
Stefan 108
Tad@@ 108
Wilhel@@ 108
XT 108
XVIII 108
alogue 108
atil@@ 108
auto@@ 108
bio 108
buch 108
building 108
div@@ 108
dor 108
ehouse 108
ications 108
icked 108
index 108
last 108
med@@ 108
obus 108
olan 108
ologi@@ 108
onian 108
pen 108
sei 108
syl@@ 108
tric 108
uro 108
ved@@ 108
wak@@ 108
werk 108
wig 108
¬ 108
év@@ 108
ه 108
￼ 108
Athletic 107
Bayern 107
Dallas 107
Farm 107
Herschel 107
Hut@@ 107
Ich@@ 107
Krist@@ 107
Kus@@ 107
Kut@@ 107
Linda 107
Midd@@ 107
Morrison 107
Mou@@ 107
Personal 107
Potter 107
Reynolds 107
Rib@@ 107
Robertson 107
Solo 107
Team@@ 107
aille 107
alter 107
aring 107
asia 107
clus@@ 107
cot@@ 107
dow 107
escu 107
eus@@ 107
front 107
igg@@ 107
itis 107
mic@@ 107
mobile 107
naz@@ 107
oc 107
ogie 107
oku 107
olog 107
peace 107
place 107
princ@@ 107
quit@@ 107
sio 107
stri@@ 107
tif@@ 107
ulos 107
uppe 107
voc@@ 107
wi 107
wski 107
ân@@ 107
Βουργ@@ 107
10,000 106
Adel@@ 106
Basil@@ 106
Cole 106
DT@@ 106
Fru@@ 106
Gang 106
Jos@@ 106
Kriegs@@ 106
Lorraine 106
Maritime 106
Monte@@ 106
Pand@@ 106
Popular 106
Pow@@ 106
SK@@ 106
Traf@@ 106
Vegas 106
azz@@ 106
cos 106
eves 106
faire 106
fied 106
hen@@ 106
inde@@ 106
liv@@ 106
motion 106
nar 106
opo 106
ull 106
vill@@ 106
white 106
yon 106
yx 106
č 106
ев 106
Alfonso 105
Carmen 105
Galil@@ 105
Haus@@ 105
Ler@@ 105
Pes@@ 105
Say@@ 105
Sund@@ 105
Suz@@ 105
Val 105
Vau@@ 105
Yves 105
dal 105
eon@@ 105
fried 105
gig@@ 105
hib@@ 105
igi@@ 105
iny@@ 105
isse 105
kow@@ 105
lic@@ 105
math 105
oire 105
oj@@ 105
olen 105
otte 105
pio 105
prise 105
ras 105
spr@@ 105
thly 105
thor@@ 105
tun@@ 105
ulin 105
ß 105
üt@@ 105
ἅ@@ 105
1.9 104
Bernhard 104
Bureau 104
Cruz 104
Gat@@ 104
Government 104
Libre 104
Mind@@ 104
Nan@@ 104
Nest@@ 104
Philharmon@@ 104
Ron 104
Shō@@ 104
Sophia 104
Statis@@ 104
Swift 104
UE@@ 104
Well@@ 104
arab@@ 104
beck 104
call 104
chel@@ 104
corpor@@ 104
dius 104
elds 104
emos 104
ended 104
formes 104
gli@@ 104
grave 104
hot 104
inn 104
inv@@ 104
irus 104
mas 104
mir 104
mith@@ 104
now 104
ovi@@ 104
platz 104
poli@@ 104
senti@@ 104
shot 104
stell@@ 104
tes@@ 104
uda 104
unya 104
uses 104
vention 104
yet@@ 104
å 104
éc@@ 104
ì@@ 104
ʿ@@ 104
ἰ 104
Aston 103
Brandenburg 103
Eb@@ 103
Fighter 103
Fit@@ 103
GN@@ 103
Gramm@@ 103
Gug@@ 103
Id@@ 103
Ireland 103
Kaiser 103
Kem@@ 103
Lie@@ 103
Manhattan 103
Polo 103
Position 103
Sali@@ 103
Santo 103
Ya 103
aint 103
anes 103
bid@@ 103
bre 103
dies 103
ebook 103
ensi@@ 103
gas 103
gruppen 103
lap@@ 103
ldwide 103
lied 103
make 103
news 103
oba 103
oci@@ 103
pap@@ 103
seg@@ 103
toc@@ 103
were 103
yat@@ 103
ποδοσφ@@ 103
Ро@@ 103
га 103
ּ@@ 103
Ἡ 103
0.2 102
Et 102
Eugen@@ 102
Georgia 102
Identi@@ 102
Mechan@@ 102
Nassau 102
Oliv@@ 102
Pete 102
Powell 102
Sang@@ 102
Sens@@ 102
Türk 102
Us@@ 102
Wein@@ 102
aders 102
alto 102
amor 102
bid 102
chu@@ 102
cu 102
eil@@ 102
else 102
emat@@ 102
flor@@ 102
hu 102
istan 102
ization 102
kho@@ 102
kis@@ 102
ladi@@ 102
lows 102
national 102
olia 102
ospel 102
pher@@ 102
plo@@ 102
sign@@ 102
talent 102
teur 102
trav@@ 102
trop@@ 102
ups 102
urg@@ 102
walk 102
бо@@ 102
ы 102
я@@ 102
----@@ 101
Christina 101
Film@@ 101
Gas 101
Heb@@ 101
Honor@@ 101
Je 101
Julie 101
Lyc@@ 101
Porter 101
Rail@@ 101
Santos 101
Stern 101
Tun@@ 101
adu@@ 101
aly@@ 101
det@@ 101
dt 101
edit@@ 101
folk 101
gas@@ 101
isis 101
jar@@ 101
orus 101
oun 101
phe 101
ram@@ 101
stur@@ 101
tina 101
who 101
zu@@ 101
З@@ 101
би@@ 101
ми@@ 101
ни 101
та@@ 101
Alain 100
Ba 100
Bartolom@@ 100
CPU 100
Cord@@ 100
Diam@@ 100
Duch@@ 100
Elis@@ 100
Ensemble 100
Fellow 100
Giov@@ 100
Harv@@ 100
Int@@ 100
Jag@@ 100
Kie@@ 100
Malta 100
Neum@@ 100
Nur@@ 100
Pearl 100
Petro@@ 100
Rag@@ 100
Rouge 100
Telek@@ 100
Ves@@ 100
Vide@@ 100
Way@@ 100
atin 100
bay 100
coun@@ 100
dan@@ 100
gens 100
hat 100
imi@@ 100
isto 100
liche 100
lins 100
mans 100
pol 100
ril 100
s. 100
sag@@ 100
tima 100
Γουλι@@ 100
ανήκ@@ 100
Ба@@ 100
Бе@@ 100
во@@ 100
то@@ 100
х@@ 100
ه@@ 100
া 100
の@@ 100
Bourbon 99
Burton 99
CAR 99
Chal@@ 99
Cultural 99
Eva 99
Fisher 99
Fou@@ 99
Frag@@ 99
Gan@@ 99
García 99
Greg 99
Joint 99
Kob@@ 99
Königsberg 99
Path@@ 99
Profes@@ 99
Raj@@ 99
Santiago 99
Shakespeare 99
Swiss 99
São 99
Sé@@ 99
Tac@@ 99
Training 99
Upper 99
William@@ 99
Xavier 99
assault 99
azi 99
contr@@ 99
ecca 99
edy 99
elde 99
extr@@ 99
gues 99
ibn 99
iggins 99
ily 99
ingham 99
known 99
lets 99
lowers 99
mu 99
phones 99
pler 99
rin 99
sie 99
technique 99
tem 99
ungen 99
Φεβ@@ 99
όννησ@@ 99
Ка@@ 99
ди@@ 99
си 99
ъ 99
Հ@@ 99
ব@@ 99
র@@ 99
3.3 98
Ander@@ 98
Between 98
Bois 98
Brus@@ 98
Cape 98
Construction 98
Contin@@ 98
Count 98
Eddie 98
Eve 98
Flora 98
Foster 98
German 98
INSEE 98
Ibn 98
Ital@@ 98
Moscow 98
Nept@@ 98
Sinf@@ 98
Stevens 98
Toronto 98
Tyler 98
Wagner 98
Wien 98
XVII 98
aur 98
ayn@@ 98
bos@@ 98
bro 98
cois 98
culus 98
dot@@ 98
dres@@ 98
ench@@ 98
esty 98
file 98
foot 98
fu 98
geb@@ 98
got 98
grap@@ 98
jur@@ 98
kard 98
l. 98
proc@@ 98
rico 98
road 98
sels 98
vec@@ 98
write 98
yak@@ 98
éni@@ 98
ʁ@@ 98
Σεπτε@@ 98
ло 98
ль 98
0.3 97
Abo@@ 97
Art@@ 97
Atlan@@ 97
Baron 97
Blake 97
Carol 97
Evangel@@ 97
Hi 97
Hopkins 97
Hô@@ 97
Ligue 97
Logan 97
Lynn 97
Madrid 97
Marguerite 97
Naval 97
PhD 97
Piz@@ 97
Slov@@ 97
TRT 97
Tra@@ 97
Ung@@ 97
Ush@@ 97
Yak@@ 97
aster@@ 97
chem 97
coc@@ 97
drive 97
elen 97
ential 97
evich 97
fera 97
gie 97
graphi@@ 97
green 97
ican 97
led 97
mati@@ 97
ogy 97
pole@@ 97
pre 97
quel 97
run 97
sans 97
sia 97
soci@@ 97
song 97
titude 97
tracks 97
άλασ@@ 97
ξύ 97
כ@@ 97
Aber@@ 96
Bennett 96
Bible 96
Burg@@ 96
Charl@@ 96
Christoph 96
Contemporary 96
Dep@@ 96
Dom 96
Dut@@ 96
Heli@@ 96
Henri@@ 96
Kron@@ 96
Lub@@ 96
Mundo 96
Person@@ 96
Pub@@ 96
Reed 96
Rocky 96
Sydney 96
Univers@@ 96
W. 96
aland 96
azar 96
bli@@ 96
business 96
bute 96
cip@@ 96
fair 96
father 96
gy@@ 96
hou 96
isme 96
jal@@ 96
lac@@ 96
nan 96
nt 96
ordin@@ 96
rah 96
sat@@ 96
schule 96
stic@@ 96
tabl@@ 96
uka 96
yana@@ 96
ép@@ 96
υπήρ@@ 96
На@@ 96
ր 96
ى 96
ბ@@ 96
ṣ@@ 96
ἷ@@ 96
1,5@@ 95
2nd 95
6. 95
Ana 95
Bass 95
Beat@@ 95
Bret@@ 95
Convention 95
Germain 95
Gibson 95
Jeremy 95
Josh 95
Lid@@ 95
Marc@@ 95
Olivier 95
Ostr@@ 95
Palm 95
Palm@@ 95
Ph.@@ 95
Publi@@ 95
Round 95
Sever@@ 95
Silver@@ 95
Westminster 95
alit@@ 95
atrice 95
bak@@ 95
child 95
country 95
ga@@ 95
ien@@ 95
inge 95
ire@@ 95
mid@@ 95
mill@@ 95
nel 95
och 95
oka 95
olla 95
ongo 95
para 95
racy 95
sac 95
soul 95
va@@ 95
whe@@ 95
wie 95
zia 95
¹ 95
Österreich@@ 95
г 95
י 95
ى@@ 95
Alternative 94
Boulevard 94
Cho@@ 94
Comun@@ 94
Cuc@@ 94
Edit@@ 94
Emmanuel 94
Germany 94
Isabel 94
Jol@@ 94
Jonas 94
Joy@@ 94
João 94
Just@@ 94
Klaus 94
Léon 94
Nad@@ 94
Pho@@ 94
Poin@@ 94
Political 94
Stil@@ 94
Technical 94
Vega 94
Wiki@@ 94
actus 94
agi@@ 94
alba 94
apping 94
asp@@ 94
atia 94
bou@@ 94
che@@ 94
computer 94
domin@@ 94
fan@@ 94
ference 94
func@@ 94
hir 94
hn 94
jan@@ 94
jer@@ 94
late 94
leton 94
owa 94
publi@@ 94
publica 94
rol@@ 94
schen 94
session 94
sley 94
té 94
vidence 94
vy@@ 94
érieure 94
ˌ@@ 94
ди 94
ре@@ 94
្ 94
ὠ@@ 94
0.4 93
2.6 93
Andre@@ 93
Carolina 93
Châ@@ 93
Compagnie 93
Compan@@ 93
Conrad 93
Defense 93
Elite 93
Fest 93
Graf 93
Gram@@ 93
Gün@@ 93
Hydr@@ 93
Ind@@ 93
Inn 93
Intel@@ 93
Kah@@ 93
Luna 93
Milano 93
Nancy 93
Paulo 93
Poli@@ 93
Rugby 93
Schul@@ 93
Speci@@ 93
Spencer 93
Stic@@ 93
Sur 93
Trin@@ 93
UB@@ 93
Va@@ 93
blo@@ 93
cent 93
ebe 93
gul@@ 93
ight@@ 93
ilus 93
itte 93
libr@@ 93
liga 93
lis@@ 93
ms@@ 93
nak@@ 93
natural 93
oval 93
ria 93
sal 93
she@@ 93
small 93
stage 93
tap@@ 93
tian 93
vá@@ 93
zel@@ 93
zon@@ 93
αιστ@@ 93
Не@@ 93
ж@@ 93
ка@@ 93
нов 93
сла@@ 93
פ@@ 93
ת 93
≠ 93
Academia 92
Ajax 92
Alabama 92
Allan 92
Asp@@ 92
Beth@@ 92
Castell@@ 92
Chau@@ 92
Eagles 92
Early 92
Edi@@ 92
España 92
Española 92
General@@ 92
Gis@@ 92
Grèce 92
Hessen 92
Hou@@ 92
Jamie 92
Kav@@ 92
Michigan 92
Morogoro 92
Navy 92
Noel 92
Pat 92
Production 92
Serge@@ 92
Stud@@ 92
Tau@@ 92
Ted 92
Todd 92
Wells 92
Yes@@ 92
aging 92
allo@@ 92
auc@@ 92
bee 92
berg@@ 92
bius 92
case 92
cour@@ 92
esk@@ 92
event 92
fat@@ 92
him 92
iana 92
istics 92
ked 92
lumin@@ 92
lut@@ 92
mons 92
obile 92
ophy@@ 92
page 92
pent@@ 92
range 92
scher@@ 92
shar@@ 92
tribu@@ 92
versary 92
versi@@ 92
yar 92
yor 92
Édouard 92
Österreich 92
ė@@ 92
αίρου 92
да@@ 92
թ@@ 92
ス@@ 92
Abu 91
Adler 91
Alexandra 91
Bry@@ 91
Chat@@ 91
Civil 91
Clau@@ 91
Coupe 91
Des 91
Ha 91
Jesse 91
Kenn@@ 91
Kent 91
Kro@@ 91
Manz@@ 91
Milton 91
Parti 91
Resp@@ 91
Rhein@@ 91
Roh@@ 91
Set@@ 91
Sik@@ 91
Ted@@ 91
Torre 91
Tsu@@ 91
Universität 91
WHO 91
Wallace 91
Yas@@ 91
Zor@@ 91
abi 91
anca 91
ativ@@ 91
atos 91
bol 91
capit@@ 91
card 91
eline 91
ellus 91
ests 91
factor 91
franch@@ 91
graph@@ 91
hur@@ 91
idal 91
kirche 91
lim 91
loo 91
nation 91
open@@ 91
ours 91
outs 91
press 91
press@@ 91
rant 91
rh@@ 91
rt 91
schaft 91
sous 91
uca 91
vern@@ 91
vid 91
wings 91
zan 91
ʊ@@ 91
μπούτο 91
до@@ 91
ри@@ 91
գ@@ 91
ল@@ 91
Amer@@ 90
Britain 90
Caes@@ 90
Cleveland 90
Coul@@ 90
Curtis 90
Dau@@ 90
Duncan 90
Hind@@ 90
Hong 90
Inter 90
Inv@@ 90
Kum@@ 90
Kunst@@ 90
Leipzig 90
Sergio 90
Source 90
Stein 90
Universidad 90
Vu@@ 90
acking 90
aldo 90
amen 90
amour 90
annes 90
aten 90
bass@@ 90
baum 90
bel 90
cular 90
dog 90
eki 90
emia 90
eras 90
essin 90
gian 90
har 90
host 90
iman 90
isten 90
ister@@ 90
just 90
leen 90
look 90
lug@@ 90
map 90
may@@ 90
oise 90
olor 90
omy@@ 90
oyle 90
pun@@ 90
ros 90
rue 90
science 90
sid@@ 90
super 90
tad@@ 90
tees 90
tik 90
tou@@ 90
umba 90
urban 90
Ἁ@@ 90
ῆ 90
000,000 89
Alc@@ 89
Authority 89
BN 89
Chand@@ 89
Claudia 89
Director 89
Dylan 89
Ellen 89
Famili@@ 89
Guard 89
Henn@@ 89
Hubert 89
Jin 89
Kish@@ 89
Miy@@ 89
Neo 89
Nice 89
Pach@@ 89
RD 89
Rafael 89
Rangers 89
Sty@@ 89
Théâtre 89
Within 89
Yang 89
agne 89
atives 89
bau 89
bei 89
birds 89
bottom 89
chan 89
comm@@ 89
cut 89
ener@@ 89
eni@@ 89
eval 89
ew 89
gion 89
iet 89
iness 89
kas@@ 89
lights 89
lose 89
oceph@@ 89
otic 89
phosph@@ 89
princip@@ 89
sdorf 89
series 89
stad@@ 89
standard 89
tend@@ 89
track 89
week 89
zone 89
Απρι@@ 89
Ευρώπ@@ 89
С 89
Сер@@ 89
ков 89
ный 89
са@@ 89
城 89
Alp@@ 88
Bart@@ 88
Cap 88
Dyn@@ 88
Fleet 88
Heritage 88
Historical 88
Hitler 88
Leslie 88
Lions 88
Mix@@ 88
Mog@@ 88
Nouveau 88
Roche 88
SSR 88
Salt 88
Zu@@ 88
a. 88
ambo 88
atique 88
czy@@ 88
ded 88
disc 88
ept@@ 88
eren 88
eve 88
fax 88
gue 88
hist@@ 88
indi@@ 88
kies 88
lé@@ 88
pression 88
rad@@ 88
spin@@ 88
tery 88
tex@@ 88
tig 88
tul@@ 88
ulio 88
uti 88
Å@@ 88
вна 88
з 88
мо@@ 88
ם 88
Aaron 87
Ada 87
Aph@@ 87
Beck 87
Buck@@ 87
Campo 87
Campus 87
Chlor@@ 87
Comm@@ 87
Creek 87
David@@ 87
Eber@@ 87
Efendi 87
Guill@@ 87
Helena 87
Konrad 87
Lebens@@ 87
Military 87
Pig@@ 87
Privat@@ 87
Ruth 87
Sut@@ 87
Tru@@ 87
Tuc@@ 87
abil@@ 87
ale@@ 87
area 87
ception 87
ered 87
fare 87
iku 87
iliz@@ 87
mang@@ 87
mur@@ 87
nas@@ 87
omin@@ 87
onen 87
rac@@ 87
rang 87
sab@@ 87
solid@@ 87
tien 87
usion 87
vol 87
yk@@ 87
ác@@ 87
ý@@ 87
đ@@ 87
ִ@@ 87
ג@@ 87
Ahmed 86
Argent@@ 86
Barb@@ 86
Castro 86
Confeder@@ 86
Deg@@ 86
Estr@@ 86
Fútbol 86
Gav@@ 86
Gene 86
Hansen 86
Haupt@@ 86
Hochschule 86
Jefferson 86
June 86
Laf@@ 86
Lara 86
Mann 86
Monum@@ 86
Palmer 86
Pam@@ 86
Plant@@ 86
Princeton 86
Rachel 86
Randy 86
Ril@@ 86
Roi 86
Sala 86
Species 86
Süd@@ 86
Transport 86
WT@@ 86
after 86
aling 86
alog 86
americana 86
asti@@ 86
base 86
bles 86
common 86
eba 86
ections 86
emati@@ 86
emo 86
enton 86
erte 86
etr@@ 86
grav@@ 86
hits 86
ilian 86
ior 86
kas 86
lay 86
maker 86
nal 86
neo 86
olet 86
orph@@ 86
otive 86
rei 86
som 86
source 86
syndrome 86
tenberg 86
èse 86
ós 86
ğ@@ 86
λιστα 86
Х@@ 86
ле@@ 86
ղ@@ 86
ק@@ 86
Activ@@ 85
Aul@@ 85
Austr@@ 85
BK 85
Biblioteca 85
Buz@@ 85
Chic@@ 85
Dil@@ 85
Edwin 85
Emily 85
Frank@@ 85
González 85
Gottfried 85
INE 85
Innov@@ 85
Ish@@ 85
Lich@@ 85
Merc@@ 85
Michel@@ 85
Nih@@ 85
Ord@@ 85
Owen 85
Oz@@ 85
Patricia 85
Person 85
Rest@@ 85
Romano 85
Sob@@ 85
Strateg@@ 85
Sánchez 85
Ta 85
UA 85
aliz@@ 85
avec 85
ayan 85
cle@@ 85
eger 85
eles 85
escope 85
estar 85
games 85
gan 85
hof 85
ht 85
iel 85
lé 85
manager 85
nd 85
neum@@ 85
oking 85
oms 85
orie 85
outh 85
pool 85
quad@@ 85
rel 85
sam 85
shu@@ 85
software 85
stitu@@ 85
swe@@ 85
Ú@@ 85
ĝ@@ 85
πασε 85
ве@@ 85
ח@@ 85
ان 85
Abel 84
Banco 84
Cog@@ 84
Comput@@ 84
Detroit 84
Federico 84
Fest@@ 84
Garr@@ 84
Gum@@ 84
Jen@@ 84
Ket@@ 84
Lt@@ 84
Mein@@ 84
Mum@@ 84
Partido 84
Ped@@ 84
Perry 84
Shanghai 84
Simpson 84
Zy@@ 84
ambi@@ 84
anted 84
app 84
arro 84
assa 84
bonne 84
eaux 84
eres 84
fen 84
ieu 84
iker 84
lich@@ 84
loy@@ 84
oki 84
only 84
pass@@ 84
ram 84
sult@@ 84
sym@@ 84
think 84
tir 84
zum 84
ʒ@@ 84
А 84
ְ@@ 84
Ἔ@@ 84
7. 83
Alf@@ 83
Bella 83
Florence 83
Forces 83
Fot@@ 83
Fus@@ 83
Koh@@ 83
Los@@ 83
Lup@@ 83
Murphy 83
Mwanza 83
Orléans 83
Pant@@ 83
Patri@@ 83
Paşa 83
Rech@@ 83
Rodrigu@@ 83
Tok@@ 83
Vati@@ 83
allas 83
antas@@ 83
camp@@ 83
canon 83
cou@@ 83
dro@@ 83
erek 83
esses 83
etes 83
gender 83
gun 83
hav@@ 83
hop@@ 83
ied 83
inski 83
jin 83
liers 83
manuel 83
obr@@ 83
pf@@ 83
reaction 83
spe@@ 83
stand@@ 83
tari@@ 83
thal@@ 83
they 83
tible 83
tiers 83
tney 83
usi 83
utt@@ 83
ved 83
views 83
wehr 83
weight 83
yna 83
zin@@ 83
äf@@ 83
Ō@@ 83
ƒ 83
слав 83
ר 83
ル@@ 83
Aj@@ 82
Bill@@ 82
Carp@@ 82
December 82
Defin@@ 82
Elle 82
Eugen 82
Fund@@ 82
Gad@@ 82
Grap@@ 82
Haute 82
Hoff@@ 82
Independ@@ 82
Kay@@ 82
Laguna 82
Nation@@ 82
Organisation 82
Solomon 82
Spin@@ 82
Termin@@ 82
Verlag 82
aller 82
asing 82
cont@@ 82
cord 82
cut@@ 82
dir 82
eke 82
etle 82
igan 82
jum@@ 82
kit@@ 82
kle@@ 82
leo 82
lington 82
one@@ 82
othy 82
oğlu 82
pia 82
projects 82
properties 82
quel@@ 82
sole 82
sub 82
suit 82
tank 82
udo 82
western 82
¡ 82
Í@@ 82
ħ@@ 82
σκολο 82
нови@@ 82
ц 82
ტ@@ 82
リ@@ 82
1,000 81
Commander 81
Cz@@ 81
Dob@@ 81
Ener@@ 81
Euph@@ 81
Glenn 81
Hardy 81
Haus 81
Hous@@ 81
Lili@@ 81
Malcolm 81
Mali@@ 81
Many@@ 81
Michelle 81
Montre@@ 81
Pablo 81
Paci@@ 81
Paran@@ 81
Protection 81
Quin@@ 81
Sofia 81
Sph@@ 81
Tik@@ 81
Vivi@@ 81
ago@@ 81
analysis 81
anch@@ 81
atory 81
ause 81
bad 81
cer 81
enty 81
esco 81
eston 81
flora 81
frag@@ 81
ft@@ 81
grec@@ 81
icks 81
ince 81
inen 81
isti 81
itzer 81
ja@@ 81
kam@@ 81
mani@@ 81
nec@@ 81
nio 81
rea 81
ses@@ 81
she 81
thal 81
title 81
unga 81
werke 81
yin 81
zan@@ 81
zar 81
ɐ 81
Ку@@ 81
Ш@@ 81
ор@@ 81
ي 81
დ@@ 81
└ 81
1,4@@ 80
Alban@@ 80
Bahn 80
Castillo 80
Circuit 80
Command 80
Dietrich 80
Distribution 80
Git@@ 80
Grou@@ 80
Gw@@ 80
Indiana 80
Italy 80
Jard@@ 80
Jeffrey 80
Kentucky 80
Landtag 80
López 80
Martha 80
Mohamed 80
Orlando 80
Panam@@ 80
Peti@@ 80
Railroad 80
Real@@ 80
Rey 80
Savo@@ 80
Schil@@ 80
Singida 80
Spring 80
Turkish 80
acul@@ 80
ancy 80
angle 80
beg@@ 80
bet 80
cript 80
eiro 80
fest@@ 80
hoy 80
iche 80
iment 80
mia 80
nos@@ 80
oides 80
olph 80
omon 80
onga 80
orial 80
osi 80
rate 80
ren 80
sour@@ 80
storm 80
unter@@ 80
uster 80
yet 80
ème 80
éph@@ 80
ét@@ 80
ım 80
œ@@ 80
ų 80
кови@@ 80
ђ@@ 80
ি@@ 80
1,8@@ 79
Allgem@@ 79
Artem@@ 79
Bertrand 79
Buffalo 79
Chim@@ 79
Dar 79
Dus@@ 79
Dw@@ 79
Eisen@@ 79
Fernández 79
Israel 79
July 79
Kara 79
Mug@@ 79
Mw@@ 79
Princ@@ 79
Rail 79
Sah@@ 79
Sara 79
Sey@@ 79
Staats@@ 79
Terminal 79
Test@@ 79
Theodore 79
Trag@@ 79
Version 79
adas 79
bias 79
casting 79
dar 79
dir@@ 79
dru@@ 79
epis@@ 79
essen 79
ester@@ 79
font 79
ignon 79
ilde 79
inger@@ 79
isions 79
iso 79
jon 79
know 79
laine 79
marketing 79
mina 79
network 79
offic@@ 79
opar@@ 79
raum 79
rum 79
spo@@ 79
tat@@ 79
tens 79
ummer 79
ís 79
Έλλην@@ 79
ειοψηφ@@ 79
Никола 79
во 79
ко@@ 79
си@@ 79
Մ@@ 79
⋅ 79
Ago@@ 78
Anto@@ 78
Bailey 78
Bald@@ 78
Benedic@@ 78
Bez@@ 78
Bü@@ 78
Dimi@@ 78
Emb@@ 78
Emperor 78
Jupiter 78
Krieg@@ 78
Kunst 78
Landes@@ 78
Mikha@@ 78
Monter@@ 78
NY 78
Nath@@ 78
National@@ 78
Pour 78
Québec 78
Ricardo 78
Rotterdam 78
Segunda 78
Shr@@ 78
Sot@@ 78
Stan 78
Weber 78
XIX 78
Yer@@ 78
agent 78
aven@@ 78
cola 78
cons@@ 78
dim 78
edi 78
edition 78
endo 78
enter@@ 78
fred 78
gae 78
ional 78
ligh@@ 78
museum 78
num@@ 78
possible 78
wit@@ 78
zano 78
ód@@ 78
μβρίου 78
Ре@@ 78
лович 78
Ս@@ 78
Ἦ@@ 78
0.8 77
Americ@@ 77
Atom@@ 77
Berg 77
Christi 77
Cub@@ 77
Cyr@@ 77
Dodoma 77
Frances 77
Frankfurt 77
Gag@@ 77
Iringa 77
Nikol@@ 77
Pog@@ 77
Proj@@ 77
Pé@@ 77
Rak@@ 77
Río 77
Sour@@ 77
Sylv@@ 77
Tag 77
Theod@@ 77
Tub@@ 77
Ut@@ 77
Warriors 77
Yu 77
Zap@@ 77
abol@@ 77
aching 77
address 77
anz 77
chap@@ 77
chil@@ 77
chor@@ 77
cla@@ 77
dienst 77
dii 77
erina 77
essing 77
flow 77
gres@@ 77
horn 77
ios 77
olus 77
piano 77
plane 77
regi@@ 77
shows 77
sports 77
tiz@@ 77
uel@@ 77
¼ 77
érie 77
καταγωγ@@ 77
Вла@@ 77
Со@@ 77
го@@ 77
ὥ@@ 77
Ῥ@@ 77
Affairs 76
Alek@@ 76
Amad@@ 76
Aw@@ 76
Boc@@ 76
Brooks 76
CB 76
César 76
Davies 76
Deportivo 76
Derby 76
Draft 76
EE 76
Ehr@@ 76
Groupe 76
Grove 76
Harr@@ 76
Hockey 76
Koch 76
Mer 76
Milan 76
Mill 76
Municipal 76
Nina 76
Physi@@ 76
Rat 76
Roch@@ 76
Rous@@ 76
Site 76
Wur@@ 76
bed 76
bek@@ 76
cab@@ 76
cen@@ 76
due 76
enthal 76
former 76
ful@@ 76
hous@@ 76
iff 76
iken 76
immer 76
international 76
label 76
language 76
lide 76
melan@@ 76
ners 76
odi 76
opl@@ 76
orr@@ 76
people 76
polize@@ 76
sak@@ 76
tac@@ 76
used 76
username 76
wid@@ 76
ylus 76
zel 76
Île 76
Đ@@ 76
ń 76
Ру@@ 76
2,5@@ 75
Aster@@ 75
Cler@@ 75
Cly@@ 75
Contr@@ 75
Corr@@ 75
Develop@@ 75
Elena 75
Génér@@ 75
Haf@@ 75
Hali@@ 75
Histor@@ 75
Joshua 75
Kau@@ 75
Kop@@ 75
Liverpool 75
Lopez 75
Musik@@ 75
Nach@@ 75
November 75
Now@@ 75
Percy 75
Posi@@ 75
Quint@@ 75
[...]
