#version: 0.2 - Trained by `huggingface/tokenizers`
i n
t h
e r
a n
o n
e s
e n
r e
th e
a t
i s
o u
o r
a r
a l
i t
e d
a s
l e
d e
t o
in g
q u
en t
an d
o f
i on
i c
o s
o t
i l
o m
h e
a p
u r
s t
e t
p r
a c
u n
e l
i d
l a
c h
s e
v e
qu ot
a m
o l
f or
a d
i r
t r
ap os
i m
u t
b e
es t
ou r
a y
i g
c e
c on
er s
o w
u s
at ion
a g
n e
w h
m ent
a u
t er
l y
v er
th at
t e
o p
c om
il l
s a
an t
c t
a b
l es
T he
i th
p ar
p l
d u
s u
a in
p e
f r
i e
a re
w ith
ou t
w as
an s
m e
d es
i v
sa id
l d
u l
er e
e x
al l
m o
h a
i f
0 0
pr o
es s
at e
ou n
qu e
or t
g r
en d
e ar
h is
a v
b y
a k
i re
ig h
s h
s o
w e
p er
i es
is t
m an
s i
c l
c r
ar d
on e
fr om
ha ve
l o
n ot
r es
c i
th er
h as
ou ld
l i
d é
on t
p ort
o ver
a f
it y
ou s
as t
un e
a it
d ay
g e
ac t
i ve
igh t
r o
s ur
ac k
u p
g h
b ut
e m
é s
I n
o d
ic e
ion s
st r
p our
y ear
d er
ag e
w or
par t
a is
of f
os t
it s
u re
in e
qu i
k e
w ill
u m
é t
d i
c ent
ic h
com p
wh o
o re
s er
d o
el l
om e
b l
in t
é r
d r
m er
ar t
on g
h ad
ow n
an ce
o k
p as
en ce
u e
f in
th is
the y
b er
u d
g o
ou gh
p u
é e
u st
s on
d is
C h
the ir
f e
ac e
2 0
it e
T h
m ar
d ans
i p
m in
m on
w ere
i al
s p
r é
ig n
t re
or s
L e
i er
mo re
t im
id ent
os e
oun d
ur s
be en
v en
2 00
p re
c re
b r
ation s
a il
c k
A n
c o
an n
ac h
ab le
c an
i a
I t
wh ich
f ir
b o
p ol
an y
al ly
en s
w ould
p os
ab out
m a
at ed
h er
at t
c he
n o
ar y
- -
al e
c es
b le
or d
am e
ar r
y ou
p o
am p
i le
in ter
H e
u x
t s
ne w
is h
w o
af ter
an g
o ther
r a
th an
ct ion
it ion
F r
a ve
a ir
j e
p la
s ay
ak e
re e
ol d
ac c
i ent
n ow
w ay
1 9
as s
U n
i de
g et
wor k
au x
el le
m is
o b
S t
pl us
i que
s ome
R e
D e
c er
N e
B r
i en
ic k
ol l
op le
el y
1 0
s he
in v
for m
al so
è s
p h
pr es
i an
ou p
wh en
is e
m ill
e k
f er
d on
i è
o y
tim e
p t
ver y
i z
as e
pe ople
W e
in d
t wo
B ut
pe ct
in s
e f
it é
ic al
j ust
c our
v is
A l
at es
o is
ment s
c ur
pu bl
com m
pla y
fir st
a ire
ing s
th ere
c oun
in to
L a
o c
ant s
e p
b re
o g
be c
l ast
an k
M r
con t
ic t
over n
l and
m ain
ci al
M ar
b ack
n ation
v el
Ne w
con tr
ap p
W h
f ore
ser v
m y
c ould
re t
the m
a ut
v ent
E n
on s
m at
ét é
h im
t y
i b
publ ic
as h
u g
ave c
in k
po int
we ek
m ost
tr y
re port
m ed
00 0
au se
year s
f l
re g
ur n
he l
s c
wh at
c ut
le ad
i ed
en c
con d
g u
v o
20 1
it t
g overn
. .
il le
n er
li ke
mar k
v ie
or y
ul t
j our
d own
te m
in cl
th ing
s y
off ic
ag ain
ent s
t ain
th r
p ers
c ess
f ul
un der
com e
st ate
v i
re l
et te
es e
qu es
su p
os s
A r
t on
con om
I l
ur es
b u
p ay
e ur
L es
c all
h igh
at er
A s
b et
c ed
pro du
P r
é es
pro v
d ire
l ong
c ol
it ies
at s
on d
n es
al s
inv est
g an
d if
in ce
h ow
b el
C om
a th
mis s
wh ere
at ing
t en
c ap
ot e
et s
am a
p ut
u se
on ly
pr és
An d
ch o
s el
to p
mon th
govern ment
A mer
ar g
con s
d id
op e
mill ion
a w
ad d
Amer ic
S e
f ic
s pe
it ed
u es
en er
iè re
r is
n ing
C on
c le
s es
bec ause
m es
u b
op er
th ree
s ont
f am
pr é
m il
un d
a de
c ar
re d
3 0
i el
le g
ic es
en g
be fore
sh ow
de c
i x
an ge
t ing
i o
en se
per cent
it al
say s
us ed
ou se
me m
man y
as ed
nation al
e le
lo ok
pers on
l ed
m et
re c
al th
he ad
ur ing
é n
il d
le t
m ais
v ers
iv es
pl ace
f il
pr is
é g
w r
1 5
f ait
u ch
im e
re ad
b us
u i
s et
thr ough
us si
ne ed
an c
O b
so ci
O n
les s
f our
si de
de ux
ak ing
t al
w ell
c al
s ign
m ay
im p
be ing
again st
ma de
pol it
M on
wh ile
ow er
P ar
é l
if e
a x
la w
A u
u al
v ed
iv ers
to ld
il y
ard s
fe ct
m s
pr of
m ake
G r
p or
hel p
s ou
o h
r ight
e ven
pro gr
at ive
wor ld
r un
ent re
1 2
d it
as on
b or
de v
incl ud
g re
e conom
ol og
pas s
vie w
J e
pu is
Ob ama
th ink
w in
s ol
T his
r y
c or
pre m
h ome
n et
se cond
ar s
in ess
je ct
gr oup
sh ould
E ur
U S
w ant
t out
N o
b ill
l ine
f o
th en
a h
offic ial
p on
st art
ou ver
F or
tr ans
1 1
T r
th ose
ic s
in a
x t
c la
pr ess
c ette
I s
qu est
su b
as k
c us
s al
e very
ag es
m uch
v es
comp any
der n
cont in
5 0
The y
s ince
su ch
te am
ex pect
se e
t ake
w ar
t ou
w om
le ur
i ous
st and
st ill
e ver
go ing
tr av
pol ice
ie f
a ient
k now
p end
Q u
comm un
if ic
ct or
ist s
il ity
m en
y s
min is
th ough
y our
m é
r est
or gan
c as
g y
n um
1 8
c amp
go od
A f
pl an
ap pe
pr op
sup port
b ig
it u
v ing
m and
in st
or k
vel op
v ol
i ers
av ait
coun try
cho ol
g ot
ul ar
k ill
af f
a i
b all
f ound
Eur ope
we en
in cre
includ ing
g est
h and
b ank
ê tre
ê me
1 4
res ident
bus iness
c oup
ow ing
r en
v al
part ic
c are
f act
pres ident
au l
is su
Th ere
mark et
bet ween
d uring
ou v
st ud
str u
miss ion
pr om
è re
p at
h om
B e
l in
a ur
a z
t our
am es
r ent
Br it
fin an
S h
ne y
ne xt
b ro
are d
mil it
g er
b al
g l
S o
ce pt
ex pl
su re
cle ar
f t
progr am
s m
pl oy
ut ion
Th at
A t
p le
air es
il s
M c
w ard
av o
us h
for mer
end re
com me
id er
R o
S he
ne ar
ar ound
enc y
i or
1 6
h al
i ques
ch ange
J oh
is ion
n é
s l
ch er
in form
un t
t ax
n ous
P h
C l
si x
p ed
1 3
g ame
s ent
ir d
c u
.. .
st em
th ese
ar ter
ét ait
pos ition
b ers
f f
im port
p s
Y ork
k s
ne ment
1 7
N or
r i
f ar
n ight
op en
j or
pos si
cer tain
sh ip
t urn
h u
n om
ap r
v ir
est er
to m
Joh n
ord ing
le urs
ex per
le ct
con tre
I f
do es
ch n
Un ited
one y
tr es
Fr ance
ent er
a ther
c ost
id ay
w on
de f
du str
iv ing
qu é
apr ès
m ême
f ac
re cent
p op
2 5
f ace
l ife
el s
ch ed
ag o
i k
ar ge
con cer
200 8
cr it
n on
ur y
call ed
r ais
Americ an
th or
C o
s chool
In ter
ain e
act ion
to o
r an
C an
t ed
h old
a ussi
mo cr
an other
point s
se ason
s to
ex p
re al
bo ok
su c
c ot
j o
att ack
E t
j ob
con f
C ar
bo th
dr en
f oll
p ower
bel ie
re le
le ft
S ou
s ame
g ener
iel d
ma jor
n ed
for t
il dren
f ive
m us
h app
b on
at ur
a id
d ou
b lo
v ic
o th
n u
f aire
o od
d en
l l
e v
su m
n or
he alth
s us
ter r
M ic
an ç
S un
im es
li k
res pon
ô t
read y
le y
j ou
tr o
ist an
end ing
ch es
l im
M an
re main
re f
al y
Y ou
19 9
in dustr
B ar
is s
re m
c el
is te
ou ve
s ite
ch ang
vo ir
s en
way s
b an
b est
de al
P resident
c te
month s
bill ion
ess ion
c é
l ot
fam ily
200 9
m al
S y
fin d
fe w
ed er
cl os
b od
qu el
hal f
u de
S te
i end
4 0
d om
de velop
official s
day s
sy stem
cour t
ch ildren
n ess
le ment
C ol
tr ad
c ase
u ally
v ot
prés ident
l ui
r ap
rec ord
t ak
n al
O r
c over
iv ed
pol ic
D av
gr and
ret urn
to w
qu al
it és
av ant
h ouse
sel f
ish ed
a ign
ut e
off er
cur ity
te chn
m oney
qu arter
act iv
t est
an te
it ions
h ard
h ere
l ing
me et
s w
b ien
cla im
ation al
p ost
f und
bu ild
B er
report ed
de puis
L i
-- --
w he
m ak
u el
w w
se m
de b
m id
t es
pr iv
i but
ch arg
dif fer
am ed
Fr iday
mo ve
it es
prop os
ear ch
f ois
T ues
f ut
end ed
avo ir
Tues day
itt le
ef fect
m ight
min ist
inter est
ing ton
S p
num ber
pro ble
tr ois
Mon day
Ch ina
ann oun
g ed
j u
ire d
p ast
on es
s é
W ed
iv en
is m
re ce
in ed
o to
jour s
his t
M in
ne ver
at ure
de mand
expect ed
H ow
th ird
pres ent
ale ment
e cut
re ally
vi ol
an ces
se ver
ke ep
inform ation
m om
all ow
E l
id ence
E x
g in
le vel
G e
a way
r ic
f all
Wed nes
P ol
e vent
acc ording
c ame
b ased
ar m
Wednes day
ac r
c ity
ear ly
is ter
Th urs
mat ch
pl ac
Re public
l ight
p en
at ely
B C
Thurs day
ke y
s k
fr iend
to ok
it er
au thor
20 10
tr ès
iv al
gr ap
at ch
& #
tr u
camp aign
tr ain
2 4
add ed
d oll
sp ok
dé c
at or
is se
in c
1 00
gre at
S cot
b ar
fr ont
at ic
em ploy
M ay
ber t
M ais
r u
ou pe
b en
C or
l er
i um
vis ion
en ces
ag er
st e
u di
y ing
A d
cl ub
S er
ap pro
ê te
h our
s ing
k n
C al
201 1
ough t
cur rent
p et
si ve
iz ed
D r
invest ig
l ater
lik ely
j et
fin al
re qu
T o
l ittle
pay s
c tr
minis tr
c arr
quest ion
m or
201 2
H ouse
se em
os p
lo cal
G u
et y
o ù
fo ot
bet ter
Au str
m p
v a
mill ions
id es
A pr
import ant
wom en
comp an
B l
b as
possi ble
finan cial
200 7
with out
sm all
e ach
ct ions
as ter
c and
y oun
li er
2 2
ad v
A b
Sou th
serv ice
le x
m ag
de ath
le ast
polit ical
m ber
vi ous
str ong
whe ther
prés ent
on y
ivers ity
Wh en
milit ary
gr ow
w ent
6 0
su l
en n
to day
ent ial
W ash
ag ed
b our
com ing
vir on
id ed
cre t
ré g
p ot
en e
bod y
c ast
ex ecut
pr ot
b it
for ce
al ready
is ation
é v
u ary
Sun day
z e
sh are
mem bers
dif fic
im in
A P
serv ices
an che
eder al
D es
C oun
St ates
g lo
f ight
d ont
ag ue
L on
la m
an e
de l
i ans
t ar
o e
unt il
c y
tem ps
f ail
Wash ington
us ing
O N
eur os
tim es
b ur
b il
spok es
ain s
su g
ot s
l arg
Austr al
new s
2 1
on ce
fil m
in de
h it
Can ad
h am
suc cess
r ist
G er
S en
De mocr
ut es
ul ation
al es
f ur
or der
é qui
ir es
au tres
ch ief
m aking
s itu
pe u
ér ie
2 3
g ouver
f ield
s ans
in es
ro om
al k
M e
b ab
ar k
Lon don
u c
produ ct
am ong
am ent
at ors
l ist
cand id
part y
sh ort
ter m
Al l
Dav id
cour s
l ors
en ed
compan ies
tr a
p ur
an de
econom ic
grap h
iè me
v ous
some thing
C e
t it
er a
ab ility
f ree
enc ore
ar i
W or
pr ise
v ict
se curity
j ud
O ne
con st
inter national
ch amp
W ith
cons ider
inv ol
P our
wom an
did n
c a
op t
lead ers
i am
sh o
ar ch
s our
s top
Brit ish
in j
d ro
olog y
se x
A m
mo ins
l ow
ser a
pr ote
anç ais
state ment
work ing
cl ass
f ire
8 0
kn own
h ip
ro ad
c in
au gh
prem ier
S atur
t ail
th re
Nor th
a ver
ic ally
est im
kill ed
g én
econom y
r al
F e
oun t
w ater
Satur day
cap ital
st re
b at
us es
sever al
s ell
fe el
2 7
part ment
for d
ad ministr
contin u
se en
it ing
r ound
R es
f ig
u ck
g es
mom ent
gr ound
il la
P ro
W ill
is on
pro cess
An g
J an
th ings
Is ra
re ven
In di
W est
ac y
so cial
l ie
m ort
g ive
m ust
ent ion
comp et
om b
acr oss
at a
A S
r ait
ient s
dis tr
P l
la y
res earch
s ort
re ach
fir m
be come
N ational
o il
m un
tow n
ist es
Qu é
en viron
et er
En g
ct ed
ang er
look ing
ex t
G o
Mar ch
b ud
say ing
tr ies
sh ar
pl ic
ure d
Af gh
if ied
age ment
fut ure
d iv
port s
m ot
d s
l oss
du e
tak en
m it
com ment
p ond
cl ar
i ke
ap er
o le
v ille
H is
C r
s om
st or
mo is
I ran
g as
ful l
ul ts
ou l
dern ier
sug gest
youn g
Wor ld
tal k
U ne
des ign
2 6
T V
gouver nement
Je an
l arge
com es
h ol
f av
and s
t ell
sal es
pe ut
cl ose
differ ent
Americ a
im ent
bre ak
ph oto
issu e
he ld
P e
c il
S u
C ity
w it
2 8
is ed
en ough
dire ctor
cte ur
Ge or
st ep
w ide
C our
dr ess
M ed
R om
min utes
dec ision
él é
ris k
ann ée
Afgh an
l ate
p ing
i ence
c ell
fer ence
Wh at
mem ber
J ap
A fr
7 0
concer n
c ause
h op
g iven
off ice
prot est
J u
ask ed
ch é
in fl
Ch rist
Europe an
g en
cour se
lead er
are a
al ways
R ussi
U K
pr in
s im
iz e
l or
tr ait
pro ject
ch ar
for man
pu b
ha ving
industr y
col le
Af ter
al ong
ér ic
an aly
ph one
lo c
e as
Un iversity
h ab
n ouve
t ous
B o
pris on
l ost
r ad
S ch
ag n
is é
arr est
en ne
gén ér
osp ital
A c
re du
pl ans
t aking
cr é
P al
B y
Isra el
f ell
l at
week s
T e
if f
Qué bec
c iv
minist re
gr ess
New s
sel on
grow th
it ive
F in
c ir
play ers
h ind
P art
o z
gr oupe
dr ug
al ors
9 3
A N
I ra
con se
se ven
St ate
s ous
st er
201 3
per forman
v ote
r ate
s imp
b att
op s
i ver
as soci
Ira q
foll ow
Eng land
G re
n a
E d
5 00
contr ol
pr im
2 9
for ces
é le
ag ree
announ ced
te le
h y
to tal
r up
ut ers
P er
al leg
cus s
ele ction
H er
ir l
ther n
B ank
iv ely
in it
contin ue
ie urs
g n
f un
As soci
cr is
bo ard
g ar
b ed
i od
en f
ch all
i ble
f em
J une
sul t
M art
try ing
fo od
con stru
Par is
at r
f oc
re ed
belie ve
p ite
en ch
of ten
se main
ter min
m ess
vis it
n ers
ore d
I N
te e
f ederal
ul l
r ou
be hind
p an
coun tries
though t
glo bal
S ome
fur ther
s ci
im m
ig ne
ci p
sto ck
M y
prem ière
3 1
h ic
4 5
mon de
é conom
Mar k
for ward
g un
sh ot
situ ation
an im
O f
aut re
iè res
res ult
polic y
r ac
hu man
ap e
j à
me as
ben ef
n el
ab l
ap s
l un
el t
B en
g ames
pre vious
or ig
el f
J ust
doll ars
i ens
c ult
y et
9 1
ition al
em er
3 5
in ation
su per
diffic ult
fr ançais
bud get
équi pe
r on
A p
Jap an
tr é
f a
med ia
b and
ate urs
pr oper
dr aw
spokes man
ear lier
v ide
an ci
do ing
al most
ha el
spe c
s cr
d ict
a j
id s
oth ers
P aul
execut ive
wh y
pr ices
itt ed
d one
ain t
D ans
ser ies
ate ur
d im
con du
Ch ar
dr op
A ir
ég alement
fam il
at ives
par ents
is er
la un
pr ice
hour s
av ail
contr act
Afr ic
dé jà
p ens
S an
ab les
f ér
y n
mus ic
de li
g ing
op é
e y
b ase
ion al
per iod
me an
M al
S tre
su f
nom bre
h on
wo od
ig r
de ad
bu y
spe cial
ge ther
of t
Wh ite
play ed
Mic hael
get ting
wh ose
ch ild
inter view
pub li
v ice
champ ion
ill er
with in
k ind
tre at
dire ct
ef f
Apr il
end s
stud y
at re
com mer
incre ase
en sive
ê t
des cr
m i
Ph il
be gan
tr op
am éric
ent e
comm it
near ly
thre at
M er
c oll
am b
o i
br ing
dis cuss
produ ction
st ay
pot ential
ro le
m as
Sy r
ch a
meet ing
P I
foll owing
ain si
Ang el
h or
appe ar
f lo
h ot
ver t
partic ip
f aut
M s
lead ing
ak istan
tar get
N ous
di ed
tou te
co ach
pro ve
res pect
b ad
d le
do cu
d ata
res ults
pr ès
li ve
d am
A T
jour nal
administr ation
out side
lin es
ill es
mo ther
in sur
D on
dé clar
r és
C E
n ée
le ar
sign ific
Brit ain
ac cept
C am
to gether
app el
person nes
to ire
ann on
che f
ien ne
trav ail
str ate
n ame
be au
200 6
i for
performan ce
as ing
A ug
re v
un es
partic ular
h ost
priv ate
S ep
cris is
p ér
civ il
P akistan
rup t
op position
st ar
aul t
res pond
tou jours
so ir
press ion
en ing
it ch
H ar
cent re
Re uters
De partment
r ich
ent ly
Pol ice
S m
ad es
su iv
u le
è me
au to
Canad a
M o
ou d
start ed
st aff
build ing
he ar
g irl
go al
re w
t t
au di
does n
c it
Will iam
port un
su ite
am ment
se ek
ener gy
r ow
ch ance
fore ign
minis ter
D an
ith er
it ution
R ich
rele ased
ser ious
b les
ifor n
pré c
n i
plus ieurs
w alk
high er
N ot
D is
ww w
T imes
How ever
terr or
ar gu
want ed
st ory
ard i
iv id
st at
h ospital
t ant
us qu
dé but
ag ne
acc ess
c up
Stre et
incl ude
w ind
H u
ch air
mill i
at tr
S tr
mark ets
so it
in di
c ul
Ju ly
Cal iforn
e ight
avail able
L o
Republic an
m ont
deb t
op portun
pro ch
pr i
contr ibut
hist ory
ag ing
proble m
as se
is me
tr ial
ic ip
as sur
ie ux
med i
cre di
Wh ile
cret ary
he art
f ather
cre dit
de cl
we b
M or
bank s
ch arge
Ch in
Sep tem
g ency
pl ann
a head
ful ly
w atch
cost s
qu ick
v é
an a
at tem
ré al
M us
af t
s at
b ot
eur opé
il ar
p ick
L ab
if s
bro ad
imp act
i qu
ac qu
C ap
elle ment
chang es
t ies
L ast
ç a
ann ées
right s
19 8
Septem ber
C N
p ou
est in
sp ending
dé f
pos ed
prof ession
Inter national
in come
O c
J ack
m ult
e u
proble ms
report s
gener al
I I
su it
t able
i qué
H ol
prov ide
ose cut
H am
him self
w er
d ate
work ers
j am
o v
9 0
r ace
for ts
sa w
A ct
met tre
con fir
c ing
job s
cl im
cond itions
Afghan istan
charg es
coup le
un g
signific ant
he im
id ing
K ore
on line
ind ivid
quel ques
au d
commun ity
cr imin
l ower
act ions
wor th
aver age
prof it
bl ack
ra ther
sp ir
el les
w ife
mor ning
er r
Min ister
iz ation
pr endre
it or
ev idence
nouve au
p ush
n ings
c ash
mak es
if t
Cour t
v endre
f air
h ui
sel ves
M P
sen ior
recent ly
pr act
v oy
i é
ic i
g ave
ouv elle
Californ ia
cr u
amed i
larg est
E S
group s
de tail
be at
jour d
b la
com pl
Jan uary
m ur
stud ents
ab il
col lect
be gin
w ait
Com p
Un ion
J ames
author ities
issu es
c ou
pris es
par k
pend ant
ig e
j usqu
sus pect
big gest
quest ions
7 5
Scot t
ed uc
B S
d ur
work s
play ing
pol l
a im
d ie
por te
d ist
R oy
leg al
Fr ench
u des
in te
sur ve
b i
p aid
al d
f on
qu art
con serv
st ates
h um
s or
fav or
not amment
analy st
ic o
mo ved
prov ed
bec ame
ant i
respon si
O R
A R
h ar
ro ck
rel ation
c at
R ed
Chin ese
E R
re view
com b
re present
rec over
De ce
sp ace
rece ived
prin cip
re as
Dece mber
e qu
ci ally
man ager
turn ed
ut ions
la bor
us se
ment al
S el
S w
is ing
tr ack
run ning
orig in
Br own
N ow
f ond
g ain
under stand
ap point
cus tom
mo b
Ch ris
Geor ge
need ed
A F
trav el
L ou
vent ion
vide o
Mc C
id é
tr ou
S ur
p ack
b es
tr ade
g ment
vic tim
In c
descr ib
y le
L os
af fect
Austral ia
care er
f is
El le
Par k
P u
invol ved
person al
not re
ass ist
fr es
E ast
l iv
suf fer
in o
th ous
itt ing
nu clear
r ul
pro jet
W ar
im medi
invest ment
Rom ney
need s
Th om
ter n
ber g
ag ency
D u
s ance
how ever
re ason
con cl
pop ular
ef forts
3 3
L u
M ur
op ér
viol ence
v an
é co
V al
lat est
end er
b omb
m bre
ap par
Con gress
et t
l à
polit ique
s cre
ele ctr
int on
us s
techn ology
un ion
exper ience
he av
sing le
develop ment
product s
foot ball
pro bab
o x
h ope
oc cas
sa f
Americ ans
four th
ord in
att end
ct ure
st age
don c
on a
con ference
ex ist
vict ory
em p
M ex
so on
rele ase
Com mission
mo d
pl ant
ck ed
s old
ob ject
sim ilar
show s
c am
ind ic
lo ve
ut il
me ans
h ous
min d
è ne
reg ul
wr ote
M ore
y er
show ed
dim anche
qu atre
r ates
S E
pres sure
ce le
inc ident
Ro bert
sho ot
all er
C up
do it
E m
h ood
p ict
G overn
ester n
investig ation
t ent
ab o
any thing
Le ague
f ear
no thing
F lor
No ve
semain e
dev ant
tr ip
vendre di
ail leurs
l ink
comm and
B ro
or ies
n ouvelle
sou l
bo y
d ir
con ne
is l
ur al
v est
B ush
C ette
ck s
ad m
employ e
pat ients
comp let
M il
Nove mber
cele br
av ing
F ace
T ex
Gr oup
milli ards
sum mer
ne igh
eur o
c ôt
Sen ate
ow s
str ug
tré al
part ie
appro ach
ét aient
reg ion
des pite
pr ix
if y
B BC
t or
sp ent
fe at
ound s
te ach
inde pend
N et
O ly
E ar
m ing
s qu
Angel es
invest ors
s port
Aug ust
s ens
re tr
ve hic
play er
e ux
val ue
t u
s pr
S aint
f ast
è res
3 6
déclar é
S pe
le ave
Oly mp
af fir
probab ly
s pect
A lex
av aient
Cl inton
man de
custom ers
val u
cent ral
B el
che z
s amedi
are as
il t
3 4
ers on
work ed
comp ared
es pe
f ans
cas es
attack s
p ain
l ives
ab ly
t é
je unes
g ent
amp le
ad dress
to ber
im prove
us ion
re form
g al
d ic
el se
respon sa
i ant
mis e
T om
k y
crit ic
K en
b ility
friend s
de ep
beau coup
Mart in
an ch
gr owing
can cer
Oc tober
e urs
C enter
sur v
call s
ur ch
es p
S am
gr ad
remain s
mat er
tr ict
pop ulation
enf ants
U PI
ain es
man agement
attem pt
Comp any
mil es
h ier
i ance
S i
sour ce
j oy
l ég
set t
r ise
com mission
é qu
cont act
reg ard
Is lam
pr osecut
mob ile
G ener
T ur
Sel on
r id
ide a
Indi a
shar es
se a
rap port
bo x
co gn
f la
ly ing
t élé
cr o
sa ison
n ine
Th ese
a o
appe ared
them selves
H ill
m ardi
P R
per form
M ad
A C
mat ter
cult ure
d augh
D o
200 5
lun di
program me
qu ant
rest aur
We b
li ament
te ment
ef fort
tal ks
je udi
M id
o vers
hist or
G M
r ose
pe ace
A si
g ard
f ix
nation ale
x im
claim s
vo it
long er
z one
tou ch
ar en
on n
CN N
Un is
thous ands
por ter
progr ess
dou ble
ven ir
Scot land
au jourd
ou vel
l os
r oll
und red
V er
cr oss
Inter net
Sm ith
p ie
if est
hom me
bl ed
help ed
ex am
Fe br
ight s
commun ic
3 8
deli ver
d y
win ning
u k
Q ue
ac he
Febr uary
some one
id a
com mon
E gy
3 7
got i
h ur
Russi a
sci ent
mer credi
tro du
sh op
ig ue
incre asing
3 2
cept ion
Pr ess
P ort
ce ed
br ought
jo int
pr ior
was n
Mon tréal
mar ché
I S
wr ong
b ul
ex pla
Bl ack
part s
ir st
re ve
clos ed
oper ations
med ical
ouver t
form ation
alleg ed
week end
alth ough
6 5
w ants
n os
Tex as
en cour
tele vision
lo g
comp te
P et
b ly
mo del
ex tra
vol ution
fail ed
v illa
um p
al ed
p es
for ced
v u
allow ed
Il s
é tr
4 8
p ose
pr ime
c op
w ear
do g
ip t
b n
S al
cur r
cr ois
il es
P rem
acc used
Rich ard
dern ière
pre t
---- ----
ester day
act ually
d anger
espe cially
constru ction
sy n
lie u
in ing
at o
É t
l iving
pour rait
j an
b ou
as es
W all
b ond
arrest ed
c ard
mo y
P ier
charg ed
in trodu
s ched
Coun ty
st it
en du
wh ite
blo od
tr ied
u fact
incre ased
Associ ation
ag reed
It al
mess age
5 5
ô le
act ive
prote ct
C he
acc ount
He alth
4 4
A M
seem s
he ard
z a
train ing
ent ra
s out
ne ur
t ough
po or
d ig
con n
new sp
E ven
3 00
E U
t w
û t
qual ity
ol es
ail y
president ial
u v
saf ety
ap plic
J er
su is
cr ow
mak ers
O ff
di pl
cond ition
Fr anç
au c
finan ci
str a
re présent
P M
con sum
st ation
og le
who le
génér al
cover ed
B ill
includ ed
I T
Republic ans
Face book
offic ers
r ange
cess ion
B ay
g iving
att ention
agree ment
dire ction
c et
comp la
r ay
we ap
every thing
mur der
ne goti
acc us
Democr ats
aut or
cor por
sp é
gr ande
R ob
per met
spe ak
W al
se arch
is es
N ic
coun ter
Bar ack
relation ship
op h
cut s
continu ed
rel ated
b id
M a
Ar ab
ct ors
A L
famil ies
As s
in side
ille t
vers ion
mé di
re fer
e ither
commer cial
ach ie
Go ogle
rel ig
m ic
fr u
er ve
infl u
M ont
acc ident
G old
qu and
ann ual
P S
y an
l ic
ter ms
cin q
sup pl
hu ge
pre vent
Coun cil
tro ops
re cogn
chall eng
ig er
ad vis
int ér
o bl
just ice
n ature
at ory
school s
s an
ser ont
ven ue
we ak
hom es
sp ot
part ies
offic er
main ten
t ur
sol di
v ra
Egy pt
annon cé
isse ment
B u
me ille
av ons
Lou is
leg isl
19 7
sl ow
s ites
describ ed
en ge
K ing
p il
la is
ar a
H igh
d ed
b res
init ial
sc ored
dec ided
pou voir
entra î
er re
deux ième
f ill
Gener al
Ch amp
i j
on to
aur ait
l ant
ex c
én é
n amed
Democr atic
ac ter
J ones
jud ge
dom in
ex ample
e ch
bor n
ne cess
Pe ople
T wo
qu ite
r ien
se y
s il
r ier
3 9
s ense
event s
su mer
d a
cel a
cre ate
fin ance
di al
f elt
our ces
l ang
D ay
cent er
p air
chair man
rég ion
l ack
u me
de pend
de mon
Franç ois
vot ers
h undred
4 7
ex tre
est ival
en de
ais se
stand ing
w are
r ied
acc ord
n y
inst e
Ac c
ent r
al le
jam ais
g é
particular ly
happ ened
level s
foc us
every one
can not
man ufact
av es
ru les
e ase
H arr
Li by
qu er
co al
4 9
I r
open ing
se ctor
ex er
V ir
quick ly
h aps
r ess
p ly
la ire
ét aire
se c
côt é
ish ing
F er
y esterday
not e
en qu
Ber n
dé velop
em pl
p al
200 4
ent ire
b ol
c ad
G l
mo bil
est abl
id ge
eng th
in no
doll ar
own ers
Gre en
occas ion
z er
con v
any one
Fr anc
min ute
is n
Ap ple
F irst
b um
mater ial
itu de
Ger many
b arr
am ount
w est
ain ed
daugh ter
Govern ment
tak es
T al
S chool
r os
IN G
su d
S to
imm igr
ke pt
r ank
organ is
is ions
th ers
o ke
con fl
ig ence
w el
I m
Apr ès
ser ait
abo ve
atur al
att a
Austral ian
treat ment
do or
concern s
at te
wit ter
O ur
net work
plac ed
d os
ré sult
docu ment
Ch ic
sem bl
s we
ex cl
look ed
aster n
un ivers
nor th
oper ation
app ed
it ation
D el
M iss
aj out
K e
Afric a
w ards
cel ui
he ure
def ense
g one
stra ight
bour g
r ing
mar s
Mic hel
B ra
respon se
ret our
sé cur
dif fér
fig ure
mat in
rais ed
N E
r ue
ret ail
dipl om
its elf
d ated
4 6
fig ures
pr os
h o
er ing
f é
educ ation
anci en
re bel
re pe
pur ch
B ur
for me
be y
proper ty
S im
deb ate
dis put
P eter
publ ished
fis cal
oper ating
t ers
dev rait
la it
dr ive
S up
T our
ut er
rest e
press ed
distr ibut
cr ash
ific ation
R é
M any
h tt
v ier
opportun ity
s ong
cr ise
reg ular
p un
ha ir
sh ire
C ent
po ol
h us
ph ys
inst all
au v
sh ut
tout es
exper ts
de fin
fund s
publi que
Ab out
pr end
indi qué
f ol
current ly
insur ance
get s
chang ed
dé r
trad ing
bon ne
reven ue
John son
aur a
com par
T or
st on
business es
sa v
htt p
ar ies
sub ject
en joy
ass ets
mo ving
Kore a
cap t
se par
expl os
n ive
d re
v ue
ju in
man ifest
ste ad
b ir
oc cup
run s
D en
Flor ida
le ction
m ass
r at
b éné
f uel
tour n
te en
cent r
ç on
Part y
P o
bu ilt
s ant
je u
he ures
m ail
t ête
re quest
Pier re
ist ic
cus to
Phil ip
et imes
b ag
è ve
ot a
con vict
hand s
happ y
trans port
4 00
cr ime
num bers
cent s
ol as
4 2
s n
pre p
Chic ago
T witter
tit le
ch os
tr ib
requ ire
commit tee
ed ge
mo vie
plac es
le te
k ick
laun ch
in er
eng ine
M os
augh t
t ick
t ir
incl udes
sa fe
follow ed
am s
p age
arr iv
d ing
G ree
Prem ier
Car ol
h ib
A D
candid ate
cont est
g ens
K ar
ess or
n ouvel
k new
claim ed
se u
ans wer
miss ed
immedi ately
chall enge
William s
land s
s mo
O h
li p
team s
employe es
r ain
Cam er
rais on
go es
c ès
g age
web site
open ed
b urn
st yle
belie ved
ser ve
S ark
r are
acc oun
own ed
W ood
br and
n ent
ie u
oz y
s ession
Pr ime
im age
dire cteur
ak es
w all
bor der
je une
itt en
ais e
ol f
sou th
Se cretary
C O
detail s
v ia
cl in
inste ad
int ell
sc or
In vest
obl ig
wor ds
ty pe
p ul
s oft
te xt
ac le
sa it
pro bl
tem por
simp ly
ang ers
major ity
au gment
gl ish
k ing
dr ink
art ic
af in
La ur
p sy
init i
att or
expl ique
ef fic
ver se
spe ech
m ble
W il
announ ce
Et at
offer ed
mid dle
spe ed
Syr ia
r il
in stru
Russi an
bro k
S a
E N
at ique
m ix
Pu bl
g old
gre en
est ic
anc y
200 3
P at
J ac
T im
8 8
fight ing
newsp aper
hus band
cher che
es se
s che
an o
state ments
comp lex
che ck
eas y
opt ion
ca used
s ale
f ais
M ac
rad io
benef its
P ost
we ight
ins ist
In stit
batt le
and on
Vir gin
cap ac
i elle
Sark ozy
str ik
19 6
res ol
McC ain
cre ated
op pos
fl u
de mande
sa ve
ad o
ce ux
part ir
meas ures
ch ose
mun icip
anc ing
consider ed
O S
comp os
J o
érie ur
reach ed
tr ust
E r
Pl us
M ost
En glish
Jack son
pre dict
pos itive
kill ing
prom ot
e ment
s érie
s le
sto re
ouv r
fic it
O ther
a ide
hear ing
sc ore
c elle
im ag
Acc ording
Mex ico
simp le
Of fic
ér é
serv ed
E very
B A
ha usse
Roy al
eff et
car s
ma i
se p
v it
de m
z z
Ger man
At lant
U p
ur ies
mar ch
é li
lo i
in f
ens ion
Re port
ar ily
Su per
ma ire
G O
support ers
enqu ête
victim s
dec ades
hold ers
Gr and
af fic
sécur ité
main tain
S ant
Fr om
li b
S ha
pret ty
T ON
sur pris
9 9
fon ction
é p
rais e
trad ition
part is
ense mble
cl ients
n atural
um b
part ners
ant es
Fr ank
war ned
k ids
ve ut
sep tem
confir med
Camer on
avo id
start ing
look s
v ar
Off ice
fres h
ex em
Thom as
ha ut
resident s
septem bre
ac te
pr int
pass ed
add itional
ap art
add ition
dou b
nive au
certain s
r om
weap ons
f at
C la
enc ies
par ole
let ter
fe et
qu oi
en sure
4 1
Just ice
p a
r out
return ed
ic a
bo ost
Se curity
w ish
ash ion
v ient
jan vier
cr aft
Tr ans
B al
prote ction
I C
4 3
AF P
sw ire
Franc is
R od
Sh ar
pen al
v ou
J im
do z
exer c
ref lect
D et
happ en
plann ed
t end
sem ble
partic ul
ure au
mem bres
rou te
h an
p aper
cir c
le aving
v iv
ré du
No v
g ers
ip s
inj ury
S ol
f it
ab in
pass é
prov ided
hab it
M et
demon str
mo dern
î t
qui p
ph en
Th en
no on
m ist
tr ue
S om
issu ed
associ ation
re comm
S A
to ward
compet ition
P as
Et ats
f i
his toire
cont ent
D ire
S ud
bir th
Al though
cle an
jou eurs
sc ene
O ver
appe al
Pal estin
add ing
Lab our
D i
al bum
Mus lim
U N
k in
sour ces
Com mit
ven u
H en
report ers
u er
p it
se ul
m ad
200 0
B or
J ul
gr é
aw ard
J ose
P atr
w at
ele ctions
min or
hundred s
M el
v ant
sell ing
tax es
dec ade
v ari
success ful
pres se
drug s
l an
pens ion
ib an
G lo
stre et
str ike
B ost
R en
polit ic
D é
ro y
S ir
j ets
s ound
av ril
p é
G en
par liament
sign ed
char acter
m ach
exp and
C es
5 8
sub st
independ ent
ci de
sol ution
Res earch
ploy ment
cha que
t te
J our
ad vert
strug g
ic ide
op in
bey ond
un k
t a
é cr
ens es
I M
program s
ap t
r ough
te x
R ad
aff aires
Bost on
E D
s ch
entre prise
ju illet
design ed
con sult
inst it
bel ow
drop ped
cte urs
un ique
M ike
surve y
ch ester
seem ed
du c
fam ille
O pen
j ail
U R
se as
ul ed
redu ce
soldi ers
Nic olas
b s
tit re
miss ing
meas ure
cent ury
est re
ay s
ag ers
wor d
I A
high est
New swire
inj ured
nor mal
Ser vice
ing ly
lo ad
stud ent
200 1
dro it
seek ing
S on
fore cast
5 6
è te
conf idence
le ague
lo y
O s
g ie
mar ri
sy st
5 7
neigh bor
sou ha
audi ence
ous ly
Commit tee
br ief
St ar
De f
m os
R os
leaders hip
fac es
ing er
si ze
ut in
An n
la h
r ival
Dan iel
son s
adv ant
T ele
soci été
exper t
î tre
entre prises
déc ision
Un der
af ford
hous ing
ch ant
rel ations
fund ing
strate gy
G ar
spec ific
decl ined
consum ers
Com mun
dis ease
shoot ing
wor st
Afric an
coun t
p ir
ig an
se cret
al one
And rew
heav y
jour née
re con
per haps
o o
blo ck
talk ing
l if
ro it
gu il
won der
comp lete
rupt ion
ex act
i ation
av en
ru le
B ig
m ine
use um
F ederal
certain ly
laun ched
sa is
wit ness
B us
dam age
re b
D A
part i
and er
be ha
man n
wr itten
H oll
min im
g au
D om
hot el
pas se
iz ing
part ner
Ch ief
crimin al
u ff
ear nings
call ing
év rier
we ather
law s
Associ ated
we alth
lo ck
al tern
It aly
sp end
améric ain
M oh
M ary
infl ation
de termin
bur gh
d ent
hold ing
dom estic
d in
b ail
oun tain
r ang
cit iz
j ug
d ès
fl ight
o de
Christ ian
al ys
f évrier
T ot
l it
docu ments
ak er
C er
hop es
previous ly
5 2
ra ient
research ers
con sumer
f le
off ers
S ince
sp read
O ut
économ ique
pass eng
Israel i
e quip
W estern
g ather
ris ing
str ess
t aux
la u
per fect
par ce
us ers
psy ch
c art
se cteur
B I
inde x
E L
A ve
F ed
R yan
oc to
M at
ment ion
mark s
lim ited
15 0
be aut
sched uled
ir a
estim ated
dr iving
book s
B our
blo g
act or
fin ished
ord ers
6 6
S ci
5 9
ob ten
e th
contr overs
requ ired
z il
mag az
in fr
own er
w s
strate g
comp agn
J ud
ro b
conse il
F T
N H
c ue
origin al
cur ities
b ow
201 4
C el
benef it
Scott ish
Mar ie
cho ice
coun cil
b éco
Char les
prov ince
fil ed
re trait
sat is
ad or
win ner
guil ty
av al
recover y
seu lement
dé put
could n
é ment
f ine
v ale
lo ans
J oe
w ed
s un
l anc
ajout é
re cession
emer gency
pract ice
Ste ve
s ports
S and
cons id
act u
ac es
villa ge
200 2
sc and
F ore
M ag
B oth
M ass
b aisse
som etimes
M ich
crow d
k a
n s
0 3
ét abl
il ed
over all
fin ale
suggest ed
dé s
en a
k id
Indi an
une m
ro g
photo graph
acqu is
m ieux
through out
necess ary
A h
gre ater
u f
ey e
P ac
W ell
Tal iban
ar my
l ose
trois ième
dé ce
after noon
act ed
pér io
out s
octo bre
B la
intell igence
k il
beha vi
exper ien
ab sol
pos it
an i
trav a
F ar
activ ity
colle ge
S il
polit ics
k i
if th
g ag
go als
o in
re member
ast ic
opér ation
Bra zil
loss es
in i
com ed
Asi a
co ast
analyst s
è le
cap it
y a
ob serv
belie ves
hol iday
sur tout
rul ing
don ner
no ve
de partment
responsi ble
it z
5 3
environ ment
candid ates
wh om
y ers
pr en
Sp ain
jo ined
Pr of
ort ion
6 8
com fort
C A
An other
gl ing
sp oke
Br ad
system s
nove mbre
me ant
govern or
suffer ed
L ad
appe ars
se cretary
V ict
individ ual
ag ent
fe u
sk i
effect ive
law yer
attor ney
5 4
N Y
trans fer
organ isation
fil ms
v ac
h i
expl o
is tr
6 7
ident ified
cad re
co ol
far m
B ob
I re
s end
sur prise
const itution
sol id
st udi
legisl ation
lang u
inter net
ow ers
marri age
de mocr
acc ue
un it
f ashion
ris ks
5 1
ag on
pie ce
com ments
ly wood
scre en
mon d
propos ed
su st
y ards
fin ally
begin ning
aut ant
Cor p
plann ing
Ire land
F A
im ages
n elle
qu ir
C ur
lo an
gu ard
coal ition
plan e
rece ive
crois sance
u ve
H el
w ild
offer ing
v in
v ation
clim ate
B as
concer ned
8 00
crit ical
M ot
mak er
C D
prim ary
sy m
fe ature
vis ite
ul tim
lib ér
europé enne
dévelop pe
ire ment
comp uter
bab y
C amp
techn olog
spé cial
Le e
ord on
ab s
now led
bal ance
ag it
b less
sex ual
T er
7 7
play s
n at
corpor ate
g ins
quel que
pas ser
mas sive
ind re
pros pect
us ually
k m
will ing
los ing
dos si
ound ed
fac il
B ou
on ic
re ject
AS H
condu ct
En er
re y
Man chester
hom mes
S ar
T reas
pl at
terr it
g ence
is ée
conf ident
Ar my
sal le
I D
om m
r ont
aw are
V e
sant é
r iv
em s
F ox
oe uv
p ap
c ities
A la
r am
arr ived
Instit ute
du l
person nel
lau gh
would n
flo od
s ha
Fin an
To day
lear n
m ment
pério de
s ides
electr ic
Th ose
Ave c
6 00
appro pri
carr ied
v ér
un is
bl ing
pet it
t ack
vic toire
F o
den ied
project s
semain es
St an
cons ist
c ore
def end
Mar c
us ual
pt ion
pl ed
bro ther
f ont
p m
PR Newswire
mais on
miss ions
trad itional
som mes
sl ight
Al le
proch ain
power ful
move ment
k o
vehic le
è g
record s
P an
lim it
ë l
NE W
w is
. -
Re g
est s
adm itted
N ations
â ce
reg ime
déf ense
pro pri
see ing
dis appoint
ne g
Se pt
pl ut
M me
conn ais
ju ge
dr am
spokes woman
reve aled
cr ack
com bat
p in
flo or
ING TON
ack nowled
Finan cial
post ed
sa voir
C entre
Des pite
nouvel les
arr êt
distr ict
re ç
p ath
D uring
milit ants
tow ards
Ro ck
mar i
ad ium
Mur ray
mort gage
protest s
jo in
has e
ren contr
ar med
contin ues
p ts
polic ies
tr im
achie ve
H all
v eter
199 0
ét at
fem me
sm art
qual if
d ad
déce mbre
G od
comp ét
advant age
ph ones
So ci
7 8
og ue
b ass
g am
think ing
t i
m ou
tw ice
Mid dle
e au
b ell
iv ent
é d
sign s
cr ipt
dir ige
fac ing
W ales
restaur ant
u é
abin et
s id
Ph oto
i ar
ap pl
l igne
remain ed
Virgin ia
l é
ab use
p ic
op tim
par ent
L at
cor re
C ont
ren contre
ha ven
er t
f an
mid i
bro ke
b out
to t
f ifth
C H
comp ens
G ood
au f
soul ign
j ury
v ices
res trict
fa çon
opt ions
ch urch
ob vious
fem mes
ab andon
Be ij
c aught
er y
ar ms
ass ess
pat ient
or g
A sh
sy mp
organ ization
O ct
re place
at ively
ière ment
put y
comm itted
dr iver
Beij ing
P enn
en nes
t ight
Jour nal
go ci
inj uries
b ing
or te
ic ed
sc ar
th od
se in
Y et
j um
res ign
even ing
Hol lywood
ong o
b ird
il i
high ly
N A
help ing
commun iqué
con firm
cl o
st im
K im
can ad
Japan ese
t ard
g s
port é
stor m
do ctors
d ark
ien nent
E conom
contr oll
A li
b ought
tal ent
B ow
doub t
0 8
put ting
ren e
R on
f ab
colle ction
w ise
k ed
back ed
t el
I R
B an
inte gr
él è
Cap ital
not ed
sh own
stru ck
Olymp ic
reed om
mo i
La w
Vict or
tr oy
E dit
I P
vehic les
cl ient
toute fois
sou vent
prep ared
F our
L ord
résult ats
ship s
ao ût
ar ante
develop ed
mat ches
ex change
show ing
bas is
C hel
y ard
Z e
T y
G az
f ired
test s
individ u
ex tr
pour suiv
increasing ly
se at
terr ain
W ASH
ter ed
si è
larg ely
Mr s
m ir
Ital ian
photo s
ent es
WASH INGTON
de la
CE O
T out
s pl
ex cell
bo ys
pos itions
div ision
Oh io
oc cur
plut ôt
Ste phen
mult ip
carr y
Cent ral
contribut ed
em ot
M ill
h ors
gener ation
im pos
ar ian
G A
person ne
C as
am id
T ony
Ar t
ap prov
fac ed
Med ic
protest ers
é ch
L ong
qu elle
Ét ats
activ ities
st ars
c aut
tex te
en th
magaz ine
don né
Ar iz
g ree
p ense
se pt
D ou
N ick
col labor
Geor g
an ced
pre par
am i
sc ale
ay ant
E T
sup ply
repe ated
Ener gy
market ing
ath ol
br ain
foc used
ol der
per man
stand ards
stop ped
B arr
event ually
n am
ger y
n ames
confl ict
ear th
De puis
f al
ult ure
prom pt
bot t
ter me
syst ème
id ée
qu it
profession al
g ives
ant icip
D ar
su icide
c os
Me an
me ur
ét udi
d aily
clear ly
z ing
fav our
produ ced
N ord
ol s
The ir
pay ing
ê tes
fin ish
compla int
né goci
Au thor
as te
know s
quart ers
r ug
au tom
b in
développe ment
8 5
g ay
prov ides
C ub
wr iting
D am
ell ing
res ources
Fr ançais
dern iers
spr ing
report ing
F ort
influ ence
dé part
éco le
n arr
stre ets
di x
keep ing
sus pend
ille gal
pict ure
a jou
be coming
ap proved
R og
2 50
C y
è tres
n ic
step s
duc ation
oun der
Syr ian
order ed
alleg ations
sou thern
th é
A BC
9 5
ag ues
Wh y
hold s
Th ree
peu vent
Col le
n ées
GM T
part en
de ficit
grand s
vo ice
ask ing
b ann
equip ment
propos al
S ing
camp agne
equ ity
S her
E C
Cl ub
ouv é
affir mé
sci ence
u ge
de lay
K ev
se ction
act ing
ir ing
Patr ick
éle ctr
s it
responsi bility
J eff
extre m
man aged
ad s
artic le
ate g
produ its
F ord
è mes
w ing
conserv ative
ad a
D er
fail ure
industr ial
D ie
Con se
est ate
S O
it aire
ty p
n ations
Con serv
girl s
opin ion
ré se
unem ployment
ph y
G i
Q a
L A
mainten ant
concer t
v ont
nombre ux
prof essor
an ke
Y oun
ris que
prov iding
most ly
C ard
fell ow
D un
stand ard
T ay
var ious
municip al
stre am
E le
tourn ament
Carol ina
P en
vot es
arg ent
ib les
économ ie
alys is
ag ents
C BS
st ick
R el
w art
aff aire
c ow
dec la
ann el
un certain
sur round
français e
Dis trict
bil ité
sc ène
in cent
prof its
fir ms
bl ue
dé mocr
dec isions
t ens
uck y
w estern
j ur
F l
de te
dern ières
Pr ince
feel ing
olog ical
med ic
Mic ros
et tes
R am
su ff
Mean while
con vers
enc ed
nouve aux
St ill
M att
r ig
pan el
G al
é ner
br idge
pre ci
responsa ble
syn dic
r end
st one
préc isé
affect ed
l ived
P re
wr iter
f ly
se lect
wait ing
bank ing
pat r
soft ware
om en
Treas ury
ac u
ref used
g a
gau che
F C
f estival
J os
stor es
Ste ven
air port
Re al
aff air
dis covered
ref us
gr ant
op pon
und ers
prom ise
soci ety
penal ty
d ivers
6 9
us ive
s û
le ts
dé sor
decl ine
ann once
H ere
améric aine
est ime
act ual
Kev in
tru ct
tre ated
suc cès
bu ying
ma xim
Ass ad
H ome
Champ ion
as su
club s
W ork
appear ance
differ ence
cons ci
wor se
second s
sle ep
langu age
instit utions
lo in
gr âce
res se
reas ons
M I
B lo
Cor por
our s
real ity
Bus iness
f ile
n av
désor mais
8 9
death s
set ting
p ouv
i et
Micros oft
L et
expl iqué
pass ion
G ra
danger ous
r ail
T u
H or
ex pos
E ric
Ser vices
war ning
prem iers
fam ous
activ ité
ann ivers
mean ing
int é
r as
avant age
Y ear
ch ances
tr affic
sh ots
Is land
h ang
diffic ile
cont ain
produ ce
jou er
minist ère
ud ed
es cap
ey es
ed a
cer t
sol utions
p itch
Liby a
ial e
cor ruption
force ment
des troy
re me
exp ér
pay ments
V an
re li
l um
g ang
do ctor
cr imes
ag ric
mar ried
gu y
accoun ts
aut our
stat us
mult i
In de
Francis co
Fore ign
lo b
h all
exem ple
empl oi
s now
f ant
end ers
trou ble
e e
w ins
Chel sea
mes ure
int ention
d ut
Bro ok
at ures
m ical
exact ly
cl asse
h its
ê ts
Jer sey
communic ations
per mis
r èg
R ay
ag encies
cons omm
pré cé
gr ession
tain ed
grad u
auc un
Li ber
organ iz
R ou
m ans
H aw
gr ade
O per
Colle ge
m ut
con front
is land
announce ment
Te chn
high light
fem ale
un ch
res er
O u
it able
st uff
Sup reme
se ed
att le
7 2
m age
6 2
F L
N as
ab ord
c ere
fe ction
expect ations
if ul
fr anch
rap ide
gu ide
n is
co ok
Sp an
no vel
Fe b
ob s
st ret
B oe
6 4
direct ly
link ed
T op
small er
exist ing
n ord
Christ mas
nor thern
fl at
hur t
air craft
li qu
sub sid
cl é
r app
art ist
tr ail
t in
watch ing
hu it
ict ion
separ ate
view s
fe ed
lect ions
develop ing
r ally
cho ix
ess ential
B ud
tell ing
stim ul
tr ig
h r
em ail
p ère
V ol
az z
au près
all owing
stru cture
l ux
immigr ation
princip al
b elle
E sp
cor respond
p ous
i us
up on
sur gery
str ength
cap tain
an ony
effect s
gu arante
It s
u les
in qui
ex ception
ch ois
pré par
near by
off re
Publ ic
M ul
find ing
Conse il
C ra
v on
p i
ial s
commun aut
v ast
mon di
abil ities
V ille
n els
ouvert ure
cover age
H ou
Ph one
mes ures
en suite
C all
c atch
tr ouver
rul ed
s ought
san ctions
ex cept
or m
C it
H a
gr os
D ow
B ag
in quir
kill s
b oss
g iant
Iraq i
y o
complet ely
P A
sc en
govern ments
b a
pl ants
de part
law makers
M ah
ade l
er ed
sk y
w ick
H ot
ak ed
is és
trav ers
jud ic
broad cast
scient ists
H o
mot or
béco is
em en
gre w
act s
fight ers
E s
infr as
Gree ce
co hol
é ro
remain ing
autor ités
wr ite
convict ed
cor ner
pul led
pro b
ear ned
qu ake
ur ban
thr ow
dossi er
sent ence
Bern ard
An y
T ro
trib un
f re
e ast
In stead
invest isse
ow ed
F eder
O T
ic an
so le
ele cted
exp ensive
adv oc
A re
ter re
cap able
ass ault
Rob in
a ér
fru str
tain ment
Bo ard
Rad io
relig ious
spe aking
fall ing
gest ion
un iversity
ell ed
ordin ary
Str as
be ar
Tot al
6 3
Al s
kil om
ent y
Youn g
j ok
pres ents
is ant
re cherche
co û
7 00
complet ed
wear ing
déc idé
er ie
sche me
M en
mar gin
ci pl
sec ure
Lab or
G et
Le ad
GO P
pre fer
larg er
p ied
fond s
inter vention
e per
res ist
just e
cut ting
vra iment
law yers
H om
K er
Ariz ona
Mark et
M S
pr ol
H un
w an
ate ver
f requ
bod ies
f us
un likely
gl ass
bes oin
dro its
Co ast
D aily
continu ing
h ér
pres ence
li ber
ad just
od d
serv ing
de gree
L y
r appel
E li
do ivent
av oc
politic ians
r ush
al ing
negoti ations
bot tom
term ine
my self
ed itor
Ar gent
é m
N BC
ask et
St and
L ife
Cla ude
exp enses
de cide
P lay
reg ister
Sim on
Sy d
or ation
dig ital
brok en
R et
adv ice
st ake
p c
tru cture
m ates
reg ional
Det roit
d ies
de but
Glo bal
19 80
ct ic
pet ite
p ace
lanc é
N AS
discuss ions
app ing
slight ly
ef ul
cl ash
gr at
b ureau
béné fic
tr ess
pl ate
not es
ouvr ir
ré v
B oy
Ch urch
di agn
Com me
Br u
mus ique
tempor ary
A gency
with draw
E st
r ôle
wor ry
ip ped
health y
P C
rais ing
feat ures
environ mental
ét ude
h ô
in ent
ex pressed
quot id
aw a
D em
Holl ande
auc une
b â
Tor onto
tem per
Li ke
F la
mon tr
k ins
ill é
challeng es
L in
and a
Syd ney
prom ised
iam i
it ems
l u
as y
determin ed
m ouve
pur su
m ale
vis ions
may or
cre w
fr aud
invol ve
OR K
stor ies
f lex
interest s
E v
res cue
g ains
hous es
plat form
gu ys
strug gling
M iami
f ish
H ospital
Dav is
R iver
0 9
cy cl
phys ical
ben ch
suggest s
Tay lor
trim estre
Span ish
t ank
S T
fe es
ur ged
B re
object if
se cr
F am
carr ying
B road
com plic
applic ation
yn am
le v
big ger
room s
import ance
neighbor hood
H al
capac ity
ces sa
str at
reven ues
gu erre
de feat
qu ent
pro ceed
S ix
march és
inv ent
6 1
bur g
ag u
dur ant
N AT
head s
proch aine
may be
un i
pl u
F ound
un te
Palestin ian
art s
famil iar
Bl ue
dram atic
viol ent
Nor thern
abs ence
Y ORK
K el
up dated
T H
Br ian
Ch ine
né cessa
ex port
ul f
De c
v acc
stud ies
p el
fact ors
br ut
prof ile
vé hic
fait e
in sp
it als
T ha
v ul
iqu er
G ordon
F il
E astern
um es
passeng ers
pil ot
mar que
activ ités
év é
d estin
im possible
i as
B et
I V
Qa eda
1 er
H ong
p ull
circ um
squ are
dis par
ick s
imp lement
dis cipl
et ary
bring ing
de als
L E
Or gan
v oc
th s
che mical
m igr
distribut ion
conf ér
opportun ities
An th
Un ivers
mag ne
clos ure
mo der
rebel s
read ing
polit iques
sembl ée
def ence
k no
approv al
const itu
su jet
Ken ned
ser t
i at
b ury
C are
hon or
ex hib
gr am
probl ème
T ou
F und
M organ
m ate
allow s
ch iff
fear s
Kore an
S how
7 1
st able
Cel a
in spir
f ounder
ill on
Ir ish
pack age
stock s
led ge
gr oss
vo ix
individu als
in dé
cre ating
redu ced
fort un
ir s
stru ct
G reg
on om
oc key
Iran ian
critic ism
Hu man
vir t
prosecut ors
off ensive
el ess
colle agues
and is
pass age
trav aux
ord re
Report ing
mo de
D im
altern ative
Que en
ap pr
appar ently
ré pond
appropri ate
pro che
Am ong
N av
M it
decla red
iel s
arr ive
it ors
start s
is try
head ed
é vo
é cut
Kenned y
arch ite
S us
chang ing
el ine
mat ic
c old
ill ance
Be cause
al cohol
Wh o
se ule
ét ant
ord an
ic ated
z ed
t ask
Alle magne
con nu
Don ald
Li ver
la quelle
ant ly
Gu ard
pro cé
So cial
sh ir
s in
H y
dis cover
M u
dou te
nu it
v ies
establ ish
il ton
curr ency
im pression
commun ities
author ity
e at
f u
turn ing
per du
Stras bourg
iv ity
m ê
Gre at
particip ation
inst itution
in al
au th
y ield
her o
B ol
citiz ens
minist ers
Anth ony
C arr
h un
commit ment
vent e
p om
extrem ely
sout en
c ure
ré pon
alleged ly
Islam ic
t ie
Jac ques
T est
gr y
cere mon
major ité
rég ime
Georg ia
execut ives
R u
ut ch
gar de
S ports
S pr
she l
car bon
use ment
V ous
he at
Chris top
Go v
introdu ced
Canad ian
Ear th
mom ents
A ut
é crit
K ong
cir cu
for te
um n
all ies
fa ith
am éli
en voy
C oll
chiff re
m aster
lear ned
f reedom
Dom in
fr ag
chos es
pick ed
sur face
dr iven
é col
wide ly
Edit ing
B a
I ow
ste in
mem or
establ ished
has n
loc ation
h ers
own s
ans as
spect acle
il ing
as tr
coun ts
hand ed
dev ices
cor ps
world wide
rel atively
d an
eas ily
Ad ministr
hop ing
int ended
St ud
R ick
mon itor
vol ont
ut ely
custo mer
it ely
or ter
m ountain
entr ée
op ol
l ength
k ne
M ax
immedi ate
d û
Ét at
fun ction
help s
7 9
pat ron
scand al
polic iers
rap id
put ation
L am
7 6
bre aking
Le wis
Def ense
fac ility
C S
Jose ph
co de
w inter
d est
pr on
ad op
sal ari
b ound
B ir
advert ising
demand é
gression al
g az
share holders
l iter
vot re
build ings
squ ad
Ro ad
ér er
T oy
cin é
affir me
Mich igan
doz en
Pac ific
coll ap
pre gn
Asi an
cond am
Com mon
un able
P D
manufact ur
multip le
clos er
em br
p iè
Al so
Col or
meille ur
initi ative
possi bility
i os
Con tr
US A
gr av
Iow a
p én
o ire
ak ers
ot t
purch ase
se ats
igh ter
W at
7 3
ér ation
re cru
Liver pool
pict ures
stat ist
at if
vot ed
de puty
sud den
199 9
l ut
interest ed
m el
T ok
F estival
S qu
s au
estim ates
ch ron
com mod
au st
prés ence
l en
arm ée
an alysis
inter nationale
im proved
prés enter
li bert
F ree
z on
ren de
pe ine
se con
M ir
argu ed
sup posed
man ière
t ort
corre ct
de mi
terror ism
Gaz a
gr own
s itting
p ounds
ag gress
techn ique
i Phone
ab r
soir ée
happ ens
asse z
en reg
F ood
to s
cit oy
incre ases
sust ain
mess ages
sym bol
W r
h att
reject ed
pre uve
jou eur
mot iv
Man agement
de cre
con na
B ef
us er
sav ings
An ton
m ère
ly n
s lip
mil ieu
on te
sho ck
M itt
Re p
For ce
tribun al
fil s
vent ure
Tur key
liqu id
don ne
subst ant
list ed
Med ia
neg ative
m ét
ne ments
push ed
Olymp ics
youn ger
minim um
qui et
as sure
pay er
s ets
dé non
support ed
ol i
And y
u la
U MP
ac ade
h in
7 4
sing er
europé en
Cal if
pr oud
ban ques
consider ing
ian o
Bef ore
i be
sort ie
n one
mark ed
la bel
exp ans
M iller
O ld
bond s
Ex change
aim ed
ien nes
oeuv re
recomm end
poll s
F ire
pers pect
NAT O
For mer
wor ried
clos ing
mo dif
teach ers
ch an
Found ation
visit ors
R angers
mort s
C athol
im pl
ens us
war m
f ou
bar rel
mag n
strat ég
ag é
if ying
c abinet
B ul
st abil
particip ants
M em
Sto ck
En viron
pro ced
prov in
applic ations
suspect ed
F BI
Ed in
associ ated
T S
Jud ge
adel ph
S ky
al and
Z im
anim al
ic y
D ur
w ounded
form ed
col on
fill ed
c ateg
é lections
N ad
Fo ot
gener ally
Med ical
Hou ston
ann ing
L and
ph il
a be
Laur ent
bo at
Phil adelph
threat ened
sto od
g olf
On ly
find ings
M un
ial ly
condu cted
ash ed
mus ical
argu ment
rel ief
id ers
or row
will er
in ning
comb ined
Harr y
grand es
pos te
compet itive
compagn ie
expla ined
ill ing
b é
L t
B on
r endre
Bo ok
Port ug
s ister
know ledge
O k
G ames
arriv ée
i est
l ance
T ime
test ing
cal cul
percent age
De ux
present ed
ar mes
v oul
sus pic
cru cial
ér ique
crit ics
cré ation
w ire
s co
sout ien
l ap
back s
ad ult
act ors
encour age
contr ôle
contr at
Tok yo
génér ale
K y
ajou te
t ient
assist ant
Act ual
cl er
emer ged
ex press
in ary
hel ic
el er
s park
trans ition
bl ast
â tre
anim als
Corpor ation
deliver ed
ann ique
C ro
terror ist
dev ice
0 6
div id
mot ion
ene z
dis aster
W ind
att ers
mar che
t z
W alk
scr utin
insist ed
if ier
se es
P ower
record ed
C C
B ell
t we
we igh
S um
J am
communic ation
Democr at
Ch am
it an
assist ance
stand s
An dr
té mo
ch ap
n ice
MP s
serious ly
Qu and
possi bly
Ad d
Ç a
en forcement
few er
aven ir
F R
In dustr
J on
potential ly
sever e
o ir
facil ities
R us
Als ace
Se a
end a
S af
Ar sen
cre d
re moved
discuss ion
ct ive
ten u
pr est
m ile
b asket
Color ado
environ nement
att ach
On ce
de termine
int ens
walk ed
ail le
or es
r ies
compens ation
activ ists
se ment
Edin burgh
mon dial
Moh am
mondi ale
l on
hers elf
al ité
ill ion
enter ed
manufact uring
beaut iful
ide as
e g
ad opt
prov ing
comfort able
circum st
qu et
is ol
b ach
fall en
inquir y
ce an
eng age
k el
équi pes
a fr
t il
8 2
sh ift
t ied
W el
tru th
dro ite
be ach
cy cle
occur red
ato ire
entraî neur
il ly
t andis
D own
acquis ition
conse qu
secr étaire
p ages
at ie
Par liament
w al
lead s
suffer ing
nom ination
P ad
produ it
ep is
mal gré
o vic
mé dec
Philip pe
infras tructure
sk in
m auv
ph arm
H ay
Sy stem
invol ving
t ention
H ur
B est
qu in
G ard
meet ings
uss ie
Con ference
br it
par mi
sû r
ur b
gr o
dé bat
L ib
u elle
me thod
Re ad
ter y
sh ore
Per ry
T A
ri ver
our ce
appro xim
el imin
l s
in ated
K ur
target s
K ent
et ts
Cer tain
ou b
moy enne
h arm
ha z
O p
scor ing
expect s
sh ared
pré vu
sign al
J ordan
confér ence
Pol it
conf iance
t act
soul igne
An ne
pop ul
experien ced
tick et
av is
assur er
v ain
h at
di z
Br is
reç u
clos ely
ak s
Bel g
N iger
public ly
sen si
maxim um
sy l
place ment
hor se
tell s
cla ir
or ing
Ad am
Wood s
surve illance
rése au
teach er
sur ge
atte int
or ient
lin ed
dist ance
C ost
ré union
le m
ri ot
fla g
investig ators
law suit
Sw ed
B ang
bo om
suspend ed
bour ne
od y
pl enty
ve y
f ier
Sou thern
Al ors
gr ave
mo ves
attack ed
cell s
wat ched
adv ance
intér ess
j un
ar io
ouver te
bas ic
anony m
lob by
ent ret
n aires
six th
P it
reform s
as pect
walk ing
st ations
it ure
contr ast
play off
partners hip
democr acy
d rew
K o
ci a
it ers
ret ired
W atch
vot ing
H ear
mach ine
s ess
19 70
Sp ace
cam era
al i
hatt an
R ac
Ber lin
au g
Pakistan i
re pl
conne ction
un less
of fr
Mad rid
ri ble
r er
br a
n ell
et ed
F air
sett lement
m useum
Wil son
1 20
sum mit
spir it
g us
cha î
préc ise
enf ant
J enn
mou th
s ight
eas ier
p owers
Man hattan
ch ain
bill s
ach us
pro jets
ad ults
ick et
return s
mod est
W is
dis play
Min istry
L as
O L
M A
dre am
v idé
Administr ation
Ze aland
0 5
W ay
We ek
h ack
ch ac
R ights
ch oc
im ate
actu ellement
vent es
ou tr
dr ivers
s ang
k es
A th
L ors
lo ved
pay ment
ath let
c ers
ct s
é po
liv re
ad vers
ic ing
i és
L igue
wel come
ex cess
Y our
ann y
n és
suspect s
D P
ég l
oz one
pet its
cho ose
ongo ing
O tt
carr ière
ona than
expér ience
ian a
A y
tr ouve
rés er
ask a
i per
id en
mouve ment
em iss
Mass achus
bank rupt
ir on
an co
tr end
â ge
point ed
J onathan
199 8
la iss
Ro ber
ch am
Hen ry
pass ing
vol unte
osp itals
t ap
Val ley
v ois
d imin
de leg
inform ations
h ill
g ap
Se curities
heav ily
w arr
h ole
prop ose
M ême
initial ly
G ame
soulign é
riv als
Massachus etts
inté gr
Pro du
fl ow
t le
la x
All en
explos ion
mor al
ban que
f ille
salari és
Ele ctr
H amp
habit ants
able ment
candid at
road s
she im
h 30
pre ced
Atlant a
Mos cow
controll ed
y es
contract s
con centr
Ex ecut
S ain
im press
all as
s kills
ac compl
L uc
N FL
ic ations
disput e
ret irement
b are
con sul
inst ance
B ack
shop ping
ext ended
Be ck
financi ère
de tte
in fect
S audi
intér êt
absol utely
C R
201 5
Con st
prin ci
fe e
le ver
L yn
K ir
vic times
ve ille
long ue
ut ed
you th
inst ant
turn s
iz on
expans ion
sat ell
ia ire
cr y
En ter
fl ights
vis ed
Philadelph ia
r ière
re presents
par ler
0 7
Dire ctor
fait s
offic es
I L
l iste
r ide
un ions
expla in
L is
propos als
F red
V illa
w ich
C ha
Ear lier
er n
civil ians
cour ts
Ph ill
épo que
interest ing
D NA
syl van
si que
en cer
dé fin
ins pect
G il
fe els
pour tant
depend ent
Le g
estim é
G ulf
lot s
é che
anc ell
Actual ités
te ch
pro ven
Tele graph
vul ner
bel ief
orig ine
b io
vo il
wh atever
apart ment
re ck
int ent
controvers ial
am oun
the ast
in nings
0 1
k er
p hase
mat ière
ol y
N ation
circumst ances
Kel ly
collap se
adv anced
Penn sylvan
u it
dr y
L oc
ival ent
re volution
p y
s and
dr a
dut y
deli very
reg ret
De velop
d ynam
emer ging
pl ot
significant ly
l le
oper ate
quotid ien
ap ol
dis h
eng agement
ch if
accue ill
reported ly
c ards
le aves
qual ité
st ro
9 8
rest er
t um
C hair
Th ough
acc ès
group es
arr ange
than ks
L ind
ré cla
Hill ary
Que ens
dr ama
o graph
invest ments
-------- --------
journal ists
Ar ch
Blo om
How ard
br ight
vir us
ag an
UR CE
è de
ch en
Res erve
p ip
Br un
good s
target ed
model s
J ason
end ant
B M
ré ussi
if er
Part i
G as
h ôt
av el
c af
el d
t ôt
T unis
produ cer
j a
SO URCE
it ié
Col omb
O K
capit ale
Rom an
N ob
M ob
bl ow
I G
mo vies
dis pos
em pt
ar es
shar p
r ub
b anc
v ital
approxim ately
fl ed
R ome
Sar ah
exp ense
great est
sem bly
mis si
ne uf
t un
ast ers
af fil
acknowled ged
vale ur
S N
ear n
tom orrow
ell ow
ac re
vol ume
ch ô
trig ger
inter nal
respond ed
c off
understand ing
dirige ants
favor ite
friend ly
pas ses
J ay
fr anc
O scar
res to
s ending
dé pens
return ing
fin als
support ing
suc ceed
n ant
ple in
év iter
accept ed
histor ic
Se ver
doz ens
Be ach
cons ol
be comes
draw n
p iers
Tr ust
c ée
hop ed
in é
bor row
strik es
vis ited
199 7
ap olog
w ine
but s
dev ait
certain es
A ma
déput é
W arr
8 3
ass ass
ceremon y
centr ale
Not re
short ly
sent iment
médi as
vo ie
are t
ap pu
strugg le
r um
r ating
op posed
sent enced
bo is
alle mand
8 4
convers ation
ven us
ac ed
ph on
éle ction
iz es
N on
dr aft
organiz ations
ic on
Com mer
beat en
rég ul
re putation
ref uge
rel ative
exerc ise
u laire
behavi or
A A
inno v
m atters
pr êt
ca uses
c ord
retr ouver
restaur ants
is her
der rière
T ar
per mettre
jud ges
f au
rapide ment
cript ion
ident ify
man age
ré fér
man agers
con cept
dé pos
responsa bles
av ance
str ing
at iques
along side
par fois
pers u
Arsen al
or er
probl èmes
Rog er
if ique
res ort
lo ge
hop eful
fic ient
ground s
tele phone
repeated ly
des per
ch in
Y anke
ig ation
char ity
lear ning
prem ières
appoint ed
Y emen
ré p
Sen ator
un its
spec ies
att ended
caut ion
v ig
U k
i ors
pro vo
bre ast
Bag h
nor m
pour raient
ic ts
endu m
Tr ip
ul s
lors que
was te
si p
ul ent
fail ing
tru ck
199 5
perform ed
présent é
acc ur
commer ce
élè ves
8 1
ph ere
n d
Pennsylvan ia
over seas
val ues
fé dér
other wise
com pris
moy ens
8 6
résult at
Ham as
igh th
loc ated
strateg ic
att ent
ty pes
b ast
ét udes
S ub
C oupe
al er
M useum
G ill
defin itely
ar ing
accept able
gain ed
NH S
dial ogue
it a
spl it
p lead
Cathol ic
L im
push ing
D id
indi que
dé par
veter an
è ge
ple ase
do ors
gen re
st y
kne e
br ill
Toy ota
buy ers
t ab
Y es
b om
sem i
d ance
e astern
technolog ies
z y
nu clé
studi o
mis es
II I
ac tress
wind ow
emp has
voy age
surpris ed
Ar m
h aul
che min
eng then
f lying
re action
long temps
Ac ade
W omen
voit ure
8 7
M as
was h
St adium
P ot
strong er
Ma jor
D or
G ing
oppon ents
d avantage
performan ces
je ux
indic ated
NAS A
coun ty
U E
r igue
W ater
T urn
ess ent
p ital
S é
D allas
ass et
I an
diagn os
ap y
D ub
redu ction
ca using
y en
T ra
Squ are
excell ent
pr ay
s ad
investig ating
Ab dul
c ité
hon est
J r
rece iving
G ary
ic ation
w ake
pie ces
in n
dev ast
com ité
Soci ety
D iv
la d
P au
not ice
Al bert
else where
d ates
Ré publique
Cra ig
emiss ions
communaut é
B O
él us
R io
M ou
ach at
your self
ond s
man que
B all
C F
And erson
roy al
loy al
cl oth
s ick
de ploy
h ospitals
ad apt
Up dated
Execut ive
Al an
bel ong
Al li
trava iller
base ball
t ic
Se cond
retrait e
R ose
B ret
app are
m art
resol ution
d il
bor ne
al ive
din ner
form s
rad ical
Bour se
prom ote
H aut
Tu be
Mat the
ud d
éner gie
ch ante
af i
er ous
electric ity
Gree k
An aly
h ire
li bre
R E
finan ces
to ms
re placed
al iment
Min nes
port fol
Ott awa
fin ancing
as trop
Pal in
In don
champion ship
re mark
found ed
suppl ies
E ducation
stret ch
cel les
At tor
ag enda
deep ly
to ll
Con ne
Mel bourne
p up
class es
head ing
m n
E ll
y e
r or
man aging
T él
os ter
p ê
arg ue
bann ed
dom ic
dis crimin
attem pts
in su
net works
champ ions
che ap
mê mes
Ve gas
an x
im plic
lors qu
insp ired
V is
w ave
ce pendant
ha w
bla me
div or
Pl an
olog ist
Die go
air line
rec ul
af fr
atta que
Minnes ota
ré forme
con ce
de fe
fin alement
fact or
demand s
P a
independ ence
L ond
Bagh dad
arr y
pres que
Offic ials
se curities
tick ets
emp ê
el son
employe e
E ver
f ête
health care
contr ib
ar o
ad ha
be gins
Co ok
ultim ately
Ging rich
ancell or
don nées
Lond res
B ab
sp ons
quart ier
A g
out standing
err or
entire ly
Eur o
custo dy
e ating
touch down
h itting
conne ct
le an
Lad en
e qual
comm une
Hu gh
F err
res truct
assur é
éle ctor
m itted
g el
light s
ten nis
thre w
ust er
Bow l
D od
un ve
Ch ildren
f are
techn ical
fab ric
U C
ent ry
Gu y
every body
employ ment
re ment
dist in
be th
ap preci
Il lin
F ab
prop ortion
éd ition
annivers ary
Je wish
milit aire
prem ium
g ate
un usual
stimul us
au ction
dog s
d ot
N BA
at mos
estim ate
L ake
v ite
ag ence
perman ent
neigh bour
co ck
c ade
s oup
puis que
to l
s acr
m ph
Lo ok
kid n
me at
co eur
U t
C ons
ah u
command er
Tro is
obten ir
imag ine
ell er
vari ety
con vention
ad ed
head quarters
l us
je ction
H as
b ac
tin y
bla med
Gl as
S uch
incre di
train ed
Mus ic
re h
adha fi
mem ory
tain e
w a
pre ad
ill ed
s la
effect ively
conse cut
form al
accus ations
wr ites
empl ois
atr ième
au dit
sh ape
b ord
j ump
Le on
particul ièrement
dé termin
thre ats
got ten
ren du
vra i
surv iv
obvious ly
cre ation
dro ve
rough ly
0 4
work er
Illin ois
sett le
nombre uses
end or
app ly
con ven
ear s
gag ner
ro of
Ham ilton
ant ic
an ne
enc é
O w
Wh ere
milli ard
v y
S P
F re
str engthen
an es
S av
gr ab
consecut ive
think s
con dem
em barr
fund ament
Atlant ic
techn iques
vic time
Nav y
L C
P ent
ple as
re prise
assur ance
Har per
art ists
Stan ley
j i
r ural
re vers
Th ank
ut s
al em
étr ang
ét és
territ ory
w hel
m én
col or
happ ening
song s
p son
ple ased
a the
sh if
nom ine
Le ban
drink ing
low est
spok en
B os
as ion
W ild
quot ed
è se
P la
1990 s
inter rog
civil ian
C ru
K ate
requ ires
cour age
tre e
vale urs
shar ing
enter tainment
é valu
cé dé
le quel
H ait
ouv re
R C
g ue
ent end
qu atrième
industr ie
Am éric
four n
ill u
publi é
cons équ
seas ons
wer en
R oss
add s
Acade my
min ing
Mar ine
N a
ill ness
ic he
C ow
contribut ion
claim ing
mal ad
dev raient
Cr oss
aut eur
loc aux
B ureau
O M
cr ude
i ellement
qué bécois
Stand ard
ab et
int ense
Ital ie
Tur k
en vis
effic ient
S now
capt ured
comp reh
é vent
Dim anche
in tr
l ending
tack le
am en
0 2
talk ed
g all
a î
Mer kel
to od
cult ural
et ime
eur ozone
as ide
suiv i
public ation
question ed
p te
tr ick
ê ter
dire cted
mo on
P ict
c able
ib ility
V enez
O x
dr ag
unders tood
Sud an
ser ver
19 60
C ir
hy po
match s
Cl ass
S W
dam aged
p aint
de ter
emot ional
fal se
bass y
at ar
hô pital
tr ibut
ol ar
aggress ive
Chair man
9 2
Cl ar
fact ory
reach ing
am is
suppl ément
re porter
ev acu
partis an
hard er
Sw iss
soci ale
cré er
par lement
en h
out come
advis er
c ter
u els
S port
ch i
H old
cast le
missi le
vis iting
partic iper
so ient
main ly
bankrupt cy
télé vision
a ider
park ing
perspect ive
act ers
l our
compet e
fall s
Lo ve
Ah mad
R af
finance ment
ch ans
V ice
public s
r ê
è ce
ed s
as ser
complaint s
cat astrop
ag a
rank ed
A z
ir o
f old
ent ed
re move
ma je
s ed
brit annique
Net work
n aire
view ers
Champ ions
ap ers
fru it
O il
ne ys
in th
pract ices
Y ah
Ch ry
â te
out re
H S
fais ant
V iet
dis missed
O l
op ter
is ent
typ ically
ident ity
199 6
amp les
C elt
regul atory
c ope
Sever al
chif fres
st ers
Lat in
tens ions
Br on
L ive
Dis ney
C red
V o
V en
ter ing
P op
Attor ney
incident s
Be au
ic ité
pre c
Victor ia
br ings
scor es
K ansas
t ag
ton ight
material s
pos session
com mis
el der
prior ity
char acters
Indon es
proper ties
con ver
st s
ik i
vis ible
sh r
Venez uel
num éro
to x
B P
vi end
deal ing
Pr osecut
improve ment
up s
u ct
mix ed
regul ations
er al
gather ed
test ed
Thom pson
Eli za
earth quake
ides pread
S ony
mand at
attr ibut
prop re
Car l
re marks
sh ops
Fer n
P utin
pro cès
oun ced
rug by
g ow
T R
Mor ris
conne cted
p ill
ab road
fr ame
e valu
diplom atic
atr ice
ile y
ien cy
affair s
W in
register ed
et c
S imp
M aur
over ty
an gry
ather ine
rende z
H art
comb ination
des er
You Tube
Ok la
vulner able
mes se
B R
circu it
da q
négoci ations
fix ed
im proving
be ating
Mo ore
gun s
pour ra
ve ux
ot ed
A bu
redu cing
b ats
9 6
attempt ed
comed y
immigr ants
plu part
r av
wed ding
R ussie
f ought
surround ing
strong ly
Nas daq
cas ual
r aine
And re
ive ment
sh ad
chac un
F ur
wr iters
lux ury
L en
ack ed
ét ique
Pit ts
C ast
c ig
tre es
n age
Harr is
Ste wart
h ockey
ne ither
P y
Bar cel
Mex ican
cop y
coup s
seven th
on de
over whel
ce mment
be gun
Mil an
Mary land
Foot ball
pr ost
ind ice
Den is
un clear
u ment
ne ck
pat tern
reven us
Conserv ative
Alex ander
k en
C IA
ud ing
Se attle
suf ficient
embarr ass
Cub a
T ib
st un
199 4
c les
exc ited
c éré
tr illion
perform ing
chang er
acte urs
new ly
Esp agne
mill iers
ex prim
W he
B ad
Gold man
r ot
May or
Yanke es
S ab
citoy ens
Qu ant
ar bit
jou e
président ielle
Sci ence
br id
la id
F ig
l ies
f aster
Egypt ian
R and
en heim
conv ain
iss ant
jou é
w idespread
destroy ed
soci aux
fac ile
b ons
ah n
p ound
Fr ont
concl uded
put s
g ents
to ile
employ és
Develop ment
T M
sort ir
c ited
hol der
sched ule
int end
regul ators
regard ing
en em
ick en
prof esse
B urn
Sh i
sw itch
t ons
b ath
on ne
bre ach
hel l
R i
Fer gus
plead ed
sol ar
Viet nam
Qu el
O liv
confir mé
for est
or ie
P res
f est
è que
it aires
comm encé
e ighth
threat ening
différ ents
farm ers
Ama zon
prompt ed
es pr
T am
reg ulation
witness es
re in
Trans port
back ground
tru ly
hab itu
r ét
mont ant
i pe
jum ped
consequ ences
Col umb
En d
B ach
mic ro
V I
ann a
des c
ces se
enth us
ir ie
proper ly
par le
aw ards
strugg led
tour no
sign é
Andr é
la b
dis cours
whe el
vot er
Bla ir
dé tail
con i
obten u
discuss ed
Portug al
cot t
iel der
Bar cla
re pair
pr ize
amb ass
coup les
Ban que
itch en
sou f
contin ent
Co al
mist ake
souha it
lun ch
minor ity
Prof essor
c s
spect ac
b ull
b one
L ittle
Ed wards
Mar ia
behavi our
M ol
cam er
Cl ark
link s
wat ers
ense ign
il ité
dev ra
oun ce
portfol io
sh all
présent e
se qu
Ser ies
so ver
For m
U r
Te am
swe et
ck er
ab led
predict ed
st ated
ain ing
er o
D utch
moy en
P ay
l ift
Feder er
phil os
ess ay
cloth es
du re
restrict ions
o on
Eliza beth
augment ation
libert é
Gra ham
im médi
Glas gow
pur pose
re called
le ase
pour quoi
érie ure
In formation
U l
Se e
minis try
prol ong
V ide
Ala in
N ik
fund ed
lim its
Boe ing
mont re
Cred it
bil an
réal is
V incent
e z
Fam ily
satell ite
Pitts burgh
jour ney
Robin son
é vol
con spir
lik es
ex position
Christop her
T re
franch ise
rev anche
M é
m ètres
st adium
sé ance
K r
ious ly
ch or
vidé o
financi er
program mes
u an
um ul
H op
Author ities
att itude
Yah oo
b ish
f usion
int érieur
escap e
Sing ap
des sus
améric ains
Bloom berg
réal isé
b ie
hand le
G ib
9 00
lut te
swe ep
mat ique
F oll
C op
V ie
step ped
pot ent
T ai
Sant a
on aut
Pr ice
ric ane
S c
Jap on
be half
R a
A in
br ands
cal m
fam illes
curr ence
mé dic
Ed ward
liber al
accus é
gard en
ass ign
Dam as
H ard
So vi
esp ace
ur ation
ext end
b ais
9 4
Alex and
in ations
chô mage
rel atives
D re
Hot el
o en
ke en
d or
avoc at
list en
consist ent
évé nement
déput és
im mobil
es po
C iv
en u
econom ist
vol at
b au
gr ass
shir t
R est
v ess
for cing
follow s
def ensive
jo ining
Ch annel
pend ing
stay ed
E A
ur gence
Spr ing
F O
candid ats
consomm ation
comp ag
amoun ts
AN G
Pr in
iv ité
chef s
gu ess
cons ensus
promot ion
N ext
ur er
Au jourd
acc eler
E ach
aur ont
require ments
H ist
n est
el and
ver dict
coff ee
on so
prison ers
L or
appar ent
3 50
al ity
D ave
se ized
fl ash
K u
Just in
me chan
Pro gram
M od
ace ut
in aug
u tr
ar de
sus pension
continu er
int im
interview s
id ency
rat ings
A wards
plan es
import ante
Publ ished
ad ing
investisse urs
it age
d at
st all
som met
particul ier
j ack
F ive
isse ments
p overty
de light
on z
ob jet
enjoy ed
contr aire
rem porté
satis f
sp in
qu ée
camp us
ré cemment
G ates
clin ical
sen ator
pré voit
al a
represent ed
Ber lus
bus y
ann es
sw ing
Fergus on
prepar ing
ou st
9 7
prot ég
trans form
it arian
re cr
ve ulent
regular ly
ir er
ou re
Berlus coni
K n
T el
ex écut
exist ence
invest issement
Ar n
L ow
em bar
oblig ations
milit ant
st ability
Nad al
abil ité
rock et
ch ute
let ters
Bu ff
win ners
organis ations
electr onic
y eux
o ise
add afi
back ing
design er
C air
domin ated
Lt d
br is
illu str
f oul
es sa
bâ tim
f ave
As ked
che ll
te ur
origin ally
associ ations
n ur
Fin ance
ic it
meille ure
grant ed
there fore
B ull
a ime
rédu ire
Ter ry
t elle
rou ge
se lection
scr ipt
I d
1 30
citiz en
ha i
as c
am ing
es pér
Pent agon
Afr ique
tor n
égl ise
ot ic
As semblée
con vent
v iennent
qu is
narr ow
gu ards
ok ed
ke eper
aid es
T ous
ab ortion
challeng ing
secon de
inno vation
domic ile
gu it
success fully
s op
aw ait
tr ouvé
as sum
G all
li br
const it
Gi ants
Ne v
contr ô
l ers
souha ite
qu els
connais sance
des ire
spec ulation
tr i
te urs
class ic
as er
posit if
B ah
chos en
form es
num erous
ins cr
prim arily
impress ive
de venir
Walk er
comp ter
pan ic
pl astic
Techn ology
dépens es
invest or
esp ère
disappoint ed
précé dent
D al
Po int
è nes
h ou
N at
pro cure
é ph
bl anc
M ail
ub ar
inde ed
im ony
overn ight
w id
soldi er
ad joint
m our
mé d
su its
met al
ent it
D C
scient ific
mo itié
tour ist
epis ode
extr ême
co ût
rap e
K ab
achie ved
s ac
Champion ship
champion nat
è rent
av ais
ath y
ter rible
sl er
C level
w ers
es cal
pour suit
eth nic
Clevel and
TH E
v illes
sé lection
Te h
el ig
bail out
involve ment
substant ial
Brook lyn
Offic er
fer a
Hamp shire
co ordin
mem bre
rele vant
D S
um s
Co le
Okla hom
re lax
nuclé aire
fair ly
journal istes
p od
break s
ama zing
tr ouv
old s
1980 s
pol y
find s
coun sel
part ly
acc or
Ne il
P ass
as sa
Tib et
basket ball
pe ak
Columb ia
gu es
month ly
territ oire
pay ers
e ign
bud g
de p
ent our
mar qué
po ck
classe ment
au cus
vér itable
re ward
out look
direct ors
up set
C G
ciné ma
extre me
Pr ote
P ap
199 2
S tra
cal end
dict ion
pun ish
Mart ine
rel l
hol es
Barcla ys
recover ed
Mot or
dis pon
t ip
trans action
v os
aur aient
étudi ants
award ed
L ions
Bud get
i ée
cont ained
my ster
Air lines
ist ers
Medic are
detail ed
o la
relig ion
wind s
aire d
ph r
ch annel
refer ring
li ver
viv re
or um
s ung
con gressional
béné f
imp ose
H on
R hin
all iance
represent ing
lie ux
collabor ation
field s
econom ies
loc ations
Re id
ry th
cont am
en orm
sa ved
priv acy
D V
por trait
he ight
Oklahom a
ig nement
ex ports
sens itive
surv ived
sil ence
S ans
War ner
T O
F all
eng aged
ap ed
const at
str ip
our i
rac ing
Cap it
act uel
fr ais
May be
Com ment
Matthe w
smo ke
prep are
Col mar
B i
parliament ary
o des
should er
ag en
p ure
par cours
st ade
Vide o
H ond
C re
per d
or n
sc ape
on ics
minis tres
Author ity
h unt
refer red
lais ser
et ic
ri ots
ma î
lo v
sa ving
appel é
dé pl
chaî ne
am bit
Sovi et
fave ur
str ict
sh ed
journal ist
constitution al
j ad
pro of
en fin
ma irie
ex posed
is lam
equ ivalent
R oll
gr im
él u
explo itation
cent res
économ iques
int elle
rapp elle
W right
min i
consid ér
l ucky
tit les
extra ordinary
aller y
Spe cial
c iting
v end
fortun ately
st uck
capt ure
Pro ject
ple ine
prosecut or
than k
ex pression
ari at
son d
capac ité
h ired
intelle ct
Indi ana
Pr ix
re mind
prom inent
Som al
re cher
pr ais
retail ers
europé ens
Michel le
prom ises
Teh ran
oen ix
hôt el
ind ict
col n
ext ension
Su isse
â g
D ick
for get
M is
ét aires
C arter
pla is
differ ences
és il
bad ly
cat ég
it ary
helic opter
Lad y
an z
industr ies
n ative
G irl
ç ant
produ cers
nation wide
prom is
s ounds
Ser ge
propos ition
fact ion
Moham med
b ars
ext ent
delay ed
expos ure
weap on
t ension
hard ly
aid a
produ cing
scen es
ent endre
M ubar
J un
E M
Lin coln
up per
pr atique
pop ulaire
Den ver
lo cked
inv ited
ath on
Div ision
cre ative
el la
Al aska
L loy
Ain si
ade qu
A venue
Mubar ak
Liby an
tre m
W im
employ ers
ou est
Br y
tr an
prosecut ion
S én
Pr iv
Per haps
w ider
n ie
aff ich
ad ap
A v
to ols
ur a
favor able
all oc
C have
g agn
cr icket
le ans
acte ur
bomb ing
Gr èce
gu ests
compreh ensive
f ielder
Chave z
moment um
guarante e
graph y
concern ant
z ai
publi ques
C at
s ie
T ax
sil ver
pr ud
suggest ing
Tra de
process us
ven ues
empt y
stre ak
sudden ly
ô me
z o
change ment
convict ion
ess ed
N az
gu id
anonym ity
Ph oenix
net t
compét ition
ha ute
bill ions
A ward
N ich
mauv ais
dead ly
mat ér
199 3
att endre
Wat son
pro vision
gar ant
i Pad
Ex per
mon ie
Air port
ser aient
read ers
cré dit
A gr
b is
B ien
Moh amed
m oun
Pro v
Ch ap
aps ed
pe up
on ze
in ch
J ane
exper iment
leg it
Ev ans
br as
exc iting
passeng er
fr o
prov ider
im ents
ele ctor
the less
T ig
f et
r owing
Par lement
argu ments
W o
Mit chell
collect ive
Gold en
Domin ique
rais ons
reason able
ren for
K ey
rac es
ab or
dif fus
N ight
ctic ut
la v
financi ers
assess ment
possi bilité
ded icated
Ker ry
fr au
excl usive
un s
t one
chin ois
I sa
ON U
consol id
em a
test imony
z ones
m ér
us ions
T oul
ex h
de venu
ap pris
im posed
should n
pouv ait
Conne cticut
p ier
Singap ore
th a
enc ing
h és
inform ed
B iden
Sh ang
v et
rem ote
ex ter
pré fér
Univers ité
th in
li de
prom ising
1 10
affil i
f ame
S k
B uck
tour ists
Syr ie
de tained
recon nu
pos es
atic an
comp uters
éle v
necess arily
he ur
refer endum
sign ing
enn is
nécessa ire
En fin
st al
Rus sell
R em
BS T
V ill
expert ise
V a
bas es
H O
demand ing
ask s
bag s
C ash
dé ficit
ON D
exerc ice
demand er
m am
g or
night s
S ales
any where
camer as
représent e
pap ers
GA AP
M ess
reser ves
deli ber
roll ed
C ase
Palestin ians
comp tes
Spe aking
ite ment
ac ce
elf are
reven ir
a el
st an
car te
Part ners
mo od
Argent ina
témo ign
P os
g ér
h id
atmos phere
fact s
Camp bell
ut ter
In dependent
ap pré
im o
ave z
Turk ish
ac o
établ issement
se ct
v ais
sover eign
ag ir
St at
bare ly
V atican
ball ot
c élé
dead line
relationship s
kno ck
tourno i
pren eur
T E
ma th
us alem
ad oles
manifest ants
de clar
ag ger
volont é
T ory
fat al
trou bled
select ed
uncertain ty
sett led
é mission
M ain
concl usion
investig ate
fais ait
as i
shar ply
surv ive
A gain
bon us
for th
M E
blo cked
ber y
pr ét
comp on
feature d
Bru ce
oly mp
thr own
S wit
m ap
dr ais
fut ures
engine ering
atte indre
at el
n ette
vide os
critic ized
an ie
is sent
quel les
Chry sler
phys ic
reg ions
és or
T own
f id
On tar
sor te
reve al
différ entes
os o
f inger
Const itution
fol k
tr au
fé dé
K han
Anton io
Mar io
Br idge
pom piers
ar me
T en
r and
reb ounds
can cel
re call
auto mobile
Car los
des tru
aw n
dest ination
broad er
ve get
hand ling
k itchen
Mob ile
control s
cour ses
f um
ick ing
Ken ya
inc end
Char lie
G E
G DP
j ard
vo ire
th y
ris ques
art istes
Te ch
Rod rigue
to ires
L akers
ie ment
cr oy
milit aires
on ter
espr it
Sant orum
ap pla
exhib ition
in du
birth day
Rober ts
H aving
fir es
cons in
F I
r ée
ident s
our selves
Christ ine
dire cte
histor ique
col umn
v s
n urs
pro ches
p is
indé pend
Queens land
te a
H D
Arm strong
histor ical
ist ics
L ight
-- -
Wis consin
chois i
P ack
Th rough
Plus ieurs
wall s
dépar tement
ul ty
G iven
élé ments
t enter
Q aida
ret ire
Or ange
m ers
Islam ist
oppos ite
W as
in als
stay ing
norm ally
r age
cu is
par c
lo is
thé âtre
B N
wonder ful
Bro ther
monitor ing
dete ct
br an
mean while
gr ès
p are
investig ations
H ad
adop ted
pl un
inter ven
b arg
réal ité
Re present
oblig ation
prospect s
T ake
de main
simp lement
tro le
h edge
ense igne
bénéf ice
ét ape
ob st
laiss é
199 1
L ang
ob tained
m ant
SE C
P erson
siè cle
rout es
plac ing
Mar se
or ial
men u
trans actions
Or leans
Au to
ét ais
o it
bro thers
some body
in car
democr atic
trans par
ack s
s ée
pe ur
os ex
Wh it
us age
dé faite
t ables
compla ined
ten sive
om s
acqu ired
to ol
O ak
Coal ition
lan cer
Ly on
war ming
subsid i
rac onte
un expected
celebr ity
ex ceed
ste el
gag né
eng er
L é
ég al
Muslim s
New castle
fin ed
pregn ant
F el
f lam
zer o
sto len
nu tr
al lait
ch at
z u
r ender
Inde ed
Par mi
président e
train s
initi atives
Rodrigue z
Lead er
B E
Dub ai
discipl ine
Liber al
ic ul
port ion
jun ior
keep s
result ed
smo king
o va
gr ip
main s
bless és
t aste
Analy sts
montr er
bed room
encour aged
M ountain
sc én
econom ists
n inth
athlet es
iven ess
ex it
V ers
él imin
abet es
so c
anticip ated
no ir
mon tré
Co ach
ci er
sal ary
cent aines
Il l
1970 s
liv res
jail ed
man ner
camp s
Loc al
prote cted
Mal gré
O thers
En tre
medic ine
n ier
ra id
ian e
mon ter
l ire
s que
c ant
she ll
comp at
ig ent
De v
St aff
é cart
th us
Ser b
fédé ral
plan et
V anc
trial s
draw ing
quarter back
imm ing
g ift
sustain able
g ages
g i
attr act
ust in
h iver
ref use
anci ens
ci ale
N elson
Ar ts
ou i
tom b
ais sance
St ation
opér ations
répond re
r opol
co vers
def ending
bul let
S ale
Shang hai
ear ning
publ ish
un known
prin temps
C atherine
ambass ador
Net any
re ly
op ing
S U
coll apsed
Har v
Ut ah
judic iaire
foot age
fr act
ine vit
conv in
stro ke
Co oper
se cre
Canad ien
town s
fis c
ten ir
priv é
la ires
R ub
Angel a
Dr ug
symp toms
v or
ju ana
sh er
aceut ical
ett a
He ad
ob tain
pa ix
down load
di am
K at
inter nation
cr az
ay a
sa ble
œ uv
analy se
out put
R ight
dur ée
Fil m
System s
syndic ats
rapid ly
av ent
tot ally
l enders
fer me
manufactur ers
am end
né cess
be er
d ers
qu és
che cks
categ ory
tr aged
Tai wan
sess ions
w ound
Vanc ouver
n ick
recon na
t is
con ced
air s
pé trole
controvers y
L ag
Se an
ut en
T C
ctr ice
conse iller
per te
pron on
la isse
D jok
F DA
am ents
sign ature
Tr ib
port ant
h es
occas ions
t all
ab ol
A vant
gather ing
pers ist
W ol
down town
official ly
consci ous
H P
ton nes
col og
ele ments
appl ied
14 0
favour ite
frequ ently
L O
dé g
depart ure
del à
encour aging
leg s
mil k
arr iver
véhic ules
sur es
dé rou
consum ption
tr ay
campaign s
a e
up date
véhic ule
N ancy
warr ant
prov iders
ç ons
Econom ic
w age
bl ind
expla ins
veter ans
op ens
Gr ande
r d
er ait
slow ly
situ ations
stratég ie
sust ained
B at
convin ced
mention ed
ie use
Commer ce
us ine
Sy l
ra w
Arab ia
Jenn ifer
blo c
Man uel
oc cu
ul ate
ign es
With out
newsp apers
Stra uss
pres idency
strik er
min ds
manifest ation
fr app
St éph
R iv
Netany ahu
ater al
b ama
répon se
F al
Way ne
ré cent
il and
b ust
resol ve
bled on
support s
the ater
Alli ance
Gr ant
know ing
olog ue
st ages
r usse
H um
Ontar io
owners hip
vis its
cle ared
Isra ël
rare ly
ret é
ex tensive
activ ist
visite urs
M ath
Mar s
op ort
tax payers
hot els
étr anger
gradu ate
respect ively
brill iant
agree ments
F ield
Wim bledon
plac é
ang el
sug ar
Oliv ier
ret ard
pled ged
pro hib
celebr ate
gre es
circ ulation
suff is
Le h
rel uct
sh out
en rich
recomm ended
ins crit
B eng
bird s
bo ards
cl ip
J ere
pla int
g ig
Ala bama
week ly
journal iste
social iste
Af f
Ne ver
guid ance
Uk raine
att endu
enorm ous
ur g
La wr
L ac
qual ified
complic ated
nomine e
ro id
lif ted
C u
ou red
contribut ions
car act
é change
W i
tim ore
e in
af firm
choc ol
gen u
ch im
ult ural
res cu
ail s
ur an
H an
rout ine
gener ated
con texte
M ort
pet ition
Barr y
wel comed
ion e
20 20
st ab
pip eline
l ent
V i
attr active
autom ne
ô te
th es
Mais on
Civ il
arr ière
pen ser
mach ines
kilom ètres
Philip p
on er
av ier
expand ed
crack down
grap her
qu itt
teen ager
special ist
A k
def ault
dé mar
hon neur
dis closed
Cair o
il a
voul u
ü r
n our
re mis
ts un
l uck
St u
G ér
collect ed
w elfare
olog ie
G P
S ach
girl friend
terror ists
demand ed
particip ate
étrang ères
air lines
al o
glo b
author ized
l ende
ium ph
C us
op hy
peace ful
Soci été
re prises
pack ed
R ol
sc ul
enter ing
NY Times
consult ant
R ice
Hait i
T ennes
ac compag
r oles
Niger ia
al arm
IM F
represent ative
lég ère
av ions
do ch
gr en
représent ants
pro be
AN D
arrêt é
ele ment
had n
mod èle
termin é
Jim my
sec ured
surpris ing
Bal timore
Djok ovic
el ite
Fl ash
amp a
wealth y
strik ing
L OS
ak h
ten ham
anci enne
198 9
is ra
if ié
ang le
c ab
ard o
ap es
the ory
kilom et
elig ible
Al p
specific ally
H os
Cur rent
sol o
stat ut
gard ien
en counter
am our
di et
Harv ard
tit res
f as
destru ction
In come
Ber ry
d ating
care fully
T s
r it
ific ations
L au
as pir
S ad
clo ck
ang lais
s auv
cho ices
ol ine
s én
fil ing
discover y
Park er
if ie
r amp
is ées
Kent ucky
arr ival
abandon ed
typ ical
Mal i
Cr own
C a
J ess
div ided
found ation
Jos h
conna ître
off s
No ël
solid ar
par is
c ous
201 6
R ap
m ots
g reg
recogn ized
Wel sh
rene w
amb ul
an cer
gener ate
med al
Add itional
ad option
S in
post s
r us
ir ates
med ium
cl oud
mag as
P ic
plac er
L ie
preced ented
appoint ment
tr ag
po ids
ais on
divor ce
no body
or a
com promise
coû ts
accoun ting
mist akes
mort gages
on na
or al
moder ate
y ellow
tend ance
R O
t ure
pursu e
canad ien
str ain
in fection
Du ke
h ug
in ject
cover ing
é cou
h ate
Os borne
apol is
tour s
gr ève
Ar th
elder ly
se gment
è tement
Sil ver
g ies
down turn
the me
view ed
man ip
dis cut
Con sumer
Coun try
h en
remark able
trad ed
19 50
jug é
meille urs
ro ots
cent ers
R aj
F é
El les
Tennes see
serv es
shad ow
de grees
stead y
mat ure
f ug
Sain te
bor rowing
recogn ition
par ks
use ful
act ifs
thr owing
bur den
anc é
ball s
Am érique
trip le
proced ures
lende main
r all
règ les
Indones ia
commun es
large ment
Swit zer
house hold
Po or
Nev ada
it ime
dom aine
ine jad
entret ien
C et
ense ignement
S or
com é
defe ated
fr équ
c élè
E B
B ash
som me
organ ized
G illes
T iger
oy er
manifest ations
S es
const ant
pro xim
Sam sung
Pl ace
R un
un precedented
K ings
tem pt
de em
ad ress
uel les
Ex press
ner vous
feat uring
Capit ol
Kar zai
Saf ety
replace ment
poll ution
per mission
Bar bar
ris en
clo thing
pro to
fundament al
b old
bomb s
sel s
bit ter
DV D
pour ront
.. ..
some what
fort une
C oh
land ed
fant astic
A le
brok er
Switzer land
p ont
or ches
â che
So x
administr ative
trou bles
ene urs
ming ham
Coll ins
Aff aires
Venezuel a
C ré
h int
comm ence
ar on
sp ots
dé mission
quit ter
organ ise
P N
è tes
sho es
tort ure
represent atives
to ler
se ar
t ente
St one
valu able
ex iste
V la
ô ts
re z
any body
f ai
ch ing
ig é
siè ge
én or
acade mic
per m
Con n
Ahmad inejad
r ated
em pr
sem bla
12 5
gl as
result ing
Ab bott
tsun ami
de pos
Certain s
hand ful
Ben jam
b ors
ites se
dér ation
progr ession
oc c
tim ing
nel les
M arr
M anning
er up
at ifs
f iction
Bir mingham
long time
expand ing
appe als
F ré
trans l
bur st
Every one
i ere
Re venue
mainten ance
lo ir
in ches
in her
t iers
Barcel ona
M ade
document ary
introdu ction
télé phone
Agr ic
Zim bab
Ar k
A dr
cy ber
Celt ic
Broad way
pr êts
Re view
S AN
miss iles
virt ually
av ion
re jet
Mul house
canad ienne
spark ed
expect ing
ol ph
teach ing
f ate
mus ul
cro ire
track s
ther apy
déc ouvrir
br anch
cl as
pens ions
temper atures
A br
e ager
et ing
rencontr es
T em
ach er
l oud
de me
ré cup
D ame
agu en
fin i
re ference
K h
parten aires
not iced
oper ator
ink ing
nature l
oppon ent
Wh ich
soc cer
E mer
resign ed
sold ats
Br ux
deal ers
aér oport
beaut y
ving t
S amedi
dela ys
Thank s
Nob el
Sus an
ur é
peup le
Ah med
fun drais
blo cks
be an
though ts
Jam ie
retr ouve
espo ir
Ch o
Zimbab we
R ég
écol es
fut ur
cr ush
dé p
inno cent
leg end
mari age
re pris
purch ases
partis ans
lik ed
Swed en
desper ate
Hen ri
plais ir
cré é
ans wers
v ise
prés idence
Tou te
H ans
Trip oli
od ed
overwhel ming
f illes
mer ger
entraî nement
cre te
confl it
g end
Guard ian
Mor si
Bern anke
m ud
h ner
F ut
d ang
s ér
laugh ter
augment er
du m
I O
Hill s
soci étés
essential ly
land ing
descr ibe
D ig
P H
rel ève
Dod gers
iel les
E ag
dan se
forecast s
L og
T able
sop hist
leg acy
16 0
cro it
ide al
men ace
Sen ior
piè ce
P ope
P é
bl é
malad ie
Q atar
Cr it
post es
K i
men ac
Leban on
dis order
Prosecut ors
outr age
R y
rel ie
dress ed
z heim
hal t
cil iation
profession als
kill er
effic iency
è les
Y ves
univers ities
stor age
de tention
P P
Brux elles
poursuiv re
difficult és
audi ences
innov ative
round s
mar ine
Tig ers
she et
diz aines
co in
Miss is
c ence
over haul
rec y
fé min
rég ions
photograph s
J en
Ch ancellor
exam en
vacc ine
request s
roll ing
traged y
wire less
Phill ips
fun ny
aspect s
afr aid
Marse ille
Warr en
r ues
rank s
responsa bilité
offr ir
od ds
propri étaire
f el
dé voil
G un
reg on
hum ans
advis ed
phy sique
P ear
D iam
villa ges
resto re
Pol and
G at
s lam
end roit
trava ill
B es
ap on
Pr ot
cre am
Ju an
up coming
Pr op
ryth me
P ed
retr ouv
Arth ur
polit ically
unve iled
it i
T ampa
De ut
fer met
st amp
charg é
com prendre
members hip
wor n
Invest ors
v itesse
ass aul
me mo
ré public
target ing
ropol itan
def ended
audi o
crash ed
g le
tr iumph
child hood
ch ip
ne utr
d ale
E th
rappel é
Wind ows
Mur doch
a us
œ ur
pré vue
accur ate
ib and
pê che
Jer ry
b ate
bil ities
it o
mon etary
def ender
p auv
L OND
heure ux
Ch er
om ing
maintain ed
Br us
A gence
g ender
sho cked
Benjam in
Mot ors
and o
bon nes
w aves
p ire
person nal
f ighter
hu a
suiv re
î le
experien ces
Pu is
R A
concl u
Ox ford
aim s
ap per
M ick
chang é
al ert
clash es
O cean
run ner
organ isé
u pris
ten ue
transport ation
val id
a ît
ab ad
O regon
voit ures
Clar ke
conspir acy
m ation
L ine
reven u
en able
an mar
Sun ni
é ducation
iz z
t ire
fai ble
press ing
K ay
contr ats
ol ly
c aucus
M asters
G ir
ur gent
ar re
expl oration
C abinet
M B
real ized
defin ed
convent ional
ill s
Missis sip
wind ows
ex plan
Ren ault
h é
ins pe
at i
is sait
crit ique
graph ic
D y
repl ied
scul pt
Sci ent
off ense
annivers aire
My anmar
tr af
ç u
fair s
Mon de
id i
bu b
la ient
K in
rob ust
In sur
drop ping
oper ated
dev ient
di abetes
As sembly
coach es
enn ent
compet ing
ab sor
am o
inter ro
mag istr
el li
bur ied
th ick
Whe ther
V ic
Commun ications
Re cord
o cean
fau dra
rang ing
Mississip pi
g t
la dy
diagnos ed
rév él
Qu est
ou x
anci ent
H A
20 th
aut onom
Shar es
U L
ha us
at om
op pose
sol ve
étr angers
ab sent
cour ant
pren ant
professe ur
Haw ai
bre ad
ext érieur
Ch ange
bab ies
dim ir
équ ili
re cours
fas cin
Mil iband
ban e
por tray
h ide
arrest s
pet ites
am er
cl ôt
investisse ments
sacr if
kick ed
ess es
jud gment
a ï
ang ed
R ic
answer ed
part out
co operation
Bu ild
archite ct
N u
is ive
T ed
célé br
Som etimes
é c
mari juana
prais ed
lic ense
W olf
itu des
al ie
R udd
inter im
ent endu
a er
let tre
D I
Lawr ence
ere z
ress ources
fer m
suspic ion
con vert
profession nels
g ear
G onz
princi pe
struct ures
18 0
Tha iland
ing u
Un til
L un
Ab bas
Sand y
deleg ates
fun eral
t ape
rédu ction
discrimin ation
in sul
U s
re vel
seek s
l itt
argu ing
prefer red
guide lines
ur ge
popular ity
ins ists
correspond ent
mo thers
N ash
e cho
rec ording
hom osex
ed ing
artic les
deme ure
N one
inv asion
H K
weak ness
bor ough
Be y
st up
condam né
ple a
v ine
fe ared
am én
oper ators
amp ton
r ab
Hugh es
provin cial
thr op
P ers
Je ux
gu est
L ank
Sup port
stress ed
off set
B is
l ou
recommend ations
sp ur
any way
chron ic
des k
re prendre
auth ors
ash ing
explo it
ré uss
sou venir
not ion
Commun ity
proch aines
rat io
la des
om a
V ot
terr itor
g if
Common s
Ray mond
Sh ort
gard er
f ishing
ré es
Simp son
tox ic
réal iser
rank ing
burn ing
daugh ters
Brus sels
S ri
améli orer
sor ry
bol lah
approach ed
coun ted
top s
Qué bécois
L arry
afford able
divid end
haut eur
puis qu
n an
Mar g
Stu art
ous se
accor dé
e vol
optim istic
F uk
ac cent
M oney
search ing
app elle
Se ven
oper ates
cont ains
l ifest
jo indre
ique ment
C lear
Somal ia
power ed
G h
Zim mer
éle vé
assu me
P el
è tre
inter n
appear ances
sk ir
intér êts
Y e
disappoint ing
t tes
Spe aker
an moins
can cell
D anny
G B
immédi ate
c ann
Fr iend
san ction
ANG EL
s igne
M ik
insur gents
adjust ed
enn y
art iste
access ible
comp ound
j azz
Mur phy
de ur
al ter
r ol
c ub
B ond
syndic at
E qu
libér al
ac res
affic he
lang ue
li en
i ety
O ber
a ître
F ul
eas es
T on
h iring
host s
entre preneur
indic ation
é volution
um ber
ent ente
fir ing
per ce
cir cul
not or
S ource
ere e
G a
Boe hner
consult ation
Govern or
vent ions
propos é
scre ening
budget s
viol ences
some where
Miss ouri
every where
volunte ers
wor ries
refus é
les sons
third s
hor r
pass ant
tre as
restruct uring
multi pl
écol og
protect ing
répon du
po ison
b ike
Sach s
resident ial
Jer usalem
pr eneurs
statist ics
al og
f urn
con cours
mon s
dr ait
attack ing
del ic
sensi ble
P GA
Brazil ian
m ol
Gr ay
For est
sm ug
Jere my
cha os
Dou glas
f ax
Invest ig
bat ter
ch est
him a
Get ty
re vol
tr aff
develop ments
maî tr
travail leurs
p étr
har sh
al t
coun c
B ase
ato ires
con currence
con text
ons es
men é
Ke ith
ig u
Sh are
comm encer
land ais
address ed
cl ing
ik es
iff s
introdu ce
recogn ize
pre lim
And roid
He z
agric ulture
Cam bridge
r he
er ont
A ber
Can cer
Pol icy
H IV
ber ry
accue il
un anim
NY SE
olog ies
resign ation
Vla dimir
less ly
ANGEL ES
p um
J obs
Well s
art is
studi ed
aren ess
P oll
attor neys
mar ge
f ed
de voir
agn ol
aw areness
ré col
Fr anco
th al
10 th
improve ments
Ass ist
Sha w
l ande
fle e
du b
deploy ed
che aper
au ster
g ne
Barbar a
j apon
G ay
tour ism
bl ank
cess ions
vious ly
fast est
t aught
198 8
con crete
J es
l ac
B aker
house holds
ul ated
isra éli
fer t
loc ale
v owed
tru cks
LOND ON
deliver ing
fait es
imp orte
di p
equ ally
gas oline
m ac
tr ends
Lis a
évé nements
re mettre
é cl
d ose
guit ar
went y
L S
attend ant
ack ing
H end
pe int
si zed
r ice
res ear
treat y
S em
sing ing
Foll owing
auster ity
in ner
conna ît
as semblée
M oy
Bro thers
T rem
brut al
flood ing
tribut e
trib al
d ign
brief ly
R ow
tour née
un rest
y ang
object ifs
spons or
person ally
trip s
ac cro
poursuiv i
w ore
Pal ace
m oud
A aron
kno cked
est one
J ér
cor n
Char lot
J PM
S at
land scape
P ow
ve z
F 1
advis ers
inter cept
Bris bane
re cip
craz y
lé gu
challeng ed
augment é
migr ation
per dre
W y
vers us
vol unt
précé d
Invest ment
tax e
r iding
P att
ris es
mer ely
P ays
not ing
t an
ct u
Ne ther
du o
Air bus
1960 s
particip é
univers ité
dé cl
K le
fortun ate
ill o
quarter ly
os a
retr ouvé
au me
travel ing
Sw an
tr io
hors es
rev end
puis se
ten ant
resist ance
Stan ford
ok ie
Gu ant
N ap
surv ival
3 e
S ex
bre ath
b iz
en vie
penal ties
reflect s
hid den
Af fairs
I ON
take over
trad ers
C hase
fle w
Rel ations
T w
bless é
cr ain
N SW
K az
invest ing
attr acted
contribut e
directe ment
test ified
intent ions
diz aine
Hez bollah
Cas tro
ré un
budg étaire
de pression
europé ennes
G addafi
port es
kill ings
M ans
PI B
arr ing
2 e
p ell
prob able
Inter est
Mal ay
pod ium
S ie
Shi ite
pre de
C in
um in
pr ennent
princip aux
politic ian
Enter tainment
K hal
ande z
ver age
sen iors
Ad ams
M ets
tw ist
pré v
vou loir
dis miss
M uch
advoc ates
Tr avel
is lat
Bo x
souf fr
adequ ate
em bassy
prelim inary
hy dro
4 50
real ize
lic ens
in ely
Brun o
rem pl
ré volution
Ver izon
over come
pl ing
travail le
t iend
sco laire
Pe ace
g rec
offic ielle
demonstr ations
scrutin y
rad iation
be ef
Ste in
decre ase
den y
ve ment
B le
Mark ets
sp ell
Prote ction
p ac
ik h
dou bled
H ud
An na
uran ium
sou ver
re verse
res erve
regard ed
ix on
adm its
abo ard
frustr ation
invest ed
M other
all ée
ral ent
it is
describ es
W ard
B art
en due
ultim ate
drink s
speak er
bl er
oph ie
M ug
clos ures
tu é
enem y
off shore
sim pl
og s
descr ipt
Br ig
care ful
Priv ate
di a
satis faction
re hab
import ants
par ad
la bour
ag i
me al
Tot tenham
vou lait
L ater
intim id
local es
ok er
pe ux
bâtim ent
V ar
S S
Fin ances
c ort
commission er
to y
subst ance
Dre am
Br ésil
ac compan
supplément aires
indic ate
conserv atives
iv an
arriv é
pr icing
7 50
dr illing
carr ies
dévelop per
appro ve
An im
M om
B au
t ier
Carol ine
man uel
dep th
wal ks
L ap
govern ing
str ange
viol ations
rais es
install ation
rest ent
retail er
Fé dération
arr on
Mon te
amb ition
vol umes
ur ging
neigh bors
A G
t ien
st ance
dis cus
H unt
war nings
Mc Donald
depos its
vers ions
prede cess
Mc L
excl us
fr ère
analyst es
re di
al ign
ak i
seed ed
actu elle
purch ased
Th er
hy per
Nether lands
interview ed
sque e
Jul ie
ial es
ch auf
celebr ated
dé pend
gl ise
pain ting
on ge
att ending
adm ir
bat tery
Mah moud
Electr ic
ul é
ambit ious
céré monie
K id
Bry ant
compar ison
thor ough
trou vent
Wal ter
grat u
dev ront
appear ing
kind s
incredi ble
critic ised
reflect ed
Man ager
employ ed
Commission er
t ale
vig il
period s
lat ter
vis ant
smo oth
ing redi
vac ances
carr ier
é par
p iste
l ists
côt és
burn ed
que ur
im mun
Card iff
dr unk
igr oup
dis eases
f ing
F arm
EC B
sure ly
foc using
De puty
ib u
sal t
difficult ies
piè ces
cher cher
auto mat
fru its
legisl ative
f ers
k g
review s
qu ie
j er
bo ats
teen age
clin ic
sub stit
ban de
cas ter
ce iling
mem ories
Contr ol
util iser
popul ations
rev ient
ign ore
den ies
Or land
G ab
Brad ley
dis abled
F is
An to
qué béco
method s
H ir
es tr
contact ed
U BS
sup ple
First Call
E ly
Laur a
un like
ch art
H ave
A B
Ch ild
res ume
sa ire
Medic ine
in son
Stéph ane
C ulture
enseigne ments
te ar
Christ ie
if iques
pro pres
re command
An t
ich t
acquis itions
delight ed
Thom son
provin ces
CA A
référ ence
instru ments
reli able
am ende
amb itions
e c
v ague
O P
spot ted
F le
pat ch
swe pt
dis ent
J ets
proceed ings
dis appeared
c ats
certain e
res pe
M ut
EB IT
Gar cia
prof iter
occup ation
de ment
par fait
Geor ges
pick ing
jur id
Damas cus
don ations
F MI
astr onaut
exh aust
Con gressional
ev a
Brother hood
r ation
Im ages
util isation
He at
Sher iff
médec ins
co c
Hun ter
come back
Mer r
dé légu
inspir ation
dang ere
acc él
anim ation
K night
Cit igroup
entit led
long est
deter ior
p he
w et
break fast
is ations
Met ro
célè bre
n ul
Charlot te
télé phon
con cent
attempt ing
for cé
197 9
fa ill
ath l
th ème
g io
difficult é
pharm ac
or ange
k ar
tent é
olog ists
har mon
u ves
lect ure
gr id
hum or
bo ast
Lyn ch
vie ux
cru ise
devast ating
p ig
Malay si
inv ite
D ès
fin ishing
K ahn
10 1
Re volution
slip ped
associ ate
ident ité
auto mobil
ens ions
per t
phr ase
Alp ha
prob ablement
compet itors
de meur
let t
ch icken
mar quer
product ive
D E
h l
bon uses
thous and
repe at
the ft
z es
rem ont
uncertain ties
C ze
ail ing
effect u
ox y
Hear t
trait ement
cham bre
pul ling
ret ain
compar able
JPM organ
eff ets
Sh o
id ées
Orland o
Ang els
mé mo
In st
perfect ly
surviv ors
é preuve
host ed
Un i
M ack
qual ify
f él
imo ine
Kir k
sé par
w ages
ient ôt
prés ents
G 20
ope z
ac on
Diam ond
lo ose
eng ag
faut e
C ant
so il
sp onso
sponso red
the tic
appro che
du st
Oper ating
Cor n
is sa
viend ra
Gr oss
G ro
FT SE
âte au
om an
Bl ues
se quent
tail le
ag r
i ber
mus ée
Ben o
Lu is
net working
promot ing
oeuv res
P or
pro vis
if i
tr apped
F isher
pla inte
tax payer
Qu arter
pract ical
er ies
viol ation
Canad iens
crow ds
ia ires
mand ate
Jac ob
ch ann
hang ing
198 6
priv il
on ique
d ying
surround ed
escap ed
frag ile
pos er
H ass
R ug
par avant
comp t
old est
spé c
L anc
Ste el
at tered
On line
coll ision
ran e
su ed
cast ing
coach ing
rush ed
nom inated
question ing
Sy n
cript ions
request ed
pres er
tou ché
conse ill
améric aines
Ear ly
R ab
H od
human itarian
nécessa ires
dire ctrice
accident s
Pas cal
ank le
In t
ép ouse
établ ir
acc use
b ay
H usse
ou é
me urs
let te
rene wed
K adhafi
li abilities
Gard en
app orter
F u
tot alement
playoff s
cop ies
expl iquer
min es
A ction
ress ort
rése aux
convers ations
load ed
De ad
f ault
B ened
fire fighters
bank ers
es ity
cre ws
représent ant
mid fielder
qu ar
Snow den
N ice
V A
ad mit
fic its
tou ched
rés ol
br ig
dramatic ally
St ars
De an
Hur ricane
some how
domin ant
imp ôt
te ars
ian i
Sp urs
ste ep
3 D
pres um
invol ves
consomm ateurs
In tell
cont en
ax y
shut down
Rol and
Com mand
super vis
opin ions
so ins
tent ative
Rac ing
écr iv
puis sance
Louis iana
souten ir
19 th
rem bour
D ata
Re agan
dur able
f aux
Fur ther
Industr y
num érique
bott le
min ster
don ors
part age
éle cteurs
A ustin
re pas
investig ated
arrange ments
share holder
proced ure
d as
o ins
C M
celebr ation
resol ved
disput ed
Kab ul
Ste ph
sm ile
en sur
os i
dil uted
Coh en
J oy
Turn er
web sites
Pr ize
h n
ch au
clim at
project ed
el lo
ced es
t ellement
ut ility
cr ip
my th
cross ed
T odd
gen etic
conséqu ences
rac ial
food s
ES T
or é
électr icité
c oupe
point ing
Sén at
p ter
constru ire
pup ils
all ons
déc ès
enh ance
P AR
bes oins
Pr és
hom mage
sk ip
dé ment
re mise
contr ad
bas ically
ille g
kn ife
upris ing
re p
accompan ied
nom mé
w ars
Colomb ia
br ush
OR E
établ issements
archite cture
D uch
cr op
Or ig
no ise
ve to
mé can
financi ères
tact ics
fit ness
Th ous
under lying
afr ic
Dav ies
P ur
for um
lifest yle
sou ff
Deut sche
r ie
Sm all
l ord
culture l
argu es
deem ed
M ush
pt ions
C annes
hum our
oper ational
but ter
cl és
1 000
Cost a
trigger ed
catastrop he
demonstr ated
P endant
D ak
tough er
observ ers
auth ent
m ener
recru it
bu ck
L em
t ips
Lou ise
trem end
mais ons
fig ur
V ik
J ar
Scot s
ré flex
lif etime
r ip
Do es
batt u
t ired
cap abilities
concer ne
auto matic
ib i
a thing
fal lait
princip les
hom eless
t ast
Ch ile
tir s
mon étaire
de eper
di ver
De ath
la ke
ut ing
con temporary
pain ful
form ally
Rou ge
fle et
G or
condu it
cho os
port ée
L aval
leg g
Des ign
permet tra
Mar shall
memor ial
is tré
hand ic
français es
consider ation
pe p
Ap pe
I mp
P E
enthus i
ch t
im me
ele v
entre preneurs
val oir
vac ation
A ux
expl ore
ie ur
F at
ving taine
c athol
S id
Th ird
har ass
I van
Raf ael
bench mark
temper ature
process ing
L ion
col our
inter ior
consci ence
Abdul lah
Améric ains
élector ale
n ég
g ars
proch ains
if fin
f ake
Christop he
affr onter
The atre
Bl anche
coun ting
lum ière
list ening
de posit
cul te
ed ition
litt ér
procé dure
stop s
advers aire
b acter
V endre
rés idence
Gr am
Hawai i
form at
speak s
priv ile
pregn ancy
sub scr
worth y
ac les
permet tant
br own
stor ms
elector al
Bret agne
R ail
M ood
olog ique
li est
ass ists
spectac ular
u ellement
frequ ent
organ isme
quitt é
ret en
prest ig
sub mitted
demonstr ators
boy friend
consider able
sup érieur
ach es
B ear
suppl iers
ib ilité
Un fortunately
rec ue
Beno ît
che cked
feel ings
Al ger
mo il
ign ored
av ed
glo be
mar gins
opt ers
ot te
Insur ance
civ ile
N early
198 4
tur b
iz er
let ting
achieve ment
cons écut
smart phone
conserv ation
fil es
Gér ard
fil iale
cou leurs
la im
Sh ould
high way
iat ric
L LC
en berg
attach ed
emot ion
atta quant
Be at
M aj
p ause
alle mande
For ces
â gé
é lo
H it
negoti ate
protég er
virt ual
H ab
cook ing
install ed
barrel s
Dun can
el i
f oss
en z
Cr ow
différ ence
teen agers
diplom ats
Leh man
uck er
gall on
sw imming
establish ment
enter tain
re ign
prépar ation
Py ong
V iv
develop ers
explan ation
ac commod
fermet ure
ce ase
inv itation
rebel les
banc aire
tr and
clim bed
defend ants
as sembly
distr icts
rés ist
S ign
personal ity
ex ac
L ane
br u
c ens
ré gl
Marg aret
ajou ter
pir ates
L ess
l ève
ét ab
B in
pro visions
priv ately
ist re
am or
R BS
L ux
lic ence
atta ques
ind ing
sub sequent
œuv re
bar re
gé ant
out break
al ien
bl in
entr er
déc ouverte
legit imate
Vendre di
gr ie
Ex pl
imm ense
Jess ica
J i
en vers
colle ague
Un like
é mer
défense ur
ing e
éche c
K a
concer ts
charg ing
ras semble
subsidi ary
T ag
se ctors
Pyong yang
secre ts
déc isions
comp ass
M our
wh is
D um
M es
ow ski
box es
sch olar
ir é
i age
ch asse
uck s
confir me
valu ed
sen ators
non profit
highlight s
si ble
scient ist
enreg istr
enreg istré
demon strate
N R
R at
Mer cedes
ON G
Mor ning
G arr
Conserv atives
traf ic
n ose
loge ment
Camp aign
b ientôt
magn itude
S ay
electr onics
cover y
Univers al
sport ing
situ é
influ ential
ann uel
ID S
sér ies
Br and
ro bot
A my
os is
Cze ch
st ir
accept é
treat ments
class ified
tur moil
N ok
un fair
Sha k
D elt
shut tle
S ull
de cent
chann els
stud ying
confirm ation
C é
Der by
ess ence
punish ment
reb ound
cons ent
de fect
sex ually
conn ue
De b
haz i
casual ties
W inter
announ cing
l is
Organ ization
W A
Car ib
contact s
div isions
21 st
L opez
sha ke
I ron
b ands
p ink
bas sa
gener ations
Col in
r af
appré ci
procure ur
phen omen
car go
li é
person n
ordin aire
oth y
pr ide
Bru ins
le e
ot ive
dé ten
rand om
emer ge
R as
Delt a
pl edge
integr ated
seul s
Ro oney
Pict ure
ré su
oub lier
oph one
track ing
ER S
Con cer
br onze
BC E
C ongo
dé cro
strateg ies
Def ence
do ck
Au c
s tom
com mande
Ch en
Air ways
hack ing
Hu go
al cool
ite ur
lég islat
end ors
oun ces
eas ing
r if
dé cor
sh ine
concl usions
T es
compl ètement
resear cher
ing én
Instit ut
ig en
employ er
Pr om
withdraw al
Gr oupe
Gil bert
N i
Med ved
const antly
W ang
év ide
r ics
G abr
contain ing
pétr ol
aut umn
Th ier
Ou est
sophist icated
bil ités
Belg ique
T ories
aut eurs
main stream
th èse
y l
rég ional
West minster
log ic
F if
under ground
L ink
C ou
s its
né anmoins
or bit
Lu ke
us hima
mar athon
M O
P od
im per
dat ab
Transport ation
of fres
exam ine
con gress
Inde x
sup porter
Environ mental
fou le
ann ually
Mem orial
important es
propos itions
cin qui
Bor de
Liby e
op a
f eder
S ue
l as
Rog ers
B h
excess ive
b ug
Bang lades
mut ual
de en
ut é
198 7
lo d
cuis ine
vis ual
te ens
conf ié
M aster
pr iced
condem ned
essent iel
pal estin
arr êter
H ann
c ite
ele ct
requ iring
crit iques
re es
évide mment
tre ating
L av
inc in
techn ic
app s
N ouvelle
u ble
ex pend
Hond a
art ific
fest iv
transfer red
ac ing
ne urs
F onds
b orders
Ad vis
mainten ir
scen ario
cross ing
liquid ity
F reedom
par ade
batt les
L an
che er
Steven s
incend ie
con su
p ione
Medved ev
X avier
K no
M i
pol ling
Ron ald
dé cédé
Fré dé
Fuk ushima
in mates
York shire
i op
Char est
dress ing
head lines
princi ple
highlight ed
launch ing
E mil
im plant
bal le
Sci ences
gr ades
chans on
génér ation
déf i
Wr iting
des ert
pla in
souten u
hy dr
shir ts
J usqu
libér ation
pur poses
R is
present ation
Q ui
s amples
cr ib
arr af
catég orie
Nok ia
pay roll
im pressed
jeunes se
E vent
trav elling
z aine
St art
if fe
démocr atie
home owners
Philipp ines
hopeful ly
K al
E f
EBIT DA
ne ige
igue ur
rê ve
Carib bean
O mar
com prend
regard less
educ ational
ib li
jo ke
t ender
fill ing
s kept
Jes us
lance ment
Ferr ari
rég lement
frustr ated
solidar ité
des erve
oz en
fin es
ter mes
M ake
P ep
par quet
air ports
ci ble
Guant an
C legg
trans mission
occup ied
em ble
me ets
ac ité
médec in
B illy
dis count
G adhafi
ic ale
ed iting
stun ning
g allery
conf usion
ch arm
Se cret
fon ctions
ras sembl
M ON
198 2
Bened ict
spect ateurs
Val ent
po et
l ane
qu asi
les son
Oak land
Guantan amo
Ber trand
Mar cel
m um
deal t
stru ction
enter prise
Mug abe
Ch all
t él
Frédé ric
it ent
sal on
success or
M aine
success ion
Bah rain
C ad
ég alité
la in
anger ed
collect if
priv ée
gr ace
g agne
Cont act
C av
mag ic
tem p
L ot
tr ent
Bab y
ke ys
st akes
patr imoine
Bla ke
Th é
dec or
Re v
fol ks
F F
am bassa
eg gs
sh ame
main tien
A dela
déf endre
v as
Mush arraf
k ir
BN P
m ere
ath ers
rup ted
impos er
che ese
bureau cr
organis ée
Rug by
aw l
Eng ine
eng agé
cinqui ème
pl ug
arr ay
Thous ands
surpris ingly
prov oc
expl iqu
b ure
po inte
dam aging
17 0
in aire
f êtes
de taine
detaine es
ak a
consist ently
The ater
d ys
dis positif
N CAA
ph én
seem ingly
pied s
tr om
régul ièrement
Che v
judic ial
n od
vé cu
N ine
ache ter
King dom
H ous
oud re
P ont
chauf fe
po le
dict ator
vi o
Hist ory
Villa ge
qual ification
recover ing
H E
me als
ér ité
Del hi
helic opters
is lands
respect ed
bomb ings
go ût
la ge
deb ts
John ny
D ennis
d its
m elt
vess el
loge ments
11 th
util is
p ét
watch dog
pos s
Sing h
série ux
clim b
M ount
NH L
it ant
dis position
regul ator
Met ropolitan
est ers
it zer
ma j
la g
Gr an
W ade
dis rupt
ord ination
ah r
un ity
T élé
refuge es
inter pret
libr ary
C AR
t els
serv ir
rent rée
instru ment
ol o
anx iety
prépar er
Toul ouse
rencontr er
K il
hon our
sell s
Br ent
bol ster
dé fil
change ments
F illon
defin ition
scén ario
mé th
Sull ivan
fore ver
Jul ia
bel t
mat ched
dossi ers
C I
Feder ation
reluct ant
mémo ire
Sale h
act es
tax i
Swed ish
Adela ide
E ight
rac ont
p ump
oup es
Beng hazi
voc al
p ile
id al
dis pose
util isé
prem iere
A ge
n aval
organ ic
business man
bu zz
r ust
manufactur er
l ignes
dér oul
implic ations
ac compagn
Mood y
atur ally
doub ts
st um
consul ting
Argent ine
feu ille
Intell igence
re fin
my st
he t
J et
am ateurs
at ers
Na than
erre ur
Te a
cred its
res ource
ul tra
sond age
économ ies
negoti ating
rescu ed
imm une
confront ation
offer t
rhe tor
satisf ied
proxim ité
co équi
N atural
h ed
Ren é
Sain ts
A x
écr an
line up
18 th
op ener
Hud son
mid night
in dis
déclar ation
re vised
execut ion
Thier ry
A ud
appreci ate
B un
Fern ando
cre ates
lin ing
chant ier
p iano
fa ibles
gr aves
hand led
crow ded
B ish
inter pell
yield s
K am
sw im
trava illé
lev ard
engine er
détail s
F i
qualif ying
ret t
depend s
organ iser
sub i
Lu cas
cons acr
Zimmer man
dr ome
Dé f
neighbor ing
c œur
re calls
train er
dr af
genu ine
ca us
AD S
Cor ps
Frank lin
H and
inter pr
lu cr
cent aine
cu it
chans ons
Fred die
pres cription
d ens
sw ift
the astern
princip ale
Su z
econom ics
cr unch
ber ger
pain ted
D ale
m are
co le
pos sess
Me yer
strong est
shop pers
mar y
cred ited
bast ien
av iation
integr ation
30 s
For um
quel qu
ship ping
est on
U T
v ations
Mun ich
201 7
op ard
follow ers
coc aine
ob esity
men ée
ji had
leg es
import s
V ick
Pé kin
Pour tant
rapp orte
free ze
hom er
diffic ulty
do is
vi br
T alk
mus cle
reg istr
B omb
tun nel
ro okie
Re ports
fr ozen
Man dela
ict ed
ou te
st arring
real istic
198 1
adapt ation
mauv aise
crimin als
review ed
over time
dé placement
lect ed
Husse in
en o
isol ated
D R
ann ed
sal aire
o es
un ité
R av
Re cent
ital ien
l ich
Pow ell
avoc ats
coast al
asy lum
trans formation
renfor cer
rece voir
é dit
H ier
om ed
Oc cup
B and
mon te
sol ic
d ancing
uni form
subject s
3 60
Ne ither
um a
iver se
é changes
at ter
secon des
Br ien
dut ies
reve als
shel ter
pros per
sh ield
ép is
ast on
gold en
Re form
v igueur
vo i
N é
v ary
m all
empê cher
chocol ate
arron dis
se cteurs
g om
Ang le
Sm art
incredi bly
déc ouvert
borrow ers
want ing
holiday s
go v
P resse
exam ined
tour isme
determin ation
M ardi
instru ction
leg ally
vict ories
wh ist
sign als
Or ient
tour ner
pil ots
u ous
spot light
smart phones
Aber deen
dr ives
myster y
B ird
O liver
tom ber
Anto ine
per ception
conserv ateur
fl éch
s lide
fl owers
enc ad
depend ing
HK T
t at
Je ws
suspic ious
A IDS
au paravant
conne ctions
are z
sa il
Again st
the atre
dam ages
G én
sc ars
Organ isation
dr um
tremend ous
am ateur
caut ious
att ente
capit aine
sweep ing
ref eree
all ing
F oster
L iving
st arter
effect ué
Ob serv
compl iance
finan cer
bear ing
Pour quoi
he ed
Mil itary
F a
ing ham
conver ted
cherche urs
phén om
appr ent
condu ite
profession nelle
ir an
sur plus
Bob by
h iding
nat i
qu ête
concentr ation
Com pan
parlement aire
ch ants
Nic ole
celebr ities
Pet ra
di verse
offic iellement
trans it
Hold ings
Bank s
profit able
re prend
ré mun
explos ive
HS BC
en su
pe ers
u il
H undred
bran ches
ch ers
C incin
t win
guarante ed
dis s
ol an
ir i
tr ice
bom ber
Mos cou
C lin
prom et
liter ally
Bris tol
produ ire
h ub
mas cul
g la
mass acre
dr one
S et
assass in
acc umul
sent ences
w reck
social es
Beck ham
explos ives
ensur ing
suggest ion
198 5
A IG
St ory
S ide
as sert
BM W
ik a
ap ing
Cincin nati
V ent
im a
pre uves
B ased
persu ade
immédiate ment
clos est
green house
pé d
travel ed
vel oper
N ature
err ors
dé grad
f lip
hun ting
host ile
H us
1 15
pass ée
ét ér
bro oke
Sam uel
Trib une
Re f
carr iers
T it
D J
prevent ed
tem pér
TV A
Commun ist
pock et
any more
cost ly
ot ing
ag grav
cir cle
meas ured
v able
cock tail
m itt
vi able
contract ors
ou e
enjoy ing
mét ier
sus cept
Con vention
Cha que
ben e
estim ent
demand es
Déf ense
ign on
198 3
Hal f
ag ner
5 m
L ist
f its
olymp ique
im min
se cours
u ant
Ir ak
Cub an
un ited
rec ettes
amb iance
équili bre
glass es
F N
lim ite
mar qu
neutr al
move ments
mo indre
Borde aux
inv ité
prop ag
nécess ité
les quels
Every thing
ap ie
et ies
spe ctr
bow l
ch arter
Fr ied
sher iff
W ould
spécial iste
We ather
discus sing
sembl ent
Brook s
M M
post ing
restrict ed
part ial
T N
acknowled ge
slow down
subsid ies
rencontr é
bat aille
A E
L NH
ke e
C ele
dis closure
action naires
2 25
st airs
blood y
ouve au
con cessions
accus ation
Pict ures
if ies
Hol mes
ploy ed
Pet ers
commod ity
C os
spr int
Gabr iel
avent ure
vis age
pres erve
règ le
vain queur
rel ating
B ed
b lay
s oll
avo ided
Lank a
comp are
inevit able
B rew
work force
Ark ansas
arr iving
cert ific
elimin ate
sort ant
illeg ally
scr am
coll è
nav ig
uls ion
publ ishing
ab du
exter nal
c ass
ac id
press ions
cor p
Mo on
wait ed
prepar ation
intellect ual
ch op
imp ôts
f reed
fier ce
Lloy ds
K oso
rom an
E lection
D a
ham mer
cla irement
jo inte
place ments
ré formes
acce pter
G olf
Cham bre
ag issait
Build ing
N om
incent ives
tou che
zheim er
for tement
credi bility
ag ress
D ark
Inter ior
ast y
ag rees
dist ingu
de bris
am in
é missions
est e
s auf
front ière
talent ed
last ed
ag ré
Jeff rey
Out re
Q ual
W on
confident ial
par ois
N I
Pot ter
trag ic
démocr atique
présent ation
constit ue
Koso vo
un acceptable
Harr ison
g ust
cancel ed
overs ight
sp ill
propri étaires
se cur
gr ams
A str
cham ber
e volution
suggest ions
sleep ing
ist a
gr as
bal anced
J ong
insur gency
W ire
Over all
T a
Pen gu
sh aped
Al t
Le ic
Ab del
sim ult
li és
br ow
nest y
de port
chante ur
G am
install ations
mountain s
reconna ît
w ounds
cé der
Alexand re
d angers
Ret ail
activ ely
distribut ed
Re porter
Maur ice
thr ows
email s
Hel p
S hel
T wenty
an throp
ch ent
Jos é
L ar
ex cus
volat ile
B T
maintain ing
im prison
war n
fis her
K rist
migr ants
ox ide
ign ant
st aged
dec iding
Tele vision
P ut
per tes
H M
C rist
mont ée
W it
PD G
Mc N
Gr iffin
Jul ien
bl own
ul er
tu és
j us
sur render
ré jou
H av
Ke ep
Work ers
j ac
design ers
Common wealth
met res
Nor way
re joindre
require ment
su ites
ren ouvel
indict ment
P il
attent at
appeal ing
dev oted
M ons
inv ités
ch rét
bish op
As ie
Glo be
Hundred s
F ly
re mo
mar ry
d istan
AN C
engine ers
l ig
fro id
C old
Al zheimer
10 5
grab bed
prim aire
Cl ick
Ann ual
expl oded
bla ze
pré visions
rob bery
candid ature
meur tre
G S
az e
describ ing
og a
conv ince
e es
ven ait
Sh op
war ns
bat tre
E aster
sy rien
pr at
ci le
table t
D ere
torn ado
s mil
prior ité
object s
amp ed
ob served
caf é
per pet
travel ers
No thing
com ic
Wall ace
chemical s
gar age
Je udi
gr ate
196 7
rédu it
sche mes
buy er
ici ary
team mates
cr uel
rom antic
inspe ction
fl ows
C ain
v re
tempor arily
organ ised
propos er
ap ology
saf ely
His panic
K an
privil ég
bo ther
con tempor
Techn ologies
f law
Research ers
Port land
fer red
p ape
matin ée
Kn icks
ling ton
min der
met ers
Crit ics
weak er
educ ated
dé tru
vo ient
déc enn
Mem bers
exécut if
bu ff
gener ous
val or
Richard son
bour ge
m u
He y
Ch ang
app et
ep ic
P AC
B ac
nom s
ach t
tank s
d les
b ite
prompt ing
Ob viously
pr aise
stop ping
R ud
inter dit
St udi
f s
m und
sp y
sn ap
C ome
if ford
top ic
oper a
jard in
complex e
decl ining
pol ar
hor izon
el abor
tr oupes
mil d
nutr ition
avail ability
B elle
als ac
D O
Quel ques
ort ium
iz za
compon ents
feed ing
démocr ate
Martine z
met tant
oure ux
stom ach
process es
tee th
no vation
plan ète
ven ant
m m
V in
Scient ists
Mar ois
ré cession
Fin ally
motiv ated
break through
bene ath
iqu ée
or ch
demonstr ation
mat ur
That cher
risk y
Me h
fact ories
Ash ley
uten ant
F S
P age
Mc G
haw ks
fédér ale
F av
f li
F OR
assu red
at aires
immobil ier
V ER
second ary
wild life
categ ories
X VI
vo ices
ad mission
it ate
Brad y
T D
am ort
ort ions
r hy
X I
Al most
re mer
C ôt
remember ed
Buff alo
photo grapher
Mill ion
Q U
profession nel
dé faut
n ar
sau ce
exc use
ail ed
Trem blay
C and
or tement
Y ang
Pat riots
nur se
sup érieure
tro om
K aren
bi partisan
last ing
campaign ing
occasion ally
Fut ure
ah ar
ir ty
éner g
Hol y
eg g
A ld
d d
trait s
b apt
promot ed
Per th
mind ed
b its
Banglades h
Fin al
exam ination
prevent ing
Ath ens
en ess
cas ino
wh oles
Con nell
20 s
excell ence
om o
M au
handic ap
not ably
mon arch
CG T
Ever ton
grad ed
am mar
integr ity
predecess or
all ed
de pict
im s
to bac
tir er
appare il
strateg ist
dépos é
québéco ise
Belg ium
ent ier
ak en
ég ard
Rac hel
bel les
a illes
C ass
AF L
ven du
C able
patr ol
form ations
adopt é
cl ick
Ty ler
press ures
Cham ber
A verage
aut é
S hell
prof onde
M umb
person nage
he m
é clair
eng ines
C laire
Kar l
co inc
sc ared
Al g
command es
F ir
extrême ment
ist ique
bo ge
Res ources
ch ips
em bau
Ky i
collect ions
att entes
Compan ies
re fr
Her n
dirige ant
H off
prov es
F ashion
C ot
calend rier
real ise
Card inals
ad verse
S add
renew able
fr appe
D ieu
transpar ency
ha il
Pr im
respe cter
pattern s
Case y
effic ace
vic toires
caract ère
C had
enquête urs
pit ched
ant aine
Friend s
res um
youn gest
Roy aume
ambul ance
run ners
program ming
Angle terre
dre ams
sw ine
willing ness
L iv
Is lands
maje ur
tradition ally
K rem
z i
Eag les
re ception
fl our
rad ar
B ever
ip ed
rés id
With in
defend ant
prés er
Id ol
V P
gr ants
off enders
lo ves
phys ically
sacrif ice
volunte er
ved ette
hor ror
vent ures
japon ais
197 6
qu ette
Al f
ouver tes
tobac co
fr ères
ok ing
rév élé
ul ations
Col on
le ep
batt led
s ne
rés erve
UC LA
sw it
ot es
Cel ui
comé di
batt ling
sa ves
Int érieur
Jo int
envis age
studi os
ias m
ro d
r ib
fon dé
pl um
list ing
S oft
acc using
re ver
T IM
bott les
Lo ck
int ends
Sant é
sing les
resto red
de mo
F lo
Wr iter
de veloper
déclar ations
R ho
ene y
in ho
neighborhood s
Se ine
lun g
législat ives
ci aux
os se
Re ed
C ut
accueill ir
tiend ra
s ample
Ch an
gl om
fonction nement
appe aled
F res
An a
tr am
Investig ators
B B
N iss
cont ing
sc ope
gain ing
Bu y
P ul
R ather
sort i
k ov
credi ble
Nob ody
top ped
Ba iley
Represent atives
D oll
ide l
T each
Le ur
optim ism
open ly
accompl ish
gent le
car to
off ences
album s
J ama
trad u
accoun ted
D arr
municipal ité
quiet ly
Mon aco
Polit ical
prior ities
S au
itt ers
trans ports
Su u
cr own
form ula
be ars
D rew
commis saire
V all
p ets
Se oul
se ctions
w ives
z en
now here
M ach
sort s
Au di
re lay
Ro che
Jul ian
gro cer
A ur
rent al
pr ince
broad band
qualif ié
P L
viol ated
Agric ulture
produ cteurs
infect ions
Be ing
n aissance
conduct ing
north west
lobby ing
g érer
Ph arm
gu ided
oh an
th ouse
al do
L ed
affect ing
recher ches
tr ace
res idence
Mumb ai
after math
altern atives
dis ant
table au
jur ors
Ar ctic
évo qué
2 12
che v
emphas is
g lad
au kee
Wal sh
sout ient
m él
wr apped
musul mans
Gill ard
Mon etary
Em irates
t ub
il itation
furn iture
Toute fois
Sch war
Sé bastien
spr ay
Hear ts
V eter
Mad off
embr ace
int ensive
C ry
M D
d ining
ex amples
design s
Vie w
rid icul
bénéfic ier
diplom at
diffic iles
th ro
contrib u
infect ed
ap h
brief ing
man che
F itz
com batt
Naz i
fisc ale
anche z
real ised
D ise
onn és
Stud ies
erup ted
n ets
eli hood
Aut re
e ve
és ie
medic ation
déf end
ing ue
ED T
redu ctions
p ope
sole il
sub urb
bles sure
att s
ch ol
---- --
C ore
automat ically
Dere k
ic le
pharm aceutical
land mark
Sh ane
absol ute
goal keeper
Th ings
R ain
12 th
offic iel
trent aine
T T
b ille
Can al
re construction
sem if
m ens
or ous
tow er
out door
cent uries
rich es
chair s
re iter
depend ence
curr ing
ann ie
Jér ôme
coû te
N os
ale z
job less
jour n
entre vue
Em bassy
le vé
par alle
matér iel
fr ight
Det e
e us
sign er
provo qué
w aukee
D iana
Dr ag
entr ance
cir const
conserv ateurs
thod ox
corpor ations
for gotten
aret tes
H app
L af
unem ployed
vess els
heure usement
él ève
S anchez
respond ing
kilomet ers
c abin
ib ly
bul k
scre ens
pursu ing
Did ier
threat en
H 1
I cel
To o
f oyer
su e
e or
ab us
rall ied
re ar
sh y
k ers
S gt
wor sen
re pos
Tr ad
R és
pleas ure
E chos
advoc ate
Mil waukee
W es
dist ur
port ent
pil ote
Moham mad
b unch
Cru z
F un
ev ident
Exper ts
T erre
strugg les
M ason
arrange ment
P ick
ch ir
cl iff
disappoint ment
pré f
head line
f eld
Mer credi
r ant
ab st
ic onic
M ull
dub bed
gang s
bra him
Ad just
Ely sée
Gl en
unique ment
step ping
prof ité
Icel and
sal aires
Op position
H 00
col leges
lov ely
pré venu
hy brid
Black Berry
Krem lin
celebr ating
assu med
Tha i
ro i
Dig ital
spirit ual
Liber ty
all é
ou ch
ar ia
Lib ération
élé ment
super market
depart ments
length y
améli oration
sa int
dev ons
fail s
sl owing
Islam abad
Bash ar
sil ent
ash es
gest e
so i
w i
proceed s
N C
comp elling
sl um
Bl anc
M and
k iss
form id
tir é
In tel
ne au
bure aux
dr ought
col ère
Merr ill
Gal axy
pap ier
Cele br
fore closure
in appropriate
traff icking
al ph
10 3
jur is
sal aries
compla in
Ne ill
bo î
Ath let
organis ateurs
A mand
vot é
lin er
Ben nett
grate ful
c ake
os pect
vi ation
Pr oper
Con grès
M emp
P lease
g ene
pén al
ingredi ents
C lem
distin ct
Memp his
U g
H R
re minder
dé t
M R
D ell
equip ped
perce ived
pe er
rhetor ic
E mp
but ton
ine au
ess ions
est ine
n ons
réalis ateur
fr ied
Le eds
min er
W enger
decre ased
sp an
Ar ound
ch ancellor
we g
Pel osi
le ton
pict ured
Wh atever
curr ents
polic ier
champion ships
légère ment
Medic aid
S und
li ens
ost ic
f en
Arn old
cur ité
sci ences
convain cre
è lement
g od
4 e
hab its
l ender
bub ble
per mit
Sou l
dénon cé
just ement
law suits
ch ard
datab ase
souver ain
P in
wr est
N ig
Bh ut
descript ion
J O
sm ell
f ence
M oss
ast ique
Mont gom
ex changes
occ ident
gy m
sport if
ref using
Bor is
are tte
help ful
B elf
envoy é
Kle in
é mis
les quelles
Hist or
T I
sa in
pr atiques
corre ction
enthus iasm
Du blin
music iens
sever ely
role um
spectac les
implement ed
pour suite
insur ers
disput es
prob ation
clas sique
D og
Gén ér
produ ces
H az
nom inations
é to
material ly
amp leur
incent ive
con cr
flex ibility
paint ings
ble w
gif ts
clôt ure
IC A
s kill
fr ank
Gonz alez
S car
emp ire
ED F
bus es
Pr ior
Rich ards
inste in
Niss an
ren on
motiv ation
érie urs
enseign ants
appu i
rappel er
chois ir
hear ings
C lo
Sch ne
Br andon
qu ad
19 75
K yle
insu la
execut ed
her itage
commod ities
princip ales
Os ama
dig it
C ris
op ed
dies el
on i
ab used
adoles cent
ob serve
project ions
he ars
sim il
Mod ern
Ow en
amend ment
rele ases
dou bles
Alpha ville
cig arettes
particip ating
vis a
S ophie
Tunis ia
é ché
invest ir
parten ariat
Al ice
ou f
volunt ary
sp at
spectr um
Che z
B apt
C AC
ci el
lif ting
adult es
conn us
étab li
An ti
man if
Tur quie
Mad ison
197 3
Car ney
pre v
g os
bon es
n aturally
g art
puis s
grand mother
han ced
S ure
pt on
ab sur
Ay r
dis close
spread ing
sp are
situ ée
prote in
Sum mer
controll ing
dé marche
bour si
h ung
US C
re placing
ém ie
con fort
pr us
slow ed
Indi ans
F M
evacu ated
in corpor
Christ ians
sé jour
conced ed
S che
sa fer
av anc
por no
is ers
publ isher
mo le
annon cer
minim al
ith ner
international es
sp aces
pat ent
Cir cuit
magaz ines
Math ieu
ré fléch
Har vey
T err
S lo
Offic ers
S C
s is
Gl enn
electr ical
g ments
ab is
except ional
Ge ithner
él est
su ic
W oman
contr ain
ren ov
But ler
commission ed
grad ually
ie z
X in
pat ience
check ing
Dak ota
ém ique
cam ér
Vi ol
T an
cycl ing
ar mer
read s
mén ages
it em
ré per
196 8
excl uding
y pt
ian ces
de venue
D oc
L ance
par lé
2 40
princip alement
ot y
oust ed
indic ates
compagn ies
short age
comment é
O ui
car pet
Cré dit
ré fug
sent encing
Nor man
H ague
se aled
public ity
comb ats
compos ition
Mal iki
F ull
R ah
illa ge
lanc ée
dés ir
Cont inent
veget ables
part ially
prof ound
I stan
murder ed
dé bats
N ouvel
Lun di
po is
witness ed
Lim ited
1950 s
priv at
Mag ic
B il
psych ological
dynam ic
bu cks
sand wich
i h
un er
Istan bul
cart es
voil à
od a
ball on
host ing
Col um
by e
bles sures
dispon ible
meaning ful
app els
recogn ise
acqu ire
D up
recr ute
Adr ian
orient ation
Malaysi a
narr ative
Hom eland
far ms
Rich mond
le ak
B att
remo val
Ber ger
Gu illa
m ée
fundrais ing
commit ments
board ing
déc ider
it ter
gun men
boost ed
con server
trans plant
El li
pe au
ign or
Al ong
ine f
méd aille
re connaissance
survey ed
foreign ers
certain ement
president s
bacter ia
ic ol
mé trop
M agn
2 20
Côt é
N 1
pat ri
réflex ion
choos ing
Down ing
aver t
197 2
Res ults
fr action
off en
Ch arg
arrondis sement
sub urban
expla ining
G are
Mar co
der iv
é ter
read er
h ij
br y
weigh ed
contract or
mail s
advoc acy
cap s
fl ower
p ne
aren a
vol can
Em ploy
under mine
des cent
ré unis
termin al
ré action
indépend ance
l r
moun ting
I CE
recogn ised
lever age
t ang
eng aging
L ille
lucr ative
9 11
app ell
flex ible
ara be
s cept
ex ige
sequ ently
gun man
fer mé
intell igent
e leg
ol sheim
Ber k
dé ploy
v étér
I brahim
Cor ée
or i
inc umb
min us
Gram my
re joint
compos er
Her ald
o ires
le af
gl ace
er ia
be it
statist iques
Austr ia
stup id
heart s
deal er
C ape
rock s
S top
civ ils
nurs ing
aire ment
address es
Som ali
M all
bre athing
In side
assign ed
m ous
us site
Pal mer
G ot
ap prendre
li ed
ah l
c um
epis odes
s am
deb ates
D il
ers en
ib ers
d ar
jug es
Dev ils
n aked
par am
out lets
mon str
govern ance
personn ages
mos que
pris ons
bus h
Bar nes
j on
gam ing
un a
res pir
Miss ion
en ko
sl ug
ES PN
at y
fond ament
ext ending
ident ification
ars en
up grade
tran qu
sauv et
poss ède
pack ages
book ed
aven ue
fonction naires
address ing
light ing
Re yn
fight s
c ache
Lead ers
shock ing
Fair fax
C ab
C ould
mon tréal
J or
sl ump
Gi ul
je wel
met tent
dev aient
ight on
Sadd am
u ing
bille ts
v aste
Tom my
S M
af fe
priv és
dis ait
trop h
R ace
sé du
S ong
reg ain
univers al
orches tr
B ast
constat é
él arg
ape ut
az ine
it ative
hab itude
C oup
ill ard
10 2
fréqu ent
dis played
different ly
quart iers
s ins
Any one
F ight
tot ale
ré ussite
engage ments
cour ir
S n
c m
is ms
coun ties
J ob
trans parent
stabil ité
guarante es
if fer
---- -
kidn apping
v ins
dé cr
recon ciliation
aw k
U sing
b iens
E ri
Em ma
imag ination
w il
ré d
L M
music ians
biz arre
H ag
tr aces
tr oupe
197 8
object ive
mar ques
trop hy
z oo
super ior
He w
V el
ue ux
serv i
arr anged
gen es
com missions
Sol utions
S oc
Austral ie
exc itement
ev il
dé lic
cal me
insist é
dé tention
B é
Lind a
H ope
cour troom
editor ial
clean ing
tal ents
A K
part ager
tr ente
bath room
su jets
Cam bod
diagnos is
Look ing
predict able
Ash ton
fo ol
Lloy d
bo o
advert ise
sol ide
St orm
consid ers
cir cons
Mc Car
ill ée
cr af
gr ain
N ouveau
détermin er
convict ions
un fold
Mar in
Leg isl
counter parts
gu er
Hass an
ra ids
Cra w
h ik
s ke
not able
lo ving
S ent
Rober to
p â
J ol
h art
li by
sound ed
Y esterday
K enny
pos ter
P av
10 4
du mp
autor ité
Belf ast
occu pe
197 4
pré occup
advis ory
Ne u
calend ar
si ques
he ating
anim aux
Mar ines
ac ious
Mont real
20 h
K now
former ly
P ist
ro ot
collè gues
Prin cess
r h
air y
progress é
cris es
aw i
recue ill
ac company
sau ver
understand s
St ade
ur ches
Photo graph
br ick
loc als
Cr ime
io v
Dur ant
we et
billion aire
réal isation
bon heur
Class ic
off ence
p ian
shoot ings
spons ors
rid ers
té moins
ad resse
plun ged
res p
H il
ge ograph
Ch i
Fr an
rele vé
cur b
5 bn
région ale
pal ace
So le
défin itive
ach i
expl icit
hun ger
registr ation
lit igation
Co de
g ut
w and
permet tent
ch ase
Guilla ume
Ar med
C IT
indé pendant
str ained
y r
ajout ant
vér ité
coll ège
fort es
ass ister
n ait
dis cret
14 h
N O
G ag
ce ment
formid able
conse ils
Cro ix
Th ink
Ro th
broad caster
pur suit
twe eted
Hos ni
affect s
accept ing
Nich olas
chap ter
Br yan
Cy prus
C ON
f oster
dr ame
trad es
br i
Act iv
Cow boys
po inter
sup prim
sem estre
c ach
ch ale
Leic ester
jack et
te es
c ave
k ok
US Newswire
phénom ène
appare ils
command ers
11 1
C L
Serb ia
tit led
A 3
Kno x
explos ions
C ôte
nurs es
S ier
dr ops
P om
wood en
libér aux
M ust
jo ie
en ci
règ lement
worry ing
respond ents
197 7
gl ac
firm ly
F ish
Qu inn
éche lle
Tim othy
Environ ment
r ique
M ann
lux e
cle ver
ar is
Gib son
print s
scand ale
approach es
es cort
pit cher
com s
devast ated
et ch
Bay ern
Co x
supplément aire
inst in
Ge off
ou si
file t
et e
ke i
ro v
ê tres
è che
R h
W H
R ivers
Gr ow
preci ation
am an
iqu és
assur ances
montr ent
decl ines
I mag
is ely
Mont ana
insp ire
v ée
le ather
pre vention
coup able
aud ited
eng ager
méd ical
cons ac
phenomen on
pal ais
comp ly
ol k
voul ons
Bish op
le aked
Mad onna
syn d
every day
batt ing
h él
bo ot
évalu ation
ck ing
ap parten
Sp encer
Assist ant
Colum bus
un changed
K ath
kin son
out ing
Schwar z
N ote
potent iel
Bul gar
F ame
S had
product ivity
immigr ant
Shak espe
Tor res
rel ent
ma ître
offer ings
rane an
view ing
hard ware
S élest
tar ifs
Gib bs
Ch uck
K ids
é labor
add y
ut ile
t une
Pu er
Emer gency
aw ful
grand father
islam istes
c ède
Ell is
agric ultural
O scars
Res pon
Cl imate
ric he
vra ie
196 9
D F
technolog ie
chante use
open h
truct ures
Eth iop
forcé ment
C art
anc ies
num ér
substit ute
mid field
re build
he y
s lo
w y
K ind
Sher brooke
await ing
invent ory
fond ateur
gam bling
Qu atre
Market ing
desc end
care ers
print ed
sub sequently
É glise
dispon ibles
fail ures
ov ich
électr ique
down s
Do ctors
Dire ct
cap ability
suppl ier
endors ed
gouver nements
po ised
Ar ena
he b
conv inc
om in
trait é
Not es
ro be
spokes person
P O
she ets
gros se
17 5
credit ors
Li br
o ch
relig ieux
ie uses
ob jets
ég ypt
el ing
hur ricane
C V
sear ched
S ous
L ate
li ées
sol ved
ou er
draw s
inter diction
B ot
17 th
G ol
as si
fil ings
mas se
è ques
de ficits
sus pen
de t
frapp é
en hanced
whist le
Stud y
Cent ury
W ine
Shakespe are
don ated
pass agers
in verse
Lag arde
de ployment
F ast
Ash es
pot ato
Gen eva
in jection
ur bs
Mex ique
n ats
sé qu
elabor ate
H uck
Cr imin
au quel
co at
sell er
N ico
stat ue
perspect ives
S ug
collect ing
F ond
tro op
juge ment
v ête
on ing
IR S
in trig
par d
aliment aire
Cr os
ett el
ie ve
ch èque
1 st
ét on
n ik
ér ir
la i
vers er
imag in
E PA
inform atique
detect ives
se ize
Cro at
ad minister
S acr
F ather
o ven
ign er
fin ir
def ine
dir ty
P iet
cous in
P erez
Ron aldo
School s
consid éré
str and
T ob
inde mn
ang u
Den mark
K l
rel ance
sec ular
Every body
con current
B ath
keep ers
stab bed
AL L
Pol ish
unt ed
pl ong
indis pen
great ly
6 50
e aux
A U
port able
fect ure
p ad
ins ight
F ay
c ies
se min
counc ils
ber ge
deser ved
pu zz
He a
c ular
Bang kok
fing ers
ad ul
eth ics
su pr
ite urs
cr ying
aud ition
fla v
qualif ier
r ares
do ig
ins ider
magas ins
su isse
eful ly
human ity
Leban ese
pr ête
Mar cus
cuss ion
comment ary
ch and
synd ical
ç ait
Str ip
fant asy
PAR IS
N L
test ify
cig arette
rhy th
complet ion
Sil va
bal les
occu per
half time
batter ies
rapport é
in os
s ich
m ie
oph ones
ac trice
C openh
form ing
sl ot
Bank ing
re moving
so aring
u a
pep per
ch és
review ing
dec isive
esp ion
prison er
R ien
le ine
Israel is
approach ing
pick s
har vest
m été
inter ne
responsi bilities
after wards
ron de
Tr av
P sy
s isters
con tem
McCar thy
B ent
Pengu ins
it ures
Hea throw
G C
act if
décl en
publi ée
fu ite
compon ent
pouvoir s
a qu
maîtr ise
précéd ente
bet ting
Amand a
V M
inter pre
dist ant
extrem ists
Con nor
it re
block ing
hom icide
CD C
trop ical
A er
Br id
un ting
K enne
Le ft
Form ula
con version
enth ousi
platform s
w n
Bull s
soon er
restaur ation
ou che
graph ie
dé lég
esp agnol
vol s
des sin
D aw
az ir
équipe ment
sais ons
ut t
vois in
shif ting
E E
a a
Thanks giving
SN P
Kur dish
cop per
nation ally
rac ist
ex ists
L IN
M ig
ind ire
De al
New t
instru ctions
F light
S aid
implement ation
ne z
fla mes
nor theast
im et
plate au
frame work
compét it
p iv
essent iellement
G PS
cons ortium
S lam
Mic he
Hern andez
cal ories
s ar
Jo el
dép ôt
r ational
valu ation
L B
f ür
ach ats
bio graphy
ac com
cos y
Cast le
progr ès
Don nell
Darr en
me x
B order
Tr u
13 5
effect uer
g on
Petra eus
communic ate
document ed
Nik kei
ut ton
B OS
we ird
gy mn
prec isely
con vo
Hol der
in quest
touchdown s
ner ve
ele ph
vois ins
moun ted
res em
re actor
Dou g
CO 2
D iane
belief s
bid ding
br ave
to ys
drag ged
design ated
prend ra
S earch
too th
ied er
margin al
Bor n
institution al
ob i
cla re
Dar fur
re plic
Dar ling
e ches
ten ure
frau de
art istic
Indian apolis
str ipped
cuss ions
d iversity
ste am
fr anco
S tern
écou te
ent am
rush ing
M oz
D ion
up dates
he ated
pl ates
C lip
ig gins
aw ling
immin ent
fer mer
ci o
G y
Alle mand
dif fusion
v aut
Xin hua
L ay
kick ing
cr ops
2 30
effic acité
rank ings
rece iver
stret ched
br û
t elles
H ilton
public ité
Bet ween
c ardi
remind ed
Am end
R S
cu le
enem ies
reflect ing
exem pla
s ink
ouver ts
municip ales
Schne ider
ste al
ex tradition
clear ing
intens ity
awk ward
sond ages
conf ie
suiv ant
sal les
S under
mon na
Girl s
f os
inst aller
hard est
tour istes
symp ath
sub mit
b icy
tr ésor
be ck
pun ch
D L
Carr oll
u ed
ed y
charg ée
twe et
c umul
Burn s
pré vision
sect arian
d oping
trouv ait
ag nes
K oh
Egy pte
insu red
appet ite
brand ed
log ique
Alg érie
d well
struct ural
j ol
K ad
inter ventions
fl ot
impact s
propri été
H aguen
Dr ive
r ick
ath lete
text es
1 12
ende z
H ood
g ary
imp air
fl own
P f
re pous
cesse ur
inst ances
app le
fix é
confl icts
boss es
High way
N ath
assass ination
N y
entour age
ou c
d ite
r ack
Sim ilar
confir mer
resp onses
social istes
Oper a
Fig aro
de e
bout ique
pan els
acade m
c és
don s
elimin ated
str om
fab ri
Industr ial
sup pression
succeed ed
w ary
surve ys
i ac
st ones
Pet erson
représent ent
Cl er
fo i
s acked
Im migration
En ded
fau drait
un necessary
Gu ide
be aux
L à
ap le
Cit iz
10 8
ia h
crit eria
Albert a
anonym ous
un iverse
st ark
relax ed
sour ire
meille ures
ac co
oper ative
ment ally
obst acles
Stud ents
l ash
artist ique
Sélest at
respect ivement
jok es
rele asing
skir ts
Dise ase
multip les
énor me
imme uble
wonder ing
gl imp
Mag azine
L ower
C ep
div ide
16 th
Puer to
c out
fédér ation
Med iter
Sch um
n ut
inf ant
gam me
wrong doing
host age
tr ous
Sur vey
Holl and
deser ves
one ws
Sunder land
c ées
te au
Montgom ery
Sh ab
de hors
b ang
pos é
cancell ed
P itt
Dis covery
pet rol
amén agement
d awn
reach es
int it
co opération
y uan
sl ower
rem porter
Ham id
Cal der
ad venture
vol es
Mc Il
neighbour s
cin ema
hel m
G allery
Bhut to
ball ots
F annie
in comes
13 th
wick et
del ivers
stall ed
Ro om
compl ément
adv ances
constru cteur
jum ping
écl at
g ad
empr unt
10 6
v int
z el
lo go
exprim er
t ut
u pl
m ultim
B ER
oe il
Pet e
p her
con state
Cl ose
Er do
P ré
Hous ing
quin ze
78 7
be e
quart s
hér os
calcul ated
ow e
ah i
Cor re
dou ze
fun ctions
EN T
T ul
distr ess
anci ers
re ci
cad res
c ôte
hon ored
p p
attribut ed
A ch
ah o
ban lie
ep ide
d ures
Haut e
I TV
conven ience
ibli oth
t issue
add iction
passion ate
sole ly
ish es
philos ophy
bl anche
Tes co
table ts
separ ated
organiz ers
sco laires
15 th
deleg ation
Gre y
circonst ances
li ability
sub urbs
p av
IP O
Oper ation
gradu ates
mark ing
simult ane
N ixon
c ine
contribut ing
P ast
Not ting
déten us
F ind
pron ounced
haz ard
R oc
ane c
spe eches
substant ially
Haguen au
Tunis ie
finan cially
nive aux
ur i
citizen ship
ten se
en velop
H og
ill usion
I BM
respect ive
mé tr
ok es
De ep
twe ets
ré pl
iv ités
s ends
Mediter ranean
R T
Leon ard
dim ension
off ens
ann uelle
Pal m
L ég
ô ne
fl ation
ill as
hun gry
de ck
Hel en
cont ents
f ict
dé clare
iss age
Ber g
cré di
un comfortable
dire ctions
F oc
vé lo
rout inely
r allies
is la
inter active
attend ent
Emp ire
Al onso
souha ité
E ADS
poor ly
qu ait
L oss
Par ents
hug ely
PM E
G and
Mon ths
post pon
plu ie
Lam bert
Nash ville
Corpor ate
bourge ois
g ger
ed ged
sens ation
hero es
n ia
ot ti
fla gs
vo ile
dem ol
G ue
Li u
catch ing
S aver
embarrass ing
dépar te
Kenne th
dis appearance
barr ier
sn apped
Z el
Read ing
perform ers
j ah
Victor ian
divid ends
ridicul ous
g are
p ants
cor é
Str ateg
arr ives
t âche
Swan sea
res il
Ur ban
C af
found ing
entraî ner
bou te
cont enu
boy cott
Made leine
threat ens
fl ies
al ike
just ify
astr onom
Tr ue
év acu
infras tructures
chaî nes
out es
Le aks
analy ste
deliber ately
out ils
ire z
T ry
A id
scient ifique
W igan
gre eted
Kaz akh
R ush
qu o
Mar ion
M ult
M ORE
progress ive
dynam ique
divers es
class room
c apped
athlet ic
K or
ster o
municip ale
D mit
attend ance
Enter prise
Tr op
M az
achieve ments
cathol ique
i aux
Cal gary
success ive
o a
ann oy
r ons
rel ate
cor rupt
ret irer
Oper ations
dérou ler
ab i
run way
no ire
p ent
ex ped
trans formed
jard ins
dete cted
Tar get
Erdo gan
que z
N ato
us ky
corpor ation
v ég
introdu cing
tr imes
Andre a
emot ions
Fr ances
curr encies
li o
barr iers
al together
ré el
Sil vio
ther ap
Record s
ib as
comp ortement
parfait ement
b ik
ul ous
ach ed
ell ers
So on
poly val
Gu in
F SA
assum ptions
Bud d
cult ures
Rand y
A ston
McL aren
suit able
regard er
Tr ump
Mill s
lean ing
on ia
ho ok
G bag
Robert son
Imp act
Crimin al
wo es
S print
Cap tain
consid ère
Len non
install é
scient ifiques
Au bry
sl im
isse urs
client èle
preci ous
destin ations
Hend erson
A viv
decla re
che t
mun ition
mobil isation
ple x
acade my
perm its
shif ted
C ell
concer ning
An alysis
Bet ter
attent ats
wholes ale
R BI
con cession
l â
un happy
ste aling
Pre vention
ost al
n iers
se al
lay er
W iki
h oney
en jeu
cont our
am as
ét onn
hab i
nor mes
béné voles
C um
ort on
trust ed
W er
b illet
ch urches
reve aling
H ib
Blo od
un fortunate
197 1
V os
comp le
Gbag bo
---- ---
C T
pre dic
ino ise
anc ers
f leur
enf ance
con grès
p ow
pre mature
Ma e
Bret t
og en
Iraq is
C le
fir me
tou cher
observ ation
aggress ively
Pet it
mat ières
dangere ux
Ed die
desper ately
grap he
AT P
N SA
FO X
C lay
med als
év ident
W ait
on des
wish es
médic aments
é th
actual ité
Edit or
stay s
i Pod
ré vol
po ign
gr ay
heb dom
Pat ric
mand atory
attr action
lim iter
track ed
swit ched
pray ers
al umin
Are a
B ois
Thé âtre
sé v
organis mes
Her itage
sur g
ia z
Vol ks
olog ne
men su
b ids
cl ou
cann abis
ress ent
he ct
Al b
labor atory
commun ist
ul u
présent ée
nette ment
Ch eney
Afgh ans
inspect ors
Con sum
char ities
In cre
tom be
hebdom ad
flood s
Bach mann
stratég ique
m ount
team mate
Mont pel
AA A
ens ic
fourn ir
supr ême
amen to
common ly
pi pe
for êt
inquir ies
harass ment
F iat
recommend ation
Q C
nour r
inf lam
mir acle
M él
Be th
ch ains
licens ed
af fection
mis te
armer ie
r ine
advers aires
at ro
Fam il
account able
bro ok
Pau line
arrest ation
Ne al
kidn apped
am el
cer tes
to mat
Sal t
sauvet age
ap part
Ret urn
clim bing
cost umes
bul lying
bar red
re act
trav elled
maintain s
discut er
y ens
complic ations
Eur opé
isol ation
Le gal
foc uses
She ikh
hold ings
six ième
K and
Ne br
Cop y
B og
F alk
sell ers
H ell
K atr
en force
possi bles
D T
F ac
ab uses
achie ving
Prop os
pray er
Ser ena
occas ional
syn drome
ju ven
Ce ux
on gh
SN CF
Austral ians
rece ives
Alf red
haut s
declar ation
Sh in
Represent ative
comm en
Con struction
10 7
ett i
Bol ton
A viation
é motion
fl owing
he els
p ence
plac és
absol ument
TIM E
V ettel
19 40
comment aires
anx ious
J ur
fil tr
loyal ty
ref und
tab lo
glob ally
sto le
Occup y
s ir
Jen kins
Gr ad
14 th
m l
ver ts
ula ires
Care y
produ ctions
re lais
ch al
ou th
écr ire
Che ck
label s
Lux em
---------------- ----------------
dé di
Mon ica
con fer
Ha ï
Par ibas
es a
re public
W agner
caution ed
don or
dr al
ill ot
Cep endant
hum aine
sw ap
fr ay
af gh
5 50
Y O
ha iled
Sp ir
cr um
con grat
K os
ro its
fin s
Th or
Com ité
patr ons
Year s
Sole il
o ved
re treat
E h
Arn aud
18 h
thr illed
Sacr amento
W ant
fer ry
Ru pert
ros ter
accord s
V oil
v rais
super vision
seed s
settle ments
Y ann
É ric
ord onn
physic ian
citoy en
internation ally
ax e
accept ance
pe g
1 m
sur prises
H ull
Base ball
authent ic
gener ating
dé pit
mor ale
internation aux
aust érité
ast s
an go
Reg ional
H em
C is
tur bul
Spe ed
sou theast
B ald
p act
B ie
Res ort
mouve ments
contam ination
can al
McIl roy
ab ling
O pr
lap top
Nebr aska
subscr ibers
M ak
i atr
cur y
prec ise
affili ate
Tr in
r ings
dé cide
los es
Al ban
conseill ers
pri est
Grow th
g ol
je opard
parten aire
hor rible
endor sement
work place
sembla it
ag h
flood ed
Th r
out comes
colon el
C oc
suffis amment
Hom s
jud ged
olog iques
own ing
compl ète
B uch
dis ruption
parlement aires
when ever
mon ument
R oh
ug ly
liter ature
hospital ized
iqu ant
M atch
inaug uration
shif ts
F ro
ad i
fort unes
ext in
Bur ma
be ans
to ck
qual ifications
purch asing
M TV
Spe ars
vête ments
ir k
préc is
Mc Connell
Pr ison
tour né
intégr ation
facile ment
H ang
collect ivités
ly cée
M C
r achat
termin er
J up
rock ets
x y
just ified
rev ue
cult iv
jo ins
affr onte
Fr aser
con voy
C ree
X i
r in
Nu clear
Isa belle
ann iques
ent al
cin quant
stead ily
piv ot
mur ders
L ex
du g
Brit annique
B io
th res
wis dom
scr atch
et é
Web b
Phill ies
10 9
magas in
film ing
dis que
le thal
Se bast
str ongh
dir ig
all ant
South west
C elle
el ong
cost ume
trait e
g és
bed s
trad er
un ités
dro gue
cou leur
mod èles
fil med
essay er
Pl at
re play
st ere
be g
far es
Bes ides
pré voy
Char l
fl ank
am munition
att endue
conf used
similar ly
boge y
T itan
speak ers
siè ges
s add
dis plays
dir igé
form ule
Hod g
se ments
constru ct
premium s
Br end
expér iment
du el
regul ated
dos es
trail er
ter res
B ak
cou re
od ing
Buff ett
mot eur
ber to
K ris
personnal ités
re ct
racont é
scre aming
Pe uge
au top
19 45
od er
w re
ju ice
re voir
w agen
homosex ual
Cent ers
industr iel
évo que
CH ICA
D habi
ä n
W en
L ama
affirm ant
re présenter
bur gl
atel ier
exp ose
Sand usky
Wiki Leaks
cap ables
secur ing
CHICA GO
s well
Mu ham
front ières
avo iding
Lat ino
im an
Sal v
que en
n ity
Let ter
T é
dis pers
sou mis
contr action
cor oner
ar c
Craw ford
g ère
G ifford
E ug
che ts
hol m
Em manuel
brid ges
l la
Flor ence
am ass
Peuge ot
major itaire
sén ateur
Qu ote
J azz
inspect or
dé lai
market place
Ac cess
M ous
cor rid
Par ad
Reyn olds
sc are
exam iner
m és
fabric ation
Un it
la ying
électr onique
A w
Fin n
Em my
negoti ated
di oxide
aim er
Produ cts
we i
estim ant
imm ers
oph ob
Libr ary
oppos ing
li ée
benef ited
c attle
liter ary
Orig in
ch ic
Am bass
O t
Prés ident
ad er
Ch ant
dis sent
La z
music ale
Red s
Nath alie
R ound
main land
oll er
196 4
Bever ly
of i
autom aker
Black burn
bird ie
préc iser
r ans
R ig
Nov ak
J esse
pren ait
fam ously
Hit ler
insist ing
scr ap
Lind say
2 nd
the aters
appla ud
H1 N1
lo os
Dy lan
C ond
connais sent
Russi ans
olog ues
mis conduct
rev ive
ver re
post season
rigue ur
notor ious
mar itime
south west
Wire less
im passe
Le af
inno cence
lut ter
Gr en
trade mark
the d
cl ips
cu ff
Gre ater
é dif
influ enced
f aul
Rest aur
milit ia
ï da
gre y
nom in
Cont in
Voil à
out lined
sp ends
éch app
orch estre
S ara
Greg ory
B attle
jour nées
head er
M itch
Ul tim
dis pat
W ord
Bron cos
convinc ing
Fig ure
ob server
mid t
accompl ished
coordin ator
legend ary
li ps
inter venir
univers itaire
c ie
pat riot
don ation
kid ney
rende ment
re leg
b ian
bo ots
sur ged
li a
laun ches
spect acu
X V
i i
essa i
can cers
Boy s
u z
support ive
Mus ée
Mor oc
s of
ais es
kir ch
res train
D ix
ce au
ari os
u ese
en ables
pass port
résol ution
m ène
début é
comment ed
champ s
h t
Ton ight
régl er
PS A
unk er
Man ufact
id o
Br om
Morris on
inqui ète
park ed
ag ences
t ipped
un le
L um
canad iens
signific ance
with drew
viv ent
conven ient
Es sex
tu ition
persist ent
syst èmes
industr ielle
bur ger
pan ne
onn y
vers é
monna ie
Améric ain
pre d
break down
S ound
nd lr
bel oved
T ol
S ter
prud ence
10 h
cul min
Katr ina
boost ing
Tem ple
P s
ster dam
af flu
match ing
C ob
w ig
exprim é
bi ological
squee ze
min ers
196 2
soulign ant
c ater
de mean
Montpel lier
FI FA
so ared
T ER
re actors
hand er
f itting
fem in
br ink
Portug uese
condu ire
brig ade
Rod ham
high s
Ry der
en abled
rid ge
il st
home town
Bre ak
ag og
K as
produ cteur
expect ation
Res idents
196 3
ill ég
experien cing
bel ge
e en
rap ed
re ts
Tr ent
délégu é
sear ches
tr ash
ré agi
back er
fe ver
turn out
l end
aler te
I B
la ï
be k
L ut
oxy gen
univers ités
ex ile
pleas ant
A j
Per u
Id aho
intern aut
effect ifs
gal a
hum ain
compass ion
exclus ively
vo iced
si ens
diam ond
court es
at ivity
adop ter
man ned
Re bel
dispar ition
incumb ent
accompag né
B log
un ies
quarter ed
1 bn
G ore
distin ction
man ages
frustr ating
famil iale
pit ches
Lu ci
Ir lande
dis placed
Adjust ed
réuss ir
rum ors
to re
abe e
Sha h
bou levard
ess im
reç oit
Sp ani
ot ion
S R
fat igue
19 0
continu ent
condu cteur
domin ate
Tout es
Ped ro
banc aires
Copy right
et a
fall u
trad itions
w en
op es
K on
al beit
Ser gio
meant ime
consolid ation
str aw
per ed
cred ential
S mo
should ers
Wit ness
Vo ice
n ostal
S cr
ien na
réal isée
Hy dro
Ch es
Mour inho
ç ants
Am sterdam
viv ant
bate au
5 e
bâtim ents
fix ing
assist é
concl ut
rad i
K ap
re bond
dé passe
volat ility
coéqui piers
ré par
che ek
she er
J ake
Opr ah
R alph
co des
out ine
moder ne
effect iveness
comb ine
f fer
n h
ouvr age
fashion ed
gu ise
Bur ton
Amend ment
st ag
transfer t
de pr
L ip
weak ened
ralent issement
K atie
P i
H ob
met eor
don nent
extra ordinaire
vol ley
Volks wagen
âg ées
reven ge
lower ed
Ch and
physic ians
Bis ch
EU R
16 h
retrait es
M d
att itudes
evacu ation
inscr ire
m ette
pouv ons
Notting ham
prost ate
opér ateur
ro e
op ted
lim ité
des sous
élev és
Health care
stick ing
lik elihood
Gl ass
refus al
espér er
dress es
par venir
rem placer
responsa bilités
inv al
Continent al
bénéfic es
mechan ism
ff ield
ch ore
Jan et
correct ly
con ception
Clip pers
différ ent
sal mon
Econom ics
Sebast ian
C aire
In it
beach es
puis sant
dé te
in croy
hand ing
Ear nings
A V
dis ability
nav y
pow der
S ays
Tr ésor
Islam ists
app lying
opér ateurs
dom m
L iz
ra z
barg ain
per se
surv iving
A qu
O C
dish es
de ce
el in
exem pt
journal ism
perman ence
law ful
P ink
season al
co ordination
je ans
just ices
govern ors
concent rate
ench aî
souhait ent
Equ ity
c ulation
Ram irez
re ux
27 0
Dire ction
tr anche
Hol oc
apart ments
V od
Te en
Mar l
récent e
ver te
tem ple
T ower
comp orte
Ch arter
flu id
back up
nomine es
rév èle
ment or
sk ins
t ics
Cap t
quin zaine
b ounce
slo gan
n ellement
Del aware
oy le
j ung
s log
fuel ed
t ends
sign ifie
investig ator
D U
met er
recul é
L ost
ot to
der by
Work s
st int
aver aged
bat tered
ul ée
Shar ks
re groupe
industr iels
E ve
n ay
acc é
cl an
ib ans
Giul iani
Huck abee
re group
T error
expl oring
cour te
vi ens
tele vised
che val
broad ly
mat iques
mis er
suff it
préc isant
I ce
as sem
att irer
put ies
fli x
Patric ia
cinquant aine
equ ities
spécial istes
spe cially
Fe w
Tibet an
More over
Ex cl
por k
procé der
t ait
pass ent
Mul ler
night mare
appu y
v ian
M am
Gr iff
withdraw n
G H
bec ca
Andrew s
rassemble ment
Ful ham
r ire
dr ones
st iff
ene gger
ok o
oppos ants
as ive
j unk
spé ciale
P G
res on
t itu
négoci ation
G au
s par
el ly
Luxem bourg
box ing
Gr ace
rupt ure
shr ink
blog s
ton es
forth coming
ner a
ru meurs
ret te
e Bay
ir ai
è tent
ident ifying
Cl os
pré pare
rev ival
hal ted
ar ab
tr um
dénon ce
sa vent
Ambass ador
lo o
You th
barg aining
aut ism
W ars
b oun
Sto ke
agric ole
C i
rail way
H BO
ov an
Sto re
préfér é
cam ion
gu err
embr aced
Cons ider
it ated
asc ular
sp o
bet ray
Nor weg
Pan thers
assist ed
un ter
ouve z
NR L
S aguen
génér alement
Invest or
ô les
ma ires
Gat ineau
out fit
ent ièrement
Lion el
ition ally
n ival
Br os
Ku wait
du al
cept ions
sh orter
Star bucks
celebr ations
l ée
Belg ian
e quality
Ver y
row s
habit at
its ch
R ene
11 4
impos é
per mitted
ét iques
Play ers
t am
100 m
memor able
olymp iques
Four th
recru iting
concern és
compos é
mé da
flo ating
2 10
travaill ent
inter prét
sup pose
Be aut
dé ta
cont ention
w inger
N est
se iz
law maker
wash ed
prot ester
Y ard
reser ved
H ub
p essim
délég ation
St am
stream ing
N umber
ch asing
foss il
ic ism
le ap
M ind
é matique
Pe u
con form
For bes
R aid
grocer y
short ages
As set
man qué
atel iers
speed s
as me
M ots
ic opt
ol ia
barr age
rub ber
is ons
origin aire
compét ences
témo in
ital ienne
jok ed
excus es
Bol iv
inde fin
gor ge
establ ishing
Celt ics
top ics
interrog ation
Cros by
in firm
Consum ers
érie ures
b ore
gl or
ind ices
un beaten
as so
inst aur
tim ely
ape au
Q addafi
ot er
Ver ts
ann er
U M
mis try
Can o
r ia
b ans
L AN
mon itors
important ly
Chall enge
équ ivalent
whe at
Li am
Dun dee
T ell
dispar u
envoy er
Nig el
Res cue
symp athy
artis an
shout ed
conséqu ence
Res er
concl ude
aur ais
fresh man
in fo
procé dures
employ s
cour r
Emil y
gh ost
Re becca
mag net
is ure
sens it
c age
accommod ation
suspen du
E cu
grow s
Pack ers
sub tle
subst ances
17 h
ot on
gar çon
Muham mad
man e
rac ism
Lors que
t ong
pock ets
Schwarz enegger
T ennis
happ iness
stun ned
soup çon
in cur
Sh ir
Sh ip
un covered
indic ating
cy cles
constru it
Fre der
dis agree
ant ibi
Tr i
de ton
d al
ib es
revel ations
ts man
Bron x
gu ère
impos ing
Cru ise
Chief s
aim ing
Act u
Net flix
Saver ne
un popular
kick s
av y
appar aît
anch or
Bul ld
p has
P arr
rest art
cart el
écriv ain
s ag
am pl
dum ped
am ine
Pal ais
re four
thr iller
maj ors
hél icopt
de ar
s killed
comp uting
E state
gouver neur
prud ent
vint age
pa iement
u als
vis é
trans fér
Gu ine
Environ nement
r ag
Work ing
astronaut s
x on
sh oe
S H
bo le
Que bec
A us
tack ling
rest é
I le
g ien
80 s
ad ic
mir ror
comple ting
refuge e
particul iers
un usually
Never theless
mis leading
om et
PS G
S I
mer t
ann i
San tos
prest ation
Or acle
Sou theast
par all
G ate
v ang
D ance
Commer cial
Mick elson
histor ically
protect ive
pronon cer
supple ment
ins iste
B UR
rele v
W end
K ill
far ming
weigh ing
résu me
ric anes
S of
t ally
thro at
F E
centr ales
flu ctu
fl ux
po on
n uts
P le
rest era
Ver mont
J S
Ru th
bank er
fascin ating
sa vi
She ffield
road side
Tom as
postpon ed
diffus é
mér ite
bu il
Com put
bais ser
prestig ious
T i
s inc
c ouvert
In spect
d ick
publish ers
T ak
im on
M oi
ble u
bl ings
low s
allow ance
Sand ra
11 7
surge on
e ased
trau ma
suppl ied
12 3
assur ant
Colomb ie
sort ies
défil é
11 3
Cit i
So to
jurid ique
ah am
ol ive
Beat les
cr aign
A gree
Prof ession
base ment
red und
ick ed
C aisse
av an
McC art
tw ins
S uc
Mar sh
ick er
cat al
Pan etta
cant on
sé isme
faill ite
br ide
B lock
ote chn
C ac
Patr ice
An tar
tal ibans
amort ization
hom eland
T unes
brok ers
J a
glo om
K K
melt down
proven ance
â me
G os
ren owned
z ie
finan ced
is ses
SU V
ton ne
e ut
Br ow
Lord s
draf ted
L il
lie utenant
capac ités
C aval
h au
Shar ap
announ ces
fer ont
un cle
individ us
récup érer
lo ver
ul lah
exam ining
confront ed
af ia
tr ac
turn around
particip ated
ch inoise
ber man
young sters
ic ial
Gifford s
Sharap ova
hol y
ank s
J P
friend ship
plant ed
Sil icon
lack ed
sign atures
en vol
N air
P red
comed ian
Sier ra
G ang
Rick y
id y
all ég
function al
consac ré
ret ained
Bey ond
s aga
consolid ated
grand children
Prin cip
osp ace
h ike
sa ke
instit ute
qual ities
dé l
p izza
dr ill
autor oute
dis astr
Am nesty
équipe ments
recrute ment
anc el
au ch
prim aries
Main tenant
cre ator
chief s
accueill i
wr ist
obst acle
prév ues
revolution ary
Ger ald
Food s
b uster
Get ting
référ endum
souvenir s
El se
mil estone
at on
vir al
demand ent
at aire
cl ich
cont enders
dete ctive
seu il
Gr âce
endu red
terr ains
coll ar
Current ly
T ab
polic ière
host ages
Major ity
G ome
pla gu
vo let
mac ro
attend ait
il er
imp at
absur d
r ipped
Riv ières
d od
loc ally
om bre
termin ée
co ins
Wal t
sa ient
it if
Min or
Bur ke
profit ability
sub prime
novel s
music ian
relative ment
legit im
Y ale
pe c
Brit ons
beaut é
ball oon
stem s
t iennent
technolog ical
cook ed
convain cu
la de
hip s
Se ason
comp agne
stick s
av ancer
N ar
mot ions
Sur rey
sex y
insur er
laugh ing
k it
Dal ai
iller y
autom otive
B ible
id ated
ac ute
ud ge
P Q
sp ont
artific ial
pun ished
under go
C ay
t ig
rang s
Day s
P orter
Sh ield
sm outh
N an
thres hold
To gether
space craft
Champion ships
b age
commun al
pr nh
fig ured
Ros en
col ors
AR C
Rest e
flo ors
c ation
back drop
n icht
sub way
Sal mond
Sé curité
ret iring
dispos al
mot ive
Ap p
Book s
counter part
wr ight
attack ers
D H
Dan ish
Hop kins
âg és
analy ses
rom ance
d ame
coun ters
H ung
utilis ateurs
sto red
anim ated
N um
cert itude
intend ent
contest s
N ag
jus que
contract ed
discipl inary
Cree k
gr ief
go û
Mid west
Mun ster
m one
le z
I v
tight ening
cr ée
interven e
Port smouth
bird ies
can e
Sch midt
vidé os
le en
con ciliation
H at
étudi ant
sp oil
T SA
prost it
colle cte
administr ator
prost itution
11 6
dé chets
evalu ate
S l
adoles cents
wh olly
bou le
pauv res
Her man
H ale
nation aux
min ed
bl ues
E X
h ob
ite z
p istes
Laur ence
Hop efully
indispen sable
2 60
Fly ers
reci pe
st agger
mobil es
sho ok
administr ators
b inding
D ancing
r att
if iée
clin ics
A cross
A pol
ge ant
erre urs
bound aries
Ven us
ind ign
Len o
smil ing
b und
let tres
ir ait
position ed
r ivers
rap proche
ens en
Polit ics
de pressed
wonder ed
Mo vement
arm és
H allow
men aces
coll ateral
advant ages
O z
al ous
Foc us
Se ction
rap ports
Norweg ian
contr ary
G av
Re ce
lim iting
flag ship
fav ored
super b
annon cée
Far go
201 8
lég isl
te z
wood s
mix ture
pouv ant
task s
rac he
issu ing
sign es
Du ff
R ot
Be hind
mar quée
assaul ted
g our
19 65
Stat istics
delic ate
El is
w ald
deriv atives
fer ait
V u
quar antaine
toile t
dr ain
pou red
prospect ive
liv ré
sc ary
rehab ilitation
reconna ître
2 m
partnership s
long s
Sad r
Gare th
gi ants
restruct uration
bal let
Str ong
affili ated
Gome z
v ili
pré fecture
s ank
W S
evalu ation
final es
U se
w ield
spec ified
cont ender
Pr ès
lot tery
dir t
ag greg
well s
puis sent
dé clin
Se y
gar çons
Yemen i
compla ining
mont agne
dor f
F em
re pay
ex ig
t ical
lo oming
d iving
n ach
let cher
Hom me
sal ar
Ye ah
sé ances
im mer
sha king
d read
en jeux
P irates
oppos é
ar us
Ayr ault
Saf e
over turned
contam inated
bl unt
appar tement
obl ige
g ates
br ace
Bar on
cur ious
Ell en
arch ives
ente ment
distur bing
at op
feed back
résist ance
cell phone
resse ment
sty les
L it
pr one
Won der
Ger mans
reiter ated
str ang
country side
gest ure
gard ens
repl i
exhib it
cas se
fr aî
diplom acy
l ion
mon it
H él
Jac obs
event ual
colon ial
w anda
Qa ïda
sculpt ure
In iti
bomb ard
mét iers
olph ins
e ine
Mort gage
relie ved
mo du
dis asters
assum ing
proto col
str ic
sett ling
alt itude
en voi
seek ers
Or der
permet trait
Jeff erson
Play er
in ability
Hel mand
ric ul
jun ction
hit ter
du ck
viol ating
J ak
Sue z
accue ille
meur tr
lour d
T ests
ten ants
Rod gers
p és
région ales
Bou chard
outr ight
so ix
ci ous
anticip ate
den ying
char is
con currents
sing led
credential s
FA A
be ats
Cu omo
persu aded
R ing
import ed
mid st
polyval ente
Paul son
indict ed
an alys
inqui étude
int imate
Pe ut
banlie ue
show er
plum met
par aît
B ears
pres crib
acc laim
Sp ot
destin é
ahr ir
G ur
f asse
con sole
T roy
Car lo
fu els
discret ion
famil ial
bes ide
turn over
end angered
Th orn
Th under
shel ves
Holoc aust
As k
fur t
certain ty
M aking
loc ate
Produ ct
Proper ty
g ur
argu ably
ro gé
intéress ant
i Tunes
Wo ol
En core
tra î
Auc un
culture lle
rug ged
Quest ion
iblioth èque
o cide
shout ing
Mig uel
diagn ostic
combatt ants
re acted
ill ant
qu ées
But ton
L ohan
c iter
J al
qu as
méth ode
Ch ron
sh ark
K ash
en abling
réser ves
G ust
to e
T ahrir
Re member
re hears
ad émie
en contre
Th ur
Tr afford
fer til
accus és
fel ony
under way
retour ner
under going
Franc fort
enh ancing
G ul
myster ious
Clem ens
Bol t
bul lets
In fos
ar na
learn t
cre ep
P outine
so y
fire arms
ver ra
enrich ment
Pharm aceutical
c ale
kill ers
c en
Cas ino
accord ance
Cub s
photograph y
half way
contrib ué
Ken yan
m urs
v ich
chac une
D ol
Par ce
tom bé
stro kes
fid èles
ce aux
back ers
past or
2 bn
am big
R wanda
con gé
reli ed
B ass
cu les
as th
empê che
Sum mit
T rev
R ut
en zy
pr ag
sp ite
ver bal
ais er
laiss ant
in dul
for ensic
Fres h
S ave
ins cription
scr um
pitch ing
E ye
Hol iday
flee ing
W W
br ou
inter vient
Atlant ique
gagn ant
C opé
ré pression
ef fer
K S
dign ity
Jo an
or ph
cla use
At tack
ab str
jer sey
vo id
comé die
dé e
St or
poor est
Clear ly
star red
l one
for ests
Colomb ian
unt a
ép au
démocr ates
V ieux
Soc cer
Joy ce
al p
where as
bau m
dé tr
represent ation
bais sé
sk ull
I J
gend armerie
B ain
X e
De von
cam ar
Sch wart
W ings
journ aux
Pro gress
publi és
festiv als
souff le
wor ship
West wood
D odd
ham string
un fortunately
V ision
far mer
account ability
Middle ton
F actor
belie vable
sc olar
L L
We iner
Anim al
del son
gun fire
reli ance
Copenh agen
w ings
ph ère
consider ably
rew ards
wick ets
procé dé
and ro
AD A
im i
rent rer
m aps
ver ges
gl ory
requ is
ch amb
Sus sex
fact ure
Gl ouc
th ér
An glo
Duch ess
Sol ar
Mess i
Cur tis
ac cr
echo ed
p ies
cor es
disastr ous
med ian
dou blé
intégr er
8 50
tr ont
Pr ices
fur ious
repe al
Z ucker
est ed
k h
ch arts
sovereign ty
pol émique
ip ts
ambassa de
I E
mist aken
f ty
ort ed
flaw ed
excl usion
A be
Tr ès
She en
New man
object ives
implic ation
lock er
swe at
ne gl
transpar ence
Ne pal
D ug
langu ages
medic ations
M og
agr ession
Champion nat
un named
st ing
intér im
af front
dis orders
pass és
trick y
predict ions
évent uelle
conf ession
set back
lib éré
class ical
de ll
P ret
r ome
chron ique
cert ified
tourn aments
to dd
crush ed
pen ny
commer ciale
Ben z
W inf
motor ists
ap ar
cré dits
favor iser
commit tees
d ancers
ex agger
cons om
rejet é
Hann ah
Out side
Fel ipe
fre ely
m ice
th under
contest ed
Hodg son
crit ically
col m
out il
champ agne
mer chand
am itié
illet te
Arch ives
inter médi
spec ul
Pau lo
Z ach
ad mis
adm itting
Daniel s
comm itting
Mar athon
D w
N PD
intimid ation
p ant
Electr onics
se gments
pos ing
apolog ized
é tro
McCart ney
tor ch
t ide
We ber
p one
ir ac
Ris k
program mation
sour cing
Winf rey
not er
conf essed
ev angel
cy n
second aire
affronte ments
G R
strand ed
conf ig
N apol
30 pm
ian te
contr ace
décenn ies
ins criptions
V oy
gend armes
k ara
z ac
Lyn n
Shar if
èg ue
pro jection
Beau coup
ne at
new est
int ers
ear liest
agree ing
slam med
uk i
scor er
b ins
entraî né
Dire ctors
les ser
ag ée
glimp se
11 8
Aut or
R ousse
pay é
mic r
rich est
G aga
th umb
en roll
hum ains
sub vention
marri ages
Cole man
Mal colm
cit ant
indic ations
it ée
V ienna
Y an
dec ides
vou lais
reck less
she ep
st ad
V E
Co la
N iel
mans laughter
carto on
Card inal
accom mo
int act
Tou jours
declar ing
D in
inst antly
tim et
f als
skept ical
quit te
M AN
r ains
prepar es
P ou
bl owing
R ico
Max ime
caract ér
sm ashed
nav igation
vert u
C él
W emble
ape urs
independ ently
arrêt és
P ors
év idence
Wemble y
2 80
v allée
jud ice
Nation als
mar sh
ens ively
négoci er
an ia
prév us
constru cted
tr ich
sa ut
Me et
exist ent
mo ck
consult ants
instit ut
Tr ading
back lash
14 5
hect ares
s ances
pro cur
rel ancer
appl iquer
contraire ment
land lord
cost ing
contest ation
che l
candid acy
B ale
inevit ably
suiv ie
épar gne
no is
ative ment
Mic ro
Hond ur
exac tement
suscept ible
im er
â ts
reg ards
R ory
narrow ly
épis ode
compos ite
Georg ian
me g
O F
ie v
quot e
oc é
Ass ange
go ers
satell ites
évol uer
resist ant
Dé jà
X box
c ouverture
for ese
dé n
Z o
Reg ul
elector ate
ich i
sl ides
ref lection
verse ment
Bulld ogs
dé monstr
os ion
export ations
Jack ie
over see
un identified
CIT Y
enthusi astic
sub script
privile ge
Ph ys
G 8
end less
mon u
Mar tha
Hallow een
tour ne
ch aud
side lines
bom bers
M anc
G ig
domm ages
resum ed
art if
Min ne
presum ably
Fer din
accé der
autre ment
com bien
accommo date
V ér
f itted
P helps
polic ing
am us
ü n
not ified
up side
special ists
fe ux
Fin land
per tin
budg étaires
pack aging
rele ver
E p
Ch al
ab ri
scand als
indire ct
F ol
serv ants
exper iments
Der n
éto iles
San ford
car ré
Ab bey
Valent ine
s ided
L er
Ne ed
vari ations
communaut és
ang es
ant as
ur ges
or ius
lev ée
Wild life
em bla
Industr ies
196 6
appl ies
sc attered
pré vention
ah an
Ann ounces
Up per
Corn wall
19 30s
North west
Go ing
favor ables
Gre ens
maje ure
portray ed
ve au
C li
Z oo
bal ances
15 h
employ é
long ues
priv ées
ob session
person nels
canad iennes
assem bled
Val érie
Cap ello
Sal on
hés ion
express ing
strengthen ing
pair s
n ance
L N
u ay
const ater
recru ited
su ited
sal ué
l b
de tr
Jun ior
T at
present ing
car bur
man ie
monit ored
exac er
Au tom
R enseignements
ar bres
bonne au
T os
Pat erson
immun ity
un il
S pect
ser ial
st en
domin ance
anticip ation
atta quer
pursu ed
jewel ry
16 5
com memor
ré putation
D err
dé crit
mans ion
p and
Eur opa
liv rer
bann ing
Minne apolis
order ing
dévoil é
wh ites
rémun ération
Mid lands
lack s
them es
Kand ahar
K om
Cry stal
whe els
per former
républic ain
automobil es
subject ed
Griff ith
Veter ans
licens ing
In d
legisl ators
Inst itution
Haï ti
Pol y
circ les
paris ien
de tain
show case
enn an
Certain ly
lack ing
ester ol
simultane ously
clou ds
af one
ou ter
pré cip
document aire
eleg ant
lo op
free zing
l és
Bus ch
su pre
pré sum
Brend an
se am
revers ed
rend us
continent al
ais ses
vo ies
wh ip
crit ères
list ened
grat uit
dis gust
man ger
ey ed
l ug
un ning
dis mant
je an
histor ian
ab und
att y
Prov ince
re met
Colon el
He in
ival ents
tu be
pick up
re actions
un ts
pres enter
F act
su red
Z uma
Re ich
print ing
enth al
n asty
dipl ô
Soft ware
la ine
D as
Jean ne
Qu ick
Ferdin and
Con f
mus cles
D ad
applic ants
inv is
gradu ated
Rel ated
en vir
re members
comp iled
En suite
r enseignement
Inter rogé
Fall s
consequ ence
F ont
ship ments
f ancy
re building
rép ét
ier a
gen ocide
Vod afone
la ment
r enseignements
ch y
ag no
smug gling
v and
par u
Indones ian
iv able
récla me
ub les
John ston
Fond ation
pla idé
bou che
ill or
S û
ir ont
ab att
A ub
ach ing
pour ing
terr ific
b ounced
AC T
dénon cer
S cre
F idel
L U
belie ving
De vant
H ost
Barcel one
K ham
acceler ate
la gh
Laur en
A de
B onn
ded u
at ra
St afford
atom ic
ur gency
comp act
observ ateurs
ch uté
Elli ott
Bie ber
ch age
ob ese
elev ated
prol ifer
Uk rain
nor male
F ans
Plan et
porte urs
evol ved
memo ir
Q E
visit or
S ed
Black s
h anna
début s
S ina
crash es
consu med
r ider
sept ième
symp a
prolong ed
Californ ie
autom akers
medic ines
Cons ol
bar ak
Tr acy
prepar ations
israéli en
Col ts
Lead ing
plagu ed
cent ric
pré fet
shr inking
it ations
Far rell
préf ère
Ex cell
Shar p
in adequate
sw ear
T G
Miche le
professe urs
quas iment
tourn age
rés ident
Ann ie
j aw
Europe ans
repair s
bow ling
quis ition
car ing
B ody
ans on
adjust ments
Tr ain
Boy le
Do ctor
ré comp
object ions
Cr icket
destin ée
F en
ap les
70 s
re im
Cr on
Jor ge
F letcher
T aking
ver ge
d op
embar go
entertain ing
n égl
FT C
mit ig
dé tient
Cor m
l igue
réfug iés
ricul um
Pors che
dé parts
lim ites
qual ités
T ip
us ines
Green peace
I gn
ie ves
sum mon
hill s
he ir
T as
caucus es
comp lement
fl er
rép onses
put t
cons iste
Nouvel les
Shar on
Su ite
rou ges
déf is
D ynam
trans fers
énerg étique
r ard
defend ers
Econom ie
interpret ation
sav ait
iv ial
vac u
Ts vang
ac ies
prosper ity
P es
lég er
fabric ant
imag ined
19 59
n ip
tur f
adap ter
l aser
skip per
pér ip
congress man
D awn
Per forman
M ao
don nant
adv ise
D oz
su ms
inter ference
hor n
pay able
count less
NAS CAR
inaug ural
total ité
Con sul
év ê
over weight
ré elle
ul time
attr acting
Li bert
ped estr
gu ilt
196 1
Fore cast
show down
riv ière
ane y
harm ful
O g
ty ing
grip pe
Buck ingham
Brad ford
South ampton
Law yers
inscr its
interro gé
ble eding
tradition nel
Lie berman
envir ons
Con cor
sil ly
c end
re lying
end roits
st ig
St akes
light ly
constitu ent
D ate
eth ical
policy makers
limit ations
ot ics
height ened
y ah
Syl vain
rub ble
autonom ie
économ iste
clos es
mo g
s worn
spir its
évalu er
In n
uck ed
Tsvang irai
refer ences
Louis ville
W ing
For ward
bas se
Econom y
ard ari
lo vers
pens ent
âg ée
iv re
atte inte
re med
de puties
David son
un aware
Hondur as
br ésil
Some thing
unanim ité
dif f
W ake
modif ication
hypo thèse
port ait
Dur ham
embr y
thorough ly
Strateg ic
special ty
recruit ment
hor mone
an ches
13 1
col i
15 5
associ é
wound ing
An ci
effect if
vian de
Niger ian
man i
agric ul
li que
black s
accur acy
column ist
invent ed
co operate
disput é
J ill
form é
contrad ict
Spr ings
Web ber
H ockey
bor ing
ly rics
ch ancel
cler ic
subsidi aries
up held
W u
dépl ore
Z one
la us
en os
trib es
than ol
Happ y
3 20
predict ing
n it
ill i
ou m
ed e
x x
ar in
fact ions
c ident
alloc ation
Whit ney
ré c
attr ib
observ ations
f leurs
d airy
prof il
Cus tom
cré ée
Nor mand
pill s
Abr aham
es sais
separ ately
ic ule
tr ap
sh am
diplom atie
bet s
cl ed
Cat al
Venezuel an
pen et
Associ ates
dismiss al
in y
ch âteau
ann u
S ources
cé d
vend ors
you ths
Mot ion
S ens
Bas ic
dis proportion
rais onn
P elle
ö r
Sto cks
spr awling
Ef fect
Fav re
possi bilities
My ers
sc am
win es
Net works
F ine
parad ox
R hô
w iped
60 s
Mou barak
prof on
il ation
Croat ia
Ecu ador
util ities
D ems
s can
Dem and
péd agog
S lov
New ton
bas é
mine urs
acc order
Che f
extre mist
rat é
C B
kn app
Z ur
lic enses
Can ber
Stud ent
Roman ia
separ at
ind a
ous es
Of fer
is sus
compet itor
particip ant
Z ardari
il ight
prote ctions
6 e
minor ities
hum ili
spécial isé
st ell
aliment ation
La h
cl and
total ed
que ue
cour rier
exist ed
re put
Ch ip
Ex xon
Hay es
déc is
challeng er
bed ded
c ely
ren due
franc s
c oul
o ie
St age
hebdomad aire
Cor se
embarrass ment
dég âts
vol ant
N aval
ob sc
Cin q
st a
La beau
char itable
reason ably
Er n
chol esterol
inqui études
fin est
Photo s
Church ill
di o
frank ly
e b
Kur t
av ancé
assess ed
b ent
au str
r attr
la under
cur ios
motor cycle
load s
link ing
L arge
dé je
IS CO
É gy
en za
bal con
D ies
fac to
plac ée
tact ic
é pou
19 h
Lu ther
ace y
pri ests
Rhô ne
Me ad
Canber ra
De pression
amp h
sp ike
posit ifs
don née
appar ition
tou ches
cor ners
Iran ians
philos oph
met als
Bach ar
public ations
esters hire
Labeau me
d amp
Berk shire
advert isers
G ene
ack er
under went
M ine
remain der
pers ons
River a
propag anda
ship ped
Gh ana
accompany ing
L uck
be ard
mé tro
Mc Le
préser ver
g g
ab rupt
Domin ic
P ip
Rav ens
Et ienne
Sy ri
N ear
clar ity
In cl
immédi at
so ap
wr ap
touch ing
CC TV
dépos er
g onna
Dr um
Legisl ature
N intend
pre h
En de
May er
anim ations
bre ed
enqu êtes
inspect ions
touch és
Americ as
demonstr ates
pool s
Ath ènes
after ward
more d
gas es
b ump
rac ed
m ille
ind igen
b ous
nic he
trans former
athe tic
sus cité
Tele com
direct ing
dé tenu
pre ference
sou ci
pir acy
internaut es
et on
prest ations
et z
bour se
Con rad
s apeurs
ist air
await ed
Haw ks
or ia
12 8
inter ception
l ure
con vey
ar rog
la ve
rif le
sur faces
Roll ing
sensi bil
Mc Cl
mort ality
F itch
trav els
ro via
In to
sy r
cr ied
19 48
vis iter
T enn
impair ment
out skirts
Pal estine
garant ie
ust re
économ istes
secret ly
orient ed
L ough
Ol mert
an tha
reg rets
Steel ers
tort ured
O pin
ir ling
T uc
it ôt
not é
lit re
bi as
r ides
exerc ises
New ark
prov oked
catég ories
Al istair
spécial isée
Nintend o
W iz
por n
si blings
ciné aste
p ave
cont end
F it
G ut
par don
occ urs
u ent
portrait s
am ic
Mo vie
FR ANC
man ches
Kazakh stan
Saguen ay
du es
Hib s
Par c
républic ains
pl onge
cl ues
exp ire
ow itz
Red skins
Prof ile
Hung ary
con cil
lan es
C over
ish i
regul ate
K um
genu inely
up beat
Pist orius
broadcast ing
Will ie
Re gard
burn s
divor ced
athl ètes
12 4
content ious
ce met
ator ies
frequ ency
IL L
Som ers
Island ers
souff re
régul ière
th on
Le vin
reb ell
V ince
attr ibu
kne es
trail ing
Else where
malad ies
Mons ieur
f les
attend us
horr ific
cin em
orches tra
Ber ke
compat ible
camp ing
front al
fémin in
hur ting
C au
O re
R AF
C ly
Oc cident
auto matique
function ing
s way
N am
Det ails
mon opol
wash ing
wi hr
blast s
val ley
F D
S aw
gén é
Se par
Imag ine
are l
campaign ers
Has an
Sol di
book ing
mal ades
arm ées
toler ance
foul ée
boî te
destroy ing
cla y
sal ad
ordin ateur
Famil ies
d ain
All an
P T
sequ ence
capital isation
aér ienne
W oz
paralle l
Psy ch
R im
président s
cla ire
AT ED
confir ms
appla use
appreci ation
contem pl
her ty
Her r
neighbour ing
A mid
G ive
Egypt ians
Guin ness
World wide
effective ment
Ex pect
per fection
IJ ING
ab on
it te
over sees
circons cription
t ue
métrop ole
H im
vie ille
arch ae
déf endu
BE IJING
has ard
Cho ice
C oul
O tan
sp a
alleg es
perman ently
éth ique
z éro
was ted
le aks
incroy able
s ights
figur ent
M ell
S cher
Kr aft
T F1
Inspect or
par i
Ne igh
IC C
conting ent
under cover
belong ed
temp ête
aliment aires
Y u
pop ulaires
Génér ale
compétit ivité
terror isme
Hor n
supposed ly
R B
ex otic
concl ure
Th irty
s atur
dr if
tradition nelle
el é
ident ical
di vert
indigen ous
io la
P un
Part icip
ré agir
Nor wich
N OT
s often
Prot est
He ath
S cand
where ver
trimes tr
dou ce
abe th
ins ol
ur o
in filtr
over seeing
ret enu
ram ener
Appe als
reg arde
Raid ers
down ward
sév ère
overwhel med
swift ly
br al
chap itre
f athers
S ig
colog y
labor atoire
Pet roleum
human ité
rot ation
Agree ment
P is
arr êts
gener als
gen ius
brief ed
AR T
E c
T song
cool ing
pro cla
suff ers
constitu ency
émer gents
Al berto
sl ashed
re fresh
gau ge
stuff ed
trau matic
conf is
pit aux
c urs
In te
Nor m
3 30
re marqu
che mistry
av oue
inter rom
Spani ard
FRANC ISCO
week ends
separ ation
é pr
Alex is
arsen al
com promis
Mil es
Mar oc
attach é
isla miste
sl ice
av a
down grade
j amb
symbol ic
bicy cle
lin qu
ch ée
m ask
pa ie
r ous
tough est
K it
em porter
radio active
rel ies
i ate
expend itures
post ers
epide mic
v om
p équ
timet able
villa gers
L G
Don c
éch apper
C lean
aspir ations
Ger main
Sû reté
vir tu
psych iat
Vall s
chim iques
He ights
particul ière
av our
rus ses
de ferred
Un less
R ays
cap su
Cap itals
Ble us
Su ède
Cél ine
concentr ated
br ains
mar ched
Offic ial
Democr acy
ag ram
t ures
end uring
imp ér
Mon dial
pub lier
n ais
R MB
p iles
inspir ing
di lem
don ate
autor isation
spectacu laire
catastrop hic
In ver
Social ist
connect ing
Auc une
associ ates
rhyth m
health ier
Berke ley
T into
co hér
Ste p
de z
implement ing
Sw ift
agno le
tele communications
Pier ce
1 19
mont é
Tr avis
é me
el bow
we ed
on dr
Fil ip
trail ed
bu oy
distr ib
appel er
lay offs
né o
George town
si zes
compet it
lower ing
écrit ure
modif ications
instru mental
t unis
3 bn
legisl ature
warr ants
st aging
Econom ists
pouv aient
g ish
plun ge
for fait
Lo ire
belong ing
B am
lam ing
pilot es
P F
dis appear
exceed ed
dis counts
Event ually
13 2
ol é
rum ours
slog ans
tow ers
fix e
prof ite
dit ch
be i
nostal g
gest es
améli or
Warr iors
re trouvent
12 7
Hun tsman
web cast
r oul
br anche
Ger rard
médi atique
P ir
écou ter
Fern andez
voy ages
p ale
und oub
ma them
ré novation
des truct
met r
c aval
sou vient
t art
Sur tout
H ug
re ply
constru ctive
terror istes
Sh ore
hum aines
FR A
C yn
présent és
Free man
ét age
Some one
boast s
vibr ant
re open
so re
ass is
m ul
undoub ted
el o
Em pl
defin ing
K emp
prosecut ed
recomm ends
W ik
en ser
con jon
aston ishing
vac ant
bl end
Boy d
Mag istr
définitive ment
vel t
contrib uer
ir rit
Vict ory
ent ities
ro de
celebr ates
W azir
stor med
Matthe ws
manufact ured
museum s
attribut able
esp aces
entret en
Ts arna
c tro
film maker
def aul
Hél ène
poet ry
Add itionally
stere oty
Al ready
sent ir
fiscal es
L oe
me ga
rece v
ro let
mis m
overs had
exception nelle
O D
Red knapp
fame ux
3 m
Les lie
pauv reté
supre me
rép été
distribut e
Zel aya
fin it
menac é
part ition
syr ienne
l ighter
ap port
consult ations
Flor ide
at ér
com pré
invest i
ok s
Mel issa
sin on
Sam antha
fais aient
bé bé
c ath
Austr ian
roll s
hard t
D ucks
C ul
12 2
Coc a
R id
indic ateurs
mention né
C AN
economic ally
magn ific
ab y
gu ides
process ed
ate mal
recip ients
Hoff man
ign an
3 rd
co opér
ap or
boom ing
B orders
recy cling
R appel
dit er
his toires
icol ore
B onds
os te
ip el
W yn
serv ant
government al
nuclé aires
distin ctive
res ent
TR É
it ating
téléphon ique
Gu atemal
Program me
3 000
az i
N ie
ro ast
vis as
lour de
e me
compos ed
K end
rest ed
favor i
her oin
inher ited
vent s
iner y
r ift
hack ers
pratique ment
crain tes
Ro ose
médec ine
municip aux
CF DT
tar if
Autor ité
Hu bert
K err
ré vision
milit ias
Tsong a
constru cteurs
tour ing
popul ated
I ci
Cus toms
rein force
médic ale
over head
lin ers
mart ial
B loc
T ate
enjoy s
cont ag
Sp iel
ag one
ét ions
ref uses
5 000
arriv ent
arriv és
vend us
alleg ation
jou ent
tax ation
Jos hua
tél és
ad jac
inst ability
opération nel
I ke
ed itors
cent age
commer çants
modif ied
E is
in capable
sh attered
tre ats
neighbour hood
courtes y
en acted
No ble
Gard ner
kil o
elimin ating
Performan ce
semif inals
Woz ni
av ers
pot s
f êter
sl id
Quel que
Th us
uss itôt
Produ ction
Sudan ese
org ue
aut e
ai k
it ar
Nor theast
Vis it
util ise
pla fond
A Q
iqu ent
ul ing
mont on
re ine
ren voy
TRÉ AL
Le vy
Di pl
MON TRÉAL
ér ance
ram en
fix ture
in um
é preuves
b os
coû ter
Cer tes
personnal ité
Ri hanna
par ach
Ad van
Niel sen
element ary
a es
Viol ence
Jol ie
op hon
Tr ou
J agu
S ak
mo to
cub ic
Y os
hel met
L omb
po che
dom est
A st
pl é
fall out
Har lem
Y o
Joh annes
P ain
ul tr
embarrass ed
recommand ations
des s
12 6
témoign age
Th ames
15 00
straight forward
so in
dé mén
pure ly
Eri k
str apped
cert ification
Ed monton
is o
plic ation
ar at
pun k
allemand s
Alger ia
v il
graph ics
bish ops
Pear l
Initi ative
l oun
ian ne
réal ise
retrouv és
dom aines
suiv ante
hum ble
ad missions
Greg or
Dou ble
Christ ina
un paid
ES S
Nor folk
ot ages
wo ke
Cé cile
Min isters
contribu ables
évo quant
c od
profonde ur
Kath leen
excl uded
D ob
C P
Pan ama
ac ha
sport ive
adjust ment
accident ally
indic ators
phil anthrop
switch ing
ine ment
illness es
hel or
ill és
insur gent
ent in
short fall
Rob bie
dement ia
ces e
techn ically
M uk
Z hang
appoint ments
dis pens
Ab id
tag s
gér ant
i ées
cur riculum
F arr
confer ences
stand off
man eu
m ets
Sug ar
T B
t ighter
F ifth
st ub
sym bole
super star
rest re
peint ure
HE IM
or p
Mc A
at ol
Dam ien
H utch
sub ventions
Mo del
Person ne
M ater
r ude
B ing
Pl ant
Fran ck
L ing
espo irs
S weet
E van
applic able
neg lect
Tim ber
O E
ha ël
entam é
fac ulty
experiment al
B HP
al om
h ing
partic ipe
mid way
V ale
Foll ow
laugh ed
lab ies
B out
bu ys
fire works
copy right
g aps
E va
mid day
fic he
sh ale
rest ait
pous sé
ré ve
build ers
è dent
coll ègue
champion nats
Doz ens
Pat ients
i ang
safe guard
Sh annon
Motor ola
im aging
Do ha
kilomet res
gener ic
blog ger
cr aint
jung le
aim é
person nelle
compan ion
Eag le
super markets
J ub
bre athe
Sch u
éché ance
night club
fonction ne
Ter min
Rod dick
Ven ice
C apr
ï n
pr ends
up ward
N aj
Day ton
Cathol ics
inv o
tab ac
précédent es
start ers
nu is
Pla za
vér ifier
Log an
B uc
In dy
Wi i
W ere
réser vé
all ied
Teach ers
appropri ately
N ieder
es ome
S anti
ast ically
réal isés
A ung
prom in
A gn
Her vé
mater nelle
Wind sor
Roose velt
R F
P hase
13 8
exempla ires
Co ol
dom ain
Super ior
J in
rappel ant
D j
mar in
Empl oi
accompag ner
front s
Ferr er
inter rupted
Pe w
amoun ted
porte feuille
lois irs
St ay
Har bor
My Space
y oga
dis cre
Bel la
p able
in sult
phr ases
Moy en
Nair obi
Vo ici
divers ité
tourist ique
round ed
gen et
chau ff
dé bar
El vis
magn ifique
en ig
Ar lington
ü ber
obs essed
exception nel
Sha un
L iban
con jointe
S G
so eur
proven ant
att ara
prof ond
Arab ic
opportun ité
express ions
borrow ed
pier re
th wart
gar ner
iv a
H ers
D ear
North ampton
end i
President ial
ident ifier
manip ulation
ambassa deur
y acht
R um
IL LE
t ion
es to
inté resse
S ap
de preciation
shoot er
ed ia
police man
Y ellow
dis cr
world s
sc ènes
Spir it
g lam
ic ite
Pen insula
mer ged
ré ception
propri etary
s man
By r
attr actions
in hib
bre eding
ap porté
sau ve
par aly
Prem ière
ant on
vacc ination
overwhelming ly
Schwart z
ad vent
p ande
cha us
témo igne
la dies
Gr ound
advis or
enn a
K eller
We ight
lég umes
bénéfic ié
Inte gr
card inal
mal es
glob ale
qu akes
dress er
témoign ages
wid ow
Soto mayor
iqu ées
St a
Mill ions
on ed
fam ed
enthousi asme
stimul ate
Don ovan
Mont i
cal i
ste ering
encounter ed
Guine a
dé sign
resist ed
F on
Revolution ary
sur f
ground ed
télé phones
Steph anie
el ed
Garr os
R an
gas tr
bom be
tu ées
con glom
add ict
esp è
Vol ume
sensit ivity
arbit r
haus ses
into x
E manuel
ch ien
ver b
pos sé
Berger on
d ive
Ch irac
om on
Ou attara
e ag
sais i
Support ers
comfort ably
organis ers
plaint iffs
Tsarna ev
k as
islam ique
électr iques
Met z
Sie mens
mo th
ig a
st ating
let ed
consci ent
sa iling
do ctr
c is
pat ents
Sol id
intéress é
Kind le
cos met
en cia
re fl
li aison
brit anniques
diss ident
Ar bit
all iés
incl usion
bann er
unexpected ly
Suz anne
atic ally
W HO
faith ful
acceler ated
commun iste
13 4
soulign er
os ité
suff isant
juris diction
D ixon
bil ateral
90 s
ene uve
simil aire
partic les
Dan a
sal v
chamb res
hom ologue
propos ing
sex e
Le igh
pré lim
Hor se
hor iz
gross es
command ant
Tuc son
F au
comment er
pl omb
air ie
C has
in put
Th ann
Ar r
cla d
Prim ary
D ax
ad os
acc uses
Ann an
tranqu ille
as ha
paris ienne
Opin ion
Por to
rac use
iche t
porno graphy
un ks
satisf y
t ents
Par ks
sais ir
ab ortions
pré al
strongh old
tablo id
19 58
engag és
j ockey
c av
vacc ines
in sufficient
belong s
13 7
Den ise
respect s
prét end
19 53
fer rovia
fo x
den ounced
b augh
con greg
Gu ang
L oi
hér an
ET A
coordin ated
t apped
imp over
cat alog
IS S
ad h
anony mat
l ately
Sy racuse
ja une
den ial
rival ry
s age
photograph ers
ferm ée
oblig atoire
le mon
prom en
génér ations
en lève
Col o
Conserv ation
am ac
E asy
pre domin
small est
Té héran
O val
K ane
az a
vari able
fore closures
ab usive
ad ore
ab and
demo graphic
précisé ment
demean or
I F
aver aging
B od
frag ment
revol t
t ended
is ait
preced ent
commer ciaux
Al tern
Gr os
AT ION
s me
v ivid
un limited
pin ch
comb in
oc ation
Qu art
bar il
v ist
ass im
jum per
aggrav ated
or thodox
osp her
aér ien
ick ers
fract ure
inter action
grad ing
C abr
ent ré
hô pitaux
head quartered
happ ily
determin ing
as leep
mer it
Br ennan
ér ior
Wil kinson
um bre
ré cit
center ed
z ig
sub ir
espè ces
is ch
Mor ales
L und
Cl int
tri om
plac ent
reward ed
Studi os
distr action
Stock holm
for cer
mon ster
ha ï
We iss
A ires
protest ing
bl ée
Rho de
représent ation
D ist
facil iter
utter ly
cess é
gre ens
iè mes
McC ann
n as
fat ally
Cambod ia
p ouvez
predic ts
B air
w aving
ent ity
rem or
Piet ersen
champion ne
action naire
add en
élector al
Frank furt
W ins
A W
ur ry
base man
cus h
ouvr iers
fl ir
Pr act
nam ing
Ch âteau
ant it
12 1
length s
Nation wide
Wazir istan
pu ck
en gr
K atherine
dé lais
lit res
ne ath
pne um
d ash
not ation
rest oration
naturel les
p pe
cre atures
adv ancing
dete ction
appro vision
indic ator
édit ions
appart ient
ic ia
aid é
imag iner
exp ired
O m
bre d
tum or
emotion ally
Advan ced
pr ière
inj un
line backer
bal ancing
expend iture
as sembl
cur tain
Br itt
sk etch
Cham bers
ide ological
pronon cé
phys ics
T ch
IR A
n ai
ne o
al gér
Com cast
ç us
qu ante
ét apes
Ben itez
ex trav
3 G
war fare
list es
L AND
S Q
ess on
Rub io
caf e
Th an
Trans ports
fort night
Ke e
comment e
dérou le
Europé ens
L SE
S cho
ca the
voc ation
Through out
AR P
Barr oso
j unta
E ck
T ian
anim é
12 9
Bu enos
T anz
iran ien
quant itative
G é
Dete ctive
d ense
esp agnole
need ing
pher d
Re y
M um
ish ment
expl or
inc ul
f ist
ma illot
catal ogue
campaign ed
j ette
G ent
dé passé
Cl oud
rap per
Me eting
P ater
m im
encour ager
X L
feder ation
municipal ités
cl iffe
l ice
h over
photograph ed
territor ies
sport ifs
sl ash
Su ff
Tou ch
light ning
coû té
ache té
nons ense
Ne uf
comment aire
Wal labies
sl ated
Mull en
Somers et
h oll
jug és
contrô ler
Scots man
8 e
wat ches
rent ed
red out
is mes
Citiz ens
occup é
consum ing
diter ran
4 th
C oy
idé al
sie ge
than ked
con serve
exam s
Fort une
es cope
comp tent
sha ken
trau mat
ent on
frau dul
wa ist
Ar men
equ ivalents
str anger
Iv ory
con tempt
P LC
b iod
Gu ild
l ish
law n
ext ends
rés oudre
c toire
quant ité
s no
Br ighton
Mc Kin
avant ages
contest ants
Trev or
ware house
Brit ney
sympa this
p id
knock ing
nation als
benef icial
station nement
ib a
Ber cy
Toul on
réfléch ir
K un
wh ales
cot ton
Tr avail
app orte
lég it
top pled
un believable
étudi er
re connais
im provis
Tr ophy
Pau la
P ologne
Wor th
il o
fac ial
prom esses
Se lect
complex ity
rebell ion
over ly
crit iqué
B ref
mar ès
sk ies
Patr ol
grec que
S ally
compet ent
seu les
10 e
Bur g
In no
modif ier
Fat ah
tong ue
un ite
if iés
trou bling
crack ed
cou pled
reas sure
Clin ical
Har old
surg ical
dev ise
certific ate
make up
réd action
quot as
n ail
appréci é
M LB
shel f
evangel ical
Ball s
enc ais
Gu erre
affir ment
mil ieux
littér ature
atr ices
c ensus
H ôt
T OR
chor ale
national es
compt ait
princip es
ene i
ref ers
outrage ous
undoubted ly
patr ick
b ree
m ush
ER A
record ings
exhaust ed
cre ativity
stand ings
it ano
pre mises
dis rupted
palestin ien
ren ch
re monter
rem placement
aller ies
Low e
fert ility
le isure
satis fait
Reg ion
arab es
m ish
j ub
Daw son
pal m
initial ement
surviv or
bo oth
Bl u
ru th
constitu ents
qui pe
relig ieuse
assa ut
N ug
om es
estim ation
M ong
domin é
dr ied
High er
Engine ering
continu é
hé berge
ab lo
if ax
min eral
provis oire
H ack
AM I
vit amin
Bu zz
administer ed
sur faced
les bian
absor b
progr esse
assaul ts
Al pes
sett ings
wh ale
util isés
re pê
in age
dan cer
instin ct
I ES
consécut ive
trait er
C out
Be ir
récol té
Fis cher
pre view
ful fill
Pl ans
hint ed
apprent issage
F ix
carr iage
pled ges
dé passer
just ifie
maî tres
human itaire
Sam ar
He ather
Car son
fiscal ité
N antes
mic ros
strengthen ed
tt i
correspond ing
inj uring
récla mé
ul ating
lyn n
D ai
adap ted
sing ers
Gra eme
faibles se
thes is
déput ée
gouver nance
consacr ée
T ale
dark ness
Week ly
amend ments
rec laim
p ôle
re minis
clash ed
redu ces
ign ent
manifest é
réglement ation
ass ort
col ours
march and
Hu ff
S ah
assum ption
upl o
14 4
DS K
onn ais
murder ing
lég al
des sert
We i
er landais
st ed
Cano ë
4 G
ré unions
Rom a
dimin ué
revel ation
Kham enei
res ur
conn ues
tex ts
organ ize
mél ange
IA EA
ven ge
col ored
Prem iers
tr on
pous ser
ident ities
encour ages
emphas ized
cha otic
con joint
Bou cher
dis positions
shel ters
cat ches
Arch bishop
less ness
j ab
it ous
oc currence
Ug anda
manif ester
in sert
cal f
S kin
regret te
v ive
Gre ene
wh ilst
T us
par ag
em power
as co
Salv ador
impact ed
ic ians
side lined
sex uelle
g led
V augh
str ains
B asket
arch y
18 5
B end
bar bec
impover ished
Fr ost
in se
trust s
Al ou
press ive
dévelop pé
br uit
R iley
Min utes
spé cul
athl ète
déje uner
Stand ards
g ê
New port
arbit re
lav ish
z h
cut e
la den
n aut
prison niers
histor iques
n able
polic emen
porte ur
cart els
Carl ton
Short ly
ques tr
Celebr ity
build s
3 40
Com ing
c ough
Pos te
short s
colog ie
just ifier
E glise
ad am
L oth
Bun des
an court
ol ars
e up
in door
deliber ate
k os
spéc ifique
montréal ais
S inger
ist iques
speed ing
intention ally
adjac ent
I ps
13 3
ouv ellement
sun ny
cur ve
Dis tribut
Moroc co
conjon cture
An kara
pays age
ç ue
14 7
b ikes
pro cher
em prison
13 6
L ans
prohib ited
in famous
qu ettes
cl utch
C iné
un lawful
engag ée
iz ers
intit ulé
su ing
ond ers
re opened
compar es
fac teurs
graph ique
John s
acqu itted
att ends
arr ête
A tom
joint ly
meas uring
Dil uted
M oul
C ensus
ost ers
mar ines
vis ites
sur venu
au ph
min s
B oll
p se
re ction
Consol idated
B L
Q antas
th am
consist ency
plan ets
h of
par ap
an or
new com
mal aise
consult ancy
Cit ro
Restaur ant
ad équ
al iation
L ud
ins ky
t witter
prolong ation
R aul
in ond
dé ses
D ud
omb ie
agric oles
V on
W itt
gr an
Manc ini
innov ations
dip ped
ans ki
shoot out
Sw at
Ana heim
pivot al
al tered
imprison ed
ï ne
prochaine ment
fourn isseurs
secre cy
O pel
N ets
Trip le
ö n
circu its
slug gish
Nat alie
Bald win
o id
simp les
ent z
assassin at
l aps
iè vement
lour ds
am ended
Fr ères
pla us
tain ted
Sen ators
télé vis
bi ais
Prot esters
Ultim ately
f ich
ign oring
défense urs
stero ids
amb a
Lu cy
19 47
dir iger
In dependence
Light ning
C rew
con fined
Kar achi
invis ible
he fty
out going
pré con
R d
m è
am oureux
im ètre
aff id
actual ités
restrain t
fair ness
go la
af fl
Partners hip
investig ative
A US
iov ascular
am ie
im prim
série usement
mother apy
mechan ical
19 44
cons ists
Égy pte
ré uni
initi ated
Ax el
paper work
Rock ies
im position
impl ied
alsac ien
IO C
th èmes
bl anch
sl iding
Bal let
Suc cess
the id
Dar win
enter prises
H indu
clear ance
weak ening
instru cted
Le v
tap es
he it
étrang ère
cens or
co v
ran ch
Witness es
se ated
hum il
Tam il
ed ited
l ace
Good man
u to
gouvernement ale
Studi o
ac cru
cour thouse
psych iatric
c ote
dimin ution
con cussion
dimin uer
anim ateur
N S
R IM
C ong
un successful
fond ation
th ia
gr is
out ier
lang ues
Des jardins
C lement
ér y
S ax
air plane
27 5
about s
condam nation
Zucker berg
Electr onic
out spoken
relent less
ent ers
inv ention
lay ers
tum bled
dé cret
fla me
rig orous
h ikes
Wal mart
pro xy
19 57
hom ers
p oker
Beir ut
to med
Palestin iens
pol led
an ime
tr iche
judic iaires
Wend y
C off
flam b
viol ate
tr ibe
Lind sey
dur er
Re illy
F abr
E str
En forcement
dou ard
Ko be
par alys
ab at
aer ial
e cosy
-------- -
assess ments
A zer
ende t
PH OT
interro ge
auto bus
tr iste
question able
Person al
Com pos
symp athetic
l ur
Ré sult
rub bish
no y
cler c
ès es
Dr agon
G aul
huit ième
Tr ail
Phill ip
D iaz
le cteurs
é dois
near est
clas siques
end anger
Vic tim
territor ial
re au
Ear l
an alog
is chen
Car refour
tos sed
Jenn y
J C
fi ber
son ne
rel at
coup es
ret iré
Y von
co on
integr ate
affid av
st alk
psych ologist
mar ches
un ner
Dam on
A ctor
J as
ó n
atmos phère
decor ated
aux quels
intrig uing
v amp
grand i
spread s
Chev rolet
Profession al
A ussi
res id
Sy m
ordon né
V it
asth ma
Abr am
N ur
aler ted
gren ades
al ion
ap prend
Re venues
E lement
merchand ise
Di et
laugh s
ad hér
In quir
under mined
prom esse
rem placé
symbol ique
L ucky
sent iments
grav ity
Santi ago
inter face
stretch ing
O pér
appu yer
Post ed
Bre aking
dégrad ation
re jection
man oeuvre
Lanc aster
appr ouvé
plot ting
gr aff
wear s
oppos ant
résu mé
Car p
Min i
ign y
avo ie
pack s
fles h
if a
pack ing
predomin antly
it in
métr age
Leaf s
har med
off ender
Clo oney
e ves
W id
found ers
train ers
a ussitôt
Gard ens
Labor atory
enf eld
cat aly
pal marès
Sky pe
Shad ow
infr ing
delic ious
Tit ans
4 bn
K ard
ol ution
Lé on
S cal
who ever
inform al
g ou
br ass
ér i
chauffe ur
os ity
cr ust
ony mous
point ers
c f
ér ée
quot es
tr act
ill ons
chô meurs
c z
g ays
w ol
20 h30
intens ified
le agues
Ale p
pas sera
reser vations
offic iels
ks in
renon cer
environ ments
ab ais
4 m
ins ki
sustain ability
counsel ing
Hôt el
san ct
volont aires
tu er
profon dément
Ad vert
s inking
clim atique
Park inson
comment ators
départe ments
mal ade
Calder on
dou leur
pour suites
ist ically
tend ency
ch ick
str icken
Pet ro
Athlet ic
com promised
for given
exp ulsion
d wind
prior ités
ne phe
sol ving
independ ents
ris quent
ble ak
in justice
Is le
red ressement
progress er
or deal
ie val
em bro
c aisses
among st
ien ces
imprison ment
20 2
récla mer
pharmac ie
wheel chair
R idge
ed ges
favor ites
Mob il
cade au
Mitt al
mob ility
visible ment
c ables
Com b
S AP
psych ology
intell ig
chant iers
Im age
Tha ksin
Shaw n
deliver ies
M ang
Bur k
pr izes
weak en
Quest ions
Pep si
é chant
Mc K
fu elled
chale ur
cemet ery
under neath
en y
enn ium
convent ions
L if
Ob amac
vand al
E ld
ile e
success es
sponsor ship
en rolled
loy d
vacu um
thr ust
Sav ile
E ither
Serge i
mot if
L od
ag és
che veux
conscious ness
dé faites
under water
fundament ally
He avy
at us
O ri
essa ie
launder ing
pre caution
Custom ers
par aître
Br ing
bl onde
t ires
eat en
al ités
inter section
Mid dles
ig es
compl iment
Ty son
M aple
Vot ers
prolifer ation
blast ed
the ories
them ed
BA E
anne x
access ories
6 m
bill ed
ed ly
volunt arily
du p
demand ant
fundrais er
l imp
st unt
A OL
Obamac are
envis ager
88 8
Cy rus
présenter a
and re
the atr
Mer cury
sav vy
présent ement
ré actions
phy si
p lying
t êtes
tal es
right ly
sén ateurs
appel és
R ue
mort ar
Syn dic
Can ucks
ar ians
educ ate
re monte
ush ing
élev ée
H ip
titu laire
var ied
Leon ardo
ou ement
fe as
block buster
Hait ian
Lor raine
Jama ica
Val encia
Carr ie
caus é
ré ellement
Sch mitt
invent ories
recru its
Chap ter
interprét ation
Ap par
announce ments
Wy oming
uss ée
liber als
tomb ée
acknowled ges
fér ence
ash ire
T un
E sc
re marquer
Or ches
T ant
Pat riot
Lors qu
d ough
Titan ic
to it
cup s
h ap
dom ination
distan ces
Car ne
compet itions
ny der
Syl vie
2 15
jud iciary
king dom
dis gr
territ oires
Mad ame
or th
compos ée
ion a
s ap
haw k
Lanc ashire
except ions
pla ge
trans mis
Serb ian
concentr er
Pr ud
Minor ity
ra ided
Kore ans
quick er
se cou
Tr affic
back yard
men ées
augment e
P OR
apolog ize
de an
K E
afric aine
W a
poor er
E du
at ched
ve ur
Le o
De voir
ret aliation
resort s
teach es
us agers
organ izing
Cow ell
w ander
ine ux
che motherapy
ip her
pla que
Bet ty
b un
Bat man
org ans
er ate
S ic
p akistan
vic ious
none theless
stagger ing
oppos es
Cla udi
Tw ilight
in coming
bell ion
chop ped
sw ick
V as
spect ators
tight ly
él ie
hur dles
is a
manufact ure
ant ique
excell ente
b ies
eleph ant
Mas sa
t és
pr ouver
at ics
iz ations
habit ant
éd iteur
pl ight
ma id
pens ée
juven ile
R ams
pe ment
concl udes
R over
W ear
cr oc
ov ation
Lock heed
E space
montr ant
in qu
matur ity
g ently
Qual ity
bi ology
pre val
différ ente
accur ately
met re
rob ots
ab er
pass ages
sle pt
b laming
p und
Pear son
la bell
str oll
dérouler a
ï d
S leep
om i
Esp agnol
ér és
me th
g éré
co a
oure use
magnific ent
édif ice
in mate
compar ing
res semble
C ed
ber ries
Apol lo
employ eur
contain er
évent uel
uni forms
v ette
constit ute
av i
tact ical
trade marks
extr act
legitim acy
de ttes
ch ased
Bel arus
is heim
kidn app
Gag non
sum mary
gla mor
ais sent
ad an
si en
He ine
Mc Gra
présent ent
S nyder
Su arez
hab itation
em bedded
M VP
é te
Br aves
cou per
Lis bon
competit iveness
J avier
Fel ix
Inter nal
gen ou
Moy es
per turb
19 56
Franç oise
d ass
ou in
AN S
Napol itano
im ager
pur ple
rés idents
Gav in
Che mical
War wick
w ag
Vik ings
comp table
B und
M T
ou k
no vers
sha w
get ic
AM A
13 9
Invest ments
distr essed
lic enc
diplom atique
B om
art a
ner ves
chancel ière
run off
7 e
Zur ich
M ouve
log istics
pens é
ä r
règ ne
R ex
étudi ante
é ant
F ellow
inspir é
mess aging
Dmit ry
Core y
fla vor
Fort un
chrét iens
Hag el
M gr
prop elled
apolog ised
D ue
St yle
od or
ru in
Cler mont
M aver
chif fr
man ual
Dun n
Rappel ons
ais ons
bor ah
alleg ing
Invest igation
strict ly
supervis or
alle ge
stab bing
r aft
sp ying
defin itive
fl op
pl ots
d ling
pré dé
nourr iture
pe an
chan ter
extin ction
Cabr era
anec dot
He ure
wild ly
d î
h ift
F loyd
Ul ster
Qu elle
care d
wind ing
nor theastern
direct ive
détermin ation
prépar é
dé placements
in as
is si
dé çu
Min es
Spiel berg
collabor ateurs
agricul teurs
analy zed
Pr ague
New town
L ear
influ ences
contribut or
J M
direct s
rest oring
compens ate
ouvr ant
retrait és
Fitz ger
cré anciers
pract ically
méth odes
L ui
Fis cal
abandon né
IR O
re at
ling ering
deb ated
doig t
he aling
compl été
ab onnés
entr ies
cr a
on ome
four ni
él ite
com a
fl é
gar lic
k om
Im per
strength s
o ons
ou voir
cer cle
Com mod
ép ic
interpr ète
sur sis
am icale
contrô les
alarm ing
under take
cogn itive
pull s
ent ice
essay é
ac as
br ows
souha iter
W E
automobil istes
apar theid
T ina
r assurer
agré able
insur gés
W are
he e
cr oft
Me g
Val ue
C any
Al ison
assign ment
écr ans
P aper
ling u
Chev ron
b ibliothèque
prim aires
d ings
struct ured
for wards
le ases
sculpt ures
T ick
York ers
pione er
cand y
al laient
character istics
Mountain s
contr aint
bas ée
final ists
ab using
soci ally
L ire
Kash mir
remark ably
Pear ce
Elis abeth
f ume
Ko ch
pré lève
veget able
Michel in
His pan
us her
donner a
som etime
li bres
exp ires
Ac adémie
custo ms
tat too
mauvais es
nav ire
U rug
p ains
r ats
M ile
Ky oto
3 75
F ounded
ench ant
van ished
la uré
fil ière
présent ant
Tr ude
M OS
che ating
blank et
e co
mainten u
inst ar
D oyle
P ra
In sp
déc ouvre
T ree
Marr iage
Be e
pleine ment
G in
bel ly
sign aled
ag gression
Ken zie
In novation
dit es
40 1
P and
de au
pur port
artis ans
D emp
N in
chore ograph
p unt
antit rust
disput er
mour ir
Peters burg
label ed
han i
dé sert
Act ually
P ér
cris p
Mouve ment
19 55
ro oted
jou era
N T
serv ers
compat riot
Fif a
M ix
S elf
state wide
pande mic
descent e
Or thodox
answer ing
fisher men
develop s
affil ée
évo quer
T OK
as sumer
éc out
Alexand ra
pass ées
Ho ok
indépend ante
ia th
Or t
inter val
affir mer
ospher ic
Urug uay
z ip
ste er
enn ial
z ic
blood shed
port ions
eff ond
squee zed
L ith
in ational
grand son
Man delson
déf ensive
potato es
Pe y
Fitzger ald
Pr inc
ar ma
appreci ated
H ul
isse ur
escal ating
blo qué
che ered
sho ots
im ité
réun ir
th igh
Mon roe
ai bl
interpre ted
good will
dest abil
ou bl
ily n
J ung
be have
rock ed
W iggins
Par ent
gras p
ch ait
I rene
trans late
d are
constitution nel
vigil ance
J ays
fr ies
att on
broker age
man ia
or ously
p d
R endez
FC C
3 25
protest ed
far ther
c n
m ug
ad met
it as
dent al
ac ity
Chap man
ver ify
pir ate
f ret
camér as
A val
Con cert
acqu érir
dis on
pre y
ray on
attack er
drunk en
ren forcement
ent rées
tur novers
Art icle
fict ional
lobby ists
ir ak
cr atic
cant ile
diss idents
p estic
Cor respond
concr ét
u ber
alloc ated
facil itate
t iger
ospect ive
table aux
con gestion
U AE
caut ions
franc ophones
Ste fan
constitu er
div ul
épou x
B alk
ah ren
Leg ault
destruct ive
rog ue
Alexand ria
recip es
Trib un
tribun aux
ane ous
Ben ef
S L
un predictable
â le
acqu iring
Le clerc
tr action
Lib or
Ch ac
fic iency
refin ery
Pater no
T aj
hon ors
gé ograph
car bone
Are va
Re in
defe ats
gr in
w ished
pap iers
tank er
Fle et
L al
NY C
ast re
coure urs
50 s
éner gies
apolog ise
R I
slum ped
n ants
Hal ifax
ien cies
troph ée
Ph ones
Me gan
scr apped
terr and
stret ches
y les
el ines
tight en
capital ism
fr on
chen ko
ass é
document ation
trad uit
V ac
oc curring
ri elle
compl iqué
makes hift
Excell ence
président iel
Fab io
Doll ar
In fo
prot agon
hor mon
ak in
advis ing
écr as
im enter
Kard ash
ouv rent
k on
charm ing
wreck age
H ig
abdu cted
ab order
Princ eton
19 49
b atch
oul os
preser ved
Ab ou
miss es
P ath
endor se
e thanol
Deb t
Similar ly
Go ode
TOK YO
is che
affich é
clean er
E PS
ic ate
de mise
en as
ex changed
so ber
aff aibl
sp ree
je well
plant ing
fa im
Ryan air
prom ouvoir
lug gage
f oy
provo quer
coll ég
on iques
Appe al
ide ology
dé ch
car ic
PM I
confl its
Contr airement
en act
Ukrain ian
honest ly
OP EC
contain ers
W inst
jug er
blo quer
transl ation
A X
C live
sl alom
Brun swick
3 80
ex tré
Ad voc
sa bles
fémin ine
6 bn
Franco is
in contour
plaint es
alumin ium
there by
ar thr
Sus pect
Mar ks
entraî ne
Le y
ins iders
posit ively
lad der
Hew itt
Bau er
aggreg ate
pis cine
reject s
contam in
scholar ship
Mc Corm
der ived
vie ill
m ouse
Kh art
prosecut e
Français e
tang ible
Fr itz
pill ar
weigh s
ence inte
par ano
Hy und
suf fr
Certain es
n ian
r ar
V AT
Brown s
Domin ican
favour ites
Hun ting
sens ors
gradu ation
og y
dead liest
transport ed
excl u
dig ging
Vik tor
génér aux
crash ing
Str at
prescrib ed
Un ite
em ia
200 m
L ars
ves on
guard ed
art illery
présent es
H oy
bout iques
A ussie
V il
cer veau
pel oton
li able
Qu entin
High land
Khart oum
adopt ée
israéli enne
par lent
arr a
administr atif
Rég ion
Mo ve
promot ions
Z ero
J ou
todd ler
inef fect
S ég
admir ation
grand parents
vo ici
vict or
inter act
Wr iters
re cess
bi of
camér a
hous ed
l ar
rich esse
b ain
Pro ceed
th um
Sch we
iqu ette
T ier
récla ment
G lor
acc um
hat red
gar bage
pr imes
ch att
Hans en
mété o
crack ing
finish es
terror iste
DA Y
B oss
connais sances
g um
comment ator
vis ibility
N ike
P ie
smo kers
As sur
suspic ions
S ang
H ours
ingén ieur
exig ences
par as
TV s
breach ed
nick name
Mir ror
Ch art
Hyund ai
tos s
sl ap
af fer
inf érieur
F an
dé montré
pré su
sla in
c ues
lég itime
Nap les
gratu ite
bri bery
accél érer
aw esome
Orches tra
Hum ph
e go
pl er
His toire
ô mes
lat imes
déf ens
dé tour
soci eties
comb ust
progress ivement
ded ication
conce ived
autor isé
3 10
afflu ent
Gaul le
cell ule
i ated
pun ched
unve il
subscript ion
r ata
pub s
oph ile
encour agement
S utton
wel coming
occup ants
buil der
le aking
ild a
For get
V ILLE
t apping
Mor in
rég ular
color ful
Q at
S ich
beautiful ly
highlight ing
ster ling
Pre vious
Mit terrand
con strain
stock holders
popular ité
Comput er
f iance
new born
Sch a
Ac counts
Chand ler
at u
Ken y
compar isons
liby en
Cyn thia
en zo
Recent ly
limit ée
al in
Me as
maje urs
K had
ré compens
Gr ass
Carne gie
dis cour
ble ment
Sim mons
solid aire
af a
check point
Le w
C ars
Bra un
fut urs
C ah
Ethiop ia
par oles
éc oul
Law makers
souhait ait
sw ath
Ende avour
atta qué
K elle
télés pect
che ering
in aires
MS NBC
an th
national ist
De borah
ré put
pré vient
Mor mon
Roll s
int ang
man ne
rid den
ir responsible
Mar i
p è
el a
mo dé
pil ed
F ARC
P â
dé montrer
A part
Thorn ton
quotid ienne
path s
th étique
Agric ole
14 9
Brow ne
an om
Sch w
mus sen
intercept ions
Cris is
dé gag
elimin ation
bor o
William son
sû rement
R ied
t ill
vir uses
Flo od
Y am
un disclosed
ach é
Tre k
arch ipel
re tro
parall èle
dis abilities
environment ally
assess ing
V ari
comb ines
des ir
scolar ité
Re yes
foot print
osp el
intercept ed
glam our
fr ost
Arch ite
ge m
ic z
ved ettes
crack s
Gen ève
du quel
men a
ent ière
Bash ir
démonstr ation
R ising
continu ous
fr ig
fo e
extra ordin
ag glom
per tur
land aise
param il
if ics
un insured
v ell
per il
Ste ar
ers heim
re pose
sacrif ices
récent es
Play Station
over looked
Tr ay
W ester
to ast
scre ened
garant ir
bullet in
Marr i
mach inery
controll er
Tribun al
U D
côt es
expl ications
suc cesseur
French man
mal heureusement
slip ping
provoc ative
barr ic
gall ons
metr onews
aid ed
Coun c
ex trad
found ations
Le ah
releg ation
o que
Ow ens
ch unk
heav en
Observ atory
sac s
cur ator
Wat ers
indefin itely
access ed
Pan el
acclaim ed
reim bur
incl uant
out reach
cur tail
b unker
Rel ief
C OR
sa bot
iss é
F low
discipl ined
est ion
dé placer
infl icted
att en
roll er
supple ments
out law
endet tement
C athe
Bern stein
Champ agne
inject ions
class é
treas ure
équili br
Budd hist
sold at
cop ie
F uel
intermédi aire
n ité
ek s
cré ations
N ab
Letter man
w ski
under taken
OT C
G em
as is
des pair
SP L
préc ision
prec ision
ret ir
prompt ly
v ues
AC H
Sp a
qu arante
diffus ée
ac om
ér able
libér er
jud ging
rit ual
M AR
p ée
Bar ber
int ake
reli ability
White hall
avanc ée
film makers
14 1
W ong
ult z
comb ining
commen cent
tack les
adress er
in fin
expl ic
sn ip
ink s
L ob
dimin ished
Lo cker
49 ers
cor on
révol te
ray s
qu ins
Mir anda
retrouv ée
J ank
p ater
as ia
em porté
Ren nes
inv iting
en forced
ag as
Pot ro
7 m
D if
d yn
19 5
no ck
inf ants
refr iger
méda illes
hack ed
Rel ig
se quel
Col om
dis arm
un constitutional
Nation ale
Win ni
str angers
Cany on
pum ped
norm alement
A fin
K od
am ar
tent ent
au b
commer ces
Mon itor
ag uer
tr icks
Min n
16 8
r andon
un willing
inaug ur
som bre
en to
Ac count
dis may
c â
propos ent
Pic asso
p ine
us a
Tre at
ear ns
Sp itzer
vide ot
V ote
excl ude
ins ights
pum ping
viol ents
Byr ne
iss ants
boy cot
heavy weight
franch ir
M ing
écolog ique
L ines
bless ing
ré bellion
rec ule
á n
Isa ac
affidav it
rapproche ment
19 54
Bern ie
academ ics
gr és
B ett
per ipher
di ale
pré voir
Mich èle
chant ing
Se th
Joe y
Tal ks
semif inal
parent al
oll en
tast es
atol lah
US D
N orton
ad jointe
Clin ic
Winni peg
ser re
administr ations
La un
York er
Vin ci
rul ers
theatr ical
photo graphe
TS B
mis ery
14 2
50 th
Ed ge
Lo go
dou zaine
hydro gen
K nights
sound ing
Au triche
in fer
défin ition
Will is
u be
ast air
obtain ing
ind y
in former
just ification
ir ony
K re
Soul tz
h ats
di um
ak ia
Johannes burg
at lant
interpell é
ph al
cess er
contempor ain
D EN
V ander
att ende
tomat oes
Ober nai
No ah
Ver non
Jane iro
un related
than e
fraî che
mans hip
Am ir
ceremon ies
exer cer
K ol
b oul
re minds
flo at
Lam pard
aver ti
mer veille
Can ter
R ib
w ur
Al astair
eth n
c ans
man quer
H aven
dépl oré
sc ans
z enheim
ch iens
14 3
gard iens
H ut
tap is
miss ariat
bail ed
Le veson
ad é
défin ir
Start ing
In fr
bass in
Cy cl
Sh an
én aire
conf using
Wol ves
medi ate
calcul ations
B it
H é
ou ster
ur ers
gén ie
Stam ford
cell ules
Ha q
J eter
C PI
19 52
might y
rég imes
th ieves
Car ly
dépl o
transl ated
evacu ate
technolog ique
brow ser
Br ain
b ere
é toile
glo ves
S itu
happ ier
rég ulation
Law son
bureaucr acy
est y
ment ions
ill ent
Prov ence
BOS TON
m asters
cry stal
bl ur
N olan
Paris ien
trouv aient
chocol at
autop sy
poison ing
ensu red
bother ed
dé mant
Sp ider
dispat ched
Rho des
N ak
r ents
to ff
att ire
fid èle
g alleries
par amed
Bart on
Hold ing
Guatemal a
A ctr
bi jou
tourn ant
F ear
Mar ilyn
Ger ry
fier té
Ség ol
ote urs
abandon ner
crain te
C IO
fair y
injun ction
solidar ity
Son ia
F ant
turb ines
in suffis
ir regular
Pl ate
Employ ees
he al
evol ving
viend rait
p ote
Drag hi
M F
rare ment
S z
all ure
m ire
battle field
franch i
staff ers
souverain eté
Os lo
annon ces
auto ch
command ing
navig ate
author itarian
Kar im
blanc s
sur ging
cardi ac
olog ically
tak er
K iss
L ic
rem ot
Mon th
Cam ille
fisc aux
corrid or
Rob son
précéd ents
orig ins
Mer ck
Appar ently
ac ier
ue use
Brit on
spe ar
coach ed
fi bre
ac oust
25 th
gren ade
lif ts
con junction
Gall up
clear er
demonstr ating
mult inational
T wins
thr ill
Ségol ène
Sh ia
Dale y
con sp
nature lle
ij i
bed rooms
mam an
ok ay
modest e
ér ations
empl oie
hon n
F as
ine quality
A dul
Rebel s
ga e
Further more
back grounds
Harr ington
chant ed
distingu ished
bou cl
lais sent
Z am
f og
w aved
entraî neurs
Cont ador
Ram os
In see
oblig é
bénéfic ie
ct ives
Sy mph
Mog ad
sub po
ill ants
mont age
Of ten
pip es
observ é
f aded
Ster ling
4 40
efficient ly
cry pt
int u
panne aux
o ivent
emer gence
is i
re ur
sim plic
spec ifics
do le
rent abilité
install és
exacer b
japon aise
S part
cir cus
étr ange
r ors
vis uel
c gi
En tr
ex il
A gu
Hur ricanes
Com petition
sun shine
sit ue
K ut
sa ur
up graded
H ath
n ac
Z h
score less
Monte bourg
recip ient
crain dre
Histor ic
del le
P ablo
all iances
Le Bron
H oney
Fr anz
E y
che ers
fest ive
fraudul ent
t ly
Hol ly
é ol
ch rist
w ai
commercial es
19 39
se af
ski ing
Coll ing
obsc ure
ett ers
Z ap
viend ront
ap hor
Ab sol
Vol t
re curring
compar aison
t ac
Fight ing
An gl
incl usive
29 0
UE FA
in sect
Alou ettes
Gand hi
accro ître
l ively
le ys
de er
sup plying
hand les
hu ile
azz i
inject ed
Bulgar ia
personnel les
S oy
ar son
perform s
ound ing
0 20
Ir vine
condition ing
adjoint s
Com edy
pre cip
reli ant
V og
Lo ch
ber th
Car nival
consomm ateur
supprim er
acce pte
W int
scen arios
bus iest
lun gs
de grés
ard y
pér imètre
voyage urs
social ist
en i
Par amount
al um
qui er
dé signé
trail s
age ing
publique ment
negoti ation
b ière
Co vent
T ah
commercial s
comp ounds
dou bling
ru ined
Art ist
mé ment
œuv res
rob bed
foy ers
Jér usalem
Gab rielle
F P
Tour ism
M W
be es
syst ématique
ferrovia ire
ë n
Wal ters
Gaz prom
agé die
mer its
Wel come
advis es
Gar rett
pig s
b aker
ore t
Book er
ob tient
charg és
bur ial
complex es
Yanke e
dé tente
mon ks
ben jam
inv asive
propos ée
fél icité
O CD
buy out
A AP
Gue b
id is
Don na
Jud y
pol on
blog gers
X ia
G on
execut e
car ved
fac teur
Element ary
Med i
agn ols
Dan ielle
PHOT OS
M ai
n ah
down graded
dev il
US M
Fil ms
out line
Ex cept
enreg istre
M LS
Az iz
post pone
dur é
mass es
destin és
Liber ation
net toy
Bel grade
hand cuff
rembour sement
carbur ant
Ren aissance
ingén ieurs
football er
en ver
iss ante
mor ceaux
Chant al
Ass ets
reten ue
possi bilités
franc ophone
re marque
post al
per ing
Pr eston
mem br
rock er
da unting
audit or
M alk
Run ning
b ah
tele coms
chor us
s laughter
Tr aining
traite ments
raf fin
Br ide
Be gin
Mar ne
shell s
Coun t
dis grace
Br ief
lev y
inter lo
Cy ber
rail s
Inst agram
deport ation
Car la
E stim
Ros a
pay és
S core
Gener ation
re cept
L amb
arbit rage
part agé
Ty pe
satisf ying
Post al
fr ater
dé ficits
ande m
assert ion
l t
read ily
ét al
where abouts
cas inos
att i
capit aux
Suff olk
g gy
urn es
stem ming
propos és
Un audited
dump ing
pe ines
Sup pl
hot test
fear ing
dem ie
bloc age
F ête
Sand ers
jamb es
Black hawks
n ale
gu in
civ ic
d ames
util isée
gr it
de af
sw aps
Stear ns
d orm
ci ation
Mc Donnell
weight ed
met tra
card ia
outr aged
h ay
fum ée
stre ams
D aim
ist on
cr us
commun iquer
port és
Tre aty
lod ged
assur ing
perpet r
B anc
d war
Inter active
R ank
tout ed
Syri ans
8 m
Link ed
ther apeut
Cl ément
E in
Mo D
Ham mond
relig ions
attend aient
consu me
sp inning
ré dig
N ex
Ch ester
mag ical
load ing
h ilar
T ata
business men
cro ient
m asks
dr ôle
rembour ser
de venus
hin der
D ogs
ab a
An cel
Pet ite
the l
orph an
Er stein
stub born
P awl
gun shot
San ofi
Bur ger
magnet ic
P urch
cycl ist
mart yr
péqu iste
n ud
tra verse
eng ulf
Pers ian
c akes
is son
distr ibu
tent atives
prof iles
over throw
Other wise
ill ac
s ack
ét ang
d azz
adress é
bats man
préc ieux
assur ée
im probable
sa x
Pop ular
adm ire
adequ ately
burgl ary
side line
card iovascular
Nich ol
news com
F leur
r op
negoti ators
toler ate
Premiers hip
Jackson ville
Bomb ard
Imper ial
de vis
M end
valor isation
M atte
compl éter
Mik hail
ann ulation
predict ion
Sid ney
Th ib
u pro
fl ick
Col lect
Arab s
glamor ous
L H
special ized
character ized
sufficient ly
antibi otics
re ys
mut ation
miser able
Colling wood
terr ifying
hum id
rend ent
Ful ler
re pér
ench on
s ach
No va
cler k
E W
é cho
g ir
car es
dest ined
Rés erve
Y as
to ir
all ié
bon di
architect ural
app alling
mor ph
D rog
maneu ver
Ori oles
Roy ce
E V
bi om
tempér ature
k not
15 7
hall s
20 30
Tag s
Mer cantile
Steven son
pen insula
fa ç
ser y
incl ined
categ or
OT AN
discover ing
Mon ique
élimin atoires
Actr ess
Ha as
icon du
im proves
Assist ance
cush ion
clin ique
vul n
A Z
dépos ée
work out
reser vation
rif les
E co
Fe in
w ie
nécessa irement
Pl anning
Excl uding
T ut
to is
Even ing
E den
S ao
3 70
e iner
f laws
14 8
ing t
Bay rou
in hal
fre ight
sûr s
J ard
k ies
dio cese
cal culation
wol ves
hôt els
ancien nes
condem n
St ones
non y
batt ue
trav ellers
Bou levard
unanim ously
V end
heure use
compét ence
actu els
super fic
région aux
indépend ants
f êt
str ings
cher chent
Pic ard
G oss
Schum er
I de
communaut aire
Naz is
Je unes
Sport ing
to i
har ness
Daim ler
I dent
40 s
sm ith
év ac
migr ant
cot isations
D G
State ment
ros es
mén age
cha ussée
Bapt ist
cour u
None theless
é dr
estim ations
Cur ry
Pawl enty
c law
dé cal
tech no
gouvernement ales
station ed
Broad casting
Allemand s
S ort
un ifor
urb ain
décro cher
b c
tr agédie
rock y
constitu é
séqu ence
perse cut
R ip
Jac quel
Mous sa
Citro ën
Te bow
v ets
respir atory
con jug
Par aly
fem ales
fant as
deleg ate
m ospheric
plaus ible
gr imp
ench ères
extre mism
EL L
i ya
pon der
activ ated
H ank
a unt
ef fac
ov sky
Tour s
Fal con
Tr ial
casual ty
unanim ous
sp ik
Winst on
ie gel
ang la
hom em
19 33
Pharmaceutical s
de ments
b ble
ais le
do cteur
tempor aire
sty lish
fémin ines
O di
def iant
D ustin
reb ounded
Concor dia
H itch
is le
ur t
philos ophie
Mar itime
os ci
illa de
novel ist
Bill s
Const ant
nephe w
H air
soci o
Yann ick
cos se
Sw ann
dép ôts
9 th
hint s
sail ors
C ité
clar ify
Pf izer
Fa ith
IP CC
Mic key
Lo an
philos op
affili ates
fract ured
oper atives
Pay ne
anci er
Hot els
S ame
process or
Marl ins
sur vie
Col bert
cherche ur
Heine ken
4 x
mes urer
15 8
P ais
Sina i
appr ête
privile ged
lap tops
comm é
battle ground
réalis ées
s és
crédi bilité
Maver icks
Symph ony
Cathe dral
Hard y
ess el
ant id
offr ent
gad gets
E pis
cour on
L ach
r ix
Fortun ately
pin ned
Gal lagh
acce pts
it on
y ork
man us
Bos nia
ingredi ent
imp ul
Str ate
confirm ing
Su le
Wood y
Compos ite
pos ée
P oul
for ged
électr oniques
ID E
clip se
volont aire
under wear
Beck er
sha ky
G our
rac onter
dur ation
worsen ing
Ro ch
av id
P KK
Sim one
sch olars
Mol sheim
L earning
Z ah
ur ine
Bar rett
for bid
promot ional
9 h
sy nony
im eter
report age
cé dent
deterior ating
ad y
bre f
16 6
an them
am ener
ab ul
crush ing
contract ing
dela ying
libert és
Kat z
S ite
gif ted
dis su
Mar x
fac ult
an ément
demeur ent
a ou
liber ty
trous ers
lon ely
combat tre
W ald
ü s
I X
T ong
crimin elle
Nico la
pour centage
Drog ba
Canter bury
ar ise
14 6
le ments
Hath away
HO US
rempl ir
Se ul
W O
met ropolitan
V onn
lim itation
C ats
p leading
Mar ina
pat rou
hab ite
cl uster
jack ets
Re covery
ambig u
gu ér
termin ation
Sén ateurs
Gallagh er
Patt erson
Marin ers
lic ences
19 46
fore hand
log ical
vari ation
sever ity
vou laient
T wel
dis mal
dis agreed
ad hésion
do omed
distr acted
dilem ma
ct ing
Mal ik
cathol iques
fright ening
Hom es
ten ait
card ed
mental ity
be ings
ass ou
land sc
defe ating
C ahu
left ist
pl ats
guit are
ifi able
w onders
cat cher
cart on
Wor c
convert ible
A sp
sh allow
ed o
ely n
port ug
mot ifs
correspond ant
ramp age
auth ier
un wanted
respect ful
Dé velop
stell ar
D art
per pét
Sch ul
refus er
smo ked
exem ption
test ament
Gueb willer
W TA
su es
thr iving
elle t
consul ted
présu mé
I ain
un fairly
proto type
pos sessions
U ri
oblig ed
AT T
inher it
U Q
envelop pe
requ ête
glor ious
t â
adop ting
conce pts
stat ute
Arab ie
éclat é
E g
dern ess
har bor
f fe
phas es
Duff y
sp ouse
ling er
br ough
ere es
sk ate
honest y
rein forced
D ort
Med al
sy ner
att iré
endu re
ens ed
rédu ite
entit lement
mail ed
capt uring
spark ing
Bar n
Ve hic
show ers
dictator ship
7 bn
ang les
accident al
Sa unders
V IP
ak o
board ed
interrog ations
énor mément
Brew ers
U P
trib une
ad ou
main tient
bless ées
ug es
met ric
p èse
Sou dan
eff ondr
privat isation
un specified
K aiser
Ch y
du ll
Fin alement
ign o
tr il
ped iatric
oub lié
15 4
re proch
consul ter
S end
At t
song writer
Scre en
téléspect ateurs
l è
wer den
pat ino
décenn ie
ter ie
mor te
K irst
dirig ée
v res
compet ence
la ure
Ort iz
umbre lla
I c
mo ist
conf iant
L akes
stabil ize
depr ived
L id
war mer
Em ail
sched ules
ig or
Az aren
Pers ie
Dum ont
Rou te
législ ation
Tick ets
thr ive
New sp
cast s
Ed gar
r ôles
incorpor ated
In dies
S auf
ic ans
Re ally
Ed win
Ital ians
I Q
Rud y
en stein
A mar
l âche
fle uve
bl ows
suic ides
j ar
15 3
Lit igation
Mél enchon
dr ums
r ur
Azaren ka
sil k
med ieval
S co
st ip
dis co
intens ité
vétér an
Reser ved
Ge e
Christian e
hélicopt ère
for ge
Col lection
ub a
Vol vo
K ost
i OS
30 am
Fal cons
reg istre
exc av
subsid y
Fif ty
CO W
Ju vent
ill icit
In sight
S pl
Ste ele
p all
key board
fix er
ist rement
Per kins
sa vers
Bar ker
autom ated
un conscious
ann uels
Vot re
suscept ibles
pro claimed
fore front
barbec ue
sub du
D ET
c ites
réper toire
r aged
El ena
20 5
sla very
land er
goal ie
tub es
suiv ent
sc ot
ét end
comp uls
exécut ion
summon ed
h ated
po em
camp agnes
Prosecut or
AN A
L iè
Sum mers
in ser
sav ons
assaul ting
ator ial
tr aced
Bla go
p ige
puzz le
influ enza
[...]
