#version: 0.2 - Trained by `huggingface/tokenizers`
e r
e n
i n
c h
a n
t h
s t
o n
i e
u n
r e
i t
a t
a l
o r
e s
a r
th e
a s
i s
o t
d er
l e
g e
i ch
a u
t e
in g
d e
q u
b e
e in
an d
qu ot
u r
t o
s e
d en
o f
i l
d ie
a m
o m
h e
un d
i g
i on
o l
o s
e d
i m
a p
e l
en t
s ch
u t
i c
t er
un g
v er
h r
r o
i r
i st
a g
b er
t en
u s
w e
a ch
ap os
n e
a b
u m
a d
f or
v e
a c
a y
i d
t r
u l
i er
ü r
g en
al l
z u
e m
d as
ich t
au f
e t
m it
o w
s p
w h
a f
l ich
il l
at ion
au s
o p
th at
k e
w er
v on
de m
an n
is ch
w as
T he
s o
c k
S t
f r
i th
t s
0 0
S ch
s ich
I n
l y
d es
h a
er s
ein e
m e
D ie
a h
c e
z e
i f
o ch
s en
A n
w ar
f ür
p l
s a
c o
c on
w ith
u p
a re
ie l
h at
re s
b en
m en
h er
h t
el l
p r
n icht
a in
g er
c om
o u
k t
al s
a st
m o
ol l
i en
in d
i v
e st
sa id
i k
ar t
th er
or t
A u
l o
v or
m an
au ch
a hr
p ro
V er
st e
w o
m er
o ut
be i
B e
g r
p e
R e
es s
c t
st r
b y
e x
er n
w ir
2 0
s h
at e
U n
g es
a ge
p er
f e
b r
ä n
h is
s i
u ch
w ie
o ur
m ent
ü ber
en d
n ach
w or
on e
e ar
n en
it s
of f
l l
h as
ul d
F r
ha ve
fr om
t z
a k
E r
ac k
l ie
s ie
an t
h en
ig en
s er
E in
te d
ie s
u g
S p
s ein
n er
w ill
it y
u b
ü n
ung en
i ve
D er
n ot
isch en
o k
l in
an g
d r
g o
an k
u st
das s
L e
o d
st en
i b
20 1
G e
c l
i p
m a
it er
ab en
wer den
om e
sch af
W e
ic k
ein en
d ay
D as
i al
y ear
h n
l and
f er
i a
ig ht
wh o
G r
f t
h l
f o
u e
ar k
i ge
h al
D e
P ro
an s
en n
B r
se l
ä r
T r
ein er
H e
un ter
ge l
n och
M it
ar d
le d
A r
ein em
k om
re d
N e
g an
f en
d o
A l
ic e
as s
ö n
h ad
b ut
s ind
S e
ung s
o b
ier t
d ing
w ur
E n
E ur
c r
f in
ch en
i z
wir d
the y
i den
p o
us s
it e
g ro
th is
h in
ac t
m in
z um
i h
b o
i an
V or
s ag
the ir
ü ck
h aben
ion s
on g
ur ch
a v
ö r
am p
de d
ist er
be en
st ell
is e
wer e
1 9
f l
J ahr
u re
k l
all y
b is
an ge
an der
er e
me hr
ä t
t im
o ver
d a
c ent
a ber
ä hr
i o
ut sch
P r
z ur
ow n
ag en
ah l
ge gen
f ü
mo re
I t
in ter
al le
z en
u te
am e
S ie
j e
i re
N ach
l d
i le
at t
A us
es ch
isch e
p ol
b le
i de
wh ich
p t
it en
a w
y ou
2 00
s oll
ab out
in s
et z
schaf t
wo uld
l i
n ur
is s
z we
T e
A b
se d
re m
ig n
in e
af ter
f f
re i
v en
l er
m al
an y
k ön
at z
at ed
n o
com p
te il
p art
ar y
ac e
c an
ol d
el t
ä ch
it ion
al so
st and
o der
s he
ach t
k ann
p ort
P ol
an z
p en
ill ion
f ir
t a
Z e
or d
M ar
ß en
n ow
ge t
p re
B er
u d
s on
o ther
d urch
b ur
for m
i hr
ar r
ne w
C h
00 0
te t
d u
s ay
g t
ver s
th an
ge b
al t
ab le
te l
p res
ig h
ig er
K r
wur de
Au f
wor k
de l
ier en
e k
lich en
hat te
m on
s ome
r a
ie d
op le
f all
k r
t ag
we iter
ver y
c re
k on
d is
Eur o
E s
un der
h o
ation s
ch e
z ent
re ich
st er
ge w
o g
at er
v ie
I m
b l
ad t
an ce
st ag
M e
t on
ation al
W ir
it t
re e
P l
g h
kom men
S te
wh en
at en
L and
S o
p os
se i
F l
der n
ib t
M on
ing s
ub l
pe ople
ch t
ge st
or s
er t
ü s
f ol
. .
K on
l os
f ahr
im m
il d
is h
re g
ber e
iden t
ze it
lich e
tim e
as sen
wie der
in k
ne t
sp e
S tr
t re
ing en
pl ay
b ar
p or
l ast
le tz
ges ch
U S
1 0
au se
B ut
d ar
w ay
t wo
Un ter
fü hr
co un
ß e
T h
ther e
sch en
die se
ul t
p h
b ack
u er
a kt
in n
in to
ne h
A m
a th
ol le
am m
sch l
an c
sp iel
fo re
Z u
M r
d am
fir st
ha be
j ust
ur n
ter n
as e
at s
the m
z w
im mer
sch e
O r
ar be
at es
am il
F e
en s
F re
a ir
ic al
M in
l au
U hr
ge m
De utsch
t y
H er
u ck
ä l
ig t
1 5
sag te
3 0
Ne w
d s
el y
b all
sch on
co uld
Ze it
v iel
h im
p ar
al e
m us
ent s
m ann
le ich
it z
p ubl
sp r
J ah
i ze
d on
ä u
he l
etz t
R o
m y
ct ion
k en
J o
Sp iel
der s
M en
s y
- -
un den
wh at
her e
b st
o re
ve st
Pro zent
mo st
b es
zwe i
ist en
a il
F or
year s
a de
v om
und es
G es
el d
be t
C o
c or
An d
n is
li ke
f ul
P ar
Re g
de t
c ur
ic t
ier ung
le g
g ar
c al
u es
s l
re is
we ek
d ann
er st
ug h
B l
U m
s uch
th ing
ot e
M an
or y
Jahr en
ver n
es e
s up
te m
ag ain
he it
be c
K in
w en
g ut
as h
K l
tr y
t w
h ol
be im
g ibt
cl u
re t
io us
m ach
u al
re ch
kön nen
G er
u c
sh o
m ed
a z
D r
B undes
h ör
den t
1 8
Un d
ber g
au m
d own
be l
s eine
n ah
D a
k s
5 0
sag t
g lich
ge ben
com e
St adt
go vern
w enn
f re
m ö
e v
c ess
ih re
pol it
g l
Eur op
m üs
p a
ke it
ier te
v is
v ed
lin e
res s
t ing
un de
ers on
A s
m ark
B o
I ch
neh men
M ann
war en
se tz
un s
wh ere
st ar
v el
in clu
w a
ap p
off en
bur g
con t
Au ch
s ol
wor den
h ow
1 2
c i
ut z
em ber
th ro
be st
d id
ou gh
c ted
se it
h and
sh ow
ge d
M a
u se
h ne
o se
m p
at ing
E x
Ar be
on ly
S on
w oll
ah n
die s
r ich
e f
e p
O b
it al
u en
G esch
g re
N o
publ ic
i um
A mer
C hr
n te
in t
b u
g leich
c ut
Men schen
ür ger
de utsch
zw ischen
at ur
re l
it ed
be fore
w ür
off ic
um p
gan gen
am men
we il
1 1
b re
am t
govern ment
os s
if e
s it
in ce
se t
el le
kl är
m ar
al d
ter s
ä s
u f
Jah re
it ies
af t
lo ok
1 4
ser v
d rei
au en
sein er
mon th
k eine
bec ause
P e
say s
au t
S y
hal ten
gen d
in vest
m iss
A ll
man y
si de
as on
th ree
f est
1 6
W er
W och
e le
at ch
Pol ize
be ing
un k
s ur
ein es
In ter
be g
c ed
1 7
he im
at ive
le t
M o
w ell
ie f
con d
am a
s k
ä hl
än d
ur ing
b t
ge ht
de c
ak ing
ur s
l ang
o us
to ld
W elt
wur den
au er
Kin der
or n
se e
C om
wh ile
ß er
Ber lin
b us
p ut
m uss
Amer ic
is on
al th
th en
pl an
l es
F ür
un t
ein s
E l
W ie
h aus
k am
if f
or en
w r
n un
Ü ber
1 3
c ap
y s
m t
ur t
all er
se hr
ch n
a den
again st
ma de
al k
g u
ol og
thro ugh
i ß
ot t
m s
m un
b ro
W o
st em
w om
er sten
as ed
us ammen
N or
d ire
Deutsch land
2 5
c y
he ad
bere its
vie w
ste hen
F ahr
Be i
c ar
ma ke
en z
ing er
ou se
ow er
m illion
min ister
un kt
n ational
we g
ü tz
D em
c es
a ße
en g
m ay
f te
M us
re ad
lie ß
o y
e ven
u sed
pro du
D on
B ürger
K om
d i
en er
tr ag
z ahl
k o
le a
j ähr
f amil
ver b
con tr
W as
le ar
W est
p p
F in
k n
stell t
ch ar
G em
ö ff
C on
x t
th ink
as k
ist r
ö l
hel p
en de
v ier
T his
er in
wor ld
zur ück
an del
M illion
im e
he d
m il
ro w
ä d
u ß
P h
z ie
St a
sel bst
iv en
ä si
Polize i
Au to
k le
.. .
te am
w in
ver l
h ome
go ing
op er
e very
C hin
ste ht
sch n
it ik
l aw
ot o
b ank
me ister
r u
k ur
Chr ist
ge f
l ess
y our
s ow
G ro
st ill
en ce
K o
b esch
die ser
iv es
Le ben
n ie
diese m
ne ue
ke hr
g a
er r
pro v
th ose
et s
w w
J u
A t
re por
B es
K ar
Fr ank
Sch l
em ent
af f
i vers
o und
k now
f our
r und
dam it
r ight
v ol
M ich
ta ke
ic s
P res
re st
r an
st re
The y
j etzt
hal b
fol g
ie den
m uch
ar ch
or k
sh ip
ap pe
sich er
sho uld
et t
S am
we ise
Million en
M ed
ic es
O n
sel f
b ig
s ign
ding s
we gen
Au str
S a
En de
ain er
if t
ge hen
u res
ist s
Ein e
o ol
ich te
ne ed
sein en
B ar
per cent
Sch ul
k ün
vie le
er klär
S he
re f
4 0
c ial
st o
h ö
in ess
müs sen
En t
a i
gro up
s ince
S P
am es
ill i
en e
ag es
be d
h ät
A ber
h ier
con om
hat ten
ä tz
go od
B au
M al
r icht
l ong
g ot
au pt
J an
s c
im p
op p
A f
we en
s atz
l ung
we it
au l
ie g
H aus
än ger
ul ar
b in
W h
ä re
w alt
gan z
as se
h igh
a im
g ang
ag er
ne uen
pr of
g y
c ke
be lie
is sen
C he
o hne
ihr en
sp on
st at
ment s
n um
all en
ier ten
B ay
s um
r un
C ar
sein em
ün f
v ing
& #
se hen
Te il
än der
S V
ct or
fahr en
st ate
mach en
kom mt
u le
P art
sow ie
St re
d uring
D och
p f
e ben
E U
I s
k auf
A kt
et wa
l ar
sch w
J un
r is
bo ok
ent lich
c lo
d och
ver gangen
b il
ä ter
il m
bet ween
ex pe
T here
b ach
h ard
g ab
i x
coun try
it ten
de ut
letz t
F uß
s m
ar ound
G l
re al
fo und
ll en
ar m
v es
am er
isch er
ank en
Gem ein
or f
pol ice
2 4
inclu ding
Br it
J ähr
form ation
b au
v oll
äl t
S en
v ent
or g
ihr er
te st
it ät
e conom
comp any
war d
es en
c are
d ien
Gr und
S c
p ay
or gan
p iel
se ien
ion al
r at
ne y
ig ung
s ha
pres s
f ach
J ul
un ser
g ing
Ob ama
s ub
e igen
in nen
are d
Austr al
ander en
ar s
Son n
at or
2 1
stell en
n or
ie b
st adt
to p
i or
alle m
ig a
st u
201 4
an gen
1 00
for der
ne xt
R ück
we hr
if ic
da bei
hal t
c ts
l assen
f ast
om men
6 0
g aben
se cond
2 2
Q u
ie le
M c
äsi dent
p erson
si ve
et was
c amp
lo ck
arbe it
ent en
st it
be tr
z ial
D ien
sch r
Te am
g lie
201 3
l ife
o c
oll ow
T hat
n ight
ch ange
S er
b ie
W ahl
ig te
woll en
L u
Y ork
l a
ber t
H ol
19 9
M ün
Jo hn
le x
br auch
se ason
th ese
fall s
ä ft
w ant
k er
a el
w on
vergangen en
Woch en
ol f
att ack
H and
gen er
pr om
Pl atz
af ür
t urn
sy stem
cor ding
ad d
ä um
ze hn
j a
cont in
Sp ort
h ig
g ht
iv ing
gr ö
g ame
bus iness
in a
ut en
sp ort
wer de
ze ich
for mer
qu est
U r
le ad
son dern
re spon
ein mal
s icht
op en
2 3
T or
F amil
wo hl
V on
pres ident
w icht
or gen
st änd
i der
Al s
do es
w an
f ünf
bei den
ne ar
mit tel
Tr ump
c all
d pa
st att
od y
soll en
n ung
ot en
S h
schaf ts
to o
Sonn tag
l ing
ab il
ü h
ag o
N ational
i hn
I f
C l
el n
miss ion
ö s
as ch
ex per
if fer
it ag
in de
le ft
be kann
num ber
G o
O ber
M ark
gro w
o un
pro gr
dr en
pl ace
el s
i als
in cre
W or
f iel
f ind
ck en
u str
cal led
mö glich
Land es
on t
h ap
is ed
Arbe it
H o
f ollow
am ent
sit zen
mark et
il dren
Chin a
po st
ier e
f a
F C
l age
h of
j ed
he ute
an other
r y
for t
id ay
sch ool
T V
ih m
D enn
n ten
Un ited
Europ e
201 5
m at
s ame
famil y
D av
t ak
Y ou
ip p
all es
it ter
rich ten
W ar
d ro
z usammen
st art
one y
ü hr
uch t
G eld
ach e
z er
W enn
se arch
D en
Mich ael
f ar
Au g
ge le
up pe
al en
ot s
ge hör
re cent
po in
pos ition
L on
m ember
m id
L i
ain ing
d ort
bo th
K reis
Ju gend
N ie
L o
s w
ver sch
and id
p ass
f ive
le ben
ü t
ähr end
ut ion
l ik
201 2
ess er
R us
cl aim
ich er
re port
co ver
en den
Min ister
w el
am en
ag t
it ing
ig keit
way s
M er
b and
igh ts
ge stellt
r ent
Lon don
n äch
mil it
än g
ag ue
bes on
r en
k te
m ir
P o
ur y
te ll
in en
n ing
ein z
lo b
ain ed
ander e
J e
2 7
read y
be h
z ähl
S ou
re cht
B ank
l auf
ot z
8 0
K ir
ch ildren
Fre itag
u ally
fe ct
o ung
r ad
letz ten
he alth
al es
th or
h op
Z we
Fuß ball
p ower
Mus ik
h ist
j ob
is m
sch wer
R es
k ein
pro ble
B ild
n es
n a
vel op
M ay
zu g
in c
amp f
En g
te chn
H am
f eld
l agen
ul l
co ur
re le
v i
or der
kon nte
S an
Se p
Sam stag
k un
u ell
se x
sup port
t schaft
ta x
Americ an
f ä
m ut
Unter nehmen
ion en
ü cht
aus ge
v ic
an st
de al
ac c
co st
ch te
kön nte
C D
ä f
O p
b s
f ac
2 6
re ally
at i
al y
SP D
u red
T o
u ge
hal f
mit t
d iffer
sch ein
tem ber
Tr ainer
po int
2 8
T ag
inter national
iv ed
ain s
H ö
j or
est er
Par te
Sep tember
ie t
fr ien
ir d
day s
all ow
str aße
h ält
A d
7 0
V ol
is ion
Un ivers
d afür
is hed
on s
Sch w
S pr
Fr au
on es
sch ließ
D an
ch er
nah me
month s
al ten
da zu
il t
n ess
ex pl
a ke
Ar t
P f
B ere
Reg ierung
ze ug
ger e
m el
is en
d ür
ret urn
aw ay
Ge gen
l itt
l im
m ak
Pol itik
ab end
A pr
m ich
mo ve
u ation
ne ver
Wo hn
le y
us h
wom en
si x
f ang
K ur
qu ar
l ot
Pres ident
ot est
Th om
m et
G re
a ign
pl atz
und s
os p
S pe
pr iv
Fe uer
fin den
st ud
Mit glie
f ig
K le
D es
Apr il
m acht
wer k
f ur
M art
tr a
c ase
str u
Gro ß
p op
F est
S om
Me hr
qu al
i red
pl oy
m is
om in
im es
F ir
aller dings
z un
Sa ison
j o
at r
B re
p ast
nicht s
Sy r
to ber
Fr auen
w ick
9 3
ing ton
ü d
v al
of t
w he
cur ity
le icht
de velop
ou ght
th ough
Jähr ige
m ight
F all
an ges
ih rem
201 1
f fen
is piel
los sen
P ark
w elt
führ t
si a
to ok
ster reich
me et
st ütz
us ing
P erson
he its
ch s
Mon tag
Be tr
tw och
con c
ac cording
er ste
gen ommen
Pro ble
c ity
h ouse
Z ahl
gro ßen
i ke
200 8
grö ß
jed och
fe hl
ö t
is iert
c ame
es sen
b it
im in
ac r
on y
Che f
gre at
ke ep
St and
c lear
ter r
schn ell
an e
camp aign
we ver
los s
w äre
br ing
off er
S k
lich er
m ain
H il
ä mp
m ber
repor ted
fr ü
deutsch en
ner stag
le gen
m oney
Bay ern
z o
imm t
2 9
G u
il led
4 5
h our
si ble
H aupt
stell ung
fe w
ein fach
No ve
Sch r
Mit tel
l ater
Pe ter
Mit twoch
S up
com mun
Nove mber
f act
Bes uch
ma jor
ad ded
Fin anz
B C
sche id
u ar
nah men
um ent
gro ße
D am
il y
201 6
un ch
invest ig
Fr iday
He im
G ener
le vel
s u
US A
Sta ats
iv al
än de
kl ar
Fl ücht
weiter e
b ild
o cr
Don nerstag
ent er
y oung
E d
9 1
co urt
ik an
D ar
gew esen
We g
ind ustr
W hen
ach sen
je ct
ck er
Sou th
inter est
wür de
soll te
c er
re ce
And re
t ro
S icher
M il
200 9
it ions
ig ten
Dien stag
Dav id
se ver
y ing
bis her
zent r
we st
w n
litt le
h um
bere it
ann oun
ear ly
lau t
am s
d re
j ahr
v ious
Aug ust
ch sel
c ord
B ü
k el
at ely
da von
N ot
B en
äch st
ar den
ult ur
age d
th ers
ist an
setz en
ard s
ach en
n al
W ed
ent r
L ie
ap pro
Mon day
T ues
com ing
gem acht
M ot
lie gen
ide o
sie ht
c ast
S to
D is
wer t
Str aße
ro om
and s
3 5
Tues day
de ath
Zeit ung
lik ely
b illion
bet ter
end ing
hin ter
i ans
g ie
se em
ze igt
l ange
fo ot
so gar
st ark
H el
w ent
offic ials
der zeit
gr ün
Ver ein
sp l
cl ub
R ad
u z
v ot
fin al
n am
den n
ar ing
l äs
hät ten
st a
with out
ra el
it i
au thor
c olle
An gel
ww w
part y
P unk
hap pen
gr ap
in ner
sp äter
tr ans
ic ally
al ter
fall en
si der
R ich
reich en
gr und
S el
Jah res
lie gt
CD U
fin anc
p ot
S und
ke iten
expe cted
dar auf
201 0
m ein
gro ß
C al
O ne
U K
sp ok
ien ce
dies es
H ouse
B est
an ger
tr ad
Inter net
R om
he iß
at ten
je kt
some thing
ges amt
ation en
Pr äsident
f ace
wom an
s uc
b ased
z war
I I
Wed nes
Th urs
clo se
id es
se en
Re public
H ar
pol ic
Woch e
Wednes day
b esser
v ir
p unkt
af en
Thurs day
er war
om ent
kun ft
did n
an de
B ahn
h am
b ody
ert ain
ad v
5 00
fe el
z iel
H och
Arbe its
al b
s ug
ie ben
Sund ay
al ready
Die se
geb nis
s us
Bürger meister
hr en
u ary
a be
sp re
W ash
h andel
Sch we
whe ther
Ne u
e cut
Thom as
J ust
M illi
I S
unt il
part ic
um s
e ach
Was ser
gem eins
arbe iten
ge geben
b ab
h och
deutsch e
h ar
neh mer
im port
M ü
k reis
St u
polit ical
Ein satz
ör der
n at
ich tet
l en
ke y
D ort
C ity
le ast
ig es
schl ag
Ch ar
s ing
cur rent
in j
m aking
tr ä
K re
äf ts
schaf ten
Sie g
Wash ington
g n
9 0
ce pt
zwe iten
b or
sten s
S al
deut lich
P al
Pr of
des sen
d orf
arbe iter
em ploy
ex t
gr amm
act ion
lea der
is ing
b ahn
ta il
age ment
re search
e ur
In d
jähr ige
th ird
new s
fr ont
e ing
z t
Z usammen
br ingen
n ed
wen ig
se chs
M ö
den en
C r
u ed
as es
oll ar
ut es
e ver
B is
h it
P er
Nor th
ge br
W hat
p as
3 1
Z um
st ein
th ings
Sch ü
t ion
L in
tr itt
ger ade
mus ste
f ire
w är
Nie der
l ist
so ur
Gr ün
D urch
A ben
iden ce
m and
kur z
l iga
ich ten
M än
i ben
acr oss
Fe br
m als
Wor ld
f ilm
work ing
schl uss
f ree
Mar kt
qu e
to day
th re
a x
quar ter
iz ed
w ater
Mün chen
se ll
e h
pr äch
pl ac
in vol
Or t
Gemein de
ür lich
it el
wür den
ne e
Eng land
Ph il
comp an
Brit ish
e hen
w ort
h old
st ieg
ap an
I N
i ver
i ent
de fen
W olf
ut t
A ir
so ci
l ier
H in
I sl
ag re
re cord
at ic
our nal
F o
C an
t ar
M är
ir l
stat ement
at a
St ad
u gen
Da bei
ein ander
Le ague
op f
Se it
ct ions
B ur
ik a
am ong
im men
ro ad
for d
Is rael
K e
Z iel
w ind
ät ze
Co un
c le
bur ger
f ut
heiß t
in formation
l ow
die sen
wir k
tak en
sch ule
Br and
t un
W ith
ck t
st är
I r
A lex
F ühr
B esch
ic a
c arr
G ä
differ ent
Mart in
lo cal
T our
con sider
rech er
or ge
conc ern
com es
spre chen
C or
i as
se curity
S atur
F oto
g as
f rei
cr it
Fr age
at ors
gem ein
B el
e ig
In vest
un ge
poin ts
G ast
milit ary
up pen
S m
E R
fin det
ful l
lie ßen
be wer
Milli arden
Satur day
f und
olog y
an ts
m ust
K il
ex ecut
te te
say ing
Min uten
pl ant
abil ity
tim es
woll te
spok es
be come
p ark
de st
t ot
ev ent
w issen
Te le
com mit
s ent
O N
ga be
cre t
k a
e he
A pp
in es
al ways
hät te
er ne
der al
ha ving
on d
ch o
b ad
H a
ch ief
Mann schaft
w inn
Gesch äfts
sch utz
suc cess
s af
fol ge
sh ort
h y
Ver kehr
V ers
l ungen
F ol
An gaben
g ive
contr ol
sug gest
St ates
bre ak
Vor sitzen
R ed
teil te
mar kt
lar ge
zo gen
E ner
m ot
kn own
f ern
str ong
The ma
med ia
Austral ia
v an
m ag
sch uss
ich en
tre ten
w ährend
pres ent
t alk
enn t
Die s
spiel en
G ar
Isl am
R u
member s
A P
G en
ver ein
c us
ris k
b lo
red it
po sed
Dem ocr
ask ed
fer t
anst alt
on line
New s
m atch
üs sel
sa ge
eigen en
leg al
ein ge
Som mer
if ied
ly mp
fiel d
st or
erklär te
B et
c ertain
Leben s
ier s
be w
der en
viel en
O lymp
b ill
ig in
al ong
min istr
Er folg
erklär t
än dern
Ge b
au r
B ad
g iven
wen iger
ten s
bekann t
ac y
ble iben
d au
re ach
T age
sever al
pos it
play ers
M y
m b
k ämp
te id
w atch
tr agen
akt ion
ä ß
lob al
T err
at iv
B il
P aul
Af ter
sha re
Nach richten
is mus
sch le
part ment
vi ol
on nen
F ace
it te
tr ies
de te
sch ied
ab r
fü hl
A fr
s co
f lo
be ton
R icht
W il
f ight
Ent scheid
icht s
Gr ü
b an
R en
look ing
H is
führ er
z ern
en ough
ble ibt
war ds
ein ige
bu il
on str
de f
ph one
cl ass
Univers ity
St ate
I ran
t aking
ach ten
dec ision
import ant
Un ion
compan ies
fr age
beg inn
k illed
St ar
ib le
201 7
financ ial
gebr acht
Dr uck
lo st
B uch
iv il
progr am
In tern
t al
mit tag
ent wick
T ür
O k
ih nen
ell schaft
Europ a
v o
F ilm
W ien
to wn
ie ß
Er gebnis
f urt
os en
g ute
wicht ig
ßer dem
Sp it
a ßen
J apan
Feuer wehr
C ol
D o
ut ter
T re
sm all
K ap
are a
ne te
fut ure
S C
L ab
eben falls
Ö sterreich
c ust
läs st
T ur
ll t
Das s
f u
El tern
he ld
te le
Face book
D ann
An fang
3 3
l ive
sp ar
näch sten
act iv
P ubl
we chsel
le iter
Pro du
Europe an
ander em
st op
kün d
stand en
den ten
h ung
pos sible
K un
ge kommen
ä m
m as
g ent
le it
k einen
dar f
Be ispiel
th ought
Schü ler
b at
k ind
19 8
ain e
ün st
l äu
es se
Deutsch en
y er
zie hen
b as
L ast
Me ter
gh an
w ahl
s of
sch re
gen ann
we iß
f an
zun ächst
to m
a un
V ier
pr otest
C up
if en
Mit arbeiter
te e
äs ent
F ern
osp ital
B ern
ik er
die d
A N
em er
Jun i
er folg
O ff
l ern
tr otz
M s
on ce
ll er
A c
Pl an
Christ ian
D u
t schafts
week s
S ol
ele ction
coun t
spiel er
M ag
l ate
ro und
dire ctor
ur en
Spiel er
h om
c il
u th
St unden
G el
Al le
d ou
f un
f ell
dr ug
Er st
h or
u de
sche iden
p ite
ant wort
l at
D i
äch t
l ag
Mar ch
vis ion
frien d
ot el
gro und
beh ind
it ä
ic o
ne ben
rei ben
f on
be kommen
v ice
sch t
ul ts
in er
or ts
kön ne
N ord
a ver
wh y
wo od
al te
se ven
h aupt
In nen
j ud
ander s
dien st
ä fte
pr ote
ap er
fo od
En tw
K öl
Intern ational
hn t
200 7
Ma i
W illi
M at
f and
com pl
serv ice
Ges präch
Sch war
r ate
ge h
je den
E le
n ation
re qu
dr uck
teil t
k ten
ge ther
3 4
ne u
z ess
bo ard
comp le
sag en
ch ild
Be g
ther n
Americ a
ä us
con f
r up
econom ic
y et
do ing
7 5
pre vious
of ten
P reis
t p
D re
mo ther
sto ck
try ing
ä ger
a der
tr av
lin ge
w ide
Famil ie
Par is
g irl
Hö he
pro cess
ent ial
h re
ul ation
de li
M el
l on
3 6
re ason
h ner
sh ot
imm ung
e as
st elle
C lin
O s
A S
ast er
si an
Gä ste
spe c
pro per
kn app
Ok tober
des ign
ber ger
Gener al
s old
In formation
hour s
anc es
ell en
al most
ach te
d one
c ol
follow ing
quest ion
T w
ar rest
hum an
fer ence
on a
fur ther
gef ähr
play ed
il le
k ill
id s
Män ner
belie ve
Ex per
g ilt
gen au
d ig
ser ies
kt ion
Reg ion
kün ft
Dam it
o il
econom y
Pol ice
ter m
fir m
lin es
W inter
ith er
ht tp
off ice
so cial
Sel bst
T itel
des cr
d ah
im al
kön nten
S G
k aum
wir tschaft
P rem
Le ist
s im
p an
Entw ick
c el
is ation
H ier
Med ien
M or
to gether
Pro jekt
St art
S üd
p ers
e y
ful ly
ges etzt
co ach
Pres se
h iel
coun tries
get ting
in st
h nen
It al
ze pt
in fl
polic y
Aben d
for man
ge ber
3 2
S ome
Pro gramm
ver kauf
o v
pr ü
af fen
f el
der e
iss ue
B y
comp et
B all
forder t
kommen den
ug ht
kt or
B us
führ en
p ack
m oment
ko sten
con s
industr y
prof ess
fe at
grap h
A R
g ames
ear lier
announ ced
Str aßen
K ultur
zähl t
stell te
Or gan
Se ite
an ten
b ot
gesch lossen
ehe mal
ste ad
e qu
stud y
vis it
B or
ge be
to ur
beson ders
M os
ch ten
N icht
C our
it ch
ate g
af fe
st ay
fin anz
Punk te
ef fect
ir k
So zial
for ward
Af ghan
schließ lich
b ul
priv ate
S U
Te chn
grow th
Kr anken
pl ans
W el
l ö
Mö glich
land s
kon nten
D ollar
Wh ite
zu letzt
P re
Mär z
em p
ent sch
ro le
orn ing
K ön
o thers
nat ürlich
de ad
T od
it r
d ue
Zu kunft
iv id
w alk
k re
Jun e
den ts
sch au
ic ult
out side
n ame
tre at
schl ä
ma ß
dr aw
pr äsent
3 8
In stit
ben ef
en a
Brit ain
offic ial
l ight
S il
serv ices
co up
ber ichte
r aum
st aff
De c
star ted
ho st
fol gen
me an
Nach t
uch s
cour se
Mitglie der
ges ehen
r ul
h ein
cap ital
Ste in
P ap
proble m
sie ben
An geb
Jul i
with in
ach er
en ch
B unde
Ho wever
zahl en
st ory
v ict
setz t
her aus
gr iff
Sc ott
Re ut
Famil ien
cust om
N ur
auf ge
Ko sten
A T
z el
gehör t
la unch
f il
Gesch ichte
N ow
p s
i led
Gr uppe
res ult
Bl ick
is l
ver letzt
kr it
n on
v ote
terr or
w agen
5 5
spe cial
U N
spe ct
does n
wan ted
tr an
d le
I ra
a ther
is se
bl ack
soll ten
V iel
Kun st
c au
min utes
T om
Clin ton
M ad
execut ive
r id
fü g
it or
je der
op s
expe ct
au to
le gt
ins gesamt
i od
Fl ug
st on
sch er
B ed
ition al
Ch amp
B ro
v ideo
Ira q
d ata
Wh ile
jo in
w ahr
as ing
w end
op h
sp ro
öff ent
p ict
Wir tschafts
k ir
hop e
we is
g lau
Z ug
in o
K at
p ati
ab sol
t t
id a
Sch ule
Au ßen
hist or
ed i
L ö
F ach
ier ungs
Po st
3 7
lie b
partic ular
S it
teil ung
me as
g lobal
im pro
al ition
row n
ü cke
d iff
kam en
Mer kel
s ales
uch en
lo se
T est
Entscheid ung
inter view
K opf
b lock
F rei
W M
E ast
fa ther
Austral ian
re icht
arbeit et
z us
n immt
sa w
Ber uf
ze igen
spr icht
4 4
age gen
war t
jähr igen
G old
f ten
Besuch er
h an
T at
des halb
f as
b our
mitt ler
i for
s ure
gegen über
se qu
p assen
Sc ot
contin ue
for ce
be gan
St utt
m es
pr ice
at tr
fe deral
dam als
lo ve
n t
reich e
K ore
D P
g ress
Le hr
Ber g
meet ing
J ames
ge worden
who se
sup er
re fer
ü b
ser ious
rele ased
j ün
K n
re co
ai led
St ud
en zen
ll ig
il ar
L os
Un fall
3 00
R uss
R ob
Be im
in form
er halten
hist ory
k ar
b om
führ ung
g in
con sum
Fl or
prof it
weiter en
Parte i
Richt ung
Vol ks
Kom mun
v ar
Berlin er
le ist
Z w
Ne ben
H inter
frü her
T urn
kom p
Tw itter
appe ar
Sup er
at tem
mehr ere
4 8
ab ge
ger icht
se ek
per iod
ad es
müs se
ück en
ter min
p ick
buil ding
gef unden
y n
letz te
ifor n
Ste uer
Kr itik
de b
Sp an
Ver anstalt
isch es
ad a
T ages
pr ison
s an
J ack
er sch
ik el
p le
ch allen
s or
E L
Fr anz
zu vor
best ät
F ans
I de
M ur
sk i
ör per
Re al
sche f
Stre et
u k
t ain
Lu ft
go al
M iss
re ve
pa ar
n ers
Bere ich
ig r
se cut
d iv
H ann
w and
Sch au
diff icult
Q ual
g lichen
W ill
S im
b orn
Me ister
Jo se
c ell
m äß
him self
H alb
C ap
versch ieden
Rus sia
e ight
st et
Kar l
m orning
6 5
wo hner
spokes man
ün d
g ers
per forman
Cour t
cr is
use um
fahr er
J etzt
ber ichtet
Sch n
near ly
wr ote
In s
ex p
ong ress
gr uppe
T agen
H or
haus en
Vor stand
äl le
s imp
so zial
wor th
qu ick
commun ity
ome ter
reg ion
W ett
play ing
w ife
M ein
ad ministr
H ill
anz ler
p ain
b are
Be z
ent ion
sp ir
L a
kle inen
fahr t
eig entlich
Sta at
sy ch
zu dem
man ager
B I
a head
K olle
K ampf
p oll
c andid
ih nach
e her
ik um
d ist
N et
B ill
lead ing
spr ach
gr ü
ü l
s om
k ampf
c tr
ant i
le br
H ow
Dan iel
Jul y
port un
incre ase
De z
k ennt
W ind
ken nen
show s
sign ific
le i
ud get
ra ther
Deutsch e
We iter
ür z
T imes
cret ary
l ig
3 9
uf fer
ie ty
c ause
wie sen
L auf
sel ves
av ail
4 6
st ation
in ge
ah men
M utter
ch ester
zeit ig
ge ts
N atur
M et
m arr
P ort
te gr
y le
-- --
Fr ench
itz er
N etz
ph oto
repor ts
A C
T ref
ind ivid
s cr
her r
b ir
mak es
ab l
an a
All er
ut er
sup por
bl ick
pr ices
vic tim
N at
Führ ung
De partment
tot al
fore ign
person al
Fr ance
ent scheiden
imin al
unkt ion
h ospital
Scot land
tr ack
br it
se a
W ald
os sen
Dez ember
r ights
gen cy
Wir tschaft
mus ic
lea ders
W all
an walt
dar über
ver kehr
Re gel
bu y
K ü
L au
under stand
ne ues
Ro bert
Ener gie
pen s
S w
l änger
gele gt
P ak
t it
Zwe i
Betr ieb
O R
r ing
Jan uar
u ted
op ä
e ch
op portun
W ert
erwar tet
B u
ev idence
ag ing
c a
Part y
er en
Ge orge
ä te
akt uell
unser e
4 9
wirk lich
um en
ange b
ver d
i ded
ar g
ein st
T im
me isten
par ents
4 7
f air
at ives
j unge
bec ame
do g
bo y
P ass
U kr
iden ts
Z entr
he art
am ten
V f
b att
K unden
äu de
unter stütz
s burg
hl en
W ährend
ent ly
f al
s ite
äch lich
R und
19 7
ip s
ch air
st age
d agegen
T op
mo ved
Frank furt
in ten
nor mal
be ge
S itz
Terr or
U l
An t
je weil
Unter stütz
Au gen
F ort
Q ue
verb and
gh ter
hig her
walt ung
mach te
inclu de
r ace
recent ly
Grü nen
T ex
s uffer
b on
g ner
ener gy
D aten
ro ck
g art
pl ann
cl os
schn itt
ce lebr
gener al
ch ance
Mon aten
T al
200 6
signific ant
gemeins am
N un
d istr
weg s
sch ul
O st
O c
zu folge
be teil
Ver b
res ults
ütz en
Republic an
H andel
mö chte
lo c
f ung
Zu dem
ell er
B BC
f ans
cover ed
lie ben
ges agt
richt ig
mo del
f ail
c op
re form
do c
äsi denten
dis c
Or ts
cent r
Proble m
ut in
reg ul
dire ct
s al
Cl ub
for ces
big gest
F ar
fr ag
ver t
coup le
Jan uary
Go og
ol a
m ur
E is
lea ve
erne ut
J er
As s
stell er
ges etz
M ain
R aum
iss ues
On line
turn ed
av ing
au d
stu dents
pa id
K ind
V iele
For m
pr act
d om
us es
work ers
vir on
D et
le b
Str af
H ans
ch amp
un n
care er
c up
run ning
Le ute
Sicher heits
ord in
sp ot
mo bil
ga ve
ne ten
sein es
c oll
oper ation
Flücht linge
ac cess
me ans
Bunde stag
Al t
work s
We ihnach
gr if
tre ter
re gel
ot os
Reut ers
sho ot
zeich net
avail able
h il
ä chen
play er
w achsen
Au ßerdem
sch ätz
trav el
be ding
Cal iforn
über r
he iten
K a
ap pl
B on
investig ation
i ally
r i
an aly
ut zen
ü m
h off
4 2
R ett
R est
de fin
F il
Bundes liga
c ing
Sit uation
Mit te
M ex
bis lang
group s
schaf fen
Wochen ende
Don ald
bei de
cris is
exper ience
As soci
Febr uar
L aut
reg ierung
sp ace
I hr
tr ain
lich keit
invol ved
Min ute
Chin ese
fl icht
rel ation
im ate
Sp recher
frien ds
be sten
nee ded
reve al
rece ived
Ger icht
ist e
o ben
wh ite
ge tr
prov ide
c ivil
Gr ie
ste igen
Goog le
ap e
We il
et ter
j u
t in
P atr
dar an
öff entlich
aver age
has e
D ro
kle ine
Schwe iz
Hil fe
Beg inn
Par l
bo x
om en
proble ms
Heim at
App le
den ken
any thing
br and
sit uation
F örder
Fre und
C E
l u
amm lung
m em
et y
l ad
re view
or igin
Teil nehmer
Se e
author ities
B as
H off
ed uc
descr i
de stens
ie gel
il ity
no thing
geb aut
D F
er hö
T u
rech ts
ab o
Ham burg
pro chen
des pite
d an
lat est
h app
iv ely
M ail
T er
Californ ia
lich es
viron ment
sen ior
Verkehr s
ie gen
Mü ller
Ma ß
Sch on
nah m
ste iger
h under
h on
show ed
sy l
Spit zen
job s
is es
c ir
need s
f it
Ma x
j oy
s itz
B al
Dec ember
E m
performan ce
y al
am in
r on
Kon tr
s cre
Kr aft
sim ilar
l ower
st ates
ag ent
S how
h äng
so on
S and
pre t
a ß
dem onstr
pot ential
ne un
z ert
P os
o st
Her r
ic le
Rus sian
4 00
Schl uss
Ein zel
Entwick lung
brauch t
spiel t
än ge
es pe
comple te
sing le
R olle
zwe ite
An ge
minister ium
du str
lau b
äd chen
th ous
D ire
si bil
Person en
he av
ch anges
fr ieden
sp ann
foot ball
r ates
h ann
bere ich
J ob
B A
ho wever
Le it
bie ten
l ungs
u el
Bl ack
L änder
handel t
in iti
g un
j ah
Bo den
Angel es
h le
Be hör
Ä r
com ment
Pr iv
ic an
is ierung
some one
av o
ver z
J ournal
W issen
hl er
pr äsident
s weise
mus ik
cost s
Ste fan
sch ie
M P
ute t
Aller dings
gut en
In dustr
bab ly
anc en
uch e
ne uer
appro ach
if y
ass ist
d ate
tre ffen
pop ular
B S
Proble me
c as
f ass
H of
co unter
Stutt gart
Re ch
s qu
str ug
setz ung
P an
offen bar
was n
alle in
berichte te
g st
eur opä
hin der
ge führt
A F
H en
Köl n
sum mer
aul t
f le
sp ent
ä hn
imm edi
fr ist
G over
ta kt
ven ue
c ann
E he
press ure
li ament
Afghan istan
h ang
dür fen
En gl
ch ter
inde st
l ives
el se
ab ly
um b
G ut
am b
E ar
Gl ück
l ingen
R ahmen
us st
ext rem
hiel t
verl oren
H arr
un ded
Ger man
N amen
öl ker
me ist
r ac
che ck
we ile
T ier
Kur z
ly ing
öl f
4 1
Ar ch
tr aining
F er
iz iel
h m
sp ending
act ually
4 3
Se iten
d ad
ins ur
m n
contr ib
r ück
i os
s at
ik o
crit ic
En d
Th ese
B and
Andre as
de ll
disc uss
work ed
ater ial
m orgen
Zu sch
appe ared
künft ig
ten d
iz ation
week end
ger n
ze igte
D ay
id ing
inde pen
Russ land
ci ally
sur pr
it es
progr amm
Kön ig
Ar ab
ve y
ür t
Ch ance
ty p
Information en
C ongress
än gen
schein t
he ard
N och
pro bably
ide a
fol gt
Kil ometer
l iving
Frank reich
L ink
alle ged
f elt
claim s
z one
ex tra
bild ung
Kon zern
19 6
Z ur
O ffen
um mer
p ie
au ßer
auf en
attack s
ok al
Fahr er
develop ment
är en
Sm ith
them selves
ve h
vent ion
w ig
ein igen
äus er
in zwischen
Op fer
M ore
b ürger
r ise
lar gest
are as
inter ess
br uch
rem ain
Jo hann
pro ject
tr ade
ill er
C SU
nis se
M ädchen
R ot
an zen
h uge
le bt
kt ur
be vor
dem and
ats ächlich
j ungen
b ü
ci ent
A ut
Tr otz
öff net
amp le
B rown
pe ct
sch ö
V ir
äum e
0 5
set t
am o
uc lear
s am
G ott
ver ständ
K ünst
Ver eins
Ge org
0 8
R ang
K andid
Ges und
in z
C enter
Sch mid
na he
ch es
ke pt
Wie der
mat ter
Sch e
vict ory
än gt
b al
kr aft
S ha
ok rat
hol t
N utz
administr ation
Grie chen
pp ed
ös ung
L age
F A
ro p
con ne
al er
U R
V ater
er l
lauf en
let ter
Sy stem
Rich ard
Kr ieg
pr im
Wer k
ne igh
Oc tober
relation ship
k unden
ä ne
ständ ig
rem ains
9 9
me ter
sof ort
ic ations
mark ets
t or
b ald
ar en
L iga
Fr agen
po ol
an al
I T
ver teid
publ ished
wr ong
id ge
sta at
c row
dür fte
Her z
techn ology
per form
in come
de tail
lon ger
p ul
Alex ander
p air
Re cht
Ro ck
p red
rele ase
O l
Prem ier
char ges
to uch
tr ial
r oll
se m
m ass
c ases
Pak istan
pl om
b i
op t
st ück
fe ier
lin k
C N
z te
char ac
erst mals
tel le
G ed
ad mit
sch war
et te
mus sten
ran ts
Da zu
gl ück
M id
h ieß
Land kreis
offic ers
än den
fr agt
every thing
ual isiert
s ess
agen cy
che f
200 0
eben so
n ine
E S
gr and
Pr otest
invest ment
p age
ör t
sch ön
Re gen
min destens
i ßen
S ach
st äd
ele ctr
sl ow
ac count
ct ors
V o
con du
s we
m ult
in side
dau ghter
so genann
deli ver
15 0
h aft
V e
r ange
call s
c ash
wan ts
Ukr aine
h äu
con ference
R ath
au p
Ver hand
eigen e
F DP
k ord
viel leicht
mur der
ste p
be ste
Mot or
P op
contr act
itt ing
mo der
T abe
Gro up
und red
Americ ans
Pl ay
E N
end s
p m
5 6
m ind
Akt ion
such t
c redit
grow ing
winn ing
Wolf gang
Ger many
Dien st
Ste ll
spe ak
bro ught
who le
Unterstütz ung
u fen
beton te
Kle in
ic kt
St at
pre sen
kr äfte
part ner
fe kt
y an
geb iet
was ser
Am ts
Ges etz
G leich
Ital ien
Fr üh
Lab our
bu ild
sch ließen
m und
R a
5 7
en ded
eh men
S u
for ced
läu ft
s ah
fr ied
ic ated
impro ve
K ing
j ournal
5 8
r ieben
Sicher heit
gew ähl
W al
unser er
weiter hin
ick en
er zählt
ver treten
T em
and al
R ie
Art ikel
bank s
p ted
let t
de bt
schw ier
ö hn
äch e
Syr ia
au ber
P or
qual ity
Ver trag
de ep
fin ale
Fr ie
D R
n uclear
h us
dire kt
S ein
Er mitt
acc used
tr ied
er w
descri bed
dr itten
Rech ts
re ten
b udget
em ents
ult ure
V ill
V ideo
H ome
sen se
off iziel
T äter
Sen ate
e g
Ver gleich
help ed
posit ive
T SV
imp act
u elle
Fol ge
zus ätz
qu ite
thous ands
claim ed
pers ön
größ ten
zu frieden
Ge bur
Tr an
p unk
wur f
Ver füg
every one
u ce
str eng
an te
ank s
Pro zess
G as
s le
happen ed
vers ion
H um
ow s
Tele fon
Bü hne
n s
opp el
H y
ig ent
fo cus
200 5
5 2
m ing
got i
str a
Febr uary
stru ct
bro ad
ans wer
look ed
b ay
custom ers
Am t
m eine
Co ach
Vorsitzen de
0 9
re in
au sch
T y
espe cially
H otel
man agement
gr af
pe ace
pati ents
ges ellschaft
l icht
beson dere
m or
allow ed
Part ie
Le iter
pre is
her vor
Zusch auer
we isen
bs ite
akt iv
ick et
z ü
och ter
Sch ä
Stre it
incre asing
p rem
l ack
i res
P ress
w s
gan ze
über haupt
st ät
en th
K or
seem s
k ret
lin ed
Hol z
L es
Geb äude
med ical
viol ence
u it
P ati
ger ne
kl ag
com mon
lie f
d ung
O f
0 7
jeweil s
b lieb
Publ ikum
K lin
four th
C amer
f ailed
erin ner
Pe ople
offic er
Re i
r uss
ac qu
b ung
ut ions
im ent
famil ies
offen en
Gre en
o ber
re present
er ziel
at iven
S icht
fr agen
k ick
L ou
Str om
Kin dern
ic ation
Gover n
Re ise
arrest ed
zw ölf
lo g
ph ys
i us
h af
ci ded
Kir che
v ö
Mon ate
ein zu
b ase
per r
Part ner
le ge
itä ten
nam ed
ik en
The ater
alth ough
ex ist
S eine
K auf
op position
nach richten
H igh
ne g
ö tz
St ück
s n
Mus lim
en vironment
ür gen
win ner
c ement
Staats anwalt
ab or
de termin
Verfüg ung
entsch ieden
Nach bar
T ochter
tag s
se c
hö ch
it a
Ver antwort
k i
in stit
if ft
v ia
br achte
utz t
b auen
ö st
ho od
P a
Sy d
sur v
g iving
is n
ur m
am te
y l
d omin
dah er
mil es
gar ten
kur r
O pen
ing t
H art
employ e
P I
E ven
sol che
Bil der
is er
v a
gesch lagen
fe iert
Chr is
Ind ia
gel d
We b
amer ikan
ch net
J ones
wel che
can cer
Er fahr
au st
R hein
R os
b ast
champ ion
setz te
D ok
bring t
v ölker
B anken
Syd ney
est im
ander er
p ush
Ge gner
se h
D el
son st
e ither
any one
J ürgen
saf ety
B a
ar i
Ges amt
produ cts
be ispiel
ge he
wo hn
Politik er
5 4
serv ative
te en
tal ks
zum indest
po se
val ue
team s
H u
gew innen
se par
P il
produ ction
He alth
5 1
b ing
Kl aus
lin ks
Angeb ot
0 4
s org
Kre uz
unter wegs
sour ces
Ö ff
quest ions
happ y
z i
Jähr igen
erfolg reich
ay s
te ten
sp rech
for ts
cr oss
5 3
Mil it
ro du
he ar
äl fte
prote ct
Com p
de v
besch äft
us ion
z ig
ver k
Pf arr
de ck
änder t
comp ared
clo sed
f unktion
G est
ge gangen
Tabe llen
Kore a
c it
zie h
inc ident
z ul
ge plan
gest ern
Gr uppen
größ te
ter ms
H all
se y
l if
U p
n atur
do or
P unkt
C ent
ze ugen
ach ie
respon se
h ab
tak es
af e
se its
mein t
5 9
vor sitzen
hel fen
C amp
pr ä
Kranken haus
h ot
ac ted
de ten
Z ust
spe kt
inclu ded
leg te
l ass
d y
Man chester
ne goti
Sal z
w es
reg ional
I hre
A D
Ges ellschaft
ke i
contin ued
hus band
ex ample
ze uge
Europ ä
fr anz
R oll
ad vis
T wo
ed y
particular ly
trad ition
sibil ity
I st
ent ire
ac ts
H ause
be at
B ör
S ar
M orgen
schließ end
S E
B ush
char ged
R el
it et
sie g
A p
Um welt
bie tet
Dis k
tar get
Willi ams
Tex as
st opp
H aft
centr al
ar ian
or fer
N S
A syl
Ge f
ge ord
tr ip
hap s
franz ös
gr ad
mäß ig
John son
Ver teid
at ory
F el
Sta aten
Bes on
Champ ions
ge plant
In de
organ is
agre ed
führ te
dr ink
fä llt
arr en
igr ation
invest ors
R ein
cond itions
hin aus
school s
cre ate
ch ner
be tre
so u
c ard
piel t
w all
St äd
L aw
agre ement
poin ted
add ress
p sych
der ung
alt ung
ab häng
treat ment
Pr ime
k in
nie der
Pol iz
de cided
spe ech
R is
hol en
plac ed
h undred
o o
proper ty
ill s
Fir st
Inter view
k ap
re pe
d anger
Kir chen
Mc C
Exper ten
b n
Coun ty
president ial
S ü
est abl
g one
cent er
un ion
Sp iele
W ort
av es
st s
ef forts
A G
er ve
car s
a ded
Fir men
rul es
Coun cil
produ ct
W etter
cann ot
Sch ool
quick ly
Die ser
a dem
ish ing
en joy
abo ve
ev ents
Sch aden
D rei
Wett bewer
CN N
Al ter
su it
rel ig
p ur
stand ing
mak ers
err y
hör en
j en
open ing
sha res
ö sterreich
S au
Zahl en
Camer on
R unde
mit glie
B ir
fl ü
j em
mo b
ge zogen
re spect
vot ers
po or
äl ter
k tr
S zen
6 6
pro pos
V ict
M ob
con fir
ak es
R on
Fir ma
ha ir
we ap
app ed
kon tr
A ct
Govern ment
Ph oto
Künst ler
b id
Rich ter
ent gegen
pl us
current ly
unter schied
r ap
Person al
pro je
an ch
ch em
nor th
ac cept
L ang
un e
äng st
T ore
reg ular
W ild
Des halb
int rodu
char ge
nach dem
E t
ef fort
H S
av our
st off
pre p
sp o
zun ehmen
gew ann
r os
Her bst
zie ht
t ä
B ö
ant ic
K im
ne cess
J a
E M
Ver d
s mo
pro secut
N ä
Schl ag
incre ased
hom es
z y
com men
ver w
trä ge
concern s
k new
stell ten
ath ol
O per
K en
dan ach
Schr itt
m ie
Ver band
opportun ity
jün g
or ies
f em
level s
Vier tel
ul a
Im mer
richt ung
be de
So hn
e ast
sh ire
n y
B aum
O ur
T ro
el f
ih res
oper ations
F le
w olle
tele vision
ipp ed
Gemein der
stru ction
op tim
wie s
ähr t
change d
K u
sch ed
kr ank
min ute
fu hr
jud ge
gy pt
il s
it self
k ung
Ein en
Ge walt
ition en
belie ved
gere chnet
d ise
aus schuss
st ant
s ong
ir gend
L etz
ho he
woll ten
gew onnen
cap t
mo dern
re ag
M ac
k w
Unter such
m ü
i que
a id
K örper
g liche
Hol ly
beginn t
S old
ist ers
W ach
er reicht
zentr um
act ions
Behör den
d ank
ann ual
ere i
hal te
Ser vice
H an
ges prochen
coun ts
T ar
Auto s
m ill
polit ik
G et
200 4
sch ung
Gl as
s il
vol ution
w ider
if iz
Syr ien
wor ds
thre aten
rel ated
ad o
deb ate
ra ised
W ol
en ze
tr at
em ot
l ings
Sch ne
o hl
V an
amo unt
go es
et imes
ro h
sch we
ü br
as soci
sco red
ähl er
Republic ans
F ä
Bar ack
an zu
Ch ancen
s inn
Car ol
Im age
mo ving
0 6
grö ßer
Weihnach ts
sc ene
vor bei
Afr ica
v olle
7 7
le ct
dar unter
polit ischen
Prof ess
b order
M ir
um ents
par ts
fer enz
L icht
ro se
ester day
blo od
teil en
un ivers
be y
tit le
c iety
we bsite
D ach
ist ic
Zw ischen
M useum
iz in
Sch utz
E mp
A M
Ac cording
tell igen
s cient
be hör
attem pt
mittler weile
Ber icht
ail s
bu ilt
Kolle gen
Ter min
Möglich keit
L IN
it ness
Scott ish
dr ich
In c
dr am
T on
educ ation
l änder
ant wor
fa vor
bir th
L ändern
reveal ed
ätz en
h ip
Ind ian
k or
W ell
äu ß
in stead
t atsächlich
ick s
los en
w ald
look s
ab in
cent re
K anzler
l änd
P utin
o de
Parl ament
f am
Tür kei
vö llig
schr ift
ift ung
te ile
A L
kr äft
t ür
bekann te
bar en
och en
le ment
w uchs
beispiel sweise
in v
an ke
res h
ash ion
Pr äsidenten
em e
at ter
H älfte
De fen
6 00
Wohn ung
An gst
hand s
einz el
t able
Democr atic
K urs
G y
Democr ats
r ats
Geschäfts führer
Hann over
ig ungs
H al
B ot
g änger
O P
Sch wer
ver antwort
Nieder lage
Ins gesamt
Com mission
no v
Ab schluss
6 7
confir med
B M
st ol
mes sage
re quest
K an
aus zu
simp ly
näch ste
Flor ida
V oll
pres sed
v ill
appe al
n ä
act ive
il en
fig ures
E G
w ach
z og
such en
gen ug
er a
Rath aus
M oder
ig lich
dr ive
künd igt
s ort
eas y
ist ischen
en cour
major ity
Fr om
Ver kauf
sour ce
Ko alition
p ly
Mitglie d
on to
k ing
rei ber
gesch rieben
6 8
M any
pret ty
we ight
Kon kurr
ab zu
W ein
em pf
ent sprechen
Ver letz
te xt
je de
if er
polit ische
saf e
P R
at ers
ick er
new sp
hal ts
w ing
I C
inj ury
Fr anc
Disk uss
y r
F ore
ol o
i kt
Engl ish
ges pielt
Be völker
A k
E very
Veranstalt ung
brauch en
l angen
T her
tw are
Er d
Sto ck
ho hen
as en
cor por
Li ber
we ak
Sp aß
challen ge
ach tet
le aving
number s
or gt
Akt ien
un sch
müs sten
Fl ugh
Leist ung
Welt meister
stra ight
own ers
he st
Ide e
Griechen land
cau sed
8 00
Re kord
br ief
Mark us
we der
so uth
victim s
gel assen
Fahr zeug
aur ant
D afür
en ces
rel ativ
v ille
scre en
Staatsanwalt schaft
str itten
mis sed
follow ed
ear n
Er n
att ention
am i
fight ing
gehör en
dr ück
w ün
open ed
bour ne
S änger
p on
n omin
Tr ain
W en
Kl im
di ent
h ib
pt ion
Phil ipp
al tet
w ed
heim er
Holly wood
leg isl
b arr
L at
äm lich
mo vie
batt le
sp ol
chair man
war ten
Es sen
ide t
H alle
Ver tr
In iti
k ids
Gebur t
hö her
S T
r ot
Angel a
an im
ite te
pl es
ad ding
b ag
Se bast
ium s
cr aft
St immen
Vict or
Sch ließ
nie mand
Be weg
ur ies
grif fen
ear ch
n utzen
cre ated
tr ue
alt y
b uch
Kl asse
E ben
üs se
l ust
d ated
pr ime
cut s
se ite
A g
mid dle
p et
Bere its
sex ual
amer a
B ig
H om
ap art
mob ile
verl assen
Be itr
At l
D orf
se ctor
K as
f at
F eld
k andid
ern er
Frie drich
Mar ia
gel aden
er k
gewähl t
be ein
ehemal igen
r äum
Schmid t
it tel
pr os
M acht
les en
mer n
e per
B ab
St unde
G M
Priv at
ent fern
R at
rem ember
Gast geber
O ver
ül t
f älle
ut r
immedi ately
Li by
Fin ale
D üssel
vers ucht
Team s
ha ven
be ll
N ik
Ge winn
Gu ard
as chen
An aly
Ren nen
gro ßer
olog ie
e th
S telle
ig keiten
thre at
r uns
Kon zert
ze iten
äs s
coun cil
L iter
S ache
um e
f ix
stu dent
ast ru
Rett ungs
Be ge
t ie
S ir
in tegr
cond ition
fr astru
th r
Dort mund
R am
gel ang
mo d
net work
Tref fen
f s
ast e
d ur
zahl t
Tr ans
detail s
v in
eing es
p hen
T ot
finanz iel
ur z
S ing
er reichen
He ute
it ze
u ing
pr ior
den k
t ies
K enn
Kr ise
8 5
t ack
charac ter
ro y
ü ter
l ängst
w ish
ce ed
be kommt
fl ug
str ateg
war ned
Kl assen
m ess
w ann
W affen
Dem onstr
de cl
re tail
cir c
n öt
ub le
partic ip
betr ieb
ord nung
O h
n ämlich
od s
offer ed
Ä n
be ha
D or
Mo st
cr ash
K ev
fr üh
uf act
te ach
Ur teil
bab y
inclu des
2 50
T ho
er he
p at
u der
sicher ung
eng ine
in i
e hr
Ab st
wen ige
P S
Punk ten
Sebast ian
ien en
D oppel
dar um
West ern
M oment
b a
tern ative
c ies
N R
0 3
spe ed
z a
gleich en
pre vent
end lich
R em
am ed
Franc is
H oll
Rom an
str ate
dec ades
y esterday
ot a
M ike
akt ualisiert
fund ing
Re de
ser ved
pas st
hunder t
T hen
wär ts
miss ing
T isch
Se cretary
spr uch
L ösung
it ts
st ore
previous ly
dis k
org ung
p il
öffent lichen
Ge fahr
mö glichen
vers ammlung
commit tee
h otel
k al
b ow
fig ure
sp iele
Mat th
business es
press ion
res idents
us ive
The men
vers uch
cr ime
ff ic
us ers
if ik
L uc
ann t
gre en
ste uer
r unde
i ber
Gr ö
consider ed
K ö
ex c
aktuell en
A dam
Ze iten
tran sport
r asch
f igh
Aus stellung
m os
ap s
fl ight
agent ur
st yle
anc y
are s
Gr ad
Gar ten
sho ck
en or
dou ble
der er
st one
ip le
i ar
200 3
beton t
Schul den
deutsch land
f assen
N a
Ser ie
V W
start ing
Industr ie
schwer en
le ague
je dem
inner halb
J ung
l an
p al
Op position
u h
E hren
i be
kl asse
w ild
er weise
Sch le
up p
Kev in
telligen ce
Ab geord
compet ition
W agen
hin zu
arr iere
Zusammen arbeit
avo id
Tr ad
r aten
U PI
Z immer
l or
ian ce
requ ire
de p
Mehr heit
fä hig
gew inn
t an
zeich en
au ßen
Ro yal
Pati enten
fre ut
de ckt
Milit är
ap par
schlä ge
plan e
Sim on
jed es
S in
kr ise
L ive
Ch ic
as il
B ier
shoot ing
G abr
inj ured
Sk y
stre et
st um
u ern
S ex
n ungs
Sp ar
Man ager
reach ed
com bin
C hel
pas sed
Tr aining
Al so
no on
Mel bourne
i age
be ck
indepen dent
P ause
ain t
com mer
tro ops
G al
reco gn
durch aus
cle an
bew usst
ens ure
Un der
he aring
M asch
ib an
ver fahren
0 2
An ze
Ste llen
sol id
por ts
return ed
A ch
kr ieg
Ver brauch
kämp fen
Sie ger
th a
Islam ic
res sed
sto od
bre chen
p aper
cit iz
est ic
fe ar
ks am
T enn
geh end
fol ger
sp orts
sh op
am ing
mein te
i ate
ge halten
G ol
s orgen
B und
di plom
Stu die
re str
ag on
R yan
g ingen
hin gegen
sign ed
z on
W in
S ur
candid ate
Auf gabe
Fr ieden
den noch
D A
x im
Inter esse
defen se
Fr aktion
Son der
str ik
Gesch äft
gel ten
He il
sto ß
M ic
auf grund
Her aus
B ob
Z us
gew öhn
wor d
p urch
led ge
al one
Fo x
n ern
m ort
if el
O S
could n
sp end
Wien er
post ed
hol iday
benef its
an che
g än
te i
research ers
we ather
Au ft
K ern
un be
Pr ü
r ang
k einer
An ton
per fect
forder te
Al ten
he ut
sicht s
war um
Men sch
E gypt
tr ifft
ad s
y a
Haupt stadt
Ge heim
sicht lich
L ind
S ong
won der
go als
par liament
Spiel en
Reg ierungs
Comp any
com mission
O ut
N ick
drug s
Off ice
is a
k y
dr iving
fo c
ic ke
tür k
Ver treter
j ump
6 9
201 8
ehemal ige
talk ing
jähr iger
0 1
mag az
alle g
we alth
res ol
not wend
ou d
h i
m ist
h art
Bevölker ung
part ies
w al
Auf tritt
Ru he
we ist
cent ury
bel s
Schul en
B ack
zeit ung
d oll
a ve
Willi am
Bl ut
Nach dem
to wards
Chic ago
ges perr
We chsel
S us
sel ten
Schwar z
l isten
Pro je
Vir gin
Bez irk
Be teil
sen d
ist ische
ver m
ver letz
pl at
act or
F a
Rom ney
klär ung
Stand ard
launch ed
call ing
pop ulation
im me
jem and
ho ben
T ay
fass ungs
to ugh
mb ol
g old
Bay er
A tom
r ay
Associ ation
certain ly
dise ase
ind ung
exper ien
Re port
us hed
ic les
rup t
Vol k
ic it
An griff
Re ich
ver se
Ermitt lungen
kill ing
it ive
Un ser
mö gen
au dien
employe es
Poliz isten
ur g
and a
J ud
ges che
mehr eren
Ver gangen
M as
g ol
N ummer
Sm art
origin al
Res earch
7 8
bey ond
mas sive
200 1
W ahr
n d
b ott
man ufact
P M
über zeug
un ken
w is
ra ise
ey e
G ün
Sch ön
i ot
199 0
ig ner
hundred s
ier ungen
part ners
Le ip
mittel t
ar ily
ann te
f unds
E igen
ver tr
f avour
dro p
N A
verkauf t
Ö l
fur ter
spiel te
T H
S at
Flücht lings
beding t
gel n
6 4
B ach
r ie
red uc
f örder
C olle
i ant
fin e
F ast
com ments
bo ost
Kom mission
at ure
oc cur
I A
ask et
Vorsitzen der
auf zu
ow ers
W ales
ge zeigt
Bundes regierung
si ze
Ur s
res c
wer ke
bach er
tr aff
stehen den
stark en
W ies
g le
Gr and
ex pen
rup tion
f red
Fe hler
O ther
Se curity
te uer
hig hest
verschieden en
Be ck
gele gen
ris ing
M ie
k m
l ay
meas ures
natur al
J os
insur ance
sess ion
fe et
E v
wor fen
S atz
r are
prov ided
im age
Jose f
con stit
F ünf
komp lett
W alter
hal le
Sitz ung
con fl
schre ibt
6 3
ex ten
fe e
Le e
tr ust
kle in
get ö
S of
I V
dec ade
Sold aten
M ary
Christ mas
ü hl
Mex ico
seem ed
polit ic
ant a
R ud
Patr ick
per haps
w ander
li ver
iss ued
fam ous
ar gu
spec ific
polit ics
led iglich
Mad rid
heav y
ir t
Gesund heits
Br az
Se kunden
op e
W erner
Andre w
leit ung
Mon at
El f
G anz
be ob
aus en
stand s
zahl reiche
W ider
E D
cl imate
bis schen
erin nen
inde x
crow d
is ieren
itä ts
bel ow
B aden
Br ad
An trag
ast ic
P ot
ich ter
Jack son
8 8
H as
dam age
kontr oll
spr ung
Ver fahren
dig ital
bur gh
f arm
sit es
doc ument
tr af
beg ann
K ol
Nä he
do zen
f ant
europä ischen
Al though
bege ister
plac es
au ßerdem
design ed
ar a
cr iminal
6 2
200 2
schein lich
s ale
system s
vor aus
y right
ex act
C ast
m ix
Ste ve
War um
L ü
be steht
Be amten
suppor ters
an lage
com fort
Bet re
absol ute
an ne
re commen
att or
We iß
b auer
welt weit
ver waltung
stär ker
ow ner
sch auen
H aw
o red
Afr ican
ist isch
employ ment
ad or
le ger
gan zen
Bahn hof
wr itten
ver ur
pro gress
we t
Can ada
st ad
mit teilte
Instit ute
F und
ul tim
sell ing
Chel sea
schl agen
fehl t
Lou is
ust er
gew alt
P en
t ät
anc ed
Lu x
appe ars
sa ve
plann ed
7 2
me ant
bl att
Fest ival
m lich
geb oren
join ed
K och
wor st
Profess or
an er
exper ts
own ed
infl uen
Turn ier
is ions
gu il
suggest ed
s olle
str ike
trad ing
af ford
M att
iel d
rich ter
Dies es
newsp aper
ötz lich
Braz il
9 5
ne tz
dro pped
bl ing
1 000
Aus land
t we
gr ie
o ck
Mün chner
trotz dem
ä st
An other
organ isation
unter nehmen
Besch äft
um m
Kon fl
wen igen
best imm
i oren
suffer ed
c ul
hin dern
Be ide
r ies
Mr s
star s
We ise
il legal
arr ived
ag g
Minister präsident
ob wohl
I re
tr ib
E ing
hol ding
Kon zept
N E
Qu ad
J on
Arbe iten
fin ally
ga ther
leit et
erl ä
bro ther
vor her
t äu
co ast
pie ce
me ier
fas st
Ver waltung
Ange klag
S l
Off ic
S oll
Parte ien
fu el
som etimes
Qu art
imm el
Maß nahmen
not e
weap ons
Kon takt
Akt iv
nach mittag
repor ters
emer gency
cho ice
No v
oper ating
Matth ias
K er
einz ige
sch uld
Com mit
D ank
g ä
bereit et
I P
St immung
am mer
bom b
Or d
Just ice
An n
er fü
Just iz
T anz
L ud
entwick elt
r ig
p itch
leader ship
sch reiben
dr iver
Auf trag
Le on
conf idence
success ful
adv ant
6 1
sp read
Sch m
fl uss
r ank
ieren den
ro chen
in tens
Com put
after noon
V P
K el
ic ted
ab use
ro b
B ull
g ült
t ur
ste ckt
re venue
spo ke
fre uen
ph ones
m aterial
Z war
ch mal
Jugend liche
Heraus forder
add itional
m än
cont ro
tem per
er ster
V ize
rad io
to ward
Hinter grund
ich e
S ter
Fol gen
rem ark
S ince
Vor jahr
Öff entlich
hält nis
kir chen
f ashion
H einz
erinner t
play s
ar f
admit ted
S un
ab t
Ne ub
kl ass
Betrieb s
Ge werk
li ber
d ress
K arriere
fac es
Ire land
anal ys
f resh
ho using
M i
se cretary
Lehr er
Wahl kampf
ger ufen
c at
st immen
mn as
c aus
F ig
st ür
D inge
ru le
sur vey
Ab out
rech nen
seek ing
guil ty
air s
so und
gel t
wer s
disk ut
sh ut
law s
N P
sus pe
belie ves
Nach wuchs
ver eins
bestät igt
Rei he
An h
az z
is ierte
gemein schaft
through out
ur al
er ing
geb rochen
lern en
would n
ol der
ub il
ber s
beg in
B arr
olog ical
cont act
G reg
Univers ität
Al b
Aus bildung
Jahr zehn
Jugend lichen
Br üssel
ß t
fehl en
girl s
k ö
beg onnen
fin ished
7 00
fr au
pict ure
Spit ze
pens ion
s un
M ess
ell ing
r am
W ork
red uce
d auer
Schweiz er
ah nen
ser ve
lie s
It aly
E ind
Ab wehr
lang u
wa it
sk y
bat te
tem berg
ak er
wir ken
An teil
Ham burger
We gen
as hed
mot or
ver trag
stell ungen
he ft
sp ark
I D
cau ght
Flugh afen
fre ien
west ern
be an
bo ys
aw are
IN G
Vf L
g al
gest iegen
Syr ian
h äuser
ch urch
un te
marr iage
off ers
O der
doll ars
dom estic
fem ale
halt ung
fore cast
Sch ö
B V
St ill
il fe
Span ien
o vic
L en
Ein tr
book s
mittel n
Bre men
hop es
mon d
Är zte
af ft
w esen
nie dr
l ic
pract ice
see ing
c ities
Hoff nung
carr ied
gesperr t
n ungen
A uss
Lab or
w under
H ir
requ ired
ord an
sow ohl
ver ab
Commit tee
b aden
Nach mittag
dis ap
K al
Que en
qu ir
ä ten
mill ions
AR D
ad vert
Fre ib
w ähl
en burg
B ul
wh om
A ma
änd ler
Kl ub
gl ing
Sen ioren
se le
Pal est
Des pite
unterstütz t
B om
iv als
ent ially
benef it
Vergangen heit
S ub
R osen
V i
think ing
St amm
übr igen
mot iv
tem por
ele ctions
auf trag
Um satz
mak er
strate gy
ident ified
Aut or
asse ts
DF B
reich te
ack er
r uck
de partment
opp ing
ätz lich
gesch ichte
äl te
Bar cel
H ere
1 20
g ien
Ch ief
m einer
wert ung
schle cht
S uche
T iere
gr uppen
min or
et tel
international en
ast rop
Bo th
Vor bereit
. -
andel t
ke its
br ain
gre ater
op tion
7 1
move ment
Be wer
presen ted
ab les
ang s
inj uries
fre und
F ischer
Sau di
il i
ob vious
ikan er
T el
E hr
individ ual
eing esch
Organ isation
Jo e
r ic
D omin
ü st
ed om
c atch
Düssel dorf
W unsch
R ö
gel ungen
erwar ten
ko stet
lim ited
meas ure
on ic
will ing
Ges icht
pass iert
ag ers
bede utet
th al
O t
Lie be
Techn ik
publ ik
iz ing
grün det
getö tet
hoff t
Sp rech
expl os
zähl en
sub ject
Re form
show ing
pol ize
flo or
los ing
gre ifen
er hält
activ ity
respon sible
star ke
ut s
Wh y
Fre unde
c ulture
Gabr iel
in telligence
Kandid aten
rech te
eur o
C am
re den
künd igte
leich ter
ber ichten
F ed
Mün ster
Kap it
d ark
T ony
Weiter e
walt ungs
kle iner
y ers
Hin weise
fand en
ins on
geb ung
b undes
st al
gener ation
p ath
Stad ion
af r
concern ed
ans icht
ber icht
Ne ue
Tref fer
ced es
Barcel ona
sol chen
Organ is
us ually
str ahl
re me
nä her
Ge fühl
Pf lege
eng ag
ch an
dec lined
estim ated
ict ion
aus ende
ist or
F otos
i Ph
necess ary
str on
be grü
Sch al
betr offen
Dan ach
9 6
Ze ugen
er fahren
plann ing
s inger
prom ot
ail y
C entr
auto mat
add ition
Gel ände
im ag
Kar ten
Ass ad
G az
Me tern
ig ungen
Ar me
condu ct
real ity
frist ig
danger ous
k ore
ment al
ag ree
Li ver
even ing
k id
wicht ige
veh icle
LIN E
Stand ort
ges sen
Br on
den ied
Tod ay
bas is
mut lich
ach im
N az
us ual
f ährt
if ying
Pr ince
ins ist
ref uge
gel öst
B ow
Denn och
wär en
sold iers
wir kt
her o
u ert
t ief
besch lossen
groß es
mer ksam
D aily
In sel
N ür
Letz te
w id
Tal iban
feel ing
ic ed
Israel i
H ein
con test
sh own
reg ard
B os
comp lex
Fe deral
In tegr
ie ßen
f is
E C
ve ter
A ff
je cted
I M
häu fig
S um
ON LINE
ar ies
Ergebnis se
früher en
el te
st imm
Sp ain
re ck
F ord
Bez ir
Y oung
cke y
N av
F en
Ar sen
kom mun
Jo achim
if th
le isten
power ful
An tw
Verhand lungen
Br ief
jüng sten
Mark et
Eng agement
an ze
st ö
un ten
T C
ret t
trad itional
Bor us
kret är
r ain
alleg ations
k üm
hol ders
contin ues
kauf en
bil den
ver hindern
Die ter
spr ün
Nat ürlich
Quad rat
V is
au b
Fre ude
am id
l le
for dern
ur er
p flicht
Land tag
D uring
Lin ie
em en
Antw ort
schr ieb
rece ive
Br asil
Auft akt
W ander
il der
Mein ung
Af D
Möglich keiten
bes uch
dem ocr
sle ep
H on
G od
musik al
Köl ner
over all
I ll
M ass
akt ionen
s ides
zie hung
Sch ützen
asket ball
D om
l iter
wür d
feier n
fac ing
voll er
H ot
C op
Gespräch e
st ets
ge fallen
ieren de
sco re
h te
Com mun
d ollar
law yer
Go od
neigh bor
hof er
icht lich
as i
Tho se
ow ski
if ul
Ste ven
se at
gr enz
B ag
Wissen schaft
br idge
sp art
c lin
m om
Rad io
crit ical
Mo dell
con struction
Or igin
fac ed
be last
R al
ar med
E ck
an gel
K ath
S ab
beg innen
I l
c ow
n ommen
u led
Me an
Johann es
ar ms
leg ten
A sia
Bo ston
minister in
g s
ä ge
ph an
Al ters
P at
o le
bl ue
Dro gen
gu ard
ic ide
Geburt stag
h u
ill ing
fl ag
res er
Kontr olle
put ting
sch aden
anges ichts
stat us
Pl us
cons ult
K ein
L as
Liver pool
it em
abe th
cap e
Gy mnas
N ic
sh of
k an
V al
trä gt
polic ies
no se
sm art
punk te
Anh änger
ink en
Y et
st ed
Schließ lich
r ied
Mit t
ste igt
Son nen
k as
sch ützen
Unternehmen s
en nen
F L
Je der
ex cept
Ar m
sw ahl
vier ten
co ol
un ver
candid ates
pro posed
E igent
ma il
b oss
auf genommen
Fr ont
ange kündigt
Beson ders
enn ung
W es
commer cial
Er inner
L im
O hne
äu fer
h ur
beginn ing
ct ure
g ünst
N ein
rul ing
M is
Palest in
ask ing
stor m
k il
K ab
O liver
fl u
ig rants
g age
k anzler
A gent
it sch
Mur ray
B i
d ia
ig an
erhe b
ben öt
Fe ier
bro ke
F air
mal e
An schluss
comp uter
Halb zeit
dou bt
getr offen
Pr om
T hr
verantwort lich
repe ated
l ager
Gott es
Ste phen
do ctors
t ö
A BC
Vf B
Her ren
kann t
p atr
colle ge
m einen
C lau
tw ice
L aden
alle y
achie ve
i ents
h arm
th y
ide os
R ap
gen utzt
legisl ation
re iter
Mer cedes
fert ig
cont ent
to urn
program me
r ival
ital ien
vers uchen
event ually
ch ed
fell ow
high ly
ath let
sen s
kon zern
Br aun
Tr aum
dar in
ähr ung
Bern d
sup pl
gemein de
mach ten
P okal
H essen
Beruf s
se cret
n utz
nach t
P et
wahr scheinlich
uck y
wr iting
Deutschland s
her um
put y
Pos ition
stat ements
ist ik
Bü ro
den ce
Med ia
res ign
Mid dle
Que ens
stopp ed
C ur
an o
L ord
sp an
just ice
Gemeinder at
re ise
tell ing
s enten
uck s
ann el
war m
prim ary
be coming
j et
it zen
profess ional
Produ kt
Beweg ung
ü che
carr y
Mos k
C O
entfern t
Ar gent
st ände
än en
cr u
ie be
P fl
Ge w
pl ötzlich
Frank furter
Harr y
Pol it
clear ly
Y ear
ick ets
broad cast
sh ar
ent y
simp le
affe cted
Men ge
Mot to
St an
regel mäßig
lie fert
angeb oten
sorg te
ach ter
ey es
no ck
Druck ansicht
offer ing
Bur g
electr ic
er c
7 3
Centr al
lo ved
Pr inz
vir t
R od
Lud wig
spol itik
consum ers
7 6
audien ce
Ge wer
Zeit punkt
dis p
ubil äum
B ol
act ing
conf ident
K ie
St aff
as che
sched uled
T a
help ing
7 4
fin ish
stand ards
D auer
ver treter
Wo hl
ship s
club s
we aring
end um
L ager
commit ted
S achsen
Mean while
Schr ift
Co ast
F an
ar my
ast en
we ar
Konkurr enz
lo om
w ise
b ought
Gr enzen
bo und
Musik er
to ll
Z un
St iftung
L et
ang ing
know s
J enn
The ir
b ann
f are
man aged
kon ferenz
k olle
Öffentlich keit
ger y
ific ation
p un
G i
P ir
sprech end
back ed
ste he
op in
ou th
P ac
oc cas
Stud ien
auf s
hel m
CE O
Mo del
Bild ung
An na
jeden falls
ive au
d in
Ama zon
Hel fer
Er öff
Fern seh
Fr an
frü here
g ives
str uck
progr ams
confl ict
w itness
r om
Zentr al
äf ten
dem okrat
appro pr
R E
gesch afft
S inn
D ou
k ul
p ts
m useum
ip fel
R T
Diskuss ion
N ation
sogenann ten
All es
Vor aus
C re
n ames
l ers
wr iter
we b
me th
ap pen
s ust
l as
Nach frage
hold s
w inter
trans fer
Fr ied
Mic ros
l ived
ty pe
z immer
Mob il
W ürt
u als
Borus sia
f ired
dies mal
spl atz
läs s
so ciety
L am
Auto fahrer
appear ance
Auf gaben
At t
verb ess
lear n
D res
F T
dis covered
cr ack
dad urch
ight ly
ack now
pr in
Im mobil
end orf
acc ident
sch were
at oren
ist in
mann schaft
Br un
D own
sign s
um stritten
überzeug t
dr ing
Christ oph
r ät
voll en
Dok ument
war nt
stand ard
D istr
p urs
ak ter
wa iting
ver stär
vot ed
Je ff
pf lich
in ation
H under
K eine
Schau spiel
W alk
unterstütz en
ph y
hand lung
Ro ad
el ine
h all
7 9
vo ice
ge tragen
R io
marr ied
ic ate
st abil
ä ck
St ür
prep ared
ged acht
complete ly
teil weise
Früh jahr
ges amte
u ung
increasing ly
se kretär
sha red
Auf sichts
tre ated
SP I
ra ising
Be w
über nehmen
keep ing
A th
y ards
Char les
Verantwort ung
ander es
an i
Stu denten
p ap
pre c
gesch äft
not ed
E ll
L A
De b
St att
D ah
J ör
T ext
zeich nete
P enn
g ree
Stre cke
dro ht
off ens
Mar c
co ok
advant age
al arm
atten d
rem ained
stre ets
O ld
Be deut
wür fe
Ge h
Virgin ia
ür en
et ten
figh ters
n el
Qu elle
Mar io
beschäft igt
profess or
Ch or
k urs
Grü ne
To des
le iten
K eller
möglich st
Dr ittel
ian o
Ver eine
sc ale
da ily
Hill ary
am ents
my self
rich tet
mö gliche
J ungen
hig hl
er öffnet
Comput er
E Z
De batte
Nach folger
geh abt
Reg ional
Al ko
M and
coll ap
Arch ite
W ähler
ol es
ak ed
proje cts
äum en
bisher igen
M ill
con vers
Würt temberg
sus p
re ign
Kapit än
unt ain
D amen
Nür n
ax is
wer te
Met ro
she im
fe cts
bal ance
attor ney
S em
unser en
Spe zial
richt ungen
reason s
T ha
dam al
Leip zig
arg ument
be für
f ifth
s es
Schne ider
tä glich
gemeins amen
develop ed
F al
fre qu
pay ing
Kir ch
b ly
view s
g ain
W ho
S ign
jah res
R and
air port
Hand ball
exper t
Ro ber
ref used
sitz t
j ing
stät te
mean ing
sp recher
f ly
ip pe
Wettbewer b
st ab
Pl äne
b led
cy cl
der ungen
ge fragt
large ly
ger ing
ges amten
j ok
profess ion
Port ug
r um
ge k
d orfer
Dem okrat
ied s
di ag
19 80
ffic ient
lie fer
langu age
hiel ten
are t
lim it
T un
Schwar zw
Zu letzt
Tay lor
consum er
ier ter
co re
ris ks
s üd
foc used
be kam
Ital ian
wissen schaft
if ten
prü ft
dem nach
Bo x
ühr en
präsent iert
bekann ten
Tur key
govern or
fl äche
f angen
we i
pr akt
iPh one
Pre ise
be mer
Carol ina
earn ings
in nov
z erst
s cor
ak s
ah m
or th
Gr enze
P au
Ar ena
ann ien
le ute
watch ing
ste ps
exact ly
G öt
del ay
f iled
link ed
sc ience
Ar my
Bus iness
differ ence
l uss
up per
Ber at
sup ply
test s
sc en
sy mp
ch est
reco very
j ung
C ard
th es
L ad
veh icles
Au fl
fe ed
Szen e
Ze ichen
Fahr zeuge
grie ch
loss es
Ge bie
gu y
il es
Kr ank
fe uer
Man uel
inst all
Kon zer
Verbrauch er
re v
vor ne
defin it
k amp
cl im
C ru
ing ly
led ged
if fe
th s
Micros oft
ent stehen
spokes woman
ultur al
stell vertreten
war ning
l aden
j i
Os car
W at
brit annien
hor r
kom me
t ut
defen ce
cap tain
atur en
A re
an schließend
H ospital
respon sibility
Ein ige
For scher
Man agement
st amm
o x
Champ ion
Is land
corpor ate
spr ing
pl ätze
wir t
att le
en der
bürger meister
L ok
in sp
Kap ital
T ob
EG EL
San ierung
D ub
Eintr acht
Klin ik
spl an
heut igen
record s
wor se
produ ced
Me er
D uell
W ag
Zusammen hang
e i
Olymp ic
SPI EGEL
Bro ok
pro p
im ages
Hor st
bestät igte
sch te
Colle ge
stu ff
Sch ieds
ges ucht
N ico
bay er
aut iful
überr asch
mb H
Gr enz
str afe
min e
A del
ber n
var ious
lie ber
dr itte
co hol
P fer
Erfahr ung
Can ad
mer z
Leit ung
tr ig
F our
St urm
ber uf
fort un
air craft
traff ic
t es
Le wis
h urt
sch m
Viel leicht
id ung
Initi ative
ze igten
min isters
most ly
Tu S
cent s
maß nahmen
I G
le hr
be itr
B ell
E isen
st unden
ag ues
opp on
Groß britannien
P ower
gest o
ass ault
J ag
A sh
legen heit
fr ustr
for men
ger aten
fre ie
ian a
E T
ret ire
emot ional
Q a
doc uments
br ut
C y
behör de
b te
Arsen al
Auf stieg
stor ies
S uch
def end
verb unden
k es
tr ainer
amm ed
protest s
Bedeut ung
rest aurant
g ig
Sar ah
st ress
ohne hin
Bezir ks
s now
l ande
Zentr um
m är
äu ßer
opt ions
lo an
geplan ten
Th ree
aus o
ots dam
lö sen
beteil igt
is land
g ay
a ide
k ürz
sp ät
S ho
er kennen
ie st
order ed
Innen stadt
un it
L iste
teil s
op ing
s amm
ex erc
re cor
be ach
ch ines
ob by
ä ub
frü hen
Bil anz
Sp enden
ent deckt
amerikan ischen
Japan ese
K redit
R auch
H ong
x it
Car l
P otsdam
ex change
un er
spar en
F ab
stre am
Inter ess
C ub
tax es
med izin
eh m
ab geschlossen
effect ive
al and
Pro v
d ut
Fin anc
spe aking
müs ste
set ting
neg ative
verschieden e
Ste phan
r än
reg ister
Ver waltungs
ct ive
i pe
Ein er
T ö
Bei jing
20 20
isch em
G mbH
d at
z it
Ger hard
fo under
Francis co
Über rasch
Fre ist
Nutz er
bro ken
J ordan
aw a
V om
nor thern
G olf
nöt ig
äng nis
fest genommen
u ff
er hielt
gleich zeitig
französ ischen
Sch uss
ug by
R iver
separ ate
health y
gel ern
we ite
imm igration
verl änger
Je an
ip ment
9 8
fail ure
O ster
dec isions
H ay
Auto bahn
H it
m m
H amil
ver pflich
Be wohner
ass ess
St ars
ver dient
cr imin
ir ing
k ä
Re fer
Hamil ton
L D
A le
h offen
BM W
P flicht
death s
Ne uer
kir che
Veranstalt ungen
An dr
S A
exp and
Schal ke
sor gt
f unk
up on
am ts
sur gery
zwe if
Ger ade
kon zentr
cap tion
Ide en
sa v
Victor ia
g iant
C oll
l inger
spe ziel
F I
akt ions
e hren
r ene
ly n
est ate
ac counts
J im
um n
Alko hol
min im
h ängt
us en
in quir
sou thern
L ife
it ation
ph otos
phys ical
kt ionen
Au thor
get an
Sup reme
Frank en
K ämp
gu ar
reg ime
mo us
con ds
M ut
f ein
ain ts
sign al
cor re
tourn ament
geb lieben
g ast
it ude
We hr
find ing
mon at
Ern st
G lobal
Bab y
ment ion
ver mutlich
ö der
ge worfen
Re por
Aus gleich
Fahr rad
Fore ign
pen alty
er gän
con servative
St är
zieh ungs
S achen
pre gn
pos itions
Fe hl
hol te
fest ival
cess ion
Wach stum
Sp ark
Cor p
analy sts
report ing
jo int
re sources
m outh
Qual ität
distr ib
wen den
Tem per
p ause
s ätze
wär t
w us
j our
adv ice
pop ul
as p
do ctor
f ish
mut maß
ge feiert
ge fordert
Au st
gut es
res ist
S ig
Mon t
near by
Se a
st ick
the ater
ge fahren
akt uelle
m eld
univers ity
fä llig
her self
P A
b ess
grif fe
F BI
res sive
dram at
Mar co
Tre as
z ed
quar ters
Untersuch ung
k örper
G au
sch üt
be stehen
scient ists
direct ly
Bas is
st anz
abin et
un klar
Pl ätze
or ient
C ome
Er do
8 6
ud den
Al i
zie mlich
Bl ue
istr y
Wohn ungen
ah am
Ged anken
st ret
---- ----
organ ization
squ ad
Handel s
ö ger
ver lang
sy r
tr aum
kehr t
f ör
kün st
Hel mut
weiter er
expl ained
Dav is
be auftrag
D iv
Fahr t
lei hen
An der
A br
alleged ly
Ris iko
sh ots
Wies baden
activ ities
Haus halt
m ic
ag end
un bedingt
K os
pul led
Rück en
Pr ä
Fä llen
r aus
j ur
prote ction
Neub au
cons ist
Ab stieg
W ür
P le
M io
n ar
de feat
e c
Schau spieler
Li ke
pre par
D J
ge arbeitet
co alition
sy mbol
j ail
Bör sen
West f
ac ke
fir ms
Associ ated
St imme
Gre at
Nor thern
passen gers
krit isiert
An th
R um
get reten
ü ge
suggest s
P kw
schul en
star tet
Financ ial
gel aufen
em y
kämp ft
Journal isten
Com mon
sp iegel
prü fen
glau bt
vot es
einges etzt
199 9
N AT
it als
igh ted
ar tet
wer fen
West en
N ad
McC ain
it ial
Un i
L ong
verur teilt
sec ure
schätz ung
ef fects
An lage
prov iding
Der by
w ins
mehr fach
In stead
y ard
b itter
Alle in
8 3
we iten
an gr
ear th
Sch loss
Beitr ag
är m
K affe
influen ce
och e
politic ians
nat ure
propos al
Verletz ungen
Mittel feld
J ubiläum
Ant i
Jör g
vor gesehen
Fa vor
J ur
au th
G ree
be darf
y es
K ul
ap prov
the t
wen det
8 1
cur ren
pict ures
führ ten
8 2
k ins
verl or
Kommun en
serv ing
F as
W icht
feat ures
ele cted
or ten
ver dien
gu ys
F ur
ac ity
anc ing
vor stellen
C BS
jähr lich
G ames
ous ly
gefähr lich
M S
appro ved
dog s
av el
bere cht
an ony
besch äd
ru he
se conds
announ cement
Stell ung
An y
bur y
städ t
gr am
be autiful
ra il
So cial
Sprech erin
af fect
ins besondere
Anze iger
ac kt
protest ers
prom ise
room s
Kl ar
sozial en
leist ung
F ire
Sh ar
allow ing
Th ür
O sten
h ängen
entwick lung
ich ert
B ang
8 9
art icle
sw ire
produ ce
Kinder garten
Nor den
Pfarr er
st y
al cohol
ges p
Flor ian
or dent
M ord
Res erve
ent standen
zahl reichen
Tenn is
Vorstand s
N iger
ir at
I hnen
se as
relig ious
Distr ict
Fl ucht
alb um
er mittelt
R enn
b lieben
Kore an
Ener gy
C ha
distr ict
j unkt
C C
Kanzler in
pati ent
pl in
plat form
Be ach
l abor
bo dies
S her
ordin ary
may be
ein geladen
no vel
fä llen
abhäng ig
k nock
Den k
g ment
Eind ruck
spr ache
Fer ien
f lex
wer ks
dr ama
A v
citiz ens
schl ug
s ister
M ik
inform iert
expen sive
K amer
ref le
Bild ungs
stär k
wo hnt
nen nt
hil fe
St ation
Fen ster
An ne
rech net
Le verk
c red
Immobil ien
gre w
W a
Bre xit
schwier ig
our s
Bed ing
U we
Rück kehr
Er wachsen
le iden
sch ne
Mann schaften
adv oc
ial og
Ser v
fall ing
russ ischen
Son ne
P as
S tern
Qual ifik
gere cht
lo ans
Le g
v ul
bl es
sel s
ste ig
ges und
fü gt
r ally
Br is
Bundes kanzler
b ail
Ro se
Gree ce
P sych
C are
p fen
H ü
l eng
ru led
fl at
big ger
K ro
rech ten
NR W
igh ten
de but
le gend
Er ic
Train ings
Leist ungen
N Y
Par liament
Vo gel
cre w
Der zeit
wor ry
genann t
Ch urch
ro ugh
j ury
Mo de
polize i
Rett ung
O L
W r
mem or
gr ab
bot tom
Home page
sus pect
af é
vorsitzen de
N as
Bar bar
wr ite
s ä
prom ised
un likely
Ze aland
si bly
inter net
mel den
posit iv
schaf ter
she l
gu est
list e
el a
men s
star ten
ächt igen
W under
terror ism
bu ying
om a
Er kennt
sof tware
funktion iert
bre aking
Ar zt
S we
Publ ic
Um frage
infl ation
ch anging
pr a
tre me
Z weit
ill en
Sp ann
Mosk au
carr ying
Mo h
M use
ben ch
equ ipment
C le
be deut
sm aller
kl age
per man
ol s
lo y
ep is
prov ides
oll en
pred ict
N ations
S orgen
mult iple
is k
8 4
Da x
C arr
geb ie
wieder um
Wo od
photo graph
Br ü
em ail
star ts
s ung
ent stand
Er ste
H ard
H immel
Tran sport
G A
N er
gang s
F err
Pr in
fin ance
so ught
d lich
ak te
ste cken
über nommen
s itting
beein druck
Her mann
Oh io
man chmal
H ou
commun ities
B lock
terror ist
pay ments
or ben
gl ass
he at
gr at
surpr ise
exist ing
head s
Reg isse
E b
app ing
pre fer
be z
Hand y
einzel nen
S now
er lau
Str u
MP s
F ound
ha ber
Ear th
c old
P C
beh aup
Olymp ia
sto res
cor ner
ul iert
b ull
blo g
mit ten
EZ B
Anth ony
sch ir
Gemein den
fl ow
W atch
Kel ly
Be ob
agen cies
pro ve
Ar iz
Ar n
se es
C all
Wolf sburg
D arm
Grün den
we tt
il ities
kauf t
ü mer
T ax
hard t
k at
end gült
Stür mer
wicht iger
read ing
prof ile
t at
be weg
gar den
Aus bau
gu ide
p ed
los igkeit
colle ction
ä der
pan el
de part
c in
r uf
T ON
Agent ur
An frage
ow a
Bau ern
initi ative
sch eme
S our
er lebt
at ures
establ ish
Außen minister
H SV
klär t
su icide
I ts
fre edom
presen ce
rem aining
reis en
con vic
a del
b ö
Ver änder
has n
Andre a
Span ish
decl ared
c amera
Sp orts
extrem ely
k und
N ah
ide l
te ch
kl agt
Mar ke
for cement
geb il
Jähr iger
F isch
Aus schuss
Br uder
ien s
magaz ine
For mer
Ed in
pp ing
reported ly
Kom ment
O K
Dre h
ähn lich
b aum
sogenann te
C H
Arbeit geber
19 70
B ud
lar ger
dür ften
n ic
G OP
critic ism
se ts
end ung
gr ade
Er mittler
con clu
fühl t
gel te
v it
Ver fassungs
Europä ischen
J am
offiziel l
ed ge
tempor ary
gele itet
pr ot
entwick eln
Trad ition
bring ing
ath on
ed itor
som it
durch schnitt
An schlag
been det
im ir
Fo ot
market ing
le ts
stag ram
M ach
ven ues
zu gleich
Ze hn
ip t
along side
ent al
NAT O
Proje kte
au ern
Pap ier
introdu ced
fl ächen
v ac
ar ten
in spe
ut ch
verständ lich
h es
übrigen s
Be cause
individ uals
G B
H ör
umen te
contrib uted
ip pen
cover age
Her steller
Spr ache
e inger
8 7
We ge
sent ence
Schn itt
fr aud
Kil o
E p
m essen
isch t
us al
K ate
el ten
Tr end
richt ige
en det
ime ter
pres ents
tät ig
D un
pro ud
de gree
appropr iate
ur ged
government s
Hum an
up dated
ver gessen
ch tet
Städ te
öffent licht
gen der
ter y
B io
ter t
E conom
Haus halts
circ um
gut er
Det ails
mach e
challen ges
le ider
develop ing
wechsel t
ho le
dec ide
K ong
sl ightly
se he
g ow
cer em
Sch uld
And y
stol z
B ür
Mi ami
fil ms
gen auso
Ed iting
Sp iegel
For ce
verteid iger
industr ial
un a
gr unds
P ers
F älle
on en
p hase
un certain
Regierung schef
Ir ish
negoti ations
Jul ia
wichtig sten
weiter es
k unde
Fern sehen
pro be
comple ted
P ict
Wor ten
turn ing
ä gt
Schul z
st ances
oc cup
interest s
a ward
Christ op
Nie ders
Sie ben
produ z
ver gleich
sk in
isl am
colle agues
Sch nee
H ig
M aterial
ber üh
Bo ok
dah in
ther ap
Ü berg
Ein wohner
mitglie der
un able
red uz
O ct
zwe imal
de als
glau be
schlä gt
g us
h its
gemeins ame
ex pressed
opportun ities
h ack
gem el
In stagram
er öff
war tet
p fl
Schieds richter
convic ted
ok raten
199 8
dest roy
si ge
S qu
Ver sicher
happen s
offen sive
er o
statt finden
i ation
han ded
in sen
young er
Mar cel
D ig
el er
K ader
fis cal
pick ed
in str
strug gling
al ternative
cre ating
verl ieren
Brand enburg
ho uses
n annte
lig isten
s ad
zeich nung
w are
po und
determin ed
R ing
el ess
ehren amt
tell s
be le
H ur
analy st
be findet
er leben
T ok
inc red
Queens land
ir a
Ver halten
anst alter
geplan te
id i
ste il
I R
Leist ungs
Sen ator
iz iert
handel n
Lin ke
the ast
immer hin
Man fred
ver anstalt
ag ne
un fall
Zwe ifel
br on
Rie sen
Pol en
quot e
Gef ängnis
fel der
M organ
Vor würfe
lauf enden
Wor te
j un
p ull
Erdo gan
ro ute
G ul
au rants
ständ ige
cl ash
bess ere
rel ations
contro ver
Vers uch
Mit arbeit
lin ie
Sch iff
in itial
überrasch end
n ations
M iller
b ane
tr uth
Her zen
ur sprün
hör t
Ö VP
dec line
ic ts
streng th
re moved
Ro h
ad ing
ak zept
walk ing
Frei heit
ce an
lear ned
Mag az
stu dies
allow s
Konfl ikt
qu er
del n
L y
bel n
K assen
av ier
cr uc
s udden
Aus wahl
N HS
tro uble
J en
cur ities
haus es
G ame
ü gen
Lö wen
Edin burgh
ü ch
beha vi
ir r
H äuser
emer ged
invol ve
ver bre
verab schie
9 00
kon kre
fin de
ver stehen
Canad ian
Bo y
Westf alen
Lebens mittel
p ing
con ce
in frastru
Salz burg
an ded
all ies
notwend ig
sel ben
er stellt
ver urs
Ur laub
Än derung
Er satz
Arme e
ar zt
Ka iser
Te ile
ent täu
san ctions
In str
ium ph
s hr
con firm
Mü ll
J es
A gency
or ders
or te
Ob wohl
match es
N ame
Con t
m ile
V en
Verb indung
E ver
ähr ungs
fun ction
New swire
wicht igen
Sch um
Gener ation
adem y
m aster
Nürn berg
t au
P ad
Re chn
AF P
ad bach
Ein kauf
Wag ner
v ast
ear ned
Repor ter
nen nen
t auch
Instit ut
T en
absol v
f rem
lich keiten
Gr af
on ed
on ds
Lo ok
p lea
Quart al
Ver hältnis
D ur
G a
M assen
Aug sburg
n ice
Jul ian
deutsch er
un ting
schwar z
bel t
b ten
Barbar a
II I
s ight
hop ing
prom in
Europ as
B lau
Jer sey
Hil fs
cap acity
flo od
Z ent
milit ants
G rem
T it
zentr ale
fe es
Iraq i
Sch re
hil ft
qu iet
E du
T ime
strik es
anim als
Trotz dem
Cap ital
st ers
uch ten
em br
Erfahr ungen
fin als
with draw
gen de
clos er
ver öffentlicht
Eröff nung
Stad ium
Produ ktion
bl ow
arr ange
l ab
We ek
begeister t
sol ution
G ang
pot entially
fa ith
verz ichten
ex hib
unser em
Zu vor
äum t
verb ot
pe ten
folg te
respon d
feat ure
or ie
Fel ix
F ein
it ar
Um gang
reg istr
an lagen
kin der
Bis her
art ist
men sch
schnell er
Ele ktr
Sa al
organ iz
lad imir
Ver lust
mon itor
Ge legenheit
Serv ices
Invest oren
B road
M esse
lu x
ow ed
dau ern
expect ations
H unde
erklär en
Nachrichten agentur
Wil son
möglich erweise
G ord
analys is
re ifen
P ier
gest orben
Gem eins
E ig
famil iar
m l
dr iven
ipp ing
Mit ch
pen ded
suffer ing
eas ily
f fer
establ ished
e at
bo at
sw itch
ill y
net t
em pt
comfort able
Kr isen
spr äsident
p ace
iz en
item s
glau ben
B ord
bo om
Gesund heit
Pac ific
help s
appar ently
sp err
leg ung
kom ment
for mal
frei will
zusätz lich
il ing
C as
lie be
leiter in
or ing
am az
list ed
pl enty
schö ne
se ats
ch ron
environment al
suppor ted
kam mer
ün ft
Ab d
B enz
z iger
Mat the
t um
Kar te
1 30
liegen den
se ch
he aded
ten nis
herr scht
Bundes wehr
opin ion
resc ue
Ab schied
squ are
Lo ve
sup posed
tr end
tal ent
act ress
ung l
us er
Gol den
vers orgung
recor ded
dr ivers
refer endum
ure au
ige m
Teil nahme
Tu be
cut ting
Ko hl
pr inc
Report ing
erziel te
don es
sch ütz
C lar
W ay
fe ars
Vorbereit ung
law yers
viol ent
setz ungen
Jose ph
K ub
Aus sage
the im
Mos cow
All en
argu ed
Ral f
Ein richtung
mort gage
p el
port ion
bank ing
Mich el
grow n
Dam als
N BC
ma xim
Tar if
Abgeord neten
age l
F unktion
sc andal
ben e
R af
brit ischen
H ung
Vor schlag
W omen
ol as
j ack
ap t
In dones
Tem po
SP Ö
fe els
An gehör
Main z
p c
lang sam
p it
sp ur
er y
dire ktor
visit ors
re volution
international e
it ors
p fe
b rem
serious ly
D y
at o
Vertr auen
Inter essen
de cken
Tob ias
Ul rich
abge ord
N oten
bes itz
Kle ine
Prem iere
buil dings
k ed
A K
B ett
ist ics
o den
find ings
Sen der
controver si
ink el
expl o
Be fore
R et
pl ied
res ident
Al p
u be
interest ed
contin uing
gew achsen
Ein fluss
po unds
Found ation
ol and
reduc ed
unk el
NS W
st ammen
D DR
Ot to
mel det
H O
schau ern
ct ic
schr iften
T ief
ein iges
für s
de puty
L ange
m asch
ch a
D ow
H istor
me chan
grad u
Kon sequ
abil ities
wide ly
ie ger
junkt ur
aus end
K amp
H us
vor hand
ge str
V alley
g ift
g alt
experien ced
ile t
G lau
J ens
f illed
author ity
f ro
bie ter
grap hy
Sp ace
über all
g ap
v y
H ell
may or
ed a
K iel
Er wart
Co ok
l ändern
Ne uen
Br ian
ver e
Karl s
con sequ
Z ivil
R oss
hinder t
St or
R ick
L uf
p ushed
weil er
schie ßen
en gl
un mittel
On ce
fon ds
t ained
Ex pl
m ater
kl are
ent in
dev ices
commit ment
leg ation
vul ner
char ity
Eig entlich
Nieders achsen
For mel
Inde x
L isa
m ph
Dres den
bild ungs
em an
inquir y
absolute ly
wo bei
Get ty
ges orgt
persön lich
st ro
A sian
Bris bane
Finanz minister
cor ruption
An ders
wir ft
vor gestellt
k lin
sicher heit
dis play
N FL
üs sen
Quadrat meter
näch st
vill age
relativ ely
M u
ob ject
pos sibility
Gord on
P fe
Se pt
ass ung
BV B
fal sch
gem äß
cover ing
neigh bour
Fahr bahn
An spruch
M und
Tour ismus
zeich nen
ern st
den kt
Min dest
On ly
Beding ungen
law makers
de ploy
ac es
M un
g ate
sh ops
om b
tr ail
mor al
form ed
zu ständig
d ir
off s
Am ong
n one
com ed
ab and
Demokrat ie
lo hn
Kr iminal
uell en
Ge tr
opp elt
richt igen
Spr ing
König s
fühl en
vor erst
c os
ce pted
in spir
j ene
ün den
sho ul
dur fte
G ipfel
str en
ib ility
vor bereitet
o th
D all
deliver ed
Flücht lingen
bur n
spir it
D sch
walk ed
T ipp
Brasil ien
An wohner
R ay
Produ kte
Jun ge
out s
erhö ht
op pos
loc ation
wirk ungen
J ona
co u
te acher
Kenn edy
wor ried
ent scheid
V ie
prof its
Rück stand
199 7
cr imes
ck s
Angeb ote
M atch
B R
gesch affen
H und
N BA
re y
B ie
D ir
Fr ü
B an
AN D
curren cy
w itz
up s
verletz ung
K ent
Wer der
T able
leb nis
E f
C orn
A A
Austr ia
st ake
präsent ieren
Ariz ona
ex am
gemel det
We ber
k it
Regel n
Tot al
re cession
f ts
threaten ed
th anks
P ens
be zeichnet
ib ung
Mus ic
Bü cher
f uß
A kte
cr y
R ainer
re jected
know ledge
polit isch
Cent re
sever e
Y our
ur ban
m ung
controversi al
Treas ury
immedi ate
F P
L ot
J ac
Kandid at
bere iten
ent sprechend
en forcement
Pr ot
he uer
Sp ur
Ben j
Ro y
Christop her
m einem
sem ble
own s
poin ting
D irk
Zu schauern
Vor sprung
C ra
Z iele
ele ktr
Gewer be
comp ens
Bot schaft
Regisse ur
sus pended
inten ded
Frei zeit
st all
Le icht
arch ite
üh le
Str ate
p owers
NE W
Re volution
ge öffnet
ib l
leben s
ov a
zähl te
Ver mögen
äus ern
def icit
Soll te
T oten
rap id
star b
a ders
at tet
E reign
Bo ard
ai ro
sta aten
pro ceed
is ol
ic op
All tag
K y
back s
be halten
Krieg s
Glas gow
spar tei
vot ing
W ur
consider ing
Pl att
M ön
offen e
Bl umen
sh ore
Vorsitzen den
pro ced
antwor ten
gewinn t
ill a
best immt
le aves
on going
in cent
b ond
th ank
Bon n
Hen ry
mar gin
N iveau
P od
Masch inen
Sil ber
pro jekt
Vor stellung
suspe cted
Dar über
fact ors
AS H
größ ere
brit ische
Sch u
wel come
öffent liche
Me yer
organ isiert
condu cted
hy th
1 10
Job s
ite ten
Y es
H aup
insist ed
Palestin ian
pre ci
s and
gelern t
S ix
Met all
mar sch
as y
beding ungen
he ll
verkehr s
ed s
pr äsidenten
F ree
B auer
k athol
Arbe iter
pos sibly
ad just
ph il
qu id
bes ucht
F i
Grund stück
watch ed
it ory
Er de
Unter nehmer
ra id
de vice
c ia
Pa ar
scor ing
w ich
Tre ff
associ ated
ut ional
Ar g
F rem
ass um
M eine
respon ded
sch ungs
se ction
Hou ston
R oten
z ell
ev angel
pro b
lau tet
Die sel
B udget
ver ändert
f ing
Tur k
sicher te
V ö
Op el
neighbor hood
ell ow
un employment
sche iter
il leg
Invest itionen
ver kün
Jona than
Ver anstalter
kandid at
recommen d
D NA
T S
equ ity
st able
Grün de
h üter
ge ist
Flug zeug
man che
Benj amin
J ak
sk ills
f inger
T ie
pre ise
B am
reich end
stud io
K lo
Sc ience
infrastru cture
Leverk usen
dr hein
T onnen
ner v
9 2
Zun ächst
ven z
rad ik
ide as
af i
ab gesch
Pap st
qual ifiz
ack s
susp ic
wahl en
ex amin
Br anche
Prof i
initi ally
test ing
east ern
cell s
S ow
Demonstr anten
es a
approv al
plan ts
Kaffe e
T A
G irl
Br ig
indepen dence
verband es
ge wiesen
in kl
Freund in
attack ed
Her tha
ver öffentlich
ial e
Grund schule
ver halten
In form
Pass ag
er al
Ear lier
An sicht
in dem
3 50
sozial e
de fe
Stre ik
c ateg
A then
In frastru
st im
d aten
Er klärung
kräft ig
cho ose
f ill
an imal
r ide
Zug ang
as ser
h agen
un ique
occur red
wechsel n
sh ift
B ou
Rel ig
dire ction
prosecut ors
com mod
Ger äte
c aut
poll s
Abst immung
ge ted
l it
ch ances
crit ics
Spiel tag
Dah er
St ahl
ic y
pict ured
L ust
em iss
schaf ft
D ad
corre ct
dring end
num mer
pres sive
lead s
Schw ein
L kw
Z DF
B O
hol z
isch of
Georg ia
str om
hor se
ic ine
teach ers
ö ch
ver he
ip al
Bundestag s
pre cher
c ers
k ass
Zust and
car bon
ständ igen
public ly
pe kt
des per
sh ad
En gel
ap olog
your self
au ty
Just in
le er
definit ely
gr an
ul ate
pro ved
f roh
hin ein
L okal
invol ving
b ath
ref lect
lin ken
ak en
eas ier
B le
ver tre
glück lich
Höhe punkt
ne ck
b ac
Al bert
Liby a
au g
T ank
O x
Mar g
behavi our
J ason
Ad d
Ad v
sch ü
sy n
or row
it ern
z z
sen ator
Spr ung
to s
Mo ore
if ahr
Char lie
Kl ass
co de
wa ke
Wer ke
enter ed
ch or
beh andelt
custom er
ünd nis
tw a
hon est
ein iger
Sour ce
ex press
Unser e
b art
ast ers
Nachbar n
red u
Aus einander
fre unde
Fr aktions
L yn
letzt lich
restr ict
Mit teilung
impro ved
R uf
Freib urg
Stad trat
tar gets
sh aring
grün dete
st un
aim ed
gener ally
Jud ge
W ater
Halb finale
hn ung
ad ults
be wegen
cl ients
wh ate
H op
ip per
lo hnt
F R
Dar auf
e ating
zu stellen
whate ver
alle ine
per fekt
E twa
n av
Vor haben
R ent
H at
sur round
Go v
ä b
prov ing
ör ung
Kat astrop
B B
Ko operation
kar ten
sh opping
C ann
ans ion
haf te
Fe der
ern en
Ober bürgermeister
schlä gen
apart ment
comp ar
lob te
ger ät
pros pect
I L
akt or
atten ded
ul y
vol unte
statt ung
el and
qu ake
bü ro
b zw
m ate
alle l
G il
Col or
S ven
Verd acht
ro it
fl ights
ächt ige
not es
wer en
mo ves
vent ure
op a
har mon
Les er
spl it
Gre ek
Nor bert
inn ern
Des ign
Mr d
clos ure
expl ain
L ob
äte stens
it ers
kürz lich
gesche iter
co ck
inn ing
er ed
al a
dar aus
S O
pen dent
erlä ut
arbe its
B ast
Kon junktur
kon zept
sch loss
bre it
land es
mitglie d
Sof tware
zusätz liche
au te
mess ages
dis aster
understand ing
sp or
Gaz a
insp ired
re bels
sp ek
Olymp ics
ret ten
ans as
gest immt
thro w
dre am
Lu kas
außer halb
You Tube
Aus druck
Cop yright
m ates
angeb lich
pil ot
h osp
ä gen
Pr axis
Lad y
r agen
Schn ell
anc ell
activ ists
Förder ung
eg al
C redit
war n
Cor por
In sol
H C
conne ction
interest ing
sl iga
kon zert
fre ute
ho ckey
be er
El iz
st ance
div ision
w ine
ver geben
road s
A h
Aus nahme
gen ehm
BI LD
re put
fass ung
Fo od
sa al
sur ge
An lass
iz z
combin ed
üs s
great est
wähl en
Kin o
Nach richt
ib ly
v ies
t ner
ig ers
T oy
da vor
Re is
Z oll
fac ility
return s
An walt
ch ain
in al
ir on
Parl aments
f lying
Verteid iger
hand le
199 5
turn s
B asketball
ou red
ard o
ile y
R oland
än k
leist ungen
En ter
An klage
c u
äs id
alt ies
Unter richt
Tele kom
mann s
J azz
str ing
i ö
re lief
you th
gy p
Defen se
fe wer
t icket
antic ip
Det roit
n ell
Rober ts
Fr itz
wet ter
con stant
Hö ch
g g
y stem
stre cke
p pen
lear ning
Mal ay
um fassen
Sto l
Auf tr
heim ischen
v ard
Au ff
in des
Jahr hundert
mon t
lie ge
Motor rad
Adel aide
V iet
ges präch
at re
amm elt
Verteid igungs
Um gebung
s burger
Sü den
compet itive
repeated ly
war f
r ief
ol i
sche ch
grün den
tar geted
so le
an x
stamm t
i qu
mom ents
vis ited
französ ische
Ne um
assist ant
Tr ib
auf gestellt
ür zt
Portug al
Vor feld
ap pt
Bel g
d inner
Ir ak
histor ic
Die go
y e
exerc ise
Hein rich
convers ation
Entscheid ungen
st unde
kun fts
lo ad
au ben
män n
Ne ues
el der
M isch
pass ieren
dro hen
Gä sten
br ück
prov ince
circum stances
Gemeins am
wind ow
Fe b
Tele graph
See hofer
F ro
bl ast
Städ ten
control led
Land rat
is rael
Ro th
Z ul
B och
S ark
über nimmt
br achten
Mitarbeit ern
Herausforder ung
caus ing
FI FA
P ul
dev ast
tr ick
je cts
russ ische
gro unds
cerem ony
o e
r and
hin ten
s ingen
Med ical
win den
ret ired
pe cts
Kommun ik
199 6
H amp
dut y
üh nen
n ord
PR Newswire
ü ten
prom pt
W is
de ta
p in
Plan ung
darauf hin
europä ische
ver schw
der art
determin e
bewer ber
Besch luss
support ing
A cht
return ing
Ser b
Dire ktor
Wir k
close ly
Ver ständ
he il
mos ph
re plac
Dall as
är ger
Ad ministr
h ire
V ettel
ING TON
r oten
ar io
bas ic
Bel ast
19 60
ne ur
Ander son
St ich
re place
Ord nung
Bet reiber
Al ternative
H K
gebe ten
diskut iert
V ene
Ab bott
beg leitet
mark ed
pr all
ä h
g led
städ ter
ma ßen
n om
fal se
Flücht ling
clos ing
y en
tens ion
Gro ßen
ag og
wen de
J ungs
al z
u x
Di plom
ein deut
U t
Ve gas
schätz en
act ors
teil ten
möglich keiten
Le iden
st ir
be comes
be finden
Au ge
setz ten
bann ed
Freitag abend
Stutt gar
Wil helm
heav ily
hel icop
amerikan ische
wa ve
ru fen
sche idet
den ke
cast le
Vor gehen
vor an
Foot ball
wer ten
H em
Med izin
r or
Be hinder
head ing
berichte ten
bre ast
cruc ial
sich ern
Tat ort
strug gle
refuge es
spl ätze
claim ing
lo k
miss ions
tr uck
Br ücke
N AS
pass ing
ge eig
Fuß gänger
G all
of fee
Im ages
War en
In zwischen
Be cker
ver me
priv aten
9 4
Sport ler
br acht
P ay
v ant
haf ten
un less
Se chs
ges ichert
ungl ück
Kommun al
model s
Iran ian
Au di
wed ding
them at
Re be
Gro ße
er forder
18 0
as cht
k nee
Ro ger
Gebie t
st immt
miss ar
kar te
än ke
viel er
F red
Fin al
äl der
se iten
dre w
el imin
W F
uter te
im pl
W ASH
stock s
Mittel punkt
L og
land en
stät ten
Fle isch
Heim spiel
world wide
l ap
r ivals
g nung
id o
iz es
fund ament
C ro
itt le
fähig keit
be in
WASH INGTON
av en
Schwe den
be ar
spec ies
Wer te
g ains
veter an
C athol
r ub
ut ing
P hase
Phil ip
199 4
entsprechen de
letz ter
sp er
com man
Gr amm
pass ion
gr enze
capt ured
Wel che
end or
J ay
P ek
Immer hin
o ul
law suit
y p
Air lines
mark s
über w
krit isierte
Mit tag
commun ications
klär en
estim ates
pack age
investig ators
H L
l äd
histor ischen
C elt
lie ger
con gress
fü ll
ge heim
old s
d ance
Sou thern
pay ment
ro ht
Al an
D od
dien ste
wus ste
14 0
investig ating
Wahl en
Führ ungs
si le
Dire ctor
sur ve
friend ly
Kr im
H ugh
meet ings
Bul gar
An leger
G ene
mer t
struct ure
ack en
short ly
H orn
kl ingt
Dig ital
Ab u
mit einander
verkauf en
Denn is
Ä gyp
St il
Integr ation
im ens
her an
famil ien
y o
Rob in
Don au
B loom
wor ben
Link en
journal ists
lie hen
stre it
spok en
descr ib
dis h
Wider stand
H ände
fac ilities
fe ierte
Re p
k ultur
under stood
ev ol
main tain
bahn hof
offens ichtlich
For derung
Bern hard
p ft
um enten
Amer ikaner
sto ßen
jour ney
re action
sav ings
K amera
ic ing
I owa
Zwe iten
democr acy
ann a
ex treme
lau gh
beson deren
kore a
D S
em b
Män nern
ap point
ant ly
t ied
Tour isten
auf nahme
ob ody
In ner
Urs ache
gre if
R ights
sat is
g olf
East ern
leb te
We ißen
Rang ers
schließ t
Bl att
foot age
Park platz
Wicht ig
auf merksam
Mot iv
Insol venz
I dent
ke eper
ge gründet
Akt ual
Gr iff
lie d
vier tel
S af
sett lement
Mitglie dern
contr ast
ancell or
f ält
incre ases
t ask
co al
over seas
D ist
in fe
ident ify
happen ing
gesch ickt
tr ug
er innern
work er
exten ded
Cr oss
mat ters
c ards
we iger
execut ives
Pl at
ber aten
de ter
industr ie
berüh m
not ice
serv atives
Democr at
b und
Dis ney
J ess
Weihnach ten
Ein kommen
Y ah
surpr ising
in ed
V arian
son s
I an
sen ding
ein gestellt
zieh ungen
Ein schätzung
Bundeskanzler in
K erry
IS IS
purch ase
Eliz abeth
ör en
aus länd
türk ischen
ag ents
un gewöhn
if ts
ex cl
reform s
Se ver
fest gestellt
sum mit
al tern
Min istry
N ight
her z
sel ber
Sp uren
Zu ge
obvious ly
dr aft
Be is
ste ck
Kon sum
C ow
Ver z
S amm
Verantwort lichen
Qualifik ation
ac cepted
tack le
sur face
Um bau
advert ising
end r
mer zen
C a
h orn
ivers ary
Mich igan
g änge
M ol
ug s
wett bewer
Mar ine
G un
draw n
deep ly
G lo
Ur lau
Ch am
fr on
schr auber
Gesch äfte
al ive
geb äude
Aus gabe
dr ig
schle chte
Angeklag te
c ation
Liter atur
br ach
A Z
Me th
bar er
fü hle
t ung
Br an
bor ne
hö here
fail ing
R ou
ikan ischen
Ma jor
Th ough
br id
instit utions
colle ct
G H
9 7
ir ol
Ges chen
Harr is
Lo hn
op ted
mach er
surpr ised
be ziehungs
thre ats
aus einander
iv ity
k ü
Beteil igung
Her bert
J ury
Jahrzehn ten
be zahlt
retire ment
i ße
diag no
199 2
pr ächen
M ig
terr itory
Ham as
Zust immung
A dr
Un gar
De f
Invest ment
K rem
os is
Liber al
pl ot
Ne ust
Rei hen
man age
erlau bt
spr achen
verstär kt
I ER
B äume
a e
F ü
u an
e qual
po ver
ap ie
Über nahme
im possible
agg ressive
verb oten
verl iert
E cke
wo unded
Con servative
Ty p
zurück zu
Schl üssel
G ill
su ed
W here
M em
198 9
par ent
ac le
my ster
gr av
cop yright
inter nal
National spieler
push ing
gl as
entire ly
Ver lag
ac ed
ministerium s
H ub
k eines
b io
m ers
besch re
Air port
percent age
F if
ag gress
dozen s
H allen
tr afen
six th
j an
cy cle
Color ado
Walk er
ac cur
Mich elle
Gesch ichten
es sel
hat e
beziehungs weise
österreich ischen
vorhand en
perform ed
olog ist
g lob
läd t
S ud
ver sicherung
is ierten
Th or
M A
Infrastru ktur
pr int
ger issen
significant ly
Wohn ungs
hat tan
co very
Pfl anzen
sem i
Be handlung
i ders
v ior
pie ces
A x
ü ben
Prof is
en h
than sa
pens es
bar rel
kann te
R ott
st ücke
Ko st
mosph äre
fünf ten
rece iving
Max im
Smart phone
Jahr hunder
produ cer
Pe tra
t ight
P erry
usal em
n ick
Ein igung
spart ner
Sen ior
Le h
Sab ine
Erfolg s
Christ ine
Lö w
überr ascht
Luf thansa
sch ä
ausge zeichnet
Behör de
ak ers
attem pts
offiziel len
sh ape
Cra ig
war ded
st änden
Vor der
st ern
M auer
lock er
Tor wart
So ciety
tin y
ultim ately
Schä fer
An schließend
perman ent
An ges
Viet nam
interess iert
o graph
W and
K und
pe te
f oto
min der
bre ach
L ied
In f
größer en
senten ced
deli very
ac ing
Ein nahmen
minim um
drink ing
ting er
be zahlen
Schl af
l r
lik es
K ay
epis ode
ent lang
reag iert
üt ter
ir ts
pr ay
Spr ach
Meister schaft
oper ate
L ake
lob by
loc ated
C at
an bul
re move
Bed arf
ident ity
Auss agen
w ächst
Sol ar
R ab
vor n
Nat o
O C
v ital
amaz ing
betr ägt
ma x
th aus
vulner able
enz ial
c ultural
pre ce
bill s
verpflich tet
r unden
S ul
Ver tre
Ist anbul
s iv
kur zen
ian ts
lie st
he ißen
share holders
Rück tritt
H ass
pro g
de cre
mem ory
con dem
Mil ch
other wise
ag an
ö glich
D I
id ar
be we
Jenn ifer
Bör se
l unch
th alle
ind ic
Lau ra
hop ed
str ainer
Innen minister
Qa eda
Sum me
C afé
occas ion
Alb um
te x
Gr ab
zie her
Be weis
is her
ome tern
s amt
ic on
Jac ob
Vene zu
J r
erst es
ph ia
Um feld
val ues
General sekretär
I sa
ro id
R ats
M od
Zu hör
wir tschafts
D ick
M ah
über zeugen
n i
gä ste
Pe ters
it as
Stuttgar ter
gef ä
Mitt ler
ious ly
Zu cker
Ju gen
adv ance
fr anken
angen ommen
All gem
reput ation
Al ab
on ie
M inn
Phil adel
kt ro
voraus sichtlich
sh irt
Sing ap
ad ds
Min i
H amm
bre ath
emiss ions
Sin ne
Europä ische
tax pay
Ä hn
5 000
bl ings
vir us
Ac ademy
A wards
Moh ammed
U C
Squ are
art ikel
Char lot
G ary
Staff el
E vent
ge holt
Temper aturen
Eigent ümer
S orge
Arbeit nehmer
Ch ildren
C it
Lie der
fr isch
H afen
il and
sen sit
Schw ier
sh aus
stron ger
Cl ass
Holl ande
stag es
F ollow
op posed
tag es
schle chter
Matthe w
Ch annel
der es
sich ert
om ie
J ed
gew icht
leg it
ster ben
Ger ichts
grunds ätzlich
ht ml
Moder ator
Philadel phia
Con tr
Ste uern
Beruf ung
f abr
oph ie
Le ader
K nie
form s
Ver sch
attem pted
Wer be
s ick
j üd
16 0
ge prä
Turk ish
Ge winner
Kl age
Atl anta
Ph ill
pl aus
Jer usalem
um zu
Aus wirkungen
W im
Auf nahme
Aktual isierung
S ad
nar row
ol z
arbe itete
re presents
Rest aurant
ap pointed
aus gesprochen
Dem nach
al ing
Gesch wind
Rechn ung
hö he
t ank
For schung
ann iversary
bl ame
Ar min
brut al
Frei will
vis ed
t act
ev ac
charac ters
Vol ker
Nutz ung
Sam sung
wirtschaft lichen
ser ie
le in
erläut ert
bel le
gest artet
i atr
Schr öder
Geb äu
F inger
ver teilt
br ü
drück t
bes etzt
R enten
nahe zu
au e
ip tion
Spe aking
lock en
w aste
aus schließlich
Yah oo
K am
aler ie
Ge ist
GM T
he ben
Land gericht
Wissenschaft ler
g lo
Ein führung
Un glück
ück sicht
invest iert
B art
Gymnas ium
J äger
Stadt teil
re gen
dr auf
ü bt
T ät
app ly
Sp ons
Tor onto
Gewerk schaft
civil ians
Cl ark
wie gend
A gr
V ar
vor zu
v s
Akt ualisiert
p ip
u sch
Schwe ster
gar ant
do ors
pat tern
For derungen
gef as
stell ungs
Gr az
vorsitzen der
un usual
Lauf e
ent ertain
ab ort
Akt ionen
good s
con vict
Sy n
favour ite
ag s
am oun
H obby
are tt
ch ing
ail le
v ideos
v acc
ap ol
intens iv
Gleich zeitig
ill ness
Ele ktro
Nor drhein
ent lichen
verbess ern
mer kt
ple as
aus ger
c cer
Überrasch ung
eigen er
tom orrow
Tor hüter
hof fe
Tr ust
Famil y
ex penses
R ake
ob lig
o od
Bis lang
s au
cour ts
ass ador
con v
damal igen
of fe
Gr aham
Som al
oppon ents
o z
Schü lern
bes uchen
journal ist
Vill a
wr ites
in ne
mo vies
b aut
G le
re placed
beha vior
bor row
Bre mer
it ur
gen ü
vor stand
ü gel
m osp
Sw iss
com bat
teil nehmen
um fang
grün dung
t ickets
manufact uring
K urt
Vor wurf
B ühnen
Angeklag ten
Miss ion
How ard
Rebe llen
z in
g ained
erfü llt
br a
hand lungen
Vor gänger
think s
sich ten
bar keit
s oft
d ates
Frieden s
S endung
verlang t
G ö
sequ ent
contr acts
t ree
ask a
shar p
o zy
spro gramm
National mannschaft
ern s
versuch te
weit gehend
the it
är ten
Um setzung
ro of
Be frag
ul pt
Ho hen
Je wish
re venues
gel ände
z ut
stehen de
song s
mb ly
Sonn abend
ächt ig
w ire
Man hattan
w age
hon or
en k
3 000
Mar ie
expe cts
e e
ex pos
irgend wann
L ittle
Ko al
t ap
ul ated
Netz werk
L t
Bundestag swahl
S low
Fl äche
gest alten
mach ine
Verletz ung
il a
fact or
Res pekt
Jer emy
schr itt
Wir kung
Tim o
season s
Verhand lung
F lo
K ür
art ists
S anders
ein ig
H offen
Haus es
Por sche
gesche hen
test ed
every body
che ap
in tim
mo dell
dr in
ak el
au ten
zunehmen d
vie wers
f liegen
exper iment
fo unded
milit är
H ändler
S imp
ak ul
aus geschlossen
f alt
coll abor
W he
par tei
Erinner ung
ant reten
schö nen
kehr en
Auf steiger
sub s
is an
S anta
Ab stand
act ual
Sch les
Bl ues
L E
K oll
inform ieren
ac adem
ak et
et ze
arr y
os ch
a is
ap preci
D ör
T ai
H aut
L iz
har der
ge fühl
t rem
H ad
erhö hen
l ots
sen de
Bow l
ex cell
M esser
lig ist
nom ine
St imm
else where
imp lement
ull ah
An halt
tre men
om s
cont ain
T ausende
an ischen
hosp itals
Bes itzer
encour age
me at
w oche
ke en
graf ie
effect ively
Lux em
acht ung
P ep
B urn
sp itze
Best and
Med ik
trig ger
z elt
sch ilder
Strate gie
Re aktion
r utsch
il ich
h aul
tr ieb
bekann ter
um gesetzt
Link s
sust ain
bl ut
H SG
s ack
W E
mult i
Po sten
ha i
ru hig
F ok
zü ge
propos als
Ein tritt
L ions
ver g
De velop
T ory
fr ame
h itting
Zent imeter
Mar s
ab gele
Vor jahres
künst ler
jud ges
Presse konferenz
beg ins
Grö ße
conne cted
ürz te
Führ er
u ft
es cape
B uck
Koal itions
C ir
Wo ods
g au
w hel
em a
em pl
äch s
erziel t
bet es
ab led
exc ited
k ne
hu a
mö chten
Ste wart
dram atic
des igner
C ob
cust ody
Schä den
Bege gnung
adv anced
Gemein schaft
Ed ward
p per
W ul
Con ference
ak ten
acknow ledged
ton ight
per mit
lo west
M aur
Ke y
Guard ian
wün schen
K ult
entsprechen den
mis sile
emp has
Land rats
Welt krieg
S ant
Ste ffen
sp hase
Instit ution
Can ber
äd agog
olog ies
enjoy ed
Arbeits markt
Hin weis
199 1
ul ted
Sch reiben
P ast
h ause
l ament
Anges ichts
kur zer
prü fung
del t
human it
j ag
sh all
Clau dia
r ugby
j äger
Y emen
kr imin
T alk
tr uly
stru kt
un ve
Toy ota
rele vant
wer ken
Tr auer
ose x
p up
be stand
c ro
acqu is
Erwart ungen
com edy
got ten
hält nisse
Vor teil
r ush
äuß ert
wes entlich
K ita
T ote
fü llt
bus y
sitz ung
Mehr ere
angr y
Aus gaben
ange bot
Unter schied
po le
ent spann
liber al
be zeichnete
kur ze
igh th
G on
emer ging
bes etz
clo thes
Pro gram
ier er
T es
NS A
schir m
zug s
air line
Gün ter
re publik
war nte
gest altet
con cl
Prü fung
Er krank
gen et
Fre unden
all eng
Administr ation
disp ute
Sk i
schl imm
P ok
i xt
ver anst
dem ands
collap se
defen sive
talk ed
Fl ächen
techn ik
bestimm te
Ber l
Fer gus
ore t
u ers
Abgeord nete
Vers orgung
Jag d
in ary
Auf bau
out come
nor m
D id
S ä
discuss ion
verb in
int ent
s in
nis sen
ik i
Sch wan
par te
am bul
to ler
sco res
to ms
et ime
Ver besser
buy ers
zi plin
Schä uble
we ge
K UR
prem ier
Naz i
surround ing
verl ust
Sch ick
Betre uung
wirtschaft liche
Volks wagen
NAS A
c offee
ju gend
am bit
Finanz ierung
kit chen
Stre cken
Beschäft igten
fiel en
Aff äre
it o
r age
man ip
folg ten
N C
re ll
Ein richtungen
en te
d lichen
m ord
ge teilt
N ich
inn ings
ende te
t ts
ass y
s kept
Aufsichts rat
P ent
Glau ben
dr ängt
In fl
repor ter
er ous
i ola
Är ger
Muse ums
fr anch
sorg ten
Thür ingen
auf gebaut
Se cond
ans on
dr y
In dien
Fr ühl
k ulture
val u
betr offenen
cap able
And roid
frag te
vis iting
man aging
Sach schaden
the k
coun ting
Welt cup
erlä uterte
pur pose
An dere
best re
question ed
threaten ing
o ß
gew ähr
van ia
Verständ nis
Ü b
Zentral bank
dau ert
Zwe ck
un i
L esen
At tor
dr ag
G ab
ver wies
dist ance
prior ity
einst imm
Pil ot
lux ury
f ter
Nav y
ve t
as ide
typ es
sted t
punk ten
strug gled
seit ig
olo gen
put s
Gegen satz
Per spekt
TH E
aus reichend
l ift
Mie ter
199 3
Ger ät
D ol
Cathol ic
proper ties
agend a
kl agen
R ub
compens ation
des er
KUR IER
electric ity
Gl äub
schwar zen
Min der
her ren
min ing
reach ing
regular ly
tele fon
T ats
Bürger n
Jos h
bo ot
ent ry
W ürz
behör den
Cal if
man agers
arg ue
fat al
Sark ozy
folgen den
Kre bs
Reg ionen
l av
iss es
unterschied lichen
con sc
h ob
F ive
antwor tet
N ationen
r as
man s
destroy ed
Gegen teil
d io
m ack
nach halt
Schauspiel erin
ru ft
kommen de
ge ändert
Canber ra
spiel ten
fiel der
ex cess
l ucky
bew ahr
sp äten
kre uz
kle ines
back ground
dy nam
Akt ie
isten z
f ought
cr icket
At mosphäre
m igrants
Prü f
kom mission
cor respon
Re chte
mo on
Aktiv itäten
shoul der
dis missed
Bran chen
exp ansion
komp let
arbeit ung
R äume
Nor mal
verabschie det
ung laub
E ich
U s
Penn syl
Aus wärts
ch alleng
Thom p
kl ang
das h
be mü
An bieter
ursprün glich
R un
Schwarzw ald
G add
reich er
ie in
zwe it
förder ung
Kr äfte
sett le
Inform ations
Ele ctr
E mil
Per th
br ings
beob achtet
Ass ist
rough ly
ide al
Afr ika
jün ger
Stadt verwaltung
S av
az y
al do
e ted
Samstag abend
ok ed
be str
K K
ak u
dem okraten
man gel
eins atz
birth day
br ight
A tem
B ündnis
advis er
Ev ans
in der
dro ve
B ade
Gün ther
Mittwoch abend
Kritik er
frei heit
R og
G or
streng then
st ated
um in
th in
consequ ences
ick ing
wor ten
ar ab
Gemein schafts
caus es
u den
Teil en
mer k
dis ci
gen ie
i had
offic es
tre es
Klo ster
compl aints
ag a
en counter
ve get
k ts
führ erin
ir n
des wegen
künft igen
ge ziel
remark s
D L
gather ed
st immung
Sch atten
op ol
Mitch ell
requ ires
hö hung
profit ieren
ch r
un its
g am
T M
at mosp
ben ach
ver standen
deal ing
f ile
Co sta
pf iff
her steller
Ex ecut
E ber
u ßer
belie f
führ ungen
Vor trag
h ten
He ad
er geben
höch sten
enth us
Grund lage
betr ieben
ig ation
bestimm ten
im pressive
R as
bil der
Mü hl
employe e
Anton io
l ös
K i
Pennsyl vania
Pr im
beschäd igt
Bo ot
schätz t
gebil det
fol io
coun ty
an trag
Asyl bewerber
Ges ell
is ers
Be ziehung
Att ent
dire cted
b ud
regul ations
park s
z ing
An meld
Al tern
Thomp son
ge fahr
sta ats
Aus gang
Fok us
Konkurr enten
Str aft
sch ien
stet ten
kr äften
citiz en
veranstalt ung
Regen sburg
OR K
b ör
endgült ig
Z er
r ape
techn ical
re pr
origin ally
typ ically
assist ance
Schl us
f ers
Lin z
Die t
italien ischen
k opf
Exper te
ab road
ein igt
over whel
j apan
perform ing
in ho
Ob am
ste pped
h ändler
Eb ola
T atsächlich
Champion ship
forder ungen
mist ake
akt ive
Ham mer
ig aret
hal ben
rad ical
Pl ak
au ction
var iety
bisher ige
di verse
br uck
champion ship
er reichte
ob l
Muslim s
in f
tr ained
R h
Sk andal
Gottes dienst
schwer er
plan et
Besuch ern
thre w
K op
Dienstag abend
j etz
Fil me
F inn
al o
conne ct
h essen
priv at
Ze ug
Part ien
lock ed
Fergus on
join ing
wel cher
be zogen
imag ine
ant as
Invest or
Prinz ip
rest aurants
N el
An lagen
resol ution
r ating
schaf fte
p ump
Min us
Kü che
Br idge
wohn ern
Br ust
D E
grü nen
Masch ine
sch äd
a er
sol ar
persön lichen
gr ass
L ar
Cru z
Re publik
dam aged
Bu ff
dür fe
ha w
fehl te
c amer
verme iden
trans ition
mix ed
Lie fer
h ill
ame ister
ne utr
s mann
k asse
D V
ere ig
w aters
ul en
un clear
Be ziehungen
Ge is
Auss icht
ück t
F u
proper ly
div or
üt te
ind icated
strateg ic
W ende
inten se
Gen au
mic ro
ß te
Land tags
b ol
ue z
strong ly
k ür
Polize is
dr an
ot er
new ly
st ations
Atl antic
w ochen
Veränder ungen
sug ar
di vers
import ance
chem ical
he m
class ic
W ann
com pete
stad ium
Ne il
Montag abend
gef lo
A y
Sch wenn
Vers ion
scen es
ter ed
C hair
con cept
über nahm
Be amte
gleich e
per fe
Z ähler
coun ted
OR F
an fang
ian z
ast ik
Andr é
för dern
organiz ations
D oping
Wind ows
äußer te
f ließen
finanziel le
erinner te
G E
sa ß
cre ation
D utch
conclu ded
Oper ation
Greg or
Sign al
u a
b ike
m ahn
bon ds
Stu dent
zahl ung
ru h
au ert
lie fern
ab sen
Mass ach
ste her
Er folge
r ücken
le id
ge standen
Au fen
appl ication
be auty
sol utions
Wer bung
Wat son
gre ift
L L
Ser ge
K ammer
ff iz
St ark
rei ßen
K ateg
sicher lich
prom ote
register ed
I d
as ks
whe el
ge gner
est yle
T SG
küm mern
ges ell
ad ult
g uns
War ner
st offe
fir ma
we ib
D ame
Spiel ern
pain t
use tts
Market ing
Ferr ari
füg te
Y ORK
ver folgt
Schw imm
Br ut
ple ase
UR L
äuß erst
Massach usetts
fr aktion
gr enzen
iv ors
gr aben
r iver
mel dete
em barr
ten berg
Pal äst
Sol idar
health care
hal be
C IA
c ited
Bor is
ieß t
i ors
Ä ußer
ver meint
zu erst
A z
iden cy
ang aben
Mit ter
May or
Grün der
mo untain
Z insen
head quarters
äch er
Tr ip
Leiter in
N ext
geb unden
we ch
Tur ner
Ehe frau
ro ut
F onds
gesch ätz
Edu cation
ehr t
h ungen
T ed
B ER
sele ction
andel n
pregn ant
bl amed
T emp
mus ical
B iele
San ktionen
E van
f led
Re ad
Man che
pf lege
12 5
He iz
ent liche
alen der
Guard iola
ein heit
A ward
employ ed
Ex change
Bo eing
inst ance
L ös
ne ys
us con
Kon to
vor läu
ric ane
w il
sp üren
an teil
pos es
in th
follow s
K A
ütz t
Alex and
equ ival
Vor fall
Pek ing
st uck
invest ments
Beteil igten
bed room
ex posed
la bel
sat ell
schü ler
gen ossen
Kom prom
re li
einz ig
r ol
sch aut
AF L
amt es
üst ung
fun ded
geb oten
E th
be legt
H altung
er gebnis
br ücke
aff airs
Schwar zen
Tr uppen
br anche
Q uer
en gen
bau ung
unn el
201 9
touch down
Vor bild
imm igrants
con ven
Con ne
prom pted
Gul f
or ien
Co oper
ah im
ne ither
FP Ö
Zeit raum
favor ite
R out
er weiter
die t
Pict ure
ent schied
Aus bildungs
Char akter
T ab
Berl uscon
dis cus
fa x
Konsequ enzen
e b
Mag de
pover ty
Se attle
einzel ne
main ly
pre ad
hab it
Ab kommen
gesch äfts
gran ted
kun st
aus gest
Mann es
Song s
Best e
Niger ia
ides pread
con secut
net works
T own
sch ten
eigen es
fact ory
re called
et ing
L ärm
As ked
jeweil igen
bo den
d ich
Attor ney
ess ential
over night
Fe derer
ot ten
Har ald
cop e
r ote
E va
ge kehrt
D ür
In fo
ver letzte
ver spricht
feat ured
De v
str ö
le itete
la id
kn ü
anc er
B at
res ort
p unch
des ire
imm ing
Pr ior
th ir
G ib
Sch er
Arbeit splätze
Tha iland
Ver länger
Auf merksam
räum en
we ißen
wer ben
xim ately
Arab ia
jah rel
stay ed
International en
f änger
unter sucht
wech sl
el ig
sign ing
af el
G arden
aus gerechnet
er zählen
er scheint
Rus sell
El is
H ür
T T
RT L
Stein meier
Te ch
R olf
vie t
fä ll
L ib
Kom bin
for get
be ating
aller y
appl ications
Tr äger
Stud ium
Sever al
gol den
combin ation
Krank heit
Bere it
bel ong
ar de
rac ing
pr ize
di ver
discus sed
benöt igt
Darm stadt
passen ger
find s
consecut ive
w ein
chines ischen
dis crimin
pract ices
ist ern
N ote
Dad urch
twe eted
Ungar n
Höch st
ver mis
olo ge
min us
New castle
to lle
ü ger
Am b
Mark en
Donnerstag abend
Br uce
suppl ies
Celt ic
Br us
c ert
G ute
fast er
gescheiter t
Car ter
zw ungen
sch icken
ig keits
Bes itz
wend ung
Elf meter
ange kommen
N am
co ordin
ot ing
hin weg
dre hen
fehl er
ü re
art ig
S W
lo v
Jam ie
Son y
äch eln
inter pret
An stieg
är zt
P y
einz igen
fer ien
bl ind
geb ürt
L och
l ights
ref fen
Spe cial
Ju den
A ar
Groß teil
Protest e
s ü
ge handelt
k g
ok o
leist ungs
Fab ian
M ath
bewe gt
gesch oss
AP A
ber at
sol cher
person nel
Snow den
it age
guest s
gr id
O kl
Europ ameister
suspe cts
er led
Ent wurf
so unds
Schles wig
Bl air
partners hip
Kas sel
B log
sch me
reag ieren
betre ut
No bel
Swe den
ank a
r ural
fuß ball
Pro p
bled on
griech ischen
gesto hlen
rel ax
ver hindert
L or
an schließen
Mex ican
ell a
türk ische
Le uten
minor ity
grü ne
ver än
M our
Z oo
wel chen
wind s
sch iff
w idespread
tel n
D al
Al fred
K är
Gr an
gehör te
sa ison
Wim bledon
bay ern
D C
abgele hnt
Straf e
künft ige
bag s
Boch um
viel es
sub mit
ex port
Pir aten
ent steht
est imate
accept able
ar ischen
F V
Du o
re bel
Noten bank
girl friend
D ialog
19 50
be half
V ideos
i j
er reich
Sud an
W om
up set
K ä
gefas st
ersch ienen
celebr ate
explos ion
O M
höch ste
ver wendet
be grenz
d ict
there fore
Ex trem
vor geworfen
persön liche
ne st
eng aged
dead ly
t il
zerst ört
Far ben
regard ing
Dist anz
Pr äsent
E g
ber ücksicht
Che fin
1990 s
ill ance
stellvertreten de
Tr uppe
ro g
ple ased
b iz
entertain ment
R au
bo un
im proving
a wards
He kt
prepar ing
comp re
Z one
mot ion
promin ent
techn ischen
u ous
Mittler weile
mater ials
se ized
pun ish
Re h
gr oss
R ome
com mand
rank ed
jen igen
for schung
tour ists
consist ent
fortun ately
ach ed
F SV
g ins
eur os
ere cht
durch geführt
Natur schutz
lin ing
redu ction
Anze ige
Ke eper
inde ed
met al
Wahr heit
invest or
Auf grund
kr ain
gen ießen
versch är
should n
exc iting
net te
kurz fristig
T an
ar ts
cr ude
or a
häu f
ste te
Mo unt
ih ung
sub ur
kom pl
Betr offenen
Nico le
imm y
challeng ing
ge kauft
Ein lad
Net work
höher en
Kr on
disap pointed
dr ücken
ist et
serv ation
ein halb
R ande
gef angen
sa ved
sub stant
ac o
Fraktion schef
lin ien
Pro secut
spekt akul
break s
el led
Ges prächen
t ort
Kr ist
her unter
Vill ingen
c ot
plan es
kid n
cal m
C rown
Prov inz
wom öglich
Denk mal
S ens
compl aint
we igh
ik es
Lat in
an halten
igr ant
Er z
ministr y
leg s
u ct
P ie
stu hl
str ich
Bü ch
jump ed
ordent lich
ur ge
Ein heit
For um
Minn es
Ab teilung
in no
ten ham
lande te
on na
out standing
Lo cal
Dub ai
Bunde strainer
back ing
pe ak
ran ten
smo ke
pl astic
kolle gen
be it
w affen
M etz
Ar men
Expl os
P ack
Al arm
B ischof
weap on
Brü der
Juni oren
O B
M aster
besser en
F ut
städt ischen
Z E
beg un
re pair
h id
it is
z es
unterschied lich
Einkauf s
winn ers
re presented
C ott
farm ers
om m
expl ains
Verlänger ung
P oll
d ating
ch at
rück t
Execut ive
fix ed
H änden
Mann schafts
C level
stru ktur
V olle
conc ert
Spr eng
beteil igen
pres cr
li quid
verb ands
ham mer
Pent agon
Arch iv
Gr ill
wechsel te
ö h
Kar ne
te sten
M all
Bloom berg
Sänger in
Ver bot
bundes weit
diplom atic
fe der
Per haps
gel ingt
stim ul
Tages zeitung
eindeut ig
sh ap
Aus schre
Sch ätz
num erous
Mary land
por tr
f fe
ev al
t ier
Bag h
H aving
par at
pers u
Clevel and
ger inger
extra ordinary
Hoch schule
spr ü
schre ck
res se
il er
sched ule
Ber ater
Ver lauf
inkl usive
üt ze
akt iven
komp lex
Jes us
l uck
Ägyp ten
E ach
v ig
ele ctor
K han
Gel b
verein bar
uz z
Vi ktor
t le
enth alten
d ach
über tragen
to ug
Viertel finale
ic als
einger ichtet
j ailed
sudden ly
fair ly
O bst
K ick
l ach
St abil
De al
Pr ote
prep are
et ary
sch i
Da von
C hen
For st
le ten
u ated
F ert
w ä
May be
15 00
K ne
er möglichen
Ch o
C av
ang hai
cre ative
Offic ials
sch einen
t age
zw ang
Hoch wasser
Pal ace
Amer ika
suggest ing
teen ager
so dass
Brus sels
äuß ern
Inde pendent
s ink
Se an
öff nen
let ters
T i
as set
Mön chen
camer as
Nik ol
ch osen
r ence
geb lich
Fried hof
comp os
Mar cus
erst ar
K uchen
Ein zug
plea ded
erfü llen
Str and
ger äte
4 50
ent spricht
Pers ön
ho en
Coun try
m isch
Un bekannte
lim its
iz it
L ed
ep ing
W ährungs
Arn old
bayer ischen
diplom at
Magaz in
St one
S n
te or
col or
appro ximately
Charlot te
krit isch
äu fe
L ag
Br y
Minnes ota
ent z
älter e
te amm
G P
ste am
Malay sia
Corpor ation
reduc ing
quot ed
Jess ica
ab teilung
r ant
O pt
t ingen
über legen
br ands
ist ol
re de
k ers
deli ber
Landes regierung
trä gen
Dire kt
et abl
leng th
wonder ful
R ied
feuer wehr
pass es
inc idents
cal cul
Verkauf s
pas ste
unmittel bar
Sch ock
ar ische
aus gesch
Be griff
sch ar
Verb ind
shad ow
Ge wicht
ich ef
aus sehen
Au fr
Ple ite
Eis hockey
pro of
N ag
All ianz
i dem
er zählte
Le ban
In nov
pl ate
Te en
achie ved
Col umb
prakt isch
R unden
iz on
Techn ologie
k op
An zahl
be aten
18 60
Z ins
swe et
b recher
Reg ie
Camp bell
son n
Die Presse
Region all
Sy l
Österreich er
improve ment
Z elt
ur a
pred icted
d ok
Be y
ah u
our selves
Hit ler
Konfl ik
R iv
gen u
Bau stelle
stol en
finanz iert
schr ieben
samm eln
m ap
hol der
auf nehmen
Elis abeth
L angen
Da ve
S ind
t reiben
Gut achten
for cing
int ention
Fre ien
Klim a
T igers
Car los
Mann heim
ers atz
For schungs
pr ise
Spiel zeit
sen der
consc ious
Argent in
th us
Kl opp
Hoffen heim
qu art
inv ited
lie bt
B ond
R asen
wo re
Hot els
constit utional
Dy nam
d ot
nomin ation
ul ous
Er lebnis
Ax el
u krain
brauch e
Pil oten
lo bt
th ur
gre ifer
Aufmerksam keit
Se ven
H ut
Komment ar
L ars
atur ing
Or ten
ay ed
d ün
ton s
athlet es
ho her
br illi
Stellung nahme
fre ige
ch ose
D orn
as yl
ass aul
discuss ions
un ions
S perr
br is
Kom pon
re c
beschre ibt
b ust
Statt dessen
M ak
er folgt
Olymp ischen
pro vis
Rob inson
h ess
involve ment
Aut oren
ann en
cl ient
Lux us
e chte
max imal
Mönchen gl
de leg
gu ards
we ichen
A ble
Pr akt
bil anz
domin ated
grap her
S or
at ar
thro wn
l anger
So und
mag n
er hielten
He ck
schwar ze
fu hren
Sig mar
gef örder
Grün dung
priv acy
D ia
symp toms
Kil ometern
Staats an
Geheim dienst
Sie mens
Sa ar
ben en
al og
qu asi
besch rän
witness es
bed ür
div iden
t aste
unterschied liche
po ck
absol ut
fiel ds
Offen sive
i Pad
Br uch
wr iters
ia th
ge klärt
fr uit
f els
Kon tak
Trans fer
was h
T O
An greifer
Ab itur
Bl as
camp us
K ongress
flü chte
V ice
ger ichts
bean trag
Wett kampf
akte ur
N ahr
investig ate
lo kal
ut ers
Deutsch er
atmosp here
l s
Co le
ach el
Mc Donald
relationship s
oppos ite
Bagh dad
W ün
T ake
May er
str iker
eth nic
refer ring
bro thers
Bere ichen
maxim um
E mer
Come back
dr außen
L loy
Gesetz es
wer tet
co urs
tele phone
Ach tel
prosecut or
Stan ley
i ro
will kommen
Schö ne
E del
bank rupt
ic ial
Hol stein
lic en
Mar athon
ze p
str äger
Hig hl
Karls ruhe
Über wach
wel fare
spot ted
bo unds
Stell vertreter
Z ahn
u ations
re covered
E mir
he tor
sp ätestens
dist in
S unn
Zug leich
ch annel
Stat istik
inform ed
schn elle
f ün
Okl ah
M ul
A U
Club s
versuch ten
Ver pflicht
präsent ierte
ad i
surv ived
Hol ger
K red
staat lichen
empt y
Sen at
dur ften
gew ün
Spitzen reiter
ex pan
Da im
stit ution
any where
ab gegeben
gesch ossen
enttäu scht
Kilo gramm
Brook lyn
stret ch
stay ing
a ire
thet ic
ot ic
beteil igung
d ump
appar ent
T schech
deta iled
Z ür
B esser
enor mous
T oren
kir ch
Dar in
kosten los
System s
bar s
m ünd
inter vention
ach ts
sp in
Austral ien
parliament ary
kr anken
ju ana
Re iter
ll a
Ser ies
seven th
vor mittag
Auf klärung
over s
Will en
tens ions
B auch
be fre
Bezirk sliga
hol es
Ron aldo
bre ite
än glich
gu ess
zer o
sa ving
bare ly
prom ises
ex tend
ext ent
ün der
ay a
for th
H P
Be at
T iger
d ub
v ater
kandid aten
De ck
blick en
ro unded
iz za
Develop ment
ger iet
kon serv
Rein hard
R ight
es cap
T irol
hol ung
Re publ
Ro drig
Vor schläge
fac ts
Gadd afi
iel ds
gesch n
F uchs
Tr ik
engag iert
bo gen
bed roht
In genie
compre hen
ex it
R ote
amp ton
B ann
Grem ium
n ik
f ingen
excell ent
B W
mar ke
Kommunik ation
e fficient
invest ieren
um es
Um zug
C her
äm mer
entscheiden den
Fl ammen
En vironment
Kath ar
me yer
vers y
ent it
tr iumph
fre ue
syr ischen
Ag ain
temper atures
col our
einstimm ig
refer red
Wettbewer bs
Ukr ain
span ischen
sä mt
sinn voll
n ative
äs st
cy ber
Pakistan i
J immy
sw ing
particip ants
W itt
Fußball er
Gold man
kl assen
Berluscon i
J ong
wür dig
an bieten
Terr y
e ighth
verdien en
S S
Br enn
War n
reg ions
interview s
gest altung
Pr ice
wander ung
Amts zeit
s orge
hol fen
17 0
l asse
we ich
I WF
Br ücken
con ten
fl ash
ü se
Entwick lungs
1980 s
con spir
K ansas
prison ers
Oklah oma
igh ter
ro yal
prom ising
Stär ke
a warded
st il
Ö z
f ier
Kom p
Hö hen
ge prüft
B eine
ex tr
ball s
sett led
st iegen
S ö
ren nen
Fig ur
loc ations
Ap plaus
Tage blatt
Tür en
il ian
v ierte
Schr itte
K ings
Jon as
Con sum
viel fält
Christ ie
moment an
Sand ra
afr ika
f ed
P ader
ö die
T ol
Bewer ber
hl t
E qu
Zuhör er
P el
Pe tr
bad ly
unter gebracht
olog ischen
ber ater
abort ion
Verein bar
vor über
part ly
Tr ade
finanziel len
sensit ive
as ion
ien cy
H app
p fer
Gene hm
Tok yo
Roll en
expen se
Or chester
con ver
zeit lich
mo dest
c ott
Lin den
Haw ai
N ull
Lie bes
restrict ions
s op
Ch ap
selbst verständlich
Be zug
bes itzer
Qu ote
Erd be
bed roh
bit te
höch st
Kon zentr
Islam ist
ber gen
Tai wan
Mob ile
ibl io
det ained
b ahnen
Ch ile
Jak ob
An wesen
zur zeit
Cub a
az ier
rel atives
Eben e
B ein
b asketball
d icht
r äume
man chen
Lu ke
ter e
So viet
to x
ver fassungs
erheb lich
Hill s
kap ital
tern al
she ll
cycl ing
ag r
scient ific
W right
ial en
Bege ister
tot ally
äs ser
ate ur
Cr ime
beob achten
pro portion
Hy po
fin ed
Ner ven
ann ten
t ausend
Alt stadt
hor st
ent scheidet
T E
spec ulation
Hin zu
ige l
sah en
kreis en
civil ian
Bre it
h ou
recht zeitig
Fran co
necess arily
can cel
Pe g
f ires
Se ch
ill ustr
c iting
C os
Fre uden
zwe iter
r oles
Part ners
Sonntag abend
Sh anghai
capt ure
V a
Tipp s
Ex press
aus gelöst
Origin al
ul s
ka dem
hinter her
ou ch
gl än
bom bing
Kämp fer
gre es
verbess ert
surve illance
olog ische
Wel sh
sil ver
ub s
surv ive
be hinder
te urer
mil k
ent lassen
ded icated
scr utin
läu fer
arr ive
re cru
Aust ausch
erfolg reichen
Er weiter
te a
Daim ler
Last wagen
gefähr det
verlänger t
Ne ck
ken er
oc ol
aun e
clo ck
Kom mand
L em
Author ity
E ag
min ded
Tal ent
Fl ügel
Kr ä
m esse
G ur
to ff
Rad fahrer
Rent ner
S per
Sie gen
Lö sch
St urz
amoun ts
Ges ang
spar te
Kn app
or ation
wall s
terror ists
pr as
H enn
pol n
forder ten
acc eler
ersch einen
d iss
irat et
Clar ke
m ith
y ball
R B
helicop ter
F alle
an ische
kr iminal
Wul ff
vergangen e
ion e
Air bus
for um
mo unt
Favor iten
cl ip
know ing
M ult
e an
br ennen
Vertrag s
Nic olas
den s
Mönchengl adbach
staat liche
Hin spiel
Mil an
An erk
Ox ford
dig it
ele ment
um ber
lau ghter
ele ct
equival ent
uell er
fahr ens
o on
Stad tr
A ction
.. ..
g te
incred ible
Ehren amt
York er
wel comed
akt oren
in fo
7 50
r iss
kon om
ac compl
guar ante
Hu bert
Durch schnitt
host s
Ver brechen
v iert
A hm
se her
auch t
ver fügt
j ener
Nad al
she d
s ang
st einer
hum ans
hard ly
mass iv
pos session
by n
H IV
Sch ar
terr ible
zum al
ergän zt
reason able
beteil igten
B ald
Reg ime
F abr
ub ar
Schlag ze
Aar on
Frü her
Kl agen
D jok
jung er
ver age
rac es
gefä llt
Pier re
differ ences
Hil f
drück lich
post s
base ball
R y
Betr iebe
Hunder te
betr ifft
Hamp shire
Freist oß
Best ehen
Jan e
Dr ag
sold ier
Maß nahme
g or
läss lich
m art
Erwachsen e
announ ce
exhib ition
istr äger
O pf
pan ic
tr aur
Dort m
contro versy
nach ts
fre ilich
performan ces
O tt
ass ment
ö k
sel n
sh ausen
beweg ung
Ther esa
Ris iken
he bung
reg ulation
techn ische
Cam bridge
aim s
had n
D og
me er
Kreis liga
Schum acher
su its
geprä gt
produ cers
Ho ene
tr ieben
F az
Singap ore
Mer k
O il
emot ion
iein halb
è re
kann ten
all gem
Ver einen
ange messen
Dr itt
leich te
ne ter
comman der
f ie
Sch ütz
y ellow
Rhein land
Schwarzw älder
block ed
regul atory
aged y
ark s
Vor mittag
rem ote
Mex iko
Aben ds
G ig
unk n
C A
Regel ung
r it
r amp
ab kommen
Ihr er
kontroll iert
leb ten
Lu ther
Up dated
ö ck
Hoene ß
g nis
absen ce
zen e
F S
stär ken
c able
plan en
d oppelt
Pfer de
phil os
chr ist
cre am
ver passt
Pf alz
Bern ard
franch ise
enter ing
c abinet
Ne un
Se curities
wichtig ste
T ickets
T am
n arr
im posed
some body
Du is
kl appt
Author ities
s ank
T icket
Tats ache
be fand
satis f
shock ed
Ju an
br ary
et tet
bst ahl
ute te
Platt form
Mo untain
k u
Ar thur
is sa
prote cted
fä h
amb assador
W ör
fahr ten
Rake ten
est en
K ennt
niedr ig
ar kt
assess ment
br icht
Way ne
ien st
encour aged
acc us
w öch
Os borne
Sus anne
Model le
Ne v
offiziel le
str ange
fü gen
übr ig
schne iden
G it
ming ham
d ressed
keep s
dete ct
tit les
ent deck
B E
national en
ath y
ar o
Argent ina
kt iv
Eing ang
Wir d
W arr
ino is
ac re
represent ing
Bom ben
ie fer
si ver
Ger ü
Venezu ela
ste el
Mig ranten
p pe
W A
ah re
ab geben
defen der
Sto ff
clin ical
stre ifen
aus gabe
Ein mal
cont ained
Er schein
spe zial
str af
de grees
198 8
asyl um
hoen ix
au ens
offic ially
L oren
beschäft igen
bit tet
Real ität
par allel
Techn ology
vor sicht
Landes liga
ver stor
g all
ding en
Bir mingham
cl ar
m um
ade qu
älter en
Bet on
ar ded
He y
Mein ungs
G ör
r hein
L enn
histor ische
B ase
Sp äter
groß em
re cover
al tete
app ell
star tete
ab a
arr ival
bron n
Sy mbol
S et
interess ant
Columb ia
p ure
Landtag swahl
Aus länder
am ond
rat ings
se lect
K ün
d un
h ired
e ase
norm ally
Djok ovic
Analy se
sp ots
zit iert
Braun schwe
un expected
st iftung
Cott bus
Durch gang
con centr
gem üt
Land wirtschaft
the less
ent wurf
G ü
smo king
d achte
Dann y
F arbe
asch a
Ill inois
i juana
Sy mp
uck en
ma th
kill er
earth quake
Hekt ar
auf gerufen
M iet
Fä hig
Be bauung
H ahn
dire kten
vor be
T akt
Einlad ung
park ing
Rud olf
besch e
Sie ge
N ase
re plied
au x
Schwer punkt
demand ing
rol led
Ab teil
h är
Fr ien
mo od
ausge geben
desper ate
r ö
kön ig
substant ial
fert igt
ur ers
Sie d
require ments
kar a
Bil dern
R av
Egypt ian
scheiter te
p ink
M E
auf treten
meth od
lif ted
Sh i
Spann ung
Fig uren
m ad
K asse
R end
ven ted
Schwenn ingen
experien ces
B ahr
klar en
ib and
iz er
be k
ak a
Erst mals
im a
Ant worten
Auseinander setzung
Alab ama
o h
train iert
Terror isten
investig ations
regul ators
Pro ject
ab is
celebr ity
eng age
gl icht
delay ed
Le ic
wo hnen
ä ser
st ability
figh ter
gen e
d ale
pf el
Ge fahren
CO 2
moment um
moder nen
coun sel
the me
med al
G iven
Ar mut
ab schluss
appl ied
g ler
Präsident schafts
si ders
Varian te
Leiden schaft
port folio
hot els
ul ieren
inten sive
voll ständig
fun ny
W arren
B em
H od
ver legt
m igration
Kon stanz
mö glicht
kt uren
vers orgt
Fahr zeugen
elektr on
W andel
el ite
Kön nen
O Ö
Gesch ehen
H av
in vent
var i
vor steher
Schick sal
P hoenix
T ä
ck len
compar ison
finanziel l
bir ds
reco gnis
F itness
Kan ada
Akte ure
häuf iger
L ieb
document ary
B oss
valu able
sh ilfe
dank te
ad opted
Indones ia
an gere
M ick
R ic
Spe kul
A venue
to ols
A kadem
al ie
Kl avier
not iced
min ster
J ar
frequ ently
slow ly
L ine
N ichts
irgend wo
diagno sed
ver folgen
al ed
überr aschen
u ste
seit dem
Minister ium
ine vit
Instr ument
un abhäng
bl ü
ver handlungen
u ber
M eld
B ash
Pro g
as er
all zu
dre ht
aus s
L etzt
T än
ver r
de le
gew isse
ged re
H eld
im ony
def ending
Jahrhunder ts
be kamen
monitor ing
O thers
financ ing
c ult
fundament al
trib ute
gl es
econom ist
expos ure
fr auen
ge p
fant astic
än ner
re ly
amen te
K atr
Col omb
spr ingen
Che mie
L inc
fe aturing
pack ed
produ cing
Geb ühren
depart ure
Angehör igen
Ver k
con vin
ather ine
iel le
unkn own
verb ind
or al
control s
F unk
Ne ver
ast ed
Coll ins
op ens
abgeord nete
genann ten
versch le
Teilnehmer n
pres idency
N äch
ex clu
histor ical
an geschlagen
suc ceed
Wh it
M ubar
Cr ist
Eben falls
Schwier igkeiten
irgend wie
N arren
kl ingen
B lo
Anerk ennung
österreich ische
T üb
B j
C row
Miss brauch
Nieder lagen
U ber
electr onic
H aben
An griffe
K ant
uncertain ty
tr agedy
sess ions
arr ing
b one
I CE
trä ger
L ena
ver an
mit y
Tot tenham
C ivil
w aves
Zur ück
aband oned
Katastrop he
k ette
g igen
bew aff
Bürgermeister in
W G
ott es
Österreich s
vertr auen
prosecut ion
ed ition
Mour inho
Test s
bo ards
spro chen
Stru ktur
res ulted
neutr al
spark ed
Bel gien
P ear
rel ative
Zus atz
genü gend
spro zess
I van
the ory
Mess i
ren der
em ed
nieder länd
str aßen
od d
Be gründung
schle chten
ber uh
been den
bro ader
Pop e
le an
neh me
bro chen
bl ickt
är tner
Man del
sal ary
durchschnitt lich
le ans
meist ers
En semble
fa ke
t one
Car sten
Ta belle
L ein
Schul ter
äch ter
lie fen
though ts
hof en
Ha ar
Du ke
F O
Brun o
Mon ika
S wan
verl äss
trav elling
mention ed
zentr alen
W är
direct ors
highl ight
ro unds
Chair man
nomine e
den ted
B orn
Po int
strik ing
masch ine
con vent
Verband s
qu it
Tun es
er hoben
Plan ungs
vis ible
Akt uell
As se
An w
moder ate
reg ung
special ist
amp en
cour age
sele cted
recht lichen
schnell en
hand ling
ier end
ap ers
Re formen
vis its
Kontr oll
OR E
Ver fassung
Dou glas
t orn
Markt platz
Landes haupt
col umn
sch ick
Gr ay
ex ports
err or
er halt
Ver letzte
Every one
ange wiesen
fl er
ch ancen
Bu sch
re call
er litt
Misch ung
äu ft
k einem
Lin ien
draw ing
bab ies
au str
ol n
art ige
ver füg
re ver
Commun ity
n ör
ax y
be stens
ü stet
og a
ausschuss es
employ ers
retail ers
Favor it
schl icht
Urs ula
utz end
kick ed
Untersuch ungen
rock et
Proble men
he t
g it
M asters
Über leben
Dok umenten
Herausforder ungen
child hood
convin ced
bayer ische
G iants
remark able
Kon ferenz
cou ples
associ ation
e cht
success fully
k os
if fen
mit teilung
per spect
Nel son
ges chen
M es
y ang
kr ie
ger ettet
compl ained
H unt
p ädagog
noch mals
küm mert
X i
spann end
Ge denk
G anze
mann er
month ly
er möglicht
activ ist
ed ing
L ight
aufge fordert
un gel
op fer
isk us
qu ant
cl es
pe tr
Mil iband
pot enz
G S
E ier
198 6
Offic er
Bro ther
campaign s
Inde ed
Kamp agne
Tr ag
sch arf
Schm uck
rare ly
attr ib
erfolg reiche
bege g
H ope
re spe
O cean
ver letzten
ear ning
kathol ischen
dok ument
ob tained
günst ig
ber ry
über geben
t ip
bew ält
cr uit
Pos itionen
K anal
Barr y
encour aging
lan ded
iven ess
cr ashed
handel te
B P
ak i
Lie blings
Ren te
del s
k ens
Gr ant
last ung
F at
Magde burg
recht lich
mär kte
H ack
dem ent
C ry
un abhängig
Ser ien
eing ere
Kontak te
re kord
posit iven
Franz osen
tim ore
aff air
id ance
H ä
isten ce
Be cken
End spiel
s car
Sch ir
block s
Stud io
Arbeits losen
Voraus setzungen
stre cken
sp ür
Z üge
bet reiben
S NP
Mar ien
en ger
1970 s
p ages
With out
Pan or
compl icated
erns th
cle ared
bereit schaft
Zwe ite
Produkt ions
to ol
moder ne
Le der
ar id
ent weder
por ted
Tran spar
con front
track s
An lauf
anz t
que e
J ün
c en
congress ional
up coming
los er
Linc oln
wettbewer b
n obody
ang ers
H au
Ed wards
Aus zeichnung
Polizeis precher
Szen en
Er sten
Luc as
mean while
ze ige
H R
oll ah
L ow
Deb üt
L B
ors es
ist le
in telle
Ein s
St ory
Ther apie
b unt
men ted
nutz te
ast ron
ur gent
engine ering
ver brauch
St au
ein setzen
specific ally
Berat ung
er setzt
Sil ver
Unter haltung
an kt
ühr t
Passag iere
jag d
anc ient
o vo
M igration
iff s
war ming
Thr ough
Finanz krise
H D
waren ess
stop pen
L ater
fig ur
pap ers
attr act
Fif a
sust ained
on ik
Sozial demokraten
anges prochen
attack ing
ahn sinn
Inf os
med icine
un ted
represent ative
Bal timore
won ach
al led
er folgen
rob ust
viel mehr
Indian a
dead line
lik ed
such ten
lad y
A po
Be vor
B eng
F ahn
Div ision
Liby en
T unnel
Den ver
main t
recommen ded
zu vers
Sw itzer
Ch ancellor
le un
mer e
vor genommen
aus gesetzt
N ap
un ity
kur se
äu ber
verschw unden
be ster
K ann
ell i
jün gst
Jahrzehn te
Straf raum
dre imal
critic ized
expect ing
jüng ste
har te
clo thing
Berlin s
Ut ah
ag anda
L ig
schö ner
Domin ik
zu ständige
l ending
Re isen
P itts
M om
ähl ern
P ut
pre ch
check s
deut liche
therap y
In halt
b old
categ ory
spr üche
cons in
io de
W y
sor ry
es cal
Bar cl
M ade
gel angen
konkre te
As ien
bet reiber
ble ibe
Net any
ausge glichen
Be für
erforder lich
and o
Vor stellungen
Verein igten
pr ol
ber ge
contr oll
ol y
hn te
Eben so
Ve ter
Wis consin
W end
it ure
Cha os
aus stellung
kün fte
Kom peten
Br u
Gast ron
mar ijuana
ver ändern
or ous
f äl
M ix
D utzend
Span ier
Adam s
Wh ich
H ug
Die sen
über wiegend
B iden
cept ion
M au
Fall s
NR L
kon kret
räum te
R up
Man chmal
him a
Em ma
Park er
Druck version
V ladimir
He idel
bre iten
ater al
gh ters
ste uern
Ph ys
str ict
photograph s
fest en
fein d
ass ign
Tr io
ad apt
Komprom iss
chn ik
Be denken
sch u
griech ische
Ad ler
elder ly
Er höhung
replac ement
Stre ifen
r äder
re aders
kap elle
Abst urz
st ürzte
19 45
str ip
ver steht
Land schaft
Mon ats
mid fielder
umstritten en
h äusern
Kle idung
e ffic
T R
Ha are
Biele feld
h au
Com mer
Einsatz kräfte
it ol
Bundes präsident
Y anke
Ge win
p hin
p ledged
tradition ellen
Tr ink
Minister präsidenten
Analy sten
der Standard
D aw
l acht
ge wohnt
verm utet
cop y
ahl en
re vel
gr ant
Ma ier
er fasst
W ladimir
V el
Switzer land
ch ap
drink s
Salz burger
licher weise
Rück gang
verein igung
colle cted
e ded
Sw ed
Kolle ge
rech nung
Th anks
med ium
der weil
leg acy
St ress
auf sicht
Ros berg
dr ast
Neust adt
au ton
veter ans
dien en
de pression
Lo th
d ungs
he ir
wieder holt
Ahm ad
198 4
caut ion
Re id
collap sed
Diskuss ionen
sho es
appoint ment
Ron ald
i bel
bl ank
Cor byn
famil ie
klag te
critic ised
brilli ant
Pot enzial
M O
lehr er
dis covery
af raid
R itter
Morgen post
kä men
bor ough
beein fl
gather ing
s berg
ver hältnis
b ureau
Res er
class es
ast ro
si zed
vol ume
recht liche
Parte itag
nach voll
et liche
answer s
Pr ix
Ger d
S hin
führ enden
außer gewöhn
Ver wand
an tee
ol ine
Austral ians
Br ot
musikal ische
Ermitt lungs
C ase
J ama
A kten
ver sprechen
Z o
w it
al i
amm ad
In gol
ikan ische
produz iert
schwier igen
tr illion
g äng
g asse
Luxem burg
Aus kunft
R ugby
commun ication
B N
Fre il
Netany ahu
b ird
r in
champ ions
t itel
An künd
Lös ungen
opp ers
distrib ution
betre uung
pra ised
sh if
satell ite
sp unkt
Al pen
Verteid igung
tro cken
A achen
Al aska
e uch
Wie se
be kräft
P i
re uth
Photo graph
ub led
ent repr
l ä
Ma ke
ge folgt
a bel
Klassen erhalt
sub scr
T si
land ing
Follow ing
ph arm
An gelegen
Co ck
serv es
Kat zen
instr ument
verl auf
Tabellen führer
wer ker
To ilet
m ischen
wes halb
Evan gel
house hold
lö st
fal sche
Mel an
Or ange
re ference
ign or
ange hen
Lu is
Che ck
wel ches
st ör
entrepr ene
al ert
J ochen
edi kt
Br au
Ale p
bes e
amb ition
rapid ly
lich em
Hoch zeit
C ash
ele ments
Med ic
descri be
Or te
ges ammelt
ver ord
zentr ums
automat isch
vers uche
Holl and
Sch atz
o is
well en
est e
wealth y
West minster
em ails
sch icht
diskut ieren
Enter tain
bre cht
kr at
reag ierte
advis ed
instit ution
re cruit
ing u
italien ische
Vers ammlung
consum ption
N on
G ust
G ates
ma ier
Mubar ak
town s
u to
od ds
L is
Or leans
Fl uss
care fully
ren ov
S cient
aut or
tie fer
Ord nungs
wor n
Naz is
Faz it
in tr
Vor gaben
P in
H ud
st om
ro ots
uch te
Süd deutsche
Jubiläum s
quarter back
up date
entsch lossen
sued deutsche
i ast
lau tete
overwhel ming
l ime
Ben edikt
su fficient
Bot schafter
bre ad
n ütz
Law rence
we ig
fl ix
fe ierten
Organis atoren
I hren
S aint
ges unken
cr os
Ath let
entscheiden d
thro wing
met res
Common s
betre ibt
V ot
klein ere
Lt d
spon sor
B ureau
euro zone
stro ke
K ai
p om
m üh
st ieß
Or gel
At tr
Zeit ungs
defen ded
kl us
Red aktion
H itze
Hugh es
r ated
Gef ähr
auth ent
Auf wand
tr ich
prece dented
teach ing
sm ug
th alt
T sch
out look
typ ical
inter n
B in
Mur phy
Gener ationen
Er ster
Be ute
pl er
Stein brück
Än derungen
abin ett
r d
Viel falt
O ft
S ah
ge braucht
oppon ent
Würz burg
iz iner
nie mals
W on
gewann en
exten sive
Som etimes
hol ten
rene w
Ein bruch
L akers
er up
Chr isten
men te
UR CE
heft ig
Kathar ina
gest ürzt
zuvers ichtlich
Di kt
Bege gn
acquis ition
c m
Landrats amt
mat ic
mutmaß lichen
qual ified
Har vard
W ars
Um fragen
P ic
Cast ro
Rott weil
sec ured
Stu art
bur st
Ro hr
unter richt
ic ia
dah inter
hö re
198 7
lo ose
uss ion
B it
comprehen sive
A cker
am end
gu idance
mo thers
Hawai i
Tsi pras
Pak et
es th
belie bte
out rage
priv ile
Gesch le
Mindest lohn
begrü ßt
bur den
kö pf
ocol ate
rout ine
iz i
nach zu
West erw
owners hip
Sus an
N G
SO URCE
bro ker
ge ehrt
Me ier
Y e
Bundes republik
h ide
jun ior
the l
steig ern
Zum indest
St ücke
week ly
request s
p ill
R ös
pro hib
dr itt
bl auen
reve als
dem anded
D agegen
erhö hte
erl itten
197 9
herr schen
boy friend
Leic ester
found ation
view ed
target ing
bill ions
Geschwind igkeit
Al te
O ak
Aufl age
k ern
anz er
bin den
Belast ung
Heil igen
T il
ken ne
klass ischen
de en
he iz
F ul
hand ful
Ab sol
ST AND
approach ed
de sto
S ophie
reg on
coach es
N HL
det ention
V I
S ot
guar antee
ü ll
t all
behaup tet
os se
abend s
div ided
mo de
F ashion
ö fter
D äne
id y
D at
in her
l oud
sh afen
damal ige
nation wide
H ess
Hoff mann
Gem üse
N SU
beauftrag te
Palestin ians
Str ich
fun eral
R ow
stre ak
ball ot
Kl ang
Erwachsen en
innov ative
H ear
Hu ber
lab our
NP D
relig ion
ot te
Op tim
ens burg
attr active
un precedented
Am y
recogn ition
morgen s
princ ipal
pip eline
Priv ate
ha st
Presse mitteilung
Pro be
d il
Ein stieg
Ehe mann
wün scht
P ur
Bed ür
Göt tingen
T aten
dau ghters
V A
D im
regel n
K ids
tran spar
B ä
Spons oren
Begeister ung
kn ife
ver handelt
An s
cho ices
prov iders
cr azy
prim arily
Ar ten
Seit dem
Mo ham
r olle
Re v
co operation
verz ichtet
member ship
haus er
Re ifen
Bron ze
ak on
prem iere
Adr ian
Tages ordnung
Sch ein
K ass
auth ors
str ain
m ächtig
ge holfen
milit ant
a illen
org ungs
ighten ed
ste uert
sie he
bestät igen
M ust
se curities
wehr en
fit ness
Pader born
wo und
auf einander
d ialog
3 D
br ahim
cont acted
M ack
o cean
H ang
Islam isten
dist ur
entsch uld
Erinner ungen
to w
DR K
Kie w
W als
St ationen
ersch ossen
Sch a
Ver öffentlich
Ver di
E li
Medien berichten
elig ible
and t
Ex port
be fehl
lo yal
p hr
Kent ucky
Se hr
qual ität
D au
ähn liche
ic ians
cre en
test imony
B är
Ver träge
funktion ieren
res sen
gradu ate
iz ieren
fre ude
schl us
v as
Pitts burgh
M other
Euro zone
alk o
O regon
Fair fax
e cho
ina he
ear s
Ne ur
Termin e
dem nächst
er richtet
Menschen rechts
kl er
G DP
Dre ier
le m
äsid ium
Kre ist
J et
vor gelegt
begrü ßte
ere ien
N O
Kin des
lock t
R hyth
belie bt
Kr ie
Tr ennung
f ate
ab sur
gebürt ige
run ner
Simp son
bedeut en
democr atic
or ious
entscheiden de
ok er
fü llen
fo sten
DJ K
zu ständigen
od a
Se ele
STAND ARD
zwe ier
Not fall
ste ur
Mus ical
un gefähr
spr uchs
admit s
Erdbe ben
Nord korea
gegen wärt
S og
dis order
schr itte
ört lichen
Mär chen
den er
An kara
De leg
j er
sch oss
use ful
tr um
bare s
zeug ung
Publ ik
rel uct
Mor itz
wirtschaft lich
S ob
z ten
inform ierte
da q
C e
be inahe
r hetor
P P
gele istet
N ine
mist akes
stun ning
schütz er
Arm strong
publ ish
hol m
zul ande
tr ials
an mar
Mo z
Kab ul
4 000
convict ion
Alep po
stu fe
Sol che
Bar geld
kurz em
del ays
durch zu
H äu
a wareness
sech sten
z heimer
academ ic
be stehenden
ange griffen
b ub
ex ternal
schie de
Whe ther
Net flix
co vers
Tät igkeit
Nas daq
b ür
comp on
univers ities
mut ter
Pro ben
beg leiten
tour ist
sie ger
o ke
Mar x
d or
prov ider
le idet
itz t
par ade
Hub schrauber
er leichter
is si
verd ict
Pol and
hid den
ne ts
die sel
hr t
expan ded
Stand ards
purs ue
Bur k
wün sche
u ther
fas ste
Mitglie ds
co in
prov in
alle t
on er
De ad
mot ive
pos ing
A gen
C lo
om er
Un abhäng
B rem
om ed
verurs acht
appear ances
T ill
Raf ael
ü ste
agre ements
dr ängen
Le ib
sch är
bei der
än ken
disap pointing
M C
ol ar
comp uters
vorsitzen den
break fast
ie ten
w ages
Ber ichte
if est
b ist
some where
wir kte
Sow ohl
en ge
wenig stens
druck s
st ap
En kel
ausge gangen
bü hne
wei ße
dr ingen
fort gesetzt
Engl isch
gedre ht
Olymp ias
optim istisch
ie hlt
some what
any body
betr achtet
freiwill ig
Untersuch ungs
to wer
Ku gel
ar re
h unt
celebr ated
on ics
refuge e
Beob achter
geflo gen
cre te
geeig net
fahr zeug
te ars
Ah med
Le ider
verständ nis
d ust
besitz t
lin ke
represent atives
M oney
pros pects
stö ßt
im ents
lass ung
er gab
al ien
k ühl
re cording
il ien
P u
U E
perspect ive
D iana
Jahre sende
trans l
Vorder grund
zu stand
h ut
Kom pl
gesund heit
ex ec
Mot ors
p ir
Ein stellung
Somal ia
man uel
jähr iges
Kar in
br anch
id al
Er ich
einge führt
lin er
Or ient
be ute
lang fristig
abr ück
ver weiger
K aum
Jun ior
a ze
My anmar
ex plan
search ing
ex h
rid ing
hom eless
respect ively
Kar dash
B ote
in fect
F asch
out put
gesto ßen
Spiel s
sou verän
Saf ety
Rodrig uez
sag ten
J änner
Berat ungs
ru hen
ver mögen
the oret
At tack
Kle inen
er kannt
schaf fung
geb ühren
pl äd
kl at
i ary
con text
Tor ies
Haupt bahnhof
polit an
Er zähl
zusätz lichen
konzentr iert
er fahr
Spark asse
ch icken
attempt ing
m elt
Al ber
He art
ung esch
tr inken
every where
ome z
De te
in ch
or chest
Ko hle
star ben
üt ten
Ar k
Sch merzen
resol ve
Pl ätzen
iel len
St ift
Os n
sch alten
le hnt
att itude
econom ies
chines ische
trä glich
T I
mo le
ass ing
os es
lang jährige
a a
je kte
es sed
re tr
vere ign
bin nen
198 5
gr afen
z ellen
politic ian
Pe ch
so vereign
Smart phones
Mor ris
Jo y
st amp
ge äußert
ack ing
r anks
z eln
anticip ated
ess entially
fir ing
Defen sive
F akten
camp s
sch ieden
im er
eingesch rän
Mo on
cha os
d ick
Fort una
Dortm under
H als
Det ail
Cont ainer
par lament
Ton i
Maxim ilian
gener ated
Cap itol
ab ol
appe aring
Sach s
Press es
F aust
tau ght
je ction
per mission
U do
O hr
Re present
gener ate
ausgest attet
lu ste
verteid igen
Gef angen
M R
bankrupt cy
st ums
ind ing
etz ung
a unt
less ly
L üb
Ver luste
un fair
Steven s
H un
R i
zu gang
pl ätzen
on ial
Gu ido
p atch
F arm
ins ists
Bl atter
Kombin ation
belast et
zahl ungen
Card iff
t u
speak s
10 1
wind ows
g aining
Wel tr
kom missar
o ven
Pap iere
cent ers
gesch le
G omez
Sch ild
me al
top s
ins ki
Super markt
ac ular
schn itts
describ es
K V
zü glich
öt t
accur ate
foto graf
ber ufen
sent iment
Organis ationen
Am pel
Des wegen
Z igaret
G ing
dia betes
Instit uts
Spr int
stead y
hon our
A real
Bau arbeiten
acqu ired
3 60
H ab
en ner
Glück s
Herr mann
d d
but ter
Osn abrück
ott i
Körper verletzung
Brazil ian
bank en
relig iö
verb esser
vol at
K now
humanit arian
ap per
ärger t
fre ul
Emp fang
Kon rad
ul ierte
ro ot
bur ning
V ort
argu ing
afford able
mem o
cl er
ün de
b itten
Titel verteidiger
an en
add ressed
stimul us
hr an
Getr änke
Emp fehl
i ang
pro ven
Cur rent
sport lichen
au scht
Be kannt
w reck
ver mitteln
unve iled
Fl a
He ath
üb lich
ident ifiz
Aust in
ver weist
Bereit schaft
Sch uh
ian er
H agen
B aker
psych iatr
attr acted
nerv ous
k alt
C el
M acr
lands cape
I brahim
Ch ild
k assen
lö ste
198 2
befür chtet
Barcl ays
ter ia
engl ischen
Plan ungen
entwick elte
Hum or
st ressed
c ular
konzentr ieren
P ick
Ir on
Wie sen
min i
ien z
Phil os
Tur m
har ten
br un
Lok ales
Ein sätze
proced ures
Re view
Be trag
n utzt
sh ine
ic ian
Prog nose
contrib ution
Ke ith
divor ce
polit ischer
person ally
s acr
d ying
Schließ ung
ump f
reduz iert
n ights
Econom ic
uc ted
Bundes staat
komplet te
D iffer
Ähn lich
enor m
Kateg orie
volunte ers
Ab satz
W ut
Amts gericht
down town
Kü hl
dro pping
gew iss
Er zieher
be gründet
Jah n
W i
u ungs
ein stellen
sa il
tour ism
An liegen
et zen
mit geteilt
suppor ts
press ing
resign ed
vious ly
ji had
j ets
Arbeits losigkeit
ließ t
Pal in
veröffentlich ten
N omin
T aschen
wir bt
en kt
Gon z
Entertain ment
hal ter
F uk
Arg ument
Christ ina
sus pension
Frankreich s
schl üssel
prem ium
International e
ch am
se cre
P red
M az
Na than
statt dessen
lo aded
sl ide
ce eded
sp enden
Sh ort
ungs leiter
se g
Ir gend
ande z
sp ell
au tom
compet ing
E A
fahr ts
ar ia
Bir git
popular ity
S co
p ending
N u
por te
on ia
Demonstr ation
M uch
V ölker
um so
ser vers
ac compan
Ex istenz
Geschen k
Zür ich
K ör
B rett
bl au
Bl itz
Common wealth
schw ung
Ha as
M orning
hope ful
Vor teile
Dre am
pet ition
Auto mobil
Offen bar
frequ ent
gest op
bro wn
Gau ck
kämp fer
Adv ents
equ ally
in ches
ris en
We is
Pens ion
s alt
O ption
Über sicht
particip ate
iter ien
Di ag
Ober liga
Ste iger
S auer
20 th
rei he
incred ibly
polit ically
mar ch
san iert
L ion
üt t
folgen de
temper ature
Stadt werke
tro ubled
wehr t
Aben teuer
bau ten
lö se
deut lichen
train ieren
n isses
Über blick
Z ie
Tun is
de utet
Äußer ungen
techn ologies
an ter
Fre ie
Me h
sch merz
I hm
C S
re if
all iance
Gewerk schaften
Swed ish
opp ed
lat ter
mär kten
Chef s
ve ster
ist ischer
bemü ht
Ne on
blo ß
getr ennt
Ukrain ian
geförder t
H os
spokes person
S ale
E cho
Mart ina
weil en
In n
infe ction
any way
industr ies
Ein brecher
Ef fekt
mem ories
1 15
c and
Verkehrs unfall
Origin ally
Aber deen
geschätz t
lin a
Ar ts
N ash
fest e
bott le
Voraus setzung
verteid igt
do ck
so ccer
knock ed
as sed
Pal mer
Te hran
fal schen
peace ful
at om
taxpay ers
mehr heit
such te
Mar ion
absolv iert
P ed
bese it
pregn ancy
Har vey
g ärten
gehör ten
k ol
Aktiv isten
Sl am
ge zwungen
Bam berg
fas zin
Ne ther
benach bar
T asche
heim ische
Aus flug
pp i
e chten
Tr iumph
un en
K ell
an griff
best immen
fe ared
Parte ichef
h end
b ären
fol k
zent en
Duis burg
ver sichert
üt tel
ster dam
gesch r
Braunschwe ig
result ing
Ent täu
for scher
guide lines
fl aw
el or
teen age
L ande
wal ks
perfect ly
tr ains
verb ände
U fer
M oss
at te
Prof il
es see
se ed
gem essen
Co up
establish ment
bur ied
dies jährigen
app s
ash ing
reser ves
Gl adbach
co us
Qa ida
keiner lei
Q atar
oll t
normal en
accus ations
rac ial
fle w
Ze ich
ex tension
S ales
val id
In ns
Mittel n
Ch an
tr aten
kon stru
icht ung
cklen burg
noch en
vor geschlagen
w ol
sol ch
ing red
Tenn essee
Le iche
sämt liche
sing ing
me tern
Mc L
ach ing
kon zer
Au ßer
weis ung
Pl astik
weak en
Contr ol
b uck
west lichen
tr ips
Nev ada
Thor sten
Dr ama
los es
Kon tin
Lie ber
Am sterdam
kat astrop
anony mity
Ges etze
erk enn
cap s
atten ding
ce ase
do se
bom bs
expand ing
B our
Commission er
Aff airs
besch rieben
em it
lauf ende
á n
N one
sol o
sibil ities
techn isch
Sch ieß
V iv
betr ug
Gemeinder ats
Con servatives
ge iz
Broad way
Präsent ation
Ju bel
G ay
R äum
sw imming
erziel en
ange meldet
n inth
no st
zeich neten
ele v
be zahl
verbre itet
stud iert
The atre
keines wegs
st ig
Dod gers
ne sty
musikal ischen
Trik ot
f ishing
Brig itte
di enten
evangel ischen
Ru hr
Defen ce
Mär kte
introdu ce
Regionall iga
Allgem eine
zu gelassen
tradition ell
be stellt
devast ating
im per
main tained
shar ply
R O
regel mäß
Dar stellung
aus drücklich
Br iten
St ör
neg ativ
Nach folge
be weisen
finanz ieren
scrutin y
Ehe paar
bon us
sol ches
f ungen
polit iker
St ro
Man gel
rupt ions
erst aun
Ber ged
De an
ersch ien
nam ens
Auftr itte
ifahr er
Er halt
Ber ger
mar ine
Hall o
com b
ins zen
follow ers
c am
fortun ate
flood ing
geb ot
itz ung
ver rät
Düssel dorfer
sicher en
sex ually
protect ing
sicht bar
on so
Dsch ungel
ES T
gen auer
Foto graf
der t
cl oud
L O
be ur
v owed
Sha k
less ons
oper ator
ast y
M TV
i op
versch oben
innov ation
E V
hier zulande
Sc ots
Panor ama
L ane
ge warnt
zu zu
in os
resist ance
ün kt
Ha ve
discrimin ation
sport ing
che aper
ade t
für chten
Staat schef
of en
Neck ar
F ay
Tr avel
enjoy ing
pain ting
v ine
host ed
Russ lands
ok ie
zw ingen
ver antworten
Un til
M ütter
stimm te
Invest ig
Republ ikaner
Sp orth
ab schließen
Bayer ischen
leist et
inter im
geziel t
stor age
st ünden
U li
Z im
J acqu
rich tete
rank ing
Ma j
Jed es
Einzel handel
V ide
freund lich
Klin ikum
ange legt
m ud
fr ank
Ele ment
Cy ber
bring ung
B alk
reg ret
Tor jäger
bil det
V ic
oc aust
schw ed
spl ant
Ka bel
gel esen
crack down
Klim asch
Achtel finale
M ä
York shire
Z auber
bedür ft
H endr
wer b
Add itional
sm ile
St all
la ke
air lines
ö ll
w ache
power ed
gericht shof
Tex te
be ziehen
Hel den
Abd ullah
rück te
S ascha
durch setzen
Ereign isse
wach s
Sher iff
g io
2 20
In halte
Hart z
Ü br
empf iehlt
h orses
Kon ter
nation ally
Con tin
Je de
M ug
Kr is
deliver ing
dou b
Feuerwehr en
ank te
co c
investig ated
answer ed
sie d
fem in
z ä
deploy ed
F ly
Z weiter
f unden
re pl
Unter lagen
olog ists
Vertre tern
DV D
aus führ
T ower
rec ip
dep th
gar age
iv an
Marg aret
198 3
w affe
Er b
W em
sure ly
stat istics
r ushed
lif estyle
Well s
tim ing
Tschech ien
we sten
Kur dish
oper ative
sof ern
steiger t
H öl
Hir sch
kle idet
Klub s
Gebäu des
res erve
appe als
ar ter
ver sicher
Erkennt nisse
akt iver
G ift
f its
us ions
jetz igen
kon sum
Eing r
conspir acy
zu kommen
Bürger krieg
s inken
Br ie
so ul
K athol
Kur se
Angel s
excl usive
te ar
mar athon
Weltr ang
C ele
alte ten
at ischen
th ick
Energie wende
p aket
Hoff nungen
We i
iver se
stu died
convent ional
T uch
vers amm
ab gesagt
her gestellt
C abinet
Pau li
re spekt
Institution en
Stru kturen
tr apped
We it
Sp ir
re bounds
gebie te
Kirchen gemeinde
W ik
F unkt
reich lich
Nether lands
um gehen
ik as
Verbesser ung
Bill y
K id
ultim ate
h aup
Erweiter ung
tra it
W upper
coach ing
inen ser
An leihen
cross ing
l ösung
Che m
anx iety
suspic ion
sell er
ver sprochen
t ale
K em
b aus
Re aktionen
Zahl reiche
W urz
erst mal
arrest s
apol is
aus geb
Le er
gleich er
ef fekt
Chin as
Ident ität
uck er
Wiesbaden er
Ma izi
warn ings
Ver letzten
Ab schnitt
manufact urers
h ind
pl ing
Klass iker
Paläst inenser
London er
unser es
gän z
she et
Ol iv
ungs mittel
ill on
Le ichen
ün det
cont ains
Ster ne
Sp en
L ap
Mar shall
Ein es
Reg ul
Bos n
t ab
ir i
resident ial
wir te
Jun cker
Verfassungs schutz
s wert
Table t
hervor ragen
L anc
den y
con vention
defin ed
lieb sten
Se oul
all ing
Ral ph
tro ubl
form at
Inns bruck
ace ut
r aw
speziel l
zeit weise
herr schte
Ober österreich
Ath leten
I h
ob es
ko st
lo h
Co alition
ard t
sen z
Dies mal
el en
itar re
Un entschieden
poll ution
ctic ut
Apo the
cas u
kr itik
has en
recommend ations
K hal
rang ing
ünft ig
or ger
Er furt
in ens
Sunn i
Ern ährung
ein geleitet
Medic are
F un
mie ter
eng agement
Lo ck
bor ders
des k
iblio thek
profession als
Hof mann
Conne cticut
con crete
A sp
Interess enten
befür chten
men d
end ar
mehr mals
sha ke
schr itten
H unter
im en
Asse mbly
land schaft
Sp V
Real schule
food s
personal ity
constit ution
leist e
feel ings
icult ure
irk us
sur rounded
vor ge
sport liche
gel der
l och
Be er
Ingol stadt
Orts vorsteher
surv ival
u ate
accompan ied
tre as
s auber
Rob ben
Stol z
s ätzlich
hy dr
Fin ance
long time
mat ik
leg ungen
ix on
197 2
Cle mens
es h
s its
aus fallen
Volle yball
con str
sh aft
He idi
Bo gen
Rap id
Pati ent
e ffiz
L änge
Leh mann
s ach
L utz
pick ing
Hol ocaust
wür fen
Gr oss
b indung
rid ic
Moham ed
Solidar ität
so ber
K itz
w elle
L G
f urn
M ort
pp chen
Ro oney
r hyth
Gar cia
kämp fung
D ra
ächs ischen
Br ent
sl ump
sn ap
gesch m
Im pul
screen ing
arg uments
Gest altung
Explos ion
De ath
gebie ten
Kü chen
Bur ger
w ings
virt ually
trans form
Konzer te
ris es
sil ence
jo ke
Z y
Fre edom
D ress
tr ennen
fr öh
T hin
Brad ley
197 4
the ma
strahl t
Play ing
Yanke es
10 5
Gal axy
Bundes straße
A W
R ice
ro hung
s dorf
De puty
not ing
schre iten
inter ven
Ging rich
Mur doch
K äufer
S ingen
magaz in
auf bau
Str auss
An son
tra ded
play off
L äufer
Schlagze ilen
demokrat ischen
konkre ten
Die bstahl
twe et
Vereinbar ung
Fut ure
offen ces
2 40
ro bot
pup ils
Poliz ist
S ammlung
touch ed
or ange
pro zess
organis ationen
Vis ier
tre ibt
Ankünd igung
econom ists
um me
Link spartei
resign ation
Dav ies
Offen siv
Schrift steller
ab schnitt
Je den
Ab lauf
L ern
Ko ordin
S ri
Ken ya
Sp azier
F isher
Ä l
Lyn ch
spro ble
B SC
Ab sch
St reich
pul ling
rest ore
oun ced
dialog ue
größ ern
interview ed
Führer schein
Mö bel
fin ishing
Er ik
Herr n
bail out
Archite ktur
de cor
Um fang
V ent
Dien ste
sex per
br üche
Re cord
Rück zug
Ab bas
roll ing
Ti bet
tr ends
unter dessen
ten ance
Sieg fried
Gal a
197 6
crow ds
se ct
J erry
k ow
L ichten
dis cover
smo oth
man cher
A ur
un sten
Bus se
dis appeared
verletz ungen
be trag
inno cent
care ful
Weltmeister schaft
San ierungs
organ ized
st an
surv ivors
up hor
be wiesen
r ib
bo ats
F usion
ver änder
Westerw elle
Situation en
the atre
constant ly
ev a
Hand lungs
Gover nor
R ail
g ust
hang ing
Stat us
Früh stück
beeindruck t
stärk sten
ir s
P av
Wen ger
schl afen
Vor lage
Angehör ige
t ape
contrib ute
B enn
weak ness
ist a
gener ations
sen ken
dis miss
Tr änen
Bew usst
met ro
od or
Bre ak
dis abled
Geheim nis
oper ated
men schen
w uch
pen alties
K ok
Chr ys
verl angen
Konzern s
L arry
Bas el
bat tery
schwier iger
ries igen
N ar
Pr ie
im s
Al ger
198 1
e ager
P ow
Im pf
it ate
o ded
Pol icy
Rel ated
Ab sage
Hil de
he ight
ger ichtet
up e
ind ire
p our
Weihnachts markt
Wär me
l ord
house holds
ixt ure
Happ y
mer ely
brief ly
bewer tet
Mü he
klin ik
re lie
Hand werk
ur ging
um fasst
P on
Gerü chte
Bl um
Ol af
in als
Ever ton
Klimasch utz
196 7
Spark assen
out ing
Pf ing
jud gment
bor kener
borkener zeitung
some how
gel ö
leich ten
p ub
Arbeit splatz
head lines
f ault
re ass
Betre uungs
except ion
Relig ion
bl on
W ard
stor ms
beantrag t
Patr i
O E
Hur ricane
zweif elt
S ess
ick i
se gment
ch ocolate
du o
bas ically
gestr ichen
sour i
Perspekt ive
veröffentlich te
govern ing
19 75
pre de
ili ation
concl usion
ent last
g ten
ex ter
kam er
gew issen
Mus lime
Des igner
r ike
grün de
Publ ished
Cl aus
Haus halte
C ust
Ber ry
acc ord
seek s
over come
Ne ul
Gegen zug
del ighted
b ats
rob ber
Peg ida
Diet mar
ster ity
Nie mand
ann ing
Olympias ieger
ref fer
Phill ips
ö konom
entscheid ung
beson deres
ro d
up t
che ese
cros sed
Tat verd
ale y
ausge tragen
Kat ar
zep te
it u
hum or
o des
sustain able
d oppel
Herz og
laub nis
entit led
sh ame
Invest ors
ch ant
Anson sten
He iko
nomin ated
zwe ites
anz ig
Ch allen
zwe ifel
Ha iti
Ph arm
D ing
Hart mann
defe ated
Italien er
den ies
Research ers
vers us
iert es
Kred ite
G alerie
En th
Bo ck
Son st
h ub
real ised
Spekul ationen
schw achen
po ison
Be leg
syr ische
Zu kunfts
au ma
t ent
hin nehmen
E hre
o graf
aufge hoben
D ance
re iz
qu is
Se cret
bo o
K uns
out break
K night
Res ol
Kreuz ung
Girl s
eg gs
Bundes polizei
ien ces
id l
Schwein steiger
Col in
ucht ung
in halt
worth y
chen ko
kontr olle
ian e
Polizei be
sich ere
gestop pt
Däne mark
n utr
spect acular
ib iot
prefer red
Beitr äge
clash es
Bere chn
ON D
contrib utions
dise ases
un like
ambit ious
H ern
betr iebe
Ener gien
Veröffentlich ung
Bast ian
F ass
kind s
länger e
Sport direktor
av ed
wie gen
spr ay
Verhand lungs
verkauf ten
Ruhe stand
advoc ates
B ish
k ok
Kardash ian
Bewer b
Gen ossen
le ihung
Cr it
afr ikanischen
cle ver
carr ies
amp a
Wil hel
Min destens
He b
er mor
R aub
T um
wel chem
Ur ban
forecast s
H ex
g ung
Sch alk
im pression
b ors
pr on
Transpar enz
ur o
over haul
tro p
Mis souri
letzt es
art igen
ön t
J as
Nor wegen
H ins
reg arded
Le wand
cook ing
c ure
cor n
Gespräch s
en emy
Sp urs
Al onso
John ny
t ired
ver bringen
verein bart
Att acke
berat ung
N ok
bab we
che z
C ancer
foc using
pro zent
ipp ers
Gr ä
Fe iert
lange m
plan ung
don ations
D ak
com promise
all ied
Versicher ungs
neh mung
imens ion
thous and
1960 s
such e
al om
ver sprach
Dr itte
challen ged
fest gelegt
is ive
H är
hed ge
ape ut
hope fully
Al ice
prede cess
N est
Maizi ère
Telefon nummer
ch ip
neh m
H oy
Bie ber
l ane
newsp apers
Abd ul
fr act
Reg ierungen
ent decken
An forderungen
Per forman
Sand y
proced ure
verl ässt
im pressed
op ul
F DA
berücksicht igt
R ams
in tell
s quee
ien te
endor se
M I
Re par
T G
kr iegen
Urlau bs
kleiner en
Te uf
V ision
au schen
P ere
fore st
seem ingly
an det
organis ations
G erecht
listen ing
Mag istr
sen dung
ob st
fast est
W etz
Wol ken
ös s
Wün sche
auf wend
od ox
vermis st
ol dest
so weit
förder t
thir ds
P end
R ank
ät ter
Gesch w
on ing
mat isch
kle idung
I OC
thor ough
G ot
Sp ot
Gr as
arr iving
Veranstalt ungs
c ats
Gr unde
Fas sa
Ver folg
bes ie
Journal ist
fün fte
K S
haup ts
be gründete
zwe ist
M ember
aus gebaut
Arab ien
ünd igen
ble ib
invest ing
später en
kre bs
b unten
Kontr ollen
Clau de
Um ständen
er er
sowie so
än omen
yl an
Kap az
F ie
Rum än
Hung er
g ard
ko ordin
F ell
mach ines
Milli arde
Altern ativen
gener ell
Wom an
forder ung
Mon aco
Dub lin
M ORE
Zentr ale
Paris er
recogn ized
escap ed
L isten
celebr ation
real ise
un bekannte
Zeit ungen
dress ing
Mann ing
Werk statt
public ation
p ig
promot ing
Ru th
Sem in
Verpflicht ung
Ad resse
mutmaß liche
genet ic
jen en
kämp fe
lon gest
develop ments
Bj ör
re verse
berg s
erw ischt
ähn lichen
frü he
Pl ace
ge ar
ank le
K iss
Kle ink
schw ach
in stru
niedr iger
Auf regung
Ü bung
mittel hessen
sen sus
pre lim
C lear
G 20
erheb liche
ir ak
so il
dr one
ha z
räum t
B L
y ield
Un ions
Kre ativ
ac commod
er setzen
fahr erin
AN G
consult ant
Bl ake
üb lichen
Infl ation
wirk ung
Jugen dar
E sch
zug unsten
durch s
zu legen
E c
B ass
ungs los
Kos ovo
invest ed
adequ ate
Pe ace
pro vision
man geln
ow ing
l t
Kor ruption
n amen
holiday s
fil ing
optim istic
üch tern
Wach stums
meth ods
Sch merz
Haupt versammlung
Dis ziplin
l am
phen omen
invol ves
Her kunft
al p
fore ver
Pl ane
Hel m
dat um
d unk
Mon te
Ger ald
Mar sch
correspon dent
H osp
span ische
Gar ant
st ande
ver mittelt
ul es
Wurz eln
Consum er
ol ly
mind s
intelle ct
ein einhalb
Mail and
highl ights
n ut
Leicht athlet
dauer haft
sch ieben
no ise
iqu es
war rant
pract ical
Victor ian
mus lim
Miss issi
ko v
stärk ste
geboren e
ve led
oper ators
V incent
gr ave
Chrys ler
Sup erstar
convers ations
H ind
C over
schl immer
organis ieren
f oss
ze u
Leban on
d unkel
or ial
iel l
be legte
commission er
associ ate
E PA
let ting
genau e
produ ktion
is pr
Kopf ball
bis hop
ell o
Spe aker
Et was
on i
197 7
Förder verein
Or land
Gebur ts
jünger en
Haus herren
retail er
angeb ote
b ump
us hima
deck ung
lif etime
Halb jahr
besch leun
aus land
ra ises
ant ik
dauer te
t agen
Genehm igung
Fr aktionen
Pot ter
z ettel
ed ia
Er neuer
SU V
Archite kten
zahl er
F F
len ders
sieg te
mit te
pack en
mit z
cou ver
et ch
fle iß
ru fe
Kir k
h arr
emb assy
H acker
Sog ar
Mitglied schaft
advis ers
Be if
un möglich
är zte
N ina
colle ague
K alender
T U
Pf le
stre ik
Ash ley
G han
ass ass
Thür inger
-------- --------
sche ibe
Up date
me ets
Frühl ing
zus agen
r ab
197 8
review s
ER S
Ren ault
ug ged
We bsite
teen agers
t mn
main stream
E llen
Van couver
Bundes ländern
Op ern
Shak espe
stop s
akzept ieren
Trad itions
Mos che
196 8
Ein schr
test et
Mississi ppi
proceed ings
Leip ziger
W ow
str afen
Dr itter
highl ighted
or i
Del hi
Gl en
au ß
stu fen
sens ation
Ch ange
W inkel
Ged uld
S lo
Tüb ingen
anfang s
umstritten e
Kennt nis
kom bin
chron ic
W affe
de struction
erweiter t
sol ve
gä be
p iele
C old
komment ierte
hinter lassen
Ap pe
mand ate
st urm
Anfang s
nat ür
utt le
Be ver
liter ally
spol it
H aust
check ed
tox ic
m use
tw ist
Ul rike
N au
F itz
Schw äb
exh aust
Dun can
denk bar
Fore st
h ü
stö ße
shel ter
M H
Ge p
Fuk ushima
anson sten
Pl atten
Kl är
an lässlich
auf takt
pp el
memor ial
Analy sts
att a
genu ine
Ins zen
Med icine
Tho us
Bro thers
ver sicherte
Sch ach
stir bt
aus gehen
A be
be ef
Ne g
Tisch tennis
speak er
kämp ften
product ive
kreis es
Sing le
G itarre
v oy
sl ipped
miss iles
c ue
au gen
beitr agen
H ist
ber u
Letz ter
Ge gent
har sh
Sha res
l ud
um a
mon s
Do es
Gesch mack
auf gaben
want ing
Zu fall
ge zahlt
tr ucks
israel ischen
kor de
expl ore
er ober
Sh op
Stand orte
k ip
Europ ap
Internet seite
author ized
Vorstand schef
inter ior
Ze uge
197 3
W ang
Re ce
Fur ther
schön sten
Prote ction
kon tin
de cent
Hon da
Macr on
per ce
L it
period s
K au
L ope
b oten
repe at
A ge
refle cts
z ai
Mus kel
Bereich e
ing ang
och t
ades h
Wirk lichkeit
Se kunde
SE C
günst iger
ad opt
i ac
ign ored
fehl ten
Ka isers
gl am
berühm ten
Al zheimer
D ata
war nung
Verein ten
Lewand owski
vol unt
dest ination
Kü ste
ak is
Fest nahme
re vol
Un fortunately
pain ful
Liby an
in aug
gesp annt
real ized
Bundes lig
sop hist
Prosecut ors
l ists
improve ments
ab sor
tem pt
cru ise
10 th
abo ard
Rund funk
Atom kraft
gegen seitig
Ir land
pp ich
Bu il
dou bled
lich ten
pres er
sp reis
A 3
jüd ischen
prelim inary
an schlag
effic iency
regard less
zu recht
horr or
ergän zte
stud ying
eröff nete
s cal
G ibt
größ ter
Vermögen s
stimm ten
os a
purch ases
un al
web sites
n ull
smart phone
Frem d
eg g
Auf nahmen
R ib
D ark
Orland o
Unter schiede
et a
en able
colle ctive
punish ment
Tie fe
R einer
des erve
trigger ed
schüt ze
Fran ç
Wo hnen
g ottes
offen se
Besch uld
6 50
Eag les
star ter
re ject
ug ier
arg ues
pers ist
condem ned
Con nell
Bedür f
S ummer
verkün det
Kur ier
du ell
far ben
Grö ßen
leit ungen
Ge brauch
bo ast
reduz ieren
question ing
Bal ingen
Sü ß
resc ued
Wen ig
R he
Nor way
leg g
box es
veranst altet
ten der
Sul z
Verein igung
request ed
Turn bull
k letter
Wr iting
tre ating
the d
H ip
r unter
Sam uel
Bayern s
swe pt
p ackt
recogn ize
come back
Mar i
Sat ell
ver eine
stark er
Dar unter
bow l
is lands
vacc ine
photo grapher
Not wend
vertre tung
Schüler innen
C u
Israel is
stär ke
K nochen
re mo
L S
B G
empf angen
geb ir
sing t
Johann a
Le o
refle cted
zeich nungen
Daten schutz
ind icate
D utzen
qu es
con temporary
Fo ul
ic onic
Zimmer mann
reli able
P fosten
X in
Archite kt
organ ised
au sterity
befre it
Bou le
Vorbereit ungen
Tor sten
us sen
kill ings
Belg ium
gel ingen
Co hen
vorläu f
transport ation
ab ges
fo ul
cre ws
un ited
r agend
Lope z
W id
S SV
tact ics
ok ol
verw andel
post ing
G is
legisl ative
gr ace
sex y
Franz iskus
to llen
lo d
elector al
Trump s
C atherine
K icker
O hren
h iring
King dom
Nok ia
ac counting
Regierungschef s
An ja
bur ned
schw äch
Wupper tal
de emed
Straft aten
pens ions
urch t
AD AC
the ft
Gymnas iums
Betre uer
ag ert
Ben ef
registr iert
Re agan
br unn
bul let
or um
Menschen rechte
explan ation
sp flicht
research er
z ip
Bern ie
sicher gestellt
and als
cent res
ian ischen
An schläge
har assment
dramat ically
jah re
Louis iana
H E
er mitteln
v ation
execut ion
not en
Nieder landen
Philipp ines
diag n
Sp itz
führ ende
Aus wärt
fl owers
Gu y
D unkel
verbin det
Zw ölf
L aus
Kommun e
Vize präsident
vor zeitig
pr ide
21 st
poll ing
um gehend
Hunder t
carr ier
jahrel ang
Neon az
bre iter
Sch mitt
wir r
Übr igen
bl icke
ge liefert
Ren ate
myster y
Sim one
Kab arett
B atter
einfach er
erhält lich
Ze hnt
domin ant
Überg ang
W oll
einge gangen
in cl
ik h
auf kommen
ver br
difficult ies
tr ächt
eröff nen
P om
Fern ando
2 30
Freiwill igen
Tr i
k oll
T we
Befrag ten
schuld ig
b ollah
gespräch e
rand om
T ieren
Cob urg
gefähr lichen
Stor m
Besch werden
on anz
mon etary
purch ased
19 th
off shore
Beschäft igte
steigen den
Rund schau
C airo
dre hte
Med aillen
Ex empl
kontroll ieren
z esse
sch lossen
Gest ern
att ached
Fil ms
R A
hy po
P for
Sar a
Beif all
ci ples
dam aging
notwend igen
wahr en
Freuden stadt
Nikol aus
sit uations
Mitter nacht
ail ing
Invest itions
We iden
Tod d
L aune
spon tan
Entwick lungen
begrü ßen
P ip
S ay
entspann t
unk er
ic ious
sen ators
Brun nen
pres um
statt findet
frustr ation
über prüft
Re cher
1 200
antwor tete
Klin iken
S car
flü gel
Ar z
form ally
Vir us
to re
Rus sen
elt a
atic an
Bry ant
kom mand
Tr av
einfach en
sleep ing
ie ht
inen te
si ans
Neu jahr
schein bar
p ledge
gn osen
disap point
Kar toff
Hug o
B ienen
ange ht
de eper
pl ine
6 000
m i
an spruchs
sparen cy
take over
mittel s
unglaub lich
gelegen en
kl en
K ürz
dividen d
is st
gesetz lichen
aut umn
K abinett
gl imp
Mittelfeld spieler
K ref
er worben
S ier
Mor r
W elle
Ben nett
die jenigen
De ut
Stad thalle
so red
Mon d
Per u
me als
steil nehmer
Autor in
Aufl agen
lang frist
schl ugen
Loth ar
pre v
re par
be antworten
A stron
196 9
erled igt
erne uer
Br end
Freund schaft
V atican
Ste el
Zwe ik
fact ion
an tritt
M uster
heut ige
Brut to
Gep äck
virt ual
M ale
thal ts
Schul leiter
st es
hohe m
Best en
pl äne
AC T
Veränder ung
C ze
kon sequent
Cal w
betrieb s
In sur
trag ic
W itz
fert igen
pl ain
hal bes
lo ves
ret sch
ex pression
Aus stattung
omen te
Fort schritte
App s
Unabhäng igkeit
con sensus
sup ple
spre che
sc ared
erw ä
c ake
pol ar
or chester
Lind ner
J ets
def ault
M ama
treat ments
Z ä
erklär ten
Car ib
deleg ates
ande le
r üstung
os ing
uni form
ab ad
V it
test elle
ält in
fil med
ü sten
P ausen
Sch los
N ils
rac ist
Verbind ungen
kn all
con servatives
Be frei
nun mehr
IM F
K ahn
Program me
sch ild
zü gig
Har mon
az a
are z
vo ices
Für th
umb led
Integr ations
Be ate
Bre iten
änd ig
Ne pal
oper ates
E mot
ok oll
ard i
if ies
travel ing
N ancy
con fron
scient ist
min imal
Frien ds
einfach e
Ho ckey
se xt
je derzeit
ret ain
Res ult
Überg angs
regional en
ab s
ro utin
ver ring
bel g
Kinder tages
st airs
pf legt
ag te
Sicherheits kräfte
Erschein ungs
Anmeld ung
Ver lier
ehemal iger
inst alled
qual ify
Konzentr ation
F oc
de alt
Alexand ra
vorüber gehend
IC H
be legen
spann ung
ib ungen
lin der
Mark ets
würd igen
hess ischen
mass iven
po sten
W are
Opf ern
expl od
D ate
K yle
val ued
Me teor
Sho uld
af ghan
k eln
K orn
O ch
H ai
ten den
Refer endum
ent ert
dire kte
ind ication
en cy
demonstr ation
Prin cess
ig end
ab seh
do us
con solid
utz ung
Bes etzung
Prom ille
Die trich
um welt
gefähr liche
Mar ian
é r
L iving
L ese
vergleich sweise
in sel
Hann ah
ichte te
17 5
Bob by
Bang l
radik al
tax i
occas ions
appro ve
K f
C la
olog isch
Viel mehr
Cat al
st arring
Sex ual
wor ries
haupts ächlich
K E
Aus stieg
Gegen über
t ips
Fer din
Medik amente
D ö
ZE IT
Re ichen
te ure
Rem is
F ot
K unde
zent ren
class ified
Kle id
alen te
Gewin ne
g ige
Ein heiten
schn itte
Kü sten
weiter gehen
fire fighters
Gr at
announ cing
W L
Hol mes
don ors
Agen da
arbe iteten
Mal i
ou le
frustr ated
Av iv
Neu zugang
P ink
digital en
be cken
gele bt
krit ische
anger ed
cont aining
All iance
nutz ten
Angelegen heit
uc cess
al ters
Schw ung
L aur
Mar in
ati ver
Fl ag
men u
Performan ce
Re it
P uer
Is lands
zwe ck
N y
main tenance
Rom a
ereig nete
ser ver
war nen
also zial
Bundes amt
kä me
L av
Ver gewalt
des ert
Un fälle
G üter
vis ual
A qu
gesell schaften
sport lich
B uß
audien ces
sch em
Nor man
D W
Kreis es
shock ing
read s
f ug
Po or
But ter
Ver hältnisse
ot y
B itte
é e
dienst es
a at
achieve ment
B row
st reichen
Qu est
Nieder lande
äs se
P att
t ast
Br istol
B ands
auch en
Spe kt
K G
in haber
al ys
kne cht
er be
nur se
Publik ums
R ass
Organ ization
fut ures
Hus sein
SpV gg
Ver gabe
u ay
Str ateg
lau ter
Pl änen
Hist ory
stit ute
borrow ing
Rub io
Bau stellen
U BS
Er win
spr ang
C ore
track ing
F ield
real ize
kor re
im pose
mal t
iath lon
Sm all
Ingenie ur
national e
Every thing
ak adem
d ancing
ver liehen
f iction
is i
E SP
war s
tun nel
imp le
L az
Tr ick
demonstr ated
Bewusst sein
on ged
absur d
dr äng
Bay reuth
Franz ös
klass ische
Rober to
alt es
zu stande
ins atz
Akadem ie
bat ter
Pr ize
ath ers
kre ise
ding er
consider ation
tre ff
Kro at
Sol o
lov ely
Kön igin
h unting
transpar ent
Jul ie
us se
ex istence
Melan ie
S had
Un s
R ingen
Hil fen
h andele
Verteidigungs minister
J in
ing ham
Staats sekretär
Stabil ität
Darauf hin
U g
ass ume
Schul jahr
s her
besuch te
S id
Lind a
1 12
Ort steil
Sil vester
tauch en
t ables
Brand t
konserv ativen
Gläub iger
W EL
Lloy d
open hagen
ü chter
Jo el
Carol ine
Ol den
gesch wind
inv asion
Al ban
introdu ction
te ens
beste he
uch tet
rem ind
ch ern
brem se
Wind kraft
Brook s
K alk
Mal er
Brad y
gr en
st imme
schwier ige
vorsicht ig
Mas sa
stom ach
com pound
R ating
rene wed
He at
rie sige
be freien
Sp ende
sub sequent
Verz öger
Sa x
E ugen
des c
f illing
Be wertung
S Z
W HO
Fi at
barr ier
G ou
R achel
Stan ford
äl de
Schw eine
re det
crimin als
ra th
Hoch schul
T B
Rest aurants
W ährung
Mart ine
Frei heits
T enden
ä dern
br an
Bon ner
Fähig keiten
ü ne
S ke
tee th
Val ent
d l
D uch
11 1
M ahm
dec ke
por no
describ ing
F ör
Carib bean
scen ario
bed ankte
g ängen
R ess
gen es
Ul tim
zu stimmen
Gerecht igkeit
tw itter
teamm ates
sext rem
col m
V og
Com merz
T as
imm une
L ahm
Dr ug
In haber
tort ure
ein drucks
Bem üh
Kon d
bau te
haf tet
Sch ie
aff ung
Mail s
P GA
ange fangen
BS T
sign ature
gewün scht
business man
liefer te
Feder ation
ver raten
launch ing
L ess
ach es
Her o
arrange ments
R ain
Tok io
äss ler
Orts zeit
ate ful
stre ffer
consist ently
p pt
Schätz ungen
ion age
bes orgt
Mal colm
For men
Ver sicherung
bestehen de
Univers al
Geh irn
verhe iratet
Div iden
Z irkus
K airo
S hel
ob jects
Mobil funk
Frank lin
Un like
w anderer
osex ual
Ereign is
Partner schaft
19 0
r ings
k iss
ange bracht
behaup ten
schl üsse
w inkel
veranstalt ungen
getr ieben
Harr ison
Kind heit
Leichtathlet ik
infl u
b ip
Pass anten
itz ki
dort igen
Ferdin and
pro ben
alen ted
as pects
S N
T afel
R ico
Re bec
F ac
ai red
Mittel meer
bewusst sein
tr offen
Tr om
ersch üt
bege istern
Kr one
per t
K up
bü cher
Be grü
regul ator
R ät
unter nehmer
K ast
wus sten
20 s
brauch te
glau b
v als
influ ential
ch art
op ener
Serb ien
berecht igt
M aut
main post
H ed
Commerz bank
consider able
Tax i
is ka
besetz ten
l ash
f ahn
Kar en
G ötz
k asten
op ard
engag ieren
se ither
über prüfen
sl ip
Le ih
ener gie
clim b
bis s
Commer ce
Hel en
Ver ur
rup ted
nieder lage
princ iple
lu ft
ster min
or ia
unter m
S ull
cont amin
financ es
pain ted
Spitzen kandidat
ange treten
zurück kehren
schw är
V eh
W art
Süd afrika
in frage
ge füllt
f i
Bish op
fl ucht
Wür de
fe hle
masch inen
se ctors
Gen uss
fr ies
B og
deal ers
Ly on
Bewer bung
ä gypt
arab ischen
event uell
Katastrop hen
licen se
In telligence
Kr iterien
Kamer as
3 70
ight on
ighten ing
lang jährigen
be züglich
R ai
Net to
b ik
ah me
Mand at
Zu schuss
occup ied
19 30
phys ically
auto s
in ing
H alt
h aut
Hins icht
st up
mal en
Ge gend
iter ran
Agr ar
unter brochen
negoti ate
zess in
d les
Neum ann
Gl enn
gemein t
Rein hold
urs ache
N early
Vort ag
stell ers
Abstieg sk
T went
move ments
ein gest
Lo h
erwar teten
erleichter t
compet itors
Je ws
respe cted
qual ifying
auton om
Fre der
Grund sätzlich
Eisen bahn
pock et
ograph ic
ver passte
sh or
Fo ster
Klim aw
K retsch
Pf und
sch üsse
W alt
M asse
tremen dous
sub stance
grün deten
seiten s
in ations
Vor sicht
Kom missar
Mü hlen
eigen s
ah ne
Kle ider
stellvertreten der
per iode
E ight
Puer to
J ol
Bemüh ungen
Alex is
Ba iley
wissenschaft ler
Treff punkt
Sch olz
we h
M err
Bahr ain
Fort setzung
Mandel a
h ing
el ong
Spe icher
kämp fte
UN D
Göt ze
H az
Be hr
demokrat ische
tradition elle
Fin anzen
geb ühr
meist ens
submit ted
be gangen
resol ved
re ward
Spiel platz
if fin
Har per
Landkreis es
F alk
je w
fest stellen
archite ct
Rebec ca
e leg
L af
p od
Bes atz
h ips
dan eben
in mates
nor theast
Led iglich
film ing
sol ange
band s
Ges ichter
An satz
Scient ists
ei ro
murder ed
Franç ois
stre ben
add y
besch luss
nächst es
r äte
fabr ik
niedr igen
ann els
Ju vent
cre ates
Auto bauer
gu itar
J og
al ity
ul ating
man ifest
Br a
toug her
J ena
N agel
Ur sprün
Moder n
prin ciples
Colomb ia
G row
celebr ities
25 00
the dr
schä den
bro w
recogn ise
c ens
cast ing
Zu hause
v io
her ein
Liz enz
Ab bau
au bt
fir men
dank bar
el tern
Ä ra
ang o
ungewöhn lich
Rich mond
Benz in
C hase
proble me
develop ers
clim bed
Katr in
eur opa
ac are
transfer red
es kal
less on
close st
Shakespe are
kon front
ac res
ur ger
br ill
Hol y
S R
Gl anz
Donau esch
s ar
B ody
BI T
Heim sieg
ob tain
tran spor
Thous ands
legit imate
Ear ly
Gu ant
zurück halten
20 30
Commun ications
An träge
ver fügen
ester reich
le ase
Sk ulpt
Sta ates
travel led
Süd korea
sp aces
ser b
gerade zu
oun gest
äm ie
Str aß
Hin dern
E st
ig ge
isol ated
Corn el
E aster
c ill
Jan eiro
leg ally
L obby
Wen iger
ar l
be lohnt
kehr te
flo g
Aug sburger
p enn
Qu artet
Spe ed
suspic ious
S ich
V in
Zus ätzlich
präsent ierten
Cele br
liegen de
israel ische
under lying
legit im
Ul m
P istor
Play er
V aters
mil iz
attor neys
Sch uster
rom antic
Ab fahrt
wend ungen
derzeit igen
vot er
el ing
u ßen
urn ier
f old
An schlägen
K N
d ys
Metro politan
illeg ally
coc aine
gesch ützt
r if
A round
R ü
medizin ische
D ylan
Rog ers
F it
Begegn ungen
Er ne
anony mous
war ns
G än
Ges am
er freut
b b
Aufen thalts
demonstr ate
M uss
ll i
Besch e
g allery
der by
Rud d
besche iden
Bo ys
geschn itten
Be ing
gesch w
stopp ing
ächt nis
Für sten
Was ch
terr itor
m are
unter schrift
symp ath
Klimaw andel
S AN
br uchs
a ides
10 3
neigh bors
U L
profit iert
stell ern
m unter
le uchten
n an
Fil ialen
Fahr gäste
er arbeitet
Aus maß
R WE
separ at
Lehr erin
res ume
dis pos
Ö ko
re calls
ver un
divers ity
ist ole
ver mehr
US C
ific ations
iss ance
nomin iert
a dies
P rest
f aul
G os
under ground
Quadrat metern
mit unter
Reut lingen
Cap tain
Qual itäts
steiger ung
ünkt lich
t aten
ins ula
weis ungen
get auscht
Ver sprechen
Kö hler
d ner
män ner
appreci ate
celebr ating
Protest en
chef s
hör te
s z
ó n
Xin hua
H A
tur bul
bath room
Beck ham
mid night
pap ier
erne uert
Dar an
fle et
f ame
Betr offene
deter ior
Ent schäd
Fert ig
ens uring
Ge gn
skept isch
anz lei
Künstler in
Pre isträger
t alented
S ide
Z erst
sh oppers
be fragt
offen ce
vers ions
super market
fier ce
Juvent us
at ik
om o
R äumen
Tom my
engine er
Car lo
aus gaben
trip le
unter kunft
Fern seher
re struct
nöt igen
Dok umente
ac on
her itage
ö ten
heim lich
ves sel
ind ict
fin der
ver hältnisse
tä glichen
Erkennt nissen
ien na
attr aktiv
Offen bach
Pas cal
region ale
Obam acare
fin es
Wilhel ms
Sil va
off set
um setzen
Bach elor
feed ing
sell s
isch te
gew ö
Konzer ne
shap ed
mer ger
über legt
austr al
Erkennt nis
He ide
A pfel
Vi ol
evol ution
ne th
Far b
An derer
sam ples
Schu he
kl ässler
tr ump
interess ante
pas sage
B oll
watch dog
cir cle
Schw aben
Kal iforn
West er
any more
reich es
it able
loc als
en burger
at ische
dem ol
st urz
Med aille
hack ing
ö ver
Zim babwe
ge einigt
Karne val
Resol ution
we ihnach
Morr ison
de pos
sequ ently
im ar
ver träge
Sh ane
U P
Se hen
K no
af ted
sw ift
UE FA
L ä
S top
G W
y oungest
om et
batt les
verbin den
In sider
br ä
an ia
g ents
er teilt
inspir ation
ab bau
K asten
av i
da heim
aus sieht
Argentin ien
ot ter
Le gende
mus cle
kil ometer
sie bten
Ent fern
T öt
examin ed
Nat ure
H ob
Er lös
bemer kt
S mo
pre chen
Feuerwehr leute
ar ier
ie sen
He iden
ausländ ische
Stock holm
Bo eh
Fr ist
voll es
pros per
ick ed
mit zu
Con n
dep ending
stron gest
R ene
th of
ab i
inter nen
Pistor ius
Ver spät
Unterstütz er
pr icing
Fl ut
st ere
fl üss
dut ies
El ite
char ging
erfolg te
in y
Mitarbeiter in
E ms
techn ique
un acceptable
Hof er
W öl
obes ity
mitt lung
ver lief
b ases
such ung
She ll
voll kommen
m ild
Unter schriften
we ckt
Zigaret ten
he iße
ab gelaufen
real istic
Emir ates
G V
R ausch
che er
bes icht
sp unk
mü ll
Lie chten
Nik las
bench mark
F ett
u i
RE AD
ar ena
Er nte
Camp aign
War te
K älte
R ah
Str ö
Fre y
Warr iors
Sw ift
Haup tr
es y
S under
ge werk
Zw angs
Eng ine
pra ise
re h
recognis ed
Innen ministerium
h mer
W it
Sche itern
sch olar
Björ n
Th ings
dam er
10 4
Betr offen
Ind ivid
Daniel a
G ip
my th
Rumän ien
prepar ation
conne ctions
Interess ierte
crow ded
Mon tre
frem den
ke ys
S ack
Abr iss
Hand werker
ag ger
ank er
ap ology
is emit
Ver fahrens
Bild unterschrift
Invest ition
not ion
genann te
S einen
Dem okraten
wild life
negoti ating
Überwach ung
Cry stal
H äusern
acht al
air ports
ze k
pay s
Meister schaften
m assen
jähr lichen
ambul ance
Par allel
speziel le
flüchte te
is lat
ste ep
5 50
gy m
fro zen
zwe ieinhalb
pe ers
form uliert
app et
Hal f
B od
fle isch
dre ams
Emil y
inspe ktion
EC B
Obam as
mo ck
a j
car pet
10 2
196 4
jack et
defin ition
beson derer
gre y
spot light
ven ge
Me cklenburg
R üd
disci plin
explos ive
es sa
initi atives
vor ab
Pfer d
jemand en
ass ists
i osen
anze ige
expert ise
Air ways
Res onanz
cours es
le e
v ary
Foc us
Med iziner
He ike
Stephan ie
ce iling
Minister in
Vers orgungs
de port
C hat
unter halten
2 25
aw l
kur rent
L OND
w itt
ren omm
jud icial
B ub
priv ately
con struct
Dr am
narr ative
Ste ine
anges ehen
leiden schaft
Jahr gang
ris iko
krit ischen
ite e
Bed rohung
Qu ellen
Tö chter
z utr
stag s
LOND ON
n iveau
p ione
po et
c ig
ien e
particip ation
steigen de
on ien
ah t
lic ence
oc ation
G am
ob served
wicht iges
ger äumt
h iding
In side
b out
g ages
nes sed
optim al
ok ing
intim id
remember ed
Fahr en
H undred
Steuer zahler
ver handeln
K it
be frag
Cub an
clos ures
st in
stre bt
Verd achts
lok ale
Proje kts
Thom son
bör se
Gabr iele
Sommer ferien
met all
är kt
goal keeper
Pal m
Zivil isten
Erkrank ung
Begrü ß
gegeben en
lei he
Hon or
Demonstr ationen
f liegt
fr at
flo ur
Beis piele
r ice
Ver mieter
Freib ad
u sel
Fr on
o the
automat ic
Eröff nungs
et ta
benachbar ten
Am nesty
Gl ad
Bundes ligisten
aufge fallen
Gut tenberg
uss ball
Motiv ation
h ers
I ce
Schwan ger
Ath ens
pil ots
grün der
H ül
promot ion
Tre ib
ch annels
br asil
einz iger
amp ed
high way
lö ser
twe ets
C er
Schluss licht
S cr
m esser
ge führten
Dr ive
emer ge
E sp
Cze ch
L ug
ver setzt
ell ers
fl ücht
taxpay er
cap abilities
versch winden
ic ity
ab gew
Car itas
Unfall stelle
activ ely
sch ickt
Über trag
lo ving
San chez
ul det
ser t
fr ischen
bene ath
Fl üge
ill o
sophist icated
Aus fall
R M
Neu wahlen
Di amond
flü ge
Nachbar schaft
spon sored
Spen cer
Ge fühle
sy m
ex ceed
definit iv
Gastron omie
bus h
coast al
Ins besondere
An teile
pur poses
197 1
an hand
ro okie
Unter kunft
ve ment
heft igen
zeug t
städ te
ät te
Beschäft igung
eingeschrän kt
work force
Kr aw
Cow boys
er krank
iv or
fort une
F ull
Beg leitung
Con s
W et
D B
bele id
flex ible
Nam ens
demonstr ations
ober en
tr ugen
appl ic
Boeh ner
Jos hua
adjust ed
umen ted
Unter bringung
clin ic
Ab sicht
Schön heit
C urt
Sch af
ord net
L ächeln
T ampa
Exper iment
cancel led
Bron cos
dro hte
ip o
Re yn
Geis el
Test spiel
unn y
techn iques
Europä er
j am
biz arre
A sche
shr ink
unver ändert
A str
se min
Ob viously
dis closed
out fit
oper ational
Al most
wa ited
ö te
ie m
schw immen
Enttäu schung
cred its
196 3
test ified
Klass ik
Kenn zeichen
sub si
Park s
c ab
suggest ion
m bach
fen ce
vertr aut
Pan ik
saf ely
rhetor ic
ur an
Griechen lands
prot ein
G ad
Vertr auens
We iss
Grund satz
after math
vill a
L ED
Th ank
sp are
P itt
sub jects
verd anken
de bris
iz ierte
äss ig
n u
beitr ag
b unch
We ather
aus bildung
discuss ing
ges pr
gesch äfte
ver steckt
sche fin
bew us
Hud son
infe cted
ro utes
eingere icht
er fuhr
S ätze
it ated
asse mbly
embr ace
subur b
Kinder gärten
Ad olf
C ut
Tr itt
Ob jekt
lyn n
Tr ier
Wo bei
dub bed
bie gen
Tabellen platz
f ängt
begeister te
Rekord meister
re ist
ju bel
din ing
P anzer
qualifiz iert
Sch reck
determin ation
Der en
ile m
viol ations
Main zer
No thing
re covering
Schaden s
Sull ivan
sch el
bewält igen
Her ald
motiv ated
FT SE
Im mun
Vertr ieb
surprising ly
so hn
b rech
all a
gener ous
Industr y
Sto pp
for gotten
Präsident in
review ed
administr ative
process ing
Aus lands
Ro stock
Mc Car
Grün dungs
dr unk
K az
un bekannten
L an
Anderer seits
über lassen
Mem orial
o gen
E SC
Bundes länder
B ark
et c
Le id
to ilet
fas cin
verl aufen
is ser
li brary
vol umen
Com edy
M ahl
Chef red
digit ale
über s
wechsl ungs
A mo
kon vention
dep end
acknow ledge
integr ity
kennt nis
18 th
Som it
auf bauen
schlag s
zehn ten
K emp
Fre undes
Hir n
hand led
lern t
Stefan ie
The o
ck es
H ers
Nor m
Terror ismus
vac ation
Temp el
Be th
oper iert
Lo go
trans action
L ate
m ün
rece ption
patr ol
Br om
unn öt
c z
sign als
Bang kok
Bau hof
Gericht shof
sc ulpt
Vie w
G at
welt weiten
le te
Schu bert
H äft
un rest
Re venue
le uten
franken post
grand mother
Kompeten z
pre vented
älte ste
er gibt
e the
To o
Fach kräfte
Ange stellten
os o
Beson deres
japan ischen
Shi ite
einst igen
part isan
collabor ation
Py ong
musikal isch
kass iert
Swan sea
Re cent
Sat tel
D elta
kn appen
jahr en
Men gen
sm ell
sport ler
Cann es
Ad vis
instit ute
Verd ächtigen
sh irts
refer ee
be irat
Kandid atur
beh andeln
13 5
anges p
det aine
pe de
Me g
alko hol
ausge fallen
ine a
dist anz
B ak
Treff ern
Mun ich
ab used
gesellschaft lichen
Sch mitz
kan ad
Bew ährung
Handel n
Sha re
imp ft
o die
zu bilden
In grid
gr ateful
c afé
amm t
fort setzen
N igel
neu esten
Presses precher
H B
requ iring
In spe
im prison
Dor is
em in
Tür k
Ele ction
O ma
are st
Br ien
H af
billion aire
n aked
k ungen
st eine
vent en
Bundes rat
Bash ar
Mad onna
oly mp
US S
st ing
R ally
An bau
Par ade
Wo uld
arbe ite
Ein spar
gr ams
Tre ppen
d orth
belast ung
ep ic
top ic
ver ließ
W ade
pr iced
stab bed
Rüd iger
Potsdam er
dorth in
bo ther
aw k
be e
V C
kil omet
mort gages
McL aren
G ard
zerst ör
glo be
W ellen
gew usst
Twent y
L ücke
Ed die
er freul
the aters
werk statt
anges agt
Staats bürger
Mit einander
batt ling
m ask
gent le
V iz
R ho
gesetz ten
ve z
Allgem einen
b unte
o esterreich
är er
ab gestimmt
Viel zahl
Sporth alle
Co x
Jo int
e es
prompt ing
treat y
erziel ten
lust ig
roll en
Kär nten
k alk
sp y
Fl aschen
vis a
trans actions
schein lichkeit
nöt ige
Gegen wart
Frühl ings
heraus ragen
an stehenden
I B
b ier
but ton
prall te
vo cal
impl ications
ht on
gr ades
scr atch
ieb ung
le hnen
un ged
Lang zeit
senten ces
too th
Glo be
trad itions
gere icht
Rück runde
Gut achter
meas ured
Zusammen stoß
T au
bl aze
L ach
grab bed
c rown
avo ided
G eln
op pose
schr ump
Ö kon
Über zeugung
e w
enth ält
Untersuchung shaft
Pyong yang
meister schaft
proje kte
ang le
Aufsichts rats
Wirtschafts minister
Ne ill
Dam as
B illion
ut ility
ro v
ge kr
proje cted
Kre ise
ok ay
er ie
der son
i am
share holder
conver ted
entr ance
e u
difficult y
Martine z
bestr aft
wahr genommen
R an
aw i
r ational
in appropriate
kon kurr
art isan
P aten
be cker
br ücken
stre aming
Or th
K obl
som mer
ingred ients
läu fe
p ic
Sant orum
brem sen
appeal ing
ator ium
oe 24
Bel fast
künd igten
Br ä
bac teria
find ung
wr apped
dep ends
Anmeld ungen
normal e
dat ab
motiv iert
rest lichen
Ost ern
ab str
neu em
exam ine
In tend
T ina
ator in
scr ipt
zess ion
Z ell
ic ipal
ank ommen
K ad
struct ures
Mit stre
Har am
Ber ichten
Vor stoß
V alen
now here
wachsen den
Auseinander setzungen
af ia
d imin
Ren é
m els
Den is
b its
Res our
S MS
gesch oben
WEL T
strahl en
be dient
Cast le
berecht igten
K erst
zwischen zeitlich
fil es
Politik ern
19 65
strug gles
le hnte
tr io
art a
Bo om
Class ic
Premier minister
Hundred s
res idence
inevit able
Inszen ierung
Fabr ik
pr inz
dro ught
Base ball
wach stum
speziel len
Fr ances
Hallo ween
ge wechselt
fe uert
P ool
Kur den
com ic
bol ster
se ktor
Ver größern
bl own
pl ag
educ ational
ange geben
cock tail
Again st
it ungen
pattern s
C legg
R ather
Luc a
Land schafts
An a
Dres dner
-- -
ehrenamt lich
B ahnen
mag ic
suppor ter
be denken
last ed
m org
pf leger
R ace
bom ber
kon servative
Jos é
p ad
Haft befehl
Camp us
ver dienten
hoch wert
lok alen
Bank s
suppl iers
Park plätze
schick te
27 0
kontroll en
eg ger
verkün dete
nah en
Aufl ösung
er kennt
Z aun
host ing
vel oper
remo val
ad mir
Amer ikan
ed iting
heraus zu
Mag n
arr ay
Sonntag s
re conc
sa ktion
success or
Pict ures
Peters burg
organ ic
Tha i
last ing
p he
blo ody
fahr zeuge
il ität
br ink
Dür r
Meer es
angr enzen
F ind
strateg ies
d liche
w y
Sier ra
Lin zer
fo hlen
L OS
open ly
Le eds
N utzen
diplom ats
zug ute
rat io
to urs
con servation
Kämp fe
ü te
stud ierte
swe eping
ver teilen
rad ar
ab len
H its
Anw älte
s ke
Inter est
Ih rem
ü ster
R och
med ication
2 60
Stu dies
traff icking
tw in
casu alties
le f
O val
igen ous
iz a
wo unds
mount ains
bemer kte
wit nessed
5 m
in quest
hand lungs
dr ome
Kl itsch
sacr if
her d
ausländ ischen
dr illing
Hol ding
port al
Pap a
av an
notwend ige
withdraw al
E P
Environment al
O mar
art ific
tr up
lo e
Vor verkauf
f meter
M ason
würd igkeit
Berged orfer
produz ieren
Zum al
A to
he bt
r of
quarter ly
re p
insur gents
antas ie
g ste
process es
s ne
ben utzt
arr ives
un zähl
P es
30 pm
decre ase
Öff nungs
le aked
H ous
E gal
genehm igt
re ine
m all
st if
rei hen
D ag
Re zept
Teuf el
set ze
sprech erin
ign ore
stür zen
Bür os
Ein fach
zul assen
ein gehen
begrenz t
Ver g
Riv alen
ab gesehen
be wohner
dun klen
So ccer
M omente
Qu arter
D arren
Natur al
Spiel erinnen
S end
L anka
zu ge
anderer seits
reveal ing
sh y
st akes
Univers itäts
Selbst mord
Em ploy
campaign ing
GA AP
brief ing
reluct ant
Patri ots
Kobl enz
Gr uß
garant iert
lif ting
steck te
guarante ed
de posit
Fil iale
bei getragen
fel den
sch merzen
betr agen
an stren
Jeff rey
restr icted
econom ics
Sup port
Kroat ien
Ma themat
kolle ge
A er
Ch ip
Pau lo
Wohn raum
ush ing
conv ince
head line
nachhalt ig
ann ually
Rhyth mus
E mb
Vor pom
ehrenamt lichen
w rest
Sha w
Ent lastung
t anzen
seek ers
gewähl ten
Gel der
t anz
Interview s
ir gende
ian i
Ach im
expl oration
Konflik te
Parte if
lie ße
Staatsan leihen
match ed
unter lag
Rou te
sch ock
tra ders
bott les
mo urn
Nach spiel
distr icts
Gewerbe gebiet
Hoch schulen
benöt igen
Now itzki
Li am
vill ages
p y
Kamer aden
Ep is
Con nor
ehr lich
D O
Haup ts
agre es
Ber ichter
Tes la
ver wenden
ref using
imm ers
sk ill
20 22
Sow jet
educ ated
Gas thaus
Ser gio
Krim i
aus wärts
Fin ally
L ex
amer ika
Über legungen
Boden see
bege hr
ch ancellor
Re x
ly r
2 80
after wards
McCar thy
f esth
ces sed
Motorrad fahrer
emot ions
ste pping
besch loss
unter en
D EL
lin de
M uh
co at
St ur
Ph änomen
cham ber
second ary
196 6
lan det
erst re
te es
dr ives
Jugendar beit
re z
Dutzen de
Geschäfts führerin
Any one
v oc
kle ide
Pow ell
cr ying
employ er
einer seits
Se ason
sw im
Fil men
With in
T rop
A den
kur d
wh is
promot ed
O wen
ge höre
chem icals
vir al
durch gesetzt
Rud i
Offic ers
schilder t
Auf führung
N iss
ab du
instit ut
Spr inger
le ep
glob alen
s isters
comp ass
V at
wur st
ele ph
Wals h
s orts
N ab
in land
vi br
out door
natur ally
sk ir
break through
d ign
kor rig
Aus sie
J PM
bu sch
ä her
N obody
ge kostet
Ste uers
Is ra
br ave
O den
V R
anges etzt
Le yen
Al brecht
c uit
Ä m
hy dro
leben sl
reh abil
kl am
ichte ten
e quality
lo ver
Leg isl
Gr iffin
Kor ruptions
F is
r ation
lau ten
fest es
x per
Ursprün glich
Bangl adesh
G n
by e
spann ende
leng thy
Kat ie
Bu y
zum achen
Rus sians
Nic ola
Bill ig
D M
Re legation
susp end
N i
compl ain
st ones
Rät sel
doub ts
Ra j
gere i
Ein blick
mar gins
phr ase
prä z
lic ens
ach ers
neighbour s
Commun ist
bud gets
contin ent
unter suchen
Franz iska
Wen ige
F B
ifiz ierung
B oko
Wil fried
Emer gency
h änge
play offs
Re vier
St roh
re minder
bewer ten
ange zeigt
Aus zubilden
ann i
e is
nie ders
sou theast
dis cre
10 8
T hal
ent ag
Wall ace
vict ories
out lets
Sch üsse
spro du
Over all
stand ort
ürz ten
geschäfts führer
T us
Th ird
asp ir
Tay y
V il
Ro und
besuch er
b ones
wire less
pleas ure
H asen
barrel s
B innen
zw anzig
P KK
Verlier er
cent uries
Montre al
traur ig
Down ing
Bestand teil
R acing
Br at
th ilfe
integr ation
gesch ieht
solid ar
ts am
sicher er
gu ided
mensch lichen
An kunft
F lex
dict ator
Hand werks
tran sparency
Buil ding
Co uld
W itten
Alp ha
graph ic
Sit ze
C ass
V ik
Ne ither
hab i
S aints
ange hör
psych ological
bet t
rad iation
hear ts
Slow en
Preis en
k ter
Politik erin
Co st
ch ase
B ist
broadcast er
pl att
Kontr ah
council s
cop ies
gew al
Sal v
ann ed
un verletzt
gottes dienst
g rem
Fest ivals
Gr on
gen ce
occasion ally
sil ent
ID S
p okal
An fragen
ex cit
sp ause
c rop
T ell
po inter
meister schaften
er b
system e
Prä senz
gl ad
ges ungen
Cl oud
ativ ely
conce ded
fl ossen
oun ce
F lieger
Hann es
Urlau ber
gute m
ver sehen
m eines
am an
dec iding
exam ples
gel ben
K ob
Kat ja
d ol
ar men
fe kte
Be le
demonstr ators
def ic
Polizei angaben
Te ppich
wirt schaf
An nette
se iter
pa ired
Dar um
F utter
schaf ften
OE CD
maint aining
g ul
ober oesterreich
J ake
auf gewachsen
auf nahmen
C ell
ungesch lagen
Wur st
Ash es
Lau rent
Kund gebung
bewahr en
to bac
Bud ap
ch ips
tra dem
Ir r
DA X
Med iterran
pl o
Op positions
acc using
Nieder länder
jen seits
Rel ations
respon ding
e ve
zug änglich
Ad vent
Wer ken
Hel fern
Ins assen
Loren z
P age
ie u
H ose
ay ing
erreich ten
Le hre
ic iary
diagn osis
Fro st
u fe
cir ca
Tur in
veget ables
subur bs
Boule vard
Pr os
Mik ro
Am anda
down turn
m ühle
Isra els
Ar ctic
As hton
C have
gro cer
st aged
verkauf te
Gast stätte
Mag ic
Kin os
evac uated
Ge ister
k orn
Gest alt
beauftrag t
el abor
Rös ler
Donauesch ingen
Islam ischer
prevent ing
HS BC
Hol t
led ges
ge g
ob servers
Vor be
dramat isch
ack ed
lau tern
Außen seiter
every day
Wohn haus
G uer
gelang t
einz iges
Z ert
Chave z
M AN
Al bst
konzern s
er hofft
tro phy
Off iziel
auf tritt
disp uted
Winter pause
expl aining
11 th
offen ders
Ros a
angen ehm
ke e
Auff assung
Er holung
verm uten
quiet ly
rel ating
tempor arily
hy per
er wachsen
Ge halt
Steiger ung
do sten
Schlus sphase
St ütz
er wiesen
v able
an geschlossen
d oping
G allery
Auf stellung
Challen ge
finanz ierung
änder ung
her ausge
be antwortet
gun man
stup id
10 9
rock s
Dir igent
Stadt verord
cl ing
ev il
Cap e
Bo aten
krit isieren
Lau ter
Hor ror
Kab ine
dam ages
Tayy ip
M og
sa ßen
Damas cus
En ts
fol ks
Re ed
hervor ragend
pro sec
Hen r
D ingen
Kreis en
Congress ional
berühm te
ac id
G ießen
Fl ight
O w
g i
Bar n
Verb ün
el ih
uck t
Bet ten
Länder spiel
iet ies
IS S
cau cus
Fl oren
l achen
deut licher
Unter halt
kick ing
G umm
All tags
wie se
Ab fall
High way
bez iffer
K W
ab wechslungs
Med ica
fre ier
Po le
perce ived
E BIT
fest gehalten
w ives
Kon kurrent
be aring
Fahr erin
B ird
um per
in spect
Y an
Sto re
ag ieren
coll ision
are th
Pens ions
San kt
Mo ody
Durch bruch
scr ap
Able hnung
ab gerissen
V ienna
ri ot
gestr igen
Han se
Phil harmon
Mo os
höch stens
teil genommen
epis odes
abgeord neten
Ober n
ünd igung
aun en
par teil
Bau mann
tr enn
ch i
Haupt straße
Urs achen
verschär ft
all gemein
kon fl
Se en
vor haben
Ben ed
il o
kommun alen
co gn
extrem ists
ro de
T ak
err ors
Sch ür
defend ants
Rup ert
Des sen
Mc Connell
Rück spiel
dis count
To de
Soll ten
Innen verteidiger
Br id
he y
schw ache
Hass an
auf gegeben
Stat ement
ad vent
ch ts
ernsth aft
auf zunehmen
prov es
Dak ota
Re chen
pl atten
Bal kon
prof ound
Sot schi
gefähr den
ul ations
Hin blick
ro e
Bulgar ia
Log istik
Land wirte
ein bringen
verstor benen
Port land
g ifts
exec uted
install iert
sch ub
advoc ate
Stadt gebiet
schu he
B T
real istisch
ik al
ol en
ig ro
blon de
ch in
st ich
sperr en
bl ö
robber y
Sch ienen
Insur ance
Ph ar
ap h
Nor weg
Krem l
im ports
Work ers
wh istle
Gr ace
Mot oren
Ty ler
sau ce
Wohn zimmer
k enn
Se y
bal anced
Dsch ihad
pres erve
pe er
re fin
Zeit plan
W ahnsinn
ge zählt
G O
awk ward
erwar te
schul den
vor igen
we ird
spe icher
18 00
Vo ice
tö dlich
volunte er
90 er
Kaisers lautern
an fangen
Feier n
av a
t ungen
Re ktor
Le gal
Ber gen
Konsequ enz
dr um
Al di
breath ing
Me chan
Kar zai
mitglie dern
gef äl
aus enden
eig entliche
Math ias
sch ade
examin ation
sp opul
erwar tete
Bundes verfassungs
ep idem
board ing
Dr itten
Niss an
Sch okol
bestre iten
le af
uer ingen
tra veled
me ters
Re ports
für chtet
zeit raum
Gr os
bo ots
ein schließlich
Krem lin
N iel
ge z
St ick
Or chest
gesund heits
sch ießt
devast ated
tr ät
vor liegen
different ly
sour cen
entreprene ur
Nich olas
ou f
demonstr ieren
erheb lichen
we m
ev ident
Come y
An ruf
f ights
F ather
restruct uring
person en
Cham ber
comp let
In come
G PS
trib al
ä le
com m
op ed
mo il
An sprech
w i
Mc G
book ed
Insel n
Wahr scheinlichkeit
I HK
go v
help ful
be ars
Ange stellte
Vö gel
ship ping
k owski
Trainings lager
Heidel berg
sel be
Inter ior
He yn
South ampton
196 2
Kap itel
gesch aut
ass ured
aust ausch
OÖ Nachrichten
T alente
Bundes land
prior ities
land mark
Zahl ungs
philos op
verschieden er
Samm el
non profit
Bir ken
Bur gen
schw itz
d än
Cr ash
ers dorf
er richten
maß nahme
B order
üb ung
So x
F ahnen
l ip
Verk äufer
trail er
br u
an thro
Hand ys
Leh man
Bebauung splan
fis her
L ipp
disci pline
fre ud
Mad ison
en des
Tol er
Fl ach
auf geben
rom ant
Vill age
Gre y
Ple ase
depart ments
tobac co
Über fall
8 50
G ir
D habi
eleg ant
re bound
pf ung
p ile
cont ainer
Res pon
che ek
rac ism
Künst lern
kathol ische
zo o
P assen
Schul ze
beruf lichen
al in
poln ischen
Jenn y
Hart mut
ukrain ischen
work place
fl ower
Tier schutz
grand father
cl ou
Te heran
vers orgen
Roll stuhl
f et
Se i
ver hinder
Re ck
R enz
gesetz es
F ame
sher iff
In stall
Do br
Reyn olds
programm es
zit ierte
commission ed
Pfe ffer
at sch
Angeb oten
zu gesagt
subs id
ord nen
fre itag
Milit ary
Pr ag
ob le
medizin ischen
Tr ail
under t
accommod ation
Sy m
viol ation
ve to
über greif
Boaten g
C had
Oak land
transport iert
9 11
Co de
ome ters
to pped
B attle
Ark ansas
car to
conduct ing
pen dence
en rich
Old tim
Kul isse
ma j
Wetz lar
understand s
In go
C yr
predecess or
h ans
lo ads
Sper re
cost ly
Exper ts
Saison ende
auf fällig
10 6
But ler
Über nacht
Be ir
he els
um gerechnet
Sp ätestens
N arr
not ably
Um so
mut ual
e ist
um pen
Os cars
Frem den
leben den
st ücken
Selbst vertrauen
wo oden
Cent ury
wechsl ung
ger inge
ä fen
z ivil
mid field
lea ther
vent ions
hung er
get aucht
stad ion
inten d
Über prüfung
Me ist
ab gebrochen
El be
wick et
Wissen schafts
E cu
stit u
tr age
ig ate
ange gangen
Mediterran ean
NY SE
8 000
E i
access ible
free ze
bestre itet
Bud d
B UR
D oc
a al
V ul
seiner zeit
de voted
excess ive
10 7
ge kämpft
t ausende
Durch schnitts
Vol umen
recht sex
compl iance
fehl ende
eigen em
Pro gnosen
opin ions
L C
Past or
Ab wasser
Bull dogs
hil f
L achen
Rö mer
con vert
Lauf en
re source
J P
verteid igte
L uck
z elle
Ver folger
Ausdruck en
batt led
That cher
i ös
ger ingen
Schl acht
ganz es
intell igent
Win fried
Brand enburger
tran splant
er lebte
L ichter
see ded
muse ums
Rück blick
Friedrich shafen
ver geblich
Attent äter
Pre ußen
Rass ismus
F ight
run ners
M aus
n od
Kath rin
Bild schirm
Geld strafe
Sil icon
s ul
bu yer
cho osing
be treffen
Kap elle
zen s
Gib son
f lich
bor ro
subsi dies
gr aded
bureau cr
U ser
El ke
tit led
ten burg
Wol ff
th orn
A lo
Ra iffe
t anks
Tit an
Kranken kassen
Sunder land
absolv ierte
aff ili
begann en
Highl ight
Merk els
iz ierten
design s
Stand orten
pf legen
heft ige
p sy
nur ses
leben d
expl icit
Pa are
de veloper
For mat
Le ft
k bar
te uren
Pfing st
Dem o
engine ers
qu et
bes itzen
re ci
Zu griff
Ort schafts
vor legen
A id
ap y
haw ks
u ier
th ueringen
io se
Nieder österreich
ener g
Pod ol
Lein wand
fo ster
erkenn bar
Bett ina
An zeigen
Look ing
Brother hood
Sport platz
Medica id
Ne bel
affect ing
aud io
renew able
Andre ws
üh ner
sack ed
mahn te
willing ness
Sing h
Bos ch
con sent
k inson
G utes
require ment
Col a
ve he
zu fällig
islat ure
Rum men
igro up
Raiffe isen
Valen cia
Lou ise
japan ische
Con vention
Sen ats
Erkrank ungen
ges pen
Ver izon
Gr upp
jün gere
C um
Sch ott
dis ziplin
affe cts
los ung
Hen kel
mü ller
D ise
dre if
Hür den
angen eh
Z uer
Z ählern
Musik verein
sin kt
s ample
chair s
Zahl ung
Ab del
defend ant
publ ishing
Prem ium
gel andet
p ants
blo c
deb ts
Beat les
absolv ieren
ab y
dar gestellt
intellect ual
ann y
seit ige
Abstiegsk ampf
Tr iple
Rob oter
Ge ht
sch reiber
Aus blick
tur moil
Industr ial
Möglich erweise
ste ilen
L ist
w ip
S pl
zentr al
consult ation
a the
Str afen
Vf R
Year s
Klitsch ko
D ell
Al ong
What ever
pr axis
Wir bel
l n
Thin k
b ucks
aw ful
eas ing
Mont g
seit igen
Sp ree
Electr ic
Kub ik
JPM organ
stat ue
Bundes finanz
or bit
pot ato
Schr am
gr im
Im per
men ge
ses sed
zu gestimmt
What s
konfront iert
Zu wachs
Leon ard
bau ern
städt ische
Cl ay
ath lete
Rettungs kräfte
prop aganda
ing end
Geschw ister
Ex tra
man t
Dam ask
present ation
wohn ungen
cur ing
Streik s
re ar
S i
Flüchtlings krise
disappoint ment
bul k
mos que
automat ically
plat te
Sch ad
Beob acht
Nürn berger
Innov ation
Pok als
länd lichen
Mat te
Bahnhof s
Crit ics
schem es
Br ink
Extrem isten
zähl ten
Z yp
pfl anzen
satisf ied
S ure
br anded
eng aging
anwalt schaft
In se
em ann
Com ic
Öffnungs zeiten
su ff
sen sible
S ucht
Richard son
f alle
Te e
Eis bären
ehrenamt liche
Aufr uf
deliber ately
been dete
F ix
reich ten
Kr amer
gebir ge
Aus stellungs
ad ap
Inner halb
sub sequently
erreich bar
V ER
Nov ak
bus es
über schritten
worry ing
tradition ally
äd ago
Richter in
p ow
C inc
bu ff
sem bles
E ve
Lebens gefähr
UC LA
phenomen on
le ak
n ig
af eln
Mie te
por trait
anschließen den
list ing
sp aket
19 40
j ad
Cre w
Hern andez
caut ious
Sto ke
Damask us
C abr
Re iz
I TV
w ahre
Rad weg
h üb
Kaliforn ien
An streng
dis played
über reichte
enter prise
pe pper
hr ung
F lynn
We ichen
kap utt
kulture lle
Proje kten
sur render
Port al
eng ines
furn iture
Schw ab
Produ kten
For ces
B ased
Dou ble
vorläu fig
B ent
änd nis
appeal ed
Toilet ten
p act
Kr aus
le ap
ck el
St ap
Gre ens
Ne ure
re moving
elimin ate
CC TV
Ba ar
sex uellen
weig hed
Han sen
i bed
S ak
ver haftet
kommun ik
f ließt
G ärtner
Nation alsozial
mit arbeiter
ö hr
the men
h auer
Bach mann
Te a
The orie
gemein den
ö re
islam ischen
wohn ten
Ch uck
Kerst in
frag lich
erne uten
com mut
car go
äu le
noch mal
Tö ne
de e
scre ens
B ären
Def izit
af ten
Christ ians
bö se
Bar th
sch mun
swe ep
iel t
bemer kens
produ kte
check ing
assum ed
Aktion äre
sp ende
be zieht
wor auf
rest ored
Prie ster
stre icht
Krank heiten
Cit igroup
prog nost
Vorpom mern
re vised
niemand en
it ative
Van essa
Z schä
Se gel
relax ed
Sch wellen
Ber k
Is is
Kreist ag
Rummen igge
ias m
Gi ro
ref use
erwä hnt
Bom be
ko vic
Z wie
imm igrant
Pe er
un wahrscheinlich
T aun
over time
ben annt
Se parat
Diag nose
Rece p
human ity
ko stete
A hl
aus bau
fail s
ac les
d itch
ves sels
T TC
spread ing
depos its
press ures
per to
Beson der
R ast
wer fer
u ity
suggest ions
imple mented
Dro hnen
ge stellten
mis conduct
S ut
lern te
früh zeitig
Tirol er
Ent sprechend
Tes co
Net an
entdeck te
liefer ten
por ters
ox y
L ack
Mor al
städ ten
ant es
Polit ical
tauch t
Con stitution
Cl imate
umzu setzen
citizen ship
ar ro
excit ement
sp ill
Mar vin
polit isches
itu des
Cy pr
herz lich
bomb ings
m ten
Rend ite
address ing
Dan eben
Verband sliga
Domin ic
Will kommen
Ro om
öst lich
P am
le hen
verr iet
J ann
Cinc inn
M ater
Rob bie
w isse
N r
U kip
ik te
equ ipped
änk ungen
W ings
rent al
iv ität
Fur tw
zie le
min es
ab on
Diplom aten
Se il
de ur
replac ing
end urch
Mc K
man tle
unter schrieben
ver tritt
emp fehlen
explo ded
alys is
tre u
fre ed
Notwend igkeit
circ uit
sc ope
saf er
verab schieden
ech ter
purs uit
manufact urer
Instr umente
subs idi
om ing
bank ers
amb od
fant asy
au spro
kontin uier
Bern anke
fund raising
Rich ards
bul lying
Gou ver
N I
gas oline
weak er
U sing
r ift
O z
part ial
Mug abe
Do ctors
Cincinn ati
Be kannten
E h
predict able
p ein
is ms
le ton
persu ade
bip artisan
grün es
Gem älde
gesellschaft liche
decl ar
Mosche e
li by
Don nell
gen auen
vis ions
Prin zen
S K
strateg ist
Freist aat
alle tt
Moder nis
auspro b
dist ress
Freiwill ige
zu setzen
TH W
ESP N
R äuber
Son ja
Plan et
Kenn y
Member s
Befrag ung
line up
M ets
F M
Meth ode
Volks bank
Nach halt
categ ories
C ant
mag net
be ir
arch iv
Z ar
care ers
Der ek
fant ast
Henn ing
Netan jah
2 10
ge testet
b ischof
Vor runde
Jahres beginn
M ahn
be kämpfen
short age
M um
Rettungs wagen
tz en
Ad mir
un comfortable
Fein d
char akter
Heyn ckes
comp elling
schön es
diver sen
ub schrauber
sim pl
Fü ßen
äch te
Italien s
R BS
R C
as pect
y ields
Wider spruch
alarm iert
Cl ippers
vor stell
Et at
ausge wiesen
ad m
krieg s
spür bar
helicop ters
Beweg ungs
Rod gers
Unter dessen
Gen eva
Che mn
Tr üm
M ör
inter pre
Ver mutlich
S inger
zü gen
mensch liche
jem als
me tr
il st
Y ang
Schl ager
Mon ster
gesch ütz
anz ut
t ats
Er leichter
Bel o
Sö hne
spro jekt
Cor ps
schn itten
schlimm sten
Tank stelle
Währungs fonds
drag ged
a o
Hear ts
war fen
be zeichnen
integr ated
3 20
fing ers
knü pft
Fl ensburg
komment iert
Zuer st
Kranken häuser
betr unken
Ker ber
shut down
dir ty
Best ät
gest ört
Mar sh
Sch all
De ep
S ten
Schulden krise
in trig
gere gelt
z auber
dynam ic
col on
m igrant
pal äst
deb ates
bekräft igte
ble y
Hom eland
spr ingt
Star ter
Chefred akteur
akzept iert
grad ually
ast on
W arm
vig il
Rechts anwalt
ridic ulous
in ct
überr agen
Bundes innen
He ft
Gr ass
Che v
J ub
Rahmen bedingungen
M am
p fte
All gemein
B ath
San tos
O steur
out ube
P arr
ö sen
Temper atur
Sp a
os i
In tel
ar me
Verd ächtige
Rad ler
ac ious
Cr aw
over sight
re ader
Mos ul
vehe ment
huge ly
besch r
Un mut
passion ate
descr iption
gien e
K ette
statt gefunden
Aut on
Un wetter
mehr erer
ha il
Be leid
sie ge
Muse en
ins ight
Gen f
t icker
Ab gas
ge hoben
An im
Fred die
wal ts
Ble ch
normal erweise
Ser ena
V G
platform s
D ess
Reut linger
Lot to
cred ibility
Prin zessin
viol ated
e tr
Män gel
and auern
Transport ation
fahr ung
al ign
süd lich
sper re
Kr imin
paläst inens
Passag ier
kass ierte
un iverse
ver kr
P az
le ib
Spreng stoff
si us
conf usion
Belg ian
univers al
t schech
un verz
integr iert
senten cing
Anhänger n
gewähl te
Lat te
bede ute
un bekannt
dro ps
hin gewiesen
mit teilt
Kon kret
ju beln
commod ity
mit machen
Com pan
ambit ions
D ill
Karne vals
neighbor ing
ch ingen
engag ierte
boss es
dis closure
Vers uche
Ges p
mer ken
überw ält
H agel
de in
Green peace
Geschäfts jahr
except ional
Z ap
interess ierte
R d
commit ments
empf ängt
prog ressive
tie fen
U ll
inst ant
dem ann
Ge bieten
irr it
V od
firm ly
unter lagen
cr unch
ul in
geb orgen
aner kannt
Budap est
under mine
os chenko
rele ases
Liber ty
meaning ful
Den mark
Dou g
wissenschaft lichen
Aufen thalt
bewer ben
accept ing
dis put
kompl iziert
leben de
Best ell
Augen höhe
shoot ings
Mon ica
F lin
H ull
B Z
tr itts
Gl ass
tö dlichen
po ster
Man ip
pres idents
Car son
kt oren
Schl ä
sied lung
ab wehr
Kolle gin
Hand t
an fall
B äck
Fl anke
i at
Sch iller
Landeshaupt stadt
Ret ail
gel be
A spek
Stär kung
a vor
tats äch
verdien te
Arz ne
stud ios
ANG EL
sparte ien
tr auma
b os
Ansprech partner
S z
w inger
Relig ions
nachvoll zieh
B isch
l itz
ent f
paint ings
In di
vor bereiten
Podol ski
P ian
purs uing
rel ent
80 er
pt on
gelö scht
Balk an
Ell is
dec lining
Cor re
gemeins ames
bez irk
vi able
ver netz
belie bten
196 1
Schir m
hab its
M örder
é ry
oper a
provis ions
Rettungs dienst
w ände
str aining
freie m
et tinger
oblig ation
explos ives
am me
st anti
K ämmer
Arg umente
Ausschre ibung
S ug
sw ald
wachsen de
be klagt
exp end
fried lich
counter parts
Lion el
as piel
Chin esen
add iction
ieren der
c afe
jok es
be loved
Ke ep
We iße
r ahmen
le v
Br yan
Auf sehen
th aber
intens ity
M ang
Aus löser
auf lage
Bundes bank
Wer den
M ind
Ge off
Not ting
ff ield
j azz
Crist iano
tie fe
pres enter
R AF
UN O
ex changes
Duch ess
confirm ation
in fr
lo op
Ku h
Geschen ke
Kür ze
Lim ited
drück te
uc ci
S ID
go d
ange passt
Angel ika
Regel ungen
catch ing
Prot okoll
stud ieren
Sch western
ge steckt
Ma as
gen ießt
address es
mel deten
Ga al
disp atch
lö schen
ire ktor
bro ok
M are
Pol y
k ong
niederländ ischen
don ated
K ill
Üb ungen
erup ted
tel f
Mar l
former ly
ver waltungs
contract ors
Ergebnis sen
beitr äge
7 000
Kö pfe
möglich er
pick s
oft mals
Cr os
bereich e
m ac
Bürger initiative
qu o
he ed
Re us
Pe te
stant in
monat el
aband on
Akt iven
Teen ager
Är zten
plac ing
Angriff s
Id ol
S oph
P D
batt ing
wähl t
sing les
consult ing
itz el
and in
S creen
ex ists
gew isser
Vot um
betr achten
and ro
sl ight
Paul a
magn itude
box ing
M aine
n ein
grap hed
stre iten
Musik schule
so bald
Bever ly
rück ten
wander n
Trink wasser
dest ro
Pan ama
cor p
A IDS
flag s
Rath au
enthus iasm
b ite
unter scheiden
Vor sitz
ins ol
Polizei inspektion
fl ows
ef a
R ies
K err
Re präsent
Lö hne
c ub
H alte
Sch en
ul tra
ha ar
interess ieren
green house
res um
jen em
t ang
Cre ek
klar er
H BO
Ver schw
an sprechen
sever ely
Sch ilder
spec trum
U te
Terror miliz
Mc Il
grenz ung
Liber alen
Kon serv
Min eral
approach es
Fü ße
arrange d
i OS
ip ts
11 4
jump ing
ingen ommen
Lie ben
h oney
Sh irt
d isch
diagno st
respon ses
Ged ächtnis
fle e
Part nern
kle m
Cann abis
z heim
art icles
chap ter
Fre ih
I deal
comed ian
profit able
wo gen
T oll
Tür ken
N T
F oy
re publ
füll ten
Investig ators
breit ung
Sonnen schein
pos sess
form ula
posit ives
aufge führt
ton nes
Spekt akel
pol y
nör dlich
M agen
Er be
D il
Ab bruch
Zucker berg
Ent scheiden
kon takt
gest ärkt
Bon us
Pil z
perfe kte
ein fluss
Hel p
Tour ist
S ätzen
ilem ma
st offen
verw andelt
en em
un bekannter
Red s
Deb atten
dunk le
Jan et
K art
br ick
FT D
f lies
Unterricht s
br ush
Behinder ten
is ely
Kat al
erhö hung
D mit
Ob dach
ö pft
de z
Pol ish
Deleg ierten
Kub a
bet ting
ein nahmen
w ü
zurück gekehrt
Vor würfen
Elektr onik
famous ly
she er
gr ip
be völker
Inter pret
1950 s
enz el
med aille
Star telf
scre aming
am ter
Erscheinungs datum
K letter
Fl u
70 er
conf ess
fl ames
Patr icia
r assist
k W
U efa
ur ance
The odor
ou ted
We imar
clean ing
rap ed
Fr isch
Str ahl
ot es
Hen derson
einge halten
assaul ted
deta ill
b ted
av y
bu zz
Pos it
prescr iption
oblig ations
H uck
maß geblich
Pro per
be standen
block ing
ment ally
io x
super vis
il iate
Dem enz
Emot ionen
Tenden z
Er wer
Gesch äften
h allen
Roh stoff
ind o
gr auen
1 18
arett es
bevor zu
Kauf mann
individ uelle
beruf lich
am enten
thro ws
hel fer
Univers itäten
attack iert
Pet ro
Heath row
viel fach
troubl es
les b
Nat alie
sh ark
ho hes
ander th
gig ant
Pl ötzlich
popul ations
p ak
über winden
Do ktor
champion ships
zum eist
Bet ter
Fay mann
ange d
cal endar
e z
ou st
ble w
deser ves
app le
aceut ical
Magaz ine
ol ph
fl own
govern ance
unter s
per ception
K h
fühl te
Oper a
verteid igung
res il
verwandel te
for ens
HK T
search ed
Tr au
W N
verur teilte
F ink
pr ag
it ary
Kun str
view ing
theim er
Kriminal polizei
S op
a ar
Prot agon
Glauben s
Br os
Lam per
stark es
Ab schaffung
confident ial
fle eing
op pen
I cel
P yr
re fr
A ston
Rai ders
up grade
he ated
Fahr ten
Pan thers
perto ire
K ane
deal er
An tar
co inc
corpor ations
gar tens
exc use
Ev ents
T auf
weil ig
Wel traum
ak h
alles amt
fü hre
Flug zeuge
form ing
Hod g
cin ema
contr ad
se aled
Tages spiegel
ANGEL ES
ab stimmung
offen er
Nach wuch
ges enkt
or ca
Zeit schrift
Dreh buch
Geld geber
E il
Verband es
11 6
controll ing
umfassen de
Em my
besuch ten
Bundes präsidenten
kom peten
Wilhelms haven
gemein der
H än
Ha ß
ED T
Gegen stände
ste chnik
Finn land
Plane ten
Mon itor
Aus sichten
Kol umb
Bull s
he ars
Cir cuit
be qu
ett i
Behinder ung
kulture llen
risk y
mü de
Bag ger
ö he
be fanden
Ger äten
inter ne
confl icts
up rising
Fassa de
atter ed
a issance
Ein wohnern
can o
Fach leute
Kiel er
bereich s
tre ue
älte sten
M oll
De kan
Kom ödie
Jahre stag
de pendent
le eren
meld ungen
Bundes ligist
inn ed
bon uses
ver sen
M ental
ling ton
t issue
Dia betes
desper ately
separ ated
Varian ten
bie te
he ber
Bened ict
Prof it
Roberts on
bub ble
ce led
So ul
Entfern ung
R G
I ON
organis ierte
emphas is
Fort schritt
repe al
ac counted
Se hn
to y
F oule
carr iers
Attack en
marr y
Lü beck
Emp fänger
out comes
us a
n ack
Besch l
Rap per
Wein stein
L ade
ts un
re minded
Stu hl
ein gebracht
gesetz liche
hero es
an nehmen
S alt
e ten
M its
Brand schutz
ver p
Ex p
product ivity
T öl
fac il
Stud ios
extrem ist
kr anke
bekannt lich
Heil ig
Wem bley
nach gewiesen
Meld ung
b ang
optim ism
Re f
Foule l
H ain
sum me
versch lossen
begeg nen
prech erin
si p
reser v
for scht
lau er
S as
dar stellen
fen ster
Foto grafen
int age
le ister
unter halts
k alender
ste al
verw alter
Char l
Gesch ichts
A SV
M ast
Sch iffe
Li u
sk andal
Beg leiter
schl af
M ans
bes ieg
ex akt
c abin
Kär nt
Kommunik ations
je ans
ind t
urge on
Cro at
Die be
k ochen
it ischen
deser ved
P G
ho se
Hur r
sel t
K ard
editor ial
F OR
kon strukt
monat lich
que z
Case y
Ver wendung
oto col
denk mal
Re zession
distrib uted
Schalk er
Kr üger
No ah
bis h
B emer
schen kel
h men
Hol dings
provin cial
can celed
T auch
infect ions
ad venture
Gre ater
De pression
lag ern
flex ibility
lie der
Kl äger
Tele vision
liefer ung
petr ol
Sie ges
unter strich
Resour ces
Por to
aly mp
foss il
to uren
dis rupt
reich ende
aff äre
Ver teilung
Bet ween
insur ers
Haw ks
Wahl kreis
arrange ment
oph ob
Tan ja
sex uelle
de zern
ath ie
sch ief
Bol t
She ffield
r ans
termin al
Kul issen
Berichter stattung
Ell i
re ger
Verz icht
wei ht
aufzu bauen
design ers
Ger ichte
bür os
militär ische
sand wich
klär ungs
vie wer
bl az
Or der
l ug
trib unal
barr iers
cal ories
ot yp
mon arch
in ject
so c
ic ating
bör sen
ad mission
row s
J esse
l äng
Letzt lich
accompl ish
Z it
Vict ory
G ent
win det
NY Times
Cent ers
se hn
Lauf zeit
volle m
Ge wissen
ian ische
ermor det
Kr an
Kost ü
Abstieg s
N ol
Separat isten
engl ische
fr änk
A bo
An cel
Pere z
fer red
approach ing
D one
sp os
D ün
slow ing
table t
ab stimmen
Irgend wann
end orfer
subsidi ary
Wur f
conv inc
Ster nen
Netz werken
vorhanden en
ste ten
N DR
Repar atur
immen se
L V
nur sing
tun e
ant in
Prozent punkte
G utsch
L anz
com memor
verhe er
dis close
Sale h
str ipped
He z
Ganz tags
smart phones
Z ach
Enth üll
conc er
Zw ang
sl ig
ash es
re bell
sub urban
tra its
ge fühlt
Res sourcen
tel s
del ight
Gre ven
electr onics
Toler anz
ge leg
Se gen
We ing
con siders
draw s
geschen kt
mehrheit lich
h älfte
Impul se
div isions
erklär ung
Moz art
break down
länger en
li qu
FC A
Re den
L iss
c ence
kom m
Handels blatt
radik alen
Eins ätzen
Not arzt
Ne y
BN D
enh ance
ser gebnis
bl aue
Schaden ersatz
Kno x
K lose
Kreuz berg
av iation
be fasst
prov oz
Norweg ian
ahr t
v t
up dates
vor liegt
ob serv
erlau ben
part ially
T ul
verz öger
im it
passen de
ab ies
Ein em
Berat ungen
be stritten
ag ern
N ixon
om ery
Wo ol
advoc acy
Mittag essen
11 3
d ive
E state
du ck
R ita
ukrain ische
Empfehl ung
far ms
belie fs
pas sport
iber s
Öz il
frag ile
detect ives
G aga
Programm s
d angers
meist ern
h ike
st est
T IM
comp ly
Form ula
Ann ual
C B
nation als
Moder ne
Foulel fmeter
Seiten wechsel
J ut
char ities
R V
Sc iences
eig entlichen
ge stand
allgem einen
e il
aus gleich
respon dents
olog ien
gewerk schaft
Kref eld
A B
A mend
bes org
Gu inea
foreign ers
ver schaffen
incent ives
U singer
Met al
Thanks giving
gr ants
comp are
F ant
M ats
beauftrag ten
tr am
C in
cig arettes
ai res
so unded
olog in
emp fohlen
K ündigung
ig ern
div ide
bl itz
Oktober fest
commun icate
Z orn
r ider
uck ed
Roll ing
Montg omery
An sprüche
prin ted
Hür de
Lo cker
Fel ipe
He id
attend ance
rei be
b ans
wish es
artific ial
of ür
Franco is
Kr ippen
Os lo
be män
überzeug te
Cru ise
Ne use
konzer ne
min uten
Ghan a
K alten
appropr i
be komme
Um stellung
AN C
pat ent
anc ies
Mitstre iter
wochen ende
aff iti
cl iff
füll ung
detaine es
b ard
Jen kins
erhö hten
cr ative
be treten
Fund ament
Kärnt ner
schre cken
glass es
Weltrang listen
Meld ungen
W ig
Guant an
hear ings
ö pf
mit nehmen
Burn s
rail way
o id
Juli us
and en
dist ingu
host ile
Le a
über sehen
Olden burg
Quartet t
War nung
umin ium
Wer ks
trans formed
De cke
light ing
Stär ken
Begrüß ung
teamm ate
U T
ro gen
strate gie
Hum mels
Gew itter
med ic
wir ksam
Be ar
beach es
shoul ders
Icel and
gar de
Tour en
ge halt
AT P
aus verkauft
3 30
r iv
x x
Won der
Car men
do st
11 7
End stand
K ump
aus bauen
Moderator in
im on
mit gebracht
H ort
Sil vio
embarr assing
um satz
Sh opping
ik on
re act
for c
inten ds
sp f
h änd
slow down
Ton ight
ab seits
F aktoren
Spezial isten
Hil ton
Go ethe
constit uen
sche itern
Christian e
12 th
Kan ad
amend ment
End lich
match ing
elih ood
Gewerk schafts
neighborhood s
Sp ender
weiter geht
Stud ierenden
ver wiesen
public ity
Les ung
ut or
an wes
c um
erin ten
it uation
Verfolg ung
particip ating
wor sen
jo ins
Bevölker ungs
An trieb
Einschr änkungen
S gt
Cla ire
He u
Her itage
prec isely
therap ie
Cr icket
ore o
fac to
Represent atives
D unde
ieg ler
morg igen
Mär kten
lich keits
g hed
wenig sten
sl ot
schen ken
K yr
prison er
Com mand
enem ies
a qu
n itz
Ge fe
G areth
spirit ual
Kur ve
lu crative
Ab zug
Meth oden
bour g
Mor des
international er
wün schte
Geschäfts führung
Drag hi
hur ricane
Dar steller
ver unglück
ask ets
me x
Asp halt
g ur
Gebie te
Ger äu
mun icipal
verständ igen
d ap
NC AA
ül le
Lau ren
14 5
datab ase
unter richtet
gn ügen
Kretsch mann
emb ark
Turn halle
Os ama
Mobil ität
T ou
Ausschre itungen
T icker
cr ipt
pt ions
Pr ison
Bürger haus
S H
produ ces
laugh ing
äl en
Moh ammad
Guantan amo
lang s
music ians
hil fen
Albst adt
Tom as
individ uell
Wow ere
Ab steiger
under s
Buch e
e try
V es
distin ct
Q C
Brand on
Will y
M ist
aw ling
ar te
hö fen
V all
st el
Digital isierung
Rück sicht
Et appe
compon ents
erstaun lich
p ausch
pot ent
Ver leihung
Bro ck
K offer
the ken
Tr ent
char ter
wh oles
to ys
th res
Web seite
Not ruf
unter zeichnet
fahr ern
boost ed
Büch ern
äu se
Kie v
w ack
Kuns th
excl us
Spir it
im an
ac company
Cl ick
ac ademy
avail ability
pr ises
br achen
volunt ary
Wirtschafts krise
Vo gt
Hez bollah
zu hause
Mot ive
I b
W ern
Au ktion
Eintr itts
indic ates
ger üstet
it arian
pres se
Nachspiel zeit
dis ability
registr ation
support ive
Emp ire
We der
indict ment
p ern
at isch
at men
weihnach t
Sp ä
mark ing
Ecu ador
broad band
12 3
So on
stell erin
erschüt tert
autom aten
Breit band
M umb
Mach thaber
ug ly
F ish
Are a
s ue
u its
r af
Es sex
E k
erne ute
An nahme
clim bing
electr ical
Mit ten
jok ed
Auftr itten
dis appearance
äu fen
le be
Mar ius
Sperr ung
auf gere
L AS
run way
U M
Me ga
Gi ul
Krä uter
t ong
B elle
A w
aus getauscht
Sy mph
Kre u
ste hung
mittler en
McIl roy
Sob ald
ten ure
p uzz
ip en
celebr ates
a es
f itting
Ass ange
A hr
Netanjah u
Gle is
St aub
Staatsan w
mo unting
stet ig
aus gewählt
legend ären
hung ry
Ster ling
nutr ition
Y o
m auer
under way
auf gabe
i y
ab gebaut
iz ont
Rück schlag
gefähr licher
old t
un necessary
Ob jekte
wür t
ünd ung
ange klagt
an griffe
sum m
wid rig
kennen gelernt
Nad ine
ört liche
un über
har dest
A ach
L if
west fäl
H eine
kl im
W ände
conf used
ener get
Ham mond
ger ückt
Graf ik
Überwach ungs
militär ischen
Ancel otti
Buff alo
disput es
Ph otos
os lav
O T
Dre w
atz er
Ver ab
wissen schaften
gleich nam
sto le
Me et
back lash
Benef iz
D ust
Bar nes
fact ories
M d
collect ing
T os
s auer
W ire
ho ok
Sche ibe
Jol ie
gere ist
cas ino
Abr aham
J emen
Ber t
programm ing
mon ument
gr ä
Kolle g
Sn ap
würt temberg
gebie ts
Timo thy
sh och
frame work
val uation
prin ts
Austr itt
ge druck
w ski
sen ds
shif ting
Nahr ung
Air line
survey ed
ten se
B iber
A alen
Funkt ionen
Gebäu den
sa ves
Lä den
sal aries
F N
experien cing
gam bling
Öff nung
B itter
Car ney
adv ances
Of fer
cur b
Schw al
w iden
concern ing
An zeichen
genehm igung
ia o
Ill ustr
af ens
fe ktion
ein geb
d icke
ag ten
In fekt
C ertain
Au er
R I
wo hin
Li quid
ste aling
da wn
aut ion
Dunde e
archite cture
Kup fer
Sol ange
Sie gt
H ib
volat ile
defin e
D est
CD C
slow ed
zurück gezogen
New ton
L ara
Leon ardo
iber y
Armin ia
LL C
ver bracht
Erd geschoss
Wör ter
Fol k
Clo oney
uder t
rele asing
k alten
mahn t
for schungs
Urteil s
C ris
18 99
Montag morgen
ha in
och te
2 12
klag ten
Aufstieg s
och ten
zweist ell
ach tete
ann oy
Ac count
th ouse
Aus stellungen
happ iness
vermeint lich
B einen
Th ir
travel ers
Aus wertung
gesch ah
Schwein furt
kö mm
For bes
H osen
Marian ne
Mont ana
it ime
cred ible
ver teilung
ab warten
k eller
Sonntag nachmittag
con grat
exten ding
friend ship
Fr is
verlang te
kl ub
iden z
Grund stücke
[...]
