{"[PAD]":0,"[SOS]":1,"[EOS]":2,"[UNK]":3,"[MASK]":4,"!":5,"#":6,"$":7,"%":8,"&":9,"(":10,")":11,"*":12,"+":13,",":14,"-":15,".":16,"/":17,"0":18,"1":19,"2":20,"3":21,"4":22,"5":23,"6":24,"7":25,"8":26,"9":27,":":28,";":29,"=":30,"?":31,"@":32,"A":33,"B":34,"C":35,"D":36,"E":37,"F":38,"G":39,"H":40,"I":41,"J":42,"K":43,"L":44,"M":45,"N":46,"O":47,"P":48,"Q":49,"R":50,"S":51,"T":52,"U":53,"V":54,"W":55,"X":56,"Y":57,"Z":58,"\\":59,"^":60,"_":61,"`":62,"a":63,"b":64,"c":65,"d":66,"e":67,"f":68,"g":69,"h":70,"i":71,"j":72,"k":73,"l":74,"m":75,"n":76,"o":77,"p":78,"q":79,"r":80,"s":81,"t":82,"u":83,"v":84,"w":85,"x":86,"y":87,"z":88,"{":89,"}":90,"~":91,"¡":92,"¢":93,"£":94,"¤":95,"¥":96,"¦":97,"§":98,"¨":99,"©":100,"ª":101,"«":102,"¬":103,"­":104,"®":105,"¯":106,"°":107,"±":108,"²":109,"³":110,"´":111,"µ":112,"¶":113,"·":114,"¸":115,"¹":116,"º":117,"»":118,"¼":119,"½":120,"¾":121,"¿":122,"À":123,"Á":124,"Â":125,"Ã":126,"Ä":127,"Å":128,"Æ":129,"Ç":130,"È":131,"É":132,"Ê":133,"Ë":134,"Ì":135,"Í":136,"Î":137,"Ï":138,"Ð":139,"Ñ":140,"Ò":141,"Ó":142,"Ô":143,"Õ":144,"Ö":145,"×":146,"Ø":147,"Ù":148,"Ú":149,"Û":150,"Ü":151,"Ý":152,"Þ":153,"ß":154,"à":155,"á":156,"â":157,"ã":158,"ä":159,"å":160,"æ":161,"ç":162,"è":163,"é":164,"ê":165,"ë":166,"ì":167,"í":168,"î":169,"ï":170,"ð":171,"ñ":172,"ò":173,"ó":174,"ô":175,"õ":176,"ö":177,"÷":178,"ø":179,"ù":180,"ú":181,"û":182,"ü":183,"ý":184,"þ":185,"ÿ":186,"Ā":187,"ā":188,"Ă":189,"ă":190,"ą":191,"Ć":192,"ć":193,"Ĉ":194,"ĉ":195,"Ċ":196,"ċ":197,"Č":198,"č":199,"Ď":200,"ď":201,"Đ":202,"đ":203,"Ē":204,"ē":205,"ĕ":206,"Ė":207,"ė":208,"ę":209,"ě":210,"ĝ":211,"Ğ":212,"ğ":213,"Ġ":214,"ġ":215,"ģ":216,"ĥ":217,"Ħ":218,"ħ":219,"Ĩ":220,"ĩ":221,"Ī":222,"ī":223,"ĭ":224,"į":225,"İ":226,"ı":227,"ĳ":228,"ĵ":229,"ķ":230,"ĸ":231,"Ĺ":232,"ĺ":233,"ļ":234,"Ľ":235,"ľ":236,"Ł":237,"ł":238,"Ń":239,"ń":240,"ņ":241,"Ň":242,"ň":243,"ŋ":244,"Ō":245,"ō":246,"Ŏ":247,"ŏ":248,"Ő":249,"ő":250,"Œ":251,"œ":252,"ŕ":253,"Ŗ":254,"Ř":255,"ř":256,"Ś":257,"ś":258,"Ŝ":259,"ŝ":260,"Ş":261,"ş":262,"Š":263,"š":264,"Ţ":265,"ţ":266,"Ť":267,"ť":268,"ŧ":269,"ũ":270,"Ū":271,"ū":272,"ŭ":273,"ů":274,"Ű":275,"ű":276,"Ų":277,"ų":278,"Ŵ":279,"ŵ":280,"Ŷ":281,"ŷ":282,"Ÿ":283,"Ź":284,"ź":285,"Ż":286,"ż":287,"Ž":288,"ž":289,"ſ":290,"ƃ":291,"Ǝ":292,"Ə":293,"Ɛ":294,"ƒ":295,"Ɣ":296,"Ƙ":297,"ƙ":298,"Ơ":299,"ơ":300,"ƨ":301,"Ʃ":302,"ư":303,"ƴ":304,"ǀ":305,"ǁ":306,"ǂ":307,"ǃ":308,"ǅ":309,"ǆ":310,"ǎ":311,"ǐ":312,"ǒ":313,"ǔ":314,"ǘ":315,"ǚ":316,"ǝ":317,"ǣ":318,"Ǧ":319,"ǧ":320,"Ǵ":321,"ǵ":322,"ǹ":323,"Ǻ":324,"ǻ":325,"ǽ":326,"Ǿ":327,"ǿ":328,"ȃ":329,"ȇ":330,"ȉ":331,"ȋ":332,"ȍ":333,"ȏ":334,"ȗ":335,"Ș":336,"ș":337,"Ț":338,"ț":339,"ȟ":340,"ȧ":341,"ȩ":342,"ȯ":343,"Ʌ":344,"ɇ":345,"ɐ":346,"ɑ":347,"ɒ":348,"ɔ":349,"ɘ":350,"ə":351,"ɛ":352,"ɟ":353,"ɡ":354,"ɣ":355,"ɥ":356,"ɨ":357,"ɪ":358,"ɬ":359,"ɯ":360,"ɴ":361,"ɵ":362,"ɸ":363,"ɹ":364,"ɾ":365,"ʀ":366,"ʁ":367,"ʂ":368,"ʃ":369,"ʇ":370,"ʊ":371,"ʌ":372,"ʍ":373,"ʎ":374,"ʏ":375,"ʒ":376,"ʔ":377,"ʘ":378,"ʞ":379,"ʟ":380,"ʧ":381,"ʲ":382,"ʷ":383,"ʹ":384,"ʺ":385,"ʻ":386,"ʼ":387,"ʽ":388,"ʾ":389,"ʿ":390,"˂":391,"˃":392,"˄":393,"˅":394,"ˆ":395,"ˇ":396,"ˈ":397,"ˉ":398,"ˋ":399,"ˌ":400,"ː":401,"˗":402,"˘":403,"˙":404,"˚":405,"˛":406,"˜":407,"˝":408,"ˮ":409,"˽":410,"̀":411,"́":412,"̂":413,"̃":414,"̄":415,"̆":416,"̇":417,"̈":418,"̉":419,"̊":420,"̋":421,"̌":422,"̍":423,"̒":424,"̓":425,"̕":426,"̛":427,"̣":428,"̦":429,"̧":430,"̨":431,"̮":432,"̯":433,"̱":434,"̴":435,"̶":436,"̸":437,"͂":438,"͈":439,"͚":440,"͛":441,"͜":442,"͞":443,"͟":444,"ͷ":445,";":446,"΄":447,"Ά":448,"·":449,"Έ":450,"Ό":451,"Ύ":452,"Α":453,"Β":454,"Γ":455,"Δ":456,"Ε":457,"Ζ":458,"Η":459,"Θ":460,"Ι":461,"Κ":462,"Λ":463,"Μ":464,"Ν":465,"Ξ":466,"Ο":467,"Π":468,"Ρ":469,"Σ":470,"Τ":471,"Υ":472,"Φ":473,"Χ":474,"Ψ":475,"Ω":476,"Ϊ":477,"ά":478,"έ":479,"ή":480,"ί":481,"α":482,"β":483,"γ":484,"δ":485,"ε":486,"ζ":487,"η":488,"θ":489,"ι":490,"κ":491,"λ":492,"μ":493,"ν":494,"ξ":495,"ο":496,"π":497,"ρ":498,"ς":499,"σ":500,"τ":501,"υ":502,"φ":503,"χ":504,"ψ":505,"ω":506,"ϊ":507,"ϋ":508,"ό":509,"ύ":510,"ώ":511,"ϒ":512,"ϕ":513,"ϵ":514,"Ё":515,"Є":516,"Ѕ":517,"І":518,"Ћ":519,"Ў":520,"А":521,"Б":522,"В":523,"Г":524,"Д":525,"Е":526,"Ж":527,"З":528,"И":529,"К":530,"Л":531,"М":532,"Н":533,"О":534,"П":535,"Р":536,"С":537,"Т":538,"У":539,"Ф":540,"Х":541,"Ц":542,"Ч":543,"Ш":544,"Щ":545,"Ы":546,"Ь":547,"Э":548,"Ю":549,"Я":550,"а":551,"б":552,"в":553,"г":554,"д":555,"е":556,"ж":557,"з":558,"и":559,"й":560,"к":561,"л":562,"м":563,"н":564,"о":565,"п":566,"р":567,"с":568,"т":569,"у":570,"ф":571,"х":572,"ц":573,"ч":574,"ш":575,"щ":576,"ъ":577,"ы":578,"ь":579,"э":580,"ю":581,"я":582,"ѐ":583,"ё":584,"є":585,"ѕ":586,"і":587,"ї":588,"ј":589,"љ":590,"ѱ":591,"ѵ":592,"ѻ":593,"ҁ":594,"ң":595,"Ҫ":596,"ҫ":597,"ү":598,"Ұ":599,"һ":600,"ӏ":601,"ӓ":602,"ә":603,"Ӧ":604,"ӧ":605,"ԑ":606,"Բ":607,"Ց":608,"՚":609,"ե":610,"ի":611,"մ":612,"ս":613,"ր":614,"֦":615,"ִ":616,"ַ":617,"ֹ":618,"ּ":619,"־":620,"ׂ":621,"ׅ":622,"א":623,"ב":624,"ג":625,"ד":626,"ה":627,"ו":628,"ז":629,"ח":630,"ט":631,"י":632,"כ":633,"ל":634,"ם":635,"מ":636,"ן":637,"נ":638,"ס":639,"ע":640,"ף":641,"פ":642,"ץ":643,"צ":644,"ק":645,"ר":646,"ש":647,"ת":648,"׫":649,"׳":650,"״":651,"،":652,"ؘ":653,"؟":654,"ء":655,"آ":656,"أ":657,"إ":658,"ئ":659,"ا":660,"ب":661,"ة":662,"ت":663,"ج":664,"ح":665,"خ":666,"د":667,"ذ":668,"ر":669,"ز":670,"س":671,"ش":672,"ص":673,"ض":674,"ط":675,"ظ":676,"ع":677,"غ":678,"ـ":679,"ف":680,"ق":681,"ك":682,"ل":683,"م":684,"ن":685,"ه":686,"و":687,"ى":688,"ي":689,"ً":690,"َ":691,"ُ":692,"ِ":693,"ّ":694,"ْ":695,"١":696,"٢":697,"٣":698,"٥":699,"ٰ":700,"ٹ":701,"پ":702,"ژ":703,"ک":704,"گ":705,"ہ":706,"ی":707,"ۚ":708,"ۦ":709,"܉":710,"޻":711,"ߘ":712,"ߥ":713,"ࠍ":714,"ं":715,"अ":716,"क":717,"ग":718,"ण":719,"भ":720,"म":721,"र":722,"ल":723,"ा":724,"ु":725,"े":726,"ॐ":727,"ଅ":728,"ନ":729,"ଲ":730,"ି":731,"ఇ":732,"ข":733,"ฆ":734,"ง":735,"จ":736,"ช":737,"ณ":738,"ด":739,"ต":740,"ถ":741,"ท":742,"น":743,"ป":744,"พ":745,"ฟ":746,"ม":747,"ย":748,"ร":749,"ว":750,"ษ":751,"ส":752,"ห":753,"อ":754,"ะ":755,"ั":756,"า":757,"ี":758,"ุ":759,"ู":760,"฿":761,"เ":762,"แ":763,"โ":764,"ไ":765,"่":766,"้":767,"࿐":768,"က":769,"ိ":770,"ა":771,"ბ":772,"ე":773,"თ":774,"ი":775,"ლ":776,"მ":777,"ო":778,"რ":779,"ს":780,"უ":781,"ღ":782,"შ":783,"ც":784,"ჭ":785,"ხ":786,"ᄏ":787,"ሀ":788,"ለ":789,"ል":790,"ሓ":791,"ሕ":792,"መ":793,"ም":794,"ሞ":795,"ራ":796,"ር":797,"ሲ":798,"ሳ":799,"ስ":800,"ቀ":801,"ቍ":802,"ቓ":803,"በ":804,"ብ":805,"ት":806,"ና":807,"ን":808,"ኣ":809,"ኤ":810,"ክ":811,"ኲ":812,"ዓ":813,"ዘ":814,"ይ":815,"ዳ":816,"ጌ":817,"ጠ":818,"ጽ":819,"ᑌ":820,"ᑎ":821,"ᑕ":822,"ᒪ":823,"ᔕ":824,"ᕼ":825,"ᖴ":826,"ᗩ":827,"ᗰ":828,"ᛟ":829,"᠆":830,"᩿":831,"Ჩ":832,"ᴀ":833,"ᴅ":834,"ᴇ":835,"ᴊ":836,"ᴍ":837,"ᴏ":838,"ᴘ":839,"ᴙ":840,"ᴜ":841,"ᴥ":842,"ᵉ":843,"ᵌ":844,"ᵒ":845,"ᵭ":846,"ᶅ":847,"ᶘ":848,"᷂":849,"᷃":850,"ḉ":851,"ḍ":852,"Ḗ":853,"ḗ":854,"ḡ":855,"Ḥ":856,"ḥ":857,"Ḩ":858,"Ḫ":859,"ḫ":860,"ḱ":861,"ḿ":862,"ṃ":863,"ṉ":864,"ṛ":865,"ṟ":866,"Ṣ":867,"ṣ":868,"Ṭ":869,"ṭ":870,"ṯ":871,"Ẃ":872,"ẃ":873,"ẑ":874,"Ẓ":875,"ẓ":876,"ẕ":877,"ẞ":878,"Ạ":879,"ạ":880,"ả":881,"ấ":882,"ầ":883,"ẩ":884,"ậ":885,"ắ":886,"ẵ":887,"ặ":888,"ẹ":889,"ẻ":890,"ẽ":891,"ế":892,"ề":893,"ể":894,"ễ":895,"ệ":896,"ị":897,"Ọ":898,"ọ":899,"ỏ":900,"ố":901,"ồ":902,"ổ":903,"ỗ":904,"ộ":905,"ớ":906,"ờ":907,"ở":908,"ợ":909,"ụ":910,"ủ":911,"ứ":912,"ừ":913,"ử":914,"ữ":915,"ỳ":916,"ỵ":917,"ỷ":918,"ỹ":919,"ἀ":920,"ἁ":921,"ἄ":922,"ἔ":923,"ἰ":924,"ἱ":925,"ἳ":926,"ἶ":927,"Ἰ":928,"ὄ":929,"Ὁ":930,"ὐ":931,"ὢ":932,"ὴ":933,"ὶ":934,"ί":935,"ό":936,"᾽":937,"᾿":938,"῀":939,"ῦ":940,"Ῡ":941,"´":942,"῾":943,"‌":944,"‍":945,"‎":946,"‏":947,"‐":948,"‑":949,"‒":950,"–":951,"—":952,"―":953,"‖":954,"‗":955,"‘":956,"’":957,"‚":958,"‛":959,"“":960,"”":961,"„":962,"‟":963,"†":964,"‡":965,"•":966,"․":967,"‥":968,"…":969,"‧":970,"‪":971,"‫":972,"‬":973,"‭":974,"‮":975,"‰":976,"′":977,"″":978,"‵":979,"‹":980,"›":981,"‼":982,"‽":983,"‿":984,"⁃":985,"⁄":986,"⁈":987,"⁉":988,"⁊":989,"⁞":990,"⁠":991,"⁬":992,"⁮":993,"⁯":994,"⁰":995,"⁲":996,"⁴":997,"⁵":998,"⁶":999,"⁷":1000,"⁸":1001,"⁹":1002,"⁺":1003,"⁻":1004,"ⁿ":1005,"₀":1006,"₁":1007,"₂":1008,"₃":1009,"₄":1010,"₅":1011,"₆":1012,"₈":1013,"₡":1014,"₣":1015,"₤":1016,"₦":1017,"₩":1018,"₪":1019,"₫":1020,"€":1021,"₮":1022,"₱":1023,"₹":1024,"⃜":1025,"⃣":1026,"⃰":1027,"℃":1028,"℅":1029,"℉":1030,"ℓ":1031,"№":1032,"℗":1033,"℠":1034,"™":1035,"Ω":1036,"ℭ":1037,"ℹ":1038,"⅓":1039,"⅔":1040,"⅕":1041,"⅖":1042,"⅗":1043,"⅘":1044,"⅚":1045,"⅛":1046,"⅜":1047,"⅝":1048,"⅞":1049,"Ⅲ":1050,"Ⅳ":1051,"Ⅵ":1052,"←":1053,"↑":1054,"→":1055,"↓":1056,"↔":1057,"↝":1058,"↟":1059,"↨":1060,"↩":1061,"↺":1062,"↻":1063,"⇄":1064,"⇆":1065,"⇑":1066,"⇒":1067,"⇓":1068,"⇥":1069,"⇧":1070,"⇾":1071,"∀":1072,"∂":1073,"∃":1074,"∅":1075,"∆":1076,"∇":1077,"∉":1078,"∏":1079,"∑":1080,"−":1081,"∕":1082,"∗":1083,"∙":1084,"√":1085,"∝":1086,"∞":1087,"∠":1088,"∣":1089,"∧":1090,"∨":1091,"∫":1092,"∴":1093,"∵":1094,"∶":1095,"∼":1096,"≇":1097,"≈":1098,"≗":1099,"≙":1100,"≠":1101,"≤":1102,"≥":1103,"≧":1104,"≪":1105,"≫":1106,"⊠":1107,"⋅":1108,"⋆":1109,"⋌":1110,"⋯":1111,"⌐":1112,"⌘":1113,"⎜":1114,"⎯":1115,"⏩":1116,"⏪":1117,"⏰":1118,"⏱":1119,"␣":1120,"①":1121,"②":1122,"③":1123,"④":1124,"⑤":1125,"⒈":1126,"⒉":1127,"⒊":1128,"⒋":1129,"⒌":1130,"Ⓐ":1131,"Ⓑ":1132,"Ⓒ":1133,"Ⓓ":1134,"Ⓗ":1135,"Ⓛ":1136,"Ⓞ":1137,"Ⓟ":1138,"Ⓡ":1139,"Ⓢ":1140,"Ⓤ":1141,"Ⓥ":1142,"Ⓦ":1143,"Ⓨ":1144,"ⓐ":1145,"ⓑ":1146,"ⓒ":1147,"ⓓ":1148,"ⓔ":1149,"ⓗ":1150,"ⓘ":1151,"ⓛ":1152,"ⓜ":1153,"ⓝ":1154,"ⓞ":1155,"ⓟ":1156,"ⓡ":1157,"ⓢ":1158,"ⓣ":1159,"ⓥ":1160,"ⓦ":1161,"ⓨ":1162,"⓫":1163,"⓬":1164,"⓭":1165,"⓯":1166,"⓰":1167,"⓱":1168,"⓴":1169,"─":1170,"━":1171,"│":1172,"└":1173,"├":1174,"┻":1175,"┼":1176,"═":1177,"╔":1178,"╟":1179,"╬":1180,"╯":1181,"▄":1182,"█":1183,"■":1184,"□":1185,"▣":1186,"▥":1187,"▪":1188,"▫":1189,"▬":1190,"▲":1191,"△":1192,"▶":1193,"▷":1194,"▸":1195,"►":1196,"▼":1197,"▾":1198,"◀":1199,"◄":1200,"◆":1201,"◇":1202,"◈":1203,"◊":1204,"○":1205,"●":1206,"◑":1207,"◕":1208,"◗":1209,"◘":1210,"◡":1211,"◦":1212,"◼":1213,"◾":1214,"◿":1215,"☀":1216,"☁":1217,"☂":1218,"☃":1219,"★":1220,"☆":1221,"☎":1222,"☏":1223,"☐":1224,"☑":1225,"☓":1226,"☔":1227,"☕":1228,"☚":1229,"☛":1230,"☜":1231,"☝":1232,"☞":1233,"☟":1234,"☠":1235,"☢":1236,"☨":1237,"☭":1238,"☮":1239,"☯":1240,"☹":1241,"☺":1242,"☻":1243,"☼":1244,"♀":1245,"♂":1246,"♈":1247,"♋":1248,"♌":1249,"♍":1250,"♎":1251,"♏":1252,"♑":1253,"♒":1254,"♔":1255,"♕":1256,"♚":1257,"♛":1258,"♠":1259,"♡":1260,"♢":1261,"♣":1262,"♥":1263,"♦":1264,"♪":1265,"♫":1266,"♬":1267,"♭":1268,"♯":1269,"⚄":1270,"⚒":1271,"⚓":1272,"⚖":1273,"⚙":1274,"⚜":1275,"⚠":1276,"⚡":1277,"⚪":1278,"⚫":1279,"⚽":1280,"⛄":1281,"⛏":1282,"⛪":1283,"⛰":1284,"⛳":1285,"⛴":1286,"⛵":1287,"⛺":1288,"✂":1289,"✅":1290,"✆":1291,"✈":1292,"✊":1293,"✋":1294,"✌":1295,"✏":1296,"✒":1297,"✓":1298,"✔":1299,"✕":1300,"✖":1301,"✗":1302,"✘":1303,"✚":1304,"✜":1305,"✝":1306,"✞":1307,"✡":1308,"✤":1309,"✦":1310,"✧":1311,"✨":1312,"✩":1313,"✪":1314,"✭":1315,"✯":1316,"✱":1317,"✳":1318,"✶":1319,"✷":1320,"✹":1321,"✺":1322,"✽":1323,"✿":1324,"❀":1325,"❂":1326,"❄":1327,"❆":1328,"❊":1329,"❋":1330,"❌":1331,"❍":1332,"❎":1333,"❏":1334,"❑":1335,"❓":1336,"❖":1337,"❗":1338,"❚":1339,"❣":1340,"❤":1341,"❥":1342,"❦":1343,"❯":1344,"❱":1345,"❶":1346,"❷":1347,"❸":1348,"❹":1349,"❺":1350,"❻":1351,"❼":1352,"❽":1353,"❾":1354,"❿":1355,"➁":1356,"➂":1357,"➃":1358,"➄":1359,"➊":1360,"➋":1361,"➌":1362,"➍":1363,"➎":1364,"➏":1365,"➐":1366,"➑":1367,"➒":1368,"➓":1369,"➔":1370,"➕":1371,"➖":1372,"➘":1373,"➙":1374,"➚":1375,"➜":1376,"➝":1377,"➞":1378,"➡":1379,"➢":1380,"➤":1381,"➥":1382,"➧":1383,"➨":1384,"➩":1385,"➭":1386,"➯":1387,"➱":1388,"➲":1389,"⟨":1390,"⠀":1391,"⤴":1392,"⤵":1393,"⤷":1394,"⤺":1395,"⦁":1396,"⦿":1397,"⧫":1398,"⩾":1399,"⬅":1400,"⬆":1401,"⬇":1402,"⭐":1403,"⸝":1404,"⸮":1405,"⿿":1406,"、":1407,"。":1408,"《":1409,"》":1410,"【":1411,"】":1412,"〜":1413,"〰":1414,"〽":1415,"あ":1416,"い":1417,"う":1418,"お":1419,"か":1420,"が":1421,"き":1422,"く":1423,"こ":1424,"さ":1425,"し":1426,"す":1427,"そ":1428,"た":1429,"ち":1430,"っ":1431,"つ":1432,"て":1433,"で":1434,"と":1435,"ど":1436,"な":1437,"に":1438,"ね":1439,"の":1440,"は":1441,"ば":1442,"ひ":1443,"ま":1444,"め":1445,"も":1446,"ゃ":1447,"よ":1448,"り":1449,"る":1450,"れ":1451,"ろ":1452,"わ":1453,"ん":1454,"ァ":1455,"ア":1456,"ィ":1457,"イ":1458,"エ":1459,"オ":1460,"カ":1461,"ク":1462,"グ":1463,"ケ":1464,"ゲ":1465,"コ":1466,"ゴ":1467,"サ":1468,"ザ":1469,"シ":1470,"ジ":1471,"ス":1472,"ソ":1473,"タ":1474,"ダ":1475,"ッ":1476,"ツ":1477,"ヅ":1478,"テ":1479,"デ":1480,"ト":1481,"ニ":1482,"ノ":1483,"パ":1484,"ビ":1485,"ピ":1486,"フ":1487,"ブ":1488,"プ":1489,"ヘ":1490,"ベ":1491,"ペ":1492,"ホ":1493,"ボ":1494,"ポ":1495,"マ":1496,"ミ":1497,"ム":1498,"メ":1499,"モ":1500,"ャ":1501,"ュ":1502,"ョ":1503,"ラ":1504,"リ":1505,"ル":1506,"レ":1507,"ロ":1508,"ヮ":1509,"ン":1510,"ヶ":1511,"・":1512,"ー":1513,"ヾ":1514,"ㅋ":1515,"ㅤ":1516,"㋡":1517,"㎡":1518,"㠠":1519,"㠭":1520,"㡢":1521,"㡮":1522,"㢴":1523,"㤧":1524,"㤭":1525,"㤮":1526,"㤵":1527,"㧡":1528,"㧯":1529,"㧵":1530,"㨬":1531,"㨮":1532,"㨱":1533,"㨲":1534,"㨳":1535,"㨴":1536,"㨶":1537,"㩠":1538,"㩡":1539,"㩢":1540,"㩣":1541,"㩤":1542,"㩥":1543,"㩧":1544,"㩪":1545,"㩬":1546,"㩭":1547,"㩮":1548,"㩲":1549,"㩳":1550,"㩴":1551,"㩶":1552,"㩻":1553,"㩿":1554,"㪶":1555,"㫬":1556,"㭡":1557,"㭧":1558,"㭮":1559,"㮴":1560,"㯶":1561,"㸀":1562,"䌀":1563,"䬴":1564,"一":1565,"七":1566,"万":1567,"三":1568,"上":1569,"下":1570,"不":1571,"丑":1572,"专":1573,"世":1574,"业":1575,"东":1576,"丝":1577,"丞":1578,"两":1579,"严":1580,"丧":1581,"个":1582,"中":1583,"丰":1584,"临":1585,"丶":1586,"丹":1587,"为":1588,"主":1589,"丽":1590,"丿":1591,"么":1592,"义":1593,"之":1594,"乐":1595,"乒":1596,"乓":1597,"九":1598,"习":1599,"乡":1600,"书":1601,"买":1602,"乱":1603,"了":1604,"争":1605,"事":1606,"二":1607,"于":1608,"亏":1609,"云":1610,"互":1611,"五":1612,"井":1613,"亚":1614,"交":1615,"产":1616,"京":1617,"亲":1618,"人":1619,"什":1620,"今":1621,"从":1622,"仓":1623,"他":1624,"代":1625,"令":1626,"以":1627,"们":1628,"仲":1629,"件":1630,"价":1631,"任":1632,"份":1633,"企":1634,"伊":1635,"伏":1636,"休":1637,"众":1638,"伙":1639,"会":1640,"伟":1641,"传":1642,"伤":1643,"伯":1644,"位":1645,"低":1646,"余":1647,"作":1648,"你":1649,"佤":1650,"使":1651,"來":1652,"侍":1653,"依":1654,"便":1655,"促":1656,"俏":1657,"俗":1658,"保":1659,"俠":1660,"信":1661,"修":1662,"俱":1663,"個":1664,"倍":1665,"倒":1666,"候":1667,"偉":1668,"做":1669,"傑":1670,"傣":1671,"傳":1672,"像":1673,"僚":1674,"儿":1675,"元":1676,"兄":1677,"先":1678,"光":1679,"克":1680,"兒":1681,"党":1682,"入":1683,"全":1684,"八":1685,"公":1686,"六":1687,"兮":1688,"兰":1689,"共":1690,"关":1691,"兴":1692,"兵":1693,"其":1694,"具":1695,"典":1696,"养":1697,"内":1698,"冈":1699,"再":1700,"冖":1701,"军":1702,"冬":1703,"冯":1704,"冰":1705,"冲":1706,"决":1707,"净":1708,"凤":1709,"凯":1710,"凶":1711,"出":1712,"击":1713,"刀":1714,"分":1715,"切":1716,"刊":1717,"刑":1718,"划":1719,"刘":1720,"则":1721,"利":1722,"到":1723,"制":1724,"刺":1725,"前":1726,"剑":1727,"剛":1728,"剩":1729,"劉":1730,"力":1731,"办":1732,"功":1733,"加":1734,"动":1735,"劳":1736,"労":1737,"勇":1738,"動":1739,"務":1740,"勿":1741,"化":1742,"北":1743,"区":1744,"医":1745,"十":1746,"千":1747,"升":1748,"午":1749,"半":1750,"华":1751,"协":1752,"单":1753,"南":1754,"単":1755,"博":1756,"卡":1757,"危":1758,"历":1759,"压":1760,"原":1761,"去":1762,"县":1763,"参":1764,"又":1765,"叉":1766,"及":1767,"友":1768,"双":1769,"反":1770,"发":1771,"叔":1772,"取":1773,"受":1774,"变":1775,"口":1776,"古":1777,"另":1778,"只":1779,"叫":1780,"可":1781,"史":1782,"叶":1783,"号":1784,"司":1785,"吁":1786,"各":1787,"合":1788,"吉":1789,"同":1790,"名":1791,"后":1792,"向":1793,"吗":1794,"君":1795,"否":1796,"吧":1797,"听":1798,"启":1799,"吴":1800,"吹":1801,"吽":1802,"呈":1803,"员":1804,"周":1805,"呼":1806,"命":1807,"和":1808,"品":1809,"哈":1810,"响":1811,"哎":1812,"員":1813,"哥":1814,"哦":1815,"哪":1816,"唯":1817,"唱":1818,"商":1819,"啊":1820,"喀":1821,"善":1822,"喇":1823,"喋":1824,"喜":1825,"嘉":1826,"嘘":1827,"嘛":1828,"器":1829,"嚴":1830,"四":1831,"回":1832,"因":1833,"团":1834,"园":1835,"国":1836,"圆":1837,"國":1838,"圍":1839,"圓":1840,"土":1841,"圣":1842,"在":1843,"地":1844,"场":1845,"均":1846,"坏":1847,"坦":1848,"型":1849,"城":1850,"培":1851,"基":1852,"堂":1853,"堑":1854,"堡":1855,"報":1856,"場":1857,"塌":1858,"境":1859,"墙":1860,"增":1861,"墨":1862,"壊":1863,"士":1864,"壮":1865,"声":1866,"壶":1867,"壽":1868,"处":1869,"备":1870,"复":1871,"夏":1872,"夕":1873,"外":1874,"多":1875,"夜":1876,"够":1877,"夠":1878,"夢":1879,"大":1880,"天":1881,"太":1882,"夫":1883,"失":1884,"头":1885,"夷":1886,"奇":1887,"奉":1888,"奏":1889,"奔":1890,"奥":1891,"奪":1892,"女":1893,"奸":1894,"奻":1895,"好":1896,"如":1897,"妇":1898,"妈":1899,"妖":1900,"妮":1901,"始":1902,"姐":1903,"委":1904,"姗":1905,"姦":1906,"威":1907,"娜":1908,"婚":1909,"婷":1910,"婼":1911,"媒":1912,"媛":1913,"嫁":1914,"嬌":1915,"子":1916,"孕":1917,"字":1918,"孙":1919,"学":1920,"學":1921,"宁":1922,"宇":1923,"守":1924,"安":1925,"宋":1926,"宏":1927,"官":1928,"定":1929,"宝":1930,"实":1931,"室":1932,"宥":1933,"宪":1934,"宫":1935,"害":1936,"家":1937,"宾":1938,"密":1939,"富":1940,"寝":1941,"察":1942,"寨":1943,"对":1944,"导":1945,"将":1946,"導":1947,"小":1948,"少":1949,"尔":1950,"尖":1951,"尛":1952,"就":1953,"尻":1954,"尼":1955,"尾":1956,"局":1957,"居":1958,"屈":1959,"屋":1960,"屠":1961,"層":1962,"山":1963,"岁":1964,"岛":1965,"岩":1966,"岭":1967,"岳":1968,"峡":1969,"島":1970,"嵘":1971,"川":1972,"州":1973,"工":1974,"左":1975,"巨":1976,"己":1977,"巴":1978,"巷":1979,"市":1980,"布":1981,"师":1982,"希":1983,"帝":1984,"带":1985,"師":1986,"帮":1987,"常":1988,"幕":1989,"幣":1990,"干":1991,"平":1992,"年":1993,"幻":1994,"广":1995,"庄":1996,"庆":1997,"庐":1998,"底":1999,"府":2000,"废":2001,"度":2002,"座":2003,"廉":2004,"廟":2005,"廣":2006,"廷":2007,"建":2008,"开":2009,"弄":2010,"引":2011,"弟":2012,"张":2013,"弯":2014,"張":2015,"強":2016,"强":2017,"当":2018,"录":2019,"彡":2020,"彩":2021,"彭":2022,"影":2023,"彻":2024,"彼":2025,"往":2026,"径":2027,"很":2028,"徐":2029,"得":2030,"微":2031,"徴":2032,"德":2033,"徽":2034,"心":2035,"必":2036,"忌":2037,"志":2038,"忘":2039,"忠":2040,"快":2041,"怀":2042,"怎":2043,"怒":2044,"思":2045,"性":2046,"总":2047,"恐":2048,"恩":2049,"恭":2050,"恵":2051,"恶":2052,"悠":2053,"患":2054,"悬":2055,"情":2056,"惊":2057,"惜":2058,"惟":2059,"想":2060,"愈":2061,"意":2062,"感":2063,"愿":2064,"慧":2065,"戈":2066,"戏":2067,"成":2068,"我":2069,"戒":2070,"或":2071,"战":2072,"户":2073,"所":2074,"扁":2075,"手":2076,"打":2077,"托":2078,"找":2079,"承":2080,"投":2081,"抗":2082,"折":2083,"抚":2084,"报":2085,"抱":2086,"抹":2087,"担":2088,"拆":2089,"拉":2090,"拍":2091,"拓":2092,"招":2093,"拧":2094,"拳":2095,"持":2096,"指":2097,"挺":2098,"换":2099,"掐":2100,"控":2101,"措":2102,"提":2103,"揭":2104,"搬":2105,"摄":2106,"摘":2107,"摩":2108,"摸":2109,"撑":2110,"播":2111,"支":2112,"收":2113,"改":2114,"攻":2115,"放":2116,"政":2117,"救":2118,"教":2119,"敢":2120,"散":2121,"敦":2122,"数":2123,"文":2124,"斤":2125,"断":2126,"斯":2127,"新":2128,"方":2129,"於":2130,"施":2131,"旅":2132,"族":2133,"旗":2134,"无":2135,"既":2136,"日":2137,"旦":2138,"时":2139,"昌":2140,"明":2141,"星":2142,"映":2143,"春":2144,"昨":2145,"昭":2146,"是":2147,"昶":2148,"時":2149,"晋":2150,"晚":2151,"晤":2152,"晩":2153,"普":2154,"景":2155,"智":2156,"暑":2157,"暴":2158,"曉":2159,"曝":2160,"曼":2161,"最":2162,"會":2163,"月":2164,"有":2165,"服":2166,"朝":2167,"木":2168,"本":2169,"朱":2170,"机":2171,"杀":2172,"权":2173,"李":2174,"杏":2175,"村":2176,"杠":2177,"条":2178,"来":2179,"杨":2180,"杭":2181,"杯":2182,"東":2183,"松":2184,"板":2185,"极":2186,"构":2187,"林":2188,"果":2189,"枝":2190,"架":2191,"染":2192,"查":2193,"柱":2194,"栈":2195,"树":2196,"样":2197,"格":2198,"桂":2199,"桃":2200,"案":2201,"桥":2202,"梁":2203,"梦":2204,"梯":2205,"森":2206,"楚":2207,"業":2208,"楼":2209,"榜":2210,"榴":2211,"榻":2212,"樂":2213,"樊":2214,"樓":2215,"横":2216,"機":2217,"欠":2218,"次":2219,"欲":2220,"歉":2221,"歌":2222,"止":2223,"正":2224,"步":2225,"武":2226,"死":2227,"残":2228,"母":2229,"每":2230,"毒":2231,"比":2232,"毛":2233,"氏":2234,"民":2235,"气":2236,"氣":2237,"水":2238,"氵":2239,"永":2240,"汁":2241,"求":2242,"汉":2243,"江":2244,"池":2245,"污":2246,"汰":2247,"汾":2248,"沈":2249,"沒":2250,"沙":2251,"沟":2252,"没":2253,"沫":2254,"河":2255,"油":2256,"治":2257,"泉":2258,"法":2259,"泡":2260,"泥":2261,"注":2262,"泰":2263,"泼":2264,"洁":2265,"洋":2266,"洛":2267,"洞":2268,"津":2269,"洪":2270,"洲":2271,"活":2272,"流":2273,"测":2274,"济":2275,"浑":2276,"浙":2277,"浮":2278,"海":2279,"消":2280,"淇":2281,"淋":2282,"深":2283,"淹":2284,"添":2285,"清":2286,"済":2287,"渡":2288,"港":2289,"游":2290,"湖":2291,"湾":2292,"源":2293,"溪":2294,"滑":2295,"滚":2296,"满":2297,"滥":2298,"滨":2299,"滩":2300,"滴":2301,"演":2302,"漢":2303,"澳":2304,"瀑":2305,"瀚":2306,"火":2307,"灵":2308,"灶":2309,"災":2310,"炉":2311,"炒":2312,"炸":2313,"点":2314,"為":2315,"烛":2316,"烧":2317,"热":2318,"無":2319,"焦":2320,"然":2321,"煌":2322,"煎":2323,"照":2324,"熊":2325,"熙":2326,"熱":2327,"燕":2328,"爆":2329,"爱":2330,"父":2331,"片":2332,"版":2333,"牙":2334,"牛":2335,"物":2336,"特":2337,"犢":2338,"犯":2339,"狗":2340,"狱":2341,"狼":2342,"猪":2343,"猫":2344,"献":2345,"猴":2346,"獄":2347,"獨":2348,"獸":2349,"玄":2350,"玉":2351,"王":2352,"玩":2353,"现":2354,"玲":2355,"現":2356,"球":2357,"理":2358,"琨":2359,"琰":2360,"瑛":2361,"瑞":2362,"瓜":2363,"甘":2364,"生":2365,"用":2366,"甫":2367,"甬":2368,"田":2369,"由":2370,"电":2371,"男":2372,"画":2373,"界":2374,"留":2375,"畫":2376,"疼":2377,"疾":2378,"症":2379,"發":2380,"白":2381,"百":2382,"的":2383,"皇":2384,"皓":2385,"皮":2386,"监":2387,"盖":2388,"盘":2389,"目":2390,"盲":2391,"直":2392,"相":2393,"省":2394,"看":2395,"県":2396,"真":2397,"眼":2398,"着":2399,"睛":2400,"瞢":2401,"短":2402,"石":2403,"码":2404,"研":2405,"破":2406,"砸":2407,"础":2408,"硅":2409,"碎":2410,"碑":2411,"碧":2412,"示":2413,"礼":2414,"社":2415,"祝":2416,"神":2417,"祥":2418,"票":2419,"禁":2420,"福":2421,"离":2422,"秀":2423,"秋":2424,"科":2425,"秘":2426,"移":2427,"穆":2428,"究":2429,"空":2430,"突":2431,"立":2432,"竜":2433,"竟":2434,"章":2435,"童":2436,"競":2437,"竹":2438,"笑":2439,"第":2440,"笼":2441,"筆":2442,"等":2443,"筒":2444,"策":2445,"签":2446,"箋":2447,"算":2448,"節":2449,"築":2450,"簡":2451,"簿":2452,"籠":2453,"类":2454,"粮":2455,"精":2456,"糕":2457,"系":2458,"紅":2459,"純":2460,"紙":2461,"素":2462,"索":2463,"細":2464,"組":2465,"経":2466,"結":2467,"綠":2468,"綿":2469,"線":2470,"縮":2471,"繁":2472,"繫":2473,"红":2474,"约":2475,"级":2476,"纳":2477,"纸":2478,"纽":2479,"经":2480,"绑":2481,"络":2482,"绝":2483,"维":2484,"绵":2485,"综":2486,"网":2487,"罒":2488,"罗":2489,"罪":2490,"置":2491,"羅":2492,"羊":2493,"美":2494,"羔":2495,"羚":2496,"義":2497,"翁":2498,"翅":2499,"翔":2500,"翻":2501,"耀":2502,"老":2503,"考":2504,"者":2505,"耐":2506,"耻":2507,"耿":2508,"联":2509,"聖":2510,"聚":2511,"聞":2512,"聪":2513,"聯":2514,"聿":2515,"肃":2516,"肉":2517,"股":2518,"胆":2519,"能":2520,"脂":2521,"脚":2522,"脫":2523,"脱":2524,"脸":2525,"腐":2526,"腳":2527,"腹":2528,"膜":2529,"臣":2530,"自":2531,"臭":2532,"至":2533,"與":2534,"興":2535,"舐":2536,"良":2537,"色":2538,"艹":2539,"艺":2540,"艾":2541,"节":2542,"芦":2543,"花":2544,"苏":2545,"苡":2546,"若":2547,"苦":2548,"英":2549,"苹":2550,"茂":2551,"茅":2552,"茲":2553,"茴":2554,"茶":2555,"草":2556,"莓":2557,"莫":2558,"莽":2559,"菁":2560,"菜":2561,"華":2562,"萬":2563,"落":2564,"葉":2565,"葛":2566,"董":2567,"蒙":2568,"蒨":2569,"蒼":2570,"蓮":2571,"蔡":2572,"蕴":2573,"藍":2574,"藏":2575,"藤":2576,"虎":2577,"虑":2578,"虚":2579,"虛":2580,"號":2581,"虹":2582,"虾":2583,"蚁":2584,"蚂":2585,"蛇":2586,"蛋":2587,"蛤":2588,"蛰":2589,"蜀":2590,"蜜":2591,"蜡":2592,"融":2593,"螺":2594,"蟆":2595,"蟲":2596,"蟹":2597,"血":2598,"行":2599,"街":2600,"衡":2601,"衣":2602,"表":2603,"衫":2604,"袋":2605,"袍":2606,"袖":2607,"被":2608,"裙":2609,"製":2610,"襪":2611,"西":2612,"要":2613,"見":2614,"視":2615,"覺":2616,"观":2617,"规":2618,"视":2619,"觉":2620,"角":2621,"解":2622,"触":2623,"言":2624,"計":2625,"許":2626,"詩":2627,"話":2628,"誕":2629,"語":2630,"請":2631,"諒":2632,"諱":2633,"諸":2634,"謀":2635,"謝":2636,"護":2637,"讀":2638,"计":2639,"认":2640,"让":2641,"讫":2642,"议":2643,"记":2644,"论":2645,"访":2646,"证":2647,"评":2648,"识":2649,"诉":2650,"译":2651,"试":2652,"诗":2653,"话":2654,"语":2655,"诱":2656,"说":2657,"请":2658,"诺":2659,"谁":2660,"调":2661,"谈":2662,"谔":2663,"谭":2664,"谷":2665,"豆":2666,"豚":2667,"象":2668,"豪":2669,"負":2670,"財":2671,"貴":2672,"資":2673,"賽":2674,"贞":2675,"财":2676,"责":2677,"贤":2678,"败":2679,"账":2680,"购":2681,"贵":2682,"费":2683,"贺":2684,"资":2685,"赖":2686,"赤":2687,"走":2688,"起":2689,"超":2690,"趣":2691,"足":2692,"跃":2693,"跌":2694,"跟":2695,"跨":2696,"路":2697,"踢":2698,"躍":2699,"身":2700,"车":2701,"轨":2702,"转":2703,"轮":2704,"轻":2705,"辅":2706,"辛":2707,"辰":2708,"辽":2709,"达":2710,"过":2711,"迎":2712,"运":2713,"近":2714,"返":2715,"还":2716,"进":2717,"远":2718,"迫":2719,"迭":2720,"述":2721,"追":2722,"送":2723,"适":2724,"透":2725,"這":2726,"通":2727,"速":2728,"造":2729,"進":2730,"逼":2731,"運":2732,"過":2733,"道":2734,"遣":2735,"適":2736,"遭":2737,"避":2738,"那":2739,"邦":2740,"郎":2741,"郑":2742,"部":2743,"郵":2744,"都":2745,"酒":2746,"酱":2747,"酵":2748,"酷":2749,"醉":2750,"醫":2751,"释":2752,"里":2753,"重":2754,"野":2755,"量":2756,"金":2757,"釣":2758,"錄":2759,"鎮":2760,"鐘":2761,"钓":2762,"钢":2763,"钱":2764,"铁":2765,"铠":2766,"银":2767,"锥":2768,"锦":2769,"镇":2770,"長":2771,"长":2772,"門":2773,"間":2774,"閣":2775,"關":2776,"门":2777,"闭":2778,"问":2779,"间":2780,"闹":2781,"阅":2782,"队":2783,"阳":2784,"阿":2785,"际":2786,"陆":2787,"陈":2788,"限":2789,"陕":2790,"陛":2791,"陞":2792,"院":2793,"险":2794,"陳":2795,"陽":2796,"隅":2797,"階":2798,"随":2799,"際":2800,"險":2801,"难":2802,"雅":2803,"雕":2804,"雙":2805,"雨":2806,"雪":2807,"雯":2808,"雲":2809,"零":2810,"需":2811,"震":2812,"霖":2813,"露":2814,"青":2815,"非":2816,"面":2817,"革":2818,"韓":2819,"韦":2820,"音":2821,"頍":2822,"預":2823,"頭":2824,"頻":2825,"類":2826,"顶":2827,"项":2828,"顺":2829,"预":2830,"领":2831,"频":2832,"题":2833,"風":2834,"飄":2835,"风":2836,"飞":2837,"食":2838,"餃":2839,"餐":2840,"館":2841,"饰":2842,"饺":2843,"饼":2844,"馆":2845,"首":2846,"香":2847,"馬":2848,"驚":2849,"马":2850,"骨":2851,"高":2852,"鬼":2853,"魄":2854,"魅":2855,"魚":2856,"鮮":2857,"鰴":2858,"鱼":2859,"鲍":2860,"鲜":2861,"鳥":2862,"鵲":2863,"鸡":2864,"鸣":2865,"鸿":2866,"麥":2867,"黃":2868,"黄":2869,"黍":2870,"黎":2871,"黑":2872,"點":2873,"黨":2874,"鼎":2875,"齊":2876,"龍":2877,"龙":2878,"龚":2879,"龟":2880,"ꞌ":2881,"꧂":2882,"가":2883,"강":2884,"거":2885,"건":2886,"경":2887,"계":2888,"고":2889,"곡":2890,"골":2891,"공":2892,"과":2893,"관":2894,"광":2895,"교":2896,"구":2897,"국":2898,"군":2899,"귀":2900,"규":2901,"금":2902,"기":2903,"길":2904,"꽃":2905,"나":2906,"낙":2907,"남":2908,"내":2909,"녕":2910,"녹":2911,"논":2912,"뉴":2913,"늙":2914,"늪":2915,"다":2916,"단":2917,"담":2918,"당":2919,"대":2920,"덕":2921,"도":2922,"독":2923,"동":2924,"둔":2925,"딩":2926,"라":2927,"락":2928,"람":2929,"량":2930,"령":2931,"로":2932,"를":2933,"름":2934,"릉":2935,"리":2936,"린":2937,"림":2938,"마":2939,"만":2940,"매":2941,"면":2942,"목":2943,"무":2944,"문":2945,"물":2946,"미":2947,"민":2948,"박":2949,"방":2950,"밭":2951,"배":2952,"백":2953,"뱀":2954,"번":2955,"법":2956,"베":2957,"별":2958,"보":2959,"본":2960,"봄":2961,"봉":2962,"북":2963,"빌":2964,"빙":2965,"사":2966,"산":2967,"삼":2968,"상":2969,"생":2970,"서":2971,"선":2972,"설":2973,"섬":2974,"섭":2975,"성":2976,"세":2977,"소":2978,"속":2979,"송":2980,"수":2981,"순":2982,"스":2983,"승":2984,"시":2985,"신":2986,"심":2987,"싸":2988,"아":2989,"안":2990,"암":2991,"앙":2992,"야":2993,"양":2994,"어":2995,"언":2996,"역":2997,"연":2998,"영":2999,"오":3000,"옥":3001,"완":3002,"왕":3003,"요":3004,"욕":3005,"용":3006,"우":3007,"울":3008,"움":3009,"원":3010,"유":3011,"을":3012,"읍":3013,"의":3014,"이":3015,"인":3016,"일":3017,"잎":3018,"자":3019,"장":3020,"재":3021,"저":3022,"전":3023,"정":3024,"제":3025,"조":3026,"종":3027,"주":3028,"죽":3029,"중":3030,"증":3031,"지":3032,"진":3033,"쭉":3034,"차":3035,"창":3036,"천":3037,"철":3038,"청":3039,"축":3040,"춘":3041,"출":3042,"충":3043,"치":3044,"침":3045,"코":3046,"탄":3047,"태":3048,"통":3049,"튀":3050,"특":3051,"파":3052,"평":3053,"포":3054,"품":3055,"피":3056,"필":3057,"하":3058,"학":3059,"한":3060,"함":3061,"합":3062,"해":3063,"행":3064,"향":3065,"헌":3066,"현":3067,"협":3068,"호":3069,"홍":3070,"화":3071,"활":3072,"황":3073,"회":3074,"횡":3075,"흑":3076,"흥":3077,"":3078,"":3079,"":3080,"":3081,"":3082,"":3083,"":3084,"":3085,"":3086,"":3087,"":3088,"":3089,"":3090,"":3091,"":3092,"":3093,"":3094,"":3095,"":3096,"":3097,"":3098,"":3099,"":3100,"":3101,"":3102,"":3103,"":3104,"":3105,"":3106,"":3107,"":3108,"":3109,"":3110,"":3111,"":3112,"":3113,"":3114,"":3115,"":3116,"":3117,"":3118,"":3119,"":3120,"":3121,"":3122,"":3123,"":3124,"":3125,"":3126,"":3127,"":3128,"":3129,"":3130,"":3131,"":3132,"":3133,"":3134,"":3135,"":3136,"":3137,"":3138,"":3139,"":3140,"":3141,"":3142,"":3143,"":3144,"":3145,"":3146,"":3147,"":3148,"":3149,"":3150,"":3151,"":3152,"":3153,"":3154,"":3155,"":3156,"":3157,"":3158,"":3159,"":3160,"":3161,"":3162,"":3163,"":3164,"":3165,"":3166,"":3167,"":3168,"":3169,"":3170,"":3171,"":3172,"":3173,"":3174,"":3175,"":3176,"":3177,"":3178,"":3179,"":3180,"":3181,"":3182,"":3183,"":3184,"":3185,"":3186,"":3187,"":3188,"":3189,"":3190,"":3191,"":3192,"":3193,"":3194,"":3195,"":3196,"":3197,"":3198,"":3199,"":3200,"":3201,"":3202,"":3203,"":3204,"":3205,"":3206,"":3207,"":3208,"":3209,"":3210,"":3211,"":3212,"":3213,"":3214,"":3215,"":3216,"":3217,"":3218,"":3219,"":3220,"":3221,"":3222,"":3223,"":3224,"":3225,"":3226,"":3227,"":3228,"":3229,"":3230,"":3231,"":3232,"":3233,"":3234,"":3235,"":3236,"":3237,"":3238,"":3239,"":3240,"":3241,"":3242,"":3243,"":3244,"":3245,"":3246,"":3247,"":3248,"":3249,"":3250,"":3251,"":3252,"":3253,"":3254,"":3255,"":3256,"":3257,"":3258,"":3259,"":3260,"":3261,"":3262,"":3263,"":3264,"":3265,"":3266,"":3267,"":3268,"":3269,"":3270,"":3271,"":3272,"":3273,"":3274,"":3275,"":3276,"":3277,"":3278,"":3279,"":3280,"":3281,"":3282,"":3283,"":3284,"":3285,"":3286,"":3287,"":3288,"":3289,"":3290,"":3291,"":3292,"":3293,"":3294,"":3295,"":3296,"":3297,"":3298,"":3299,"":3300,"":3301,"":3302,"":3303,"":3304,"":3305,"":3306,"":3307,"":3308,"":3309,"":3310,"":3311,"":3312,"":3313,"":3314,"":3315,"":3316,"":3317,"":3318,"":3319,"":3320,"":3321,"":3322,"":3323,"":3324,"":3325,"":3326,"":3327,"":3328,"":3329,"":3330,"":3331,"":3332,"":3333,"":3334,"":3335,"":3336,"":3337,"":3338,"":3339,"":3340,"":3341,"":3342,"":3343,"":3344,"":3345,"":3346,"":3347,"":3348,"":3349,"":3350,"":3351,"":3352,"":3353,"":3354,"":3355,"":3356,"":3357,"":3358,"":3359,"":3360,"":3361,"":3362,"":3363,"":3364,"":3365,"":3366,"":3367,"":3368,"":3369,"":3370,"":3371,"":3372,"":3373,"":3374,"":3375,"":3376,"":3377,"ﬀ":3378,"ﬁ":3379,"ﬂ":3380,"ﬃ":3381,"︎":3382,"️":3383,"︱":3384,"︵":3385,"﹠":3386,"ﺍ":3387,"ﺠ":3388,"ﺪ":3389,"ﺮ":3390,"ﻮ":3391,"ﻴ":3392,"！":3393,"％":3394,"（":3395,"）":3396,"＊":3397,"，":3398,"－":3399,"．":3400,"：":3401,"；":3402,"？":3403,"Ａ":3404,"Ｍ":3405,"Ｓ":3406,"ｃ":3407,"ｄ":3408,"ｅ":3409,"ｈ":3410,"ｉ":3411,"ｎ":3412,"ｒ":3413,"ｙ":3414,"ｚ":3415,"～":3416,"･":3417,"ｰ":3418,"ﾀ":3419,"ﾄ":3420,"ﾅ":3421,"ﾉ":3422,"ﾑ":3423,"ﾒ":3424,"ﾓ":3425,"ﾔ":3426,"ﾖ":3427,"ﾗ":3428,"ﾙ":3429,"ﾜ":3430,"ﾟ":3431,"ﾠ":3432,"ﾣ":3433,"ﾭ":3434,"ﾼ":3435,"ﾽ":3436,"ￃ":3437,"￡":3438,"￢":3439,"￤":3440,"￥":3441,"￦":3442,"￧":3443,"￩":3444,"￳":3445,"￺":3446,"￻":3447,"￼":3448,"�":3449,"𔚹":3450,"𔛀":3451,"𝔞":3452,"𝔢":3453,"𝔦":3454,"𝔫":3455,"𝔬":3456,"𝔭":3457,"𝔯":3458,"𝔱":3459,"𝔲":3460,"🃏":3461,"🅰":3462,"🅲":3463,"🅳":3464,"🅷":3465,"🆙":3466,"🇀":3467,"🇦":3468,"🇧":3469,"🇨":3470,"🇩":3471,"🇪":3472,"🇫":3473,"🇬":3474,"🇮":3475,"🇱":3476,"🇲":3477,"🇳":3478,"🇴":3479,"🇵":3480,"🇷":3481,"🇸":3482,"🇹":3483,"🇺":3484,"🇽":3485,"🇾":3486,"🇿":3487,"🌀":3488,"🌄":3489,"🌅":3490,"🌇":3491,"🌈":3492,"🌉":3493,"🌊":3494,"🌋":3495,"🌌":3496,"🌎":3497,"🌏":3498,"🌐":3499,"🌕":3500,"🌘":3501,"🌙":3502,"🌚":3503,"🌜":3504,"🌝":3505,"🌞":3506,"🌟":3507,"🌪":3508,"🌮":3509,"🌯":3510,"🌱":3511,"🌲":3512,"🌴":3513,"🌵":3514,"🌷":3515,"🌸":3516,"🌹":3517,"🌺":3518,"🌻":3519,"🌼":3520,"🌿":3521,"🍀":3522,"🍁":3523,"🍂":3524,"🍄":3525,"🍅":3526,"🍆":3527,"🍉":3528,"🍋":3529,"🍍":3530,"🍎":3531,"🍏":3532,"🍐":3533,"🍑":3534,"🍒":3535,"🍓":3536,"🍔":3537,"🍕":3538,"🍗":3539,"🍚":3540,"🍛":3541,"🍝":3542,"🍟":3543,"🍣":3544,"🍦":3545,"🍧":3546,"🍩":3547,"🍪":3548,"🍫":3549,"🍬":3550,"🍭":3551,"🍰":3552,"🍱":3553,"🍴":3554,"🍷":3555,"🍸":3556,"🍹":3557,"🍺":3558,"🍻":3559,"🍼":3560,"🍾":3561,"🍿":3562,"🎀":3563,"🎁":3564,"🎂":3565,"🎃":3566,"🎄":3567,"🎅":3568,"🎈":3569,"🎉":3570,"🎊":3571,"🎗":3572,"🎠":3573,"🎡":3574,"🎢":3575,"🎤":3576,"🎥":3577,"🎦":3578,"🎧":3579,"🎨":3580,"🎩":3581,"🎬":3582,"🎯":3583,"🎲":3584,"🎵":3585,"🎶":3586,"🎷":3587,"🎺":3588,"🎾":3589,"🏀":3590,"🏁":3591,"🏃":3592,"🏄":3593,"🏅":3594,"🏆":3595,"🏇":3596,"🏈":3597,"🏊":3598,"🏌":3599,"🏎":3600,"🏏":3601,"🏔":3602,"🏝":3603,"🏥":3604,"🏫":3605,"🏳":3606,"🏹":3607,"🏻":3608,"🏼":3609,"🏽":3610,"🏾":3611,"🏿":3612,"🐆":3613,"🐇":3614,"🐈":3615,"🐍":3616,"🐎":3617,"🐐":3618,"🐒":3619,"🐔":3620,"🐘":3621,"🐚":3622,"🐜":3623,"🐝":3624,"🐟":3625,"🐠":3626,"🐣":3627,"🐥":3628,"🐪":3629,"🐬":3630,"🐭":3631,"🐯":3632,"🐰":3633,"🐲":3634,"🐳":3635,"🐶":3636,"🐷":3637,"🐸":3638,"🐼":3639,"🐾":3640,"👀":3641,"👁":3642,"👄":3643,"👅":3644,"👆":3645,"👇":3646,"👈":3647,"👉":3648,"👊":3649,"👋":3650,"👌":3651,"👍":3652,"👎":3653,"👏":3654,"👐":3655,"👑":3656,"👓":3657,"👖":3658,"👗":3659,"👘":3660,"👙":3661,"👠":3662,"👦":3663,"👧":3664,"👨":3665,"👩":3666,"👪":3667,"👫":3668,"👮":3669,"👯":3670,"👰":3671,"👵":3672,"👶":3673,"👷":3674,"👸":3675,"👻":3676,"👼":3677,"👽":3678,"👿":3679,"💀":3680,"💁":3681,"💃":3682,"💄":3683,"💅":3684,"💇":3685,"💉":3686,"💊":3687,"💋":3688,"💍":3689,"💎":3690,"💏":3691,"💐":3692,"💑":3693,"💒":3694,"💔":3695,"💕":3696,"💖":3697,"💗":3698,"💘":3699,"💙":3700,"💚":3701,"💛":3702,"💜":3703,"💝":3704,"💞":3705,"💡":3706,"💢":3707,"💣":3708,"💤":3709,"💥":3710,"💦":3711,"💨":3712,"💩":3713,"💪":3714,"💫":3715,"💬":3716,"💭":3717,"💯":3718,"💰":3719,"💵":3720,"💸":3721,"💻":3722,"💽":3723,"💿":3724,"📊":3725,"📋":3726,"📍":3727,"📐":3728,"📕":3729,"📖":3730,"📚":3731,"📝":3732,"📱":3733,"📷":3734,"📸":3735,"📹":3736,"📺":3737,"🔊":3738,"🔍":3739,"🔑":3740,"🔚":3741,"🔜":3742,"🔝":3743,"🔥":3744,"🔨":3745,"🔪":3746,"🔫":3747,"🔮":3748,"🔴":3749,"🔵":3750,"🕉":3751,"🕊":3752,"🕙":3753,"🕷":3754,"🕸":3755,"🕺":3756,"🖀":3757,"🖌":3758,"🖒":3759,"🖕":3760,"🖖":3761,"🖤":3762,"🖼":3763,"🗽":3764,"🗿":3765,"😀":3766,"😁":3767,"😂":3768,"😃":3769,"😄":3770,"😅":3771,"😆":3772,"😇":3773,"😈":3774,"😉":3775,"😊":3776,"😋":3777,"😌":3778,"😍":3779,"😎":3780,"😏":3781,"😐":3782,"😑":3783,"😒":3784,"😓":3785,"😔":3786,"😕":3787,"😖":3788,"😗":3789,"😘":3790,"😛":3791,"😜":3792,"😝":3793,"😞":3794,"😟":3795,"😠":3796,"😡":3797,"😢":3798,"😣":3799,"😤":3800,"😥":3801,"😨":3802,"😩":3803,"😪":3804,"😫":3805,"😬":3806,"😭":3807,"😮":3808,"😯":3809,"😰":3810,"😱":3811,"😲":3812,"😳":3813,"😴":3814,"😵":3815,"😶":3816,"😷":3817,"😸":3818,"😹":3819,"😻":3820,"😿":3821,"🙁":3822,"🙂":3823,"🙃":3824,"🙄":3825,"🙅":3826,"🙆":3827,"🙈":3828,"🙉":3829,"🙊":3830,"🙋":3831,"🙌":3832,"🙎":3833,"🙏":3834,"🚀":3835,"🚄":3836,"🚆":3837,"🚇":3838,"🚋":3839,"🚌":3840,"🚗":3841,"🚘":3842,"🚛":3843,"🚢":3844,"🚨":3845,"🚪":3846,"🚫":3847,"🚬":3848,"🚲":3849,"🚴":3850,"🚵":3851,"🚶":3852,"🛀":3853,"🛋":3854,"🛫":3855,"🛰":3856,"🤑":3857,"🤓":3858,"🤔":3859,"🤖":3860,"🤗":3861,"🤘":3862,"🤝":3863,"🤞":3864,"🤢":3865,"🤣":3866,"🤥":3867,"🤦":3868,"🤯":3869,"🤰":3870,"🤵":3871,"🤷":3872,"🥀":3873,"🥁":3874,"🥂":3875,"🥊":3876,"🥦":3877,"🦁":3878,"🦃":3879,"🦄":3880,"🦈":3881,"🦋":3882,"🦔":3883,"🧕":3884,"𣀠":3885,"󳮠":3886,"󳮩":3887,"󴭥":3888,"󴴥":3889,"󶨬":3890,"󶲧":3891,"󶴥":3892,"󶴴":3893,"󺤥":3894,"󼤤":3895,"󼤥":3896,"󼥬":3897,"󼧥":3898,"󼫲":3899,"󼬫":3900,"󼬬":3901,"󼴳":3902,"󾀾":3903,"󾆯":3904,"󾇎":3905,"󾇒":3906,"󾌣":3907,"󾌧":3908,"󾌪":3909,"󾌫":3910,"󾌬":3911,"󾌯":3912,"󾌰":3913,"󾌱":3914,"󾌳":3915,"󾌴":3916,"󾌵":3917,"󾌸":3918,"󾌹":3919,"󾌺":3920,"󾌽":3921,"󾍀":3922,"󾍁":3923,"󾍂":3924,"󾍃":3925,"󾍅":3926,"󾍇":3927,"󾍐":3928,"󾍔":3929,"󾍕":3930,"󾍖":3931,"󾍛":3932,"󾓆":3933,"󾔐":3934,"󾔖":3935,"󾔗":3936,"󾔠":3937,"󾟗":3938,"󾟛":3939,"󾟞":3940,"󾟥":3941,"󾠁":3942,"󾠈":3943,"󾠣":3944,"󾦃":3945,"󾬍":3946,"󾬎":3947,"󾬓":3948,"󾬕":3949,"󾭘":3950,"󾭚":3951,"󾭞":3952,"󾭩":3953,"󾭻":3954,"󾮖":3955,"󾮗":3956,"󾮟":3957,"󾰀":3958,"󾰕":3959,"󾰮":3960,"󾰴":3961,"􀀂":3962,"􀀗":3963,"􀁑":3964,"􀂃":3965,"􀂄":3966,"􀂾":3967,"er":3968,"en":3969,"in":3970,"ch":3971,"an":3972,"th":3973,"st":3974,"on":3975,"ie":3976,"un":3977,"re":3978,"it":3979,"at":3980,"al":3981,"or":3982,"es":3983,"ar":3984,"the":3985,"as":3986,"is":3987,"ot":3988,"der":3989,"le":3990,"ge":3991,"ich":3992,"au":3993,"te":3994,"ing":3995,"de":3996,"qu":3997,"be":3998,"ein":3999,"and":4000,"quot":4001,"ur":4002,"to":4003,"se":4004,"den":4005,"of":4006,"il":4007,"die":4008,"am":4009,"om":4010,"he":4011,"und":4012,"ig":4013,"ion":4014,"ol":4015,"os":4016,"ed":4017,"im":4018,"ap":4019,"el":4020,"ent":4021,"sch":4022,"ut":4023,"ic":4024,"ter":4025,"ung":4026,"ver":4027,"hr":4028,"ro":4029,"ir":4030,"ist":4031,"ag":4032,"ber":4033,"ten":4034,"us":4035,"we":4036,"ach":4037,"apos":4038,"ne":4039,"ab":4040,"um":4041,"ad":4042,"for":4043,"ve":4044,"ac":4045,"ay":4046,"id":4047,"tr":4048,"ul":4049,"ier":4050,"ür":4051,"gen":4052,"all":4053,"zu":4054,"em":4055,"das":4056,"icht":4057,"auf":4058,"et":4059,"mit":4060,"ow":4061,"sp":4062,"wh":4063,"af":4064,"lich":4065,"ill":4066,"ation":4067,"aus":4068,"op":4069,"that":4070,"ke":4071,"wer":4072,"von":4073,"dem":4074,"ann":4075,"isch":4076,"was":4077,"The":4078,"so":4079,"ck":4080,"St":4081,"fr":4082,"ith":4083,"ts":4084,"00":4085,"Sch":4086,"sich":4087,"In":4088,"ly":4089,"des":4090,"ha":4091,"ers":4092,"eine":4093,"me":4094,"Die":4095,"ah":4096,"ce":4097,"ze":4098,"if":4099,"och":4100,"sen":4101,"An":4102,"war":4103,"für":4104,"pl":4105,"sa":4106,"co":4107,"con":4108,"with":4109,"up":4110,"are":4111,"iel":4112,"hat":4113,"res":4114,"ben":4115,"men":4116,"her":4117,"ht":4118,"ell":4119,"pr":4120,"nicht":4121,"ain":4122,"ger":4123,"com":4124,"ou":4125,"kt":4126,"als":4127,"ast":4128,"mo":4129,"oll":4130,"ien":4131,"ind":4132,"iv":4133,"est":4134,"said":4135,"ik":4136,"art":4137,"ther":4138,"ort":4139,"Au":4140,"lo":4141,"vor":4142,"man":4143,"auch":4144,"ahr":4145,"pro":4146,"Ver":4147,"ste":4148,"wo":4149,"mer":4150,"out":4151,"bei":4152,"Be":4153,"gr":4154,"pe":4155,"Re":4156,"ess":4157,"ct":4158,"str":4159,"by":4160,"ex":4161,"ern":4162,"wir":4163,"20":4164,"sh":4165,"ate":4166,"Un":4167,"ges":4168,"age":4169,"per":4170,"fe":4171,"br":4172,"än":4173,"his":4174,"si":4175,"uch":4176,"wie":4177,"our":4178,"ment":4179,"über":4180,"end":4181,"nach":4182,"wor":4183,"one":4184,"ear":4185,"nen":4186,"its":4187,"off":4188,"ll":4189,"has":4190,"uld":4191,"Fr":4192,"have":4193,"from":4194,"tz":4195,"ak":4196,"Er":4197,"ack":4198,"lie":4199,"sie":4200,"ant":4201,"hen":4202,"igen":4203,"ser":4204,"Ein":4205,"ted":4206,"ies":4207,"ug":4208,"Sp":4209,"sein":4210,"ner":4211,"will":4212,"ity":4213,"ub":4214,"ün":4215,"ungen":4216,"ive":4217,"Der":4218,"not":4219,"ischen":4220,"ok":4221,"lin":4222,"ang":4223,"dr":4224,"go":4225,"ank":4226,"ust":4227,"dass":4228,"Le":4229,"od":4230,"sten":4231,"ib":4232,"201":4233,"Ge":4234,"cl":4235,"ip":4236,"ma":4237,"iter":4238,"aben":4239,"werden":4240,"ome":4241,"schaf":4242,"We":4243,"ick":4244,"einen":4245,"day":4246,"Das":4247,"ial":4248,"year":4249,"hn":4250,"land":4251,"fer":4252,"ia":4253,"ight":4254,"who":4255,"Gr":4256,"ft":4257,"hl":4258,"fo":4259,"ue":4260,"ark":4261,"ige":4262,"hal":4263,"De":4264,"Pro":4265,"ans":4266,"enn":4267,"Br":4268,"sel":4269,"är":4270,"Tr":4271,"einer":4272,"He":4273,"unter":4274,"gel":4275,"noch":4276,"Mit":4277,"ard":4278,"led":4279,"Ar":4280,"einem":4281,"kom":4282,"red":4283,"Ne":4284,"gan":4285,"fen":4286,"do":4287,"Al":4288,"ice":4289,"ass":4290,"ön":4291,"had":4292,"but":4293,"sind":4294,"Se":4295,"ungs":4296,"ob":4297,"iert":4298,"ding":4299,"wur":4300,"En":4301,"Eur":4302,"cr":4303,"fin":4304,"chen":4305,"iz":4306,"wird":4307,"they":4308,"iden":4309,"po":4310,"uss":4311,"ite":4312,"gro":4313,"this":4314,"hin":4315,"act":4316,"min":4317,"zum":4318,"ih":4319,"bo":4320,"ian":4321,"Vor":4322,"sag":4323,"their":4324,"ück":4325,"haben":4326,"ions":4327,"ong":4328,"urch":4329,"av":4330,"ör":4331,"amp":4332,"ded":4333,"ister":4334,"been":4335,"stell":4336,"ise":4337,"were":4338,"19":4339,"fl":4340,"Jahr":4341,"ure":4342,"kl":4343,"ally":4344,"bis":4345,"ange":4346,"ander":4347,"ere":4348,"mehr":4349,"ät":4350,"tim":4351,"over":4352,"da":4353,"cent":4354,"aber":4355,"ähr":4356,"io":4357,"utsch":4358,"Pr":4359,"zur":4360,"own":4361,"agen":4362,"ahl":4363,"gegen":4364,"fü":4365,"more":4366,"It":4367,"inter":4368,"alle":4369,"zen":4370,"ute":4371,"ame":4372,"Sie":4373,"je":4374,"ire":4375,"Nach":4376,"ld":4377,"ile":4378,"att":4379,"Aus":4380,"esch":4381,"ische":4382,"pol":4383,"ble":4384,"ide":4385,"which":4386,"pt":4387,"iten":4388,"aw":4389,"you":4390,"200":4391,"soll":4392,"about":4393,"ins":4394,"etz":4395,"schaft":4396,"would":4397,"li":4398,"nur":4399,"iss":4400,"zwe":4401,"Te":4402,"Ab":4403,"sed":4404,"rem":4405,"ign":4406,"ine":4407,"after":4408,"ff":4409,"rei":4410,"ven":4411,"ler":4412,"mal":4413,"any":4414,"kön":4415,"atz":4416,"ated":4417,"no":4418,"comp":4419,"teil":4420,"part":4421,"ary":4422,"ace":4423,"can":4424,"old":4425,"elt":4426,"äch":4427,"ition":4428,"also":4429,"stand":4430,"oder":4431,"she":4432,"acht":4433,"kann":4434,"port":4435,"Pol":4436,"anz":4437,"pen":4438,"illion":4439,"fir":4440,"ta":4441,"Ze":4442,"ord":4443,"Mar":4444,"ßen":4445,"now":4446,"get":4447,"pre":4448,"Ber":4449,"ud":4450,"son":4451,"other":4452,"durch":4453,"bur":4454,"form":4455,"ihr":4456,"arr":4457,"new":4458,"Ch":4459,"000":4460,"tet":4461,"du":4462,"say":4463,"gt":4464,"vers":4465,"than":4466,"geb":4467,"alt":4468,"able":4469,"tel":4470,"pres":4471,"igh":4472,"iger":4473,"Kr":4474,"wurde":4475,"Auf":4476,"work":4477,"del":4478,"ieren":4479,"ek":4480,"lichen":4481,"hatte":4482,"mon":4483,"some":4484,"ra":4485,"ied":4486,"ople":4487,"fall":4488,"kr":4489,"tag":4490,"weiter":4491,"very":4492,"cre":4493,"kon":4494,"dis":4495,"Euro":4496,"Es":4497,"under":4498,"ho":4499,"ations":4500,"che":4501,"zent":4502,"reich":4503,"ster":4504,"gew":4505,"og":4506,"ater":4507,"vie":4508,"Im":4509,"bl":4510,"adt":4511,"ance":4512,"stag":4513,"Me":4514,"ton":4515,"ational":4516,"Wir":4517,"itt":4518,"ree":4519,"Pl":4520,"gh":4521,"kommen":4522,"Ste":4523,"when":4524,"aten":4525,"Land":4526,"So":4527,"pos":4528,"sei":4529,"Fl":4530,"dern":4531,"ibt":4532,"Mon":4533,"ings":4534,"ubl":4535,"people":4536,"cht":4537,"gest":4538,"ors":4539,"ert":4540,"üs":4541,"fol":4542,"..":4543,"Kon":4544,"los":4545,"fahr":4546,"imm":4547,"ild":4548,"ish":4549,"reg":4550,"bere":4551,"ident":4552,"zeit":4553,"liche":4554,"time":4555,"assen":4556,"wieder":4557,"ink":4558,"net":4559,"spe":4560,"Str":4561,"tre":4562,"ingen":4563,"play":4564,"bar":4565,"por":4566,"last":4567,"letz":4568,"gesch":4569,"US":4570,"10":4571,"ause":4572,"But":4573,"dar":4574,"way":4575,"two":4576,"Unter":4577,"führ":4578,"coun":4579,"ße":4580,"Th":4581,"there":4582,"schen":4583,"diese":4584,"ult":4585,"ph":4586,"back":4587,"uer":4588,"akt":4589,"inn":4590,"into":4591,"neh":4592,"Am":4593,"ath":4594,"olle":4595,"amm":4596,"schl":4597,"anc":4598,"spiel":4599,"fore":4600,"Zu":4601,"Mr":4602,"dam":4603,"first":4604,"habe":4605,"just":4606,"urn":4607,"tern":4608,"ase":4609,"ats":4610,"them":4611,"zw":4612,"immer":4613,"sche":4614,"Or":4615,"arbe":4616,"ates":4617,"amil":4618,"Fe":4619,"ens":4620,"Fre":4621,"air":4622,"ical":4623,"Min":4624,"lau":4625,"Uhr":4626,"gem":4627,"Deutsch":4628,"ty":4629,"Her":4630,"uck":4631,"äl":4632,"igt":4633,"15":4634,"sagte":4635,"30":4636,"New":4637,"ds":4638,"ely":4639,"ball":4640,"schon":4641,"could":4642,"Zeit":4643,"viel":4644,"him":4645,"par":4646,"ale":4647,"mus":4648,"ents":4649,"mann":4650,"leich":4651,"itz":4652,"publ":4653,"spr":4654,"Jah":4655,"ize":4656,"don":4657,"äu":4658,"hel":4659,"etzt":4660,"Ro":4661,"my":4662,"ction":4663,"ken":4664,"Jo":4665,"Spiel":4666,"ders":4667,"Men":4668,"sy":4669,"--":4670,"unden":4671,"what":4672,"here":4673,"bst":4674,"ore":4675,"vest":4676,"Prozent":4677,"most":4678,"bes":4679,"zwei":4680,"isten":4681,"ail":4682,"For":4683,"years":4684,"ade":4685,"vom":4686,"undes":4687,"Ges":4688,"eld":4689,"bet":4690,"Co":4691,"cor":4692,"And":4693,"nis":4694,"like":4695,"ful":4696,"Par":4697,"Reg":4698,"det":4699,"cur":4700,"ict":4701,"ierung":4702,"leg":4703,"gar":4704,"cal":4705,"ues":4706,"sl":4707,"reis":4708,"week":4709,"dann":4710,"erst":4711,"ugh":4712,"Bl":4713,"Um":4714,"such":4715,"thing":4716,"ote":4717,"Man":4718,"ory":4719,"Jahren":4720,"vern":4721,"ese":4722,"sup":4723,"tem":4724,"again":4725,"heit":4726,"bec":4727,"Kin":4728,"wen":4729,"gut":4730,"ash":4731,"Kl":4732,"try":4733,"tw":4734,"hol":4735,"beim":4736,"gibt":4737,"clu":4738,"ret":4739,"ious":4740,"mach":4741,"ual":4742,"rech":4743,"können":4744,"Ger":4745,"uc":4746,"sho":4747,"med":4748,"az":4749,"Dr":4750,"Bundes":4751,"hör":4752,"dent":4753,"18":4754,"Und":4755,"berg":4756,"aum":4757,"down":4758,"bel":4759,"seine":4760,"nah":4761,"Da":4762,"ks":4763,"50":4764,"sagt":4765,"glich":4766,"geben":4767,"come":4768,"Stadt":4769,"govern":4770,"wenn":4771,"fre":4772,"mö":4773,"ev":4774,"cess":4775,"ihre":4776,"polit":4777,"gl":4778,"Europ":4779,"müs":4780,"pa":4781,"keit":4782,"ierte":4783,"vis":4784,"ved":4785,"line":4786,"ress":4787,"ting":4788,"unde":4789,"erson":4790,"As":4791,"mark":4792,"Bo":4793,"Ich":4794,"nehmen":4795,"Mann":4796,"waren":4797,"setz":4798,"uns":4799,"where":4800,"star":4801,"vel":4802,"inclu":4803,"wa":4804,"app":4805,"offen":4806,"burg":4807,"cont":4808,"Auch":4809,"sol":4810,"worden":4811,"how":4812,"12":4813,"ci":4814,"utz":4815,"ember":4816,"thro":4817,"best":4818,"did":4819,"ough":4820,"cted":4821,"seit":4822,"hand":4823,"show":4824,"ged":4825,"Ma":4826,"use":4827,"hne":4828,"ose":4829,"mp":4830,"ating":4831,"Ex":4832,"Arbe":4833,"only":4834,"Son":4835,"woll":4836,"ahn":4837,"dies":4838,"rich":4839,"ef":4840,"ep":4841,"Ob":4842,"ital":4843,"uen":4844,"Gesch":4845,"gre":4846,"No":4847,"public":4848,"ium":4849,"Amer":4850,"Chr":4851,"nte":4852,"int":4853,"bu":4854,"gleich":4855,"cut":4856,"Menschen":4857,"ürger":4858,"deutsch":4859,"zwischen":4860,"atur":4861,"rel":4862,"ited":4863,"before":4864,"wür":4865,"offic":4866,"ump":4867,"gangen":4868,"ammen":4869,"weil":4870,"11":4871,"bre":4872,"amt":4873,"government":4874,"oss":4875,"ife":4876,"sit":4877,"ince":4878,"set":4879,"elle":4880,"klär":4881,"mar":4882,"ald":4883,"ters":4884,"äs":4885,"uf":4886,"Jahre":4887,"ities":4888,"aft":4889,"look":4890,"14":4891,"serv":4892,"drei":4893,"auen":4894,"seiner":4895,"month":4896,"keine":4897,"because":4898,"Pe":4899,"says":4900,"aut":4901,"Sy":4902,"halten":4903,"gend":4904,"invest":4905,"miss":4906,"All":4907,"many":4908,"side":4909,"ason":4910,"three":4911,"fest":4912,"16":4913,"Wer":4914,"Woch":4915,"ele":4916,"atch":4917,"Polize":4918,"being":4919,"unk":4920,"sur":4921,"eines":4922,"Inter":4923,"beg":4924,"ced":4925,"17":4926,"heim":4927,"ative":4928,"let":4929,"Mo":4930,"well":4931,"ief":4932,"cond":4933,"ama":4934,"sk":4935,"ähl":4936,"änd":4937,"uring":4938,"bt":4939,"geht":4940,"dec":4941,"aking":4942,"urs":4943,"lang":4944,"ous":4945,"told":4946,"Welt":4947,"wurden":4948,"auer":4949,"Kinder":4950,"orn":4951,"see":4952,"Com":4953,"while":4954,"ßer":4955,"Berlin":4956,"bus":4957,"put":4958,"muss":4959,"Americ":4960,"ison":4961,"alth":4962,"then":4963,"plan":4964,"les":4965,"Für":4966,"unt":4967,"eins":4968,"El":4969,"Wie":4970,"haus":4971,"kam":4972,"iff":4973,"oren":4974,"wr":4975,"nun":4976,"Über":4977,"13":4978,"cap":4979,"ys":4980,"mt":4981,"urt":4982,"aller":4983,"sehr":4984,"chn":4985,"aden":4986,"against":4987,"made":4988,"alk":4989,"gu":4990,"olog":4991,"through":4992,"iß":4993,"ott":4994,"ms":4995,"mun":4996,"bro":4997,"Wo":4998,"stem":4999,"wom":5000,"ersten":5001,"ased":5002,"usammen":5003,"Nor":5004,"dire":5005,"Deutschland":5006,"25":5007,"cy":5008,"head":5009,"bereits":5010,"view":5011,"stehen":5012,"Fahr":5013,"Bei":5014,"car":5015,"make":5016,"enz":5017,"inger":5018,"ouse":5019,"ower":5020,"million":5021,"minister":5022,"unkt":5023,"national":5024,"weg":5025,"ütz":5026,"Dem":5027,"ces":5028,"aße":5029,"eng":5030,"may":5031,"fte":5032,"Mus":5033,"read":5034,"ließ":5035,"oy":5036,"even":5037,"used":5038,"produ":5039,"Don":5040,"Bürger":5041,"Kom":5042,"di":5043,"ener":5044,"trag":5045,"zahl":5046,"ko":5047,"lea":5048,"jähr":5049,"famil":5050,"verb":5051,"contr":5052,"Was":5053,"lear":5054,"West":5055,"pp":5056,"Fin":5057,"kn":5058,"stellt":5059,"char":5060,"Gem":5061,"öff":5062,"Con":5063,"xt":5064,"think":5065,"ask":5066,"istr":5067,"öl":5068,"help":5069,"ende":5070,"vier":5071,"This":5072,"erin":5073,"world":5074,"zurück":5075,"andel":5076,"Million":5077,"ime":5078,"hed":5079,"mil":5080,"row":5081,"äd":5082,"uß":5083,"Ph":5084,"zie":5085,"Sta":5086,"selbst":5087,"iven":5088,"äsi":5089,"Polizei":5090,"Auto":5091,"kle":5092,"...":5093,"team":5094,"win":5095,"verl":5096,"home":5097,"going":5098,"oper":5099,"every":5100,"Chin":5101,"steht":5102,"schn":5103,"itik":5104,"law":5105,"oto":5106,"bank":5107,"meister":5108,"ru":5109,"kur":5110,"Christ":5111,"gef":5112,"less":5113,"your":5114,"sow":5115,"Gro":5116,"still":5117,"ence":5118,"Ko":5119,"besch":5120,"dieser":5121,"ives":5122,"Leben":5123,"nie":5124,"diesem":5125,"neue":5126,"kehr":5127,"ga":5128,"err":5129,"prov":5130,"those":5131,"ets":5132,"ww":5133,"Ju":5134,"At":5135,"repor":5136,"Bes":5137,"Kar":5138,"Frank":5139,"Schl":5140,"ement":5141,"aff":5142,"ivers":5143,"ound":5144,"know":5145,"four":5146,"rund":5147,"damit":5148,"right":5149,"vol":5150,"Mich":5151,"take":5152,"ics":5153,"Pres":5154,"rest":5155,"ran":5156,"stre":5157,"They":5158,"jetzt":5159,"halb":5160,"folg":5161,"ieden":5162,"much":5163,"arch":5164,"ork":5165,"ship":5166,"appe":5167,"sicher":5168,"should":5169,"ett":5170,"Sam":5171,"weise":5172,"Millionen":5173,"Med":5174,"ices":5175,"On":5176,"self":5177,"big":5178,"sign":5179,"dings":5180,"wegen":5181,"Austr":5182,"Sa":5183,"Ende":5184,"ainer":5185,"ift":5186,"gehen":5187,"ures":5188,"ists":5189,"Eine":5190,"ool":5191,"ichte":5192,"need":5193,"seinen":5194,"Bar":5195,"percent":5196,"Schul":5197,"kün":5198,"viele":5199,"erklär":5200,"She":5201,"ref":5202,"40":5203,"cial":5204,"sto":5205,"hö":5206,"iness":5207,"müssen":5208,"Ent":5209,"ai":5210,"group":5211,"since":5212,"SP":5213,"ames":5214,"illi":5215,"ene":5216,"ages":5217,"bed":5218,"hät":5219,"Aber":5220,"hier":5221,"conom":5222,"hatten":5223,"ätz":5224,"good":5225,"Bau":5226,"Mal":5227,"richt":5228,"long":5229,"got":5230,"aupt":5231,"Jan":5232,"sc":5233,"imp":5234,"opp":5235,"Af":5236,"ween":5237,"satz":5238,"lung":5239,"weit":5240,"aul":5241,"ieg":5242,"Haus":5243,"änger":5244,"ular":5245,"bin":5246,"Wh":5247,"äre":5248,"walt":5249,"ganz":5250,"asse":5251,"high":5252,"aim":5253,"gang":5254,"ager":5255,"neuen":5256,"prof":5257,"gy":5258,"cke":5259,"belie":5260,"issen":5261,"Che":5262,"ohne":5263,"ihren":5264,"spon":5265,"stat":5266,"ments":5267,"num":5268,"allen":5269,"ierten":5270,"Bay":5271,"sum":5272,"run":5273,"Car":5274,"seinem":5275,"ünf":5276,"ving":5277,"&#":5278,"sehen":5279,"Teil":5280,"änder":5281,"SV":5282,"ctor":5283,"fahren":5284,"state":5285,"machen":5286,"kommt":5287,"ule":5288,"Part":5289,"sowie":5290,"Stre":5291,"during":5292,"Doch":5293,"pf":5294,"eben":5295,"EU":5296,"Is":5297,"kauf":5298,"Akt":5299,"etwa":5300,"lar":5301,"schw":5302,"Jun":5303,"ris":5304,"book":5305,"entlich":5306,"clo":5307,"doch":5308,"vergangen":5309,"bil":5310,"äter":5311,"ilm":5312,"between":5313,"expe":5314,"There":5315,"bach":5316,"hard":5317,"gab":5318,"ix":5319,"country":5320,"itten":5321,"deut":5322,"letzt":5323,"Fuß":5324,"sm":5325,"around":5326,"Gl":5327,"real":5328,"found":5329,"llen":5330,"arm":5331,"ves":5332,"amer":5333,"ischer":5334,"anken":5335,"Gemein":5336,"orf":5337,"police":5338,"24":5339,"including":5340,"Brit":5341,"Jähr":5342,"formation":5343,"bau":5344,"voll":5345,"ält":5346,"Sen":5347,"vent":5348,"org":5349,"ihrer":5350,"test":5351,"ität":5352,"econom":5353,"company":5354,"ward":5355,"esen":5356,"care":5357,"dien":5358,"Grund":5359,"Sc":5360,"pay":5361,"organ":5362,"piel":5363,"seien":5364,"ional":5365,"rat":5366,"ney":5367,"igung":5368,"sha":5369,"press":5370,"fach":5371,"Jul":5372,"unser":5373,"ging":5374,"Obama":5375,"sub":5376,"eigen":5377,"innen":5378,"ared":5379,"Austral":5380,"anderen":5381,"ars":5382,"Sonn":5383,"ator":5384,"21":5385,"stellen":5386,"nor":5387,"ieb":5388,"stadt":5389,"top":5390,"ior":5391,"allem":5392,"iga":5393,"stu":5394,"2014":5395,"angen":5396,"100":5397,"forder":5398,"next":5399,"Rück":5400,"wehr":5401,"ific":5402,"dabei":5403,"halt":5404,"cts":5405,"lassen":5406,"fast":5407,"ommen":5408,"60":5409,"gaben":5410,"second":5411,"22":5412,"Qu":5413,"iele":5414,"Mc":5415,"äsident":5416,"person":5417,"sive":5418,"etwas":5419,"camp":5420,"lock":5421,"arbeit":5422,"enten":5423,"stit":5424,"betr":5425,"zial":5426,"Dien":5427,"schr":5428,"Team":5429,"glie":5430,"2013":5431,"life":5432,"oc":5433,"ollow":5434,"That":5435,"night":5436,"change":5437,"Ser":5438,"bie":5439,"Wahl":5440,"igte":5441,"wollen":5442,"Lu":5443,"York":5444,"la":5445,"bert":5446,"Hol":5447,"199":5448,"Mün":5449,"John":5450,"lex":5451,"brauch":5452,"season":5453,"these":5454,"falls":5455,"äft":5456,"want":5457,"ker":5458,"ael":5459,"won":5460,"vergangenen":5461,"Wochen":5462,"olf":5463,"attack":5464,"Hand":5465,"gener":5466,"prom":5467,"Platz":5468,"afür":5469,"turn":5470,"system":5471,"cording":5472,"add":5473,"äum":5474,"zehn":5475,"ja":5476,"contin":5477,"Sport":5478,"hig":5479,"ght":5480,"iving":5481,"grö":5482,"game":5483,"business":5484,"ina":5485,"uten":5486,"sport":5487,"werde":5488,"zeich":5489,"former":5490,"quest":5491,"Ur":5492,"lead":5493,"sondern":5494,"respon":5495,"einmal":5496,"sicht":5497,"open":5498,"23":5499,"Tor":5500,"Famil":5501,"wohl":5502,"Von":5503,"president":5504,"wicht":5505,"orgen":5506,"ständ":5507,"ider":5508,"Als":5509,"does":5510,"wan":5511,"fünf":5512,"beiden":5513,"near":5514,"mittel":5515,"Trump":5516,"call":5517,"dpa":5518,"statt":5519,"ody":5520,"sollen":5521,"nung":5522,"oten":5523,"Sh":5524,"schafts":5525,"too":5526,"Sonntag":5527,"ling":5528,"abil":5529,"üh":5530,"ago":5531,"National":5532,"ihn":5533,"If":5534,"Cl":5535,"eln":5536,"mission":5537,"ös":5538,"asch":5539,"exper":5540,"iffer":5541,"itag":5542,"inde":5543,"left":5544,"bekann":5545,"number":5546,"Go":5547,"Ober":5548,"Mark":5549,"grow":5550,"oun":5551,"progr":5552,"dren":5553,"place":5554,"els":5555,"ials":5556,"incre":5557,"Wor":5558,"fiel":5559,"find":5560,"cken":5561,"ustr":5562,"called":5563,"möglich":5564,"Landes":5565,"ont":5566,"hap":5567,"ised":5568,"Arbeit":5569,"Ho":5570,"follow":5571,"ament":5572,"sitzen":5573,"market":5574,"ildren":5575,"China":5576,"post":5577,"iere":5578,"fa":5579,"FC":5580,"lage":5581,"hof":5582,"jed":5583,"heute":5584,"another":5585,"ry":5586,"fort":5587,"iday":5588,"school":5589,"TV":5590,"ihm":5591,"Denn":5592,"nten":5593,"United":5594,"Europe":5595,"2015":5596,"mat":5597,"same":5598,"family":5599,"Dav":5600,"tak":5601,"You":5602,"ipp":5603,"alles":5604,"itter":5605,"richten":5606,"War":5607,"dro":5608,"zusammen":5609,"start":5610,"oney":5611,"ühr":5612,"ucht":5613,"Geld":5614,"ache":5615,"zer":5616,"Wenn":5617,"search":5618,"Den":5619,"Michael":5620,"far":5621,"Aug":5622,"gele":5623,"uppe":5624,"alen":5625,"ots":5626,"gehör":5627,"recent":5628,"poin":5629,"position":5630,"Lon":5631,"member":5632,"mid":5633,"Li":5634,"aining":5635,"dort":5636,"both":5637,"Kreis":5638,"Jugend":5639,"Nie":5640,"Lo":5641,"sw":5642,"versch":5643,"andid":5644,"pass":5645,"five":5646,"leben":5647,"üt":5648,"ährend":5649,"ution":5650,"lik":5651,"2012":5652,"esser":5653,"Rus":5654,"claim":5655,"icher":5656,"report":5657,"cover":5658,"enden":5659,"Minister":5660,"wel":5661,"amen":5662,"agt":5663,"iting":5664,"igkeit":5665,"ways":5666,"Mer":5667,"band":5668,"ights":5669,"gestellt":5670,"rent":5671,"London":5672,"näch":5673,"milit":5674,"äng":5675,"ague":5676,"beson":5677,"ren":5678,"kte":5679,"mir":5680,"Po":5681,"ury":5682,"tell":5683,"inen":5684,"ning":5685,"einz":5686,"lob":5687,"ained":5688,"andere":5689,"Je":5690,"27":5691,"ready":5692,"beh":5693,"zähl":5694,"Sou":5695,"recht":5696,"Bank":5697,"lauf":5698,"otz":5699,"80":5700,"Kir":5701,"children":5702,"Freitag":5703,"ually":5704,"fect":5705,"oung":5706,"rad":5707,"letzten":5708,"health":5709,"ales":5710,"thor":5711,"hop":5712,"Zwe":5713,"Fußball":5714,"power":5715,"Musik":5716,"hist":5717,"job":5718,"ism":5719,"schwer":5720,"Res":5721,"kein":5722,"proble":5723,"Bild":5724,"nes":5725,"na":5726,"velop":5727,"May":5728,"zug":5729,"inc":5730,"ampf":5731,"Eng":5732,"techn":5733,"Ham":5734,"feld":5735,"lagen":5736,"ull":5737,"cour":5738,"rele":5739,"vi":5740,"order":5741,"konnte":5742,"San":5743,"Sep":5744,"Samstag":5745,"kun":5746,"uell":5747,"sex":5748,"support":5749,"tschaft":5750,"tax":5751,"American":5752,"fä":5753,"mut":5754,"Unternehmen":5755,"ionen":5756,"ücht":5757,"ausge":5758,"vic":5759,"anst":5760,"deal":5761,"acc":5762,"cost":5763,"chte":5764,"könnte":5765,"CD":5766,"äf":5767,"Op":5768,"bs":5769,"fac":5770,"26":5771,"really":5772,"ati":5773,"aly":5774,"SPD":5775,"ured":5776,"To":5777,"uge":5778,"half":5779,"mitt":5780,"differ":5781,"schein":5782,"tember":5783,"Trainer":5784,"point":5785,"28":5786,"Tag":5787,"international":5788,"ived":5789,"ains":5790,"Hö":5791,"jor":5792,"ester":5793,"Parte":5794,"September":5795,"iet":5796,"frien":5797,"ird":5798,"days":5799,"allow":5800,"straße":5801,"hält":5802,"Ad":5803,"70":5804,"Vol":5805,"ision":5806,"Univers":5807,"dafür":5808,"ished":5809,"ons":5810,"Schw":5811,"Spr":5812,"Frau":5813,"ones":5814,"schließ":5815,"Dan":5816,"cher":5817,"nahme":5818,"months":5819,"alten":5820,"dazu":5821,"ilt":5822,"ness":5823,"expl":5824,"ake":5825,"Art":5826,"Pf":5827,"Bere":5828,"Regierung":5829,"zeug":5830,"gere":5831,"mel":5832,"isen":5833,"dür":5834,"return":5835,"away":5836,"Gegen":5837,"litt":5838,"lim":5839,"mak":5840,"Politik":5841,"abend":5842,"Apr":5843,"mich":5844,"move":5845,"uation":5846,"never":5847,"Wohn":5848,"ley":5849,"ush":5850,"women":5851,"six":5852,"fang":5853,"Kur":5854,"quar":5855,"lot":5856,"President":5857,"otest":5858,"Thom":5859,"met":5860,"Gre":5861,"aign":5862,"platz":5863,"unds":5864,"osp":5865,"Spe":5866,"priv":5867,"Feuer":5868,"finden":5869,"stud":5870,"Mitglie":5871,"fig":5872,"Kle":5873,"Des":5874,"April":5875,"macht":5876,"werk":5877,"fur":5878,"Mart":5879,"tra":5880,"case":5881,"stru":5882,"Groß":5883,"pop":5884,"Fest":5885,"Som":5886,"Mehr":5887,"qual":5888,"ired":5889,"ploy":5890,"mis":5891,"omin":5892,"imes":5893,"Fir":5894,"allerdings":5895,"zun":5896,"Saison":5897,"jo":5898,"atr":5899,"Bre":5900,"past":5901,"nichts":5902,"Syr":5903,"tober":5904,"Frauen":5905,"wick":5906,"93":5907,"ington":5908,"üd":5909,"val":5910,"oft":5911,"whe":5912,"curity":5913,"leicht":5914,"develop":5915,"ought":5916,"though":5917,"Jährige":5918,"might":5919,"Fall":5920,"anges":5921,"ihrem":5922,"2011":5923,"ffen":5924,"ispiel":5925,"lossen":5926,"Park":5927,"welt":5928,"führt":5929,"sia":5930,"took":5931,"sterreich":5932,"meet":5933,"stütz":5934,"using":5935,"Person":5936,"heits":5937,"chs":5938,"Montag":5939,"Betr":5940,"twoch":5941,"conc":5942,"according":5943,"erste":5944,"genommen":5945,"Proble":5946,"city":5947,"house":5948,"Zahl":5949,"großen":5950,"ike":5951,"2008":5952,"größ":5953,"jedoch":5954,"fehl":5955,"öt":5956,"isiert":5957,"came":5958,"essen":5959,"bit":5960,"imin":5961,"acr":5962,"ony":5963,"Chef":5964,"great":5965,"keep":5966,"Stand":5967,"clear":5968,"terr":5969,"schnell":5970,"ane":5971,"campaign":5972,"wever":5973,"loss":5974,"wäre":5975,"bring":5976,"offer":5977,"Sk":5978,"licher":5979,"main":5980,"Hil":5981,"ämp":5982,"mber":5983,"reported":5984,"frü":5985,"deutschen":5986,"nerstag":5987,"legen":5988,"money":5989,"Bayern":5990,"zo":5991,"immt":5992,"29":5993,"Gu":5994,"illed":5995,"45":5996,"hour":5997,"sible":5998,"Haupt":5999,"stellung":6000,"few":6001,"einfach":6002,"Nove":6003,"Schr":6004,"Mittel":6005,"later":6006,"Peter":6007,"Mittwoch":6008,"Sup":6009,"commun":6010,"November":6011,"fact":6012,"Besuch":6013,"major":6014,"added":6015,"Finanz":6016,"BC":6017,"scheid":6018,"uar":6019,"nahmen":6020,"ument":6021,"große":6022,"Dam":6023,"ily":6024,"2016":6025,"unch":6026,"investig":6027,"Friday":6028,"Heim":6029,"Gener":6030,"level":6031,"su":6032,"USA":6033,"Staats":6034,"ival":6035,"ände":6036,"klar":6037,"Flücht":6038,"weitere":6039,"bild":6040,"ocr":6041,"Donnerstag":6042,"enter":6043,"young":6044,"Ed":6045,"91":6046,"court":6047,"ikan":6048,"Dar":6049,"gewesen":6050,"Weg":6051,"industr":6052,"When":6053,"achsen":6054,"ject":6055,"cker":6056,"South":6057,"interest":6058,"würde":6059,"sollte":6060,"cer":6061,"rece":6062,"Andre":6063,"tro":6064,"Sicher":6065,"Mil":6066,"2009":6067,"itions":6068,"igten":6069,"Dienstag":6070,"David":6071,"sever":6072,"ying":6073,"bisher":6074,"zentr":6075,"west":6076,"wn":6077,"little":6078,"hum":6079,"bereit":6080,"announ":6081,"early":6082,"laut":6083,"ams":6084,"dre":6085,"jahr":6086,"vious":6087,"August":6088,"chsel":6089,"cord":6090,"Bü":6091,"kel":6092,"ately":6093,"davon":6094,"Not":6095,"Ben":6096,"ächst":6097,"arden":6098,"ultur":6099,"aged":6100,"thers":6101,"istan":6102,"setzen":6103,"ards":6104,"achen":6105,"nal":6106,"Wed":6107,"entr":6108,"Lie":6109,"appro":6110,"Monday":6111,"Tues":6112,"coming":6113,"gemacht":6114,"Mot":6115,"liegen":6116,"ideo":6117,"sieht":6118,"cast":6119,"Sto":6120,"Dis":6121,"wert":6122,"Straße":6123,"room":6124,"ands":6125,"35":6126,"Tuesday":6127,"death":6128,"Zeitung":6129,"likely":6130,"billion":6131,"better":6132,"ending":6133,"hinter":6134,"ians":6135,"gie":6136,"seem":6137,"zeigt":6138,"lange":6139,"foot":6140,"sogar":6141,"stark":6142,"Hel":6143,"went":6144,"officials":6145,"derzeit":6146,"grün":6147,"Verein":6148,"spl":6149,"club":6150,"Rad":6151,"uz":6152,"vot":6153,"final":6154,"nam":6155,"denn":6156,"aring":6157,"läs":6158,"hätten":6159,"sta":6160,"without":6161,"rael":6162,"iti":6163,"author":6164,"colle":6165,"Angel":6166,"www":6167,"party":6168,"Punk":6169,"happen":6170,"grap":6171,"inner":6172,"später":6173,"trans":6174,"ically":6175,"alter":6176,"fallen":6177,"sider":6178,"Rich":6179,"reichen":6180,"grund":6181,"Sel":6182,"Jahres":6183,"liegt":6184,"CDU":6185,"financ":6186,"pot":6187,"Sund":6188,"keiten":6189,"expected":6190,"darauf":6191,"2010":6192,"mein":6193,"groß":6194,"Cal":6195,"One":6196,"UK":6197,"spok":6198,"ience":6199,"dieses":6200,"House":6201,"Best":6202,"anger":6203,"trad":6204,"Internet":6205,"Rom":6206,"heiß":6207,"atten":6208,"jekt":6209,"something":6210,"gesamt":6211,"ationen":6212,"Präsident":6213,"face":6214,"woman":6215,"suc":6216,"based":6217,"zwar":6218,"II":6219,"Wednes":6220,"Thurs":6221,"close":6222,"ides":6223,"seen":6224,"Republic":6225,"Har":6226,"polic":6227,"Woche":6228,"Wednesday":6229,"besser":6230,"vir":6231,"punkt":6232,"afen":6233,"Thursday":6234,"erwar":6235,"oment":6236,"kunft":6237,"didn":6238,"ande":6239,"Bahn":6240,"ham":6241,"body":6242,"ertain":6243,"adv":6244,"500":6245,"feel":6246,"ziel":6247,"Hoch":6248,"Arbeits":6249,"alb":6250,"sug":6251,"ieben":6252,"Sunday":6253,"already":6254,"Diese":6255,"gebnis":6256,"sus":6257,"Bürgermeister":6258,"hren":6259,"uary":6260,"abe":6261,"spre":6262,"Wash":6263,"handel":6264,"Schwe":6265,"whether":6266,"Neu":6267,"ecut":6268,"Thomas":6269,"Just":6270,"Milli":6271,"IS":6272,"until":6273,"partic":6274,"ums":6275,"each":6276,"Wasser":6277,"gemeins":6278,"arbeiten":6279,"gegeben":6280,"bab":6281,"hoch":6282,"deutsche":6283,"har":6284,"nehmer":6285,"import":6286,"Mü":6287,"kreis":6288,"Stu":6289,"political":6290,"Einsatz":6291,"örder":6292,"nat":6293,"ichtet":6294,"len":6295,"key":6296,"Dort":6297,"City":6298,"least":6299,"iges":6300,"schlag":6301,"Char":6302,"sing":6303,"current":6304,"inj":6305,"making":6306,"trä":6307,"Kre":6308,"äfts":6309,"schaften":6310,"Sieg":6311,"Washington":6312,"gn":6313,"90":6314,"cept":6315,"zweiten":6316,"bor":6317,"stens":6318,"Sal":6319,"deutlich":6320,"Pal":6321,"Prof":6322,"dessen":6323,"dorf":6324,"arbeiter":6325,"employ":6326,"ext":6327,"gramm":6328,"action":6329,"leader":6330,"ising":6331,"bahn":6332,"tail":6333,"agement":6334,"research":6335,"eur":6336,"Ind":6337,"jährige":6338,"third":6339,"news":6340,"front":6341,"eing":6342,"zt":6343,"Zusammen":6344,"bringen":6345,"ned":6346,"wenig":6347,"sechs":6348,"Mö":6349,"denen":6350,"Cr":6351,"ued":6352,"ases":6353,"ollar":6354,"utes":6355,"ever":6356,"Bis":6357,"hit":6358,"Per":6359,"North":6360,"gebr":6361,"What":6362,"pas":6363,"31":6364,"Zum":6365,"stein":6366,"things":6367,"Schü":6368,"tion":6369,"Lin":6370,"tritt":6371,"gerade":6372,"musste":6373,"fire":6374,"wär":6375,"Nieder":6376,"list":6377,"sour":6378,"Grün":6379,"Durch":6380,"Aben":6381,"idence":6382,"mand":6383,"kurz":6384,"liga":6385,"ichten":6386,"Män":6387,"iben":6388,"across":6389,"Febr":6390,"mals":6391,"World":6392,"film":6393,"working":6394,"schluss":6395,"free":6396,"Markt":6397,"que":6398,"today":6399,"thre":6400,"ax":6401,"quarter":6402,"ized":6403,"water":6404,"München":6405,"sell":6406,"eh":6407,"präch":6408,"plac":6409,"invol":6410,"Ort":6411,"Gemeinde":6412,"ürlich":6413,"itel":6414,"würden":6415,"nee":6416,"England":6417,"Phil":6418,"compan":6419,"British":6420,"ehen":6421,"wort":6422,"hold":6423,"stieg":6424,"apan":6425,"IN":6426,"iver":6427,"ient":6428,"defen":6429,"Wolf":6430,"utt":6431,"Air":6432,"soci":6433,"lier":6434,"Hin":6435,"Isl":6436,"agre":6437,"record":6438,"atic":6439,"ournal":6440,"Fo":6441,"Can":6442,"tar":6443,"Mär":6444,"irl":6445,"statement":6446,"ata":6447,"Stad":6448,"ugen":6449,"Dabei":6450,"einander":6451,"League":6452,"opf":6453,"Seit":6454,"ctions":6455,"Bur":6456,"ika":6457,"among":6458,"immen":6459,"road":6460,"ford":6461,"Israel":6462,"Ke":6463,"Ziel":6464,"wind":6465,"ätze":6466,"Coun":6467,"cle":6468,"burger":6469,"fut":6470,"heißt":6471,"information":6472,"low":6473,"diesen":6474,"wirk":6475,"taken":6476,"schule":6477,"Brand":6478,"tun":6479,"With":6480,"ckt":6481,"stär":6482,"Ir":6483,"Alex":6484,"Führ":6485,"Besch":6486,"ica":6487,"carr":6488,"Gä":6489,"different":6490,"Martin":6491,"local":6492,"Tour":6493,"consider":6494,"recher":6495,"orge":6496,"concern":6497,"comes":6498,"sprechen":6499,"Cor":6500,"ias":6501,"security":6502,"Satur":6503,"Foto":6504,"gas":6505,"frei":6506,"crit":6507,"Frage":6508,"ators":6509,"gemein":6510,"Bel":6511,"eig":6512,"Invest":6513,"unge":6514,"points":6515,"Gast":6516,"military":6517,"uppen":6518,"Sm":6519,"ER":6520,"findet":6521,"full":6522,"ließen":6523,"bewer":6524,"Milliarden":6525,"Saturday":6526,"fund":6527,"ology":6528,"ants":6529,"must":6530,"Kil":6531,"execut":6532,"tete":6533,"saying":6534,"Minuten":6535,"plant":6536,"ability":6537,"times":6538,"wollte":6539,"spokes":6540,"become":6541,"park":6542,"dest":6543,"tot":6544,"event":6545,"wissen":6546,"Tele":6547,"commit":6548,"sent":6549,"ON":6550,"gabe":6551,"cret":6552,"ka":6553,"ehe":6554,"App":6555,"ines":6556,"always":6557,"hätte":6558,"erne":6559,"deral":6560,"having":6561,"ond":6562,"cho":6563,"bad":6564,"Ha":6565,"chief":6566,"Mannschaft":6567,"winn":6568,"Geschäfts":6569,"schutz":6570,"success":6571,"saf":6572,"folge":6573,"short":6574,"hy":6575,"Verkehr":6576,"Vers":6577,"lungen":6578,"Fol":6579,"Angaben":6580,"give":6581,"control":6582,"suggest":6583,"States":6584,"break":6585,"Vorsitzen":6586,"Red":6587,"teilte":6588,"markt":6589,"large":6590,"zogen":6591,"Ener":6592,"mot":6593,"known":6594,"fern":6595,"strong":6596,"Thema":6597,"media":6598,"Australia":6599,"van":6600,"mag":6601,"schuss":6602,"ichen":6603,"treten":6604,"während":6605,"present":6606,"talk":6607,"ennt":6608,"Dies":6609,"spielen":6610,"Gar":6611,"Islam":6612,"Ru":6613,"members":6614,"AP":6615,"Gen":6616,"verein":6617,"cus":6618,"risk":6619,"blo":6620,"redit":6621,"posed":6622,"Democr":6623,"asked":6624,"fert":6625,"anstalt":6626,"online":6627,"News":6628,"match":6629,"üssel":6630,"sage":6631,"eigenen":6632,"legal":6633,"einge":6634,"Sommer":6635,"ified":6636,"lymp":6637,"field":6638,"stor":6639,"erklärte":6640,"Bet":6641,"certain":6642,"Lebens":6643,"iers":6644,"bew":6645,"deren":6646,"vielen":6647,"Olymp":6648,"bill":6649,"igin":6650,"along":6651,"ministr":6652,"Erfolg":6653,"erklärt":6654,"ändern":6655,"Geb":6656,"aur":6657,"Bad":6658,"given":6659,"weniger":6660,"tens":6661,"bekannt":6662,"acy":6663,"bleiben":6664,"dau":6665,"reach":6666,"Tage":6667,"several":6668,"posit":6669,"players":6670,"My":6671,"mb":6672,"kämp":6673,"teid":6674,"watch":6675,"tragen":6676,"aktion":6677,"äß":6678,"lobal":6679,"Terr":6680,"ativ":6681,"Bil":6682,"Paul":6683,"After":6684,"share":6685,"Nachrichten":6686,"ismus":6687,"schle":6688,"partment":6689,"viol":6690,"onnen":6691,"Face":6692,"itte":6693,"tries":6694,"dete":6695,"schied":6696,"abr":6697,"fühl":6698,"Afr":6699,"sco":6700,"flo":6701,"beton":6702,"Richt":6703,"Wil":6704,"fight":6705,"Entscheid":6706,"ichts":6707,"Grü":6708,"ban":6709,"Ren":6710,"looking":6711,"His":6712,"führer":6713,"zern":6714,"enough":6715,"bleibt":6716,"wards":6717,"einige":6718,"buil":6719,"onstr":6720,"def":6721,"phone":6722,"class":6723,"University":6724,"State":6725,"Iran":6726,"taking":6727,"achten":6728,"decision":6729,"important":6730,"Union":6731,"companies":6732,"frage":6733,"beginn":6734,"killed":6735,"Star":6736,"ible":6737,"2017":6738,"financial":6739,"gebracht":6740,"Druck":6741,"lost":6742,"Buch":6743,"ivil":6744,"program":6745,"Intern":6746,"tal":6747,"mittag":6748,"entwick":6749,"Tür":6750,"Ok":6751,"ihnen":6752,"ellschaft":6753,"Europa":6754,"vo":6755,"Film":6756,"Wien":6757,"town":6758,"ieß":6759,"Ergebnis":6760,"furt":6761,"osen":6762,"gute":6763,"wichtig":6764,"ßerdem":6765,"Spit":6766,"aßen":6767,"Japan":6768,"Feuerwehr":6769,"Col":6770,"Do":6771,"utter":6772,"Tre":6773,"small":6774,"Kap":6775,"area":6776,"nete":6777,"future":6778,"SC":6779,"Lab":6780,"ebenfalls":6781,"Österreich":6782,"cust":6783,"lässt":6784,"Tur":6785,"llt":6786,"Dass":6787,"fu":6788,"Eltern":6789,"held":6790,"tele":6791,"Facebook":6792,"Dann":6793,"Anfang":6794,"33":6795,"live":6796,"spar":6797,"nächsten":6798,"activ":6799,"Publ":6800,"wechsel":6801,"leiter":6802,"Produ":6803,"European":6804,"anderem":6805,"stop":6806,"künd":6807,"standen":6808,"denten":6809,"hung":6810,"possible":6811,"Kun":6812,"gekommen":6813,"äm":6814,"mas":6815,"gent":6816,"leit":6817,"keinen":6818,"darf":6819,"Beispiel":6820,"thought":6821,"Schüler":6822,"bat":6823,"kind":6824,"198":6825,"aine":6826,"ünst":6827,"läu":6828,"esse":6829,"Deutschen":6830,"yer":6831,"ziehen":6832,"bas":6833,"Last":6834,"Meter":6835,"ghan":6836,"wahl":6837,"sof":6838,"schre":6839,"genann":6840,"weiß":6841,"fan":6842,"zunächst":6843,"tom":6844,"aun":6845,"Vier":6846,"protest":6847,"Cup":6848,"ifen":6849,"Mitarbeiter":6850,"tee":6851,"äsent":6852,"Fern":6853,"ospital":6854,"Bern":6855,"iker":6856,"died":6857,"AN":6858,"emer":6859,"Juni":6860,"erfolg":6861,"Off":6862,"lern":6863,"trotz":6864,"Ms":6865,"once":6866,"ller":6867,"Ac":6868,"Plan":6869,"Christian":6870,"Du":6871,"tschafts":6872,"weeks":6873,"Sol":6874,"election":6875,"count":6876,"spieler":6877,"Mag":6878,"late":6879,"round":6880,"director":6881,"uren":6882,"Spieler":6883,"hom":6884,"cil":6885,"uth":6886,"Stunden":6887,"Gel":6888,"Alle":6889,"dou":6890,"fun":6891,"fell":6892,"drug":6893,"Erst":6894,"hor":6895,"ude":6896,"scheiden":6897,"pite":6898,"antwort":6899,"lat":6900,"Di":6901,"ächt":6902,"lag":6903,"March":6904,"vision":6905,"friend":6906,"otel":6907,"ground":6908,"behind":6909,"itä":6910,"ico":6911,"neben":6912,"reiben":6913,"fon":6914,"bekommen":6915,"vice":6916,"scht":6917,"ults":6918,"iner":6919,"orts":6920,"könne":6921,"Nord":6922,"aver":6923,"why":6924,"wood":6925,"alte":6926,"seven":6927,"haupt":6928,"Innen":6929,"jud":6930,"anders":6931,"dienst":6932,"äfte":6933,"prote":6934,"aper":6935,"food":6936,"Entw":6937,"Köl":6938,"International":6939,"hnt":6940,"2007":6941,"Mai":6942,"Willi":6943,"Mat":6944,"fand":6945,"compl":6946,"service":6947,"Gespräch":6948,"Schwar":6949,"rate":6950,"geh":6951,"jeden":6952,"Ele":6953,"nation":6954,"requ":6955,"druck":6956,"teilt":6957,"kten":6958,"gether":6959,"34":6960,"neu":6961,"zess":6962,"board":6963,"comple":6964,"sagen":6965,"child":6966,"Beg":6967,"thern":6968,"America":6969,"äus":6970,"conf":6971,"rup":6972,"economic":6973,"yet":6974,"doing":6975,"75":6976,"previous":6977,"often":6978,"Preis":6979,"tp":6980,"Dre":6981,"mother":6982,"stock":6983,"trying":6984,"äger":6985,"ader":6986,"trav":6987,"linge":6988,"wide":6989,"Familie":6990,"Paris":6991,"girl":6992,"Höhe":6993,"process":6994,"ential":6995,"hre":6996,"ulation":6997,"deli":6998,"Mel":6999,"lon":7000,"36":7001,"reason":7002,"hner":7003,"shot":7004,"immung":7005,"eas":7006,"stelle":7007,"Clin":7008,"Os":7009,"AS":7010,"aster":7011,"sian":7012,"Gäste":7013,"spec":7014,"proper":7015,"knapp":7016,"Oktober":7017,"design":7018,"berger":7019,"General":7020,"sold":7021,"Information":7022,"hours":7023,"ances":7024,"ellen":7025,"almost":7026,"achte":7027,"done":7028,"col":7029,"following":7030,"question":7031,"Tw":7032,"arrest":7033,"human":7034,"ference":7035,"ona":7036,"further":7037,"gefähr":7038,"played":7039,"ille":7040,"kill":7041,"ids":7042,"Männer":7043,"believe":7044,"Exper":7045,"gilt":7046,"genau":7047,"dig":7048,"series":7049,"ktion":7050,"Region":7051,"künft":7052,"Damit":7053,"oil":7054,"economy":7055,"Police":7056,"term":7057,"firm":7058,"lines":7059,"Winter":7060,"ither":7061,"http":7062,"office":7063,"social":7064,"Selbst":7065,"Titel":7066,"descr":7067,"dah":7068,"imal":7069,"könnten":7070,"SG":7071,"kaum":7072,"wirtschaft":7073,"Prem":7074,"Leist":7075,"sim":7076,"pan":7077,"Entwick":7078,"cel":7079,"isation":7080,"Hier":7081,"Medien":7082,"Mor":7083,"together":7084,"Projekt":7085,"Start":7086,"Süd":7087,"pers":7088,"ey":7089,"fully":7090,"gesetzt":7091,"coach":7092,"Presse":7093,"hiel":7094,"countries":7095,"getting":7096,"inst":7097,"hnen":7098,"Ital":7099,"zept":7100,"infl":7101,"policy":7102,"Abend":7103,"forman":7104,"geber":7105,"32":7106,"Some":7107,"Programm":7108,"verkauf":7109,"ov":7110,"prü":7111,"affen":7112,"fel":7113,"dere":7114,"issue":7115,"By":7116,"compet":7117,"Ball":7118,"fordert":7119,"kommenden":7120,"ught":7121,"ktor":7122,"Bus":7123,"führen":7124,"pack":7125,"moment":7126,"kosten":7127,"cons":7128,"industry":7129,"profess":7130,"feat":7131,"graph":7132,"AR":7133,"games":7134,"earlier":7135,"announced":7136,"Straßen":7137,"Kultur":7138,"zählt":7139,"stellte":7140,"Organ":7141,"Seite":7142,"anten":7143,"bot":7144,"geschlossen":7145,"ehemal":7146,"stead":7147,"equ":7148,"study":7149,"visit":7150,"Bor":7151,"gebe":7152,"tour":7153,"besonders":7154,"Mos":7155,"chten":7156,"Nicht":7157,"Cour":7158,"itch":7159,"ateg":7160,"affe":7161,"stay":7162,"finanz":7163,"Punkte":7164,"effect":7165,"irk":7166,"Sozial":7167,"forward":7168,"Afghan":7169,"schließlich":7170,"bul":7171,"private":7172,"SU":7173,"Techn":7174,"growth":7175,"Kranken":7176,"plans":7177,"Wel":7178,"lö":7179,"Möglich":7180,"lands":7181,"konnten":7182,"Dollar":7183,"White":7184,"zuletzt":7185,"Pre":7186,"März":7187,"emp":7188,"entsch":7189,"role":7190,"orning":7191,"Kön":7192,"others":7193,"natürlich":7194,"dead":7195,"Tod":7196,"itr":7197,"due":7198,"Zukunft":7199,"ivid":7200,"walk":7201,"kre":7202,"June":7203,"dents":7204,"schau":7205,"icult":7206,"outside":7207,"name":7208,"treat":7209,"schlä":7210,"maß":7211,"draw":7212,"präsent":7213,"38":7214,"Instit":7215,"benef":7216,"ena":7217,"Britain":7218,"official":7219,"light":7220,"Sil":7221,"services":7222,"coup":7223,"berichte":7224,"raum":7225,"staff":7226,"Dec":7227,"started":7228,"host":7229,"folgen":7230,"mean":7231,"Nacht":7232,"uchs":7233,"course":7234,"Mitglieder":7235,"gesehen":7236,"rul":7237,"hein":7238,"capital":7239,"Stein":7240,"Pap":7241,"problem":7242,"sieben":7243,"Angeb":7244,"Juli":7245,"within":7246,"acher":7247,"ench":7248,"Bunde":7249,"However":7250,"zahlen":7251,"story":7252,"vict":7253,"setzt":7254,"heraus":7255,"griff":7256,"Scott":7257,"Reut":7258,"Familien":7259,"custom":7260,"Nur":7261,"aufge":7262,"Kosten":7263,"AT":7264,"zel":7265,"gehört":7266,"launch":7267,"fil":7268,"Geschichte":7269,"Now":7270,"ps":7271,"iled":7272,"Gruppe":7273,"result":7274,"Blick":7275,"isl":7276,"verletzt":7277,"krit":7278,"non":7279,"vote":7280,"terror":7281,"wagen":7282,"55":7283,"special":7284,"UN":7285,"spect":7286,"doesn":7287,"wanted":7288,"tran":7289,"dle":7290,"Ira":7291,"ather":7292,"isse":7293,"black":7294,"sollten":7295,"Viel":7296,"Kunst":7297,"cau":7298,"minutes":7299,"Tom":7300,"Clinton":7301,"Mad":7302,"executive":7303,"rid":7304,"füg":7305,"itor":7306,"jeder":7307,"ops":7308,"expect":7309,"auto":7310,"legt":7311,"insgesamt":7312,"iod":7313,"Flug":7314,"ston":7315,"scher":7316,"Bed":7317,"itional":7318,"Champ":7319,"Bro":7320,"video":7321,"Iraq":7322,"data":7323,"While":7324,"join":7325,"wahr":7326,"asing":7327,"wend":7328,"oph":7329,"spro":7330,"öffent":7331,"pict":7332,"Wirtschafts":7333,"kir":7334,"hope":7335,"weis":7336,"glau":7337,"Zug":7338,"ino":7339,"Kat":7340,"pati":7341,"absol":7342,"tt":7343,"ida":7344,"Schule":7345,"Außen":7346,"histor":7347,"edi":7348,"Lö":7349,"Fach":7350,"ierungs":7351,"Post":7352,"37":7353,"lieb":7354,"particular":7355,"Sit":7356,"teilung":7357,"meas":7358,"global":7359,"impro":7360,"alition":7361,"rown":7362,"ücke":7363,"diff":7364,"kamen":7365,"Merkel":7366,"sales":7367,"uchen":7368,"lose":7369,"Test":7370,"Entscheidung":7371,"interview":7372,"Kopf":7373,"block":7374,"Frei":7375,"WM":7376,"East":7377,"father":7378,"Australian":7379,"reicht":7380,"arbeitet":7381,"zus":7382,"nimmt":7383,"saw":7384,"Beruf":7385,"zeigen":7386,"spricht":7387,"44":7388,"agegen":7389,"wart":7390,"jährigen":7391,"Gold":7392,"ften":7393,"Besucher":7394,"han":7395,"Tat":7396,"deshalb":7397,"fas":7398,"bour":7399,"mittler":7400,"ifor":7401,"sure":7402,"gegenüber":7403,"sequ":7404,"passen":7405,"Scot":7406,"continue":7407,"force":7408,"began":7409,"Stutt":7410,"mes":7411,"price":7412,"attr":7413,"federal":7414,"damals":7415,"love":7416,"nt":7417,"reiche":7418,"Kore":7419,"DP":7420,"gress":7421,"Lehr":7422,"Berg":7423,"meeting":7424,"James":7425,"geworden":7426,"whose":7427,"super":7428,"refer":7429,"üb":7430,"serious":7431,"released":7432,"jün":7433,"Kn":7434,"reco":7435,"ailed":7436,"Stud":7437,"enzen":7438,"llig":7439,"ilar":7440,"Los":7441,"Unfall":7442,"300":7443,"Russ":7444,"Rob":7445,"Beim":7446,"inform":7447,"erhalten":7448,"history":7449,"kar":7450,"bom":7451,"führung":7452,"gin":7453,"consum":7454,"Flor":7455,"profit":7456,"weiteren":7457,"Partei":7458,"Richtung":7459,"Volks":7460,"Kommun":7461,"var":7462,"Berliner":7463,"leist":7464,"Zw":7465,"Neben":7466,"Hinter":7467,"früher":7468,"Turn":7469,"komp":7470,"Twitter":7471,"appear":7472,"Super":7473,"attem":7474,"mehrere":7475,"48":7476,"abge":7477,"gericht":7478,"seek":7479,"period":7480,"ades":7481,"müsse":7482,"ücken":7483,"termin":7484,"pick":7485,"building":7486,"gefunden":7487,"yn":7488,"letzte":7489,"iforn":7490,"Steuer":7491,"Kritik":7492,"deb":7493,"Span":7494,"Veranstalt":7495,"isches":7496,"ada":7497,"Tages":7498,"prison":7499,"san":7500,"Jack":7501,"ersch":7502,"ikel":7503,"ple":7504,"challen":7505,"sor":7506,"EL":7507,"Franz":7508,"zuvor":7509,"bestät":7510,"Fans":7511,"Ide":7512,"Mur":7513,"ski":7514,"örper":7515,"Real":7516,"schef":7517,"Street":7518,"uk":7519,"tain":7520,"Luft":7521,"goal":7522,"Miss":7523,"reve":7524,"paar":7525,"ners":7526,"Bereich":7527,"igr":7528,"secut":7529,"div":7530,"Hann":7531,"wand":7532,"Schau":7533,"difficult":7534,"Qual":7535,"glichen":7536,"Will":7537,"Sim":7538,"born":7539,"Meister":7540,"Jose":7541,"cell":7542,"mäß":7543,"himself":7544,"Halb":7545,"Cap":7546,"verschieden":7547,"Russia":7548,"eight":7549,"stet":7550,"Karl":7551,"morning":7552,"65":7553,"wohner":7554,"spokesman":7555,"ünd":7556,"gers":7557,"performan":7558,"Court":7559,"cris":7560,"useum":7561,"fahrer":7562,"Jetzt":7563,"berichtet":7564,"Schn":7565,"nearly":7566,"wrote":7567,"Ins":7568,"exp":7569,"ongress":7570,"gruppe":7571,"Tagen":7572,"Hor":7573,"hausen":7574,"Vorstand":7575,"älle":7576,"simp":7577,"sozial":7578,"worth":7579,"quick":7580,"community":7581,"ometer":7582,"region":7583,"Wett":7584,"playing":7585,"wife":7586,"Mein":7587,"administr":7588,"Hill":7589,"anzler":7590,"pain":7591,"bare":7592,"Bez":7593,"ention":7594,"spir":7595,"La":7596,"kleinen":7597,"fahrt":7598,"eigentlich":7599,"Staat":7600,"sych":7601,"zudem":7602,"manager":7603,"BI":7604,"ahead":7605,"Kolle":7606,"Kampf":7607,"poll":7608,"candid":7609,"ihnach":7610,"eher":7611,"ikum":7612,"dist":7613,"Net":7614,"Bill":7615,"leading":7616,"sprach":7617,"grü":7618,"ül":7619,"som":7620,"kampf":7621,"ctr":7622,"anti":7623,"lebr":7624,"How":7625,"Daniel":7626,"July":7627,"portun":7628,"increase":7629,"Dez":7630,"kennt":7631,"Wind":7632,"kennen":7633,"shows":7634,"signific":7635,"lei":7636,"udget":7637,"rather":7638,"Deutsche":7639,"Weiter":7640,"ürz":7641,"Times":7642,"cretary":7643,"lig":7644,"39":7645,"uffer":7646,"iety":7647,"cause":7648,"wiesen":7649,"Lauf":7650,"selves":7651,"avail":7652,"46":7653,"station":7654,"inge":7655,"ahmen":7656,"Mutter":7657,"chester":7658,"zeitig":7659,"gets":7660,"Natur":7661,"Met":7662,"marr":7663,"Port":7664,"tegr":7665,"yle":7666,"----":7667,"French":7668,"itzer":7669,"Netz":7670,"photo":7671,"reports":7672,"AC":7673,"Tref":7674,"individ":7675,"scr":7676,"herr":7677,"bir":7678,"makes":7679,"abl":7680,"ana":7681,"Aller":7682,"uter":7683,"suppor":7684,"blick":7685,"prices":7686,"victim":7687,"Nat":7688,"Führung":7689,"Department":7690,"total":7691,"foreign":7692,"personal":7693,"France":7694,"entscheiden":7695,"iminal":7696,"unktion":7697,"hospital":7698,"Scotland":7699,"track":7700,"brit":7701,"sea":7702,"Wald":7703,"ossen":7704,"Dezember":7705,"rights":7706,"gency":7707,"Wirtschaft":7708,"music":7709,"leaders":7710,"Wall":7711,"anwalt":7712,"darüber":7713,"verkehr":7714,"Regel":7715,"buy":7716,"Kü":7717,"Lau":7718,"understand":7719,"neues":7720,"Robert":7721,"Energie":7722,"pens":7723,"Sw":7724,"länger":7725,"gelegt":7726,"Pak":7727,"tit":7728,"Zwei":7729,"Betrieb":7730,"OR":7731,"ring":7732,"Januar":7733,"uted":7734,"opä":7735,"ech":7736,"opportun":7737,"Wert":7738,"erwartet":7739,"Bu":7740,"evidence":7741,"aging":7742,"ca":7743,"Party":7744,"eren":7745,"George":7746,"äte":7747,"aktuell":7748,"unsere":7749,"49":7750,"wirklich":7751,"umen":7752,"angeb":7753,"verd":7754,"ided":7755,"arg":7756,"einst":7757,"Tim":7758,"meisten":7759,"parents":7760,"47":7761,"fair":7762,"atives":7763,"junge":7764,"became":7765,"dog":7766,"boy":7767,"Pass":7768,"Ukr":7769,"idents":7770,"Zentr":7771,"heart":7772,"amten":7773,"Vf":7774,"batt":7775,"Kunden":7776,"äude":7777,"unterstütz":7778,"sburg":7779,"hlen":7780,"Während":7781,"ently":7782,"fal":7783,"site":7784,"ächlich":7785,"Rund":7786,"197":7787,"ips":7788,"chair":7789,"stage":7790,"dagegen":7791,"Top":7792,"moved":7793,"Frankfurt":7794,"inten":7795,"normal":7796,"bege":7797,"Sitz":7798,"Terror":7799,"Ul":7800,"Ant":7801,"jeweil":7802,"Unterstütz":7803,"Augen":7804,"Fort":7805,"Que":7806,"verband":7807,"ghter":7808,"higher":7809,"waltung":7810,"machte":7811,"include":7812,"race":7813,"recently":7814,"Grünen":7815,"Tex":7816,"suffer":7817,"bon":7818,"gner":7819,"energy":7820,"Daten":7821,"rock":7822,"gart":7823,"plann":7824,"clos":7825,"schnitt":7826,"celebr":7827,"general":7828,"chance":7829,"Monaten":7830,"Tal":7831,"2006":7832,"significant":7833,"gemeinsam":7834,"Nun":7835,"distr":7836,"wegs":7837,"schul":7838,"Ost":7839,"Oc":7840,"zufolge":7841,"beteil":7842,"Verb":7843,"results":7844,"ützen":7845,"Republican":7846,"Handel":7847,"möchte":7848,"loc":7849,"fung":7850,"Zudem":7851,"eller":7852,"BBC":7853,"fans":7854,"covered":7855,"lieben":7856,"gesagt":7857,"richtig":7858,"model":7859,"fail":7860,"cop":7861,"reform":7862,"doc":7863,"äsidenten":7864,"disc":7865,"Orts":7866,"centr":7867,"Problem":7868,"utin":7869,"regul":7870,"direct":7871,"sal":7872,"Club":7873,"forces":7874,"biggest":7875,"Far":7876,"frag":7877,"vert":7878,"couple":7879,"January":7880,"Goog":7881,"ola":7882,"mur":7883,"Eis":7884,"leave":7885,"erneut":7886,"Jer":7887,"Ass":7888,"steller":7889,"gesetz":7890,"Main":7891,"Raum":7892,"issues":7893,"Online":7894,"turned":7895,"aving":7896,"aud":7897,"students":7898,"paid":7899,"Kind":7900,"Viele":7901,"Form":7902,"pract":7903,"dom":7904,"uses":7905,"workers":7906,"viron":7907,"Det":7908,"leb":7909,"Straf":7910,"Hans":7911,"champ":7912,"unn":7913,"career":7914,"cup":7915,"running":7916,"Leute":7917,"Sicherheits":7918,"ordin":7919,"spot":7920,"mobil":7921,"gave":7922,"neten":7923,"seines":7924,"coll":7925,"operation":7926,"Flüchtlinge":7927,"access":7928,"means":7929,"Bundestag":7930,"Alt":7931,"works":7932,"Weihnach":7933,"grif":7934,"treter":7935,"regel":7936,"otos":7937,"Reuters":7938,"shoot":7939,"zeichnet":7940,"available":7941,"hil":7942,"ächen":7943,"player":7944,"wachsen":7945,"Außerdem":7946,"schätz":7947,"travel":7948,"beding":7949,"Californ":7950,"überr":7951,"heiten":7952,"Ka":7953,"appl":7954,"Bon":7955,"investigation":7956,"ially":7957,"ri":7958,"analy":7959,"utzen":7960,"üm":7961,"hoff":7962,"42":7963,"Rett":7964,"Rest":7965,"defin":7966,"Fil":7967,"Bundesliga":7968,"cing":7969,"Situation":7970,"Mitte":7971,"Mex":7972,"bislang":7973,"groups":7974,"schaffen":7975,"Wochenende":7976,"Donald":7977,"beide":7978,"crisis":7979,"experience":7980,"Associ":7981,"Februar":7982,"Laut":7983,"regierung":7984,"space":7985,"Ihr":7986,"train":7987,"lichkeit":7988,"involved":7989,"Minute":7990,"Chinese":7991,"flicht":7992,"relation":7993,"imate":7994,"Sprecher":7995,"friends":7996,"besten":7997,"needed":7998,"reveal":7999,"received":8000,"Gericht":8001,"iste":8002,"oben":8003,"white":8004,"getr":8005,"provide":8006,"civil":8007,"Grie":8008,"steigen":8009,"Google":8010,"ape":8011,"Weil":8012,"etter":8013,"ju":8014,"tin":8015,"Patr":8016,"daran":8017,"öffentlich":8018,"average":8019,"hase":8020,"Dro":8021,"kleine":8022,"Schweiz":8023,"Hilfe":8024,"Beginn":8025,"Parl":8026,"box":8027,"omen":8028,"problems":8029,"Heimat":8030,"Apple":8031,"denken":8032,"anything":8033,"brand":8034,"situation":8035,"Förder":8036,"Freund":8037,"CE":8038,"lu":8039,"ammlung":8040,"mem":8041,"ety":8042,"lad":8043,"review":8044,"origin":8045,"Teilnehmer":8046,"See":8047,"authorities":8048,"Bas":8049,"Hoff":8050,"educ":8051,"descri":8052,"destens":8053,"iegel":8054,"ility":8055,"nothing":8056,"gebaut":8057,"DF":8058,"erhö":8059,"Tu":8060,"rechts":8061,"abo":8062,"Hamburg":8063,"prochen":8064,"despite":8065,"dan":8066,"latest":8067,"happ":8068,"ively":8069,"Mail":8070,"Ter":8071,"California":8072,"liches":8073,"vironment":8074,"senior":8075,"Verkehrs":8076,"iegen":8077,"Müller":8078,"Maß":8079,"Schon":8080,"nahm":8081,"steiger":8082,"hunder":8083,"hon":8084,"showed":8085,"syl":8086,"Spitzen":8087,"jobs":8088,"ises":8089,"cir":8090,"needs":8091,"fit":8092,"Max":8093,"joy":8094,"sitz":8095,"Bal":8096,"December":8097,"Em":8098,"performance":8099,"yal":8100,"amin":8101,"ron":8102,"Kontr":8103,"scre":8104,"Kraft":8105,"similar":8106,"lower":8107,"states":8108,"agent":8109,"Show":8110,"häng":8111,"soon":8112,"Sand":8113,"pret":8114,"aß":8115,"demonstr":8116,"potential":8117,"neun":8118,"zert":8119,"Pos":8120,"ost":8121,"Herr":8122,"icle":8123,"Russian":8124,"400":8125,"Schluss":8126,"Einzel":8127,"Entwicklung":8128,"braucht":8129,"spielt":8130,"änge":8131,"espe":8132,"complete":8133,"single":8134,"Rolle":8135,"zweite":8136,"Ange":8137,"ministerium":8138,"dustr":8139,"laub":8140,"ädchen":8141,"thous":8142,"Dire":8143,"sibil":8144,"Personen":8145,"heav":8146,"changes":8147,"frieden":8148,"spann":8149,"football":8150,"rates":8151,"hann":8152,"bereich":8153,"Job":8154,"BA":8155,"however":8156,"Leit":8157,"bieten":8158,"lungs":8159,"uel":8160,"Black":8161,"Länder":8162,"handelt":8163,"initi":8164,"gun":8165,"jah":8166,"Boden":8167,"Angeles":8168,"hle":8169,"Behör":8170,"Är":8171,"comment":8172,"Priv":8173,"ican":8174,"isierung":8175,"someone":8176,"avo":8177,"verz":8178,"Journal":8179,"Wissen":8180,"hler":8181,"präsident":8182,"sweise":8183,"musik":8184,"costs":8185,"Stefan":8186,"schie":8187,"MP":8188,"utet":8189,"Allerdings":8190,"guten":8191,"Industr":8192,"bably":8193,"ancen":8194,"uche":8195,"neuer":8196,"approach":8197,"ify":8198,"assist":8199,"date":8200,"treffen":8201,"popular":8202,"BS":8203,"Probleme":8204,"cas":8205,"fass":8206,"Hof":8207,"counter":8208,"Stuttgart":8209,"Rech":8210,"squ":8211,"strug":8212,"setzung":8213,"Pan":8214,"offenbar":8215,"wasn":8216,"allein":8217,"berichtete":8218,"gst":8219,"europä":8220,"hinder":8221,"geführt":8222,"AF":8223,"Hen":8224,"Köln":8225,"summer":8226,"ault":8227,"fle":8228,"spent":8229,"ähn":8230,"immedi":8231,"frist":8232,"Gover":8233,"takt":8234,"venue":8235,"cann":8236,"Ehe":8237,"pressure":8238,"liament":8239,"Afghanistan":8240,"hang":8241,"dürfen":8242,"Engl":8243,"chter":8244,"indest":8245,"lives":8246,"else":8247,"ably":8248,"umb":8249,"Gut":8250,"amb":8251,"Ear":8252,"Glück":8253,"lingen":8254,"Rahmen":8255,"usst":8256,"extrem":8257,"hielt":8258,"verloren":8259,"Harr":8260,"unded":8261,"German":8262,"Namen":8263,"ölker":8264,"meist":8265,"rac":8266,"check":8267,"weile":8268,"Tier":8269,"Kurz":8270,"lying":8271,"ölf":8272,"41":8273,"Arch":8274,"training":8275,"Fer":8276,"iziel":8277,"hm":8278,"spending":8279,"actually":8280,"43":8281,"Seiten":8282,"dad":8283,"insur":8284,"mn":8285,"contrib":8286,"rück":8287,"ios":8288,"sat":8289,"iko":8290,"critic":8291,"End":8292,"These":8293,"Band":8294,"Andreas":8295,"dell":8296,"discuss":8297,"worked":8298,"aterial":8299,"morgen":8300,"Zusch":8301,"appeared":8302,"künftig":8303,"tend":8304,"ization":8305,"weekend":8306,"gern":8307,"zeigte":8308,"Day":8309,"iding":8310,"indepen":8311,"Russland":8312,"cially":8313,"surpr":8314,"ites":8315,"programm":8316,"König":8317,"Arab":8318,"vey":8319,"ürt":8320,"Chance":8321,"typ":8322,"Informationen":8323,"Congress":8324,"ängen":8325,"scheint":8326,"heard":8327,"Noch":8328,"probably":8329,"idea":8330,"folgt":8331,"Kilometer":8332,"living":8333,"Frankreich":8334,"Link":8335,"alleged":8336,"felt":8337,"claims":8338,"zone":8339,"extra":8340,"bildung":8341,"Konzern":8342,"196":8343,"Zur":8344,"Offen":8345,"ummer":8346,"pie":8347,"außer":8348,"aufen":8349,"attacks":8350,"okal":8351,"Fahrer":8352,"development":8353,"ären":8354,"Smith":8355,"themselves":8356,"veh":8357,"vention":8358,"wig":8359,"einigen":8360,"äuser":8361,"inzwischen":8362,"Opfer":8363,"More":8364,"bürger":8365,"rise":8366,"largest":8367,"areas":8368,"interess":8369,"bruch":8370,"remain":8371,"Johann":8372,"project":8373,"trade":8374,"iller":8375,"CSU":8376,"nisse":8377,"Mädchen":8378,"Rot":8379,"anzen":8380,"huge":8381,"lebt":8382,"ktur":8383,"bevor":8384,"demand":8385,"atsächlich":8386,"jungen":8387,"bü":8388,"cient":8389,"Aut":8390,"Trotz":8391,"öffnet":8392,"ample":8393,"Brown":8394,"pect":8395,"schö":8396,"Vir":8397,"äume":8398,"05":8399,"sett":8400,"amo":8401,"uclear":8402,"sam":8403,"Gott":8404,"verständ":8405,"Künst":8406,"Vereins":8407,"Georg":8408,"08":8409,"Rang":8410,"Kandid":8411,"Gesund":8412,"inz":8413,"Center":8414,"Schmid":8415,"nahe":8416,"ches":8417,"kept":8418,"Wieder":8419,"matter":8420,"Sche":8421,"victory":8422,"ängt":8423,"bal":8424,"kraft":8425,"Sha":8426,"okrat":8427,"holt":8428,"Nutz":8429,"administration":8430,"Griechen":8431,"pped":8432,"ösung":8433,"Lage":8434,"FA":8435,"rop":8436,"conne":8437,"aler":8438,"UR":8439,"Vater":8440,"erl":8441,"laufen":8442,"letter":8443,"System":8444,"Richard":8445,"Krieg":8446,"prim":8447,"Werk":8448,"neigh":8449,"October":8450,"relationship":8451,"kunden":8452,"äne":8453,"ständig":8454,"remains":8455,"99":8456,"meter":8457,"sofort":8458,"ications":8459,"markets":8460,"tor":8461,"bald":8462,"aren":8463,"Liga":8464,"Fragen":8465,"pool":8466,"anal":8467,"IT":8468,"verteid":8469,"published":8470,"wrong":8471,"idge":8472,"staat":8473,"crow":8474,"dürfte":8475,"Herz":8476,"technology":8477,"perform":8478,"income":8479,"detail":8480,"longer":8481,"pul":8482,"Alexander":8483,"pair":8484,"Recht":8485,"Rock":8486,"pred":8487,"release":8488,"Ol":8489,"Premier":8490,"charges":8491,"touch":8492,"trial":8493,"roll":8494,"sem":8495,"mass":8496,"cases":8497,"Pakistan":8498,"plom":8499,"bi":8500,"opt":8501,"stück":8502,"feier":8503,"link":8504,"CN":8505,"zte":8506,"charac":8507,"erstmals":8508,"telle":8509,"Ged":8510,"admit":8511,"schwar":8512,"ette":8513,"mussten":8514,"rants":8515,"Dazu":8516,"glück":8517,"Mid":8518,"hieß":8519,"Landkreis":8520,"officers":8521,"änden":8522,"fragt":8523,"everything":8524,"ualisiert":8525,"sess":8526,"agency":8527,"chef":8528,"2000":8529,"ebenso":8530,"nine":8531,"ES":8532,"grand":8533,"Protest":8534,"investment":8535,"page":8536,"ört":8537,"schön":8538,"Regen":8539,"mindestens":8540,"ißen":8541,"Sach":8542,"städ":8543,"electr":8544,"slow":8545,"account":8546,"ctors":8547,"Vo":8548,"condu":8549,"swe":8550,"mult":8551,"inside":8552,"daughter":8553,"sogenann":8554,"deliver":8555,"150":8556,"haft":8557,"Ve":8558,"range":8559,"calls":8560,"cash":8561,"wants":8562,"Ukraine":8563,"häu":8564,"conference":8565,"Rath":8566,"aup":8567,"Verhand":8568,"eigene":8569,"FDP":8570,"kord":8571,"vielleicht":8572,"murder":8573,"step":8574,"beste":8575,"Motor":8576,"Pop":8577,"contract":8578,"itting":8579,"moder":8580,"Tabe":8581,"Group":8582,"undred":8583,"Americans":8584,"Play":8585,"EN":8586,"ends":8587,"pm":8588,"56":8589,"mind":8590,"Aktion":8591,"sucht":8592,"credit":8593,"growing":8594,"winning":8595,"Wolfgang":8596,"Germany":8597,"Dienst":8598,"Stell":8599,"speak":8600,"brought":8601,"whole":8602,"Unterstützung":8603,"ufen":8604,"betonte":8605,"Klein":8606,"ickt":8607,"Stat":8608,"presen":8609,"kräfte":8610,"partner":8611,"fekt":8612,"yan":8613,"gebiet":8614,"wasser":8615,"Amts":8616,"Gesetz":8617,"Gleich":8618,"Italien":8619,"Früh":8620,"Labour":8621,"build":8622,"schließen":8623,"mund":8624,"Ra":8625,"57":8626,"ended":8627,"ehmen":8628,"Su":8629,"forced":8630,"läuft":8631,"sah":8632,"fried":8633,"icated":8634,"improve":8635,"King":8636,"journal":8637,"58":8638,"rieben":8639,"Sicherheit":8640,"gewähl":8641,"Wal":8642,"unserer":8643,"weiterhin":8644,"icken":8645,"erzählt":8646,"vertreten":8647,"Tem":8648,"andal":8649,"Rie":8650,"Artikel":8651,"banks":8652,"pted":8653,"lett":8654,"debt":8655,"schwier":8656,"öhn":8657,"äche":8658,"Syria":8659,"auber":8660,"Por":8661,"quality":8662,"Vertrag":8663,"deep":8664,"finale":8665,"Frie":8666,"DR":8667,"nuclear":8668,"hus":8669,"direkt":8670,"Sein":8671,"Ermitt":8672,"accused":8673,"tried":8674,"erw":8675,"described":8676,"dritten":8677,"Rechts":8678,"reten":8679,"budget":8680,"ements":8681,"ulture":8682,"Vill":8683,"Video":8684,"Home":8685,"sense":8686,"offiziel":8687,"Täter":8688,"Senate":8689,"eg":8690,"Vergleich":8691,"helped":8692,"positive":8693,"TSV":8694,"impact":8695,"uelle":8696,"Folge":8697,"zusätz":8698,"quite":8699,"thousands":8700,"claimed":8701,"persön":8702,"größten":8703,"zufrieden":8704,"Gebur":8705,"Tran":8706,"punk":8707,"wurf":8708,"Verfüg":8709,"everyone":8710,"uce":8711,"streng":8712,"ante":8713,"anks":8714,"Prozess":8715,"Gas":8716,"sle":8717,"happened":8718,"version":8719,"Hum":8720,"ows":8721,"Telefon":8722,"Bühne":8723,"ns":8724,"oppel":8725,"Hy":8726,"igent":8727,"focus":8728,"2005":8729,"52":8730,"ming":8731,"goti":8732,"stra":8733,"February":8734,"struct":8735,"broad":8736,"answer":8737,"looked":8738,"bay":8739,"customers":8740,"Amt":8741,"meine":8742,"Coach":8743,"Vorsitzende":8744,"09":8745,"rein":8746,"ausch":8747,"Ty":8748,"especially":8749,"Hotel":8750,"management":8751,"graf":8752,"peace":8753,"patients":8754,"gesellschaft":8755,"licht":8756,"besondere":8757,"mor":8758,"allowed":8759,"Partie":8760,"Leiter":8761,"preis":8762,"hervor":8763,"Zuschauer":8764,"weisen":8765,"bsite":8766,"aktiv":8767,"icket":8768,"zü":8769,"ochter":8770,"Schä":8771,"Streit":8772,"increasing":8773,"prem":8774,"lack":8775,"ires":8776,"Press":8777,"ws":8778,"ganze":8779,"überhaupt":8780,"stät":8781,"enth":8782,"Kor":8783,"seems":8784,"kret":8785,"lined":8786,"Holz":8787,"Les":8788,"Gebäude":8789,"medical":8790,"violence":8791,"uit":8792,"Pati":8793,"gerne":8794,"klag":8795,"common":8796,"lief":8797,"dung":8798,"Of":8799,"07":8800,"jeweils":8801,"blieb":8802,"Publikum":8803,"Klin":8804,"fourth":8805,"Camer":8806,"failed":8807,"erinner":8808,"People":8809,"officer":8810,"Rei":8811,"russ":8812,"acqu":8813,"bung":8814,"utions":8815,"iment":8816,"families":8817,"offenen":8818,"Green":8819,"ober":8820,"represent":8821,"erziel":8822,"ativen":8823,"Sicht":8824,"fragen":8825,"kick":8826,"Lou":8827,"Strom":8828,"Kindern":8829,"ication":8830,"Govern":8831,"Reise":8832,"arrested":8833,"zwölf":8834,"log":8835,"phys":8836,"ius":8837,"haf":8838,"cided":8839,"Kirche":8840,"vö":8841,"Monate":8842,"einzu":8843,"base":8844,"perr":8845,"Partner":8846,"lege":8847,"itäten":8848,"named":8849,"iken":8850,"Theater":8851,"although":8852,"exist":8853,"Seine":8854,"Kauf":8855,"opposition":8856,"nachrichten":8857,"High":8858,"neg":8859,"ötz":8860,"Stück":8861,"sn":8862,"Muslim":8863,"environment":8864,"ürgen":8865,"winner":8866,"cement":8867,"Staatsanwalt":8868,"abor":8869,"determin":8870,"Verfügung":8871,"entschieden":8872,"Nachbar":8873,"Tochter":8874,"tags":8875,"sec":8876,"höch":8877,"ita":8878,"Verantwort":8879,"ki":8880,"instit":8881,"ifft":8882,"via":8883,"brachte":8884,"utzt":8885,"bauen":8886,"öst":8887,"hood":8888,"Pa":8889,"Syd":8890,"surv":8891,"giving":8892,"isn":8893,"urm":8894,"amte":8895,"yl":8896,"domin":8897,"daher":8898,"miles":8899,"garten":8900,"kurr":8901,"Open":8902,"ingt":8903,"Hart":8904,"employe":8905,"PI":8906,"Even":8907,"solche":8908,"Bilder":8909,"iser":8910,"va":8911,"geschlagen":8912,"feiert":8913,"Chris":8914,"India":8915,"geld":8916,"Web":8917,"amerikan":8918,"chnet":8919,"Jones":8920,"welche":8921,"cancer":8922,"Erfahr":8923,"aust":8924,"Rhein":8925,"Ros":8926,"bast":8927,"champion":8928,"setzte":8929,"Dok":8930,"bringt":8931,"völker":8932,"Banken":8933,"Sydney":8934,"estim":8935,"anderer":8936,"push":8937,"Gegner":8938,"seh":8939,"Del":8940,"sonst":8941,"either":8942,"anyone":8943,"Jürgen":8944,"safety":8945,"Ba":8946,"ari":8947,"Gesamt":8948,"products":8949,"beispiel":8950,"gehe":8951,"wohn":8952,"Politiker":8953,"54":8954,"servative":8955,"teen":8956,"talks":8957,"zumindest":8958,"pose":8959,"value":8960,"teams":8961,"Hu":8962,"gewinnen":8963,"separ":8964,"Pil":8965,"production":8966,"Health":8967,"51":8968,"bing":8969,"Klaus":8970,"links":8971,"Angebot":8972,"04":8973,"sorg":8974,"Kreuz":8975,"unterwegs":8976,"sources":8977,"Öff":8978,"questions":8979,"happy":8980,"zi":8981,"Jährigen":8982,"erfolgreich":8983,"ays":8984,"teten":8985,"sprech":8986,"forts":8987,"cross":8988,"53":8989,"Milit":8990,"rodu":8991,"hear":8992,"älfte":8993,"protect":8994,"Comp":8995,"dev":8996,"beschäft":8997,"usion":8998,"zig":8999,"verk":9000,"Pfarr":9001,"deck":9002,"ändert":9003,"compared":9004,"closed":9005,"funktion":9006,"Gest":9007,"gegangen":9008,"Tabellen":9009,"Korea":9010,"cit":9011,"zieh":9012,"incident":9013,"zul":9014,"geplan":9015,"gestern":9016,"Gruppen":9017,"größte":9018,"terms":9019,"Hall":9020,"sey":9021,"lif":9022,"Up":9023,"natur":9024,"door":9025,"Punkt":9026,"Cent":9027,"zeugen":9028,"achie":9029,"response":9030,"hab":9031,"takes":9032,"afe":9033,"seits":9034,"meint":9035,"59":9036,"vorsitzen":9037,"helfen":9038,"Camp":9039,"prä":9040,"Krankenhaus":9041,"hot":9042,"acted":9043,"deten":9044,"Zust":9045,"spekt":9046,"included":9047,"legte":9048,"lass":9049,"dy":9050,"Manchester":9051,"negoti":9052,"Salz":9053,"wes":9054,"regional":9055,"Ihre":9056,"AD":9057,"Gesellschaft":9058,"kei":9059,"continued":9060,"husband":9061,"example":9062,"zeuge":9063,"Europä":9064,"franz":9065,"Roll":9066,"advis":9067,"Two":9068,"edy":9069,"particularly":9070,"tradition":9071,"sibility":9072,"Ist":9073,"entire":9074,"acts":9075,"Hause":9076,"beat":9077,"Bör":9078,"Sar":9079,"Morgen":9080,"schließend":9081,"SE":9082,"Bush":9083,"charged":9084,"Rel":9085,"itet":9086,"sieg":9087,"Ap":9088,"Umwelt":9089,"bietet":9090,"Disk":9091,"target":9092,"Williams":9093,"Texas":9094,"stopp":9095,"Haft":9096,"central":9097,"arian":9098,"orfer":9099,"NS":9100,"Asyl":9101,"Gef":9102,"geord":9103,"trip":9104,"haps":9105,"französ":9106,"grad":9107,"mäßig":9108,"Johnson":9109,"Verteid":9110,"atory":9111,"Fel":9112,"Staaten":9113,"Beson":9114,"Champions":9115,"geplant":9116,"Inde":9117,"organis":9118,"agreed":9119,"führte":9120,"drink":9121,"fällt":9122,"arren":9123,"igration":9124,"investors":9125,"Rein":9126,"conditions":9127,"hinaus":9128,"schools":9129,"create":9130,"chner":9131,"betre":9132,"sou":9133,"card":9134,"pielt":9135,"wall":9136,"Städ":9137,"Law":9138,"agreement":9139,"pointed":9140,"address":9141,"psych":9142,"derung":9143,"altung":9144,"abhäng":9145,"treatment":9146,"Prime":9147,"kin":9148,"nieder":9149,"Poliz":9150,"decided":9151,"speech":9152,"Ris":9153,"holen":9154,"placed":9155,"hundred":9156,"oo":9157,"property":9158,"ills":9159,"First":9160,"Interview":9161,"kap":9162,"repe":9163,"danger":9164,"Kirchen":9165,"McC":9166,"Experten":9167,"bn":9168,"County":9169,"presidential":9170,"Sü":9171,"establ":9172,"gone":9173,"center":9174,"union":9175,"Spiele":9176,"Wort":9177,"aves":9178,"sts":9179,"efforts":9180,"AG":9181,"erve":9182,"cars":9183,"aded":9184,"Firmen":9185,"rules":9186,"Council":9187,"product":9188,"Wetter":9189,"cannot":9190,"School":9191,"quickly":9192,"Dieser":9193,"adem":9194,"ishing":9195,"enjoy":9196,"above":9197,"events":9198,"Schaden":9199,"Drei":9200,"Wettbewer":9201,"CNN":9202,"Alter":9203,"suit":9204,"relig":9205,"pur":9206,"standing":9207,"makers":9208,"erry":9209,"hören":9210,"jen":9211,"opening":9212,"shares":9213,"österreich":9214,"Sau":9215,"Zahlen":9216,"Cameron":9217,"Runde":9218,"mitglie":9219,"Bir":9220,"flü":9221,"jem":9222,"mob":9223,"gezogen":9224,"respect":9225,"voters":9226,"poor":9227,"älter":9228,"ktr":9229,"Szen":9230,"66":9231,"propos":9232,"Vict":9233,"Mob":9234,"confir":9235,"akes":9236,"Ron":9237,"Firma":9238,"hair":9239,"weap":9240,"apped":9241,"kontr":9242,"Act":9243,"Government":9244,"Photo":9245,"Künstler":9246,"bid":9247,"Richter":9248,"entgegen":9249,"plus":9250,"currently":9251,"unterschied":9252,"rap":9253,"Personal":9254,"proje":9255,"anch":9256,"chem":9257,"north":9258,"accept":9259,"Lang":9260,"une":9261,"ängst":9262,"Tore":9263,"regular":9264,"Wild":9265,"Deshalb":9266,"introdu":9267,"charge":9268,"nachdem":9269,"Et":9270,"effort":9271,"HS":9272,"avour":9273,"stoff":9274,"prep":9275,"spo":9276,"zunehmen":9277,"gewann":9278,"ros":9279,"Herbst":9280,"zieht":9281,"tä":9282,"Bö":9283,"antic":9284,"Kim":9285,"necess":9286,"Ja":9287,"EM":9288,"Verd":9289,"smo":9290,"prosecut":9291,"Nä":9292,"Schlag":9293,"increased":9294,"homes":9295,"zy":9296,"commen":9297,"verw":9298,"träge":9299,"concerns":9300,"knew":9301,"stellten":9302,"athol":9303,"Oper":9304,"Ken":9305,"danach":9306,"Schritt":9307,"mie":9308,"Verband":9309,"opportunity":9310,"jüng":9311,"ories":9312,"fem":9313,"levels":9314,"Viertel":9315,"ula":9316,"Immer":9317,"richtung":9318,"bede":9319,"Sohn":9320,"east":9321,"shire":9322,"ny":9323,"Baum":9324,"Our":9325,"Tro":9326,"elf":9327,"ihres":9328,"operations":9329,"Fle":9330,"wolle":9331,"television":9332,"ipped":9333,"Gemeinder":9334,"struction":9335,"optim":9336,"wies":9337,"ährt":9338,"changed":9339,"Ku":9340,"sched":9341,"krank":9342,"minute":9343,"fuhr":9344,"judge":9345,"gypt":9346,"ils":9347,"itself":9348,"kung":9349,"Einen":9350,"Gewalt":9351,"itionen":9352,"believed":9353,"gerechnet":9354,"dise":9355,"ausschuss":9356,"stant":9357,"song":9358,"irgend":9359,"Letz":9360,"hohe":9361,"wollten":9362,"gewonnen":9363,"capt":9364,"modern":9365,"reag":9366,"Mac":9367,"kw":9368,"Untersuch":9369,"mü":9370,"ique":9371,"aid":9372,"Körper":9373,"gliche":9374,"Holly":9375,"beginnt":9376,"Sold":9377,"isters":9378,"Wach":9379,"erreicht":9380,"zentrum":9381,"actions":9382,"Behörden":9383,"dank":9384,"annual":9385,"erei":9386,"halte":9387,"Service":9388,"Han":9389,"gesprochen":9390,"counts":9391,"Tar":9392,"Autos":9393,"mill":9394,"politik":9395,"Get":9396,"2004":9397,"schung":9398,"Glas":9399,"sil":9400,"volution":9401,"wider":9402,"ifiz":9403,"Syrien":9404,"words":9405,"threaten":9406,"related":9407,"ado":9408,"debate":9409,"raised":9410,"Wol":9411,"enze":9412,"trat":9413,"emot":9414,"lings":9415,"Schne":9416,"ohl":9417,"Van":9418,"amount":9419,"goes":9420,"etimes":9421,"roh":9422,"schwe":9423,"übr":9424,"associ":9425,"scored":9426,"ähler":9427,"Republicans":9428,"Fä":9429,"Barack":9430,"anzu":9431,"Chancen":9432,"sinn":9433,"Carol":9434,"Image":9435,"moving":9436,"06":9437,"größer":9438,"Weihnachts":9439,"scene":9440,"vorbei":9441,"Africa":9442,"volle":9443,"77":9444,"lect":9445,"darunter":9446,"politischen":9447,"Profess":9448,"border":9449,"Mir":9450,"uments":9451,"parts":9452,"ferenz":9453,"Licht":9454,"rose":9455,"esterday":9456,"blood":9457,"teilen":9458,"univers":9459,"bey":9460,"title":9461,"ciety":9462,"website":9463,"Dach":9464,"istic":9465,"Zwischen":9466,"Museum":9467,"izin":9468,"Schutz":9469,"Emp":9470,"AM":9471,"According":9472,"telligen":9473,"scient":9474,"behör":9475,"attempt":9476,"mittlerweile":9477,"Bericht":9478,"ails":9479,"built":9480,"Kollegen":9481,"Termin":9482,"Möglichkeit":9483,"LIN":9484,"itness":9485,"Scottish":9486,"drich":9487,"Inc":9488,"dram":9489,"Ton":9490,"education":9491,"länder":9492,"antwor":9493,"favor":9494,"birth":9495,"Ländern":9496,"revealed":9497,"ätzen":9498,"hip":9499,"Indian":9500,"kor":9501,"Well":9502,"äuß":9503,"instead":9504,"tatsächlich":9505,"icks":9506,"losen":9507,"wald":9508,"looks":9509,"abin":9510,"centre":9511,"Kanzler":9512,"länd":9513,"Putin":9514,"ode":9515,"Parlament":9516,"fam":9517,"Türkei":9518,"völlig":9519,"schrift":9520,"iftung":9521,"teile":9522,"AL":9523,"kräft":9524,"tür":9525,"bekannte":9526,"baren":9527,"ochen":9528,"lement":9529,"wuchs":9530,"beispielsweise":9531,"inv":9532,"anke":9533,"resh":9534,"ashion":9535,"Präsidenten":9536,"eme":9537,"atter":9538,"Hälfte":9539,"Defen":9540,"600":9541,"Wohnung":9542,"Angst":9543,"hands":9544,"einzel":9545,"table":9546,"Democratic":9547,"Kurs":9548,"Gy":9549,"Democrats":9550,"rats":9551,"Geschäftsführer":9552,"Hannover":9553,"igungs":9554,"Hal":9555,"Bot":9556,"gänger":9557,"OP":9558,"Schwer":9559,"verantwort":9560,"Niederlage":9561,"Insgesamt":9562,"Commission":9563,"nov":9564,"Abschluss":9565,"67":9566,"confirmed":9567,"BM":9568,"stol":9569,"message":9570,"request":9571,"Kan":9572,"auszu":9573,"simply":9574,"nächste":9575,"Florida":9576,"Voll":9577,"pressed":9578,"vill":9579,"appeal":9580,"nä":9581,"active":9582,"ilen":9583,"figures":9584,"EG":9585,"wach":9586,"zog":9587,"suchen":9588,"genug":9589,"era":9590,"Rathaus":9591,"Moder":9592,"iglich":9593,"drive":9594,"kündigt":9595,"sort":9596,"easy":9597,"istischen":9598,"encour":9599,"majority":9600,"From":9601,"Verkauf":9602,"source":9603,"Koalition":9604,"ply":9605,"Mitglied":9606,"onto":9607,"king":9608,"reiber":9609,"geschrieben":9610,"68":9611,"Many":9612,"pretty":9613,"weight":9614,"Konkurr":9615,"abzu":9616,"Wein":9617,"empf":9618,"entsprechen":9619,"Verletz":9620,"text":9621,"jede":9622,"ifer":9623,"politische":9624,"safe":9625,"PR":9626,"aters":9627,"icker":9628,"newsp":9629,"halts":9630,"wing":9631,"IC":9632,"injury":9633,"Franc":9634,"Diskuss":9635,"yr":9636,"Fore":9637,"olo":9638,"ikt":9639,"English":9640,"gespielt":9641,"Bevölker":9642,"Ak":9643,"Every":9644,"Veranstaltung":9645,"brauchen":9646,"langen":9647,"Ther":9648,"tware":9649,"Erd":9650,"Stock":9651,"hohen":9652,"asen":9653,"corpor":9654,"Liber":9655,"weak":9656,"Spaß":9657,"challenge":9658,"achtet":9659,"leaving":9660,"numbers":9661,"orgt":9662,"Aktien":9663,"unsch":9664,"müssten":9665,"Flugh":9666,"Leistung":9667,"Weltmeister":9668,"straight":9669,"owners":9670,"hest":9671,"Idee":9672,"Griechenland":9673,"caused":9674,"800":9675,"Rekord":9676,"brief":9677,"Markus":9678,"weder":9679,"south":9680,"victims":9681,"gelassen":9682,"Fahrzeug":9683,"aurant":9684,"Dafür":9685,"ences":9686,"relativ":9687,"ville":9688,"screen":9689,"Staatsanwaltschaft":9690,"stritten":9691,"missed":9692,"followed":9693,"earn":9694,"Ern":9695,"attention":9696,"ami":9697,"fighting":9698,"gehören":9699,"drück":9700,"wün":9701,"opened":9702,"bourne":9703,"Sänger":9704,"pon":9705,"nomin":9706,"Train":9707,"Wen":9708,"Klim":9709,"dient":9710,"hib":9711,"ption":9712,"Philipp":9713,"altet":9714,"wed":9715,"heimer":9716,"Hollywood":9717,"legisl":9718,"barr":9719,"Lat":9720,"ämlich":9721,"movie":9722,"battle":9723,"spol":9724,"chairman":9725,"warten":9726,"Essen":9727,"idet":9728,"Halle":9729,"Vertr":9730,"Initi":9731,"kids":9732,"Geburt":9733,"höher":9734,"ST":9735,"rot":9736,"Angela":9737,"anim":9738,"itete":9739,"ples":9740,"adding":9741,"bag":9742,"Sebast":9743,"iums":9744,"craft":9745,"Stimmen":9746,"Victor":9747,"Schließ":9748,"niemand":9749,"Beweg":9750,"uries":9751,"griffen":9752,"earch":9753,"nutzen":9754,"created":9755,"true":9756,"alty":9757,"buch":9758,"Klasse":9759,"Eben":9760,"üsse":9761,"lust":9762,"dated":9763,"prime":9764,"cuts":9765,"seite":9766,"Ag":9767,"middle":9768,"pet":9769,"Bereits":9770,"sexual":9771,"amera":9772,"Big":9773,"Hom":9774,"apart":9775,"mobile":9776,"verlassen":9777,"Beitr":9778,"Atl":9779,"Dorf":9780,"sector":9781,"Kas":9782,"fat":9783,"Feld":9784,"kandid":9785,"erner":9786,"Friedrich":9787,"Maria":9788,"geladen":9789,"erk":9790,"gewählt":9791,"beein":9792,"ehemaligen":9793,"räum":9794,"Schmidt":9795,"ittel":9796,"pros":9797,"Macht":9798,"lesen":9799,"mern":9800,"eper":9801,"Bab":9802,"Stunde":9803,"GM":9804,"Privat":9805,"entfern":9806,"Rat":9807,"remember":9808,"Gastgeber":9809,"Over":9810,"ült":9811,"fälle":9812,"utr":9813,"immediately":9814,"Liby":9815,"Finale":9816,"Düssel":9817,"versucht":9818,"Teams":9819,"haven":9820,"bell":9821,"Nik":9822,"Gewinn":9823,"Guard":9824,"aschen":9825,"Analy":9826,"Rennen":9827,"großer":9828,"ologie":9829,"eth":9830,"Stelle":9831,"igkeiten":9832,"threat":9833,"runs":9834,"Konzert":9835,"zeiten":9836,"äss":9837,"council":9838,"Liter":9839,"Sache":9840,"ume":9841,"fix":9842,"student":9843,"astru":9844,"Rettungs":9845,"Bege":9846,"tie":9847,"Sir":9848,"integr":9849,"condition":9850,"frastru":9851,"thr":9852,"Dortmund":9853,"Ram":9854,"gelang":9855,"mod":9856,"network":9857,"Treffen":9858,"fs":9859,"aste":9860,"dur":9861,"zahlt":9862,"Trans":9863,"details":9864,"vin":9865,"einges":9866,"phen":9867,"Tot":9868,"finanziel":9869,"urz":9870,"Sing":9871,"erreichen":9872,"Heute":9873,"itze":9874,"uing":9875,"prior":9876,"denk":9877,"ties":9878,"Kenn":9879,"Krise":9880,"85":9881,"tack":9882,"character":9883,"roy":9884,"üter":9885,"längst":9886,"wish":9887,"ceed":9888,"bekommt":9889,"flug":9890,"strateg":9891,"warned":9892,"Klassen":9893,"mess":9894,"wann":9895,"Waffen":9896,"Demonstr":9897,"decl":9898,"retail":9899,"circ":9900,"nöt":9901,"uble":9902,"particip":9903,"betrieb":9904,"ordnung":9905,"Oh":9906,"nämlich":9907,"ods":9908,"offered":9909,"Än":9910,"beha":9911,"Dor":9912,"Most":9913,"crash":9914,"Kev":9915,"früh":9916,"ufact":9917,"teach":9918,"Urteil":9919,"baby":9920,"includes":9921,"250":9922,"Tho":9923,"erhe":9924,"pat":9925,"uder":9926,"sicherung":9927,"engine":9928,"ini":9929,"ehr":9930,"Abst":9931,"wenige":9932,"PS":9933,"Punkten":9934,"Sebastian":9935,"ienen":9936,"Doppel":9937,"darum":9938,"Western":9939,"Moment":9940,"ba":9941,"ternative":9942,"cies":9943,"NR":9944,"03":9945,"speed":9946,"za":9947,"gleichen":9948,"prevent":9949,"endlich":9950,"Rem":9951,"amed":9952,"Francis":9953,"Holl":9954,"Roman":9955,"strate":9956,"decades":9957,"yesterday":9958,"ota":9959,"Mike":9960,"aktualisiert":9961,"funding":9962,"Rede":9963,"served":9964,"passt":9965,"hundert":9966,"Then":9967,"wärts":9968,"missing":9969,"Tisch":9970,"Secretary":9971,"spruch":9972,"Lösung":9973,"itts":9974,"store":9975,"previously":9976,"disk":9977,"orgung":9978,"pil":9979,"öffentlichen":9980,"Gefahr":9981,"möglichen":9982,"versammlung":9983,"committee":9984,"hotel":9985,"kal":9986,"bow":9987,"figure":9988,"spiele":9989,"Matth":9990,"businesses":9991,"pression":9992,"residents":9993,"usive":9994,"Themen":9995,"versuch":9996,"crime":9997,"ffic":9998,"users":9999,"ifik":10000,"Luc":10001,"annt":10002,"green":10003,"steuer":10004,"runde":10005,"iber":10006,"Grö":10007,"considered":10008,"Kö":10009,"exc":10010,"aktuellen":10011,"Adam":10012,"Zeiten":10013,"transport":10014,"rasch":10015,"figh":10016,"Ausstellung":10017,"mos":10018,"aps":10019,"flight":10020,"agentur":10021,"style":10022,"ancy":10023,"ares":10024,"Grad":10025,"Garten":10026,"shock":10027,"enor":10028,"double":10029,"derer":10030,"stone":10031,"iple":10032,"iar":10033,"2003":10034,"betont":10035,"Schulden":10036,"deutschland":10037,"fassen":10038,"Na":10039,"Serie":10040,"VW":10041,"starting":10042,"Industrie":10043,"schweren":10044,"league":10045,"jedem":10046,"innerhalb":10047,"Jung":10048,"lan":10049,"pal":10050,"Opposition":10051,"uh":10052,"Ehren":10053,"ibe":10054,"klasse":10055,"wild":10056,"erweise":10057,"Schle":10058,"upp":10059,"Kevin":10060,"telligence":10061,"Abgeord":10062,"competition":10063,"Wagen":10064,"hinzu":10065,"arriere":10066,"Zusammenarbeit":10067,"avoid":10068,"Trad":10069,"raten":10070,"UPI":10071,"Zimmer":10072,"lor":10073,"iance":10074,"require":10075,"dep":10076,"Mehrheit":10077,"fähig":10078,"gewinn":10079,"tan":10080,"zeichen":10081,"außen":10082,"Royal":10083,"Patienten":10084,"freut":10085,"deckt":10086,"Militär":10087,"appar":10088,"schläge":10089,"plane":10090,"Simon":10091,"jedes":10092,"Sin":10093,"krise":10094,"Live":10095,"Chic":10096,"asil":10097,"Bier":10098,"shooting":10099,"Gabr":10100,"injured":10101,"Sky":10102,"street":10103,"stum":10104,"uern":10105,"Sex":10106,"nungs":10107,"Spar":10108,"Manager":10109,"reached":10110,"combin":10111,"Chel":10112,"passed":10113,"Training":10114,"Also":10115,"noon":10116,"Melbourne":10117,"iage":10118,"beck":10119,"independent":10120,"Pause":10121,"aint":10122,"commer":10123,"troops":10124,"Gal":10125,"recogn":10126,"durchaus":10127,"clean":10128,"bewusst":10129,"ensure":10130,"Under":10131,"hearing":10132,"Masch":10133,"iban":10134,"verfahren":10135,"02":10136,"Anze":10137,"Stellen":10138,"solid":10139,"ports":10140,"returned":10141,"Ach":10142,"krieg":10143,"Verbrauch":10144,"kämpfen":10145,"Sieger":10146,"tha":10147,"Islamic":10148,"ressed":10149,"stood":10150,"brechen":10151,"paper":10152,"citiz":10153,"estic":10154,"fear":10155,"ksam":10156,"Tenn":10157,"gehend":10158,"folger":10159,"sports":10160,"shop":10161,"aming":10162,"meinte":10163,"iate":10164,"gehalten":10165,"Gol":10166,"sorgen":10167,"Bund":10168,"diplom":10169,"Studie":10170,"restr":10171,"agon":10172,"Ryan":10173,"gingen":10174,"hingegen":10175,"signed":10176,"zon":10177,"Win":10178,"Sur":10179,"candidate":10180,"Aufgabe":10181,"Frieden":10182,"dennoch":10183,"DA":10184,"xim":10185,"Interesse":10186,"defense":10187,"Fraktion":10188,"Sonder":10189,"strik":10190,"Geschäft":10191,"gelten":10192,"Heil":10193,"stoß":10194,"Mic":10195,"aufgrund":10196,"Heraus":10197,"Bob":10198,"Zus":10199,"gewöhn":10200,"word":10201,"purch":10202,"ledge":10203,"alone":10204,"Fox":10205,"nern":10206,"mort":10207,"ifel":10208,"OS":10209,"couldn":10210,"spend":10211,"Wiener":10212,"posted":10213,"holiday":10214,"benefits":10215,"anche":10216,"gän":10217,"tei":10218,"researchers":10219,"weather":10220,"Auft":10221,"Kern":10222,"unbe":10223,"Prü":10224,"rang":10225,"keiner":10226,"Anton":10227,"perfect":10228,"forderte":10229,"Alten":10230,"heut":10231,"sichts":10232,"warum":10233,"Mensch":10234,"Egypt":10235,"trifft":10236,"ads":10237,"ya":10238,"Hauptstadt":10239,"Geheim":10240,"sichtlich":10241,"Lind":10242,"Song":10243,"wonder":10244,"goals":10245,"parliament":10246,"Spielen":10247,"Regierungs":10248,"Company":10249,"commission":10250,"Out":10251,"Nick":10252,"drugs":10253,"Office":10254,"isa":10255,"ky":10256,"driving":10257,"foc":10258,"icke":10259,"türk":10260,"Vertreter":10261,"jump":10262,"69":10263,"2018":10264,"ehemalige":10265,"talking":10266,"jähriger":10267,"01":10268,"magaz":10269,"alleg":10270,"wealth":10271,"resol":10272,"notwend":10273,"oud":10274,"hi":10275,"mist":10276,"hart":10277,"Bevölkerung":10278,"parties":10279,"wal":10280,"Auftritt":10281,"Ruhe":10282,"weist":10283,"century":10284,"bels":10285,"Schulen":10286,"Back":10287,"zeitung":10288,"doll":10289,"ave":10290,"William":10291,"Blut":10292,"Nachdem":10293,"towards":10294,"Chicago":10295,"gesperr":10296,"Wechsel":10297,"Sus":10298,"selten":10299,"Schwarz":10300,"listen":10301,"Proje":10302,"Virgin":10303,"Bezirk":10304,"Beteil":10305,"send":10306,"istische":10307,"verm":10308,"verletz":10309,"plat":10310,"actor":10311,"Fa":10312,"Romney":10313,"klärung":10314,"Standard":10315,"launched":10316,"calling":10317,"population":10318,"imme":10319,"jemand":10320,"hoben":10321,"Tay":10322,"fassungs":10323,"tough":10324,"mbol":10325,"gold":10326,"Bayer":10327,"Atom":10328,"ray":10329,"Association":10330,"certainly":10331,"disease":10332,"indung":10333,"experien":10334,"Report":10335,"ushed":10336,"icles":10337,"rupt":10338,"Volk":10339,"icit":10340,"Angriff":10341,"Reich":10342,"verse":10343,"Ermittlungen":10344,"killing":10345,"itive":10346,"Unser":10347,"mögen":10348,"audien":10349,"employees":10350,"Polizisten":10351,"urg":10352,"anda":10353,"Jud":10354,"gesche":10355,"mehreren":10356,"Vergangen":10357,"Mas":10358,"gol":10359,"Nummer":10360,"Smart":10361,"original":10362,"Research":10363,"78":10364,"beyond":10365,"massive":10366,"2001":10367,"Wahr":10368,"nd":10369,"bott":10370,"manufact":10371,"PM":10372,"überzeug":10373,"unken":10374,"wis":10375,"raise":10376,"eye":10377,"Gün":10378,"Schön":10379,"iot":10380,"1990":10381,"igner":10382,"hundreds":10383,"ierungen":10384,"partners":10385,"Leip":10386,"mittelt":10387,"arily":10388,"annte":10389,"funds":10390,"Eigen":10391,"vertr":10392,"favour":10393,"drop":10394,"NA":10395,"verkauft":10396,"Öl":10397,"furter":10398,"spielte":10399,"TH":10400,"Sat":10401,"Flüchtlings":10402,"bedingt":10403,"geln":10404,"64":10405,"Bach":10406,"rie":10407,"reduc":10408,"förder":10409,"Colle":10410,"iant":10411,"fine":10412,"Fast":10413,"comments":10414,"boost":10415,"Kommission":10416,"ature":10417,"occur":10418,"IA":10419,"asket":10420,"Vorsitzender":10421,"aufzu":10422,"owers":10423,"Wales":10424,"gezeigt":10425,"Bundesregierung":10426,"size":10427,"Urs":10428,"resc":10429,"werke":10430,"bacher":10431,"traff":10432,"stehenden":10433,"starken":10434,"Wies":10435,"gle":10436,"Grand":10437,"expen":10438,"ruption":10439,"fred":10440,"Fehler":10441,"Other":10442,"Security":10443,"teuer":10444,"highest":10445,"verschiedenen":10446,"Beck":10447,"gelegen":10448,"rising":10449,"Mie":10450,"km":10451,"lay":10452,"measures":10453,"natural":10454,"Jos":10455,"insurance":10456,"session":10457,"feet":10458,"Ev":10459,"worfen":10460,"Satz":10461,"rare":10462,"provided":10463,"image":10464,"Josef":10465,"constit":10466,"Fünf":10467,"komplett":10468,"Walter":10469,"halle":10470,"Sitzung":10471,"confl":10472,"schreibt":10473,"63":10474,"exten":10475,"fee":10476,"Lee":10477,"trust":10478,"klein":10479,"getö":10480,"Sof":10481,"IV":10482,"decade":10483,"Soldaten":10484,"Mary":10485,"Christmas":10486,"ühl":10487,"Mexico":10488,"seemed":10489,"politic":10490,"anta":10491,"Rud":10492,"Patrick":10493,"perhaps":10494,"wander":10495,"liver":10496,"issued":10497,"famous":10498,"argu":10499,"specific":10500,"politics":10501,"lediglich":10502,"Madrid":10503,"heavy":10504,"irt":10505,"Gesundheits":10506,"Braz":10507,"Sekunden":10508,"ope":10509,"Werner":10510,"Andrew":10511,"leitung":10512,"Monat":10513,"Elf":10514,"Ganz":10515,"beob":10516,"ausen":10517,"stands":10518,"zahlreiche":10519,"Wider":10520,"ED":10521,"climate":10522,"bisschen":10523,"erinnen":10524,"index":10525,"crowd":10526,"isieren":10527,"itäts":10528,"below":10529,"Baden":10530,"Brad":10531,"Antrag":10532,"astic":10533,"Pot":10534,"ichter":10535,"Jackson":10536,"88":10537,"Has":10538,"damage":10539,"kontroll":10540,"sprung":10541,"Verfahren":10542,"digital":10543,"burgh":10544,"farm":10545,"sites":10546,"document":10547,"traf":10548,"begann":10549,"Kol":10550,"Nähe":10551,"dozen":10552,"fant":10553,"europäischen":10554,"Although":10555,"begeister":10556,"places":10557,"außerdem":10558,"designed":10559,"ara":10560,"criminal":10561,"62":10562,"2002":10563,"scheinlich":10564,"sale":10565,"systems":10566,"voraus":10567,"yright":10568,"exact":10569,"Cast":10570,"mix":10571,"Steve":10572,"Warum":10573,"Lü":10574,"besteht":10575,"Beamten":10576,"supporters":10577,"anlage":10578,"comfort":10579,"Betre":10580,"absolute":10581,"anne":10582,"recommen":10583,"attor":10584,"Weiß":10585,"bauer":10586,"weltweit":10587,"verwaltung":10588,"stärker":10589,"owner":10590,"schauen":10591,"Haw":10592,"ored":10593,"African":10594,"istisch":10595,"employment":10596,"ador":10597,"leger":10598,"ganzen":10599,"Bahnhof":10600,"written":10601,"verur":10602,"progress":10603,"wet":10604,"Canada":10605,"stad":10606,"mitteilte":10607,"Institute":10608,"Fund":10609,"ultim":10610,"selling":10611,"Chelsea":10612,"schlagen":10613,"fehlt":10614,"Louis":10615,"uster":10616,"gewalt":10617,"Pen":10618,"tät":10619,"anced":10620,"Lux":10621,"appears":10622,"save":10623,"planned":10624,"72":10625,"meant":10626,"blatt":10627,"Festival":10628,"mlich":10629,"geboren":10630,"joined":10631,"Koch":10632,"worst":10633,"Professor":10634,"aner":10635,"experts":10636,"owned":10637,"influen":10638,"Turnier":10639,"isions":10640,"guil":10641,"suggested":10642,"solle":10643,"strike":10644,"trading":10645,"afford":10646,"Matt":10647,"ield":10648,"richter":10649,"Dieses":10650,"newspaper":10651,"ötzlich":10652,"Brazil":10653,"95":10654,"netz":10655,"dropped":10656,"bling":10657,"1000":10658,"Ausland":10659,"twe":10660,"grie":10661,"ock":10662,"Münchner":10663,"trotzdem":10664,"äst":10665,"Another":10666,"organisation":10667,"unternehmen":10668,"Beschäft":10669,"umm":10670,"Konfl":10671,"wenigen":10672,"bestimm":10673,"ioren":10674,"suffered":10675,"cul":10676,"hindern":10677,"Beide":10678,"ries":10679,"Mrs":10680,"stars":10681,"Weise":10682,"illegal":10683,"arrived":10684,"agg":10685,"Ministerpräsident":10686,"obwohl":10687,"Ire":10688,"trib":10689,"Eing":10690,"holding":10691,"Konzept":10692,"NE":10693,"Quad":10694,"Jon":10695,"Arbeiten":10696,"finally":10697,"gather":10698,"leitet":10699,"erlä":10700,"brother":10701,"vorher":10702,"täu":10703,"coast":10704,"piece":10705,"meier":10706,"fasst":10707,"Verwaltung":10708,"Angeklag":10709,"Sl":10710,"Offic":10711,"Soll":10712,"Parteien":10713,"fuel":10714,"sometimes":10715,"Quart":10716,"immel":10717,"Maßnahmen":10718,"note":10719,"weapons":10720,"Kontakt":10721,"Aktiv":10722,"nachmittag":10723,"reporters":10724,"emergency":10725,"choice":10726,"Nov":10727,"operating":10728,"Matthias":10729,"Ker":10730,"einzige":10731,"schuld":10732,"Commit":10733,"Dank":10734,"gä":10735,"bereitet":10736,"IP":10737,"Stimmung":10738,"ammer":10739,"bomb":10740,"Ord":10741,"Justice":10742,"Ann":10743,"erfü":10744,"Justiz":10745,"Tanz":10746,"Lud":10747,"entwickelt":10748,"rig":10749,"pitch":10750,"leadership":10751,"schreiben":10752,"driver":10753,"Auftrag":10754,"Leon":10755,"confidence":10756,"successful":10757,"advant":10758,"61":10759,"spread":10760,"Schm":10761,"fluss":10762,"rank":10763,"ierenden":10764,"rochen":10765,"intens":10766,"Comput":10767,"afternoon":10768,"VP":10769,"Kel":10770,"icted":10771,"abuse":10772,"rob":10773,"Bull":10774,"gült":10775,"tur":10776,"steckt":10777,"revenue":10778,"spoke":10779,"freuen":10780,"phones":10781,"material":10782,"Zwar":10783,"chmal":10784,"Jugendliche":10785,"Herausforder":10786,"additional":10787,"män":10788,"contro":10789,"temper":10790,"erster":10791,"Vize":10792,"radio":10793,"toward":10794,"Hintergrund":10795,"iche":10796,"Ster":10797,"Folgen":10798,"remark":10799,"Since":10800,"Vorjahr":10801,"Öffentlich":10802,"hältnis":10803,"kirchen":10804,"fashion":10805,"Heinz":10806,"erinnert":10807,"plays":10808,"arf":10809,"admitted":10810,"Sun":10811,"abt":10812,"Neub":10813,"klass":10814,"Betriebs":10815,"Gewerk":10816,"liber":10817,"dress":10818,"Karriere":10819,"faces":10820,"Ireland":10821,"analys":10822,"fresh":10823,"housing":10824,"Mi":10825,"secretary":10826,"Lehrer":10827,"Wahlkampf":10828,"gerufen":10829,"cat":10830,"stimmen":10831,"mnas":10832,"caus":10833,"Fig":10834,"stür":10835,"Dinge":10836,"rule":10837,"survey":10838,"About":10839,"rechnen":10840,"seeking":10841,"guilty":10842,"airs":10843,"sound":10844,"gelt":10845,"wers":10846,"diskut":10847,"shut":10848,"laws":10849,"NP":10850,"suspe":10851,"believes":10852,"Nachwuchs":10853,"vereins":10854,"bestätigt":10855,"Reihe":10856,"Anh":10857,"azz":10858,"isierte":10859,"gemeinschaft":10860,"throughout":10861,"ural":10862,"ering":10863,"gebrochen":10864,"lernen":10865,"wouldn":10866,"older":10867,"ubil":10868,"bers":10869,"begin":10870,"Barr":10871,"ological":10872,"contact":10873,"Greg":10874,"Universität":10875,"Alb":10876,"Ausbildung":10877,"Jahrzehn":10878,"Jugendlichen":10879,"Brüssel":10880,"ßt":10881,"fehlen":10882,"girls":10883,"kö":10884,"begonnen":10885,"finished":10886,"700":10887,"frau":10888,"picture":10889,"Spitze":10890,"pension":10891,"sun":10892,"Mess":10893,"elling":10894,"ram":10895,"Work":10896,"reduce":10897,"dauer":10898,"Schweizer":10899,"ahnen":10900,"serve":10901,"lies":10902,"Italy":10903,"Eind":10904,"Abwehr":10905,"langu":10906,"wait":10907,"sky":10908,"batte":10909,"temberg":10910,"aker":10911,"wirken":10912,"Anteil":10913,"Hamburger":10914,"Wegen":10915,"ashed":10916,"motor":10917,"vertrag":10918,"stellungen":10919,"heft":10920,"spark":10921,"ID":10922,"caught":10923,"Flughafen":10924,"freien":10925,"western":10926,"bean":10927,"boys":10928,"aware":10929,"ING":10930,"VfL":10931,"gal":10932,"gestiegen":10933,"Syrian":10934,"häuser":10935,"church":10936,"unte":10937,"marriage":10938,"offers":10939,"Oder":10940,"dollars":10941,"domestic":10942,"female":10943,"haltung":10944,"forecast":10945,"Schö":10946,"BV":10947,"Still":10948,"ilfe":10949,"Spanien":10950,"ovic":10951,"Len":10952,"Eintr":10953,"books":10954,"mitteln":10955,"Bremen":10956,"hopes":10957,"mond":10958,"Ärzte":10959,"afft":10960,"wesen":10961,"niedr":10962,"lic":10963,"practice":10964,"seeing":10965,"cities":10966,"Hoffnung":10967,"carried":10968,"gesperrt":10969,"nungen":10970,"Auss":10971,"Labor":10972,"wunder":10973,"Hir":10974,"required":10975,"ordan":10976,"sowohl":10977,"verab":10978,"Committee":10979,"baden":10980,"Nachmittag":10981,"disap":10982,"Kal":10983,"Queen":10984,"quir":10985,"äten":10986,"millions":10987,"ARD":10988,"advert":10989,"Freib":10990,"wähl":10991,"enburg":10992,"Bul":10993,"whom":10994,"Ama":10995,"ändler":10996,"Klub":10997,"gling":10998,"Senioren":10999,"sele":11000,"Palest":11001,"Despite":11002,"unterstützt":11003,"Bom":11004,"ivals":11005,"entially":11006,"benefit":11007,"Vergangenheit":11008,"Sub":11009,"Rosen":11010,"Vi":11011,"thinking":11012,"Stamm":11013,"übrigen":11014,"motiv":11015,"tempor":11016,"elections":11017,"auftrag":11018,"Umsatz":11019,"maker":11020,"strategy":11021,"identified":11022,"Autor":11023,"assets":11024,"DFB":11025,"reichte":11026,"acker":11027,"ruck":11028,"department":11029,"opping":11030,"ätzlich":11031,"geschichte":11032,"älte":11033,"Barcel":11034,"Here":11035,"120":11036,"gien":11037,"Chief":11038,"meiner":11039,"wertung":11040,"schlecht":11041,"Suche":11042,"Tiere":11043,"gruppen":11044,"minor":11045,"ettel":11046,"internationalen":11047,"astrop":11048,"Both":11049,"Vorbereit":11050,".-":11051,"andelt":11052,"keits":11053,"brain":11054,"greater":11055,"option":11056,"71":11057,"movement":11058,"Bewer":11059,"presented":11060,"ables":11061,"angs":11062,"injuries":11063,"freund":11064,"Fischer":11065,"Saudi":11066,"ili":11067,"obvious":11068,"ikaner":11069,"Tel":11070,"Ehr":11071,"individual":11072,"eingesch":11073,"Organisation":11074,"Joe":11075,"ric":11076,"Domin":11077,"üst":11078,"edom":11079,"catch":11080,"Düsseldorf":11081,"Wunsch":11082,"Rö":11083,"gelungen":11084,"erwarten":11085,"kostet":11086,"limited":11087,"measure":11088,"onic":11089,"willing":11090,"Gesicht":11091,"passiert":11092,"agers":11093,"bedeutet":11094,"thal":11095,"Ot":11096,"Liebe":11097,"Technik":11098,"publik":11099,"izing":11100,"gründet":11101,"getötet":11102,"hofft":11103,"Sprech":11104,"explos":11105,"zählen":11106,"subject":11107,"Reform":11108,"showing":11109,"polize":11110,"floor":11111,"losing":11112,"greifen":11113,"erhält":11114,"activity":11115,"responsible":11116,"starke":11117,"uts":11118,"Why":11119,"Freunde":11120,"culture":11121,"Gabriel":11122,"intelligence":11123,"Kandidaten":11124,"rechte":11125,"euro":11126,"Cam":11127,"reden":11128,"kündigte":11129,"leichter":11130,"berichten":11131,"Fed":11132,"Münster":11133,"Kapit":11134,"dark":11135,"Tony":11136,"Weitere":11137,"waltungs":11138,"kleiner":11139,"yers":11140,"Hinweise":11141,"fanden":11142,"inson":11143,"gebung":11144,"bundes":11145,"stal":11146,"generation":11147,"path":11148,"Stadion":11149,"afr":11150,"concerned":11151,"ansicht":11152,"bericht":11153,"Neue":11154,"Treffer":11155,"cedes":11156,"Barcelona":11157,"solchen":11158,"Organis":11159,"usually":11160,"strahl":11161,"reme":11162,"näher":11163,"Gefühl":11164,"Pflege":11165,"engag":11166,"chan":11167,"declined":11168,"estimated":11169,"iction":11170,"ausende":11171,"istor":11172,"Fotos":11173,"iPh":11174,"necessary":11175,"stron":11176,"begrü":11177,"Schal":11178,"betroffen":11179,"Danach":11180,"96":11181,"Zeugen":11182,"erfahren":11183,"planning":11184,"singer":11185,"promot":11186,"aily":11187,"Centr":11188,"automat":11189,"addition":11190,"Gelände":11191,"imag":11192,"Karten":11193,"Assad":11194,"Gaz":11195,"Metern":11196,"igungen":11197,"Arme":11198,"conduct":11199,"reality":11200,"fristig":11201,"dangerous":11202,"kore":11203,"mental":11204,"agree":11205,"Liver":11206,"evening":11207,"kid":11208,"wichtige":11209,"vehicle":11210,"LINE":11211,"Standort":11212,"gessen":11213,"Bron":11214,"denied":11215,"Today":11216,"basis":11217,"mutlich":11218,"achim":11219,"Naz":11220,"usual":11221,"fährt":11222,"ifying":11223,"Prince":11224,"insist":11225,"refuge":11226,"gelöst":11227,"Bow":11228,"Dennoch":11229,"wären":11230,"soldiers":11231,"wirkt":11232,"hero":11233,"uert":11234,"tief":11235,"beschlossen":11236,"großes":11237,"merksam":11238,"Daily":11239,"Insel":11240,"Nür":11241,"Letzte":11242,"wid":11243,"Taliban":11244,"feeling":11245,"iced":11246,"Israeli":11247,"Hein":11248,"contest":11249,"shown":11250,"regard":11251,"Bos":11252,"complex":11253,"Federal":11254,"Integr":11255,"ießen":11256,"fis":11257,"EC":11258,"veter":11259,"Aff":11260,"jected":11261,"IM":11262,"häufig":11263,"Sum":11264,"ONLINE":11265,"aries":11266,"Ergebnisse":11267,"früheren":11268,"elte":11269,"stimm":11270,"Spain":11271,"reck":11272,"Ford":11273,"Bezir":11274,"Young":11275,"ckey":11276,"Nav":11277,"Fen":11278,"Arsen":11279,"kommun":11280,"Joachim":11281,"ifth":11282,"leisten":11283,"powerful":11284,"Antw":11285,"Verhandlungen":11286,"Brief":11287,"jüngsten":11288,"Market":11289,"Engagement":11290,"anze":11291,"stö":11292,"unten":11293,"TC":11294,"rett":11295,"traditional":11296,"Borus":11297,"kretär":11298,"rain":11299,"allegations":11300,"küm":11301,"holders":11302,"continues":11303,"kaufen":11304,"bilden":11305,"verhindern":11306,"Dieter":11307,"sprün":11308,"Natürlich":11309,"Quadrat":11310,"Vis":11311,"aub":11312,"Freude":11313,"amid":11314,"lle":11315,"fordern":11316,"urer":11317,"pflicht":11318,"Landtag":11319,"During":11320,"Linie":11321,"emen":11322,"Antwort":11323,"schrieb":11324,"receive":11325,"Brasil":11326,"Auftakt":11327,"Wander":11328,"ilder":11329,"Meinung":11330,"AfD":11331,"Möglichkeiten":11332,"besuch":11333,"democr":11334,"sleep":11335,"Hon":11336,"God":11337,"musikal":11338,"Kölner":11339,"overall":11340,"Ill":11341,"Mass":11342,"aktionen":11343,"sides":11344,"ziehung":11345,"Schützen":11346,"asketball":11347,"Dom":11348,"liter":11349,"würd":11350,"feiern":11351,"facing":11352,"voller":11353,"Hot":11354,"Cop":11355,"Gespräche":11356,"stets":11357,"gefallen":11358,"ierende":11359,"score":11360,"hte":11361,"Commun":11362,"dollar":11363,"lawyer":11364,"Good":11365,"neighbor":11366,"hofer":11367,"ichtlich":11368,"asi":11369,"Those":11370,"owski":11371,"iful":11372,"Steven":11373,"seat":11374,"grenz":11375,"Bag":11376,"Wissenschaft":11377,"bridge":11378,"spart":11379,"clin":11380,"mom":11381,"Radio":11382,"critical":11383,"Modell":11384,"construction":11385,"Origin":11386,"faced":11387,"belast":11388,"Ral":11389,"armed":11390,"Eck":11391,"angel":11392,"Kath":11393,"Sab":11394,"beginnen":11395,"Il":11396,"cow":11397,"nommen":11398,"uled":11399,"Mean":11400,"Johannes":11401,"arms":11402,"legten":11403,"Asia":11404,"Boston":11405,"ministerin":11406,"gs":11407,"äge":11408,"phan":11409,"Alters":11410,"Pat":11411,"ole":11412,"blue":11413,"Drogen":11414,"guard":11415,"icide":11416,"Geburtstag":11417,"hu":11418,"illing":11419,"flag":11420,"reser":11421,"Kontrolle":11422,"putting":11423,"schaden":11424,"angesichts":11425,"status":11426,"Plus":11427,"consult":11428,"Kein":11429,"Las":11430,"Liverpool":11431,"item":11432,"abeth":11433,"cape":11434,"Gymnas":11435,"Nic":11436,"shof":11437,"kan":11438,"Val":11439,"trägt":11440,"policies":11441,"nose":11442,"smart":11443,"punkte":11444,"Anhänger":11445,"inken":11446,"Yet":11447,"sted":11448,"Schließlich":11449,"ried":11450,"Mitt":11451,"steigt":11452,"Sonnen":11453,"kas":11454,"schützen":11455,"Unternehmens":11456,"ennen":11457,"FL":11458,"Jeder":11459,"except":11460,"Arm":11461,"swahl":11462,"vierten":11463,"cool":11464,"unver":11465,"candidates":11466,"proposed":11467,"Eigent":11468,"mail":11469,"boss":11470,"aufgenommen":11471,"Front":11472,"angekündigt":11473,"Besonders":11474,"ennung":11475,"Wes":11476,"commercial":11477,"Erinner":11478,"Lim":11479,"Ohne":11480,"äufer":11481,"hur":11482,"beginning":11483,"cture":11484,"günst":11485,"Nein":11486,"ruling":11487,"Mis":11488,"Palestin":11489,"asking":11490,"storm":11491,"kil":11492,"Kab":11493,"Oliver":11494,"flu":11495,"igrants":11496,"gage":11497,"kanzler":11498,"Agent":11499,"itsch":11500,"Murray":11501,"Bi":11502,"dia":11503,"igan":11504,"erheb":11505,"benöt":11506,"Feier":11507,"broke":11508,"Fair":11509,"male":11510,"Anschluss":11511,"computer":11512,"Halbzeit":11513,"doubt":11514,"getroffen":11515,"Prom":11516,"Thr":11517,"verantwortlich":11518,"repeated":11519,"lager":11520,"Gottes":11521,"Stephen":11522,"doctors":11523,"tö":11524,"ABC":11525,"VfB":11526,"Herren":11527,"kannt":11528,"patr":11529,"college":11530,"meinen":11531,"Clau":11532,"twice":11533,"Laden":11534,"alley":11535,"achieve":11536,"ients":11537,"harm":11538,"thy":11539,"ideos":11540,"Rap":11541,"genutzt":11542,"legislation":11543,"reiter":11544,"Mercedes":11545,"fertig":11546,"content":11547,"tourn":11548,"programme":11549,"rival":11550,"italien":11551,"versuchen":11552,"eventually":11553,"ched":11554,"fellow":11555,"highly":11556,"athlet":11557,"sens":11558,"konzern":11559,"Braun":11560,"Traum":11561,"darin":11562,"ährung":11563,"Bernd":11564,"suppl":11565,"gemeinde":11566,"machten":11567,"Pokal":11568,"Hessen":11569,"Berufs":11570,"secret":11571,"nutz":11572,"nacht":11573,"Pet":11574,"wahrscheinlich":11575,"ucky":11576,"writing":11577,"Deutschlands":11578,"herum":11579,"puty":11580,"Position":11581,"statements":11582,"istik":11583,"Büro":11584,"dence":11585,"Media":11586,"resign":11587,"Middle":11588,"Queens":11589,"stopped":11590,"Cur":11591,"ano":11592,"Lord":11593,"span":11594,"justice":11595,"Gemeinderat":11596,"reise":11597,"telling":11598,"senten":11599,"ucks":11600,"annel":11601,"warm":11602,"primary":11603,"becoming":11604,"jet":11605,"itzen":11606,"professional":11607,"Produkt":11608,"Bewegung":11609,"üche":11610,"carry":11611,"Mosk":11612,"CO":11613,"entfernt":11614,"Argent":11615,"stände":11616,"änen":11617,"cru":11618,"iebe":11619,"Pfl":11620,"Gew":11621,"plötzlich":11622,"Frankfurter":11623,"Harry":11624,"Polit":11625,"clearly":11626,"Year":11627,"ickets":11628,"broadcast":11629,"shar":11630,"enty":11631,"simple":11632,"affected":11633,"Menge":11634,"Motto":11635,"Stan":11636,"regelmäßig":11637,"liefert":11638,"angeboten":11639,"sorgte":11640,"achter":11641,"eyes":11642,"nock":11643,"Druckansicht":11644,"offering":11645,"Burg":11646,"electric":11647,"erc":11648,"73":11649,"Central":11650,"loved":11651,"Prinz":11652,"virt":11653,"Rod":11654,"Ludwig":11655,"spolitik":11656,"consumers":11657,"76":11658,"audience":11659,"Gewer":11660,"Zeitpunkt":11661,"disp":11662,"ubiläum":11663,"Bol":11664,"acting":11665,"confident":11666,"Kie":11667,"Staff":11668,"asche":11669,"scheduled":11670,"Ta":11671,"helping":11672,"74":11673,"finish":11674,"standards":11675,"Dauer":11676,"vertreter":11677,"Wohl":11678,"ships":11679,"clubs":11680,"wearing":11681,"endum":11682,"Lager":11683,"committed":11684,"Sachsen":11685,"Meanwhile":11686,"Schrift":11687,"Coast":11688,"Fan":11689,"army":11690,"asten":11691,"wear":11692,"Konkurrenz":11693,"loom":11694,"wise":11695,"bought":11696,"Grenzen":11697,"bound":11698,"Musiker":11699,"toll":11700,"Zun":11701,"Stiftung":11702,"Let":11703,"anging":11704,"knows":11705,"Jenn":11706,"Their":11707,"bann":11708,"fare":11709,"managed":11710,"konferenz":11711,"kolle":11712,"Öffentlichkeit":11713,"gery":11714,"ification":11715,"pun":11716,"Gi":11717,"Pir":11718,"sprechend":11719,"backed":11720,"stehe":11721,"opin":11722,"outh":11723,"Pac":11724,"occas":11725,"Studien":11726,"aufs":11727,"helm":11728,"CEO":11729,"Model":11730,"Bildung":11731,"Anna":11732,"jedenfalls":11733,"iveau":11734,"din":11735,"Amazon":11736,"Helfer":11737,"Eröff":11738,"Fernseh":11739,"Fran":11740,"frühere":11741,"gives":11742,"struck":11743,"programs":11744,"conflict":11745,"witness":11746,"rom":11747,"Zentral":11748,"äften":11749,"demokrat":11750,"appropr":11751,"RE":11752,"geschafft":11753,"Sinn":11754,"Dou":11755,"kul":11756,"pts":11757,"museum":11758,"ipfel":11759,"RT":11760,"Diskussion":11761,"Nation":11762,"sogenannten":11763,"Alles":11764,"Voraus":11765,"Cre":11766,"names":11767,"lers":11768,"writer":11769,"web":11770,"meth":11771,"appen":11772,"sust":11773,"las":11774,"Nachfrage":11775,"holds":11776,"winter":11777,"transfer":11778,"Fried":11779,"Micros":11780,"lived":11781,"type":11782,"zimmer":11783,"Mobil":11784,"Würt":11785,"uals":11786,"Borussia":11787,"fired":11788,"diesmal":11789,"splatz":11790,"läss":11791,"society":11792,"Lam":11793,"Autofahrer":11794,"appearance":11795,"Aufgaben":11796,"Att":11797,"verbess":11798,"learn":11799,"Dres":11800,"FT":11801,"discovered":11802,"crack":11803,"dadurch":11804,"ightly":11805,"acknow":11806,"prin":11807,"Immobil":11808,"endorf":11809,"accident":11810,"schwere":11811,"atoren":11812,"istin":11813,"mannschaft":11814,"Brun":11815,"Down":11816,"signs":11817,"umstritten":11818,"überzeugt":11819,"dring":11820,"Christoph":11821,"rät":11822,"vollen":11823,"Dokument":11824,"warnt":11825,"standard":11826,"Distr":11827,"purs":11828,"akter":11829,"waiting":11830,"verstär":11831,"voted":11832,"Jeff":11833,"pflich":11834,"ination":11835,"Hunder":11836,"Keine":11837,"Schauspiel":11838,"Walk":11839,"unterstützen":11840,"phy":11841,"handlung":11842,"Road":11843,"eline":11844,"hall":11845,"79":11846,"voice":11847,"getragen":11848,"Rio":11849,"married":11850,"icate":11851,"stabil":11852,"äck":11853,"Stür":11854,"prepared":11855,"gedacht":11856,"completely":11857,"teilweise":11858,"Frühjahr":11859,"gesamte":11860,"uung":11861,"increasingly":11862,"sekretär":11863,"shared":11864,"Aufsichts":11865,"treated":11866,"SPI":11867,"raising":11868,"Bew":11869,"übernehmen":11870,"keeping":11871,"Ath":11872,"yards":11873,"Charles":11874,"Verantwortung":11875,"anderes":11876,"ani":11877,"Studenten":11878,"pap":11879,"prec":11880,"geschäft":11881,"noted":11882,"Ell":11883,"LA":11884,"Deb":11885,"Statt":11886,"Dah":11887,"Jör":11888,"Text":11889,"zeichnete":11890,"Penn":11891,"gree":11892,"Strecke":11893,"droht":11894,"offens":11895,"Marc":11896,"cook":11897,"advantage":11898,"alarm":11899,"attend":11900,"remained":11901,"streets":11902,"Old":11903,"Bedeut":11904,"würfe":11905,"Geh":11906,"Virginia":11907,"üren":11908,"etten":11909,"fighters":11910,"nel":11911,"Quelle":11912,"Mario":11913,"beschäftigt":11914,"professor":11915,"Chor":11916,"kurs":11917,"Grüne":11918,"Todes":11919,"leiten":11920,"Keller":11921,"möglichst":11922,"Drittel":11923,"iano":11924,"Vereine":11925,"scale":11926,"daily":11927,"Hillary":11928,"aments":11929,"myself":11930,"richtet":11931,"mögliche":11932,"Jungen":11933,"highl":11934,"eröffnet":11935,"Computer":11936,"EZ":11937,"Debatte":11938,"Nachfolger":11939,"gehabt":11940,"Regional":11941,"Alko":11942,"Mand":11943,"collap":11944,"Archite":11945,"Wähler":11946,"oles":11947,"aked":11948,"projects":11949,"äumen":11950,"bisherigen":11951,"Mill":11952,"convers":11953,"Württemberg":11954,"susp":11955,"reign":11956,"Kapitän":11957,"untain":11958,"Damen":11959,"Nürn":11960,"axis":11961,"werte":11962,"Metro":11963,"sheim":11964,"fects":11965,"balance":11966,"attorney":11967,"Sem":11968,"unseren":11969,"Spezial":11970,"richtungen":11971,"reasons":11972,"Tha":11973,"damal":11974,"Leipzig":11975,"argument":11976,"befür":11977,"fifth":11978,"ses":11979,"Schneider":11980,"täglich":11981,"gemeinsamen":11982,"developed":11983,"Fal":11984,"frequ":11985,"paying":11986,"Kirch":11987,"bly":11988,"views":11989,"gain":11990,"Who":11991,"Sign":11992,"jahres":11993,"Rand":11994,"airport":11995,"Handball":11996,"expert":11997,"Rober":11998,"refused":11999,"sitzt":12000,"jing":12001,"stätte":12002,"meaning":12003,"sprecher":12004,"fly":12005,"ippe":12006,"Wettbewerb":12007,"stab":12008,"Pläne":12009,"bled":12010,"cycl":12011,"derungen":12012,"gefragt":12013,"largely":12014,"gering":12015,"gesamten":12016,"jok":12017,"profession":12018,"Portug":12019,"rum":12020,"gek":12021,"dorfer":12022,"Demokrat":12023,"ieds":12024,"diag":12025,"1980":12026,"fficient":12027,"liefer":12028,"language":12029,"hielten":12030,"aret":12031,"limit":12032,"Tun":12033,"Schwarzw":12034,"Zuletzt":12035,"Taylor":12036,"consumer":12037,"ierter":12038,"core":12039,"risks":12040,"süd":12041,"focused":12042,"bekam":12043,"Italian":12044,"wissenschaft":12045,"iften":12046,"prüft":12047,"demnach":12048,"Box":12049,"ühren":12050,"präsentiert":12051,"bekannten":12052,"Turkey":12053,"governor":12054,"fläche":12055,"fangen":12056,"wei":12057,"prakt":12058,"iPhone":12059,"Preise":12060,"bemer":12061,"Carolina":12062,"earnings":12063,"innov":12064,"zerst":12065,"scor":12066,"aks":12067,"ahm":12068,"orth":12069,"Grenze":12070,"Pau":12071,"Arena":12072,"annien":12073,"leute":12074,"watching":12075,"steps":12076,"exactly":12077,"Göt":12078,"delay":12079,"filed":12080,"linked":12081,"science":12082,"Army":12083,"Business":12084,"difference":12085,"luss":12086,"upper":12087,"Berat":12088,"supply":12089,"tests":12090,"scen":12091,"symp":12092,"chest":12093,"recovery":12094,"jung":12095,"Card":12096,"thes":12097,"Lad":12098,"vehicles":12099,"Aufl":12100,"feed":12101,"Szene":12102,"Zeichen":12103,"Fahrzeuge":12104,"griech":12105,"losses":12106,"Gebie":12107,"guy":12108,"iles":12109,"Krank":12110,"feuer":12111,"Manuel":12112,"install":12113,"Konzer":12114,"Verbraucher":12115,"rev":12116,"vorne":12117,"definit":12118,"kamp":12119,"clim":12120,"Cru":12121,"ingly":12122,"ledged":12123,"iffe":12124,"ths":12125,"Microsoft":12126,"entstehen":12127,"spokeswoman":12128,"ultural":12129,"stellvertreten":12130,"warning":12131,"laden":12132,"ji":12133,"Oscar":12134,"Wat":12135,"britannien":12136,"horr":12137,"komme":12138,"tut":12139,"defence":12140,"captain":12141,"aturen":12142,"Are":12143,"anschließend":12144,"Hospital":12145,"responsibility":12146,"Einige":12147,"Forscher":12148,"Management":12149,"stamm":12150,"ox":12151,"Champion":12152,"Island":12153,"corporate":12154,"spring":12155,"plätze":12156,"wirt":12157,"attle":12158,"ender":12159,"bürgermeister":12160,"Lok":12161,"insp":12162,"Kapital":12163,"Tob":12164,"EGEL":12165,"Sanierung":12166,"Dub":12167,"Eintracht":12168,"Klinik":12169,"splan":12170,"heutigen":12171,"records":12172,"worse":12173,"produced":12174,"Meer":12175,"Duell":12176,"Wag":12177,"Zusammenhang":12178,"ei":12179,"Olympic":12180,"SPIEGEL":12181,"Brook":12182,"prop":12183,"images":12184,"Horst":12185,"bestätigte":12186,"schte":12187,"College":12188,"stuff":12189,"Schieds":12190,"gesucht":12191,"Nico":12192,"bayer":12193,"autiful":12194,"überrasch":12195,"mbH":12196,"Grenz":12197,"strafe":12198,"mine":12199,"Adel":12200,"bern":12201,"various":12202,"lieber":12203,"dritte":12204,"cohol":12205,"Pfer":12206,"Erfahrung":12207,"Canad":12208,"merz":12209,"Leitung":12210,"trig":12211,"Four":12212,"Sturm":12213,"beruf":12214,"fortun":12215,"aircraft":12216,"traffic":12217,"tes":12218,"Lewis":12219,"hurt":12220,"schm":12221,"Vielleicht":12222,"idung":12223,"Initiative":12224,"zeigten":12225,"ministers":12226,"mostly":12227,"TuS":12228,"cents":12229,"maßnahmen":12230,"IG":12231,"lehr":12232,"beitr":12233,"Bell":12234,"Eisen":12235,"stunden":12236,"agues":12237,"oppon":12238,"Großbritannien":12239,"Power":12240,"gesto":12241,"assault":12242,"Jag":12243,"Ash":12244,"legenheit":12245,"frustr":12246,"formen":12247,"geraten":12248,"freie":12249,"iana":12250,"ET":12251,"retire":12252,"emotional":12253,"Qa":12254,"documents":12255,"brut":12256,"Cy":12257,"behörde":12258,"bte":12259,"Arsenal":12260,"Aufstieg":12261,"stories":12262,"Such":12263,"defend":12264,"verbunden":12265,"kes":12266,"trainer":12267,"ammed":12268,"protests":12269,"Bedeutung":12270,"restaurant":12271,"gig":12272,"Sarah":12273,"stress":12274,"ohnehin":12275,"Bezirks":12276,"snow":12277,"lande":12278,"Zentrum":12279,"mär":12280,"äußer":12281,"options":12282,"loan":12283,"geplanten":12284,"Three":12285,"auso":12286,"otsdam":12287,"lösen":12288,"beteiligt":12289,"island":12290,"gay":12291,"aide":12292,"kürz":12293,"spät":12294,"Sho":12295,"erkennen":12296,"iest":12297,"ordered":12298,"Innenstadt":12299,"unit":12300,"Liste":12301,"teils":12302,"oping":12303,"samm":12304,"exerc":12305,"recor":12306,"beach":12307,"chines":12308,"obby":12309,"äub":12310,"frühen":12311,"Bilanz":12312,"Spenden":12313,"entdeckt":12314,"amerikanischen":12315,"Japanese":12316,"Kredit":12317,"Rauch":12318,"Hong":12319,"xit":12320,"Carl":12321,"Potsdam":12322,"exchange":12323,"uner":12324,"sparen":12325,"Fab":12326,"stream":12327,"Interess":12328,"Cub":12329,"taxes":12330,"medizin":12331,"ehm":12332,"abgeschlossen":12333,"effective":12334,"aland":12335,"Prov":12336,"dut":12337,"Financ":12338,"speaking":12339,"müsste":12340,"setting":12341,"negative":12342,"verschiedene":12343,"Stephan":12344,"rän":12345,"register":12346,"Verwaltungs":12347,"ctive":12348,"ipe":12349,"Einer":12350,"Tö":12351,"Beijing":12352,"2020":12353,"ischem":12354,"GmbH":12355,"dat":12356,"zit":12357,"Gerhard":12358,"founder":12359,"Francisco":12360,"Überrasch":12361,"Freist":12362,"Nutzer":12363,"broken":12364,"Jordan":12365,"awa":12366,"Vom":12367,"northern":12368,"Golf":12369,"nötig":12370,"ängnis":12371,"festgenommen":12372,"uff":12373,"erhielt":12374,"gleichzeitig":12375,"französischen":12376,"Schuss":12377,"ugby":12378,"River":12379,"separate":12380,"healthy":12381,"gelern":12382,"weite":12383,"immigration":12384,"verlänger":12385,"Jean":12386,"ipment":12387,"98":12388,"failure":12389,"Oster":12390,"decisions":12391,"Hay":12392,"Autobahn":12393,"Hit":12394,"mm":12395,"Hamil":12396,"verpflich":12397,"Bewohner":12398,"assess":12399,"Stars":12400,"verdient":12401,"crimin":12402,"iring":12403,"kä":12404,"Refer":12405,"Hamilton":12406,"LD":12407,"Ale":12408,"hoffen":12409,"BMW":12410,"Pflicht":12411,"deaths":12412,"Neuer":12413,"kirche":12414,"Veranstaltungen":12415,"Andr":12416,"SA":12417,"expand":12418,"Schalke":12419,"sorgt":12420,"funk":12421,"upon":12422,"amts":12423,"surgery":12424,"zweif":12425,"Gerade":12426,"konzentr":12427,"caption":12428,"Ideen":12429,"sav":12430,"Victoria":12431,"giant":12432,"Coll":12433,"linger":12434,"speziel":12435,"FI":12436,"aktions":12437,"ehren":12438,"rene":12439,"lyn":12440,"estate":12441,"accounts":12442,"Jim":12443,"umn":12444,"Alkohol":12445,"minim":12446,"hängt":12447,"usen":12448,"inquir":12449,"southern":12450,"Life":12451,"itation":12452,"photos":12453,"physical":12454,"ktionen":12455,"Author":12456,"getan":12457,"Supreme":12458,"Franken":12459,"Kämp":12460,"guar":12461,"regime":12462,"mous":12463,"conds":12464,"Mut":12465,"fein":12466,"aints":12467,"signal":12468,"corre":12469,"tournament":12470,"geblieben":12471,"gast":12472,"itude":12473,"Wehr":12474,"finding":12475,"monat":12476,"Ernst":12477,"Global":12478,"Baby":12479,"mention":12480,"vermutlich":12481,"öder":12482,"geworfen":12483,"Repor":12484,"Ausgleich":12485,"Fahrrad":12486,"Foreign":12487,"penalty":12488,"ergän":12489,"conservative":12490,"Stär":12491,"ziehungs":12492,"Sachen":12493,"pregn":12494,"positions":12495,"Fehl":12496,"holte":12497,"festival":12498,"cession":12499,"Wachstum":12500,"Spark":12501,"Corp":12502,"analysts":12503,"reporting":12504,"joint":12505,"resources":12506,"mouth":12507,"Qualität":12508,"distrib":12509,"wenden":12510,"Temper":12511,"pause":12512,"sätze":12513,"wärt":12514,"wus":12515,"jour":12516,"advice":12517,"popul":12518,"asp":12519,"doctor":12520,"fish":12521,"mutmaß":12522,"gefeiert":12523,"gefordert":12524,"Aust":12525,"gutes":12526,"resist":12527,"Sig":12528,"Mont":12529,"nearby":12530,"Sea":12531,"stick":12532,"theater":12533,"gefahren":12534,"aktuelle":12535,"meld":12536,"university":12537,"fällig":12538,"herself":12539,"PA":12540,"bess":12541,"griffe":12542,"FBI":12543,"ressive":12544,"dramat":12545,"Marco":12546,"Treas":12547,"zed":12548,"quarters":12549,"Untersuchung":12550,"körper":12551,"Gau":12552,"schüt":12553,"bestehen":12554,"scientists":12555,"directly":12556,"Basis":12557,"stanz":12558,"abinet":12559,"unklar":12560,"Plätze":12561,"orient":12562,"Come":12563,"Erdo":12564,"86":12565,"udden":12566,"Ali":12567,"ziemlich":12568,"Blue":12569,"istry":12570,"Wohnungen":12571,"aham":12572,"Gedanken":12573,"stret":12574,"--------":12575,"organization":12576,"squad":12577,"Handels":12578,"öger":12579,"verlang":12580,"syr":12581,"traum":12582,"kehrt":12583,"för":12584,"künst":12585,"Helmut":12586,"weiterer":12587,"explained":12588,"Davis":12589,"beauftrag":12590,"Div":12591,"Fahrt":12592,"leihen":12593,"Ander":12594,"Abr":12595,"allegedly":12596,"Risiko":12597,"shots":12598,"Wiesbaden":12599,"activities":12600,"Haushalt":12601,"mic":12602,"agend":12603,"unbedingt":12604,"Kos":12605,"pulled":12606,"Rücken":12607,"Prä":12608,"Fällen":12609,"raus":12610,"jur":12611,"protection":12612,"Neubau":12613,"consist":12614,"Abstieg":12615,"Wür":12616,"Ple":12617,"Mio":12618,"nar":12619,"defeat":12620,"ec":12621,"Schauspieler":12622,"Like":12623,"prepar":12624,"DJ":12625,"gearbeitet":12626,"coalition":12627,"symbol":12628,"jail":12629,"Börsen":12630,"Westf":12631,"acke":12632,"firms":12633,"Associated":12634,"Stimme":12635,"Great":12636,"Northern":12637,"passengers":12638,"kritisiert":12639,"Anth":12640,"Rum":12641,"getreten":12642,"üge":12643,"suggests":12644,"Pkw":12645,"schulen":12646,"startet":12647,"Financial":12648,"gelaufen":12649,"emy":12650,"kämpft":12651,"Journalisten":12652,"Common":12653,"spiegel":12654,"prüfen":12655,"glaubt":12656,"votes":12657,"eingesetzt":12658,"1999":12659,"NAT":12660,"itals":12661,"ighted":12662,"artet":12663,"werfen":12664,"Westen":12665,"Nad":12666,"McCain":12667,"itial":12668,"Uni":12669,"Long":12670,"verurteilt":12671,"secure":12672,"schätzung":12673,"effects":12674,"Anlage":12675,"providing":12676,"Derby":12677,"wins":12678,"mehrfach":12679,"Instead":12680,"yard":12681,"bitter":12682,"Allein":12683,"83":12684,"weiten":12685,"angr":12686,"earth":12687,"Schloss":12688,"Beitrag":12689,"ärm":12690,"Kaffe":12691,"influence":12692,"oche":12693,"politicians":12694,"nature":12695,"proposal":12696,"Verletzungen":12697,"Mittelfeld":12698,"Jubiläum":12699,"Anti":12700,"Jörg":12701,"vorgesehen":12702,"Favor":12703,"Jur":12704,"auth":12705,"Gree":12706,"bedarf":12707,"yes":12708,"Kul":12709,"approv":12710,"thet":12711,"wendet":12712,"81":12713,"curren":12714,"pictures":12715,"führten":12716,"82":12717,"kins":12718,"verlor":12719,"Kommunen":12720,"serving":12721,"Fas":12722,"Wicht":12723,"features":12724,"elected":12725,"orten":12726,"verdien":12727,"guys":12728,"Fur":12729,"acity":12730,"ancing":12731,"vorstellen":12732,"CBS":12733,"jährlich":12734,"Games":12735,"ously":12736,"gefährlich":12737,"MS":12738,"approved":12739,"dogs":12740,"avel":12741,"berecht":12742,"anony":12743,"beschäd":12744,"ruhe":12745,"seconds":12746,"announcement":12747,"Stellung":12748,"Any":12749,"bury":12750,"städt":12751,"gram":12752,"beautiful":12753,"rail":12754,"Social":12755,"Sprecherin":12756,"affect":12757,"insbesondere":12758,"Anzeiger":12759,"ackt":12760,"protesters":12761,"promise":12762,"rooms":12763,"Klar":12764,"sozialen":12765,"leistung":12766,"Fire":12767,"Shar":12768,"allowing":12769,"Thür":12770,"Osten":12771,"hängen":12772,"entwicklung":12773,"ichert":12774,"Bang":12775,"89":12776,"article":12777,"swire":12778,"produce":12779,"Kindergarten":12780,"Norden":12781,"Pfarrer":12782,"sty":12783,"alcohol":12784,"gesp":12785,"Florian":12786,"ordent":12787,"Mord":12788,"Reserve":12789,"entstanden":12790,"zahlreichen":12791,"Tennis":12792,"Vorstands":12793,"Niger":12794,"irat":12795,"Ihnen":12796,"seas":12797,"religious":12798,"District":12799,"Flucht":12800,"album":12801,"ermittelt":12802,"Renn":12803,"blieben":12804,"Korean":12805,"Energy":12806,"Cha":12807,"district":12808,"junkt":12809,"CC":12810,"Kanzlerin":12811,"patient":12812,"plin":12813,"platform":12814,"Beach":12815,"labor":12816,"bodies":12817,"Sher":12818,"ordinary":12819,"maybe":12820,"eingeladen":12821,"novel":12822,"fällen":12823,"abhängig":12824,"knock":12825,"Denk":12826,"gment":12827,"Eindruck":12828,"sprache":12829,"Ferien":12830,"flex":12831,"werks":12832,"drama":12833,"Av":12834,"citizens":12835,"schlug":12836,"sister":12837,"Mik":12838,"informiert":12839,"expensive":12840,"Kamer":12841,"refle":12842,"Bildungs":12843,"stärk":12844,"wohnt":12845,"nennt":12846,"hilfe":12847,"Station":12848,"Fenster":12849,"Anne":12850,"rechnet":12851,"Leverk":12852,"cred":12853,"Immobilien":12854,"grew":12855,"Wa":12856,"Brexit":12857,"schwierig":12858,"ours":12859,"Beding":12860,"Uwe":12861,"Rückkehr":12862,"Erwachsen":12863,"leiden":12864,"schne":12865,"Mannschaften":12866,"advoc":12867,"ialog":12868,"Serv":12869,"falling":12870,"russischen":12871,"Sonne":12872,"Pas":12873,"Stern":12874,"Qualifik":12875,"gerecht":12876,"loans":12877,"Leg":12878,"vul":12879,"bles":12880,"sels":12881,"steig":12882,"gesund":12883,"fügt":12884,"rally":12885,"Bris":12886,"Bundeskanzler":12887,"bail":12888,"Rose":12889,"Greece":12890,"Psych":12891,"Care":12892,"pfen":12893,"Hü":12894,"leng":12895,"ruled":12896,"flat":12897,"bigger":12898,"Kro":12899,"rechten":12900,"NRW":12901,"ighten":12902,"debut":12903,"legend":12904,"Eric":12905,"Trainings":12906,"Leistungen":12907,"NY":12908,"Parliament":12909,"Vogel":12910,"crew":12911,"Derzeit":12912,"worry":12913,"genannt":12914,"Church":12915,"rough":12916,"jury":12917,"Mode":12918,"polizei":12919,"Rettung":12920,"OL":12921,"Wr":12922,"memor":12923,"grab":12924,"bottom":12925,"Homepage":12926,"suspect":12927,"afé":12928,"vorsitzende":12929,"Nas":12930,"Barbar":12931,"write":12932,"sä":12933,"promised":12934,"unlikely":12935,"Zealand":12936,"sibly":12937,"internet":12938,"melden":12939,"positiv":12940,"schafter":12941,"shel":12942,"guest":12943,"liste":12944,"ela":12945,"mens":12946,"starten":12947,"ächtigen":12948,"Wunder":12949,"terrorism":12950,"buying":12951,"oma":12952,"Erkennt":12953,"software":12954,"funktioniert":12955,"breaking":12956,"Arzt":12957,"Swe":12958,"Public":12959,"Umfrage":12960,"inflation":12961,"changing":12962,"pra":12963,"treme":12964,"Zweit":12965,"illen":12966,"Spann":12967,"Moskau":12968,"carrying":12969,"Moh":12970,"Muse":12971,"bench":12972,"equipment":12973,"Cle":12974,"bedeut":12975,"smaller":12976,"klage":12977,"perman":12978,"ols":12979,"loy":12980,"epis":12981,"provides":12982,"ollen":12983,"predict":12984,"Nations":12985,"Sorgen":12986,"multiple":12987,"isk":12988,"84":12989,"Dax":12990,"Carr":12991,"gebie":12992,"wiederum":12993,"Wood":12994,"photograph":12995,"Brü":12996,"email":12997,"starts":12998,"sung":12999,"entstand":13000,"Erste":13001,"Hard":13002,"Himmel":13003,"Transport":13004,"GA":13005,"Ner":13006,"gangs":13007,"Ferr":13008,"Prin":13009,"finance":13010,"sought":13011,"dlich":13012,"akte":13013,"stecken":13014,"übernommen":13015,"sitting":13016,"beeindruck":13017,"Hermann":13018,"Ohio":13019,"manchmal":13020,"Hou":13021,"communities":13022,"Block":13023,"terrorist":13024,"payments":13025,"orben":13026,"glass":13027,"heat":13028,"grat":13029,"surprise":13030,"existing":13031,"heads":13032,"Regisse":13033,"Eb":13034,"apping":13035,"prefer":13036,"bez":13037,"Handy":13038,"einzelnen":13039,"Snow":13040,"erlau":13041,"Stru":13042,"MPs":13043,"Found":13044,"haber":13045,"Earth":13046,"cold":13047,"PC":13048,"behaup":13049,"Olympia":13050,"stores":13051,"corner":13052,"uliert":13053,"bull":13054,"blog":13055,"mitten":13056,"EZB":13057,"Anthony":13058,"schir":13059,"Gemeinden":13060,"flow":13061,"Watch":13062,"Kelly":13063,"Beob":13064,"agencies":13065,"prove":13066,"Ariz":13067,"Arn":13068,"sees":13069,"Call":13070,"Wolfsburg":13071,"Darm":13072,"Gründen":13073,"wett":13074,"ilities":13075,"kauft":13076,"ümer":13077,"Tax":13078,"hardt":13079,"kat":13080,"endgült":13081,"Stürmer":13082,"wichtiger":13083,"reading":13084,"profile":13085,"tat":13086,"beweg":13087,"garden":13088,"Ausbau":13089,"guide":13090,"ped":13091,"losigkeit":13092,"collection":13093,"äder":13094,"panel":13095,"depart":13096,"cin":13097,"ruf":13098,"TON":13099,"Agentur":13100,"Anfrage":13101,"owa":13102,"Bauern":13103,"initiative":13104,"scheme":13105,"Sour":13106,"erlebt":13107,"atures":13108,"establish":13109,"Außenminister":13110,"HSV":13111,"klärt":13112,"suicide":13113,"Its":13114,"freedom":13115,"presence":13116,"remaining":13117,"reisen":13118,"convic":13119,"adel":13120,"bö":13121,"Veränder":13122,"hasn":13123,"Andrea":13124,"Spanish":13125,"declared":13126,"camera":13127,"Sports":13128,"extremely":13129,"kund":13130,"Nah":13131,"idel":13132,"tech":13133,"klagt":13134,"Marke":13135,"forcement":13136,"gebil":13137,"Jähriger":13138,"Fisch":13139,"Ausschuss":13140,"Bruder":13141,"iens":13142,"magazine":13143,"Former":13144,"Edin":13145,"pping":13146,"reportedly":13147,"Komment":13148,"OK":13149,"Dreh":13150,"ähnlich":13151,"baum":13152,"sogenannte":13153,"CH":13154,"Arbeitgeber":13155,"1970":13156,"Bud":13157,"larger":13158,"dürften":13159,"nic":13160,"GOP":13161,"criticism":13162,"sets":13163,"endung":13164,"grade":13165,"Ermittler":13166,"conclu":13167,"fühlt":13168,"gelte":13169,"vit":13170,"Verfassungs":13171,"Europäischen":13172,"Jam":13173,"offiziell":13174,"edge":13175,"temporary":13176,"geleitet":13177,"prot":13178,"entwickeln":13179,"Tradition":13180,"bringing":13181,"athon":13182,"editor":13183,"somit":13184,"durchschnitt":13185,"Anschlag":13186,"beendet":13187,"imir":13188,"Foot":13189,"marketing":13190,"lets":13191,"stagram":13192,"Mach":13193,"venues":13194,"zugleich":13195,"Zehn":13196,"ipt":13197,"alongside":13198,"ental":13199,"NATO":13200,"Projekte":13201,"auern":13202,"Papier":13203,"introduced":13204,"flächen":13205,"vac":13206,"arten":13207,"inspe":13208,"utch":13209,"verständlich":13210,"hes":13211,"übrigens":13212,"Because":13213,"individuals":13214,"GB":13215,"Hör":13216,"umente":13217,"contributed":13218,"ippen":13219,"coverage":13220,"Hersteller":13221,"Sprache":13222,"einger":13223,"87":13224,"Wege":13225,"sentence":13226,"Schnitt":13227,"fraud":13228,"Kilo":13229,"Ep":13230,"messen":13231,"ischt":13232,"usal":13233,"Kate":13234,"elten":13235,"Trend":13236,"richtige":13237,"endet":13238,"imeter":13239,"presents":13240,"tätig":13241,"Dun":13242,"proud":13243,"degree":13244,"appropriate":13245,"urged":13246,"governments":13247,"Human":13248,"updated":13249,"vergessen":13250,"chtet":13251,"Städte":13252,"öffentlicht":13253,"gender":13254,"tery":13255,"Bio":13256,"tert":13257,"Econom":13258,"Haushalts":13259,"circum":13260,"guter":13261,"Details":13262,"mache":13263,"challenges":13264,"leider":13265,"developing":13266,"wechselt":13267,"hole":13268,"decide":13269,"Kong":13270,"slightly":13271,"sehe":13272,"gow":13273,"cerem":13274,"Schuld":13275,"Andy":13276,"stolz":13277,"Bür":13278,"Miami":13279,"films":13280,"genauso":13281,"Editing":13282,"Spiegel":13283,"Force":13284,"verteidiger":13285,"industrial":13286,"una":13287,"grunds":13288,"Pers":13289,"Fälle":13290,"onen":13291,"phase":13292,"uncertain":13293,"Regierungschef":13294,"Irish":13295,"negotiations":13296,"Julia":13297,"wichtigsten":13298,"weiteres":13299,"kunde":13300,"Fernsehen":13301,"probe":13302,"completed":13303,"Pict":13304,"Worten":13305,"turning":13306,"ägt":13307,"Schulz":13308,"stances":13309,"occup":13310,"interests":13311,"award":13312,"Christop":13313,"Nieders":13314,"Sieben":13315,"produz":13316,"vergleich":13317,"skin":13318,"islam":13319,"colleagues":13320,"Schnee":13321,"Hig":13322,"Material":13323,"berüh":13324,"Book":13325,"dahin":13326,"therap":13327,"Überg":13328,"Einwohner":13329,"mitglieder":13330,"unable":13331,"reduz":13332,"Oct":13333,"zweimal":13334,"deals":13335,"glaube":13336,"schlägt":13337,"gus":13338,"hits":13339,"gemeinsame":13340,"expressed":13341,"opportunities":13342,"hack":13343,"gemel":13344,"Instagram":13345,"eröff":13346,"wartet":13347,"pfl":13348,"Schiedsrichter":13349,"convicted":13350,"okraten":13351,"1998":13352,"destroy":13353,"sige":13354,"Squ":13355,"Versicher":13356,"happens":13357,"offensive":13358,"ero":13359,"stattfinden":13360,"iation":13361,"handed":13362,"insen":13363,"younger":13364,"Marcel":13365,"Dig":13366,"eler":13367,"Kader":13368,"fiscal":13369,"picked":13370,"instr":13371,"struggling":13372,"alternative":13373,"creating":13374,"verlieren":13375,"Brandenburg":13376,"houses":13377,"nannte":13378,"ligisten":13379,"sad":13380,"zeichnung":13381,"ware":13382,"pound":13383,"determined":13384,"Ring":13385,"eless":13386,"ehrenamt":13387,"tells":13388,"bele":13389,"Hur":13390,"analyst":13391,"befindet":13392,"erleben":13393,"Tok":13394,"incred":13395,"Queensland":13396,"ira":13397,"Verhalten":13398,"anstalter":13399,"geplante":13400,"idi":13401,"steil":13402,"IR":13403,"Leistungs":13404,"Senator":13405,"iziert":13406,"handeln":13407,"Linke":13408,"theast":13409,"immerhin":13410,"Manfred":13411,"veranstalt":13412,"agne":13413,"unfall":13414,"Zweifel":13415,"bron":13416,"Riesen":13417,"Polen":13418,"quote":13419,"Gefängnis":13420,"felder":13421,"Morgan":13422,"Vorwürfe":13423,"laufenden":13424,"Worte":13425,"jun":13426,"pull":13427,"Erdogan":13428,"route":13429,"Gul":13430,"aurants":13431,"ständige":13432,"clash":13433,"bessere":13434,"relations":13435,"controver":13436,"Versuch":13437,"Mitarbeit":13438,"linie":13439,"Schiff":13440,"initial":13441,"überraschend":13442,"nations":13443,"Miller":13444,"bane":13445,"truth":13446,"Herzen":13447,"ursprün":13448,"hört":13449,"ÖVP":13450,"decline":13451,"icts":13452,"strength":13453,"removed":13454,"Roh":13455,"ading":13456,"akzept":13457,"walking":13458,"Freiheit":13459,"cean":13460,"learned":13461,"Magaz":13462,"studies":13463,"allows":13464,"Konflikt":13465,"quer":13466,"deln":13467,"Ly":13468,"beln":13469,"Kassen":13470,"avier":13471,"cruc":13472,"sudden":13473,"Auswahl":13474,"NHS":13475,"trouble":13476,"Jen":13477,"curities":13478,"hauses":13479,"Game":13480,"ügen":13481,"Löwen":13482,"Edinburgh":13483,"üch":13484,"behavi":13485,"irr":13486,"Häuser":13487,"emerged":13488,"involve":13489,"verbre":13490,"verabschie":13491,"900":13492,"konkre":13493,"finde":13494,"verstehen":13495,"Canadian":13496,"Boy":13497,"Westfalen":13498,"Lebensmittel":13499,"ping":13500,"conce":13501,"infrastru":13502,"Salzburg":13503,"anded":13504,"allies":13505,"notwendig":13506,"selben":13507,"erstellt":13508,"verurs":13509,"Urlaub":13510,"Änderung":13511,"Ersatz":13512,"Armee":13513,"arzt":13514,"Kaiser":13515,"Teile":13516,"enttäu":13517,"sanctions":13518,"Instr":13519,"iumph":13520,"shr":13521,"confirm":13522,"Müll":13523,"Jes":13524,"Agency":13525,"orders":13526,"orte":13527,"Obwohl":13528,"matches":13529,"Name":13530,"Cont":13531,"mile":13532,"Ven":13533,"Verbindung":13534,"Ever":13535,"ährungs":13536,"function":13537,"Newswire":13538,"wichtigen":13539,"Schum":13540,"Generation":13541,"ademy":13542,"master":13543,"Nürnberg":13544,"tau":13545,"Pad":13546,"Rechn":13547,"AFP":13548,"adbach":13549,"Einkauf":13550,"Wagner":13551,"vast":13552,"earned":13553,"Reporter":13554,"nennen":13555,"tauch":13556,"Institut":13557,"Ten":13558,"absolv":13559,"frem":13560,"lichkeiten":13561,"Graf":13562,"oned":13563,"onds":13564,"Look":13565,"plea":13566,"Quartal":13567,"Verhältnis":13568,"Dur":13569,"Ga":13570,"Massen":13571,"Augsburg":13572,"nice":13573,"Julian":13574,"deutscher":13575,"unting":13576,"schwarz":13577,"belt":13578,"bten":13579,"Barbara":13580,"III":13581,"sight":13582,"hoping":13583,"promin":13584,"Europas":13585,"Blau":13586,"Jersey":13587,"Hilfs":13588,"capacity":13589,"flood":13590,"Zent":13591,"militants":13592,"Grem":13593,"Tit":13594,"zentrale":13595,"fees":13596,"Iraqi":13597,"Schre":13598,"hilft":13599,"quiet":13600,"Edu":13601,"Time":13602,"strikes":13603,"animals":13604,"Trotzdem":13605,"Capital":13606,"sters":13607,"uchten":13608,"embr":13609,"Erfahrungen":13610,"finals":13611,"withdraw":13612,"gende":13613,"closer":13614,"veröffentlicht":13615,"Eröffnung":13616,"Stadium":13617,"Produktion":13618,"blow":13619,"arrange":13620,"lab":13621,"Week":13622,"begeistert":13623,"solution":13624,"Gang":13625,"potentially":13626,"faith":13627,"verzichten":13628,"exhib":13629,"unserem":13630,"Zuvor":13631,"äumt":13632,"verbot":13633,"peten":13634,"folgte":13635,"respond":13636,"feature":13637,"orie":13638,"Felix":13639,"Fein":13640,"itar":13641,"Umgang":13642,"registr":13643,"anlagen":13644,"kinder":13645,"Bisher":13646,"artist":13647,"mensch":13648,"schneller":13649,"Elektr":13650,"Saal":13651,"organiz":13652,"ladimir":13653,"Verlust":13654,"monitor":13655,"Gelegenheit":13656,"Services":13657,"Investoren":13658,"Broad":13659,"Messe":13660,"lux":13661,"owed":13662,"dauern":13663,"expectations":13664,"Hunde":13665,"erklären":13666,"Nachrichtenagentur":13667,"Wilson":13668,"möglicherweise":13669,"Gord":13670,"analysis":13671,"reifen":13672,"Pier":13673,"gestorben":13674,"Gemeins":13675,"Eig":13676,"familiar":13677,"ml":13678,"driven":13679,"ipping":13680,"Mitch":13681,"pended":13682,"suffering":13683,"easily":13684,"ffer":13685,"established":13686,"eat":13687,"boat":13688,"switch":13689,"illy":13690,"nett":13691,"empt":13692,"comfortable":13693,"Krisen":13694,"spräsident":13695,"pace":13696,"izen":13697,"items":13698,"glauben":13699,"Bord":13700,"boom":13701,"Gesundheit":13702,"Pacific":13703,"helps":13704,"apparently":13705,"sperr":13706,"legung":13707,"komment":13708,"formal":13709,"freiwill":13710,"zusätzlich":13711,"iling":13712,"Cas":13713,"liebe":13714,"leiterin":13715,"oring":13716,"amaz":13717,"listed":13718,"plenty":13719,"schöne":13720,"seats":13721,"chron":13722,"environmental":13723,"supported":13724,"kammer":13725,"ünft":13726,"Abd":13727,"Benz":13728,"ziger":13729,"Matthe":13730,"tum":13731,"Karte":13732,"130":13733,"liegenden":13734,"sech":13735,"headed":13736,"tennis":13737,"herrscht":13738,"Bundeswehr":13739,"opinion":13740,"rescue":13741,"Abschied":13742,"square":13743,"Love":13744,"supposed":13745,"trend":13746,"talent":13747,"actress":13748,"ungl":13749,"user":13750,"Golden":13751,"versorgung":13752,"recorded":13753,"drivers":13754,"referendum":13755,"ureau":13756,"igem":13757,"Teilnahme":13758,"Tube":13759,"cutting":13760,"Kohl":13761,"princ":13762,"Reporting":13763,"erzielte":13764,"dones":13765,"schütz":13766,"Clar":13767,"Way":13768,"fears":13769,"Vorbereitung":13770,"lawyers":13771,"violent":13772,"setzungen":13773,"Joseph":13774,"Kub":13775,"Aussage":13776,"theim":13777,"Moscow":13778,"Allen":13779,"argued":13780,"Ralf":13781,"Einrichtung":13782,"mortgage":13783,"pel":13784,"portion":13785,"banking":13786,"Michel":13787,"grown":13788,"Damals":13789,"NBC":13790,"maxim":13791,"Tarif":13792,"Abgeordneten":13793,"agel":13794,"Funktion":13795,"scandal":13796,"bene":13797,"Raf":13798,"britischen":13799,"Hung":13800,"Vorschlag":13801,"Women":13802,"olas":13803,"jack":13804,"apt":13805,"Indones":13806,"Tempo":13807,"SPÖ":13808,"feels":13809,"Angehör":13810,"Mainz":13811,"pc":13812,"langsam":13813,"pit":13814,"spur":13815,"ery":13816,"direktor":13817,"visitors":13818,"revolution":13819,"internationale":13820,"itors":13821,"pfe":13822,"brem":13823,"seriously":13824,"Dy":13825,"ato":13826,"Vertrauen":13827,"Interessen":13828,"decken":13829,"Tobias":13830,"Ulrich":13831,"abgeord":13832,"Noten":13833,"besitz":13834,"Kleine":13835,"Premiere":13836,"buildings":13837,"ked":13838,"AK":13839,"Bett":13840,"istics":13841,"oden":13842,"findings":13843,"Sender":13844,"controversi":13845,"inkel":13846,"explo":13847,"Before":13848,"Ret":13849,"plied":13850,"resident":13851,"Alp":13852,"ube":13853,"interested":13854,"continuing":13855,"gewachsen":13856,"Einfluss":13857,"pounds":13858,"Foundation":13859,"oland":13860,"reduced":13861,"unkel":13862,"NSW":13863,"stammen":13864,"DDR":13865,"Otto":13866,"meldet":13867,"HO":13868,"schauern":13869,"ctic":13870,"schriften":13871,"Tief":13872,"einiges":13873,"fürs":13874,"deputy":13875,"Lange":13876,"masch":13877,"cha":13878,"Dow":13879,"Histor":13880,"mechan":13881,"gradu":13882,"Konsequ":13883,"abilities":13884,"widely":13885,"ieger":13886,"junktur":13887,"ausend":13888,"Kamp":13889,"Hus":13890,"vorhand":13891,"gestr":13892,"Valley":13893,"gift":13894,"galt":13895,"experienced":13896,"ilet":13897,"Glau":13898,"Jens":13899,"filled":13900,"authority":13901,"fro":13902,"bieter":13903,"graphy":13904,"Space":13905,"überall":13906,"gap":13907,"vy":13908,"Hell":13909,"mayor":13910,"eda":13911,"Kiel":13912,"Erwart":13913,"Cook":13914,"ländern":13915,"Neuen":13916,"Brian":13917,"vere":13918,"Karls":13919,"consequ":13920,"Zivil":13921,"Ross":13922,"hindert":13923,"Stor":13924,"Rick":13925,"Luf":13926,"pushed":13927,"weiler":13928,"schießen":13929,"engl":13930,"unmittel":13931,"Once":13932,"fonds":13933,"tained":13934,"Expl":13935,"mater":13936,"klare":13937,"entin":13938,"devices":13939,"commitment":13940,"legation":13941,"vulner":13942,"charity":13943,"Eigentlich":13944,"Niedersachsen":13945,"Formel":13946,"Index":13947,"Lisa":13948,"mph":13949,"Dresden":13950,"bildungs":13951,"eman":13952,"inquiry":13953,"absolutely":13954,"wobei":13955,"Getty":13956,"gesorgt":13957,"persönlich":13958,"stro":13959,"Asian":13960,"Brisbane":13961,"Finanzminister":13962,"corruption":13963,"Anders":13964,"wirft":13965,"vorgestellt":13966,"klin":13967,"sicherheit":13968,"display":13969,"NFL":13970,"üssen":13971,"Quadratmeter":13972,"nächst":13973,"village":13974,"relatively":13975,"Mu":13976,"object":13977,"possibility":13978,"Gordon":13979,"Pfe":13980,"Sept":13981,"assung":13982,"BVB":13983,"falsch":13984,"gemäß":13985,"covering":13986,"neighbour":13987,"Fahrbahn":13988,"Anspruch":13989,"Mund":13990,"Tourismus":13991,"zeichnen":13992,"ernst":13993,"denkt":13994,"Mindest":13995,"Only":13996,"Bedingungen":13997,"lawmakers":13998,"deploy":13999,"aces":14000,"Mun":14001,"gate":14002,"shops":14003,"omb":14004,"trail":14005,"moral":14006,"formed":14007,"zuständig":14008,"dir":14009,"offs":14010,"Among":14011,"none":14012,"comed":14013,"aband":14014,"Demokratie":14015,"lohn":14016,"Kriminal":14017,"uellen":14018,"Getr":14019,"oppelt":14020,"richtigen":14021,"Spring":14022,"Königs":14023,"fühlen":14024,"vorerst":14025,"cos":14026,"cepted":14027,"inspir":14028,"jene":14029,"ünden":14030,"shoul":14031,"durfte":14032,"Gipfel":14033,"stren":14034,"ibility":14035,"vorbereitet":14036,"oth":14037,"Dall":14038,"delivered":14039,"Flüchtlingen":14040,"burn":14041,"spirit":14042,"Dsch":14043,"walked":14044,"Tipp":14045,"Brasilien":14046,"Anwohner":14047,"Ray":14048,"Produkte":14049,"Junge":14050,"outs":14051,"erhöht":14052,"oppos":14053,"location":14054,"wirkungen":14055,"Jona":14056,"cou":14057,"teacher":14058,"Kennedy":14059,"worried":14060,"entscheid":14061,"Vie":14062,"profits":14063,"Rückstand":14064,"1997":14065,"crimes":14066,"cks":14067,"Angebote":14068,"Match":14069,"BR":14070,"geschaffen":14071,"Hund":14072,"NBA":14073,"rey":14074,"Bie":14075,"Dir":14076,"Frü":14077,"Ban":14078,"AND":14079,"currency":14080,"witz":14081,"ups":14082,"verletzung":14083,"Kent":14084,"Werder":14085,"Table":14086,"lebnis":14087,"Ef":14088,"Corn":14089,"AA":14090,"Austria":14091,"stake":14092,"präsentieren":14093,"Arizona":14094,"exam":14095,"gemeldet":14096,"Weber":14097,"kit":14098,"Regeln":14099,"Total":14100,"recession":14101,"fts":14102,"threatened":14103,"thanks":14104,"Pens":14105,"bezeichnet":14106,"ibung":14107,"Music":14108,"Bücher":14109,"fuß":14110,"Akte":14111,"cry":14112,"Rainer":14113,"rejected":14114,"knowledge":14115,"politisch":14116,"Centre":14117,"severe":14118,"Your":14119,"urban":14120,"mung":14121,"controversial":14122,"Treasury":14123,"immediate":14124,"FP":14125,"Lot":14126,"Jac":14127,"Kandidat":14128,"bereiten":14129,"entsprechend":14130,"enforcement":14131,"Prot":14132,"heuer":14133,"Spur":14134,"Benj":14135,"Roy":14136,"Christopher":14137,"meinem":14138,"semble":14139,"owns":14140,"pointing":14141,"Dirk":14142,"Zuschauern":14143,"Vorsprung":14144,"Cra":14145,"Ziele":14146,"elektr":14147,"Gewerbe":14148,"compens":14149,"Botschaft":14150,"Regisseur":14151,"suspended":14152,"intended":14153,"Freizeit":14154,"stall":14155,"Leicht":14156,"archite":14157,"ühle":14158,"Strate":14159,"powers":14160,"NEW":14161,"Revolution":14162,"geöffnet":14163,"ibl":14164,"lebens":14165,"ova":14166,"zählte":14167,"Vermögen":14168,"äusern":14169,"deficit":14170,"Sollte":14171,"Toten":14172,"rapid":14173,"starb":14174,"aders":14175,"attet":14176,"Ereign":14177,"Board":14178,"airo":14179,"staaten":14180,"proceed":14181,"isol":14182,"icop":14183,"Alltag":14184,"Ky":14185,"backs":14186,"behalten":14187,"Kriegs":14188,"Glasgow":14189,"spartei":14190,"voting":14191,"Wur":14192,"considering":14193,"Platt":14194,"Mön":14195,"offene":14196,"Blumen":14197,"shore":14198,"Vorsitzenden":14199,"proced":14200,"antworten":14201,"gewinnt":14202,"illa":14203,"bestimmt":14204,"leaves":14205,"ongoing":14206,"incent":14207,"bond":14208,"thank":14209,"Bonn":14210,"Henry":14211,"margin":14212,"Niveau":14213,"Pod":14214,"Maschinen":14215,"Silber":14216,"projekt":14217,"Vorstellung":14218,"suspected":14219,"Darüber":14220,"factors":14221,"ASH":14222,"größere":14223,"britische":14224,"Schu":14225,"welcome":14226,"öffentliche":14227,"Meyer":14228,"organisiert":14229,"conducted":14230,"hyth":14231,"110":14232,"Jobs":14233,"iteten":14234,"Yes":14235,"Haup":14236,"insisted":14237,"Palestinian":14238,"preci":14239,"sand":14240,"gelernt":14241,"Six":14242,"Metall":14243,"marsch":14244,"asy":14245,"bedingungen":14246,"hell":14247,"verkehrs":14248,"eds":14249,"präsidenten":14250,"Free":14251,"Bauer":14252,"kathol":14253,"Arbeiter":14254,"possibly":14255,"adjust":14256,"phil":14257,"quid":14258,"besucht":14259,"Fi":14260,"Grundstück":14261,"watched":14262,"itory":14263,"Erde":14264,"Unternehmer":14265,"raid":14266,"device":14267,"cia":14268,"Paar":14269,"scoring":14270,"wich":14271,"Treff":14272,"associated":14273,"utional":14274,"Arg":14275,"Frem":14276,"assum":14277,"Meine":14278,"responded":14279,"schungs":14280,"section":14281,"Houston":14282,"Roten":14283,"zell":14284,"evangel":14285,"prob":14286,"lautet":14287,"Diesel":14288,"Budget":14289,"verändert":14290,"fing":14291,"Turk":14292,"sicherte":14293,"Vö":14294,"Opel":14295,"neighborhood":14296,"ellow":14297,"unemployment":14298,"scheiter":14299,"illeg":14300,"Investitionen":14301,"verkün":14302,"Jonathan":14303,"Veranstalter":14304,"kandidat":14305,"recommend":14306,"DNA":14307,"TS":14308,"equity":14309,"stable":14310,"Gründe":14311,"hüter":14312,"geist":14313,"Flugzeug":14314,"manche":14315,"Benjamin":14316,"Jak":14317,"skills":14318,"finger":14319,"Tie":14320,"preise":14321,"Bam":14322,"reichend":14323,"studio":14324,"Klo":14325,"Science":14326,"infrastructure":14327,"Leverkusen":14328,"drhein":14329,"Tonnen":14330,"nerv":14331,"92":14332,"Zunächst":14333,"venz":14334,"radik":14335,"ideas":14336,"afi":14337,"abgesch":14338,"Papst":14339,"qualifiz":14340,"acks":14341,"suspic":14342,"wahlen":14343,"examin":14344,"Branche":14345,"Profi":14346,"initially":14347,"testing":14348,"eastern":14349,"cells":14350,"Sow":14351,"Demonstranten":14352,"esa":14353,"approval":14354,"plants":14355,"Kaffee":14356,"TA":14357,"Girl":14358,"Brig":14359,"independence":14360,"verbandes":14361,"gewiesen":14362,"inkl":14363,"Freundin":14364,"attacked":14365,"Hertha":14366,"veröffentlich":14367,"iale":14368,"Grundschule":14369,"verhalten":14370,"Inform":14371,"Passag":14372,"eral":14373,"Earlier":14374,"Ansicht":14375,"indem":14376,"350":14377,"soziale":14378,"defe":14379,"Streik":14380,"categ":14381,"Athen":14382,"Infrastru":14383,"stim":14384,"daten":14385,"Erklärung":14386,"kräftig":14387,"choose":14388,"fill":14389,"animal":14390,"ride":14391,"Zugang":14392,"asser":14393,"hagen":14394,"unique":14395,"occurred":14396,"wechseln":14397,"shift":14398,"Bou":14399,"Relig":14400,"direction":14401,"prosecutors":14402,"commod":14403,"Geräte":14404,"caut":14405,"polls":14406,"Abstimmung":14407,"geted":14408,"lit":14409,"chances":14410,"critics":14411,"Spieltag":14412,"Daher":14413,"Stahl":14414,"icy":14415,"pictured":14416,"Lust":14417,"emiss":14418,"schafft":14419,"Dad":14420,"correct":14421,"dringend":14422,"nummer":14423,"pressive":14424,"leads":14425,"Schwein":14426,"Lkw":14427,"ZDF":14428,"BO":14429,"holz":14430,"ischof":14431,"Georgia":14432,"strom":14433,"horse":14434,"icine":14435,"teachers":14436,"öch":14437,"verhe":14438,"ipal":14439,"Bundestags":14440,"precher":14441,"cers":14442,"kass":14443,"Zustand":14444,"carbon":14445,"ständigen":14446,"publicly":14447,"pekt":14448,"desper":14449,"shad":14450,"Engel":14451,"apolog":14452,"yourself":14453,"auty":14454,"Justin":14455,"leer":14456,"definitely":14457,"gran":14458,"ulate":14459,"proved":14460,"froh":14461,"hinein":14462,"Lokal":14463,"involving":14464,"bath":14465,"reflect":14466,"linken":14467,"aken":14468,"easier":14469,"Ble":14470,"vertre":14471,"glücklich":14472,"Höhepunkt":14473,"neck":14474,"bac":14475,"Albert":14476,"Libya":14477,"aug":14478,"Tank":14479,"Ox":14480,"Marg":14481,"behaviour":14482,"Jason":14483,"Add":14484,"Adv":14485,"schü":14486,"syn":14487,"orrow":14488,"itern":14489,"zz":14490,"senator":14491,"Sprung":14492,"tos":14493,"Moore":14494,"ifahr":14495,"Charlie":14496,"Klass":14497,"code":14498,"wake":14499,"Werke":14500,"entered":14501,"chor":14502,"behandelt":14503,"customer":14504,"ündnis":14505,"twa":14506,"honest":14507,"einiger":14508,"Source":14509,"express":14510,"Unsere":14511,"bart":14512,"asters":14513,"Nachbarn":14514,"redu":14515,"Auseinander":14516,"freunde":14517,"Fraktions":14518,"Lyn":14519,"letztlich":14520,"restrict":14521,"Mitteilung":14522,"improved":14523,"Ruf":14524,"Freiburg":14525,"Stadtrat":14526,"targets":14527,"sharing":14528,"gründete":14529,"stun":14530,"aimed":14531,"generally":14532,"Judge":14533,"Water":14534,"Halbfinale":14535,"hnung":14536,"adults":14537,"bewegen":14538,"clients":14539,"whate":14540,"Hop":14541,"ipper":14542,"lohnt":14543,"FR":14544,"Darauf":14545,"eating":14546,"zustellen":14547,"whatever":14548,"alleine":14549,"perfekt":14550,"Etwa":14551,"nav":14552,"Vorhaben":14553,"Rent":14554,"Hat":14555,"surround":14556,"Gov":14557,"äb":14558,"proving":14559,"örung":14560,"Katastrop":14561,"BB":14562,"Kooperation":14563,"karten":14564,"shopping":14565,"Cann":14566,"ansion":14567,"hafte":14568,"Feder":14569,"ernen":14570,"Oberbürgermeister":14571,"schlägen":14572,"apartment":14573,"compar":14574,"lobte":14575,"gerät":14576,"prospect":14577,"IL":14578,"aktor":14579,"attended":14580,"uly":14581,"volunte":14582,"stattung":14583,"eland":14584,"quake":14585,"büro":14586,"bzw":14587,"mate":14588,"allel":14589,"Gil":14590,"Color":14591,"Sven":14592,"Verdacht":14593,"roit":14594,"flights":14595,"ächtige":14596,"notes":14597,"weren":14598,"moves":14599,"venture":14600,"opa":14601,"harmon":14602,"Leser":14603,"split":14604,"Greek":14605,"Norbert":14606,"innern":14607,"Design":14608,"Mrd":14609,"closure":14610,"explain":14611,"Lob":14612,"ätestens":14613,"iters":14614,"kürzlich":14615,"gescheiter":14616,"cock":14617,"inning":14618,"ered":14619,"ala":14620,"daraus":14621,"SO":14622,"pendent":14623,"erläut":14624,"arbeits":14625,"Bast":14626,"Konjunktur":14627,"konzept":14628,"schloss":14629,"breit":14630,"landes":14631,"mitglied":14632,"Software":14633,"zusätzliche":14634,"aute":14635,"messages":14636,"disaster":14637,"understanding":14638,"spor":14639,"Gaza":14640,"inspired":14641,"rebels":14642,"spek":14643,"Olympics":14644,"retten":14645,"ansas":14646,"gestimmt":14647,"throw":14648,"dream":14649,"Lukas":14650,"außerhalb":14651,"YouTube":14652,"Ausdruck":14653,"Copyright":14654,"mates":14655,"angeblich":14656,"pilot":14657,"hosp":14658,"ägen":14659,"Praxis":14660,"Lady":14661,"ragen":14662,"Schnell":14663,"ancell":14664,"activists":14665,"Förderung":14666,"egal":14667,"Credit":14668,"warn":14669,"Corpor":14670,"Insol":14671,"HC":14672,"connection":14673,"interesting":14674,"sliga":14675,"konzert":14676,"freute":14677,"hockey":14678,"beer":14679,"Eliz":14680,"stance":14681,"division":14682,"wine":14683,"vergeben":14684,"roads":14685,"Ah":14686,"Ausnahme":14687,"genehm":14688,"BILD":14689,"reput":14690,"fassung":14691,"Food":14692,"saal":14693,"surge":14694,"Anlass":14695,"izz":14696,"combined":14697,"üss":14698,"greatest":14699,"wählen":14700,"Kino":14701,"Nachricht":14702,"ibly":14703,"vies":14704,"tner":14705,"igers":14706,"Toy":14707,"davor":14708,"Reis":14709,"Zoll":14710,"facility":14711,"returns":14712,"Anwalt":14713,"chain":14714,"inal":14715,"iron":14716,"Parlaments":14717,"flying":14718,"Verteidiger":14719,"handle":14720,"1995":14721,"turns":14722,"Basketball":14723,"oured":14724,"ardo":14725,"iley":14726,"Roland":14727,"änk":14728,"leistungen":14729,"Enter":14730,"Anklage":14731,"cu":14732,"äsid":14733,"alties":14734,"Unterricht":14735,"Telekom":14736,"manns":14737,"Jazz":14738,"string":14739,"iö":14740,"relief":14741,"youth":14742,"gyp":14743,"Defense":14744,"fewer":14745,"ticket":14746,"anticip":14747,"Detroit":14748,"nell":14749,"Roberts":14750,"Fritz":14751,"wetter":14752,"constant":14753,"Höch":14754,"gg":14755,"ystem":14756,"strecke":14757,"ppen":14758,"learning":14759,"Malay":14760,"umfassen":14761,"Stol":14762,"Auftr":14763,"heimischen":14764,"vard":14765,"Auff":14766,"indes":14767,"Jahrhundert":14768,"mont":14769,"liege":14770,"Motorrad":14771,"Adelaide":14772,"Viet":14773,"gespräch":14774,"atre":14775,"ammelt":14776,"Verteidigungs":14777,"Umgebung":14778,"sburger":14779,"Süden":14780,"competitive":14781,"repeatedly":14782,"warf":14783,"rief":14784,"oli":14785,"schech":14786,"gründen":14787,"targeted":14788,"sole":14789,"anx":14790,"stammt":14791,"iqu":14792,"moments":14793,"visited":14794,"französische":14795,"Neum":14796,"assistant":14797,"Trib":14798,"aufgestellt":14799,"ürzt":14800,"Portugal":14801,"Vorfeld":14802,"appt":14803,"Belg":14804,"dinner":14805,"Irak":14806,"historic":14807,"Diego":14808,"ye":14809,"exercise":14810,"Heinrich":14811,"conversation":14812,"Entscheidungen":14813,"stunde":14814,"kunfts":14815,"load":14816,"auben":14817,"männ":14818,"Neues":14819,"elder":14820,"Misch":14821,"passieren":14822,"drohen":14823,"Gästen":14824,"brück":14825,"province":14826,"circumstances":14827,"Gemeinsam":14828,"window":14829,"Feb":14830,"Telegraph":14831,"Seehofer":14832,"Fro":14833,"blast":14834,"Städten":14835,"controlled":14836,"Landrat":14837,"israel":14838,"Roth":14839,"Zul":14840,"Boch":14841,"Sark":14842,"übernimmt":14843,"brachten":14844,"Mitarbeitern":14845,"Herausforderung":14846,"causing":14847,"FIFA":14848,"Pul":14849,"devast":14850,"trick":14851,"jects":14852,"russische":14853,"grounds":14854,"ceremony":14855,"oe":14856,"rand":14857,"hinten":14858,"singen":14859,"Medical":14860,"winden":14861,"retired":14862,"pects":14863,"Kommunik":14864,"1996":14865,"Hamp":14866,"duty":14867,"ühnen":14868,"nord":14869,"PRNewswire":14870,"üten":14871,"prompt":14872,"Wis":14873,"deta":14874,"pin":14875,"Planung":14876,"daraufhin":14877,"europäische":14878,"verschw":14879,"derart":14880,"determine":14881,"bewerber":14882,"Beschluss":14883,"supporting":14884,"Acht":14885,"returning":14886,"Serb":14887,"Direktor":14888,"Wirk":14889,"closely":14890,"Verständ":14891,"heil":14892,"mosph":14893,"replac":14894,"Dallas":14895,"ärger":14896,"Administr":14897,"hire":14898,"Vettel":14899,"INGTON":14900,"roten":14901,"ario":14902,"basic":14903,"Belast":14904,"1960":14905,"neur":14906,"Anderson":14907,"Stich":14908,"replace":14909,"Ordnung":14910,"Betreiber":14911,"Alternative":14912,"HK":14913,"gebeten":14914,"diskutiert":14915,"Vene":14916,"Abbott":14917,"begleitet":14918,"marked":14919,"prall":14920,"äh":14921,"gled":14922,"städter":14923,"maßen":14924,"nom":14925,"false":14926,"Flüchtling":14927,"closing":14928,"yen":14929,"tension":14930,"Großen":14931,"agog":14932,"wende":14933,"Jungs":14934,"alz":14935,"ux":14936,"Diplom":14937,"eindeut":14938,"Ut":14939,"Vegas":14940,"schätzen":14941,"actors":14942,"teilten":14943,"möglichkeiten":14944,"Leiden":14945,"stir":14946,"becomes":14947,"befinden":14948,"Auge":14949,"setzten":14950,"banned":14951,"Freitagabend":14952,"Stuttgar":14953,"Wilhelm":14954,"heavily":14955,"helicop":14956,"amerikanische":14957,"wave":14958,"rufen":14959,"scheidet":14960,"denke":14961,"castle":14962,"Vorgehen":14963,"voran":14964,"Football":14965,"werten":14966,"Hem":14967,"Medizin":14968,"ror":14969,"Behinder":14970,"heading":14971,"berichteten":14972,"breast":14973,"crucial":14974,"sichern":14975,"Tatort":14976,"struggle":14977,"refugees":14978,"splätze":14979,"claiming":14980,"lok":14981,"missions":14982,"truck":14983,"Brücke":14984,"NAS":14985,"passing":14986,"geeig":14987,"Fußgänger":14988,"Gall":14989,"offee":14990,"Images":14991,"Waren":14992,"Inzwischen":14993,"Becker":14994,"verme":14995,"privaten":14996,"94":14997,"Sportler":14998,"bracht":14999,"Pay":15000,"vant":15001,"haften":15002,"unless":15003,"Sechs":15004,"gesichert":15005,"unglück":15006,"Kommunal":15007,"models":15008,"Iranian":15009,"Audi":15010,"wedding":15011,"themat":15012,"Rebe":15013,"Große":15014,"erforder":15015,"180":15016,"ascht":15017,"knee":15018,"Roger":15019,"Gebiet":15020,"stimmt":15021,"missar":15022,"karte":15023,"änke":15024,"vieler":15025,"Fred":15026,"Final":15027,"älder":15028,"seiten":15029,"drew":15030,"elimin":15031,"WF":15032,"uterte":15033,"impl":15034,"WASH":15035,"stocks":15036,"Mittelpunkt":15037,"Log":15038,"landen":15039,"stätten":15040,"Fleisch":15041,"Heimspiel":15042,"worldwide":15043,"lap":15044,"rivals":15045,"gnung":15046,"ido":15047,"izes":15048,"fundament":15049,"Cro":15050,"ittle":15051,"fähigkeit":15052,"bein":15053,"WASHINGTON":15054,"aven":15055,"Schweden":15056,"bear":15057,"species":15058,"Werte":15059,"gains":15060,"veteran":15061,"Cathol":15062,"rub":15063,"uting":15064,"Phase":15065,"Philip":15066,"1994":15067,"entsprechende":15068,"letzter":15069,"sper":15070,"comman":15071,"Gramm":15072,"passion":15073,"grenze":15074,"captured":15075,"Welche":15076,"endor":15077,"Jay":15078,"Pek":15079,"Immerhin":15080,"oul":15081,"lawsuit":15082,"yp":15083,"Airlines":15084,"marks":15085,"überw":15086,"kritisierte":15087,"Mittag":15088,"communications":15089,"klären":15090,"estimates":15091,"package":15092,"investigators":15093,"HL":15094,"läd":15095,"historischen":15096,"Celt":15097,"lieger":15098,"congress":15099,"füll":15100,"geheim":15101,"olds":15102,"dance":15103,"Southern":15104,"payment":15105,"roht":15106,"Alan":15107,"Dod":15108,"dienste":15109,"wusste":15110,"140":15111,"investigating":15112,"Wahlen":15113,"Führungs":15114,"sile":15115,"Director":15116,"surve":15117,"friendly":15118,"Krim":15119,"Hugh":15120,"meetings":15121,"Bulgar":15122,"Anleger":15123,"Gene":15124,"mert":15125,"structure":15126,"acken":15127,"shortly":15128,"Horn":15129,"klingt":15130,"Digital":15131,"Abu":15132,"miteinander":15133,"verkaufen":15134,"Dennis":15135,"Ägyp":15136,"Stil":15137,"Integration":15138,"imens":15139,"heran":15140,"familien":15141,"yo":15142,"Robin":15143,"Donau":15144,"Bloom":15145,"worben":15146,"Linken":15147,"journalists":15148,"liehen":15149,"streit":15150,"spoken":15151,"describ":15152,"dish":15153,"Widerstand":15154,"Hände":15155,"facilities":15156,"feierte":15157,"Rep":15158,"kultur":15159,"understood":15160,"evol":15161,"maintain":15162,"bahnhof":15163,"offensichtlich":15164,"Forderung":15165,"Bernhard":15166,"pft":15167,"umenten":15168,"Amerikaner":15169,"stoßen":15170,"journey":15171,"reaction":15172,"savings":15173,"Kamera":15174,"icing":15175,"Iowa":15176,"Zweiten":15177,"democracy":15178,"anna":15179,"extreme":15180,"laugh":15181,"besonderen":15182,"korea":15183,"DS":15184,"emb":15185,"Männern":15186,"appoint":15187,"antly":15188,"tied":15189,"Touristen":15190,"aufnahme":15191,"obody":15192,"Inner":15193,"Ursache":15194,"greif":15195,"Rights":15196,"satis":15197,"golf":15198,"Eastern":15199,"lebte":15200,"Weißen":15201,"Rangers":15202,"schließt":15203,"Blatt":15204,"footage":15205,"Parkplatz":15206,"Wichtig":15207,"aufmerksam":15208,"Motiv":15209,"Insolvenz":15210,"Ident":15211,"keeper":15212,"gegründet":15213,"Aktual":15214,"Griff":15215,"lied":15216,"viertel":15217,"Saf":15218,"settlement":15219,"Mitgliedern":15220,"contrast":15221,"ancellor":15222,"fält":15223,"increases":15224,"task":15225,"coal":15226,"overseas":15227,"Dist":15228,"infe":15229,"identify":15230,"happening":15231,"geschickt":15232,"trug":15233,"erinnern":15234,"worker":15235,"extended":15236,"Cross":15237,"matters":15238,"cards":15239,"weiger":15240,"executives":15241,"Plat":15242,"beraten":15243,"deter":15244,"industrie":15245,"berühm":15246,"notice":15247,"servatives":15248,"Democrat":15249,"bund":15250,"Disney":15251,"Jess":15252,"Weihnachten":15253,"Einkommen":15254,"Yah":15255,"surprising":15256,"ined":15257,"Varian":15258,"sons":15259,"Ian":15260,"sending":15261,"eingestellt":15262,"ziehungen":15263,"Einschätzung":15264,"Bundeskanzlerin":15265,"Kerry":15266,"ISIS":15267,"purchase":15268,"Elizabeth":15269,"ören":15270,"ausländ":15271,"türkischen":15272,"agents":15273,"ungewöhn":15274,"ifts":15275,"excl":15276,"reforms":15277,"Sever":15278,"festgestellt":15279,"summit":15280,"altern":15281,"Ministry":15282,"Night":15283,"herz":15284,"selber":15285,"Spuren":15286,"Zuge":15287,"obviously":15288,"draft":15289,"Beis":15290,"steck":15291,"Konsum":15292,"Cow":15293,"Verz":15294,"Samm":15295,"Verantwortlichen":15296,"Qualifikation":15297,"accepted":15298,"tackle":15299,"surface":15300,"Umbau":15301,"advertising":15302,"endr":15303,"merzen":15304,"Ca":15305,"horn":15306,"iversary":15307,"Michigan":15308,"gänge":15309,"Mol":15310,"ugs":15311,"wettbewer":15312,"Marine":15313,"Gun":15314,"drawn":15315,"deeply":15316,"Glo":15317,"Urlau":15318,"Cham":15319,"fron":15320,"schrauber":15321,"Geschäfte":15322,"alive":15323,"gebäude":15324,"Ausgabe":15325,"drig":15326,"schlechte":15327,"Angeklagte":15328,"cation":15329,"Literatur":15330,"brach":15331,"AZ":15332,"Meth":15333,"barer":15334,"fühle":15335,"tung":15336,"Bran":15337,"borne":15338,"höhere":15339,"failing":15340,"Rou":15341,"ikanischen":15342,"Major":15343,"Though":15344,"brid":15345,"institutions":15346,"collect":15347,"GH":15348,"97":15349,"irol":15350,"Geschen":15351,"Harris":15352,"Lohn":15353,"opted":15354,"macher":15355,"surprised":15356,"beziehungs":15357,"threats":15358,"auseinander":15359,"ivity":15360,"kü":15361,"Beteiligung":15362,"Herbert":15363,"Jury":15364,"Jahrzehnten":15365,"bezahlt":15366,"retirement":15367,"iße":15368,"diagno":15369,"1992":15370,"prächen":15371,"Mig":15372,"territory":15373,"Hamas":15374,"Zustimmung":15375,"Adr":15376,"Ungar":15377,"Def":15378,"Investment":15379,"Krem":15380,"osis":15381,"Liberal":15382,"plot":15383,"Neust":15384,"Reihen":15385,"manage":15386,"erlaubt":15387,"sprachen":15388,"verstärkt":15389,"IER":15390,"Bäume":15391,"ae":15392,"Fü":15393,"uan":15394,"equal":15395,"pover":15396,"apie":15397,"Übernahme":15398,"impossible":15399,"aggressive":15400,"verboten":15401,"verliert":15402,"Ecke":15403,"wounded":15404,"Conservative":15405,"Typ":15406,"zurückzu":15407,"Schlüssel":15408,"Gill":15409,"sued":15410,"Where":15411,"Mem":15412,"1989":15413,"parent":15414,"acle":15415,"myster":15416,"grav":15417,"copyright":15418,"internal":15419,"Nationalspieler":15420,"pushing":15421,"glas":15422,"entirely":15423,"Verlag":15424,"aced":15425,"ministeriums":15426,"Hub":15427,"keines":15428,"bio":15429,"mers":15430,"beschre":15431,"Airport":15432,"percentage":15433,"Fif":15434,"aggress":15435,"dozens":15436,"Hallen":15437,"trafen":15438,"sixth":15439,"jan":15440,"cycle":15441,"Colorado":15442,"Walker":15443,"accur":15444,"Michelle":15445,"Geschichten":15446,"essel":15447,"hate":15448,"beziehungsweise":15449,"österreichischen":15450,"vorhanden":15451,"performed":15452,"ologist":15453,"glob":15454,"lädt":15455,"Sud":15456,"versicherung":15457,"isierten":15458,"Thor":15459,"MA":15460,"Infrastruktur":15461,"print":15462,"gerissen":15463,"significantly":15464,"Wohnungs":15465,"hattan":15466,"covery":15467,"Pflanzen":15468,"semi":15469,"Behandlung":15470,"iders":15471,"vior":15472,"pieces":15473,"Ax":15474,"üben":15475,"Profis":15476,"enh":15477,"thansa":15478,"penses":15479,"barrel":15480,"kannte":15481,"Rott":15482,"stücke":15483,"Kost":15484,"mosphäre":15485,"fünften":15486,"receiving":15487,"Maxim":15488,"Smartphone":15489,"Jahrhunder":15490,"producer":15491,"Petra":15492,"tight":15493,"Perry":15494,"usalem":15495,"nick":15496,"Einigung":15497,"spartner":15498,"Senior":15499,"Leh":15500,"Sabine":15501,"Erfolgs":15502,"Christine":15503,"Löw":15504,"überrascht":15505,"Lufthansa":15506,"schä":15507,"ausgezeichnet":15508,"Behörde":15509,"akers":15510,"attempts":15511,"offiziellen":15512,"shape":15513,"Craig":15514,"warded":15515,"ständen":15516,"Vorder":15517,"stern":15518,"Mauer":15519,"locker":15520,"Torwart":15521,"Society":15522,"tiny":15523,"ultimately":15524,"Schäfer":15525,"Anschließend":15526,"permanent":15527,"Anges":15528,"Vietnam":15529,"interessiert":15530,"ograph":15531,"Wand":15532,"Kund":15533,"pete":15534,"foto":15535,"minder":15536,"breach":15537,"Lied":15538,"Inf":15539,"größeren":15540,"sentenced":15541,"delivery":15542,"acing":15543,"Einnahmen":15544,"minimum":15545,"drinking":15546,"tinger":15547,"bezahlen":15548,"Schlaf":15549,"lr":15550,"likes":15551,"Kay":15552,"episode":15553,"entlang":15554,"reagiert":15555,"ütter":15556,"irts":15557,"pray":15558,"Sprach":15559,"Meisterschaft":15560,"operate":15561,"Lake":15562,"lobby":15563,"located":15564,"Cat":15565,"anbul":15566,"remove":15567,"Bedarf":15568,"identity":15569,"Aussagen":15570,"wächst":15571,"Solar":15572,"Rab":15573,"vorn":15574,"Nato":15575,"OC":15576,"vital":15577,"amazing":15578,"beträgt":15579,"max":15580,"thaus":15581,"vulnerable":15582,"enzial":15583,"cultural":15584,"prece":15585,"bills":15586,"verpflichtet":15587,"runden":15588,"Sul":15589,"Vertre":15590,"Istanbul":15591,"siv":15592,"kurzen":15593,"iants":15594,"liest":15595,"heißen":15596,"shareholders":15597,"Rücktritt":15598,"Hass":15599,"prog":15600,"decre":15601,"memory":15602,"condem":15603,"Milch":15604,"otherwise":15605,"agan":15606,"öglich":15607,"DI":15608,"idar":15609,"bewe":15610,"Jennifer":15611,"Börse":15612,"lunch":15613,"thalle":15614,"indic":15615,"Laura":15616,"hoped":15617,"strainer":15618,"Innenminister":15619,"Qaeda":15620,"Summe":15621,"Café":15622,"occasion":15623,"Album":15624,"tex":15625,"Grab":15626,"zieher":15627,"Beweis":15628,"isher":15629,"ometern":15630,"samt":15631,"icon":15632,"Jacob":15633,"Venezu":15634,"Jr":15635,"erstes":15636,"phia":15637,"Umfeld":15638,"values":15639,"Generalsekretär":15640,"Isa":15641,"roid":15642,"Rats":15643,"Mod":15644,"Zuhör":15645,"wirtschafts":15646,"Dick":15647,"Mah":15648,"überzeugen":15649,"ni":15650,"gäste":15651,"Peters":15652,"itas":15653,"Stuttgarter":15654,"gefä":15655,"Mittler":15656,"iously":15657,"Zucker":15658,"Jugen":15659,"advance":15660,"franken":15661,"angenommen":15662,"Allgem":15663,"reputation":15664,"Alab":15665,"onie":15666,"Minn":15667,"Philadel":15668,"ktro":15669,"voraussichtlich":15670,"shirt":15671,"Singap":15672,"adds":15673,"Mini":15674,"Hamm":15675,"breath":15676,"emissions":15677,"Sinne":15678,"Europäische":15679,"taxpay":15680,"Ähn":15681,"5000":15682,"blings":15683,"virus":15684,"Academy":15685,"Awards":15686,"Mohammed":15687,"UC":15688,"Square":15689,"artikel":15690,"Charlot":15691,"Gary":15692,"Staffel":15693,"Event":15694,"geholt":15695,"Temperaturen":15696,"Eigentümer":15697,"Sorge":15698,"Arbeitnehmer":15699,"Children":15700,"Cit":15701,"Lieder":15702,"frisch":15703,"Hafen":15704,"iland":15705,"sensit":15706,"Schwier":15707,"shaus":15708,"stronger":15709,"Class":15710,"Hollande":15711,"stages":15712,"Follow":15713,"opposed":15714,"tages":15715,"schlechter":15716,"Matthew":15717,"Channel":15718,"deres":15719,"sichert":15720,"omie":15721,"Jed":15722,"gewicht":15723,"legit":15724,"sterben":15725,"Gerichts":15726,"grundsätzlich":15727,"html":15728,"Moderator":15729,"Philadelphia":15730,"Contr":15731,"Steuern":15732,"Berufung":15733,"fabr":15734,"ophie":15735,"Leader":15736,"Knie":15737,"forms":15738,"Versch":15739,"attempted":15740,"Werbe":15741,"sick":15742,"jüd":15743,"160":15744,"geprä":15745,"Turkish":15746,"Gewinner":15747,"Klage":15748,"Atlanta":15749,"Phill":15750,"plaus":15751,"Jerusalem":15752,"umzu":15753,"Auswirkungen":15754,"Wim":15755,"Aufnahme":15756,"Aktualisierung":15757,"Sad":15758,"narrow":15759,"olz":15760,"arbeitete":15761,"represents":15762,"Restaurant":15763,"appointed":15764,"ausgesprochen":15765,"Demnach":15766,"aling":15767,"Geschwind":15768,"Rechnung":15769,"höhe":15770,"tank":15771,"Forschung":15772,"anniversary":15773,"blame":15774,"Armin":15775,"brutal":15776,"Freiwill":15777,"vised":15778,"tact":15779,"evac":15780,"characters":15781,"Volker":15782,"Nutzung":15783,"Samsung":15784,"wirtschaftlichen":15785,"serie":15786,"lein":15787,"erläutert":15788,"belle":15789,"gestartet":15790,"iatr":15791,"Schröder":15792,"Gebäu":15793,"Finger":15794,"verteilt":15795,"brü":15796,"drückt":15797,"besetzt":15798,"Renten":15799,"nahezu":15800,"aue":15801,"iption":15802,"Speaking":15803,"locken":15804,"waste":15805,"ausschließlich":15806,"Yahoo":15807,"Kam":15808,"alerie":15809,"Geist":15810,"GMT":15811,"heben":15812,"Landgericht":15813,"Wissenschaftler":15814,"glo":15815,"Einführung":15816,"Unglück":15817,"ücksicht":15818,"investiert":15819,"Bart":15820,"Gymnasium":15821,"Jäger":15822,"Stadtteil":15823,"regen":15824,"drauf":15825,"übt":15826,"Tät":15827,"apply":15828,"Spons":15829,"Toronto":15830,"Gewerkschaft":15831,"civilians":15832,"Clark":15833,"wiegend":15834,"Agr":15835,"Var":15836,"vorzu":15837,"vs":15838,"Aktualisiert":15839,"pip":15840,"usch":15841,"Schwester":15842,"garant":15843,"doors":15844,"pattern":15845,"Forderungen":15846,"gefas":15847,"stellungs":15848,"Graz":15849,"vorsitzender":15850,"unusual":15851,"Laufe":15852,"entertain":15853,"abort":15854,"Aktionen":15855,"goods":15856,"convict":15857,"Syn":15858,"favourite":15859,"ags":15860,"amoun":15861,"Hobby":15862,"arett":15863,"ching":15864,"aille":15865,"videos":15866,"vacc":15867,"apol":15868,"intensiv":15869,"Gleichzeitig":15870,"illness":15871,"Elektro":15872,"Nordrhein":15873,"entlichen":15874,"verbessern":15875,"merkt":15876,"pleas":15877,"ausger":15878,"ccer":15879,"Überraschung":15880,"eigener":15881,"tomorrow":15882,"Torhüter":15883,"hoffe":15884,"Trust":15885,"Family":15886,"expenses":15887,"Rake":15888,"oblig":15889,"ood":15890,"Bislang":15891,"sau":15892,"courts":15893,"assador":15894,"conv":15895,"damaligen":15896,"offe":15897,"Graham":15898,"Somal":15899,"opponents":15900,"oz":15901,"Schülern":15902,"besuchen":15903,"journalist":15904,"Villa":15905,"writes":15906,"inne":15907,"movies":15908,"baut":15909,"Gle":15910,"replaced":15911,"behavior":15912,"borrow":15913,"Bremer":15914,"itur":15915,"genü":15916,"vorstand":15917,"ügel":15918,"mosp":15919,"Swiss":15920,"combat":15921,"teilnehmen":15922,"umfang":15923,"gründung":15924,"tickets":15925,"manufacturing":15926,"Kurt":15927,"Vorwurf":15928,"Bühnen":15929,"Angeklagten":15930,"Mission":15931,"Howard":15932,"Rebellen":15933,"zin":15934,"gained":15935,"erfüllt":15936,"bra":15937,"handlungen":15938,"Vorgänger":15939,"thinks":15940,"sichten":15941,"barkeit":15942,"soft":15943,"dates":15944,"Friedens":15945,"Sendung":15946,"verlangt":15947,"Gö":15948,"sequent":15949,"contracts":15950,"tree":15951,"aska":15952,"sharp":15953,"ozy":15954,"sprogramm":15955,"Nationalmannschaft":15956,"erns":15957,"versuchte":15958,"weitgehend":15959,"theit":15960,"ärten":15961,"Umsetzung":15962,"roof":15963,"Befrag":15964,"ulpt":15965,"Hohen":15966,"Jewish":15967,"revenues":15968,"gelände":15969,"zut":15970,"stehende":15971,"songs":15972,"mbly":15973,
[...]
