#version: 0.2 - Trained by `huggingface/tokenizers`
e n
e r
i n
c h
t h
o n
e s
a n
u n
i s
a t
i t
i e
th e
o r
a l
r e
i ch
i on
d er
s t
a r
r o
a s
l e
en t
b e
t o
un g
o f
an d
e in
g e
t e
d ie
a u
un d
d e
w i
d en
o m
u r
in g
i g
s e
o l
a m
w e
i m
s ch
z u
v e
i c
f or
t er
v er
i es
l l
e d
t en
at ion
o u
ro p
a b
ich t
h e
r a
om m
th at
g en
e m
b er
i l
l ich
h r
u rop
u s
d as
is ch
ü r
c t
n o
is t
wi r
l y
n e
u t
E urop
k e
is s
i d
w h
s o
r es
u m
p ro
c on
i r
er e
d ies
h a
i er
f ür
au f
or t
s p
c e
a re
d es
v on
t r
w er
a ch
o p
al l
ein e
u l
f t
m ent
d a
omm iss
m e
l d
V er
U n
es t
th is
k t
a g
m en
f f
isch en
t z
s u
I n
ommiss ion
de m
no t
m it
Europ e
es s
n icht
das s
au s
wi th
o ur
at e
ung en
in d
l i
ou ld
id ent
t s
ha ve
o s
l ie
p ort
i ve
t a
g r
e l
c k
a d
g es
en d
u st
R e
wer den
au ch
T he
m a
v or
l a
i al
c o
e x
s en
ü ber
P ar
am ent
ä n
st e
it y
B e
b en
i f
wh ich
Europe an
p e
n en
an t
i v
wi ll
s h
s ich
a h
l o
er r
b y
h at
h al
un s
A n
c om
q u
sch a
w or
ig en
p ol
i b
S t
Un ion
it s
h as
ung s
h t
w ie
f a
z e
ion s
th er
ol l
h en
W e
ab en
i en
r ä
d o
er n
M r
al s
p ar
C ommission
an n
us s
st r
H err
wir d
I ch
scha ft
0 0
E n
ie l
a p
isch e
h aben
w as
f e
M it
D ie
it i
ein er
E U
s ind
Europ ä
ou t
j e
te d
be i
s a
g er
t ra
w ar
W ir
al so
m ö
d i
u p
le g
is e
im m
P ro
E r
A us
S ch
A r
k en
on e
z ur
ch te
he it
at es
rä s
T h
re g
m an
K ommission
P res
g an
b es
in ter
g o
ke it
at en
f ü
s ie
a c
un ter
räs ident
ab le
em ber
u e
d ar
ein en
B er
r it
en s
p o
f in
o b
be it
w ould
er s
V or
ation al
st a
der n
h er
lich en
p r
for m
u re
da ß
ch t
th ere
es e
c an
ation s
s am
b r
we it
ro m
par t
d u
en n
sh ould
m o
co un
e t
Pres ident
b le
ö n
m or
ä r
F r
hr en
A u
ü s
P räsident
f rom
ur ch
E in
ul t
l ament
i ge
or d
m ust
u g
ll en
w a
ver y
n ational
En t
in c
A b
Par lament
G e
o w
p le
omm en
ct ion
p os
c ial
li ament
p rop
b ut
h in
c omm
be en
ic al
ch en
wor k
p l
i ll
M ember
it ion
sp e
S ie
I t
as s
ä t
k ön
dies e
w o
p res
g lie
n ach
se l
s oll
d s
ve l
an der
coun tr
m üs
d urch
al le
Par liament
Mit glie
Europä ischen
G r
be t
2 00
ier en
ut ion
g ro
lich e
a ge
u te
ou s
ig h
ge m
F ra
c ess
e it
f en
f r
pol it
i h
l t
müs sen
ö r
mor e
y ou
d is
re port
sch l
w ur
re at
no w
c il
w ä
o un
ar y
p re
an s
l in
dies er
ü n
m ar
no ch
p er
an k
ch e
k ann
is h
an ce
p t
h and
mö chte
e ar
o ther
an g
ier ung
er en
i de
f ol
v o
c r
n ah
E s
Mitglie d
li ke
st en
St ates
ct ive
tz t
ig ht
im e
Ber icht
an ge
o d
for e
C oun
wh o
st at
sch en
in st
te l
Coun cil
the ir
ge gen
s ein
D as
se d
zu m
im port
h l
t schaft
s ol
i p
o g
kön nen
ne h
f re
t ro
le gen
u d
o k
ne ed
Re g
urop ä
al ly
ig keit
Mitglied sta
om e
dies em
g lich
s er
Fr au
n ur
te il
su p
an z
ble m
s ib
pol ic
d r
i z
ier t
i a
con c
ab er
st em
Th is
u ß
kt ion
e uropä
p a
th ese
l ic
ü ck
c y
Un ter
au se
w enn
K on
ge l
y stem
iti k
the y
in s
u b
ig n
o der
er g
le ich
ment s
k l
ff en
se hr
con s
Mitgliedsta aten
s it
k ommen
R at
M a
w icht
k on
ein em
gr am
st and
un der
lie ß
countr ies
wa y
b ar
J a
ag re
M en
re ich
ge t
wh at
ar beit
me hr
e con
m in
t y
n er
ut z
i k
e v
at ive
m y
ge b
vel op
U m
n ung
C omm
tz en
a k
ar d
l and
D ies
ab out
de c
on g
op le
t re
s ome
em ent
st ü
it ät
z w
c ause
c ed
c ur
on der
D e
c es
it ies
F or
ges ch
is m
Men schen
ff e
ne w
ic e
o se
o ver
le ar
import ant
v ie
a st
at ed
fü hr
y ear
re as
p la
p f
prop os
as sen
L e
n is
g t
iv en
in t
de velop
t ime
ein es
D er
o ch
pe ople
su ch
on ly
da y
d am
k ing
an y
te t
sch e
a ct
u ation
sch ließ
econ om
neh men
i re
i den
part ic
ta in
th ing
m er
b o
it te
ck l
pro v
sup port
polic y
um ent
dies es
m uss
tz ung
Europ a
pro du
ih re
Z us
s icht
u ch
il ity
i ous
ag a
ah l
ul ar
com e
op er
be cause
ate g
o we
wi ckl
weit er
uns er
wur de
Europä ische
r at
igh ts
ig t
Au f
1 9
Gr und
ges e
Ar beit
än der
an sp
ib t
2 0
the m
c lear
am men
än d
v ent
f ir
z ie
h ier
di re
ct s
qu est
ll t
hal b
ber e
hal ten
bes onder
Ent wickl
j ust
s ystem
al t
nah men
Vor schl
Zus ammen
i der
ste llen
es ch
ur es
K ol
B ür
el t
Z u
de ut
re l
inter national
for der
um an
p or
ß en
de d
su b
pres ent
i le
in v
In ter
v iel
p on
b as
t ing
ie d
r i
ta ke
pro blem
of f
un ity
o c
de b
fa ct
s on
hal t
ig er
gem ein
h ör
ge ben
owe ver
A s
in to
F in
if ic
w end
z ial
wir k
f und
sa y
su re
l os
d ing
ig ung
sam e
Ma ß
i hr
o h
partic ular
b est
ma ke
ust r
k te
P ol
di ff
b al
sib le
Ü ber
p ub
S o
zw ischen
or der
w ür
we en
it ution
g leich
f ä
conc ern
bet ween
th ose
in nen
we l
l au
ch n
ke t
it e
l ar
L and
ra p
br auch
re ad
g est
Ä n
m at
c our
f u
z en
ch ts
itte e
be ing
t i
Än der
is ten
ha be
be lie
ä m
ne u
h uman
wir tschaft
dies en
ter n
b ess
f ra
H aus
em p
str u
at s
wh en
ve d
pro gram
europä ischen
in e
r ights
j ed
res pon
B ere
is ation
o t
ol le
x t
tra g
polit ical
un kt
ä ch
Z eit
there fore
w en
all en
Bür ger
ie den
t in
br ing
g ibt
ou g
u al
iss en
r icht
ze it
tr ä
w ere
ur al
m on
A l
l ä
sich er
i an
man y
g u
G em
am e
ach t
S e
th in
econom ic
c as
iv es
is ion
u es
ma de
Ja hr
form ation
ich er
S ta
je ct
dam it
g ent
k eine
ion en
Fra ge
uns ere
ra g
th an
e ffe
m ich
at z
agre ement
ent r
f er
k now
M in
m al
fir st
or s
ol og
än dern
res s
Commission er
I h
am en
Gem ein
sp re
at ing
g reat
re i
K ommiss
l u
belie ve
S tr
b in
p en
ic ult
jed och
R icht
se e
po int
vie w
m s
ge hen
i ent
we il
son dern
ach en
h ere
mo st
Bere ich
Kommiss ar
com p
T e
ver n
is ter
pub lic
v ing
Herr n
we ise
Maß nahmen
bes te
r ight
t ent
u ro
c er
so cial
19 9
b st
wh ere
ander en
qu al
wicht ig
propos al
aga inst
er st
is l
ro ug
we lt
le d
me as
deb ate
M ar
h n
he ute
soll te
imm er
unter stü
soll ten
e f
or gan
Entwickl ung
u se
ß er
S icher
ten s
th en
v es
l im
con d
w ort
t un
c re
en g
pro te
Aus sch
mar ket
de t
fin an
n at
k s
pe ct
er al
c iti
leg al
d ann
ar t
C on
Parlament s
so wie
T hat
gr und
v ir
al th
t t
f est
K o
wä hr
thin k
oper ation
ce pt
ple ment
tr ansp
p ra
f all
we ll
Th ere
isch er
ev en
Vorschl ag
d an
in n
Ber ich
pos sible
Mit tel
bere its
develop ment
wo hl
e le
Comm ittee
ser v
st änd
b is
K r
mit tel
cons ider
lo y
z we
ge ht
sit uation
am end
iss ue
op e
z ens
ma in
inc reas
countr y
quest ion
st imm
and el
Fra ktion
ad op
Änder ungs
f ar
ok rat
oug h
he l
f eren
ic es
year s
t wo
f ut
ul ation
sa gen
te chn
B esch
besonder e
ne t
cer tain
h ar
ud get
ra ft
ent lich
w es
M e
p ut
on ment
ess en
le vel
mö glich
Wir tschaft
re al
ion al
den n
p iel
ers on
b ie
con tin
fut ure
D em
is en
gen ommen
v oll
res ol
read y
go vern
en z
ha d
it ed
c ted
I m
wur den
w ant
vir onment
G es
ste ll
fa hren
ex am
ow n
N ach
can not
Re chts
ä ft
ad d
citi zens
S it
er ung
l ess
m eine
do es
ke hr
g ar
wie der
nah me
w oll
gan z
dar auf
den en
lo w
p ly
ah men
f ul
la st
meas ures
ord nung
as k
unser er
roug h
fü hren
is ed
k omm
R ahmen
ste hen
a ir
rit t
Fin anz
G ro
b re
e very
im in
v om
be g
il d
lin ie
leg isl
c ould
cur r
or y
reg ard
le tz
com pe
por te
da für
ges te
fu ll
spre chen
ver s
dis c
str ument
reich en
la gen
N e
sa id
S te
ß e
Ver ein
to day
vo te
W ie
t ion
bes ch
str ateg
ö ff
pos it
th rough
st itution
tro l
emp loy
mat ter
ter stat
im plement
go od
O r
m uch
re e
te gr
f o
st ill
se tzen
is k
ab l
je tzt
pos ition
ut ions
zu g
s atz
hand l
ha p
al ready
kl är
h ow
h ol
m ir
ke l
da zu
b udget
W enn
so zial
ihr er
to o
c ent
f l
a f
Kol legen
ar ds
ind ustr
finan cial
porte ur
ach ie
En erg
with in
or ity
lo bal
se t
i ß
T r
be its
Mr s
n um
r u
sh ip
imm t
Z iel
om en
pro cess
ta ken
Gemein schaft
la w
ver sch
sp ra
ö s
en vironment
wor ld
rap porteur
tz e
re qu
M ein
be wer
y our
sel bst
se tzung
comm on
h o
se ct
gro up
H owever
neu en
m ed
Berich terstat
th ank
pla ce
ff ic
Pro blem
e ben
h ope
w issen
ap pro
en erg
wür de
L änder
bo th
en sure
h igh
cour se
ins besondere
1 0
s ign
m uß
führ t
be gr
E uro
heit en
Comm unity
inter est
G ese
H er
Re cht
l assen
sp ol
fa hr
ou se
pro m
re cht
a kt
sche id
la ge
m achen
ne cess
co operation
g a
it ä
sel f
t al
Pro gram
lar ge
reas on
ag t
re d
is piel
ur ther
pres s
D es
D a
Ar beits
ze ich
aus ge
a de
it al
te xt
Zusammen arbeit
cas e
ur ing
vent ion
re chte
Ih nen
all er
pr inc
Pol itik
st im
a ction
cur ity
c ar
gan g
do ch
a ck
gemein sam
kön n
num ber
Berichterstat ter
un ft
Unter stü
ant wort
ber eit
Aussch uss
ö l
s im
h än
st är
h is
woll en
ic t
l an
ab ility
er t
Dies e
it ions
are a
alle m
Um welt
oh ne
spe c
s s
is ierung
re du
ch ange
ch an
au th
w n
ein z
curr ent
Ar t
ass ung
ism us
k unft
l ang
in ce
l ong
se it
wor den
i o
ma y
Richt linie
Be it
in formation
lich er
princ i
g lau
c ing
ord in
c all
h ö
ä hr
W elt
wh y
Unterstü tzung
hal f
or ities
sch r
pol itik
ein ige
A ll
Le ben
energ y
b at
h ä
ge ord
f le
ür lich
glich keit
ma j
reat y
ne ue
ag es
ge w
G en
me ans
M ad
s eine
gan gen
s c
ch ten
so c
ander e
nis se
p unkt
M ö
gent le
N o
trä ge
a v
geord ne
z ahl
Unter nehmen
exam ple
inv ol
ge leg
necess ary
geste llt
Ja hren
gentle men
o cr
G er
st er
Sicher heit
con tr
en ce
with out
he its
i um
Te il
ach e
mar kt
f ten
ac cess
problem s
fin den
ze ug
H ouse
H e
hel p
prov ide
a hr
prote ction
ul es
L ändern
go ti
z iel
h owever
Pro ble
I f
polit ischen
wä re
str eng
hal ts
res pect
dire ctive
compe t
n un
kt ur
g ress
inv est
fall s
gr ö
ant rag
g lobal
pl an
disc uss
tt bewer
at ic
P r
be tr
ial og
h of
y ing
R uss
kl ar
Mö glichkeit
ent s
ne goti
te m
program me
Ver trag
sa fe
Reg ierung
m einer
Ent scheid
lie gen
dec ision
fa v
h ungen
entr al
der ung
Ab geordne
sch on
op port
ttbewer b
in iti
F all
Mad am
ig ten
tr ans
B ed
au m
g ive
ac cept
particular ly
stat t
ein mal
M ill
ate ly
abl ish
Ent schließ
be fore
re present
M on
bring en
stimm ung
v al
iss ues
U S
or g
re m
w ish
N amen
se curity
est ablish
un e
wer t
ab il
Präsident in
Str ateg
op en
Sta aten
s ä
fav our
ä ß
I s
he alth
j o
zwe i
k äm
spol itik
g iven
resol ution
are as
er ent
T o
l icht
cons um
Energ ie
re form
hand elt
d ra
a gen
öl k
il fe
H in
W as
if ft
B r
wirk lich
The ma
T reaty
h men
ill ion
sect or
employ ment
re t
Sit uation
w he
los sen
spra che
Gro up
ist r
in tegr
gese tzt
l us
Ver brauch
w är
ical ly
kt or
w omen
v i
Frau en
v is
vie le
w alt
f urther
pro ced
Be deut
h ang
Fra gen
f ind
europä ische
F l
iden cy
ste llt
iv il
ame work
fol g
ges am
ke y
dar über
Bedeut ung
zu sam
po wer
E ben
im pro
sp r
Min ister
st ar
et was
g ere
H andel
diff icult
c lo
ac c
R ates
ien st
if ten
L age
Mein ung
Sch utz
whe ther
b t
O n
letz ten
l er
not wend
sib ility
way s
ber al
requ ire
amend ments
a id
zusam men
la dies
aga in
lic k
se hen
se qu
unterstü tzen
lo ok
L ös
St and
i hren
Member s
b au
stell ung
or e
af ter
beste ht
diff erent
k ün
schr iften
comm it
in de
pr i
op in
cr is
Zu kunft
Un ited
dar f
ac coun
I r
stru ct
be half
bas is
en e
su c
ie le
k ten
führ ung
program m
Haus halts
ro le
n al
u f
contr ib
me et
z ü
s ince
am il
reg ional
go ing
mö g
c rit
propos als
res ult
da her
tra de
Proble me
Aus sprache
begr ü
is ions
ges agt
F ort
Ge bie
y s
de al
ir d
Re gel
ä uß
war d
k o
In d
agre e
ser ious
ter ms
F isch
L i
id ar
a ce
al ten
pl ic
full y
i ff
pra ct
ier ungs
con f
ne xt
serv ices
be de
inst it
ig r
b ack
po in
pro mo
zur ück
E m
p end
d ür
spe ak
re if
We ttbewerb
fol gen
nat ürlich
fin anz
b u
m ut
pro gress
f ach
war ds
u sed
r ules
inst itution
ef for
G esch
an te
d one
fol low
p erson
ier ten
ä ge
g ut
effe ctive
a ff
er forder
in ner
grö ß
Zusammen hang
1 5
aus sch
ent lichen
a im
age ment
at er
C h
adop ted
1 2
de fin
E C
wi er
com ple
ct ions
s einer
B est
R olle
it t
e igen
au ßer
bet ter
u er
tra gen
F ol
W o
k ur
Or gan
Kol leg
fr amework
qual ity
f ör
legisl ation
it en
re co
Des halb
we isen
z war
ing s
ge führt
ex ist
all ow
c olle
national en
S ystem
gr at
appro ach
A m
war en
c ap
k es
W hat
ament al
Ab stimmung
a w
Ver handl
Änderungs an
B ut
hand el
äm lich
C hin
ur n
glau be
Pro du
Er geb
need s
m one
ste ht
n ämlich
K om
ag r
s m
el le
n ie
es en
govern ment
ent ial
cris is
ück sicht
best imm
D isk
inc lu
posit ive
in strument
ge hör
Dem okrat
n or
B es
ment ion
z ess
ma king
arbeit en
contin ue
ti kel
Mar kt
who le
g aben
opin ion
versch ieden
l le
pr ü
gese hen
ste p
K in
So zial
k r
j a
en th
instit utions
ed om
gegen über
im es
sel ves
uns eren
geleg t
on ds
gro w
stim men
gu ar
fä h
gest immt
le ist
es pe
comm un
v ious
Sch l
l ud
G leich
ll schaft
tre ten
j ob
In formation
agr icult
hän g
pro chen
res our
B ar
re cent
k ung
00 0
se cond
dan ken
Ar tikel
concern ed
b an
De bat
Verbrauch er
m ember
vo ted
lie gt
c or
feren ce
V ol
ter r
und en
lud ing
m il
S eit
Besch äft
A t
mo ve
gen d
transp ort
da von
betr ifft
con trol
reg ul
ra cy
sch ein
Ges und
for ward
ta x
grat ul
200 0
ein zu
1 1
sche iden
St ate
le icht
s um
co st
le ben
h ät
rit te
th ree
lin e
lich keit
T ur
legen heit
v ar
do wn
In iti
work ing
polit ische
accoun t
ex tre
impro ve
dem okrat
gen au
her vor
Ver antwort
ben ef
w ach
Me hr
B el
f assen
E x
u ally
b lick
wend ung
ding s
g ern
ta king
ro ad
fe w
Menschen rechte
bess er
W or
An t
We ise
F e
to wards
pa y
wel come
könn te
der en
ge d
S ol
at ives
c al
ib le
P unkt
n äch
ation en
ah re
D ar
some thing
EU R
dem ocr
sch utz
no v
fre e
d rei
ge ther
We g
b ur
dar an
b us
ed u
Europ as
T O
F re
u ck
A ber
cond itions
of fen
is ing
Eben e
spec ific
Par t
Herr en
tro du
In stitution
techn olog
achie ve
princi ple
fre edom
U N
in trodu
guar ante
ver kehr
resour ces
W ahl
k le
Wirtschaft s
a il
hof fe
o sed
ap pe
icht s
ex per
be l
- ,
st ate
reif en
transp ar
zie hen
in ess
if ied
be d
gesch lagen
ze pt
bas ed
suc cess
cial ly
W i
e p
er ken
For sch
inc luding
N ot
sub ject
to gether
igkeit en
1 3
scha ften
j en
An ge
sh all
mer k
car r
S p
währ end
l es
pr iv
itä ten
s ha
Leben s
L is
Fort sch
Strateg ie
Un d
gro ße
beste hen
St ra
under stand
import ance
D ienst
le isten
an ges
v en
ear ch
prop osed
res earch
da bei
opport unity
s id
brauch en
ier te
dire ct
Be ispiel
k ein
dr uck
d id
ess ential
air s
Vorschl äge
gen eral
re ally
reg ulation
ge geben
fund amental
tent ion
re ach
m illion
D urch
i ar
N or
Pres idency
D amen
J ahre
W er
w ün
ma ß
at iven
Änderungs antrag
Be zug
z weit
an zu
h au
polic ies
soc ie
ge währ
auth orities
M ed
th ird
cr imin
e hr
An sicht
ga be
ra cht
Tr ansp
increas e
B em
we gen
espe cially
wär t
V iel
s ur
pe ace
for dern
an ts
s or
sp räsident
h ung
scha ffen
le t
so wohl
f te
o gen
d uring
at or
Str u
fe hl
act iv
Lös ung
f un
prop ri
al e
ri ft
Re chte
Debat te
ent scheiden
iv id
c ult
it or
schließ lich
s weise
Kolleg innen
terr or
dar in
industr y
b order
pro f
dür fen
strateg y
so ur
for ce
reco g
produ cts
er halten
Abgeordne ten
une hmen
sta in
e ig
Gr ün
ge le
l on
il t
negoti ations
is es
b on
mit t
environment al
ap propri
L u
p ur
ter m
b ind
v ölk
besonder s
clear ly
respon sibility
oc racy
gesch lossen
le ad
pf ung
ih nen
hör den
le ast
great er
Um setzung
vi ol
an other
international en
be come
safe ty
Ind ustr
fa ir
Demokrat ie
Chin a
kün ft
en cy
A fr
it self
ffic ient
sm all
Änderungsan träge
qu ite
ild ung
komm t
fre i
en zen
T ats
le a
vor geschlagen
Z ahl
com ing
P erson
ver ständ
wi c
in form
sta at
ad v
ra ther
Ab kommen
gemeinsam en
are d
Au ch
ab häng
kt iv
gro ßen
bus iness
The y
stand ards
pre vent
over n
th ough
tr au
fra gen
ab sol
ist s
pla y
3 0
in z
wirtschaft lichen
hn t
B innen
wel che
ie ld
teil ung
einz el
hä lt
be ding
un i
ex press
dem ocracy
wh ile
des sen
fol gt
e ach
pre c
k re
den ken
gen er
Fisch ere
äch st
add ition
dem and
rap h
reg ions
T err
ich ten
G overn
u ten
ob je
al ways
sozial en
om ent
ob ject
Verhandl ungen
W ähr
re chts
ind ivid
ent er
zie hungen
y o
deut lich
un ächst
m iss
Th ese
Mill ionen
Ein e
utz en
Hin blick
In strument
on ce
ber ücksicht
i ze
H ilfe
neh mer
forder t
at tention
F und
su chen
re icht
Ver ordnung
ing le
democr atic
hin aus
reg ion
on t
c are
Entwickl ungs
weiter hin
la ck
men d
Er klär
thing s
fra ge
Z ust
inter nal
interest s
ra gen
b il
at t
pf licht
an ces
ger ade
bere ich
b our
ent wic
Z iele
v est
ic le
socie ty
organ is
comp an
des halb
h ist
A spe
implement ation
Ausschuss es
as e
es se
ier ungen
ro ss
maj or
T ür
st um
sch rift
mil it
inz ip
F ör
inner halb
an im
den ke
5 0
D ah
Gese tz
ein igen
Arbeit sp
ll ig
D E
st o
Entschließ ung
R es
käm pfung
we g
feren z
ll ung
poin ts
er sten
Dah er
Ver fahren
sch ied
sch ne
mon th
mone y
wer de
gemein same
kann t
f ight
econom y
lin es
be im
extre me
1 4
wicht ige
er reichen
ing en
Is ra
ktion en
Verantwort ung
ff iz
soll en
Ih re
str ong
sch ä
wi esen
effor ts
sign ific
an genommen
all es
Z we
ein fach
rel ation
il legal
var ious
F ä
f el
sh ow
re ce
Institution en
initi ative
En de
ab ly
c ation
In vest
is her
hal te
Ver f
wirk ungen
Haus halt
z ogen
Er weiter
dra w
system s
It al
ke i
des t
ex p
der zeit
ition en
er ziel
t ar
R om
A gr
w rit
com es
gen ann
N at
comm ittee
wor ds
z ung
Part ner
Pro je
ze u
fo od
zü glich
y et
Reg ionen
il y
Grund lage
ich te
pl es
Ver kehr
sub st
ze igt
ic k
A mer
zu stellen
if iz
gem acht
min ister
ute t
m ult
i ben
re fer
ap plic
su stain
fund s
a ffe
zeit ig
ik a
notwend ig
in ing
colle ag
prop er
at eral
proced ure
par liament
p op
Be völk
ens ion
e ded
P al
f ang
f ield
P l
A ff
z unehmen
pro je
ie f
T ex
l ück
commun ic
fü g
c reat
D ire
l ight
er mög
F rei
t on
F ir
ver bess
se its
sol che
Binnen markt
invol ved
am b
teil en
en large
s ingle
ent sprechen
un t
dr en
sä tz
il dren
Disk uss
compet ition
ha ving
ic s
Tats ache
A mend
bei den
in dem
grow th
sp iel
weit ere
M an
i ation
Fr ieden
l ändern
sh ort
US A
we e
c l
hap pen
g ilt
r än
be ispiel
. .
concern s
ch allen
ver fahren
Govern ment
Aus wirkungen
Entscheid ung
se em
fe el
Program m
de l
c en
ö t
Zu gang
äch lich
acc ord
wür den
er wä
ie ben
Aff airs
agreement s
compan ies
streng then
nicht s
programm es
on str
D ank
ik an
fo und
fä hr
Be i
2 5
J ust
Re form
a ffen
c ivil
e uro
Aus druck
ro w
am ong
p rä
lin ien
ch ildren
ab on
alle d
W ort
au er
Au ßen
trol le
con gratul
isch es
t reat
fin det
k ind
Lis bon
L iss
ialog ue
y l
is se
geb racht
Liss abon
o ds
clo se
object ives
emp has
Terr or
work ers
res tr
ut es
b ank
increas ing
r isk
for tun
pa ct
Stru ktur
unterstü tzt
merk sam
i ther
un kte
B o
er klär
res ul
av ail
R ück
en cour
d raft
ein ander
Information en
maj ority
aus zu
conc lus
wen iger
For m
ific ation
200 1
he b
ent liche
Wettbewerb s
An d
stat ement
amend ment
Ver pflicht
man agement
of ten
me an
n on
eben falls
organ isation
Q u
dar um
k einen
aw are
sol ution
Jahr es
produ ction
ic ial
P ri
v ision
H au
ans wer
con st
L et
K am
M al
dec ide
certain ly
n ess
comm end
Kin der
tra d
follow ing
dec isions
beispiel sweise
t es
re le
ist an
f ish
aff ung
sch wier
igr ation
viel en
i x
per i
Rat spräsident
re gel
sim ply
g ra
wa hr
er b
ß t
agricult ural
sch re
C O
n ame
öff entlichen
vor schriften
min istr
Par te
sicht lich
gegen wärt
För derung
ult ur
Be hörden
ver l
U r
Inter esse
Tür kei
bet re
wes en
d ou
ander er
d at
ra ch
Tur key
ter s
an gem
schließ en
W h
eigen en
li fe
P re
effe ct
Bed ing
D en
ag o
ig es
c alled
Be ziehungen
h on
Reg ion
Al s
part ner
ex ce
iv ing
in ten
hat te
at ten
stär k
compet it
verschieden en
s einen
t able
Y ou
and id
ic a
T ages
f onds
extreme ly
ent ly
group s
kur z
halt ung
in ge
rel ations
Organ isation
Fir st
iden ce
viel leicht
appropri ate
Ver tre
Kommissar in
fle x
Besch l
auf en
ein ge
dr ück
Erweiter ung
hap s
Verein igten
comple te
signific ant
ass ist
d ialogue
peri od
n u
ke ts
bede utet
Ko sten
sch wer
obje ctive
f amil
co ordin
re main
Not wend
de f
d ort
is tet
partic ip
Be tr
Pro to
cre ate
Em p
St abil
n ing
sit z
Sch affung
com prom
ab our
auf ge
E rach
Erach tens
t ats
Isra el
ie g
k ut
pe cts
me th
g re
Ant wort
ip fel
D ialog
m äß
far m
H a
me chan
ent en
m ight
con text
mention ed
respon sible
aussch uss
i ver
st ates
Ge ld
A gen
po se
act ually
se ver
ne g
quest ions
forder ungen
rece ive
kle in
h an
I ra
for t
be tra
l änder
develop ing
s k
d om
ie llen
oug ht
Inter essen
Beit rag
an gen
T ag
Beschäft igung
he ad
avail able
m ü
ck s
Sicher heits
st än
jo int
O ff
W ar
of t
se i
enlarge ment
C har
Art icle
c ut
C our
other s
do c
job s
st art
h es
Pri or
Stand punkt
doc ument
ch ar
alt ung
g ute
d ien
ke ep
all gem
i ans
199 9
A f
so gar
ak zept
W ach
lim ate
prote ct
S E
m and
Industr ie
po sed
y n
Kr ise
200 7
Re i
mon itor
a z
K lim
Wi th
auf grund
ver ein
h im
W TO
erforder lich
Notwend igkeit
hät te
ich tet
res t
har mon
I hr
j ud
ap ply
p at
p ass
Cour t
m oment
inde ed
äuß erst
kon kre
ien ce
P os
l änd
Beding ungen
Ko so
con sequ
dem onstr
ch ter
näch sten
Russ ia
ur s
Gebie t
kon n
f oc
spe cial
resul ts
we iß
D aten
200 6
P ort
200 2
Q ual
v ol
Fin ally
wen ig
Bevölk erung
current ly
Be kämpfung
Land wirtschaft
stru ktur
if y
Arbeitsp lä
ch er
iß t
m als
Ver walt
meet ing
Sol idar
ble iben
S ub
we is
Kom prom
concern ing
könn ten
im pact
der t
Ste llung
in nov
schne ll
jen igen
f ung
m ob
ad ministr
Fl ug
m einen
gehör t
k om
ol d
ass ess
Sch ritt
ple as
prov id
Fischere i
Dies er
ex c
Au ff
fr ist
de ta
wur f
r ing
Wach stum
consum ers
Über ein
t urn
Dienst leist
teil t
te ile
b it
Auf gabe
an u
tro ll
de ter
f as
200 4
wicht igen
An wendung
ne eded
we d
o ve
Bericht s
cr u
bess erung
der s
s us
ck en
handel n
do ing
se tz
Forsch ung
be w
cas es
Ver besserung
Tex t
recog n
Ge gen
er war
them selves
be züglich
ge ts
li beral
member s
c limate
Her aus
E N
edu cation
angem essen
schrift lich
m acht
fäh igkeit
J e
sch ie
ne ver
ar ian
sozial e
dis kut
M y
te id
verständ lich
Koso vo
ap p
hl en
he ißt
month s
hin sichtlich
Präsident schaft
legisl ative
m eines
J u
Rei he
ig in
co ver
matter s
er reicht
ihre m
ib ility
F ür
Initi ative
för dern
dat a
K ultur
ru ck
conf lic
gel ten
In tegr
Port ug
v ö
an al
) .
fortun ately
sh of
Off ice
re quest
c ies
Best imm
Wie der
am oun
Gese llschaft
princi ples
fer t
sol idar
ab zu
vor schl
reason s
f isher
accept able
re commend
Sch ul
200 3
Fortsch ritte
d ist
e llen
1 8
gangen en
t est
Li beral
und e
Ste uer
st ra
So cial
or en
Agr ar
land s
Program me
maß nahmen
sicher heit
Verein bar
wi der
Fol gen
aller dings
Tages ordnung
wirtschaft liche
o st
je den
h il
fin al
t ary
en ough
a th
er fü
richt ig
gro und
l ig
H and
z entr
fa il
br igen
O b
K enn
reg ards
ein deut
p ers
individ ual
k ed
H ier
s om
G ipfel
s ag
ver b
k oll
Kon trolle
st ens
part ies
f li
te ll
je der
bar en
um fassen
od y
iven ess
fund ing
cre d
ih m
report s
ge fähr
proje cts
por ted
comprom ise
Pro zess
cost s
begrü ße
b rit
i ken
p li
at ast
ü hr
nach halt
at iv
gr enz
ä u
e th
con stru
S econ
Secon d
lon ger
pre p
atast rop
bis her
ig ungs
Z weit
mitt l
d ue
e qu
ar r
le i
achie ved
or igin
vor zu
Gen eral
K raft
ün d
Gesund heit
vor liegen
R u
h nen
ent ire
ün g
ll ent
Bereich en
P e
activ ities
er ste
rit er
off er
sustain able
schließ end
stand en
unter schied
komm ens
absol ute
en de
pri ority
J anu
200 5
gro ß
ch es
E ast
lo cal
Richt ung
writ ing
entwic kel
yo ung
the less
gr i
unter nehmen
b lo
add ress
y m
Ergeb nis
ver antwort
ih n
Arbeit nehmer
L a
im um
Mitglie der
a ctive
le ment
ständ ig
C hr
us ing
itt le
Ge legenheit
f ern
e ffiz
commit ment
alth ough
l än
tr u
Con vention
fol ge
integr ation
Transp ar
wen den
ex pect
1 7
wor ten
St at
ide a
age d
su g
at ory
g ument
res pe
Sp an
dr ing
at is
Gemeinschaft s
ze hn
iel le
Auff assung
grund legen
v ict
ach ten
tr ue
Vertrag s
M är
Ver füg
pa st
Ö ff
up pen
l ittle
richt ung
Ge walt
ges prochen
lä ss
en ces
re c
promo te
benef it
enth alten
iz ed
am t
govern ments
üs sel
e ver
200 9
crit er
einzel nen
F R
chan ges
Erklär ung
l abour
I I
20 10
arbeit et
Bürger innen
act ions
Gesch äft
Mehr heit
no thing
al en
m einem
congratul ate
agen da
Amend ment
k rä
1 6
provide d
europä ischer
ter rit
legen heiten
ob lig
nu clear
S an
Bür gern
tern al
o ten
exce llent
leg ation
sub sid
Ein w
Kam pf
E P
im s
Reg ierungen
per haps
it em
su cht
h lt
Vor schriften
main tain
De c
Person en
k ra
gem äß
me t
up pe
m ind
solidar ity
S el
regard ing
vor gesehen
Transpar enz
fore ign
en or
Se ktor
R ights
fü n
rit ts
schein t
eben so
mar kets
o und
Handel s
Proto koll
be teil
ult ure
tro ffen
on d
w an
op t
inclu de
agre ed
st re
he ar
y es
ele ct
M il
w in
pre vious
j ähr
vö llig
s ide
er folg
ab ove
B rit
Bem ü
sch ieden
gesam ten
it im
Ein führung
gewähr leisten
N icht
d ig
ch o
ver stär
pa ck
guarante e
lie d
we der
Rat s
se en
b l
bet ro
En g
tats ächlich
ind ic
Rechts vorschriften
un ities
tr y
ver hin
at ors
an ken
ma kes
itä ts
sha re
struct ure
as pects
g as
r up
F amil
bur g
v ier
consum er
Berichterstatter in
au t
e as
tre ffen
sch ul
po tent
f allen
hist or
he ut
mittel n
Ir an
Sta ats
Möglichkeit en
it u
al ität
r aum
human it
Diskuss ion
ir c
betro ffen
pro ject
ass er
le tzt
B al
D am
f our
n utzen
Se p
Verfüg ung
to p
fir m
P er
am p
ev ent
dan ger
bede uten
Te chn
transpar ency
L in
pop ulation
po st
Kon fli
o de
p fen
c irc
B ank
D ok
Inter net
n t
so on
access ion
sever al
P ra
lo t
D ritt
sie ht
Dire ctive
mor gen
4 0
neh m
rele v
utz ung
Er folg
an e
Entschließ ungs
su fficient
su ff
it er
im ension
con ne
in ed
ist ischen
tel le
Seit e
M eine
Sel bst
O ur
Sit zung
in tens
am er
up on
sch ü
Au ßer
be zie
for men
ne ut
ste ad
b ody
F est
s he
he ben
w ater
em iss
neu er
ile d
zu sätz
h ard
sam en
contrib ution
gese tz
dis crimin
appe ar
200 8
a vo
ch nung
Entscheid ungen
et wa
Emp fehl
fü gen
respon se
verbess ern
ex ten
to mor
tomor row
terror ism
h ne
techn ical
contin u
S or
communic ation
demokrat ischen
gleich en
Dok ument
E S
Gesund heits
r as
u ine
en gen
on en
The men
U kra
us st
Re de
st op
gese llschaft
wün schen
pract ice
gleich zeitig
conc lu
There fore
An satz
ver g
un ion
n immt
discuss ion
Second ly
p h
fr ü
üs se
vo ting
f lu
led ge
co hes
tem ber
W es
leg ung
se tzt
bal ance
T ra
he ld
S ou
val ues
2 7
z unächst
A C
ich en
hat ten
ic an
ce ed
er inn
it et
e ign
sp richt
riter ien
p ite
re fu
Sep tember
kt ions
be kannt
c ol
anges ichts
invest ment
exist ing
i ere
O ne
I T
colleag ues
unser em
deter min
criter ia
K oh
n issen
Zweit ens
prov isions
Menschen rechts
Aussch uß
net work
seem s
is on
K ap
an a
fün f
po ver
Außer dem
g ü
er heb
w and
re pe
G ree
proced ures
O pf
Vol ks
priv ate
pleas ed
Th ank
l ö
Ange legenheit
con v
ins icht
H insicht
ele ctions
pra kt
se ktor
li k
serv ice
dan ke
Ver trau
kt ive
D o
schl uss
al tern
ab kommen
pend ent
fa ce
Le g
Terror ismus
re fle
Bestimm ungen
Geschäft s
bie ten
st ability
zeich net
cult ural
assist ance
institution al
viol ence
Russ land
) ,
sen se
m ann
be für
prec ise
po or
h end
cre ation
n ü
wee k
our selves
ob vious
ver treten
ge wä
K ön
hel fen
get an
wo bei
R is
adop t
potent ial
ta ck
fish ing
prü fen
sp ar
sta ge
handl ung
Ergeb nisse
h m
cohes ion
Solidar ität
P unkte
N ationen
Finanz ierung
reich e
instrument s
sch t
Ge fahr
pres sed
b zw
il ität
S pra
ein heit
b are
pro zess
ap er
milit ary
auf zu
beit ragen
m ein
ein g
qu ick
sein em
Un s
pover ty
k raft
unt il
No ve
Bemü hungen
ask ed
r ang
ac ce
in ne
cru cial
pt ion
Schl uss
t imes
tra ffic
every one
carr ied
ier s
bas ic
tra ining
' .
hau pt
sag te
if el
Hau pt
say ing
m ber
Dem ocr
regul ations
table d
K omm
con ta
hon our
gu ide
F ern
fr ont
r ate
Integr ation
d ut
Ar mut
er hö
gro ßer
organis ations
fa st
Nove mber
Auf merksam
l ant
Ange legenheiten
farm ers
Zeit punkt
fa cil
it z
trad ition
mechan ism
Chr ist
suff er
Aufmerksam keit
gemein schaft
S lo
pf lich
consequ ences
on es
Präsident en
trä gen
n ommen
berücksicht igt
ll er
ig lich
D inge
sol chen
foc us
n ern
ble ibt
th us
spre ch
sour cen
H o
se x
i res
V ölk
wes entlich
Frei heit
sp lan
lich es
betre ffen
applic ation
me isten
ze igen
Ukra ine
increas ed
T at
ar ch
P at
p ts
Gro ß
welt weit
Lebens mittel
rit ten
lang u
rel ating
unser es
lä u
p ted
ist ic
sel s
name ly
Au gen
tro tz
Dies es
ä st
ur gent
re ct
Ko ordin
An streng
val ue
ue llen
diff eren
In form
be h
h och
international e
ermög lichen
wi de
bu il
b itte
Pr inzip
al ong
led iglich
dis ast
genann ten
redu ce
W el
le ider
sch le
ver gangenen
sor gen
st ud
p ing
st ress
k ür
in es
W hen
ob wohl
stim me
B ildung
en able
rel ig
m is
b ig
it ing
ung e
gere cht
Am ster
Amster dam
k ungen
ed i
ru le
ess ion
read ing
Re chnung
clo sed
every thing
present ed
Änder ung
Agen da
hl er
require d
fun ktion
b i
Komprom iss
require ments
E G
ä d
pub lik
Par ty
Inter national
St im
Stabil ität
mo t
D och
opport unities
un ver
f al
di ge
pers ön
Land es
vor gelegt
erst er
2 1
p assen
N A
to ber
at tem
se c
Er stens
gr iff
spe e
un abhäng
l ange
avo id
re view
P lan
b ür
Vor aus
g han
rei ben
budget ary
ag ing
os sen
g ing
con tra
eig entlich
au d
G re
v ital
Grün den
B as
hör en
A P
imm edi
e qual
Sch wier
än de
f il
sug gest
prep ared
Invest itionen
ü brigen
ver ab
f ive
Min der
bestimm te
sit zen
gri ffen
L eit
S icht
z el
through out
ade qu
Dam it
Vertre ter
S ü
Be teil
has e
wicht iger
pri orities
Arbeitsplä tze
b road
leg t
re in
end ing
Inform ations
nat ure
mo del
fe ll
Er fahr
m ess
C o
ex port
M or
wen det
e ither
c lar
n ers
just ice
to tal
ge wiesen
ar ound
Z um
ou ts
ul gar
beg inn
ll ing
Con stitution
b ro
hin weisen
weit eren
Sch we
begrü ßen
20 20
dou bt
S ache
r imin
A ktion
adv an
Aspe kte
M än
Ger icht
s atis
li ve
Lu ft
de fen
ge troffen
Verkehr s
ret urn
hap p
initi atives
igh bour
Vol k
comm unity
zeug t
Nat ur
il fen
hol d
n a
in fra
Verf assung
ta ge
Anstreng ungen
F le
pl ies
sol id
zweit e
U hr
mar k
decide d
Regel n
An nahme
pre par
ha ft
sch lagen
b ildung
Verpflicht ungen
entwickel n
auf genommen
de e
F ahr
ent e
pur su
power s
off icial
ex ternal
hät ten
leg itim
spiel en
is ieren
conflic t
fund en
be vor
mit ted
anal ys
zu setzen
sä tze
amoun t
pres sure
Gr enzen
anges prochen
besch äft
Öff entlich
r ene
dring end
P rä
D i
ständ igen
ver suchen
arbeit ung
de li
as soc
Ver bre
kon zentr
reach ed
en ch
erken nen
A p
T ät
äst in
establish ed
effiz ient
St är
Beit ritts
ac ross
cht ung
ag raph
Qual ität
relev ant
owe d
c kt
Be ih
move ment
Pal est
wa ste
Dar über
G lobal
fas st
it err
De ut
ah n
Bar ro
t ask
fisher ies
inter ess
monitor ing
v olle
tal king
z lich
re f
gesch affen
Techn olog
on s
roug ht
z if
ex pressed
geb ie
Bem er
Fr ank
implement ed
f s
lang t
P E
Änder ungen
m ere
crit ic
mö chten
Mit teilung
ra ised
Ab schließend
setz ungen
z entral
N ie
Proje kt
prov ing
De velop
spr uch
ä l
N r
ver pflich
level s
il ities
Mitgliedsta at
eindeut ig
zeich ne
drück lich
mat er
mo dern
s of
cap ac
M ore
beding ungen
gen uine
P L
In nov
Wo che
H ar
med ium
ü cht
an ia
erinn ern
Schwier igkeiten
h u
conclus ion
er c
ber u
erg reifen
los igkeit
poin ted
c ross
a y
S we
berücksicht igen
l ing
il ateral
M iss
Sch ließ
ein gehen
fr ieden
ver standen
ish ed
Ma y
Abgeordne te
Dienstleist ungen
ä lt
cr ime
An trag
challen ges
Kon ferenz
dire ction
invol ve
Opf er
de ath
Fr ance
who se
effor t
Portug al
discrimin ation
sc ient
wir ken
end lich
I re
no te
. )
S to
Gesetz geb
Öffentlich keit
w ise
exper ience
Af ghan
inclu ded
be handelt
T re
S um
cons ult
besch lossen
m ass
be ar
bo t
fell ow
Rats vor
F urther
Ire land
k ret
ig te
Pos ition
accord ing
gesam t
B ulgar
L es
vict ims
g ab
quick ly
L assen
Grund satz
K riterien
Pl en
part ners
N ord
l ist
änder t
her aus
h inter
alle in
R ed
dar stellt
effe cts
ü ro
des ign
Bal k
ges und
8 0
au ern
ord n
Unter such
hin zu
recent ly
partner ship
la y
absolute ly
D ruck
Wettbewerbs fähigkeit
enter pr
imm igration
b illion
A gent
Nach bar
border s
A d
sect ors
lan gen
erken nung
sta aten
um s
öff entlich
agricult ure
thank s
uf ig
il ar
Völk er
to ok
ien cy
Develop ment
R o
verhin dern
redu ction
verkehr s
te le
sup ported
ä s
d ate
day s
and s
Bel ar
f lo
real ity
tal k
199 8
in dest
zu führen
be zogen
on nen
t ung
Sta at
hö ch
k rit
l aufen
is iert
di vers
r is
k ulture
andel s
us h
res er
reform s
e fficient
iterr ane
Agent ur
pl om
Kenn t
cap ital
Entschließungs antrag
H ö
Con ference
star k
sib ilities
Be g
gü lt
r aten
complete ly
bal d
ie b
Beit ritt
ge funden
prof it
struct ural
es ted
sp ir
Ver teid
bil ateral
Parte ien
S inne
Z ivil
s an
stärk er
oh n
bet onen
be kommen
bew usst
s ix
G ar
pack age
int ent
verg essen
c andid
Afr ica
org ung
ben öt
technolog y
An erkennung
b rought
g iving
i end
Z unächst
ien z
iterrane an
outs ide
ir gend
den ce
Belar us
fol ger
pla in
er neut
öff entliche
c au
s inn
schre iten
su per
ö st
Med iterranean
addition al
ko sten
6 0
schl ossen
käm pfen
k einer
spe zif
ho ben
ex cept
ger ichtet
Fr ench
ä ter
wo gen
Ira q
be mü
Stellung nahme
th reat
Vertrau en
stat us
le ft
appro ved
pos sibility
K ern
Re publik
zeug ung
pr ice
mo tion
fin ally
pres idency
H uman
A gre
wichtig sten
ne ighbour
best ät
parliament ary
die jenigen
con du
di o
Gemein samen
business es
un employment
ex tent
ffic iency
qu o
klein en
utz t
Wahl en
person al
Agre ement
Brit ish
develop ed
lau b
Re public
receive d
bess ere
A pr
j ahr
fahr ens
Sch engen
Mon aten
industr ie
re ten
Apr il
y p
ev al
app lied
Frank reich
he ard
con tent
der ungen
con tain
nor mal
ein schließlich
ander ung
nat ural
zum indest
pre hen
da durch
gesam te
al most
el se
represent atives
Vereinbar ung
f ig
H altung
e ll
bau en
me l
emiss ions
1 00
ta kes
a way
encour age
First ly
sit ting
lö sen
h err
d ise
r un
R O
S a
res sed
N ations
ern s
R aum
er weise
gu ten
circ um
zeu gen
au sch
Mittel me
creat ing
De z
p as
Les ung
us sed
coordin ation
ge lt
ien s
disc ussed
z ä
assess ment
sum mit
Reg ierungs
erwä hnt
Dec ember
x is
con om
fr iend
cor rect
beh ind
b ung
subst ant
par agraph
E conom
competit iveness
Prior itäten
ens uring
be ant
treat ment
2 3
form ul
ge fordert
c la
j üng
For derung
pr ices
Pre is
capac ity
über haupt
pract ical
ra hmen
og raph
in flu
sich ern
li ves
L ast
industr ial
iti ken
yl um
m us
Dez ember
fre ue
ther n
st abil
li ving
bind ung
Further more
beding t
z one
bestimm ten
F ühr
f ug
Über wach
co unter
Ein zel
Ein satz
consider ed
bür ger
sicher zustellen
Heraus forderungen
Ratsvor sitz
S pe
Ver l
Währ ung
wür d
Land wir
wieder hol
S telle
ehr te
ann ual
produ ct
conf idence
finanz iellen
ge tragen
Regel ung
an ten
discuss ions
A ktiv
reich end
Barro so
brauch t
imm ung
auth or
ge kommen
ev ents
un er
S erb
pr im
administr ative
guide lines
ch em
trä cht
Partner schaft
crimin al
Bel g
Ein igung
verb unden
ist ische
ra il
en den
e il
st u
An frage
frei heit
Re formen
miss ion
beg in
Komm un
2 4
meas ure
enth ält
Rom a
ikan ischen
Reg ional
der art
W ahr
Kommission s
off ens
r ig
um gesetzt
Initi ativen
c entral
wer k
ma ins
kon ferenz
Ihr er
men sch
prov ision
erziel t
know n
Geschäfts ordnung
re mains
ge wesen
neg ative
NA TO
mater ial
conne ction
affe cted
rem ind
reg ime
ün st
ra d
pa in
Frieden s
ieren den
Verein ten
unterstü tze
Richt linien
O f
W issen
H ung
adop tion
P PE
Nat ürlich
v an
ver ur
h or
all oc
elect r
verein bar
fre ien
kt iven
un acceptable
S piel
humanit arian
schü tzen
ic y
einz ige
außer dem
ge hend
kon troll
go ods
9 8
akzept ieren
l at
Kr ieg
ke its
bit ten
E lement
el s
c los
know ledge
if ically
fest gelegt
Res sourcen
Ju gend
spe ct
pl ann
konkre te
fun ction
W ert
sprech end
sp l
sc ope
ac y
kr ise
.. .
um e
famil y
o il
D ro
ous ly
for ces
lang frist
pl ans
A L
erwar ten
Famil ien
it ation
Wor ld
wissen schaft
igh ted
cr i
territ or
Kön ig
wert ung
hu ge
as ylum
h ig
ar ily
defen ce
gar ant
dien en
Seit en
Uns ere
W ider
lo g
C entral
lo k
Transp ort
ein gesch
anz ös
wirk sam
a in
ausschuss es
form s
sol utions
N ational
buil ding
wor th
As yl
hof fen
Democr ats
stat ed
com b
Fl ücht
con dem
forder ung
com prehen
konn te
des pite
sup ply
Econom ic
är en
Fä llen
H off
e hm
T ro
M acht
Pr iv
r ichten
bie tet
M einer
ch s
transpar ent
über zeugt
All er
ermög licht
selbst verständlich
Em iss
carr y
con stitution
em er
l ung
ro at
le istet
ver sucht
aim ed
pro ceed
e fficiency
zweit en
circum st
Ver wendung
künft igen
he im
effective ly
Zust immung
199 7
P fl
precise ly
tr ying
difficult ies
Wer te
Berich te
adequ ate
Ent wurf
Palest in
Konfli kt
fä lle
re je
ent schieden
se par
Zust änd
t ät
di ent
Disk rimin
Koh äs
K ar
gele istet
r ates
comm er
to ur
P T
an no
deta il
A chtung
x em
refu ge
g reifen
J une
beg lück
ant i
contrib ute
ob tain
in stead
je dem
national e
honour able
n ation
sp er
re ference
Z e
le ge
p räsident
oc cas
stehen den
s ent
Afghan istan
Da bei
St re
Viel en
ästin ens
be ziehen
com bat
Auf gaben
open ha
accord ance
dr ug
ud gets
Ab satz
sh own
ure au
call s
enterpr ises
zu frieden
bour g
ün ft
inter pre
gang s
richt ige
be y
enor m
H ow
D rit
s ym
ag ieren
Pol icy
Kennt nis
n ä
mob il
re ign
ass ungs
ins gesamt
is te
rup tion
ter day
un ch
ver t
jed es
Schließ lich
Mill iar
M U
istr ib
Z w
lus ion
circumst ances
icht lich
f alt
ver stehen
un bedingt
rel ated
Wo chen
Vor gehen
g än
äm t
Durch führung
go es
Aller dings
war um
Just ice
ke lt
iz ation
lo se
G u
Aus gaben
h nung
Ger many
Pe ople
recog nis
all owed
success ful
v ia
9 7
n öt
w r
Reg ulation
Beih ilfen
hin gewiesen
ge worden
kl are
tr itt
Stär kung
We it
bal an
im proving
s st
zu stimmen
2 2
eth n
mess age
änder ungen
creat ed
sa ge
bring t
cult ure
K atastrop
bestehen den
vorschl ag
min imum
Ger man
L at
sp ort
b uch
Bereich e
diskut ieren
innov ation
besch rän
sp o
F onds
commit ted
Just iz
ger ing
An fang
le iten
as se
Instrument e
Zwe ifel
conclus ions
invest ig
Ch ance
zeich nung
spee ch
Ges prä
ik o
consider ation
k or
restr ict
comm ents
Klim aw
wr ong
iti ge
heut igen
beginn ing
challen ge
a da
an ischen
rene w
cons ist
provid ing
erfü llen
dut y
benef its
Organisation en
sicher lich
N G
ne l
see k
view s
E L
finan cing
government al
grenz über
allgem einen
inde pendent
Verwalt ung
lie be
provid es
st elle
Lin ie
particip ation
ro und
T ier
fr ied
r ural
mo d
Parte i
Pr ü
län ger
pa id
wer te
ber icht
consider able
Forsch ungs
be finden
för dert
durch geführt
N utzung
prop ose
ok raten
respon d
right ly
Gericht shof
N ow
br u
part y
g lichen
W asser
gehör en
B ild
acce pted
F un
Lös ungen
pur pose
som it
ar gument
Br us
König reich
Brus sels
implement ing
größ ere
G ed
we ist
zwe if
wan ted
conv inc
Aspe kt
spe zie
che hen
ac qu
Gr ie
an er
E reign
z i
Deut schl
A c
h ome
ar m
Grund rechte
yn am
J uni
W affen
Br üssel
oper ate
O s
Fraktion en
c ement
s ession
vern ünft
K or
Ver gangen
h ab
compe ten
EC U
ä gen
Wir k
Beschäft igungs
strateg ic
di plom
refer red
fr anzös
erklär t
ie be
konn ten
op ol
b ol
geleg ten
lim it
or al
deal ing
ter t
exp lo
s ou
promo ting
Sor ge
p el
u ted
ungs verfahren
spec ifically
pli f
c ame
fest stellen
introdu ction
un fortunately
ust om
ander s
lä sst
pen dence
Ein fl
spe ctive
Fol ge
scient ific
E l
p s
serious ly
step s
A ust
finanz ielle
20 13
Fe bru
k tr
i ra
Pra xis
colleag ue
Grie chen
A 5
sim ilar
altern ative
over all
erns th
akt iv
Kr ank
it ure
for ced
N un
milit är
set ting
ex erc
rem ember
close ly
s ämt
ausge zeichne
wä lt
staat lichen
competit ive
d le
h under
schie de
Gesch ichte
be darf
e c
erziel en
constru ction
pr ison
bey ond
notwend igen
entsprechen den
it ung
activ ity
um än
gegenwärt ig
ex change
itu de
M EP
vorliegen den
stär ken
pla ced
Z entral
In de
reg ular
Produ kte
Ge org
M ob
fe ar
y r
our s
lim ited
Vergangen heit
be ein
je de
un sch
in ation
eingesch rän
ab ge
i ft
Med ien
ex pend
speak ing
look ing
ge eig
dec lar
relation ship
d lich
p ed
ihr es
Erklär ungen
pa th
comp any
direct ly
c ke
In di
sen sit
Proje kte
chte t
Beschl uss
wach sen
verpflich tet
g l
ct ing
C ar
Gre en
P a
d ict
med ia
produ ce
d ank
f angen
um en
am pa
vorgeschlagen en
l isten
bere cht
anz en
g liche
Ab schluss
prop ort
br ief
ty pe
hör de
Gebie ten
ge zeigt
ho he
Gr enz
inten ded
commit ments
Ma i
sim plif
' ,
th ous
Dro gen
demokrat ische
balan ced
n am
To day
requ ires
Währ ungs
al y
dra wn
Lu xem
ver me
s ized
Ira k
ein gere
kommen den
la unch
ic les
olog ical
safe gu
openha gen
ma x
iti ous
hist ory
ampa ign
divers ity
H inter
199 6
ge wicht
bur den
D enn
ex tra
N ahr
e quality
a i
gen cy
Ein haltung
lea ve
ver folgen
Koordin ierung
K ur
Er zeug
Sou th
expend iture
European s
d ienst
Liberal isierung
Me th
Janu ary
ges chehen
ob ser
He ute
Arbeits losigkeit
s ive
Gree ce
s ort
Regel ungen
Ir ish
V on
y pr
ver se
Be handlung
demand s
et imes
Aktiv itäten
7 0
e her
press ion
Deutschl and
will ing
b ill
letz te
id dle
w ahl
pol l
call ing
gesund heit
attem pt
Nie der
bes ten
Beg inn
bo dies
ster reich
c ampaign
k rat
dar stellen
Pro di
be halten
my self
con cept
ex act
M ut
ein gesetzt
c le
Vor bereit
Auf nahme
comm ent
vo c
r id
ear l
support ing
Prior ität
c ers
über ein
al one
Ge b
Al le
inc or
Sum mit
Struktur fonds
t ies
gan ze
richt ungen
par ts
u elle
ur spr
Stim me
rap id
z ö
über nehmen
pro b
d istrib
anim al
je weil
En vironment
künft ig
substant ial
ic tion
proper ly
ive au
d iv
as pect
ver gen
an cen
da gegen
end um
Milliar den
ste uer
Europä er
establish ing
gegenwärt igen
Verteid igung
in a
se chs
Verpflicht ung
Ver hält
au to
use ful
blo ck
Ir land
A uss
ex tens
Wo hl
any thing
spol it
prü ft
sch o
oper ations
ent gegen
os s
schwier ig
zeich nen
is men
trä gt
ver fügen
ausge wogen
stän dige
Au to
reg ret
Or t
yes terday
glau ben
Gesetzgeb ung
ug os
ear ly
ul ierung
hä ufig
Diskrimin ierung
ger ne
sp äter
Ver s
ste ts
B ur
c aus
jo in
in k
ar ischen
Min utes
R ules
Ein richtung
durch aus
or ient
CO 2
op position
geste ll
show s
Har mon
kt ors
entwic kelt
frü her
Minder heiten
form er
Janu ar
sich ten
gel öst
Kol lege
S M
am ber
ifiz ierung
Sch ritte
Den noch
re mo
auf merksam
amb itious
2 6
bre ak
Fle x
Bere it
high ly
sch em
produ ced
D an
Be if
h op
wee ks
Al though
hig her
discuss ing
cau sed
auth ority
conclu de
citi zen
prü fung
meth od
konzentr ieren
ach tet
S ome
polic e
develop ments
posit iv
ier ter
krä ft
ge ber
9 6
l en
gen ug
Mittel n
Wor te
g ives
s end
r y
In fra
ze p
Un ser
De legation
Ber uf
S port
richt linie
ll schaften
Beteil igung
wh om
folger ungen
unter nommen
r ise
s ult
b ad
stud y
au en
polit ischer
assoc i
An ges
statt finden
represent s
Un fortunately
ign or
vor hand
impro ved
fe ld
gr ün
sen s
ze ß
Se curity
r ieben
Fortsch ritt
stand s
sc ale
comple x
un anim
des ire
Überwach ung
pe t
Da zu
verantwort lich
ver folgt
un kten
Nahr ungs
emphas ise
produ cers
Innov ation
ris ks
C an
ien ste
fä llt
Arbeits markt
wär en
increasing ly
ateg or
ver urs
For derungen
Al ban
for get
F alle
U K
fü gt
bar keit
Verwalt ungs
ieren de
Eng agement
f es
verbess ert
wor d
sta ff
v a
our nal
Mar ch
arr ange
spir it
langu age
unter bre
0 3
anim als
happen ed
beg innen
e he
gr ünd
ur ge
qu e
S ince
p ft
crit ical
B udget
gel ungen
achie ving
Amer ican
strengthen ing
Tur k
obvious ly
wün sche
t ief
A T
ch ild
Überein kommen
erfolg reich
comprehen sive
Ste u
spe ed
All i
be auf
ein iger
curr ency
candid ate
th ought
mor al
Anges ichts
I S
Me chan
Wieder auf
redu cing
Leit linien
vor her
u gen
h y
Ital y
ent sprechend
de legation
kon stru
m ä
Span ish
l ater
advan tage
infra structure
a den
sch n
st ag
ve h
end gült
außer halb
lead ing
E ind
grund lage
de pend
los s
Ver halten
aim s
im ately
statement s
Einw anderung
m ag
ack now
tr ust
Ne ver
um welt
at ur
comp ens
gan zen
cond ition
offens ichtlich
Beif all
erforder lichen
Mär z
Empfehl ungen
fin de
mann er
cil iation
pl ant
struct ures
T our
d isch
commer cial
par lament
introdu ce
en ze
conc entr
erfü llt
l ass
sen sus
Un abhäng
zahl en
convinc ed
law s
facil it
passen ger
ive ly
mäß ig
F akt
thin king
nie dr
m ist
id es
gleich e
Ital ien
Th ird
ern st
tr an
ele ment
J ap
N L
For eign
introdu ced
mone tary
fr aud
say s
More over
igr ants
Program ms
per fe
9 0
b ahn
dam age
con ference
Be wertung
Sch wer
V is
w ind
tro llen
Le ider
out come
ange b
w ants
künft ige
Maß e
P et
earl ier
pre vention
posit ions
ident s
Infra struktur
ä hn
respon sibilities
To des
D imension
som etimes
n es
Gleich zeitig
ele ments
er griffen
nen nen
C om
ange ht
org nis
first ly
Agrar politik
stimm t
k oh
mult ilateral
andid aten
vor aus
u ations
disch ar
betroffen en
verme iden
dire kt
im ent
recogn ise
de ad
pos es
recogn ition
verschieden e
re te
analys is
ken nt
rapporteur s
Stra ßen
W est
m m
Mein ungs
ent wurf
constru ctive
ap prec
p al
wor tet
contr ary
Gar ant
Landwir te
Global isierung
zahl reiche
au ms
document s
entire ly
ad ded
t im
Grund e
S pain
redu ced
er sch
fa cing
un mittel
ty p
ho hen
influ ence
it ial
it ors
Kon vent
ander em
s agt
territor ial
end or
mög lichen
comb ating
national er
Tro tz
grenzüber schreiten
der al
ie ll
2 8
to t
inter vention
gent eil
Ver bindung
re den
pl ause
Wor ten
Never theless
Spra che
p ension
dis h
üro krat
I P
Minister s
d imension
wes entlichen
grö ßer
be fassen
conc rete
con sensus
nä her
so und
const ant
c ustom
größ ten
Ch ancen
liberal isation
be coming
I st
j ur
establish ment
K lar
möglich keit
Af ter
Vor sitzen
at lant
ell os
ver k
der er
as king
schein lich
sec ure
Priv at
fre ut
möglich erweise
entsprechen de
gewähr leistet
i vers
of fe
exper ien
möglich st
ra f
Re a
Grund sätze
ü ben
flex ibility
Flex ib
ein setzen
el ig
Ar gument
trans fer
isten ce
to ol
ent scheid
mit glie
bu ild
system e
last ung
gel n
licher weise
understand ing
ik ation
T un
open ing
opt im
Jap an
k olog
it ten
zu folge
sour ces
grow ing
trans ition
regional en
ig ungen
est ic
B os
re ch
polit isch
k am
bet ont
K ing
condem n
danger ous
Um stän
Hö he
const it
network s
critic ism
Zeit raum
Tät igkeit
re chten
differen ces
Le ist
recommend ations
ist ics
räs ent
defin ition
ac ter
inform ed
nachhalt ige
S ign
ful fil
happ y
z iert
prob ably
2 9
anno un
fest gestellt
G est
er ve
M c
go t
Amer ica
c up
ä gt
Palestin ian
diskut iert
R umän
pract ices
derzeit igen
meth ods
per man
clos er
P o
ent spricht
kon om
mar ks
außer ord
incor por
er v
Bed ür
O p
in itial
Änderungsan trägen
er leich
stand ard
ra ise
Gebie te
Inde ed
Gr uppe
d ung
z t
San ktionen
St u
it el
eigen e
Griechen land
O st
Ru le
ges tern
cover ed
forder e
Qu est
str ict
ma ßen
Proble men
Ne w
man u
per spective
N utzen
we ap
el der
j ene
ge iz
refuge es
mor ning
strong ly
acht ung
te i
sh ar
Ab kommens
gr enzen
ge zogen
B SE
ap plies
Ne u
Klim a
E D
Pro ced
Fe hler
Kr itik
länd lichen
unter st
val u
P ak
Tr ans
san ctions
gr uppen
An aly
Dritt ländern
N ur
h aus
ab we
exact ly
direct ives
absol ut
Harmon isierung
Z ur
19 8
bil den
high light
bo ard
urop a
Be denken
schr än
to m
Ste llen
W unsch
Ge genteil
sicher stellen
Best and
Erfahr ungen
we ak
yo to
5 00
Kon tin
W icht
dr am
ele cted
organisation en
K yoto
lau ben
stand ing
G lück
beglück wünschen
erst ör
Maß nahme
st off
% .
is p
woll te
S onder
Ratspräsident schaft
ere cht
MEP s
vorhand en
F rem
se a
C he
ch ance
la id
Ge währ
Viel falt
at ch
r en
noch mals
ide as
d auer
s al
integr ated
manu fact
Ab stimm
K le
re ject
war ten
organ ised
ab gele
institution ellen
A F
em pf
gr uppe
pe cted
sub mitted
R and
Ver ständ
vent ions
Tra de
d ynam
gratul ieren
be k
Stra f
erhö hen
O sten
begr enz
Vor sitz
re ply
sensit ive
z er
Tag ung
port s
govern ance
Kon zept
kle ine
to ler
sinn voll
Lis te
administr ation
Proced ure
Bo tschaft
Wh y
scho ol
de lay
Be fug
Wi llen
mehr ere
fail ure
de alt
Empfehl ung
I N
gen der
ver ring
scha f
Ne tz
a ke
techn ischen
gew iss
Produ ktion
ver teid
prof ess
ein verstanden
Rom ania
199 5
nie mand
k ap
Ital ian
S im
führ ungen
il st
enorm ous
le iden
agen cies
it ime
vers orgung
def ic
Regierungs konferenz
pr inzip
M ode
char acter
Er hö
pe ten
komm un
gew isse
Christ ian
b ra
K MU
erklär en
b ureau
fäh ig
Über prüfung
Haus es
P aper
ver wendet
P ap
w ent
Grün de
parliament s
ordn ungs
re b
as es
oc cup
j em
t ür
ver bre
aussch uß
Char ter
konkre ten
La dies
A ktionen
C ypr
Kohäs ion
a head
add ressed
beteil igt
O c
B lick
dischar ge
ne ar
Heraus forderung
bei de
cla im
w onder
prov al
recht lichen
improve ment
C or
put ting
lea der
ge be
pen al
ie ht
ap point
Bedür f
Europ ol
tar gets
med ic
man aged
W al
te x
los en
Z iff
B y
O k
h ouse
Plen um
ver bind
appe al
immedi ately
intent ion
He alth
iv al
hervor heben
ö kolog
sam m
wahr scheinlich
jüng sten
hö her
Se e
S en
gr ant
ein geführt
ge halten
oblig ations
voll ständig
des cri
ö konom
betra chtet
ab ol
Sub sid
Ver änderungen
p räsent
it able
mand ate
we ttbewerb
Me er
anderer seits
S ach
E igen
We ge
c ord
and en
ver ehrte
Afr ika
sim ple
Fun ktion
ag er
ex cess
aus drücklich
st offe
sign ed
conta ins
ugos la
" .
mög liche
är m
safegu ard
un able
gen utzt
ital ien
person s
son st
os en
Er wä
größ te
O L
N ah
l am
M iddle
aus reichen
Pr ime
regel n
Aus bildung
I dee
ch sel
Pak istan
Vorschl ägen
lear n
King dom
co her
Ab sicht
20 11
A ustr
respe kt
o den
Min dest
consult ation
Bos n
S inn
lon a
resol utions
mut ual
Bar ce
posit iven
main ly
ff end
ck er
brit ischen
Erhö hung
Barce lona
comp ly
cho ice
Pfl icht
el imin
ab sicht
Bas is
global en
interpre t
Fest legung
d re
heb ung
mere ly
Gen er
ada pt
G ü
fact or
Turk ish
War um
ver an
Agen cy
ge gangen
fre u
Subsid iar
In halt
strateg ie
G o
mechanism s
im at
M o
g st
er ör
for th
Je tzt
reje cted
or gt
führ ten
fä lt
lo wer
Au d
Strateg y
A kte
en jo
deb ates
persön lich
c ast
zu dem
kl ang
Vorschlag s
Entwickl ungen
traffic king
E ven
An forderungen
Russ ian
3 1
ü hren
se tt
est im
er folgen
disast er
Mittelme er
be zug
hau p
Span ien
Ch amber
a str
spra ch
tra vel
Klimaw andel
Einfl uss
Amend ments
zusätz liche
Red ner
Zwe ck
Ber ücksicht
to ld
Stand ards
Fern er
se he
W ä
lo st
De fin
gesch ieht
thous ands
be haup
fr u
A R
P ub
SM Es
def end
lea ders
Drit tens
he art
un sten
gen et
m är
i th
hervor ragen
subsid iar
ver tre
eas y
Oc tober
continu ing
so ver
hän gt
pri or
A 4
Al tern
technolog ies
har m
bezie hung
ffiz ienz
Fä lle
sover eign
if ying
seit ens
io de
Pol itiken
Ris iko
Ok tober
fü hl
System s
exerc ise
K rä
W ill
An teil
work ed
deli ver
d ro
Verbre chen
Pol ize
E isen
w it
resol ve
bed au
flex ible
m ill
wichtig es
g ree
be in
zeu ge
fig ures
M and
ras ch
B ro
Re alität
An liegen
vo tes
Ap plause
ed on
aus reichend
str ö
Diskuss ionen
Hoff nung
beauf trag
ver trag
im possible
St ud
K ür
M one
abgele hnt
Ver such
ul s
polit ic
get reten
neu es
An zahl
ev idence
M oment
us es
an ted
t äu
Vor teile
lin ked
inclu des
Kon ta
bess eren
Ver träge
k aum
op les
Fin n
gre en
in come
Um fang
inde pendence
pay ments
gew alt
guarante es
voll kommen
zu legen
ob st
ander es
speak ers
Berücksicht igung
ab geschlossen
change d
at tack
p ill
ur ance
am m
ließ en
con ciliation
al ter
Ein ige
M any
ken nen
renew able
Unabhäng igkeit
fra g
zweif ellos
subsidiar ity
un zu
grund sätz
be hörden
bring ing
ur y
ko ordin
ele ction
möglichkeit en
ive d
mitt ag
no on
Eind ruck
Char ta
Frem den
Über zeugung
Nor th
pl en
p unkte
re v
An spruch
nie der
sof ort
cl ass
de p
ol ution
Wissen schaft
zö ger
de gree
ct ural
sel ben
leg ungen
Bes onder
as sure
vor bereit
Aus führungen
repe at
itte es
so le
wish es
D on
sol cher
fre ie
ate ful
Kon troll
promo tion
leist ung
att itude
H och
sour ce
benöt igen
l ate
qu ant
Pro z
th re
tot ally
au st
A K
p assung
employ ed
as ks
Ges amt
ne ben
Hinter grund
schä d
war m
E ing
H ause
um t
fre und
fahr t
ehr geiz
Ein klang
leist ungen
ge äuß
sit uations
Kr isen
Is lam
Gleich gewicht
pe oples
recommend ation
sign al
t reaty
läu ft
Fä h
Ver fahrens
T agen
sur pr
allgem eine
Arbeitsplä tzen
letz ungen
unterschied lichen
sch ung
über w
Rechnung shof
b ly
Kin dern
verab schie
econom ies
3 5
ur ally
reason able
b io
verabschie det
op pel
Auf bau
fin ance
Gr uppen
Au ft
vor legen
ab or
den noch
consist ent
Jahr hunder
member ship
In st
Ac cord
M io
ent schlossen
express ion
territ ory
pub l
schwier igen
act s
aff airs
be handeln
ver trau
control s
exten d
be kämpfen
Bemer kungen
t ungen
gr ateful
ted ly
Pro te
lin ge
h om
tür k
fa iled
b ild
ste t
inst ance
bo ten
support s
wes halb
kr imin
P act
b all
act ual
D ann
e es
Subsidiar ität
ch ischen
op posed
cour age
famil ies
Mon ate
kom pli
r ich
ange hör
bezie ht
ig keits
off ice
schl ag
Ver mittl
Stru ctural
Cypr us
weiter er
Voraus setzungen
ub a
le bt
fa ced
thre aten
u che
ex pected
origin al
im it
Ein beziehung
ple x
K ü
Third ly
im men
m ünd
ver z
ex istence
Te le
terror ist
umfassen de
involve ment
T ab
ungs bereich
Z oll
ge ograph
comp li
Frei heiten
sequ ently
ex plan
Agr icult
Ob wohl
mo der
get ting
drug s
inten d
Mone tary
uni vers
tar get
viel mehr
J ul
Kon sens
re agieren
tour ism
ch air
Fund s
Verf assungs
ium s
invol ving
immedi ate
sp akt
lo wed
Rechts grundlage
ore a
jud icial
de ten
gel assen
weap ons
) :
perfe ct
An passung
Mit arbeit
lä ne
betra chten
bar r
u ct
hin der
ta il
sid es
obst ac
wickl ung
go al
u fen
for est
tal ks
I hren
it är
as ch
Entwicklungs ländern
War en
aufge fordert
Flexib ilität
ist isch
nehm ern
subst ances
aus sprechen
Afr ican
k eines
happen ing
recognis ed
Tre ffen
AK P
apprec i
amer ikanischen
Ver bot
pre fer
er geben
ange hen
In s
high l
se m
cred it
see king
be absicht
equ ip
D ienste
p un
N os
con solid
Kap ital
sch w
Schl üssel
ta bel
oc cur
Quest ion
plen ary
ic ation
Zu dem
tru ly
win den
proport ion
gr anted
spra chen
Z yp
adop ting
zep tabel
ste igen
gen ü
Er d
great est
pill ar
d on
Kon sequ
r uss
der e
ind ire
Verbraucher schutz
r ange
ak zeptabel
tem por
besonder en
comm ittees
aner kannt
ge fördert
Be weis
Be ob
um zusetzen
ehe mal
Pub lic
s mo
Sit z
protect ing
us w
je tz
itä re
Ziff er
h off
sp ent
under min
techn ische
Umwelt schutz
Mitglie dern
international er
star ting
bestät igt
c a
Mehr wert
Kr imin
Accord ing
interest ing
Bes orgnis
g igkeit
fä llen
ap proval
l ies
urspr üng
like ly
erg än
E ffizienz
reich ung
C 5
f are
on ic
off iz
samm lung
zug unsten
be kräft
m igration
Hin dern
sto ck
keiner lei
global isation
bind ing
Bemer kung
gest alten
resol ved
grundlegen den
Bes te
E ur
Ö l
subsid ies
con firm
Pol and
dise ase
Schluss folgerungen
w est
fol lowed
keep ing
m ach
ser ve
üs sen
Ma astr
suffer ing
Währ end
spl ans
AC P
Swe den
kulture llen
auto mat
us ion
Balk an
aus führ
Jul i
condu ct
Prü fung
z ieren
ak ter
com par
Ereign isse
Ju ly
as h
Ber at
min orities
wettbewerb s
dr än
communic ations
P SE
of in
Unter schiede
spiel t
competen ce
meet ings
G as
at tra
wes entliche
poll ution
mit einander
Ho hen
Problem s
% ,
f än
Rumän ien
Schl uß
Hand l
Schwe den
Vorbereit ung
Ur s
eval uation
um ping
sp ace
he av
In sel
R edu
stell ungen
näch ste
9 9
Mär kte
Ber lin
Kolleg in
st ieg
gele itet
flo or
be langt
ex plain
sha red
care fully
un eingeschrän
leben s
4 5
spr ü
verstär kt
ar ms
contin ent
A ut
B 5
fact ory
regional e
Handel n
wach stum
ke pt
außerord entlich
a ft
design ed
Ged anken
an nehmen
Pres se
erforder t
b or
dies el
kt iken
ire d
be kämpfung
Vor aussch
Da für
Haushalt splan
e chte
man age
Swe dish
Verständ nis
zu lassen
Ver ring
Ver gleich
bed auer
pat ient
geeig ne
L am
dar aus
Rea ktion
voll en
Entwicklungs länder
sämt liche
ig ent
zu ständigen
Rechts staat
tack le
propos ing
Pol en
Beschl üsse
ens ions
äuß ern
ger ä
zahl reichen
nü tz
Nahrungs mittel
i or
dec l
Technolog ien
an belangt
größ eren
o ben
contin ues
G az
Energ y
st ö
mob ility
there by
deta iled
Des wegen
N ein
V iele
ser ies
krä fte
Er n
Ha ft
w on
akzept iert
S k
He imat
G al
er nen
min ority
Nor men
erwä hn
Analy se
richt igen
satis f
compli ance
ver lei
einer seits
gel angen
grenz ung
mult i
T i
trans atlant
Kon sult
gestell ten
con fir
Be griff
perman ent
pres ence
commun ities
tax ation
S P
Gr ü
Gese tze
Ex per
be trächt
Or d
East ern
jeweil igen
Verring erung
at ischen
ent re
rec ord
dem okraten
ho od
au ßen
zw ungen
nachhalt igen
ein ig
l ag
Dienstleist ungs
Balk ans
ground s
nat urally
i ö
S V
Er war
harmon isation
minister s
Außen politik
r ück
aus gesprochen
Zahl en
Zw ischen
and al
ge arbeitet
kon kret
Eisen bahn
P hase
er weiter
wa it
iz ü
e ast
ing t
wor r
Stat us
S uch
uropä ischen
bar er
mer ken
zie hung
m id
t ä
sch wed
bei zu
Voraus setzung
pro sper
certain ty
ö hn
ad voc
hän gen
Se a
Verhandl ungs
Fund amental
innov ative
einheit lichen
unabhäng ig
Erwä g
ou l
he i
emphas is
endor se
form al
plann ing
zu letzt
Ge w
gegen seit
under taking
ga in
tr ieben
vo ice
Kom peten
akt uellen
Wh ile
de te
ktr on
Aud itors
sch we
ff ung
Ent lastung
quo te
ac co
angemessen e
M ac
k atastrop
me ant
Un gleich
consum ption
B udgets
ar a
just ified
komm e
ordin ary
E very
Vereinbar ungen
re iter
Sch iff
ue ll
c ul
kt iver
Kon trollen
betreffen den
schä tzung
gr ie
any one
unterschied liche
iz in
t ag
tr ib
" ,
sp ät
wor fen
Gleich stellung
zeu ger
profess ional
Mitglie ds
V an
Men sch
veh icles
th or
auf zunehmen
Sch i
u als
to b
fu hr
ein f
Z ug
Überein stimmung
caus es
h ilfe
ü b
Strateg ien
Gree k
K andidaten
ent it
ü tzt
All gem
Defin ition
lim its
best immt
Entscheid ungs
fern er
repe ated
S w
ge ändert
fe ed
begrü ßt
improve ments
cred ibility
izü gigkeit
p an
z ierung
be lling
P unkten
Mode ll
entscheiden d
er ous
deb t
aus schließlich
wa hren
lin k
Ver besser
entr y
among st
at ik
Betr ug
op tion
M us
h und
brit ann
Wes tern
relig ious
E R
other wise
gemeinschaft lichen
sof ern
er fahren
mö gen
vis a
nach dem
C ze
in al
L auf
Leg al
Groß britann
) )
Inter nationalen
B u
fal sch
wir kt
und es
affe ct
is ol
with draw
ob serv
Fr ü
V ize
sta ke
Kommission spräsident
enjo y
appear s
employ ees
er mut
handl ungen
n ations
se cre
des tro
sp unkt
at ta
oll ar
Vor haben
Über gangs
defin ed
vorzu legen
un fair
h ours
pro test
sp ie
Her kunft
bu ds
particip ate
Volks gesundheit
Ar ten
Leg isl
an schließen
reg ister
ug g
be ob
Fre izügigkeit
7 5
ver ste
z ah
dar unter
betre ffend
Reg ime
R ese
im al
Emiss ionen
Stre it
ü st
Politik er
na he
E le
leg ally
ate ll
max imum
iv ity
schul d
gl ad
M ann
folgen den
Tab ak
br uch
che ck
wirk lichen
arrange ments
Voraussch au
B alt
t ut
all gemein
gesch rieben
ber uf
oper ating
Betr ieb
imm igrants
Stra ß
S om
wichtig ste
com bin
ungs ver
französ ischen
le un
star ke
dec is
Pat ient
V oll
ziel t
wes end
al tet
Sch ä
work s
Maastr icht
represent ative
pop ul
constitution al
H il
ver m
scha ffung
lau tet
Produ kt
declar ation
Rese arch
M eines
z ne
ü ckt
stra fe
würd igkeit
oblig ation
Res olution
verl oren
ga ve
a ver
Commission ers
ver än
On ly
fa ßt
langu ages
eingere icht
I C
Ö sterreich
ag iert
Aktion splan
K l
ate ver
unt ary
f iz
ne ither
end s
Ges am
Binnenmarkt es
ex em
An griff
bin den
compens ation
O S
play ed
Verhält nis
ap par
ide d
Per spe
atta cks
grundlegen de
star ted
tät ig
n one
vol ution
ar i
gener ally
W ür
fact ors
Element e
sym bol
Agricult ure
I de
nöt ig
ro h
her zlich
fight ing
Th ose
Vize präsident
iss u
pro to
sch ritt
ter e
pal ästinens
go als
freedom s
Sch aden
encour aging
Be am
sequ ent
eas ier
des tens
bes eit
Untersuch ung
J o
Viel leicht
tob acco
Ris iken
f ass
dom estic
la belling
ge hoben
vorgeschlagen e
regul atory
Y et
verur teilt
H ä
mo ving
wirtschaft licher
Bulgar ia
im posed
le chter
Sign al
contrib utions
pay ment
respe cted
übrigen s
staat liche
sto od
wh ilst
Nah en
Cze ch
S erv
vor genommen
nun mehr
R elig
stell er
fl ation
wiederhol en
imit tel
notwend ige
Sektor en
gra du
D P
sen sible
Al so
zusammen arbeiten
G laub
i j
ab stimmen
vor rang
determin ation
Zentral bank
Mob ilität
t land
wi d
polit ics
politic ians
wel fare
loy ment
in o
speak er
zne imittel
Eben so
folgen de
en ge
is ted
Zuständ igkeit
alle l
F o
H igh
sa ving
ein bezogen
s org
funktion iert
F rom
ut in
UN O
att ach
facilit ate
sche fs
colle ctive
cap able
einge halten
Social ist
ur en
sp art
an wesend
Verein fach
B ese
Ziel en
separ ate
vor anzu
reco very
D ut
fre qu
d ign
mar itime
b ir
inc ent
wa iting
f ur
del ighted
spar tei
ein d
ver langen
im per
a fr
ör per
sp ending
Famil ie
spre che
schn itt
at isch
inter ested
er maßen
geb aut
ethn ic
Umstän den
at ure
be ha
sub mit
O m
con ce
dig ital
lok alen
abl es
cent ury
ä re
vers ion
at al
Ver sch
mo de
real istic
sein es
V ice
Pro f
d ent
v ak
Befug nisse
ad just
v ig
nach drücklich
comp at
zu kommen
spezie ll
continu ed
M ü
for d
Con sum
function ing
B anken
ent stehen
b abwe
unterst reichen
E st
sub je
h ib
Verbesser ungen
p hase
so zi
Produ ktions
Erfahr ung
Ar ab
isten z
B l
I D
M ot
ber aten
Ze ichen
cr imes
rel ative
ri an
negoti ating
restrict ions
über nommen
min destens
equ ally
Bestand teil
inc lusion
o ts
st or
propos es
k und
even ing
teil weise
en ger
B 4
v ul
Sor gen
Aus nahme
sie he
sib ly
y e
schl uß
Wirk lichkeit
Über legungen
E A
be long
exper ts
bemü ht
extre m
reach ing
tradition al
Glaub würdigkeit
conflic ts
Ab schaffung
ins ist
require ment
opin ions
lo b
sor ge
tr ifft
waren ess
G anz
m as
genann t
I V
ana da
be wält
err ing
refer endum
tru th
Zivil gesellschaft
stre ben
ger icht
Ant worten
sup plement
umfassen den
te llig
ide t
lau t
sh ilfe
help ing
tempor ary
Berichterstatter s
C roat
genann te
verl ieren
buds man
vul ner
B au
er folgt
ther lands
Fin an
erheb lich
forth coming
hervor gehoben
Str as
kür zlich
im pose
illegal en
Ne therlands
C ha
g one
begr ün
verstär ken
tra ding
appropri ations
Nieder land
Stras bourg
er öff
ver w
con trad
rä ge
er neuer
B lo
durch zuführen
erheb liche
Pet itions
S up
allow ing
guarante ed
groß es
Prinzip ien
F ischer
t asks
ver we
nat ür
Bild ungs
prote cted
recht liche
9 5
g ä
refle ct
mehr eren
writ ten
ausgezeichne ten
ang ing
For men
CO M
St ability
sam keit
änder ung
Bed ro
fin e
zie ht
bemü hen
T iere
a wareness
p u
person ally
gelten den
dise ases
Gesetz es
I A
be wegen
gen ere
schl ägt
ange l
invest ments
erg ie
C openhagen
num erous
ken n
Bürger beauftrag
is ierungs
olog y
Gemein same
Bed ar
se le
exam ine
effect iveness
über tragen
re ib
A ble
Erzeug nisse
entscheiden der
pur poses
Mil itär
0 4
Krank heiten
T rag
ach teil
legitim ate
gegeben en
let ter
w om
exc lu
schaf ft
m un
sol ve
Balt ic
L ond
G M
re tt
gest at
ir y
Arbeitsp l
vol untary
ru fen
Portug u
O ther
er scheint
Organ e
exist s
Austr ia
Ti bet
Ord nung
ver fügt
klar en
A re
spr inzip
M ir
Portugu ese
ter ung
custom s
be ziehungen
k auf
inform iert
spezif ischen
Katastrop he
ver läss
Gesprä che
un ru
wie gen
Person al
Auft rag
Großbritann ien
S ud
and a
pro ble
vent ionen
Lond on
g y
– ,
im ag
gese llschaften
N u
ansp r
wel chen
Fr amework
qual ifiz
kün d
Luxem bourg
Be tra
A ction
einz igen
respe ctive
ver sichern
associ ated
verantwort ungs
Krimin alität
a be
ch mal
disast ers
C AP
k er
occas ion
E igent
electr ic
ver langt
Mar ket
weiter es
com plic
abl ing
Li ber
Zyp ern
über zeugen
occas ions
We iß
bew uß
an statt
intens ive
M iß
olog ie
se ien
ab gestimmt
199 4
den kt
ator en
ze itige
Gen ehm
distrib ution
oh es
B i
pla ces
al te
technolog ical
official s
pas sed
wor se
Vor be
wä ch
ge prüft
peace ful
know s
I dent
qu ot
demonstr ated
l auf
profit ieren
su che
aus gesetzt
mill ions
ol z
co ast
f assung
ur ban
ernsth aft
Ar zneimittel
demonstr ate
Arbeitspl atz
vis it
ge ist
Katastrop hen
bestimm ter
kon trolle
le y
ver dient
viel er
beg onnen
bank s
Technolog ie
passenger s
zah lt
be findet
Ein richtungen
Parlament e
re marks
hol ding
oper ators
Ü brigen
dom in
mean ing
Finan cial
ph ys
sex ual
er läu
Ab end
p hen
dien ste
fehl en
tran sa
vorliegen de
A no
He ad
at ically
jetz igen
T reat
ö der
ure ly
lin ed
ik ations
Li by
restr uct
d ritten
ver füg
bo und
Zeit en
Patient en
h le
Ano ther
frei will
alloc ated
thor ough
tr ied
program ms
ehr ten
contain ed
Ge fahren
wel cher
wen igen
s inc
in ary
gen ehm
Flücht l
Erwar tungen
Män nern
ou b
kor re
S oll
Aust ausch
human itäre
sk i
Polize i
str ik
Sta d
institution elle
tz ten
Umwelt fragen
Flücht linge
appro ve
W omen
lie ben
fe hlt
Straß burg
Verl ust
entit led
Om budsman
re li
k ü
des tru
prakt isch
Wel che
ele ktron
bas e
Wh ite
beteil igen
Vereinfach ung
ger ufen
Kle in
geäuß ert
entscheiden de
il er
ult imately
individ uals
Last ly
g ap
h re
um fang
exam ples
hon est
verlei hen
cor ruption
in tellig
iss ens
Regierung schefs
letzten dlich
spolit ischen
f low
defin ite
conclu ded
Indi a
Energ ien
Am ts
prim arily
re vision
Chin ese
än den
k il
z erstör
effiz ienz
Kohäsion spolitik
20 12
y a
ste u
suc ceed
treat ed
amoun ts
ch anging
pro ve
hau pts
Able hnung
H am
ly ing
id ing
sp anischen
Män ner
A sh
g ünst
ang s
Rechtsstaat lichkeit
Mit entscheid
off ers
är kt
ge wissen
ra dio
I F
T sch
op pos
me e
real ise
c oll
Pra ktiken
System e
pat ent
an ische
ziel le
isl ang
restr ic
angeb racht
Treat ies
B en
K re
invol ves
plann ed
c ou
il le
schle cht
ordn ungen
M er
it zen
A z
Wirtschafts wachstum
Pa ket
import s
fo ot
gew innen
Markt es
Verf asser
hoff entlich
qu ellen
z a
rat ifiz
typ es
A tom
best and
Wal d
Konsequ enzen
hand s
ut ter
farm ing
G AP
schem e
over come
O ffen
Sicherheit spolitik
Sü d
mensch lichen
w ann
auf fordern
Wider spruch
vergen ce
ar ische
viol ations
Pal ästinens
differen ce
Febru ary
fass end
r ational
subst ance
Todes strafe
aver age
dign ity
An fragen
dank bar
vorgesehen en
Op position
O ber
in fr
wirk ung
Beruf s
sorg fält
wo durch
Des pite
fest zulegen
M ich
ct ual
inform ieren
M ol
ish ing
stand e
te lt
qual ität
Spra chen
f elt
g ust
as p
Mittel punkt
Pl atz
exten ded
for me
Berich ten
ha fte
se h
no ted
Febru ar
0 2
Führ ung
p ie
F isher
kom plex
prozess es
ific ations
NG Os
u cht
represent ed
m ur
emer gency
Le ute
f is
G iven
verteid igen
p ush
al er
gut es
st able
aus ende
mar g
C S
om b
Schwer punkt
Finanz ierungs
ge zwungen
führ te
finanz iert
Slo vak
eval u
ter en
tax es
E F
erwar tet
co operate
sozial er
de leg
N iveau
s es
As sem
exc lus
Dut ch
Sud an
V ie
sch reiben
vor ange
Ih rem
mass ive
zä hlen
re chen
lä ßt
zweit ens
lo c
wh atever
never theless
garant ieren
ktiv ität
3 7
Zusammen halt
tats äch
oub tedly
un less
ship s
jem and
De fiz
was ser
produ ctive
sä tzen
firm ly
vulner able
dec kt
Beschl uß
oten zial
Per haps
Wel th
decis ive
ex ter
vir t
Dialog s
geb oten
Bes uch
Gewähr leistung
i as
fu el
heut ige
isch em
den k
wirtschaft lich
Al ger
erwä hnen
Wohl stand
nie mals
D ub
r ies
streng th
genau so
lat ter
beschäft igen
Assem bly
au ton
ab sur
ieren der
requ ested
ur teilung
ben e
some what
ge g
iger ung
regel mäß
s low
ü bt
er neu
über all
St äd
gewä hl
Kommun ikation
Gaz a
einheit liche
An hör
fert igt
e li
Ab fall
We iter
stat istics
mü ß
P ost
Arbeit en
H ere
cour t
t schaften
Ko operation
cl ause
Redu zierung
B an
consider ing
happ ens
wen ige
mon opol
H O
allow s
second ly
wirk same
spo ken
Währungs union
mä cht
im pression
Prozess es
OL AF
te en
zu gleich
penal ty
be hörde
Meer es
obstac les
Invest itions
ag ue
F ach
ro om
Ver le
ant worten
3 00
st ät
industr ies
einzu führen
Bevölk er
bei getragen
sol ches
proper ty
u de
im plic
ple ase
Grü nen
quot as
derart ige
ap pointed
gener ation
mär kte
K red
effe ktiv
zü g
g lück
ra di
Zus atz
Char akter
letzt lich
j ungen
ver folg
cent re
R espe
re tain
fisher men
ip ul
woll ten
str on
Her zen
ler nen
Stim men
unmittel bar
sinc ere
Respe kt
An gaben
Mal ta
prepar ing
Wiederauf bau
Be weg
wor te
en han
des er
gewähr t
Do ha
erleich tern
d aten
appe ll
gewä hlt
oper ational
Mand at
Comm un
beschäft igt
feren ces
S ad
c ro
Isra eli
excess ive
Fisher ies
an en
einge gangen
At lant
acknow ledge
verring ern
ha ften
ab and
sh aus
Struktur en
ver hält
ut ing
Be cause
O hne
prevent ing
Bo den
Bulgar ien
M assen
sha do
haupts ächlich
ob li
ange wand
stim ul
Teil en
J ournal
p aper
se ven
Mitglied schaft
Debat ten
draw ing
a ken
ab use
high est
erhö ht
D ring
m lich
de pendent
vi our
jen en
const itu
f and
ib an
prep are
gestat tet
is ierten
accoun ts
agen cy
länd liche
except ion
n ungen
vor an
ex pla
An y
dam als
introdu cing
determin ed
comp ared
detail s
ver sicher
star ken
sto ß
Dub lin
Y es
gesch ützt
spezif ische
explo itation
ra in
Union s
H U
K orea
ein stimm
ien en
Tra d
G elder
ins urance
gebie t
h iel
Gegen satz
Ge ist
ke hren
dies bezüglich
lin ks
announ ced
ursprüng lichen
for cement
rel ates
sto cks
dut ies
urgent ly
electr onic
f lich
zu vor
ill s
Energie effizienz
T hen
ie gen
und oubtedly
schre ck
herr scht
As sozi
e chten
B on
As ia
Minister präsident
exp ens
ges tr
med izin
kur r
vorschl äge
Croat ia
in spe
ziel en
apply ing
wissenschaft lichen
ll s
wa ffen
wün sch
fis cal
st es
intens iv
Re fer
fa cts
process es
teil nehmen
pa ar
constant ly
isp iele
K roat
h ing
ic ip
Dar um
d lichen
proceed ings
Ver zöger
jähr igen
er inner
bes orgt
ra el
Aus maß
find ing
lat est
er leben
vor schlagen
W all
la ys
dr ingen
unter zeichnet
og raf
all zu
aust ausch
priv aten
exc lusion
prosper ity
er freut
spo ke
M angel
co decision
kon front
appreci ate
confir med
expect ations
is rael
il ing
Volk spartei
stron ger
s ad
vor gelegten
fü llung
Alli ance
Stu die
pursu e
ör t
gu ter
ad vert
besch leun
S yr
Inter governmental
Bereit schaft
univers al
beha viour
f isch
ab stain
Ind ien
adv ant
R ad
b udgets
em bar
Be ispiele
0 5
Re port
kr ank
deut schen
M igr
min utes
phen omen
we alth
au l
iz on
descri bed
B us
ir ischen
sh o
har ma
Bes itz
einzu setzen
ent fern
199 0
brit ische
conta ct
O pt
Ur teil
P atten
z y
re act
ein geb
da hin
Arbeit nehmern
argument s
extens ion
ger ichte
qual it
I M
N S
weg s
advant ages
fra gt
tax pay
f if
Sch atten
bereich e
humanit ären
tim et
in i
Pre ise
B undes
se itige
Se cre
An sichten
europä isches
qual ified
inten ds
Pat ent
k a
abhäng ig
coordin ated
Consum er
B ö
strateg ies
defin e
assoc iation
F ang
Ar men
Un gar
Wir kung
Fre ih
histor ic
Sto ck
con vergence
barr iers
be handlung
com ed
sa w
at ers
le hnen
aus einander
Er zeuger
pro hib
friend ly
stu dies
per mit
h ü
p ic
tra ges
being s
An wend
gew öhn
Bedar f
M os
Ver b
dis pos
global e
Wahr heit
l ös
ich terstat
dis krimin
akt ive
Geb äu
an o
wer ten
field s
contra cts
T age
k n
mittl eren
ar ies
Prote ction
c ity
Mil ch
clar ify
material s
mit telt
gest ärkt
political ly
un ited
ber ichterstat
E ffe
U E
d ritte
tre iben
jähr lich
H al
I B
w ine
rat ification
Pro zeß
bestät igen
wieder um
d umping
dan ach
under stood
s ü
Au gust
edu c
in ational
fe deral
wel comed
über prüfen
publ ished
la p
gri ffe
st offen
ho st
Selbst verständlich
produ ktion
strengthen ed
zurück zu
sp here
pla ying
m utzung
Fre ude
dou ble
mar ked
Stad t
port ug
et c
G erecht
Beteil igten
verhin dert
in en
schließ t
equip ment
follow s
brief ly
st ad
wiederhol t
v ic
Re al
Be für
deb ating
Tre ib
Serb ia
Inst it
o so
me at
po ten
large ly
O M
Mill enn
so eben
Vor teil
M ex
ar beits
sol ange
Ur spr
4 8
V ier
ig u
ur gency
AL DE
er hält
at ische
lar gest
Sto ffe
Steu ern
in telle
restruct uring
Inter nal
Re ise
coher ent
Gü ter
Y ugosla
lichkeit en
nehm bar
Bedürf nisse
strö m
shado w
Ne ben
portug ies
stärk ere
pro zeß
wür dig
reser v
wahl en
be danken
bring s
parlament arischen
G UE
Constitution al
3 6
der zeitige
ra c
man chmal
K op
maintain ing
Di kt
br ut
Z ul
sovereign ty
konfront iert
ver wenden
schwer en
Kor ruption
C E
Gr enze
pro ved
Rat ifizierung
Lat in
k as
anal y
electric ity
R ent
Ä uß
Ver he
N utz
c ities
f roh
ver lassen
Proz ent
ens wert
answer s
Wür de
amend ing
um setzen
destro y
anspr uch
kurz em
Emp loyment
ne x
Grün buch
Reg ul
cy cl
läss lich
zusätz lichen
P rem
to uch
wer fen
italien ischen
Meth ode
C ol
hal tet
prä z
y er
ver handlungen
ab sen
Gerecht igkeit
illegal e
durch führen
Wachstum s
ps y
B ürokrat
b islang
j unge
Sch w
bes itz
wirklich ung
Gegen stand
Vor rang
gleich heit
sto ßen
An derer
zie mlich
strateg ischen
B la
Ges icht
Untersuch ungen
Unternehmen s
gebe ten
perfect ly
ent täu
super vision
sp ür
Agentur en
Sol ana
leader ship
ben achteil
Krä fte
be unru
bein haltet
Anderer seits
under taken
Nachbar schaft
Bereit stellung
u erung
L ob
In stead
ansp rechen
Besch rän
Wä hler
res ist
Sa fe
B il
belie ves
s cr
Un der
dra st
voll er
hil oso
Menschen handel
Ver wirklichung
ikan ische
sch ö
sie ben
min ute
Verhe ugen
D r
sur ve
zeit en
Ins besondere
mult inational
won ach
pres ident
zwe ifel
Meth oden
Vor red
Ein schrän
beschrän ken
k ers
Entwicklung shilfe
A ID
ad o
Fremden verkehr
beru ht
fest gelegten
plan ts
se eing
ag ne
Schul d
bi olog
erinner t
Bese it
H äl
sufficient ly
R enten
te am
ct or
Wirtschaft spolitik
Ash ton
produ cing
unver züglich
c ard
ten e
Ver sicher
significant ly
us ers
befür worten
polit isches
Verhalten s
E W
re isen
bereit en
af ft
Teil nahme
offer ed
funktion ieren
S al
qu ar
absen ce
verste he
T A
adv ance
Sub ject
relig iö
schä tzen
ein gebracht
ident ity
Re present
bed ro
dict ator
Mo dern
Ver sammlung
Aus arbeitung
dr iving
fru it
Häl fte
un möglich
on going
zu ständig
des wegen
reg rett
T er
fle isch
L abour
h ob
tr enn
care ful
verur teilen
Beseit igung
new s
Stabil itäts
il en
In kraft
Unter schied
comp uls
med ical
zw ingen
lear ning
Wirtschafts krise
kulture lle
hor izon
A kt
com plain
pre ise
glau b
amen ded
Kü sten
dispos al
b ann
Sta ates
regel ung
Ungar n
str i
rel ativ
rup t
NG L
sup posed
acqu is
grund e
B io
an träge
Aus gleich
kl au
199 2
spart ner
acc idents
beabsicht igt
Be tre
ernsth af
ar ded
fig ure
Fakt oren
Fisch ler
dür fte
zunehmen d
ende av
Prem ier
Fo od
bewuß t
klau sel
er ing
bre ach
difficult y
betra cht
Hung arian
n iveau
gr enze
par allel
dis p
Mon at
bu ilt
Mechan ismen
Proto col
k ar
Öff nung
An betracht
in folge
se ts
ver letzungen
AID S
Betr ifft
Fin land
active ly
mit teilen
erst ens
signific ance
er lebt
Lebensmittel sicherheit
zusammen zu
führ ungs
Nach halt
verurs acht
3 8
K openhagen
ent weder
wel ches
N iger
en vis
bo ok
Eng l
hinzu fügen
grenzüberschreiten den
al ity
dist in
Steuer zahl
highl ighted
Bedro hung
n ischen
v ene
am ing
wärt ige
h ner
manufact ur
C 4
neut r
Fäh igkeit
ne tz
so dass
vis ory
patient s
einz ig
Hau p
kr ieg
Head s
Con trol
genuine ly
beein trächt
J ed
ch ische
früher en
tex ts
Don ner
abil ities
result ing
Vol kes
sever e
rag mat
ves sels
zu grunde
ges ted
A ktions
Ein stellung
sol d
Con sequently
j ournal
hol ders
W ein
L ie
u ung
Hindern isse
compuls ory
dist ort
F our
a des
in zwischen
al arm
Kommissions mitglie
S co
w aters
er lau
o v
um fassend
Auf sicht
sicher gestellt
valu able
Kontin ent
interpret ation
negoti ation
export s
deli ber
Ide en
ver halten
betr ieben
N RO
ste chn
Vor lage
gegenwärt ige
tz eit
bre ite
Liberal en
ge ehrte
val id
Ex ternal
gerä umt
a part
’ .
il ot
defic it
fän g
Hil fs
invest ieren
Beit räge
offen bar
gew ün
ref erring
cho ose
E IB
Re chten
AL E
W here
Th urs
G DP
no ck
Comm on
consider s
anz unehmen
gesch afft
mot or
mot iv
prim ary
ev ident
bestehen de
Dem okraten
car s
org ungs
offen en
angenommen en
Chancen gleichheit
Ber g
lead s
Mr d
ass um
gere gelt
uni form
zentral e
ger aten
ver weisen
spezie llen
koh ol
Stat ist
an che
Program men
th ly
reg ionen
gefähr det
Qu oten
co de
un be
An geb
amb ition
satis factory
entfern t
ar dis
exper t
sustain ability
Georg ia
Z B
um b
man geln
auf nehmen
the it
tr ial
Ent schlossen
Außen minister
auton om
Donner stag
3 4
B uch
Se ktors
proto col
gy pt
W ohn
kurz frist
Co operation
Bürokrat ie
ig ern
Men ge
B ush
Ein heit
hin dert
gewä hren
türk ischen
tro vers
op s
Thurs day
pre ced
Lauf e
c ofin
Ver trages
as ide
Energ ies
th u
den jenigen
ausgezeichne te
Entschlossen heit
ter ing
infr inge
Safe ty
In ner
cons c
t am
destru ction
s light
ch r
Ge werk
letz ter
conf ident
Sen kung
Frü h
compat ible
be zü
ein zur
bo ost
Vertre tern
schle chter
Be fore
Sou verän
neighbour s
Te ile
Verbrauch ern
Mor oc
Allgem einen
de x
freu en
Ind ones
Kommissions vorschlag
grundsätz lich
Verle tzung
car bon
sug gested
Gre ens
tele vision
c ure
Kon text
Nor thern
Bevölker ungs
V P
de ep
opt ions
run ning
aband on
da ily
weit gehend
ass ume
mil k
militär ischen
absur d
V AT
f ix
be ur
be comes
Um struktur
request s
höch st
f ted
Ger ade
käm pft
Urs achen
Mechan ismus
Schul den
ehemal igen
Gen au
Er fordern
hil fen
proble me
N och
li ber
Aust rian
Schi ffe
gen ie
F ün
K ategor
an gesehen
On ce
fest zustellen
Krank heit
B itte
ins of
some one
mensch liche
ke ting
Er haltung
acc ident
länd ischen
s ah
reg istr
Fischerei politik
hiloso ph
verein f
chair man
au dio
neighbour ing
launch ed
vergen z
reg arded
R uß
maintain ed
n ight
zie le
Protokoll s
constit ute
ar k
compe tent
Zahl ungs
Schul z
prepar ation
Nach druck
merk ungen
Mut ter
über winden
Ge fühl
Be w
bereit gestellt
beein fl
Handl ungs
igh ten
neh me
M ED
ill ing
B ol
Abgeordne ter
friend s
hab it
acknow led
bewält igen
transition al
be zeichnet
str ugg
number s
entwickel ten
pro of
Stock hol
iz za
indic ated
else where
E ZB
ein geleitet
Dritt staaten
re action
medic ines
Ver ab
schwier ige
amp ere
coll abor
Brit ain
spee ches
Mitarbeit er
O ver
c op
ó n
ir re
Re vision
zurück zuführen
Genehm igung
H els
R E
geb ill
Bürgerbeauftrag ten
Ge fäng
weltweit en
niedr ig
ic ks
wirk liche
Cha ir
sur v
Kenn zeichnung
Ex port
Mittelme err
investig ation
B IP
ch ines
K OM
rele ase
re ds
An lass
Aus grenzung
Ein kommen
Hin weis
angemessen en
ident ified
thank ing
hö here
trans l
prof ession
mur der
3 2
gra v
jud ge
benöt igt
b ürokrat
ra chten
part ly
prison ers
Konta kt
oppos ite
us al
nach zu
D is
av iation
beschrän kt
Ver ts
dem ograph
än ger
satisf ied
pos sibly
San ter
Situation en
obli ged
previous ly
Tour ismus
timet able
D ingen
ach te
ident ify
war n
T a
on om
ure d
Kon vergenz
spec ies
concentr ate
Bro k
Bel ast
h ous
Betra cht
D uring
de v
ver ank
koh är
T ampere
z ivil
sp read
ex pl
great ly
versch är
St unden
coun t
stru kt
Zust and
z io
Weit eren
bedauer lich
M ater
da fr
Stud ien
Perspe ktive
N ice
Wes entlichen
kompli z
g h
Tät igkeiten
Nachbar n
genü gend
N izza
st rä
Do es
ev a
open ed
groß em
pass iert
L T
co hol
Ziel setzungen
len ken
T isch
zu künftigen
Reg ulierung
act ing
appoint ment
räs id
Je der
g ment
s ize
F uß
c ore
langfrist ig
Ern ähr
defin it
stad t
re construction
President s
Konfli kte
Bur ma
S ow
e ight
in adequate
Gemein schaften
sel be
Alli anz
Hels ink
ann t
nor men
befür wortet
interess iert
gebie ten
C F
b a
al ien
favour able
Leist ungen
it als
pos sibilities
Problem atik
With out
trag ic
stell te
neg ativen
5 5
flex ib
behaup ten
c racy
ing er
su gar
fä llig
Minister rat
garant iert
Welth andels
en forcement
it age
An stieg
Helsink i
k ul
weit en
necess arily
complic ated
as ed
test s
an erkennen
la bel
horizon tal
P läne
vor sieht
gest atten
comple ted
Pos itionen
deser ves
Fl or
Ro th
Abstimm ungs
for man
auf treten
19 7
voll ständige
h art
com plement
attem pts
ie ty
Th us
ang est
palästinens ischen
Beam ten
more over
zug än
Verl auf
vorbereit et
P ass
te ach
nah m
deb ated
verab schieden
e ten
ver brauch
aff ir
j our
re move
gesch ä
eng th
angewand t
för derung
affe cts
Vorsitzen den
G ang
Er richtung
Er füllung
pro z
wer ke
la den
ergän zen
D A
se kret
Ab häng
näch ster
Freih andels
L o
enn ess
schl imm
Auf hebung
B ra
carr ying
him self
Belg ian
Er reichung
Kon vention
anzu wenden
militär ische
Ein er
S omm
en h
Secre tary
dies bezü
mitt ler
suffer ed
beant worten
m ix
re gen
respon ding
tin i
sen den
Stat ut
implic ations
ag ent
besonder er
p ragmat
die d
extens ive
T im
V e
c raft
ch osen
help ed
Am t
S A
ateg ory
Min uten
jeden falls
hear ing
finanz ieren
top ic
wesentlich er
über aus
af ford
er o
bet reiben
after noon
unterschied lich
Slo wa
f eind
r ichtet
id ung
cent res
Durch setzung
Ha ving
Ko operations
För der
su itable
ex plic
Über gang
as il
pro spe
Gesch lechter
stehen de
fl ag
issu ed
facil ities
Ver ordnungen
rä umen
Aus weit
199 3
strukt ure
condu cted
á n
al cohol
aus gehen
ze go
Kroat ien
advert ising
Z entr
k op
ge führten
if ik
spe zielle
Zeit plan
be deut
be fasst
3 3
Her zego
Part nern
S he
Text il
sou thern
de cken
Verab schied
p ap
re mark
vor stellen
willing ness
audio vis
e ye
g al
aus gerichtet
Kap az
verbunden en
P otenzial
hä re
Dokument e
Wahr ung
heav y
ver änder
ot t
Herkunft s
k lear
einzel ne
exp and
ent standen
Be hin
able hnen
poor est
Garant ien
An gst
ip el
guarante eing
re ven
Ausweit ung
Verabschied ung
P räsid
w al
see ks
drück en
erwar te
ar med
oss ier
cr atic
Menschenrechts verletzungen
s ser
aus üben
ak ten
G rem
trotz dem
prospe cts
t ic
ro lle
tra ged
rat ified
traged y
je gliche
weit e
cle an
Represent ative
ha f
ien e
wo hner
Klar heit
Exper ten
ten d
health y
socie ties
Kap itel
Ham as
6 5
t ort
Sad dam
s il
z ungen
ge teilt
a der
ce eded
her gestellt
A N
Souverän ität
A ct
de als
sure ly
Gese llschaften
bro chen
definite ly
D ad
Be achtung
land wirtschaftlichen
Regional politik
s yn
ver boten
we ight
intent ions
aus geschlossen
consider ations
be le
where by
dou b
mist ake
rech tzeit
Au ge
schem es
de part
ly m
ut ung
bil det
Belg ium
c rop
ad mit
An merkungen
herr schen
l ength
s lo
al ia
be fug
Ger ichts
Ex istenz
entscheiden den
Social ists
Plen ar
se bene
weis ung
bedeuten de
ökonom ischen
part ial
besch l
R aums
St raft
Verbre itung
) ).
to wn
con serv
Au th
Serb ien
uneingeschrän kt
D än
bel g
einstimm ig
Ge wicht
rei ft
seit en
Verteidigung spolitik
at ures
sp ite
H ome
z edon
er lassen
ra ising
müs ste
For um
gemeinsam es
för der
Ho he
diplom atic
Gal ile
at om
govern ing
Luxem burg
zu gestimmt
Nachhalt igkeit
pa ket
Menschen rechten
success fully
Kern kraft
in ev
langfrist ige
ö sterreich
for um
op enness
nation als
i dem
we chsel
hin weg
sorgfält ig
Aus gang
hier bei
Li thu
Hung ary
bedau ere
ich ter
St rom
cut s
co al
O lym
gel ingt
world wide
keines wegs
b s
ber g
bestimm ungen
address ing
w ing
Aus be
Um gang
reli able
p ensions
icher t
Dad urch
g ol
sta y
sor ry
schwed ischen
Weiß buch
essential ly
p urely
ungs maßnahmen
müs sten
beru hen
ge he
ha z
appro x
S ym
ig end
n ar
foc used
Galile o
T al
üs s
3 9
so weit
zusammen arbeit
zä hlt
Tun is
aus wirken
t or
at isation
. "
T em
er geb
befür worte
i pl
o te
demand ing
unanim ously
G ut
h it
r ul
in er
über lassen
Be gründ
pl us
S h
T ime
t ter
st ein
Finn land
T est
strateg ische
fortun ate
cla ims
erlau bt
f it
am a
wor st
hund reds
M igration
ab schließen
EC B
Trag ö
inter institutional
per cent
fa ction
sole ly
sp häre
Fr ist
wesen heit
relative ly
Zahl ungen
th al
deta ill
R oh
er teilen
se as
ic ro
her zustellen
statt findet
Mon tene
R ass
Unter nehmer
ein amer
able d
CO D
exten ding
harm ful
f ire
in akzeptabel
ch ap
S K
st äd
Er arbeitung
De tail
statt ung
Qual itäts
Dan ish
worr ying
d oppel
em ost
mod ified
Inkraft treten
T sche
be völk
ver tritt
Pol it
increas es
determin e
ref ers
laufen den
G A
N one
east ern
Dem onstr
Überein kommens
threat s
correct ly
Aspe kten
st ressed
eas ily
west lichen
Schä den
on y
be ef
ma p
russ ischen
se ktors
fl icht
Akte ure
op hob
Jo int
ab kommens
us ual
fre cht
ausge geben
disp ute
explic it
at iver
redu zieren
head ing
A SE
l esen
for emost
fe iler
geograph ical
er zeug
ver letzt
con trovers
back ground
tool s
hop es
K ann
om in
kontroll ieren
prof its
besitz t
zu erst
lang sam
look ed
grant ing
K ir
V O
res pects
dar gelegt
phenomen on
fa ith
wa ge
Her stellung
play ers
rapid ly
dep th
remain ing
Bosn ia
d rop
sch auen
aus gaben
ac cur
Bo th
Betr iebe
taxpay ers
pa ying
depend s
per forman
ange künd
unabhäng igen
Trotz dem
e cut
Argument e
ic ken
b ul
Be hörde
Modern isierung
sch au
ac ted
art ige
her itage
Budget ary
Wicht ig
Erwäg ung
t le
le itung
ge ted
vor n
hä fen
T ai
en abling
unter suchen
C uba
F I
ange wendet
dec ades
öff ent
Ausbe utung
Arbeit geber
prom ised
statt gefunden
Daten schutz
respekt ieren
öffent licht
w are
schaft s
Nach frage
akt uelle
adv ice
experien ced
Altern ative
p ict
ver öffentlicht
sk ills
sp end
inter nen
Fakt or
dr ückt
bureau cracy
C iti
ver walt
so bald
intelle ctual
Abhäng igkeit
l as
m ung
Form ulierung
beit rä
consider ably
wissenschaft liche
D auer
or k
jen er
B is
re ve
schließ e
environment ally
alt ies
Partner ship
Fr on
Le ft
frü h
Funktion ieren
Refer endum
Ter min
ch st
ge plan
Kur z
Wicht igkeit
w th
sich ere
Gro wth
feel ing
zi pl
Vorred ner
F ar
au lt
achieve ment
schnell er
stabil ität
rig or
geeig net
decl ared
Montene gro
er ungen
En d
regul ated
Ruß land
i bel
ab end
Be trag
Vor stellung
hin gegen
weil en
mob ile
hab t
comm od
iger t
wä hlen
Um feld
lä chen
Ident ität
ein führen
wir tschaften
Zu w
Berat ungen
in flation
bewer ten
emphas ised
char ges
Anhör ung
ex ec
Zu cker
EC D
4 9
us er
bre it
power ful
found ed
Miss ion
pie ce
M ult
d än
Wir d
worth y
genere ll
c ategor
hin dern
gemeinsam er
Georg ien
beseit igen
c to
be merken
um fasst
sp flicht
op pose
saving s
z un
Ergeb nissen
ühr t
re call
ver besser
zwe ck
Ne tze
demokrat isch
Belg ien
C lear
person en
Premier minister
pro spect
where as
er fordern
Jahr zehn
Arbeits zeit
pro ud
vor hin
unter brochen
went y
. -
ä tze
er wiesen
ho le
zeich en
4 6
ver gleich
en nen
lie fer
Terr itor
Komprom iß
eindeut ige
histor ical
G lauben
t ie
t nam
er reich
effe ktiver
Zuständ igkeiten
Auss age
Aut onom
Mac edon
regrett able
As soc
Schutz es
Kin nock
clar ity
manufactur ers
4 3
Ab bau
applic able
Augen blick
ar ise
effe ktive
N et
Energie politik
Verhandl ung
st ab
do or
pl ural
Mon ti
O per
Ver bind
Er st
gel ang
Dokument en
doub ts
R ural
os ystem
chan nel
beunru h
j un
dire kte
Finanz krise
Fol low
restric ted
shaus halt
D R
E gypt
Gr ö
rechtzeit ig
er lauben
hy po
Garant ie
am es
we aken
Europ ar
Ab schluß
kon sequent
pen ded
contrib uted
Somm er
con vention
enn ung
control led
Lat einamer
ä umen
Auth ority
eng age
II I
undertaking s
viol ation
hervorragen de
g raph
ver dienen
enter ed
höch ste
H under
cris es
Schatten berichterstat
per form
Gest atten
erör tert
performan ce
K lau
Parliament ary
big gest
ermut igen
imag ine
4 00
an wenden
Zugang s
Ver folg
Aussch üsse
sou th
Ge wä
geb ung
Pol ish
lob by
p harma
mo ther
legitim acy
unterbre itet
G rad
ü cke
Produ kten
applic ations
amt ierender
Jugend lichen
Er kennt
encour aged
französ ische
Offen heit
überw achen
A k
rat ing
indire ct
Niederland en
ill ustr
wel chem
fest legen
Minder heit
gegenseit igen
ou red
pr ene
cess ion
priv ile
L ohn
klär en
prakt ische
i ary
vor zunehmen
tar iff
formul iert
Steuerzahl er
preced ent
An träge
histor ischen
würd igen
T aten
k olle
Sub st
u ter
vor gehen
com pon
Kam p
Slo ven
Jahrhunder t
V ision
Bosn ien
C NS
bei behalten
et schen
process ing
Ma zedon
geb il
dynam ic
ie ller
art icle
competen ces
p urch
st olz
ver ändert
refle cted
un necessary
re place
verstär kte
Hä fen
Rass ismus
us sen
tr iment
ear th
Energie quellen
enh ance
c atch
enthalten en
H el
tra ck
wo hn
kann ten
Stockhol m
C am
an ger
constit utes
erör tern
G elt
O ste
w s
negoti ated
endgült ige
Tele kommun
P hän
remo ved
Abstimm ungen
L it
is land
wi es
Ver teilung
St imm
besch ließen
Den mark
Ge fangen
fort setzen
cycl ing
Fort setzung
vernünft ig
Vis a
B üro
fir ms
sum mer
Haushalt splans
gerecht fertigt
Beob ach
grie chischen
la ß
Sch war
zie llen
instrument e
Wirk samkeit
ersch einen
school s
i beral
ir able
pen se
Journal isten
de triment
gem ä
Viel zahl
incorpor ated
g igen
u z
rest or
Subsidiarität sprinzip
a ther
klär t
Mor gen
supplement ary
4 2
cour ts
regional er
affe cting
klein er
Beste uerung
es ten
res um
regel mäßig
pun ish
geeigne te
Her steller
Bla ir
8 5
ag gress
suc ceeded
id s
ak te
15 0
wider spie
Kohäs ions
erg ibt
Dän em
D ollar
mehr fach
bed auern
Mob il
höher en
ob o
fu hren
famil iar
f res
as i
mar keting
sag ten
D u
it arian
sen ken
wirtschaft ung
exam ined
Ratsvorsitz es
aus wärtige
qu iry
Grund sätzen
Gipfel treffen
zipl in
Assoc iation
s wi
ver ändern
cept ion
Serv ice
belie f
relig ion
verz err
F ree
air lines
m ing
tar geted
Citi zens
b lack
zu künftige
Auf grund
bas iert
v ast
Au fen
per su
zusätz lich
ic ans
ll a
Tour ism
C ivil
Y ork
ckl ing
best ände
mechan ismus
schul dig
ratifiz iert
Ban anen
ow ski
every body
cou ple
ein geräumt
lie fert
Bar on
fair ly
frei heiten
ab schließend
stat ing
obtain ed
4 4
r und
ent wicklung
contra ct
Hal b
Begründ ung
ver ehrten
tz ungen
wor ding
durch zusetzen
hen ce
represent ation
erken nt
sur round
applic ant
konzentr iert
mus sten
H uss
k al
z it
will kommen
sa ke
zug ute
grenzüberschreiten de
o ber
zu stande
bes itzen
Einw anderer
alloc ation
res sourcen
defin iert
mechan ismen
ak es
oblig ator
O ECD
T od
d or
stu ff
dis abled
reiter ate
A ir
d rit
per io
subje cts
re agiert
em or
Be ziehung
inter vene
h am
be weg
consequ ence
citizen ship
on ial
be geg
wi en
vor be
reser ve
Stabilität spakt
. '
k einem
secre t
S u
Sü den
dienst leistungen
Vers orgung
entre prene
Legisl ativ
F assung
z weiter
gefähr lich
Leg itim
s ought
er setzen
th res
un ab
Mittelmeerr aum
ut most
best immen
Sicher ung
ökolog ischen
explan ation
ein s
ic als
Berichterstat tern
Mad rid
vereinbar t
Li ke
turn ed
Heimat land
Konsult ation
Z im
f em
ein gerichtet
Mar ok
enor me
Män gel
grün den
Tim or
C ulture
G ra
sit e
Kr anken
Industr y
Vorgehen sweise
L og
M au
present ing
beant wortet
n ungs
iss es
dee ply
Gerichtshof s
vorhanden en
disc ipl
sm aller
exclu ded
gel ingen
reserv ations
e k
ü bung
ver wiesen
best re
erneuer baren
bedro ht
Be troffen
Rand lage
scr utin
s ess
Fra gest
bekräft igt
Rück kehr
erwähn ten
a fra
sa ve
trans f
Prä vention
G el
des erve
afra id
sen sib
ah me
last ing
gefähr den
I ts
b and
l s
Über trag
beteil igten
shar ing
estim ated
konstru ktive
bureau cratic
simplif ication
be gan
lie ber
br y
pre m
K uba
er arbeitet
Terror isten
ar men
ber ichten
Proje kten
if ies
br id
elect oral
Klimaw andels
zahl ungen
iver sit
post pon
g ht
Se hr
bereit et
R ind
lea ving
incent ives
b aus
em b
ant icip
sekret är
D el
Rechts rahmen
sch einen
hol en
treat ies
rest ore
unterbre iten
cre ates
begrenz t
w atch
wel comes
bre iten
draft ing
I L
s oft
Her z
joint ly
endgült igen
EG F
persön lichen
drän gen
H ong
pleas ure
negoti ate
Mil ose
Fle isch
com pl
ton nes
gesetz ten
sper iode
ar ten
ar rest
Aus führung
char ge
z icht
ter in
äußerst er
Koh är
münd lichen
n ism
end ung
per iode
cer t
Im p
Gener ation
B ir
ver he
fert igen
G 20
z il
Slovak ia
hol ds
rad ical
kor rig
green house
nism äß
Fest stellung
lös ung
Kohär enz
k riterien
gebie te
r ant
er ten
erheb lichen
is tern
zu zu
vor nehmen
cred ible
Initi ativ
wahr t
conne cted
suggest ions
bilateral en
Zim babwe
o ting
Par is
We ll
Fe hl
ma cro
Fragest unde
vie wed
finan ced
psy ch
T ieren
che cks
ator ium
buil dings
ecut ive
so genannten
um gehen
Aus einander
stat ten
Sp ann
El tern
fle et
geleg te
eit ern
Man agement
vor liegt
important ly
ä ten
le it
out standing
Grund lagen
terr ible
Bestimm ung
sta ats
surpr ised
B ureau
H IV
er teilt
einzel staatlichen
bear ing
zu gelassen
ab gegeben
Vie tnam
Assozi ierungs
Aus nahmen
T AC
des to
Entschließ ungen
zentral en
Gipfel s
declar ations
Moroc co
Mazedon ien
Eben en
repeated ly
C ot
ün glich
Kommiss are
blo od
P A
pre is
demokrat ischer
turn ing
e uropa
ge ein
wa gen
sec ution
der og
Fr at
Um wel
liegen den
respekt iert
ge fasst
ra w
Le ban
express ing
Betrieb s
k est
tz te
sche idet
Amer ika
F utter
S pr
d iss
th ir
un ions
re ly
ber n
sc ience
interess ant
ers ön
Kompeten zen
zugän glich
Slowa kei
ch a
pos ing
T onnen
Tai wan
. ,
l ern
att le
e yes
er hoben
leich ter
Ha iti
natür lichen
Niger ia
inc ident
cons isten
sett lement
p p
sch lage
just ify
fä l
Fre edom
Krieg s
Gest altung
beob achten
road s
Äuß erungen
r um
pla cing
t ige
show ing
T itel
Er wer
Unter zeichnung
vernünft ige
S ar
Amer ikan
Ob je
er arbeiten
nach denken
except ional
combin ed
com ings
Ge brauch
bisher igen
J ugosla
id ay
Euro stat
zü ge
einzu beziehen
F ü
re iz
put s
employ ers
health care
Drit tel
Prü f
Pap ier
e ken
Al kohol
organ iz
erwähn te
Parlament ar
La eken
red und
schwer wiegen
stän de
Führ er
Kompeten z
ir ische
erg ing
länd ische
Atlant ic
bevölk erung
S äu
Sch rift
Finanz mittel
sus pended
complain ts
Follow ing
G C
for cing
all ing
bes e
kind s
kontroll iert
ärm sten
Ä r
os ition
rei ze
Z war
v ail
ver fahrens
über ras
re volution
schl immer
20 15
spol itiken
elimin ate
imper ial
ge prä
de lays
wa ff
unkt ions
hard ly
Kop f
un employed
ver sit
iff eren
kon vention
akt iven
tr end
real istisch
short comings
mode ll
Frat tini
T enden
pre ad
Sozial demokraten
offen e
near ly
flich ten
s wert
leg te
refle cts
Mol do
com pla
fäh igen
Christ demokraten
Macedon ia
Dänem ark
le b
stärk sten
erinn ere
bro ader
E VP
v acc
an c
fr ank
stat ist
hö re
enth us
Invest ment
transa ctions
ket t
mot ions
unabhäng ige
dead line
Che m
beg ünst
Arbeits gruppe
Wer bung
Luft fahrt
ähn liche
effizient er
wit ness
hil fre
Vis um
expens ive
Urspr ungs
gebill igt
dra fted
found ations
stra ight
län gst
quo ta
rev ised
Islam ic
G uine
i able
kon tin
c ategory
st ipul
econom ically
candid ates
for schung
fe wer
dire kten
fund ed
Un ivers
transatlant ic
B re
L ang
Aus bau
s au
Er inner
ac io
Alban ia
beizu tragen
st ance
ge fragt
Emiss ions
Flüchtl ings
Yugosla via
Mater ial
S atz
t ten
ann es
ide al
Luft verkehrs
bio diversity
Insel n
rac ism
Sch reiben
you th
gest altet
li ability
fü hlen
under line
rel ate
Kultur en
ier end
Ver länger
Mär kten
trib ute
sch were
ll es
S ah
W at
betr iebe
fert ig
diesel ben
Huss ein
u chen
Aus nah
Auto mobil
expla ined
Bra zil
je op
u le
Da v
Bar n
cor por
prakt ischen
R ome
ik as
educ ational
z ig
sha pe
E hre
S am
des tin
unter sucht
Grund freiheiten
ou d
j an
Binnenmarkt s
Ha fen
perio ds
W ur
be low
to ug
ver zeichnen
deut liche
air craft
Haushalts jahr
oft mals
E th
ehr lich
amb igu
fres h
F err
Z un
lie fern
inter governmental
prov ider
contrad ict
6 7
ver mitteln
änder ungs
grundlegen der
berecht igt
pict ure
wi des
ex pense
Dar fur
ü ge
ab geben
prepar ations
abol ition
Beweg ung
insof ern
W ün
bu y
bereich en
wides pread
man che
can cer
ktor en
bedeuten den
Fron tex
S c
Un iversit
Engl ish
Bol kest
ein treten
geb ühren
vious ly
meth oden
kap az
ordnungs gemäß
warm ly
been det
Euro zone
tatsäch lichen
eth ical
hoch wert
satis faction
co vers
14 9
effizient e
Ver kauf
mittl ung
f an
r aums
t ang
pro cure
ag no
inn ere
gew onnen
pre vail
resul ted
General dire
kil led
sich eren
De leg
Über arbeitung
Al ters
pen alties
führen de
sport s
hervorragen den
Fün f
ro ots
sch edu
ck ung
schl äge
isl am
pas st
m essen
is ierte
über prüft
Be wer
war ning
kre is
Gu ant
ge trenn
broad cast
condemn ed
Zun ahme
ein halten
free ly
Unions bürger
Bolkest ein
le br
gem essen
mittel s
undermin e
Betrug s
Sup er
E MU
t at
ic ed
lar ger
erforder liche
Be wält
AR E
L icht
P rop
s ach
pres erve
Verein igte
Was hing
kur ze
jur is
Washing ton
ite ten
ec ological
Früh jahr
E ti
Da y
Ausnah mere
F lot
g yp
es te
sit es
min im
Rahmen programm
gegebenen falls
Inner es
ar en
lä ufig
ged acht
Sw obo
ser b
Besonder s
Bewält igung
H y
s in
ier n
gehen den
Ratspräsident en
Einw ander
be währ
ges ichert
Finanz iellen
rail way
Mich el
Kred it
Marok ko
führen den
afr ikanischen
steu ern
Millenn ium
W andel
4 1
ta ckling
unter gr
Beschäft igten
gra d
un fortunate
öffentlich er
t wenty
ar my
gleich ermaßen
Arbeits bedingungen
katastrop hen
wä chen
sit zung
produ kte
Inter vention
Kraft fahr
Palestin ians
tran se
phys ical
P akt
mar ine
loss es
ausreichen de
i ot
ge kenn
out set
less ons
regul ate
erb are
Pfl anzen
be came
sol ch
üst ung
ado x
me ld
Schul en
tz lich
Ein schätzung
deb att
program men
Gleich behandlung
civil ian
spolit ische
Mus lim
ce lebr
Unter drück
versch mutzung
c amp
be zahlen
sp läne
pf l
Kr ie
mus ste
Treib haus
press ive
Pal acio
R est
k örper
in halt
fa cto
chn ungs
unzu reichend
Verfolg ung
9 2
an lagen
air ports
klär ung
sc andal
AC H
erläu tern
EW G
Swobo da
T ausende
man gel
Mar tin
prom ises
Wer ten
wide ly
dafr ika
Clear ly
ss ern
Entwicklungs zusammenarbeit
Dire ctor
gradu ally
enhan ced
RE ACH
se ction
Sch icks
rech nen
Gener ationen
occur red
hei ßen
Phän omen
Verlänger ung
ein her
ne un
um zu
Aus land
EC HO
Erweiter ungs
spl it
collabor ation
R unde
s ight
der jenigen
zu läss
ere i
ac compan
vi able
Schwe iz
caus ing
in sufficient
We chsel
her stellung
inst re
ück en
Kon kurr
coordin ate
urspr ünglich
4 7
sen z
langfrist igen
d ur
an ian
for ese
ko dex
terror ists
indic ators
umwelt freund
ernsthaf te
Barn ier
mar king
Br enn
shar es
n isses
re ported
ent steht
zu sagen
über mitteln
piel t
Zwe cke
ster ben
mäß igen
Beschrän kungen
h um
ne y
Bl ut
Finanz en
persön liche
eingere ichten
Lithu ania
indic ate
Gebäu de
Aus wahl
größ ter
B ot
J un
be denken
ose x
reichen de
proje kte
Sicherheits rat
decl are
none theless
Anwend ungsbereich
cons ul
Gen eva
Landwirtschaft s
Milose vic
B ill
E T
Miss brauch
re min
ir ing
prov es
elder ly
b omb
g ipfel
cor re
rece iving
Tsch etschen
Statist iken
sum s
Jahres bericht
m isch
ag erung
ass es
Br ut
müß te
Re chen
reg ierungs
l ad
un certainty
sh ift
Ver trägen
gener ations
popul ations
Präsid ium
accompan ied
trans it
z enten
agre es
pop ular
Groß teil
gh ter
eng aged
Organ en
ausgewogen en
E EC
r ising
ar g
ent ail
te ien
Wer k
k ro
y le
Fre und
equ ival
suggest ion
death s
Indi k
ar ising
do k
ign ore
bevor stehenden
k amp
Parlament en
So vie
offer ing
bl ind
Vertrau ens
extra ordinary
obser ved
Kon zentr
deut sche
handel s
S IS
un ilateral
Ver änderung
An n
lan gem
unanim ous
münd liche
E M
An reize
ans ion
qual ifications
finan ces
weak ness
C er
bas ically
prom ise
congratul ations
Ob viously
swi ft
C entre
sicht ig
weit aus
uni que
demonstr ates
U C
h our
auf bauen
ri ent
beiträ gt
j unkt
Stand punkte
hor r
kap ital
Kür ze
gewähl ten
procure ment
be weisen
regard less
Flug häfen
Tragö die
exist iert
territor ies
journal ists
Baron ess
k nü
an halten
zug reifen
stud ents
listen ed
Can c
and e
Ein fuhr
organ ise
atten d
tele communications
J oh
a bel
ver wir
fair en
begrün det
C anada
under take
il s
lo cation
dr ivers
colle ction
m iß
zu tage
aus end
recht fertigen
gele iste
compar ison
il es
An hang
einf ache
fol glich
S ind
er setzt
qu is
ausführ lich
not ice
por ters
fes ten
5 6
a pe
ten den
Außen grenzen
deter ior
endeav our
ge achtet
En ts
gegen seitige
Lateinamer ika
Rind fleisch
hilfre ich
in der
om é
ab gesehen
auf er
ges pielt
acht ungs
prevent ed
def iz
La sten
associ ations
wid men
frequ ently
access ible
verm ieden
ipel ine
k ischen
ch ain
ges p
lo ck
öff nen
erziel ten
Informations gesellschaft
Sovie t
staat licher
elektron ischen
dok ument
K ernen
L ernen
S ingle
re ise
In nen
Ent schäd
Amer icans
M erc
ar res
bat tle
Reg ard
Vertre tung
ro ute
her z
fen ce
All es
Em pf
Hö chst
er weisen
appe ared
enttäu scht
re präsent
um so
aufzu bauen
gewiss er
S uche
ir regular
St ill
sup plies
feren zen
necess ity
coher ence
bir th
erneu erbare
I GC
wirk samen
mal e
promo ted
spect ives
behaup tet
re chter
ar gu
ex t
ern ste
konstru ktiven
nütz lich
G VO
Ver letzungen
Be urteilung
kehr t
Arbeits losen
ä he
unter scheiden
nor m
beant ra
w of
parlament arische
stuff s
se min
ol f
ange boten
F il
B auern
be zeichnen
ing u
eröff net
no body
unter liegen
recht lich
present ation
gehen de
uner lässlich
he il
Dec lar
log ical
Haup tz
M ost
d iction
ber t
Zu ge
Plan ung
Nachbarschaft spolitik
g reif
schritt weise
None theless
K auf
ä cht
be dür
for got
Pal ästin
conta cts
Führ ungs
ul d
exter nen
k aufen
x en
fort gesetzt
beschäft igung
ho sp
Dikt atur
Vor wand
schrän ken
Dafür halten
C res
W ille
s ending
’ ,
par ents
Er gän
ho her
sh ame
dis appear
organis ierten
abstain ed
Ver stö
pla ys
post al
Ä gyp
in wie
dire cted
Ar mee
ik ament
bre chen
spr ing
D at
sel t
Le hr
benef icial
Sub ventionen
rein force
Finn ish
stri ke
in forme
mo un
geb lieben
Wachstum spakt
oll en
mo ved
altern atives
Fäh igkeiten
kompli ziert
forest s
angekünd igt
Erinner ung
An reiz
hier für
Altern ativen
sincere ly
n ut
str ing
been den
Volks wirtschaften
beschleun igen
F er
M ug
th alten
be wiesen
to x
erfolg reichen
strugg le
C ast
D ass
W issens
la sten
fo ster
tal ked
genau er
Verteid igungs
pe ll
vorschl ägt
pursu ed
krit isiert
Konvent s
inform al
he bt
Er nen
Er ika
oper ative
Sch re
s enten
er ad
igen ce
zur zeit
short ly
F akten
un an
ab zielen
C au
ig are
la ying
princ ip
nor thern
offen kund
Cot on
ver handeln
ass ungen
Fol ter
verschieden er
Soll te
E valu
st one
text ile
Prä senz
div ided
demograph ic
General sekretär
Krä ften
G reat
K al
no ise
harmon ised
stra frecht
clar ification
H or
an st
züg ig
reven ue
ver teilt
ab stimmung
produ kt
clear er
ausge arbeitet
Alban ien
Coton ou
at te
re lie
de z
ic kt
tra ve
ak is
div ision
drän gt
Mein ungen
Auss agen
Merc os
Declar ation
er heben
mit zu
schutz es
Nicht regierungs
Moldo va
er suchen
krit isch
be gangen
con ventions
bei hilfen
into ler
gesellschaft lichen
nahe zu
gericht shof
it ts
sch ön
con i
mittl ere
Opf ern
anz ig
time ly
Betroffen en
Mercos ur
ar tet
nach läss
Con serv
efficient ly
beglück wünsche
G F
auf rechter
pl ä
einzu gehen
fal sche
korre kt
m icro
Vor gän
dr in
defin ing
außer gewöhn
intellig ent
Rechen schaft
P le
on ia
em erging
In spe
if e
ill ance
einzu halten
Städ te
n ine
ver deut
Ver stär
sel ten
0 1
Finanz rahmen
congratul ating
distin ction
P flichten
k ol
ke en
enlarge d
Wider stand
gering er
veh icle
verfüg baren
consisten cy
st ations
sym path
fä ll
Dar in
Grün dung
bl ame
reje ction
mm ern
Blo ck
approx imately
das selbe
mäß ige
chem ical
portugies ischen
che ap
setz ungs
cover ing
tort ure
controvers ial
ic ated
An lagen
Med ikament
le itet
new sp
serv ativen
Stra ße
struktur en
item s
verk auf
Trad ition
ein seit
An pass
Aus übung
soc io
respect ing
An k
Im mun
refu se
exclus ively
press ing
der ation
da vor
hel pf
erfolg reiche
observ ation
ic o
än en
str enge
Br asil
jud gment
Entschließungs anträge
Untersuch ungs
Che chn
stät igkeit
0 6
P an
be wahren
lie hen
glich er
enor men
cho ices
Jed och
5 7
u c
Rede zeit
along side
hohe m
reve al
Guine a
four th
Fern sehen
Kernen ergie
the or
lä ß
strict ly
con tam
The ir
hier zu
wettbewerbs fähig
Lob by
199 1
Gesprä chen
Chechn ya
beit reten
ear n
Verfassungs vertrag
percent age
T it
Le id
cal cul
ehr ter
Je an
consul ted
K anada
S L
au ert
tro ops
Rechts sicherheit
wieder hole
einfach er
Solidar itäts
sho ck
L ö
verab schiede
Tun es
s cept
dis appointed
bekräft igen
O rient
As ien
d op
be wirken
Ver sprechen
Re volution
simplif y
Jugosla wien
St att
stü tzen
appar ent
Angeb ot
H ol
kn app
zusammenzu arbeiten
voll ständigen
organis iert
Stat ute
surve illance
Welthandels organisation
se cur
führ er
Ris ik
h ohes
organis ierte
E du
exem pt
helpf ul
ar ab
ge ograf
reg imes
Besch werden
histor ische
tradition ellen
grün det
w under
Markt wirtschaft
jähr ige
verpflich ten
unanim ity
israel ischen
se arch
beg un
look s
schne lle
def ending
amer ikanische
em pt
no by
Ge heim
qual ities
des irable
Mit bürger
öff nung
Vermittl ungs
bor n
Other wise
rul ing
c ommission
sp anische
crop s
Ein nahmen
icher ung
EL DR
beschl uss
n ament
er kannt
im age
trad itions
än ge
maß geb
answer ed
Dring lichkeit
hiel t
S on
lo ans
Rahmen bedingungen
Verantwort lichen
Eigent ums
conserv ation
per spectives
Stud enten
noby l
or te
pol og
ow ner
pres er
besch rieben
eigen es
dist ingu
moder nen
Ernähr ungs
ple d
Umstän de
Z erstör
hr t
legisl ativen
Sitz ungen
ed s
Som it
verwalt ung
T EN
threaten ed
wom an
haz ard
ta p
ordnungs gemä
Bew usst
gr ü
ange hören
Rahmen s
Palästinens er
Re isen
reich er
system en
accept ance
Zwe i
occup ation
inv ite
Prof ess
f am
Er folge
p hilosoph
it es
str ichen
dis agree
Sozial politik
Palest ine
Ost see
Joh annes
T wo
re placed
An wesenheit
eig entliche
max im
Q ue
S par
Her angehen
m ant
an ational
fa ire
Flug gesellschaften
tang ible
H ilfen
U EN
in habit
Fre unde
campaign s
verring ert
Y ear
p lied
auf recht
compe te
wünsch enswert
err or
Er zeugung
miss ing
ü br
ge habt
de fe
lu ft
Po et
in fe
ag anda
St ück
fr on
Zusammen setzung
lan ges
jo ining
volle m
Lit auen
per mitted
US D
EC O
refle ction
beginn t
MED A
Tschetschen ien
tr ieb
Nor den
p elt
em ot
An gehör
Hinsicht lich
genet ically
Schicks al
C ohes
li ft
li fer
Vor der
integr ierten
emiss ion
Kommun ikations
hop ed
Bil anz
D C
gere chte
benef ic
erklär te
Einzel heiten
Cohes ion
ens hr
wes tern
your self
prom pt
rec i
krä ften
pursu ant
hü tung
ver wirklichen
ist ischer
tra in
lack ing
experien cing
m igrants
it ag
ge fallen
zu verläss
Vor stellungen
Ab sichten
uni versit
Regul ierungs
P ack
ethn ischen
es ischen
dis put
conf usion
Fol glich
assess ments
Unser er
mä h
kontin u
ge plant
am s
ou ter
wid met
categor ies
Eti kett
Verstär kung
P H
ul f
ank ommen
refu sed
Schluß folgerungen
durch schnitt
hol ung
Hoch schul
Mer k
genie ßen
ra ises
De fence
amt ierende
a ys
t sche
le id
av ig
Leist ung
Bewusst sein
S pen
ú n
ct ors
event uell
Poet tering
st ammen
über sch
klar er
bank ing
Nach dem
Industrie politik
beträcht liche
begeg nen
i op
de le
All ow
Einw ände
Fahr zeuge
tief st
chines ischen
er sta
zu tiefst
ausge führt
ökonom ische
wir ft
far ms
Kategor ie
al a
not es
Einfl uß
bild ungs
Vorbe halte
Nichtregierungs organisationen
pet us
L uf
M s
Y our
ge fühl
ge klärt
dis cre
jo ined
technolog ische
wachsen den
Vers orgungs
pet ition
198 9
kü mmern
S yn
for es
Aus richtung
Aus fuhr
sign ing
person nel
gefähr lichen
Beitritts verhandlungen
h ern
k ter
fre ight
hinzu weisen
Jahrhunder ts
resum ed
forgot ten
aufrechter halten
R en
a dem
Mit wirkung
rail ways
lok ale
seek ers
Sim babwe
Mug abe
an sehen
re med
se ll
lich keits
Be im
gratul iere
Konta kte
im posing
redu ziert
Dire kt
vict im
vorange gangenen
Lie fer
Be vor
sh owed
sa cr
schen ken
kon trollen
Tr uppen
Pos selt
erweiter t
thres hold
organiz ations
Gefäng nis
junkt ur
5 1
im petus
tr aum
will igen
ide olog
consequ ently
Palästin a
kontinu ier
integr ate
highl ights
exp ansion
Fischerei abkommen
author isation
hous ing
con ven
Gem äß
nor th
auszu üben
acce ler
lok aler
greifen de
Edu cation
a polog
c u
os met
proced ural
amt ierenden
Sim ilar
us ually
hen de
resour ce
sal es
Ein es
abil ität
gemeinschaft liche
jüng ste
T om
ro s
sp hase
ant ly
zerstör t
gekenn zeichnet
Unterdrück ung
l or
and t
se con
ga ther
technolog ie
stärk eren
Versicher ungs
su pr
contrib uting
ikan en
Tunis ia
ophob ia
d acht
le hen
fäh ige
dring lich
asse m
i ol
ein nehmen
Un sicherheit
war ded
inter im
cut ting
obser vers
qu es
ib iot
pre t
ome ter
fail ing
e b
v it
“ .
as ion
se cut
so ever
gest altung
Sitzung speriode
Belast ung
Kamp agne
6 00
zum al
Landwir ten
Relig ions
slight ly
S of
i at
gefähr liche
Gemeinschafts recht
Ho heits
character istics
supr anational
B ü
S ri
ge handelt
he tor
prevent ive
obser ve
Eur atom
Gewerk schaften
H is
L ank
M od
h oc
en kt
ab zielt
los ing
Entwicklung spolitik
aufge worfen
keines falls
flow s
ro us
ben utzt
draft s
unab ding
N ichts
under lying
Stellung nahmen
Ru br
Konflikt s
quant it
Regard ing
ver stoßen
Vor sorge
Sozial partner
Sa al
can ce
ip her
system atic
exam ination
viol ent
dio x
er stellt
fe as
contin uation
Bedürf nissen
te te
res idence
pro vo
approach es
Überwach ungs
Verzöger ungen
S ens
ung each
ne ll
Auf forderung
Wieder herstellung
jahr es
dram atic
Umstruktur ierung
ungeach tet
vorzu schlagen
Eur or
verank ert
k an
Dienst stellen
Tats achen
distrib uted
Klau sel
zu geben
Ste igerung
bewer tet
col lap
J ar
Europä isches
bei der
Ein kommens
an ke
ar bit
ohne hin
Vorder grund
K urs
mor d
akt iver
integr ity
einf achen
co d
just ification
represent ing
equival ent
pre lim
handl ing
jähr lichen
re formen
ol iberal
not ably
what soever
Nach mittag
Handl ungen
k amen
Ab fälle
Serv ices
beeinfl ussen
P ersön
W ed
a ded
g s
j ung
le z
kon sult
restrict ive
mär kten
schuld igen
beur teilen
Ple ase
t it
amb itions
according ly
st ic
ne tze
achieve ments
zunehmen de
dis par
tion ary
Lebens mitteln
destroy ed
L iban
c at
bann ed
einzur ichten
as mus
zw anzig
Infrastruktur en
vereinf achen
cop y
P hil
T or
re a
be mer
im ported
man aging
her auszu
sub sequently
klar stellen
Tats ächlich
thous and
ar ians
co w
wo zu
hinder ten
e u
ö ten
all mäh
beit rag
verständ igen
organis ieren
vorrang ig
chap ter
Wed nes
k i
ad verse
Sozial demokratischen
beru fen
regular ly
envis aged
Brasil ien
s atell
vor über
prelim inary
6 8
S ter
st ages
transatlant ischen
Behin derungen
except ions
Leban on
lifer ation
f ires
u ft
Solidar ity
spar ungen
unge fähr
coast al
scrutin y
wof ür
pr ime
Mon tag
Meinungs äuß
angehör igen
f oss
u ber
un ification
sub sequent
two ch
particip ating
Zw angs
verk nü
öl f
Armut s
advan ced
diesel be
neutr al
Gefangen en
n ische
re conciliation
kon stitution
lan ger
Fischere ise
Beitritts k
Chair man
ar io
Mit twoch
Min ute
surround ing
outer most
ver schaffen
ib ly
account ability
contra st
Natur a
ofin anz
K ind
defin ieren
infra structures
deleg ations
analy se
strä ger
Partnerschaft s
eingeschrän kt
bein halten
T ar
st reichen
wer ks
Wednes day
de pl
de pendence
ic ul
ystem e
emp fehlen
bedeuten d
offiz iellen
Ägyp ten
M ag
move ments
riter ium
verurs achen
stock ung
Aufsicht s
is ations
st ick
ar ia
begrü ß
finanz iell
schwier iger
chem icals
Straf gerichtshof
Tal iban
D oppel
ver teilung
ges to
Kon s
ausgewogen e
gewün scht
As s
hund red
fif th
Ernen nung
er mächt
or ate
cult ures
old au
hil ft
höch sten
Geb ühren
Verbind ungen
c uss
pro found
ex changes
ommen ded
mand atory
concentr ation
Commun ist
resist ance
m ith
Kon junktur
neg ativ
italien ische
ass urance
pa ir
sc en
Folgen des
Immun ität
J er
comp uter
fun ctions
o hl
t au
er a
an streben
durch setzen
sent ence
Flor enz
6 6
F O
t ischen
un nöt
An ti
fix ed
R el
kön ne
Arbeits weise
advoc ate
tä glich
l iste
it uation
Ver g
bal ances
Projekt s
jeweil s
inhabit ants
Ver öffentlich
vor sitzen
Vor feld
Bürger rechte
vö ll
Democr atic
stö ßt
disput es
i ber
iz ing
ga ined
conv iction
Obje ctive
Ge win
Kön nen
Di plom
marg inal
Bewer ber
universit ies
ö te
ung erecht
gro ss
adequ ately
Nord ic
Kor re
provider s
PH ARE
ah nen
reg ierung
erleich tert
Mehrwert steuer
drit tens
um n
li ked
str engen
gel ung
anzu gehen
Innov ationen
D im
D ifferen
in no
cons ent
Mon day
anzu passen
neighbour hood
toler ance
St unde
sol ved
pa ce
Iraq i
proport ional
Ge bur
stat ute
dec reas
Über nahme
prec au
Fern seh
Gesetzgeb ungs
mist akes
incorpor ate
geprä gt
D ynam
W ho
pe tr
inst all
ik i
änd ler
Finanz ielle
event ually
bedau re
sü dlichen
Einschrän kung
komm er
Gewähr ung
W äl
so zusagen
ta ins
fu els
k red
ag nen
Gleich wohl
infringe ment
C 6
C rimin
F unktions
durch gesetzt
Kommissar s
energ ie
zahl ung
Tunes ien
An nex
Fr isten
per petr
redu ctions
Liby a
er freu
et re
head s
gesund heits
counter fe
Vorsitzen de
Urs ache
diesbezü glichen
b lic
d den
ü gen
sch i
so il
dr ive
por no
lo ben
Am b
er stellen
Mit te
wirksam er
schwe mm
gelang t
experien ces
safeguard ing
Log ik
P utin
b ing
im ine
Pro gress
man chen
Ein stimm
monitor ed
Spann ungen
ver bieten
ue ller
eng ine
regel ungen
suggest s
Weit erent
ignor ed
Bir ma
Wat son
D ort
E he
S em
as pe
inter essen
Instit ute
ma kro
par tei
alt ungen
eig entlichen
Dan ke
ab uses
Natur katastrophen
Syr ia
K reb
we ile
bet t
rat ify
Gemeinschaft sebene
vis ited
fear s
chr ist
W ritten
v ens
An näher
solid ierung
Steu erung
beantra gt
C ould
it ably
el n
hol fen
Fe hlen
conv ince
Slo wen
dere g
attach ed
human ity
organ ic
beh err
ökolog ische
inwie weit
i leg
ol der
unter strichen
schl ä
contain ing
bo ts
Sozial isten
Nie mand
überras cht
0 8
H ence
Verhaltens kodex
Re chnungs
Aus ge
Fr ont
ins ide
Instrument en
fail s
vernünft igen
Beobach ter
string ent
A cht
end ums
Be haupt
Integr ations
Al ter
Ziel setzung
kam pf
Zentr um
we b
Ru he
gestell te
ASE AN
Re den
Der zeit
Br anche
comprom ises
schwed ische
dahin gehend
on i
la x
gä be
p has
einzu leiten
Canc ún
t ur
ro b
über legen
stand ardis
model s
pursu ing
listen ing
V ir
leben den
Wall ström
C re
st an
ab road
par adox
weit ern
pl at
pre dict
dec entral
incent ive
eröff nen
Jar z
Crimin al
M andel
an forderungen
ll i
dern falls
dec ent
voll ziehen
Arbeits kräfte
accept ing
further more
Durch führungs
Einzel nen
Säu le
Treibhaus gas
Cer tain
er weitern
Aussch üssen
invest ors
Haushalts ausschusses
conclu des
bekannt lich
ignor iert
bor ne
Meinungsäuß erung
Jarz emb
K e
ten ance
ce ut
In sofern
sign s
erweiter ten
vig il
acknowled ged
E hr
R ap
ann ivers
Ch ile
Similar ly
L aw
lo ad
Th rough
Zusammen halts
off ices
whole hear
wenig sten
haus halt
embar go
K örper
inter ne
hin ein
Kohäsions fonds
S har
st ed
iar ies
Nord ir
Verzöger ung
juris diction
al beit
ge kehrt
kann te
fund ament
Ex tre
14 2
verstär kten
fried lichen
Ganz es
appell iere
belg ischen
dän ischen
c in
den ied
io x
kün st
proje kt
fried liche
withdraw al
stake holders
Mitentscheid ung
E v
V o
Aus legung
techn ischer
E cofin
an bieten
at mo
it ze
Dar lehen
instre aming
Weiterent wicklung
K luft
k au
s lau
act ors
Bes atz
heit lich
geb unden
gest iegen
back ing
investig ations
Fuß ball
k m
durch geführten
resol ving
finanz ieller
Fre il
weltweit e
spür en
c atastrop
Rück gang
Weit erb
theor et
Liban on
be we
ut il
str itten
Ma de
prov en
human e
W a
w ages
forder te
dist ance
danger s
Cor bett
cuss ions
K ab
P la
ge ehrter
gr ass
hl ung
Demokrat isierung
Fre itag
abzu lehnen
expert ise
sympath y
auf s
imm unity
Fortsch ritts
crimin als
refuge e
Liber als
transe uropäischen
Jarzemb owski
j ah
find ung
reco ver
found ation
fas h
ras che
Relig ion
Kapaz itäten
TAC IS
5 8
con ve
Ziel s
plan ung
Gesetz geber
Entschäd igung
annivers ary
P feiler
Un regelmäß
wä l
Energie versorgung
You th
asse ts
9 3
st ür
bewer tung
programm ing
Lebens qualität
Israel is
Zerstör ung
fash ion
d auern
re affir
de pr
su dden
inv ited
Haushalts kontrolle
exist ieren
Flüchtl ingen
gebil det
L ärm
aus es
We il
Reg imes
vis ible
Wer den
beruf lichen
2 50
S atell
ein schlä
ter min
Le hren
folger ung
paragraph s
consolid ation
genehm igt
n utz
of u
bereit zustellen
sex uellen
Beih ilfe
wom it
Dynam ik
P ir
so zio
pr ere
progress ive
Tex tes
criter ion
reib ungs
á nam
auch en
man if
fort zusetzen
stre am
nam es
Guant ánam
be kämpft
An gol
igen de
Sch eitern
kür zt
fes thalten
nieder ländischen
K an
S achen
r ungen
ies t
ab geschafft
tr i
Au fre
wür dige
zunehmen den
nachhalt ig
Völk ern
unver zicht
accur ate
prere quis
M ik
An ders
meant ime
Ungleich heiten
Schwar z
Guantánam o
7 1
L omé
M at
iger weise
exam ining
pend ing
verständ nis
ph one
Fr iday
wirk ungs
vis as
Gebie ts
recognis es
Gesprä ch
Dienstleistungs richtlinie
Städ ten
gestr ichen
Besitz stand
fem ale
F ab
st ation
con troll
ib ung
pre text
per ipher
viel fält
bestimm ung
rele ased
emiss ionen
proportion ate
toug h
Sens ib
ord an
fre m
Komm ent
untergr aben
en ded
arr ive
evalu ate
brut al
Johannes burg
ge denkt
Er stellung
zurück kommen
Kin des
geplan ten
pharma ceut
müs se
bring ung
accoun ting
Lu kas
pers ist
ne oliberal
hör t
neg le
modern isation
Red ing
GM Os
anspruch nahme
dictator ship
Fra ktions
clo sure
learn ed
Z E
schl icht
klar es
Li ikanen
fünf zehn
vertre ter
Konkurr enz
O omen
t il
ur r
qu oten
report ing
dec line
enter ing
Vorbereit ungen
claim ed
autonom y
C ong
out lined
stat ut
markt es
Übertrag ung
S il
an hand
le chts
ou th
all i
Wissenschaft ler
A le
M oldau
fin ish
Dec ision
Königreich s
Erd öl
pol ize
Vorsitzen der
gä ste
un it
im ate
dis mant
Auf stockung
nachzu denken
Annäher ung
S ev
f on
ung arischen
var iety
rang ing
OS CE
Sco tland
registr ation
Deleg ationen
reci pro
ver bot
ex ecutive
inter ven
zw angs
tem pt
ton ight
krit ischen
koordin ieren
Parlamentar ier
T ol
f assungs
ver nachläss
ste igt
Indik atoren
arbit r
für chte
vo ters
teil ungen
ak ing
wenig stens
multilateral en
ver le
ere g
zw ölf
O ption
e kut
l it
ge fügt
min or
7 8
C olle
S er
be haltung
ist rat
partnership s
vert ie
Sloven ia
Aufre chter
or es
he ber
genau e
rene wed
super visory
gradu al
wie gend
main tenance
foc using
OS ZE
gerichte ten
Phil ip
in quiry
bes agt
Mitgliedsta ates
Emiss ion
opol it
Migr ations
N a
N az
c ope
Sch mid
land wirtschaftliche
Komprom isse
substantial ly
frag ment
virt ually
hazard ous
V ene
th r
Ver me
verz ichten
ungsver fahrens
G 8
Arbeit er
fall ing
Jugend liche
Effe ktivität
Zuw anderung
Schrift liche
N ähe
p estic
er land
ad ding
Pres tige
min istrat
beg reifen
Euro just
cor responding
sett le
Amerikan er
ex hau
qu id
Grund prinzip
deut licher
mat ch
help s
comple tion
test ing
fal se
Ap pell
verbind liche
p ilot
Tr ib
sprech ung
Migr anten
Vier tens
ein iges
ver bleiben
ap pl
moment an
Stär ke
explo it
größer er
f anden
inter n
hope fully
Govern ance
disast rous
gründ lich
d ossier
cre en
abl en
scient ists
safegu ards
religiö sen
Aufrechter haltung
B end
um stritten
Ver suche
fe atures
gel esen
consist ently
bill igen
Niederland e
asp ir
Ausgang spunkt
misch ung
D G
er te
tr at
fe ature
her bei
lä uf
Gleich heit
Ru ij
interess ante
derart igen
qualit ativ
ch net
Er rungen
betr ieb
Defiz it
Gelt ungsbereich
5 2
J ohn
M ün
W W
ein beziehen
iert es
endor sed
observ ations
ich e
con front
cy cle
Fischere if
miss ions
indic ation
ling u
smo o
Syr ien
beunruh igt
be waff
In anspruchnahme
cl auses
consult ations
bad ly
usal em
ber ichte
deb atte
vorzu gehen
territorial en
explan ations
V itor
it ar
de tention
Invest ition
ähn lich
fif teen
k ommission
an merken
ein leiten
auf wand
wenn gleich
Folgen ab
schle chte
Liby en
arg ue
che iden
fl üss
star kes
berecht igten
Beitrittsk andidaten
il ung
ce iling
ib r
ket te
allgem einer
sämt lichen
Unregelmäß igkeiten
w hel
os é
An schluss
ban ken
Wi thin
lea ves
condition al
Kl är
L iebe
ver gangen
kon fli
zwe ier
öff net
Auss icht
ro t
ver handelt
rä ume
Ratspräsident in
Konfli kten
product ivity
tät igen
Oste uropa
1 20
sch wäch
ct ic
over whel
Änderungsantrag s
avo ided
Schwe llen
mel n
Tol er
en force
er re
ver steht
ta ged
essen ce
ensure d
Dar auf
bi ofu
Natur ally
Ad ministr
Ruij ten
re publik
sch er
Ab ove
Tex te
größ t
fair er
gener ate
fulfil led
appar ently
beeinträcht igt
g ame
Sch ienen
ergän zt
Jahrzehn ten
Un fall
Sch en
grundlegen d
überw acht
e ller
be achten
form ed
pl ö
Bei behaltung
slau ghter
in spect
tra ce
initial ly
agent ur
Nordir land
d ollar
est ag
ag eing
fore cast
ret ire
geein igt
Mon opol
cor ner
“ ,
ein bringen
im ents
up d
handel te
prü f
v ina
der selben
teil genommen
exc use
Spe cial
Gew inn
ra cies
An griffe
Bed auern
meth ode
geist igen
precau tionary
w all
auf sicht
pre jud
Schl ag
priv acy
türk ische
immen se
mangeln de
z ert
be zahlt
ein richtungen
ver trä
ste cken
euro s
restr i
prior it
Ergän zung
o ste
le v
li fel
ad ministrat
Ge ber
Den ken
prakt iz
normal en
strö me
vertrau en
günst ig
N ation
tz ungs
vor schrift
Ent täu
every where
Beob achtungs
Mensch heit
S au
An reg
wür fe
fl ights
wün scht
spar en
emer ged
Sw itz
Est onia
de voted
Be wirtschaftung
kon sequ
effe ktiven
aufge griffen
bl ue
reser ves
Switz erland
o hlen
í a
ab geordne
offiz iell
sprü che
Vitor ino
zu el
global er
Fir men
Iran ian
Kommissionsmitglie d
an nex
flo od
empf ohlen
expl os
Inter ess
Ko hl
wahr nehmen
Lin ken
greifen den
simplif ied
Klar en
en ables
str enger
Sü dafrika
Trad itionen
Grö ße
g no
er zeugung
es ter
sol ide
Dritt länder
International e
Z one
Er satz
sup pl
mer kung
5 4
invest iert
Beschäftigung spolitik
beseit igt
6 2
W ould
s un
ab ort
pa ys
bar bar
Mill ion
dest abil
exclus ive
owner ship
g iene
ch ens
aus sehen
democr atically
mee ts
B lack
F if
F IN
f ought
an cy
sch m
Sol daten
defic its
Gal ic
Einstimm igkeit
k ä
r t
be fehl
dam aging
vers prochen
ship ping
fle e
Ur heber
Spiel raum
commer ce
unterst reicht
irregular ities
Rubr ik
) ;
es tens
ge wahrt
den selben
im p
ben ch
Le on
sect ions
arr ived
Techn ik
post s
ä te
kl icht
Fe deral
Veröffentlich ung
9 4
We b
erst re
dro ht
Nu klear
explicit ly
p ipeline
com it
author ised
automat isch
rigor ous
Ferr ero
stru ck
hunder t
9 1
B ow
z á
re cycling
sh op
arbeit eten
Schließ ung
verwir klicht
é s
am i
ve get
über mittelt
sel ber
sche u
Zur ück
umfang reiche
C ode
u ble
on to
Pro v
hin derung
viel es
hof ft
acc used
Einschrän kungen
Konzentr ation
g ast
and em
system atisch
Chr isten
k orea
ge ziel
den y
fl ü
Spra ch
imper ative
Bi ok
porno graph
s car
ne ten
Koordin ation
Schen gener
7 00
Her bst
Defiz ite
be trägt
andel n
Haushalts mittel
schnell st
tack led
Di am
Re icht
kur zen
vol ume
rec ommended
vorgesehen e
heim er
desire d
Olym p
l ists
ch tern
di verse
ko stet
WW U
6 3
A lt
ü t
en counter
Mex ico
österreich ischen
Legitim ität
transf ers
C ap
ö hnung
or ted
re per
ge änder
lic ate
Haus halte
zeit raum
Stand ort
Global isation
stor age
Korre ktur
f ate
sch te
di um
wärt ig
advan taged
voranzu bringen
Gewin ne
m outh
é n
ö tet
re pression
Ver hinderung
Über schwemm
Recht setzung
kur s
Eng land
aut umn
krit isieren
reb ungen
GM O
nach teil
pra ise
Wh ilst
comprehen sible
ignor ieren
ren der
Vene zuel
ge holfen
am ed
Aus sprachen
bes orgnis
Ge g
Ge legenheiten
ange wiesen
ausge übt
einz iges
Sol che
H om
P ilot
st ory
wer s
ad vis
art igen
ada pted
zö gern
sold iers
P est
un st
be ben
inc red
gra ve
Stellen wert
genet isch
G ibt
best raft
immer hin
bür gern
getroffen en
berecht igung
7 7
t wi
sp ot
ger ingen
Er halt
Lam y
Weiter hin
ECO FIN
5 3
A O
de utet
vor getragen
gesch eit
hä uf
Br ief
Grem ien
Tenden z
Ausge wogen
) ]
R ü
r ank
ges ucht
la stet
Chem ik
at tain
Ver markt
Zu sch
gere chten
dee pen
veran st
m ischen
Amts zeit
fundament ally
Verme idung
t ier
Ein wohner
tes ted
frist ig
angemessen er
Sum me
krit ische
Asyl bewer
Trans it
R ichter
to s
te uer
ign ed
bezie he
Har bour
attra ctive
geeigne ten
Zug leich
Wald ner
collap se
Freil assung
th row
al on
ug t
fal schen
dauer hafte
enshr ined
M ess
str ic
Sch on
social ly
Partner schaften
investig ate
exem ption
foot ball
müß ten
fores try
s ale
me ister
do g
iti ere
ob gleich
Men gen
present s
bas ieren
B om
L angen
Th ess
hand ed
versch le
ep idem
Toler anz
B ang
ad mitted
iti ver
ger s
Res erve
dauer haften
P ie
h abil
ver sammlung
Ver stoß
not ion
pf er
Im pf
air port
inspe ction
bedür ft
Lank a
Ausgewogen heit
ein gestellt
wind ung
deliver ed
hom es
katastrop hal
voranzu treiben
eingeb unden
IL O
Biok raft
C R
seiner zeit
democr atisation
konkre ter
Steu ers
consolid ate
Zul assung
statist ical
ra ge
alle ged
med i
pass ing
Vizepräsident in
inno cent
an schließend
fa ther
For st
zie h
fehl ende
beeinträcht igen
Extre m
r unde
u a
Über windung
Profess or
k ulation
z itiere
Hin weise
Bar ón
aufge hoben
Mot or
H ü
m iddle
p fe
auf gebaut
lie derung
ges chen
fr ustr
teil zunehmen
Gegen wärtig
endgült ig
ehrgeiz ige
be hindert
ip s
fest gehalten
stell ungs
Tr an
Rea ktionen
Every one
läß lich
respon ses
anzu erkennen
Tier schutz
t ighten
an x
lin ing
Zus agen
open ly
technolog ischen
Wieder ein
Kür zungen
Kreb s
reper cussions
Thess alon
l iter
re cru
statt dessen
bürger liche
Hoff nungen
B isher
ein räumen
pro liferation
ment al
aus gestattet
Be weise
food stuffs
angesprochen en
Ereign issen
F u
und i
Ver urteilung
international ly
where ver
angeb lich
Col omb
C as
n est
pro stitution
ex posed
as ing
urop as
je glicher
gleich er
ite te
remo val
dep loy
Eigent um
Sow je
zwangs läufig
ung laub
Kon go
initi ated
beru h
surpr ise
ge opolit
mit geteilt
const rain
particip ants
abzu schließen
verbind lich
Erwäg ungen
sau ber
twi ce
H ab
ge ehrten
we ich
ad or
Sta hl
hervor zu
Koh le
Alger ia
monopol y
Krie ges
C ohn
min e
min es
Gen der
cult iv
origin ally
bezogen en
biolog ischen
discipl ine
C e
G on
W ien
en cies
Co sta
log ic
assure d
ehrgeiz igen
Vermittl ung
don ors
Gesam theit
lifel ong
F on
M as
in sp
ben utzen
Le hne
Produ zenten
Kön n
überein stimmen
Opt ionen
president ial
V ien
as ien
ic ing
ind igen
ive aus
dis advantaged
besonder es
ine qualities
akt uell
ifiz ierungs
Liber ties
erläu tert
Bö ge
J acqu
Q uellen
í n
her stellen
sil ence
Bend it
s werte
z te
de va
em bry
kl ass
ru ft
gew inn
abzu stimmen
announ cement
vertre te
präz ise
Pass ag
Thessalon iki
Wort laut
wachsen de
Privat sphäre
transfer red
err ichten
pos itiver
enable d
prepar atory
Wiederauf nahme
Schi ffen
Verb ün
inev itably
ro utes
An merkung
dr iven
forder ten
compon ent
K riterium
b id
ste igern
är er
ome tr
plan et
Gemeinschafts rechts
gerichte te
quar ters
e te
bot tom
compar able
Gesicht spunkt
Sow ohl
tit le
P N
dis abilities
find ings
Herzego win
earth qu
Brut to
Verstö ße
bewe gt
lingu istic
K ofinanz
produ kten
sicher ung
Mar t
fes te
vig or
Vien na
be weist
ge wer
ta pe
Be wert
weiter zu
gu il
wes ens
urn ing
exce ed
ähn lichen
Jacqu es
me lt
di agno
inter ference
Ab lauf
gra de
pass ieren
Allgem eine
Straft aten
G etre
al i
über trag
Er asmus
hin nehmen
Nach teil
Ste hende
Umwelt politik
research ers
Beding ung
potential ly
Straßen verkehr
smo king
Aut or
Univers al
Slowen ien
8 00
men gen
Im port
Fund ament
Erzeug nissen
appell ieren
Evalu ierung
B angem
S ix
Re tt
cht ungen
pre ce
Con go
voc ational
Aktions programm
c lon
ach er
En des
cess ions
diff er
Nach richten
posit ives
assess ing
Wes ten
Sach ver
Mitglieds länder
asses sed
des per
ma il
Vor sicht
tain e
wish ed
zer o
constitu ency
conve y
ar s
res ort
Reg istr
produ cer
oc curr
sim pl
bilateral e
Einwanderung spolitik
multi annual
definit ive
Pest iz
Bangem ann
J osé
ar ing
Con c
Im plement
object ions
gesetz gebung
Richtlinien vorschlag
le ute
Reg ister
kl us
off ic
back s
mind s
uneingeschrän kte
Mex iko
princip al
V ot
ver binden
ne ts
ha fen
auf gestellt
ser ves
wirtschaft s
app alling
Vertreter in
enterpr ise
beruf liche
verschär ft
trave lling
m igr
ien sten
per secution
glau bt
abzu geben
Bemü hen
verhe eren
Chemik alien
O N
wer ken
err ors
dis ziplin
geb rachten
Verbraucher politik
Haft befehl
f illing
ge ister
ul se
dar gestellt
Dies en
Al z
Four thly
è s
in her
um gehend
ret ten
Integr ität
radi k
Ausgleich s
Ver mögen
Er be
Th un
ktion ismus
oc racies
Com pu
character ised
obstac le
alarm ing
haf ter
Assoziierungs abkommen
Jer usalem
m i
Ver gabe
system atically
order s
pract ically
Ex ekut
sus pic
camp s
overwhel ming
it a
ge widmet
In c
ac commod
Kom it
vereinbar ten
appoint ing
Perspe ktiven
wor auf
bas es
flo ods
constrain ts
T on
ver liehen
über denken
bereit stellen
Lat via
estim ates
Alz heimer
k ultur
Res ult
mittler weile
ermächt igungen
st unde
ein setzt
ct ure
wh ol
Ab gesehen
transp osition
demand ed
flex ibel
automat ically
Made ira
con cessions
ir respective
Aus bildungs
wa ke
Kon servativen
Recht sprechung
zurück kehren
Wort meld
beant ragen
inspe ctions
K unden
R ob
in j
ig a
ab sor
Kon solidierung
sicher er
Rahmen richtlinie
jud ic
Informations austausch
effizient en
Berat ung
M A
Z ins
f ere
an führen
re ferences
ge braucht
di a
organ ization
Kur dish
Kür zung
adjust ment
8 9
N um
be hindern
ad her
20 14
Sicher stellung
Demokrat ischen
Sol ange
transpar enter
sor gt
kennt nis
hiel ten
Herzego vina
stric ter
comp lied
Gesch ä
Israel s
arm ament
Meinungs freiheit
zer ne
und em
se at
Russ lands
harmon ise
Überein kunft
broad ly
Hauptz iel
wholehear tedly
gel ern
anspruch s
T E
is lands
Finanz minister
gesetz lichen
facil ity
gr ants
Ber lus
Teil nehmer
Staats an
Sch ot
erst mals
eng agiert
Welt markt
Am ong
civil ians
gra ce
Ihr es
abge halten
comit ology
guil ty
ö deral
tell ing
tä glichen
schwe igen
GA SP
zu künftig
et te
clos ing
offenkund ig
K u
f ill
r hetor
ra ce
Vor mittag
Best ände
Sozial fonds
Hung er
orient ation
zep te
Erd beben
ab hängen
ges onder
vor haben
pol nischen
Vor gaben
tro uble
Wo hler
Fahr zeug
gegenseit ig
Cres po
j k
k ill
er langen
be faßt
sch ten
stell end
handl ungs
hol t
vol un
isol ation
Alger ien
Investitions bank
Wäl der
ent lassen
sp an
dec iding
Finanz märkte
ursprüng liche
en der
in ated
Be träge
An laß
top ical
K at
it ives
aus gelöst
criticism s
verteid igt
Eing liederung
pillar s
ar do
se es
Er reichen
dien sten
zentr en
Staats bürger
estim ate
Wohler gehen
e gal
in appropriate
den oun
ver wen
ust er
art icles
stop ped
thorough ly
re cor
de tain
sch mer
ges orgt
Re hn
inn eren
schle chten
Leit ung
Dring lichkeits
satell ite
retire ment
Herzegowin a
recor ded
wi dr
auf richtig
sh oul
ze llen
ern ity
Le iden
tatsäch liche
surv ival
we ge
wel le
wär ts
näch st
hard t
mein t
reib ung
drafts man
pharmaceut ical
tre mend
protection ism
verl ag
ed ge
Ab änderungs
ün de
lass ungen
Wün sche
arab ischen
5 9
vor sehen
bar es
Welt bank
Wettbewerb spolitik
ban ana
Pre isen
p unkten
st amm
de em
ab gesch
tr ies
Be kannt
her um
land es
critic ised
ehemal ige
oste uropäischen
gelern t
on sten
an ze
ach sen
ern sten
Er mittl
ine ffe
hung er
dead lines
mitglie der
medic inal
entreprene ur
Komit ologie
l ander
o le
ans onsten
Wahl kreis
Rom anian
unterschied licher
Augen merk
adapt ation
Konsult ationen
channel s
Ale x
polize il
8 6
W HO
v ary
al d
vor sichtig
sa al
bes cheiden
coordin ating
remain ed
weis ungen
apprec iation
hinder te
register ed
g ir
g reift
r umän
ver mut
unter nehmer
erklär ung
reser ved
benachteil igten
Sym bol
Erkennt nisse
schedu led
fe hle
streng ere
Friedens prozess
verbre itet
in spir
initi ativen
Pe ter
worr ied
Be ide
reas sure
Haushalts linie
fert igung
subje cted
kurzfrist ig
Sah ara
Weiterb ildung
G AT
K au
f ault
p hr
co inc
institution en
feind lichkeit
Subst anzen
sensib len
z o
re mit
zu ständige
bo te
äd chen
occup ied
Autonom ie
Berlus coni
vor gestellt
ige m
kon kurr
third ly
discrimin atory
Ged anke
Stu fe
Auftrag s
P en
R und
t te
re conc
den z
mor atorium
por ter
ref usal
H änden
zu zustimmen
dis semin
gas es
Bevölkerungs gruppen
Tem po
tox ic
Klär ung
ü hm
In flation
Pro test
et t
Her man
demonstr ation
moder ne
N iel
to ck
em en
Un fälle
pol lu
produ zieren
äch er
ausge glichen
öl le
schreck lichen
sch ieben
gen oc
os is
coun cil
hin nehmbar
tun a
Qu artet
intens iver
formul ieren
arrange ment
Prote ktionismus
Gewä ssern
Sch r
Vor bild
Haushalts ausschuss
betra chte
arch ite
Zivil isation
div ide
stimul ate
relie f
übr ig
H em
L IF
re viewed
ro ll
ges unden
Er neu
inc idents
Invest oren
veran lassen
medizin ische
Angol a
biofu els
E is
est s
ill ness
Rat ing
Di vers
diplom atischen
Rechnungshof s
CF SP
LIF E
H olz
W og
l ungs
ger inge
All gemein
Bed auer
consc ience
S m
b onds
w unsch
ro ot
de licate
he ft
form ally
Lebens bedingungen
Zweit en
zeichne ten
k osystem
m än
ver kün
ult imate
ser ved
gest anden
ausge hend
Chin as
punish ment
sch ar
ma kers
kon solid
dec ade
qualifiz ierte
Bus iness
corpor ate
K il
l ungen
er sucht
um p
men schen
aus machen
less on
Stand ard
Fe deration
angenommen e
geleiste te
V el
Änderungs vorschläge
voll es
Im mer
ru fe
Ins gesamt
über flüss
mö ge
Er öffnung
beit ritts
pres cri
top ics
Aktion splans
Wog au
O der
un lau
wi ß
ver nehmen
von einander
nach kommen
moral ische
contrad iction
gewähl te
W oh
An dere
problem atisch
spec ulation
contrib utes
kr imine
leist ungs
gener ous
Zuständ igkeits
nes sed
audiovis ual
korrig ieren
D ritten
so genannte
ste el
com position
viel falt
mel det
ehrgeiz ig
vertrau t
B yr
n ord
Ver schlechter
vor gelegte
fa ces
energ ies
Christ ians
return ed
Telekommun ikations
Solidaritäts fonds
G öte
a qu
ion e
ge heim
under p
N ic
un ten
ide ological
Mitgliedsta ats
get ötet
real ised
Gro ßen
21 st
Luft verkehr
Befür chtungen
town s
arres ted
geschen kt
b om
b org
m es
t aten
at em
ein genommen
if iable
qu elle
gere chter
äl teren
schw ung
Hindern is
krank ungen
bedeut sam
ar ises
ang ere
Or te
sex uelle
wit ch
L ager
with drawn
verl änger
Stabil isierung
Besonder heiten
qualit ative
ifik ationen
ab o
vor geschrieben
Ein mischung
wä cht
vict ory
Fischereise ktor
Gon zá
R os
an cies
di ver
Ein igkeit
Jahr estag
Grundsatz es
obtain ing
interpre ted
atmo sphere
Cong ress
E qu
be kannten
ab r
Be frei
ac erb
ob liegt
du al
schrift liche
auszu arbeiten
verk aufen
multinational en
Sh ould
benefic iaries
h us
tr ends
ex acerb
Um stellung
Fall s
fun k
tar iat
Democr at
y i
con fu
auf hören
ce ase
As ian
point ing
beweg ung
Del ors
remin ded
F öder
k ische
p ick
Be grenzung
unter nimmt
techn isch
Rahmen beschluss
Handel spolitik
allgem einem
address es
clar ified
K en
M ädchen
S eine
l assung
ou re
ce lls
est änd
man ipul
bo x
Arbeits programm
bezogen e
gestr igen
Funktions weise
dem ograf
The mas
grie chische
exclu de
un precedent
Ein sparungen
every day
ga ining
hä l
Qu elle
isp ens
angehör t
verkauf t
empt y
allmäh lich
Ass ist
unprecedent ed
lo hnt
spar teien
Erd gas
beraten den
nar row
Ak zept
norm ally
s la
be fried
err y
Sch ule
avoid ing
jour n
hervorzu heben
or ten
be kommt
min imal
iden cies
Auf lagen
Ziel vor
Auff assungen
remark able
bele bung
ind ispens
Sch nell
ific ial
mat ik
Gemein den
Ne ighbour
une qu
Best rebungen
emphas ises
in comes
Ge geben
19 80
integr ieren
stress es
erneuer barer
Enttäu schung
ent zieht
über nimmt
scha den
mo dest
ange führt
pla cement
olog ien
reichen den
Cau cas
K atal
me id
la des
Er schein
sol ving
Zus age
bie ter
bel s
indic ates
Innov ations
gült ig
Kons ument
Un glück
ör en
illegal er
Kontin ents
A 6
B ay
be an
sch icht
auf gerufen
Ein leitung
govern ed
Nutz er
schlimm sten
Fon taine
8 8
V al
iv oc
zie ll
mäß igkeit
pestic ides
weiter gehen
finanz ierung
ifiz ieren
schwer er
abol ish
steu ers
Rent ner
A g
S ier
de ar
ac compl
ange passt
Hin zu
integr iert
Mal m
gute m
sou verän
befug nisse
widerspie geln
persu ade
p i
ere ig
Ver anst
Ge fähr
any where
sector al
Dienst es
ath ol
ugos law
Leist ungs
bra chte
koordin iert
natür liche
Überschwemm ungen
um ul
In halte
Er de
invest ing
different ly
Som alia
aufrecht zu
Bang lades
ken ne
cons ists
betr ug
Kom pon
infra struktur
facilit ating
Mitarbeit ern
Einer seits
6 1
A raf
C y
ge legen
ies e
end t
vor teil
dis advantage
teil te
teil ten
under ing
Über leben
besser es
gener ated
DE M
ai ro
Ele ktr
Byr ne
Gonzá lez
aufrechtzu erhalten
auf gaben
cr ib
chn ungen
integr al
gefähr licher
heav ily
Göte borg
le m
le idet
ber ichtet
St ur
inter ventions
Energie trä
sustain ed
begrenz ten
A S
ro chen
ag ten
end igung
inst ability
mat ure
Dem ocracy
Gesundheits versorgung
erhö h
Beitritts länder
IN D
strik es
R inder
leg ten
Rechts vorschrift
vorzu bereiten
offiz ielle
prerequis ite
Malm ström
B our
t ank
ver letz
auf greifen
sp rä
art ificial
stell ten
Flug hafen
Pe ace
re verse
do ors
war tet
Sie g
stü tzt
pat ents
rein forced
lives tock
genet ic
conce pts
wäch st
transl ation
erre gend
M ul
n ör
an ter
con fin
aus enden
Be endigung
Kon g
Mon itor
Best re
explo ited
russ ische
Universit äten
indispens able
F inger
an as
di an
ko v
schein end
creat ive
enjoy ed
monopol ies
zivil en
Futter mittel
PN R
H ague
Z er
miss ible
Co x
threaten ing
Territor ium
6 4
F lächen
sch wach
fü hle
Da ß
13 0
dist ur
Akte uren
don or
kompliz ierten
genoc ide
er wer
ber ührt
il legally
pro min
Au fr
irgend einer
IN I
enthus ias
xen ophobia
b rä
re loc
man o
eng agieren
fo oting
schie bung
cofin an
Einwander ungs
Getre ide
I vo
un al
ie t
ver mittelt
ac company
erst es
offen ces
verantwort ung
abol ished
expens es
f öder
me ist
eng l
Bon ino
debatt ieren
assem bly
Schot tland
E d
S ä
ter ungen
Be zeichnung
lic ences
own ers
fo ods
acc us
Stra fen
nu klear
Amsterdam er
attempt ing
erreich ten
Schattenberichterstat tern
enthusias m
W F
con fron
when ever
thin ks
low est
avail ability
kom bin
befür chten
aud it
Ministerpräsident en
strukture llen
Religions freiheit
H at
ge faßt
vor ankommen
mis sed
quant ity
Arzneimittel n
Ober grenze
eingeb rachten
quar ter
Auseinander setzung
er ne
Menschen recht
sicht bar
verl ust
remo ving
wonder ful
thal ts
dop pelt
ta ct
Politik bereiche
Glück wunsch
wit nessed
Presse freiheit
hei kl
Sco tt
dispar ities
einschlä gigen
se ite
Be züglich
fl ight
emphas ize
Verbre chens
dre am
publ ish
eu v
Verschlechter ung
P ot
Se ver
public ly
trans national
erken n
Est land
IM F
R io
ge zahlt
leich terung
belie ved
Se kret
vis ing
wärt igen
letzt es
moun tain
K lon
O P
un like
for mit
Par agraph
ens ures
Fisch bestände
einzur äumen
A part
ter inary
ism s
informe llen
mano euv
N acht
th alt
icht linie
Ver tief
inter institutionellen
beg leitet
antwort ung
Rück über
vorbereit en
Mitglieds ländern
inev itable
B ahn
ent ziehen
Fr anz
cau ght
emer gen
üb lich
Olym pic
Erneu erung
j ing
m ort
al in
ic ted
op pon
war s
Auf klärung
gew achsen
befür chte
Sü do
indire kt
isol ated
Roth ley
angest reb
Sar ko
quantit ative
ir responsible
dem ocracies
lie b
lic ence
Flug zeug
heut zutage
relationship s
satisf y
beizu behalten
Dav id
R i
r ent
än gern
descri be
konstitution elle
Vertief ung
ö pft
be am
An lage
Europä ern
pl ung
lim iting
Mul der
s qu
on line
zu kommt
Le tz
fest geschrieben
integr ierte
Industr ial
dat ab
recognis ing
konstru ktiv
surpr ising
Aufen thalts
Venezuel a
Sm all
7 6
D al
O ost
er led
or n
sch war
ta gen
war rant
mo ves
work force
Is lands
nöt igen
Will ens
combin ation
Niel son
Araf at
er ted
fa kt
Er leichterung
ausge de
tell igence
Gesundheits schutz
critic ise
ambigu ous
Ann an
Auf teilung
real e
H ände
Nu ll
verschär fen
Orient ierung
Neighbour hood
M ach
str ange
vent ional
Verlust e
ik er
Min des
real en
bau t
schre ibt
Ereign is
Mand ats
or th
dem nächst
bis weilen
integr ating
Artikel s
CO S
mess ages
Fremden feindlichkeit
Versch mutzung
Indones ia
F at
be dürfen
de hnen
Be antwortung
dis grace
exper iment
Gesundheits wesen
remo te
fam ous
Caucas us
G anzen
L AF
or ed
so hne
Le tzt
wen de
techn i
Besch werde
hom osex
üst ungs
Betre iber
Compu ter
O li
be find
il and
dar y
weit et
age ments
ear marked
ip ulation
Terrorismus bekämpfung
Auto s
feas ible
aspir ations
Elektr iz
ge kürzt
Zus ä
industr iellen
poor er
condem nation
ira c
ec osystem
fru cht
Test s
Oost lander
f inger
m ad
v ague
auf einander
trä glich
aff air
guide d
Barro t
Gar c
gewalt ige
marg in
kas us
vereinf acht
frank ly
vor läuf
la h
promo tes
fäh iger
hinaus gehen
Let tland
aufge zeigt
schü t
irgend wo
convinc ing
ination als
üb lichen
dringen de
ergeb nis
P as
R oc
g ig
über trieben
unter zeichnen
part nern
Ein reise
Tr ennung
Sozial versicher
Pe king
Schwer punkte
jem als
UC LAF
unabding bar
Mandel son
Föder ation
b ab
c attle
n ein
be achtet
ur ity
co tt
ün den
icher heit
Demokrat ien
gesellschaft liche
unequ ivoc
S ir
al itäten
total itarian
burden s
exhau st
A ids
St art
ev y
Best ät
adv ances
Beschluss es
confir ms
Automobil industrie
unan nehmbar
Kofinanz ierung
Monitor ing
be z
fre ier
Nach richt
regul ating
Bei jing
Rede beitrag
emer ge
Car diff
Mitentscheid ungsverfahren
philosoph y
kommer ziellen
Re akt
inter oper
fre ige
Con ciliation
grat itude
Freihandels abkommen
vorbe halt
Angehör igen
D iensten
er we
er kt
ver setzen
vor ant
aller erst
zusammen hängen
play er
cl ub
Wettbewerbs verzerr
Qu ite
Betr ü
begrenz te
pun ished
sprü ch
ari at
jun ction
jung er
abort ion
H aben
st ück
id ance
währ ung
Gesch wind
civil isation
ift ung
manufact uring
Empf änger
D ossier
P aul
un um
St ich
up hold
ange gangen
ine quality
hoch rang
Privat isierung
Bestre ben
ra re
str ive
har te
voraus gesetzt
Plenar saal
secur ing
E u
S zen
j er
work place
Sp itze
mult inationals
amp ed
ordnungsgemä ße
blic ken
b ü
hand led
just ment
bre ch
may be
unver meid
bro ken
Ro bert
Sarko zy
zu ver
Ar gent
dis placed
versch winden
Haushalts verfahren
formul a
Meinungs verschieden
indirect ly
A ga
f ließen
s ing
an ch
und ene
sch ub
zu gang
Kol umb
problem atic
akt ual
Bo ard
gesetz te
verfüg bar
d up
sp a
ließ t
ausge drückt
focus es
Voll endung
Gesam th
consc ious
plö tzlich
E ach
Un recht
zusammen gearbeitet
Außen beziehungen
klein eren
wan ger
berecht igte
Flexib il
Administr ation
k unden
iv ität
conc luding
mer t
emp fehle
Ne pal
wert volle
parliament arians
Betre uung
Akzept anz
m ache
lich em
vor gebracht
Schiff s
Millenn iums
confident ial
sacr ific
nest y
Gegeben heiten
ne te
Sch o
Ge hör
organ ized
folgen des
ratifiz ieren
Europar at
E tap
S W
b low
ve to
Un til
St ü
man gelt
So weit
geste hen
begr enzen
account able
bi ological
Red nern
niedr igen
warm ing
Imp ulse
Vel zen
Aga inst
er zeugen
itu des
Thank s
oss iers
delay ed
Mer kel
surv ive
8 2
ig sten
spec ul
zess ion
Viel mehr
Grenz werte
See verkehr
jah rel
Geg ner
C ô
J ur
N E
il ber
ne z
di kt
inv ested
los er
trag ischen
elig ible
D ol
P V
T V
re productive
Ver hütung
iz es
requ iring
aim ing
express ly
äl tere
Straßen verkehrs
ört lichen
Telekommun ikation
drin king
Ev ans
C IA
St reichung
br icht
uropä ische
Kom plex
Pri ze
Haft ung
Miß trau
plä ne
verknü pft
v ill
w issens
ent schuldigen
ex ert
out break
up p
Sie d
Finanz dienstleistungen
versch lechter
ausge gangen
ausge zeichnet
spec ified
block iert
aufer legt
Cô te
I WF
ma instreaming
An zeichen
ded icated
viel fach
Ne ither
handel ten
Mc Cre
Oper ation
peripher al
p id
er zeugt
in telligence
com pr
gro wn
Ges tern
Fahr er
Vorsitz es
portugies ische
Initiativ bericht
Freedom s
defiz it
flee ts
vermut lich
Gen fer
back ed
pfl anz
verabschiede ten
Tar if
schnellst möglich
tremend ous
da iry
kehr ungen
Mehr heits
feel s
Beschl üssen
gesetz geber
unge he
analys ieren
Sach verständigen
Vermittl ungsverfahren
prefer red
Akt ual
postpon ed
Hong kon
Wur zel
McCre evy
in put
Be hr
sub s
sign als
priv atisation
att form
verwe igert
zerstör en
medizin ischen
Befür wor
stri kt
Tsche chischen
y ers
pres erv
ev ol
Gen ugt
transpar ente
Genugt uung
I l
L aut
n om
de ment
do ctors
Ar ch
per ce
De ll
encour agement
pat ri
Kur den
elimin ation
abandon ed
L en
f lächen
r uns
ll or
kt ro
über wach
fa ster
Nach teile
fl uss
recht licher
umfassen der
Analy sen
quant ities
ermut igt
Aufen thalt
kapaz ität
Bour langes
Ver pack
schne llen
Eigen mittel
beträcht lichen
radio active
Schre yer
Ivo ire
Behr endt
P fle
wi ld
wor ben
Ein bindung
writ e
wesen den
verbind lichen
Mü he
Verfasser in
pragmat ic
secon dary
ver ordnung
auf halten
sp unkte
her ein
zug s
Gleich berechtigung
asch inen
Rel ations
C oll
C ub
ver träge
pre ference
Auf stellung
begr i
Fl ag
prof ile
widerspie gelt
Bedauer licherweise
A br
sch är
unter halten
cks ilber
recogn ize
Bas el
unmittel bare
A llt
er mor
is er
zu kunft
gesch ickt
Art icles
Go als
weakness es
Euror aum
Emission sh
S ex
recht mäßig
stär kt
av al
positive ly
sum mar
Med ina
acce pts
kür zen
verbesser te
Dat um
con struct
public ation
IF T
syn erg
vorsitzen den
manif est
ein getreten
ver sprechen
ident ification
gr and
bst ät
Fortsch ritten
stre bt
determin ing
feed ing
islam ischen
B ess
H as
d im
g lo
s creen
w inn
ver setzt
ou los
con ventional
not iced
wo od
just iz
versch ieben
viol ated
Handels abkommen
Ad justment
Lam a
remed y
rob ust
Sier ra
li p
ad m
unter scheidet
respon ds
Da von
frag ile
Sk andal
I ce
R ücksicht
S O
un ified
ess im
el f
sa fer
tun nel
Ger ichte
Gleich e
schre cken
rec ital
irgend welche
comb ine
Griechen lands
launch ing
Yes terday
Hoheits gebiet
diox ide
R uf
R ather
W yn
g ift
wir r
ges unde
uch ten
Inter pret
Lu lling
Entschließungsantrag s
Alle in
mitglie d
adjust ments
bann ing
broadcast ing
S ing
c aut
f i
Re ich
Sch ande
bet one
defin itions
einge hend
Ob ama
Völker recht
bek istan
freiwill igen
veränder ten
or gen
le hnt
ag ents
weit em
gel aufen
dür ften
stop pen
rück en
beur teilt
Cam bo
compla int
Generaldire ktion
zuver sichtlich
1 10
l ächer
w ahre
er kl
se lling
ges prä
Haushalts kontroll
Beispiel sweise
Straf verfolg
J ordan
T ha
p ity
en forced
be acht
kon sum
kon zept
mer it
eigen er
einzu stellen
schä dlich
sus pension
veran las
D ereg
K unst
er regen
ver öffentlich
aus genommen
vor bei
br anche
ik s
schä tzt
diesbezü gliche
er mitteln
in vent
ge ld
ge fällt
ic ate
auf getreten
ges enkt
alle vi
wel ve
rec ip
grundsätz liche
Schä tzungen
komplex en
Opt im
8 7
E O
un its
re cession
fin nischen
Zu verläss
initi ate
understand able
Nor m
amb od
Chance llor
hy dro
Proz esse
qualifiz ierter
Abstimmungs stunde
exec ution
8 1
F air
K yi
h ide
te ch
zu fügen
ver danken
el ess
ult ane
ug ung
gleich ung
resol ute
wär mung
Nor mal
unmittel baren
ergeb nisse
judic iary
Allt ag
t ausend
aus stattung
Die jenigen
oper ates
zahl reicher
fav oured
Rand zio
Errungen schaften
Vermarkt ung
D rei
W ann
ent scheidet
vor legt
ste he
cur y
Inter oper
lä che
ko oper
renew al
Zug eständ
Kommissionspräsident en
Pla th
Beobachtungs stelle
Sau di
G ast
p est
t abling
Ö kosystem
ig ter
gemein t
Se ele
eng ere
verein baren
freiwill ige
glaub würdig
Etikett ierung
V alen
er er
tens ion
instit ute
complex ity
Su u
controll ing
C ash
s witch
form ing
energ isch
sc ore
administr ations
eindeut igen
bi ometr
E B
st ä
sch wächen
Re präsent
An sätze
ban anas
hes it
harmon ization
Handels beziehungen
zentral er
enhan cing
profession als
secut or
caut ious
Valen c
A qu
B 6
d liche
g ments
encour ages
zuläss ig
G ute
at o
ber ühm
con junction
ff ens
ank omm
profit able
simplif ying
symbol ic
palästinens ische
Massen ver
Jed es
avig ation
herbei zuführen
geänder ten
he m
Mit gefühl
po und
produ ziert
establish es
subsid y
Konsequ enz
bedauer licherweise
sele ction
b ahnen
z ones
Verantwort ungs
jähr liche
überw unden
proz esse
sess ions
copy right
B G
I sol
ver geben
geb rochen
ihrer seits
Dritt staats
angehör ige
derog ation
ab hängt
dis appointment
ständ iger
priv at
short age
stre it
anders wo
Eing ri
verhält nisse
plural ism
nament lich
SW IFT
preserv ation
t ig
ing re
Ver n
In haft
An bau
ac adem
schwerwiegen de
Certain ly
ge führte
Instrument s
einge gangenen
Per spective
concentr ated
Colomb ia
ar es
vo ices
demonstr ations
verurs achten
Halb zeit
Statt dessen
i ated
ung arische
ur ged
we igh
aus gesch
uns atis
änd ig
änd igen
Über mittlung
sus pend
biolog ische
Kategor ien
Flot te
Tran sa
S even
it ive
im balances
wh ite
arbeit er
rel uct
know ing
communic ate
abzu schaffen
tele phone
bek lagen
bemer kt
Bestät igung
I deal
K andid
ge fangen
res ign
res idents
Er hebung
bis schen
beg leiten
trans mission
Sign ale
Vier tel
Vot um
W ass
a wait
im plies
mo sphäre
bel n
pack aging
Vie h
Mik ro
ch amp
zu halten
ver hängt
versch oben
Tür en
Schluss folgerung
Erfordern isse
c ere
s we
in f
an stelle
the tic
ut s
tra ined
Reg ions
sum m
Fe uer
höch ster
Zivil bevölkerung
dauer haft
medic ine
brid ge
mith ilfe
ver stößt
best anden
invest itionen
fas sten
Yugosla v
Garc ía
A ung
d ates
d ialog
en rich
ab gabe
Aus liefer
Sch e
Ar ctic
bo y
organ ising
sim ultane
var i
reject ing
Legisl atur
belong ing
deliber ately
erkl äre
N ab
j u
an erkennt
ar ro
de vote
wor über
Gr iff
sc rap
acqu ired
Beschrän kung
suppl iers
ankomm t
L ar
S pre
an passen
Re cent
cr y
Haushalts behörde
spect rum
explan atory
spät estens
Beam te
Any one
Ice land
R am
im stande
ag ers
gr aus
organ e
trau r
char ter
wider spricht
analys es
Prä ze
exter ne
konsult iert
gir ls
0 7
St amm
fin ished
stell ern
sur plus
continu ous
interess ieren
Gewä sser
Gesamth aus
be gehen
ver öffentlichen
ver fassungs
em it
auf nahme
ad ul
qu er
Ab tre
Menschen leben
terror istischen
Präsidentschaft s
gü ter
Kar as
D re
es ca
re tail
inc ur
inc lus
dam al
Zu erst
Ch irac
cal m
bew us
erfolg te
Kennt nisse
Mc Car
compon ents
clon ing
Präze denz
6 9
aus geht
ze pts
rä ger
Haushalts ausschuß
dig ungen
bear s
rig id
jur istischen
Eigen schaft
jeop ard
Ausnahmere gelungen
einseit ig
d y
z ip
auf geführt
all ies
St ör
schä den
normal erweise
sad ly
dereg ulation
B ord
l isted
work er
inv itation
Fisch fang
Entwicklungs ziele
wider sprechen
mobil isation
sensit ivity
R ound
S oft
il og
dies mal
Ver urs
Gemein sam
lu ck
Produ ktivität
Durch schnitt
official ly
break ing
entscheid ungen
Wal es
Indones ien
sin ken
trace ability
Konsument en
O bst
mo des
eng agement
fest legt
scheid ung
wish ing
Je de
gelten d
separ ation
Detail s
privile ged
Imp uls
T ues
p age
be wirkt
me tr
wa ve
kommen de
ful filling
fisher y
Kraft stoff
kür z
formul ated
Jun cker
0 16
I ll
S ak
e cho
i os
è re
an teil
de hnung
dem zufolge
Pro cess
respon ded
aufzu fordern
optim al
genü gt
aggress ive
dor f
earthqu ake
j ugoslaw
ä ss
an ca
ig o
Ver ordnungs
bereit schaft
System en
Frei will
gelten de
israel ische
intoler able
Kolumb ien
E quality
m em
n omin
u ge
ver weist
nicht ungs
An gleichung
pre d
Rechts akte
milit ar
Rei hen
Klim asch
vorschl ägen
kommun istischen
shoul der
verschlechter t
sch icken
In stabilität
ap proving
unter einander
nach zukommen
min ors
pri ot
Dar aus
Dienst ag
Qual ifikationen
circ ulation
defen ded
Wä re
univers ity
loc ated
Cast ro
se ats
tens ions
besch re
Außen handel
ither to
sk andal
Gegen seit
Kampf es
Friedens prozeß
ausreichen den
entreprene urs
getrenn t
Ank ara
plat form
Colle ge
Pot ential
Nab uc
f atal
zu teil
Er wachsen
anz ler
Le tzten
verl aufen
substant ive
Zwischen zeit
conce al
elektron ische
Rent ens
hous es
Folgenab schätzung
scar ce
cofinan cing
Tues day
ge worfen
Ver wirr
ex isted
Ukra in
Koordin ierungs
block ed
benachteil igt
ung leich
pro t
ck ten
inten se
wider sprüch
indic ations
sämt licher
Quest ions
Wä hl
consolid ated
depr ived
b innen
re pressive
ar isen
auf weist
The matik
Aus r
ass ent
Comm unities
organ s
13 7
jud ges
intens iven
einheit lich
stag ung
See verkehrs
Kommissionsmitglie der
Flot ten
F al
G olf
R ich
T ob
an scheinend
re fra
rä umt
Um stand
dec ommission
Welt wirtschaft
structure d
beschlossen en
gründ liche
pension ers
Bö sch
Ernährungs sicherheit
Conc ern
unsatis factory
Nabuc co
ta ire
if ikation
sh ore
hand le
einzel ner
Bio technologie
P ensions
W esen
g ingen
re bt
mit ten
We gen
Aus dehnung
ill a
vent ure
Den k
Bal i
relev anten
Prä m
stabil isation
Stre ben
optim istic
Sk la
advoc ates
Ausnahmere gelung
entail s
appl aud
Autor ität
will en
ot al
Tr ink
Form ul
continu ity
vorher igen
pap ier
L iz
d are
ro te
ge we
ver gleichen
ra chte
St ein
inc ap
kl agt
hier mit
stab ile
Que cksilber
habil itation
F ord
H on
s l
ur ies
err ichtet
Haushalts ordnung
Dar an
minister ial
Rück verfolg
Anpass ungen
Wyn n
U R
W ind
at ie
aus schlag
Aus wirkung
Kon sum
Dies bezüglich
strateg ien
At mosphäre
hervor geht
schuld igung
re z
re actions
moment um
heraus gestellt
Verhält nisse
gewalt igen
spie gelt
contam ination
exempt ions
Dal ai
M is
u um
in haft
The or
vor ne
Ro ad
Verl agerung
Milliar de
entwurf s
sal aries
außen politischen
tariff s
Hem m
an lässlich
Un ru
wä sche
cr ates
einheit liches
Co el
diplom acy
team s
teach ers
derog ations
Merk male
Vorsorge prinzip
C limate
s kept
aus ländische
legal e
cris y
mis leading
undermin ing
Kandidaten länder
detriment al
Cash man
y ield
zu gesagt
prop aganda
air line
fehl enden
territorial e
elimin ating
bio technology
issu ing
Menschenhandel s
jour ney
emor and
in land
reg n
Dire ktor
Bur undi
custom ers
soft ware
Verwirr ung
L einen
an stehenden
Sch ad
Ein fuhren
gu idance
social ist
reform ing
Verantwort lichkeiten
seem ed
tour ist
Meinungsverschieden heiten
A la
D ör
P hilosoph
e g
in jur
Ko hlen
text iles
Organ ismen
Spe zial
Nahrungs mitteln
Go od
Ele ktro
Resolution en
glück lich
leg ungs
Ein en
zum achen
fahr zeuge
Off ens
bek unden
mix ed
Medikament e
gescheit ert
Sing ap
R ein
d ächt
k new
the ory
re p
re put
auf weisen
ste ckt
Sch wächen
Ja ck
law yers
schne iden
atten ded
Spe kulation
oul ou
macro economic
forese e
kamp agne
esca pe
Klimasch utz
G old
p one
u en
ö pfen
an fangen
be legen
wi den
igen den
stell vertreten
Welt krieg
Asyl politik
ausführ liche
Bu iten
book s
s hap
t one
and auern
ag og
la undering
mer cury
Im porte
zeich nungen
bil anz
demonstr ating
Gu atem
hop ing
Streit kräfte
hypo crisy
europa weit
preser ving
recip ient
Coel ho
es cal
un miss
re produ
auf kommen
Ver spät
ck x
dis ability
ange fangen
muß te
Schl üsse
obje ction
ref using
worth while
domin ant
Z ert
n iveaus
ro l
20 50
fl ations
altern ativen
Don au
Entscheidungs findung
frequ ent
redund ant
kapaz itäten
Oli ven
p ig
ch ed
ch ief
ational isierung
Sta dium
legal en
Wor king
though ts
elect orate
später en
attra ct
distort ions
autonom ous
coal ition
Registr ierung
begri ffen
0 17
e co
n öten
t um
al ition
sch iff
zu gehen
os ing
dis appointing
fähr t
nehm ung
Serb ian
ersch wert
ernsthaf ten
Net to
Betrugs bekämpfung
ie ß
Ver haft
Ein vernehmen
international es
har sh
reform ed
post pone
Ansatz es
zweifel sohne
Sowje tun
L ücken
ein schränken
wirtschaft spolitischen
Em bar
carr iers
front iers
capac ities
reveal ed
G P
K reat
ra gend
et abl
ree ts
Kom bin
Sp itzen
she ep
dre w
courage ous
gap s
poten ziellen
Hongkon g
Sowjetun ion
D anu
T S
h ur
t welve
al ts
be har
Ver hof
ident ifying
Er läu
ill on
bre iter
financial ly
gere chnet
vereinbar ung
Alban ian
breach es
Grem ium
zun ichte
redund ancies
verdeut licht
Legislatur periode
7 2
K ore
an chen
st reets
dis covered
pen den
auth ors
Afr ikas
verl ängern
Beitrag s
betreffen de
deli very
abge deckt
inspect ors
Danu be
C r
G od
n utzt
in ent
be lastung
ten der
vor sorge
bes ucht
fr ame
Kon zepte
Me ilen
Lin ke
zeichne te
zöger t
erzeug nisse
geograf ischen
Divers ifizierung
in security
ber gen
wer ter
aus drück
An hän
pr int
lear nt
hä us
ifiz iert
verantwort lichen
National staaten
ethn ische
iebe hörde
schn itts
Pet itionen
automat ic
digital en
swift ly
en em
ge öffnet
ic ts
über wält
Sch le
dar legen
Ein setzung
fahr ts
Am nesty
Pl ural
Bas que
pursu it
M i
h ändler
zu genommen
national ity
Se attle
kom peten
Vereinbar keit
col onial
klausel n
Behin derung
arbitr ary
ausgede hnt
C her
a waiting
c ra
fe ier
llen ce
scho ck
tenden cy
summ ary
inclus ive
z err
zu cht
end anger
mer its
tens iv
vers orgungs
express es
Herangehen sweise
Verhof stadt
f iel
un ken
and in
Gr ön
gew ichte
Sozial modell
Ex porte
orient ed
mas sa
bürokrat ischen
übersch ritten
oppon ents
E t
G ott
the men
ber au
An hebung
ass ert
Mö glich
kün fte
bol lah
niedr iger
infringe ments
contradict ory
l ings
pl ing
fl ug
Wahl periode
Christ mas
Beitritts ländern
dro hen
pap ers
sudden ly
G B
g le
ort s
emp hat
find s
aid sch
Chr is
week end
bro aden
proto koll
angest rebt
kamp agnen
reconc ile
Interoper abilität
N on
ger ät
Aus setzung
bes uchen
unter liegt
ausge weitet
Lös ungs
appropri ately
schä tze
fil m
bir gt
touch ed
inhalt lich
distingu ish
Grundprinzip ien
phr ase
K as
M ah
dem nach
aus geben
national es
ange geben
new ly
eth ischen
rec kt
bek und
nieder ländische
Wald br
administrat iven
stamm t
p regn
th ro
Re zession
über gehen
wor sen
ann immt
want ing
transport ation
soon er
Are a
enthus ia
recru it
vorant reiben
Verurs acher
A dam
R A
k ub
n itten
ein stellen
Parlament arischen
ün del
Maß stab
anzu bieten
Tit ley
Luf traum
Concern ing
Be förderung
Über sch
af ghan
Gese tzen
gere ien
kom ple
EN P
korre kte
tsche chischen
I K
M uch
sen ior
Sch ü
Menschen würde
wieder herzustellen
care er
Diskrimin ierungen
an wend
te ten
co ins
strateg ischer
Organ ization
success es
att itudes
gesetz liche
geäuß erten
complement ary
length y
deterior ation
offic ers
offen ce
Hau tal
abzu bauen
wesentlich es
newsp aper
Zuständigkeits bereich
Aufr uf
fakt isch
7 3
Z igare
g rem
ung lück
aus ländischen
Wir tschaften
Er ziehung
gu ard
Gem ü
speak s
Verwalt ungen
pet itions
depend ing
ED F
agent uren
C ustom
M auer
the me
agre eing
geschlossen en
euro zone
sec uted
sofort ige
pu y
häuf iger
nuklear en
n it
p ens
er bringen
ie hlt
zu gehört
ir anischen
tr ig
Gemeinschaft shaushalt
Sou thern
legitim en
mel den
compens ate
Tele fon
constitu ents
schwerwiegen den
Director ate
J ob
f ia
é r
se ch
zu wider
ad journ
tre ffend
restr iction
prison s
incor rect
Tun nel
permit s
Plenar sitzung
nismäß ig
L ange
k ategor
en det
be zahl
des crib
über sehen
under lined
gesch ah
Nord korea
Tro ika
grün de
Umweltschutz es
Erfordern issen
Hautal a
B C
P in
S urely
c ensure
k ö
ge ared
Be griffe
St alin
ih nach
exce llence
Grü ne
Versch är
Prof it
kil om
Commun ication
detaill ierte
icul ous
Rü big
0 10
S y
re im
pl äd
Wahl beob
log isch
Thun fisch
ic ism
da c
In flations
sh ut
An schein
Er holung
alt ar
Zyp erns
slow ly
flexib ler
Hunder te
Dol met
0 15
ant wortet
par ame
ces sed
real ities
ko st
advoc ated
definit iv
nut rit
indigen ous
Wähl ern
D or
K now
o ted
Rahmen programms
glichkeit en
Gen f
big ger
Mos cow
religiö se
Polit ical
begrüß enswert
vigil ant
deva stating
B or
z oll
ein heim
sch ungen
iss ion
aus drücken
Zu frieden
lau ten
lang wier
belong s
CF P
Lö hne
kred it
8 3
L anno
k illing
Ein halt
Inter ventionen
EC R
erziel te
erb ai
wissenschaft lich
acqu ire
Rumän iens
Az erbai
whol ly
Cub an
andin av
Azerbai jan
e hren
mit ig
ien cies
ap ers
kl and
Erfolg s
irgend eine
größer es
vorrang ige
verlänger t
A ch
b alt
d imin
tent eil
cent uries
Zwe if
Sicherheits standards
vertreten en
stabil en
Belast ungen
thir ds
scen ario
Asylbewer ber
V ere
m utz
p feiler
at ischer
be danke
au taire
ber ichts
In halts
Aus bruch
obje ktiv
burg h
excess ively
städ tischen
Shar on
tenteil s
F lu
ch urch
re de
up date
Rechts akt
plan en
zurück gezogen
sm ugg
unge w
funktion ierenden
Zivil isten
Trag weite
Herkunfts land
Treibhausgas emissionen
K of
ver suche
em bra
um gekehrt
ze igte
pa ßt
Über prüf
nachhalt iges
cau tion
öst lichen
mobil ise
Massenver nichtungs
s werten
zu zulassen
ver gabe
co operative
Ent last
mehr jährigen
ausge wä
Entwurf s
dram atischen
schaf ter
meaning ful
emorand um
R a
be vorzu
il ation
aus schließ
Sch wäch
mor gigen
sozial es
maß nahme
mis er
Vorgehen s
weap on
katastrop he
exem pl
proble men
österreich ische
én dez
un nötig
at ter
clo thing
einzu bringen
condem ning
Sitz ungs
undermin ed
ries ige
Auseinander setzungen
alli ance
Lanno ye
L ud
al ban
ct r
von nöten
Aus sichten
mehr mals
zw ingt
Bere its
Energie verbrauch
mut ually
regul ierung
Verkehr spolitik
Sicherheits rates
Hier bei
ira kischen
Betrü gereien
c ue
re pair
ul en
In dem
größ tenteils
hervor gerufen
Industr ien
Geld wäsche
pass ive
tradition elle
unver hält
fruit ful
emot ional
Pfle ge
C C
N ext
c igare
h itherto
er suche
zu gewiesen
An sehen
versch w
Plan eten
senten ces
b old
e i
in ser
ent ities
uss y
Sie b
Europa abgeordne
comp are
hervor ragend
Med ia
Gest alt
dep loyment
purch ase
Custom s
0 20
K W
V ater
s at
us a
cost ly
subst it
Ob gleich
moder ate
Tsch er
Lo ok
Bot schaften
wissens bas
F ound
M S
v ac
ü mer
is st
ein st
ein gest
Un zu
men ge
ind is
Le uten
organ isms
reform ieren
innov ations
return ing
jetz ige
Soll ten
newsp apers
Cher nobyl
reim bur
V igo
h ot
re ception
ver einfach
kl am
fehl er
individ uellen
Lissabon ner
class ification
Assozi ations
Ernähr ung
vertie fen
H ass
l abor
u ität
ment ions
mit beratenden
art ig
wert vollen
Nor way
schü tzt
Währung spolitik
Bro ek
Energieträ ger
v age
at trib
res ident
Ver schiebung
Be ton
pr ud
deut lichen
harmon isieren
liberal en
deliber ations
depart ments
Sever al
veranlas st
K ein
K abel
in compatible
aus reicht
Re ferenz
iv ile
Ab fällen
produ ktiv
bu ying
anzu sprechen
stän den
adapt ing
neues ten
Bese tzung
pfl anzen
cance l
zweier lei
er schüt
in comprehensible
if ul
por ten
Con federal
Ne ue
klar gestellt
Haushalts linien
ater ally
Med izin
Fä l
refer endums
char ged
lot te
alloc ate
sett led
cert ific
cert ification
prejud ice
flü gel
be trag
Be hinderten
Sch wach
inc iner
legisl ator
serious ness
wahr genommen
Gü lt
Kriegs verbre
Roc ard
E lles
F ac
M igu
R üstungs
an bau
ie de
Ver br
rä te
zw ing
sub vention
Fort un
commun autaire
subst anz
derart iger
Vorbe ugung
stechn ologien
unverzicht bar
J an
tr ennen
el led
vor mittag
ungs systeme
out line
Ab schnitt
work able
Is land
nü gen
entscheid ung
Kü ste
freiwill ig
serb aidsch
R au
p ac
u ous
un dern
con ver
über schreiten
br ü
Politik ern
sk a
jud ged
expect ing
Sicht weise
Sto ffen
sinn volle
Mobil isierung
rhetor ic
Soft ware
A to
bei getreten
war t
pre ferences
Zusammen bruch
Sozial partnern
guar ded
Nor wegen
bank rupt
nachhalt iger
ES F
Hoff entlich
empf iehlt
nütz liche
Begriff s
Az nar
GF P
verdeut lichen
Ster ckx
proportional ity
manoeuv re
Rückverfolg barkeit
Tscher nobyl
A serbaidsch
f ro
it ären
auf geben
Be wohner
Sch wanger
gem isch
dis cover
sup porters
mat ernity
Betr ieben
Flug zeuge
Os lo
Kooperations abkommen
argu ed
Conserv ative
mem ory
E p
E TA
ter er
voll zogen
kr ie
Bar ing
conne ctions
ras chen
Völker rechts
Wohl stands
Atom waffen
haf tet
mother s
be denkt
ab gest
aus zur
end iox
inter fere
zwe ig
Besch leun
statt fand
found ing
ager ungen
Lam fal
counterfe iting
Olymp ischen
Dereg ulierung
3 50
G anze
P op
de cess
We ihnach
Er it
Aus gehend
pre decess
proje kten
auszu bauen
Flug gäste
liber ty
Unionsbürger schaft
Reicht um
interoper ability
K äm
N ass
r on
t agt
ge drängt
fe il
dis proportionate
che aper
contin ually
To gether
wic kelt
bedau ert
Blo kland
Büro s
Philip p
7 9
B ritt
M ord
in vo
vor gegangen
ze hnt
beit räge
nach mittag
Unter scheidung
int im
Über zeug
lu xem
mention ing
demokrat isches
Stra fe
stre cken
Mor atorium
bezogen er
Baring dorf
A id
T R
e fe
s y
z on
al isierung
aus bildung
Re feren
Sch ein
Sch iene
diff ering
Industr iel
feel ings
verb ände
Mc Kenn
According ly
Fortun ately
V I
h är
Par ität
tra p
war ding
Le one
Teil s
char ta
Hier zu
bill ions
mag n
Gra efe
ü ger
con ferences
su dan
ac ute
ass ment
Unter lagen
Auf wand
Te am
ster ity
competit ors
bl ing
pain ful
Pa kets
Kontin uität
transl ated
geplan te
apolog ise
erfreu lich
Passag iere
Gesamthaus halt
F eind
S ac
un a
alle ine
mar t
Bel ange
hy giene
vorrang igen
Kal ining
ersta unt
Zielvor gaben
Zufrieden heit
F ert
H u
T urning
er l
un just
re course
be fre
ing ly
par ent
Er ör
Über setzung
own ed
colle cted
schä tzungen
empf ind
toler ate
steigen den
beträcht lich
tag ung
restric ting
Eth iop
Nichts desto
Gegenseit igkeit
N ob
a warded
Ver trieb
In tensiv
gel der
rat s
Über blick
Ges che
jud gments
heraus stellen
mun icip
intensiv ieren
slo wen
Dim as
bewaff neten
GAT T
McKenn a
N ame
er hielt
ie in
ur ances
mit unter
unter richtet
best ra
Land e
bin det
auszu sprechen
Antrag s
gesundheit lichen
Bedro hungen
partial ly
Schattenberichterstat ter
L amped
P ac
g ige
s hel
st ir
be legt
Ver weis
hin reichend
Verbrauch s
rece ives
recommend s
Wochen ende
schäd lichen
vit ally
konfli kt
Massenvernichtungs waffen
A li
S OL
w olle
ã o
ein gangs
ol ive
zu weilen
end ors
co operating
Ent schuldigung
ans atz
zeit lich
country side
Schutz maßnahmen
Wes halb
umfang reichen
scandal ous
ape ut
Geschä fte
dim ensions
Kombin ation
7 4
E qual
R auch
re unification
im a
op ing
wor um
di ents
Th ree
ser ving
Kon gress
Europa wahlen
kel n
Fre unden
analys iert
irgend wann
murder ed
Hunder tt
Amb itionen
C urr
W in
it ary
or ge
schl ägen
Forsch er
recogn ized
offens icht
Eing reifen
Ungleich heit
balt ischen
K ambod
s cour
al leg
ly n
li quid
fisch erei
destin ation
Fil m
smoo th
de penden
schl üsse
geb oren
real istische
allow ances
hear ings
lö st
regelmäß igen
schö nen
audiovis uellen
Subst anz
jeop ardis
herz lichen
Behaupt ung
Kohl endiox
simpl er
ingre dients
Unzu län
Lamfal ussy
luxem burg
p to
z ivile
qu asi
dis regard
Fin ance
On line
cru el
laub nis
Energies e
proz ent
Zigare tten
W he
y ard
un clear
ar di
inter institutionelle
dis armament
inst ances
ru led
stra fen
Priv ileg
manufact ure
Ermittl ungen
Referen den
G il
im prison
sp err
op ole
ex ze
if un
Sch ro
beg ann
Euro dac
No bel
vis ions
cap abilities
Sp iele
exc ise
eing reifen
Freihandels zone
ober ste
Alex ander
R ä
d ition
th iop
un längst
ab sent
ant ibiot
lo ve
unter worfen
ak h
Min imum
geord net
Mon ats
UN H
ator ies
Wahr nehmung
Sport s
Trans atlant
koordin ierte
destro ying
qualifiz ierten
Sensib il
subs cri
ermor det
incap able
Beschleun igung
c old
er fasst
Ver arbeitung
Un gerecht
li ved
her steller
bre ast
red istrib
einge laden
Wieder belebung
Indi an
Op port
Ost se
beschleun igt
Gebäu den
Verschär fung
Lamped usa
H ug
m ig
re ine
ar ow
ein geschlagen
ein dringlich
pro active
po sure
ins k
ak ultur
techn ically
Br and
Haushalts disziplin
genau en
Terror an
Mal ays
belg ische
forese en
verle tzen
Orte ga
Aqu akultur
Seven th
L isten
ge folgt
au sterity
Ge wissen
arbeit ete
wel ch
add itives
Umwelt verschmutzung
demonstr ieren
influ en
Schw eine
drast ic
severe ly
assum ed
techni ques
t ight
fü ge
ens ionen
Vor kehrungen
any body
problem atik
Über legung
muß ten
heraus ragen
mach te
Found ation
ad here
vor stell
Ge flügel
pl atz
ass urances
har ov
vi ability
sus pect
block ing
strukture lle
dup lic
Sak harov
H äft
K ünst
Z a
l end
ein seitige
we ib
Re cycling
pr on
ide ology
sup plied
Mar itime
Wahl kampf
umfassen des
typ ical
Befug nis
equip ped
retain ed
geschä tzt
erkenn bar
Präzedenz fall
reput ation
zwing end
M et
sp her
op ens
Inter ventions
prom ising
liberal ization
divers ification
content s
Rad ik
beweg ungen
Bow is
Zweif ellos
K openha
M O
w is
th es
be fr
wirtschaft liches
Ant ibiot
Fe ira
wahr haft
kurz er
eth ics
Einsatz es
gewiss ermaßen
hosp ital
überflüss ig
Kopenha gener
T uber
k äu
be have
ver br
ad minister
The ato
wa days
wä che
entr ust
klär ungen
Bed ienste
arbeiten den
Person ally
beding ten
Struktur reformen
Stabil isierungs
Zoll union
gerä te
wohn ern
forecast s
f at
v ierte
en comp
ge fahren
ge meldet
auf zustellen
ts ein
lo op
bet on
Verantwort lichkeit
pass ion
humanit ärer
interess anten
atal og
Anhör ungen
kohär ent
Tha iland
Whe ther
C D
k us
ro les
ne tzen
An dr
Europä ischer
sam meln
gese tze
deb ts
sozial istischen
bat ter
particip ated
Kred ite
korrig iert
Är zte
Sc ient
formit y
G ulf
S av
ge fäl
ther apeut
Än g
limit ations
Netz es
check ed
Miß brauch
terin är
einher gehen
ie gel
Unter brech
führ end
10 3
Mehr zahl
Wor k
request ing
rein forcing
push ing
Befürwor ter
Be fried
chem ischen
orient iert
Klar stellung
dram atisch
Go then
radi ation
Anreg ungen
imp unity
Befrei ung
Vern unft
Philosoph ie
e chter
st al
st ers
ge o
Er stes
Ein heits
ok ol
Zeit ungen
Recht fertigung
wach sam
hig end
Statut s
Straft at
Kalining rad
t ö
t ische
u ay
sta ates
Ger äte
Ind ivid
Fre ie
activ ists
klein ere
fort fahren
vorzu sehen
beteil igung
aufzu heben
zä hl
entgegen zu
vieler lei
auseinander setzen
Effe kt
lift ing
ersta un
dismant ling
inj ured
Bekannt lich
Jack son
D ap
ß ig
be wirtschaftung
we ichen
under lines
kle are
Pl ans
prä vent
auszu schließen
entire ty
highlight ing
Sach arow
bound aries
Bü hne
Gothen burg
P or
Be kle
ac ulture
ord nen
Ab w
ffe kt
isen berg
let ters
dom ain
aut or
normal e
mobil isieren
rev ise
Wall is
Gel dern
p y
gesch oben
gu iding
harmon ising
innov ativen
frü here
Nachbar ländern
measure d
Every thing
protest s
umfang reich
prohib ited
liber ties
Differen zen
Dap hne
K S
d il
h aber
Ent ste
Ge is
Zeit ung
Se ch
gehör igkeit
sk y
Steuer politik
condu cting
bürger lichen
mist aken
vertrag s
verw altet
sil ent
Du isenberg
ineffe ctive
er worben
ver fasst
ver mögen
nen nt
like wise
iz en
partner schaft
rec ke
front ier
diskrimin ierung
diskrimin iert
Kapaz ität
förder ungs
Rechenschaft spflicht
ü stet
be lasten
ungs weise
wä sser
Pr im
orient ieren
send s
Autonom iebehörde
B ag
S oc
b üro
pl ent
pre condition
fer red
einzu schränken
Rück führung
groß artige
kompliz ierte
Demonstr ationen
Mas sa
deem ed
Lud ford
E ch
c ards
d um
pol itiken
Ber ès
wel coming
air space
car ious
auszu weiten
gra ding
relev ance
distort ion
obligator ischen
psych ological
D aul
J ung
er weist
ch ose
aus gebaut
wor ry
ystem s
entsprechen der
Preis stabilität
Turk men
Energies icherheit
Dis ziplin
Fü ßen
th y
be freien
res cue
Th om
pr is
che ll
eng ag
Me an
Ne ues
press ures
pend ently
Aktion spläne
Sup port
Erfordern is
begünst igt
Guatem ala
Kof i
R ot
c osmet
e chn
aus macht
coun ting
ins isted
Minister in
Best ands
akzept able
Sum men
Frankreich s
stu fen
Nah ost
Bürgerbeauftrag te
hochwert ige
G N
S and
h i
ge gründet
pro cessed
auf rufen
ad visory
gesch ritten
olog ischen
lack s
sk il
Personen verkehr
sonst igen
versicher t
dor thin
install ations
J en
P harma
ge denken
für sorge
sp reading
lin king
min ing
Bal ance
mass iv
Mün zen
schmer z
häl ter
G arr
zu stand
ab gebaut
dem selben
her ange
Unter richtung
besser er
Zahl ung
gerade zu
Je den
bedeuten der
Ad res
zufrieden stellend
Glück wünsche
rev id
Gew iss
chr on
Mutter schaft
veränder te
incident ally
Versorgungs sicherheit
D ür
O t
er og
ver pflicht
kt ar
ex tradition
pr erog
most ly
spra ktiken
Spe ktr
Akte ur
Kl asse
Cambo dia
G SP
ver weise
em e
ne o
la v
ant ini
Gro s
Berichterstat tung
bereit gestellten
Ha ar
nehm lich
compat ibility
discre pan
dependen cy
Mean while
p hon
z onen
we hr
sp otenzial
vor kommen
sh ed
Aus wärtigen
Fr an
Finanz transa
deutlich es
erb racht
threaten s
begrün den
oppos ing
surve y
verbesser ten
Diplom atie
0 18
d istr
gen e
aus schließen
St il
ap plause
dis agreement
tem per
Em bry
Rom puy
beauftrag ten
Gerichts verfahren
ASE M
Conserv atives
verwen deten
accus ations
E ar
R EG
m ern
un ent
St immer
str itt
kann ter
question able
vis its
Best ra
zusätz licher
mass iven
gän zlich
Waffen still
jur istische
Mü ll
Nu clear
Hel ms
M éndez
f abr
Š pid
be ina
ver häng
ab in
sh ops
je derzeit
Ent fern
transp osed
schul den
Kompromiss es
Tät igkeits
separ ately
Kle inst
sprü fung
prohib ition
unnöt ige
beina he
G D
P rag
W ater
n app
ow ing
wo hnen
Es sen
Tr ilog
ater ie
Verfüg barkeit
Oper ationen
foss il
Špid la
G or
K all
R ake
re placing
de ple
im pa
el and
Mit chell
Vor fälle
geb ührt
Ko dex
sc ape
Fe ld
inform ing
Entwicklungs fonds
Menschenrechts lage
attem pted
Fun ktionen
empf angen
afr anca
Sal afranca
Zahlungs ermächtigungen
Kernkraft werke
zit ieren
obligator ische
conven ience
S ob
S org
ä glich
ab warten
su it
An statt
Ge iste
offens ive
lob ally
Real isierung
Prozent satz
slo wa
senten ced
p it
u ert
ver mehr
ut ze
fa ß
gem achten
pre carious
sol le
some where
gesch lechts
hier her
cas h
gent echn
ausgewogen es
kauf t
ham per
bestre bt
beherr schen
ä hern
ü sten
un realistic
ein tritt
ag te
has en
cy n
trans formation
Zukunft s
Mehrwert steuers
verwe igern
k id
be denk
ier bar
har ten
legisl ators
emphas ising
blo c
industrial ised
teach ing
herrschen den
Sloven ian
decreas e
Rund funk
f ly
p ir
al together
re lax
An gabe
Er suchen
pres um
che z
Le hre
Netz werk
mode lls
bese tzt
depl ore
suspic ion
refra in
k ommiss
sp osition
ident ical
war nen
min en
Le ague
zwe imal
Br anchen
jen ige
Standpunkt s
export ieren
gebie ts
Ratsvor sitzen
Völker mord
chines ische
chap ters
Grad in
Stimm abgabe
Block ade
Nass auer
L ord
as ym
ve he
ip pe
oper ated
Tr end
inde pendently
herr schaft
Arten vielfalt
vorange trieben
motiv ated
Vorgän ger
confron ted
Trink wasser
A gain
F as
V IT
as set
ge forderten
ver wand
li hood
kon tra
Grund recht
Finanz hilfe
hol der
transpar enten
prefer ential
attach es
G ibr
b ag
on do
ies en
aus wirkt
europä isch
ast on
produ ces
vers ä
safe guarded
Vertrags verletz
gering füg
Car ib
profess ions
dur ation
recipro city
pornograph y
Etap pe
Komplex ität
Formul ierungen
Sob ald
E ck
M und
P ur
r assist
z ing
ag d
ex posure
Grund züge
verl iert
max imal
Rand e
strik ing
nör dlichen
SOL VIT
G O
k ore
re location
ge wirkt
ve terinary
qu iet
br and
kl ug
geb ühr
less ly
law ful
sc ene
Dam als
nt ag
formul ate
exerc ised
appreci ated
iling ual
zweck mäßig
Spr ing
intern ally
M un
d rag
w rote
es ische
im balance
Ir lands
kur d
harmon isiert
rid iculous
künd igung
verantwortungs volle
Grö ßen
schedu le
Gebur t
Pir ker
prece dence
confin ed
Gült igkeit
0 12
G au
S und
V iol
he ct
grund lagen
Ne hmen
Tr aum
global ised
gegenüber stehen
gele iteten
pat tern
multilateral e
depart ure
Komment are
Gefähr dung
8 4
G H
U g
s ighted
ver haftet
Ver dacht
An dernfalls
Aus gangs
ug gel
dis appeared
Struktur politik
moral ischen
tie fe
anticip ated
insp ired
Carib bean
C lin
I z
a wa
u el
be lastet
ur an
pro secution
von seiten
co existence
Vor reiter
pre isen
Agrar sektor
blo ß
Fahr plan
rahmen s
Beschluss fassung
Oste uropas
thr ust
aqu aculture
0 13
E EF
W en
m achten
n ice
un ite
un certain
le hne
ge wiß
Ver fe
os ion
mehr erer
versch ul
bit ter
RO M
Verhält nismäß
Berlin er
voranzu kommen
geister ung
intim id
municip al
S ein
to ys
ab halten
cour ses
rei ber
Umwelt verträ
14 0
hinzu gefügt
Arbeitsmarkt es
Mos kau
Wortmeld ung
Coll ins
D um
D umping
L ücke
P h
T ony
n isch
in ability
we iger
il i
ann ten
erg reift
any way
19 70
voll zieh
Dienstleist ung
amer ikan
Urspr ung
Glauben s
Erwer bs
B ünd
ro u
con version
ul tra
To de
trau ms
mot ive
schw achen
genere lle
react ors
seas on
gewinn t
decommission ing
Aserbaidsch an
- .
v ort
chen ko
pa cken
Wes te
dee per
profit iert
Forschungs rahmen
beauf tra
domin ated
wies o
lad ung
Mod alitäten
aspe kte
cultiv ation
Entste hung
Ä hn
in os
ge kämpft
In zwischen
hen ko
vo d
gew alts
contrib ut
verb undene
Vers ion
secure d
expand ing
Gebiets körper
Zugeständ nisse
adjourn ed
exempl ary
C l
W ende
k anzler
s ick
ver teilen
su ic
Ent lassungen
sel ts
pre mature
Al mun
strong est
wahr ung
Geb hardt
deliver ing
kohär ente
Führungs rolle
krimine llen
Almun ia
ent f
out rage
Fra geste
Bericht igung
bo ats
bre itung
reason ably
capital ist
deepen ing
S C
in struct
an dernfalls
hr te
us ions
fe der
Er lass
Zu fall
obje ktive
lands produkt
verbre iten
Konsult ations
afford able
restor ing
kä me
C un
C amp
be if
ic urity
he ll
Ber u
nach gewiesen
sign atures
cor respond
cor rid
Durch bruch
Entschließungs entwurf
AP S
diplom atische
beabsicht igen
Mensch lichkeit
IC T
judge ment
Präsidentschafts wahlen
a fe
er achtet
ag ger
fin ite
stat istischen
Council s
möglich er
Schl acht
Diskuss ions
perpetr ators
Beton ung
Kambod scha
S ack
r ush
un resolved
ol ig
id al
will kür
pos sess
Gr upp
terror istische
Sicherheits maßnahmen
Bulgar ian
Ze ugen
Dr ug
asi atischen
confu sed
B ern
B aum
W inter
g aller
re placement
ge höre
im partial
ver trieben
so p
Be geisterung
Pro gno
cht es
gesch äft
gest ützt
Sozial schutz
kulture ller
Bur ton
verlei ht
netz es
vacc ination
angere gt
vorbehalt los
erl itten
ent ity
us ionen
if en
hat red
An bieter
ap ital
et res
gesch ichte
Ger ichten
He ktar
uni verse
Prinzip s
thro wn
plent y
g lobally
i us
t rop
y an
in sen
ar me
ad ing
per mission
industr ielle
ga ins
red ress
Ap proval
wirksam es
voran bringen
völl ige
heikl en
Rake ten
Verhältnismäß igkeit
beauftra gt
b ans
ver schließen
ir m
fa ktor
dis advantages
rat ory
näch stes
introdu ces
hau l
tät igkeit
speed y
Blick win
comply ing
Schlüssel rolle
Handeln s
fur cht
privile ge
Einwander ern
christ lichen
Verbün deten
Transa ktionen
E EA
S ust
c ommen
d ivid
in ts
sie d
min ded
gleich wert
Sicher lich
istr y
blo cks
oblig atory
rig our
sport ing
Kl aus
Klon en
Mißtrau ens
jeopard ise
Ukrain ian
ir on
sp are
Ver dienst
Vor schrift
Ab stand
pa kets
system atische
mon at
ausge handelt
zeug nisse
prevent s
submit ting
Son ntag
Brutto in
beitritts willigen
Ato men
vehe ment
C lau
F AO
p essim
s is
ge halt
sch ott
Ver trieben
Th er
mar ri
Das eins
ständ iges
chan ces
Ant id
ator ischen
event uelle
wissenschaft licher
mill enn
vergleich bar
accompany ing
überwach ung
C ross
N ich
l oud
ver stand
St iftung
Kon zerne
vir us
komm erziel
anzu sehen
exerc ising
sal ary
sonst ige
sah ara
Lang zeit
Gemü se
h reb
at ro
tra ge
mehr heitlich
ev il
transp lant
Dar stellung
Ur teile
stattfinden den
Bi om
regelmäß ige
imperial ist
cat ches
web site
Interpret ation
unmiss verständlich
Gebietskörper schaften
H ut
f usion
p ure
auf trag
tr än
pe tent
par amount
up held
Mar ken
prote ktion
after wards
turn s
Dokument s
optim ism
jem anden
vertre t
Gleichgewicht s
poten zielle
sozio ökonomischen
Sav ary
O pen
re consider
sp unkten
curr encies
exce eded
schul dige
Mor illon
Schwe igen
hu ber
Weit ere
steuer lichen
occur s
ries igen
stipul ates
F a
l ager
Ver y
kt ives
geb end
Mar g
Regel ungs
künft iger
Pl attform
amb ling
niedr ige
Inst anz
Beste hen
envis age
bürokrat ische
Mag hreb
Plural ismus
Pac ific
Bruttoin landsprodukt
W under
du ly
Kon zepts
bar ometer
gleich wohl
Fisch ern
direct or
spiel raum
bevor stehende
Environment al
ergriffen en
prinzip iell
komplex e
Buiten weg
Intensiv ierung
F ig
R D
h un
h id
er schweren
the ma
commun ist
understand s
nu kleare
Kar te
Vers öhnung
vertrau e
exception ally
Stimm verhalten
L ichte
k reat
co des
ex agger
bes prochen
min der
Wirtschaft spartner
bur ger
kom petent
claim ing
Petitions ausschuss
taxpay er
restor ed
standardis ation
Besatz ung
screen ing
mig ratory
be ugen
hal be
An kündigung
hier arch
ves sel
No thing
adv ise
draw s
How itt
assum ption
witness ing
PV C
0 27
o do
ü ne
st yle
ein schließt
op hil
zusam ment
Wirtschafts raum
sur laub
fair ness
special ist
bisher ige
unabhäng iger
div isions
Auft reten
deliber ate
Erwer bstät
emergen ce
Wettbewerbsverzerr ungen
Kabel j
D up
st ur
and es
Un klar
par teien
Er lauben
ang le
So crates
Mar tens
ausge legt
folgen der
hinaus geht
klein es
cred its
stre et
Menschenrechts konvention
defic iencies
elimin ated
Gü tern
Rechnungshof es
trial s
kontinuier lich
Bom ben
Fat uz
prot ein
Mis str
a er
in tra
ge liefert
de ckung
zu wenden
her an
erg ien
geste ckt
Unterstü tzungs
äuß ert
democr at
Zwe cken
Eng agements
Grenz kontrollen
toler anz
wünsch te
drast isch
bestre it
vernachläss igt
befind lichen
parame ters
H ans
T ER
im pressive
ed ing
ab ide
vor behalten
über arbeitet
unter min
einz iger
Energie ein
Prä ferenz
spl end
evalu ated
grav ierende
Prop aganda
FO R
K eine
Z ölle
vor wärts
hal ben
An schläge
po ol
ong ue
oc ol
af for
gew andt
Tag ungen
kür zung
irgend wie
Vo gel
Nob ody
wis dom
H ür
op fer
la ps
dec ides
bel aufen
bed acht
Stat ement
aktiv itäten
Währungs fonds
Glück s
präsent ieren
Air bus
Pflanzen schutz
volun te
datab ase
kompeten z
Gibr altar
C IT
b ulgar
sch end
id ungs
bei gemessen
pr icing
Um gebung
hol es
av a
Handel spartner
miss braucht
auszu dehnen
contra ctual
Tour isten
Japan ese
Po sten
ökolog isch
record s
White head
Ents orgung
maßgeb lich
prompt ly
Cy priot
Fatuz zo
g reg
r ie
y ards
on ym
ord entlich
nah er
cy c
pleas ant
benefit ing
export ing
Raum fahrt
block ieren
Redner in
Mot to
genie ßt
kul ose
Ve terinär
Hom osex
UNH CR
H ist
in tr
al ive
au r
aus sieht
li ge
ad mir
qu ier
main tains
He il
zurück gegangen
drei ßig
Pe ters
lement e
bl ut
garant ien
Dan ach
verbre itung
erweiter te
strik te
strength ens
mangeln den
Visum pflicht
Schwarz me
emphat ically
G i
N ap
P C
S ene
S án
n avigation
p ause
con cil
op ath
Un less
nicht ung
bar d
Al ba
af ield
Ch urch
Lebens standard
Wettbewerbs bedingungen
assist ing
groß züg
Arbeitnehmer innen
niemand en
Armen ia
rac ist
beeinfl usst
vorbe ugen
thir ty
ali ke
iein halb
pron oun
b one
s ul
ab seh
gesch nitten
Le b
Bürger krieg
kre bs
Rück zug
secre tariat
push ed
endeav ours
insof ar
Roh stoff
besorgnis erregend
Turkmen istan
Clin ton
0 24
e at
i for
op pression
Er ste
pr ide
wa sted
ru in
läss ig
Agreement s
Voll beschäftigung
Cha os
erzeug nissen
Fer ber
Na polit
verbleiben den
rumän ischen
scour ge
Malays ia
Iz quier
au gen
Pro tes
dar zulegen
pre chen
weiter entwickelt
Al p
Mon opole
Miss achtung
evalu ating
dringen den
Zul assungs
Ents endung
makro ökonomischen
phas ing
pollu ter
Schr öder
academ ic
smugg ling
Adres se
kommerziel le
F Y
un likely
re habilitation
ro tt
ent senden
wa iver
Ab wesenheit
tel n
Hau g
Trans n
zun immt
splend id
CIT ES
F requ
zu gegeben
res ume
auf gegeben
In folge
An na
Fr ass
Unter zeich
Rat ifizierungs
Auf schwung
fest igen
liegen de
benef ited
success ive
Interessen gruppen
län gere
stark er
san ction
Tuber kulose
Napolit ano
D ühr
N it
c i
man agers
nah ms
leich te
Dies el
ian ischen
protection ist
sä um
cap t
fort schritt
groß zügig
hinzu zufügen
Kern waffen
perfe kt
genü gen
Vizepräsident en
marg ins
iner y
Halb jahr
trig ger
Hug hes
FY ROM
Frass oni
c lim
s le
al kohol
ungs system
uß en
Kon kret
fer nen
serv ants
Energie bereich
Bes ides
suggest ing
jüng ster
Aktiv ität
Spiel zeug
investig ated
Ziff ern
compl iment
straight forward
Zusä tzlich
simultane ously
bestra fen
imprison ed
versä umt
uran ium
con fine
able hnt
du b
äm men
Se ction
olog ische
bl at
laufen de
spezif ischer
West sahara
grundsätz lichen
Demonstr ation
vigor ously
Aktual isierung
D om
ab schluss
Er teilung
Aus weg
sicher t
Kr is
framework s
Bes org
einzu treten
individ ually
circ le
gesetz lich
Ac cession
Flexibil itäts
d ated
d achte
i ant
r ichte
er es
in justice
ch ern
ein richten
Er mor
Er fassung
reg a
art ag
mittel ständ
Finanz mitteln
käm pf
individ uelle
prosper ous
Streit igkeiten
Petitions ausschusses
jan i
Day ton
Verg essen
Sund ay
Izquier do
0 23
L ou
W ollen
e z
über geben
pol nische
Sch wäche
Ar kt
ious ly
step ping
democr ats
gewä sser
beein druck
dram atische
occup ational
descri ption
Bundes kanzler
restor ation
Vorgän ge
Staatsan wal
ungew öhn
Dühr kop
M aul
T otal
W olf
ve z
ass oure
ans äss
ub b
schließ ung
stimm te
rem uner
Br ust
beding te
Rück en
wahr zunehmen
Lam assoure
Tenden zen
Wün schen
Trib unal
G ames
W ild
ver helfen
ed ter
ra k
nach vollzieh
dam aged
respon sibly
beg ins
pri ze
Do yle
contra cting
ris iko
sele cted
utter ly
IM O
Statist ik
anticip ate
Eth ik
verabschiede te
gesto ßen
beruh igen
inher ent
entrepreneur ship
beam ten
Anhän ger
B 7
D oping
P feil
c ens
f ischen
f ers
k w
u kra
er zeuger
an nehm
he mm
il aterally
da d
Ver bots
li a
unter zogen
los es
ys sen
bi om
cross ing
optim istisch
IN TER
Rad io
affir m
Mau rit
Anpass ungs
load ing
jahrel ang
lächer lich
T ask
o the
v able
ge ar
ev olution
bo tt
wend ungen
har assment
zusammen fassen
Dar f
Human ressourcen
incorpor ating
Erwä hnung
Gefäng nissen
Unterbrech ung
Vertragsverletz ungsverfahren
P az
e ase
lo hn
Ko alition
Span iens
grundlegen des
Nicht diskriminierung
TR IP
Umweltverträ glichkeit
0 25
ion ed
no ten
An son
vo y
Parlaments wahlen
Me ld
colle ct
nä ck
multi ple
Atlant ik
Inner halb
negle cted
K ro
d ul
f lying
o x
r isen
an mar
ver hängen
aus fallen
ben ennen
scha det
national ism
wo von
vern ommen
gew and
He uche
pat ience
repe al
weak er
mach ung
Ide ologie
Ben achteil
Bon n
phenomen a
dän ische
bese tzten
getrenn te
Behaupt ungen
upd ated
geziel te
Scient ific
B ör
G ot
s burg
w achen
ed t
ier er
Th yssen
Ab weich
äm mung
mittel frist
approach ing
applic ants
solidar isch
tell s
Beschäftigungs strategie
kurzfrist ige
kompliz ierter
Satell iten
recruit ment
Anson sten
C row
e ve
un angemessen
un bestreit
re tention
ung el
am az
In fe
über mäßige
gro wers
kon zip
For ce
Wer ke
Schwier igkeit
modern ise
summit s
orient ierten
niemand em
barr ier
Regul ations
unbe fried
decentral ised
Haar der
millenn ium
ukra in
B ienen
an schau
re me
auf bringen
ta st
pres idencies
Gen uss
Kolleg ium
zufrieden stellen
militär ischer
dynam isch
mach inery
Übergangs zeit
zurückzu ziehen
Könn te
Nich ol
H A
K R
h one
v ierten
ab und
Vor fall
uß t
over coming
transp orted
loy al
Bulgar iens
dram atically
class es
Ta jani
debatt iert
Gesche h
M el
g ambling
re ck
bes prechen
My anmar
vereinbar ungen
perman ently
Mü tter
Akt ien
gewün schten
wechsel n
catastrop he
Sekret ariat
kö mm
o di
be aut
Daten bank
Tagesordnung spunkt
steigen de
intellig ente
Palästinens ern
Prüf ungen
größt mögliche
Implement ierung
hid den
K az
v ice
w us
ä le
se uche
ver wendung
tr in
tr itten
if ice
Vor gang
spec ify
priv ileg
bewusst sein
protest ieren
reib ungen
Äuß erung
Wurzel n
eingest uft
Schro edter
Sene gal
d auert
th aft
an fän
am o
ab bau
res id
coun ts
ok es
arbeit ungs
richt linien
unver ändert
Plen artag
Wider sprüche
ren ational
oul try
Ungleich gewichte
Roh stoffe
Elektriz itäts
kilom etres
Äng ste
Kall as
G all
W EU
f öderal
er statten
Un fällen
li fted
Pro stitution
fü llen
ank ungen
Politik bereichen
Gesch lechts
Markt zugang
sitz ungen
sym pa
Ged uld
vorhand ene
Zusatz frage
Demonstr anten
Ser ben
occurr ing
Heuche lei
M insk
g ten
auf gabe
Er wärmung
unter m
ließ e
Zeit raums
Tr ich
statt ungen
fundamental ism
Schaden s
Kre uz
Rett ung
Sán chez
Crow ley
A v
h ause
ä qu
Er mittlung
sus pected
Fahr zeugen
Defin itionen
Mult ilateral
geleiste ten
incred ibly
verschw unden
u is
er ven
ch i
al ert
st ret
we i
ex pects
En large
Mit t
sie b
ill usion
wieder aufgenommen
Verbrauch ers
Ha ve
ground water
schul dung
Selbst bestimmung
quo ted
Erkennt nis
Bot schafter
ituation en
reaffir m
deploy ed
erne ute
Erit rea
Gescheh nisse
un verständlich
un kontroll
le ug
sp at
Ver knü
Con s
sign ature
Haupt stadt
leiden schaft
präsent iert
Tibet an
Katastrophen schutz
virt ue
acknowled ges
serb ischen
Unzulän glichkeiten
Befried igung
O ze
f led
z ent
ê te
an nehmbar
der ived
be tragen
ma ck
Ma x
gesch wind
sicher heits
besch ä
ru f
Mon net
exist ierenden
La os
ente chn
bemü hungen
obser ver
sele ctive
Besuch er
doppel te
Kir che
Lukas henko
Franz osen
Energiese ktor
a ward
h ind
un klar
aus nahms
li able
ad missible
ann te
Bere chnung
rei ßen
fahr er
vol at
Gesellschaft s
blo ße
Nicht ein
Tra k
ris iken
uner läßlich
steuer liche
Bur m
beob achtet
rupt ions
distin ct
schuldig ungen
postpon ement
cha os
stipul ated
Schmid t
Six th
distur bing
föder alen
Blickwin kel
Trich et
M ur
S AR
un justified
Ver gü
rä gen
Rechts ausschuss
verein t
fas ste
EP A
Ged ächt
ignor ing
Lehr er
gewer b
Ed in
Nichtsdesto trotz
alleg ations
Ermor dung
4 50
G 7
L an
M achen
in dern
ad mission
ear ning
conc erted
Nach weis
besch uld
zurück halten
mis understanding
Fahr gast
zweif le
Verwaltungs aufwand
politic ian
advoc ating
atell is
krank heiten
gewöhn lich
journal ist
Ann ual
father s
abgest imm
K lage
p oultry
or i
as en
ur teilen
ul ate
Ein ladung
vers agt
Wer be
gefähr deten
central ised
El end
pu ll
Gut achten
purch asing
Bill ig
Hab sburg
adm ium
INTER REG
S j
be läuft
so viel
Par allel
Kon ferenzen
law yer
zurück ziehen
comple ting
beim essen
Ur an
side d
forget ting
Bre yer
Sj öst
K K
ul a
rä um
Me ere
Beit rägen
vi ation
gas se
consult ing
Spiel regeln
dev ices
corner stone
praktiz iert
Kompon ente
Britt an
lyn n
Trak atellis
Sjöst edt
D ig
M ale
U p
m unter
ver schlossen
con tempt
Ver zerr
Mit tele
Ab u
global isierten
exp li
angem erkt
vorher gehenden
politisch em
Krisen management
Ungleich gewicht
Som etimes
shaus halts
verlag ern
Scott ish
Valenc ia
gentechn isch
galler y
E X
u ated
Ä thiop
st ent
ges unken
scha de
Inter institutionellen
star ts
guar dian
Res source
Per u
flu cht
Erwar tung
Mitglieds staaten
Ele ktron
kü m
Armen ien
Umstruktur ierungen
Jahrzehn te
Europar ates
Leon ardo
Stamm zellen
damal igen
Offens ichtlich
Sack gasse
D í
G is
or a
we ather
sa ved
Er bes
Er krankungen
Fr anzös
Fr anc
igh ter
hand ic
Ne uf
Her an
back wards
Ex ecutive
Bei legung
fort geschritten
akzept ablen
Kommun al
geograph ischen
verwe hrt
1990 s
Net work
Ehr geiz
promin ent
Gros set
D age
F lynn
g ung
m t
u ll
re tro
ein nimmt
war r
wo gener
fore front
Or igin
adv ised
mult ilingual
cover age
intens ify
differen z
zufrieden heit
isp iell
confirm ation
cul osis
kurzfrist igen
label s
d ying
s mart
ch ocol
al ign
utz er
mat ic
Drogen handel
dead lock
Welth andel
vorn herein
shame ful
Medikament en
Satell it
Fischereif ahr
konsequ ente
perce ived
w ü
st ext
so w
Ent scheiden
ty r
seit dem
To ten
gesam melt
Gesch le
absol uten
nu ll
Informations system
Kommun ismus
provision al
verbind ungen
verw under
Subsidiaritätsprinzip s
corre cted
Kreat ivität
Vere hrte
Enlarge ment
0 30
U z
an regen
re plied
was s
ange legt
Teil zeit
gener ating
sätz lich
erheb licher
Di agno
stu died
Friedens prozesses
settle ments
0 26
F arm
R od
ur ging
ic ular
aus lösen
port fol
sh or
spe kul
dr ift
good will
fl ank
sur face
pflich ten
aner kannten
announ ce
consolid ating
ij s
assum ing
Kommissionsvorschlag s
doppel ten
Klau en
unglaub lich
Num mer
Cun ha
Burm ese
Grosset ête
I g
e e
er be
an schauen
be ispiell
um ber
Ver nichtung
not ification
We ber
stü m
them atic
fu ge
fest zuhalten
compe ting
reform iert
bau ern
regul ieren
offen er
Dire ct
treat ing
erklär ten
AC TA
pas sport
Erzeug ern
wind ow
tim ing
Agricult ural
compar ative
gesp annt
preser ved
wäl te
ausgesch öpft
pris onment
Dup uis
P i
ra y
iv able
ger ückt
har der
ausge wogener
bed roh
Volks republik
sektor en
Wert schätzung
Gu ar
abol ishing
unzu reichende
Refer endums
Zurück haltung
Optim ismus
Abtre ibung
L au
re plies
ed a
ra pe
über mäßigen
ass ing
tun e
enth iel
challen ging
author itarian
break through
voraus sichtlich
198 8
Befug nissen
án dez
tsche chische
nachteil ig
verheeren den
Abr üstung
Dig ital
Dage gen
H arr
c li
i be
ur teile
id is
id akis
over view
cond ol
Welt gesundheits
instrument en
EUR O
ift y
vorher seh
Kandidaten ländern
zweifel n
strafrecht lichen
Hochschul en
detain ed
iede lt
Antibiot ika
. “
H atz
K a
c kets
so ber
vor angehen
nach vollziehen
kl at
sub ventionen
fest gelegte
Mehr ere
setz te
dig te
ES CO
Gesundheits fürsorge
Sw iss
valid ity
contradict ions
Muslim s
spa ket
Spre cher
scarce ly
Spektr um
Transn istr
T imes
e chtes
ge antwortet
im prisonment
zu stimmt
auf gesto
el abor
fe es
ens ur
sta be
et ting
Ma j
gest ure
DE R
Qu ad
schre it
diskut ierten
verg lichen
mod al
198 6
Mode lle
Consum ers
honest y
pie ces
stät ten
Still legung
incred ible
demograf ischen
Gedächt nis
T ragen
d read
an geschlossen
se ize
zeit igen
Al ong
lim itation
Vertrag sparteien
esen de
histor ischer
kraft wagen
sex ueller
effizient ere
hinter her
Spe c
elig ibility
mitzu teilen
Hatz idakis
B ind
t an
in nung
is a
fin es
sol iden
dec ou
Inter ims
Jahr esende
zurück greifen
Verpflicht ungs
verein igung
Prä vent
Ta x
Universit ät
Kore an
Z ap
l ou
Be ein
qu in
fin nische
glie derung
ak ters
ri ver
ho to
geleg entlich
schein lichkeit
Govern ments
repe ating
Eind ämmung
beunru higend
weaken ed
Lukas chenko
anx ious
sla very
0 14
G ange
L ip
V E
Aus kunft
Sch ritten
Kinder arbeit
poor ly
mensch licher
bill ig
undermin es
MED IA
niedrig eren
Interess es
ie dr
um hin
her kömm
ins ult
De zentral
carr ies
Luft verschmutzung
chem ische
rad ically
reje cts
Frü chte
expla ining
lor ries
Sensib ilität
konkurr ieren
dub ious
Edin burgh
B ud
i hen
z es
be kannte
se ed
auf fordert
ck te
ex istenz
ass ass
fut ter
legisl ate
ru cks
ship building
ocr atic
access ibility
Fort führung
Wh ich
dring liche
win es
Fundamental ismus
schreck liche
kn ap
erreich te
kolle ktiven
encounter ed
incur red
substit ute
chocol ate
A th
C all
P é
T aking
h ic
er hielten
be e
sp okes
ern annt
str iving
Euro bonds
zweit es
Nachbar länder
wirtschaftlich em
schö ne
stechn ologie
Moroc can
erad ication
adul ts
bekund et
R oten
i ably
be lar
con vict
ha st
tr ialogue
bes tritten
wä hren
sub ordin
Or ten
cap ita
Binnen grenzen
Qu ote
glück licherweise
Ausmaß es
Grupp ierungen
C had
S amm
a o
t ongue
de ce
for st
ab du
iss ionen
Re flex
dam ages
mer gers
Se ll
tt es
bare ly
stress ing
funktion ierende
Glück licherweise
forest ation
expand ed
befre it
belar uss
9 00
G rä
W ol
er leiden
me istern
än dige
qu ir
Wir kungen
her o
Ein reichung
ün ger
inv al
Gemeinschaft spolitik
Arbeits organisation
vis ibility
Ital iens
Wettbewerbs regeln
National ismus
hypo critical
knü pft
repräsent iert
erad icate
calcul ated
Verfe chter
Kabelj au
V om
un known
ie th
as certain
au sp
Aus breitung
real isieren
Russ ians
Part icular
Afr ikanischen
unzu län
reiter ated
flag s
Luf traums
Prävent iv
B ib
j ap
ic it
me al
über leben
man kind
ange legenheiten
kon form
best mögliche
Bürger s
Min istry
iff erent
Mehr jahres
obje ktiven
char akter
Sa at
Stre am
vertrau ens
kar ten
grav ierenden
Dim ensionen
Sell afield
R C
R auchen
m os
un ambiguous
ver übt
um faßt
sen kung
nen ne
sel ess
fr ieren
fr isten
far mer
Im migration
creat ivity
Entscheidung sträger
arr ival
wan dern
Kar l
lag ern
Bundes republik
zurückzu kehren
spür bar
Wohn ungs
lobby ists
Diam an
Bewert ungen
undem okrat
Opport unities
k os
be heben
sch eitern
ab stra
id o
ce ll
Ma th
sub mission
gemein schaften
Jahr zehnt
point less
mut ig
Bar r
Sep p
Zentral banken
Austr alia
digital e
Col om
Tsche chische
prevail ing
K lass
L amber
g os
un über
re gelt
de zentral
ur er
fü hlt
Ge orge
Um setzungs
trag ische
cre w
ganz es
fl agr
Fl üge
verständ liche
dist ant
enorm ously
beschrän kungen
NG O
Prof ite
stimul ating
Du ff
hochwert igen
Armuts bekämpfung
allevi ate
Rentens ysteme
G ad
T ank
at tent
be geben
co very
dr iver
trans form
finanz ierten
Haushalt spolitik
Rück stand
Real itäten
liefer ungen
acceler ate
Bestra fung
Clau de
k oppel
er achte
un ilaterally
ur teil
im proves
ver hütung
ce as
des ert
Ver gewalt
ze k
unter halb
dis play
Änderungs vorschlag
Rechts ausschusses
ziel ung
assist ants
jeder mann
General versammlung
histor isch
Staats führung
tour ists
198 5
occup ying
analy sed
frem den
Arch ite
Hemm nisse
Ethiop ia
Soc iety
K ok
be leben
Re gen
We is
man cher
her self
lin son
kon s
Teil ung
acc umul
institution eller
extre men
technolog ien
Qu a
vol ks
stre iten
alloc ating
Mai j
poll ut
freund lich
ermut igend
Bre it
anhalten den
Lobby isten
Tom linson
Biokraft stoffe
Ep idem
Erör terung
Bedienste ten
Sorg falt
der iv
auf stellen
Ver we
Re fuge
Ge trän
og as
Ma da
ri ere
Weg gen
appe als
Nachbar staaten
SM E
Ern st
Sk y
Wirtschaftswachstum s
Bil der
Tob in
L iese
T ausenden
re ts
re patri
ent zogen
ein räumt
zu hören
Ver sagen
ex ported
dar k
Ein sicht
rat io
Gemeinschaft spolitiken
allow ance
bestehen der
umfassen deren
eth ische
Wahr scheinlichkeit
sort s
vorher ige
tim or
wettbewerbs fähigen
Tsch ad
Instit ut
contam inated
Sof orth
embry os
befr iste
Jeden falls
Diaman top
D ach
P hasen
V ar
vor gebrachten
Be wahrung
Mar ín
last ly
Sol bes
UN ESCO
Währ ungen
Kinder betre
Gegen wart
abzu halten
proceed ing
ergeben den
IC C
cere als
afghan ischen
beaut iful
Gis card
F ava
H ond
Z iv
d ir
ch ner
le is
ma ster
war nt
Ab gaben
nach weis
Grund voraus
information en
Russ ischen
trans late
Wh atever
Pat ente
Beruf ung
attack ed
grü nen
aufsicht s
cott on
antibiot ics
t ungs
im ply
vor gezogen
gesch wächt
legal ity
Verein heitlich
besch ließt
Euro control
Ch ange
Rom ano
zentral es
Go eb
wettbewerbs fähiger
transa ction
umweltfreund lich
pret ty
ecosystem s
Klauen seuche
un usual
le ver
weit est
Ge iß
commit ting
Ir on
Kom pli
function al
vernünft iger
popul ated
transf erring
Universal dienst
Sä ulen
Gad da
Goeb bels
G ill
T äter
n utzung
er hebt
un vereinbar
ist ans
Um verteilung
reif e
verl agerungen
Geld politik
char ging
Lin ien
Deut schen
Technolog y
Serb s
schn itte
gewiss es
kar te
Inspe ktionen
Flag ge
Embry onen
quir ies
P ut
ben ach
Ab änderungen
Kol onial
read iness
komm ent
vis iting
Char akters
dist ress
Menschenrechts situation
clar ifying
Einzel personen
Brüssel er
ausführ lichen
Hä user
anspr ü
Hy po
inhaft iert
Ug anda
TRIP S
B ou
E i
L yn
p andem
ein zugreifen
ad ds
end ar
up per
Aus schluss
vo iced
brauch e
ganz em
hervor rufen
Bel der
vol um
fail ures
spar ung
Beg ünst
incorpor ation
Bu zek
alte ten
celebr ate
Krie ge
Diamantop oulou
W PA
im position
ür zt
Ver säum
sen det
under way
Arbeits kräften
rechts widr
Instrument ar
exp uls
schre itet
analys ing
würd igt
mod ification
krimin elle
Beob achtung
pan el
radi kal
Kroat iens
Gewerk schafts
personen bezogener
Ausliefer ung
M P
R ight
an wesenden
ver sehen
Sch okol
Fra ga
ör ung
Maß stä
Al pen
Mittel betriebe
Ne tzen
cal c
umfassen dere
pack ages
rup ted
Eing ang
genehm igung
Palästinens ischen
enttäu schend
Bew uß
irre ver
illustr ates
engine ering
schwäch sten
veget able
Könn ten
erwer ben
foresee able
Za ire
0 19
T as
i ère
v enth
w andeln
ta kte
Aus stattung
bes ie
po t
är ger
besonder em
art ists
mil est
Grün d
Verkehr sträger
fried lich
sinnvoll er
Atom kraft
Engl isch
Zentr en
exec utions
einseit igen
Persön lichkeiten
radik ale
Exekut iv
Banglades h
Neuf assung
Sepp änen
H än
L EA
l ighten
ar tikel
be wahrt
ung ere
ein schlagen
de du
se ment
su chte
Be zahlung
com pound
tra ins
schl üss
mer kt
weiter machen
Verein igung
angen e
grenz t
Anstreng ung
bilateral er
Zw ang
tä gliche
extrem ism
Übrigen s
Post dienste
Jen sen
Besorg nisse
C ity
d rought
f its
m om
r ückt
as ures
be lt
Ver samm
aus arbeiten
Re e
igen der
Te uf
Wor kers
Menschenrechts kommission
van os
unternommen en
cou p
Sad ly
Ank lage
tau ght
GB P
Massa ker
Atomen ergie
Elektron ik
aufgesto ckt
convict ions
E sta
H oll
M isch
M alt
u ckt
al es
el on
Sch welle
unter bricht
Zu griff
io ts
zü gen
step ped
Eigen schaften
honest ly
aggress ion
scept ical
Rap porteur
Schü ler
LEA DER
T anno
p han
z ollen
unter schiede
art ney
viol ate
Pos it
sprech ungen
Gesetzgeb ungsverfahren
gering eren
AT ES
reli ability
prohib it
desper ate
Ala vanos
Vereinheitlich ung
M ove
Ü bel
ver bindet
ha vens
Mit teilungen
inter net
weiter ung
adop ts
put y
Sozial istischen
itor ial
Lu cas
aufzu geben
detaill ierten
Verkauf s
confidential ity
Oliven öl
E ig
L iga
P lus
ch et
ab schaffen
no where
ist isches
ann ually
Menschen verstand
fir men
belie b
economic s
Umwelt bereich
12 9
Konvent ionen
Ist an
secre cy
kohär enten
Woh le
Ag gress
angestreb ten
jugoslaw ischen
Erwachsen en
suic ide
Verknü pfung
b ußen
d ach
su ited
Re be
ste il
lo an
lo sure
fa ktoren
unter binden
Unter schriften
Mar co
mittel fristig
erken ne
Portug als
facil itation
valu ed
insist ing
IA O
begünst igen
anhalten de
diagno sis
Stör ungen
shap ing
I ma
P fund
W är
b und
be will
den ying
op ted
me hl
über wiegen
An sprüche
fre chts
Ma aten
over seas
support ive
Euro barometer
Ch ildren
hon oured
sec ular
Nord ische
six th
mus ic
Element en
Com p
flexib len
Flor ence
shock ing
Vermittlungs ausschuss
N ähr
b urn
p ages
re y
ter ten
he aded
auch t
co ach
ass ador
per ception
kl er
Dies em
pf legen
read mission
zeug nissen
dort igen
dien lich
Plan ungs
Neu an
empf unden
erneu ten
watch ing
herauszu finden
persist ent
Result at
asym metr
Kris ens
Istan bul
G R
h est
the t
re vol
ent fallen
An schuldigungen
Inter institutional
wert voll
miss brauch
einheit licher
ref uses
abwe ichen
beizu treten
Wichtig ste
Luftfahrt unternehmen
Künst ler
Pfeil ers
Eig entlich
D ossiers
er fassen
st ore
ol a
he at
ce an
dem agog
Be arbeitung
her ausge
ple ments
per secuted
pt ions
some how
Auf träge
ti bet
Ne y
Eben falls
Man che
benöt igten
Kur ds
Relig ionen
außergewöhn lichen
predict able
Kandid at
Tanno ck
% -
L ad
T yp
Z ute
a el
p äs
z z
be lassen
to ll
sh ot
imm inent
Parlament spräsident
Zeit alter
kr isen
prä vention
Mal aria
Ur ug
sper spe
gering ere
class ified
krimin alität
Handlungs bedarf
count less
Frühjahr s
denoun ce
unlau teren
zukunft s
? '
re vital
den s
über arbeiten
pre k
Ja vier
Grund rechten
dire kter
bal gs
sicher stellt
grund satz
Not fall
jen es
Man uel
review ing
design ated
counter parts
electr ical
Pet ition
don ation
hosp itals
perpetr ated
flood ing
M aschinen
U s
p son
ent ers
ver schlimmer
Ber tens
uner mü
bra in
Voll stre
Kre is
condol ences
Dezentral isierung
Esta ing
ent wickl
ver mag
em power
Ver mittler
with standing
vor igen
if ikations
St ar
tel s
gel itten
gel enkt
view point
prote cts
favour s
Flug gast
entwickel te
län en
indic ating
Deut lichkeit
außerord entliche
Austr alien
Wissenschaft lern
verwe chsel
kenn zeichnung
Gelt ung
Pie balgs
berau bt
Bekle idungs
Biom asse
sul ph
Urug uay
K ash
O ffic
t ied
st on
be kennen
sch ancen
em a
ident ifizieren
lo hnen
ther ap
par amil
Vor wurf
vers ions
He im
mut igen
Chin esen
Rom an
coordin ator
share holders
check ing
strä gern
erwarte ten
drit ter
dollar s
Nichol son
B ah
Z ypr
ch amber
un en
la ßt
wor in
We der
get ät
Sta es
fl our
schr ieben
Stra frechts
peace keeping
sor ient
remember ed
Trans fer
Sim pson
bra ve
factor ies
embar k
slo gan
vacc ines
arres ts
intoler ance
souverän en
unum gän
kontra produktiv
G las
N am
g ie
ro se
ge zielt
ab used
ant as
unter richten
unter drückt
Min en
Markt organisation
UN IC
ffiz ient
Man chmal
frü hen
earl iest
method ology
unterbre iteten
lag ging
Meeres umwelt
Beweg ungen
Bus quin
Anwend ungen
commod ity
Brenn er
undem ocratic
Äthiop ien
H an
L iter
R ö
V are
d ün
ge trieben
de port
sp länen
ad äqu
Er zielung
Vor züge
dr uckt
Kon zert
ins on
gesch ü
Grund wasser
them es
wirtschaft spolitische
bre eding
extrem ists
vorange kommen
Mutter sprache
strugg ling
epidem ic
migr ant
ereig net
B AN
C a
C atal
or ing
ent rating
con gest
ir gen
li othe
fe iern
Aus gabe
weit reichende
Ab sicherung
ange griffen
conc entrating
land wirtschaftlicher
Mittel ausstattung
real istischen
Pl at
exc luding
EP P
opt ional
stabil isieren
Berat ungs
geeigne ter
Verlauf e
shock ed
geopolit ical
Kat ifor
Katifor is
B enz
H im
n ic
er langt
it at
re funds
for c
Ver un
In verkehr
Aus wärtige
unter schätzen
ät ten
some body
lä ub
Durch schnitts
beding ungs
fort geführt
Pra kt
Kap itals
relig ions
ahn sinn
Wert papier
zweif elt
Mindest standards
hom ogen
prem ium
umzu gehen
hum ans
defe at
uft fahrt
McCar thy
mom ents
G ale
G utes
H of
L ind
h igung
z in
st amp
In toleranz
Sch u
Ent weder
hin fällig
ide o
gel dern
gleich gültig
net te
real isiert
vis itors
find ungen
Ch ich
eig net
wiederhol ten
Besonder en
freund lichen
Sof ort
Migrations ströme
1 12
t uber
an liegen
ent stand
ad ult
wo und
Bericht es
over look
ri um
fo ol
notwend igerweise
exist ent
cap ability
extre mist
Sp ir
head ings
fünf zig
isol iert
conce ivable
günst ige
Gesicht spunkten
Wur tz
Innen minister
distingu ished
Regulierungs behörden
tech no
wissensbas ierten
Lan cker
o zone
un reasonable
aus führen
An trägen
fe deration
ens ing
po ison
stat tet
ok k
med iation
gew ö
anzu streben
zeu gend
Ur laub
Schluss abstimmung
mis use
denk bar
Wohn sitz
reve als
Fehl ern
bomb s
Still stand
erschüt tert
re vising
ta kt
Vor hand
Kon front
gel te
Im per
Rechts ordnung
schein bar
ep ing
Frei heits
special ised
Gegen den
equ itable
design ate
bill iger
Bu da
IC AO
regrett ably
boost ing
aren a
medi ate
unequivoc al
inf lic
Überzeug ungen
Häft linge
Arkt is
Chich ester
2 20
A y
V et
r ice
u ern
ro oted
ein schließen
sch ien
ver ne
aus bauen
[...]
