{"[PAD]":0,"[SOS]":1,"[EOS]":2,"[UNK]":3,"[MASK]":4,"!":5,"\"":6,"#":7,"$":8,"%":9,"&":10,"'":11,"(":12,")":13,"*":14,"+":15,",":16,"-":17,".":18,"/":19,"0":20,"1":21,"2":22,"3":23,"4":24,"5":25,"6":26,"7":27,"8":28,"9":29,":":30,";":31,"<":32,"=":33,">":34,"?":35,"@":36,"A":37,"B":38,"C":39,"D":40,"E":41,"F":42,"G":43,"H":44,"I":45,"J":46,"K":47,"L":48,"M":49,"N":50,"O":51,"P":52,"Q":53,"R":54,"S":55,"T":56,"U":57,"V":58,"W":59,"X":60,"Y":61,"Z":62,"[":63,"\\":64,"]":65,"_":66,"`":67,"a":68,"b":69,"c":70,"d":71,"e":72,"f":73,"g":74,"h":75,"i":76,"j":77,"k":78,"l":79,"m":80,"n":81,"o":82,"p":83,"q":84,"r":85,"s":86,"t":87,"u":88,"v":89,"w":90,"x":91,"y":92,"z":93,"{":94,"|":95,"}":96,"¡":97,"£":98,"§":99,"¨":100,"©":101,"ª":102,"«":103,"­":104,"°":105,"±":106,"²":107,"³":108,"´":109,"µ":110,"·":111,"¸":112,"¹":113,"º":114,"»":115,"¼":116,"½":117,"¾":118,"¿":119,"À":120,"Á":121,"Â":122,"Ä":123,"Å":124,"Ç":125,"È":126,"É":127,"Ê":128,"Ì":129,"Í":130,"Î":131,"Ï":132,"Ð":133,"Ñ":134,"Ó":135,"Ô":136,"Ö":137,"Ø":138,"Ù":139,"Ú":140,"Ü":141,"Ý":142,"ß":143,"à":144,"á":145,"â":146,"ã":147,"ä":148,"å":149,"æ":150,"ç":151,"è":152,"é":153,"ê":154,"ë":155,"ì":156,"í":157,"î":158,"ï":159,"ð":160,"ñ":161,"ò":162,"ó":163,"ô":164,"õ":165,"ö":166,"÷":167,"ø":168,"ù":169,"ú":170,"û":171,"ü":172,"ý":173,"þ":174,"ā":175,"ă":176,"ą":177,"Ć":178,"ć":179,"ĉ":180,"Č":181,"č":182,"ď":183,"Đ":184,"đ":185,"ē":186,"ė":187,"ę":188,"ě":189,"ğ":190,"Ģ":191,"ī":192,"İ":193,"ı":194,"ķ":195,"ĺ":196,"ļ":197,"Ľ":198,"ľ":199,"Ł":200,"ł":201,"ń":202,"ņ":203,"ň":204,"ō":205,"ŏ":206,"Ő":207,"ő":208,"œ":209,"ŕ":210,"Ř":211,"ř":212,"Ś":213,"ś":214,"Ŝ":215,"Ş":216,"ş":217,"Š":218,"š":219,"Ţ":220,"ţ":221,"ť":222,"ū":223,"ů":224,"ų":225,"ŵ":226,"ź":227,"Ż":228,"ż":229,"Ž":230,"ž":231,"ǎ":232,"ǐ":233,"ǔ":234,"ș":235,"ʻ":236,"˚":237,"Α":238,"Β":239,"Ε":240,"Ι":241,"Κ":242,"Μ":243,"Ν":244,"Ο":245,"Π":246,"Ρ":247,"Τ":248,"Υ":249,"ά":250,"έ":251,"ή":252,"ί":253,"α":254,"β":255,"γ":256,"δ":257,"ε":258,"ζ":259,"η":260,"ι":261,"κ":262,"λ":263,"μ":264,"ν":265,"ξ":266,"ο":267,"π":268,"ρ":269,"ς":270,"σ":271,"τ":272,"υ":273,"φ":274,"χ":275,"ψ":276,"ω":277,"ό":278,"ύ":279,"ώ":280,"А":281,"Д":282,"М":283,"Н":284,"О":285,"П":286,"Т":287,"а":288,"б":289,"в":290,"г":291,"д":292,"е":293,"ж":294,"з":295,"и":296,"й":297,"к":298,"л":299,"м":300,"н":301,"о":302,"п":303,"р":304,"с":305,"т":306,"у":307,"ц":308,"ч":309,"ш":310,"ъ":311,"ы":312,"ь":313,"я":314,"​":315,"–":316,"—":317,"―":318,"‘":319,"’":320,"‚":321,"“":322,"”":323,"„":324,"‟":325,"•":326,"…":327,"₂":328,"€":329,"−":330,"≤":331,"舣":332,"en":333,"er":334,"in":335,"ch":336,"th":337,"on":338,"es":339,"an":340,"un":341,"is":342,"at":343,"it":344,"ie":345,"the":346,"or":347,"al":348,"re":349,"ich":350,"ion":351,"der":352,"st":353,"ar":354,"ro":355,"as":356,"le":357,"ent":358,"be":359,"to":360,"ung":361,"of":362,"and":363,"ein":364,"ge":365,"te":366,"die":367,"au":368,"und":369,"de":370,"wi":371,"den":372,"om":373,"ur":374,"ing":375,"ig":376,"se":377,"ol":378,"am":379,"we":380,"im":381,"sch":382,"zu":383,"ve":384,"ic":385,"for":386,"ter":387,"ver":388,"ies":389,"ll":390,"ed":391,"ten":392,"ation":393,"ou":394,"rop":395,"ab":396,"icht":397,"he":398,"ra":399,"omm":400,"that":401,"gen":402,"em":403,"ber":404,"il":405,"lich":406,"hr":407,"urop":408,"us":409,"das":410,"isch":411,"ür":412,"ct":413,"no":414,"ist":415,"wir":416,"ly":417,"ne":418,"ut":419,"Europ":420,"ke":421,"iss":422,"id":423,"wh":424,"so":425,"res":426,"um":427,"pro":428,"con":429,"ir":430,"ere":431,"dies":432,"ha":433,"ier":434,"für":435,"auf":436,"ort":437,"sp":438,"ce":439,"are":440,"des":441,"von":442,"tr":443,"wer":444,"ach":445,"op":446,"all":447,"eine":448,"ul":449,"ft":450,"ment":451,"da":452,"ommiss":453,"me":454,"ld":455,"Ver":456,"Un":457,"est":458,"this":459,"kt":460,"ag":461,"men":462,"ff":463,"ischen":464,"tz":465,"su":466,"In":467,"ommission":468,"dem":469,"not":470,"mit":471,"Europe":472,"ess":473,"nicht":474,"dass":475,"aus":476,"with":477,"our":478,"ate":479,"ungen":480,"ind":481,"li":482,"ould":483,"ident":484,"ts":485,"have":486,"os":487,"lie":488,"port":489,"ive":490,"ta":491,"gr":492,"el":493,"ck":494,"ad":495,"ges":496,"end":497,"ust":498,"Re":499,"werden":500,"auch":501,"The":502,"ma":503,"vor":504,"la":505,"ial":506,"co":507,"ex":508,"sen":509,"über":510,"Par":511,"ament":512,"än":513,"ste":514,"ity":515,"Be":516,"ben":517,"if":518,"which":519,"European":520,"pe":521,"nen":522,"ant":523,"iv":524,"will":525,"sh":526,"sich":527,"ah":528,"lo":529,"err":530,"by":531,"hat":532,"hal":533,"uns":534,"An":535,"com":536,"qu":537,"scha":538,"wor":539,"igen":540,"pol":541,"ib":542,"St":543,"Union":544,"its":545,"has":546,"ungs":547,"ht":548,"wie":549,"fa":550,"ze":551,"ions":552,"ther":553,"oll":554,"hen":555,"We":556,"aben":557,"ien":558,"rä":559,"do":560,"ern":561,"Mr":562,"als":563,"par":564,"Commission":565,"ann":566,"uss":567,"str":568,"Herr":569,"wird":570,"Ich":571,"schaft":572,"00":573,"En":574,"iel":575,"ap":576,"ische":577,"haben":578,"was":579,"fe":580,"Mit":581,"Die":582,"iti":583,"einer":584,"EU":585,"sind":586,"Europä":587,"out":588,"je":589,"ted":590,"bei":591,"sa":592,"ger":593,"tra":594,"war":595,"Wir":596,"also":597,"mö":598,"di":599,"up":600,"leg":601,"ise":602,"imm":603,"Pro":604,"Er":605,"Aus":606,"Sch":607,"Ar":608,"ken":609,"one":610,"zur":611,"chte":612,"heit":613,"ates":614,"räs":615,"Th":616,"reg":617,"man":618,"Kommission":619,"Pres":620,"gan":621,"bes":622,"inter":623,"go":624,"keit":625,"aten":626,"fü":627,"sie":628,"ac":629,"unter":630,"räsident":631,"able":632,"ember":633,"ue":634,"dar":635,"einen":636,"Ber":637,"rit":638,"ens":639,"po":640,"fin":641,"ob":642,"beit":643,"would":644,"ers":645,"Vor":646,"ational":647,"sta":648,"dern":649,"her":650,"lichen":651,"pr":652,"form":653,"ure":654,"daß":655,"cht":656,"there":657,"ese":658,"can":659,"ations":660,"sam":661,"br":662,"weit":663,"rom":664,"part":665,"du":666,"enn":667,"should":668,"mo":669,"coun":670,"et":671,"President":672,"ble":673,"ön":674,"mor":675,"är":676,"Fr":677,"hren":678,"Au":679,"üs":680,"Präsident":681,"from":682,"urch":683,"Ein":684,"ult":685,"lament":686,"ige":687,"ord":688,"must":689,"ug":690,"llen":691,"wa":692,"very":693,"national":694,"Ent":695,"inc":696,"Ab":697,"Parlament":698,"Ge":699,"ow":700,"ple":701,"ommen":702,"ction":703,"pos":704,"cial":705,"liament":706,"prop":707,"but":708,"hin":709,"comm":710,"been":711,"ical":712,"chen":713,"work":714,"pl":715,"ill":716,"Member":717,"ition":718,"spe":719,"Sie":720,"It":721,"ass":722,"ät":723,"kön":724,"diese":725,"wo":726,"pres":727,"glie":728,"nach":729,"sel":730,"soll":731,"ds":732,"vel":733,"ander":734,"countr":735,"müs":736,"durch":737,"alle":738,"Parliament":739,"Mitglie":740,"Europäischen":741,"Gr":742,"bet":743,"200":744,"ieren":745,"ution":746,"gro":747,"liche":748,"age":749,"ute":750,"ous":751,"igh":752,"gem":753,"Fra":754,"cess":755,"eit":756,"fen":757,"fr":758,"polit":759,"ih":760,"lt":761,"müssen":762,"ör":763,"more":764,"you":765,"dis":766,"report":767,"schl":768,"wur":769,"reat":770,"now":771,"cil":772,"wä":773,"oun":774,"ary":775,"pre":776,"ans":777,"lin":778,"dieser":779,"ün":780,"mar":781,"noch":782,"per":783,"ank":784,"che":785,"kann":786,"ish":787,"ance":788,"pt":789,"hand":790,"möchte":791,"ear":792,"other":793,"ang":794,"ierung":795,"eren":796,"ide":797,"fol":798,"vo":799,"cr":800,"nah":801,"Es":802,"Mitglied":803,"like":804,"sten":805,"States":806,"ctive":807,"tzt":808,"ight":809,"ime":810,"Bericht":811,"ange":812,"od":813,"fore":814,"Coun":815,"who":816,"stat":817,"schen":818,"inst":819,"tel":820,"Council":821,"their":822,"gegen":823,"sein":824,"Das":825,"sed":826,"zum":827,"import":828,"hl":829,"tschaft":830,"sol":831,"ip":832,"og":833,"können":834,"neh":835,"fre":836,"tro":837,"legen":838,"ud":839,"ok":840,"need":841,"Reg":842,"uropä":843,"ally":844,"igkeit":845,"Mitgliedsta":846,"ome":847,"diesem":848,"glich":849,"ser":850,"Frau":851,"nur":852,"teil":853,"sup":854,"anz":855,"blem":856,"sib":857,"polic":858,"dr":859,"iz":860,"iert":861,"ia":862,"conc":863,"aber":864,"stem":865,"This":866,"uß":867,"ktion":868,"europä":869,"pa":870,"these":871,"lic":872,"ück":873,"cy":874,"Unter":875,"ause":876,"wenn":877,"Kon":878,"gel":879,"ystem":880,"itik":881,"they":882,"ins":883,"ub":884,"ign":885,"oder":886,"erg":887,"leich":888,"ments":889,"kl":890,"ffen":891,"sehr":892,"cons":893,"Mitgliedstaaten":894,"sit":895,"kommen":896,"Rat":897,"Ma":898,"wicht":899,"kon":900,"einem":901,"gram":902,"stand":903,"under":904,"ließ":905,"countries":906,"way":907,"bar":908,"Ja":909,"agre":910,"Men":911,"reich":912,"get":913,"what":914,"arbeit":915,"mehr":916,"econ":917,"min":918,"ty":919,"ner":920,"utz":921,"ik":922,"ev":923,"ative":924,"my":925,"geb":926,"velop":927,"Um":928,"nung":929,"Comm":930,"tzen":931,"ak":932,"ard":933,"land":934,"Dies":935,"about":936,"dec":937,"ong":938,"ople":939,"tre":940,"some":941,"ement":942,"stü":943,"ität":944,"zw":945,"cause":946,"ced":947,"cur":948,"onder":949,"De":950,"ces":951,"ities":952,"For":953,"gesch":954,"ism":955,"Menschen":956,"ffe":957,"new":958,"ice":959,"ose":960,"over":961,"lear":962,"important":963,"vie":964,"ast":965,"ated":966,"führ":967,"year":968,"reas":969,"pla":970,"pf":971,"propos":972,"assen":973,"Le":974,"nis":975,"gt":976,"iven":977,"int":978,"develop":979,"time":980,"eines":981,"Der":982,"och":983,"people":984,"such":985,"only":986,"day":987,"dam":988,"king":989,"any":990,"tet":991,"sche":992,"act":993,"uation":994,"schließ":995,"econom":996,"nehmen":997,"ire":998,"iden":999,"partic":1000,"tain":1001,"thing":1002,"mer":1003,"bo":1004,"itte":1005,"ckl":1006,"prov":1007,"support":1008,"policy":1009,"ument":1010,"dieses":1011,"muss":1012,"tzung":1013,"Europa":1014,"produ":1015,"ihre":1016,"Zus":1017,"sicht":1018,"uch":1019,"ility":1020,"ious":1021,"aga":1022,"ahl":1023,"ular":1024,"come":1025,"oper":1026,"because":1027,"ateg":1028,"owe":1029,"wickl":1030,"weiter":1031,"unser":1032,"wurde":1033,"Europäische":1034,"rat":1035,"ights":1036,"igt":1037,"Auf":1038,"19":1039,"Grund":1040,"gese":1041,"Arbeit":1042,"änder":1043,"ansp":1044,"ibt":1045,"20":1046,"them":1047,"clear":1048,"ammen":1049,"änd":1050,"vent":1051,"fir":1052,"zie":1053,"hier":1054,"dire":1055,"cts":1056,"quest":1057,"llt":1058,"halb":1059,"bere":1060,"halten":1061,"besonder":1062,"Entwickl":1063,"just":1064,"system":1065,"alt":1066,"nahmen":1067,"Vorschl":1068,"Zusammen":1069,"ider":1070,"stellen":1071,"esch":1072,"ures":1073,"Kol":1074,"Bür":1075,"elt":1076,"Zu":1077,"deut":1078,"rel":1079,"international":1080,"forder":1081,"uman":1082,"por":1083,"ßen":1084,"ded":1085,"sub":1086,"present":1087,"ile":1088,"inv":1089,"Inter":1090,"viel":1091,"pon":1092,"bas":1093,"ting":1094,"ied":1095,"ri":1096,"take":1097,"problem":1098,"off":1099,"unity":1100,"oc":1101,"deb":1102,"fact":1103,"son":1104,"halt":1105,"iger":1106,"gemein":1107,"hör":1108,"geben":1109,"owever":1110,"As":1111,"into":1112,"Fin":1113,"ific":1114,"wend":1115,"zial":1116,"wirk":1117,"fund":1118,"say":1119,"sure":1120,"los":1121,"ding":1122,"igung":1123,"same":1124,"Maß":1125,"ihr":1126,"oh":1127,"particular":1128,"best":1129,"make":1130,"ustr":1131,"kte":1132,"Pol":1133,"diff":1134,"bal":1135,"sible":1136,"Über":1137,"pub":1138,"So":1139,"zwischen":1140,"order":1141,"wür":1142,"ween":1143,"itution":1144,"gleich":1145,"fä":1146,"concern":1147,"between":1148,"those":1149,"innen":1150,"wel":1151,"lau":1152,"chn":1153,"ket":1154,"ite":1155,"lar":1156,"Land":1157,"rap":1158,"brauch":1159,"read":1160,"gest":1161,"Än":1162,"mat":1163,"cour":1164,"fu":1165,"zen":1166,"chts":1167,"ittee":1168,"being":1169,"ti":1170,"Änder":1171,"isten":1172,"habe":1173,"belie":1174,"äm":1175,"neu":1176,"human":1177,"wirtschaft":1178,"diesen":1179,"tern":1180,"bess":1181,"fra":1182,"Haus":1183,"emp":1184,"stru":1185,"ats":1186,"when":1187,"ved":1188,"program":1189,"europäischen":1190,"ine":1191,"rights":1192,"jed":1193,"respon":1194,"Bere":1195,"isation":1196,"ot":1197,"olle":1198,"xt":1199,"trag":1200,"political":1201,"unkt":1202,"äch":1203,"Zeit":1204,"therefore":1205,"wen":1206,"allen":1207,"Bürger":1208,"ieden":1209,"tin":1210,"bring":1211,"gibt":1212,"oug":1213,"ual":1214,"issen":1215,"richt":1216,"zeit":1217,"trä":1218,"were":1219,"ural":1220,"mon":1221,"Al":1222,"lä":1223,"sicher":1224,"ian":1225,"many":1226,"gu":1227,"Gem":1228,"ame":1229,"acht":1230,"Se":1231,"thin":1232,"economic":1233,"cas":1234,"ives":1235,"ision":1236,"ues":1237,"made":1238,"Jahr":1239,"formation":1240,"icher":1241,"Sta":1242,"ject":1243,"damit":1244,"gent":1245,"keine":1246,"ionen":1247,"Frage":1248,"unsere":1249,"rag":1250,"than":1251,"effe":1252,"mich":1253,"atz":1254,"agreement":1255,"entr":1256,"fer":1257,"know":1258,"Min":1259,"mal":1260,"first":1261,"ors":1262,"olog":1263,"ändern":1264,"ress":1265,"Commissioner":1266,"Ih":1267,"amen":1268,"Gemein":1269,"spre":1270,"ating":1271,"great":1272,"rei":1273,"Kommiss":1274,"lu":1275,"believe":1276,"Str":1277,"bin":1278,"pen":1279,"icult":1280,"jedoch":1281,"Richt":1282,"see":1283,"point":1284,"view":1285,"ms":1286,"gehen":1287,"ient":1288,"weil":1289,"sondern":1290,"achen":1291,"here":1292,"most":1293,"Bereich":1294,"Kommissar":1295,"comp":1296,"Te":1297,"vern":1298,"ister":1299,"public":1300,"ving":1301,"Herrn":1302,"weise":1303,"Maßnahmen":1304,"beste":1305,"right":1306,"tent":1307,"uro":1308,"cer":1309,"social":1310,"199":1311,"bst":1312,"where":1313,"anderen":1314,"qual":1315,"wichtig":1316,"proposal":1317,"against":1318,"erst":1319,"isl":1320,"roug":1321,"welt":1322,"led":1323,"meas":1324,"debate":1325,"Mar":1326,"hn":1327,"heute":1328,"sollte":1329,"immer":1330,"unterstü":1331,"sollten":1332,"ef":1333,"organ":1334,"Entwicklung":1335,"use":1336,"ßer":1337,"Sicher":1338,"tens":1339,"then":1340,"ves":1341,"lim":1342,"cond":1343,"wort":1344,"tun":1345,"cre":1346,"eng":1347,"prote":1348,"Aussch":1349,"market":1350,"det":1351,"finan":1352,"nat":1353,"ks":1354,"pect":1355,"eral":1356,"citi":1357,"legal":1358,"dann":1359,"art":1360,"Con":1361,"Parlaments":1362,"sowie":1363,"That":1364,"grund":1365,"vir":1366,"alth":1367,"tt":1368,"fest":1369,"Ko":1370,"währ":1371,"think":1372,"operation":1373,"cept":1374,"plement":1375,"transp":1376,"pra":1377,"fall":1378,"well":1379,"There":1380,"ischer":1381,"even":1382,"Vorschlag":1383,"dan":1384,"inn":1385,"Berich":1386,"possible":1387,"Mittel":1388,"bereits":1389,"development":1390,"wohl":1391,"ele":1392,"Committee":1393,"serv":1394,"ständ":1395,"bis":1396,"Kr":1397,"mittel":1398,"consider":1399,"loy":1400,"zwe":1401,"geht":1402,"situation":1403,"amend":1404,"issue":1405,"ope":1406,"zens":1407,"main":1408,"increas":1409,"country":1410,"question":1411,"stimm":1412,"andel":1413,"Fraktion":1414,"adop":1415,"Änderungs":1416,"far":1417,"okrat":1418,"ough":1419,"hel":1420,"feren":1421,"ices":1422,"years":1423,"two":1424,"fut":1425,"ulation":1426,"sagen":1427,"techn":1428,"Besch":1429,"besondere":1430,"net":1431,"certain":1432,"har":1433,"udget":1434,"raft":1435,"entlich":1436,"wes":1437,"Me":1438,"put":1439,"onment":1440,"essen":1441,"level":1442,"möglich":1443,"Wirtschaft":1444,"real":1445,"ional":1446,"denn":1447,"piel":1448,"erson":1449,"bie":1450,"contin":1451,"future":1452,"Dem":1453,"isen":1454,"genommen":1455,"voll":1456,"resol":1457,"ready":1458,"govern":1459,"enz":1460,"had":1461,"ited":1462,"cted":1463,"Im":1464,"wurden":1465,"want":1466,"vironment":1467,"Ges":1468,"stell":1469,"fahren":1470,"exam":1471,"own":1472,"Nach":1473,"cannot":1474,"Rechts":1475,"äft":1476,"add":1477,"citizens":1478,"Sit":1479,"erung":1480,"less":1481,"meine":1482,"does":1483,"kehr":1484,"gar":1485,"wieder":1486,"nahme":1487,"woll":1488,"ganz":1489,"darauf":1490,"denen":1491,"low":1492,"ply":1493,"ahmen":1494,"ful":1495,"last":1496,"measures":1497,"ordnung":1498,"ask":1499,"unserer":1500,"rough":1501,"führen":1502,"ised":1503,"komm":1504,"Rahmen":1505,"stehen":1506,"air":1507,"ritt":1508,"Finanz":1509,"Gro":1510,"bre":1511,"every":1512,"imin":1513,"vom":1514,"beg":1515,"ild":1516,"linie":1517,"legisl":1518,"could":1519,"curr":1520,"ory":1521,"regard":1522,"letz":1523,"compe":1524,"porte":1525,"dafür":1526,"geste":1527,"full":1528,"sprechen":1529,"vers":1530,"disc":1531,"strument":1532,"reichen":1533,"lagen":1534,"Ne":1535,"said":1536,"Ste":1537,"ße":1538,"Verein":1539,"today":1540,"vote":1541,"Wie":1542,"tion":1543,"besch":1544,"strateg":1545,"öff":1546,"posit":1547,"through":1548,"stitution":1549,"trol":1550,"employ":1551,"matter":1552,"terstat":1553,"implement":1554,"good":1555,"Or":1556,"much":1557,"ree":1558,"tegr":1559,"fo":1560,"still":1561,"setzen":1562,"isk":1563,"abl":1564,"jetzt":1565,"position":1566,"utions":1567,"zug":1568,"satz":1569,"handl":1570,"hap":1571,"already":1572,"klär":1573,"how":1574,"hol":1575,"mir":1576,"kel":1577,"dazu":1578,"budget":1579,"Wenn":1580,"sozial":1581,"ihrer":1582,"too":1583,"cent":1584,"fl":1585,"af":1586,"Kollegen":1587,"ards":1588,"industr":1589,"financial":1590,"porteur":1591,"achie":1592,"Energ":1593,"within":1594,"ority":1595,"lobal":1596,"set":1597,"iß":1598,"Tr":1599,"beits":1600,"Mrs":1601,"num":1602,"ru":1603,"ship":1604,"immt":1605,"Ziel":1606,"omen":1607,"process":1608,"taken":1609,"Gemeinschaft":1610,"law":1611,"versch":1612,"spra":1613,"ös":1614,"environment":1615,"world":1616,"rapporteur":1617,"tze":1618,"requ":1619,"Mein":1620,"bewer":1621,"your":1622,"selbst":1623,"setzung":1624,"common":1625,"ho":1626,"sect":1627,"group":1628,"However":1629,"neuen":1630,"med":1631,"Berichterstat":1632,"thank":1633,"place":1634,"ffic":1635,"Problem":1636,"eben":1637,"hope":1638,"wissen":1639,"appro":1640,"energ":1641,"würde":1642,"Länder":1643,"both":1644,"ensure":1645,"high":1646,"course":1647,"insbesondere":1648,"10":1649,"sign":1650,"muß":1651,"führt":1652,"begr":1653,"Euro":1654,"heiten":1655,"Community":1656,"interest":1657,"Gese":1658,"Her":1659,"Recht":1660,"lassen":1661,"spol":1662,"fahr":1663,"ouse":1664,"prom":1665,"recht":1666,"akt":1667,"scheid":1668,"lage":1669,"machen":1670,"necess":1671,"cooperation":1672,"ga":1673,"itä":1674,"self":1675,"tal":1676,"Program":1677,"large":1678,"reason":1679,"agt":1680,"red":1681,"ispiel":1682,"urther":1683,"press":1684,"Des":1685,"Da":1686,"Arbeits":1687,"zeich":1688,"ausge":1689,"ade":1690,"ital":1691,"text":1692,"Zusammenarbeit":1693,"case":1694,"uring":1695,"vention":1696,"rechte":1697,"Ihnen":1698,"aller":1699,"princ":1700,"Politik":1701,"stim":1702,"action":1703,"curity":1704,"car":1705,"gang":1706,"doch":1707,"ack":1708,"gemeinsam":1709,"könn":1710,"number":1711,"Berichterstatter":1712,"unft":1713,"Unterstü":1714,"antwort":1715,"bereit":1716,"Ausschuss":1717,"öl":1718,"sim":1719,"hän":1720,"stär":1721,"his":1722,"wollen":1723,"ict":1724,"lan":1725,"ability":1726,"ert":1727,"Diese":1728,"itions":1729,"area":1730,"allem":1731,"Umwelt":1732,"ohne":1733,"spec":1734,"ss":1735,"isierung":1736,"redu":1737,"change":1738,"chan":1739,"auth":1740,"wn":1741,"einz":1742,"current":1743,"Art":1744,"assung":1745,"ismus":1746,"kunft":1747,"lang":1748,"ince":1749,"long":1750,"seit":1751,"worden":1752,"io":1753,"may":1754,"Richtlinie":1755,"Beit":1756,"information":1757,"licher":1758,"princi":1759,"glau":1760,"cing":1761,"ordin":1762,"call":1763,"hö":1764,"ähr":1765,"Welt":1766,"why":1767,"Unterstützung":1768,"half":1769,"orities":1770,"schr":1771,"politik":1772,"einige":1773,"All":1774,"Leben":1775,"energy":1776,"bat":1777,"hä":1778,"geord":1779,"fle":1780,"ürlich":1781,"glichkeit":1782,"maj":1783,"reaty":1784,"neue":1785,"ages":1786,"gew":1787,"Gen":1788,"means":1789,"Mad":1790,"seine":1791,"gangen":1792,"sc":1793,"chten":1794,"soc":1795,"andere":1796,"nisse":1797,"punkt":1798,"Mö":1799,"gentle":1800,"No":1801,"träge":1802,"av":1803,"geordne":1804,"zahl":1805,"Unternehmen":1806,"example":1807,"invol":1808,"geleg":1809,"necessary":1810,"gestellt":1811,"Jahren":1812,"gentlemen":1813,"ocr":1814,"Ger":1815,"ster":1816,"Sicherheit":1817,"contr":1818,"ence":1819,"without":1820,"heits":1821,"ium":1822,"Teil":1823,"ache":1824,"markt":1825,"ften":1826,"access":1827,"problems":1828,"finden":1829,"zeug":1830,"House":1831,"He":1832,"help":1833,"provide":1834,"ahr":1835,"protection":1836,"ules":1837,"Ländern":1838,"goti":1839,"ziel":1840,"however":1841,"Proble":1842,"If":1843,"politischen":1844,"wäre":1845,"streng":1846,"halts":1847,"respect":1848,"directive":1849,"compet":1850,"nun":1851,"ktur":1852,"gress":1853,"invest":1854,"falls":1855,"grö":1856,"antrag":1857,"global":1858,"plan":1859,"discuss":1860,"ttbewer":1861,"atic":1862,"Pr":1863,"betr":1864,"ialog":1865,"hof":1866,"ying":1867,"Russ":1868,"klar":1869,"Möglichkeit":1870,"ents":1871,"negoti":1872,"tem":1873,"programme":1874,"Vertrag":1875,"safe":1876,"Regierung":1877,"meiner":1878,"Entscheid":1879,"liegen":1880,"decision":1881,"fav":1882,"hungen":1883,"entral":1884,"derung":1885,"Abgeordne":1886,"schon":1887,"opport":1888,"ttbewerb":1889,"initi":1890,"Fall":1891,"Madam":1892,"igten":1893,"trans":1894,"Bed":1895,"aum":1896,"give":1897,"accept":1898,"particularly":1899,"statt":1900,"einmal":1901,"Mill":1902,"ately":1903,"ablish":1904,"Entschließ":1905,"before":1906,"represent":1907,"Mon":1908,"bringen":1909,"stimmung":1910,"val":1911,"issues":1912,"US":1913,"org":1914,"rem":1915,"wish":1916,"Namen":1917,"security":1918,"establish":1919,"une":1920,"wert":1921,"abil":1922,"Präsidentin":1923,"Strateg":1924,"open":1925,"Staaten":1926,"sä":1927,"favour":1928,"äß":1929,"Is":1930,"health":1931,"jo":1932,"zwei":1933,"käm":1934,"spolitik":1935,"given":1936,"resolution":1937,"areas":1938,"erent":1939,"To":1940,"licht":1941,"consum":1942,"Energie":1943,"reform":1944,"handelt":1945,"dra":1946,"agen":1947,"ölk":1948,"ilfe":1949,"Hin":1950,"Was":1951,"ifft":1952,"Br":1953,"wirklich":1954,"Thema":1955,"Treaty":1956,"hmen":1957,"illion":1958,"sector":1959,"employment":1960,"ret":1961,"Situation":1962,"whe":1963,"lossen":1964,"sprache":1965,"Group":1966,"istr":1967,"integr":1968,"gesetzt":1969,"lus":1970,"Verbrauch":1971,"wär":1972,"ically":1973,"ktor":1974,"women":1975,"vi":1976,"Frauen":1977,"vis":1978,"viele":1979,"walt":1980,"further":1981,"proced":1982,"Bedeut":1983,"hang":1984,"Fragen":1985,"find":1986,"europäische":1987,"Fl":1988,"idency":1989,"stellt":1990,"ivil":1991,"amework":1992,"folg":1993,"gesam":1994,"key":1995,"darüber":1996,"Bedeutung":1997,"zusam":1998,"power":1999,"Eben":2000,"impro":2001,"spr":2002,"Minister":2003,"star":2004,"etwas":2005,"gere":2006,"Handel":2007,"difficult":2008,"clo":2009,"acc":2010,"Rates":2011,"ienst":2012,"iften":2013,"Lage":2014,"Meinung":2015,"Schutz":2016,"whether":2017,"bt":2018,"On":2019,"letzten":2020,"ler":2021,"notwend":2022,"sibility":2023,"ways":2024,"beral":2025,"require":2026,"amendments":2027,"aid":2028,"zusammen":2029,"ladies":2030,"again":2031,"lick":2032,"sehen":2033,"sequ":2034,"unterstützen":2035,"look":2036,"Lös":2037,"Stand":2038,"ihren":2039,"Members":2040,"bau":2041,"stellung":2042,"ore":2043,"after":2044,"besteht":2045,"different":2046,"kün":2047,"schriften":2048,"commit":2049,"inde":2050,"pri":2051,"opin":2052,"cris":2053,"Zukunft":2054,"United":2055,"darf":2056,"accoun":2057,"Ir":2058,"struct":2059,"behalf":2060,"basis":2061,"ene":2062,"suc":2063,"iele":2064,"kten":2065,"führung":2066,"programm":2067,"Haushalts":2068,"role":2069,"nal":2070,"uf":2071,"contrib":2072,"meet":2073,"zü":2074,"since":2075,"amil":2076,"regional":2077,"going":2078,"mög":2079,"crit":2080,"proposals":2081,"result":2082,"daher":2083,"trade":2084,"Probleme":2085,"Aussprache":2086,"begrü":2087,"isions":2088,"gesagt":2089,"Fort":2090,"Gebie":2091,"ys":2092,"deal":2093,"ird":2094,"Regel":2095,"äuß":2096,"ward":2097,"ko":2098,"Ind":2099,"agree":2100,"serious":2101,"terms":2102,"Fisch":2103,"Li":2104,"idar":2105,"ace":2106,"alten":2107,"plic":2108,"fully":2109,"iff":2110,"pract":2111,"ierungs":2112,"conf":2113,"next":2114,"services":2115,"bede":2116,"instit":2117,"igr":2118,"back":2119,"poin":2120,"promo":2121,"zurück":2122,"Em":2123,"pend":2124,"dür":2125,"speak":2126,"reif":2127,"Wettbewerb":2128,"folgen":2129,"natürlich":2130,"finanz":2131,"bu":2132,"mut":2133,"progress":2134,"fach":2135,"wards":2136,"used":2137,"rules":2138,"institution":2139,"effor":2140,"Gesch":2141,"ante":2142,"done":2143,"follow":2144,"person":2145,"ierten":2146,"äge":2147,"gut":2148,"effective":2149,"aff":2150,"erforder":2151,"inner":2152,"größ":2153,"Zusammenhang":2154,"15":2155,"aussch":2156,"entlichen":2157,"aim":2158,"agement":2159,"ater":2160,"Ch":2161,"adopted":2162,"12":2163,"defin":2164,"EC":2165,"wier":2166,"comple":2167,"ctions":2168,"seiner":2169,"Best":2170,"Rolle":2171,"itt":2172,"eigen":2173,"außer":2174,"better":2175,"uer":2176,"tragen":2177,"Fol":2178,"Wo":2179,"kur":2180,"Organ":2181,"Kolleg":2182,"framework":2183,"quality":2184,"för":2185,"legislation":2186,"iten":2187,"reco":2188,"Deshalb":2189,"weisen":2190,"zwar":2191,"ings":2192,"geführt":2193,"exist":2194,"allow":2195,"colle":2196,"nationalen":2197,"System":2198,"grat":2199,"approach":2200,"Am":2201,"waren":2202,"cap":2203,"kes":2204,"What":2205,"amental":2206,"Abstimmung":2207,"aw":2208,"Verhandl":2209,"Änderungsan":2210,"But":2211,"handel":2212,"ämlich":2213,"Chin":2214,"urn":2215,"glaube":2216,"Produ":2217,"Ergeb":2218,"needs":2219,"mone":2220,"steht":2221,"nämlich":2222,"Kom":2223,"agr":2224,"sm":2225,"elle":2226,"nie":2227,"esen":2228,"government":2229,"ential":2230,"crisis":2231,"ücksicht":2232,"bestimm":2233,"Disk":2234,"inclu":2235,"positive":2236,"instrument":2237,"gehör":2238,"Demokrat":2239,"nor":2240,"Bes":2241,"mention":2242,"zess":2243,"making":2244,"arbeiten":2245,"continue":2246,"tikel":2247,"Markt":2248,"whole":2249,"gaben":2250,"opinion":2251,"verschieden":2252,"lle":2253,"prü":2254,"gesehen":2255,"step":2256,"Kin":2257,"Sozial":2258,"kr":2259,"ja":2260,"enth":2261,"institutions":2262,"edom":2263,"gegenüber":2264,"imes":2265,"selves":2266,"unseren":2267,"gelegt":2268,"onds":2269,"grow":2270,"stimmen":2271,"guar":2272,"fäh":2273,"gestimmt":2274,"leist":2275,"espe":2276,"commun":2277,"vious":2278,"Schl":2279,"lud":2280,"Gleich":2281,"llschaft":2282,"treten":2283,"job":2284,"Information":2285,"agricult":2286,"häng":2287,"prochen":2288,"resour":2289,"Bar":2290,"recent":2291,"kung":2292,"000":2293,"second":2294,"danken":2295,"Artikel":2296,"concerned":2297,"ban":2298,"Debat":2299,"Verbraucher":2300,"member":2301,"voted":2302,"liegt":2303,"cor":2304,"ference":2305,"Vol":2306,"terr":2307,"unden":2308,"luding":2309,"mil":2310,"Seit":2311,"Beschäft":2312,"At":2313,"move":2314,"gend":2315,"transport":2316,"davon":2317,"betrifft":2318,"control":2319,"regul":2320,"racy":2321,"schein":2322,"Gesund":2323,"forward":2324,"tax":2325,"gratul":2326,"2000":2327,"einzu":2328,"11":2329,"scheiden":2330,"State":2331,"leicht":2332,"sum":2333,"cost":2334,"leben":2335,"hät":2336,"ritte":2337,"three":2338,"line":2339,"lichkeit":2340,"Tur":2341,"legenheit":2342,"var":2343,"down":2344,"Initi":2345,"working":2346,"politische":2347,"account":2348,"extre":2349,"improve":2350,"demokrat":2351,"genau":2352,"hervor":2353,"Verantwort":2354,"benef":2355,"wach":2356,"Mehr":2357,"Bel":2358,"fassen":2359,"Ex":2360,"ually":2361,"blick":2362,"wendung":2363,"dings":2364,"gern":2365,"taking":2366,"road":2367,"few":2368,"Menschenrechte":2369,"besser":2370,"Wor":2371,"Ant":2372,"Weise":2373,"Fe":2374,"towards":2375,"pay":2376,"welcome":2377,"könnte":2378,"deren":2379,"ged":2380,"Sol":2381,"atives":2382,"cal":2383,"ible":2384,"Punkt":2385,"näch":2386,"ationen":2387,"ahre":2388,"Dar":2389,"something":2390,"EUR":2391,"democr":2392,"schutz":2393,"nov":2394,"free":2395,"drei":2396,"gether":2397,"Weg":2398,"bur":2399,"daran":2400,"bus":2401,"edu":2402,"Europas":2403,"TO":2404,"Fre":2405,"uck":2406,"Aber":2407,"conditions":2408,"offen":2409,"ising":2410,"Ebene":2411,"specific":2412,"Part":2413,"Herren":2414,"trodu":2415,"Institution":2416,"technolog":2417,"achieve":2418,"principle":2419,"freedom":2420,"UN":2421,"introdu":2422,"guarante":2423,"verkehr":2424,"resources":2425,"Wahl":2426,"kle":2427,"Wirtschafts":2428,"ail":2429,"hoffe":2430,"osed":2431,"appe":2432,"ichts":2433,"exper":2434,"bel":2435,"-,":2436,"state":2437,"reifen":2438,"transpar":2439,"ziehen":2440,"iness":2441,"ified":2442,"bed":2443,"geschlagen":2444,"zept":2445,"based":2446,"success":2447,"cially":2448,"Wi":2449,"ep":2450,"erken":2451,"Forsch":2452,"including":2453,"Not":2454,"subject":2455,"together":2456,"igkeiten":2457,"13":2458,"schaften":2459,"jen":2460,"Ange":2461,"shall":2462,"merk":2463,"carr":2464,"Sp":2465,"während":2466,"les":2467,"priv":2468,"itäten":2469,"sha":2470,"Lebens":2471,"Lis":2472,"Fortsch":2473,"Strategie":2474,"Und":2475,"große":2476,"bestehen":2477,"Stra":2478,"understand":2479,"importance":2480,"Dienst":2481,"leisten":2482,"anges":2483,"ven":2484,"earch":2485,"proposed":2486,"research":2487,"dabei":2488,"opportunity":2489,"sid":2490,"brauchen":2491,"ierte":2492,"direct":2493,"Beispiel":2494,"kein":2495,"druck":2496,"did":2497,"essential":2498,"airs":2499,"Vorschläge":2500,"general":2501,"really":2502,"regulation":2503,"gegeben":2504,"fundamental":2505,"tention":2506,"reach":2507,"million":2508,"Durch":2509,"iar":2510,"Nor":2511,"Presidency":2512,"Damen":2513,"Jahre":2514,"Wer":2515,"wün":2516,"maß":2517,"ativen":2518,"Änderungsantrag":2519,"Bezug":2520,"zweit":2521,"anzu":2522,"hau":2523,"policies":2524,"socie":2525,"gewähr":2526,"authorities":2527,"Med":2528,"third":2529,"crimin":2530,"ehr":2531,"Ansicht":2532,"gabe":2533,"racht":2534,"Transp":2535,"increase":2536,"Bem":2537,"wegen":2538,"especially":2539,"wärt":2540,"Viel":2541,"sur":2542,"peace":2543,"fordern":2544,"ants":2545,"sor":2546,"spräsident":2547,"hung":2548,"schaffen":2549,"let":2550,"sowohl":2551,"fte":2552,"ogen":2553,"during":2554,"ator":2555,"Stru":2556,"fehl":2557,"activ":2558,"Lösung":2559,"fun":2560,"propri":2561,"ale":2562,"rift":2563,"Rechte":2564,"Debatte":2565,"entscheiden":2566,"ivid":2567,"cult":2568,"itor":2569,"schließlich":2570,"sweise":2571,"Kolleginnen":2572,"terror":2573,"darin":2574,"industry":2575,"border":2576,"prof":2577,"dürfen":2578,"strategy":2579,"sour":2580,"force":2581,"recog":2582,"products":2583,"erhalten":2584,"Abgeordneten":2585,"unehmen":2586,"stain":2587,"eig":2588,"Grün":2589,"gele":2590,"lon":2591,"ilt":2592,"negotiations":2593,"ises":2594,"bon":2595,"mitt":2596,"environmental":2597,"appropri":2598,"Lu":2599,"pur":2600,"term":2601,"bind":2602,"völk":2603,"besonders":2604,"clearly":2605,"responsibility":2606,"ocracy":2607,"geschlossen":2608,"lead":2609,"pfung":2610,"ihnen":2611,"hörden":2612,"least":2613,"greater":2614,"Umsetzung":2615,"viol":2616,"another":2617,"internationalen":2618,"become":2619,"safety":2620,"Industr":2621,"fair":2622,"Demokratie":2623,"China":2624,"künft":2625,"ency":2626,"Afr":2627,"itself":2628,"fficient":2629,"small":2630,"Änderungsanträge":2631,"quite":2632,"ildung":2633,"kommt":2634,"frei":2635,"enzen":2636,"Tats":2637,"lea":2638,"vorgeschlagen":2639,"Zahl":2640,"coming":2641,"Person":2642,"verständ":2643,"wic":2644,"inform":2645,"staat":2646,"adv":2647,"rather":2648,"Abkommen":2649,"gemeinsamen":2650,"ared":2651,"Auch":2652,"abhäng":2653,"ktiv":2654,"großen":2655,"business":2656,"They":2657,"standards":2658,"prevent":2659,"overn":2660,"though":2661,"trau":2662,"fragen":2663,"absol":2664,"ists":2665,"play":2666,"30":2667,"inz":2668,"wirtschaftlichen":2669,"hnt":2670,"Binnen":2671,"welche":2672,"ield":2673,"teilung":2674,"einzel":2675,"hält":2676,"beding":2677,"uni":2678,"express":2679,"democracy":2680,"while":2681,"dessen":2682,"folgt":2683,"each":2684,"prec":2685,"kre":2686,"denken":2687,"gener":2688,"Fischere":2689,"ächst":2690,"addition":2691,"demand":2692,"raph":2693,"regions":2694,"Terr":2695,"ichten":2696,"Govern":2697,"uten":2698,"obje":2699,"always":2700,"sozialen":2701,"oment":2702,"object":2703,"Verhandlungen":2704,"Währ":2705,"rechts":2706,"individ":2707,"enter":2708,"ziehungen":2709,"yo":2710,"deutlich":2711,"unächst":2712,"miss":2713,"These":2714,"Millionen":2715,"Eine":2716,"utzen":2717,"Hinblick":2718,"Instrument":2719,"once":2720,"berücksicht":2721,"ize":2722,"Hilfe":2723,"nehmer":2724,"fordert":2725,"attention":2726,"Fund":2727,"suchen":2728,"reicht":2729,"Verordnung":2730,"ingle":2731,"democratic":2732,"hinaus":2733,"region":2734,"ont":2735,"care":2736,"Entwicklungs":2737,"weiterhin":2738,"lack":2739,"mend":2740,"Erklär":2741,"things":2742,"frage":2743,"Zust":2744,"internal":2745,"interests":2746,"ragen":2747,"bil":2748,"att":2749,"pflicht":2750,"ances":2751,"gerade":2752,"bereich":2753,"bour":2754,"entwic":2755,"Ziele":2756,"vest":2757,"icle":2758,"society":2759,"organis":2760,"compan":2761,"deshalb":2762,"hist":2763,"Aspe":2764,"implementation":2765,"Ausschusses":2766,"ase":2767,"esse":2768,"ierungen":2769,"ross":2770,"major":2771,"Tür":2772,"stum":2773,"schrift":2774,"milit":2775,"inzip":2776,"För":2777,"innerhalb":2778,"anim":2779,"denke":2780,"50":2781,"Dah":2782,"Gesetz":2783,"einigen":2784,"Arbeitsp":2785,"llig":2786,"DE":2787,"sto":2788,"Entschließung":2789,"Res":2790,"kämpfung":2791,"weg":2792,"ferenz":2793,"llung":2794,"points":2795,"ersten":2796,"Daher":2797,"Verfahren":2798,"schied":2799,"schne":2800,"month":2801,"money":2802,"werde":2803,"gemeinsame":2804,"kannt":2805,"fight":2806,"economy":2807,"lines":2808,"beim":2809,"extreme":2810,"14":2811,"wichtige":2812,"erreichen":2813,"ingen":2814,"Isra":2815,"ktionen":2816,"Verantwortung":2817,"ffiz":2818,"sollen":2819,"Ihre":2820,"strong":2821,"schä":2822,"wiesen":2823,"efforts":2824,"signific":2825,"angenommen":2826,"alles":2827,"Zwe":2828,"einfach":2829,"relation":2830,"illegal":2831,"various":2832,"Fä":2833,"fel":2834,"show":2835,"rece":2836,"Institutionen":2837,"initiative":2838,"Ende":2839,"ably":2840,"cation":2841,"Invest":2842,"isher":2843,"halte":2844,"Verf":2845,"wirkungen":2846,"Haushalt":2847,"zogen":2848,"Erweiter":2849,"draw":2850,"systems":2851,"Ital":2852,"kei":2853,"dest":2854,"exp":2855,"derzeit":2856,"itionen":2857,"erziel":2858,"tar":2859,"Rom":2860,"Agr":2861,"writ":2862,"comes":2863,"genann":2864,"Nat":2865,"committee":2866,"words":2867,"zung":2868,"Partner":2869,"Proje":2870,"zeu":2871,"food":2872,"züglich":2873,"yet":2874,"Regionen":2875,"ily":2876,"Grundlage":2877,"ichte":2878,"ples":2879,"Verkehr":2880,"subst":2881,"zeigt":2882,"ick":2883,"Amer":2884,"zustellen":2885,"ifiz":2886,"gemacht":2887,"minister":2888,"utet":2889,"mult":2890,"iben":2891,"refer":2892,"applic":2893,"sustain":2894,"funds":2895,"affe":2896,"zeitig":2897,"ika":2898,"notwendig":2899,"ining":2900,"colleag":2901,"proper":2902,"ateral":2903,"procedure":2904,"parliament":2905,"pop":2906,"Bevölk":2907,"ension":2908,"eded":2909,"Pal":2910,"fang":2911,"field":2912,"Pl":2913,"Aff":2914,"zunehmen":2915,"proje":2916,"ief":2917,"Tex":2918,"lück":2919,"communic":2920,"füg":2921,"creat":2922,"Dire":2923,"light":2924,"ermög":2925,"Frei":2926,"ton":2927,"Fir":2928,"verbess":2929,"seits":2930,"solche":2931,"Binnenmarkt":2932,"involved":2933,"amb":2934,"teilen":2935,"enlarge":2936,"single":2937,"entsprechen":2938,"unt":2939,"dren":2940,"sätz":2941,"ildren":2942,"Diskuss":2943,"competition":2944,"having":2945,"ics":2946,"Tatsache":2947,"Amend":2948,"beiden":2949,"indem":2950,"growth":2951,"spiel":2952,"weitere":2953,"Man":2954,"iation":2955,"Frieden":2956,"ländern":2957,"short":2958,"USA":2959,"wee":2960,"cl":2961,"happen":2962,"gilt":2963,"rän":2964,"beispiel":2965,"..":2966,"concerns":2967,"challen":2968,"verfahren":2969,"Government":2970,"Auswirkungen":2971,"Entscheidung":2972,"seem":2973,"feel":2974,"Programm":2975,"del":2976,"cen":2977,"öt":2978,"Zugang":2979,"ächlich":2980,"accord":2981,"würden":2982,"erwä":2983,"ieben":2984,"Affairs":2985,"agreements":2986,"companies":2987,"strengthen":2988,"nichts":2989,"programmes":2990,"onstr":2991,"Dank":2992,"ikan":2993,"found":2994,"fähr":2995,"Bei":2996,"25":2997,"Just":2998,"Reform":2999,"affen":3000,"civil":3001,"euro":3002,"Ausdruck":3003,"row":3004,"among":3005,"prä":3006,"linien":3007,"children":3008,"abon":3009,"alled":3010,"Wort":3011,"auer":3012,"Außen":3013,"trolle":3014,"congratul":3015,"isches":3016,"treat":3017,"findet":3018,"kind":3019,"Lisbon":3020,"Liss":3021,"ialogue":3022,"yl":3023,"isse":3024,"gebracht":3025,"Lissabon":3026,"ods":3027,"close":3028,"objectives":3029,"emphas":3030,"Terror":3031,"workers":3032,"restr":3033,"utes":3034,"bank":3035,"increasing":3036,"risk":3037,"fortun":3038,"pact":3039,"Struktur":3040,"unterstützt":3041,"merksam":3042,"ither":3043,"unkte":3044,"Bo":3045,"erklär":3046,"resul":3047,"avail":3048,"Rück":3049,"encour":3050,"draft":3051,"einander":3052,"Informationen":3053,"majority":3054,"auszu":3055,"conclus":3056,"weniger":3057,"Form":3058,"ification":3059,"2001":3060,"heb":3061,"entliche":3062,"Wettbewerbs":3063,"And":3064,"statement":3065,"amendment":3066,"Verpflicht":3067,"management":3068,"often":3069,"mean":3070,"non":3071,"ebenfalls":3072,"organisation":3073,"Qu":3074,"darum":3075,"keinen":3076,"aware":3077,"solution":3078,"Jahres":3079,"production":3080,"icial":3081,"Pri":3082,"vision":3083,"Hau":3084,"answer":3085,"const":3086,"Let":3087,"Kam":3088,"Mal":3089,"decide":3090,"certainly":3091,"ness":3092,"commend":3093,"Kinder":3094,"trad":3095,"following":3096,"decisions":3097,"beispielsweise":3098,"tes":3099,"rele":3100,"istan":3101,"fish":3102,"affung":3103,"schwier":3104,"igration":3105,"vielen":3106,"ix":3107,"peri":3108,"Ratspräsident":3109,"regel":3110,"simply":3111,"gra":3112,"wahr":3113,"erb":3114,"ßt":3115,"agricultural":3116,"schre":3117,"CO":3118,"name":3119,"öffentlichen":3120,"vorschriften":3121,"ministr":3122,"Parte":3123,"sichtlich":3124,"gegenwärt":3125,"Förderung":3126,"ultur":3127,"Behörden":3128,"verl":3129,"Ur":3130,"Interesse":3131,"Türkei":3132,"betre":3133,"wesen":3134,"dou":3135,"anderer":3136,"dat":3137,"rach":3138,"Turkey":3139,"ters":3140,"angem":3141,"schließen":3142,"Wh":3143,"eigenen":3144,"life":3145,"Pre":3146,"effect":3147,"Beding":3148,"Den":3149,"ago":3150,"iges":3151,"called":3152,"Beziehungen":3153,"hon":3154,"Region":3155,"Als":3156,"partner":3157,"exce":3158,"iving":3159,"inten":3160,"hatte":3161,"atten":3162,"stärk":3163,"competit":3164,"verschiedenen":3165,"seinen":3166,"table":3167,"You":3168,"andid":3169,"ica":3170,"Tages":3171,"fonds":3172,"extremely":3173,"ently":3174,"groups":3175,"kurz":3176,"haltung":3177,"inge":3178,"relations":3179,"Organisation":3180,"First":3181,"idence":3182,"vielleicht":3183,"appropriate":3184,"Vertre":3185,"Kommissarin":3186,"flex":3187,"Beschl":3188,"aufen":3189,"einge":3190,"drück":3191,"Erweiterung":3192,"haps":3193,"Vereinigten":3194,"complete":3195,"significant":3196,"assist":3197,"dialogue":3198,"period":3199,"nu":3200,"kets":3201,"bedeutet":3202,"Kosten":3203,"schwer":3204,"objective":3205,"famil":3206,"coordin":3207,"remain":3208,"Notwend":3209,"def":3210,"dort":3211,"istet":3212,"particip":3213,"Betr":3214,"Proto":3215,"create":3216,"Emp":3217,"Stabil":3218,"ning":3219,"sitz":3220,"Schaffung":3221,"comprom":3222,"abour":3223,"aufge":3224,"Erach":3225,"Erachtens":3226,"tats":3227,"Israel":3228,"ieg":3229,"kut":3230,"pects":3231,"meth":3232,"gre":3233,"Antwort":3234,"ipfel":3235,"Dialog":3236,"mäß":3237,"farm":3238,"Ha":3239,"mechan":3240,"enten":3241,"might":3242,"context":3243,"mentioned":3244,"responsible":3245,"ausschuss":3246,"iver":3247,"states":3248,"Geld":3249,"Agen":3250,"pose":3251,"actually":3252,"sever":3253,"neg":3254,"questions":3255,"forderungen":3256,"receive":3257,"klein":3258,"han":3259,"Ira":3260,"fort":3261,"betra":3262,"länder":3263,"developing":3264,"sk":3265,"dom":3266,"iellen":3267,"ought":3268,"Interessen":3269,"Beitrag":3270,"angen":3271,"Tag":3272,"Beschäftigung":3273,"head":3274,"available":3275,"mü":3276,"cks":3277,"Sicherheits":3278,"stän":3279,"joint":3280,"Off":3281,"War":3282,"oft":3283,"sei":3284,"enlargement":3285,"Char":3286,"Article":3287,"cut":3288,"Cour":3289,"others":3290,"doc":3291,"jobs":3292,"start":3293,"hes":3294,"Prior":3295,"Standpunkt":3296,"document":3297,"char":3298,"altung":3299,"gute":3300,"dien":3301,"keep":3302,"allgem":3303,"ians":3304,"1999":3305,"Af":3306,"sogar":3307,"akzept":3308,"Wach":3309,"limate":3310,"protect":3311,"SE":3312,"mand":3313,"Industrie":3314,"posed":3315,"yn":3316,"Krise":3317,"2007":3318,"Rei":3319,"monitor":3320,"az":3321,"Klim":3322,"With":3323,"aufgrund":3324,"verein":3325,"him":3326,"WTO":3327,"erforderlich":3328,"Notwendigkeit":3329,"hätte":3330,"ichtet":3331,"rest":3332,"harmon":3333,"Ihr":3334,"jud":3335,"apply":3336,"pat":3337,"pass":3338,"Court":3339,"moment":3340,"indeed":3341,"äußerst":3342,"konkre":3343,"ience":3344,"Pos":3345,"länd":3346,"Bedingungen":3347,"Koso":3348,"consequ":3349,"demonstr":3350,"chter":3351,"nächsten":3352,"Russia":3353,"urs":3354,"Gebiet":3355,"konn":3356,"foc":3357,"special":3358,"results":3359,"weiß":3360,"Daten":3361,"2006":3362,"Port":3363,"2002":3364,"Qual":3365,"vol":3366,"Finally":3367,"wenig":3368,"Bevölkerung":3369,"currently":3370,"Bekämpfung":3371,"Landwirtschaft":3372,"struktur":3373,"ify":3374,"Arbeitsplä":3375,"cher":3376,"ißt":3377,"mals":3378,"Verwalt":3379,"meeting":3380,"Solidar":3381,"bleiben":3382,"Sub":3383,"weis":3384,"Komprom":3385,"concerning":3386,"könnten":3387,"impact":3388,"dert":3389,"Stellung":3390,"innov":3391,"schnell":3392,"jenigen":3393,"fung":3394,"mob":3395,"administr":3396,"Flug":3397,"meinen":3398,"gehört":3399,"kom":3400,"old":3401,"assess":3402,"Schritt":3403,"pleas":3404,"provid":3405,"Fischerei":3406,"Dieser":3407,"exc":3408,"Auff":3409,"frist":3410,"deta":3411,"wurf":3412,"ring":3413,"Wachstum":3414,"consumers":3415,"Überein":3416,"turn":3417,"Dienstleist":3418,"teilt":3419,"teile":3420,"bit":3421,"Aufgabe":3422,"anu":3423,"troll":3424,"deter":3425,"fas":3426,"2004":3427,"wichtigen":3428,"Anwendung":3429,"needed":3430,"wed":3431,"ove":3432,"Berichts":3433,"cru":3434,"besserung":3435,"ders":3436,"sus":3437,"cken":3438,"handeln":3439,"doing":3440,"setz":3441,"Forschung":3442,"bew":3443,"cases":3444,"Verbesserung":3445,"Text":3446,"recogn":3447,"Gegen":3448,"erwar":3449,"themselves":3450,"bezüglich":3451,"gets":3452,"liberal":3453,"members":3454,"climate":3455,"Heraus":3456,"EN":3457,"education":3458,"angemessen":3459,"schriftlich":3460,"macht":3461,"fähigkeit":3462,"Je":3463,"schie":3464,"never":3465,"arian":3466,"soziale":3467,"diskut":3468,"My":3469,"teid":3470,"verständlich":3471,"Kosovo":3472,"app":3473,"hlen":3474,"heißt":3475,"months":3476,"hinsichtlich":3477,"Präsidentschaft":3478,"legislative":3479,"meines":3480,"Ju":3481,"Reihe":3482,"igin":3483,"cover":3484,"matters":3485,"erreicht":3486,"ihrem":3487,"ibility":3488,"Für":3489,"Initiative":3490,"fördern":3491,"data":3492,"Kultur":3493,"ruck":3494,"conflic":3495,"gelten":3496,"Integr":3497,"Portug":3498,"vö":3499,"anal":3500,").":3501,"fortunately":3502,"shof":3503,"Office":3504,"request":3505,"cies":3506,"Bestimm":3507,"Wieder":3508,"amoun":3509,"Gesellschaft":3510,"principles":3511,"fert":3512,"solidar":3513,"abzu":3514,"vorschl":3515,"reasons":3516,"fisher":3517,"acceptable":3518,"recommend":3519,"Schul":3520,"2003":3521,"Fortschritte":3522,"dist":3523,"ellen":3524,"18":3525,"gangenen":3526,"test":3527,"Liberal":3528,"unde":3529,"Steuer":3530,"stra":3531,"Social":3532,"oren":3533,"Agrar":3534,"lands":3535,"Programme":3536,"maßnahmen":3537,"sicherheit":3538,"Vereinbar":3539,"wider":3540,"Folgen":3541,"allerdings":3542,"Tagesordnung":3543,"wirtschaftliche":3544,"ost":3545,"jeden":3546,"hil":3547,"final":3548,"tary":3549,"enough":3550,"ath":3551,"erfü":3552,"richtig":3553,"ground":3554,"lig":3555,"Hand":3556,"zentr":3557,"fail":3558,"brigen":3559,"Ob":3560,"Kenn":3561,"regards":3562,"eindeut":3563,"pers":3564,"individual":3565,"ked":3566,"Hier":3567,"som":3568,"Gipfel":3569,"sag":3570,"verb":3571,"koll":3572,"Kontrolle":3573,"stens":3574,"parties":3575,"fli":3576,"tell":3577,"jeder":3578,"baren":3579,"umfassen":3580,"ody":3581,"iveness":3582,"funding":3583,"cred":3584,"ihm":3585,"reports":3586,"gefähr":3587,"projects":3588,"ported":3589,"compromise":3590,"Prozess":3591,"costs":3592,"begrüße":3593,"brit":3594,"iken":3595,"pli":3596,"atast":3597,"ühr":3598,"nachhalt":3599,"ativ":3600,"grenz":3601,"äu":3602,"eth":3603,"constru":3604,"Secon":3605,"Second":3606,"longer":3607,"prep":3608,"atastrop":3609,"bisher":3610,"igungs":3611,"Zweit":3612,"mittl":3613,"due":3614,"equ":3615,"arr":3616,"lei":3617,"achieved":3618,"origin":3619,"vorzu":3620,"General":3621,"Kraft":3622,"ünd":3623,"Gesundheit":3624,"vorliegen":3625,"Ru":3626,"hnen":3627,"entire":3628,"üng":3629,"llent":3630,"Bereichen":3631,"Pe":3632,"activities":3633,"erste":3634,"riter":3635,"offer":3636,"sustainable":3637,"schließend":3638,"standen":3639,"unterschied":3640,"kommens":3641,"absolute":3642,"ende":3643,"priority":3644,"Janu":3645,"2005":3646,"groß":3647,"ches":3648,"East":3649,"local":3650,"Richtung":3651,"writing":3652,"entwickel":3653,"young":3654,"theless":3655,"gri":3656,"unternehmen":3657,"blo":3658,"address":3659,"ym":3660,"Ergebnis":3661,"verantwort":3662,"ihn":3663,"Arbeitnehmer":3664,"La":3665,"imum":3666,"Mitglieder":3667,"active":3668,"lement":3669,"ständig":3670,"Chr":3671,"using":3672,"ittle":3673,"Gelegenheit":3674,"fern":3675,"effiz":3676,"commitment":3677,"although":3678,"län":3679,"tru":3680,"Convention":3681,"folge":3682,"integration":3683,"Transpar":3684,"wenden":3685,"expect":3686,"17":3687,"worten":3688,"Stat":3689,"idea":3690,"aged":3691,"sug":3692,"atory":3693,"gument":3694,"respe":3695,"Span":3696,"dring":3697,"atis":3698,"Gemeinschafts":3699,"zehn":3700,"ielle":3701,"Auffassung":3702,"grundlegen":3703,"vict":3704,"achten":3705,"true":3706,"Vertrags":3707,"Mär":3708,"Verfüg":3709,"past":3710,"Öff":3711,"uppen":3712,"little":3713,"richtung":3714,"Gewalt":3715,"gesprochen":3716,"läss":3717,"ences":3718,"rec":3719,"promote":3720,"benefit":3721,"enthalten":3722,"ized":3723,"amt":3724,"governments":3725,"üssel":3726,"ever":3727,"2009":3728,"criter":3729,"einzelnen":3730,"FR":3731,"changes":3732,"Erklärung":3733,"labour":3734,"II":3735,"2010":3736,"arbeitet":3737,"Bürgerinnen":3738,"actions":3739,"Geschäft":3740,"Mehrheit":3741,"nothing":3742,"alen":3743,"meinem":3744,"congratulate":3745,"agenda":3746,"Amendment":3747,"krä":3748,"16":3749,"provided":3750,"europäischer":3751,"territ":3752,"legenheiten":3753,"oblig":3754,"nuclear":3755,"San":3756,"Bürgern":3757,"ternal":3758,"oten":3759,"excellent":3760,"legation":3761,"subsid":3762,"Einw":3763,"Kampf":3764,"EP":3765,"ims":3766,"Regierungen":3767,"perhaps":3768,"item":3769,"sucht":3770,"hlt":3771,"Vorschriften":3772,"maintain":3773,"Dec":3774,"Personen":3775,"kra":3776,"gemäß":3777,"met":3778,"uppe":3779,"mind":3780,"solidarity":3781,"Sel":3782,"regarding":3783,"vorgesehen":3784,"Transparenz":3785,"foreign":3786,"enor":3787,"Sektor":3788,"Rights":3789,"fün":3790,"ritts":3791,"scheint":3792,"ebenso":3793,"markets":3794,"ound":3795,"Handels":3796,"Protokoll":3797,"beteil":3798,"ulture":3799,"troffen":3800,"ond":3801,"wan":3802,"opt":3803,"include":3804,"agreed":3805,"stre":3806,"hear":3807,"yes":3808,"elect":3809,"Mil":3810,"win":3811,"previous":3812,"jähr":3813,"völlig":3814,"side":3815,"erfolg":3816,"above":3817,"Brit":3818,"Bemü":3819,"schieden":3820,"gesamten":3821,"itim":3822,"Einführung":3823,"gewährleisten":3824,"Nicht":3825,"dig":3826,"cho":3827,"verstär":3828,"pack":3829,"guarantee":3830,"lied":3831,"weder":3832,"Rats":3833,"seen":3834,"bl":3835,"betro":3836,"Eng":3837,"tatsächlich":3838,"indic":3839,"Rechtsvorschriften":3840,"unities":3841,"try":3842,"verhin":3843,"ators":3844,"anken":3845,"makes":3846,"itäts":3847,"share":3848,"structure":3849,"aspects":3850,"gas":3851,"rup":3852,"Famil":3853,"burg":3854,"vier":3855,"consumer":3856,"Berichterstatterin":3857,"aut":3858,"eas":3859,"treffen":3860,"schul":3861,"potent":3862,"fallen":3863,"histor":3864,"heut":3865,"mitteln":3866,"Iran":3867,"Staats":3868,"Möglichkeiten":3869,"itu":3870,"alität":3871,"raum":3872,"humanit":3873,"Diskussion":3874,"irc":3875,"betroffen":3876,"project":3877,"asser":3878,"letzt":3879,"Bal":3880,"Dam":3881,"four":3882,"nutzen":3883,"Sep":3884,"Verfügung":3885,"top":3886,"firm":3887,"Per":3888,"amp":3889,"event":3890,"danger":3891,"bedeuten":3892,"Techn":3893,"transparency":3894,"Lin":3895,"population":3896,"post":3897,"Konfli":3898,"ode":3899,"pfen":3900,"circ":3901,"Bank":3902,"Dok":3903,"Internet":3904,"nt":3905,"soon":3906,"accession":3907,"several":3908,"Pra":3909,"lot":3910,"Dritt":3911,"sieht":3912,"Directive":3913,"morgen":3914,"40":3915,"nehm":3916,"relev":3917,"utzung":3918,"Erfolg":3919,"ane":3920,"Entschließungs":3921,"sufficient":3922,"suff":3923,"iter":3924,"imension":3925,"conne":3926,"ined":3927,"istischen":3928,"telle":3929,"Seite":3930,"Meine":3931,"Selbst":3932,"Our":3933,"Sitzung":3934,"intens":3935,"amer":3936,"upon":3937,"schü":3938,"Außer":3939,"bezie":3940,"formen":3941,"neut":3942,"stead":3943,"body":3944,"Fest":3945,"she":3946,"heben":3947,"water":3948,"emiss":3949,"neuer":3950,"iled":3951,"zusätz":3952,"hard":3953,"samen":3954,"contribution":3955,"gesetz":3956,"discrimin":3957,"appear":3958,"2008":3959,"avo":3960,"chnung":3961,"Entscheidungen":3962,"etwa":3963,"Empfehl":3964,"fügen":3965,"response":3966,"verbessern":3967,"exten":3968,"tomor":3969,"tomorrow":3970,"terrorism":3971,"hne":3972,"technical":3973,"continu":3974,"Sor":3975,"communication":3976,"demokratischen":3977,"gleichen":3978,"Dokument":3979,"ES":3980,"Gesundheits":3981,"ras":3982,"uine":3983,"engen":3984,"onen":3985,"Themen":3986,"Ukra":3987,"usst":3988,"Rede":3989,"stop":3990,"gesellschaft":3991,"wünschen":3992,"practice":3993,"gleichzeitig":3994,"conclu":3995,"Therefore":3996,"Ansatz":3997,"verg":3998,"union":3999,"nimmt":4000,"discussion":4001,"Secondly":4002,"ph":4003,"frü":4004,"üsse":4005,"voting":4006,"flu":4007,"ledge":4008,"cohes":4009,"tember":4010,"Wes":4011,"legung":4012,"setzt":4013,"balance":4014,"Tra":4015,"held":4016,"Sou":4017,"values":4018,"27":4019,"zunächst":4020,"AC":4021,"ichen":4022,"hatten":4023,"ican":4024,"ceed":4025,"erinn":4026,"itet":4027,"eign":4028,"spricht":4029,"riterien":4030,"pite":4031,"refu":4032,"September":4033,"ktions":4034,"bekannt":4035,"col":4036,"angesichts":4037,"investment":4038,"existing":4039,"iere":4040,"One":4041,"IT":4042,"colleagues":4043,"unserem":4044,"determin":4045,"criteria":4046,"Koh":4047,"nissen":4048,"Zweitens":4049,"provisions":4050,"Menschenrechts":4051,"Ausschuß":4052,"network":4053,"seems":4054,"ison":4055,"Kap":4056,"ana":4057,"fünf":4058,"pover":4059,"Außerdem":4060,"gü":4061,"erheb":4062,"wand":4063,"repe":4064,"Gree":4065,"procedures":4066,"Opf":4067,"Volks":4068,"private":4069,"pleased":4070,"Thank":4071,"lö":4072,"Angelegenheit":4073,"conv":4074,"insicht":4075,"Hinsicht":4076,"elections":4077,"prakt":4078,"sektor":4079,"lik":4080,"service":4081,"danke":4082,"Vertrau":4083,"ktive":4084,"Do":4085,"schluss":4086,"altern":4087,"abkommen":4088,"pendent":4089,"face":4090,"Leg":4091,"Terrorismus":4092,"refle":4093,"Bestimmungen":4094,"Geschäfts":4095,"bieten":4096,"stability":4097,"zeichnet":4098,"cultural":4099,"assistance":4100,"institutional":4101,"violence":4102,"Russland":4103,"),":4104,"sense":4105,"mann":4106,"befür":4107,"precise":4108,"poor":4109,"hend":4110,"creation":4111,"nü":4112,"week":4113,"ourselves":4114,"obvious":4115,"vertreten":4116,"gewä":4117,"Kön":4118,"helfen":4119,"getan":4120,"wobei":4121,"Ris":4122,"adopt":4123,"potential":4124,"tack":4125,"fishing":4126,"prüfen":4127,"spar":4128,"stage":4129,"handlung":4130,"Ergebnisse":4131,"hm":4132,"cohesion":4133,"Solidarität":4134,"Punkte":4135,"Nationen":4136,"Finanzierung":4137,"reiche":4138,"instruments":4139,"scht":4140,"Gefahr":4141,"pressed":4142,"bzw":4143,"ilität":4144,"Spra":4145,"einheit":4146,"bare":4147,"prozess":4148,"aper":4149,"military":4150,"aufzu":4151,"beitragen":4152,"mein":4153,"eing":4154,"quick":4155,"seinem":4156,"Uns":4157,"poverty":4158,"kraft":4159,"until":4160,"Nove":4161,"Bemühungen":4162,"asked":4163,"rang":4164,"acce":4165,"inne":4166,"crucial":4167,"ption":4168,"Schluss":4169,"times":4170,"traffic":4171,"everyone":4172,"carried":4173,"iers":4174,"basic":4175,"training":4176,"'.":4177,"haupt":4178,"sagte":4179,"ifel":4180,"Haupt":4181,"saying":4182,"mber":4183,"Democr":4184,"regulations":4185,"tabled":4186,"Komm":4187,"conta":4188,"honour":4189,"guide":4190,"Fern":4191,"front":4192,"rate":4193,"Integration":4194,"dut":4195,"Armut":4196,"erhö":4197,"großer":4198,"organisations":4199,"fast":4200,"November":4201,"Aufmerksam":4202,"lant":4203,"Angelegenheiten":4204,"farmers":4205,"Zeitpunkt":4206,"facil":4207,"itz":4208,"tradition":4209,"mechanism":4210,"Christ":4211,"suffer":4212,"Aufmerksamkeit":4213,"gemeinschaft":4214,"Slo":4215,"pflich":4216,"consequences":4217,"ones":4218,"Präsidenten":4219,"trägen":4220,"nommen":4221,"berücksichtigt":4222,"ller":4223,"iglich":4224,"Dinge":4225,"solchen":4226,"focus":4227,"nern":4228,"bleibt":4229,"thus":4230,"sprech":4231,"sourcen":4232,"Ho":4233,"sex":4234,"ires":4235,"Völk":4236,"wesentlich":4237,"Freiheit":4238,"splan":4239,"liches":4240,"betreffen":4241,"application":4242,"meisten":4243,"zeigen":4244,"Ukraine":4245,"increased":4246,"Tat":4247,"arch":4248,"Pat":4249,"pts":4250,"Groß":4251,"weltweit":4252,"Lebensmittel":4253,"ritten":4254,"langu":4255,"relating":4256,"unseres":4257,"läu":4258,"pted":4259,"istic":4260,"sels":4261,"namely":4262,"Augen":4263,"trotz":4264,"Dieses":4265,"äst":4266,"urgent":4267,"rect":4268,"Koordin":4269,"Anstreng":4270,"value":4271,"uellen":4272,"differen":4273,"Inform":4274,"beh":4275,"hoch":4276,"internationale":4277,"ermöglichen":4278,"wide":4279,"buil":4280,"bitte":4281,"Prinzip":4282,"along":4283,"lediglich":4284,"disast":4285,"genannten":4286,"reduce":4287,"Wel":4288,"leider":4289,"schle":4290,"vergangenen":4291,"sorgen":4292,"stud":4293,"ping":4294,"stress":4295,"kür":4296,"ines":4297,"When":4298,"obwohl":4299,"stimme":4300,"Bildung":4301,"enable":4302,"relig":4303,"mis":4304,"big":4305,"iting":4306,"unge":4307,"gerecht":4308,"Amster":4309,"Amsterdam":4310,"kungen":4311,"edi":4312,"rule":4313,"ession":4314,"reading":4315,"Rechnung":4316,"closed":4317,"everything":4318,"presented":4319,"Änderung":4320,"Agenda":4321,"hler":4322,"required":4323,"funktion":4324,"bi":4325,"Kompromiss":4326,"requirements":4327,"EG":4328,"äd":4329,"publik":4330,"Party":4331,"International":4332,"Stim":4333,"Stabilität":4334,"mot":4335,"Doch":4336,"opportunities":4337,"unver":4338,"fal":4339,"dige":4340,"persön":4341,"Landes":4342,"vorgelegt":4343,"erster":4344,"21":4345,"passen":4346,"NA":4347,"tober":4348,"attem":4349,"sec":4350,"Erstens":4351,"griff":4352,"spee":4353,"unabhäng":4354,"lange":4355,"avoid":4356,"review":4357,"Plan":4358,"bür":4359,"Voraus":4360,"ghan":4361,"reiben":4362,"budgetary":4363,"aging":4364,"ossen":4365,"ging":4366,"contra":4367,"eigentlich":4368,"aud":4369,"Gre":4370,"vital":4371,"Gründen":4372,"Bas":4373,"hören":4374,"AP":4375,"immedi":4376,"equal":4377,"Schwier":4378,"ände":4379,"fil":4380,"suggest":4381,"prepared":4382,"Investitionen":4383,"übrigen":4384,"verab":4385,"five":4386,"Minder":4387,"bestimmte":4388,"sitzen":4389,"griffen":4390,"Leit":4391,"Sicht":4392,"zel":4393,"throughout":4394,"adequ":4395,"Damit":4396,"Vertreter":4397,"Sü":4398,"Beteil":4399,"hase":4400,"wichtiger":4401,"priorities":4402,"Arbeitsplätze":4403,"broad":4404,"legt":4405,"rein":4406,"ending":4407,"Informations":4408,"nature":4409,"model":4410,"fell":4411,"Erfahr":4412,"mess":4413,"Co":4414,"export":4415,"Mor":4416,"wendet":4417,"either":4418,"clar":4419,"ners":4420,"justice":4421,"total":4422,"gewiesen":4423,"around":4424,"Zum":4425,"outs":4426,"ulgar":4427,"beginn":4428,"lling":4429,"Constitution":4430,"bro":4431,"hinweisen":4432,"weiteren":4433,"Schwe":4434,"begrüßen":4435,"2020":4436,"doubt":4437,"Sache":4438,"rimin":4439,"Aktion":4440,"advan":4441,"Aspekte":4442,"Män":4443,"Gericht":4444,"satis":4445,"live":4446,"Luft":4447,"defen":4448,"getroffen":4449,"Verkehrs":4450,"return":4451,"happ":4452,"initiatives":4453,"ighbour":4454,"Volk":4455,"community":4456,"zeugt":4457,"Natur":4458,"ilfen":4459,"hold":4460,"na":4461,"infra":4462,"Verfassung":4463,"tage":4464,"Anstrengungen":4465,"Fle":4466,"plies":4467,"solid":4468,"zweite":4469,"Uhr":4470,"mark":4471,"decided":4472,"Regeln":4473,"Annahme":4474,"prepar":4475,"haft":4476,"schlagen":4477,"bildung":4478,"Verpflichtungen":4479,"entwickeln":4480,"aufgenommen":4481,"dee":4482,"Fahr":4483,"ente":4484,"pursu":4485,"powers":4486,"official":4487,"external":4488,"hätten":4489,"legitim":4490,"spielen":4491,"isieren":4492,"conflict":4493,"funden":4494,"bevor":4495,"mitted":4496,"analys":4497,"zusetzen":4498,"sätze":4499,"amount":4500,"pressure":4501,"Grenzen":4502,"angesprochen":4503,"beschäft":4504,"Öffentlich":4505,"rene":4506,"dringend":4507,"Prä":4508,"Di":4509,"ständigen":4510,"versuchen":4511,"arbeitung":4512,"deli":4513,"assoc":4514,"Verbre":4515,"konzentr":4516,"reached":4517,"ench":4518,"erkennen":4519,"Ap":4520,"Tät":4521,"ästin":4522,"established":4523,"effizient":4524,"Stär":4525,"Beitritts":4526,"across":4527,"chtung":4528,"agraph":4529,"Qualität":4530,"relevant":4531,"owed":4532,"ckt":4533,"Beih":4534,"movement":4535,"Palest":4536,"waste":4537,"Darüber":4538,"Global":4539,"fasst":4540,"iterr":4541,"Deut":4542,"ahn":4543,"Barro":4544,"task":4545,"fisheries":4546,"interess":4547,"monitoring":4548,"volle":4549,"talking":4550,"zlich":4551,"ref":4552,"geschaffen":4553,"Technolog":4554,"ons":4555,"rought":4556,"zif":4557,"expressed":4558,"gebie":4559,"Bemer":4560,"Frank":4561,"implemented":4562,"fs":4563,"langt":4564,"PE":4565,"Änderungen":4566,"mere":4567,"critic":4568,"möchten":4569,"Mitteilung":4570,"raised":4571,"Abschließend":4572,"setzungen":4573,"zentral":4574,"Nie":4575,"Projekt":4576,"proving":4577,"Develop":4578,"spruch":4579,"äl":4580,"Nr":4581,"verpflich":4582,"levels":4583,"ilities":4584,"Mitgliedstaat":4585,"eindeutig":4586,"zeichne":4587,"drücklich":4588,"mater":4589,"modern":4590,"sof":4591,"capac":4592,"More":4593,"bedingungen":4594,"genuine":4595,"PL":4596,"Innov":4597,"Woche":4598,"Har":4599,"medium":4600,"ücht":4601,"ania":4602,"erinnern":4603,"Schwierigkeiten":4604,"hu":4605,"conclusion":4606,"erc":4607,"beru":4608,"ergreifen":4609,"losigkeit":4610,"pointed":4611,"cross":4612,"ay":4613,"Swe":4614,"berücksichtigen":4615,"ling":4616,"ilateral":4617,"Miss":4618,"Schließ":4619,"eingehen":4620,"frieden":4621,"verstanden":4622,"ished":4623,"May":4624,"Abgeordnete":4625,"Dienstleistungen":4626,"ält":4627,"crime":4628,"Antrag":4629,"challenges":4630,"Konferenz":4631,"direction":4632,"involve":4633,"Opfer":4634,"death":4635,"France":4636,"whose":4637,"effort":4638,"Portugal":4639,"discrimination":4640,"scient":4641,"wirken":4642,"endlich":4643,"Ire":4644,"note":4645,".)":4646,"Sto":4647,"Gesetzgeb":4648,"Öffentlichkeit":4649,"wise":4650,"experience":4651,"Afghan":4652,"included":4653,"behandelt":4654,"Tre":4655,"Sum":4656,"consult":4657,"beschlossen":4658,"mass":4659,"bear":4660,"bot":4661,"fellow":4662,"Ratsvor":4663,"Further":4664,"Ireland":4665,"kret":4666,"igte":4667,"Position":4668,"according":4669,"gesamt":4670,"Bulgar":4671,"Les":4672,"victims":4673,"gab":4674,"quickly":4675,"Lassen":4676,"Grundsatz":4677,"Kriterien":4678,"Plen":4679,"partners":4680,"Nord":4681,"list":4682,"ändert":4683,"heraus":4684,"hinter":4685,"allein":4686,"Red":4687,"darstellt":4688,"effects":4689,"üro":4690,"design":4691,"Balk":4692,"gesund":4693,"80":4694,"auern":4695,"ordn":4696,"Untersuch":4697,"hinzu":4698,"recently":4699,"partnership":4700,"lay":4701,"absolutely":4702,"Druck":4703,"Wettbewerbsfähigkeit":4704,"enterpr":4705,"immigration":4706,"billion":4707,"Agent":4708,"Nachbar":4709,"borders":4710,"Ad":4711,"sectors":4712,"langen":4713,"erkennung":4714,"staaten":4715,"ums":4716,"öffentlich":4717,"agriculture":4718,"thanks":4719,"ufig":4720,"ilar":4721,"Völker":4722,"took":4723,"iency":4724,"Development":4725,"Ro":4726,"verhindern":4727,"reduction":4728,"verkehrs":4729,"tele":4730,"supported":4731,"äs":4732,"date":4733,"days":4734,"ands":4735,"Belar":4736,"flo":4737,"reality":4738,"talk":4739,"1998":4740,"indest":4741,"zuführen":4742,"bezogen":4743,"onnen":4744,"tung":4745,"Staat":4746,"höch":4747,"krit":4748,"laufen":4749,"isiert":4750,"divers":4751,"ris":4752,"kulture":4753,"andels":4754,"ush":4755,"reser":4756,"reforms":4757,"efficient":4758,"iterrane":4759,"Agentur":4760,"plom":4761,"Kennt":4762,"capital":4763,"Entschließungsantrag":4764,"Hö":4765,"Conference":4766,"stark":4767,"sibilities":4768,"Beg":4769,"gült":4770,"raten":4771,"completely":4772,"bald":4773,"ieb":4774,"Beitritt":4775,"gefunden":4776,"profit":4777,"structural":4778,"ested":4779,"spir":4780,"Verteid":4781,"bilateral":4782,"Parteien":4783,"Sinne":4784,"Zivil":4785,"san":4786,"stärker":4787,"ohn":4788,"betonen":4789,"bekommen":4790,"bewusst":4791,"six":4792,"Gar":4793,"package":4794,"intent":4795,"vergessen":4796,"candid":4797,"Africa":4798,"orgung":4799,"benöt":4800,"technology":4801,"Anerkennung":4802,"brought":4803,"giving":4804,"iend":4805,"Zunächst":4806,"ienz":4807,"iterranean":4808,"outside":4809,"irgend":4810,"dence":4811,"Belarus":4812,"folger":4813,"plain":4814,"erneut":4815,"öffentliche":4816,"cau":4817,"sinn":4818,"schreiten":4819,"super":4820,"öst":4821,"Mediterranean":4822,"additional":4823,"kosten":4824,"60":4825,"schlossen":4826,"kämpfen":4827,"keiner":4828,"spezif":4829,"hoben":4830,"except":4831,"gerichtet":4832,"French":4833,"äter":4834,"wogen":4835,"Iraq":4836,"bemü":4837,"Stellungnahme":4838,"threat":4839,"Vertrauen":4840,"status":4841,"left":4842,"approved":4843,"possibility":4844,"Kern":4845,"Republik":4846,"zeugung":4847,"price":4848,"motion":4849,"finally":4850,"presidency":4851,"Human":4852,"Agre":4853,"wichtigsten":4854,"neighbour":4855,"bestät":4856,"parliamentary":4857,"diejenigen":4858,"condu":4859,"dio":4860,"Gemeinsamen":4861,"businesses":4862,"unemployment":4863,"extent":4864,"fficiency":4865,"quo":4866,"kleinen":4867,"utzt":4868,"Wahlen":4869,"personal":4870,"Agreement":4871,"British":4872,"developed":4873,"laub":4874,"Republic":4875,"received":4876,"bessere":4877,"Apr":4878,"jahr":4879,"fahrens":4880,"Schengen":4881,"Monaten":4882,"industrie":4883,"reten":4884,"April":4885,"yp":4886,"eval":4887,"applied":4888,"Frankreich":4889,"heard":4890,"content":4891,"derungen":4892,"contain":4893,"normal":4894,"einschließlich":4895,"anderung":4896,"natural":4897,"zumindest":4898,"prehen":4899,"dadurch":4900,"gesamte":4901,"almost":4902,"else":4903,"representatives":4904,"Vereinbarung":4905,"fig":4906,"Haltung":4907,"ell":4908,"bauen":4909,"mel":4910,"emissions":4911,"100":4912,"takes":4913,"away":4914,"encourage":4915,"Firstly":4916,"sitting":4917,"lösen":4918,"herr":4919,"dise":4920,"run":4921,"RO":4922,"Sa":4923,"ressed":4924,"Nations":4925,"erns":4926,"Raum":4927,"erweise":4928,"guten":4929,"circum":4930,"zeugen":4931,"ausch":4932,"Mittelme":4933,"creating":4934,"Dez":4935,"pas":4936,"Lesung":4937,"ussed":4938,"coordination":4939,"gelt":4940,"iens":4941,"discussed":4942,"zä":4943,"assessment":4944,"summit":4945,"Regierungs":4946,"erwähnt":4947,"December":4948,"xis":4949,"conom":4950,"friend":4951,"correct":4952,"behind":4953,"bung":4954,"substant":4955,"paragraph":4956,"Econom":4957,"competitiveness":4958,"Prioritäten":4959,"ensuring":4960,"beant":4961,"treatment":4962,"23":4963,"formul":4964,"gefordert":4965,"cla":4966,"jüng":4967,"Forderung":4968,"prices":4969,"Preis":4970,"capacity":4971,"überhaupt":4972,"practical":4973,"rahmen":4974,"ograph":4975,"influ":4976,"sichern":4977,"lives":4978,"Last":4979,"industrial":4980,"itiken":4981,"ylum":4982,"mus":4983,"Dezember":4984,"freue":4985,"thern":4986,"stabil":4987,"living":4988,"bindung":4989,"Furthermore":4990,"bedingt":4991,"zone":4992,"bestimmten":4993,"Führ":4994,"fug":4995,"Überwach":4996,"counter":4997,"Einzel":4998,"Einsatz":4999,"considered":5000,"bürger":5001,"sicherzustellen":5002,"Herausforderungen":5003,"Ratsvorsitz":5004,"Spe":5005,"Verl":5006,"Währung":5007,"würd":5008,"Landwir":5009,"wiederhol":5010,"Stelle":5011,"ehrte":5012,"annual":5013,"product":5014,"confidence":5015,"finanziellen":5016,"getragen":5017,"Regelung":5018,"anten":5019,"discussions":5020,"Aktiv":5021,"reichend":5022,"Barroso":5023,"braucht":5024,"immung":5025,"author":5026,"gekommen":5027,"events":5028,"uner":5029,"Serb":5030,"prim":5031,"administrative":5032,"guidelines":5033,"chem":5034,"trächt":5035,"Partnerschaft":5036,"criminal":5037,"Belg":5038,"Einigung":5039,"verbunden":5040,"istische":5041,"rail":5042,"enden":5043,"eil":5044,"stu":5045,"Anfrage":5046,"freiheit":5047,"Reformen":5048,"mission":5049,"begin":5050,"Kommun":5051,"24":5052,"measure":5053,"enthält":5054,"Roma":5055,"ikanischen":5056,"Regional":5057,"derart":5058,"Wahr":5059,"Kommissions":5060,"offens":5061,"rig":5062,"umgesetzt":5063,"Initiativen":5064,"central":5065,"werk":5066,"mains":5067,"konferenz":5068,"Ihrer":5069,"mensch":5070,"provision":5071,"erzielt":5072,"known":5073,"Geschäftsordnung":5074,"remains":5075,"gewesen":5076,"negative":5077,"NATO":5078,"material":5079,"connection":5080,"affected":5081,"remind":5082,"regime":5083,"ünst":5084,"rad":5085,"pain":5086,"Friedens":5087,"ierenden":5088,"Vereinten":5089,"unterstütze":5090,"Richtlinien":5091,"Of":5092,"Wissen":5093,"Hung":5094,"adoption":5095,"PPE":5096,"Natürlich":5097,"van":5098,"verur":5099,"hor":5100,"alloc":5101,"electr":5102,"vereinbar":5103,"freien":5104,"ktiven":5105,"unacceptable":5106,"Spiel":5107,"humanitarian":5108,"schützen":5109,"icy":5110,"einzige":5111,"außerdem":5112,"gehend":5113,"kontroll":5114,"goods":5115,"98":5116,"akzeptieren":5117,"lat":5118,"Krieg":5119,"keits":5120,"bitten":5121,"Element":5122,"els":5123,"clos":5124,"knowledge":5125,"ifically":5126,"festgelegt":5127,"Ressourcen":5128,"Jugend":5129,"spect":5130,"plann":5131,"konkrete":5132,"function":5133,"Wert":5134,"sprechend":5135,"spl":5136,"scope":5137,"acy":5138,"krise":5139,"...":5140,"ume":5141,"family":5142,"oil":5143,"Dro":5144,"ously":5145,"forces":5146,"langfrist":5147,"plans":5148,"AL":5149,"erwarten":5150,"Familien":5151,"itation":5152,"World":5153,"wissenschaft":5154,"ighted":5155,"cri":5156,"territor":5157,"König":5158,"wertung":5159,"huge":5160,"asylum":5161,"hig":5162,"arily":5163,"defence":5164,"garant":5165,"dienen":5166,"Seiten":5167,"Unsere":5168,"Wider":5169,"log":5170,"Central":5171,"lok":5172,"Transport":5173,"eingesch":5174,"anzös":5175,"wirksam":5176,"ain":5177,"ausschusses":5178,"forms":5179,"solutions":5180,"National":5181,"building":5182,"worth":5183,"Asyl":5184,"hoffen":5185,"Democrats":5186,"stated":5187,"comb":5188,"Flücht":5189,"condem":5190,"forderung":5191,"comprehen":5192,"konnte":5193,"despite":5194,"supply":5195,"Economic":5196,"ären":5197,"Fällen":5198,"Hoff":5199,"ehm":5200,"Tro":5201,"Macht":5202,"Priv":5203,"richten":5204,"bietet":5205,"Meiner":5206,"chs":5207,"transparent":5208,"überzeugt":5209,"Aller":5210,"ermöglicht":5211,"selbstverständlich":5212,"Emiss":5213,"carry":5214,"constitution":5215,"emer":5216,"lung":5217,"roat":5218,"leistet":5219,"versucht":5220,"aimed":5221,"proceed":5222,"efficiency":5223,"zweiten":5224,"circumst":5225,"Verwendung":5226,"künftigen":5227,"heim":5228,"effectively":5229,"Zustimmung":5230,"1997":5231,"Pfl":5232,"precisely":5233,"trying":5234,"difficulties":5235,"Werte":5236,"Berichte":5237,"adequate":5238,"Entwurf":5239,"Palestin":5240,"Konflikt":5241,"fälle":5242,"reje":5243,"entschieden":5244,"separ":5245,"Zuständ":5246,"tät":5247,"dient":5248,"Diskrimin":5249,"Kohäs":5250,"Kar":5251,"geleistet":5252,"rates":5253,"commer":5254,"tour":5255,"PT":5256,"anno":5257,"detail":5258,"Achtung":5259,"xem":5260,"refuge":5261,"greifen":5262,"June":5263,"beglück":5264,"anti":5265,"contribute":5266,"obtain":5267,"instead":5268,"jedem":5269,"nationale":5270,"honourable":5271,"nation":5272,"sper":5273,"reference":5274,"Ze":5275,"lege":5276,"präsident":5277,"occas":5278,"stehenden":5279,"sent":5280,"Afghanistan":5281,"Dabei":5282,"Stre":5283,"Vielen":5284,"ästinens":5285,"beziehen":5286,"combat":5287,"Aufgaben":5288,"openha":5289,"accordance":5290,"drug":5291,"udgets":5292,"Absatz":5293,"shown":5294,"ureau":5295,"calls":5296,"enterprises":5297,"zufrieden":5298,"bourg":5299,"ünft":5300,"interpre":5301,"gangs":5302,"richtige":5303,"bey":5304,"enorm":5305,"How":5306,"Drit":5307,"sym":5308,"agieren":5309,"Policy":5310,"Kenntnis":5311,"nä":5312,"mobil":5313,"reign":5314,"assungs":5315,"insgesamt":5316,"iste":5317,"ruption":5318,"terday":5319,"unch":5320,"vert":5321,"jedes":5322,"Schließlich":5323,"Milliar":5324,"MU":5325,"istrib":5326,"Zw":5327,"lusion":5328,"circumstances":5329,"ichtlich":5330,"falt":5331,"verstehen":5332,"unbedingt":5333,"related":5334,"Wochen":5335,"Vorgehen":5336,"gän":5337,"ämt":5338,"Durchführung":5339,"goes":5340,"Allerdings":5341,"warum":5342,"Justice":5343,"kelt":5344,"ization":5345,"lose":5346,"Gu":5347,"Ausgaben":5348,"hnung":5349,"Germany":5350,"People":5351,"recognis":5352,"allowed":5353,"successful":5354,"via":5355,"97":5356,"nöt":5357,"wr":5358,"Regulation":5359,"Beihilfen":5360,"hingewiesen":5361,"geworden":5362,"klare":5363,"tritt":5364,"Stärkung":5365,"Weit":5366,"balan":5367,"improving":5368,"sst":5369,"zustimmen":5370,"22":5371,"ethn":5372,"message":5373,"änderungen":5374,"created":5375,"sage":5376,"bringt":5377,"culture":5378,"Katastrop":5379,"bestehenden":5380,"vorschlag":5381,"minimum":5382,"German":5383,"Lat":5384,"sport":5385,"buch":5386,"Bereiche":5387,"diskutieren":5388,"innovation":5389,"beschrän":5390,"spo":5391,"Fonds":5392,"committed":5393,"Justiz":5394,"gering":5395,"Anfang":5396,"leiten":5397,"asse":5398,"Instrumente":5399,"Zweifel":5400,"conclusions":5401,"investig":5402,"Chance":5403,"zeichnung":5404,"speech":5405,"Gesprä":5406,"iko":5407,"consideration":5408,"kor":5409,"restrict":5410,"comments":5411,"Klimaw":5412,"wrong":5413,"itige":5414,"heutigen":5415,"beginning":5416,"challenge":5417,"ada":5418,"anischen":5419,"renew":5420,"consist":5421,"providing":5422,"erfüllen":5423,"duty":5424,"benefits":5425,"Organisationen":5426,"sicherlich":5427,"NG":5428,"nel":5429,"seek":5430,"views":5431,"EL":5432,"financing":5433,"governmental":5434,"grenzüber":5435,"allgemeinen":5436,"independent":5437,"Verwaltung":5438,"liebe":5439,"provides":5440,"stelle":5441,"Linie":5442,"participation":5443,"round":5444,"Tier":5445,"fried":5446,"rural":5447,"mod":5448,"Partei":5449,"Prü":5450,"länger":5451,"paid":5452,"werte":5453,"bericht":5454,"considerable":5455,"Forschungs":5456,"befinden":5457,"fördert":5458,"durchgeführt":5459,"Nutzung":5460,"propose":5461,"okraten":5462,"respond":5463,"rightly":5464,"Gerichtshof":5465,"Now":5466,"bru":5467,"party":5468,"glichen":5469,"Wasser":5470,"gehören":5471,"Bild":5472,"accepted":5473,"Fun":5474,"Lösungen":5475,"purpose":5476,"somit":5477,"argument":5478,"Brus":5479,"Königreich":5480,"Brussels":5481,"implementing":5482,"größere":5483,"Ged":5484,"weist":5485,"zweif":5486,"wanted":5487,"convinc":5488,"Aspekt":5489,"spezie":5490,"chehen":5491,"acqu":5492,"Grie":5493,"aner":5494,"Ereign":5495,"zi":5496,"Deutschl":5497,"Ac":5498,"home":5499,"arm":5500,"Grundrechte":5501,"ynam":5502,"Juni":5503,"Waffen":5504,"Brüssel":5505,"operate":5506,"Os":5507,"Fraktionen":5508,"cement":5509,"session":5510,"vernünft":5511,"Kor":5512,"Vergangen":5513,"hab":5514,"competen":5515,"ECU":5516,"ägen":5517,"Wirk":5518,"Beschäftigungs":5519,"strategic":5520,"diplom":5521,"referred":5522,"französ":5523,"erklärt":5524,"iebe":5525,"konnten":5526,"opol":5527,"bol":5528,"gelegten":5529,"limit":5530,"oral":5531,"dealing":5532,"tert":5533,"explo":5534,"sou":5535,"promoting":5536,"Sorge":5537,"pel":5538,"uted":5539,"ungsverfahren":5540,"specifically":5541,"plif":5542,"came":5543,"feststellen":5544,"introduction":5545,"unfortunately":5546,"ustom":5547,"anders":5548,"lässt":5549,"pendence":5550,"Einfl":5551,"spective":5552,"Folge":5553,"scientific":5554,"El":5555,"ps":5556,"seriously":5557,"steps":5558,"Aust":5559,"finanzielle":5560,"2013":5561,"Febru":5562,"ktr":5563,"ira":5564,"Praxis":5565,"colleague":5566,"Griechen":5567,"A5":5568,"similar":5569,"alternative":5570,"overall":5571,"ernsth":5572,"aktiv":5573,"Krank":5574,"iture":5575,"forced":5576,"Nun":5577,"militär":5578,"setting":5579,"exerc":5580,"remember":5581,"closely":5582,"sämt":5583,"ausgezeichne":5584,"wält":5585,"staatlichen":5586,"competitive":5587,"dle":5588,"hunder":5589,"schiede":5590,"Geschichte":5591,"bedarf":5592,"ec":5593,"erzielen":5594,"construction":5595,"prison":5596,"beyond":5597,"notwendigen":5598,"entsprechenden":5599,"itung":5600,"activity":5601,"umän":5602,"gegenwärtig":5603,"exchange":5604,"itude":5605,"MEP":5606,"vorliegenden":5607,"stärken":5608,"placed":5609,"Zentral":5610,"Inde":5611,"regular":5612,"Produkte":5613,"Georg":5614,"Mob":5615,"fear":5616,"yr":5617,"ours":5618,"limited":5619,"Vergangenheit":5620,"beein":5621,"jede":5622,"unsch":5623,"ination":5624,"eingeschrän":5625,"abge":5626,"ift":5627,"Medien":5628,"expend":5629,"speaking":5630,"looking":5631,"geeig":5632,"declar":5633,"relationship":5634,"dlich":5635,"ped":5636,"ihres":5637,"Erklärungen":5638,"path":5639,"company":5640,"directly":5641,"cke":5642,"Indi":5643,"sensit":5644,"Projekte":5645,"chtet":5646,"Beschluss":5647,"wachsen":5648,"verpflichtet":5649,"gl":5650,"cting":5651,"Car":5652,"Green":5653,"Pa":5654,"dict":5655,"media":5656,"produce":5657,"dank":5658,"fangen":5659,"umen":5660,"ampa":5661,"vorgeschlagenen":5662,"listen":5663,"berecht":5664,"anzen":5665,"gliche":5666,"Abschluss":5667,"proport":5668,"brief":5669,"type":5670,"hörde":5671,"Gebieten":5672,"gezeigt":5673,"hohe":5674,"Grenz":5675,"intended":5676,"commitments":5677,"Mai":5678,"simplif":5679,"',":5680,"thous":5681,"Drogen":5682,"demokratische":5683,"balanced":5684,"nam":5685,"Today":5686,"requires":5687,"Währungs":5688,"aly":5689,"drawn":5690,"Luxem":5691,"verme":5692,"sized":5693,"Irak":5694,"eingere":5695,"kommenden":5696,"launch":5697,"icles":5698,"ological":5699,"safegu":5700,"openhagen":5701,"max":5702,"itious":5703,"history":5704,"ampaign":5705,"diversity":5706,"Hinter":5707,"1996":5708,"gewicht":5709,"burden":5710,"Denn":5711,"extra":5712,"Nahr":5713,"equality":5714,"ai":5715,"gency":5716,"Einhaltung":5717,"leave":5718,"verfolgen":5719,"Koordinierung":5720,"Kur":5721,"Erzeug":5722,"South":5723,"expenditure":5724,"Europeans":5725,"dienst":5726,"Liberalisierung":5727,"Meth":5728,"January":5729,"geschehen":5730,"obser":5731,"Heute":5732,"Arbeitslosigkeit":5733,"sive":5734,"Greece":5735,"sort":5736,"Regelungen":5737,"Irish":5738,"Von":5739,"ypr":5740,"verse":5741,"Behandlung":5742,"demands":5743,"etimes":5744,"Aktivitäten":5745,"70":5746,"eher":5747,"pression":5748,"Deutschland":5749,"willing":5750,"bill":5751,"letzte":5752,"iddle":5753,"wahl":5754,"poll":5755,"calling":5756,"gesundheit":5757,"attempt":5758,"Nieder":5759,"besten":5760,"Beginn":5761,"bodies":5762,"sterreich":5763,"campaign":5764,"krat":5765,"darstellen":5766,"Prodi":5767,"behalten":5768,"myself":5769,"concept":5770,"exact":5771,"Mut":5772,"eingesetzt":5773,"cle":5774,"Vorbereit":5775,"Aufnahme":5776,"comment":5777,"voc":5778,"rid":5779,"earl":5780,"supporting":5781,"Priorität":5782,"cers":5783,"überein":5784,"alone":5785,"Geb":5786,"Alle":5787,"incor":5788,"Summit":5789,"Strukturfonds":5790,"ties":5791,"ganze":5792,"richtungen":5793,"parts":5794,"uelle":5795,"urspr":5796,"Stimme":5797,"rapid":5798,"zö":5799,"übernehmen":5800,"prob":5801,"distrib":5802,"animal":5803,"jeweil":5804,"Environment":5805,"künftig":5806,"substantial":5807,"iction":5808,"properly":5809,"iveau":5810,"div":5811,"aspect":5812,"vergen":5813,"ancen":5814,"dagegen":5815,"endum":5816,"Milliarden":5817,"steuer":5818,"Europäer":5819,"establishing":5820,"gegenwärtigen":5821,"Verteidigung":5822,"ina":5823,"sechs":5824,"Verpflichtung":5825,"Verhält":5826,"auto":5827,"useful":5828,"block":5829,"Irland":5830,"Auss":5831,"extens":5832,"Wohl":5833,"anything":5834,"spolit":5835,"prüft":5836,"scho":5837,"operations":5838,"entgegen":5839,"oss":5840,"schwierig":5841,"zeichnen":5842,"ismen":5843,"trägt":5844,"verfügen":5845,"ausgewogen":5846,"ständige":5847,"Auto":5848,"regret":5849,"Ort":5850,"yesterday":5851,"glauben":5852,"Gesetzgebung":5853,"ugos":5854,"early":5855,"ulierung":5856,"häufig":5857,"Diskriminierung":5858,"gerne":5859,"später":5860,"Vers":5861,"stets":5862,"Bur":5863,"caus":5864,"join":5865,"ink":5866,"arischen":5867,"Minutes":5868,"Rules":5869,"Einrichtung":5870,"durchaus":5871,"orient":5872,"CO2":5873,"opposition":5874,"gestell":5875,"shows":5876,"Harmon":5877,"ktors":5878,"entwickelt":5879,"früher":5880,"Minderheiten":5881,"former":5882,"Januar":5883,"sichten":5884,"gelöst":5885,"Kollege":5886,"SM":5887,"amber":5888,"ifizierung":5889,"Schritte":5890,"Dennoch":5891,"remo":5892,"aufmerksam":5893,"ambitious":5894,"26":5895,"break":5896,"Flex":5897,"Bereit":5898,"highly":5899,"schem":5900,"produced":5901,"Dan":5902,"Beif":5903,"hop":5904,"weeks":5905,"Although":5906,"higher":5907,"discussing":5908,"caused":5909,"authority":5910,"conclude":5911,"citizen":5912,"prüfung":5913,"method":5914,"konzentrieren":5915,"achtet":5916,"Some":5917,"police":5918,"developments":5919,"positiv":5920,"ierter":5921,"kräft":5922,"geber":5923,"96":5924,"len":5925,"genug":5926,"Mitteln":5927,"Worte":5928,"gives":5929,"send":5930,"ry":5931,"Infra":5932,"zep":5933,"Unser":5934,"Delegation":5935,"Beruf":5936,"Sport":5937,"richtlinie":5938,"llschaften":5939,"Beteiligung":5940,"whom":5941,"folgerungen":5942,"unternommen":5943,"rise":5944,"sult":5945,"bad":5946,"study":5947,"auen":5948,"politischer":5949,"associ":5950,"Anges":5951,"stattfinden":5952,"represents":5953,"Unfortunately":5954,"ignor":5955,"vorhand":5956,"improved":5957,"feld":5958,"grün":5959,"sens":5960,"zeß":5961,"Security":5962,"rieben":5963,"Fortschritt":5964,"stands":5965,"scale":5966,"complex":5967,"unanim":5968,"desire":5969,"Überwachung":5970,"pet":5971,"Dazu":5972,"verantwortlich":5973,"verfolgt":5974,"unkten":5975,"Nahrungs":5976,"emphasise":5977,"producers":5978,"Innovation":5979,"risks":5980,"Can":5981,"ienste":5982,"fällt":5983,"Arbeitsmarkt":5984,"wären":5985,"increasingly":5986,"ategor":5987,"verurs":5988,"Forderungen":5989,"Alban":5990,"forget":5991,"Falle":5992,"UK":5993,"fügt":5994,"barkeit":5995,"Verwaltungs":5996,"ierende":5997,"Engagement":5998,"fes":5999,"verbessert":6000,"word":6001,"staff":6002,"va":6003,"ournal":6004,"March":6005,"arrange":6006,"spirit":6007,"language":6008,"unterbre":6009,"03":6010,"animals":6011,"happened":6012,"beginnen":6013,"ehe":6014,"gründ":6015,"urge":6016,"que":6017,"Since":6018,"pft":6019,"critical":6020,"Budget":6021,"gelungen":6022,"achieving":6023,"American":6024,"strengthening":6025,"Turk":6026,"obviously":6027,"wünsche":6028,"tief":6029,"AT":6030,"child":6031,"Übereinkommen":6032,"erfolgreich":6033,"comprehensive":6034,"Steu":6035,"speed":6036,"Alli":6037,"beauf":6038,"einiger":6039,"currency":6040,"candidate":6041,"thought":6042,"moral":6043,"Angesichts":6044,"IS":6045,"Mechan":6046,"Wiederauf":6047,"reducing":6048,"Leitlinien":6049,"vorher":6050,"ugen":6051,"hy":6052,"Italy":6053,"entsprechend":6054,"delegation":6055,"konstru":6056,"mä":6057,"Spanish":6058,"later":6059,"advantage":6060,"infrastructure":6061,"aden":6062,"schn":6063,"stag":6064,"veh":6065,"endgült":6066,"außerhalb":6067,"leading":6068,"Eind":6069,"grundlage":6070,"depend":6071,"loss":6072,"Verhalten":6073,"aims":6074,"imately":6075,"statements":6076,"Einwanderung":6077,"mag":6078,"acknow":6079,"trust":6080,"Never":6081,"umwelt":6082,"atur":6083,"compens":6084,"ganzen":6085,"condition":6086,"offensichtlich":6087,"Beifall":6088,"erforderlichen":6089,"März":6090,"Empfehlungen":6091,"finde":6092,"manner":6093,"ciliation":6094,"plant":6095,"structures":6096,"Tour":6097,"disch":6098,"commercial":6099,"parlament":6100,"introduce":6101,"enze":6102,"concentr":6103,"erfüllt":6104,"lass":6105,"sensus":6106,"Unabhäng":6107,"zahlen":6108,"convinced":6109,"laws":6110,"facilit":6111,"passenger":6112,"ively":6113,"mäßig":6114,"Fakt":6115,"thinking":6116,"niedr":6117,"mist":6118,"ides":6119,"gleiche":6120,"Italien":6121,"Third":6122,"ernst":6123,"tran":6124,"element":6125,"Jap":6126,"NL":6127,"Foreign":6128,"introduced":6129,"monetary":6130,"fraud":6131,"says":6132,"Moreover":6133,"igrants":6134,"Programms":6135,"perfe":6136,"90":6137,"bahn":6138,"damage":6139,"conference":6140,"Bewertung":6141,"Schwer":6142,"Vis":6143,"wind":6144,"trollen":6145,"Leider":6146,"outcome":6147,"angeb":6148,"wants":6149,"künftige":6150,"Maße":6151,"Pet":6152,"earlier":6153,"prevention":6154,"positions":6155,"idents":6156,"Infrastruktur":6157,"ähn":6158,"responsibilities":6159,"Todes":6160,"Dimension":6161,"sometimes":6162,"nes":6163,"Gleichzeitig":6164,"elements":6165,"ergriffen":6166,"nennen":6167,"Com":6168,"angeht":6169,"orgnis":6170,"firstly":6171,"Agrarpolitik":6172,"stimmt":6173,"koh":6174,"multilateral":6175,"andidaten":6176,"voraus":6177,"uations":6178,"dischar":6179,"betroffenen":6180,"vermeiden":6181,"direkt":6182,"iment":6183,"recognise":6184,"dead":6185,"poses":6186,"recognition":6187,"verschiedene":6188,"rete":6189,"analysis":6190,"kennt":6191,"rapporteurs":6192,"Straßen":6193,"West":6194,"mm":6195,"Meinungs":6196,"entwurf":6197,"constructive":6198,"apprec":6199,"pal":6200,"wortet":6201,"contrary":6202,"Garant":6203,"Landwirte":6204,"Globalisierung":6205,"zahlreiche":6206,"aums":6207,"documents":6208,"entirely":6209,"added":6210,"tim":6211,"Grunde":6212,"Spain":6213,"reduced":6214,"ersch":6215,"facing":6216,"unmittel":6217,"typ":6218,"hohen":6219,"influence":6220,"itial":6221,"itors":6222,"Konvent":6223,"anderem":6224,"sagt":6225,"territorial":6226,"endor":6227,"möglichen":6228,"combating":6229,"nationaler":6230,"Trotz":6231,"grenzüberschreiten":6232,"deral":6233,"iell":6234,"28":6235,"tot":6236,"intervention":6237,"genteil":6238,"Verbindung":6239,"reden":6240,"plause":6241,"Worten":6242,"Nevertheless":6243,"Sprache":6244,"pension":6245,"dish":6246,"ürokrat":6247,"IP":6248,"Ministers":6249,"dimension":6250,"wesentlichen":6251,"größer":6252,"befassen":6253,"concrete":6254,"consensus":6255,"näher":6256,"sound":6257,"constant":6258,"custom":6259,"größten":6260,"Chancen":6261,"liberalisation":6262,"becoming":6263,"Ist":6264,"jur":6265,"establishment":6266,"Klar":6267,"möglichkeit":6268,"After":6269,"Vorsitzen":6270,"atlant":6271,"ellos":6272,"verk":6273,"derer":6274,"asking":6275,"scheinlich":6276,"secure":6277,"Privat":6278,"freut":6279,"möglicherweise":6280,"entsprechende":6281,"gewährleistet":6282,"ivers":6283,"offe":6284,"experien":6285,"möglichst":6286,"raf":6287,"Rea":6288,"Grundsätze":6289,"üben":6290,"flexibility":6291,"Flexib":6292,"einsetzen":6293,"elig":6294,"Argument":6295,"transfer":6296,"istence":6297,"tool":6298,"entscheid":6299,"mitglie":6300,"build":6301,"systeme":6302,"lastung":6303,"geln":6304,"licherweise":6305,"understanding":6306,"ikation":6307,"Tun":6308,"opening":6309,"optim":6310,"Japan":6311,"kolog":6312,"itten":6313,"zufolge":6314,"sources":6315,"growing":6316,"transition":6317,"regionalen":6318,"igungen":6319,"estic":6320,"Bos":6321,"rech":6322,"politisch":6323,"kam":6324,"betont":6325,"King":6326,"condemn":6327,"dangerous":6328,"Umstän":6329,"Höhe":6330,"constit":6331,"networks":6332,"criticism":6333,"Zeitraum":6334,"Tätigkeit":6335,"rechten":6336,"differences":6337,"Leist":6338,"recommendations":6339,"istics":6340,"räsent":6341,"definition":6342,"acter":6343,"informed":6344,"nachhaltige":6345,"Sign":6346,"fulfil":6347,"happy":6348,"ziert":6349,"probably":6350,"29":6351,"announ":6352,"festgestellt":6353,"Gest":6354,"erve":6355,"Mc":6356,"got":6357,"America":6358,"cup":6359,"ägt":6360,"Palestinian":6361,"diskutiert":6362,"Rumän":6363,"practices":6364,"derzeitigen":6365,"methods":6366,"perman":6367,"closer":6368,"Po":6369,"entspricht":6370,"konom":6371,"marks":6372,"außerord":6373,"incorpor":6374,"erv":6375,"Bedür":6376,"Op":6377,"initial":6378,"Änderungsanträgen":6379,"erleich":6380,"standard":6381,"raise":6382,"Gebiete":6383,"Indeed":6384,"Gruppe":6385,"dung":6386,"zt":6387,"Sanktionen":6388,"Stu":6389,"itel":6390,"eigene":6391,"Griechenland":6392,"Ost":6393,"Rule":6394,"gestern":6395,"covered":6396,"fordere":6397,"Quest":6398,"strict":6399,"maßen":6400,"Problemen":6401,"New":6402,"manu":6403,"perspective":6404,"Nutzen":6405,"weap":6406,"elder":6407,"jene":6408,"geiz":6409,"refugees":6410,"morning":6411,"strongly":6412,"achtung":6413,"tei":6414,"shar":6415,"Abkommens":6416,"grenzen":6417,"gezogen":6418,"BSE":6419,"applies":6420,"Neu":6421,"Klima":6422,"ED":6423,"Proced":6424,"Fehler":6425,"Kritik":6426,"ländlichen":6427,"unterst":6428,"valu":6429,"Pak":6430,"Trans":6431,"sanctions":6432,"gruppen":6433,"Analy":6434,"Drittländern":6435,"Nur":6436,"haus":6437,"abwe":6438,"exactly":6439,"directives":6440,"absolut":6441,"Harmonisierung":6442,"Zur":6443,"198":6444,"bilden":6445,"highlight":6446,"board":6447,"uropa":6448,"Bedenken":6449,"schrän":6450,"tom":6451,"Stellen":6452,"Wunsch":6453,"Gegenteil":6454,"sicherstellen":6455,"Bestand":6456,"Erfahrungen":6457,"weak":6458,"yoto":6459,"500":6460,"Kontin":6461,"Wicht":6462,"dram":6463,"elected":6464,"organisationen":6465,"Kyoto":6466,"lauben":6467,"standing":6468,"Glück":6469,"beglückwünschen":6470,"erstör":6471,"Maßnahme":6472,"stoff":6473,"%.":6474,"isp":6475,"wollte":6476,"Sonder":6477,"Ratspräsidentschaft":6478,"erecht":6479,"MEPs":6480,"vorhanden":6481,"Frem":6482,"sea":6483,"Che":6484,"chance":6485,"laid":6486,"Gewähr":6487,"Vielfalt":6488,"atch":6489,"ren":6490,"nochmals":6491,"ideas":6492,"dauer":6493,"sal":6494,"integrated":6495,"manufact":6496,"Abstimm":6497,"Kle":6498,"reject":6499,"warten":6500,"organised":6501,"abgele":6502,"institutionellen":6503,"AF":6504,"empf":6505,"gruppe":6506,"pected":6507,"submitted":6508,"Rand":6509,"Verständ":6510,"ventions":6511,"Trade":6512,"dynam":6513,"gratulieren":6514,"bek":6515,"Straf":6516,"erhöhen":6517,"Osten":6518,"begrenz":6519,"Vorsitz":6520,"reply":6521,"sensitive":6522,"zer":6523,"Tagung":6524,"ports":6525,"governance":6526,"Konzept":6527,"kleine":6528,"toler":6529,"sinnvoll":6530,"Liste":6531,"administration":6532,"Procedure":6533,"Botschaft":6534,"Why":6535,"school":6536,"delay":6537,"Befug":6538,"Willen":6539,"mehrere":6540,"failure":6541,"dealt":6542,"Empfehlung":6543,"IN":6544,"gender":6545,"verring":6546,"schaf":6547,"Netz":6548,"ake":6549,"technischen":6550,"gewiss":6551,"Produktion":6552,"verteid":6553,"profess":6554,"einverstanden":6555,"Romania":6556,"1995":6557,"niemand":6558,"kap":6559,"Italian":6560,"Sim":6561,"führungen":6562,"ilst":6563,"enormous":6564,"leiden":6565,"agencies":6566,"itime":6567,"versorgung":6568,"defic":6569,"Regierungskonferenz":6570,"prinzip":6571,"Mode":6572,"character":6573,"Erhö":6574,"peten":6575,"kommun":6576,"gewisse":6577,"Christian":6578,"bra":6579,"KMU":6580,"erklären":6581,"bureau":6582,"fähig":6583,"Überprüfung":6584,"Hauses":6585,"Paper":6586,"verwendet":6587,"Pap":6588,"went":6589,"Gründe":6590,"parliaments":6591,"ordnungs":6592,"reb":6593,"ases":6594,"occup":6595,"jem":6596,"tür":6597,"verbre":6598,"ausschuß":6599,"Charter":6600,"konkreten":6601,"Ladies":6602,"Aktionen":6603,"Cypr":6604,"Kohäsion":6605,"ahead":6606,"addressed":6607,"beteiligt":6608,"Oc":6609,"Blick":6610,"discharge":6611,"near":6612,"Herausforderung":6613,"beide":6614,"claim":6615,"wonder":6616,"proval":6617,"rechtlichen":6618,"improvement":6619,"Cor":6620,"putting":6621,"leader":6622,"gebe":6623,"penal":6624,"ieht":6625,"appoint":6626,"Bedürf":6627,"Europol":6628,"targets":6629,"medic":6630,"managed":6631,"Wal":6632,"tex":6633,"losen":6634,"Ziff":6635,"By":6636,"Ok":6637,"house":6638,"Plenum":6639,"verbind":6640,"appeal":6641,"immediately":6642,"intention":6643,"Health":6644,"ival":6645,"hervorheben":6646,"ökolog":6647,"samm":6648,"wahrscheinlich":6649,"jüngsten":6650,"höher":6651,"See":6652,"Sen":6653,"grant":6654,"eingeführt":6655,"gehalten":6656,"obligations":6657,"vollständig":6658,"descri":6659,"ökonom":6660,"betrachtet":6661,"abol":6662,"Subsid":6663,"Veränderungen":6664,"präsent":6665,"itable":6666,"mandate":6667,"wettbewerb":6668,"Meer":6669,"andererseits":6670,"Sach":6671,"Eigen":6672,"Wege":6673,"cord":6674,"anden":6675,"verehrte":6676,"Afrika":6677,"simple":6678,"Funktion":6679,"ager":6680,"excess":6681,"ausdrücklich":6682,"stoffe":6683,"signed":6684,"contains":6685,"ugosla":6686,"\".":6687,"mögliche":6688,"ärm":6689,"safeguard":6690,"unable":6691,"genutzt":6692,"italien":6693,"persons":6694,"sonst":6695,"osen":6696,"Erwä":6697,"größte":6698,"OL":6699,"Nah":6700,"lam":6701,"Middle":6702,"ausreichen":6703,"Prime":6704,"regeln":6705,"Ausbildung":6706,"Idee":6707,"chsel":6708,"Pakistan":6709,"Vorschlägen":6710,"learn":6711,"Kingdom":6712,"coher":6713,"Absicht":6714,"2011":6715,"Austr":6716,"respekt":6717,"oden":6718,"Mindest":6719,"consultation":6720,"Bosn":6721,"Sinn":6722,"lona":6723,"resolutions":6724,"mutual":6725,"Barce":6726,"positiven":6727,"mainly":6728,"ffend":6729,"cker":6730,"britischen":6731,"Erhöhung":6732,"Barcelona":6733,"comply":6734,"choice":6735,"Pflicht":6736,"elimin":6737,"absicht":6738,"Basis":6739,"globalen":6740,"interpret":6741,"Festlegung":6742,"dre":6743,"hebung":6744,"merely":6745,"Gener":6746,"adapt":6747,"Gü":6748,"factor":6749,"Turkish":6750,"Warum":6751,"veran":6752,"Agency":6753,"gegangen":6754,"freu":6755,"Subsidiar":6756,"Inhalt":6757,"strategie":6758,"Go":6759,"mechanisms":6760,"imat":6761,"Mo":6762,"gst":6763,"erör":6764,"forth":6765,"Jetzt":6766,"rejected":6767,"orgt":6768,"führten":6769,"fält":6770,"lower":6771,"Aud":6772,"Strategy":6773,"Akte":6774,"enjo":6775,"debates":6776,"persönlich":6777,"cast":6778,"zudem":6779,"klang":6780,"Vorschlags":6781,"Entwicklungen":6782,"trafficking":6783,"Even":6784,"Anforderungen":6785,"Russian":6786,"31":6787,"ühren":6788,"sett":6789,"estim":6790,"erfolgen":6791,"disaster":6792,"Mittelmeer":6793,"bezug":6794,"haup":6795,"Spanien":6796,"Chamber":6797,"astr":6798,"sprach":6799,"travel":6800,"Klimawandel":6801,"Einfluss":6802,"Amendments":6803,"zusätzliche":6804,"Redner":6805,"Zweck":6806,"Berücksicht":6807,"told":6808,"Standards":6809,"Ferner":6810,"sehe":6811,"Wä":6812,"lost":6813,"Defin":6814,"geschieht":6815,"thousands":6816,"behaup":6817,"fru":6818,"AR":6819,"Pub":6820,"SMEs":6821,"defend":6822,"leaders":6823,"Drittens":6824,"heart":6825,"unsten":6826,"genet":6827,"mär":6828,"ith":6829,"hervorragen":6830,"subsidiar":6831,"vertre":6832,"easy":6833,"October":6834,"continuing":6835,"sover":6836,"hängt":6837,"prior":6838,"A4":6839,"Altern":6840,"technologies":6841,"harm":6842,"beziehung":6843,"ffizienz":6844,"Fälle":6845,"sovereign":6846,"ifying":6847,"seitens":6848,"iode":6849,"Politiken":6850,"Risiko":6851,"Oktober":6852,"fühl":6853,"Systems":6854,"exercise":6855,"Krä":6856,"Will":6857,"Anteil":6858,"worked":6859,"deliver":6860,"dro":6861,"Verbrechen":6862,"Polize":6863,"Eisen":6864,"wit":6865,"resolve":6866,"bedau":6867,"flexible":6868,"mill":6869,"wichtiges":6870,"gree":6871,"bein":6872,"zeuge":6873,"figures":6874,"Mand":6875,"rasch":6876,"Bro":6877,"Realität":6878,"Anliegen":6879,"votes":6880,"Applause":6881,"edon":6882,"ausreichend":6883,"strö":6884,"Diskussionen":6885,"Hoffnung":6886,"beauftrag":6887,"vertrag":6888,"impossible":6889,"Stud":6890,"Kür":6891,"Mone":6892,"abgelehnt":6893,"Versuch":6894,"uls":6895,"politic":6896,"getreten":6897,"neues":6898,"Anzahl":6899,"evidence":6900,"Moment":6901,"uses":6902,"anted":6903,"täu":6904,"Vorteile":6905,"linked":6906,"includes":6907,"Konta":6908,"besseren":6909,"Verträge":6910,"kaum":6911,"oples":6912,"Finn":6913,"green":6914,"income":6915,"Umfang":6916,"independence":6917,"payments":6918,"gewalt":6919,"guarantees":6920,"vollkommen":6921,"zulegen":6922,"obst":6923,"anderes":6924,"speakers":6925,"Berücksichtigung":6926,"abgeschlossen":6927,"changed":6928,"attack":6929,"pill":6930,"urance":6931,"amm":6932,"ließen":6933,"conciliation":6934,"alter":6935,"Einige":6936,"Many":6937,"kennen":6938,"renewable":6939,"Unabhängigkeit":6940,"frag":6941,"zweifellos":6942,"subsidiarity":6943,"unzu":6944,"grundsätz":6945,"behörden":6946,"bringing":6947,"ury":6948,"koordin":6949,"election":6950,"möglichkeiten":6951,"ived":6952,"mittag":6953,"noon":6954,"Eindruck":6955,"Charta":6956,"Fremden":6957,"Überzeugung":6958,"North":6959,"plen":6960,"punkte":6961,"rev":6962,"Anspruch":6963,"nieder":6964,"sofort":6965,"class":6966,"dep":6967,"olution":6968,"Wissenschaft":6969,"zöger":6970,"degree":6971,"ctural":6972,"selben":6973,"legungen":6974,"Besonder":6975,"assure":6976,"vorbereit":6977,"Ausführungen":6978,"repeat":6979,"ittees":6980,"sole":6981,"wishes":6982,"Don":6983,"solcher":6984,"freie":6985,"ateful":6986,"Kontroll":6987,"promotion":6988,"leistung":6989,"attitude":6990,"Hoch":6991,"source":6992,"benötigen":6993,"late":6994,"quant":6995,"Proz":6996,"thre":6997,"totally":6998,"aust":6999,"AK":7000,"passung":7001,"employed":7002,"asks":7003,"Gesamt":7004,"neben":7005,"Hintergrund":7006,"schäd":7007,"warm":7008,"Eing":7009,"Hause":7010,"umt":7011,"freund":7012,"fahrt":7013,"ehrgeiz":7014,"Einklang":7015,"leistungen":7016,"geäuß":7017,"situations":7018,"Krisen":7019,"Islam":7020,"Gleichgewicht":7021,"peoples":7022,"recommendation":7023,"signal":7024,"treaty":7025,"läuft":7026,"Fäh":7027,"Verfahrens":7028,"Tagen":7029,"surpr":7030,"allgemeine":7031,"Arbeitsplätzen":7032,"letzungen":7033,"unterschiedlichen":7034,"schung":7035,"überw":7036,"Rechnungshof":7037,"bly":7038,"Kindern":7039,"verabschie":7040,"economies":7041,"35":7042,"urally":7043,"reasonable":7044,"bio":7045,"verabschiedet":7046,"oppel":7047,"Aufbau":7048,"finance":7049,"Gruppen":7050,"Auft":7051,"vorlegen":7052,"abor":7053,"dennoch":7054,"consistent":7055,"Jahrhunder":7056,"membership":7057,"Inst":7058,"Accord":7059,"Mio":7060,"entschlossen":7061,"expression":7062,"territory":7063,"publ":7064,"schwierigen":7065,"acts":7066,"affairs":7067,"behandeln":7068,"vertrau":7069,"controls":7070,"extend":7071,"bekämpfen":7072,"Bemerkungen":7073,"tungen":7074,"grateful":7075,"tedly":7076,"Prote":7077,"linge":7078,"hom":7079,"türk":7080,"failed":7081,"bild":7082,"stet":7083,"instance":7084,"boten":7085,"supports":7086,"weshalb":7087,"krimin":7088,"Pact":7089,"ball":7090,"actual":7091,"Dann":7092,"ees":7093,"Subsidiarität":7094,"chischen":7095,"opposed":7096,"courage":7097,"families":7098,"Monate":7099,"kompli":7100,"rich":7101,"angehör":7102,"bezieht":7103,"igkeits":7104,"office":7105,"schlag":7106,"Vermittl":7107,"Structural":7108,"Cyprus":7109,"weiterer":7110,"Voraussetzungen":7111,"uba":7112,"lebt":7113,"faced":7114,"threaten":7115,"uche":7116,"expected":7117,"original":7118,"imit":7119,"Einbeziehung":7120,"plex":7121,"Kü":7122,"Thirdly":7123,"immen":7124,"münd":7125,"verz":7126,"existence":7127,"Tele":7128,"terrorist":7129,"umfassende":7130,"involvement":7131,"Tab":7132,"ungsbereich":7133,"Zoll":7134,"geograph":7135,"compli":7136,"Freiheiten":7137,"sequently":7138,"explan":7139,"Agricult":7140,"Obwohl":7141,"moder":7142,"getting":7143,"drugs":7144,"intend":7145,"Monetary":7146,"univers":7147,"target":7148,"vielmehr":7149,"Jul":7150,"Konsens":7151,"reagieren":7152,"tourism":7153,"chair":7154,"Funds":7155,"Verfassungs":7156,"iums":7157,"involving":7158,"immediate":7159,"spakt":7160,"lowed":7161,"Rechtsgrundlage":7162,"orea":7163,"judicial":7164,"deten":7165,"gelassen":7166,"weapons":7167,"):":7168,"perfect":7169,"Anpassung":7170,"Mitarbeit":7171,"läne":7172,"betrachten":7173,"barr":7174,"uct":7175,"hinder":7176,"tail":7177,"sides":7178,"obstac":7179,"wicklung":7180,"goal":7181,"ufen":7182,"forest":7183,"talks":7184,"Ihren":7185,"itär":7186,"asch":7187,"Entwicklungsländern":7188,"Waren":7189,"aufgefordert":7190,"Flexibilität":7191,"istisch":7192,"nehmern":7193,"substances":7194,"aussprechen":7195,"African":7196,"keines":7197,"happening":7198,"recognised":7199,"Treffen":7200,"AKP":7201,"appreci":7202,"amerikanischen":7203,"Verbot":7204,"prefer":7205,"ergeben":7206,"angehen":7207,"Ins":7208,"highl":7209,"sem":7210,"credit":7211,"seeking":7212,"beabsicht":7213,"equip":7214,"Dienste":7215,"pun":7216,"Nos":7217,"consolid":7218,"Kapital":7219,"schw":7220,"Schlüssel":7221,"tabel":7222,"occur":7223,"Question":7224,"plenary":7225,"ication":7226,"Zudem":7227,"truly":7228,"winden":7229,"proportion":7230,"granted":7231,"sprachen":7232,"Zyp":7233,"adopting":7234,"zeptabel":7235,"steigen":7236,"genü":7237,"Erd":7238,"greatest":7239,"pillar":7240,"don":7241,"Konsequ":7242,"russ":7243,"dere":7244,"indire":7245,"Verbraucherschutz":7246,"range":7247,"akzeptabel":7248,"tempor":7249,"besonderen":7250,"committees":7251,"anerkannt":7252,"gefördert":7253,"Beweis":7254,"Beob":7255,"umzusetzen":7256,"ehemal":7257,"Public":7258,"smo":7259,"Sitz":7260,"protecting":7261,"usw":7262,"jetz":7263,"itäre":7264,"Ziffer":7265,"hoff":7266,"spent":7267,"undermin":7268,"technische":7269,"Umweltschutz":7270,"Mitgliedern":7271,"internationaler":7272,"starting":7273,"bestätigt":7274,"ca":7275,"Mehrwert":7276,"Krimin":7277,"According":7278,"interesting":7279,"Besorgnis":7280,"gigkeit":7281,"fällen":7282,"approval":7283,"lies":7284,"ursprüng":7285,"likely":7286,"ergän":7287,"Effizienz":7288,"reichung":7289,"C5":7290,"fare":7291,"onic":7292,"offiz":7293,"sammlung":7294,"zugunsten":7295,"bekräft":7296,"migration":7297,"Hindern":7298,"stock":7299,"keinerlei":7300,"globalisation":7301,"binding":7302,"Bemerkung":7303,"gestalten":7304,"resolved":7305,"grundlegenden":7306,"Beste":7307,"Eur":7308,"Öl":7309,"subsidies":7310,"confirm":7311,"Poland":7312,"disease":7313,"Schlussfolgerungen":7314,"west":7315,"followed":7316,"keeping":7317,"mach":7318,"serve":7319,"üssen":7320,"Maastr":7321,"suffering":7322,"Während":7323,"splans":7324,"ACP":7325,"Sweden":7326,"kulturellen":7327,"automat":7328,"usion":7329,"Balkan":7330,"ausführ":7331,"Juli":7332,"conduct":7333,"Prüfung":7334,"zieren":7335,"akter":7336,"compar":7337,"Ereignisse":7338,"July":7339,"ash":7340,"Berat":7341,"minorities":7342,"wettbewerbs":7343,"drän":7344,"communications":7345,"PSE":7346,"ofin":7347,"Unterschiede":7348,"spielt":7349,"competence":7350,"meetings":7351,"Gas":7352,"attra":7353,"wesentliche":7354,"pollution":7355,"miteinander":7356,"Hohen":7357,"Problems":7358,"%,":7359,"fän":7360,"Rumänien":7361,"Schluß":7362,"Handl":7363,"Schweden":7364,"Vorbereitung":7365,"Urs":7366,"evaluation":7367,"umping":7368,"space":7369,"heav":7370,"Insel":7371,"Redu":7372,"stellungen":7373,"nächste":7374,"99":7375,"Märkte":7376,"Berlin":7377,"Kollegin":7378,"stieg":7379,"geleitet":7380,"floor":7381,"belangt":7382,"explain":7383,"shared":7384,"carefully":7385,"uneingeschrän":7386,"lebens":7387,"45":7388,"sprü":7389,"verstärkt":7390,"arms":7391,"continent":7392,"Aut":7393,"B5":7394,"factory":7395,"regionale":7396,"Handeln":7397,"wachstum":7398,"kept":7399,"außerordentlich":7400,"aft":7401,"designed":7402,"Gedanken":7403,"annehmen":7404,"Presse":7405,"erfordert":7406,"bor":7407,"diesel":7408,"ktiken":7409,"ired":7410,"bekämpfung":7411,"Voraussch":7412,"Dafür":7413,"Haushaltsplan":7414,"echte":7415,"manage":7416,"Swedish":7417,"Verständnis":7418,"zulassen":7419,"Verring":7420,"Vergleich":7421,"bedauer":7422,"patient":7423,"geeigne":7424,"Lam":7425,"daraus":7426,"Reaktion":7427,"vollen":7428,"Entwicklungsländer":7429,"sämtliche":7430,"igent":7431,"zuständigen":7432,"Rechtsstaat":7433,"tackle":7434,"proposing":7435,"Polen":7436,"Beschlüsse":7437,"ensions":7438,"äußern":7439,"gerä":7440,"zahlreichen":7441,"nütz":7442,"Nahrungsmittel":7443,"ior":7444,"decl":7445,"Technologien":7446,"anbelangt":7447,"größeren":7448,"oben":7449,"continues":7450,"Gaz":7451,"Energy":7452,"stö":7453,"mobility":7454,"thereby":7455,"detailed":7456,"Deswegen":7457,"Nein":7458,"Viele":7459,"series":7460,"kräfte":7461,"Ern":7462,"Haft":7463,"won":7464,"akzeptiert":7465,"Sk":7466,"Heimat":7467,"Gal":7468,"ernen":7469,"minority":7470,"Normen":7471,"erwähn":7472,"Analyse":7473,"richtigen":7474,"satisf":7475,"compliance":7476,"verlei":7477,"einerseits":7478,"gelangen":7479,"grenzung":7480,"multi":7481,"Ti":7482,"transatlant":7483,"Konsult":7484,"gestellten":7485,"confir":7486,"Begriff":7487,"permanent":7488,"presence":7489,"communities":7490,"taxation":7491,"SP":7492,"Grü":7493,"Gesetze":7494,"Exper":7495,"beträcht":7496,"Ord":7497,"Eastern":7498,"jeweiligen":7499,"Verringerung":7500,"atischen":7501,"entre":7502,"record":7503,"demokraten":7504,"hood":7505,"außen":7506,"zwungen":7507,"nachhaltigen":7508,"einig":7509,"lag":7510,"Dienstleistungs":7511,"Balkans":7512,"grounds":7513,"naturally":7514,"iö":7515,"SV":7516,"Erwar":7517,"harmonisation":7518,"ministers":7519,"Außenpolitik":7520,"rück":7521,"ausgesprochen":7522,"Zahlen":7523,"Zwischen":7524,"andal":7525,"gearbeitet":7526,"konkret":7527,"Eisenbahn":7528,"Phase":7529,"erweiter":7530,"wait":7531,"izü":7532,"east":7533,"ingt":7534,"worr":7535,"Status":7536,"Such":7537,"uropäischen":7538,"barer":7539,"merken":7540,"ziehung":7541,"mid":7542,"tä":7543,"schwed":7544,"beizu":7545,"Voraussetzung":7546,"prosper":7547,"certainty":7548,"öhn":7549,"advoc":7550,"hängen":7551,"Sea":7552,"Verhandlungs":7553,"Fundamental":7554,"innovative":7555,"einheitlichen":7556,"unabhängig":7557,"Erwäg":7558,"oul":7559,"hei":7560,"emphasis":7561,"endorse":7562,"formal":7563,"planning":7564,"zuletzt":7565,"Gew":7566,"gegenseit":7567,"undertaking":7568,"gain":7569,"trieben":7570,"voice":7571,"Kompeten":7572,"aktuellen":7573,"While":7574,"dete":7575,"ktron":7576,"Auditors":7577,"schwe":7578,"ffung":7579,"Entlastung":7580,"quote":7581,"acco":7582,"angemessene":7583,"Mac":7584,"katastrop":7585,"meant":7586,"Ungleich":7587,"consumption":7588,"Budgets":7589,"ara":7590,"justified":7591,"komme":7592,"ordinary":7593,"Every":7594,"Vereinbarungen":7595,"reiter":7596,"Schiff":7597,"uell":7598,"cul":7599,"ktiver":7600,"Kontrollen":7601,"betreffenden":7602,"schätzung":7603,"grie":7604,"anyone":7605,"unterschiedliche":7606,"izin":7607,"tag":7608,"trib":7609,"\",":7610,"spät":7611,"worfen":7612,"Gleichstellung":7613,"zeuger":7614,"professional":7615,"Mitglieds":7616,"Van":7617,"Mensch":7618,"vehicles":7619,"thor":7620,"aufzunehmen":7621,"Schi":7622,"uals":7623,"tob":7624,"fuhr":7625,"einf":7626,"Zug":7627,"Übereinstimmung":7628,"causes":7629,"hilfe":7630,"üb":7631,"Strategien":7632,"Greek":7633,"Kandidaten":7634,"entit":7635,"ützt":7636,"Allgem":7637,"Definition":7638,"limits":7639,"bestimmt":7640,"Entscheidungs":7641,"ferner":7642,"repeated":7643,"Sw":7644,"geändert":7645,"feed":7646,"begrüßt":7647,"improvements":7648,"credibility":7649,"izügigkeit":7650,"pan":7651,"zierung":7652,"belling":7653,"Punkten":7654,"Modell":7655,"entscheidend":7656,"erous":7657,"debt":7658,"ausschließlich":7659,"wahren":7660,"link":7661,"Verbesser":7662,"entry":7663,"amongst":7664,"atik":7665,"Betrug":7666,"option":7667,"Mus":7668,"hund":7669,"britann":7670,"Western":7671,"religious":7672,"ER":7673,"otherwise":7674,"gemeinschaftlichen":7675,"sofern":7676,"erfahren":7677,"mögen":7678,"visa":7679,"nachdem":7680,"Cze":7681,"inal":7682,"Lauf":7683,"Legal":7684,"Großbritann":7685,"))":7686,"Internationalen":7687,"Bu":7688,"falsch":7689,"wirkt":7690,"undes":7691,"affect":7692,"isol":7693,"withdraw":7694,"observ":7695,"Frü":7696,"Vize":7697,"stake":7698,"Kommissionspräsident":7699,"enjoy":7700,"appears":7701,"employees":7702,"ermut":7703,"handlungen":7704,"nations":7705,"secre":7706,"destro":7707,"spunkt":7708,"atta":7709,"ollar":7710,"Vorhaben":7711,"Übergangs":7712,"defined":7713,"vorzulegen":7714,"unfair":7715,"hours":7716,"protest":7717,"spie":7718,"Herkunft":7719,"buds":7720,"participate":7721,"Volksgesundheit":7722,"Arten":7723,"Legisl":7724,"anschließen":7725,"register":7726,"ugg":7727,"beob":7728,"Freizügigkeit":7729,"75":7730,"verste":7731,"zah":7732,"darunter":7733,"betreffend":7734,"Regime":7735,"Rese":7736,"imal":7737,"Emissionen":7738,"Streit":7739,"üst":7740,"Politiker":7741,"nahe":7742,"Ele":7743,"legally":7744,"atell":7745,"maximum":7746,"ivity":7747,"schuld":7748,"glad":7749,"Mann":7750,"folgenden":7751,"Tabak":7752,"bruch":7753,"check":7754,"wirklichen":7755,"arrangements":7756,"Vorausschau":7757,"Balt":7758,"tut":7759,"allgemein":7760,"geschrieben":7761,"beruf":7762,"operating":7763,"Betrieb":7764,"immigrants":7765,"Straß":7766,"Som":7767,"wichtigste":7768,"combin":7769,"ungsver":7770,"französischen":7771,"leun":7772,"starke":7773,"decis":7774,"Patient":7775,"Voll":7776,"zielt":7777,"wesend":7778,"altet":7779,"Schä":7780,"works":7781,"Maastricht":7782,"representative":7783,"popul":7784,"constitutional":7785,"Hil":7786,"verm":7787,"schaffung":7788,"lautet":7789,"Produkt":7790,"declaration":7791,"Research":7792,"Meines":7793,"zne":7794,"ückt":7795,"strafe":7796,"würdigkeit":7797,"obligation":7798,"Resolution":7799,"verloren":7800,"gave":7801,"aver":7802,"Commissioners":7803,"verän":7804,"Only":7805,"faßt":7806,"languages":7807,"eingereicht":7808,"IC":7809,"Österreich":7810,"agiert":7811,"Aktionsplan":7812,"Kl":7813,"atever":7814,"untary":7815,"fiz":7816,"neither":7817,"ends":7818,"Gesam":7819,"Binnenmarktes":7820,"exem":7821,"Angriff":7822,"binden":7823,"compensation":7824,"OS":7825,"played":7826,"Verhältnis":7827,"appar":7828,"ided":7829,"Perspe":7830,"attacks":7831,"grundlegende":7832,"started":7833,"tätig":7834,"none":7835,"volution":7836,"ari":7837,"generally":7838,"Wür":7839,"factors":7840,"Elemente":7841,"symbol":7842,"Agriculture":7843,"Ide":7844,"nötig":7845,"roh":7846,"herzlich":7847,"fighting":7848,"Those":7849,"Vizepräsident":7850,"issu":7851,"proto":7852,"schritt":7853,"tere":7854,"palästinens":7855,"goals":7856,"freedoms":7857,"Schaden":7858,"encouraging":7859,"Beam":7860,"sequent":7861,"easier":7862,"destens":7863,"beseit":7864,"Untersuchung":7865,"Jo":7866,"Vielleicht":7867,"tobacco":7868,"Risiken":7869,"fass":7870,"domestic":7871,"labelling":7872,"gehoben":7873,"vorgeschlagene":7874,"regulatory":7875,"Yet":7876,"verurteilt":7877,"Hä":7878,"moving":7879,"wirtschaftlicher":7880,"Bulgaria":7881,"imposed":7882,"lechter":7883,"Signal":7884,"contributions":7885,"payment":7886,"respected":7887,"übrigens":7888,"staatliche":7889,"stood":7890,"whilst":7891,"Nahen":7892,"Czech":7893,"Serv":7894,"vorgenommen":7895,"nunmehr":7896,"Relig":7897,"steller":7898,"flation":7899,"wiederholen":7900,"imittel":7901,"notwendige":7902,"Sektoren":7903,"gradu":7904,"DP":7905,"sensible":7906,"Also":7907,"zusammenarbeiten":7908,"Glaub":7909,"ij":7910,"abstimmen":7911,"vorrang":7912,"determination":7913,"Zentralbank":7914,"Mobilität":7915,"tland":7916,"wid":7917,"politics":7918,"politicians":7919,"welfare":7920,"loyment":7921,"ino":7922,"speaker":7923,"zneimittel":7924,"Ebenso":7925,"folgende":7926,"enge":7927,"isted":7928,"Zuständigkeit":7929,"allel":7930,"Fo":7931,"High":7932,"saving":7933,"einbezogen":7934,"sorg":7935,"funktioniert":7936,"From":7937,"utin":7938,"UNO":7939,"attach":7940,"facilitate":7941,"schefs":7942,"collective":7943,"capable":7944,"eingehalten":7945,"Socialist":7946,"uren":7947,"spart":7948,"anwesend":7949,"Vereinfach":7950,"Bese":7951,"Zielen":7952,"separate":7953,"voranzu":7954,"recovery":7955,"Dut":7956,"frequ":7957,"dign":7958,"maritime":7959,"bir":7960,"incent":7961,"waiting":7962,"fur":7963,"delighted":7964,"spartei":7965,"eind":7966,"verlangen":7967,"imper":7968,"afr":7969,"örper":7970,"spending":7971,"Familie":7972,"spreche":7973,"schnitt":7974,"atisch":7975,"interested":7976,"ermaßen":7977,"gebaut":7978,"ethnic":7979,"Umständen":7980,"ature":7981,"beha":7982,"submit":7983,"Om":7984,"conce":7985,"digital":7986,"lokalen":7987,"ables":7988,"century":7989,"äre":7990,"version":7991,"atal":7992,"Versch":7993,"mode":7994,"realistic":7995,"seines":7996,"Vice":7997,"Prof":7998,"dent":7999,"vak":8000,"Befugnisse":8001,"adjust":8002,"vig":8003,"nachdrücklich":8004,"compat":8005,"zukommen":8006,"speziell":8007,"continued":8008,"Mü":8009,"ford":8010,"Consum":8011,"functioning":8012,"Banken":8013,"entstehen":8014,"babwe":8015,"unterstreichen":8016,"Est":8017,"subje":8018,"hib":8019,"Verbesserungen":8020,"phase":8021,"sozi":8022,"Produktions":8023,"Erfahrung":8024,"Arab":8025,"istenz":8026,"Bl":8027,"ID":8028,"Mot":8029,"beraten":8030,"Zeichen":8031,"crimes":8032,"relative":8033,"rian":8034,"negotiating":8035,"restrictions":8036,"übernommen":8037,"mindestens":8038,"equally":8039,"Bestandteil":8040,"inclusion":8041,"ots":8042,"stor":8043,"proposes":8044,"kund":8045,"evening":8046,"teilweise":8047,"enger":8048,"B4":8049,"vul":8050,"Sorgen":8051,"Ausnahme":8052,"siehe":8053,"sibly":8054,"ye":8055,"schluß":8056,"Wirklichkeit":8057,"Überlegungen":8058,"EA":8059,"belong":8060,"experts":8061,"bemüht":8062,"extrem":8063,"reaching":8064,"traditional":8065,"Glaubwürdigkeit":8066,"conflicts":8067,"Abschaffung":8068,"insist":8069,"requirement":8070,"opinions":8071,"lob":8072,"sorge":8073,"trifft":8074,"wareness":8075,"Ganz":8076,"mas":8077,"genannt":8078,"IV":8079,"anada":8080,"bewält":8081,"erring":8082,"referendum":8083,"truth":8084,"Zivilgesellschaft":8085,"streben":8086,"gericht":8087,"Antworten":8088,"supplement":8089,"umfassenden":8090,"tellig":8091,"idet":8092,"laut":8093,"shilfe":8094,"helping":8095,"temporary":8096,"Berichterstatters":8097,"Croat":8098,"genannte":8099,"verlieren":8100,"budsman":8101,"vulner":8102,"Bau":8103,"erfolgt":8104,"therlands":8105,"Finan":8106,"erheblich":8107,"forthcoming":8108,"hervorgehoben":8109,"Stras":8110,"kürzlich":8111,"impose":8112,"illegalen":8113,"Netherlands":8114,"Cha":8115,"gone":8116,"begrün":8117,"verstärken":8118,"trading":8119,"appropriations":8120,"Niederland":8121,"Strasbourg":8122,"eröff":8123,"verw":8124,"contrad":8125,"räge":8126,"erneuer":8127,"Blo":8128,"durchzuführen":8129,"erhebliche":8130,"Petitions":8131,"Sup":8132,"allowing":8133,"guaranteed":8134,"großes":8135,"Prinzipien":8136,"Fischer":8137,"tasks":8138,"verwe":8139,"natür":8140,"Bildungs":8141,"protected":8142,"rechtliche":8143,"95":8144,"gä":8145,"reflect":8146,"mehreren":8147,"written":8148,"ausgezeichneten":8149,"anging":8150,"Formen":8151,"COM":8152,"Stability":8153,"samkeit":8154,"änderung":8155,"Bedro":8156,"fine":8157,"zieht":8158,"bemühen":8159,"Tiere":8160,"awareness":8161,"pu":8162,"personally":8163,"geltenden":8164,"diseases":8165,"Gesetzes":8166,"IA":8167,"bewegen":8168,"genere":8169,"schlägt":8170,"angel":8171,"investments":8172,"ergie":8173,"Copenhagen":8174,"numerous":8175,"kenn":8176,"Bürgerbeauftrag":8177,"isierungs":8178,"ology":8179,"Gemeinsame":8180,"Bedar":8181,"sele":8182,"examine":8183,"effectiveness":8184,"übertragen":8185,"reib":8186,"Able":8187,"Erzeugnisse":8188,"entscheidender":8189,"purposes":8190,"Militär":8191,"04":8192,"Krankheiten":8193,"Trag":8194,"achteil":8195,"legitimate":8196,"gegebenen":8197,"letter":8198,"wom":8199,"exclu":8200,"schafft":8201,"mun":8202,"solve":8203,"Baltic":8204,"Lond":8205,"GM":8206,"rett":8207,"gestat":8208,"iry":8209,"Arbeitspl":8210,"voluntary":8211,"rufen":8212,"Portugu":8213,"Other":8214,"erscheint":8215,"Organe":8216,"exists":8217,"Austria":8218,"Tibet":8219,"Ordnung":8220,"verfügt":8221,"klaren":8222,"Are":8223,"sprinzip":8224,"Mir":8225,"Portuguese":8226,"terung":8227,"customs":8228,"beziehungen":8229,"kauf":8230,"informiert":8231,"spezifischen":8232,"Katastrophe":8233,"verläss":8234,"Gespräche":8235,"unru":8236,"wiegen":8237,"Personal":8238,"Auftrag":8239,"Großbritannien":8240,"Sud":8241,"anda":8242,"proble":8243,"ventionen":8244,"London":8245,"gy":8246,"–,":8247,"imag":8248,"gesellschaften":8249,"Nu":8250,"anspr":8251,"welchen":8252,"Framework":8253,"qualifiz":8254,"künd":8255,"Luxembourg":8256,"Betra":8257,"Action":8258,"einzigen":8259,"respective":8260,"versichern":8261,"associated":8262,"verantwortungs":8263,"Kriminalität":8264,"abe":8265,"chmal":8266,"disasters":8267,"CAP":8268,"ker":8269,"occasion":8270,"Eigent":8271,"electric":8272,"verlangt":8273,"Market":8274,"weiteres":8275,"complic":8276,"abling":8277,"Liber":8278,"Zypern":8279,"überzeugen":8280,"occasions":8281,"Weiß":8282,"bewuß":8283,"anstatt":8284,"intensive":8285,"Miß":8286,"ologie":8287,"seien":8288,"abgestimmt":8289,"1994":8290,"denkt":8291,"atoren":8292,"zeitige":8293,"Genehm":8294,"distribution":8295,"ohes":8296,"Bi":8297,"places":8298,"alte":8299,"technological":8300,"officials":8301,"passed":8302,"worse":8303,"Vorbe":8304,"wäch":8305,"geprüft":8306,"peaceful":8307,"knows":8308,"Ident":8309,"quot":8310,"demonstrated":8311,"lauf":8312,"profitieren":8313,"suche":8314,"ausgesetzt":8315,"millions":8316,"olz":8317,"coast":8318,"fassung":8319,"urban":8320,"ernsthaft":8321,"Arzneimittel":8322,"demonstrate":8323,"Arbeitsplatz":8324,"visit":8325,"geist":8326,"Katastrophen":8327,"bestimmter":8328,"kontrolle":8329,"ley":8330,"verdient":8331,"vieler":8332,"begonnen":8333,"banks":8334,"Technologie":8335,"passengers":8336,"zahlt":8337,"befindet":8338,"Einrichtungen":8339,"Parlamente":8340,"remarks":8341,"holding":8342,"operators":8343,"Übrigen":8344,"domin":8345,"meaning":8346,"Financial":8347,"phys":8348,"sexual":8349,"erläu":8350,"Abend":8351,"phen":8352,"dienste":8353,"fehlen":8354,"transa":8355,"vorliegende":8356,"Ano":8357,"Head":8358,"atically":8359,"jetzigen":8360,"Treat":8361,"öder":8362,"urely":8363,"lined":8364,"ikations":8365,"Liby":8366,"restruct":8367,"dritten":8368,"verfüg":8369,"bound":8370,"Zeiten":8371,"Patienten":8372,"hle":8373,"Another":8374,"freiwill":8375,"allocated":8376,"thorough":8377,"tried":8378,"programms":8379,"ehrten":8380,"contained":8381,"Gefahren":8382,"welcher":8383,"wenigen":8384,"sinc":8385,"inary":8386,"genehm":8387,"Flüchtl":8388,"Erwartungen":8389,"Männern":8390,"oub":8391,"korre":8392,"Soll":8393,"Austausch":8394,"humanitäre":8395,"ski":8396,"Polizei":8397,"strik":8398,"Stad":8399,"institutionelle":8400,"tzten":8401,"Umweltfragen":8402,"Flüchtlinge":8403,"approve":8404,"Women":8405,"lieben":8406,"fehlt":8407,"Straßburg":8408,"Verlust":8409,"entitled":8410,"Ombudsman":8411,"reli":8412,"kü":8413,"destru":8414,"praktisch":8415,"Welche":8416,"elektron":8417,"base":8418,"White":8419,"beteiligen":8420,"Vereinfachung":8421,"gerufen":8422,"Klein":8423,"geäußert":8424,"entscheidende":8425,"iler":8426,"ultimately":8427,"individuals":8428,"Lastly":8429,"gap":8430,"hre":8431,"umfang":8432,"examples":8433,"honest":8434,"verleihen":8435,"corruption":8436,"intellig":8437,"issens":8438,"Regierungschefs":8439,"letztendlich":8440,"spolitischen":8441,"flow":8442,"definite":8443,"concluded":8444,"India":8445,"Energien":8446,"Amts":8447,"primarily":8448,"revision":8449,"Chinese":8450,"änden":8451,"kil":8452,"zerstör":8453,"effizienz":8454,"Kohäsionspolitik":8455,"2012":8456,"ya":8457,"steu":8458,"succeed":8459,"treated":8460,"amounts":8461,"changing":8462,"prove":8463,"haupts":8464,"Ablehnung":8465,"Ham":8466,"lying":8467,"iding":8468,"spanischen":8469,"Männer":8470,"Ash":8471,"günst":8472,"angs":8473,"Rechtsstaatlichkeit":8474,"Mitentscheid":8475,"offers":8476,"ärkt":8477,"gewissen":8478,"radio":8479,"IF":8480,"Tsch":8481,"oppos":8482,"mee":8483,"realise":8484,"coll":8485,"Praktiken":8486,"Systeme":8487,"patent":8488,"anische":8489,"zielle":8490,"islang":8491,"restric":8492,"angebracht":8493,"Treaties":8494,"Ben":8495,"Kre":8496,"involves":8497,"planned":8498,"cou":8499,"ille":8500,"schlecht":8501,"ordnungen":8502,"Mer":8503,"itzen":8504,"Az":8505,"Wirtschaftswachstum":8506,"Paket":8507,"imports":8508,"foot":8509,"gewinnen":8510,"Marktes":8511,"Verfasser":8512,"hoffentlich":8513,"quellen":8514,"za":8515,"ratifiz":8516,"types":8517,"Atom":8518,"bestand":8519,"Wald":8520,"Konsequenzen":8521,"hands":8522,"utter":8523,"farming":8524,"GAP":8525,"scheme":8526,"overcome":8527,"Offen":8528,"Sicherheitspolitik":8529,"Süd":8530,"menschlichen":8531,"wann":8532,"auffordern":8533,"Widerspruch":8534,"vergence":8535,"arische":8536,"violations":8537,"Palästinens":8538,"difference":8539,"February":8540,"fassend":8541,"rational":8542,"substance":8543,"Todesstrafe":8544,"average":8545,"dignity":8546,"Anfragen":8547,"dankbar":8548,"vorgesehenen":8549,"Opposition":8550,"Ober":8551,"infr":8552,"wirkung":8553,"Berufs":8554,"sorgfält":8555,"wodurch":8556,"Despite":8557,"festzulegen":8558,"Mich":8559,"ctual":8560,"informieren":8561,"Mol":8562,"ishing":8563,"stande":8564,"telt":8565,"qualität":8566,"Sprachen":8567,"felt":8568,"gust":8569,"asp":8570,"Mittelpunkt":8571,"Platz":8572,"extended":8573,"forme":8574,"Berichten":8575,"hafte":8576,"seh":8577,"noted":8578,"Februar":8579,"02":8580,"Führung":8581,"pie":8582,"Fisher":8583,"komplex":8584,"prozesses":8585,"ifications":8586,"NGOs":8587,"ucht":8588,"represented":8589,"mur":8590,"emergency":8591,"Leute":8592,"fis":8593,"Given":8594,"verteidigen":8595,"push":8596,"aler":8597,"gutes":8598,"stable":8599,"ausende":8600,"marg":8601,"CS":8602,"omb":8603,"Schwerpunkt":8604,"Finanzierungs":8605,"gezwungen":8606,"führte":8607,"finanziert":8608,"Slovak":8609,"evalu":8610,"teren":8611,"taxes":8612,"EF":8613,"erwartet":8614,"cooperate":8615,"sozialer":8616,"deleg":8617,"Niveau":8618,"ses":8619,"Assem":8620,"exclus":8621,"Dutch":8622,"Sudan":8623,"Vie":8624,"schreiben":8625,"vorange":8626,"Ihrem":8627,"massive":8628,"zählen":8629,"rechen":8630,"läßt":8631,"zweitens":8632,"loc":8633,"whatever":8634,"nevertheless":8635,"garantieren":8636,"ktivität":8637,"37":8638,"Zusammenhalt":8639,"tatsäch":8640,"oubtedly":8641,"unless":8642,"ships":8643,"jemand":8644,"Defiz":8645,"wasser":8646,"productive":8647,"sätzen":8648,"firmly":8649,"vulnerable":8650,"deckt":8651,"Beschluß":8652,"otenzial":8653,"Perhaps":8654,"Welth":8655,"decisive":8656,"exter":8657,"virt":8658,"Dialogs":8659,"geboten":8660,"Besuch":8661,"Gewährleistung":8662,"ias":8663,"fuel":8664,"heutige":8665,"ischem":8666,"denk":8667,"wirtschaftlich":8668,"Alger":8669,"erwähnen":8670,"Wohlstand":8671,"niemals":8672,"Dub":8673,"ries":8674,"strength":8675,"genauso":8676,"latter":8677,"beschäftigen":8678,"Assembly":8679,"auton":8680,"absur":8681,"ierender":8682,"requested":8683,"urteilung":8684,"bene":8685,"somewhat":8686,"geg":8687,"igerung":8688,"regelmäß":8689,"slow":8690,"übt":8691,"erneu":8692,"überall":8693,"Städ":8694,"gewähl":8695,"Kommunikation":8696,"Gaza":8697,"einheitliche":8698,"Anhör":8699,"fertigt":8700,"eli":8701,"Abfall":8702,"Weiter":8703,"statistics":8704,"müß":8705,"Post":8706,"Arbeiten":8707,"Here":8708,"court":8709,"tschaften":8710,"Kooperation":8711,"clause":8712,"Reduzierung":8713,"Ban":8714,"considering":8715,"happens":8716,"wenige":8717,"monopol":8718,"HO":8719,"allows":8720,"secondly":8721,"wirksame":8722,"spoken":8723,"Währungsunion":8724,"mächt":8725,"impression":8726,"Prozesses":8727,"OLAF":8728,"teen":8729,"zugleich":8730,"penalty":8731,"behörde":8732,"Meeres":8733,"obstacles":8734,"Investitions":8735,"ague":8736,"Fach":8737,"room":8738,"Verle":8739,"antworten":8740,"300":8741,"stät":8742,"industries":8743,"einzuführen":8744,"Bevölker":8745,"beigetragen":8746,"solches":8747,"property":8748,"ude":8749,"implic":8750,"please":8751,"Grünen":8752,"quotas":8753,"derartige":8754,"appointed":8755,"generation":8756,"märkte":8757,"Kred":8758,"effektiv":8759,"züg":8760,"glück":8761,"radi":8762,"Zusatz":8763,"Charakter":8764,"letztlich":8765,"jungen":8766,"verfolg":8767,"centre":8768,"Respe":8769,"retain":8770,"fishermen":8771,"ipul":8772,"wollten":8773,"stron":8774,"Herzen":8775,"lernen":8776,"Stimmen":8777,"unmittelbar":8778,"sincere":8779,"Respekt":8780,"Angaben":8781,"Malta":8782,"preparing":8783,"Wiederaufbau":8784,"Beweg":8785,"worte":8786,"enhan":8787,"deser":8788,"gewährt":8789,"Doha":8790,"erleichtern":8791,"daten":8792,"appell":8793,"gewählt":8794,"operational":8795,"Mandat":8796,"Commun":8797,"beschäftigt":8798,"ferences":8799,"Sad":8800,"cro":8801,"Israeli":8802,"excessive":8803,"Fisheries":8804,"anen":8805,"eingegangen":8806,"Atlant":8807,"acknowledge":8808,"verringern":8809,"haften":8810,"aband":8811,"shaus":8812,"Strukturen":8813,"verhält":8814,"uting":8815,"Because":8816,"Ohne":8817,"preventing":8818,"Boden":8819,"Bulgarien":8820,"Massen":8821,"shado":8822,"hauptsächlich":8823,"obli":8824,"angewand":8825,"stimul":8826,"Teilen":8827,"Journal":8828,"paper":8829,"seven":8830,"Mitgliedschaft":8831,"Debatten":8832,"drawing":8833,"aken":8834,"abuse":8835,"highest":8836,"erhöht":8837,"Dring":8838,"mlich":8839,"dependent":8840,"viour":8841,"jenen":8842,"constitu":8843,"fand":8844,"iban":8845,"prepare":8846,"gestattet":8847,"isierten":8848,"accounts":8849,"agency":8850,"ländliche":8851,"exception":8852,"nungen":8853,"voran":8854,"expla":8855,"Any":8856,"damals":8857,"introducing":8858,"determined":8859,"compared":8860,"details":8861,"versicher":8862,"starken":8863,"stoß":8864,"Dublin":8865,"Yes":8866,"geschützt":8867,"spezifische":8868,"exploitation":8869,"rain":8870,"Unions":8871,"HU":8872,"Korea":8873,"einstimm":8874,"ienen":8875,"Trad":8876,"Gelder":8877,"insurance":8878,"gebiet":8879,"hiel":8880,"Gegensatz":8881,"Geist":8882,"kehren":8883,"diesbezüglich":8884,"links":8885,"announced":8886,"ursprünglichen":8887,"forcement":8888,"relates":8889,"stocks":8890,"duties":8891,"urgently":8892,"electronic":8893,"flich":8894,"zuvor":8895,"ills":8896,"Energieeffizienz":8897,"Then":8898,"iegen":8899,"undoubtedly":8900,"schreck":8901,"herrscht":8902,"Assozi":8903,"echten":8904,"Bon":8905,"Asia":8906,"Ministerpräsident":8907,"expens":8908,"gestr":8909,"medizin":8910,"kurr":8911,"vorschläge":8912,"Croatia":8913,"inspe":8914,"zielen":8915,"applying":8916,"wissenschaftlichen":8917,"lls":8918,"waffen":8919,"wünsch":8920,"fiscal":8921,"stes":8922,"intensiv":8923,"Refer":8924,"facts":8925,"processes":8926,"teilnehmen":8927,"paar":8928,"constantly":8929,"ispiele":8930,"Kroat":8931,"hing":8932,"icip":8933,"Darum":8934,"dlichen":8935,"proceedings":8936,"Verzöger":8937,"jährigen":8938,"erinner":8939,"besorgt":8940,"rael":8941,"Ausmaß":8942,"finding":8943,"latest":8944,"erleben":8945,"vorschlagen":8946,"Wall":8947,"lays":8948,"dringen":8949,"unterzeichnet":8950,"ograf":8951,"allzu":8952,"austausch":8953,"privaten":8954,"exclusion":8955,"prosperity":8956,"erfreut":8957,"spoke":8958,"Mangel":8959,"codecision":8960,"konfront":8961,"appreciate":8962,"confirmed":8963,"expectations":8964,"israel":8965,"iling":8966,"Volkspartei":8967,"stronger":8968,"sad":8969,"vorgelegten":8970,"füllung":8971,"Alliance":8972,"Studie":8973,"pursue":8974,"ört":8975,"guter":8976,"advert":8977,"beschleun":8978,"Syr":8979,"Intergovernmental":8980,"Bereitschaft":8981,"universal":8982,"behaviour":8983,"fisch":8984,"abstain":8985,"Indien":8986,"advant":8987,"Rad":8988,"budgets":8989,"embar":8990,"Beispiele":8991,"05":8992,"Report":8993,"krank":8994,"deutschen":8995,"Migr":8996,"minutes":8997,"phenomen":8998,"wealth":8999,"aul":9000,"izon":9001,"described":9002,"Bus":9003,"irischen":9004,"sho":9005,"harma":9006,"Besitz":9007,"einzusetzen":9008,"entfern":9009,"1990":9010,"britische":9011,"contact":9012,"Opt":9013,"Urteil":9014,"Patten":9015,"zy":9016,"react":9017,"eingeb":9018,"dahin":9019,"Arbeitnehmern":9020,"arguments":9021,"extension":9022,"gerichte":9023,"qualit":9024,"IM":9025,"NS":9026,"wegs":9027,"advantages":9028,"fragt":9029,"taxpay":9030,"fif":9031,"Schatten":9032,"bereiche":9033,"humanitären":9034,"timet":9035,"ini":9036,"Preise":9037,"Bundes":9038,"seitige":9039,"Secre":9040,"Ansichten":9041,"europäisches":9042,"qualified":9043,"intends":9044,"Patent":9045,"ka":9046,"abhängig":9047,"coordinated":9048,"Consumer":9049,"Bö":9050,"strategies":9051,"define":9052,"association":9053,"Fang":9054,"Armen":9055,"Ungar":9056,"Wirkung":9057,"Freih":9058,"historic":9059,"Stock":9060,"convergence":9061,"barriers":9062,"behandlung":9063,"comed":9064,"saw":9065,"aters":9066,"lehnen":9067,"auseinander":9068,"Erzeuger":9069,"prohib":9070,"friendly":9071,"studies":9072,"permit":9073,"hü":9074,"pic":9075,"trages":9076,"beings":9077,"Anwend":9078,"gewöhn":9079,"Bedarf":9080,"Mos":9081,"Verb":9082,"dispos":9083,"globale":9084,"Wahrheit":9085,"lös":9086,"ichterstat":9087,"diskrimin":9088,"aktive":9089,"Gebäu":9090,"ano":9091,"werten":9092,"fields":9093,"contracts":9094,"Tage":9095,"kn":9096,"mittleren":9097,"aries":9098,"Protection":9099,"city":9100,"Milch":9101,"clarify":9102,"materials":9103,"mittelt":9104,"gestärkt":9105,"politically":9106,"united":9107,"berichterstat":9108,"Effe":9109,"UE":9110,"dritte":9111,"treiben":9112,"jährlich":9113,"Hal":9114,"IB":9115,"wine":9116,"ratification":9117,"Prozeß":9118,"bestätigen":9119,"wiederum":9120,"dumping":9121,"danach":9122,"understood":9123,"sü":9124,"August":9125,"educ":9126,"inational":9127,"federal":9128,"welcomed":9129,"überprüfen":9130,"published":9131,"lap":9132,"griffe":9133,"stoffen":9134,"host":9135,"Selbstverständlich":9136,"produktion":9137,"strengthened":9138,"zurückzu":9139,"sphere":9140,"playing":9141,"mutzung":9142,"Freude":9143,"double":9144,"marked":9145,"Stadt":9146,"portug":9147,"etc":9148,"Gerecht":9149,"Beteiligten":9150,"verhindert":9151,"inen":9152,"schließt":9153,"equipment":9154,"follows":9155,"briefly":9156,"stad":9157,"wiederholt":9158,"vic":9159,"Real":9160,"Befür":9161,"debating":9162,"Treib":9163,"Serbia":9164,"Instit":9165,"oso":9166,"meat":9167,"poten":9168,"largely":9169,"OM":9170,"Millenn":9171,"soeben":9172,"Vorteil":9173,"Mex":9174,"arbeits":9175,"solange":9176,"Urspr":9177,"48":9178,"Vier":9179,"igu":9180,"urgency":9181,"ALDE":9182,"erhält":9183,"atische":9184,"largest":9185,"Stoffe":9186,"Steuern":9187,"intelle":9188,"restructuring":9189,"Internal":9190,"Reise":9191,"coherent":9192,"Güter":9193,"Yugosla":9194,"lichkeiten":9195,"nehmbar":9196,"Bedürfnisse":9197,"ström":9198,"shadow":9199,"Neben":9200,"portugies":9201,"stärkere":9202,"prozeß":9203,"würdig":9204,"reserv":9205,"wahlen":9206,"bedanken":9207,"brings":9208,"parlamentarischen":9209,"GUE":9210,"Constitutional":9211,"36":9212,"derzeitige":9213,"rac":9214,"manchmal":9215,"Kop":9216,"maintaining":9217,"Dikt":9218,"brut":9219,"Zul":9220,"sovereignty":9221,"konfrontiert":9222,"verwenden":9223,"schweren":9224,"Korruption":9225,"CE":9226,"Grenze":9227,"proved":9228,"Ratifizierung":9229,"Latin":9230,"kas":9231,"analy":9232,"electricity":9233,"Rent":9234,"Äuß":9235,"Verhe":9236,"Nutz":9237,"cities":9238,"froh":9239,"verlassen":9240,"Prozent":9241,"enswert":9242,"answers":9243,"Würde":9244,"amending":9245,"umsetzen":9246,"destroy":9247,"anspruch":9248,"kurzem":9249,"Employment":9250,"nex":9251,"Grünbuch":9252,"Regul":9253,"cycl":9254,"lässlich":9255,"zusätzlichen":9256,"Prem":9257,"touch":9258,"werfen":9259,"italienischen":9260,"Methode":9261,"Col":9262,"haltet":9263,"präz":9264,"yer":9265,"verhandlungen":9266,"absen":9267,"Gerechtigkeit":9268,"illegale":9269,"durchführen":9270,"Wachstums":9271,"psy":9272,"Bürokrat":9273,"bislang":9274,"junge":9275,"Schw":9276,"besitz":9277,"wirklichung":9278,"Gegenstand":9279,"Vorrang":9280,"gleichheit":9281,"stoßen":9282,"Anderer":9283,"ziemlich":9284,"strategischen":9285,"Bla":9286,"Gesicht":9287,"Untersuchungen":9288,"Unternehmens":9289,"gebeten":9290,"perfectly":9291,"enttäu":9292,"supervision":9293,"spür":9294,"Agenturen":9295,"Solana":9296,"leadership":9297,"benachteil":9298,"Kräfte":9299,"beunru":9300,"beinhaltet":9301,"Andererseits":9302,"undertaken":9303,"Nachbarschaft":9304,"Bereitstellung":9305,"uerung":9306,"Lob":9307,"Instead":9308,"ansprechen":9309,"Beschrän":9310,"Wähler":9311,"resist":9312,"Safe":9313,"Bil":9314,"believes":9315,"scr":9316,"Under":9317,"drast":9318,"voller":9319,"hiloso":9320,"Menschenhandel":9321,"Verwirklichung":9322,"ikanische":9323,"schö":9324,"sieben":9325,"minute":9326,"Verheugen":9327,"Dr":9328,"surve":9329,"zeiten":9330,"Insbesondere":9331,"multinational":9332,"wonach":9333,"president":9334,"zweifel":9335,"Methoden":9336,"Vorred":9337,"Einschrän":9338,"beschränken":9339,"kers":9340,"Entwicklungshilfe":9341,"AID":9342,"ado":9343,"Fremdenverkehr":9344,"beruht":9345,"festgelegten":9346,"plants":9347,"seeing":9348,"agne":9349,"Schuld":9350,"biolog":9351,"erinnert":9352,"Beseit":9353,"Häl":9354,"sufficiently":9355,"Renten":9356,"team":9357,"ctor":9358,"Wirtschaftspolitik":9359,"Ashton":9360,"producing":9361,"unverzüglich":9362,"card":9363,"tene":9364,"Versicher":9365,"significantly":9366,"users":9367,"befürworten":9368,"politisches":9369,"Verhaltens":9370,"EW":9371,"reisen":9372,"bereiten":9373,"afft":9374,"Teilnahme":9375,"offered":9376,"funktionieren":9377,"Sal":9378,"quar":9379,"absence":9380,"verstehe":9381,"TA":9382,"advance":9383,"Subject":9384,"religiö":9385,"schätzen":9386,"eingebracht":9387,"identity":9388,"Represent":9389,"bedro":9390,"dictator":9391,"Modern":9392,"Versammlung":9393,"Ausarbeitung":9394,"driving":9395,"fruit":9396,"Hälfte":9397,"unmöglich":9398,"ongoing":9399,"zuständig":9400,"deswegen":9401,"regrett":9402,"Ter":9403,"fleisch":9404,"Labour":9405,"hob":9406,"trenn":9407,"careful":9408,"verurteilen":9409,"Beseitigung":9410,"news":9411,"Stabilitäts":9412,"ilen":9413,"Inkraft":9414,"Unterschied":9415,"compuls":9416,"medical":9417,"zwingen":9418,"learning":9419,"Wirtschaftskrise":9420,"kulturelle":9421,"horizon":9422,"Akt":9423,"complain":9424,"preise":9425,"glaub":9426,"amended":9427,"Küsten":9428,"disposal":9429,"bann":9430,"Staates":9431,"regelung":9432,"Ungarn":9433,"stri":9434,"relativ":9435,"rupt":9436,"NGL":9437,"supposed":9438,"acquis":9439,"grunde":9440,"Bio":9441,"anträge":9442,"Ausgleich":9443,"klau":9444,"1992":9445,"spartner":9446,"accidents":9447,"beabsichtigt":9448,"Betre":9449,"ernsthaf":9450,"arded":9451,"figure":9452,"Faktoren":9453,"Fischler":9454,"dürfte":9455,"zunehmend":9456,"endeav":9457,"Premier":9458,"Food":9459,"bewußt":9460,"klausel":9461,"ering":9462,"breach":9463,"difficulty":9464,"betracht":9465,"Hungarian":9466,"niveau":9467,"grenze":9468,"parallel":9469,"disp":9470,"Monat":9471,"built":9472,"Mechanismen":9473,"Protocol":9474,"kar":9475,"Öffnung":9476,"Anbetracht":9477,"infolge":9478,"sets":9479,"verletzungen":9480,"AIDS":9481,"Betrifft":9482,"Finland":9483,"actively":9484,"mitteilen":9485,"erstens":9486,"significance":9487,"erlebt":9488,"Lebensmittelsicherheit":9489,"zusammenzu":9490,"führungs":9491,"Nachhalt":9492,"verursacht":9493,"38":9494,"Kopenhagen":9495,"entweder":9496,"welches":9497,"Niger":9498,"envis":9499,"book":9500,"Engl":9501,"hinzufügen":9502,"grenzüberschreitenden":9503,"ality":9504,"distin":9505,"Steuerzahl":9506,"highlighted":9507,"Bedrohung":9508,"nischen":9509,"vene":9510,"aming":9511,"wärtige":9512,"hner":9513,"manufactur":9514,"C4":9515,"neutr":9516,"Fähigkeit":9517,"netz":9518,"sodass":9519,"visory":9520,"patients":9521,"einzig":9522,"Haup":9523,"krieg":9524,"Heads":9525,"Control":9526,"genuinely":9527,"beeinträcht":9528,"Jed":9529,"chische":9530,"früheren":9531,"texts":9532,"Donner":9533,"abilities":9534,"resulting":9535,"Volkes":9536,"severe":9537,"ragmat":9538,"vessels":9539,"zugrunde":9540,"gested":9541,"Aktions":9542,"Einstellung":9543,"sold":9544,"Consequently":9545,"journal":9546,"holders":9547,"Wein":9548,"Lie":9549,"uung":9550,"Hindernisse":9551,"compulsory":9552,"distort":9553,"Four":9554,"ades":9555,"inzwischen":9556,"alarm":9557,"Kommissionsmitglie":9558,"Sco":9559,"waters":9560,"erlau":9561,"ov":9562,"umfassend":9563,"Aufsicht":9564,"sichergestellt":9565,"valuable":9566,"Kontinent":9567,"interpretation":9568,"negotiation":9569,"exports":9570,"deliber":9571,"Ideen":9572,"verhalten":9573,"betrieben":9574,"NRO":9575,"stechn":9576,"Vorlage":9577,"gegenwärtige":9578,"tzeit":9579,"breite":9580,"Liberalen":9581,"geehrte":9582,"valid":9583,"External":9584,"geräumt":9585,"apart":9586,"’.":9587,"ilot":9588,"deficit":9589,"fäng":9590,"Hilfs":9591,"investieren":9592,"Beiträge":9593,"offenbar":9594,"gewün":9595,"referring":9596,"choose":9597,"EIB":9598,"Rechten":9599,"ALE":9600,"Where":9601,"Thurs":9602,"GDP":9603,"nock":9604,"Common":9605,"considers":9606,"anzunehmen":9607,"geschafft":9608,"motor":9609,"motiv":9610,"primary":9611,"evident":9612,"bestehende":9613,"Demokraten":9614,"cars":9615,"orgungs":9616,"offenen":9617,"angenommenen":9618,"Chancengleichheit":9619,"Berg":9620,"leads":9621,"Mrd":9622,"assum":9623,"geregelt":9624,"uniform":9625,"zentrale":9626,"geraten":9627,"verweisen":9628,"speziellen":9629,"kohol":9630,"Statist":9631,"anche":9632,"Programmen":9633,"thly":9634,"regionen":9635,"gefährdet":9636,"Quoten":9637,"code":9638,"unbe":9639,"Angeb":9640,"ambition":9641,"satisfactory":9642,"entfernt":9643,"ardis":9644,"expert":9645,"sustainability":9646,"Georgia":9647,"ZB":9648,"umb":9649,"mangeln":9650,"aufnehmen":9651,"theit":9652,"trial":9653,"Entschlossen":9654,"Außenminister":9655,"autonom":9656,"Donnerstag":9657,"34":9658,"Buch":9659,"Sektors":9660,"protocol":9661,"gypt":9662,"Wohn":9663,"kurzfrist":9664,"Cooperation":9665,"Bürokratie":9666,"igern":9667,"Menge":9668,"Bush":9669,"Einheit":9670,"hindert":9671,"gewähren":9672,"türkischen":9673,"trovers":9674,"ops":9675,"Thursday":9676,"preced":9677,"Laufe":9678,"cofin":9679,"Vertrages":9680,"aside":9681,"Energies":9682,"thu":9683,"denjenigen":9684,"ausgezeichnete":9685,"Entschlossenheit":9686,"tering":9687,"infringe":9688,"Safety":9689,"Inner":9690,"consc":9691,"tam":9692,"destruction":9693,"slight":9694,"chr":9695,"Gewerk":9696,"letzter":9697,"confident":9698,"Senkung":9699,"Früh":9700,"compatible":9701,"bezü":9702,"einzur":9703,"boost":9704,"Vertretern":9705,"schlechter":9706,"Before":9707,"Souverän":9708,"neighbours":9709,"Teile":9710,"Verbrauchern":9711,"Moroc":9712,"Allgemeinen":9713,"dex":9714,"freuen":9715,"Indones":9716,"Kommissionsvorschlag":9717,"grundsätzlich":9718,"Verletzung":9719,"carbon":9720,"suggested":9721,"Greens":9722,"television":9723,"cure":9724,"Kontext":9725,"Northern":9726,"Bevölkerungs":9727,"VP":9728,"deep":9729,"options":9730,"running":9731,"abandon":9732,"daily":9733,"weitgehend":9734,"assume":9735,"milk":9736,"militärischen":9737,"absurd":9738,"VAT":9739,"fix":9740,"beur":9741,"becomes":9742,"Umstruktur":9743,"requests":9744,"höchst":9745,"fted":9746,"Gerade":9747,"kämpft":9748,"Ursachen":9749,"Mechanismus":9750,"Schulden":9751,"ehemaligen":9752,"Genau":9753,"Erfordern":9754,"hilfen":9755,"probleme":9756,"Noch":9757,"liber":9758,"Austrian":9759,"Schiffe":9760,"genie":9761,"Fün":9762,"Kategor":9763,"angesehen":9764,"Once":9765,"festzustellen":9766,"Krankheit":9767,"Bitte":9768,"insof":9769,"someone":9770,"menschliche":9771,"keting":9772,"Erhaltung":9773,"accident":9774,"ländischen":9775,"sah":9776,"registr":9777,"Fischereipolitik":9778,"hilosoph":9779,"vereinf":9780,"chairman":9781,"audio":9782,"neighbouring":9783,"launched":9784,"vergenz":9785,"regarded":9786,"Ruß":9787,"maintained":9788,"night":9789,"ziele":9790,"Protokolls":9791,"constitute":9792,"ark":9793,"competent":9794,"Zahlungs":9795,"Schulz":9796,"preparation":9797,"Nachdruck":9798,"merkungen":9799,"Mutter":9800,"überwinden":9801,"Gefühl":9802,"Bew":9803,"bereitgestellt":9804,"beeinfl":9805,"Handlungs":9806,"ighten":9807,"nehme":9808,"MED":9809,"illing":9810,"Bol":9811,"Abgeordneter":9812,"friends":9813,"habit":9814,"acknowled":9815,"bewältigen":9816,"transitional":9817,"bezeichnet":9818,"strugg":9819,"numbers":9820,"entwickelten":9821,"proof":9822,"Stockhol":9823,"izza":9824,"indicated":9825,"elsewhere":9826,"EZB":9827,"eingeleitet":9828,"Drittstaaten":9829,"reaction":9830,"medicines":9831,"Verab":9832,"schwierige":9833,"ampere":9834,"collabor":9835,"Britain":9836,"speeches":9837,"Mitarbeiter":9838,"Over":9839,"cop":9840,"ón":9841,"irre":9842,"Revision":9843,"zurückzuführen":9844,"Genehmigung":9845,"Hels":9846,"RE":9847,"gebill":9848,"Bürgerbeauftragten":9849,"Gefäng":9850,"weltweiten":9851,"niedrig":9852,"icks":9853,"wirkliche":9854,"Chair":9855,"surv":9856,"Kennzeichnung":9857,"Export":9858,"Mittelmeerr":9859,"investigation":9860,"BIP":9861,"chines":9862,"KOM":9863,"release":9864,"reds":9865,"Anlass":9866,"Ausgrenzung":9867,"Einkommen":9868,"Hinweis":9869,"angemessenen":9870,"identified":9871,"thanking":9872,"höhere":9873,"transl":9874,"profession":9875,"murder":9876,"32":9877,"grav":9878,"judge":9879,"benötigt":9880,"bürokrat":9881,"rachten":9882,"partly":9883,"prisoners":9884,"Kontakt":9885,"opposite":9886,"usal":9887,"nachzu":9888,"Dis":9889,"aviation":9890,"beschränkt":9891,"Verts":9892,"demograph":9893,"änger":9894,"satisfied":9895,"possibly":9896,"Santer":9897,"Situationen":9898,"obliged":9899,"previously":9900,"Tourismus":9901,"timetable":9902,"Dingen":9903,"achte":9904,"identify":9905,"warn":9906,"Ta":9907,"onom":9908,"ured":9909,"Konvergenz":9910,"species":9911,"concentrate":9912,"Brok":9913,"Belast":9914,"hous":9915,"Betracht":9916,"During":9917,"dev":9918,"verank":9919,"kohär":9920,"Tampere":9921,"zivil":9922,"spread":9923,"expl":9924,"greatly":9925,"verschär":9926,"Stunden":9927,"count":9928,"strukt":9929,"Zustand":9930,"zio":9931,"Weiteren":9932,"bedauerlich":9933,"Mater":9934,"dafr":9935,"Studien":9936,"Perspektive":9937,"Nice":9938,"Wesentlichen":9939,"kompliz":9940,"gh":9941,"Tätigkeiten":9942,"Nachbarn":9943,"genügend":9944,"Nizza":9945,"strä":9946,"Does":9947,"eva":9948,"opened":9949,"großem":9950,"passiert":9951,"LT":9952,"cohol":9953,"Zielsetzungen":9954,"lenken":9955,"Tisch":9956,"zukünftigen":9957,"Regulierung":9958,"acting":9959,"appointment":9960,"räsid":9961,"Jeder":9962,"gment":9963,"size":9964,"Fuß":9965,"core":9966,"langfristig":9967,"Ernähr":9968,"definit":9969,"stadt":9970,"reconstruction":9971,"Presidents":9972,"Konflikte":9973,"Burma":9974,"Sow":9975,"eight":9976,"inadequate":9977,"Gemeinschaften":9978,"selbe":9979,"Allianz":9980,"Helsink":9981,"annt":9982,"normen":9983,"befürwortet":9984,"interessiert":9985,"gebieten":9986,"CF":9987,"ba":9988,"alien":9989,"favourable":9990,"Leistungen":9991,"itals":9992,"possibilities":9993,"Problematik":9994,"Without":9995,"tragic":9996,"stellte":9997,"negativen":9998,"55":9999,"flexib":10000,"behaupten":10001,"cracy":10002,"inger":10003,"sugar":10004,"fällig":10005,"Ministerrat":10006,"garantiert":10007,"Welthandels":10008,"enforcement":10009,"itage":10010,"Anstieg":10011,"Helsinki":10012,"kul":10013,"weiten":10014,"necessarily":10015,"complicated":10016,"ased":10017,"tests":10018,"anerkennen":10019,"label":10020,"horizontal":10021,"Pläne":10022,"vorsieht":10023,"gestatten":10024,"completed":10025,"Positionen":10026,"deserves":10027,"Flor":10028,"Roth":10029,"Abstimmungs":10030,"forman":10031,"auftreten":10032,"197":10033,"vollständige":10034,"hart":10035,"complement":10036,"attempts":10037,"iety":10038,"Thus":10039,"angest":10040,"palästinensischen":10041,"Beamten":10042,"moreover":10043,"zugän":10044,"Verlauf":10045,"vorbereitet":10046,"Pass":10047,"teach":10048,"nahm":10049,"debated":10050,"verabschieden":10051,"eten":10052,"verbrauch":10053,"affir":10054,"jour":10055,"remove":10056,"geschä":10057,"ength":10058,"angewandt":10059,"förderung":10060,"affects":10061,"Vorsitzenden":10062,"Gang":10063,"Errichtung":10064,"Erfüllung":10065,"proz":10066,"werke":10067,"laden":10068,"ergänzen":10069,"DA":10070,"sekret":10071,"Abhäng":10072,"nächster":10073,"Freihandels":10074,"Lo":10075,"enness":10076,"schlimm":10077,"Aufhebung":10078,"Bra":10079,"carrying":10080,"himself":10081,"Belgian":10082,"Erreichung":10083,"Konvention":10084,"anzuwenden":10085,"militärische":10086,"Einer":10087,"Somm":10088,"enh":10089,"Secretary":10090,"diesbezü":10091,"mittler":10092,"suffered":10093,"beantworten":10094,"mix":10095,"regen":10096,"responding":10097,"tini":10098,"senden":10099,"Statut":10100,"implications":10101,"agent":10102,"besonderer":10103,"pragmat":10104,"died":10105,"extensive":10106,"Tim":10107,"Ve":10108,"craft":10109,"chosen":10110,"helped":10111,"Amt":10112,"SA":10113,"ategory":10114,"Minuten":10115,"jedenfalls":10116,"hearing":10117,"finanzieren":10118,"topic":10119,"wesentlicher":10120,"überaus":10121,"afford":10122,"ero":10123,"betreiben":10124,"afternoon":10125,"unterschiedlich":10126,"Slowa":10127,"feind":10128,"richtet":10129,"idung":10130,"centres":10131,"Durchsetzung":10132,"Having":10133,"Kooperations":10134,"Förder":10135,"suitable":10136,"explic":10137,"Übergang":10138,"asil":10139,"prospe":10140,"Geschlechter":10141,"stehende":10142,"flag":10143,"issued":10144,"facilities":10145,"Verordnungen":10146,"räumen":10147,"Ausweit":10148,"1993":10149,"strukture":10150,"conducted":10151,"án":10152,"alcohol":10153,"ausgehen":10154,"zego":10155,"Kroatien":10156,"advertising":10157,"Zentr":10158,"kop":10159,"geführten":10160,"ifik":10161,"spezielle":10162,"Zeitplan":10163,"bedeut":10164,"befasst":10165,"33":10166,"Herzego":10167,"Partnern":10168,"She":10169,"Textil":10170,"southern":10171,"decken":10172,"Verabschied":10173,"pap":10174,"remark":10175,"vorstellen":10176,"willingness":10177,"audiovis":10178,"eye":10179,"gal":10180,"ausgerichtet":10181,"Kapaz":10182,"verbundenen":10183,"Potenzial":10184,"häre":10185,"Dokumente":10186,"Wahrung":10187,"heavy":10188,"veränder":10189,"ott":10190,"Herkunfts":10191,"klear":10192,"einzelne":10193,"expand":10194,"entstanden":10195,"Behin":10196,"ablehnen":10197,"poorest":10198,"Garantien":10199,"Angst":10200,"ipel":10201,"guaranteeing":10202,"reven":10203,"Ausweitung":10204,"Verabschiedung":10205,"Präsid":10206,"wal":10207,"seeks":10208,"drücken":10209,"erwarte":10210,"armed":10211,"ossier":10212,"cratic":10213,"Menschenrechtsverletzungen":10214,"sser":10215,"ausüben":10216,"akten":10217,"Grem":10218,"trotzdem":10219,"prospects":10220,"tic":10221,"rolle":10222,"traged":10223,"ratified":10224,"tragedy":10225,"jegliche":10226,"weite":10227,"clean":10228,"Representative":10229,"haf":10230,"iene":10231,"wohner":10232,"Klarheit":10233,"Experten":10234,"tend":10235,"healthy":10236,"societies":10237,"Kapitel":10238,"Hamas":10239,"65":10240,"tort":10241,"Saddam":10242,"sil":10243,"zungen":10244,"geteilt":10245,"ader":10246,"ceeded":10247,"hergestellt":10248,"AN":10249,"Souveränität":10250,"Act":10251,"deals":10252,"surely":10253,"Gesellschaften":10254,"brochen":10255,"definitely":10256,"Dad":10257,"Beachtung":10258,"landwirtschaftlichen":10259,"Regionalpolitik":10260,"syn":10261,"verboten":10262,"weight":10263,"intentions":10264,"ausgeschlossen":10265,"considerations":10266,"bele":10267,"whereby":10268,"doub":10269,"mistake":10270,"rechtzeit":10271,"Auge":10272,"schemes":10273,"depart":10274,"lym":10275,"utung":10276,"bildet":10277,"Belgium":10278,"crop":10279,"admit":10280,"Anmerkungen":10281,"herrschen":10282,"length":10283,"slo":10284,"alia":10285,"befug":10286,"Gerichts":10287,"Existenz":10288,"entscheidenden":10289,"Socialists":10290,"Plenar":10291,"sebene":10292,"weisung":10293,"bedeutende":10294,"ökonomischen":10295,"partial":10296,"beschl":10297,"Raums":10298,"Straft":10299,"Verbreitung":10300,")).":10301,"town":10302,"conserv":10303,"Auth":10304,"Serbien":10305,"uneingeschränkt":10306,"Dän":10307,"belg":10308,"einstimmig":10309,"Gewicht":10310,"reift":10311,"seiten":10312,"Verteidigungspolitik":10313,"atures":10314,"spite":10315,"Home":10316,"zedon":10317,"erlassen":10318,"raising":10319,"müsste":10320,"Forum":10321,"gemeinsames":10322,"förder":10323,"Hohe":10324,"diplomatic":10325,"Galile":10326,"atom":10327,"governing":10328,"Luxemburg":10329,"zugestimmt":10330,"Nachhaltigkeit":10331,"paket":10332,"Menschenrechten":10333,"successfully":10334,"Kernkraft":10335,"inev":10336,"langfristige":10337,"österreich":10338,"forum":10339,"openness":10340,"nationals":10341,"idem":10342,"wechsel":10343,"hinweg":10344,"sorgfältig":10345,"Ausgang":10346,"hierbei":10347,"Lithu":10348,"Hungary":10349,"bedauere":10350,"ichter":10351,"Strom":10352,"cuts":10353,"coal":10354,"Olym":10355,"gelingt":10356,"worldwide":10357,"keineswegs":10358,"bs":10359,"berg":10360,"bestimmungen":10361,"addressing":10362,"wing":10363,"Ausbe":10364,"Umgang":10365,"reliable":10366,"pensions":10367,"ichert":10368,"Dadurch":10369,"gol":10370,"stay":10371,"sorry":10372,"schwedischen":10373,"Weißbuch":10374,"essentially":10375,"purely":10376,"ungsmaßnahmen":10377,"müssten":10378,"beruhen":10379,"gehe":10380,"haz":10381,"approx":10382,"Sym":10383,"igend":10384,"nar":10385,"focused":10386,"Galileo":10387,"Tal":10388,"üss":10389,"39":10390,"soweit":10391,"zusammenarbeit":10392,"zählt":10393,"Tunis":10394,"auswirken":10395,"tor":10396,"atisation":10397,".\"":10398,"Tem":10399,"ergeb":10400,"befürworte":10401,"ipl":10402,"ote":10403,"demanding":10404,"unanimously":10405,"Gut":10406,"hit":10407,"rul":10408,"iner":10409,"überlassen":10410,"Begründ":10411,"plus":10412,"Sh":10413,"Time":10414,"tter":10415,"stein":10416,"Finnland":10417,"Test":10418,"strategische":10419,"fortunate":10420,"claims":10421,"erlaubt":10422,"fit":10423,"ama":10424,"worst":10425,"hundreds":10426,"Migration":10427,"abschließen":10428,"ECB":10429,"Tragö":10430,"interinstitutional":10431,"percent":10432,"faction":10433,"solely":10434,"sphäre":10435,"Frist":10436,"wesenheit":10437,"relatively":10438,"Zahlungen":10439,"thal":10440,"detaill":10441,"Roh":10442,"erteilen":10443,"seas":10444,"icro":10445,"herzustellen":10446,"stattfindet":10447,"Montene":10448,"Rass":10449,"Unternehmer":10450,"einamer":10451,"abled":10452,"COD":10453,"extending":10454,"harmful":10455,"fire":10456,"inakzeptabel":10457,"chap":10458,"SK":10459,"städ":10460,"Erarbeitung":10461,"Detail":10462,"stattung":10463,"Qualitäts":10464,"Danish":10465,"worrying":10466,"doppel":10467,"emost":10468,"modified":10469,"Inkrafttreten":10470,"Tsche":10471,"bevölk":10472,"vertritt":10473,"Polit":10474,"increases":10475,"determine":10476,"refers":10477,"laufenden":10478,"GA":10479,"None":10480,"eastern":10481,"Demonstr":10482,"Übereinkommens":10483,"threats":10484,"correctly":10485,"Aspekten":10486,"stressed":10487,"easily":10488,"westlichen":10489,"Schäden":10490,"ony":10491,"beef":10492,"map":10493,"russischen":10494,"sektors":10495,"flicht":10496,"Akteure":10497,"ophob":10498,"Joint":10499,"abkommens":10500,"usual":10501,"frecht":10502,"ausgegeben":10503,"dispute":10504,"explicit":10505,"ativer":10506,"reduzieren":10507,"heading":10508,"ASE":10509,"lesen":10510,"foremost":10511,"feiler":10512,"geographical":10513,"erzeug":10514,"verletzt":10515,"controvers":10516,"background":10517,"tools":10518,"hopes":10519,"Kann":10520,"omin":10521,"kontrollieren":10522,"profits":10523,"besitzt":10524,"zuerst":10525,"langsam":10526,"looked":10527,"granting":10528,"Kir":10529,"VO":10530,"respects":10531,"dargelegt":10532,"phenomenon":10533,"faith":10534,"wage":10535,"Herstellung":10536,"players":10537,"rapidly":10538,"depth":10539,"remaining":10540,"Bosnia":10541,"drop":10542,"schauen":10543,"ausgaben":10544,"accur":10545,"Both":10546,"Betriebe":10547,"taxpayers":10548,"paying":10549,"depends":10550,"performan":10551,"angekünd":10552,"unabhängigen":10553,"Trotzdem":10554,"ecut":10555,"Argumente":10556,"icken":10557,"bul":10558,"Behörde":10559,"Modernisierung":10560,"schau":10561,"acted":10562,"artige":10563,"heritage":10564,"Budgetary":10565,"Wichtig":10566,"Erwägung":10567,"tle":10568,"leitung":10569,"geted":10570,"vorn":10571,"häfen":10572,"Tai":10573,"enabling":10574,"untersuchen":10575,"Cuba":10576,"FI":10577,"angewendet":10578,"decades":10579,"öffent":10580,"Ausbeutung":10581,"Arbeitgeber":10582,"promised":10583,"stattgefunden":10584,"Datenschutz":10585,"respektieren":10586,"öffentlicht":10587,"ware":10588,"schafts":10589,"Nachfrage":10590,"aktuelle":10591,"advice":10592,"experienced":10593,"Alternative":10594,"pict":10595,"veröffentlicht":10596,"skills":10597,"spend":10598,"internen":10599,"Faktor":10600,"drückt":10601,"bureaucracy":10602,"Citi":10603,"verwalt":10604,"sobald":10605,"intellectual":10606,"Abhängigkeit":10607,"las":10608,"mung":10609,"Formulierung":10610,"beiträ":10611,"considerably":10612,"wissenschaftliche":10613,"Dauer":10614,"ork":10615,"jener":10616,"Bis":10617,"reve":10618,"schließe":10619,"environmentally":10620,"alties":10621,"Partnership":10622,"Fron":10623,"Left":10624,"früh":10625,"Funktionieren":10626,"Referendum":10627,"Termin":10628,"chst":10629,"geplan":10630,"Kurz":10631,"Wichtigkeit":10632,"wth":10633,"sichere":10634,"Growth":10635,"feeling":10636,"zipl":10637,"Vorredner":10638,"Far":10639,"ault":10640,"achievement":10641,"schneller":10642,"stabilität":10643,"rigor":10644,"geeignet":10645,"declared":10646,"Montenegro":10647,"erungen":10648,"End":10649,"regulated":10650,"Rußland":10651,"ibel":10652,"abend":10653,"Betrag":10654,"Vorstellung":10655,"hingegen":10656,"weilen":10657,"mobile":10658,"habt":10659,"commod":10660,"igert":10661,"wählen":10662,"Umfeld":10663,"lächen":10664,"Identität":10665,"einführen":10666,"wirtschaften":10667,"Zuw":10668,"Beratungen":10669,"inflation":10670,"bewerten":10671,"emphasised":10672,"charges":10673,"Anhörung":10674,"exec":10675,"Zucker":10676,"ECD":10677,"49":10678,"user":10679,"breit":10680,"powerful":10681,"founded":10682,"Mission":10683,"piece":10684,"Mult":10685,"dän":10686,"Wird":10687,"worthy":10688,"generell":10689,"categor":10690,"hindern":10691,"gemeinsamer":10692,"Georgien":10693,"beseitigen":10694,"cto":10695,"bemerken":10696,"umfasst":10697,"spflicht":10698,"oppose":10699,"savings":10700,"zun":10701,"Ergebnissen":10702,"ührt":10703,"recall":10704,"verbesser":10705,"zweck":10706,"Netze":10707,"demokratisch":10708,"Belgien":10709,"Clear":10710,"personen":10711,"Premierminister":10712,"prospect":10713,"whereas":10714,"erfordern":10715,"Jahrzehn":10716,"Arbeitszeit":10717,"proud":10718,"vorhin":10719,"unterbrochen":10720,"wenty":10721,".-":10722,"ätze":10723,"erwiesen":10724,"hole":10725,"zeichen":10726,"46":10727,"vergleich":10728,"ennen":10729,"liefer":10730,"Territor":10731,"Kompromiß":10732,"eindeutige":10733,"historical":10734,"Glauben":10735,"tie":10736,"tnam":10737,"erreich":10738,"effektiver":10739,"Zuständigkeiten":10740,"Aussage":10741,"Autonom":10742,"Macedon":10743,"regrettable":10744,"Assoc":10745,"Schutzes":10746,"Kinnock":10747,"clarity":10748,"manufacturers":10749,"43":10750,"Abbau":10751,"applicable":10752,"Augenblick":10753,"arise":10754,"effektive":10755,"Net":10756,"Energiepolitik":10757,"Verhandlung":10758,"stab":10759,"door":10760,"plural":10761,"Monti":10762,"Oper":10763,"Verbind":10764,"Erst":10765,"gelang":10766,"Dokumenten":10767,"doubts":10768,"Rural":10769,"osystem":10770,"channel":10771,"beunruh":10772,"jun":10773,"direkte":10774,"Finanzkrise":10775,"Follow":10776,"restricted":10777,"shaushalt":10778,"DR":10779,"Egypt":10780,"Grö":10781,"rechtzeitig":10782,"erlauben":10783,"hypo":10784,"Garantie":10785,"ames":10786,"weaken":10787,"Europar":10788,"Abschluß":10789,"konsequent":10790,"pended":10791,"contributed":10792,"Sommer":10793,"convention":10794,"ennung":10795,"controlled":10796,"Lateinamer":10797,"äumen":10798,"Authority":10799,"engage":10800,"III":10801,"undertakings":10802,"violation":10803,"hervorragende":10804,"graph":10805,"verdienen":10806,"entered":10807,"höchste":10808,"Hunder":10809,"crises":10810,"Schattenberichterstat":10811,"perform":10812,"Gestatten":10813,"erörtert":10814,"performance":10815,"Klau":10816,"Parliamentary":10817,"biggest":10818,"ermutigen":10819,"imagine":10820,"400":10821,"anwenden":10822,"Zugangs":10823,"Verfolg":10824,"Ausschüsse":10825,"south":10826,"Gewä":10827,"gebung":10828,"Polish":10829,"lobby":10830,"pharma":10831,"mother":10832,"legitimacy":10833,"unterbreitet":10834,"Grad":10835,"ücke":10836,"Produkten":10837,"applications":10838,"amtierender":10839,"Jugendlichen":10840,"Erkennt":10841,"encouraged":10842,"französische":10843,"Offenheit":10844,"überwachen":10845,"Ak":10846,"rating":10847,"indirect":10848,"Niederlanden":10849,"illustr":10850,"welchem":10851,"festlegen":10852,"Minderheit":10853,"gegenseitigen":10854,"oured":10855,"prene":10856,"cession":10857,"privile":10858,"Lohn":10859,"klären":10860,"praktische":10861,"iary":10862,"vorzunehmen":10863,"tariff":10864,"formuliert":10865,"Steuerzahler":10866,"precedent":10867,"Anträge":10868,"historischen":10869,"würdigen":10870,"Taten":10871,"kolle":10872,"Subst":10873,"uter":10874,"vorgehen":10875,"compon":10876,"Kamp":10877,"Sloven":10878,"Jahrhundert":10879,"Vision":10880,"Bosnien":10881,"CNS":10882,"beibehalten":10883,"etschen":10884,"processing":10885,"Mazedon":10886,"gebil":10887,"dynamic":10888,"ieller":10889,"article":10890,"competences":10891,"purch":10892,"stolz":10893,"verändert":10894,"reflected":10895,"unnecessary":10896,"replace":10897,"verstärkte":10898,"Häfen":10899,"Rassismus":10900,"ussen":10901,"triment":10902,"earth":10903,"Energiequellen":10904,"enhance":10905,"catch":10906,"enthaltenen":10907,"Hel":10908,"track":10909,"wohn":10910,"kannten":10911,"Stockholm":10912,"Cam":10913,"anger":10914,"constitutes":10915,"erörtern":10916,"Gelt":10917,"Oste":10918,"ws":10919,"negotiated":10920,"endgültige":10921,"Telekommun":10922,"Phän":10923,"removed":10924,"Abstimmungen":10925,"Lit":10926,"island":10927,"wies":10928,"Verteilung":10929,"Stimm":10930,"beschließen":10931,"Denmark":10932,"Gefangen":10933,"fortsetzen":10934,"cycling":10935,"Fortsetzung":10936,"vernünftig":10937,"Visa":10938,"Büro":10939,"firms":10940,"summer":10941,"Haushaltsplans":10942,"gerechtfertigt":10943,"Beobach":10944,"griechischen":10945,"laß":10946,"Schwar":10947,"ziellen":10948,"instrumente":10949,"Wirksamkeit":10950,"erscheinen":10951,"schools":10952,"iberal":10953,"irable":10954,"pense":10955,"Journalisten":10956,"detriment":10957,"gemä":10958,"Vielzahl":10959,"incorporated":10960,"gigen":10961,"uz":10962,"restor":10963,"Subsidiaritätsprinzip":10964,"ather":10965,"klärt":10966,"Morgen":10967,"supplementary":10968,"42":10969,"courts":10970,"regionaler":10971,"affecting":10972,"kleiner":10973,"Besteuerung":10974,"esten":10975,"resum":10976,"regelmäßig":10977,"punish":10978,"geeignete":10979,"Hersteller":10980,"Blair":10981,"85":10982,"aggress":10983,"succeeded":10984,"ids":10985,"akte":10986,"150":10987,"widerspie":10988,"Kohäsions":10989,"ergibt":10990,"Dänem":10991,"Dollar":10992,"mehrfach":10993,"bedauern":10994,"Mobil":10995,"höheren":10996,"obo":10997,"fuhren":10998,"familiar":10999,"fres":11000,"asi":11001,"marketing":11002,"sagten":11003,"Du":11004,"itarian":11005,"senken":11006,"wirtschaftung":11007,"examined":11008,"Ratsvorsitzes":11009,"auswärtige":11010,"quiry":11011,"Grundsätzen":11012,"Gipfeltreffen":11013,"ziplin":11014,"Association":11015,"swi":11016,"verändern":11017,"ception":11018,"Service":11019,"belief":11020,"religion":11021,"verzerr":11022,"Free":11023,"airlines":11024,"ming":11025,"targeted":11026,"Citizens":11027,"black":11028,"zukünftige":11029,"Aufgrund":11030,"basiert":11031,"vast":11032,"Aufen":11033,"persu":11034,"zusätzlich":11035,"icans":11036,"lla":11037,"Tourism":11038,"Civil":11039,"York":11040,"ckling":11041,"bestände":11042,"mechanismus":11043,"schuldig":11044,"ratifiziert":11045,"Bananen":11046,"owski":11047,"everybody":11048,"couple":11049,"eingeräumt":11050,"liefert":11051,"Baron":11052,"fairly":11053,"freiheiten":11054,"abschließend":11055,"stating":11056,"obtained":11057,"44":11058,"rund":11059,"entwicklung":11060,"contract":11061,"Halb":11062,"Begründung":11063,"verehrten":11064,"tzungen":11065,"wording":11066,"durchzusetzen":11067,"hence":11068,"representation":11069,"erkennt":11070,"surround":11071,"applicant":11072,"konzentriert":11073,"mussten":11074,"Huss":11075,"kal":11076,"zit":11077,"willkommen":11078,"sake":11079,"zugute":11080,"grenzüberschreitende":11081,"ober":11082,"zustande":11083,"besitzen":11084,"Einwanderer":11085,"allocation":11086,"ressourcen":11087,"definiert":11088,"mechanismen":11089,"akes":11090,"obligator":11091,"OECD":11092,"Tod":11093,"dor":11094,"stuff":11095,"disabled":11096,"reiterate":11097,"Air":11098,"drit":11099,"perio":11100,"subjects":11101,"reagiert":11102,"emor":11103,"Beziehung":11104,"intervene":11105,"ham":11106,"beweg":11107,"consequence":11108,"citizenship":11109,"onial":11110,"begeg":11111,"wien":11112,"vorbe":11113,"reserve":11114,"Stabilitätspakt":11115,".'":11116,"keinem":11117,"secret":11118,"Su":11119,"Süden":11120,"dienstleistungen":11121,"Versorgung":11122,"entreprene":11123,"Legislativ":11124,"Fassung":11125,"zweiter":11126,"gefährlich":11127,"Legitim":11128,"sought":11129,"ersetzen":11130,"thres":11131,"unab":11132,"Mittelmeerraum":11133,"utmost":11134,"bestimmen":11135,"Sicherung":11136,"ökologischen":11137,"explanation":11138,"eins":11139,"icals":11140,"Berichterstattern":11141,"Madrid":11142,"vereinbart":11143,"Like":11144,"turned":11145,"Heimatland":11146,"Konsultation":11147,"Zim":11148,"fem":11149,"eingerichtet":11150,"Marok":11151,"enorme":11152,"Mängel":11153,"gründen":11154,"Timor":11155,"Culture":11156,"Gra":11157,"site":11158,"Kranken":11159,"Industry":11160,"Vorgehensweise":11161,"Log":11162,"Mau":11163,"presenting":11164,"beantwortet":11165,"nungs":11166,"isses":11167,"deeply":11168,"Gerichtshofs":11169,"vorhandenen":11170,"discipl":11171,"smaller":11172,"excluded":11173,"gelingen":11174,"reservations":11175,"ek":11176,"übung":11177,"verwiesen":11178,"bestre":11179,"erneuerbaren":11180,"bedroht":11181,"Betroffen":11182,"Randlage":11183,"scrutin":11184,"sess":11185,"Fragest":11186,"bekräftigt":11187,"Rückkehr":11188,"erwähnten":11189,"afra":11190,"save":11191,"transf":11192,"Prävention":11193,"Gel":11194,"deserve":11195,"afraid":11196,"sensib":11197,"ahme":11198,"lasting":11199,"gefährden":11200,"Its":11201,"band":11202,"ls":11203,"Übertrag":11204,"beteiligten":11205,"sharing":11206,"estimated":11207,"konstruktive":11208,"bureaucratic":11209,"simplification":11210,"began":11211,"lieber":11212,"bry":11213,"prem":11214,"Kuba":11215,"erarbeitet":11216,"Terroristen":11217,"armen":11218,"berichten":11219,"Projekten":11220,"ifies":11221,"brid":11222,"electoral":11223,"Klimawandels":11224,"zahlungen":11225,"iversit":11226,"postpon":11227,"ght":11228,"Sehr":11229,"bereitet":11230,"Rind":11231,"leaving":11232,"incentives":11233,"baus":11234,"emb":11235,"anticip":11236,"sekretär":11237,"Del":11238,"Rechtsrahmen":11239,"scheinen":11240,"holen":11241,"treaties":11242,"restore":11243,"unterbreiten":11244,"creates":11245,"begrenzt":11246,"watch":11247,"welcomes":11248,"breiten":11249,"drafting":11250,"IL":11251,"soft":11252,"Herz":11253,"jointly":11254,"endgültigen":11255,"EGF":11256,"persönlichen":11257,"drängen":11258,"Hong":11259,"pleasure":11260,"negotiate":11261,"Milose":11262,"Fleisch":11263,"compl":11264,"tonnes":11265,"gesetzten":11266,"speriode":11267,"arten":11268,"arrest":11269,"Ausführung":11270,"charge":11271,"zicht":11272,"terin":11273,"äußerster":11274,"Kohär":11275,"mündlichen":11276,"nism":11277,"endung":11278,"periode":11279,"cert":11280,"Imp":11281,"Generation":11282,"Bir":11283,"verhe":11284,"fertigen":11285,"G20":11286,"zil":11287,"Slovakia":11288,"holds":11289,"radical":11290,"korrig":11291,"greenhouse":11292,"nismäß":11293,"Feststellung":11294,"lösung":11295,"Kohärenz":11296,"kriterien":11297,"gebiete":11298,"rant":11299,"erten":11300,"erheblichen":11301,"istern":11302,"zuzu":11303,"vornehmen":11304,"credible":11305,"Initiativ":11306,"wahrt":11307,"connected":11308,"suggestions":11309,"bilateralen":11310,"Zimbabwe":11311,"oting":11312,"Paris":11313,"Well":11314,"Fehl":11315,"macro":11316,"Fragestunde":11317,"viewed":11318,"financed":11319,"psych":11320,"Tieren":11321,"checks":11322,"atorium":11323,"buildings":11324,"ecutive":11325,"sogenannten":11326,"umgehen":11327,"Auseinander":11328,"statten":11329,"Spann":11330,"Eltern":11331,"fleet":11332,"gelegte":11333,"eitern":11334,"Management":11335,"vorliegt":11336,"importantly":11337,"äten":11338,"leit":11339,"outstanding":11340,"Grundlagen":11341,"terrible":11342,"Bestimmung":11343,"staats":11344,"surprised":11345,"Bureau":11346,"HIV":11347,"erteilt":11348,"einzelstaatlichen":11349,"bearing":11350,"zugelassen":11351,"abgegeben":11352,"Vietnam":11353,"Assoziierungs":11354,"Ausnahmen":11355,"TAC":11356,"desto":11357,"Entschließungen":11358,"zentralen":11359,"Gipfels":11360,"declarations":11361,"Morocco":11362,"Mazedonien":11363,"Ebenen":11364,"repeatedly":11365,"Cot":11366,"ünglich":11367,"Kommissare":11368,"blood":11369,"PA":11370,"preis":11371,"demokratischer":11372,"turning":11373,"europa":11374,"geein":11375,"wagen":11376,"secution":11377,"derog":11378,"Frat":11379,"Umwel":11380,"liegenden":11381,"respektiert":11382,"gefasst":11383,"raw":11384,"Leban":11385,"expressing":11386,"Betriebs":11387,"kest":11388,"tzte":11389,"scheidet":11390,"Amerika":11391,"Futter":11392,"Spr":11393,"diss":11394,"thir":11395,"unions":11396,"rely":11397,"bern":11398,"science":11399,"interessant":11400,"ersön":11401,"Kompetenzen":11402,"zugänglich":11403,"Slowakei":11404,"cha":11405,"posing":11406,"Tonnen":11407,"Taiwan":11408,".,":11409,"lern":11410,"attle":11411,"eyes":11412,"erhoben":11413,"leichter":11414,"Haiti":11415,"natürlichen":11416,"Nigeria":11417,"incident":11418,"consisten":11419,"settlement":11420,"pp":11421,"schlage":11422,"justify":11423,"fäl":11424,"Freedom":11425,"Kriegs":11426,"Gestaltung":11427,"beobachten":11428,"roads":11429,"Äußerungen":11430,"rum":11431,"placing":11432,"tige":11433,"showing":11434,"Titel":11435,"Erwer":11436,"Unterzeichnung":11437,"vernünftige":11438,"Sar":11439,"Amerikan":11440,"Obje":11441,"erarbeiten":11442,"nachdenken":11443,"exceptional":11444,"combined":11445,"comings":11446,"Gebrauch":11447,"bisherigen":11448,"Jugosla":11449,"iday":11450,"Eurostat":11451,"züge":11452,"einzubeziehen":11453,"Fü":11454,"reiz":11455,"puts":11456,"employers":11457,"healthcare":11458,"Drittel":11459,"Prüf":11460,"Papier":11461,"eken":11462,"Alkohol":11463,"organiz":11464,"erwähnte":11465,"Parlamentar":11466,"Laeken":11467,"redund":11468,"schwerwiegen":11469,"stände":11470,"Führer":11471,"Kompetenz":11472,"irische":11473,"erging":11474,"ländische":11475,"Atlantic":11476,"bevölkerung":11477,"Säu":11478,"Schrift":11479,"Finanzmittel":11480,"suspended":11481,"complaints":11482,"Following":11483,"GC":11484,"forcing":11485,"alling":11486,"bese":11487,"kinds":11488,"kontrolliert":11489,"ärmsten":11490,"Är":11491,"osition":11492,"reize":11493,"Zwar":11494,"vail":11495,"verfahrens":11496,"überras":11497,"revolution":11498,"schlimmer":11499,"2015":11500,"spolitiken":11501,"eliminate":11502,"imperial":11503,"geprä":11504,"delays":11505,"waff":11506,"unktions":11507,"hardly":11508,"Kopf":11509,"unemployed":11510,"versit":11511,"ifferen":11512,"konvention":11513,"aktiven":11514,"trend":11515,"realistisch":11516,"shortcomings":11517,"modell":11518,"Frattini":11519,"Tenden":11520,"pread":11521,"Sozialdemokraten":11522,"offene":11523,"nearly":11524,"flichten":11525,"swert":11526,"legte":11527,"reflects":11528,"Moldo":11529,"compla":11530,"fähigen":11531,"Christdemokraten":11532,"Macedonia":11533,"Dänemark":11534,"leb":11535,"stärksten":11536,"erinnere":11537,"broader":11538,"EVP":11539,"vacc":11540,"anc":11541,"frank":11542,"statist":11543,"höre":11544,"enthus":11545,"Investment":11546,"transactions":11547,"kett":11548,"motions":11549,"unabhängige":11550,"deadline":11551,"Chem":11552,"begünst":11553,"Arbeitsgruppe":11554,"Werbung":11555,"Luftfahrt":11556,"ähnliche":11557,"effizienter":11558,"witness":11559,"hilfre":11560,"Visum":11561,"expensive":11562,"Ursprungs":11563,"gebilligt":11564,"drafted":11565,"foundations":11566,"straight":11567,"längst":11568,"quota":11569,"revised":11570,"Islamic":11571,"Guine":11572,"iable":11573,"kontin":11574,"category":11575,"stipul":11576,"economically":11577,"candidates":11578,"forschung":11579,"fewer":11580,"direkten":11581,"funded":11582,"Univers":11583,"transatlantic":11584,"Bre":11585,"Lang":11586,"Ausbau":11587,"sau":11588,"Erinner":11589,"acio":11590,"Albania":11591,"beizutragen":11592,"stance":11593,"gefragt":11594,"Emissions":11595,"Flüchtlings":11596,"Yugoslavia":11597,"Material":11598,"Satz":11599,"tten":11600,"annes":11601,"ideal":11602,"Luftverkehrs":11603,"biodiversity":11604,"Inseln":11605,"racism":11606,"Schreiben":11607,"youth":11608,"gestaltet":11609,"liability":11610,"fühlen":11611,"underline":11612,"relate":11613,"Kulturen":11614,"ierend":11615,"Verlänger":11616,"Märkten":11617,"tribute":11618,"schwere":11619,"lles":11620,"Sah":11621,"Wat":11622,"betriebe":11623,"fertig":11624,"dieselben":11625,"Hussein":11626,"uchen":11627,"Ausnah":11628,"Automobil":11629,"explained":11630,"Brazil":11631,"jeop":11632,"ule":11633,"Dav":11634,"Barn":11635,"corpor":11636,"praktischen":11637,"Rome":11638,"ikas":11639,"educational":11640,"zig":11641,"shape":11642,"Ehre":11643,"Sam":11644,"destin":11645,"untersucht":11646,"Grundfreiheiten":11647,"oud":11648,"jan":11649,"Binnenmarkts":11650,"Hafen":11651,"periods":11652,"Wur":11653,"below":11654,"toug":11655,"verzeichnen":11656,"deutliche":11657,"aircraft":11658,"Haushaltsjahr":11659,"oftmals":11660,"Eth":11661,"ehrlich":11662,"ambigu":11663,"fresh":11664,"Ferr":11665,"Zun":11666,"liefern":11667,"intergovernmental":11668,"provider":11669,"contradict":11670,"67":11671,"vermitteln":11672,"änderungs":11673,"grundlegender":11674,"berechtigt":11675,"picture":11676,"wides":11677,"expense":11678,"Darfur":11679,"üge":11680,"abgeben":11681,"preparations":11682,"abolition":11683,"Bewegung":11684,"insofern":11685,"Wün":11686,"buy":11687,"bereichen":11688,"widespread":11689,"manche":11690,"cancer":11691,"ktoren":11692,"bedeutenden":11693,"Frontex":11694,"Sc":11695,"Universit":11696,"English":11697,"Bolkest":11698,"eintreten":11699,"gebühren":11700,"viously":11701,"methoden":11702,"kapaz":11703,"ordnungsgemäß":11704,"warmly":11705,"beendet":11706,"Eurozone":11707,"tatsächlichen":11708,"ethical":11709,"hochwert":11710,"satisfaction":11711,"covers":11712,"149":11713,"effiziente":11714,"Verkauf":11715,"mittlung":11716,"fan":11717,"raums":11718,"tang":11719,"procure":11720,"agno":11721,"innere":11722,"gewonnen":11723,"prevail":11724,"resulted":11725,"Generaldire":11726,"killed":11727,"sicheren":11728,"Deleg":11729,"Überarbeitung":11730,"Alters":11731,"penalties":11732,"führende":11733,"sports":11734,"hervorragenden":11735,"Fünf":11736,"roots":11737,"schedu":11738,"ckung":11739,"schläge":11740,"islam":11741,"passt":11742,"messen":11743,"isierte":11744,"überprüft":11745,"Bewer":11746,"warning":11747,"kreis":11748,"Guant":11749,"getrenn":11750,"broadcast":11751,"condemned":11752,"Zunahme":11753,"einhalten":11754,"freely":11755,"Unionsbürger":11756,"Bolkestein":11757,"lebr":11758,"gemessen":11759,"mittels":11760,"undermine":11761,"Betrugs":11762,"Super":11763,"EMU":11764,"tat":11765,"iced":11766,"larger":11767,"erforderliche":11768,"Bewält":11769,"ARE":11770,"Licht":11771,"Prop":11772,"sach":11773,"preserve":11774,"Vereinigte":11775,"Washing":11776,"kurze":11777,"juris":11778,"Washington":11779,"iteten":11780,"ecological":11781,"Frühjahr":11782,"Eti":11783,"Day":11784,"Ausnahmere":11785,"Flot":11786,"gyp":11787,"este":11788,"sites":11789,"minim":11790,"Rahmenprogramm":11791,"gegebenenfalls":11792,"Inneres":11793,"aren":11794,"läufig":11795,"gedacht":11796,"Swobo":11797,"serb":11798,"Besonders":11799,"Bewältigung":11800,"Hy":11801,"sin":11802,"iern":11803,"gehenden":11804,"Ratspräsidenten":11805,"Einwander":11806,"bewähr":11807,"gesichert":11808,"Finanziellen":11809,"railway":11810,"Michel":11811,"Kredit":11812,"Marokko":11813,"führenden":11814,"afrikanischen":11815,"steuern":11816,"Millennium":11817,"Wandel":11818,"41":11819,"tackling":11820,"untergr":11821,"Beschäftigten":11822,"grad":11823,"unfortunate":11824,"öffentlicher":11825,"twenty":11826,"army":11827,"gleichermaßen":11828,"Arbeitsbedingungen":11829,"katastrophen":11830,"wächen":11831,"sitzung":11832,"produkte":11833,"Intervention":11834,"Kraftfahr":11835,"Palestinians":11836,"transe":11837,"physical":11838,"Pakt":11839,"marine":11840,"losses":11841,"ausreichende":11842,"iot":11843,"gekenn":11844,"outset":11845,"lessons":11846,"regulate":11847,"erbare":11848,"Pflanzen":11849,"became":11850,"solch":11851,"üstung":11852,"adox":11853,"meld":11854,"Schulen":11855,"tzlich":11856,"Einschätzung":11857,"debatt":11858,"programmen":11859,"Gleichbehandlung":11860,"civilian":11861,"spolitische":11862,"Muslim":11863,"celebr":11864,"Unterdrück":11865,"verschmutzung":11866,"camp":11867,"bezahlen":11868,"spläne":11869,"pfl":11870,"Krie":11871,"musste":11872,"Treibhaus":11873,"pressive":11874,"Palacio":11875,"Rest":11876,"körper":11877,"inhalt":11878,"facto":11879,"chnungs":11880,"unzureichend":11881,"Verfolgung":11882,"92":11883,"anlagen":11884,"airports":11885,"klärung":11886,"scandal":11887,"ACH":11888,"erläutern":11889,"EWG":11890,"Swoboda":11891,"Tausende":11892,"mangel":11893,"Martin":11894,"promises":11895,"Werten":11896,"widely":11897,"dafrika":11898,"Clearly":11899,"ssern":11900,"Entwicklungszusammenarbeit":11901,"Director":11902,"gradually":11903,"enhanced":11904,"REACH":11905,"section":11906,"Schicks":11907,"rechnen":11908,"Generationen":11909,"occurred":11910,"heißen":11911,"Phänomen":11912,"Verlängerung":11913,"einher":11914,"neun":11915,"umzu":11916,"Ausland":11917,"ECHO":11918,"Erweiterungs":11919,"split":11920,"collaboration":11921,"Runde":11922,"sight":11923,"derjenigen":11924,"zuläss":11925,"erei":11926,"accompan":11927,"viable":11928,"Schweiz":11929,"causing":11930,"insufficient":11931,"Wechsel":11932,"herstellung":11933,"instre":11934,"ücken":11935,"Konkurr":11936,"coordinate":11937,"ursprünglich":11938,"47":11939,"senz":11940,"langfristigen":11941,"dur":11942,"anian":11943,"forese":11944,"kodex":11945,"terrorists":11946,"indicators":11947,"umweltfreund":11948,"ernsthafte":11949,"Barnier":11950,"marking":11951,"Brenn":11952,"shares":11953,"nisses":11954,"reported":11955,"entsteht":11956,"zusagen":11957,"übermitteln":11958,"pielt":11959,"Zwecke":11960,"sterben":11961,"mäßigen":11962,"Beschränkungen":11963,"hum":11964,"ney":11965,"Blut":11966,"Finanzen":11967,"persönliche":11968,"eingereichten":11969,"Lithuania":11970,"indicate":11971,"Gebäude":11972,"Auswahl":11973,"größter":11974,"Bot":11975,"Jun":11976,"bedenken":11977,"osex":11978,"reichende":11979,"projekte":11980,"Sicherheitsrat":11981,"declare":11982,"nonetheless":11983,"Anwendungsbereich":11984,"consul":11985,"Geneva":11986,"Landwirtschafts":11987,"Milosevic":11988,"Bill":11989,"ET":11990,"Missbrauch":11991,"remin":11992,"iring":11993,"proves":11994,"elderly":11995,"bomb":11996,"gipfel":11997,"corre":11998,"receiving":11999,"Tschetschen":12000,"Statistiken":12001,"sums":12002,"Jahresbericht":12003,"misch":12004,"agerung":12005,"asses":12006,"Brut":12007,"müßte":12008,"Rechen":12009,"regierungs":12010,"lad":12011,"uncertainty":12012,"shift":12013,"Verträgen":12014,"generations":12015,"populations":12016,"Präsidium":12017,"accompanied":12018,"transit":12019,"zenten":12020,"agrees":12021,"popular":12022,"Großteil":12023,"ghter":12024,"engaged":12025,"Organen":12026,"ausgewogenen":12027,"EEC":12028,"rising":12029,"arg":12030,"entail":12031,"teien":12032,"Werk":12033,"kro":12034,"yle":12035,"Freund":12036,"equival":12037,"suggestion":12038,"deaths":12039,"Indik":12040,"arising":12041,"dok":12042,"ignore":12043,"bevorstehenden":12044,"kamp":12045,"Parlamenten":12046,"Sovie":12047,"offering":12048,"blind":12049,"Vertrauens":12050,"extraordinary":12051,"observed":12052,"Konzentr":12053,"deutsche":12054,"handels":12055,"SIS":12056,"unilateral":12057,"Veränderung":12058,"Ann":12059,"langem":12060,"unanimous":12061,"mündliche":12062,"EM":12063,"Anreize":12064,"ansion":12065,"qualifications":12066,"finances":12067,"weakness":12068,"Cer":12069,"basically":12070,"promise":12071,"congratulations":12072,"Obviously":12073,"swift":12074,"Centre":12075,"sichtig":12076,"weitaus":12077,"unique":12078,"demonstrates":12079,"UC":12080,"hour":12081,"aufbauen":12082,"rient":12083,"beiträgt":12084,"junkt":12085,"Standpunkte":12086,"horr":12087,"kapital":12088,"Kürze":12089,"gewählten":12090,"procurement":12091,"beweisen":12092,"regardless":12093,"Flughäfen":12094,"Tragödie":12095,"existiert":12096,"territories":12097,"journalists":12098,"Baroness":12099,"knü":12100,"anhalten":12101,"zugreifen":12102,"students":12103,"listened":12104,"Canc":12105,"ande":12106,"Einfuhr":12107,"organise":12108,"attend":12109,"telecommunications":12110,"Joh":12111,"abel":12112,"verwir":12113,"fairen":12114,"begründet":12115,"Canada":12116,"undertake":12117,"ils":12118,"location":12119,"drivers":12120,"collection":12121,"miß":12122,"zutage":12123,"ausend":12124,"rechtfertigen":12125,"geleiste":12126,"comparison":12127,"iles":12128,"Anhang":12129,"einfache":12130,"folglich":12131,"Sind":12132,"ersetzt":12133,"quis":12134,"ausführlich":12135,"notice":12136,"porters":12137,"festen":12138,"56":12139,"ape":12140,"tenden":12141,"Außengrenzen":12142,"deterior":12143,"endeavour":12144,"geachtet":12145,"Ents":12146,"gegenseitige":12147,"Lateinamerika":12148,"Rindfleisch":12149,"hilfreich":12150,"inder":12151,"omé":12152,"abgesehen":12153,"aufer":12154,"gespielt":12155,"achtungs":12156,"prevented":12157,"defiz":12158,"Lasten":12159,"associations":12160,"widmen":12161,"frequently":12162,"accessible":12163,"vermieden":12164,"ipeline":12165,"kischen":12166,"chain":12167,"gesp":12168,"lock":12169,"öffnen":12170,"erzielten":12171,"Informationsgesellschaft":12172,"Soviet":12173,"staatlicher":12174,"elektronischen":12175,"dokument":12176,"Kernen":12177,"Lernen":12178,"Single":12179,"reise":12180,"Innen":12181,"Entschäd":12182,"Americans":12183,"Merc":12184,"arres":12185,"battle":12186,"Regard":12187,"Vertretung":12188,"route":12189,"herz":12190,"fence":12191,"Alles":12192,"Empf":12193,"Höchst":12194,"erweisen":12195,"appeared":12196,"enttäuscht":12197,"repräsent":12198,"umso":12199,"aufzubauen":12200,"gewisser":12201,"Suche":12202,"irregular":12203,"Still":12204,"supplies":12205,"ferenzen":12206,"necessity":12207,"coherence":12208,"birth":12209,"erneuerbare":12210,"IGC":12211,"wirksamen":12212,"male":12213,"promoted":12214,"spectives":12215,"behauptet":12216,"rechter":12217,"argu":12218,"ext":12219,"ernste":12220,"konstruktiven":12221,"nützlich":12222,"GVO":12223,"Verletzungen":12224,"Beurteilung":12225,"kehrt":12226,"Arbeitslosen":12227,"ähe":12228,"unterscheiden":12229,"norm":12230,"beantra":12231,"wof":12232,"parlamentarische":12233,"stuffs":12234,"semin":12235,"olf":12236,"angeboten":12237,"Fil":12238,"Bauern":12239,"bezeichnen":12240,"ingu":12241,"eröffnet":12242,"nobody":12243,"unterliegen":12244,"rechtlich":12245,"presentation":12246,"gehende":12247,"unerlässlich":12248,"heil":12249,"Declar":12250,"logical":12251,"Hauptz":12252,"Most":12253,"diction":12254,"bert":12255,"Zuge":12256,"Planung":12257,"Nachbarschaftspolitik":12258,"greif":12259,"schrittweise":12260,"Nonetheless":12261,"Kauf":12262,"ächt":12263,"bedür":12264,"forgot":12265,"Palästin":12266,"contacts":12267,"Führungs":12268,"uld":12269,"externen":12270,"kaufen":12271,"xen":12272,"fortgesetzt":12273,"beschäftigung":12274,"hosp":12275,"Diktatur":12276,"Vorwand":12277,"schränken":12278,"Dafürhalten":12279,"Cres":12280,"Wille":12281,"sending":12282,"’,":12283,"parents":12284,"Ergän":12285,"hoher":12286,"shame":12287,"disappear":12288,"organisierten":12289,"abstained":12290,"Verstö":12291,"plays":12292,"postal":12293,"Ägyp":12294,"inwie":12295,"directed":12296,"Armee":12297,"ikament":12298,"brechen":12299,"spring":12300,"Dat":12301,"selt":12302,"Lehr":12303,"beneficial":12304,"Subventionen":12305,"reinforce":12306,"Finnish":12307,"strike":12308,"informe":12309,"moun":12310,"geblieben":12311,"Wachstumspakt":12312,"ollen":12313,"moved":12314,"alternatives":12315,"Fähigkeiten":12316,"kompliziert":12317,"forests":12318,"angekündigt":12319,"Erinnerung":12320,"Anreiz":12321,"hierfür":12322,"Alternativen":12323,"sincerely":12324,"nut":12325,"string":12326,"beenden":12327,"Volkswirtschaften":12328,"beschleunigen":12329,"Fer":12330,"Mug":12331,"thalten":12332,"bewiesen":12333,"tox":12334,"erfolgreichen":12335,"struggle":12336,"Cast":12337,"Dass":12338,"Wissens":12339,"lasten":12340,"foster":12341,"talked":12342,"genauer":12343,"Verteidigungs":12344,"pell":12345,"vorschlägt":12346,"pursued":12347,"kritisiert":12348,"Konvents":12349,"informal":12350,"hebt":12351,"Ernen":12352,"Erika":12353,"operative":12354,"Schre":12355,"senten":12356,"erad":12357,"igence":12358,"zurzeit":12359,"shortly":12360,"Fakten":12361,"unan":12362,"abzielen":12363,"Cau":12364,"igare":12365,"laying":12366,"princip":12367,"northern":12368,"offenkund":12369,"Coton":12370,"verhandeln":12371,"assungen":12372,"Folter":12373,"verschiedener":12374,"Sollte":12375,"Evalu":12376,"stone":12377,"textile":12378,"Präsenz":12379,"divided":12380,"demographic":12381,"Generalsekretär":12382,"Kräften":12383,"Great":12384,"Kal":12385,"noise":12386,"harmonised":12387,"strafrecht":12388,"clarification":12389,"Hor":12390,"anst":12391,"zügig":12392,"revenue":12393,"verteilt":12394,"abstimmung":12395,"produkt":12396,"clearer":12397,"ausgearbeitet":12398,"Albanien":12399,"Cotonou":12400,"atte":12401,"relie":12402,"dez":12403,"ickt":12404,"trave":12405,"akis":12406,"division":12407,"drängt":12408,"Meinungen":12409,"Aussagen":12410,"Mercos":12411,"Declaration":12412,"erheben":12413,"mitzu":12414,"schutzes":12415,"Nichtregierungs":12416,"Moldova":12417,"ersuchen":12418,"kritisch":12419,"begangen":12420,"conventions":12421,"beihilfen":12422,"intoler":12423,"gesellschaftlichen":12424,"nahezu":12425,"gerichtshof":12426,"itts":12427,"schön":12428,"coni":12429,"mittlere":12430,"Opfern":12431,"anzig":12432,"timely":12433,"Betroffenen":12434,"Mercosur":12435,"artet":12436,"nachläss":12437,"Conserv":12438,"efficiently":12439,"beglückwünsche":12440,"GF":12441,"aufrechter":12442,"plä":12443,"einzugehen":12444,"falsche":12445,"korrekt":12446,"micro":12447,"Vorgän":12448,"drin":12449,"defining":12450,"außergewöhn":12451,"intelligent":12452,"Rechenschaft":12453,"Ple":12454,"onia":12455,"emerging":12456,"Inspe":12457,"ife":12458,"illance":12459,"einzuhalten":12460,"Städte":12461,"nine":12462,"verdeut":12463,"Verstär":12464,"selten":12465,"01":12466,"Finanzrahmen":12467,"congratulating":12468,"distinction":12469,"Pflichten":12470,"kol":12471,"keen":12472,"enlarged":12473,"Widerstand":12474,"geringer":12475,"vehicle":12476,"verfügbaren":12477,"consistency":12478,"stations":12479,"sympath":12480,"fäll":12481,"Darin":12482,"Gründung":12483,"blame":12484,"rejection":12485,"mmern":12486,"Block":12487,"approximately":12488,"dasselbe":12489,"mäßige":12490,"chemical":12491,"portugiesischen":12492,"cheap":12493,"setzungs":12494,"covering":12495,"torture":12496,"controversial":12497,"icated":12498,"Anlagen":12499,"Medikament":12500,"leitet":12501,"newsp":12502,"servativen":12503,"Straße":12504,"strukturen":12505,"items":12506,"verkauf":12507,"Tradition":12508,"einseit":12509,"Anpass":12510,"Ausübung":12511,"socio":12512,"respecting":12513,"Ank":12514,"Immun":12515,"refuse":12516,"exclusively":12517,"pressing":12518,"deration":12519,"davor":12520,"helpf":12521,"erfolgreiche":12522,"observation":12523,"ico":12524,"änen":12525,"strenge":12526,"Brasil":12527,"judgment":12528,"Entschließungsanträge":12529,"Untersuchungs":12530,"Chechn":12531,"stätigkeit":12532,"06":12533,"Pan":12534,"bewahren":12535,"liehen":12536,"glicher":12537,"enormen":12538,"choices":12539,"Jedoch":12540,"57":12541,"uc":12542,"Redezeit":12543,"alongside":12544,"hohem":12545,"reveal":12546,"Guinea":12547,"fourth":12548,"Fernsehen":12549,"Kernenergie":12550,"theor":12551,"läß":12552,"strictly":12553,"contam":12554,"Their":12555,"hierzu":12556,"wettbewerbsfähig":12557,"Lobby":12558,"1991":12559,"Gesprächen":12560,"Chechnya":12561,"beitreten":12562,"earn":12563,"Verfassungsvertrag":12564,"percentage":12565,"Tit":12566,"Leid":12567,"calcul":12568,"ehrter":12569,"Jean":12570,"consulted":12571,"Kanada":12572,"SL":12573,"auert":12574,"troops":12575,"Rechtssicherheit":12576,"wiederhole":12577,"einfacher":12578,"Solidaritäts":12579,"shock":12580,"Lö":12581,"verabschiede":12582,"Tunes":12583,"scept":12584,"disappointed":12585,"bekräftigen":12586,"Orient":12587,"Asien":12588,"dop":12589,"bewirken":12590,"Versprechen":12591,"Revolution":12592,"simplify":12593,"Jugoslawien":12594,"Statt":12595,"stützen":12596,"apparent":12597,"Angebot":12598,"Hol":12599,"knapp":12600,"zusammenzuarbeiten":12601,"vollständigen":12602,"organisiert":12603,"Statute":12604,"surveillance":12605,"Welthandelsorganisation":12606,"secur":12607,"führer":12608,"Risik":12609,"hohes":12610,"organisierte":12611,"Edu":12612,"exempt":12613,"helpful":12614,"arab":12615,"geograf":12616,"regimes":12617,"Beschwerden":12618,"historische":12619,"traditionellen":12620,"gründet":12621,"wunder":12622,"Marktwirtschaft":12623,"jährige":12624,"verpflichten":12625,"unanimity":12626,"israelischen":12627,"search":12628,"begun":12629,"looks":12630,"schnelle":12631,"defending":12632,"amerikanische":12633,"empt":12634,"noby":12635,"Geheim":12636,"qualities":12637,"desirable":12638,"Mitbürger":12639,"öffnung":12640,"Vermittlungs":12641,"born":12642,"Otherwise":12643,"ruling":12644,"commission":12645,"spanische":12646,"crops":12647,"Einnahmen":12648,"icherung":12649,"ELDR":12650,"beschluss":12651,"nament":12652,"erkannt":12653,"image":12654,"traditions":12655,"änge":12656,"maßgeb":12657,"answered":12658,"Dringlichkeit":12659,"hielt":12660,"Son":12661,"loans":12662,"Rahmenbedingungen":12663,"Verantwortlichen":12664,"Eigentums":12665,"conservation":12666,"perspectives":12667,"Studenten":12668,"nobyl":12669,"orte":12670,"polog":12671,"owner":12672,"preser":12673,"beschrieben":12674,"eigenes":12675,"distingu":12676,"modernen":12677,"Ernährungs":12678,"pled":12679,"Umstände":12680,"Zerstör":12681,"hrt":12682,"legislativen":12683,"Sitzungen":12684,"eds":12685,"Somit":12686,"verwaltung":12687,"TEN":12688,"threatened":12689,"woman":12690,"hazard":12691,"tap":12692,"ordnungsgemä":12693,"Bewusst":12694,"grü":12695,"angehören":12696,"Rahmens":12697,"Palästinenser":12698,"Reisen":12699,"reicher":12700,"systemen":12701,"acceptance":12702,"Zwei":12703,"occupation":12704,"invite":12705,"Profess":12706,"fam":12707,"Erfolge":12708,"philosoph":12709,"ites":12710,"strichen":12711,"disagree":12712,"Sozialpolitik":12713,"Palestine":12714,"Ostsee":12715,"Johannes":12716,"Two":12717,"replaced":12718,"Anwesenheit":12719,"eigentliche":12720,"maxim":12721,"Que":12722,"Spar":12723,"Herangehen":12724,"mant":12725,"anational":12726,"faire":12727,"Fluggesellschaften":12728,"tangible":12729,"Hilfen":12730,"UEN":12731,"inhabit":12732,"Freunde":12733,"campaigns":12734,"verringert":12735,"Year":12736,"plied":12737,"aufrecht":12738,"compete":12739,"wünschenswert":12740,"error":12741,"Erzeugung":12742,"missing":12743,"übr":12744,"gehabt":12745,"defe":12746,"luft":12747,"Poet":12748,"infe":12749,"aganda":12750,"Stück":12751,"fron":12752,"Zusammensetzung":12753,"langes":12754,"joining":12755,"vollem":12756,"Litauen":12757,"permitted":12758,"USD":12759,"ECO":12760,"reflection":12761,"beginnt":12762,"MEDA":12763,"Tschetschenien":12764,"trieb":12765,"Norden":12766,"pelt":12767,"emot":12768,"Angehör":12769,"Hinsichtlich":12770,"genetically":12771,"Schicksal":12772,"Cohes":12773,"lift":12774,"lifer":12775,"Vorder":12776,"integrierten":12777,"emission":12778,"Kommunikations":12779,"hoped":12780,"Bilanz":12781,"DC":12782,"gerechte":12783,"benefic":12784,"erklärte":12785,"Einzelheiten":12786,"Cohesion":12787,"enshr":12788,"western":12789,"yourself":12790,"prompt":12791,"reci":12792,"kräften":12793,"pursuant":12794,"hütung":12795,"verwirklichen":12796,"istischer":12797,"train":12798,"lacking":12799,"experiencing":12800,"migrants":12801,"itag":12802,"gefallen":12803,"zuverläss":12804,"Vorstellungen":12805,"Absichten":12806,"universit":12807,"Regulierungs":12808,"Pack":12809,"ethnischen":12810,"esischen":12811,"disput":12812,"confusion":12813,"Folglich":12814,"assessments":12815,"Unserer":12816,"mäh":12817,"kontinu":12818,"geplant":12819,"ams":12820,"outer":12821,"widmet":12822,"categories":12823,"Etikett":12824,"Verstärkung":12825,"PH":12826,"ulf":12827,"ankommen":12828,"refused":12829,"Schlußfolgerungen":12830,"durchschnitt":12831,"holung":12832,"Hochschul":12833,"Merk":12834,"genießen":12835,"raises":12836,"Defence":12837,"amtierende":12838,"ays":12839,"tsche":12840,"leid":12841,"avig":12842,"Leistung":12843,"Bewusstsein":12844,"Spen":12845,"ún":12846,"ctors":12847,"eventuell":12848,"Poettering":12849,"stammen":12850,"übersch":12851,"klarer":12852,"banking":12853,"Nachdem":12854,"Industriepolitik":12855,"beträchtliche":12856,"begegnen":12857,"iop":12858,"dele":12859,"Allow":12860,"Einwände":12861,"Fahrzeuge":12862,"tiefst":12863,"chinesischen":12864,"ersta":12865,"zutiefst":12866,"ausgeführt":12867,"ökonomische":12868,"wirft":12869,"farms":12870,"Kategorie":12871,"ala":12872,"notes":12873,"Einfluß":12874,"bildungs":12875,"Vorbehalte":12876,"Nichtregierungsorganisationen":12877,"petus":12878,"Luf":12879,"Ms":12880,"Your":12881,"gefühl":12882,"geklärt":12883,"discre":12884,"joined":12885,"technologische":12886,"wachsenden":12887,"Versorgungs":12888,"petition":12889,"1989":12890,"kümmern":12891,"Syn":12892,"fores":12893,"Ausrichtung":12894,"Ausfuhr":12895,"signing":12896,"personnel":12897,"gefährlichen":12898,"Beitrittsverhandlungen":12899,"hern":12900,"kter":12901,"freight":12902,"hinzuweisen":12903,"Jahrhunderts":12904,"resumed":12905,"forgotten":12906,"aufrechterhalten":12907,"Ren":12908,"adem":12909,"Mitwirkung":12910,"railways":12911,"lokale":12912,"seekers":12913,"Simbabwe":12914,"Mugabe":12915,"ansehen":12916,"remed":12917,"sell":12918,"lichkeits":12919,"Beim":12920,"gratuliere":12921,"Kontakte":12922,"imposing":12923,"reduziert":12924,"Direkt":12925,"victim":12926,"vorangegangenen":12927,"Liefer":12928,"Bevor":12929,"showed":12930,"sacr":12931,"schenken":12932,"kontrollen":12933,"Truppen":12934,"Posselt":12935,"erweitert":12936,"threshold":12937,"organizations":12938,"Gefängnis":12939,"junktur":12940,"51":12941,"impetus":12942,"traum":12943,"willigen":12944,"ideolog":12945,"consequently":12946,"Palästina":12947,"kontinuier":12948,"integrate":12949,"highlights":12950,"expansion":12951,"Fischereiabkommen":12952,"authorisation":12953,"housing":12954,"conven":12955,"Gemäß":12956,"north":12957,"auszuüben":12958,"acceler":12959,"lokaler":12960,"greifende":12961,"Education":12962,"apolog":12963,"cu":12964,"osmet":12965,"procedural":12966,"amtierenden":12967,"Similar":12968,"usually":12969,"hende":12970,"resource":12971,"sales":12972,"Eines":12973,"abilität":12974,"gemeinschaftliche":12975,"jüngste":12976,"Tom":12977,"ros":12978,"sphase":12979,"antly":12980,"zerstört":12981,"gekennzeichnet":12982,"Unterdrückung":12983,"lor":12984,"andt":12985,"secon":12986,"gather":12987,"technologie":12988,"stärkeren":12989,"Versicherungs":12990,"supr":12991,"contributing":12992,"ikanen":12993,"Tunisia":12994,"ophobia":12995,"dacht":12996,"lehen":12997,"fähige":12998,"dringlich":12999,"assem":13000,"iol":13001,"einnehmen":13002,"Unsicherheit":13003,"warded":13004,"interim":13005,"cutting":13006,"observers":13007,"ques":13008,"ibiot":13009,"pret":13010,"ometer":13011,"failing":13012,"eb":13013,"vit":13014,"“.":13015,"asion":13016,"secut":13017,"soever":13018,"gestaltung":13019,"Sitzungsperiode":13020,"Belastung":13021,"Kampagne":13022,"600":13023,"zumal":13024,"Landwirten":13025,"Religions":13026,"slightly":13027,"Sof":13028,"iat":13029,"gefährliche":13030,"Gemeinschaftsrecht":13031,"Hoheits":13032,"characteristics":13033,"supranational":13034,"Bü":13035,"Sri":13036,"gehandelt":13037,"hetor":13038,"preventive":13039,"observe":13040,"Euratom":13041,"Gewerkschaften":13042,"His":13043,"Lank":13044,"Mod":13045,"hoc":13046,"enkt":13047,"abzielt":13048,"losing":13049,"Entwicklungspolitik":13050,"aufgeworfen":13051,"keinesfalls":13052,"flows":13053,"rous":13054,"benutzt":13055,"drafts":13056,"unabding":13057,"Nichts":13058,"underlying":13059,"Stellungnahmen":13060,"Rubr":13061,"Konflikts":13062,"quantit":13063,"Regarding":13064,"verstoßen":13065,"Vorsorge":13066,"Sozialpartner":13067,"Saal":13068,"cance":13069,"ipher":13070,"systematic":13071,"examination":13072,"violent":13073,"diox":13074,"erstellt":13075,"feas":13076,"continuation":13077,"Bedürfnissen":13078,"tete":13079,"residence":13080,"provo":13081,"approaches":13082,"Überwachungs":13083,"Verzögerungen":13084,"Sens":13085,"ungeach":13086,"nell":13087,"Aufforderung":13088,"Wiederherstellung":13089,"jahres":13090,"dramatic":13091,"Umstrukturierung":13092,"ungeachtet":13093,"vorzuschlagen":13094,"Euror":13095,"verankert":13096,"kan":13097,"Dienststellen":13098,"Tatsachen":13099,"distributed":13100,"Klausel":13101,"zugeben":13102,"Steigerung":13103,"bewertet":13104,"collap":13105,"Jar":13106,"Europäisches":13107,"beider":13108,"Einkommens":13109,"anke":13110,"arbit":13111,"ohnehin":13112,"Vordergrund":13113,"Kurs":13114,"mord":13115,"aktiver":13116,"integrity":13117,"einfachen":13118,"cod":13119,"justification":13120,"representing":13121,"equivalent":13122,"prelim":13123,"handling":13124,"jährlichen":13125,"reformen":13126,"oliberal":13127,"notably":13128,"whatsoever":13129,"Nachmittag":13130,"Handlungen":13131,"kamen":13132,"Abfälle":13133,"Services":13134,"beeinflussen":13135,"Persön":13136,"Wed":13137,"aded":13138,"gs":13139,"jung":13140,"lez":13141,"konsult":13142,"restrictive":13143,"märkten":13144,"schuldigen":13145,"beurteilen":13146,"Please":13147,"tit":13148,"ambitions":13149,"accordingly":13150,"stic":13151,"netze":13152,"achievements":13153,"zunehmende":13154,"dispar":13155,"tionary":13156,"Lebensmitteln":13157,"destroyed":13158,"Liban":13159,"cat":13160,"banned":13161,"einzurichten":13162,"asmus":13163,"zwanzig":13164,"Infrastrukturen":13165,"vereinfachen":13166,"copy":13167,"Phil":13168,"Tor":13169,"rea":13170,"bemer":13171,"imported":13172,"managing":13173,"herauszu":13174,"subsequently":13175,"klarstellen":13176,"Tatsächlich":13177,"thousand":13178,"arians":13179,"cow":13180,"wozu":13181,"hinderten":13182,"eu":13183,"öten":13184,"allmäh":13185,"beitrag":13186,"verständigen":13187,"organisieren":13188,"vorrangig":13189,"chapter":13190,"Wednes":13191,"ki":13192,"adverse":13193,"Sozialdemokratischen":13194,"berufen":13195,"regularly":13196,"envisaged":13197,"Brasilien":13198,"satell":13199,"vorüber":13200,"preliminary":13201,"68":13202,"Ster":13203,"stages":13204,"transatlantischen":13205,"Behinderungen":13206,"exceptions":13207,"Lebanon":13208,"liferation":13209,"fires":13210,"uft":13211,"Solidarity":13212,"sparungen":13213,"ungefähr":13214,"coastal":13215,"scrutiny":13216,"wofür":13217,"prime":13218,"Montag":13219,"Meinungsäuß":13220,"angehörigen":13221,"foss":13222,"uber":13223,"unification":13224,"subsequent":13225,"twoch":13226,"participating":13227,"Zwangs":13228,"verknü":13229,"ölf":13230,"Armuts":13231,"advanced":13232,"dieselbe":13233,"neutral":13234,"Gefangenen":13235,"nische":13236,"reconciliation":13237,"konstitution":13238,"langer":13239,"Fischereise":13240,"Beitrittsk":13241,"Chairman":13242,"ario":13243,"Mittwoch":13244,"Minute":13245,"surrounding":13246,"outermost":13247,"verschaffen":13248,"ibly":13249,"accountability":13250,"contrast":13251,"Natura":13252,"ofinanz":13253,"Kind":13254,"definieren":13255,"infrastructures":13256,"delegations":13257,"analyse":13258,"sträger":13259,"Partnerschafts":13260,"eingeschränkt":13261,"beinhalten":13262,"Tar":13263,"streichen":13264,"werks":13265,"Wednesday":13266,"depl":13267,"dependence":13268,"icul":13269,"ysteme":13270,"empfehlen":13271,"bedeutend":13272,"offiziellen":13273,"Ägypten":13274,"Mag":13275,"movements":13276,"riterium":13277,"verursachen":13278,"stockung":13279,"Aufsichts":13280,"isations":13281,"stick":13282,"aria":13283,"begrüß":13284,"finanziell":13285,"schwieriger":13286,"chemicals":13287,"Strafgerichtshof":13288,"Taliban":13289,"Doppel":13290,"verteilung":13291,"gesto":13292,"Kons":13293,"ausgewogene":13294,"gewünscht":13295,"Ass":13296,"hundred":13297,"fifth":13298,"Ernennung":13299,"ermächt":13300,"orate":13301,"cultures":13302,"oldau":13303,"hilft":13304,"höchsten":13305,"Gebühren":13306,"Verbindungen":13307,"cuss":13308,"profound":13309,"exchanges":13310,"ommended":13311,"mandatory":13312,"concentration":13313,"Communist":13314,"resistance":13315,"mith":13316,"Konjunktur":13317,"negativ":13318,"italienische":13319,"assurance":13320,"pair":13321,"scen":13322,"Folgendes":13323,"Immunität":13324,"Jer":13325,"computer":13326,"functions":13327,"ohl":13328,"tau":13329,"era":13330,"anstreben":13331,"durchsetzen":13332,"sentence":13333,"Florenz":13334,"66":13335,"FO":13336,"tischen":13337,"unnöt":13338,"Anti":13339,"fixed":13340,"Rel":13341,"könne":13342,"Arbeitsweise":13343,"advocate":13344,"täglich":13345,"liste":13346,"ituation":13347,"Verg":13348,"balances":13349,"Projekts":13350,"jeweils":13351,"inhabitants":13352,"Veröffentlich":13353,"vorsitzen":13354,"Vorfeld":13355,"Bürgerrechte":13356,"völl":13357,"Democratic":13358,"stößt":13359,"disputes":13360,"iber":13361,"izing":13362,"gained":13363,"conviction":13364,"Objective":13365,"Gewin":13366,"Können":13367,"Diplom":13368,"marginal":13369,"Bewerber":13370,"universities":13371,"öte":13372,"ungerecht":13373,"gross":13374,"adequately":13375,"Nordic":13376,"Korre":13377,"providers":13378,"PHARE":13379,"ahnen":13380,"regierung":13381,"erleichtert":13382,"Mehrwertsteuer":13383,"drittens":13384,"umn":13385,"liked":13386,"strengen":13387,"gelung":13388,"anzugehen":13389,"Innovationen":13390,"Dim":13391,"Differen":13392,"inno":13393,"consent":13394,"Monday":13395,"anzupassen":13396,"neighbourhood":13397,"tolerance":13398,"Stunde":13399,"solved":13400,"pace":13401,"Iraqi":13402,"proportional":13403,"Gebur":13404,"statute":13405,"decreas":13406,"Übernahme":13407,"precau":13408,"Fernseh":13409,"Gesetzgebungs":13410,"mistakes":13411,"incorporate":13412,"geprägt":13413,"Dynam":13414,"Who":13415,"petr":13416,"install":13417,"iki":13418,"ändler":13419,"Finanzielle":13420,"eventually":13421,"bedaure":13422,"südlichen":13423,"Einschränkung":13424,"kommer":13425,"Gewährung":13426,"Wäl":13427,"sozusagen":13428,"tains":13429,"fuels":13430,"kred":13431,"agnen":13432,"Gleichwohl":13433,"infringement":13434,"C6":13435,"Crimin":13436,"Funktions":13437,"durchgesetzt":13438,"Kommissars":13439,"energie":13440,"zahlung":13441,"Tunesien":13442,"Annex":13443,"Fristen":13444,"perpetr":13445,"reductions":13446,"Libya":13447,"erfreu":13448,"etre":13449,"heads":13450,"gesundheits":13451,"counterfe":13452,"Vorsitzende":13453,"Ursache":13454,"diesbezüglichen":13455,"blic":13456,"dden":13457,"ügen":13458,"schi":13459,"soil":13460,"drive":13461,"porno":13462,"loben":13463,"Amb":13464,"erstellen":13465,"Mitte":13466,"wirksamer":13467,"schwemm":13468,"gelangt":13469,"experiences":13470,"safeguarding":13471,"Logik":13472,"Putin":13473,"bing":13474,"imine":13475,"Progress":13476,"manchen":13477,"Einstimm":13478,"monitored":13479,"Spannungen":13480,"verbieten":13481,"ueller":13482,"engine":13483,"regelungen":13484,"suggests":13485,"Weiterent":13486,"ignored":13487,"Birma":13488,"Watson":13489,"Dort":13490,"Ehe":13491,"Sem":13492,"aspe":13493,"interessen":13494,"Institute":13495,"makro":13496,"partei":13497,"altungen":13498,"eigentlichen":13499,"Danke":13500,"abuses":13501,"Naturkatastrophen":13502,"Syria":13503,"Kreb":13504,"weile":13505,"bett":13506,"ratify":13507,"Gemeinschaftsebene":13508,"visited":13509,"fears":13510,"christ":13511,"Written":13512,"vens":13513,"Annäher":13514,"solidierung":13515,"Steuerung":13516,"beantragt":13517,"Could":13518,"itably":13519,"eln":13520,"holfen":13521,"Fehlen":13522,"convince":13523,"Slowen":13524,"dereg":13525,"attached":13526,"humanity":13527,"organic":13528,"beherr":13529,"ökologische":13530,"inwieweit":13531,"ileg":13532,"older":13533,"unterstrichen":13534,"schlä":13535,"containing":13536,"bots":13537,"Sozialisten":13538,"Niemand":13539,"überrascht":13540,"08":13541,"Hence":13542,"Verhaltenskodex":13543,"Rechnungs":13544,"Ausge":13545,"Front":13546,"inside":13547,"Instrumenten":13548,"fails":13549,"vernünftigen":13550,"Beobachter":13551,"stringent":13552,"Acht":13553,"endums":13554,"Behaupt":13555,"Integrations":13556,"Alter":13557,"Zielsetzung":13558,"kampf":13559,"Zentrum":13560,"web":13561,"Ruhe":13562,"gestellte":13563,"ASEAN":13564,"Reden":13565,"Derzeit":13566,"Branche":13567,"compromises":13568,"schwedische":13569,"dahingehend":13570,"oni":13571,"lax":13572,"gäbe":13573,"phas":13574,"einzuleiten":13575,"Cancún":13576,"tur":13577,"rob":13578,"überlegen":13579,"standardis":13580,"models":13581,"pursuing":13582,"listening":13583,"Vir":13584,"lebenden":13585,"Wallström":13586,"Cre":13587,"stan":13588,"abroad":13589,"paradox":13590,"weitern":13591,"plat":13592,"predict":13593,"decentral":13594,"incentive":13595,"eröffnen":13596,"Jarz":13597,"Criminal":13598,"Mandel":13599,"anforderungen":13600,"lli":13601,"dernfalls":13602,"decent":13603,"vollziehen":13604,"Arbeitskräfte":13605,"accepting":13606,"furthermore":13607,"Durchführungs":13608,"Einzelnen":13609,"Säule":13610,"Treibhausgas":13611,"Certain":13612,"erweitern":13613,"Ausschüssen":13614,"investors":13615,"Haushaltsausschusses":13616,"concludes":13617,"bekanntlich":13618,"ignoriert":13619,"borne":13620,"Meinungsäußerung":13621,"Jarzemb":13622,"Ke":13623,"tenance":13624,"ceut":13625,"Insofern":13626,"signs":13627,"erweiterten":13628,"vigil":13629,"acknowledged":13630,"Ehr":13631,"Rap":13632,"annivers":13633,"Chile":13634,"Similarly":13635,"Law":13636,"load":13637,"Through":13638,"Zusammenhalts":13639,"offices":13640,"wholehear":13641,"wenigsten":13642,"haushalt":13643,"embargo":13644,"Körper":13645,"interne":13646,"hinein":13647,"Kohäsionsfonds":13648,"Shar":13649,"sted":13650,"iaries":13651,"Nordir":13652,"Verzögerung":13653,"jurisdiction":13654,"albeit":13655,"gekehrt":13656,"kannte":13657,"fundament":13658,"Extre":13659,"142":13660,"verstärkten":13661,"friedlichen":13662,"Ganzes":13663,"appelliere":13664,"belgischen":13665,"dänischen":13666,"cin":13667,"denied":13668,"iox":13669,"künst":13670,"projekt":13671,"friedliche":13672,"withdrawal":13673,"stakeholders":13674,"Mitentscheidung":13675,"Ev":13676,"Vo":13677,"Auslegung":13678,"technischer":13679,"Ecofin":13680,"anbieten":13681,"atmo":13682,"itze":13683,"Darlehen":13684,"instreaming":13685,"Weiterentwicklung":13686,"Kluft":13687,"kau":13688,"slau":13689,"actors":13690,"Besatz":13691,"heitlich":13692,"gebunden":13693,"gestiegen":13694,"backing":13695,"investigations":13696,"Fußball":13697,"km":13698,"durchgeführten":13699,"resolving":13700,"finanzieller":13701,"Freil":13702,"weltweite":13703,"spüren":13704,"catastrop":13705,"Rückgang":13706,"Weiterb":13707,"theoret":13708,"Libanon":13709,"bewe":13710,"util":13711,"stritten":13712,"Made":13713,"proven":13714,"humane":13715,"Wa":13716,"wages":13717,"forderte":13718,"distance":13719,"dangers":13720,"Corbett":13721,"cussions":13722,"Kab":13723,"Pla":13724,"geehrter":13725,"grass":13726,"hlung":13727,"Demokratisierung":13728,"Freitag":13729,"abzulehnen":13730,"expertise":13731,"sympathy":13732,"aufs":13733,"immunity":13734,"Fortschritts":13735,"criminals":13736,"refugee":13737,"Liberals":13738,"transeuropäischen":13739,"Jarzembowski":13740,"jah":13741,"findung":13742,"recover":13743,"foundation":13744,"fash":13745,"rasche":13746,"Religion":13747,"Kapazitäten":13748,"TACIS":13749,"58":13750,"conve":13751,"Ziels":13752,"planung":13753,"Gesetzgeber":13754,"Entschädigung":13755,"anniversary":13756,"Pfeiler":13757,"Unregelmäß":13758,"wäl":13759,"Energieversorgung":13760,"Youth":13761,"assets":13762,"93":13763,"stür":13764,"bewertung":13765,"programming":13766,"Lebensqualität":13767,"Israelis":13768,"Zerstörung":13769,"fashion":13770,"dauern":13771,"reaffir":13772,"depr":13773,"sudden":13774,"invited":13775,"Haushaltskontrolle":13776,"existieren":13777,"Flüchtlingen":13778,"gebildet":13779,"Lärm":13780,"auses":13781,"Weil":13782,"Regimes":13783,"visible":13784,"Werden":13785,"beruflichen":13786,"250":13787,"Satell":13788,"einschlä":13789,"termin":13790,"Lehren":13791,"folgerung":13792,"paragraphs":13793,"consolidation":13794,"genehmigt":13795,"nutz":13796,"ofu":13797,"bereitzustellen":13798,"sexuellen":13799,"Beihilfe":13800,"womit":13801,"Dynamik":13802,"Pir":13803,"sozio":13804,"prere":13805,"progressive":13806,"Textes":13807,"criterion":13808,"reibungs":13809,"ánam":13810,"auchen":13811,"manif":13812,"fortzusetzen":13813,"stream":13814,"names":13815,"Guantánam":13816,"bekämpft":13817,"Angol":13818,"igende":13819,"Scheitern":13820,"kürzt":13821,"festhalten":13822,"niederländischen":13823,"Kan":13824,"Sachen":13825,"rungen":13826,"iest":13827,
[...]
